[PAD]
[unused0]
[unused1]
[unused2]
[unused3]
[unused4]
[unused5]
[unused6]
[unused7]
[unused8]
[unused9]
[unused10]
[unused11]
[unused12]
[unused13]
[unused14]
[unused15]
[unused16]
[unused17]
[unused18]
[unused19]
[unused20]
[unused21]
[unused22]
[unused23]
[unused24]
[unused25]
[unused26]
[unused27]
[unused28]
[unused29]
[unused30]
[unused31]
[unused32]
[unused33]
[unused34]
[unused35]
[unused36]
[unused37]
[unused38]
[unused39]
[unused40]
[unused41]
[unused42]
[unused43]
[unused44]
[unused45]
[unused46]
[unused47]
[unused48]
[unused49]
[unused50]
[unused51]
[unused52]
[unused53]
[unused54]
[unused55]
[unused56]
[unused57]
[unused58]
[unused59]
[unused60]
[unused61]
[unused62]
[unused63]
[unused64]
[unused65]
[unused66]
[unused67]
[unused68]
[unused69]
[unused70]
[unused71]
[unused72]
[unused73]
[unused74]
[unused75]
[unused76]
[unused77]
[unused78]
[unused79]
[unused80]
[unused81]
[unused82]
[unused83]
[unused84]
[unused85]
[unused86]
[unused87]
[unused88]
[unused89]
[unused90]
[unused91]
[unused92]
[unused93]
[unused94]
[unused95]
[unused96]
[unused97]
[unused98]
[unused99]
[UNK]
[CLS]
[SEP]
[MASK]
##er
##en
d
##ch
##in
.
##ie
##un
##an
##st
##ei
,
##em
S
##on
##sch
##ein
der
##es
##al
##au
##te
##und
##ar
w
in
##ge
dem
A
s
D
1
##or
B
v
##ur
und
##it
##ich
"
die
b
M
##el
##at
ein
##ung
##as
z
K
##hr
G
-
E
##de
##ten
F
P
##ter
au
er
##gen
H
m
##isch
R
##ol
W
von
T
2
##is
##den
L
n
##ber
##am
f
an
##der
zu
19
##ach
N
V
J
##et
I
##il
##ist
)
(
##ig
##ier
den
##le
##lich
##and
h
##us
##eit
des
C
##ion
##re
20
St
ge
##ro
##ab
k
wur
##ür
##ck
mit
al
##ut
das
In
##ra
##um
##ent
Die
##ir
##om
Z
O
auf
##rei
ver
##ft
##ann
g
##ischen
be
##ahr
wurde
Sch
U
##kt
ist
:
##sen
als
##se
##ah
##ik
war
##ben
##iel
für
Ver
##ell
##ger
An
aus
##ff
l
sich
eine
sein
##ien
##ad
##eh
##wei
##icht
Jahr
o
bei
Er
##än
##sp
201
##scha
##ver
##ul
##men
##he
i
st
t
##est
##os
##rie
##eu
##ation
##ag
Au
##eil
##ün
un
##hn
##och
##über
##ern
##eich
##ru
18
Ge
##ot
nach
##ri
bis
200
##ing
Re
##urch
##ische
##ort
##ungen
auch
##ehr
über
##schaft
##ind
p
“
Sp
Al
##lie
„
##sten
Der
Ein
3
##ang
##etz
sie
Un
##ster
##ow
##eut
##ät
##ed
##op
##ör
##im
ab
##all
##ungs
Be
Ar
–
##igen
##ser
##ran
einer
##end
sch
unter
##og
/
##iv
durch
##la
##aus
##tel
j
##ler
##art
um
##är
##ert
##fen
##ic
##chen
##pp
##be
hat
wir
vor
##ste
##gel
##gt
Pro
En
Mit
ihr
wie
##cht
##pt
ent
##gr
##eutsch
wer
##hl
##nen
Nach
sp
Ab
nicht
einem
Das
##mer
werden
##rä
sind
##ige
##lichen
##iert
##ord
##oll
##hal
Ber
##tet
##itz
##elt
##ück
a
##ühr
##eiter
##stell
wird
##emein
199
##ember
##geb
4
##adt
Ma
##che
##ne
5
es
Aus
##her
##lin
##arb
Or
Gr
##det
##ud
##urg
einen
##od
##eben
##rit
##land
##tern
oder
##ges
##ahl
##iz
zwei
;
##wer
##orm
##ia
##uch
##ön
##00
##auf
wurden
##atz
##ap
##ass
##ohn
Se
##ner
##ill
Sie
Ch
##ierte
##ess
##uss
Land
##ähr
##zu
Mar
Auf
##ant
##ers
##liche
##id
##hen
##ak
dass
##rau
##reich
##ust
17
198
##ard
##zen
##pf
##ob
##ov
##ech
##äl
##alt
sow
6
Vor
##ken
de
##ßen
##fol
##bl
r
##ischer
Zeit
##gl
De
##of
##rat
197
##ok
##wa
Fl
Stadt
##att
##ick
##amm
Her
##äu
zw
##burg
##eg
##eits
##sel
Zu
##mal
##rich
7
8
##rach
Kon
##vers
##bau
##fl
##eiten
9
ander
##ts
##spiel
##ahn
196
194
##schl
Br
seiner
##me
gew
##üd
##ational
sowie
##anz
lie
##enn
Kl
mehr
15
re
Deutsch
##eister
##omm
nur
##ial
of
c
16
##annt
##ße
noch
##ast
##berg
geh
##sk
kon
seine
##dem
Jahre
Bei
##ild
##bt
weiter
##eine
##av
et
##tete
##sam
hatte
Pl
##zeit
##pl
Gemein
##ark
Fran
##ktion
##ften
##reis
##zeich
Reg
##qu
195
gegen
##teil
neu
##eb
##führ
193
##eter
##äch
best
so
Sa
##aben
deutsch
##ität
aber
bes
##enz
##üt
ber
##pr
Jo
The
Uni
##ian
##mann
Ro
dar
Unter
##ph
##ay
##dern
##ommen
##ßer
##ss
##utz
bef
##ium
##eim
##schie
##amen
##etzt
##fer
##bar
Geb
##öl
##io
##iger
Bau
##arl
waren
##ufen
##ug
##ieren
##äter
##ilm
Welt
##öff
eines
##aat
Es
##per
zwischen
##aupt
##nah
##ehen
##ha
##keit
wieder
##glie
##nis
##net
##ffen
##rü
Jahren
##iet
Kir
##ließ
So
e
##ieder
##rag
##änd
##ielt
##ierung
Univers
##rupp
##elle
*
##kl
dies
gen
##acht
da
##olog
Mus
12
##du
le
##if
Teil
seit
dieser
##hm
gr
Ges
##ale
##ater
Gesch
##sb
##ke
jed
Ne
##oren
Le
14
##lung
##orf
Spiel
gehör
##ze
##ce
##gte
all
Um
##gesch
drei
bet
##eist
10
192
Am
##eigen
13
Q
##hund
Jan
hin
##ine
Bl
0
##atur
Bo
##glich
##rieg
##ingen
##ron
##stand
##heit
##rieb
##fahr
##ober
Aug
später
##gerufen
##eld
Schl
##ähl
##ub
##assen
##ett
##ährend
##inn
##org
Jun
erh
##olit
Bund
##issen
##fall
##amt
##ym
Jahrhund
jedoch
##ichte
gro
##ekt
Ü
Schw
ersten
##orden
##ult
##schen
Th
##weise
##iss
man
erst
Gl
US
ausge
##ock
191
##uar
Ent
her
fol
Jul
en
##ald
##reu
Jahrhundert
konn
##oss
Ober
Gemeinde
Berlin
11
etwa
Ort
kl
##ehmen
Y
##vor
bek
El
Juni
Gro
dam
##ath
##mit
August
Mär
##eute
Von
##imm
##ks
##bst
##tt
##urop
##fe
Qu
##schaften
wo
##ition
ges
##olle
##wick
Ph
##ire
West
##omp
##arr
##ip
Wer
##anden
##unden
Mon
zur
Film
sel
##nung
Haupt
führ
##onder
Mai
Nov
##entr
beg
##ate
Als
Okt
Januar
##aten
##ac
Bundes
##amil
Chr
##entlich
zurück
##form
Juli
Oktober
seinem
##ös
März
gl
##stra
Mitglie
##ikan
soll
##ens
##haus
##ht
Über
##ans
##halten
Arb
##az
##iele
##ive
##amer
##dete
##ierten
Sept
seinen
##ellen
##meister
je
##ule
kann
##önig
Staat
##eid
##old
##ker
##hof
##stellt
ihn
Co
Dez
September
##igt
##eite
Stra
Neu
##ried
pro
Nord
Apr
##gend
##kte
Gen
##alen
##ander
April
Dezember
##len
##min
verb
##ison
##aut
liegt
November
##tschaft
##mus
diese
##zeu
##iff
##rad
##indet
##asser
##lage
##els
erfol
Bes
##grün
##gew
##igkeit
Ad
Pr
##ma
##stein
abgerufen
nah
##geben
##gemein
##äd
##zw
##eht
verl
##000
eigen
ihre
Ende
Te
Süd
geb
kön
##angen
##itel
Ger
Pf
Band
dort
Ö
Art
##our
La
Mann
##wohn
the
##als
Universität
’
##stadt
Verl
konnte
##auer
##br
eh
ihm
erste
##pro
##si
Verein
##sammen
zusammen
##man
##ott
##ou
##schieden
kam
##yn
Bet
Lu
heute
##off
##iker
190
Grund
König
##halb
##isten
ange
gel
Deutschland
##kehr
Für
For
##ost
Min
Feb
vier
##yst
Febru
Februar
eben
##ings
##ied
##inz
Ex
Part
##ül
Ant
##ogen
##abe
Mün
##unde
##licher
##spr
##satz
National
##ohl
Famil
##reck
verw
teil
##orn
dann
##hin
##zial
##abei
gleich
Leben
##öffentlich
##urz
haben
##irk
bereits
Hand
Me
##ont
##rift
##ossen
##ister
##bahn
Saison
##bert
##ren
†
ihrer
2011
##itt
##we
##ibt
##ragen
Vol
##inden
Seit
Frank
##raf
##werk
Vert
##ammen
##ct
25
##hne
2012
##iga
##ib
2010
##ity
Europ
Kin
##ere
2013
##istor
##walt
2015
30
anderen
##ball
##üs
##ina
Frau
##gang
Aut
einge
##ystem
##setz
2014
Verb
##ächst
Kirche
##unkt
##ys
##änder
ersch
##ement
Par
189
##yp
Men
Platz
##öst
##sw
während
##änger
##ruppe
##bild
ern
Stud
##cher
spiel
erhielt
##sterreich
##ubl
Durch
Ha
##unst
##heim
zun
Landes
##ationen
##mals
Zwei
##ond
##arbei
Mitglied
hier
##eln
##str
##ält
Ka
Diese
Man
##bach
Mal
Fried
Joh
##irtschaft
##ank
##öglich
and
##ionen
beiden
können
##zeichnet
Pol
##ternational
##asse
##urt
Reich
Eine
##falls
grö
2009
##dent
##äm
Namen
Bahn
ger
##stellung
New
##igung
Wei
##olf
##grund
##uß
2016
##echsel
##iere
##richt
diesem
besch
##issenschaft
##zer
##enk
km
wel
_
II
Ser
Da
Ju
##for
Johann
Mo
Ste
dessen
##fte
##fang
2008
000
##ite
##weg
gab
##na
süd
%
##ständ
##th
##ürger
letz
Dar
Cl
gibt
##zt
Hoch
##ienst
##age
21
##ruck
verschieden
##einen
2017
##prä
##ritt
##führt
Hö
##genden
##rieben
##deut
Rei
statt
##ies
Stand
Groß
##schn
##res
##annte
Ur
##arten
##erson
Zus
Grün
Frei
##amp
einz
erw
##ula
##zös
selbst
##lagen
wen
Ol
He
##ähn
Haus
Wil
frü
##ultur
Zw
ehem
2007
##urn
mus
##up
188
##elm
Eis
Ind
'
Med
fün
alle
22
##alien
##äng
##schule
##feld
##ons
begann
187
Nieder
Komm
24
##amerikan
Krieg
##ologie
Mittel
##ehn
##dorf
2018
##anis
##ho
Wasser
##äft
Fol
Auch
##ellschaft
##ore
##kreis
##ternehmen
gef
##inter
##schließ
##west
Christ
Musik
##ame
form
##ählt
##inger
Fahr
##uten
Einwohn
damit
##zie
##esen
ben
Ho
##stit
##are
##halt
##uf
IS
186
sehr
Hal
##egen
Fre
aller
##tre
##straße
bel
zunächst
Vers
23
Sohn
Titel
##oten
Kunst
Wa
##riff
##fü
##unter
im
##ong
##akt
##spieler
##sh
2006
##rom
##cken
##gebiet
Alb
##eitung
befindet
ehemal
deren
Prä
Geschichte
ihren
##krieg
keine
##oph
fran
##zahl
Gener
##aul
deutschen
##recht
##ange
bekannt
##kten
Dan
Ä
##tr
##isches
##ruppen
##alter
##ende
##ille
Schul
##zug
Wien
u
##essen
##ünst
##ius
stell
Form
gesch
##ände
Produ
viel
##gleich
##osten
##legen
weitere
Fuß
##ey
Arch
##mittel
##lex
26
Prof
##schluss
Fern
Beg
gewann
##äude
##achsen
Wahl
ex
##äß
Sh
##reg
Rom
##sitz
schw
##ieg
##ilit
##son
##reichen
Familie
##ismus
allem
Best
Bild
##gesetzt
Ham
##BN
##hein
französ
ch
##enden
Karl
28
##ations
bzw
##nahme
##aum
##rain
Person
aufge
amerikan
Mill
##verb
ISBN
gegrün
Phil
Lin
##rik
worden
Berg
ebenfalls
Recht
fünf
##weil
2005
##unt
Region
anderem
ur
Su
trat
Lehr
&
Fin
2019
Rück
engl
nahm
##ator
arbei
##hand
27
##sicht
All
Hol
sei
##kir
##urm
Zusammen
son
spielte
lang
Is
Em
##irekt
##punkt
##erst
##fas
veröffentlich
bil
##fach
##ue
Ost
was
##ack
##schlossen
##kon
##sche
##so
##ton
Met
##hol
Meister
Kap
##ums
##nahm
##oc
Dies
##iter
##ausen
##iven
abge
Schwei
Tod
##rot
##je
##iste
Friedrich
formula
##ätig
##kommen
Inter
neuen
##innen
Hein
Kreis
ohne
Gegen
185
##dings
Neben
##int
Sk
Unternehmen
Bas
##aden
denen
dabei
Kil
Sal
##zent
##dert
##deck
##lo
Tr
##sges
errich
##fin
##üb
Während
2004
erschien
184
gest
entst
##ommer
neue
##van
##ork
Verlag
##rech
##ipp
##emen
##raum
Buch
zahl
Bar
##eile
gehörte
##yl
Ra
Deutschen
##endet
Fest
##ruch
##buch
##annten
29
gemein
Polit
##ide
Kinder
##ats
Jahrhunderts
2000
stud
##arch
##eira
##ßerdem
Natur
##red
##legt
Lei
Bürger
Bi
##sät
##jahr
Stel
##ütz
##gung
##echs
##ek
##geh
##schied
##icher
##ucht
München
Di
Weiter
##wend
##mar
Menschen
erstmals
##lau
Peter
##ölker
Mag
##sst
jeweil
##dr
##ktur
##ampf
##genommen
##stitut
immer
Ob
##ift
At
##raft
##öch
##raph
X
##af
Sc
Seine
##ziel
ging
##chn
Flug
Mich
Sein
Meter
##sg
##adem
##ka
entwick
neben
##gabe
Ed
##wig
##fern
vers
schon
##äus
##ute
##eren
deutscher
##opp
ho
##ublik
gehört
31
##elte
##hard
Dorf
##iser
##ester
Bay
##ient
##helm
##alif
##co
Fr
wechsel
Burg
##one
##keiten
##riv
##bo
Mot
Prov
##dung
Rad
##schrift
Bereich
##ometer
##änge
erreich
darauf
##fahren
Anfang
wei
##jekt
Werk
##tag
seines
##ondere
Bü
rund
##ppen
Kr
Con
##ffiz
##ament
führte
##recke
schl
##sgesamt
##igte
mach
##fig
##ign
##igten
##oster
verm
Bel
einige
##schutz
1990
##iver
Seite
##hält
blie
Kirchen
zweiten
##ade
2003
##ischof
##racht
Partei
heut
##gestellt
sondern
##öm
arbeitete
##agen
Heim
##reiche
Einwohner
Fußball
2001
John
akt
Kar
polit
bezeichnet
##ymp
##sprach
##esse
com
##ice
##unktion
##ument
##für
1945
Sport
##gten
komm
Wilhelm
Tag
Gel
##urger
##osition
Komp
##unk
##treten
studierte
Gew
San
##sprün
fest
Bis
##inen
Stein
##sol
##euer
##lei
genannt
2002
Per
##einander
##nete
Ren
Arbeit
##pen
##ücke
Je
andere
größ
Alt
kurz
##äh
Österreich
##ender
##tragen
wegen
##utter
##schw
##zentr
General
Wohn
Erst
Sprach
ihrem
##äche
##gar
Weltkrieg
besteht
Dem
west
el
##klär
Mannschaft
erhalten
##örd
Entwick
Gruppe
##reuz
##gaben
Paul
##sport
dieses
##folge
##onnen
##uchte
verst
Str
Ru
##ließlich
Jugend
Volks
##platz
Kultur
##eigt
Tor
181
##ins
Will
183
steht
wenn
##gende
letzten
Zentr
gemeinsam
Gebiet
mehrere
nun
##part
grün
verk
großen
fand
##deten
Jahres
hatten
##bung
Hans
wicht
##stru
##ritten
##völker
Amt
Lebens
50
Lie
Schau
Betrieb
##alis
##nisse
##umen
Sitz
##auft
Herr
Mitte
for
Schiff
##eum
Rep
##gramm
##arm
##zog
Dis
##wirtschaft
##ochter
##teilung
##eiden
Ihr
allerdings
##öt
##bildung
##anst
Ak
Dort
##sbes
Kilometer
##ünstler
Sü
University
tätig
sollte
100
diesen
##ograph
Bru
##ichten
große
##nahmen
frei
Team
Nr
Verwalt
##athol
##ollen
inner
Gu
##iesen
##ilitär
Frauen
Insel
Gra
##assung
Mod
##ions
Kur
##ix
##essor
##da
hand
Folge
br
##ase
Jose
Kn
##iat
Dr
Forsch
gem
##uren
erfolgte
klein
Richt
##hle
Car
##anzen
sechs
Vater
##schließend
stark
international
##zogen
Mart
##schnitt
##gegen
##ügel
Kan
Pat
##seite
Hof
##steller
Im
gegründet
##obei
Eisen
Gebäude
Bern
##ps
Auft
wobei
Sommer
Franz
ne
##ry
##mäß
Ko
It
Tochter
##bet
##ve
deutsche
##zieh
1999
wechselte
Amer
Luft
##bte
heraus
Hil
Ben
York
And
##ica
##utt
##line
##rug
##zeug
Hier
##cker
##geord
Nachdem
Mor
##ichts
##utzt
Port
##baut
Zweiten
##zirk
##omin
##aren
##minister
Fernse
##ure
##rechen
Rhein
##aler
nörd
=
International
##yr
dazu
##alten
##ven
Tex
Rah
##erk
bede
##zel
Tour
Einsatz
Institut
Präsi
USA
Gott
##lungen
weit
##äten
1970
##sbesondere
Gesellschaft
Album
System
übernahm
voll
180
##anten
Fach
äl
##istischen
musste
##uth
Straße
Res
dah
Bevölker
blieb
Staats
Heinrich
viele
weiteren
##ief
40
vert
folgenden
1980
möglich
Stat
erreichte
schließlich
ww
##omit
Norden
##stellen
##bes
www
##äre
##hren
##anischen
stand
##furt
besonder
Kloster
##iges
ursprün
Rich
##indung
##österreich
##stoff
jeweils
182
##techn
Ern
Weltmeister
##führung
##immt
##wahl
##kirche
##ara
meist
##ika
##kr
##sweise
##teilt
##bereich
Ter
##ise
##lauf
Eng
Org
##derung
Lud
##ilt
Pa
Georg
Alter
On
Personen
Erz
##echn
Provinz
##schein
##häng
##zeichnung
1998
##ider
Bu
Zwischen
Sil
##östlich
Histor
brit
gewählt
##lang
Dre
welche
Wald
Lond
##fäl
##wert
##ichtet
Ehe
##lig
##ierungs
Landkreis
Rahmen
Sel
##ande
##ae
Köl
##iegel
##liga
##verein
geboren
##fluss
Dav
Tran
##itter
qu
##duz
verwendet
nieder
##opf
##kel
Besitz
##hausen
##ax
Prozent
##etzte
kein
Des
gelang
nord
Beispiel
London
##äss
##geschichte
##staat
hinter
##arz
##denten
##ael
##ors
Heil
##78
Schn
##heiten
Liter
Dabei
##neh
Fir
##eisten
##jähr
verschiedenen
##arbeiten
führt
##ca
##chte
Lauf
##eig
##rägt
##aff
##rop
##örper
##vent
Go
##eicht
erfolg
##arbeit
Techn
Wirtschaft
histor
##raun
##setzung
##ühl
insgesamt
Kant
Ass
##ehl
Olymp
oft
Mark
##atten
##arriere
Frankreich
Paris
Straßen
##eth
##schul
Den
entstand
##ochen
##emp
Süden
recht
on
##gebaut
##för
##vol
##dienst
früher
1960
aufgrund
dav
##see
ob
Höhe
##denk
Eigen
##ash
##wort
##ission
Pal
dien
Du
##äufig
##othe
##ünd
##ativ
1997
##reicht
##ammer
gilt
##ammlung
##erg
##ette
Wolf
##druck
##heits
1996
##ele
##herr
##zig
größer
errichtet
Wie
##fasst
Theater
Produktion
##sent
##eller
Kaiser
ganz
Hamburg
##neten
##ision
Liste
##scher
absol
Schm
1994
##ych
##vangel
##port
Schloss
##ski
##welt
##orie
erneut
##zlich
Orts
Schrift
##50
Osten
##ana
##folg
Dienst
##ört
it
##hö
insbesondere
Pla
Ludwig
##burger
##ari
##DR
Pap
Ele
Bro
finden
Carl
Zahl
Raum
Park
fl
##ko
Millionen
##lager
##ingt
##bel
dan
Dieser
Rolle
##film
Klein
schwer
##onn
##arbeiter
##schrei
1995
##zeitig
Regel
##üssel
##wand
Arbeits
##uchs
##eier
Alex
Grenz
##aur
Comp
Wür
1992
eingesetzt
Ku
Regierung
##iam
##ane
##schiff
Mutter
Do
##gemeinde
Entwicklung
reg
Max
Hr
Richtung
##ile
FC
Seiten
##omb
Archite
Män
stamm
##yd
konnten
Wieder
org
starb
Col
ober
]
gelegen
Tal
##ikt
stehen
Sol
[
ließ
ca
Rot
##ja
davon
##tler
Ul
##kur
##use
also
Thom
Name
1991
1993
##rid
fast
Hin
##vert
Westen
##fel
Sen
##allen
Michael
Heimat
Wor
##izin
##richtung
##ward
##ain
kommt
##wär
gegenüber
Beginn
entstanden
##wie
Außerdem
Kran
damals
##ical
##rachte
##stät
##eint
zog
##amb
Kat
Gold
1950
Schule
##licht
Vertrag
bew
Fil
##stieg
Kriegs
lei
Vier
##ese
##pfer
##esser
##werb
Kol
innerhalb
##ias
##altung
Pfarr
##rän
Hrsg
Professor
Ziel
Amts
jähr
##attung
fort
eigenen
##ome
Leip
##kan
##ai
Bahnhof
Winter
##emat
Frü
Graf
zehn
außer
See
##ley
meisten
Kont
To
Et
##stelle
##ograf
Cor
Stu
##scheid
Eur
Funktion
zweite
##achen
##ließen
##DF
War
179
ehemaligen
Web
##kenn
##radition
##ffiziel
Arme
##los
##mannschaft
üb
muss
Gesamt
Hann
Dam
Spieler
Denk
acht
kathol
sol
1989
##cke
##steil
##iment
##gef
heutigen
star
Kreuz
Tri
##ish
##rist
gesam
##isse
##ikel
Vorsitz
Markt
##berger
##ennt
##weiter
Kü
Kommun
Bad
Gast
Bischof
groß
Deutsche
##verkehr
mo
##les
##ment
##20
nahe
Syn
Stift
Ott
Po
##riften
veröffentlicht
Rel
Halb
findet
##schlag
##ames
##uer
Inform
unterschied
Rest
wür
##ücken
##ären
Martin
Einzel
entsp
Literatur
Gem
Bedeut
verfü
##ademie
##akter
Feld
Har
##ymn
##rainer
zeit
##jet
folgte
darunter
htt
sogen
deut
##teten
##ling
Bruder
Wal
Geschäft
Preis
##grenz
Beh
absolv
##sburg
allen
verh
Führ
Serie
to
Europa
Holz
##länd
##iken
offen
sieben
em
besitz
pol
##etten
Fall
erwähn
##unft
Staaten
##aufen
national
sowohl
Don
Tre
Weg
Künstler
Studium
Leist
Akt
##onen
##chten
Fer
##unkte
##ständig
beispiel
Verwaltungs
##alität
zahlreiche
Hen
##üter
##verband
angeb
##zess
Familien
Geh
##ole
kommen
Zeitung
##okrat
min
bisher
##ässt
##räger
##ordnung
Count
lin
pl
Bevölkerung
habe
##yt
##ata
Sied
weil
Maria
englisch
Sozial
##gruppe
##fest
##was
##schau
ähn
##ars
Spe
##nungen
##rim
##ummer
##schaffen
##dig
unterst
60
Che
##zü
hinaus
Städ
Eben
Plan
##leben
leben
##lungs
Thomas
Militär
verschiedene
häufig
Russ
##fert
Fort
Kor
Mil
danach
damal
öff
##orben
österreich
Af
1988
lange
Robert
rel
##gangen
##wagen
We
##spiele
ind
Bedeutung
##ettbe
beispielsweise
besonders
##folger
##istische
Museum
Fluss
##sych
##ham
##eiger
spe
##rotz
Gemeinden
##bei
la
##ustrie
##ches
gut
##ith
Köln
mittel
Italien
##abel
##gesetz
alten
##bten
##apan
##immen
Il
Char
##wehr
##aß
##arlament
höch
Spr
##glichen
##ächlich
##issenschaften
Comm
Sing
##eis
besuchte
##bli
Rechts
##lehr
Karriere
beteil
Div
doch
Ang
lag
bestehen
erm
Grab
?
##alb
Abgerufen
Mitglieder
eröff
##wohl
##over
geht
bestand
35
französischen
##dens
offiziel
Turn
Berliner
Schutz
Sieg
##oge
##ymnas
##abhäng
zudem
Typ
##gest
Schweiz
##ikation
bevor
verlie
##zept
##setzt
##büt
Gesetz
Frankfurt
Ap
##ino
##üssen
Nor
##wald
Verkehr
Fra
teilweise
##läu
Hinter
Ta
Organis
Fernseh
Gef
##fahrt
##rieges
DDR
##entlichen
schn
Liga
kehr
Bed
##bruch
italien
##osoph
##ull
übern
##mäßig
Stutt
##zir
1987
Ac
Arten
zeigt
##iew
ro
Schweizer
##aterial
schrieb
Mos
##iens
Pe
Os
Nä
Minister
hoch
##wasser
stellte
1933
Gest
##ution
zuvor
##liches
##ache
Drei
Kurz
##okal
röm
##äischen
sehen
##endete
Rund
##ume
32
##ema
Gi
Krit
##ächen
lassen
##irektor
##kunft
setzte
##rakt
##azz
befinden
gehören
1972
##iqu
Ergeb
##ose
Bil
erfolgreich
##orge
inter
Reihe
##ändern
##ada
Daten
##weis
Programm
einzel
machte
##ama
##geber
Herzog
##ime
##ary
##wendung
##geführt
Christian
##met
##fläche
Oper
Mer
Air
##reuß
##ritte
Armee
##äuser
##such
Lang
Projekt
ant
##own
III
Tür
Motor
Saint
daher
kur
##ieten
Gut
As
##yer
178
Erfolg
##rigen
##uk
1986
##omen
Schauspieler
##isiert
##gart
Andre
Roman
Leipzig
aufgenommen
größten
wahr
Strecke
##med
##schafts
Boden
Begriff
Mehr
##enzen
##gesehen
ph
Bur
##westen
Kal
Pfl
Danach
##eiratet
William
Politiker
##ool
Beruf
##etter
##zeuge
##gericht
##mb
##ets
wissenschaft
russ
amerikanischen
Erd
##stu
kleinen
Lau
##iden
Lo
ihnen
County
gründete
978
##ital
etwas
##stag
Ortsteil
End
hervor
##stens
Poliz
Song
genutzt
##pe
Priv
##ative
##spro
1985
eigene
##gress
1984
kamen
Spitz
##üler
##unn
einigen
##weit
##ict
Ep
##komm
##ood
##führer
Frie
##anc
erg
##itäten
##erei
##adurch
or
Nachfolger
##iner
1974
Gleich
handelt
kleine
##eder
##ld
produz
Wein
Journ
Johannes
##low
Hel
##ox
sog
##lav
##blem
beide
##denburg
Jur
gleichen
##lt
Ersten
##änden
PDF
##scheiden
##lichkeit
80
Joseph
di
veröffentlichte
Innen
erreicht
Wissenschaft
##zehn
nachdem
wes
1920
entfern
##fan
Ernst
Präsident
ar
sozial
##hang
##beh
!
##ague
1939
1978
##bliothe
bedeuten
CD
##itten
Post
1975
ursprünglich
Charl
33
1930
##aille
##gehend
deutlich
Chem
Außen
##eiß
1968
##wiegend
zusät
Ton
Studien
Main
##äs
Werke
Rang
vielen
Bereits
1982
Ag
direkt
##deckt
##produ
absolvierte
##wegung
##anstalt
erklär
somit
##gehen
Dres
##ines
1983
Stelle
Kampf
regel
Anton
36
Gruppen
Dreh
Klasse
Freund
prä
##strecke
Sachsen
Journal
##ance
Gre
Volk
45
##bü
Wert
##orth
Druck
schloss
##ene
##ake
##reise
##zy
Eisenbahn
##gem
Not
verbunden
##andid
Schwer
Bö
##ymnasium
Li
bed
##wesen
##räge
zwar
##haft
##förm
Reichs
näch
##fred
##mot
erf
letzte
##ford
1938
##ützt
##tlich
##ros
exist
Gar
##igh
##oppel
##ützen
erziel
##eiratete
Stuttgart
Bach
hö
lässt
Nähe
Pass
1979
ernannt
##fried
##ennen
europ
Parlament
##get
Sicher
##ight
einfach
##altet
erwähnt
Mitarbeiter
liegen
Spielen
Stil
südlich
Com
außerdem
is
##omat
##eitet
##mo
mehreren
##ffe
##alz
Staff
34
Kind
cm
Stamm
##haupt
Verm
1969
Hor
Lou
##ersön
1976
1973
Wir
zerst
get
mittler
1981
Truppen
##lecht
##sehen
Colle
Rud
League
Euro
http
Bor
##ktor
Dist
##test
##urs
##lingen
1971
##reibt
zähl
Artikel
##emberg
England
Linie
##best
Dom
Ba
##schaf
##umb
erster
Gö
##ink
##ktionen
##bezirk
Mont
##ager
##gebäude
##nam
Sprache
##frei
siehe
##igin
fin
Kraft
welt
dafür
##werke
1940
90
Sim
##ockey
##stellungen
Otto
##serv
##ican
Sand
70
Leiter
1944
unbe
kehrte
David
Nachbar
Far
##obil
##ote
##reifen
stellt
nördlich
Bayern
Mc
Bezeichnung
Turm
elekt
Autor
Sam
anschließend
Masch
moder
Ir
wenig
##inner
##itu
##achten
neun
##kret
##handen
##illa
City
woll
##system
Einwohnern
gewesen
##schließlich
Mel
Ehren
##älfte
##wissenschaft
selten
per
##xik
##park
##agement
Bot
##ildet
##istik
Salz
weniger
Vereinigten
##schuss
##asen
##okument
einmal
Vo
##udem
Selbst
##ders
Soc
##volution
Spiele
##kannt
AG
##iller
##anien
##mitglie
Rat
##zi
Sold
##mbH
##ameister
Hei
Tro
1977
Wind
at
Bürgermeister
##kund
##forsch
Bank
##iziert
##iten
##öhn
Text
Zug
Zudem
##spielen
##ola
Kom
##elten
Position
wohl
##antwort
##par
Ausbildung
stammt
welches
Gründung
Ihre
selben
##verl
1967
##arf
Richard
Schüler
##kauf
##ikal
##ted
##win
##ologischen
##spl
Zeich
verheiratet
höher
Zür
Bran
##erner
Mad
denn
##ival
mm
##äuft
se
Elekt
##äußer
Eing
Del
##ington
##tin
##anken
1946
##ätze
Chor
##ppe
Rock
##abrik
folgende
Verbindung
Intern
Geschäfts
du
##ült
##ösung
dritten
entwickelte
heiratete
##reiben
##ettbewerb
Tra
##sa
Abgeord
GmbH
##partement
##uchen
SP
ihres
gebaut
Kanton
Schlacht
Hau
38
För
##utet
Tur
500
##cl
Verband
Fel
##gebung
umfasst
##recken
##gesellschaft
1965
Val
Hannover
1966
##ront
Weitere
1964
##sozial
##ois
##ena
Bron
##ante
Ged
Landtag
##uter
##anlage
bestimm
##iers
Wirk
##nehmer
Verf
##üsse
##imeter
Möglich
diente
##di
Energ
Untersuch
vorhanden
bildet
Brit
Konz
Olympischen
##ike
Sin
##ühle
Tim
##riech
##atte
Denkmal
##ämpf
Feuer
##ric
##igkeiten
eng
Dieses
##des
Rein
##linie
Teile
Grö
Bus
##iete
Ach
Pil
##schech
##mel
##ächs
Sow
##ona
##way
##hei
Vertre
##lern
Damit
##emer
bau
Tage
##orte
jüd
Stadtteil
##fra
zul
##sberg
Wochen
befand
##swahl
Viz
Wiener
amerikanischer
##ließt
Akademie
will
##schriften
##stat
poln
1963
##angs
nie
##oper
##ession
Regen
Jazz
Rennen
##weisen
Hermann
end
blei
Tab
1961
Auflage
Philipp
Math
##ätigkeit
Les
wichtig
##ttemberg
älter
##ängen
##stück
Dé
Arm
World
##leist
Baden
gez
Pet
Fig
Austr
Orgel
Regierungs
##westlich
Arbeiten
spielt
Pop
##blatt
##akte
Länder
benannt
hohen
Alle
Zuge
##pfen
##echt
Körper
##rang
Silber
##tum
##rief
Politik
##ini
##strahl
##ces
Flor
fiel
##grö
aktiv
##napp
##flug
Super
beleg
##ierenden
##frau
##wind
Var
Dat
ehemalige
bekannte
Blü
##ateg
damaligen
Herren
##pa
haupt
##rauch
Forschungs
Uhr
stammen
Mül
##wegen
ebenso
1956
Leitung
Alexander
##anger
177
‘
##ios
##ruktur
Meer
Unterst
Hälfte
##reten
##uhr
..
...
##bliothek
1962
##ierungen
britischen
besitzt
verz
Später
Japan
##wart
Hu
Division
sogar
finanz
klass
Länge
##kap
beschäft
##ics
Zentrum
NS
Anschließend
Firma
1952
##any
##nehmen
Sant
entwickelt
##baren
##lass
##ville
gesp
Finanz
##gelöst
##iums
Zeitschrift
französische
land
Club
jün
Modell
Mat
Geld
Pri
##acher
##hafen
##wor
##aters
Nutz
Walter
1948
Republik
37
##gegeben
älte
Lied
##eck
##urf
bilden
Ritter
##ima
1949
Lö
Herrschaft
##schloss
##oben
Sänger
1941
##ächt
##lands
##bauten
Kern
Prinz
Cal
Abschluss
Dach
äußer
Fot
##betrieb
versch
##bare
Zust
Beit
##lassen
Version
Ide
Eltern
Hilfe
##reußen
##zentrum
##hältnis
Männer
Kirch
Grenze
##ano
##utlich
##etzung
Philosoph
beträgt
Braun
##präsent
Netz
##beck
einzige
Start
##voll
American
##mark
Mu
##agt
Award
##ago
hät
##fasste
Auftrag
##zirks
Medien
44
Kauf
My
1958
Früh
Albert
##oth
allgemein
##trag
techn
Rec
späteren
42
Brand
erschienen
1959
ung
ausgezeichnet
##ologische
Finale
Gymnasium
##ätter
Hit
##namen
##by
##zeichen
müssen
Besuch
Polizei
Privat
frühen
Aufgrund
##view
Aust
Prem
Wort
39
##forder
Red
politischen
Kopf
Trainer
##kran
größte
komp
##fung
Pflanzen
gepl
1918
##ouver
##emper
1942
##hau
verein
Anschluss
##ietet
##aw
##uel
##ertig
##scht
Bundesstaat
prom
Arn
1943
176
##immer
Lehrer
##reite
##sdorf
Bla
##verwalt
zentr
##ielten
ledig
erweiter
##isk
Top
Fen
##isierung
Ca
Stad
weiterhin
##stellte
1957
evangel
Angel
Wolfgang
Press
Wider
Friedhof
##ico
##emann
##finale
##II
##va
1955
##erne
Inn
Ball
lediglich
##dien
##insel
Meisterschaft
entfernt
Bal
Doll
41
Staffel
##irg
Wall
Dresden
Stück
##zähl
##ace
Düssel
##mund
##zwischen
##richten
östlich
Veröffentlich
##ots
Rh
##krä
##din
Bestand
Hall
Verfü
Kron
##wür
Wh
Medizin
Bezirk
##fäh
Nik
##ierter
Online
##30
Vereins
fanden
Industrie
1934
verbrei
Basis
##usst
Problem
Union
##arn
bas
Brun
James
Gattung
##ieß
internationalen
1953
Vorsitzender
Brü
##cy
##gerichtet
Jean
##sächlich
Psych
Roy
48
##hte
organis
westlich
##alog
##itte
##eta
Han
##olden
1947
Lage
Polen
Cup
alt
Fo
Matt
Pra
Alten
1954
Département
promov
entspr
##ón
Fal
Kranken
##gänger
Rau
entsprechen
Königreich
##tens
enthält
brachte
Öff
##keits
Fläche
priv
##kraft
Wol
##bil
machen
Josef
##bischof
##sph
erreichen
Doppel
##kunde
beteiligt
Runde
##präsi
1919
verlor
##za
Allgemein
##tegr
##asil
erzielte
Origin
##omot
kom
Sub
Bezieh
Stiftung
Test
Lager
##spruch
gefunden
No
1936
eher
Licht
Hochschule
geschlossen
##schei
Ros
Aben
##hung
Heute
##onie
##geschoss
##bed
Exp
##ney
##last
College
wirtschaft
Westf
not
##immung
Sonder
Qualif
Maß
George
aktu
geprä
##anne
##han
Vertreter
Niederl
Nacht
Zürich
Tages
belegte
##zeugen
verloren
##rhein
##lehn
##arts
zuletzt
##unkten
Einfluss
zahlreichen
##sl
##ya
Op
Europameister
Baum
empf
##ory
Wehr
Rö
Zeitpunkt
##ichter
ir
Jac
hohe
Direktor
zweit
1937
Ausgabe
Schriftsteller
wollte
##ction
ersetzt
1935
Papst
führen
##ular
##ahnen
Publik
par
##haber
##atein
Bud
Kateg
##jekte
##law
Szen
##ij
150
##rep
sicher
##rechend
##10
##40
##preis
könn
krit
##ölf
Soldaten
Wes
sollen
##ocken
schnell
##erischen
leicht
##kor
1951
1914
hauptsächlich
##bro
Güter
Unterstütz
##fre
##schreibung
##scheinlich
Jer
Can
##selben
alte
Schwe
##derte
##runde
##etzen
Material
Miss
Son
Lü
##fiel
Just
175
Lok
##serie
Tier
knapp
Steuer
##schwei
##bol
##merk
°
Sym
Norm
Leg
##polit
sollten
»
Engl
##wir
Verfügung
jeder
Herz
##igungs
Louis
##stätte
Aller
Punkt
##gelegt
##ala
Wagen
Heid
##innt
##arbeitet
65
##wirk
##vo
+
Württemberg
##rika
Temp
##denkmal
stieg
##chester
##asp
bald
App
##ösen
##anische
River
1900
##hör
Gegensatz
«
nächsten
Metern
##ikanischen
wenige
##act
Zent
School
Gran
##rolle
##uck
hielt
China
##ella
Anlage
##oche
übernommen
##aliforn
##reisen
eröffnet
##umm
43
Ast
##uther
gesamte
Anzahl
##schaff
besten
Spielzeit
erhe
online
##arte
Dollar
##roffen
##setzen
##ichtete
##ones
Ke
##ändert
Streit
Lab
##fil
ged
politische
folgten
ad
##zip
keinen
Ann
##famil
Standard
Evangel
##sem
##ords
##lam
SS
##otte
##osit
Gött
##vel
Single
##bi
Schles
vermutlich
##dam
unmittel
##tell
##band
##jährigen
griech
Inner
Energie
darüber
Handels
##zeiten
verläuft
Rand
##stud
##üm
47
Mein
49
##iets
Nür
##struktur
##reiten
##wärts
##vest
52
Vide
##üst
lebte
Jak
##gewiesen
##rück
##rand
##äte
##lege
##ativen
##abl
##cc
einzelnen
Wahr
Wappen
##riebe
##vis
##emperatur
fr
lebt
preuß
Zentral
Bauern
Gru
##aufte
1929
heiß
##rick
##ographie
gestellt
High
Star
##illen
bezeich
ausgew
dadurch
##nitz
Marc
van
Schön
ak
##dest
staat
Ther
Heraus
trägt
1928
##dor
##allel
Reise
gegeben
neuer
Gottes
geführt
##recher
Stock
46
1932
Gal
South
würde
Stern
Vergleich
##inc
75
med
##gut
Jung
##spe
Kab
##zus
51
##organis
Wirtschafts
mussten
weiß
Arbeiter
##itsch
##ehm
Helm
wiederum
gleichzeitig
55
besser
##aly
##anlagen
erhö
##row
Auff
tradition
##unge
Macht
Hauptstadt
IV
ehemaliger
Bon
Champ
Pu
Städte
daraufhin
länger
Besch
Rudolf
gehörten
##führen
Glas
gleichnam
##äger
Charles
##iegen
##kampf
German
beendete
betrieben
Anna
##auern
Radio
Ergebnis
##lieben
##prochen
Camp
##verwaltung
##kau
Juden
geworden
Münster
Maschinen
##fassen
Thr
genau
Charakter
Landwirtschaft
Franc
Unterstützung
Hart
Schlag
bietet
##destens
##istisch
Prie
typ
legte
##lers
verließ
betrug
Tätigkeit
##xt
Organisation
qualif
##ita
##go
##gliche
Jes
1910
Kompon
Verteid
##ils
##kischen
amerikanische
Königs
##kennt
300
##forschung
Viel
Regisse
##gemeinschaft
überwiegend
##zte
##spekt
Bundesliga
erfolgt
erwarb
##abeth
Wand
militär
zunehmen
Maler
##asst
Sem
##fallen
##musik
##richtungen
sogenannten
##öd
wuchs
vollständig
##gliedert
öffentlichen
##sied
ausgetragen
Kas
Bill
Bonn
##eilen
tran
Rum
Entscheid
Atl
##steh
##ki
##ombin
Erw
speziel
##assungs
##chter
##will
ru
Verbr
indem
##ffer
Cast
Forschung
##ua
Wo
Schwarz
##graben
Umgebung
leitete
Internet
Mass
bl
Ungar
Zusammenhang
Sowjet
##án
##aud
##ögen
##ördert
##ando
##geln
É
##rael
Dor
##schließen
Prot
beschrieben
zwölf
Kop
Düsseldorf
##wertung
Dazu
##aktion
zusätzlich
ausschließlich
##atür
##funk
Herbst
##auben
Minuten
##ässer
wirkte
Ander
Garten
##rif
öst
##kretär
##ierende
genommen
Abteilung
Instr
Quellen
##bank
Zusammenarbeit
##mon
##halle
Tradition
Muse
Lim
Eich
##ädag
Relig
Trans
##plan
##ziehen
gesamten
Voll
##wurf
Nürn
heißt
Bef
Bezirks
##unternehmen
##hil
nimmt
schwed
Hotel
##kirchen
##riffen
‚
trotz
sah
##rafen
Verwendung
##flächen
kompl
##lösung
Angaben
Vort
mindestens
##agd
Heiligen
Git
Verfahren
Geist
North
Umwelt
1925
Ster
##80
Scien
TV
langen
174
##ennung
Grafen
##klasse
Nationalsozial
zei
Punkte
Verwaltung
zerstört
Schwester
Los
##ower
64
##krieges
Fund
##ters
Phys
Einige
Halle
Kamer
Mannschaften
##ional
Hir
##eisen
erbaut
ra
##kn
Bd
##mod
Darüber
##änn
##ieger
##far
##hauses
Mathemat
Monate
zie
verkauft
Sä
##nach
##ingungen
Andreas
Hör
heutige
kaum
folgt
##wechsel
Anteil
##markt
Mas
Blatt
persön
##ländischen
##ischem
Grand
Dipl
relativ
welcher
##sprache
Hafen
Lig
##agn
galt
Stre
##irm
geschaffen
Vorstand
Distri
Heer
Kapelle
Regiment
##entliche
Thema
##60
Mess
verliehen
##site
##reihe
Debüt
Cont
1927
##geg
Abst
vertreten
Naturschutz
##gemeinden
verpf
##ivil
##dessen
##erv
1924
sod
Bra
##statt
United
##stellten
Fischer
lebten
Reform
entlang
Dokument
##üste
##ieb
Blüten
##hnen
Müller
Fa
Höhen
##formen
Gelände
Tom
##ologe
##archiv
hinzu
##teg
Viertel
##ston
Großb
##lowak
erstes
Werner
Regie
reich
Bildung
Win
SPD
Magaz
durchgeführt
Demokrat
Fürst
##wohner
##itzer
Belg
##haltung
##leiter
regelmäßig
170
erhält
##leitung
Daneben
##25
Struktur
Wettbewerb
##ode
Führung
Ker
##reffen
Nummer
##ständige
Prozess
##adrat
##itur
Siedlung
##linge
##endorf
großer
Großen
y
Brücke
gemacht
Insgesamt
Ländern
##ulen
Wash
Sammlung
##maß
Tel
##ministerium
##sto
Brandenburg
##igi
Bist
##vier
##izierte
Westfalen
##rige
##republik
##abil
zug
Abschnitt
mehrfach
Schmid
##stock
##sätze
1921
Fenster
##seit
deshalb
Abt
Holl
##ustr
Besonder
##legung
##li
##garten
enthalten
Besatz
##bus
Themen
Lor
##zeichnungen
##werbe
Heidel
Stimmen
Ange
1931
##hagen
Abs
##entwick
Flügel
##upp
historischen
südlichen
laut
stär
##gefähr
Fak
startete
lau
##gebracht
##AS
hal
Klaus
400
##häuser
Weil
##union
Aktiv
Offiz
Partner
##mitt
Stunden
Obwohl
Doch
Philosophie
Av
th
##regierung
##etzten
##erseits
##iana
##ohlen
##osen
##kunden
Kongress
Dör
1912
weiterer
171
§
Studenten
Hessen
##70
##reb
vorher
dür
##asste
bekam
Trotz
##ernen
Wild
Kritik
Gust
##raut
173
Darstellung
##que
##indungen
Angriff
Kammer
Ven
Gericht
1923
Renn
##tra
##ängt
Pan
Verkehrs
##mat
##üge
1926
Weiß
del
##inder
##ädt
katholischen
##ux
Augen
##lehrer
##stant
Pier
##ritann
mal
##rimin
Cap
##fur
unabhäng
##utzen
##spart
einst
wor
europäischen
##messer
##anen
Frage
##ware
##ädchen
zeigen
Bre
##laden
weltweit
Royal
stattf
gek
Fritz
##empl
Russland
Waffen
##rats
Hum
allein
Rä
unmittelbar
##21
Aufstieg
##ology
früh
##liegen
##gelassen
Washington
##gewicht
53
##orgen
##blick
Turnier
Mittelalter
00
##eien
Kandid
Allerdings
Großbritann
##deutschen
##ams
1922
spielen
##wen
Aufgaben
##verfahren
dient
##stall
Nordosten
Mac
##gehö
inzwischen
Pfer
Website
##ble
##ausch
Festival
##DA
Hy
##neter
oben
Rob
##ship
Namens
##ücht
namen
##nant
beginnt
Vorgänger
##ieur
te
##stände
Mand
Preußen
##ird
aut
Fäl
##inge
##gebot
##anzer
##ales
Samm
##une
Jack
Sw
Open
Mainz
##ografie
weitgehend
bildete
Laut
Wechsel
##iol
Bücher
##ährt
##anwalt
54
Ly
Opfer
##xu
##ouverne
Stahl
##vertreten
##iw
sodass
##iety
##ora
##iefer
Weltkriegs
Ox
res
ermöglich
Männ
##ätzen
geprägt
##fr
Spiegel
Möglichkeit
gerade
Priester
Archiv
##prü
##gn
Music
##kung
anderer
##ominiert
Schwar
finanziel
160
Verlauf
Überg
Bremen
Nur
##arischen
##läss
fre
Laufe
Gerichts
Send
##weiht
##athl
##ique
dritte
##ida
##idu
##xis
Mur
##gruppen
##ridge
##halte
Teilnehmer
unver
##andt
##beg
##holz
Nav
##ehlen
Südwesten
##pfel
Init
Kolle
Jakob
##uche
Elis
größeren
Hab
natür
##iation
berufen
gebracht
##estag
Metho
rest
verfügt
Architektur
##blätter
##legte
##tliche
Spanien
Kategorie
Adolf
##sper
##terie
Barb
##liefert
##ferenz
Strom
verhin
norm
beein
##arbeitung
begl
##ior
jünger
erinn
Daniel
1913
erz
verd
##kord
Est
Presse
gelten
rei
Mol
##szen
##do
Hom
##eucht
##emente
größere
englischen
Mik
Grä
gehen
Beide
56
##macht
engag
Sö
##gült
sowjet
##ba
macht
grund
entdeckt
verpflich
Pfalz
##rig
##pol
Landschaft
Nicht
Größe
produziert
##cup
seien
##sprung
59
Musiker
sogenannte
Informationen
##fs
Assist
Ungarn
##orgung
stellen
##arkeit
Alfred
Hohen
italienischen
##irol
##imen
Kosten
Mühl
##heater
lok
Gün
prakt
##car
##iffer
jap
##änglich
##zung
umfassen
##öpf
kleiner
Bewegung
verlassen
nördlichen
Gesund
##odor
Nic
eingestellt
##ria
Black
Tat
Play
##aufhin
Karls
ausgeb
PS
arbeitet
##ries
Sar
Widerstand
##rucht
##usion
Mun
wahrscheinlich
EU
Rosen
Geburt
##ga
##kow
verantwort
##äne
##windigkeit
früheren
##amin
erl
Wander
Ord
jeweiligen
Neue
Schon
##rennen
breit
##fabrik
umben
hol
1911
Zwe
westlichen
##reform
Weise
##ühm
1905
endete
##ony
##grenze
Großbritannien
Schauspiel
Real
Serv
##vertrag
Bekannt
##eitungs
nichts
Hamburger
##nehm
##tert
Ehefrau
setzt
Vorder
Nordwesten
Thür
Francis
##hoch
##mens
dire
dagegen
Christoph
##schlä
##ürgen
Tschech
kan
jährlich
Südosten
gebildet
##orten
##23
##wood
1907
Handel
bedeutet
Ring
Prop
##under
##hi
Junioren
Frühjahr
Cas
Publ
gingen
Leistung
##jor
##bern
##gner
##pfl
Mount
##tm
##edition
##nee
##isierte
Autom
Maxim
Krieges
##flügel
##bund
##ram
##änen
Luc
##GB
##komp
mon
geben
##lad
##äler
##liste
Ortschaft
Bilder
85
##familie
Get
sof
##ziehungs
##ienten
Autob
##ächsischen
##omie
Stau
##ividu
Disk
Rem
Ehr
##zwei
Tu
unters
Ze
##furter
Mem
Einführung
Richter
vergleich
##rechte
Hochschul
Linien
fertig
Gustav
169
Schulen
##ulation
##kräfte
Architekten
Konzept
##igit
Tore
##weile
arbeiten
##klärung
##werks
##xikon
57
##name
Kult
##mitglied
Konzert
##struktion
##ec
##ly
gewonnen
außerhalb
eingeführt
##sbach
Zweit
Nachrichten
Brief
Assoc
darin
ähnlich
wichtige
gewinnen
##andte
##no
Dro
SC
Tiere
Fahrzeug
Schu
Studio
Station
Autoren
##aust
##ugh
##halts
namens
##setzungen
Empf
##ris
58
ich
##masch
89
trug
dahin
Fußballspieler
##umente
##kennen
jungen
##egt
Wach
1908
Schweden
Cro
nied
Präsidenten
Revolution
##ardin
tür
könnte
sieht
##dach
##enter
kultur
Mädchen
##versammlung
##rät
##hockey
stellvertreten
61
##bogen
Denn
Repräsent
notwend
Konfl
##dungs
wid
Wegen
erstreck
Standort
1917
##gesp
##punkte
63
##press
##setzte
Society
Dial
##minist
höchsten
##wander
wäre
künstler
Wenn
Braunschwei
##irt
Göttingen
Ferdin
genannten
führten
##ündet
##öglichen
Sl
Französ
Hoff
Kenn
##mehr
##hielt
##por
##bewegung
##vin
##zut
umfang
##itze
gleichnamigen
rechts
##24
Punkten
weist
Infan
##ani
halten
##tritt
Marine
Satz
Bart
Na
Öffentlich
Island
geschrieben
zugleich
##ury
Zul
russischen
Vgl
angeboten
entspricht
kennen
##stehen
##ritor
öffentlich
##ura
Harr
Vaters
##FA
men
##ues
1000
##adel
Abend
Erb
Urs
sur
##ex
##wärt
Verhältnis
##üss
unterstützt
gehalten
Bahnstrecke
Bass
Auss
Vogel
Varian
UN
##bürger
##anze
chines
Neuen
benöt
Regisseur
Exper
##SC
State
Fahrzeuge
endgült
##val
Records
Blut
neues
##ehrt
bekannten
##leger
Grundlage
1906
Heinz
bestimmt
letzt
bi
Vict
Zentimeter
##agte
##zahlen
Folgen
Portug
##iar
##gangs
Jahrzehn
Abitur
Noch
htm
Dah
Edu
Sat
elektr
Sign
Unternehmens
##ständigen
Auswahl
Kontr
aufgelöst
##brücke
Technik
Flughafen
WM
Kass
##museum
internationale
brach
##ädagog
168
hätte
##ütte
Verkauf
##ws
##leg
##ützte
##präsident
##ituation
##liefer
entscheiden
##arkt
86
Heidelberg
ha
##medaille
##iber
defin
benach
Freiburg
##ret
##handlungen
##irn
hingegen
Viele
tragen
Merk
120
##vorsitz
rot
erweitert
sech
##lichkeiten
hergestellt
Prü
arch
wenigen
##ela
Fakult
Inseln
Kindern
##ye
##ows
##erb
as
heil
Regional
##netz
##ynam
dän
##zeitung
##kreuz
##tent
christ
jen
Miner
zählt
##reig
Bol
Kiel
Sicht
sprach
urkund
##rond
Marie
##technik
Aufbau
max
76
gegründeten
Aufgabe
Erzbischof
zusammenge
Log
verkehr
Mau
Ferdinand
Ergebnisse
##zeugt
Original
Ich
Australien
Zun
erheb
##kurr
posit
bestritt
##örden
schwar
Elisabeth
CDU
Transport
diver
1904
Front
Gerhard
Sieger
Fe
##äische
Nürnberg
##achtet
##oria
##ämpfen
##ümer
entsprechend
getr
Sinne
obwohl
amt
Rheinland
##läufer
##linien
SV
Adels
Himm
##cks
##schauer
71
##anisch
Leon
umbenannt
##iode
katholische
Teilen
Strecken
Bevölkerungs
##ruf
##sprü
##ić
Company
Neubau
betrach
##uchten
lief
Aufnahme
offiziell
wider
##BC
Lieder
Films
Söhne
Rückkehr
Jos
gespielt
Sach
1909
##züge
##hlen
Ulrich
port
Ereig
Henry
163
Offen
##ordin
völ
folgen
standen
##etik
##klass
##edt
Weltkrieges
##zugs
##con
##geordnet
Engel
musikal
Fün
Ruhe
##holt
elf
Boot
##raten
Vize
solche
Erfahr
##stär
##ket
grenz
##schm
Pfar
wichtigsten
##öss
höchste
88
##sende
Kurt
165
Train
begonnen
##titel
versucht
##onym
versuchte
dargestellt
##endes
Qualifikation
##witz
##rechts
##ligisten
Klin
Klass
verstär
erscheint
##stuhl
##ays
Gründen
Sum
##oz
##auen
gelegenen
nahmen
Mauer
Computer
tr
angegeben
Kolon
Kons
verbreitet
fäl
##programm
Unabhäng
Diet
##ziplin
##wan
Mission
164
Quelle
dre
Fernsehen
Kontakt
Exempl
links
##imal
##äden
Öl
Ist
Todes
Hard
Ausstellung
95
Fle
##ental
Weiteren
weiteres
Bernhard
##sprachigen
##rum
##istin
##örde
##stanz
erhielten
Wit
Eishockey
Häuser
##igkeits
93
Hon
Dann
Gas
##una
##äusern
##stab
##ührung
bein
Än
##eland
präsent
##abteilung
##gerichts
jetzt
Fisch
erklärt
##ii
Nieders
Brasil
Schrei
orient
Vis
linken
verantwortlich
66
Back
erlau
##örung
ident
Fürsten
Ortes
Anh
beschäftigt
##stitute
##nes
##ato
Ebene
77
1903
##sky
Darm
Tenn
##amerika
##auftrag
Brüder
zuerst
Leicht
##andelt
##gy
##wn
##gebiete
##ängnis
##ommern
##vention
##schafter
Jagd
99
Are
##ausschuss
Bibliothek
wesentlich
Kommission
##chner
##atoren
##histor
Tar
##aven
nehmen
Eck
ebenda
##abr
##nungs
##ocke
Sur
##illon
Essen
##geschrieben
kB
zeigte
Premier
vorgesehen
übertragen
Europe
##ér
##auff
britische
Master
##eton
##26
Dän
##eider
##ffekt
Chron
Türk
Drehbuch
Hekt
Betriebs
Interesse
Cent
gefähr
eingerichtet
##hel
dunk
##ais
1890
Klub
##zählung
##zif
wohn
junge
##pflicht
lern
##pret
##etts
##erweise
##SV
##deutsch
oberen
##dex
##eicher
kanad
1915
Kathol
##issement
166
##achim
##ska
##krit
abgeschlossen
Metall
Chemie
Deutschlands
##hler
Bert
Villa
Wahlkreis
Carol
##äher
Zerst
##derungen
##heimer
Quer
Por
##18
Schiffe
vierten
##ouverneur
##sert
Academ
##anstaltungen
##grenzen
68
##eimar
##stern
feier
##HL
mittels
Bundestag
kg
jüdischen
##ife
nominiert
rück
Jürgen
##iland
Liebe
Straf
##spiegel
##odurch
beob
anerk
##hauer
Europäischen
Sowjetunion
##ragt
besaß
Chef
##richter
##chron
##manns
##28
wodurch
Gall
##ão
##kar
Eu
römischen
##ira
Krank
##otten
Teams
Eber
##ates
##ibel
Tele
vgl
Würz
##ienen
##aux
##geschlagen
Leop
74
##ilien
Aber
zeich
Angeles
Einheit
##ption
##äst
Soft
##reiter
begrün
Nah
Chic
verur
##ota
Matth
Klav
##ören
Rechte
##phen
78
Schmidt
Verhalten
##ehler
##irge
weib
House
Farb
Video
dauer
Theologie
159
zweimal
##wal
##album
Grie
ö
##bahnhof
by
##eind
##iedelt
ausgestat
Ingen
##igem
Braunschweig
##üllt
1902
##lenburg
##mith
gezeigt
Fakultät
##mühle
Wag
behand
Pre
King
Formen
bay
##weite
Sprachen
##born
Mensch
1916
auszu
##ta
Feder
landwirtschaft
Forst
Moskau
79
##öste
verp
Hill
zählen
Internationalen
alles
Klassen
Lokomot
heim
##fassung
älteste
vertrat
Frankfurter
##öder
gemäß
##wes
Cr
Joachim
##hebung
Gie
Ufer
##möglich
Schriften
73
kurze
##én
Lit
##fahrer
96
Orte
Interview
Stefan
Niederlage
publ
Tode
Metal
benachbar
##dar
Att
##oy
umgeben
Wirkung
Stellung
östlichen
##grä
anzu
##out
Hockey
##itts
tritt
Auto
dur
##és
Abgeordneten
ag
Weimar
rechten
letzter
##iative
##elli
beeinfl
Sonnen
##klei
##heorie
##tes
entstehen
tats
gar
##udes
##hilfe
1901
fung
Oberst
##ifiz
##losen
##ove
Roll
##utzte
##liegenden
##ID
##tal
1870
##zeichnis
Durchmesser
Pfarrer
##alisierung
Prag
Sender
bem
Bä
##ologen
##hor
Off
Holstein
##üll
155
Kapit
##station
Science
Hub
##industrie
##rondissement
1848
he
Basel
##ther
Eröff
67
verlegt
##zun
Drit
bleiben
##weder
bleibt
blieben
Erde
##27
##alyse
Wel
##gentin
scheiter
##sichtlich
Cre
Marien
Bul
##its
##inzen
Platten
##drück
Arrondissement
Rath
Lind
##unnel
Bericht
Lux
##mäler
Berufs
versehen
Fass
bringen
angelegt
##älde
Förder
Paar
##stätten
Formel
bestimmten
Bronze
##förmig
##ado
##sex
##ellschaften
##rifft
##gau
berühm
integr
Zeichen
Cat
##apie
belegt
##ée
Rod
Bezug
Ausland
##ahren
##höhe
##ordnet
Mön
87
Gebur
französischer
Spezial
fließt
Bewohner
schle
Schauspielerin
prof
##deutsche
Israel
##führte
Herkunft
East
##ER
Chicago
Sab
Kaliforn
Dol
Bildungs
Hügel
##klus
##hu
hält
##räume
##iano
zusätz
Frieden
Van
Ban
81
##grab
##AT
Dampf
Nahr
##stift
eigentlich
kommun
##jew
69
ff
latein
##haf
DV
region
för
##afel
Tau
##funktion
##ep
##riz
Deutscher
angesehen
errichtete
##bchen
167
erlang
##quenz
Moder
##stattung
##29
Glauben
stets
Wissenschaften
Imm
##omet
Zustand
##gu
mark
##altete
Schleswig
84
Morgen
##tlichen
##essel
Hektar
##ziger
Trieb
Nutzung
##äuf
ganze
mensch
##uc
##IN
Coun
Tit
besitzen
Invest
1899
##anda
##irche
##organisation
religi
156
Probleme
Sec
##dienste
##mauer
männ
83
##reif
##anb
Theodor
Versuch
##ikaner
##rochen
abger
Atlant
Lexikon
##rol
Kanada
anges
aufzu
Erweiter
Orden
verfasste
durchschnitt
##IS
Verd
erhoben
##ringen
##spann
Beck
##dorfer
Arzt
##eidung
##emit
Temperatur
##ror
Auflösung
1898
erstreckt
Spann
##kultur
Theorie
Brau
##gab
Jacob
##uft
Sm
Distrikt
Amate
Träger
römisch
##itiert
##igungen
Komposition
Sig
verschw
Institute
MB
##oret
01
kor
Pok
Golden
Repräsentanten
Filme
##felder
Zeiten
##iro
Öffentlichkeit
##fälle
Nikol
Alpen
Emil
Pfarrkirche
##wach
Dadurch
Klavier
##werken
traf
dienen
opt
Parteien
##kop
##swissenschaft
##mitteln
Veränder
modernen
##edig
Bab
Ausnahme
jede
##wissenschaften
derzeit
Figuren
##kopf
zugeordnet
promoviert
##emm
Diplom
##kom
zer
##field
Association
##tümer
##arakter
##oden
##cu
##emark
##steine
Tüb
##hoben
##ätigt
entschied
Gemeinder
Mio
historische
##kriegs
##icherung
Leistungen
Quadrat
##ilian
##afrika
##merksam
phil
zurückge
beste
##gent
##leut
Kanz
belie
##ziehung
Untersuchungen
könig
Museums
Siehe
1895
##pft
130
Haft
polnischen
158
##hur
spielten
Kra
Pierre
##produktion
verstarb
verfol
Reihen
Eg
##linder
Dien
daran
Gang
interess
Gegner
##ikon
##bek
Spitze
##lässlich
1880
Serien
Beziehungen
Leopold
ergän
##arren
Information
##sprä
Schwerpunkt
##herren
Zer
##sätzen
##gers
Tonnen
##baum
##sekretär
Tanz
##kunst
schwarz
##riss
Kais
Weltcup
wähl
Show
##eiteten
##räum
Ram
Sak
geeig
preußischen
Firmen
abgeb
Zeu
##offiz
bedeutend
Box
Pokal
Ris
##hofen
Kro
##gehör
Laufbahn
entweder
##itzen
verlänger
600
Adel
##lag
nahezu
sofort
erle
Nordrhein
153
Indian
##öz
154
zunehmend
98
Leit
Entscheidung
##eichen
Gründungs
mittlerweile
Alben
##ünft
reduz
Justiz
Kalifornien
Millimeter
##cel
##frage
##lose
##kal
Instrument
html
##baus
spät
Meck
Herstellung
British
bestimmte
gesehen
##oks
Lad
Territor
Len
##gründer
verkaufte
nationalen
Große
##stellungs
etabl
##22
Stadion
##ändig
Kath
##annter
##meisterschaft
Wett
##akteur
Aachen
##ehren
##spolit
Dur
Gewinn
werde
1850
Gewicht
##barkeit
##DP
##fekt
Wiederauf
##bast
##bauen
##undert
aufgestellt
##oe
##lor
##führten
##kern
bezeichnete
sonst
Poly
Mary
##ehmer
parallel
Eduard
Erzähl
##otball
##orien
1897
##genöss
Ga
erscheinen
##euert
##andlung
##gol
entgegen
Simon
Edward
Magde
Krä
##leistung
Austral
Ruf
##horn
Jed
psych
##sal
Roten
##politik
Koch
erkennen
Sus
zuständig
Bundesrepublik
würden
##kas
##ücksicht
Är
##leutnant
##hem
##19
##ctor
##schte
Kommunal
Donau
Tie
Group
seitdem
uns
1896
Mexik
Smith
ungefähr
##stücke
älteren
unterrich
schied
250
##ianischen
Anwendung
##bnis
Domin
Teilnahme
mittelalter
Sound
Hell
erforder
Massen
×
##ivers
unterhalb
##städ
Unterricht
Kos
wirk
##owa
##imme
Green
Hintergrund
jedes
baute
##hmen
Stoff
Archä
spricht
##länder
##rian
ehe
Geburts
##zern
##stete
Sicherheits
völlig
Auseinander
Wör
##gro
Panzer
Uk
Beteil
Ersatz
Kapitel
Figur
abzu
Bob
##steigen
benutzt
Einheiten
##sson
Live
liter
Volkszählung
##BA
##kür
gegründete
Scha
##bildungs
##istan
##mittelt
Qualität
##geschäft
eingesch
Gebiets
##artet
Zy
##ence
##trem
##herzog
Infanterie
Herausgeber
SA
Erste
Beob
Rollen
Situation
Zunächst
##uster
##agne
Lar
unteren
Times
Küste
leich
##echnet
04
05
zweiter
verbrachte
1871
##entwicklung
##sburger
Daher
Bat
vorwiegend
##ci
Apost
Town
Bord
Tief
herr
Zimmer
Gefangen
Trau
Nap
##schaffte
einzu
##ppel
##geblich
Fell
Stell
##atorium
Bew
übrigen
##landes
##rollen
##straßen
Konrad
uk
Erschein
kleinere
Bom
Ensem
Horn
##gewöhn
Charts
Hersteller
Sonn
##swissenschaften
Produkt
Erinner
Besitzer
Geheim
##ickt
ausgestattet
##ila
jedem
Schluss
##ère
##euten
Sicherheit
Sturm
Szene
Gesang
Liz
besondere
Praxis
geist
stat
Gebiete
##kammer
##plätze
Indien
Mitgliedern
öffentliche
Tagen
besetzt
geplant
Fraktion
Fabrik
Grafschaft
##länge
Besetzung
Grad
##zem
Tempel
fehlen
geringer
aufgeführt
ursprünglichen
##ikations
Kombin
##bahnen
Stellen
Altar
schmal
91
Pfarrei
späten
umfasste
##dehn
##zieht
Zuschauer
Weißen
Gründer
Interessen
bot
gemeinsamen
##äum
Kö
##ruhe
##kin
Design
##region
94
Ordens
##ny
Aufnahmen
mar
Flucht
##werte
gute
Bühnen
stärker
##idae
800
Förderung
spätere
Städten
Kart
##turm
Expedition
##gas
Rail
##zunehmen
##akademie
Franken
sor
Flugzeug
Geschlecht
Lehre
con
Salzburg
##körper
##igr
Schr
Preuß
kurzen
##chmal
Center
##jen
Ursprün
1860
Entsteh
Prinzip
Wen
Untern
##ötet
Frem
Personal
Status
begrenz
VI
You
##NA
tschech
##stedt
Vereinigung
bar
##äudes
##einer
##rates
##chs
Ausdruck
##teils
Herbert
japanischen
##text
Yo
##stechn
##fels
verschiedener
Sav
Bayerischen
ost
Anwesen
##figur
betrieb
Songs
VII
Erl
Dissert
09
grenzt
maß
dortigen
Dänemark
erklärte
Big
##öse
##schi
##rank
##scheidet
Kün
ko
mündet
##öne
Sankt
Weibchen
##sträger
##baute
##stil
1885
Bell
Software
##wuchs
##stral
Vie
lehr
ausger
Meeres
Werken
##erer
Zivil
Academy
##lehre
Las
Dieter
Fragen
157
blau
starken
eröffnete
##äure
pop
##gelt
Santa
Kassel
erinnert
chem
Label
Züge
Erich
##motor
Griechen
Mid
einzigen
Verw
Daraufhin
entlassen
Gefängnis
südwestlich
##atik
Gemeindegebiet
##ific
##air
Lot
##ét
teils
Elemente
Bistum
##anzig
Lake
##achte
Fu
149
Entfern
##edikt
##ketball
bislang
wachsen
begannen
##bücher
Fahrer
Magazin
##schel
##änderte
überw
fuhr
städt
140
ren
##grad
Zukunft
Äg
Pau
##seits
##vater
Würzburg
##isc
gering
Arts
südöstlich
tä
nennt
##yc
Opp
schuf
##ards
befördert
##zell
Nat
Küsten
Autobahn
##uropa
Schach
ans
##echselt
##stad
##arische
sport
##seud
##durch
##teilen
##fenster
Ill
Ori
##ähler
##St
110
unten
vergeben
Krankenhaus
Block
Mecklenburg
Dichter
urkundlich
##ändler
125
spanischen
Mexiko
##berecht
Jon
beziehungs
##ín
Gleichzeitig
Spielt
Eingang
Beiträge
jeden
Gemeinsam
##kennung
Aqu
Kre
Schle
Corn
##sein
Einrichtung
##fir
##größ
Nation
Tübingen
##braun
##teile
##hardt
Kölner
Landschafts
##haben
##weist
anschließen
Komponist
##irch
natur
Klosters
##chem
beziehungsweise
97
##blei
Universitäten
##eise
Leistungs
Engagement
Kommand
konzentr
##CA
Sendung
Amtszeit
Kurfür
##redit
1867
Glocken
promovierte
Stab
Jesu
tief
Gewalt
##ump
##küste
History
Halbfinale
##del
##ous
##arburg
##bringen
verurteilt
nordöstlich
##jährige
Statt
nor
Ident
zählte
Krie
Automobil
##inar
Krist
unterscheiden
##istischer
##bu
nordwestlich
##wäl
1893
beru
##got
Refer
Persön
Nachfolge
##reicher
##bauer
##aka
##sey
##arre
Law
angew
getrennt
Reaktion
gelegene
1888
##phan
Bres
##lieb
aufgebaut
##kul
##chest
Rücken
Zugang
entw
##laufen
gesetzt
May
regul
Völker
portug
##ssystem
##mün
Wetter
Ebenfalls
Kle
##15
Konzer
Julius
Verfassung
Adam
Objekt
##besitz
Misch
gesellschaft
Idee
##stoffe
beschreibt
##kont
##mond
##fangs
Zeitraum
##ränkt
Fünf
Helmut
##glas
rad
Heft
Opern
Beschreibung
##artige
Sau
Orchester
Blick
##alerie
##ring
Lam
##atin
Breite
##ödie
##rt
##steiger
Beam
wollen
Liber
##ögel
Sul
ältesten
##iale
##ati
mag
Ordnung
##ländische
##etzter
##zone
##aktiv
Anhalt
##eige
##OS
##ban
62
erworben
fehl
##pon
##ky
1892
geborene
hoher
##mir
08
Patienten
States
##SG
##undet
Untersuchung
Beziehung
Mord
japan
Abgeordneter
##meer
##fon
##zul
Oxford
Rundfunk
##alisiert
klar
##schafft
##waff
Sinn
##ologisch
##istenz
Kardin
1894
Gatt
##arbeitete
##legten
Baron
Ten
##osa
Tats
sicht
Altern
Kamp
Türkei
##änner
medizin
##ji
Mathematik
nannte
Act
Erfolge
##arzt
##otyp
Entwurf
komplett
##mete
Religion
angenommen
Besucher
##ügen
austral
gelegentlich
mel
##frist
bereit
##MS
from
Königin
Finn
ört
Neum
verbesser
##bas
##ses
rechte
samm
##strom
Ruhr
##schulen
##spur
vorbei
##verbandes
Kabin
Sebast
Wissen
Kunden
traten
Camb
Dissertation
##iti
##var
Wahlen
Bildhauer
Schall
##16
Kanal
##ral
##stre
Pen
Tsch
Gesprä
us
##kurrenz
Halbinsel
großes
##örp
##ques
##dner
##handlung
##autor
Kub
darf
fällt
hätten
Luther
Gouverneur
Karten
##bef
Emp
Columb
Instituts
##iko
Det
lernte
##vereins
Anhänger
Party
Basketball
Management
##prof
##abilit
griechischen
berichtet
verstorben
##nissen
damalige
Errichtung
betrachtet
Historiker
verpflichtet
herausgegeben
##ves
Staatsb
untersch
##rin
sym
##handel
zurückzu
Tok
Champion
vol
Andr
Service
einzelne
Kalk
##verkehrs
Handbuch
1889
Epis
Sir
##iem
##zin
with
möglicherweise
näher
##lowakei
Gemeinschaft
##cer
Mah
##14
##bungen
##geleitet
Football
qualifiz
##unsch
Führer
ganzen
##schicht
Fällen
03
France
##wahlen
Initiative
##ßig
Mehrheit
##orph
tro
Publikum
##edia
##viertel
bestätigt
##chern
##ischö
Darmstadt
Bir
Monaten
Organ
dat
Bestandteil
##aku
##ages
Ok
Greg
Hug
Voraus
Architekt
##zenten
Entwicklungs
DE
##gänge
gelb
##iellen
offiziellen
erb
##meist
portugies
##hafte
Ausbau
golden
##well
##äfer
Scott
##aner
72
do
Begl
Aktion
##bericht
Krimin
##ario
pass
##uell
##eitete
leitet
##rib
1891
Filmen
##undes
Dauer
Arthur
##einheit
Ve
Seg
Michel
##ckel
##denkmale
verteid
miteinander
schweren
Gegend
##itor
##verteid
##alle
##aker
ermöglicht
##onne
##ifiziert
Belgien
##graf
entsteht
Flächen
##tend
##rücken
##unterricht
##vertre
Gemälde
1866
Rathaus
Ingenieur
##ifik
hei
Ross
außen
##reng
Stol
Mach
Übersetzung
##haup
gekommen
sub
ernannte
##ielle
##pper
Aufent
##demokrat
SE
##entin
Frucht
##oro
Krei
Anlagen
zeitweise
Befehl
Zoll
Athen
##isation
Friedens
Töch
eigenes
Klima
Kob
Zweck
Lübeck
##owski
##erte
Ot
##uld
erreichten
Lipp
Sauer
Texte
Regionen
Profess
##äufer
##schwer
##ausbildung
Maximilian
Woche
Ähn
anfangs
##13
dt
##bs
##gesprochen
benannte
Bos
reicht
Saal
Hauses
su
stra
##ausend
Verwand
Trag
Kriegsende
Toten
##DAP
##hältnisse
##ras
existiert
##bron
Zahn
Amster
Wohl
Mund
kosten
Zo
##entum
Haut
##platten
##anischer
##oß
##zustellen
##laf
Großteil
Islam
##17
##ku
Anne
schwedischen
##able
Bruch
##ichteten
##inia
Jud
intens
Virg
##onischen
##paar
Bayer
Einwohnerzahl
Lib
unterschiedlich
##wege
Mr
##geld
Ray
Rostock
Mech
Norwegen
Erwähn
Meisterschaften
Thüringen
endgültig
##geschwindigkeit
##col
Penn
mass
##zz
AR
##ussen
einschließlich
ka
Dra
##front
Aufsicht
Männchen
##ips
##frie
##issar
##schnitts
benachbarten
##ckt
läng
Mikro
##ätz
Graz
Oscar
##cia
##ilde
Lande
Generation
starke
##marsch
Commun
gemeinsame
##igade
bestanden
mittleren
Centr
##ops
Schnitt
vorge
1875
Niedersachsen
Hav
##sbaden
##ero
##regel
Ev
erlangte
##aktor
Höch
Ess
Vog
Gewerk
##kat
##daten
##fahrts
##material
##ador
stammte
Brasilien
klassischen
Direkt
Tirol
Street
Que
Earl
langsam
Senat
Regionall
Balt
norweg
##bew
##worfen
##endeten
##teilungen
##ütze
Vereine
##förderung
Wiesbaden
Physik
Schnell
nationale
##hre
Pseud
Verfassungs
Aff
Quar
##bran
##hers
fertiggestellt
Schott
##las
##meter
Augsburg
Elektro
Orten
https
##jahren
jur
befind
beschäd
##ulpt
Rie
Alexand
##ometern
verbindet
##ethe
##hold
##direktor
Vorbild
existieren
Rett
guten
##fle
Ped
1868
manchmal
##andeur
ergibt
##rest
Was
##gie
laufen
Gipfel
##reit
##eisch
07
Albrecht
1887
gestaltet
Got
Rol
Denkmalschutz
##eiche
nachgewiesen
net
Kooper
Sieben
How
Magdeburg
inne
Gegenwart
Hop
Sper
##brü
Gesundheits
##iction
##ständen
Feuerwehr
Saar
1874
##jan
Angebot
##TA
Edition
versetzt
Stich
uner
Himmel
Gir
Spät
Kantons
##verlag
##iy
##mag
befanden
Röm
säm
Pots
##umenten
Dörfer
Zahlen
Operation
Vergangen
Nationalpark
Brown
hell
Kader
Porträt
##kosten
Eröffnung
Bronzem
Schließlich
##manischen
Astron
widmete
##teilte
Wagner
Weiterhin
##spir
Allgemeine
neg
Erm
##reht
##derten
Münchner
##ju
errichten
##swert
angehör
06
Matthias
Büro
##fähigkeit
ausgeführt
##artigen
Halte
##zens
##tner
1872
##spräsi
Pir
unge
##ript
##werben
angeschlossen
Sei
Monte
Alp
Flag
sil
Mars
##gründung
##rak
Home
verlaufen
##zur
##altar
##atischen
Kontrolle
##stritten
##gehörigen
Besonders
##hten
##isl
Kathar
##herrschaft
1879
Mühle
Schild
kleineren
schaffte
hieß
handelte
##tums
Gau
NSDAP
Jena
##kannte
Register
Karte
##ipend
Integr
Erster
schlug
##lay
##öck
##äste
1886
löste
##strahlt
##istr
Rese
Farben
Funktionen
##kurs
schwier
geriet
Gewerbe
Dub
##volle
1884
##uste
könne
##aiss
##ramm
##holm
Merkmal
lehn
verhindern
Bremer
##12
keiner
erzählt
Bronzemed
Š
##formation
Reichstag
freien
##inus
Benedikt
beschlossen
Oberliga
Einrichtungen
##ständnis
bisherigen
##wo
##steuer
Promot
Beitrag
##mitglieder
Soph
##eiert
Stan
Heeres
Offizier
##denkmäler
##gebieten
Dok
Südwest
Behörden
##ittel
Past
weder
Liv
Bünd
Doktor
##kämpf
scheint
verf
##üren
Corps
sozialen
##alys
##ydro
##farben
jüng
Langen
Vermögen
##isen
Tha
belg
##rischen
##meisterschaften
tau
bestehenden
1882
Einen
Behandlung
##ialen
##lassung
##ader
Veranst
Straßenbahn
Reser
scheiterte
Veranstaltungen
zumeist
entsprechenden
Malerei
Weber
92
##ifferenz
”
##tor
art
##ronen
Rede
Platt
Dortmund
##strahlung
##schiffe
Maßnahmen
Gebieten
fünften
Ursprünglich
Rev
##oslaw
##ätzlich
##ikanische
Englisch
englische
##abt
Glück
Zusätzlich
##osse
Variante
##fuß
##gor
Ortschaften
##versorgung
erober
Hyp
##apel
dennoch
rein
produzierte
##schu
Armen
##züglich
umgebaut
Handlung
weisen
Keller
##alem
unabhängig
vern
##brochen
Final
höheren
Proje
Internationale
Republ
1873
geweiht
unser
##hochschule
Meyer
Objekte
##lehnt
ol
Ägyp
syn
Tunnel
##rix
82
Hay
debüt
oberhalb
Vergangenheit
##öll
##raine
tatsächlich
Vf
1815
White
Produktions
##SS
##rant
##oment
Neustadt
##dy
Ful
##haften
untergebracht
##com
Research
##jo
ansäss
ursprüngliche
nennen
fal
Mond
Wurz
1881
Prim
schott
Gh
station
Konflikt
charakter
##jahres
domin
Leichtathl
Ky
daraus
##ova
Rap
Fahrt
Mari
Hitler
##asch
desselben
Kam
##hrop
##sta
##gels
Künste
Eh
Webseite
Sche
##platte
Rumän
##ichtung
Phase
Wunsch
##bad
##asien
Arab
sowjetischen
##annen
Bogen
##gi
Aktivitäten
erhöht
1883
Und
##nummer
Amateur
offizielle
##erkennung
Portugal
repräsent
Pel
Amsterdam
135
Horst
eingeb
Kommunikation
Vorber
eingetragen
##forderungen
1878
##gestaltung
##hoff
##aar
Acker
Latein
schreibt
Schneider
behaup
Freien
Kaisers
Karlsruhe
##AN
##äb
##sender
##ctic
Afrika
Aktien
Deb
148
Stephan
halb
Anz
##kungen
Dorfes
trifft
##unsten
abgerissen
##ía
Glet
Long
Vern
genannte
##ava
Ken
##eten
##weiler
##deckung
##ogle
##itäts
überhaupt
popul
##other
Blau
Nicol
Spitzen
Schei
1876
##achtung
verhaf
##siedlung
##bay
##vern
Oster
Monat
endet
Verantwort
Grenzen
verurs
verboten
Damen
politisch
Zehn
frühe
##onien
Gramm
Farbe
##tau
1500
system
Barbara
Eind
##ausstellung
britischer
Dir
##schläge
ehemals
##genossen
Arnold
Franç
##bilder
1865
Francisco
##mindest
##essischen
##oven
Flücht
##kore
Eintrag
Imp
1861
Mang
Umbau
Gedenk
basiert
getötet
einiger
Rohr
betroffen
##uay
##yth
veranst
treten
beruf
Passag
zeitgenöss
Coll
##stantin
zumindest
Wege
Major
Unfall
Vil
heiligen
Bühne
##onia
##bell
Ethn
##lan
##rächt
##indungs
Spielklasse
nächste
129
Geburtstag
Wood
dokument
##heil
##spartei
Hammer
Brie
Boston
Mir
disk
feierte
Rio
weg
geblieben
##gener
##usen
##vi
Bedingungen
2020
##tags
gefert
Verbindungen
##pat
Mult
##ranken
##spitze
Restau
ausgebaut
Bischofs
##gern
gener
funktion
##stum
Kommando
##folgung
liegenden
kW
Siedlungs
co
bewohn
##weihe
übert
##zeichnete
elektron
Sebastian
Pred
ü
EM
##orfen
gelangte
128
san
##vertreter
##gesetzten
##bein
Jungen
Bereichen
Fäh
flie
Viol
##sbruck
Eigenschaften
##orts
##swahlen
##ilen
1869
jüdische
##ito
Suche
##ido
##aria
##ual
Depart
schrift
kompon
##isierten
Mittler
unterlag
##wirkung
Freiheit
kür
145
Eugen
##studium
Vielzahl
italienische
Fertig
beigesetzt
##ssen
Gemeinderat
##kapelle
Lee
##splatz
verwendete
##oto
##gypt
DVD
österreichische
Texas
notwendig
##kil
Ebenso
##rechung
Diskuss
Festung
Kupfer
##ason
##ändige
Trier
##illerie
##ging
Beschäft
Orchest
1864
überra
##wegs
##maßnahmen
Margar
##geschicht
Produkte
##künd
dunkel
##PD
##öten
zentralen
Allgemeinen
Schreib
Entstehung
##strecken
pr
##reiber
beginnen
##äfte
1840
##achsenen
Schwier
Western
##swald
organisiert
Minder
##iki
debütierte
Dick
Reste
weite
Cra
braun
technischen
Modelle
Gestaltung
Sängerin
Unternehmer
weshalb
##aya
700
Benz
anders
Innsbruck
##lar
##alte
hum
verhaftet
anlässlich
##ogn
Proz
unterscheidet
Linz
##ih
Pflege
Ausschuss
Konstruktion
##elen
##anteil
infolge
Göt
1849
##pflege
##gelegen
##zn
BM
##oni
##izei
146
##ütten
##licherweise
##atische
nutzen
Kie
Hugo
##mut
##kolle
Dennoch
##artier
##ced
Mis
Lösung
kaufte
anhand
fungierte
evangelischen
##yan
147
##ynast
##utzten
Straß
Metrop
José
Geschäftsführer
##cil
##falt
##estern
Route
##11
##denken
Ausgang
##kische
dürfen
zufolge
1862
##reut
##umin
##auber
Parallel
##IA
Funk
Löwen
McC
Manfred
Diöz
##ourn
AT
Alli
##uls
Lord
Marx
Szenen
gere
vari
#
Mö
Gelegen
Wär
Fro
Kreu
Sprecher
Konzentr
##ello
Säu
##stung
Disziplin
Nomin
Methode
Mans
Milch
Cambridge
##unes
##rugen
FA
Zell
Teu
##geschlecht
chinesischen
##yg
am
##eiler
Neur
Mannheim
Posten
##streit
Has
##leute
##oppelt
Hause
##pel
##ieter
Pferde
DF
##förmigen
Töchter
Rechtsanwalt
Tisch
Zit
Wend
Asien
##rel
Labor
weißen
##spf
Lehrstuhl
Meg
Tol
##mor
privaten
##ährung
Begeg
Papier
Digit
##aissance
Etwa
Konserv
part
##iertes
1877
unterstützte
ter
Anerkennung
##sheim
Fels
schließt
grau
##ista
Zur
##anie
##deckte
Einer
Brunnen
denk
richt
##wall
##aillen
Menge
hierbei
European
##ächer
##kloster
Symbol
##ysi
Mes
##angriff
Reiches
voraus
eigener
Niederlande
##fält
Luxem
Kreises
Letzter
##reste
##ünden
Erfahrungen
Wehrmacht
##boden
lokalen
##ieck
verstärkt
##ölz
##elor
Bier
kirch
##lied
##ension
Stimme
1863
Einsch
##alition
##ämlich
Technischen
##wertet
bildeten
PM
Altstadt
Woiw
Gil
Kombination
Beweg
##gebirge
lautet
##spunkt
##erin
##vard
bieten
##mach
Marke
##ave
##put
Cur
behandelt
Fab
Bronzemedaille
##ßt
##hes
Leu
Künst
kämpf
Gebrauch
Drittel
Verbreitung
##wirkungen
##elles
##essin
Vorstands
nämlich
stür
zieht
Kardinal
Beispiele
Verbreitungs
##hedr
Bata
post
holte
aktiven
Anspruch
Auszeichnung
beschäftigte
Cop
auftreten
Ruhestand
Net
##gebiets
umge
##ktiv
##vereinigung
Pod
Pas
Rekord
Journalist
##teau
##oma
##präsidenten
Roh
Road
Dire
Methoden
Bett
Dietrich
##df
##üllen
Weihn
zogen
lehrte
Grundstück
##maschinen
wichtigen
Unabhängigkeit
##lim
Walt
Naz
Jäger
##fordert
1830
Mak
mod
##verzeichnis
##omer
##äuden
Kamera
dro
beendet
##ausgabe
Kapitän
Gottfried
Regensburg
Wohnung
Verbands
Komponisten
ausgewiesen
##ikum
##örungen
nachfol
Konf
Gestalt
eingegliedert
Rats
mein
getragen
Waren
Übergang
##deutschland
Nachwuchs
##arme
God
##ätigte
verab
Wäl
Gitarr
##gangenen
Fassung
##institut
Freunde
automat
##icherungs
##bal
Medaille
Gär
Besatzungs
##ente
Fla
bezieht
Bem
Yor
Protest
##tret
Gemark
Argentin
train
verfügte
Oh
##sätzlich
zugänglich
Organisationen
ausgestrahlt
##ändigen
Abstand
Brücken
Deck
Championship
##einheiten
Erweiterung
Line
Lizenz
Entfernung
##team
Synag
##ufer
gewähr
Pion
##jon
Witt
Erkennt
##verbindung
##usk
Assistent
Hauptrolle
##isa
met
jener
Rab
Kel
Inschrift
##fo
spezial
Abstieg
Kandidaten
##oid
Woiwod
##aufnahmen
Nick
Staates
##vorsitzender
Grünen
##seitig
Werte
##kohol
wert
Gefahr
gesetz
##urnier
fortan
Tabellen
Trom
##attet
##ems
Tageb
Siegen
Urteil
Individu
Central
##rägen
##ämpfer
##lichem
##spolitik
Besatzung
##mäßigen
##version
tot
trans
Element
##hauptstadt
stattfinden
Pont
Kommandeur
##oli
##vide
##lieger
Studie
ermor
##uz
##don
Deleg
kn
Nationen
##kov
Krone
Anst
angebracht
Out
Promotion
Boch
entsprechende
Erwähnung
arab
AS
ermöglichen
dritt
Bull
womit
##ugoslaw
1800
ließen
KZ
Golf
Nun
##aller
gezogen
##ünn
Beat
##cial
Vel
##leistungen
##ichert
Kohlen
einger
##kla
143
Eigentümer
##decken
still
bürger
Sekunden
##uen
breiten
Milliar
##anke
News
Bein
Springer
##lings
bestehende
umstritten
Niederlanden
134
Unterschied
##olo
##medizin
144
EP
bemer
entwickeln
Neck
modern
##pression
militärischen
##gasse
Schiffs
##ardo
Pläne
trocken
verändert
##linger
##preußen
##größe
Lokal
##ütt
IC
Äm
Bachelor
Synchron
Indust
124
Lew
##idenz
Antonio
##aro
Pyr
jung
Anf
Insbesondere
Tennis
Modern
Veränderungen
übersetzt
Dekan
##htt
Sn
definiert
Bald
Sed
Statistik
Schick
französisch
Übernahme
##gefangen
ä
##modell
beinhal
##VP
##opt
offenen
Dou
Riesen
Wesentlichen
Vul
solchen
##periode
zuge
##zwungen
verfüg
##aga
##ión
Stücke
##ythm
höhere
Mic
##MA
##abet
möglichst
Botschafter
##war
engagierte
Arg
##wendungen
She
123
verblieben
##mont
kaiser
orden
beher
Krankheit
gelegt
Schlüssel
Termin
Tru
seither
wechseln
##bibliothek
eins
Höchst
##armon
##ubil
Sonne
gefär
sagte
##schnitte
##mes
moderne
Auftritt
häuf
Anwalt
Laur
Williams
begrenzt
Kirchengemeinde
konserv
##wettbewerb
##anni
Kun
##artig
Erkran
##yle
Planung
Lan
Römer
##ahrt
eigenständige
##olt
##ault
133
zentrale
erfolgten
Brut
Heb
bringt
hören
Franzosen
##klar
Dun
##hart
Pow
##bacher
Venedig
off
Hilfs
Spieltag
fallen
vorder
entstamm
##orb
##ätzt
##stufe
ehren
gewannen
##konom
##serien
Schwarzen
##itzt
reichen
Hex
Ral
Nikolaus
##beam
##maßen
##finition
Tourismus
139
Gör
Oberfläche
##halter
126
##prüfung
finn
##iell
Wende
bedeutende
Mut
##griffen
##samt
##flüsse
##fällen
##yk
##steile
##nischen
begleitet
Blätter
##rö
übernehmen
##kehrt
bekanntesten
##ebene
##ritter
mittlere
Eth
mech
One
##national
##kommission
veran
Plätze
hinein
Pres
##schild
Cob
Stär
Systems
Columbia
Antrieb
Sun
Skulpt
Aussage
##har
##eman
##fort
lagen
sprechen
no
##ological
eingemein
1856
Bauer
Breslau
Ukraine
anerkannt
##post
Down
individu
CS
vertrieben
Albums
Reisen
Lat
Felix
soziale
##sprachige
berücksicht
##iedlung
##shausen
Mei
nam
solcher
##gert
##phase
Regionalliga
Wellen
##bec
##dis
Seen
##gg
##rock
##vorstand
Kabinett
Jones
üblich
les
Künstlern
Cam
gesprochen
136
Verordnung
127
##erien
##verhältnis
##die
##pal
Wörter
##AF
Tauf
Ferner
Paz
Prote
##ärn
glau
Brenn
Gebirg
eingeweiht
##weiten
durfte
Bam
##gehörige
komplex
bevorzu
schwere
Now
Minute
##önt
138
##position
gefangen
betreibt
Europas
##ölbe
##ehend
##sid
beklei
Andere
Roth
##erto
##üstet
##eitag
##astrop
##lagert
Meinung
vorgestellt
##onds
115
##waffe
verlängert
##aph
Life
##OR
##rate
##dauer
##irurg
##ammern
beschloss
Ensemble
Chin
Leib
##ners
Lorenz
Č
Holly
##frastruktur
##waffen
Barcel
Wissenschaftler
Takt
Ja
Magn
Reformation
Cru
##istet
##odox
Verteidigungs
nöt
##achse
Last
Marburg
Int
rum
##ylvan
##häusern
Leiden
##ängerung
unterschrieb
Griechenland
##icken
Dal
gedreht
Bundeswehr
befest
etc
Fernsehserie
##druckt
##club
##spor
Alte
gestorben
Lebensmittel
Deta
Thron
russische
Linden
##firma
besie
Church
Reiter
##kamp
Verlei
##otent
Bod
Verz
##ringer
Außer
ziehen
einheit
aktuellen
Brust
Mineral
Eta
Opt
arb
##gesellschaften
##leit
Bör
nationalsozial
##ield
Anth
schließen
Madrid
Geschichts
##isieren
traditionellen
##quert
Jerus
Fred
oper
zerstör
ausgebildet
jährigen
Neb
##skirche
Projekte
wirken
Christus
##bezeichnung
##board
Orient
Pariser
Sekretär
Sz
##ierend
Ägypten
##icus
erlaubt
##ommerziel
137
benötigt
##äuse
##äub
Din
Erzb
##anna
Tax
Gebäudes
reform
Exemplare
Kohl
##sprechend
##ligen
Bands
unterschieden
##amtes
PC
##person
Amerika
Potsdam
1806
Brigade
##archie
##burgh
Love
##zylinder
Kino
platz
But
Koordin
Mündung
Leipziger
staatlichen
##steinen
Bauwerk
AC
Aur
##ause
##utzung
zugelassen
Kav
##ingham
Marsch
##raucht
Bahnhofs
##ube
Günther
Nie
##ania
Hagen
Motoren
##zeitschrift
##EN
##arth
##daktion
##pommern
Laub
Sozi
reiste
eindeut
archä
##ès
##afr
##IT
Harry
##fahrten
Konzerte
Metz
Großherzog
Heimatstadt
##litz
##instr
Vir
##zirke
1859
ide
Tabelle
Oran
##verm
Existenz
Erf
got
pf
1854
mehrerer
##ili
Jänner
speziell
Herzogtum
Verhandlungen
Zeitschriften
unbekannt
luther
treffen
##akes
##alia
Gab
Kön
Marken
gelangen
##skl
Awards
Freiherr
est
##organ
Burgen
##stellers
Christen
##azin
Lokomotiven
Ron
##auert
Glob
geschlagen
##ni
##brand
fert
umgew
##höfe
profession
Lieb
Saisonende
First
Samen
Profil
Prix
##AR
##tragung
langer
##inzip
gült
##él
##icip
1857
##imetern
besonderen
Fas
Stipend
##cen
Giov
Lehen
Urkunde
##ores
##ivals
übergeben
##stes
beeinflusst
Blues
##wissenschaftler
##dat
##sinn
##gewinn
Hierbei
unterstützen
Rake
##mittlung
##räumen
festgelegt
Seinen
##athon
Vill
Gesetzes
##vey
Jähr
##gelände
kurzer
##gleis
Brot
abhäng
zusätzliche
Human
Kür
##ów
Elect
##malerei
mehrmals
Neuse
##tlicher
entworfen
jahr
digit
Ax
frühere
1845
Corpor
Wat
erfolgreichen
##legenheiten
##lowen
Manager
akadem
ei
##mand
##stoß
##etto
Pian
Iran
##schung
Nahrungs
##rey
Adler
Bulgar
restaur
Premierminister
Victor
Koalition
Budap
Az
##anbul
##förmige
##fällig
Tay
Rub
Barcelona
##rebs
Erg
##achts
Bernd
erkenn
gleiche
entwickelten
1855
Kontin
Irland
##beginn
Gul
Maschine
105
##uelle
Kost
errichteten
Grim
Stro
Ins
Partien
aufgegeben
Navy
inform
hundert
entschieden
Beton
Moritz
##hungen
rumän
##gebietes
forderte
Barr
Satell
gleicher
Kul
ukrain
Kapital
diverse
##skon
Bucht
zweier
##ummern
wiederholt
Wupp
Ziegel
Schnee
##ES
Pho
##rische
Schritt
##oul
Jör
Funde
By
##achter
##aktoren
Napole
##auten
maximal
##scheidung
##karten
erfolgl
ergänzt
##staaten
liefer
##zucht
möch
Legisl
Zweig
schen
Tob
ältere
##edy
tour
Mitbe
Woiwodschaft
##alismus
sc
Ans
Leo
Eint
freie
Schwanz
bedro
##gefü
Strateg
Grupp
Rin
##bürgermeister
Restaur
##räuch
Heide
Anders
Milliarden
1852
1803
Lands
Cla
überliefert
##nab
sichtbar
Ret
phys
Gene
Vinc
Mailand
Motiv
Verteidigung
##IC
Bow
##istum
##andten
Verlust
wirtschaftliche
Pak
evangelische
Kennt
Ski
Möglichkeiten
Pin
Dynast
Hirsch
##ope
##fter
Anb
##ensus
Konzern
Aufstand
dänischen
##eigung
Castle
beteiligte
Bundesstraße
##imp
CO
Mi
Nar
Korps
Gewässer
##olen
Day
Joe
Ausstellungen
##auss
Oder
##händler
Renaissance
Vi
Ye
##mäßige
Samuel
Verbesser
stellten
allgemeinen
Ero
##utete
Hild
##achs
Guts
Barock
kontin
einfachen
private
##erz
##eldung
Vit
##alom
Tot
wichtiger
##strafe
ergeben
Rücktritt
##ingung
Force
##vorg
Nass
Penns
Virginia
##olph
##dichte
Weiler
Interpret
führenden
##enhagen
##vas
Jacques
verteilt
Sy
Analyse
Young
##iness
##gru
Fein
Berater
transport
Witten
setzen
schaffen
##achus
##staben
Somit
##ylvania
Ath
Ansicht
Eier
##lechter
Baureihe
Ideen
italienischer
##werten
Ty
##bergs
Ausbildungs
##AC
##tur
114
Günter
1858
Google
##alth
##nieder
NHL
Class
Definition
##kol
##eiro
Kinos
Leichtathletik
Olympia
Ausbruch
Monument
Einkommen
kommerziel
1851
##nd
vieler
Viertelfinale
vierte
##leb
##ützten
Hosp
eingemeindet
##antas
änderte
$
##gra
##athan
Claud
darstellt
##obile
##frieden
Rumänien
Aster
Zusatz
protest
kontr
breite
Spielfilm
Divis
Kolonial
kanadischen
brasil
positiv
Series
offenbar
Konkurrenz
##beruf
##steig
Muster
Kell
Stet
Kaufmann
Kollegen
Rose
künd
Ehemann
Kooperation
##zeugung
##ingu
##gehörigkeit
##partei
##projekt
Handball
Beteiligung
##onstr
Reserve
Markus
##amts
##önen
##mension
Landkreises
##etzungen
Gleis
Zwangs
gewähl
##igan
Juan
##etischen
Well
##mung
119
Aar
Jerusalem
Lichten
Nam
Geschichten
##splan
##istisches
pdf
##abschnitt
siegte
##üch
##spar
bekommen
Som
##bronn
Katz
Enkel
##immungen
Konstantin
teilnehmen
##amerikanischen
##quelle
XII
hel
beobachtet
Produzent
Sprint
Californ
IT
##etti
Fres
Umfang
Alf
Dorn
##stitution
stattdessen
##anik
##würfe
##möglichkeiten
Lange
Säulen
Krim
##hain
##räft
Marg
install
ungewöhn
innen
##greifen
ed
118
##üne
##ütter
zurückkehr
verzeichnet
Kredit
geringen
angrenzen
Om
Lob
Florida
Myth
##ministrat
Eberhard
ermittelt
Schacht
Freiwill
##becken
militärische
Hollywood
Kim
dreimal
##erd
Bibel
Ut
schwarzen
unterstellt
Rektor
beschädigt
##lein
##rica
untersucht
##friedhof
##weich
Erhebung
Ursprung
Cha
##grafen
##olis
Alph
##alls
##sbed
Carolina
Preußischen
NR
ZDF
Abd
Ferr
Spuren
maßgeblich
christlichen
##onto
##könig
landes
Terror
Ausgaben
##aken
Ereignisse
##behörde
diesmal
##rice
Pul
Milit
##tels
Kriegsgefangen
##ures
PMID
Vikt
##zusetzen
Bruno
##schäd
Erfurt
Up
Koll
##FC
##IV
reag
Media
Gitarre
Code
Schne
##pass
könnten
Bergbau
ähnliche
Gletscher
Landgemeinde
Berge
##bauung
Portal
Gesicht
Premiere
Systeme
##ori
ass
Südafrika
Pennsylvania
Plänen
##sprecher
Speicher
geschützt
##ress
Wales
##jähriger
##bers
beider
##ographische
Regeln
jüngeren
integriert
Mör
Massachus
##enthal
##sprachen
Tschechos
Kilometern
##nern
Sud
größtenteils
1847
BR
Vari
unternahm
Hang
Jüd
##loh
Mul
Mobil
##gessen
Herrscher
Mittelmeer
##rath
Laus
Melod
Ford
Hallen
Roger
Nordwest
Mittelpunkt
angep
##nennung
Führungs
##lexikon
Erstmals
Kriminal
Parlaments
Still
Fehler
Chronik
Galerie
Inneren
Jahrzehnten
Dev
##macher
François
109
Committe
Put
##schritt
Massachusetts
Blue
##ischt
türkischen
Dia
Riv
##ürmer
##rauen
Wiesen
##isburg
täglich
##zep
Benn
Spir
Quell
Bauten
Flotte
orth
##portal
##phy
##ray
Review
##ätigen
##bestand
Höhepunkt
Treffer
städtischen
habilit
Istanbul
technische
Syd
konstru
California
erforderlich
ann
Knochen
Innerhalb
erheblich
##fecht
gaben
Jedoch
Spur
##rüstung
Fusion
##umer
Datei
Schäd
Opposition
Komment
Fac
kontroll
Kathedr
bayerischen
##ensburg
##imir
stimm
unterteilt
BBC
verletzt
möglichen
Flu
##darsteller
113
Witwe
Erober
##aki
Belager
Fassade
Komplex
Vogt
Nörd
Silbermedaille
##ariat
liber
machten
Luxemburg
abgelöst
andererseits
##mie
Schaff
Verlags
nunmehr
Od
letztlich
Verlängerung
##zellen
Abtei
Pi
Goethe
OR
##ielen
nutzte
fielen
bezogen
Geschwindigkeit
##fragen
beschrieb
##eyer
##ministeriums
Deshalb
##listen
maxim
##antin
Litt
wirkt
1846
Phot
##mutter
Kohle
Spekt
derselben
einerseits
Cle
##iveau
DM
##isto
Berat
Bedarf
Dynam
bedeutendsten
Minn
Nest
Stationen
Ziele
##uns
frem
eingebaut
Skla
Dritten
gründeten
wandte
erfahren
##ksh
Innenstadt
##leun
gewöhn
##AG
Trennung
geändert
gefertigt
##azität
Kopenhagen
Mühlen
##ähren
Bergen
Fehl
Bündnis
reduziert
eingezogen
Sher
gezählt
Brauerei
unterrichtete
Ref
1813
Neuer
##lehnung
Ausstattung
##maschine
umgewandelt
Old
##isp
##vollen
Umsetzung
##alender
##gs
Runden
##aufnahme
Ni
Schwestern
Dreißig
Änderungen
##ged
Artillerie
außerorden
Seitdem
verlang
##schnitten
##acional
Pac
##echten
##bezogen
##rüm
##ättern
errang
##rem
##aster
Felsen
Dresdner
Katharina
DB
##orient
##dentschaft
##riger
Cy
Ing
##henden
à
##zelt
Onkel
Budapest
Sandstein
##dh
Hund
sang
##sbet
##gerte
##ächsische
vermutet
Anti
gefördert
Bereiche
Brüssel
Cir
##schend
Saale
Quadratkil
##sprechen
##verbände
Vent
Patrick
##zügen
voneinander
##orgt
Vieh
##bleiben
Army
Beschluss
Diesel
Kleine
besucht
tun
##oda
diskut
##gh
##berts
##bereiche
Reh
Schenk
Konflik
Jahrgang
Gemarkung
##uts
##onte
1853
Gedanken
##bedingungen
Neuseeland
Datum
auseinander
vorhandenen
Synagoge
aufgeteilt
##kins
##igital
Abwehr
erlebte
einfache
Committee
Veranstaltung
##professor
##page
Loch
Cer
##duktion
Theat
Antrag
##obel
Biele
örtlichen
##KW
##eting
##emeister
heft
Cover
getroffen
##lö
Pav
Allen
##empf
att
Farm
##menge
hervorge
XV
##orum
Griff
Palast
Oldenburg
Österreichs
Hamm
englischer
##esheim
Studiums
Lös
Trib
geleitet
Materialien
symbol
##sonsten
Freder
sorgte
##uliert
Rac
Typs
##ildeten
Graben
##telle
sied
Evangelischen
Gefü
##ädagogik
theoret
##shire
Hals
Jurist
##schlüsse
##let
Kla
Tan
Patent
##ögliche
Befrei
Kritiker
##pst
Hü
##resse
##lieferung
##kes
x
##ertal
##sphäre
wichtigste
Wettbe
1816
Grau
Inse
##etische
direkte
engagiert
farb
Versorgung
##ides
##winkel
106
Zwer
Schwierigkeiten
Chl
Informations
Power
Cross
möchte
geeignet
Auftritte
##ince
Gert
##forscher
Erscheinung
Klinik
Netzwerk
##folgen
Mike
Rainer
Bang
Messe
mächt
Anfangs
wollten
Verdienste
roten
##hamm
Einzugs
Million
Präfekt
Redaktion
vorkommen
##eng
##lenz
Henri
Span
erweiterte
organisierte
##atus
##icke
Ohio
erstellt
##rus
Inhalt
Gesundheit
Leh
##bilden
usw
Heck
Effekt
Männern
Fleisch
israel
##amo
europäische
##ühlen
Cott
erzeugt
umfangreiche
117
bedient
Schottland
##cz
Knoten
polnische
fahren
silber
Botschaft
islam
ther
Jeff
Reinhard
sechsten
Zwar
##BS
Schaden
1818
Carr
##okomot
datiert
Kindheit
Testament
Stockholm
Petersburg
entspringt
##konstru
Johnson
Sektion
Dynastie
kritisiert
##ped
##kirch
Exil
Geschw
Hold
##owitsch
107
jährige
Streitkräfte
Versionen
staatliche
Stadtgebiet
##alyt
gewalt
verwendeten
##ourt
##zeitlich
Wiederaufbau
Acht
Ostpreußen
##aj
##mas
anschließenden
Robin
##eiern
eigentlichen
sicherte
##fries
Grundlagen
Oliver
anf
Dialog
Königsberg
Gabr
Winkel
Mov
##reuth
##onenten
Bun
##rachten
##skammer
##eins
##ergie
Glaubens
Amerikaner
Illin
erfolgen
Aufmerksam
##konstruktion
##mannschaften
##offizier
mot
##hütte
Fär
altern
denkmal
kämpfte
##sänger
Victoria
aufw
Franzis
America
##éd
Davis
Aufsichts
##alit
Giovanni
Pot
##ementen
nochmals
dienten
Nordamerika
Kurfürst
direkten
steigen
Geräte
Strukturen
Aussicht
Französischen
##sens
1814
Greif
aufgerufen
Ts
##ettet
kleines
Illinois
Landtags
Hem
Apostol
1820
Had
Ausgrab
gefärbt
Europäische
##seh
Leb
Normal
##jahre
Kent
präsentiert
Korn
Südost
hierfür
Expl
Rolf
dicht
##wärtigen
spezielle
Els
Clark
Ernennung
Conc
Ress
Sech
Ministerium
finanziellen
Treffen
##zimmer
Pader
Strahl
##ritts
vorüber
stehenden
DJ
##waren
##arisch
Weser
meistens
Zuvor
Alkohol
##ologischer
Jord
Zugriff
Atom
restlichen
##reift
##ächte
André
wächst
Free
film
philosoph
Libr
Stimm
##led
##pton
##inten
bewaff
bundes
##östlichen
Finnland
Bio
dipl
##gast
##management
ermordet
##pflanz
aktive
Keram
Synth
Goldmedaille
Osnab
Hur
##ournal
Gießen
108
##feuer
FDP
##zeuger
ethn
Spark
schützen
Werkstatt
Charlotte
XX
##blemen
persönlichen
##unken
Wohnhaus
##skomm
bemü
Ludwigs
sexu
##telligen
erhältlich
Provinzen
Zucker
Hass
##fahrzeug
Reichen
exper
Synd
gekenn
Osnabrück
sämtliche
##era
Ärzte
Council
besiedelt
Thor
Demokratischen
FI
vorgenommen
Tw
##leicht
##imes
##iffen
Anat
##nik
wählte
Chris
##cus
Squ
Saarb
##änomen
Jesus
los
##kanal
Solo
Dienste
Ank
Gon
##mol
##sbahn
freiwill
Hut
02
künst
##zustand
Strand
##xid
Emer
##can
Reu
Rettungs
104
1837
Highway
##kens
schlecht
##kreise
zugunsten
läuft
##bin
Streifen
angeordnet
Infrastruktur
intensiv
##verbindungen
GT
Amph
verlief
Agent
##unen
##verlauf
Freizeit
Vorsitzenden
Präsidentschaft
##reichend
##illes
Ämter
origin
zweites
bauen
Brem
##ülern
günst
Junior
Dokumentation
1836
Pflicht
Ell
Sciences
Piet
##aktionen
##rone
##icker
Patri
##ransport
##landschaft
1844
##echte
hom
Toren
Anlass
##EC
Landgericht
##ienne
Viet
Klang
Dozent
Micro
abhängig
Meistertitel
Roland
int
Wilson
1835
bekleidete
Aufmerksamkeit
##ee
comm
##gespielt
##ückt
116
Studios
103
Argentinien
beauft
spezif
##mess
Sof
##zeichnen
Challen
##ulf
EC
##maler
Abente
##arin
Gedicht
Stephen
##asi
Staub
Mengen
Training
##ographischen
##alteten
1843
##abschluss
Roch
##eiermark
Aufl
Blüte
enger
Meth
##ío
Psychologie
##stimmen
Signal
grundsätzlich
Sax
Verbindungs
##nord
Endr
##zo
##kette
##weisung
Zerstörung
1842
qualifizierte
mex
Steve
alter
##verk
##ident
Inhaber
Lein
##freien
durchsetzen
##adelph
##aturen
Bernard
Drag
Umfeld
Bomben
demokrat
Cons
##TV
##alin
tie
Ortsteile
Kore
##po
Neckar
Hauptort
Games
gewid
ausgedehn
Flusses
zusammengefasst
Ausstellungs
zuk
Aspe
Admir
erfolgreiche
Äl
##isst
350
##yo
Kurs
Sha
##begriff
##einkommen
Vorsitzende
##illy
Report
Atel
Anbau
Friedrichs
>
##ali
Ale
##schiede
##sprogramm
verwenden
##ätestens
Kärn
##bart
Oze
Koblenz
##ags
Bit
Mode
ausgewählt
##unnen
Bapt
Schlos
Prüfung
Sprung
##ators
##stechnik
##ail
Wart
Falle
3000
Erklärung
##este
Fremd
Tiefe
weiße
##sprozess
Warschau
Varianten
900
expl
Vizemeister
##block
Räume
Tam
Episoden
Universitäts
##DS
Pic
##versicherung
##arett
##igner
##jenigen
##ingenieur
Sex
##izont
Konferenz
Windows
üblichen
Lag
Cab
##wohnern
##ätigkeiten
##rohr
1841
allgemeine
##ls
Cass
Dram
Musical
##abend
##irchen
Public
ehrenamt
abgebrochen
##fass
Toronto
Philadelph
Fotograf
Bast
Jackson
Generalma
##hammer
Mittelfeld
1832
Böhmen
##EG
##hai
##figuren
##trieben
themat
Landrat
Durchbruch
Trin
##stitu
ausgeprä
Edel
Fertigstellung
##gibt
##http
Rup
##schirm
Hinzu
beschränkt
##ogramm
Schatten
Klim
Singles
##athemat
##ombard
Inc
natürlichen
−
Einsätzen
##icz
Lav
Sens
aufgel
ausgestellt
##ippen
##renten
Werft
Vizepräsident
##umpf
##ürzt
Taylor
##ères
saß
1839
##verteidiger
sh
Engine
##freiheit
Gespräch
1838
schwei
##lu
Jörg
line
entdeckte
##oldt
äußeren
##borg
gezwungen
##quer
Publikationen
Becken
##orgungs
Hot
australischen
##zit
##einrichtungen
##emin
##itee
Good
Esp
##folgt
##karte
Jura
Frances
verabschie
Masse
Spielzeiten
##ás
Dür
1810
##bundes
Spring
menschlichen
##ush
##gard
japanische
##bä
lehnte
leistete
aufmerksam
gegliedert
##beschreibung
##esien
##auffol
Zellen
##ießen
##abgeord
bewusst
bestehend
geplanten
Agen
##finder
##westlichen
Haushalts
Agr
Anforderungen
Ever
Monats
Batt
##einsatz
Änderung
umgesetzt
Pek
##nitten
Wicht
Kräfte
##ordnen
Liebes
Cann
Parad
Hoffmann
erinnern
##senz
Einstellung
Ib
darstellen
spanisch
Schützen
rechteck
Landtagswahl
Fachwerk
Tschechien
##uier
Neun
Centre
Erinnerung
##ämme
dürfte
Elf
Lem
Henn
darauffol
Ausführung
Plant
Dreißigjährigen
Leut
Mannes
##atisch
hinten
Einsätze
##ti
Turb
angeblich
erkennbar
bedeutenden
##illeg
Water
Schmal
Zusammenschluss
registr
beherber
##fähig
##sprüche
##cul
Gregor
Jugoslaw
Nachkommen
##knü
Za
##ünde
Gei
Mig
Sonntag
diversen
##aßen
Gabriel
abschloss
Time
##uv
##gerät
Austrag
Nachkriegs
Qualifikations
Ech
##gründen
##rans
Beach
römische
Austausch
##uhren
##risch
Elbe
##hersteller
Kathedrale
##skap
gesund
Philadelphia
##atter
##fahrzeuge
Prüf
Basil
kandid
Darstellungen
##brechen
Schäden
Hed
wies
Bände
sächsischen
##icherheit
##läuf
##olith
sinn
Municip
abgesch
Aussagen
eingestu
Positionen
##gewäch
##schrau
beherr
tiefer
Stadtrat
##befehl
Schuld
Vertrieb
sign
Pad
##ree
ausgeschlossen
zukünft
Hert
##dungen
Kugel
Gedichte
Redakteur
gelingt
##äle
##cal
länd
leiten
SK
Denkm
##owitz
##öffnet
Hubert
inneren
beauftragt
Express
abgegeben
##tz
##ähne
##andin
Pastor
##trat
##reihen
verste
beinhaltet
Fü
Book
Salv
Broad
Schum
schreiben
##urb
Stunde
berichtete
Pension
Urkunden
aufgehoben
Pest
Ergän
##komplex
##ehmigung
##gär
Eric
festge
geringe
##grenzung
##asa
##ez
aktuelle
##luft
Jens
Boote
Jubil
KG
##ophon
Chrom
belieb
schottischen
ausführ
##süd
Kast
inszen
Verleihung
##PS
Diözese
##kün
Maur
##kommt
schwarze
##hus
welchem
Moz
illeg
verfolgt
Ök
Chile
richtete
erfährt
Corporation
##äg
Haw
Benj
Abstamm
ungarischen
eigentliche
SG
Châ
Professur
Siedlungen
Jim
##schaffung
Betriebe
Haltung
Mittele
##rium
Tak
##avor
##eifen
##stoffen
##roph
##video
Busch
Douglas
Christop
##teilten
aktuell
##oberfläche
Folgezeit
mont
Erbe
Jahrzehnte
UE
##sive
lan
##ichen
Vorles
##iene
##lichten
##ordneten
##ött
Such
durchaus
Bielefeld
Grundriss
##rauff
##kannten
1821
Becker
Sammel
antiken
##bur
##aude
Rote
##schuld
Siegfried
Forschungen
Mix
##jäger
Over
Tokio
Rezept
regionalen
schön
##opäd
Jün
Point
Eichen
Sitze
Schreiben
übte
freier
##fälischen
Carlos
Urauff
Christi
Formation
Game
Cornel
Found
##schützen
Langhaus
##kurrenten
##oh
##horst
##gebnis
##storben
Befest
Hinweis
Katalog
Hung
##ärm
Sattel
Eliz
ermöglichte
stabil
##schten
##OC
Brig
##kons
##üsten
paar
Herrn
herum
##artikel
Eigentum
##armee
Häusern
Spielern
##ated
Lewis
lebenden
quadrat
##ET
Drogen
Datenbank
Alters
##esh
##vertret
Vik
Dirigen
interpret
##orial
Born
##archite
erhaltenen
##krat
Aufenthalt
##berge
brachten
Erwerb
erlern
##ione
Key
##adier
##metho
Fähr
verstorbenen
##iop
Heirat
##iteratur
gekennzeichnet
Residenz
verpasste
Produzenten
##ehe
Nu
Bauch
##mär
101
trop
Great
##ragende
Zauber
##solv
entstandenen
##ally
Segel
##manische
##ids
##yll
##here
Vorpommern
##ansas
Amb
news
##ländischer
##stehenden
Therapie
Fortsetzung
##lebt
##ypen
Liss
##kter
mir
##ändischen
abgelehnt
##ici
bo
Kok
Angst
##herrn
Brook
evangelisch
Reb
erbaute
Französisch
Freundschaft
ergab
manchen
##höch
##utzer
##AM
RT
Bog
##athlon
Auton
##kommand
längere
Liefer
##ätt
##shaber
##tirol
Social
##herstellung
##ements
akzept
Ré
Pommern
erzielt
Jeder
Rumpf
Auge
##eignet
Beamten
erfolglos
Technologie
##ár
LP
Pant
##olz
##try
Fuchs
rasch
Getrei
reichte
##prov
Jar
beant
##cast
##saal
##klärt
Feier
Fellow
Religions
##ghan
Fast
##antischen
Hochzeit
Volksschule
habilitierte
Hig
Prototyp
Trocken
Schülern
Vertrags
Pers
##äpst
Aud
##ads
zitiert
niedriger
##besch
Cham
##ländern
São
Hong
ferner
Nacional
Stellvertreter
##ürt
Syr
verfügbar
Gelehr
hängt
Oblast
##eilung
Journalisten
Identität
Dec
Lehn
Duisburg
Us
mich
Bochum
Malt
bezüglich
##wicklung
##work
Ihm
Immobil
Legende
##ifikation
extrem
Lern
prim
##fahrens
dauerte
##gott
##lach
##reuung
einzig
trafen
beweg
daneben
Folgende
woraufhin
kurzzeitig
→
pat
##owo
Honor
begründete
Komödie
Kandidat
##ordens
Arena
Leucht
Schwimm
Ried
Vorm
plöt
Event
südliche
cir
Briten
##bury
Ble
##ässern
Sydney
Junge
Women
gestaltete
Way
räum
elektrische
##mech
Eva
##spielerin
##ms
Dafür
Schienen
wiederhol
##dom
##partner
##aton
Obst
Apothe
Biograph
##edel
##russ
Río
##freund
historisch
Staatsbürger
Ansatz
Taschen
##osh
##sko
##laus
##dlich
Ganz
glie
Chefred
##skar
Beu
Kanzel
##emens
strateg
Kontakte
Marathon
abgeleitet
##not
Gebäuden
Weimarer
##anes
Nad
##bourg
Nahrung
Generalmajor
##itis
zeichnete
##enten
Andrew
Produktionen
erneuert
##tex
1817
Comic
##heben
Dritt
Vorteil
##riet
Kru
seinerzeit
##ians
##enner
Harz
folgender
Verfolgung
Durchschnitts
Repar
starben
Versuche
Conrad
Business
Wester
breiter
liegende
kontinuier
Institutionen
##punkten
mögliche
Tony
Pharm
äußerst
königlichen
Sowohl
denkmalgesch
Id
Ursache
Freundin
westliche
##yen
##star
Traum
##motoren
##prozess
Zweiter
1831
Blei
Kavaller
##hofer
schlossen
##geräte
##klassigen
befasste
Moor
##musiker
Turniers
##ural
Perspekt
Buchstaben
##afeln
beit
renov
Harald
##cycl
Bischö
nächst
Serb
##ausschusses
Wik
jem
Schlosses
##ef
Rut
Punk
##rekord
Ruder
Täter
Kolonie
##hlet
##ithm
kreis
Relief
##zert
Ner
Rav
##okoll
Paderborn
Akadem
Insekten
Weihnachts
Ali
Cit
##wirken
darauffolgenden
lit
1834
##ifizierung
erschienenen
##ileg
Seil
##etta
körper
Bin
Lac
Orth
##sklasse
Bistums
##ding
Schwein
Zeug
bin
Zerstör
Genf
Nag
Wärme
Kulturg
Plattform
Alternative
Mail
Trei
glob
Mandat
Schicht
mathemat
vielfach
##achsene
##auch
##ecken
Mario
Gord
Restaurant
##tim
industr
Läng
Übersetz
geschickt
gesichert
##quellen
##haltungs
Straßburg
1833
verfasst
Tän
Regiments
Gor
##ranten
kombin
Luftwaffe
Sees
hölz
enthielt
Jugendliche
Hilf
##streifen
Pur
##empel
##register
##ices
Finger
Versicherungs
politischer
Staatsanwalt
##dre
Sib
befür
vielfält
Benjamin
##ask
Frag
Erdgeschoss
##ämm
Nassau
Renov
##liegt
legt
verlieh
diplomat
Auszeichnungen
Hütte
festgestellt
##fristig
gefallen
nördliche
##ami
Flugzeuge
Naturpark
##kritik
Überleben
dis
##bungs
Foto
stattfand
##ekul
##ights
Prinzessin
Jersey
kat
Brad
##vögel
##awa
##aris
Dank
Leute
##analyse
Flagge
hierzu
Zulassung
Grundschule
Humb
##gehende
Flüss
Steine
##usstsein
künstlerische
##gendes
Handwerk
##spräsident
Vorschlag
Zeitungen
sagt
Werbe
##schwitz
Mitbegründer
Guard
Imper
Schlesien
##zentrums
bestimmen
##männ
##auften
Flach
Hanse
##pflanzen
1808
konzip
##ouv
antrat
Höl
top
mult
up
struktur
Fans
Sult
Abstammung
klassische
##pool
Lev
##endel
Häft
##runden
Zürcher
##alo
Chap
##illing
Weinbau
angehörte
##pil
Manuel
suchen
##abon
##wel
##vermögen
Pseudonym
##osexu
1200
Inde
##ündete
Sophie
Vorbereitung
##ily
##ierer
angem
Betracht
Kh
praktisch
verstanden
Hä
Lé
Verwaltungssitz
##familien
Chemnitz
miss
vorber
Piloten
beliebt
weibliche
trugen
eingestuft
Amtes
##bildungen
##gesetzes
spanische
konk
schul
Homepage
musikalischen
Hus
##ätzung
Distanz
Arbeitgeber
##shö
Diskussion
Ark
Versch
##conom
gesamm
##EL
##sbild
Städt
Übersicht
##ömm
##ains
##agten
Prakt
##sgruppe
kündigte
##mord
##räder
##ares
##anzler
Court
bekannter
zahlreicher
IN
result
##bor
##ants
Princ
##uff
Zweite
Tournee
entsprach
##ourne
Parks
##wanderung
##ränkischen
aufeinander
##otto
Abb
UEFA
##sendung
betreu
##ns
Hilde
verfügen
Vorstellung
##adi
##behalten
##cio
##essern
Model
Keramik
Oberösterreich
##euern
Legislatur
berücksichtigt
##laub
Magd
##ersdorf
##quenzen
##hüter
##schießen
##indel
Ecke
′
Gallen
gefährdet
##alk
##adbach
Orchestra
comp
setzten
Ei
##decke
flach
##fektion
typischen
##ives
##ieber
Filmfest
Verleger
Gefecht
Integration
##spark
Wis
Schlagzeuger
Tai
Digitalis
gra
##orter
##mauern
##usste
##aneten
##FL
##odes
Falken
Little
Belagerung
##uma
Dob
gearbeitet
##anismus
Drama
Steiermark
Ry
Bug
##quartier
übernimmt
Verhältnisse
verringer
Abbau
geplante
##orp
leg
##ways
Gaz
Werks
Wy
indischen
Ud
1812
##plätzen
##ends
Andrea
##greg
genaue
##arktischen
Hydro
Pilot
##ianische
##steiner
##karriere
einfluss
##gewalt
Zuschau
inspir
##historiker
##pap
Ric
Tieren
russisch
Hauptmann
persönlich
bedeckt
Experiment
Jenn
Diplomat
Stars
religiösen
##endo
##krie
##filme
Bibliothe
Uwe
##uellen
qualifizierten
Champions
finanzielle
##andern
Präfektur
Arzn
Mé
Job
abgew
anzut
Untersuchungs
##räg
##ladung
##ström
Fert
Leser
Blumen
Textil
Breiten
Verbesserung
Stufen
anderes
Sozialdemokrat
##ON
helfen
umliegenden
##oo
Fut
musikalische
natürliche
Night
Achtel
erfüllt
##reisträger
##onna
##arben
Deut
Reeder
stammten
Propag
Schatz
eindeutig
offene
1828
Draft
op
##größer
##gewächse
gewidmet
Anim
##ativer
##bezirks
ständig
versteht
##ruder
Pokals
##meisters
Dokumente
##lige
Schil
Hauptbahnhof
genehm
##AL
Link
Fähigkeiten
Antike
Heilbronn
##mente
Oliv
Stütz
fährt
ök
##stands
##ław
1825
Studies
##systeme
Schult
gefl
deta
Schlaf
ac
populär
##ommt
Verschw
Partie
gebunden
Lyn
##SCO
##verhalten
vielleicht
##iern
##nütz
##stiegen
behielt
Saarbrücken
##büro
##ordnete
##barer
Niger
##ungsort
Ermitt
##respon
separ
##bezirke
Medaillen
Wähler
eingew
Flugplatz
Rittergut
Ström
bester
##itees
Kategorien
unterbrochen
Ulm
Forum
Londoner
Auswirkungen
Hels
oftmals
Damm
angesiedelt
erhaltene
geschätzt
Bade
stil
Feucht
Schwäb
##gymnasium
##izen
SED
1809
erlitt
Originalt
beherbergt
Defen
##wil
Lett
##ration
##loch
Bür
Zone
##städter
Preise
##sperre
besetzten
restauriert
Schuss
Ign
##uminium
Miller
Minnes
##verteilung
Einzug
Cos
Rü
##basis
Tatsache
Verantwortung
##roman
##weichen
Holland
männlichen
##ühren
Hend
geteilt
nachweis
seltener
Thüringer
##ständiger
sucht
Uraufführung
##ev
Eroberung
##ülle
Reserv
##ensis
Ketten
##EB
##zien
Wid
1829
künft
Railway
##ysik
1824
Schied
##schreiten
Laz
Geor
##portiert
angebaut
häufiger
Festivals
##bö
isol
Erfahrung
ARD
Vorläufer
ep
sk
Gol
Hob
1826
Pionier
##bles
USD
##samen
##ozi
##walde
Tank
##stheorie
Harvard
##zahlt
##manuel
Schwieger
Kämpf
##eto
Wachstum
Territorium
##ästen
Salzburger
Feu
##laubnis
Gebirge
##gestellten
##wirt
achten
##ierender
Wurzeln
Spiels
Gross
Neues
Ri
Acc
##antik
Romane
Ereignis
beteiligten
##chor
##mack
Dep
##solvenz
Gruben
Talent
befindlichen
orthodox
künstlerischen
##rence
gemessen
erzielen
##soft
Vorarl
verstehen
Margaret
##inken
Durchführung
##ächter
Ernest
##ference
Seminar
Thailand
Besonderheit
1819
Dass
##inseln
steigt
angepasst
initi
Grafik
Demokratie
Nebenfluss
##hügel
##euerte
€
Münzen
##uan
Font
##jekten
Schwerin
##pfalz
Phänomen
##aute
Sund
Sports
Erlangen
Jahrbuch
Eb
##usse
##velop
##euerung
UNE
Poker
##ührungen
Stattdessen
##rip
##ressen
stieß
lokale
Abkommen
Frankreichs
Angelegenheiten
portugiesischen
me
##tere
Soldat
Terr
##ahe
Hospital
##zten
Erdbe
Verbandes
Schlagzeug
ausgerichtet
Rhythm
##schreiben
Erzählung
##zession
abgebaut
Schicksal
##etin
##ußer
Ersch
Gäste
Moderne
Kaiserreich
##gehenden
Cher
Format
Endspiel
Michigan
##abor
##ehle
Schmer
lieferte
fühl
Durchschnitt
veranstaltet
hl
Kau
Fulda
Märchen
Nordost
Under
verblieb
##filmung
Elektron
gehörenden
kräft
##brücken
Playoff
##rio
Treu
fehlt
##empor
##ism
Moll
chron
Triebwagen
##aal
##seiten
Atelier
Duo
##welle
Teich
regulären
##teln
Sechs
angrenzenden
Gras
Kontra
Umgang
Wilhelms
##becker
leist
Äußer
Entdeckung
##mitte
Berichte
verlegte
ähnlichen
Erforschung
##wein
Tafel
nacht
mor
bevorzugt
##illo
Maj
Worm
drehte
Kommandant
Color
Hochwasser
Py
ORF
existierte
##olley
5000
Zuletzt
bewegen
Merkmale
##oko
stet
Marin
fusion
##aks
##iche
##sturm
##gliederung
realisiert
##boot
##itus
##ässig
Books
##schenden
einzeln
Abschied
Überreste
belgischen
Bundesregierung
##zweig
1807
Scot
##laufbahn
besiegte
verwaltet
Gräber
Georges
Thal
Hamil
bekommt
Neut
##tertain
Sid
küm
Foss
Feind
begraben
begründet
Vene
dank
sen
##denkt
Conne
Eindruck
##ipe
##ochem
Kolleg
sichern
##haven
Story
gefolgt
Anordnung
Zeichnungen
##ulgar
Vögel
##völkerung
VIII
Bundesstaates
##agon
##ross
##ennte
##einrichtung
Mannschafts
Verzeichnis
Si
os
Areal
Treff
Museen
Betreiber
vermeiden
Abgeordnete
Mitarbeitern
Cous
##iede
Vat
##gewölbe
##rod
##leten
stein
##abilität
Mex
##ites
klin
Verständnis
##kam
lat
##üller
##ammlungen
Bah
##höhung
##wappen
##wesens
Bestimmung
Kirchspiel
Bestehen
Historic
norwegischen
Cin
begeg
NRW
Größen
weiblichen
##ui
letztes
Ont
##itionen
##alisierte
Hoffnung
identisch
##lief
bewir
Valley
entwarf
##hut
##äuß
Plast
Moment
##vik
Gur
spiegel
##inte
Hey
unterrichtet
Strau
Australian
Call
##ieden
##tagon
Leder
begleitete
persönliche
Drehbuchautor
üblicherweise
##älter
ersetzte
##erben
Berger
wohnte
Erziehung
##öster
Magazine
From
##beteil
Steu
##garter
Index
Florenz
##ienz
Reit
Banken
Vietnam
|
Enzy
fein
Kreise
komponierte
##oir
cod
Münz
Großvater
##ürf
##magazin
Abenteuer
Länderspiel
##gäng
##eda
Lt
##ivision
Aufklärung
##heber
Stärke
verlässt
Elizabeth
regionale
Finanzierung
Antwort
katholischer
<
##ness
aufweisen
Foundation
##städt
Amtsgericht
##sm
Hahn
Dokumentar
Immobilien
Karos
##brunnen
Meilen
Vorsprung
Lebensraum
schwedische
##ering
##feier
intern
Gewinner
event
##öte
Claude
##AP
##üllung
Hinweise
qualifizieren
##handels
Kühl
Verdienst
##enturm
Habilit
##losigkeit
Handlungs
DFB
##arbon
Jury
Ruine
##anspruch
Zuschauern
##eldet
##BB
Links
Typen
Dog
Akten
Humboldt
nachhalt
traditionell
Diam
Kraftwerk
##zantin
##urer
##istent
vorange
Insolvenz
##hringen
##ämmer
Result
##idad
Gü
##ikas
##ssitz
beruht
typische
erkran
leisten
##eimen
Flur
ausdrück
Kot
##bergen
bezog
##andinav
Zufluss
zählten
verbesserte
Jag
1798
Yorker
beheim
ausreichend
id
##same
##kreises
befasst
Hess
##barung
##orchester
benannten
genü
vorzu
Fiction
##sieg
Syl
##ickte
##inea
##entschieden
Darsteller
Nürnberger
IF
Umsatz
Kontext
##sexamen
Ablauf
selber
internationaler
##fa
##mäh
##obahn
Fotos
Autorin
Dritter
zwanzig
Erhaltung
Manchester
Unterschiede
Spenden
Peking
gebräuch
Gesellschaften
##richen
##gebnisse
Dreharbeiten
##denz
##renn
Chart
Gerät
genug
olymp
##liegende
Neapel
Clemens
##sphase
##bedingt
dokumentiert
sammelte
Glocke
Aluminium
##klen
##kräften
Country
Südseite
Platzierung
##ärzt
##lines
Bildern
Olympias
Niederschlag
elektrischen
1802
Haushalte
##rise
Gotha
Programme
Wettkampf
Zustimmung
Digitalisat
##räglich
fördern
beziehen
1793
##vereine
Gesamtwertung
Glie
Oskar
circa
##kreisen
Schiller
Zusammensetzung
Wlad
Buck
##drängt
Summe
Mall
Kreisstadt
##ór
##ieu
Vas
##theater
Allein
Schaffen
##üre
1827
Curt
##deuten
Auffassung
Verteidiger
Caf
Weis
teilte
Konstru
Verbrechen
Volksrepublik
Anteile
##opol
##linik
1822
Gren
UNESCO
##bevölkerung
Angehörigen
##rud
##korea
##90
Originaltitel
##wegt
##spannung
Hamilton
Cour
Verletzung
##tett
Gent
##amente
Trink
Telefon
beschrän
Erwachsenen
##organisationen
Lis
Aven
Absatz
##führungen
Sauerstoff
ausgesetzt
Schwert
##alm
eu
##quis
Inszen
Platte
retten
Sekund
Wahrheit
verhindert
Brian
gerufen
##hou
##worth
person
Oft
##antes
##nommen
Death
Rückzug
genauer
##ungszeit
Galax
Zucht
stationiert
##ipl
rote
Light
Gräfin
Schiffen
##produktionen
##verhältnisse
Kommunalwahl
##vir
Laurent
erhebt
##cle
##uner
afr
1811
Faust
Bamberg
Schmuck
Gattungen
##pla
übernahmen
Dunk
Rech
##ppt
##achel
##stadion
Annahme
Sklaven
Zweitligisten
BGB
hil
##staats
Mehrere
kulturellen
Dim
##schlagen
Anthony
jüngere
Sor
##house
##US
1801
Sammlungen
preußische
##ook
Urug
Grundstein
##aufent
##besitzer
Infolge
##leistungs
erfuhr
hinsichtlich
Hind
Contin
Torped
Körp
bezeichneten
##iae
##eler
##iques
Magnet
Loc
schm
Zugehörigkeit
##rez
HC
Fron
befre
DS
po
empfing
berühmte
Dame
abges
##sbarkeit
##VA
##nimmt
Loth
Schöne
anb
Kompanie
Wuppertal
Untergrund
Besitzungen
Instrumente
Zentimetern
Chal
##gehalt
##stärke
Inzwischen
erreichbar
##eme
württemberg
##gio
Urspr
Philip
erkennt
##ović
Ran
##östen
1789
jene
Adelsgeschlecht
##ône
Protagon
Effe
türk
Eid
Lyon
Bridge
Südtirol
##emitteilung
eingeladen
zugeschrieben
##übung
Trio
serb
Dialekt
Schichten
Kroat
##stücken
Gymnas
##ragenden
Vertret
gewisse
Besiedlung
diskutiert
Kompositionen
bedeutete
Geschlechts
Freu
##inhaber
Kristall
##ouri
##thal
##pfarr
Iwan
##stimmung
Aufführung
Gegenstand
Kä
##chtet
##bayern
##cyclop
##rachen
ill
Frequenz
geöffnet
Johanna
betreut
schwach
##schef
Versammlung
##isemit
##itions
##ährungs
suchte
Einzugsgebiet
bessere
Nachlass
Chi
##samkeit
##zuführen
##raxis
##provinz
einziger
##sgesellschaft
Tet
##back
Schlei
Erik
Siedler
Entertain
Hochschullehrer
Krieger
Indianer
Trotzdem
verwandt
AN
Bag
Gerd
Antar
Beweis
##erten
seiten
##ière
##idakt
March
##ometrie
Kindes
102
Debütalbum
Julia
Siege
Peters
bisherige
Beförderung
##meyer
Denkmall
Endrunde
SW
Jen
Tap
verbundenen
Rüst
Symph
##filmen
Bezeichnungen
human
stehende
umfassende
Abra
entstammte
Jahrhunderte
Alan
Leich
Flieger
Königreichs
##klusive
Zeitungs
Touristen
Fri
##bachs
Gründe
Prince
Raketen
Verstär
##felde
##aco
##ceae
Biographie
Zahlreiche
Carlo
lautete
##swirtschaft
Commission
KPD
##verse
müsse
##ächtnis
Chance
Katastrop
##igny
##omon
Arte
##agnost
solle
stärk
Deutsches
Christopher
##to
##ähern
Erwin
Neuzeit
Stuttgarter
Wesen
##studien
Popular
verbliebenen
Gläub
##ík
Boy
Rug
Verpflicht
##öpfe
Luis
Worten
siebten
anstelle
Ausrichtung
##oker
della
##alerweise
##ampe
Details
erfolgreichsten
##standen
##irektion
Früchte
Pflanze
##elta
Schließ
versuchten
ents
Sturz
verbinden
##lös
Fälle
Fox
wasser
Umgeben
##uba
##läufig
Marcus
Skulpturen
Süß
1805
Wisc
##irges
Krebs
Department
Höhle
Schieds
Ras
##freie
Bauarbeiten
Iron
Rezens
Ortsnamen
Kurfürsten
Obergeschoss
##glück
unterird
Minnesota
Wohnungen
Baut
Verbot
Senator
erfasst
##uri
##opädie
Observ
##gerichtshof
##init
Hierzu
Sanierung
geschlossenen
##steten
handeln
Kleinstadt
Reihenfolge
Fok
##otograf
Marcel
übersch
gefeiert
Vorstellungen
Winterspielen
##ible
##mers
##schers
erhöhte
speziellen
##systems
wirklich
Mathematiker
##TS
##aue
Anwendungen
Hauptrollen
verzichtete
Angehörige
Bohr
Revol
Fantas
Austria
ausgerüstet
Grem
##wachung
Bekanntheit
##iod
Vall
frag
Gulden
##heitlich
sowjetische
##perrt
enge
inneh
##kenntnis
Norbert
Beobacht
Sto
Wiscons
##TC
Willen
##spreis
verbr
##kamer
##selbe
##franken
##velopment
Archäologie
passen
Neg
##elson
##schiffen
Plätzen
##disziplin
##gow
##ioden
Apoll
erschlossen
Kompeten
Erstligisten
##ds
Oste
cont
##gerechnet
Mitteleuropa
vergleichsweise
##wende
Motorrad
entstandene
ES
Lady
Atlas
Breis
TU
##ietz
##cts
Kavallerie
##öger
##auftragte
Low
Büchern
##vogel
Helden
##wendungs
Hände
Briefe
Mönchen
IP
##itas
Bäume
verwei
##ägt
vergröß
einziges
##iva
Stufe
##skop
ansonsten
russischer
Wissenschafts
NG
Dopp
##gräber
##größte
NAT
samt
Eines
Mayer
stren
1600
Binnen
männliche
Landesamt
Generalstab
##roll
Gesetze
Offiziel
vorübergehend
Sexu
##astung
##tausend
hinweg
111
kar
Stürmer
Berufung
##app
##esp
##beu
ägypt
Athlet
Statue
verbessern
##zeitlichen
schweizer
##ege
ju
##steher
heran
Mischung
Hugh
Verg
publizierte
Kay
##rages
festen
Schwa
##legungen
berühmten
prop
kulturelle
quer
Staatsexamen
##anon
Heu
List
##verbot
Erben
Grube
Bakter
Schein
##literatur
Ay
##verw
##äuer
töd
bayer
Geistes
##hum
dün
##behörden
verband
##nt
kro
Südamerika
##RA
##enos
##raße
worauf
Buchen
##irbt
##dorff
Special
Forscher
Kalender
BMW
Abhäng
Econom
Europap
Of
Tum
##ocker
nutzt
Treppen
durften
Costa
antreten
Geschäfte
##ims
Hat
##änderung
Lissabon
Jugoslawien
Vin
unregel
Landesregierung
Vic
Wohnungs
##iler
Seni
Veget
##semester
Gitarrist
Soziologie
Düsseldorfer
Decken
Innenraum
sa
##vens
##verg
optim
Vorgehen
##fertigt
Ostsee
Null
Chefredakteur
##veranstaltungen
Queen
unklar
bedingt
Begegnung
Á
##usch
##würd
bestätigte
Gewerkschaft
##täu
Tageszeitung
Ferien
##dienstes
##stron
1823
Theologe
Generalleutnant
##mos
##ikat
Rosa
Tall
verzwei
Ausgrabungen
##fällt
Four
Fahrzeugen
##apo
##dez
beha
##stamm
##visor
Walther
Genossen
Zugleich
betreffen
Gelegenheit
##gig
Pé
Angl
##spartner
Nachweis
Napoleon
stammende
Zirk
##decker
##farbe
bewal
Risiko
Moderator
##chef
Hütten
Clubs
Wunder
##jut
Inf
##enburg
erschossen
##UC
Siz
Akte
beur
Angeb
##gelegenen
##OM
Innere
Prozesse
zivil
Weit
Dall
Gaul
##raucher
angekünd
##ampen
Claus
##kraftwerk
Industri
ja
##verlei
##stellern
Nordseite
Hildesheim
##aver
DNA
##gewerbe
##nehmern
##älte
##blemat
vorne
##anner
##brunn
1790
bedeut
grundle
zusätzlichen
##istern
Waffe
Cav
Übertragung
##illons
Intelligen
Edin
Evolution
220
Row
##ürtel
Sehen
Diesen
kämpfen
##cole
Öst
##gleichen
##dist
##cover
erfüllen
leichter
verkaufen
##bett
##hend
##akten
Jimm
belegen
überraschend
ins
##varian
Rid
##atsch
Vorjahr
##unds
##ancen
wären
##antrieb
Biografie
Erzählungen
##iot
##ildert
##deckten
##nehmung
viert
renomm
Board
Indones
##chtenstein
Supp
zeigten
Abbildung
##obt
##ayer
darum
gelungen
##geschichten
TH
##läufe
Nich
einges
##ministers
IX
Donald
Kessel
niedrig
##seg
FF
##saison
##ibliothek
Cu
Bauf
Dsch
Space
Florian
##ikern
##amento
##rechnung
besonderer
##ovo
Sier
##mosphäre
argentin
versuchen
##inos
##fangen
##marken
Lippe
wiederher
Wörterbuch
hor
Magdalen
##kw
Ledig
##chi
##entz
versen
##stiftung
Erstaus
Konstanz
##ovon
Aer
##apeut
1804
fach
Erkrankung
unmittelbarer
Einkauf
gewissen
##pend
famil
Königlich
Krü
Pferd
linke
Slowen
##kleidung
Satelliten
Bemü
##nische
##mitgliedern
af
##kämpfen
erklären
Antarctic
Komponenten
plan
Mosche
Paläst
Flecken
Konzentrations
##seln
jüngste
Lebensjahr
##osom
##nacht
nötig
nachfolgenden
erkannte
##heer
Kommune
##ather
Sven
Dörfern
##ske
Common
bewohnt
Slowakei
##eher
##wich
Sky
1794
aufgeb
Perform
##fürst
##holungs
Mountain
Bataillon
##esten
District
##amann
##glied
##imo
inhalt
Soll
Verbände
Cant
Neumann
Pack
##zentrale
Conserv
Schreibweise
##teor
##enzel
##onische
Affäre
Airport
jährliche
spanischer
Ž
##lade
schwierig
Königlichen
UC
Kut
allmäh
Canad
geraten
##bog
Raj
Tib
Danzig
##hy
Bird
Luzern
##fassten
Zurück
Weltrang
Offiziere
Aspekte
besuchen
zugeteilt
Darin
spitz
Bundesver
Evangelische
##ypt
##ämpft
Wies
##weilen
Progr
##itation
Spreng
lateinischen
##stationen
AB
Tätigkeiten
##olin
tra
kunst
Abraham
##benennung
##ough
##aceae
##bourne
##klassen
Vorlage
Schwarzw
##vertretung
Flensburg
##elf
Trauer
Fahrrad
##mittelalter
##anter
##format
##elemente
moderner
kandidierte
##53
Unterb
Stick
##zentren
##inne
mut
invest
DR
dram
Urban
##ologien
##umme
Pfund
Lediglich
Sitzung
1700
Anto
Kriterien
UK
ku
weiten
religiöse
beobachten
führende
stillgelegt
##orff
Baus
Howard
ökonom
##zweck
rele
Sende
##urteilung
polnisch
Vertretern
log
steiger
Regelung
##okomotiven
Gn
beh
Weih
obere
##berechtigt
Freiheits
Ple
##stö
Coup
Falls
untere
Schäfer
Föder
##ündung
Sohnes
Vorrunde
BV
Ltd
Mort
wovon
##stheater
Profi
rhein
##polizei
Tatort
besaßen
Priesterweihe
##ivität
installiert
traditionelle
##GH
Dau
##ehrung
durchge
Ursprungs
##64
##rup
Head
Sportler
hinteren
Bulgarien
##eimer
Sterne
schneller
##box
René
Gedenkt
Technology
##itch
Behörde
bestellt
geregelt
Metropolit
##ogne
Vorlesungen
Gard
Racing
alleine
Motorsport
niederländische
Bj
Bester
Kolumb
Kämpfe
Erzbistum
Vorkommen
sahen
##arischer
Begriffe
##ührt
Fame
sank
##eo
Breit
##angebot
Höhlen
Kleinen
new
##revolution
IB
einheim
hielten
vornehm
##side
Willi
Innov
##schließung
##yers
Planeten
##ński
##versuch
Marmor
##zeichneten
Alice
Gordon
spezialisiert
Generalsekretär
unterb
schlechten
##ianer
Rauch
Schalt
##teilungs
geschah
privat
##ody
##osop
Bac
Europä
positive
Student
Encyclop
Card
Global
Verluste
Jugendlichen
vollständige
##SSR
Dün
Nau
Unser
##dehnung
vorderen
Illustr
##iein
##DI
##ople
verbleiben
Frühl
Weich
##izieren
Trainings
Garde
##AB
Philh
vis
112
Jap
Male
Fan
Oslo
Wolff
Weiden
rückte
veranl
verteidigen
Fair
Maße
##regisse
##stufen
Campus
Herzogs
##rov
Kunststoff
##brück
Zylinder
stammenden
Temperaturen
Dikt
Turner
ausgesprochen
Seel
##ctions
umfangreichen
Zeche
##veröffentlich
Interpretation
my
##bene
Häufig
##werker
Senioren
Å
Powiat
na
##lebens
Stone
unweit
Digital
feu
##oman
##ikanten
Ligasp
##sammlung
Semin
Action
Leutnant
automatisch
Erdbeben
Hartmann
##fuhr
Polar
Schal
vorerst
Problemen
innere
##änderten
zurückzuführen
Ash
##flossen
##schlägen
Greifswald
arbeiteten
##ätten
##arat
Invas
griff
bulgar
Ehepaar
Heilige
Pacific
Getreide
##debüt
Prior
##sterben
##ordnungen
##leich
Nationalen
##fonie
Sten
Bismar
Loire
Listen
##kommando
unterhält
##my
Zeugen
Ausgleich
##inki
archite
finanziert
Versorgungs
##kämpfe
Township
schwerer
Entlassung
Oberflächen
##afrikanischen
Zwecke
kritisierte
NATO
##treffen
Uruguay
450
Haar
##has
Etappe
Christine
##pus
##kürzung
Kurzfilm
goldenen
μ
##flu
Gna
##ourcen
Paulus
##verordnung
Mob
Rade
armen
Einz
Shin
Afghan
Edinburgh
Graph
##rein
##össer
Chief
##autobahn
bestattet
TSV
Lohn
##holung
Install
physikal
östliche
##oi
##plement
Sultan
Marketing
medizinischen
##rahmen
keinem
##igration
Könige
kont
Vorhaben
##äck
##sees
Lip
Türken
##konferenz
##ukle
##bedarf
Giebel
##aufgaben
##aer
750
Maus
##pendent
tatsäch
Fun
Episode
Aussehen
Historische
##rede
Reis
Beste
Palais
##aba
kol
##stone
##wiesen
##fers
1792
##drückt
zweigeschoss
Telek
##spflicht
CH
##ited
##eiste
Achter
Vermutlich
##klub
##ussia
Derzeit
vorgeschlagen
Ahm
##öpfer
##schüler
vielmehr
Verletzungen
##edo
app
Moore
Volker
spätestens
##start
##oke
Rande
Santi
Gesell
##ols
##reff
##konzept
##ippi
##IM
Hits
Weiss
##38
##publ
Gun
Vorfeld
endlich
Generationen
kaiserlichen
##ists
Räum
##abwehr
Bruce
##echnung
Georgia
Experten
##nig
Mini
Birken
äußerte
dist
real
##stetten
##alischen
Demonstr
##tür
feind
##kapitel
Texten
abgehalten
php
ernst
Genre
Turin
##ude
bö
Ara
Willy
##stür
##schke
Export
großem
vergleichbar
Voraussetzung
ATP
##bling
Roberts
Kreuzung
Agrar
Wisconsin
Gebietsreform
##rechten
heißen
ausgelegt
##meier
Entscheidungen
Modus
monat
kürzer
AP
##maus
Symp
##wickelt
Julian
Stanley
##sprechung
Stadtbezirk
##oon
##pekt
Haushalten
##IL
publiziert
wesentliche
##otter
gerne
##agentur
##verarbeitung
Ek
Lub
röt
Sache
##schwest
Senats
Vereinten
##ED
Motive
Phasen
bewegt
Stettin
Vincent
Eintritt
Bürgerkrieg
##hän
##oor
##flichen
Dokumentarfilm
Creek
Montre
Musikern
plötzlich
##psis
Spl
##sters
Bent
##konomie
dauerhaft
überführt
##ärer
Clin
zeitweil
##pack
Gefähr
Soundtra
Benediktiner
##andal
Janeiro
Germanistik
AM
ev
Kaffe
Atlantik
versorgt
##formationen
sorg
Ontario
##schlüssel
gemeinnütz
Brom
##steins
umgest
Pazifik
Maz
##endar
Stor
wissen
##knoten
##posten
Marco
dritter
##ipper
Doub
rief
MS
Fire
längeren
##apur
##enkt
Stark
junger
Stammes
qualifiziert
Midd
##unfall
##ulierte
blo
bedeutender
##wör
Til
Amaz
Raub
Pfeil
##gefunden
verbreitete
OS
Sv
emer
gestif
aufweist
Zag
Hubraum
Lothringen
demnach
Eigenschaft
##uda
##igers
##italien
promin
menschliche
Irak
##aniker
Johan
##TH
##idsch
Pius
gebe
akademischen
Ohr
##ahlen
##kauer
Erwart
##phil
##arius
Office
Konvent
##yter
Bure
Allianz
Kroatien
Veg
##finanz
##ündeten
Lokomotive
Ausscheiden
Axel
gelangt
Alliierten
Départements
##muse
##stal
Sad
Kunstgeschichte
Sicherung
vereinigt
##ecke
Nördlich
Aires
töten
Louise
zeichnet
##rob
##ène
##unus
Ankunft
Entertainment
Voraussetzungen
Nort
##phal
Rick
aufnehmen
##szene
Disc
##stitel
##achtete
wander
Kampagne
literarischen
Kinof
Kreuzer
griechische
##arbeits
##izierten
neut
Veränderung
Hohl
Konsul
##stellter
verkauften
Sarah
unterzeichnete
Jam
##güter
Govern
##ør
Kör
Rog
##korde
##bereit
Subst
##fassungs
##gestellte
##trainer
Felder
Konservatorium
##kong
Bock
Buenos
Hotels
meldete
angetrieben
hy
##wände
Lungen
fliehen
go
Mississ
trotzdem
Aufhebung
Mitteln
Denkmalpflege
##IP
##core
##inth
Hür
##zischen
Hauptsitz
Verteilung
Wettbewerbs
##ändiger
##ützer
Anten
Attent
##platzierten
Evangelisch
umfangreich
Guten
Manusk
Gebirgs
Industr
Burschen
bit
##zeugte
Montag
Dorothe
CSU
Liver
griechisch
##beweg
erneuten
normalen
chemische
##ple
Hanau
CE
Achse
Kabel
Molek
Probe
Admiral
legen
Lincol
zust
kennt
Lieben
Russischen
##brief
##hängen
##angaben
Kastell
Bebauung
##ija
Kelch
Krise
Katholiken
bezeichnen
##liehen
sitzt
Kämpfen
Memorial
emp
glück
Achtelfinale
Democ
Gebietes
##scheinlichkeit
##ettel
Verk
Klagen
erzähl
verdien
Fußballnational
##weiß
wöch
##schatz
##üneburg
Olympiasieger
gehabt
Gefangenschaft
Angabe
beheima
##hs
Diff
gegeneinander
##mächt
Fürstentum
arabischen
Auslands
##roit
Jede
Romans
abl
##obald
Nikola
codice
##flugzeug
Vermess
##lowakischen
Palä
Jimmy
Pedro
##gängen
starten
Umbenennung
##uro
Sac
zuzu
##büchern
##ifferent
Hofmann
Vordergrund
##reen
Darunter
##akon
##icle
##entums
Freunden
##road
##ovice
Marsh
Exemplaren
##üß
##höfen
Spar
Gefangenen
Vereinigte
##ameter
Merced
Siegel
Athleten
##spräsidenten
Volksb
übergab
##sth
##uge
SR
Ti
Non
Pay
Skel
##reitet
Schaf
bedroht
Universal
Och
##plant
fern
##ingrad
preis
renoviert
Ey
##ashi
Lust
Bruders
fließen
Blas
Griech
Wandel
beenden
Missouri
Genehmigung
##bing
Ari
Lil
##ierbar
Vortrag
Herrschafts
Publiz
begeister
##sä
Antarkt
Theatre
Übergangs
Gymnasiums
Flüchtlinge
Nationalrat
##gon
Grande
Francesco
##schreibungen
##ablen
experimen
##48
pers
##achtal
##ikalen
##termin
Verbund
Anthrop
##pin
##ents
hör
Syndrom
Denkmalliste
##stuf
##zepte
Explos
inklusive
Volley
zentral
Nachricht
Institution
##echter
##werber
Ozean
Lothar
feiern
##ulierung
Woll
Welle
##öhnen
Duke
Oden
Wern
Field
##orer
Fracht
##qualität
##oter
Glock
Edmund
##itischen
##inae
##ektor
##vanc
Brat
##spezif
gebildeten
urauf
##verständnis
Küche
Popul
Passagier
deu
mer
geehrt
senk
##leitungen
Hochschulen
konzentrierte
##kos
##slehre
Helsinki
Radsport
##anders
sofern
##bereichen
Elementen
Ny
ma
##lück
240
vorn
Shang
Isa
##aurus
Poll
Valen
Franziskan
administrat
Dop
Dessen
Filial
Haltepunkt
Erscheinungs
##izit
Trium
Zwick
Yam
ÖVP
Peer
##ishing
Chirurg
Dark
Sara
##werden
Umzug
Spannung
Development
Dak
##hende
##schlacht
Streich
##orps
VfL
Zen
Maurice
verzichtet
Orn
##raphen
Bayerische
Bär
Sho
Caes
Shakes
Römischen
Herrenhaus
##wahr
ablehn
Glasgow
Anderson
studieren
Wahlbezirk
verursacht
bekannteste
EN
Burn
Isol
Erinnerungen
##aun
##brig
##scheibe
maximale
Zerstörer
Six
Johnny
Forderungen
Burk
zahlen
Westseite
hart
1797
lesen
gedacht
anzutreffen
##haut
inhaft
##stehende
komplette
##städte
erkannt
welchen
Haushalt
Kirchenschiff
##produzent
etablierte
Names
Charlie
Begründung
1799
Restaurierung
Prinzen
Vereinen
##ikanischer
schlechte
zugewiesen
Guy
verg
Brett
Vulkan
schein
##schließt
##schreiber
seitlich
verliebt
NBA
Capt
Handeln
flachen
##einträcht
Befreiung
Landesstraße
##ktions
sagen
Wittenberg
##ský
Graham
Jordan
grünen
Erziehungs
Bé
Gemäß
Schmel
vornehmlich
##ängel
Sperr
##eingang
Projekten
treu
fünfte
Südlich
Australia
##agan
Palm
Ursula
einher
Conference
Lenn
Alfons
##igl
daß
befestigt
Stipendium
Staatlichen
Studioalbum
Österreichische
Wertung
bewaffneten
Unterscheidung
##vort
Wird
##In
davor
Geschicht
Ki
Held
konf
korre
Cultur
erwies
##sprüfung
Lincoln
Teilung
hinterließ
##etal
##writ
Gastgeber
XI
##fran
##kömm
Meist
Aussch
Veranstalt
aufzunehmen
Daraus
seitens
kommenden
befindliche
##unks
irgend
Brüdern
##gründet
Forest
Schnabel
##iac
##igter
engen
guter
typisch
##gens
Shakespe
namentlich
Süddeutsche
Anc
##planung
verlei
Absol
Flüsse
stiegen
##änderungen
Aufsteiger
##stau
Alm
##prüft
Paulo
registriert
Fact
Bären
##izismus
##gebäudes
teilnahm
Verfasser
chinesische
##dt
##kühl
##verlust
##ça
Riga
Order
Dramat
finnischen
Mindest
Aufstellung
offensichtlich
##oba
##swür
230
Dess
Beleg
Mauern
Kontroll
PR
##marke
##wälder
Badmin
verkehren
##ová
Kemp
##ouvelle
Mater
Pilger
Second
Breisgau
Biologie
dänische
jüngerer
##mil
effekt
Montreal
Mountains
Tatsächlich
##spol
Völ
Hain
Colorado
##loyd
USS
##court
Cheft
streng
dortige
Ji
##andie
gesundheit
präsentierte
##eille
##imente
Kapazität
Geschwister
Esc
betont
Außenminister
Lüneburg
türkische
europä
##wandlung
Empfangs
Verkaufs
CA
##europ
Messer
höchst
Karosserie
##deutet
Dritte
Halt
##abase
##sorge
emigr
Rechen
gekauft
##schichten
unterwegs
Nominierung
##sches
Freie
##kers
bat
jetz
teilt
Reederei
Theaters
ansässig
Bürgerschaft
##worten
Benutzer
##pres
Här
Diego
##mittler
orientiert
Gam
##regisseur
umfassenden
Böhm
##endigung
Assistenz
Lock
Gärten
Mercedes
##ifest
##legende
##36
gescheiter
gleichnamige
Adams
##oder
halben
##gerichte
laufenden
rekonstru
##HC
##icum
##abelle
Pyram
##ography
##aufsicht
gewählten
Dag
müs
markiert
DC
Planungen
##fügt
##elekt
##ikeln
Güterverkehr
Davon
Eingangs
Ét
Cel
Eif
Schulz
##geworfen
Badminton
Microsoft
Konflikten
122
Luise
verliert
Stuck
##übt
Harb
Stif
litt
Libert
beschreiben
##45
##imer
Ohne
Ves
Meier
Indiana
richtet
Angriffe
Zimmermann
Wirklichkeit
medizinische
technisch
##utung
Stuhl
Luftfahrt
##etisch
Dance
##jewitsch
360
##ämmen
behin
Statist
Airlines
Strategie
Hauptdarsteller
##oka
1780
Borg
Arsen
Holoc
Place
Advent
Kansas
NAS
Frey
kinder
##heide
Flora
ähnelt
##rete
RTL
Gruyter
betreiben
EG
##gebra
Path
böhm
Bilanz
##sohn
##ilder
Ruth
Anstellung
angestellt
wesentlichen
##ahne
Nerv
Olden
Damals
dauern
##head
Gis
Zar
begab
Bilden
voller
Bewertung
eingeteilt
Pent
Empfeh
Mainzer
vermehrt
##schutzgebiet
Liechtenstein
##oßen
Siemens
Betriebssystem
MW
##anka
Gib
Niveau
beinahe
Aktionen
fertigte
Schließung
angegriffen
Bosn
Ortsname
##ugen
##atory
Hawa
Krau
##vision
lösen
besseren
herunter
Einwander
verließen
Philologie
Bevor
Regime
katholisch
##obe
##idem
Strals
##kollegen
entschloss
##ipel
##kind
Haag
##geschäfte
Bewusstsein
hr
##ape
herab
Garnis
Kaserne
Entwicklungen
SPÖ
##geboren
Umständen
Gy
##essa
Sop
Spart
##gezogen
Schwed
Server
tschechischen
##zon
##klagt
##zeigt
Beendigung
##itat
Armin
##esischen
Periode
liefert
deutsches
Kircht
erneute
Hinsicht
Ausgangspunkt
##ildete
##absicht
Stadium
##35
Audi
älterer
Southern
vermeint
Gegenstände
##iuse
##fisch
Jesuiten
##ouvern
##panzer
Alltag
Adresse
Bewegungen
##äule
##immel
Fließ
Patron
Detroit
Infanter
Polizisten
##neu
Run
Vanc
Whit
##jährig
allmählich
Grüne
Enzykl
##inischen
Sternen
Ostseite
##äumt
slaw
##merkmal
natürlich
##räte
Asp
Jane
Strafe
Ferrari
verbessert
Sé
Einflüsse
##ades
##ibus
Lloyd
Ordin
Stall
##denberg
Borussia
ersetzen
##atl
Lj
##univers
##dozent
##antische
Anzeiger
##beteiligung
Berücksicht
##nü
Conn
Rajon
Tänzer
erwartet
empfangen
Begleit
Wohnsitz
##eds
Shar
##äußert
Chines
Kommissar
jüdischer
Khan
Krat
Claudia
Unentschieden
##ands
Bret
Ermord
Seither
Erreichen
kirchlichen
##mt
DIN
Fid
Überlieferung
##üse
##ieben
Meldung
vollkommen
zeitgleich
##alp
##sil
Qué
Peru
Schulter
Cem
##zesse
##üllte
Cruz
Rent
Diakon
Passagiere
Let
##tellekt
Intens
Bundesk
Ehrendo
##schew
Merc
Tang
Wink
bild
Immer
lokal
Streck
##ulo
##islav
Technische
Mississippi
Personenverkehr
##iente
Unterhaus
tat
##leuten
Autos
##ious
##marine
chemischen
Inschriften
##LS
Sympt
gewün
Manche
Continental
IA
##besuch
Trasse
Kolonien
Verbraucher
##blättern
Brock
Giuse
Petrus
plante
##otential
Disziplinen
Historischen
transportiert
Pict
##muster
Dinge
##glieder
##sign
Lith
##anus
##osis
Zier
##sächsischen
erhebliche
##LA
##zoll
doppel
Anstalt
##ändigkeit
nationaler
##rade
##qualif
##ächern
Welter
analys
Castell
Generals
Psychiat
Sou
##skrise
Granit
##kandid
gestartet
##WE
##egg
Glau
##produkt
##setzten
Tuch
berief
beseit
SF
Area
Diction
Kärnten
gesammelt
Billy
##zahlung
viermal
##ianischer
##äpstlichen
Cad
1795
Guer
HK
Bak
alli
Vorort
Auschwitz
Ermordung
leistungs
Gelb
überle
verabschiedet
##blü
Hl
Rott
Abriss
erteilt
##OP
Erle
##fielen
##ässert
Bourg
##öffnung
Holocaust
angekündigt
##beton
##fläch
Freis
geschw
##ifer
1784
Hond
Wälder
Inhalte
Kindergarten
Physi
Scher
übertrug
##Hz
##machung
##reibung
Faktoren
Begründer
gegebenen
vergangenen
Geschlechter
verschwunden
##ál
Tun
Fang
##ité
Hip
erfolgreichste
Bedien
Heiden
verkehrt
jeg
Gift
Pall
Rast
Hipp
besicht
fikt
Minden
erforsch
Vermögens
Aufzeichnungen
VfB
vorzeitig
Bestimmungen
##rac
##säure
Anmerk
Nummern
Kulturen
gewöhnlich
Independent
Buches
##inghausen
##ränkungen
##onyme
Hyper
##seitigen
##ituationen
wahrgenommen
##zes
##pause
Afrik
erhöhen
gründen
Jew
pal
Rates
##produkte
##schrauber
Work
Böden
##issionen
herange
eingenommen
##ibil
##obte
##mitten
##fassade
##schwung
Kenntnis
1300
geliefert
kap
##ahler
Harm
##zeiger
Canada
gehandelt
Anlehnung
##RC
HMS
##alben
##wärtig
Sockel
Differenz
Baumeister
FK
annähern
betätigte
polnischer
##bels
Rib
##udium
Holding
Zentrale
Verwandten
christliche
unbekannten
##ossa
Hud
##schwanz
Litauen
gesungen
verschoben
##staff
##sturz
Suff
é
Ausrüstung
##nov
##ahme
##lies
Kem
Ole
ruh
Range
Wick
Noten
##spruchs
##ländisch
Altenburg
##geht
Crow
Bedürf
Wirkungs
##gemäß
Markenn
Bismarck
Mythologie
enth
Spons
Triumph
Nachfrage
##äufe
Fren
Franch
Kreisen
geschäft
verwundet
entfernten
##rh
Nas
##bühne
Lawrence
##genossenschaft
Dj
Hül
##reife
Liverpool
hohem
##berater
Lübecker
Wed
Reichsbahn
überzeugen
Seeh
##würfen
Jünger
Gottesdienst
Entscheidungs
##sor
Extrem
verwirk
Biel
Knie
##seitige
Survey
leiden
manche
Volumen
Normandie
anger
##ministration
Gehalt
##künfte
Zwerg
Porsche
##stimm
dynam
eigenem
niemals
Santiago
Schwarze
Forderung
##46
##auté
##herine
##fußball
verarbeitet
##obi
dun
Absicht
Spielbetrieb
Lex
Kevin
Mönch
gesperrt
vertritt
##ña
Lov
##onial
Melbourne
Hexen
##fertigung
betreute
Standards
Werbung
erleich
Vertretung
##rikt
Gros
live
Fundament
verteidigte
MG
##kular
Afric
Ralph
Nelson
befreit
niedrigen
that
Haute
Gitter
deswegen
##hire
##eichert
Prager
Dirigent
Korrespon
uraufgeführt
Cell
##charts
Sakrist
finanziell
##ausstellungen
##sweg
##grunde
Wrest
##gebenden
bran
Elektronen
##hängt
bestes
Philippe
Mitglieds
bestritten
normalerweise
won
##opter
feste
Sächsischen
##ancy
##undeten
Billboard
Ausdehnung
##brachte
taucht
Vancouver
CP
Veter
stirbt
Volleyball
##heid
##kteur
Nicolas
Kleidung
begangen
Bemühungen
Individuen
Philippinen
Lenk
kritisch
Kohlenstoff
Militärdienst
##oxid
rom
##wellen
##äße
Aden
neuge
Anführer
Giuseppe
erlassen
Betroffen
Nit
ser
##endem
Cord
Gehirn
geschm
außergewöhn
Blan
Skis
Immun
##ografen
MP
Mü
##ernt
##iate
##acken
##itierte
Meteor
konzipiert
tv
Heiz
Spektrum
Fähigkeit
fotograf
jeweilige
Überblick
Set
##reifer
##zieher
Dublin
Secret
##beit
Dest
aufbew
schmalen
##rott
wirtschaftlich
##üben
210
##omorph
##leisten
regional
Eintracht
orientierte
Pick
##irtschaf
Anwesenheit
Fur
Festungs
geprägten
##sbuch
Brück
Festland
##auso
##farb
Berkel
Apostel
##verletzung
##iani
##umpen
##kasten
Kalten
univers
Verhaltens
Who
Moos
##assten
Anger
Schwaben
Einnahmen
Turnieren
Gedächtnis
vorhandene
ries
##getragen
unverändert
##gin
##roskop
Deport
Unterseite
zerstörten
Wahrscheinlich
##range
Ariz
##springen
negativ
Lausanne
##strasse
sorgen
Nationalt
verpflichtete
##brem
Lug
Nash
Tiefen
##burn
##necht
##apolis
Werkes
Pädagog
erzeugen
jährlichen
##iak
##rode
Götter
schlägt
Connectic
##iege
Kiss
Chemiker
absolviert
zuständigen
##RS
##räu
##öser
Anp
##älern
##essions
Räumen
Steiger
Bewohnern
unabhängige
##ées
Tir
reine
Gitarren
Buddh
Rotter
äußere
##kritiker
Protokoll
##ankt
##resp
##rohung
Konse
Quart
Steiner
##elung
Maul
Mohamm
Freitag
Ems
dir
1750
Uran
Laden
##stunden
##speicher
División
eigenständigen
##aser
Bolog
Edgar
Russell
Meeresspiegel
##hir
##aire
##ürft
Wur
Kanon
##erbe
##ymmet
stre
schoss
Stewart
spendete
Rapp
Händen
##ätte
Arc
Speyer
Cottbus
Reichsk
Privileg
Franziskaner
##fell
##ocus
##ätigung
##anschluss
Künstlerin
Nan
##ization
Schulden
##misch
##ennten
Gleise
Mittlerweile
falsch
gemeint
Abteilungen
Must
Coburg
Cooper
##lagerung
Standorten
wa
BSG
##ainer
Bour
Freg
Cart
Kate
Ralf
Serbien
bewertet
##gei
ap
Akk
Buff
landete
Bauwerke
Nationale
##dampf
##tätigkeit
Mönchengl
Berechnung
langjährigen
RS
##abin
McG
Nak
Blitz
Kette
Rundschau
Pflanzenart
##mlich
Beeth
Ihren
unerw
Leonhard
dr
##opel
horizont
Erkenntnisse
##EM
Aufstiegs
Bewegungs
Feh
##breite
Seele
Einwei
provisor
keinerlei
Hessischen
SO
##ormen
Jedes
Québec
Vertrau
Goldenen
##siv
1796
These
kehrt
##verwaltungs
Kamm
fordert
Staffeln
Ressourcen
##häu
Blo
Cow
##ögeln
Lahn
Mongol
unabhängigen
##gemeinschaften
Hag
Marok
Erhalt
Faktor
soweit
Bayreuth
Connecticut
Kennzeichen
eingeschränkt
Staatssekretär
doppelt
abermals
Laien
##schäden
byzantin
passiert
hessischen
vergrößert
Dil
##ikale
Bond
eint
Sinfonie
untereinander
Kick
##wenden
Favor
##öller
Mahl
Salon
volle
##bildern
startet
##esia
Dirk
Plat
wendet
erlernte
geschaffenen
##lob
##igo
KP
##garde
Camer
##eimittel
Teilchen
urkundliche
historischer
Nutzer
Kirchturm
Koordinaten
##47
##schieht
Katzen
geform
Liedern
Cheftrainer
Vermittlung
identifiziert
École
##datum
##funden
##lagern
##attform
Stiftungs
Café
Harris
Vorfahren
Heilig
häufigsten
##psych
Präsid
Auflagen
Blütezeit
##hyd
##mans
wählen
gegangen
Mittelalters
Bundesstaaten
##vid
Häu
Salt
Zister
galten
Mitgliedschaft
Leer
##zungen
##auflage
Preisträger
##ours
##dimension
schlechter
1791
Kiew
Minen
##personen
Bischöfe
ansässigen
brasilianischen
##mern
##korps
YouT
sterben
Oberbefehl
##arry
Baby
Magnus
Kanonen
Pie
FIFA
##förder
Teleg
falls
zerstörte
##öge
##aland
Eingemein
##hänge
##sbest
Stru
##teles
Beine
Erlaubnis
##usa
##monat
##ätige
Silv
gepf
Rückseite
gast
überwie
besetzte
Jahrhunderten
Caspar
##iatischen
##ohr
##bom
ret
Volkes
abgebildet
IUC
##anbau
Teufel
Chlor
produzierten
Musikt
Viktor
dorthin
##ikationen
##lyn
Planet
Senior
derart
Atmosphäre
Gonz
floh
Tower
Realität
innehatte
Sierra
Franklin
Lösungen
Charlotten
Departement
Equ
Posen
ändern
heiraten
Dorfkirche
Gerichtsbezirk
Fische
Oberstleutnant
Händler
##elin
##atzen
##gattung
vollen
##beauftrag
zugrunde
Publikation
##rou
IUCN
##baidsch
##verkauf
Sabine
##führungs
leichte
Ortsteilen
Fett
Lucas
voran
##osophen
saniert
Physiker
Queens
Leichen
Steinen
##krise
##getriebe
Tomm
Syrien
Tenden
virt
##presse
##oms
##örn
fahr
meint
freund
Communauté
Fotografie
Soundtrack
##lösen
Snow
Rechn
Wirken
spätgot
Ähnlich
##provis
Auguste
geschieht
Anlässlich
unterstand
Partnerschaft
##otop
Aquar
Karol
Propst
sammeln
Gerichtshof
Bundestagswahl
Leih
Tos
##busch
erre
Elite
Havel
UdSSR
derer
einzelner
Entsprechend
##mi
##ippe
Census
ländlichen
İ
##ize
mol
##fonds
##hessen
##träger
Stief
legend
Einheits
Nobel
Schar
Jahrtausend
##feind
##opfer
##felden
Gärtner
eingesetzten
##oin
Ment
Antwer
ergaben
##marschall
Kritiken
Projekts
Auftreten
Bischofsweihe
WDR
Ära
Tiroler
Tennesse
Standorte
Stadtteile
##ässe
zurzeit
Jubiläum
##alon
##olas
##deter
##uston
Alton
##alische
Moschee
behaart
behauptet
Wallfahrts
Weihbischof
##rah
Zin
Dete
Agnes
##bn
##sucht
Larven
Jonathan
Sakristei
einfacher
##hlt
##alysen
##gefügt
überd
Hundert
beliebte
Ellen
##stätigkeit
Beau
leichten
Magist
Abkürzung
Ernährung
Fertigung
Höfe
Enz
##istry
Maine
Stämme
##betriebe
##irischen
Himmels
architekt
Jh
##oppen
Opera
##splätze
Monarchie
Maschinenbau
Kompl
Sendungen
Sommerspielen
##odie
auton
detaill
überall
beheimatet
vereinzelt
CC
##idar
rau
##würde
##ligasp
Match
Asteroid
Backstein
Kai
Wim
nahen
deutliche
##ufe
erlo
Manga
##kenswert
Einkaufs
Erzähler
Perspektive
absolvieren
ausdrücklich
AD
auftrat
Handlungen
Sah
Rain
Ermittlungen
##otischen
Südkorea
Namensgeber
eingewechselt
##haw
##ertoire
Arizona
Susanne
verkörper
##ausstattung
Peg
##geordnete
Planungs
förderte
Begegnungen
bürgerlichen
##werfen
##finden
##hauser
Stirn
nomin
##lichung
Amerikanischen
Gos
Lech
Neil
malte
##lautern
Verwandtschaft
##orfer
Lade
jens
Alois
Kuppel
##roth
1400
Wass
gebauten
Einladung
vorherigen
Politikerin
##idt
##itim
Ada
##refer
Africa
Disney
annähernd
Mönchengladbach
##quent
dick
Railroad
##regung
Hunde
##fordern
Matthe
Network
Öffnung
Unmittel
Folk
##schütze
Ruinen
##ierendes
Katholischen
##grat
Project
Zentrums
untersuchte
abs
##kohle
##quote
##right
##angehö
##utions
keines
wohlhaben
##esa
Offic
Hörspiel
##49
##zonen
hind
Playoffs
li
##ruhen
Amal
Bureau
Einnahme
Ansichten
Afghanistan
##vie
##iles
##zienser
aufrecht
Ehrendoktor
Schwarzwald
##atal
##eball
Iren
Wenige
Atlanta
gewinnt
obersten
Ausländer
Opf
##still
##utive
1787
##mündung
Library
Fernsehserien
##verd
Hak
1770
Rundbogen
##real
Gamb
Unterarten
notwendigen
selbständige
SM
##eing
##hmann
Cock
Cz
Panz
Abbruch
überleben
##zutage
##berufen
Früher
Leonard
##gewachsen
##vorsitzenden
Schweizerischen
Rost
Rugby
Empire
dauert
Schaffung
Gesellschafts
##attle
##reien
Alab
##ingten
Epoche
Informatik
trainierte
##streck
Bäumen
sitzen
##hä
##ommun
##ziert
Deren
##bereitung
Beobachtung
Zisterzienser
##iebt
Via
Namib
Achsen
Konsol
Videos
world
Börsen
italienisch
weiterentwick
Dio
stif
##respond
Wasserstoff
mexikanischen
##wurz
1785
Afro
Dave
##untern
Schröder
##echtigkeit
Hauptstraße
Nachkriegszeit
Obersten
äußersten
preußischer
hingerichtet
Ehrenmitglied
Äqu
Ital
kauf
Alger
geschicht
Orb
Belgrad
##austausch
Publishing
Verfilmung
Unterrichts
vermittelt
Übersetzer
Renovierung
##anton
wört
Berkeley
Songwrit
Konzerten
vergessen
##durchschnitt
lebende
erwähnte
CN
Krakau
interessiert
Pilz
westlicher
Konzentration
Gesellschafter
##57
##nutzung
Abweich
Abhängigkeit
Jr
##cies
Symb
##klärungs
bekamen
mangeln
Werkzeug
##stan
##cture
Steuerung
Stadtzentrum
Boliv
Huber
Navig
Worms
punkt
Konsum
größerer
##arie
4000
Dead
Trupp
Germania
Ansiedlung
Inszenierung
Soul
Darauf
YouTube
Sieb
spir
##kleidet
neunten
##strukturen
##esch
##iskus
##anzlei
##undete
Laura
Ranger
##isierungs
Markgraf
Dö
##eber
##drama
##final
Orle
Roma
##immern
wolle
Kronen
gefahren
Fußgänger
##37
##dal
Lyrik
Trakt
##sgesetz
Gesand
verknü
Erfinder
##rake
glän
tiefen
##dan
AL
##ulus
Pend
bill
Motors
Gestapo
Tennessee
HD
eis
##frequenz
Fantasy
Arbeitnehmer
##kowski
##veranst
übersied
Laubblätter
Beil
##alisieren
Antonius
erwarten
Propaganda
abschließen
ungewöhnlich
FP
##izid
XVI
Iowa
Reife
##forderung
Folgejahr
Kunstakademie
Bukar
bittet
Urheber
richtig
Ortskern
##verfolgung
angesichts
Oct
Crist
Schla
stetig
Fischerei
##hab
##etor
Child
##ocument
Galler
Nikolai
komment
Magister
##verfassung
##ardi
121
##gelegene
Schädel
entwässert
kanadische
Kulturgüter
##atra
Standes
Nachbarorte
gän
Clara
Theod
wonach
##regiment
generell
Frederick
beschleun
##öffentlichen
kub
Erhöhung
ST
##gier
##hner
##schub
Hamp
Trie
Serge
Ebenen
Korea
Statistisches
##roy
##rangig
Dekanat
Nachbarschaft
Asyl
##gegangen
Kalkstein
Gemeinschafts
versamm
Freundes
##ographisch
Ler
##ities
Krön
Erkenntnis
Lüb
##villa
Wolken
Porträts
Kilogramm
mitt
##lasten
Türen
achte
irischen
##frü
Pia
##ilden
##kapit
Rasse
##spunkte
Kreistag
Wohnhäuser
zeu
##schne
##stütz
##sbrauch
vermark
Gegenzug
literarische
##main
Viv
Boris
Mitch
Spree
avanc
eigens
##ogo
##oner
Grimm
Rotten
Betreuung
entscheidend
Beschäftigung
##ppens
jahrel
Politisch
Programms
Wahrnehmung
zurückkehrte
##thur
Hyb
Käfer
Sainte
Torschützen
##load
Belle
Strop
##journal
Hongkong
Antwerpen
Sup
Them
##schlei
##verbund
Skulptur
##ählte
Control
Minderheit
##mina
##shut
Lukas
Antoine
gebaute
Gelehrten
##aps
##eux
##innend
Bruck
##spektor
##ädagoge
Silver
African
Notwend
Gegenüber
##ständigkeit
angewendet
##39
##ackt
Rüd
pri
Hunt
Fokus
Mörder
Slalom
##verbands
Bergwerk
Theorien
Beispielsweise
Volkswirtschaft
##amar
##eith
##plung
dest
rech
##hundert
Database
Invasion
abgesetzt
kontinuierlich
Grön
Luck
Beute
##ränkung
Bodensee
Dy
Weid
·
zwang
Titeln
Feldzug
Vielfalt
erwerben
##flucht
Medik
Taiwan
Gottlieb
transfer
́
##dukt
##okol
##ßerei
Lutz
geomet
Schmetter
Auer
Rele
##kranken
Ballett
Fassaden
verweist
##bewegungen
##rechtlichen
Neuordnung
ausgeliefert
##rent
##berat
enden
Walker
##tiere
Rout
Nutzen
##inde
Stadtmauer
##ints
Algor
beauftragte
juristischen
Braunk
Copa
kürz
Ruprecht
##werfer
##urkunde
Mozart
muslim
Broadway
Schiffes
##atorischen
Reichweite
##atom
##egal
Atem
Gesp
Denis
Guide
Rassen
Tobias
barocke
Bakterien
##ografischen
Stammspieler
Kulturdenkmäler
##jak
##masse
Method
Phosph
ausreichen
via
##skunde
Coast
Dreieck
Kuba
Rass
ausgem
##iza
##iami
##joch
alb
Goldene
Ou
##zahn
##andro
Pfei
Fremden
Sizilien
Zeichner
Habsburger
##inkt
ehr
##ämter
brau
Innern
Northern
Vorschriften
GP
##rike
nachzu
vormals
durchquert
Ehrenbürger
festgenommen
Behr
ausgel
Abfahrt
Bekämpf
##iri
Lod
dünn
Wurzel
Natural
konvention
##zelle
Gelie
##museums
überein
##sc
##lehen
Titul
glaubt
Eröffnungs
benachbarte
##GA
##gestell
einzus
wahren
aufnahm
Generald
Performance
##vog
Swe
Fitz
half
Möbel
##fließt
Geträn
Handwerker
##haar
Putz
##gärten
Leber
Bundesautobahn
##sthe
Kings
Bereit
##esis
##igsten
eiförmig
zustande
Ted
Sakr
##standes
Gattin
scharf
##schaftlichen
Hun
Tarn
##fahrzeugen
Wuch
##tennis
Teils
##sstelle
Orleans
Geschwind
Musikvideo
Engineering
regelmäßigen
NFL
Kultus
Vorträge
dieselbe
mitunter
wichtiges
##59
Einweihung
Aufenthalts
Kulturdenkmale
mater
fuhren
Moskauer
dominiert
NN
Pause
Blanken
##schiedene
Wladimir
Arzneimittel
Kaiserslautern
##kle
##oga
nutz
##brüche
Schaum
Bologna
##röm
Regelungen
aufbewahrt
erfolgreicher
MA
##aine
Ahr
Sag
mobil
fliegen
##lohn
##präsenz
##otherapie
Transfer
gemeldet
Reparatur
kanadischer
##pez
##begl
##rennfahrer
Verfahrens
ausländischen
##rut
Canadian
Reinhold
Geistlicher
Sumpf
erbte
Freistaat
##hall
NGC
Mack
Sachver
Campbell
belegten
unmöglich
Jay
Säuget
Sparkasse
Fernsehfilm
##wid
##stöck
Trop
Crick
Versuchs
genehmigt
##wider
Record
japanischer
##inas
##paare
Blog
mitge
Adress
Bremerhaven
interpretiert
##istol
Reifen
##rog
##frem
Nordischen
rechtlichen
##loser
##schach
misst
##scheide
verwand
Landesliga
anfänglich
lutherischen
##run
Tyr
Manuf
Adolph
Unabhängigkeits
Ivan
sens
Strat
Mangel
Gehäuse
ethnischen
##bleme
##büttel
Bibli
##ausende
Systemen
benötigte
inhaftiert
Niederlagen
##KA
römischer
Professoren
bibl
##flüssen
##rechter
Islands
Auswärts
revolution
##gren
##alogie
##fische
Klage
Meißen
##isi
##ulin
132
Pert
Worte
##sprojekt
Estland
Spanier
Länderspiele
##ussten
Phill
Berner
Expans
genauso
Vorteile
kart
##gebend
erlaubte
Techniken
Weiße
Comedy
abstra
unserer
Künstlers
Andy
Hohe
ausb
Antik
Dum
Emma
Schubert
organisierten
1783
abgel
kommend
##ungsweise
Kaufmanns
Year
Lagen
etliche
liefern
Ursachen
Maximilians
ragt
##studio
Abstimmung
Alternativ
wachsenden
Zut
##zuges
Dahl
Wetz
Speed
Morgan
Rapper
Tagebuch
##cs
Ce
##geist
##orger
Warn
##gossen
Jochen
meinte
Präsent
##hed
Pt
jun
##cester
reinen
Westlich
berechnet
etabliert
Vorarlberg
freiwillig
Alles
Stade
Shanghai
bad
Kund
steil
Commonwe
jenseits
##maur
##ucky
Acad
Spalte
Pianist
Ostfries
##68
##ffel
##jord
##stel
Calc
Care
Exek
firm
Pakistan
##alde
##wortet
##platzes
Gesangs
zeitweilig
Bearbeitung
Habilitation
##sons
Alas
Trik
Kurator
Caroline
Kapellen
##ctive
1788
Rönt
Miami
##festival
##assistent
Modellen
Stralsund
zweithöch
Landschaften
Persönlichkeit
IM
##ogie
Skil
Bauzeit
##ynth
##mäßiger
Truppe
starker
gänzlich
##anas
##bata
##ires
warf
Thomp
Bukarest
Sea
1786
Händ
Nova
entf
verschl
Augsburger
elektronische
fact
Passau
Russen
enttäu
##ating
##ypern
Gefühl
Commonwealth
BB
ABC
Bois
Karib
Kennedy
##ständiges
Geologie
Teilnehmern
zurückkehren
##samm
Nep
##flüge
Java
Elster
##direktion
##gäste
##nisch
##stoßen
Motto
stürzte
##schneiden
Kenntnisse
Luftangriff
mehrheitlich
##DE
Ł
##schle
Smart
131
Kit
##umber
umzu
Apsis
Nadel
abgetr
Rezension
Störungen
rumänischen
zurückgezogen
##rund
##amenten
Stoffe
Hinblick
Ç
##iereg
Lisa
Evans
Letzt
warum
Großer
##istenten
Körpers
größter
Möglicherweise
##ikus
Mine
Stör
litau
Oswald
Gilbert
ausgesch
##zeigersinn
Hochaltar
abgesehen
##wärtige
Stände
Historical
Oberlandes
Fachbereich
##umi
Frö
McL
Bekämpfung
Entwickler
Fortschritt
greift
aufwend
Abschnitte
260
##ription
Raymond
kommand
FAZ
Ries
Anschlag
##zene
##klang
##rants
##warte
##ändes
##gängig
##werkes
Getriebe
##dale
Most
hohes
##iom
##damer
Decke
Tabak
Zelle
Sprech
Kletter
Trinkwasser
Überlegungen
##OL
Comics
Captain
Limburg
##führenden
Hauptquartier
##cept
Cond
Keil
Mitt
trennt
Lehmann
Unglück
Einstieg
Torhüter
Zahlungs
Jahrestag
etablieren
—
##urgie
Oreg
##zirken
Okres
Porto
Municipio
bedeutendste
Dion
berg
##freunde
besied
Stausee
##schlesien
communes
Hg
##fache
##wader
Kall
Capit
Venezu
Porzell
Beratung
Maryland
veröffentlichen
Mant
Futter
Guardian
verglichen
fortgesetzt
##hon
index
beträcht
konservativen
##FF
Your
Plateau
Verdacht
verziert
Pon
Klee
meth
Bonner
Matrix
Scotland
benutzte
typischer
Amtsbezirk
Aufschwung
nördlicher
leer
##federn
Budget
Nachruf
Wäldern
Magdalena
nordöstlichen
##jas
SD
##ieri
##griff
Girl
##gleichung
bearbeitet
Gerichtsbarkeit
Cook
##flotte
Apple
Mönche
trennte
##ofen
280
##kauft
Bark
Invent
Untert
##rebungen
berecht
produzieren
##otz
##älen
##idence
##rachter
Rechnung
Rotterdam
eventuell
schnellen
Virus
##schanze
Valentin
##verantwort
Wiel
kelt
##drucks
##mangel
Gestein
Segment
##werkstatt
Pädagogik
neur
Nebel
sorgt
##gräbnis
Donner
Kandidatur
Nil
##sfeld
Reim
gebrochen
Unmittelbar
##konse
Jahn
Podest
kaufmänn
Ausnahmen
Naturdenkmale
##ML
Kelly
##bewohner
##gebrauch
vorherr
##bögen
Planck
##versuche
##felt
##krank
unvoll
##gewinnung
Bahnsteig
Geschehen
Beobachter
Sprachraum
betroffenen
erheblichen
Konstantinopel
Paten
##struppen
##ingischen
zugesprochen
##krön
##ogene
Tarif
##mittelte
Renault
Anbieter
verkörperte
Konkurrenten
Daily
Dichte
Christentum
Metropolitan
Pank
##ktoren
Seels
gefäl
##spricht
##cos
##flüss
##quart
Bien
##einhalb
Satteldach
##rücke
##verständ
##ifizieren
Eichstät
Nachbarn
Rückspiel
Freiwilligen
##oux
##kraut
##ogenen
##wachsen
Quanten
Kontinent
Uhrzeigersinn
##öcke
flank
Melodie
veränderte
Krankheiten
Kommunikations
##icks
Sever
motor
Stuart
Klöster
tropischen
Ronald
befahren
Kommentar
Zusammenbruch
##moor
##iform
##oiden
fried
Östlich
##zeitliche
Population
##aug
Fi
##oler
205
Zinn
Metro
##ensystem
##uy
Cort
trag
Komitee
Bestände
siedelte
Abgrenzung
Statthalter
ve
##augen
Tests
##itierung
Jungfrau
Philosophen
##ckte
##rome
Roberto
begleiten
vermitteln
##osp
rh
##count
##konzern
Delegation
elektronischen
##ng
Hirn
Huss
Rall
Dunkel
Franco
Kriege
Frieder
Gefahren
schickte
##schlagnahm
Denken
gehörende
Departamento
##lieder
Automat
Château
Kabarett
Häftlinge
##hatt
##raul
Seh
Präd
wohin
Benannt
Nature
Protein
geschlossene
Blu
##ylind
Bänden
##euchtung
Stollen
Prediger
##book
##älzer
Sage
##hälfte
verkl
Different
Operationen
Beobachtungen
erhob
##ristall
##beziehung
Zeitalter
##nez
##aman
sitz
##mengen
Enter
Legion
Aktivität
Eingemeindung
Unterhaltungs
Walk
##ionale
##strateg
mitten
mithilfe
städtische
##methoden
Bassist
Luftlinie
Englischen
##pul
##illi
Ritu
##haftung
Ian
Gary
##astral
##jugend
##ussball
journal
neueren
Niederrhein
##oku
##liebe
überlassen
Volkspartei
Nev
##kurse
Zitat
Bahnen
Balken
schenkte
##erts
Köhler
Söhnen
ausschied
Reflex
Ansbach
Basilika
Schallplatten
DG
Hack
Stiel
##herapie
Instand
überzeugt
Weltrangliste
kreu
minder
gliedert
Engländer
Richtlinie
##klam
Asi
gerecht
Übersetzungen
##räun
Bush
Spin
##eitern
##gewählt
Touren
##schaftliche
ukrainischen
Ice
Stanis
##ouverneurs
informiert
durchgehend
Platzierungen
##ells
Utre
##izität
Dekor
##wäldern
VEB
Stoß
Henne
Mantel
analog
Anstieg
English
geklärt
seltene
Juristen
Produkten
Schulzeit
Gotteshaus
##fehler
##schnitz
Villen
##vorsteher
Thompson
Ansprüche
##instrumente
Vegetation
Erkrankungen
Wirt
Rache
##berichte
Färbung
Reporter
##oen
Röhr
##eignete
niemand
Schiefer
gültigen
Ländereien
##65
Pab
##isters
Gemeind
Ingenie
südöstlichen
archäologische
dra
##isser
##leiden
nutzten
Profession
##ew
SN
Büros
ungen
frucht
Ecken
##rechungen
Wahlkampf
Hansestadt
##geschichtlichen
neb
Braut
##jährlich
Masters
Progress
Rhythmus
##67
Total
konzentriert
prü
Strei
Elsass
slowen
Kreuzes
Synthese
##lichte
Ziegen
Michail
Community
Protagonisten
südwestlichen
##müller
##gewässer
attrakt
Kentucky
Großstadt
Selbstmord
brandenburg
mäß
##eigert
Hills
Bekannte
betragen
Angreifer
Erscheinen
Verpflichtung
##key
##viert
krieg
Helene
Erfindung
verbreiteten
Internetseite
##eser
##äser
out
##rungen
Referend
Marseille
##fränkischen
Bundesland
abgetragen
Popularität
ausgestorben
emot
Fasch
Fries
gerettet
Schiedsrichter
270
Porn
Kongo
Marianne
##funktionen
##politischen
##gium
##ikers
Barn
Slaw
##voller
##schende
Kanzler
heilige
##konsekrat
digitale
##alisierten
Gitarristen
schwedischer
##issa
##mine
ISO
Grant
väter
Bürgern
Reformen
##ofern
Birk
Umwandlung
korrespond
erschienene
##hört
asp
Tont
Nathan
Rothen
##ifizierte
Demokraten
Spannungen
Unterfamilie
##geschichtliche
##hib
Jg
##affen
##ioxid
Allg
Zähne
Transk
Stücken
Weltraum
ziemlich
##aha
##vet
Kalt
nachweisbar
Stadtverwaltung
##archen
Pedal
##fraktion
##sendungen
Pokalsieger
##ilo
##down
pfäl
Carter
Parker
Alpes
Rechten
##ados
##onanz
Bens
##alisch
##spuren
Marion
Wolfen
erobert
Schwerpunkte
##onel
Schieß
gestiftet
überlegen
##architektur
angewiesen
Add
##slalom
Baumw
Überra
##aufenthalt
Chromosom
Empfänger
Vertrauen
Gund
##zwecken
##temperatur
Schönheit
islamischen
nordwestlichen
##kriege
Oregon
Recher
##breitung
Ausflug
##rechtlich
Hauptrunde
umgestaltet
##asso
320
##ünder
Movie
differenz
erwähnten
verlieren
Dictionary
Mitkonsekrat
Dek
##lande
Kies
Baudenkmal
Enzyklopädie
Hi
Quin
wand
Kasach
primär
##kongress
Kanzlei
gesendet
abweichen
##zend
##etsch
Falk
Sind
##rippen
Bindung
Zweifel
Plas
##ellipt
Boxer
##nummern
entscheidenden
##anga
##ästh
Lanc
fund
Klubs
Butter
Schirm
koordin
Challenge
Gutachten
Kaz
##noten
Bauart
Murray
Steven
Letztere
Friedhofs
##idd
##omy
##pur
##höhle
Malers
Drachen
hinzugefügt
##ebe
Dynamo
Nordsee
Konfession
Wahlperiode
aufgelistet
##atius
##isher
1775
Margare
goldene
Genres
Puerto
##künstler
wechselt
##ém
CV
##ragte
##endung
##regeln
Klingen
Freundschafts
##tele
Sta
Zig
Herzen
Rinder
Bosnien
Baseball
vergrößer
verlaufenden
##mö
##imb
##ivo
##uez
Nob
Boll
Esch
Steinbruch
##avy
Gera
Hansen
##regionen
Abfluss
Finanzen
Robinson
trainiert
verfolgte
##damm
neugot
Heinrichs
##swissenschaftler
##iefe
obl
Umlauf
##ffizienz
Debatte
herkömm
verlangt
##lock
##kürzt
Pist
Fächer
Jüdische
##ieller
Kronpr
Röntgen
zwingen
Salvador
Anwendungs
israelischen
zeitgenössische
##ifa
Deh
Frisch
Infektion
südlicher
BA
Radar
Bisher
Kasten
Samstag
beabsicht
##BI
Aktuell
ungarische
##elie
##bares
Soci
Pfarre
öffnen
vollendet
zugehörigen
Roß
Know
trau
glatt
##scheiben
absolute
##ografische
Markgrafen
Stadtarchiv
##ällig
##agramm
Hawaii
##elexikon
Marshall
##öpfung
##beamter
##43
##san
DN
##rose
1772
Biber
##imi
##kreu
##schaltung
##arbeiteten
Lap
##stums
schar
Bundesamt
Challenger
Bürgermeisters
exp
kost
Inspe
Ville
##otische
Veranstaltungs
##ní
Cic
Mam
Sno
India
Releg
singen
Aufgebot
##mera
##vant
fix
Bande
gestrichen
Yu
Educ
Marb
Heart
Linux
verfilm
Titularb
##iu
##äbe
Rok
Saf
##rator
Bott
Guill
##fleisch
Brenner
##hauptmann
hervorgegangen
##züg
Cec
##eigenen
Vision
Steuern
Kreisstraße
vorbereitet
##lé
McK
1782
Germany
Bauweise
Blättern
Kolumbien
##fund
##kleid
Sulz
Erdöl
Aufwand
##deutscher
erweiterten
Organisations
##orz
##erhalt
Laser
Cricket
Houston
schnelle
##bie
##digt
Mrd
Anklage
Gewässern
umgekehrt
avancierte
zueinander
Europapokal
##irr
brü
##stahl
##gebirg
Amazon
garant
##eir
##esk
##eiss
Neffe
##bauweise
Agentur
Auftakt
Schwanger
kommunistischen
##hans
Cho
Grav
Raff
aust
blut
Harold
Hitlers
gov
##holen
blauen
jugend
##skirchen
Ansehen
AK
Hyd
Zoo
##angeb
##faktor
Dorothea
Eisenach
Interviews
Qued
Timor
amtierte
Austragung
notwendige
Emeritierung
Anm
##feldern
Krüger
fassen
Initiat
gedruckt
##offt
##kinder
Kairo
Stifts
Hindern
illustr
##anstalten
Elektriz
anhalten
Instrumental
Instrumenten
##itar
##itiv
Hod
##skrit
Torf
##branche
People
bemühte
##verteidigung
selbständig
sportlichen
Verhältnissen
lib
##teren
##jer
Lars
Coach
Rhône
messen
##führende
##übergang
studiert
Palästina
kritische
pla
##annel
##demar
Ingol
##werbung
solches
Elfmeter
##gangssprach
Folgejahren
Administration
Helen
Normen
perman
Ablehnung
Charaktere
aufsteigen
##ünen
Esk
Ley
Skispr
pe
Söl
Lenz
##schiffs
Läufer
Places
kooper
##oa
##nest
Bey
Iss
1776
Spen
Tote
##streben
Frühling
Reaktionen
Längs
Spren
Intend
Konflikte
Jü
Nations
Münchener
überregion
Überwachung
Quartier
##azzo
550
Tas
Mind
grüne
Leiche
Volume
ausgelöst
Herzogtums
Automobilen
##the
fo
##genz
##aison
Gron
Level
Tausch
herangezogen
Gemeindelexikon
##cont
Zie
Jess
Zypern
Lah
Aufsatz
Rettung
Diensten
##geordneten
##adas
##agas
##ahrung
##bauern
Entwürfe
Lehrerin
verwechsel
##arus
blü
Pfad
##wesend
wohnt
##auswahl
##beamten
Muskel
Classic
verhand
Benennung
##bey
##ulu
##imore
Ethik
##reifung
Gemüse
Stevens
Ensembles
Louisiana
genutzten
gotischen
##rufen
gelöst
Homosexu
montiert
Berichter
Ausschusses
##xy
dei
Bäcker
Singapur
##ologisches
erzielten
überquert
Kommunistischen
RE
##terg
Boule
Erlass
Norman
Medical
##lokomotiven
Gill
Allee
##schwemm
Avenue
lernen
##gebäuden
Pfeiler
eröffneten
Ereignissen
##fär
Cô
MC
##rane
Instanz
Anpassung
Westfälischen
archäologischen
##hra
rec
Peak
Autobi
Maurer
zehnten
demselben
Auftritten
##köpf
Rue
1777
Neus
Ebert
Platin
prägte
befreien
Russlands
zunehmenden
überarbeitete
Wenzel
##iance
##iquid
Quad
offs
##aufbau
Versa
Politische
Riesenslalom
DA
##izip
1760
gegner
Referenz
vorgegeben
Haltestelle
Apostolischen
Seeb
##wortete
Health
republ
erstellte
ordentlicher
Kämpfer
Notwendigkeit
##cha
##emb
##lack
Frän
##bstoff
Garden
Lauter
Countys
Klassiker
juristische
Ausstrahlung
Mitteilungen
##äums
Raf
##steck
Crit
Tamb
Teles
##fallenen
##spolizei
##waffnung
königlich
unterhalten
MTV
amb
##allee
##rüsen
Mick
Rams
Münch
Labour
Realschule
##ardt
Ryan
##fähige
##ächten
dekor
##elsberg
##ichtungs
dunklen
##atem
##schin
Prat
##medien
Track
Längen
gebraucht
##üg
##iebel
Mosa
##preise
Stolper
##igste
##bruder
##gewehr
##größen
Zügen
##lichkeits
Repertoire
Wiederwahl
darstellte
entscheidende
##rannt
##skraft
Variet
Fresken
Unterlagen
orthodoxen
##oud
##zenz
Wände
letztendlich
Elb
Linn
##ettern
Baker
Tiger
anzus
Dennis
##nachläss
##betriebnahme
Festschrift
Baudenkmäler
Jas
Boys
lock
Dallas
pädagog
Pfarrhaus
Teilweise
Olympische
Staatsarchiv
nachträglich
##funks
##gebirges
Freistil
Oberseite
Indonesien
inszenierte
Encyclopedia
##gemälde
Psycho
Eingriff
Schuppen
Engagements
##zek
141
Synonym
##ziehungen
ermitteln
##jana
Kiefer
##ppenheim
Gouvern
Homburg
Sammler
Saarland
versteckt
überarbeitet
##pokal
##wache
exter
halbes
Electric
gerichtet
Ō
##bot
Mä
##iane
##sstaat
Contest
Landung
Unterart
Übertrag
entkommen
Wettbewerben
Mamm
Sang
After
Oberlauf
Thriller
angemessen
Miet
Pitts
##etzungs
##volumen
hellen
##schiebung
genügend
inmitten
##bestimmung
XIV
sim
Niel
##jagd
Parag
Austin
Balkan
##instrument
kostenlos
McD
##knüpf
Düren
Italia
Verlegung
Mehl
Phoen
Sofia
Marokko
Fernsehsender
##heraus
schien
Logistik
Rosenberg
gesetzlichen
##vre
BC
Elef
##hafter
Missions
Erneuerung
wiedergewählt
IG
##elbe
las
##teams
sieb
##flosse
Singer
Meinungs
##enez
##utta
650
Müll
weichen
Spanisch
Aussterben
##mouth
##komödie
Quedlin
anspruchs
206
Fat
Short
Viert
##amerikas
gehoben
schritt
Italiens
Munition
positiven
##akel
wün
gäng
übliche
Begleitung
Klagenfurt
Oberhausen
nachweisen
australische
##preuß
angl
Messung
Landgraf
barocken
Fraktions
einsetzte
staatlich
Beschäftigten
Regierungszeit
##acker
##kapital
Miguel
Newton
Zeichnung
Stadtteils
Fürth
##reffend
Regisseurs
beruflichen
vorgeschrieben
SB
vul
dement
Madonna
Sehenswür
Geographie
Wettbewerbe
##ameisterschaften
Kō
Bri
Wang
##echnen
Typus
Zerem
übrig
kleinste
Glockenturm
##atives
Erbfolge
abwechsel
##universität
##izz
##otti
##wski
Ull
arg
##ologin
Reliqu
Argument
aufzubauen
Taschenbuch
##mahl
##status
Schol
Kurier
Ermland
Piraten
dreizehn
angefertigt
##mage
##oide
##ebook
Sogn
##atorische
Designer
geringfü
vorrangig
Landstraße
Lebensweise
Pomp
Extra
Marqu
dunkler
Aufträge
Schumann
beachten
kurzfristig
##ahlin
##peter
##kehren
Korru
Logik
##osophie
Sorten
geheim
Dagegen
negative
Slowenien
beginnend
veranlasste
Fachhochschule
##32
Bie
lebens
##flugzeuge
Johannis
Herstellers
152
Lamb
Mosel
Türme
gezielt
Services
Untergang
vollzogen
Bundesländern
##uler
angeführt
##ises
Epp
Schwab
##vorsitzende
vollständigen
##änke
##enken
Appl
Borde
Satur
Verträge
Gedenkstätte
##astet
Watt
##veland
Herald
Zagreb
gelben
demokratischen
##pfeiler
##auftritt
Orientierung
ausländische
Klassenerhalt
##besp
##boote
##wettbe
Katal
##yrischen
vorkommt
ausgeprägt
ausgeliehen
Bundeskanzler
extra
##fähigen
linker
variiert
Katastral
weitergeführt
##iley
Heine
Swiss
##enkirche
Effekte
Gewölbe
Henning
gefordert
diplomatischen
##kante
##jenige
Knaben
##skapelle
normale
##steuerung
Schreiber
Richtungen
##gefahr
spekt
Quartett
Weltrekord
##HS
##lis
##aume
Polens
Diskussionen
Seid
Nancy
Congress
Hochstift
beschlagnahm
##typ
Dod
##rüder
Arag
Boeing
Zyklus
Anfängen
kristall
zufällig
Administrat
Charlottenburg
##mert
Pog
1740
##strand
Linke
erhöhten
einbezogen
Aufführungen
##cin
gu
##ying
bud
Zert
Garnison
übersiedelte
##sea
##wang
Pun
##schütz
Schub
##raktion
runden
stattfindet
##belt
Def
heb
Wasch
Antiqu
##laufenden
Aachener
Biathlon
Turniere
##rechtliche
schriftlich
##ucle
konse
Violin
flächen
##legenheit
##verbänden
vereinbar
##oes
Pam
Mold
Tell
gesucht
bestimmter
##wi
Zap
nannten
Bekenntnis
Bundestags
##ähe
Toy
##lauer
Ammon
Berges
Morris
Seiden
deutet
Schnitz
Vorgang
rechter
##lia
##münd
ten
Optim
##ication
ellipt
Professorin
beeinflussen
Lay
##bleib
Gerald
hölzerne
Geschmack
vernichtet
regelmäßige
Verarbeitung
Sich
##wärter
Limous
Wüsten
Zensus
kostete
wohnten
gegossen
Prinzipien
Fußballverein
##62
Kong
erlitten
Kommunisten
Handschriften
fü
##atch
##bildner
Cousin
##entscheid
Scheiben
parlament
Nationalspieler
##funde
##kugel
Stal
Lille
Luxus
hilft
nebst
stadt
Flugzeugen
inspiriert
##opath
Chen
Solche
herbei
stimmte
vermuten
kirchliche
verstärkte
freigegeben
Wüst
fünft
örtliche
##stemperatur
##hallen
Piano
##ferenzen
##gebunden
Sportverein
Wiederaufstieg
1100
Kond
abgekürzt
Erstellung
BS
##oser
Dream
Rasen
brannte
Brothers
Beachtung
Geometrie
ausgegeben
Burschenschaft
Mog
sem
##skolle
Stumm
##betriebs
rötlich
##übernahme
Aufsehen
Data
Popp
##konzert
Unruhen
besiegt
Brooklyn
Befehlshaber
##acy
Samt
Jonas
##maligen
symmet
Erfolgs
Resultat
##ič
£
##äen
142
Gän
##üttel
Less
##ungser
##wörter
gewei
##methode
Stifter
Mehrheits
Tagesspiegel
Trompe
##gekommen
einstigen
Paare
Besuchern
Menschenrechte
##sie
##yse
##onst
Böh
Nahe
Titels
##niederlage
Expansion
Minderheiten
Thé
are
Magen
Wenig
gestalten
AV
Note
Eddie
Revue
##bindung
##prinzip
Strauss
abseits
erwiesen
##ning
Lack
Kraus
Doping
Gliederung
Rät
Dokt
##iftung
##onisch
Busse
enorm
Forstwirtschaft
##bünd
##ofür
##sted
1773
Dessau
endgültigen
Rekonstruktion
##uta
More
Hypoth
Alabama
Substanz
Durchgang
digitalen
Provinzial
romanischen
Dienstleistungs
we
##eckt
##sätz
##izien
Beer
Börse
##chteten
Geograph
Andererseits
##czy
##arum
Two
##weitern
Nonnen
Ringer
##weisungen
Fernando
vergeblich
Lichtenberg
Restaurants
Ähnlichkeit
Hubschrauber
##krut
1778
Lehm
##agnose
##modelle
Empore
hervorg
##initiative
##agin
Boots
krank
südwest
ernähren
##sicherheit
##98
Pöl
Lütt
##mandat
##wissen
Kegel
##führers
##gesetzte
berichten
##geschnitten
##übertragung
bayerische
Sommerspiele
Mast
Malta
Vegas
Wüste
Eastern
Emanuel
ordnete
Angebote
stiftete
Einteilung
NDR
##äften
##verläss
massiven
Container
Großmutter
überliefer
Pensionierung
##groß
1730
XIII
Blind
Judent
Sitzen
Leinwand
Talsperre
betrachten
Katholische
Sort
Vamp
Lingu
##sprinzip
##ändische
Bristol
Säkular
schafft
Offizielle
ihrerseits
theologischen
##andel
tiefe
##sleiter
Küchen
Proben
Seattle
Heimspiel
Traditionen
Aj
##papier
teilen
##speriode
diejenigen
geschieden
Grundwasser
Tischtennis
Did
Blum
##riebenen
##gal
Chan
klassiz
##eirateten
##herz
##ilfe
##kels
##izenz
Yale
Krypt
Schrau
aufgeben
##sbibliothek
Klosterkirche
##enza
Grunde
Taunus
Worksh
bricht
Century
verändern
##ständischen
kritischen
##IR
##irkt
##radio
Ausb
##befest
##enzahl
##ground
Osttim
Ergebnissen
Wintersemester
internationales
##äuren
##orough
Lambert
##herausgeber
##schauspieler
##chow
Lak
Samb
Trophy
anstatt
Kaiserin
Porzellan
##zzo
Abu
##geräten
Offenbach
wh
##grau
Oberk
begünst
Bibliotheken
##beln
##thiop
Birm
##gebende
Warner
##östlicher
repräsentiert
##št
##heft
Krem
Winn
##anteile
Dichtung
Venezuela
unterzeichnet
##III
##ady
##iba
Wu
Eag
verzö
gemisch
##geschwind
Princeton
Genossenschaft
Enri
Grass
Phoenix
pfl
Flut
##fahrung
Freimaur
Weiterbildung
##77
Sap
##feldt
Reck
grob
zumal
untersuchen
##ledge
Reut
Lords
Geiger
##ications
Statuen
Weißruss
Streitigkeiten
Landwirtschafts
förm
##gottes
vereint
andauern
Baudenkmale
##PO
##été
##icon
Wayne
Kantone
dahinter
##enberg
zeitlich
Shakespeare
Territorien
Unterhaltung
festgehalten
##wochen
Break
Einbau
##schuppen
Erzherzog
Franziskus
afrikanischen
Tem
##gründe
Etappen
direkter
Zuordnung
besuchten
##schwerpunkt
endgültige
europäischer
##lohe
##lorid
Demo
Zelt
wofür
##mission
Family
Stalin
##kommissar
Folgenden
Richtlinien
##stämm
Gemäl
Kurse
##oppelte
Schlangen
Niedergang
##akul
##eidet
Geis
Hers
##attungen
Hörfunk
gefasst
trennen
Schmiede
eroberte
gelblich
Baltimore
406
##atura
##hoven
Adal
Aser
##christ
##jektiv
absteigen
##irs
Wöl
Wün
##avier
##erenzen
schmale
Mediziner
Französische
beid
##ovision
Hunter
weitest
##malereien
##beziehungen
Millimetern
Afroamerikan
##TE
Medium
Treppe
Utrecht
aggress
##rap
##rack
##émie
225
Logo
Rhod
verbracht
##quet
##ählten
##wässer
Lehrers
Primera
erringen
programm
Parameter
teilgenommen
philosophischen
##DC
pur
##antast
##zollern
Selten
Abwesen
##schwester
anschließende
durchzuführen
Angriffs
Rebellen
Catherine
komponiert
westfälischen
##dek
Oss
##flekt
Rank
gold
##anzeige
Messen
orange
##baumeister
praktische
WS
##atio
Moon
Malays
Werden
Gertrud
erfunden
##bis
##prüf
AfD
##giebel
##entwurf
##galerie
hängen
Berlins
##änglichen
Hauptwerk
Kameramann
Angestellten
##lon
Oxid
##profil
Jason
jemand
##outh
FIS
Tul
Teen
erwar
Seelen
Umland
Ältere
Bedingung
Mitarbeit
##31
##ianus
##itive
Joch
##steige
Schie
Titan
##leitungs
fusionierte
##log
##anzett
##banken
Schuh
Nerven
schlagen
standard
entfernte
fehlenden
Og
Find
Slam
##arrang
##ünster
Guido
Militä
Neffen
seltenen
Gleichung
Base
##utenant
Strahlen
Lebzeiten
Marktplatz
beschäftigen
##raums
Jama
Medic
erläu
Sporen
Manhatt
Astronomen
Spitznamen
Auswärtigen
Räumlichkeiten
##jar
dot
Basler
##spaltung
wörtlich
##ieregiment
##konkurrenz
Ortsgemeinde
##su
DL
FR
##amme
##vogt
1779
Kurve
synth
profil
##standort
Gedenken
Domkapitel
##tyr
Sylv
Zink
kenn
Illust
##läufigen
Geister
Reichstags
Sportwagen
Boul
Herman
##pädagogik
##untersuch
Kompetenz
##etze
1774
gehö
Joint
##manager
Orange
Pietro
Rückstand
Westküste
vorgeworfen
lux
##gitter
##grenzt
##klassige
GE
lim
##abtei
##städten
##bringung
Laufzeit
##verleihung
Ingolstadt
behauptete
türkischer
##rab
##acke
##umpe
Dix
1781
Sour
Auszug
warten
Konkurs
Ausgangs
##lime
##passen
Nagel
Knight
##alitäten
Masuren
gewährleisten
##izza
NSG
kreuz
French
tausend
Stimmung
erlangen
abgeschafft
151
Scient
##verbrauch
Geschoss
Konföder
Italiener
rechtliche
##ikos
##opro
1763
Bann
sche
Energy
Interp
Martha
inoffiz
Begräbnis
Bomb
Blood
Straft
flache
Äthiop
##enträger
##ieinhalb
Zwickau
Wahlgang
befreundet
##othy
münd
drittes
erbauten
sat
Lamp
Aless
eingebunden
##tage
202
##liger
krie
##gewerk
##mühlen
##palast
Rallye
widmet
##spielung
schlicht
Spannungs
Sächsische
Modernisierung
##grube
##matrik
basierte
Druckerei
##latt
Sas
##flanke
##tremen
neutr
Fahrplan
letztere
Cleveland
Margarete
Theaterstück
##rien
Zens
Arist
##ographen
##kündigung
Bordeaux
geführten
Manuskript
anerkannte
wechselten
Rechtsprechung
##sah
##atro
sort
Rebell
##schwerpunkte
Gelegentlich
##ilding
##staffel
Nickel
schräg
Schulze
synchron
Journalistin
##verän
That
beruhen
Franchise
Asia
Raupen
Alphabet
geeigneten
##ichi
Ding
Advan
Seoul
block
Schwager
verwechseln
Juniorenwelt
gep
##offer
##sprof
Cath
Barth
Expon
Alaska
Christina
ehemaliges
olympischen
330
Bowl
What
##sbetrieb
Zahlung
Birmingham
Aserbaidsch
technischer
AF
Nem
Barry
##irische
potent
##versionen
herrscht
beibehalten
geschaffene
##vall
##uguay
##zyklus
Latin
Skandinav
Schriftstellers
##HF
Iz
##agnet
##messe
Elfen
Veran
Denkmäler
erweitern
##comp
##ibald
##laster
Chrys
marsch
entnommen
Föderation
Hohenzollern
myth
Genua
neuse
Schloß
zweigt
gelangten
##eime
Gay
fil
##arium
##ignon
##itären
kugel
Betten
Sekunde
königliche
moderierte
Psychiatrie
ägyptischen
##fres
##körp
##oste
präz
Anime
nordwest
initiierte
##zeitschriften
ew
##ritz
##sache
Resol
Summer
gerechnet
interessierte
##sum
His
Lun
Görlitz
Staatsoper
##viel
##rasen
##üster
Kirk
Kopie
Ohren
Detail
##möglichkeit
geheiratet
gleichzeit
Zähl
##swerte
##e
##n
##i
##r
##t
##a
##s
##d
##u
##h
##l
##o
##g
##c
##m
##b
##f
##.
##w
##k
##z
##,
##S
##p
##v
##1
##A
##ü
##D
##B
##ä
##0
##"
##M
##9
##2
##K
##G
##E
##-
##F
##P
##H
##R
##T
##W
##L
##I
##ö
##N
##V
##y
##J
##8
##)
##(
##C
##3
##5
##7
##4
##6
##O
##ß
##Z
##U
##:
##j
##x
##“
##„
##–
##/
##;
##é
##q
##*
##Q
##Ü
##Y
##Ö
##’
##†
##_
##%
##X
##'
##á
##Ä
##&
##í
##ó
##=
##è
##]
##[
##?
##ō
##!
##š
##ç
##‘
##ł
##°
##»
##+
##«
##č
##É
##ø
##‚
##§
##ć
##ı
##ā
##â
##à
##ã
##×
##ô
##ú
##ý
##ñ
##ř
##ū
##å
##ž
##ë
##ě
##Š
##ş
##ń
##”
###
##−
##ī
##Č
##ă
##ê
##а
##ș
##′
##о
##$
##æ
##ğ
##и
##ę
##>
##е
##→
##ð
##α
##€
##μ
##Ž
##н
##Á
##|
##<
##ś
##р
##ą
##î
##Å
##ʿ
##ț
##ė
##İ
##с
##ï
##в
##ż
##к
##́
##т
##Ç
##л
##·
##ο
##Ł
##—
##ò
##⁄
##ů
##Ō
##õ
##ő
##£
##β
##ν
##Ś
##ň
##ς
##ι
##Ş
##ρ
##Î
##ē
##ə
##λ
##д
##τ
##ź
