[PAD]
[unused0]
[unused1]
[unused2]
[unused3]
[unused4]
[unused5]
[unused6]
[unused7]
[unused8]
[unused9]
[unused10]
[unused11]
[unused12]
[unused13]
[unused14]
[unused15]
[unused16]
[unused17]
[unused18]
[unused19]
[unused20]
[unused21]
[unused22]
[unused23]
[unused24]
[unused25]
[unused26]
[unused27]
[unused28]
[unused29]
[unused30]
[unused31]
[unused32]
[unused33]
[unused34]
[unused35]
[unused36]
[unused37]
[unused38]
[unused39]
[unused40]
[unused41]
[unused42]
[unused43]
[unused44]
[unused45]
[unused46]
[unused47]
[unused48]
[unused49]
[unused50]
[unused51]
[unused52]
[unused53]
[unused54]
[unused55]
[unused56]
[unused57]
[unused58]
[unused59]
[unused60]
[unused61]
[unused62]
[unused63]
[unused64]
[unused65]
[unused66]
[unused67]
[unused68]
[unused69]
[unused70]
[unused71]
[unused72]
[unused73]
[unused74]
[unused75]
[unused76]
[unused77]
[unused78]
[unused79]
[unused80]
[unused81]
[unused82]
[unused83]
[unused84]
[unused85]
[unused86]
[unused87]
[unused88]
[unused89]
[unused90]
[unused91]
[unused92]
[unused93]
[unused94]
[unused95]
[unused96]
[unused97]
[unused98]
[unused99]
[UNK]
[CLS]
[SEP]
[MASK]
##на
##ра
##ка
п
.
,
##ва
##та
с
а
##ла
##ры
з
##ны
##да
##лі
##кі
##га
##ні
і
па
ў
##ма
##дз
##ль
г
в
на
##не
##ча
1
##ст
б
##мі
##ле
у
я
##ня
##ро
##цы
##ля
##ты
##ца
##ска
##ць
##ве
##дзе
##рэ
##ме
ка
П
за
)
(
##оў
##чы
##ру
—
-
к
##па
С
А
##са
пра
ад
У
ра
го
да
вы
##ся
##ці
д
##ві
##вы
19
##ку
т
Б
##скі
2
К
##ста
М
##цца
«
»
м
##ко
##ер
##ера
В
##го
ма
##ту
##ло
##най
##ды
ш
##но
##жа
бы
##ных
##эн
##то
##сі
##во
Г
##дзі
##за
##хо
Н
пры
##ну
не
##шы
ча
га
Па
##ныя
Д
##ха
##ба
Р
##гі
##сці
"
З
са
ф
##ння
##жы
ста
##нага
20
##оль
##скай
##кла
##ша
##се
##вя
ва
та
##тэ
аб
Ка
##пі
##ця
##ным
Л
##ная
года
##скага
##це
##нне
Т
лі
су
які
##ецца
##ор
##пе
На
##раў
ме
пера
##дзя
##лу
##зі
##ву
Ма
##цыя
##ела
во
##му
рэ
пад
##тва
##ду
##тра
##гу
э
##лю
##лы
:
##ніка
##цыі
І
##сць
годзе
'
##елару
ін
раз
ба
##шча
##рыя
##мы
##ваў
тэ
##бі
мо
##до
##тры
##пу
##мя
##ен
скла
##пра
быў
##бу
##сты
гэ
ар
3
##стра
што
##ар
##цка
##рад
18
Ф
вя
##род
Са
##мо
##юць
ся
##ства
##кса
Ра
##вай
##нскі
200
х
##лася
##нні
/
Мі
##ўся
##ён
кан
##дэ
##цый
дзе
##ход
##су
##кта
##бо
201
##льні
##цтва
Белару
##ран
##фі
За
се
Я
яго
ты
##блі
##сту
##зна
##рыі
##он
##мен
##бы
##валі
##зе
##сля
для
##цкі
##спа
##ўля
як
##даў
паў
##со
##ную
ц
зна
##хі
##нае
5
##ходзі
##чэн
бу
##чэ
мі
##ская
Х
##нд
##лё
##наў
4
км
##ск
##ксама
Ба
по
кі
ро
##ваны
Ч
##тыч
Да
##дна
Ш
##по
сі
жы
##таў
##каў
##ноў
##вання
пер
кра
##вер
якія
;
дзя
##сто
Га
е
сва
##ман
таксама
##сла
##юцца
I
гэта
##нё
##ольш
##гра
##нік
ку
##нь
ст
##ску
##вых
##нымі
##кра
##нам
ды
##сна
ру
##бе
##стаў
Ві
ву
##сц
##ліка
была
##зы
Та
Ц
##ліся
##сь
Э
##рам
ко
’
гу
Ва
##ніі
чы
пача
ж
##00
199
дэ
6
яка
му
гі
##насці
фі
##тар
##er
##скім
былі
##насць
##нг
выка
##нія
##роў
##скіх
194
яўля
##бла
##стэ
##an
част
ім
##пы
##выя
##ржа
##ванне
X
ві
Вя
17
##вет
##фе
##нка
##нскай
гра
##вае
ве
Рэ
склада
час
##доў
##вета
ўз
##вод
раё
##трыма
##цэ
##наль
ле
8
мя
15
##віч
іх
пар
##тым
##ней
##лоў
цэн
##ючы
ён
##коў
##ню
пасля
Лі
але
##лаве
##пера
##кры
Е
##вая
##нскага
##ваецца
рас
##or
7
ас
яко
белару
16
##джа
##тара
вобла
##фа
ня
##чнай
##рада
##ем
насе
ха
было
##час
##СР
но
пе
ўс
ца
каля
##кты
##льніцтва
вай
##on
адна
дзяржа
фа
##in
##кай
##ваць
до
##вага
##ур
жа
чалаве
##ун
спа
##год
тэры
9
##вым
##ско
##сы
Пра
##чны
нека
##ут
якая
##рэд
##там
##бра
S
##лаў
вё
наву
іншы
##лікі
атрыма
##кам
##кт
Беларусі
або
192
сту
193
##цкай
##чных
кры
адзі
##вана
##намі
##эй
пла
аў
заха
##дэн
лю
##цкага
##публі
чэ
##ar
прад
сель
##цу
197
0
##шчы
198
##вала
##нікаў
##олькі
##зу
вобласці
##піса
кара
##жна
ця
##кон
196
##пры
Ар
тэрыто
##вор
##en
10
##тку
ла
195
яе
##тоў
12
наз
##ке
прэ
то
краі
##цаў
##чай
ры
##цоў
Вы
##туры
##няй
тра
пі
191
##чу
##кс
Ж
##тур
палі
най
больш
поў
##цця
аба
супра
ці
##талі
##мер
##ністра
адно
мес
яўляецца
ні
##дар
##пер
##гані
уз
##днё
##знача
Пасля
бі
N
A
##ступ
##скія
ге
кам
толькі
##рыч
Ла
##льнай
##спублі
бе
##мат
Паў
##нта
выкары
##ёр
##es
##йма
дру
C
##лення
гадоў
Ад
маста
##цыяналь
стагод
##бор
##вора
гру
##камі
бо
##клад
##жэн
стаў
##пя
14
##рк
##ге
##мешча
склад
##чэння
Пры
Ся
##бер
##цяг
##лены
##тр
##шай
##цыю
##лькі
M
##ССР
%
P
##хоў
вер
##лен
##al
##яў
##at
##стоў
##рта
Пер
Кі
Су
##тыя
##нікам
##чна
О
##рон
ё
##йш
Ле
знаходзі
##сце
вой
Ры
##віка
куль
##клю
##шэн
ч
##тай
##сам
11
грама
13
##дам
##нды
##міністра
першы
##скую
##буда
выра
##сій
Не
аргані
насельніцтва
##ках
##скае
##цё
##нікі
##жо
све
##чнага
##гля
##зя
о
##сіі
Сі
##тэр
##ваюць
##чэнне
##міі
##водле
##ніў
##ic
шы
B
пя
ска
Го
права
горада
Ку
чалавек
##вой
калі
##чныя
##ніку
##млі
##VI
##ходзіць
вайны
памі
##кія
кар
##зам
свя
f
вядо
T
ўла
##is
##сцю
##няў
##сле
##дах
тым
##валася
##дзей
Еў
ак
##нах
шко
Ю
##чыў
##ленне
Ме
пас
дзяржаў
##фар
Аў
пло
Бе
##льных
паміж
##льны
##нівер
##рый
##рэй
сама
ства
##бя
сельса
##рыка
##міністрацый
архі
вера
распа
тэрыторыі
##рых
##нак
над
Гэ
складзе
год
складае
Тэ
##рве
##ніцтва
Рэспублі
##зо
##мпі
сы
ду
##вяр
гісто
##ванні
##ху
##нскім
##льная
Вяліка
##стыту
Фран
##сітэ
##рэн
##he
##чын
##тко
Ста
про
##ніверсітэ
праца
##лін
сістэ
##олька
галоў
##спе
Ха
II
размешча
##гіі
маг
выкарыстоў
##чным
##гія
роз
паўно
аўта
##саў
##лагі
таго
##він
адбы
ля
два
некалькі
Ру
##валіся
##чаў
##тура
каман
тры
##льна
арганіза
горад
##кую
Бу
Гер
##слаў
##лена
Ё
стагоддзя
месца
##пада
эле
##лей
паўднё
пун
##леў
Мін
аса
раёна
##нты
##ваўся
выда
##свет
кампа
шмат
Ко
##гад
D
##ной
##льнага
##краі
разві
асноў
праз
пара
##луча
По
сп
ваен
гэты
##зва
##it
##вед
##зідэн
##la
##стан
дз
Ге
Пе
##эра
##чная
асо
Ве
##нняў
супраць
XI
якіх
и
ліпе
студзе
ула
дзей
Ча
адкры
сне
ша
кня
t
слу
##ктар
колька
##нт
##піс
гэтага
##мяшча
##нскіх
##нкі
стра
зя
##ольша
##каз
##ткі
дву
##сю
Пад
апо
##ват
##лка
Ні
ю
спе
пачатку
гарад
##льныя
##маў
R
##нера
##рыта
##ни
раёне
засна
дзея
##нім
##стрыч
сваі
##чо
цэнтра
Беларусь
##лёў
##вычай
іншых
##кім
L
##чыць
##зіі
займа
Кар
##ян
##дзены
##шчэ
адзін
прадстаў
##вар
гг
##us
царк
ўсход
##ццё
Но
кіраў
##куль
атрымаў
s
##сня
##рох
Аля
##шу
фран
дапа
падзе
буды
Ро
##ША
##ўжы
##вё
##ніча
##тна
фор
##еў
так
p
сака
перыя
яны
мае
##ліза
##дж
##яна
##віча
25
No
паса
літара
гадах
бра
Во
чэрве
парты
##каза
##пад
гады
ЗША
снеж
##тага
клу
##ёй
##нар
адміністрацый
кла
##лам
##ваюцца
Свя
мар
##зера
##бур
##рво
стала
##лова
стара
жніў
якой
##ляў
##ктыў
пала
кастрыч
сталі
##сця
кні
нацыяналь
спра
паве
XVI
Мар
##нер
Рэспублікі
G
##зней
гэтым
ор
Адна
##el
ліста
некато
##міна
##шэй
##леж
##тыў
стан
перша
Але
##цкіх
##цкім
##кан
пу
##радзі
ўва
войска
190
E
30
раён
##ўшы
імя
пада
Се
##ключа
##хні
##льным
##ннем
архітэ
двух
гер
##роз
##сцо
##ген
##om
вяр
##пла
Ін
Лу
##нглі
##вую
##рыста
выніку
дасле
сярэд
сучас
##ol
##ступа
ту
##ion
##дзельні
##мента
Кан
рэгі
эка
##сія
фар
##моў
c
Дэ
наступ
Ша
##тка
##рапе
##тро
##так
o
Лю
##рак
знаходзіцца
##няга
H
Фі
##ксанд
##трымлі
##ходзя
##ваныя
##водзі
##міра
Чы
##тая
Пі
СССР
##графі
b
Еўро
##ляр
##ли
сла
2008
пало
разам
##цыяй
##ur
агу
трэ
мясцо
##ніца
##роб
ракі
##праў
краса
інш
##наві
вядомы
##тла
##стру
вёска
лічы
перава
##рт
##et
##рэс
неа
сельсавета
##стэр
яшчэ
няме
працяг
##няя
бя
н
вялікі
яна
студзеня
шчы
той
кіра
со
##шта
цы
##хе
чэмпі
Дзя
аль
аднак
сусвет
##ре
##дра
це
F
ліпеня
##ком
народ
каро
##нава
мно
Дж
Бо
возера
палітыч
Украі
##кіх
адпа
W
самы
поль
##цкая
##кадэ
Насе
частка
дапамо
музы
тэа
##ворча
Гі
##ліз
##радзе
якога
d
##ia
##000
цэнтр
неза
##ладзі
Маск
##ступі
афі
паводле
##страў
##цэн
##бой
##рапей
##спадар
##плы
##чына
вулі
##чыма
##рыю
матэ
апош
імпе
Герма
Расіі
навуко
паста
грамад
пісь
##ніх
мая
##нская
каб
звя
тур
ліку
##нцы
##ўсю
саве
##гор
##вах
##нга
##дзел
поўна
перамо
бера
збор
Савета
прызна
праця
вёскі
краіны
Ён
##рама
##цеб
каму
##чых
Пло
##ходняй
Ды
астра
2009
старажы
Аднак
пабуда
смер
зда
асоб
Насельніцтва
##ed
падчас
##дамі
Аляксанд
можа
мала
##эр
##нёй
##доб
ус
##as
##больш
паэ
##мыс
Калі
створа
зем
сакавіка
высо
##кава
чал
сувя
кастрычніка
прыня
чэрвеня
Ус
Ас
##льмі
шля
##вары
Ан
Най
Ты
Му
##гла
павер
##льнасць
Аль
Кры
##лія
##il
##лося
снежня
жыха
##шых
вяліка
эк
##мей
мовы
прае
22
заме
Дру
##жнарод
камі
верасня
21
заста
Прэ
##ходзе
##ліна
##хаў
Бы
##гой
Аб
##валь
Паўно
##лас
##ксі
##ht
рэгіё
##ктаў
невя
V
вышы
шэра
##пле
прэзідэн
189
_
##цей
сям
звычай
яў
Кара
##кцыі
##мерыка
##шка
перада
Со
БССР
##маль
жніўня
цэ
##сіх
ўніверсітэ
##ненне
размяшча
музе
##жу
адроз
##вымі
часу
Віцеб
##кала
##нуў
Італі
##цуз
##працоў
губер
##шэнне
##насты
##кончыў
апа
хут
##тамі
Ду
чынам
##ch
##рка
##чэнні
працы
##пута
якім
назы
Гэта
##ніцы
буй
##логіі
распаўсю
##мія
##бро
of
свай
гэтай
##бле
сярод
23
рабо
тыс
адным
##тру
якасці
##валю
##чатко
24
канцы
прапа
##чыны
дыя
w
гіста
##фарма
##мель
шта
сваёй
for
акру
##шыя
##and
асаблі
Пера
##сей
##ван
існа
Паводле
свету
вельмі
й
##рма
##дыя
##чка
##чага
Польш
186
##ўжыня
##дзь
##шым
Пя
Цэн
##лья
якое
кон
Беларускай
##нда
До
сты
Бі
##ro
##тных
##гай
мастацтва
дася
іншыя
запа
XVII
мен
##нку
ядна
##сні
культуры
выт
чыгу
пазней
прафе
інстыту
##прыклад
шыро
фе
Жы
трох
гісторыі
сацыя
##лых
##лга
асно
размешчаны
Раз
##нскія
экс
кале
##ндыі
##ліч
##ra
26
##родзе
будаў
сваю
28
##сцё
2010
##крамя
##парад
##un
працягу
##рах
імпера
красавіка
Плошча
адносі
##мес
ары
##вацца
##ходжа
хры
мета
##рамі
пакі
Мо
##зія
Гу
стар
лістапада
баць
змя
##раз
колькасць
ўста
ССР
дзі
##падоб
##заў
частцы
тыся
##яўля
населе
арты
##траў
##кліка
##баў
Кра
##тэн
Міха
фун
##нення
##ктыч
##тны
мэ
##тары
##тах
розных
чаты
часта
##раць
##бар
##тве
пля
ува
27
Ня
##ліі
##мага
перыяд
##фор
лютага
##ходу
##сцей
##эў
Польшчы
Уладзі
2013
чым
свайго
##йшоў
##ука
##рэння
магчыма
без
##re
188
##гле
Чэ
заня
спецыя
##лод
##ри
##ром
##меры
быць
таму
2011
лё
##чную
Паўднё
еў
трады
рэа
горадзе
чэмпіяна
яўляюцца
##лыя
француз
##енг
##май
##годна
##рой
##цкія
##мам
вая
##нікамі
##хам
##паў
##цамі
пом
Бра
гуль
2014
жыцця
##шаў
##нуўся
Магі
Дз
філь
##ванняў
i
##стве
##жэння
##am
зні
##лага
імперыі
працаваў
##рож
##бры
вада
##сну
яві
##лішча
##ваннем
##радзіўся
саю
тран
##лісты
##кана
мл
##ской
Ту
хо
смерці
##шага
мат
лічыцца
Вер
##твора
O
##фіка
##вічы
зра
больша
зме
##льнік
хара
Жа
кож
зо
афіцый
##le
##мку
кана
аку
беларускай
чар
Нацыяналь
выгля
##жаны
Фа
абаро
Італіі
187
##дзна
яму
Фе
падпарад
генера
##шкі
можна
сябе
адміністрацыйна
востра
##вішча
K
працэ
##дні
сувязі
2012
гаспадар
##рла
пы
хі
Вяр
Ай
##чыўся
памя
##жыць
жан
##кае
беларускі
моц
##кара
##слу
##дзена
##вія
##рмі
##дры
назва
##бург
2006
##пісаў
##пісу
вышэй
##дэра
##лым
незалеж
##зму
выступа
##шыню
прызнача
##тыка
культур
працу
наро
абра
маюць
n
##тныя
##os
акадэ
##тых
фут
амерыка
2007
сезо
##ліў
100
часо
##мпера
Мікала
асабліва
##лак
доў
даследа
цар
##шая
адзна
амаль
выпад
##дае
##um
##дка
гала
##маца
англі
архітэк
выпу
старшы
##рава
##воў
##бай
Даўжыня
##цін
глы
##кова
##ліны
вый
2016
XIX
##ленні
##трэ
сусветнай
##гій
##жэ
аўтама
##ula
Саве
звяза
Яго
тво
##гам
##ски
##чнае
##першыню
##цю
альбо
другі
стату
часам
Пу
грамадзя
##мна
дзяржавы
ступе
адной
form
Таксама
элек
##варо
Гродзе
прамыс
##жэнне
##бярэ
праду
##поль
раслін
##стрэ
сямей
Сан
##твы
нале
29
##вам
##ган
забі
цяпер
спад
J
##палі
##цам
##рэдзі
заход
##чыя
напрыклад
##кцыя
Гомель
##чым
коле
##зь
##чаны
Саю
Анд
##ціў
##тыкі
газе
правін
50
сваіх
эканамі
рэлі
прыс
уста
m
Сярэд
тут
сім
##ви
павета
ганд
##цяр
##тнай
##кладна
2004
##гаў
Для
##стой
1944
найбольш
лініі
##торыя
##зер
мора
##твара
##бля
часткі
фіна
##ненні
навуча
рады
ква
шчыльнасць
міжнарод
паля
прыват
нар
Чар
фізі
ніж
актыў
the
Бер
##гна
formula
##лкі
зако
##тні
матэрыя
##мар
выкарыста
##ent
захад
хутка
см
То
пераважна
бая
2015
дэпута
ўсе
##прыем
рэспублі
пункта
Брэс
жывё
##нога
ідэ
паўста
2005
кру
##дыі
Германіі
Бя
##ing
прагра
боку
##рд
Расій
##бярэж
расій
сабой
##ністы
вытворча
стано
##нен
ана
месцы
##зм
тэх
##тан
##страка
тэле
апера
Ці
U
##нутра
##кая
##ut
##ie
##нец
служ
Ву
Уз
##шэ
40
##ктара
чле
##туа
2000
грэ
##сіў
канца
##блія
Яна
##скімі
##нэ
раней
зрабі
##мір
##цці
##гру
выву
##йскай
Аф
##нікоў
–
каманда
ўсіх
касцё
Чырво
міні
##вайш
##нса
°
##сер
адука
##довы
нават
2017
буду
муж
геа
ўжо
Хо
a
вызнача
##шаны
дрэ
навук
партыі
выя
выкана
пасё
Мя
Міні
##йскага
##тнага
##шчу
каралеў
млн
##гуць
Вярхоў
##id
рака
##мах
##сут
драў
##шні
мове
##віла
затым
##чык
##дзін
##ваная
ан
##стай
Цэнтра
поўначы
ўсё
шматлікі
##сцы
шыры
каталі
пашы
##50
плане
патра
##сяго
183
дадзе
Ува
Падчас
заба
май
Вар
Асноў
179
арміі
даро
чырво
папя
Мала
##гну
групы
звычайна
інтэр
пыта
Францыі
жыхароў
##што
складаецца
##льнікаў
мова
турні
##ия
##лем
##мент
дада
##плі
папу
хрысці
еўрапей
першым
ёй
##нію
##рус
вядома
##шую
##ума
ап
##жыў
##ніц
Шве
стагоддзі
кур
1990
чалавека
##чкі
III
The
in
##тарыя
пачаў
##tp
прасто
свой
тое
межа
##ступіў
VI
рэвалю
сваім
##ation
##фон
Зя
##лава
караля
##ter
184
##матыч
##сё
гмі
царква
##куючы
могуць
##віў
XX
##кар
універсітэ
##ламі
000
##мёр
##чатку
##тэт
##http
род
відаў
тыпу
філа
##ціна
##ліва
1941
бага
##сар
##чаткова
##кол
##слава
##рэнне
гле
##рыў
гор
пасе
Украіны
##волі
аднаго
##дзень
##лкам
##вядзе
выба
размяшчаецца
перад
##вое
праваслаў
тавары
Еўропы
захоў
Рым
зноў
басей
##жных
кантра
Пар
свае
Магілёў
бараць
31
181
раў
вобласць
##бліятэ
##об
тэо
клуба
Зна
Дзе
сярэдзі
ал
Мінскай
дзень
##віку
рым
##мана
сця
выха
класі
##рук
##дай
дзве
жон
##шае
абвя
##рана
##op
Акрамя
##ac
##йшла
захадзе
##рэа
##доль
менш
меў
накі
##кага
чаго
сістэмы
1920
##ведна
##льнае
##ского
Займа
##джаны
##ваных
тэрмі
##ки
1940
кампазі
##ного
##нены
##ваючы
ком
мадэ
меды
група
##грэ
Бар
фрон
рэгіёне
##ліне
ёсць
гэтых
моман
##чнымі
##ходзяць
##бяспе
літоў
першай
экспе
##ствам
цяж
ну
##тэта
##клада
мм
Галоў
праводзі
зада
##кой
гонар
ордэ
пражы
сямейства
##ляе
вало
1918
крэ
частку
##тога
##про
слова
##рысты
##маг
ара
некаторых
плошчу
тыту
аз
меся
##носі
сам
Ло
Ке
##стая
И
вызва
сяля
асноўным
##брыта
супрацоў
Мінску
##мё
##лах
##прэ
чор
##тным
##стваў
роду
спы
святы
##ist
##ток
Ля
##йскі
гара
рэчы
рэй
##ніна
##ўза
клуб
##льную
##нкаў
атрымала
арганізацыі
Поль
##20
##вяз
ваявод
Рэчы
тэмпера
##те
1939
падоб
паверхні
назву
##лай
цэнтры
##вёў
##od
Ган
##праца
Васі
кало
кіраўніцтва
Вялікабрыта
##макра
інфарма
##клі
##ad
будаўніцтва
##ot
##вялі
ер
адрозні
рэжы
руху
аўтамабі
ажы
паме
ўжы
кіру
бібліятэ
драўля
намес
##боў
##iv
##нге
адпаведна
##мак
r
мы
##ul
Мінск
павін
тысяч
##ью
2018
плошча
чыгуна
185
and
##насцю
##несе
##йшлі
царквы
##ржаў
1945
##ктычна
магі
##дзячы
Заход
Вялікай
##сных
напіса
тэрыторыя
свеце
Расійскай
важ
##бю
загі
##ніза
атра
##скаму
##льё
##ходзіў
##буй
XVIII
##ти
##тык
##зіра
##сан
выкліка
##шэння
маса
добра
Ген
Тур
вуліцы
лу
##тараў
кор
факуль
##вёр
аддзя
компле
Віль
ўлада
##нова
##вуго
выяў
традыцый
##скога
свабо
фон
хар
вады
далей
скончыў
камуна
Шы
падпарадкоў
паходжа
школы
публі
##ктарам
In
галоўным
]
медыцы
##стры
цалкам
##сім
ўключа
прабле
Венг
180
Пары
выкон
##бру
##знаў
##em
?
Пола
набы
##баве
##ig
##st
дыві
Англі
даслед
людзей
Вярхоўнага
свет
##орт
##ведзены
непа
##цвер
##зем
неда
адра
саюз
герца
меда
##няе
##тарам
краін
жыццё
Адміністрацый
[
паха
даўжы
##дэкс
2001
Айчын
Тра
##нін
Вялікі
2003
Бела
аблас
пазі
дзейніча
60
вучы
аснове
2002
##чэннем
##віны
##сны
моў
якую
даз
##часо
пася
=
##метры
##ow
літаратуры
сустрака
Канстан
бія
Пала
Пла
##ванай
падтры
##стам
роў
##евіч
сельсавет
прама
тэатра
Ман
тэк
##кур
колькасці
анты
##нагарод
Як
лік
##ходзіла
выглядзе
by
##нюю
##тэра
ўдзельні
##ди
ўда
шлю
артыку
##im
##рку
закан
зала
##чае
##скоў
Нава
даў
##мію
##цвяр
брыта
##сткі
сё
##кло
пэў
будынак
Уваходзіць
##ec
##зон
сын
створаны
некаторыя
##лда
##ёў
энер
##цо
ваяводства
##ўзабаве
рэда
Алі
##ферэн
##лер
другой
##ци
##рын
размешчана
далу
папуляр
..
...
клі
##раваны
усе
Амеры
зня
зям
поўдні
Літоў
##ствы
Грэ
дзеяч
##менні
Кам
войскі
##ём
Спа
##глы
##эль
1999
##соў
Брэ
##леныя
Займае
будзе
1991
зага
характа
потым
ады
1943
мела
##сти
даку
##буйней
##менты
удзельні
фо
1930
код
падрых
манасты
паўночны
гістарыч
##тычнай
##вю
##віі
St
##мамі
ролю
##нулі
кро
невялікі
Аляксандр
##ментаў
##кту
Іспа
захо
карыста
##гіх
ўплы
варыя
##дара
Тэле
цела
ата
##шко
##ліст
пачына
##дына
ажыцця
камен
##межа
гар
дырэ
срод
##гледзячы
пту
сакра
электра
##гоў
акупа
##мка
ахо
##мкі
Сярод
ло
прадпрыем
##рактэр
Усе
імі
ўзро
цэнтрам
Еўропе
##віцца
шэраг
прызначаны
##вяда
##ном
струк
меха
##ходзяцца
паўднёвы
##вамі
##казаў
##біра
неаб
ўдзел
##ag
руха
Цар
##кульп
пабудаваны
##вец
##нуць
канцэ
апы
пасаду
Сер
хва
дага
капі
Саюза
XII
земля
Яны
архе
парла
літаратур
##чаць
адзінка
##вілі
1960
орга
g
1980
##яй
леп
заў
##чая
паказ
вылуча
Скончыў
##раі
зямлі
прыма
##тон
##ers
##тная
Дзяржаў
##нк
Народ
1919
станцыі
машы
дзяцей
населенага
кіравання
ўніверсітэта
##сныя
##льнымі
бліз
Усход
##ov
падзя
дзяржаўны
##ольшая
скаса
##вен
трапі
іта
##боль
##ніяй
Бара
##чана
плошчы
ніз
##йн
гэтыя
працоў
цяпера
поўдзень
ствара
от
IV
##выш
##тана
##стр
Размешча
##гадо
магу
дзён
нава
маён
1992
сабо
чатырох
тэрытарыя
##ўда
##лём
Ця
сце
назіра
##ній
рэлігій
##ступнікам
індэкс
Аўстра
аддзе
хоць
войскаў
Быў
##трыя
уключа
цэнтру
развіцця
заво
паветра
ез
Аляксандра
Маскоў
прамыслова
32
здабы
канды
верх
##ir
мелі
некалькіх
##гар
##йскіх
##ксе
##пар
адмо
від
новы
##og
папярэд
##ени
##джы
80
##поў
гістары
##сень
Пашто
35
##цыйных
дэпутатаў
дэмакра
Бары
ступені
##віўся
182
Нека
Хар
выканаў
##твораны
##сах
глыбі
скульп
загад
Пале
КП
кафе
##гры
дапамогай
1954
напра
Вялікага
##слі
##стат
часткай
значна
##дзея
належа
між
##часова
пратэ
Ана
##льніка
##туру
1970
##шт
метраў
l
існу
Заступнікам
##фонны
##яўляе
вярнуўся
архітэктуры
розныя
перася
##вога
зве
##навіта
##пам
Праз
берага
дазва
самых
Паштовы
знаходзяцца
Кана
Слу
##штоў
спі
схі
Пецяр
Тэлефонны
177
Гру
нача
там
дзейнасць
Нарадзіўся
беларускіх
##лом
тэхні
Пазней
Айчыннай
Апо
настаў
адлю
Ал
вод
Бера
музей
пісьмен
##номі
Грод
Віцебскай
##брое
вызна
##рай
Другой
##цце
акія
ўвайш
фаса
неабход
Аўтар
##ента
дзейнасці
мір
##зіды
выму
ней
сустрэ
Заходняй
##фо
##ходзілі
пакры
##льнікам
кала
##тычных
экспа
##oc
##30
1998
губерні
1994
##пачаткова
друго
міністра
такіх
дынасты
выклю
##цай
##гер
эпо
Першы
##шоў
##ant
гміна
перакла
##кімі
150
мястэ
назвай
##логія
Аўст
178
##мена
Нью
##шо
v
бата
дзіця
Радзі
памёр
Дзі
каза
вёсцы
кароль
##лко
##пля
Сы
##цкае
сістэма
Тры
##цкую
зі
скон
атрымлі
перапісу
##си
паз
лёг
мяжы
##спалі
##жэй
##зэ
1996
востраў
Паўночнай
гарадскога
кіна
разбу
прыро
прыкладна
##ад
храма
ВК
абвясці
паселішча
Хі
дзеся
##АН
##сана
транспа
##вік
##суль
ужо
##лікую
матчы
свед
злуча
##онда
Ара
##гро
першага
агра
##нцаў
л
##кевіч
Гродзенскай
Гар
пачалі
##чоў
Пру
вытворчасці
1997
збуда
школа
вайну
##мас
абароны
згад
філасо
ўнутра
##льскі
іспа
фло
вала
кандыда
##шак
ы
##лічы
беразе
##че
кампаніі
найбуйней
чэмпіянату
ката
##ми
##самі
Івана
беларускага
##лаг
##колькі
мерка
##падзе
Каза
##зае
маці
##ian
1995
##ннях
##алагі
##даць
кантро
ўрад
##рына
Ор
сер
апублі
1938
Сла
таварыства
формы
Паспалі
##шчаны
##тую
ліпені
##віць
1917
##лье
Інстыту
Першай
удзе
Прэзідэн
##сярод
кары
##граў
зая
##лума
Святога
##рык
##нях
іншымі
корпу
вучо
творча
##ванага
чале
##спя
такім
прыватнасці
##раны
##цыйнай
##льскага
палове
Гор
жніўні
распаўсюджа
ўніверсітэт
##вак
##ксу
##дома
##бору
##падае
##твары
параў
##стка
старэй
армія
малю
знаходзіўся
сілы
##віна
ўрада
завяр
дзякуючы
нарадзіўся
##флі
характэр
Акадэ
##рэнні
забяспе
##браў
удзел
##легла
сцэ
##ткаў
абавяз
34
гульні
Каля
радыё
далуча
1993
мана
сло
##тов
2019
Япо
Прэзіды
##туга
+
пабу
вярта
Клі
сельскага
Джа
кнігі
##цыйны
самым
##льнасці
##ский
ўра
вострава
Фры
выпадку
##нем
##рге
аўтар
князя
##тае
##вал
сапраў
сусе
##стыя
зор
1989
творы
разгля
70
зу
ах
могі
##чыла
Стара
пункт
##60
Ль
1959
партыза
1921
ўлады
авія
эканомі
http
Вене
перайшоў
##таваў
##ин
храм
межах
Афры
студэн
##строў
##ан
##стэрства
##неш
##стак
абмежа
##жэнні
педа
##йна
Вялікабрытаніі
зной
статус
##ew
##ляваны
прыбы
##дак
студзені
Беларускага
##дня
##АТ
экспеды
##льскай
правінцыі
Аса
падпіса
!
стане
##ніць
h
Ch
Азіі
першых
Міхаі
суд
##фу
каштоў
будынка
##она
акадэміі
##тычнага
##ходзіцца
шлях
момант
e
##ri
прыток
##нена
поўнач
Брэсцкай
узроў
рай
заснаваны
Найбольш
распрацоў
эн
сіл
апіса
##льнікі
дом
прынцы
Паспалітай
славя
вышынёй
##той
асабі
##рыяй
хімі
гандлё
генерал
дроб
Так
1924
Лонда
захапі
рашэнне
атрымалі
шырыня
##стаўля
большасць
парад
такія
фарма
рэйты
мову
адсут
развіццё
Праца
1950
паспя
##шана
##хіі
##тнасці
прыняў
Бел
Перша
часы
Сусвет
##снай
##ласці
##ючыся
Шэ
член
##док
##віда
##графіі
##новы
##нгу
сю
напа
обла
VII
##art
##рыга
##тыку
Свята
армя
Совета
Філі
пака
здоль
бела
Мінска
новага
абласнога
##ква
##большая
значэнне
патраба
гміны
мэтай
чатыры
слоў
інстытут
##нскае
зялё
де
##гара
##ніках
##бач
##лад
ігра
камандзі
##цкімі
прэм
выпра
##стро
зроб
абарон
##раба
##дарож
Прэзідыума
##мовы
Ян
##кавыя
##ламе
##домы
##мой
##білі
##ціны
##серва
##нула
##няве
##цвярджа
##кцый
ВКЛ
Кня
спро
грэча
акругі
45
зва
завая
прыхі
Такім
Май
ск
падтрымлі
адукацыі
##тычныя
гарадоў
нацыянальнай
1972
адбыўся
1962
спраў
прысве
Міжнарод
прафесій
Уладзімір
##віцкага
##жай
паказа
##йца
##тыі
конкур
тру
##ніцыя
каманды
стварэння
вуз
сваё
паўночным
кіраўніцтвам
##80
эта
com
крэпа
##10
##біць
правы
##заема
партыя
“
адда
##байджа
Горад
Засна
##шэнні
вялікай
ём
##льм
астат
Гэты
уплы
салда
Каралеў
##зербайджа
падрыхтоў
##ўка
мале
многіх
##est
улады
тон
##стае
##парта
##40
##віта
##весці
жыва
пакінуў
дзяржаўнага
края
пале
Дня
тых
##чаныя
##sk
33
Сярге
вакол
абста
пяці
акрамя
пару
##фіі
##кавых
##стана
знаходзілася
##ce
цу
прадме
сучаснай
##маўля
##ub
дасяга
усіх
##мба
##мера
біску
імк
войскамі
рацэ
зборнай
##тор
90
##шч
назвы
##раджэння
адбылася
пастаян
##гран
Анто
ўсходзе
яд
##феры
заходняй
ажыццяўля
##ik
паўднёва
##кары
снежні
італья
Агу
1942
прамавуго
уваходзіць
Сма
k
##нню
##рыць
бок
часоў
збро
асярод
распраца
эпі
##цыях
шэ
духоў
краіне
наліч
астравоў
фаль
сезоне
старо
##ева
улада
бацькі
Іа
##нуты
##лан
##урна
##цыяна
##сэ
элект
анг
тэорыі
праекта
поспе
часці
адбылося
прадстаўнікоў
разна
сына
##васці
1956
віды
##нулася
сай
##чылася
Гра
##жны
##зда
лютым
велічы
імператара
&
##кме
пісьменні
створана
##рэя
самастой
абара
Уі
распаўсюдж
пасту
тады
тэхна
1987
канфлі
камітэта
канстру
кля
першыя
##дэр
Кор
адносна
##зій
##рыза
кас
твораў
пунктаў
абраны
абве
Тым
##нскую
тэрмін
##ess
##ніком
трыма
паўночна
or
##торыі
спо
натура
##шчана
сярэдзіне
разу
прапана
злу
##жаў
##чак
каме
апубліка
прэзідэнта
суб
хрысція
дзвю
стст
другім
паўднёвым
рэгу
уда
чац
перае
фігу
пачатак
форму
##дыё
фарміра
інстытута
36
значыць
##чку
адкрыты
##шчына
помнік
##чыцца
княства
##ud
##тычны
##бам
пады
##зня
пасёлак
Ак
граф
знай
залеж
##лях
інжы
##онца
крыніца
полі
##рока
царкоў
інды
##біна
песні
шырока
азнача
Джо
##сію
лаці
##дскага
размя
займае
музея
Гомельскай
500
паведам
##роі
жоў
##рскі
эфе
Егі
Удзельні
##рту
ww
##далі
дадзеных
наф
##нуліся
наш
паспяхо
жыў
Еўрапей
##шчэння
хто
кле
кантракт
##шыў
Некаторыя
становішча
##занты
многія
чэрвені
##крэ
здо
www
##цыйнага
##леннем
венг
прафесар
Кру
##нца
верасні
##гая
навед
стылі
Знаходзіцца
бало
ініцыя
Федэра
інстру
##гарод
##лек
няма
змяшча
##КА
гімна
моцна
станцыя
##сцяў
Кон
правядзе
мара
Брыта
##сная
пераў
боль
дасягну
Маці
спачатку
адказ
Яў
сабе
##лізацыі
краінах
##мень
Кур
Віле
паўво
знеш
##дзіў
касцёл
сельскагаспадар
37
##манд
імператар
бла
##ort
мікра
##віцкі
ўзбярэж
сакавіку
##лата
Трэ
##доўж
замежных
##пон
Англіі
правіла
неўзабаве
разнастай
старажытна
раман
замак
Зямлі
##тле
чаргу
юры
Збор
дасяг
спрыя
##чыкаў
выйшаў
вучылішча
адпаведнасці
абод
суполь
патрэ
##ap
памер
выступаў
мноства
##io
##дкі
##пара
1973
дрэва
лета
прывя
1988
паві
яўляўся
хрысціян
##рскага
##ндыя
##чылі
1975
прамысловасці
##чэй
##пова
##вуць
##спера
праект
драма
Іва
##нтэ
абла
##пи
##зи
##прыго
##вярхо
школу
##фы
Заха
скры
востраве
трэця
псі
de
Алімпі
шэрагу
Максі
Вышэй
##неў
##сак
##гда
##цыйныя
An
1965
населеных
##пта
Кіеў
сёння
фінанса
##свя
##бара
дэбю
перыяду
трэці
1946
Ху
ўдзе
комплекс
колеру
##тыза
Рас
##йка
ўсёй
перай
Хе
школе
футбо
ваенных
##йскім
законаў
Y
Расія
##ткам
членам
цяперашні
##мовах
правёў
зла
нем
пастаў
пал
##ard
##несены
##броў
Сва
##гію
##ab
істо
1986
пазна
Стані
##ение
##дэрла
##лты
Усходняй
##ляюць
дэкара
##весь
рука
цё
прамысло
##сцях
##тнае
1967
Карла
праві
новыя
##шлі
завод
##дова
##манскай
другога
##кевіча
практы
падзелена
адначасова
Станам
вуліца
завер
Швецыі
Афі
Леа
жывёл
яўрэй
##ніны
карэ
праў
вайне
тытул
##наро
##фра
##нных
ужы
1937
1974
магчымасць
спя
рэк
##ляецца
польскай
##наму
журна
гаспадаркі
гро
аднося
##сві
##рскай
##пісе
1966
Арме
ўзроў
##тэна
##ae
Іспаніі
самалё
землі
каманду
рэвалюцыі
##лез
Аўгу
1927
##нагароджаны
новых
Паўднёвай
##дныя
менавіта
паходжання
##мках
##монт
Камі
300
народа
IS
ўтвара
Баранаві
Беларускі
ўсяго
Наву
турэ
суме
малод
пагад
даволі
галоўны
Стра
вяско
##вень
##вінава
шматлікія
універсітэце
42
##сара
##дзіба
гарада
паверх
прэміі
##бера
квет
ніжэй
дынастыі
Размешчаны
Нягледзячы
38
тро
эмі
інтэ
існуе
бю
маі
ўпершыню
прэзідэнт
Тут
галіне
спадарож
жано
Цэнтр
##нов
Цы
##ень
##лада
##ніўся
мільё
156
праходзіць
Іван
тэмпература
Фла
##берг
вышыні
Фін
дні
1971
##браны
афар
рускай
спабор
Мінскага
##рэш
##тымі
1976
##70
вул
##ведзена
прычы
рух
##еш
тлума
##скры
##піра
вяду
паўстання
##рэі
Згодна
народаў
Сві
##йская
##дзеныя
прыга
##колі
чыта
Адзін
цэнтральнай
арышта
сто
Адміністрацыйны
##НР
##даво
##нскімі
непас
##ніла
газеты
##ct
новай
##канстру
адлегла
##леных
значэння
гвар
захоп
перамож
прычыны
Стэ
ЦК
##даві
Бур
членаў
Тар
165
зара
бяспе
1978
явіліся
Зі
Маскве
Мікалай
памяшка
Сама
нап
##беспя
напрамку
##зар
даста
механі
БД
##град
##лета
1926
агульнай
1929
федэра
швед
##дны
1922
##біі
наяў
адбываецца
##ленняў
39
кіраўнік
##av
##ok
Геор
##фікацыі
часткова
##кце
Шу
ера
##нічаў
прырод
Гісто
партый
зру
Магілёўскай
кастрычніку
Фер
праціў
##рым
Жу
под
пісьмо
электры
кніг
##лля
знакамі
вялікая
вырабля
##берт
кітай
Хры
##лле
Ісу
##нутры
1961
Гара
Міністраў
Лат
наступныя
рэфор
Венгрыі
##ванге
Пачына
##ay
ўплыў
Чор
РС
##сіць
ўзя
##нства
апавяда
##намо
ордэна
аг
Літвы
афіцэ
##трапалі
першую
##ib
##up
##аба
##салі
##ваным
зацвер
твор
Індыі
палка
##чар
туры
каралём
зале
Азербайджа
##гамі
##льма
##тычная
##лістаў
сем
павінна
Марыя
##ak
Мен
паўночнай
##ннямі
варо
##лян
##лорус
арэ
справа
Карл
##стар
1979
хра
1947
##цк
##лерый
вялікага
01
Разам
блі
перавы
##значаль
1914
##мац
##чую
згу
##зд
глыбо
явілася
футба
цяг
Галі
прыцяг
сусед
шматлікіх
##вел
ава
##бка
рэспубліка
##фарміра
даўжынёй
галоўнага
практычна
званне
1957
разы
здзей
тэрыторыю
Ar
споса
кіламе
дзяржаўнай
120
пажа
##кладаў
##слоў
астравы
##рылі
##чыка
##шчыны
##хія
усходзе
##чыкам
прыз
вобра
##шыня
гміне
закон
афіцыйна
##ент
князь
заканчэння
сну
дыяле
1985
##біў
##eg
адрозненне
75
адносіны
архітэктур
Казі
манар
##лагічных
##ласць
Вільні
герцаг
разоў
##пкі
Варша
ўмаца
##льд
рэш
ўсім
зы
спіс
##ганіза
скара
##нии
выклад
##чыкі
160
##кл
Санкт
мастацтваў
1955
Воль
раско
ўсходняй
большасці
XIV
апара
венгер
55
сельскай
##цярпе
Канстыту
адразу
Ніж
бітве
1958
нада
грамадства
замаца
р
##мор
Румы
XV
Член
наза
навуковых
##сло
Міністэрства
1982
пражывалі
1977
выбар
Васіль
176
гарады
асноўных
##паль
спадчы
Савецкага
##мон
##хта
##ёма
красавіку
Мэ
аэра
##ip
АН
Фінля
ваенна
пастаноў
жыхары
шляхам
##зай
мог
1923
##бія
##снага
дазво
паўстан
міністр
меры
##гада
работ
Іо
##нама
ваеннай
бацька
ўсталя
##фаў
##разо
1931
дазволі
вядзе
кафедры
1935
працоўных
паслу
прысут
вялікія
дадатко
нямецкай
падпарадка
##жжа
аднаў
абу
##ктараў
вайна
адміністра
##бін
Сталі
Амерыкі
##Ра
##мерка
згодна
музыкі
партрэ
##АЗ
губерна
абвінава
павінны
спадчыны
##фер
##перы
##ванае
кніга
паходзіць
1968
стая
археалагі
траў
Z
##наты
170
звыш
украі
##мых
##водзя
народнай
Un
чыгуначнай
тка
катэ
##ана
##сную
##нічае
Лені
рэканстру
сэн
лістападзе
стандар
невяліка
Ім
Гры
фесты
Прад
Генры
расліны
старшыня
сталіцы
прыкме
упершыню
называюць
Марыі
фільм
мане
41
##тыцы
1925
арганізацыя
Каў
тэра
вядомыя
Джон
адпра
##лева
##рона
вадаз
калга
##нках
вымушаны
##бургу
##лку
канты
кава
Балга
гісторыю
Уладзіміра
пацярпе
##граф
1984
асі
##піска
1981
пяс
міну
Назва
заняў
працуе
канферэн
каралеўства
замест
##раваў
##ненняў
павінен
Аба
тыя
турніру
##ep
апошні
дзяржава
Бель
Між
Сця
##цтваў
леген
вытвор
існавала
##ine
##наміка
##мбар
1969
закана
##стрый
##кор
##нны
паро
##вышэй
сучасных
##аль
нася
віль
адчу
сцвярджа
Рэспубліка
##скам
ура
раёнах
паколькі
##кцыю
зды
факультэт
збіра
мясцовых
##йла
##хво
першая
брон
збо
##кру
Із
Вера
воль
падоў
Бру
Японіі
пяць
дэкаратыў
##лялі
увайш
##воры
##данне
Гэтыя
выйшла
прыпы
##лках
прац
##наймен
вайско
##сным
малады
пазіцыі
Mar
1963
##und
лаў
##бр
##мым
43
паня
##леп
рама
сітуа
пачала
рыба
Больша
Чырвонай
##ваен
рэспублікі
##следа
Купа
выса
выбарах
кошт
фронту
пле
##кер
крыжа
характар
адміністрацыйны
форме
##шчэн
знаходзіліся
##де
кампанія
Дзмі
##пор
вялікую
адпавед
належыць
незалежнасць
1964
зрабіў
##all
вялікіх
звяр
пабудавана
доўгі
##лец
ru
становіцца
ўваходзіла
асу
маглі
сярэдзіны
##цёр
Працаваў
1934
Першыя
XIII
##тнасць
плана
Асноўныя
паўднёвай
галі
сцяг
Зала
##дэа
мястэчка
##чалі
Лаў
ахвя
Казах
палац
парадку
##гагі
##жнай
адноў
##кіі
##лега
камп
спар
аднаймен
##ob
буйных
##our
воласці
Большасць
павя
##цыйная
##ццю
1948
ацэн
Верх
Беларуская
1949
забяспеч
пачалася
##біты
гале
##бах
ісла
##дных
##крыты
падпісаў
падтрыма
##BN
людзі
##ую
##стых
Астра
##дзіць
пасады
лінія
прада
еры
усход
расліна
іншага
дакумента
##ity
забой
мусуль
Бага
##бамі
Напа
ўкраі
павялі
абвясціў
Пё
##будаваны
ліквіда
спор
вулка
##льва
навукі
##вяза
##строй
нацыянальнага
Буда
гаспа
##сёды
архітэктар
##ніцтве
##ёна
##лій
Нарве
брыга
Сядзіба
забеспя
вага
намеснік
жор
##ill
##нямі
##ство
поз
1983
ISBN
незалежнасці
стагоддзяў
##ть
97
ре
ску
маты
мастак
сярэдняя
##стор
Нідэрла
наве
варыянт
ат
##павярхо
ам
фра
Бабру
версіі
##зію
##сцямі
чацвёр
##лет
ўча
##баваў
геаграфі
сельсаве
вадазбору
Лука
##фам
усё
прыму
44
##ласа
##луа
абло
##нс
параўна
Сібі
Упершыню
##вух
48
##нента
апрацоў
прадстаўнікі
басейне
Ада
устаноў
##вич
##лік
вуч
графі
заклю
часопіса
акадэмі
педагагі
##юр
Об
1936
##ное
адпраў
65
##стамі
мяжу
##роя
Акадэміі
##ум
1915
##новай
паўвостра
прысу
чу
##пуска
падста
Слава
Белорус
навукова
##прыма
52
лісце
Першапачаткова
кожны
савета
верагодна
Яе
##скана
прынята
##льша
##йт
скі
Музе
Стар
Польшча
Перамо
складу
кіраваў
звязана
культура
чэмпіянаце
175
##жэнняў
##тычным
жыцці
##ld
ке
Дынаміка
##ens
серыі
to
із
матэма
Нацыянальнага
Рэй
творчасці
транспарт
палітычных
злі
##ги
плямё
заснаваль
##мем
1932
восе
гры
майстэр
пераклад
##лон
##рога
##няецца
прадпрыемства
1933
##мяро
бібліятэка
прадстаўля
##лк
##схо
Ска
заснавана
Эр
1928
159
##ндра
нашча
дэпарта
аперацыі
стварэнне
пісьменнік
пакуль
дзеянняў
сучаснага
##кедо
названы
пошу
змены
аўстрый
сярэдняй
##лька
Генера
вялікім
##th
самі
пачалося
Пецярбург
служыў
актыўна
прадстаўлены
##шчэнне
пакара
вучыўся
Першая
##глі
Міхаіл
##тава
Пара
аддзела
##бен
Фё
парк
##бак
дра
Багда
Адміністрацыйна
##жоў
дыпла
проста
край
##туль
змага
мовах
суправа
складаюць
Ары
побач
##нко
Гала
вылу
Паўла
ўзаема
Маг
яно
замка
воі
залежнасці
дзеянні
##чанне
164
ада
класа
##ЭС
небу
даследаванняў
купа
працэс
адлюстра
фактычна
Літоўскага
Яку
Гоме
мужчы
сезон
рамках
арганіз
Эль
##годдзя
##стым
##рага
тако
апошнія
дазваляе
інфармацыі
катла
##йс
Існу
Новы
Гродна
захаваліся
стварыў
гадзін
напісаў
##нград
ўтва
арыгі
палаца
##лёка
##пісы
Эсто
##гляд
##віліся
эпохі
агульна
яднання
##фія
аказа
міфа
свята
распарад
##спу
падарож
##нуцца
гуляў
цяжка
падзелу
барацьбы
найбольшая
##ran
Бразі
месцаў
лей
буда
Пятра
адносіцца
наступным
##гарад
47
араб
##ліць
прод
даклад
небудзь
рэдка
##ванню
паэт
аховы
футболь
Тэа
##казам
забаро
##qu
Грама
дывізіі
##блёў
часцей
##алі
400
##нкамі
Парыж
Напрыклад
##лямі
маскоў
патрыя
асобных
эксперы
указаў
правады
163
функцыі
##лед
##рапа
##htm
службу
##творана
заўсёды
Pr
гл
залі
англійскай
##лымі
стэ
канстыту
##чаных
Арміі
##гера
166
вась
дня
Каму
раёнаў
працавала
прэзідэнтам
узро
##раздзя
слаба
##вядае
абе
##дзвычай
Княства
##пярэ
Ура
64
##цыйна
арыента
лан
пяхо
Al
БДУ
Пётр
Шмат
##снасці
усяго
46
эканомікі
парламен
нізі
паступіў
##ктам
асноўнай
кіраўніком
займаў
акты
даўжыня
паслядоў
году
##25
##нілі
Луі
Пре
бло
атмас
сістэму
сустракаецца
дзесяці
спартыў
паступова
называецца
##85
##тэрыя
явіўся
ектаў
адкрыта
##рэза
##мысло
старшыні
вытворчасць
унутра
##зен
##нуўшы
савецкі
Ваен
павы
##ляцыі
##дзю
##зкі
фашы
дзеля
##куп
##дзве
##цтве
##леная
##метра
гары
Вільге
стралко
сістэме
##ory
##мыя
##жаць
штур
##ске
Сло
дач
дзвюх
вядомая
адлюстроў
плы
этна
##саю
ўяўляе
ўваходзіць
запра
##джэ
ідэа
##важ
Джэ
##ev
Ірла
адну
брат
персана
##тацыю
сюжэ
тэарэ
доктар
тэрытарыяльная
##бель
сабра
49
##тэа
##штэ
вершы
Украіне
##лішчы
нума
само
кансерва
элі
спаборніцтва
Гера
Джэй
асобы
шту
азначае
из
1953
##тнымі
##соб
##нагаро
сабор
Баць
база
іншым
##лізу
##тацыі
вядомых
займаўся
Аўстраліі
ступень
разгляда
##дан
161
Таму
ранні
htm
Навагру
канта
судна
будынкаў
дзяў
басейн
Партуга
##end
каль
хваро
ўласці
Апа
##міналь
сядзі
некаторы
сфарміра
##21
Мак
максі
гісторыка
свая
Рымскай
##све
Сонца
##олькасць
заснаваў
##цэнтра
##зуі
еру
пана
##фера
ААН
змо
Агульная
урада
саюза
Мн
##годы
супер
1905
этні
складала
##гэ
##льня
зах
сур
штат
лічыць
##тэры
самай
Про
Св
чэш
Цэнтральнай
пор
камя
каплі
Шта
Яшчэ
пазнача
захаду
ўзбярэжжа
жанчын
##падобныя
гульняў
Радзіві
вар
пары
скар
51
пачы
існавання
двума
##лагічны
будынку
даследаванні
##ковыя
##ін
Паха
разуме
сімвалі
прасторы
org
гума
сістэм
палітычнай
Канстанці
##зка
##ёнаў
утвара
##пэ
зваро
##сен
##тную
нарадзі
мола
заканадаў
##ніцай
апазі
могілках
ажа
цвёр
##мін
##дскі
##ццаці
трэба
рэзідэн
Павел
птушак
ўтрымлі
гарадах
навукоў
Палі
1000
княз
традыцыі
сустракаюцца
##дру
інду
пераймена
депута
##пак
##чах
Мары
касмі
пакла
гла
падраздзя
дабра
##ge
##вішчы
##намор
Леніна
Ісла
баку
падзеі
адносяцца
замя
##нічы
##жка
Стэфа
Старажы
тэмпературы
##ахво
##ксуа
груп
##сілі
звязаны
области
савецкай
„
дачы
адстаў
эспера
атрымаць
скліка
##чнасці
ваенны
Дыя
Атла
##берта
нама
##ешение
перамогу
Пом
мясцовага
Іе
кароткі
##йскія
першапачаткова
прыкла
депутатов
##сур
Касцё
Германія
Паўднёва
праё
Аўстрыі
155
асвя
дамоў
##бурга
##навіч
катэго
##ада
далі
Цэ
Больш
##ta
##лізму
кляш
53
##ник
сезона
##чча
базе
варта
##водзіць
сутык
старажытных
##ary
##лады
174
іза
магні
##шру
Чу
Сар
штата
здароў
месяцаў
##гарадок
Арменіі
##нкам
адме
амерыканскі
##ковай
Царква
##ёмі
касцёла
функцыя
фота
##слугоў
светла
##зуме
Францыя
|
##рошч
уча
вымя
сваімі
##ус
56
Там
акіяна
загінулі
тэатр
жонкі
##Рашэнне
Мал
апіс
ўстаноў
пасла
Нацыянальны
##лой
##цах
бакоў
прывяло
Тран
Тэры
ходзе
Калу
выдаў
выстаў
Інтэр
радзі
будучы
##ry
##таль
згадваецца
Еванге
малі
французскай
##нёс
музеі
адукацыю
футбаліст
скан
##гіяналь
##eb
##ell
Сцяг
лізе
Дом
чыгункі
##жскага
гідра
Асаблі
##гах
##ндскай
фунда
##ткай
149
Жан
Анато
іншай
ман
езуі
юрыды
уключаючы
дакладна
палітыкі
”
##пусці
1952
вежа
твора
вільго
##ходам
гурт
навако
##скраі
Апош
##86
##ich
стварэнні
##сма
##тона
арганізацый
##ков
##дэль
Памёр
запіса
##кама
##след
##сной
думку
контра
публіка
##ss
##ica
##ерамі
закры
об
фла
брата
Сусветнай
цэрк
праграмы
кісла
##ходжання
Неўзабаве
Sp
жылі
заключа
савет
##мб
##хов
рада
##ies
беларуская
малень
ману
ўзнік
службы
прыроды
пярэд
травя
рэйтынга
праходзіў
працаваць
##тву
54
судо
гістарычных
бітва
першае
палітычны
пацвер
падтрым
дэман
харчо
Толькі
##дзер
гурта
пачатко
##дой
Нё
камер
Мер
Швейца
##нерам
абсталя
##юн
##рова
дае
шляху
бронза
злачын
месцах
наміна
Эд
Шатла
нягледзячы
былы
мастака
міжнародных
горадам
Іванавіч
##чаі
##стане
екты
забу
Амерыцы
адзнача
Архі
Кампа
склаў
накіра
##тив
хло
##вічаў
Уілья
колер
здолеў
квадра
сэр
зняво
беларусаў
##кавы
##джана
Сучас
крыніцы
Ре
##рэбра
ўключае
Гісторыя
Іх
апсі
##вэ
мінера
En
альбом
##ніс
Іосі
##гон
##ллі
перамогі
##ях
##сава
гульня
##ліца
памы
герма
квалі
зво
шпі
прыняты
народных
Заснаваны
##дор
здзейс
дома
##неннем
##раджа
гадзі
сакратар
Люд
Федэрацыі
забало
каманд
пісаў
Генрых
ско
1951
##віт
##нітар
ліда
гэтая
пасёлка
бяз
1897
япон
ліч
жонка
##ёны
re
##жныя
Грэцыі
асацыя
##aw
##нас
##нес
##ских
##васць
Еўра
##нту
##жана
Сяргей
перыяды
##роўкі
часе
Людо
імем
Права
##раўся
Мсці
азёр
спорту
кг
##нака
шасці
##ргі
цара
Звычай
знішчы
семіна
Ам
сеткі
##лізар
большай
##шыся
Асі
Фар
85
##рэгі
жыве
асобныя
ордэнам
аген
##ph
##шла
##ндэн
фільма
бяспекі
узроўнем
поя
карыч
ама
##ардына
жывуць
удзельнічаў
Інды
відэа
велічыні
выкарыстоўваюць
157
1912
пашко
сродкі
кантроль
##вікоў
##вілася
##фіна
Буды
Саюз
дола
доўга
неадна
існаванне
##ючых
##абарон
транс
Вялікая
асноўныя
берагавой
лет
баявых
індзей
Дзякуючы
##жам
рэшткі
##кле
##гана
нія
заслу
##броеных
Сярэдні
Сустрака
пачынаецца
##рэат
сродкаў
кіраўніка
Сам
Карэ
адзіны
магістра
##йм
##чи
прымя
мільёнаў
арыштаваны
##ведзе
балга
дысер
Галоўны
ўзросце
140
Яра
1910
рэгуляр
тер
Каро
змен
Сацыя
дагавор
1916
пасадзе
дапамогу
##жная
##рэяў
гера
поле
беларускую
хві
##ткамі
знойдзены
##СКА
візанты
Анты
выкарыстання
##летку
##джання
тысяча
маршру
Нар
Гэтая
пераа
сярэдняве
захавалася
##нікла
мець
лікам
ноч
сма
Мікалая
##новіч
кірунку
##ямі
Кла
хво
выйграў
яднанне
элементаў
пага
экспедыцыі
##ci
##дый
st
Кні
соне
Парыжы
мадэлі
работы
171
Прези
назад
павеце
##сховішча
##зеры
проці
##ational
суправаджа
##рэдна
##льскім
Злуча
мера
новым
свабод
аддзялення
Кітай
пагро
бур
##нераў
намеснікам
бітвы
z
ўладу
Прэзідэнта
63
##шымі
##orld
палон
##ступіла
вышыня
##ber
San
Нова
рэлье
выніках
##тарэ
парку
Дзмітры
пачу
выста
музыка
азё
Вало
далучыўся
Мара
##ug
##кля
##дзён
##войчы
адхі
##az
##значаліў
Мин
блакі
Андрэй
былога
паўстанне
58
169
html
сапраўд
##грацыі
Кітая
сяброў
дзяржаўных
характарысты
Кле
буйныя
##льнікамі
іграком
Утвораны
філасофіі
ролі
партуга
уплывам
Мно
пашыра
151
сум
частак
y
Ізраі
Нацыянальнай
##эл
##ive
Мы
сале
ярус
##будавана
нацыяна
пераход
##ust
падзей
энергіі
праблемы
інстытуце
##чэб
сві
Чэмпі
паходжанне
##тори
Кала
серыя
гісторыя
57
сярэдне
##tern
імперыя
зга
Затым
Афрыкі
яўлялася
дэбютаваў
бру
Новая
нацыянальны
перададзены
##салю
вежы
Брэсцкага
літаратура
аграгарадок
Фу
пасажы
Універсітэ
хле
ўся
Хрыста
##жкі
апоста
кіраванне
матэматыч
ай
высока
салдат
адлегласці
##аў
##дана
прай
##ступілі
памеры
справе
падтрымку
сілу
цэлым
##нічаюць
Дынама
характары
1863
Ско
зачы
##тарамі
псіха
маёма
##знаўства
манастыр
жу
##лера
фронце
абслугоў
##сеўда
Бран
##22
##лёва
##чала
##чыліся
муніцы
назваў
перамог
Каця
ваенныя
##ходы
Джор
надзвычай
##рыла
суда
далучана
##кро
ху
##льская
прэтэн
камісіі
карычне
правядзення
бяс
##мызня
нагад
сялян
фанта
##ктары
канец
IX
##плуа
пая
канчаткова
Вай
##сарам
мовай
стаць
##скаў
хат
палё
##еўрапей
##дала
173
знак
інжынер
##пах
##ркі
марша
аддзяленне
##чаная
ахоў
##УС
##пка
##нікае
параўнанні
шо
##русалі
##сіла
небяспе
##бли
##ментам
прыблі
сезону
працавалі
##тло
##нову
##24
04
алі
зад
ўяўля
##том
##ружа
гран
паловы
пераехаў
электрон
адносінах
##НЕ
##вэр
ўсю
##біне
Зор
Неа
узя
мужчын
кіламетраў
спадчын
структуры
##льга
Свабо
шве
дачка
забіў
няўда
святла
земляроб
матэрыялаў
##тысты
Квет
павет
глыбіня
Він
##клапе
ідзе
Петра
аўстра
распаўсюджаны
Стаў
шлюб
заявіў
пабудовы
рыб
патэн
##родзі
##цыямі
спрэ
##віцкім
страты
03
падня
цепла
лічаць
шырынёй
##ont
##ФСР
##рты
стрэ
двары
##веры
##жылі
##блізу
адбі
##нілася
акон
нахі
Турцыі
##рыс
##вічам
##ццаць
нарма
палкоў
ўпрыго
##віне
поля
1913
кнігу
##нізацыі
выступ
##бль
Ну
аф
154
##таваны
савецкіх
Com
рэд
##ходаў
Колькасць
двара
газета
гандлю
пытанні
герба
фалькло
##ex
##зін
нафта
версія
лейтэна
##снасць
сумес
##НК
ўвайшлі
апошняга
прадугле
Сты
##равання
корпус
наступны
##нёў
Поў
сынам
радзей
канчатко
##лую
##ковых
##тычна
лясы
выцяг
забіты
правоў
справы
зрабіць
дырэктар
ініцыяты
##рака
##рэшце
##насцей
ўдалося
##порт
Маладзе
узбярэж
хрысціянства
Касцёл
аўтаном
элементы
Пачынаецца
ўваходзяць
130
Марка
##вальнік
##bo
Мае
патрэб
перадачы
паўночнага
непасрэдна
раза
супраціў
##звалі
выхад
##ліку
цём
##даюць
высокай
96
здзя
Верхов
хмызня
##несла
Запа
сяло
рэгіёна
##ез
Меся
арбі
##ритори
##цыйным
барацьбе
спадчыну
##23
##лію
Арэ
Зям
дастатко
61
РСФСР
##цку
##спамі
атрымання
158
Кары
дару
нацы
верша
скасаваны
тар
паўнамо
##лістычнай
Паўночна
территори
Фо
##ne
Помнік
##віду
##нении
##ское
дасягае
##йкі
167
млрд
##ніцкай
керамі
##тс
ака
##левіч
Лісце
##ord
Жыгі
##коўскі
##чэнняў
прыста
вызвалення
##гую
##льты
ўзроўню
Тэрыторыя
##марыя
загінуў
каардына
катлавіны
##вікі
##чацца
вылі
загадчык
##віце
закла
прычым
цыві
Афрыцы
кожнага
далейшым
Фінляндыі
##хала
магчы
нямецкіх
пісьменнікаў
Рыме
арыгіналь
віна
вонка
моманту
##жае
Над
таблі
Амерыка
95
##лога
пусты
прысвое
пахаваны
##брэ
Кіта
1907
сабора
невы
Паста
Размешчана
еўрапейскіх
##лілі
##тфор
Шар
##ляюцца
помнікаў
Сё
##падкаў
вырашы
ніколі
цяпераш
Эн
##чанні
абмя
будуць
##ish
##чнік
Анта
раке
вырошч
ўздоўж
мастакоў
##сена
VIII
гэту
##адносі
ажаніўся
галоўнай
салецтваў
##яз
Усяго
зараз
зусім
прапанаваў
##мини
Сын
баі
дахам
найста
дагавора
старшынёй
навучання
Ала
Валь
##ходзячы
інтарэ
##керы
##ki
Перад
стылю
шах
Валы
доме
##йлі
##ект
Македо
канцэп
##пачатко
600
пытанне
##ДР
карысць
галоўных
ядноў
##лае
Русі
баях
ХХ
пру
стратэ
##лагічнай
нараджэння
метады
рускіх
Аўта
заўва
##значальваў
міністрам
мясцовасці
Андрэ
Мексі
змешча
##ang
##диума
Ісуса
Міжзем
##ржы
##шку
віцэ
уласці
##28
тэр
жанчыны
Президиума
Кубка
##лагічныя
абвешчана
Белорусской
on
##ляць
фер
Харва
спалу
форма
Масква
галіны
глыбіні
дапамага
грамадзянскай
##хай
##29
Гран
аказ
кнізе
##мс
любы
польскага
рэсур
возеры
прыклад
эксплуа
выклікала
БНР
Вала
ансам
васьмі
ганаро
песень
яўрэяў
Бор
органаў
Гродзенскага
##ews
асяроддзя
##рука
велізар
камуністы
Пятро
ўвесь
крыніц
Вучыўся
прынялі
дзяся
фронт
##министра
##нкай
застаецца
##ast
##хаслава
князёў
дапамозе
рэгіяналь
##кін
Дзю
Адзі
віле
##нгві
Фор
адрозніваецца
##ніз
67
аж
##вода
1906
герб
патрабу
Савецкай
07
##неныя
танка
Напале
дэлега
прайшоў
нацыянальных
##шту
сена
лабара
паэзіі
адмысло
філасоф
крэпасці
##АР
прыві
двароў
област
адносін
выпрамень
Заслу
рання
сферы
1909
Тады
феада
Адэ
##ласоў
раздзе
##дуць
##ству
Спе
чака
зброі
##льда
проз
знішча
страці
##ена
чэмпіянат
кантынента
##ай
##наго
##пала
##неслі
##тэхні
адзе
арке
халод
Востраў
урад
Вільню
дамо
Спачатку
расійскі
апе
найлеп
##мпа
крызі
харча
бальша
нямецкі
праграм
праціўніка
ўваходзілі
##бс
Балты
Кіраў
##аса
ілю
##каўскага
1908
Алімпійскіх
59
зв
сці
прода
Інстытута
##министратив
Тру
ект
Папа
такой
пункты
публіцы
царства
рэзер
студэнтаў
магчымасці
зам
новую
выбараў
Ужо
##ковая
абы
выкарыстанне
68
межы
сцэна
галаса
французскі
раку
ядзер
сувязь
1911
Кале
якімі
Тавары
вясковая
выкарыстоўваць
Цю
##хава
Эду
мяк
Хоць
сігна
##uc
##льцы
##мата
чалавекі
##СС
00
административ
Глы
зас
Француз
міру
машына
##26
##ехаў
існуюць
##белеў
серб
парале
корпуса
тэрыторый
хрыб
Аляксе
выгляд
j
Музей
такі
песня
Мазы
левы
піса
Вядомы
краіна
##ный
##сёр
66
ланд
Сустракаецца
Джу
Бяро
рыца
аўтары
планеты
##ect
##мій
зася
маёнтак
пачаткам
кіраўнікоў
##жыла
леса
Многія
выгна
моладзе
напружа
грамадзян
##іць
##торы
##клікаў
погля
пласты
##дане
аўто
выве
##шэў
хлоп
адмовіўся
няз
##жскай
газа
нось
##ванымі
двойчы
##рэгістра
Сярэдняя
народнага
##amp
##кен
гадо
асвет
гарма
##іра
жале
атрад
Першым
Звычайна
ператвары
вадасховішча
##27
Крэ
прыто
ваеннага
Ігна
зоны
зборнік
##ей
##ючага
кожнай
Царк
карта
##ўскі
парт
пачаўся
служыць
ЮНЕ
Неза
раёны
царкве
пазбаў
даследавання
##магчы
Пакі
левым
хвалі
вярхоў
##піі
##піў
250
##стага
мілі
Іерусалі
Рос
радо
заліва
Пахаваны
##рун
друку
вырашыў
##На
чвэр
Новай
павелі
найвышэй
##чкоў
пес
##шаныя
Распа
71
##цель
##нічны
##сцкай
Латвіі
административно
##дскай
адка
напад
лёгка
сталіцай
навуковай
##мп
##льта
моры
##стаўра
Кветкі
Арганіза
##нуе
##твор
клю
Чэхіі
ліней
##нём
пач
##разова
##сай
##німа
Арша
буль
заду
ЮНЕСКА
выпуска
##бло
##ючым
Pro
вершаў
наступных
прадстаўлена
епіска
зямель
Менавіта
##ka
##веда
##няць
кіно
паза
Роберт
бальні
смерцю
мерапрыем
##веты
Бен
паблізу
сярэднім
ідэі
захвор
Генрыха
бака
пляцоў
камбіна
##ost
дачкой
83
выбары
рэжысё
ar
153
ведаў
абодва
района
##ind
##рда
84
##шыні
адва
дрэў
сямі
тага
Стату
сыноў
##ии
каха
ізноў
асновы
футболе
паўднёвага
Фрыд
лігі
вёску
ланцу
выпадках
1900
##дзейніча
звестак
платфор
Лы
карціны
##дскім
прын
##нейшых
словы
Тай
Другі
бліжэй
выключэннем
##ubl
##таром
групу
##ши
Уо
Пашы
##стэроі
##тнасцю
наблі
малеку
##праўлення
08
Лей
Нідэрлан
Ах
Вой
Схі
гаспада
сумесна
адбыліся
камандаваннем
Даніі
акупацыі
##ate
Am
Ёрк
архіпе
грамадска
##шчыне
паку
Арген
гэтак
прыго
ўмовах
застаўся
##ленай
##права
вуга
зоркі
территориаль
##гае
Вілей
участ
пераво
Беласто
Эстоніі
пачаліся
Канстанціно
развед
цылі
Божай
абсалю
##від
##вера
межамі
каротка
Атрыма
##роне
Прэм
прымаў
зборную
##рыт
74
нез
выбу
##лая
цыры
##шаецца
Рэспубліцы
кампазіцыі
Рады
Эдуар
падаў
канферэнцыі
99
##будаў
вака
члены
стадыі
штогод
гісторык
##sh
##нныя
гэтую
арна
Львоў
мост
план
выключна
гімназіі
выходзіць
эсперанта
жонкай
абавяза
Пуха
канфе
дазволіла
свое
бараба
значнай
факультэ
Удзельнік
##ите
Br
чарго
Будынак
##ндар
168
##цякае
##бря
прына
уяўляе
абодвух
долараў
дзейнічае
##man
ёз
##дзілі
##спандэн
##шаму
Бярэ
беспа
будынкі
генерала
областного
##жнага
Высо
Віктар
Клімат
звесткі
прыпына
крэпасць
эпоху
##жан
гене
Найбольшая
язы
біскуп
памяці
прадстаўнік
адзіным
характарызу
##нізму
мадэр
ледаві
Доў
рок
аран
трам
умовах
Масквы
##роўка
фраг
умаца
значныя
##льён
##станцыі
##сюль
герцага
##лагічнага
выступае
начальнік
паспяхова
епар
лака
памо
вёсак
пашто
здароўя
Каралеўства
ўдзельнічаў
##лог
##графія
паэта
шэсць
турніры
69
Герой
вызначаецца
Це
егі
##ivers
Маса
адрозніваюцца
##зор
##гэтуль
цэглы
Кастрыч
праграма
Рака
запіс
вертыка
##чэр
Салі
Сапе
праблем
##ковы
Дра
пост
##йшло
##снае
барока
падвод
устрой
рэйтынгу
##ice
бес
Палес
хутчэй
##age
Лё
Даў
##відуа
##камен
капіта
месцам
##ure
##заі
##нтаў
двор
рысы
Румыніі
факультэта
##жным
педаго
Ціха
дывізі
псеўда
дачыненні
Савет
прыйшоў
##УП
хро
сіла
сталіца
старэйшы
##лён
##жаюць
##веднік
Купалы
Лондане
Ленінград
дату
##ходжанне
паражэнне
##ond
##іна
оперы
расце
##нічнага
дзяржаўным
##ern
Аш
рукі
выпуск
##рок
мярку
Народнай
крыніцах
заканчэнні
##шам
зносі
##ft
89
Каб
выраб
сіламі
апынуўся
Беларускім
##скар
##целя
алфа
абя
чэмпіён
Цяпер
камітэт
##шаф
125
##раўна
Сала
##нічных
прыблізна
Нобелеў
тагачас
забойства
манастыра
беларускія
гістарычнай
Герб
##бавалі
уладай
абласцей
пачынаючы
##ear
##ек
139
спу
эфі
Рыма
Ганна
Схілы
прэмія
паўвострава
##чан
ўвайшла
##лона
##ковым
заму
неад
каалі
Станіслава
##схі
гур
при
Гай
зямлю
перавагу
##дзеяння
Вядома
каталіцкай
зорак
графства
Існуе
астрано
адкрыццё
стварыць
захоўваецца
##гора
##чымі
110
звы
юна
Марк
ўвар
ўзровень
05
91
даступ
тэхніку
выступіў
##ччы
##прыя
тай
паглы
Пецярбургу
ютар
Адкры
нашчад
адзінай
польскі
палітыку
1864
1904
86
зе
актыві
зроблены
гарадской
##рмы
##ніну
базы
выбі
звер
выраз
высокім
Нарвегіі
парламента
##цом
81
Юрый
заказ
металі
найбуйнейшых
##ПС
кола
выклада
прысвечаны
76
плі
##рэннем
Берагі
праспе
##кола
місія
прата
размерка
выкарыстоўваўся
88
жаў
вопы
ападкаў
раённага
##рна
накіраваны
след
##istory
сходу
батальё
##нецца
ўзмац
вышэйшай
##стон
даж
метро
усталя
гульнях
патрыяр
##манаў
афор
горы
відаво
рускія
апошнім
Александ
##мара
польскіх
складалі
дзевя
Таварыства
##потэ
карці
Возера
золата
клубам
трапля
значную
##пты
##сьці
Вен
выс
філо
##чнасць
акцёр
вугла
аснову
правым
такога
будаўні
паводзі
мясцовыя
##лэ
дамі
Мінскі
кванта
##жой
##ллю
##крэс
##чання
прысвоена
##ii
##блы
##шчыкаў
астатнія
Заслужаны
##джэнне
Смален
робіць
часопіс
Q
##няз
##дэна
зоне
вадка
Паколькі
індывідуа
##ціць
вырата
узнагароджаны
##ступу
1890
1901
графа
даўжыні
належаць
размаўля
сул
Працяг
цікава
рознымі
увайшоў
невялікія
##лес
##ўры
##выка
Тара
нарве
астэроі
паказвае
супрацоўніцтва
св
штаб
парта
верхняй
жывапісу
бібліятэкі
заставаўся
##тэк
Брэст
лічыў
сцяга
Дняпра
эфектыў
##ult
##кза
Эй
##ксей
Іль
##біску
вызвалі
адкрыцця
паведамі
##рос
канал
##ступіць
выканко
заходнім
##цеў
De
росту
інтэн
тэатры
кафедра
Шах
Фрыдрых
правінцыя
##даро
выйгра
карале
##коўскага
##нат
134
ордэн
рэпрэ
максіма
пачынае
адпавядае
гарадскіх
канц
дырэктарам
екта
часціц
існавалі
77
пячо
##тыўнай
новая
воднай
калекты
мітрапалі
набыў
зямля
Імпера
Літара
невядомы
прозвішча
ўзо
выказа
дарозе
запазы
папяро
карэспандэн
Алба
трапіў
рэчываў
##стэн
зама
умоў
цёмна
царкву
мемарыя
##метр
##муля
##нута
фрэ
https
змяшчае
артыкулаў
выканкома
##рж
73
Зе
утва
сябра
Міхайла
мінулым
дапамогі
сельскіх
ўладанні
##фры
фу
800
Льво
мага
выявы
землях
перакры
зарэгістра
##верх
сад
рэчыва
Вялікім
##olog
Гле
Дар
Джы
##Решение
япо
віду
агарод
Візанты
гісторы
электро
асноўнага
сялянскай
жывёлы
металу
турнір
працуюць
дзяржавай
##віс
##фіцы
##логію
масы
тэксты
рабочых
праводзя
##троў
143
ўзвыш
##per
##лівы
##цэнт
жалез
канфі
Гомеля
пераем
забеспячэння
праваслаўнай
##мілі
Куль
знік
Маста
заходніх
##агу
сан
орган
##лагадоў
выяўлены
займаюць
выканання
паўабарон
##вяд
Нясві
кашта
самакі
выданне
падрыхтоўкі
жалеза
93
Наз
сінтэ
мясцовай
Маскоўскай
##бэ
87
куды
груза
паход
Хрысці
прайшлі
Асманскай
бар
ўтвары
гледжання
праваслаўны
al
бай
сля
скля
прастол
масі
цячэнні
−
Юга
мадэль
плошчай
дамы
мястэчку
мастацкай
##лег
ХІ
сар
##нічнай
вора
нумар
францу
Ірландыі
Бразіліі
Чэхаслава
апынулася
складалася
##na
барацьбу
##ція
Указам
рэгіён
Варшаве
падтрымцы
грамадскіх
##щи
Апро
павяліч
##ючай
перш
Часам
камандзір
##ніцу
Ама
Гары
былая
карэн
##ict
манго
аўтобу
залежыць
пакінуць
дзейнічала
##iz
##цер
фільме
98
##сыць
каз
##ністаў
выдаве
агульнага
ваго
Апроч
беларускім
эксперымента
##гне
##ксо
базі
Герца
пагадненне
езд
Пача
гада
выказ
##павярховы
##джэнні
##спубли
архітэктара
флоту
намага
##падобных
##ковага
##еўскага
выкладаў
праводзіць
##саве
раўна
нямецка
абавязкі
##ліліся
артылерый
##ical
войскам
гвардзей
##пэў
машта
рэстаўра
ўстанова
##льян
засталіся
##сон
вап
гало
еўра
Сербіі
другая
рускага
колькасцю
універсітэта
##ндэ
##ннік
Буй
забара
дыпламатыч
##ксем
##раджэнне
апошніх
класіцы
крыміналь
##ям
Вялікую
##ue
##жскі
##льскіх
фізікі
астравах
##бага
##двор
Рада
Свяшчэн
культурных
##ваную
Вітаў
моладзі
Зо
заліў
алімпі
цылінд
саў
алтар
атрада
імператарам
##бет
належала
##дная
Сту
##стрыя
звяз
філія
месяцы
##каўскі
абраз
былой
сабою
якому
Каман
масіў
##ніцкага
тэхнікі
падставе
неаднаразова
fr
145
газу
дойлі
стабі
Красна
спробы
абарону
матэрыялы
удзельнік
міжнароднага
##ната
##сяць
цыбу
жорст
Наступ
Канстанціна
##брае
каляро
недахо
ускраі
Фердына
праекце
прамысловасць
##гары
##німі
Міла
архео
бамбар
памяць
Аляксей
напісаны
прастора
Канстанцін
удзельнікаў
Саха
##джэння
World
сведчыць
##бек
##скамі
статысты
ўзнагаро
116
заве
##грэча
##ктыкі
##чэнню
штаба
##магчыма
спекта
культурнай
##шар
латы
стры
##раванне
Шатландыі
падзелены
##ium
Sh
1830
рост
шляхе
Святой
ўнутраных
Ца
Мюн
здоле
абазна
беларусы
##ys
зава
Санта
Максіма
пытаннях
буйны
сайце
працягваў
##пло
Бэ
##ніцкі
##белару
марскіх
падкрэс
Віленскай
##шты
біз
##тыфіка
стану
сцены
досыць
кварта
краіну
насяко
##нос
Юза
Дзей
Трады
смяро
старта
емонт
геаметры
Сен
##радзішча
інтэнсіў
пако
дзяцін
большую
Прадстаў
абвінавач
##бл
##oun
##спо
Бацька
каналіза
выканаўчага
гіпотэ
упрыго
галасоў
##дука
Сара
агрэ
куля
румы
адкла
другое
Украіна
##cy
яр
атры
Будаў
брыгады
##ek
##люб
Канг
годам
супольнасці
##менту
апра
выхаду
перадаў
Адначасова
##брам
Іра
##праць
скрыжа
ўзброе
##хамі
1500
прэфе
самая
групоў
друкар
Балгарыі
##нья
78
##рскіх
Бава
Ката
##тычную
сказа
абумоў
Univers
##рскім
##рызанта
выраша
навакол
справах
пагра
займаліся
перайменаваны
##доўга
дэль
жада
ліст
ярка
славу
князем
першапачатко
##ваўшы
##чанай
стыль
добраахво
##йсня
##нкама
##ступае
вяртання
##рэт
Рэа
мер
тып
рэдактар
##рэз
##писа
##тках
друка
немагчыма
##ina
##бан
##хва
Вол
Выкары
прырода
герцагства
большая
дагэтуль
звязаныя
эканамічнага
##пія
62
##асаблі
##шкевіч
Слонім
смерць
Атлан
братам
маецца
пласці
скляпе
ландшаф
насы
ўнутры
Мікалаеў
гарадскі
##ith
тэн
структура
##нэт
ўладамі
##руч
94
Літве
вадзе
басейна
мусульма
здзейсніў
##пцы
##ляла
##мона
##дства
белы
нашы
грашо
Новага
вынікаў
наяўнасць
устройства
палітычнага
##iet
Зу
##вара
мабі
Францы
узаема
найболь
агульным
носьбі
Вялікабрытанія
Жэ
вуліц
шлюбу
канцэрт
начальніка
u
Выда
атам
Трэця
лінгві
Прэзідэнт
Удзельнічаў
##гена
Югасла
закліка
захапілі
падобныя
##канаў
іслам
тысячы
Барысаў
адмаўля
Інстытут
адпавяда
яўляліся
жывёлагадоў
09
##жаныя
##маглі
грошы
самага
$
знайсці
каланія
калоніі
сакратаром
французскага
##ФА
£
79
Лукашэн
заснавальнікаў
##АТЭ
##нутая
інве
Італія
партнё
энерге
рэферэн
Маскоўскага
лес
Зела
КПСС
Стары
персі
грамадскі
##ев
##ркоў
##чамі
101
армію
газеце
здзяйсня
##мэ
105
700
Pol
родаў
адзіно
літоўскі
дасягнула
мяса
Іншыя
Далей
ўмовы
поўдня
##лізм
Бла
збі
сімвала
пісьменніка
##ier
##клопе
##тыкаў
1870
маля
дысцы
плоска
завяршы
існаваў
##нна
1903
##падаюць
Партугаліі
##ваку
лод
летам
сетка
афарбоў
Выкарыстоў
##ment
багі
перы
Героя
Сірыі
ахоплі
ўтрыма
маладых
распараджэнняў
##роду
лясах
Intern
завода
дырэктара
выпусці
Паўночнага
вок
вына
ўклю
метра
склала
аўтарам
зразуме
арганізаваны
##луб
Пін
##тланд
кампле
Распаўсю
##ния
##дзіна
мяну
##ўскага
##циклопе
артыле
цырымо
Сярэдне
бамбардзі
##зоў
147
##ндаль
порт
рэформы
##лінг
##ёнам
Абу
гім
млы
нас
Выра
##тычнае
белыя
вядомым
сусветную
##ou
##дыю
апя
##фікса
парада
снукеры
адрозненні
прадугледж
вёў
змог
##носіць
немцаў
затрыма
##пса
кляштар
##int
сцё
Была
Свісла
Вышэйшай
Бога
дваран
перайшла
##ly
гарні
Каталі
тэорыя
хвілін
144
##несці
##рыйскай
##хэ
##неры
пата
дарогі
катэгорыі
##тэль
##дзіўся
##каваных
арміяй
кожным
фізіка
сустрэчы
завершаны
##нок
кіне
выйшлі
рэвалюцыя
War
вось
##скамоў
Прыпя
высокі
карана
валодае
дэманстра
займаецца
адміністрацыі
141
рад
##ўшыся
менша
розна
Люксем
фіналу
гравіта
скончылася
зацверджаны
##туе
рос
Дама
зімо
##ваннямі
пераўтва
сельсаветаў
прыхільнікаў
##зіна
##ленд
##рэдка
Ёсць
плато
братоў
загадаў
Заходняя
абвешчаны
##йза
##чанка
##ліс
##ight
##графа
Абра
Калум
адмоў
##водзіцца
Лічыцца
рэжысёр
развіцці
дзейнасцю
выкарыстоўвалі
##ліцца
Егіпе
мяжой
##гадовая
працэсу
##мур
##даўна
1812
прамо
вынікі
ляжыць
Асноўны
##гул
##трапа
##гадовы
перашко
коль
Варшаў
галанд
страціў
комплексу
Кас
гвардыі
глі
рэза
энцы
эска
называлі
##ляй
##лёк
##ліяра
залы
інда
Раман
афрыка
Міхаіла
адзінак
чырвона
трохвуго
парламент
гераі
Канады
дзеяння
##вані
Дамі
##цыйную
гледа
тэлеба
адстаўку
адноўлены
Мікалаевіч
##джу
суха
прось
прывялі
Республи
прадукцыі
грамадскага
##ет
Сто
вадаё
Доктар
далучаны
вывучэння
перакладзе
##гене
##дора
Све
1902
школ
Франк
падзем
перайшлі
сацыяльнай
##белі
##клаў
##біцца
##льт
##міру
Ула
наў
Еўраба
хваробы
англійскі
Верховного
атрымлівае
ми
тэрміна
пратэстан
Ph
##памі
Тэрмі
узнік
экспазі
непасрэд
##днай
Маль
акцё
Сібіры
камітэ
караблёў
настаўнікам
##чок
Th
138
Вік
бер
вен
арэн
канку
пазба
населеныя
прадпрыемстваў
##ial
##над
##замі
Перу
аспі
пані
радыя
маладо
вынікам
Станіслаў
прая
кангрэ
паспра
дыяметра
стратэгі
##ron
##лкоў
##нутыя
Філіп
падра
паляр
самога
праўлення
сацыяльна
##сімі
##пісам
спажы
аўтараў
помніка
шу
іма
Дняпро
заняла
выключа
НК
##несена
Бабруй
Ганаро
стаўшы
Дэмакра
асноўны
драматур
пазнаёмі
дысертацыю
праводзіцца
##чога
ёму
Габс
##ваннях
сэнсе
эвалю
звярта
незалежнай
эканамічных
Eur
##леным
замо
##лівасці
званіца
ўзнікла
гарадская
нямецкага
##ючыя
1880
Вада
лікаў
##кладаецца
##гіяй
##паля
дата
дачкі
магла
адкуль
галіна
Гроднен
выдадзены
##iss
Pl
племя
прыва
нямецкія
##дум
тоў
дыяцэ
месяц
##лізацыя
працэсе
архібіску
навучанне
ўжываецца
BM
ЕС
Што
ніжняй
дывізія
надрука
помнікі
пунктам
населены
##ции
##тару
апошняй
спалуча
трывала
##шталі
##днасць
выяўля
##наўскага
Мінская
Асабліва
прызнаны
прыводзіць
эканамічнай
##ks
Пан
курс
рэкі
##днасці
вугля
глебы
грані
месяца
Казіміра
стагоддзе
##мені
гарах
##би
лад
Памі
палітыка
##каве
124
Жло
##кцыяй
Тадэ
замену
супярэ
ваенную
Сярэдняве
*
Каша
Біблі
кулямё
прылады
склікання
апублікаваў
схе
##вяцца
плані
палітык
Польскай
чалавекам
палітычныя
##Па
##тно
##лівасць
вучоны
Грамадзя
БН
##лікам
еўрапейскай
115
##страм
Няме
сцен
сонца
органы
святых
сядзіб
Магчыма
Дзяржаўны
спецыяльнасці
пам
##дзіла
выкананы
la
закона
Аўгуста
Ми
##маты
##гляду
англ
замуж
Марцін
##гонь
Con
падполь
падтрымкі
##кго
##land
1793
Былі
Леані
выбра
высла
рэчаі
месцамі
прычынай
##ook
##воды
слава
міфалогіі
своеасаблі
скульптуры
тысячагоддзя
зн
##ения
нахіл
Вышыня
схілах
характэрны
##еве
New
пре
Вікі
сыра
лібера
абры
Гіста
##манскага
элемента
##ністыя
фасада
Перамож
рыбалоў
афарм
парод
Канстытуцыі
нарадзілася
##ланд
бога
##няюцца
камень
правах
драўляны
Паўночная
##стымі
Армя
дэта
заву
надзе
самой
адкрыў
агульная
канфлікт
Адам
волі
Азербайджана
##ath
##галі
гля
БАТЭ
гвал
рабі
нафты
Афрыка
Частка
спрабаваў
Бры
пія
іра
Люба
Філа
раст
блізка
падобны
святога
мастацкі
##бча
121
клас
Прусіі
аўтара
хуткасць
выкарыстаннем
тор
лясоў
трэцяга
літоўскага
перададзена
##рская
праф
Крысці
групай
свайму
сфарма
Дзмітрый
вярнуцца
##мую
тан
вакза
сімва
чыноў
распаду
гістарычны
##oy
##дым
##новіча
праектаў
невялікіх
##хан
СМ
суве
заходне
Кей
бен
Уэль
здыма
значны
аспіран
фільмаў
праведзены
нацыянальным
##рыны
арэа
мады
Апошні
раскры
дзеянне
памяшканні
старажытнагрэча
72
137
стро
губерня
адсутнасць
##ass
клубе
энцыклапе
паўстанцаў
##аб
##ann
##дза
##шынг
##брыка
прыё
абало
фабры
Вуліца
адыгры
пераходзіць
літаратурнай
##рот
Кё
##ские
заці
нашай
харва
камандзе
неабходна
уся
##варот
вусця
вышыню
вялікае
краязнаў
параўналь
старажытнасці
сха
валю
цячэ
вадой
тэрма
дзвюма
лепшых
прывіле
выкананне
Манго
Маскву
Віцебск
запатра
##ey
##раду
##цтвы
Рай
##монта
занялі
рашэння
##рэў
126
##менце
неба
фоне
Радыё
увесь
змяніў
размясці
##кіна
Мёр
##ліўся
суцэ
Франці
філоса
альбома
караблі
кардына
супрацьстая
##АС
##рест
Гур
дастаткова
Тор
геро
флот
даных
крыжо
мэтах
памян
Міхайлавіч
##эт
##ктуры
ўвагу
нічога
##лізаваны
выдання
меліяра
##che
##ены
##хен
##драў
##плаў
Плод
Якаў
рынку
фіналь
ілюстра
Чэмпіяна
Імператар
Ур
Бос
1795
візі
вернікаў
гарызанта
109
нова
тэкст
##ніверса
рэжыму
Славакіі
праводзіліся
распрацаваны
Наша
прэмію
##рыстакра
абароне
выпраба
памерла
калектыў
суадносі
будаўніцтве
гола
праі
сэрца
кабіне
метрапалі
дзейнічалі
##мет
цю
##берга
апове
Першую
стаіць
рэкамен
прыстаса
Эк
ўзы
нібы
складаўся
старажытнага
##чваецца
аўтано
перамя
займацца
Узнагароджаны
Скары
Анатоль
вывучаў
##цкаму
Хара
характару
##ace
##ach
##дия
СС
Шчы
пола
рыбы
Вільгельм
##йцы
Саў
Ніка
сера
сухі
экра
курсы
рэлігіі
##ртс
##тэх
##чынку
рэзка
Еўропа
музыку
калекцыя
працякае
ажыццяўляецца
##гава
##энер
банк
##лілася
эваку
Стакго
вядомага
навуковы
Аляксандравіч
1878
мало
Касцю
партыю
##ore
##раецца
кліма
##падобная
наведаў
##гуна
Бліз
далё
войнаў
Браслаў
артыкул
##ics
135
духа
фонд
Адроз
Гарад
тракта
ли
зака
краю
Сёння
контр
крыху
трэцім
##вядзенне
кваліфіка
насельніцтвам
103
галін
ручай
фашыс
хваля
ўсходнім
Крым
пасад
прапага
каталіцкі
##ah
##тцы
##шала
объ
ўме
##нішча
Глыбо
крыла
калгас
прысвя
пункту
##рэнняў
##шэннем
ачкоў
света
належаў
уключае
##шын
##ніне
вынік
Вялікае
дадзены
расійскай
ўзнагарод
Юр
##ністая
Беларус
берагах
часопісе
канфедэра
Віцебскага
заставалася
##тэй
##огул
гато
Разві
Царквы
захапіў
недалёка
захаваўся
праходзілі
##наз
##чной
горных
пабудо
прыняць
лічылася
атмасферы
канцэнтра
сацыялісты
##ire
##сея
##чом
Гё
##нялі
насу
крылаў
Рэчышча
астатніх
арыстакра
паселішчы
літаральна
news
бакі
Вашынг
ўтвараюць
##чам
Уся
##язджа
бярэ
лідар
фасад
фігур
пасоль
бацькоў
зрабілі
узроўні
перасялен
##кура
##мабі
Бал
бою
шатро
сучасны
прыбярэж
сацыяльных
міжнароднай
##ВК
##дзё
##клара
запу
ідэн
крыві
саста
уладу
прыбыў
Інстытуце
ўзначаліў
размяшчалася
##геры
самыя
Мастэр
нейтра
расійскіх
праходзяць
расійскага
##льды
вода
выва
паль
##стойлі
дарос
хлеба
Тэрмін
высокія
медалём
практыч
праёмамі
даследчыкі
##нан
##нгі
маў
##лейбу
ікана
прадста
аэрапорт
##тель
146
BMW
##ўкавы
##цыйнае
асвят
##ence
123
Тро
##лікія
##чаецца
мяжуе
сістэмай
аўтамабіляў
##пр
тэма
пейза
Рыгора
Гарадзе
Эле
##жаных
##йскую
##дынамі
старых
##лагічным
апынуліся
Sy
##віцкай
гасці
разлі
Егіпта
даўжыню
нямецкімі
харчавання
##act
##зава
1860
рату
спек
##ленага
выява
машын
Мсціслаў
Re
pro
Ната
маце
фата
акрузе
паняцце
ўзвышша
адправіўся
##заем
##хаць
ААТ
Ага
##манду
Балка
доўжы
руках
Другая
Улетку
перапы
экспер
атрымалася
##edia
##саюз
##стую
Дры
трон
Венгер
структур
Республики
##тэрмі
полю
рэшт
Джона
прамя
выразна
СП
Нор
каў
рыт
##ations
##тыўная
Ганны
рытуа
Найсвя
найваж
чырвоны
конкурсе
##ja
##кве
Яну
адчы
лічба
распача
утрымлі
гістарычнага
Зем
##сення
бура
восі
экза
сексуа
Мастэрс
прыняла
выконваў
афіцыйнай
творчасць
##ліста
##чаюць
##чынкі
шука
відаць
цэнтраў
частках
зроблена
прадпрыемствы
119
Гам
##магла
Раней
цягам
перабу
рублёў
карабля
стварылі
утвораны
##віга
Кітаі
актыўны
выступаць
##ще
##ндыю
ўба
брам
Паміж
лагера
дадзеныя
пакалення
амерыканскіх
земляробства
Егіп
азда
ветра
непры
прымае
уздоўж
##завы
Сце
1898
Дані
Часо
ўмоў
палацы
рэлігійных
сусветнага
асаблівасці
Гаў
##ктура
##чніка
піша
егіпе
гандля
##арганіза
вынаход
Ады
Кніга
спява
паўплы
Зборнік
##выканкама
захавання
Ex
##кіпа
узо
быта
любо
маркі
паляп
намаля
прызёр
##сть
##шыць
Каз
Юпі
выто
мані
марк
Антар
##шына
таў
##славя
верш
##годдзі
вучняў
калегі
цэркваў
адкрытым
акадэмію
Заходняга
найстарэй
камандзіра
нацыянальна
##zy
##магні
1848
матчаў
падзел
доктара
сіметры
Віцебску
##АП
##зуе
##сии
дрэн
франтах
Янкі
зало
войны
Філіпа
белага
вобраз
класіцызму
размяшчаліся
Ap
##льсі
##пуль
Міхай
раска
ціску
класаў
яўлення
Le
мужа
птушкі
рэгіёнаў
ўтварэння
Муха
Дзень
дзяржаву
##ert
ch
Свет
браў
Катла
гавор
важным
роднай
пастаўлены
##стыкі
лігу
матчах
Чырвоную
заходняга
##ября
Ноў
Sant
баро
напо
##ністых
##падобнай
прафесара
##ДБ
##ёне
Кен
секу
спецы
саборы
Большая
Найсвяцей
стагоддзях
##КС
##лт
Шо
Браў
страў
Фрыдры
машыны
Дзяржаўнага
кн
##кера
робя
Press
сімвал
конкурсу
пераможца
адсутнасці
прызначэння
ўніверсітэце
Рабо
імавер
##лд
##ляны
лёс
Музы
кажу
Грузіі
нябе
Фларэн
артыкулы
невядома
Пабудавана
##бары
Хай
матч
разь
акруга
выданні
Асноўная
садзейніча
##pt
##ние
##idae
##чыўшы
1899
Каль
піло
Сцяпа
немцы
надвор
мужчыны
##чук
127
##ленню
изме
пато
рода
выпла
Уільям
перспе
ўдзелу
незвычай
рэгістра
суседніх
Паўднёвая
лейтэнант
##ros
Сю
136
паво
побы
##ноўскі
поспех
патэнцыя
06
Леп
крыж
роск
Яўген
Коласа
ніжнім
Народны
##стуць
Ашмя
разбураны
##дат
1895
Вілен
скульптур
##lay
##гін
Хэ
##шчык
##кавая
аналі
хіміі
Лондан
павято
жывапіс
кантролю
дыяметрам
##неных
Рага
хаця
Кобры
кампе
сказаў
службо
##вядзення
Швейцарыі
наст
дзеці
нярэдка
ліш
##тэрна
Кама
высака
прытрымлі
##les
полк
тава
##ментар
ўрачы
пасада
краінамі
знаходжання
##ock
##бей
##зара
Mus
##рства
прато
парадак
Найвышэй
##дары
##зацыі
##ступаў
абсерва
вырабаў
мясцовым
невялікая
губернатар
##ze
##ные
азна
ваду
Палац
вызвалены
ўзбярэжжы
02
at
##сіяй
Дэбю
апла
Радзівіл
Будаўніцтва
##ццяў
##ляўні
ірла
Барсе
Дзяржаўнай
##дага
##змам
апу
##жскім
тэмы
Бібліі
высокіх
##oh
##ара
##ўна
##мымі
##нічныя
Кожны
лісця
Ваўкавы
прафесійны
##ide
et
##сель
плаў
пясча
кантраля
працэсаў
сучасным
Багародзі
Катлавіна
майстэрні
праходзіла
ўво
Кава
квета
ВУП
куп
схо
##вічах
расход
University
Bl
Пак
1861
Ляво
Скон
праме
Палаты
Расіяй
знаход
палову
рашэнні
пабудаваў
Пен
фізія
дробных
Міжнародны
##гіна
Міц
1886
жанчы
гадовы
рамана
рэчывы
паўтара
асабіста
Праваслаў
канструкцыі
выкарыстоўвае
##one
пере
##тыўныя
рускі
Лаўрэат
свабоды
абласцях
Пачынаючы
##уса
113
Шчу
1885
Імпе
супо
узяў
атака
ўклад
прызнаў
пераходу
##жар
##ліш
##нце
эма
ядра
##парадка
Берліне
транспарту
размяшчаўся
станоў
фундамента
##вярга
дара
Святы
Афгані
##old
##йме
##кшы
##іны
107
Мес
##тызму
сяла
былых
медаль
грэчаскай
пісьмовых
##віцы
##нізм
бой
##дзьмі
мяжа
Бургу
тыпаў
адваро
мурава
контракт
Універсітэт
International
Эмі
дыску
Месяца
формаў
вышэйшых
мураваны
канфлікту
##бку
##боры
106
Стан
##ampion
дарог
новае
дынамі
земляў
накірава
атрымаўшы
гаспадарка
##зма
Дэр
##самбле
выкла
Хрысто
маюцца
Мінскім
верхнім
гандаль
перамовы
аднаўлення
перанесены
усталяваны
##НД
##даль
тлу
##еўскі
##снымі
1896
Чылі
##дзеная
чвэрць
ўплыву
афіцэраў
афіцыйных
меркаванне
РФ
##бава
##раста
сінг
ацэнь
выкап
Фёдара
Каліфор
дзейнічаў
##ел
##ров
Род
##грама
Ордэн
галаў
паліва
звычайны
перакана
##ata
##сно
Азія
легі
наці
актры
вусце
дробныя
подписа
культурна
##руг
pp
Віш
пен
##чышча
##сільва
прыда
Егіпет
кветкі
аналізу
малодшы
Мон
вясе
лічацца
дасягнуў
хуткасці
Or
##шмат
Уша
Вест
тыпо
##шэнняў
Андрэя
Першае
перапра
разбура
істотна
італьян
загінула
##циклопедия
кампазітар
Смале
вучэб
Незалеж
падрабя
##дзві
Чэр
ўяў
сушы
лексі
карцін
паўшар
бацькам
станаві
as
##няты
##цлаў
Глу
кане
ўдар
Вален
прыйш
сукуп
сябрам
Бельгіі
правінцый
дойлідства
складаюцца
шматлікімі
##зю
##ья
##дзеных
Зямля
Карпа
спартс
берагоў
падзення
прадуктаў
Фрэ
гет
##кампа
##тыўных
Чарні
поўны
##нікаюць
гэтаму
поўнай
Tim
1892
##жаецца
Антон
Барыс
Валян
Брэста
цікавасць
муніцыпалі
x
##бора
114
117
круг
паспе
раслі
абмяжоў
плямёны
мастацкіх
##нгаў
##трах
Лігі
Урад
##больша
##лялася
##лістам
стадыё
##бег
Ван
Кіева
значных
інтэгра
Старшыня
начальнікам
Ата
гео
апор
думкі
Каўказ
згуляў
тралейбу
размяшчаюцца
##ces
Маў
яру
1889
даты
History
пакінулі
чырвонага
навуковага
82
129
Леў
ладу
здагад
спецыяльна
ініцыятыве
##піць
Эка
рамес
Барыса
рэканструкцыі
ГЭС
веры
Люблі
абшчы
такімі
Пашыраны
сведчаць
Свяшчэннай
##няюць
Ісус
лесу
тэму
нашых
фінан
нізкія
выяўлен
паказаў
прыходу
афіцыйны
Расійская
асацыяцыі
##uss
##віту
мал
мас
розы
зняты
лагер
канала
манастыры
##ong
148
Ягай
##нуецца
часця
##дзеянне
канкрэ
асновай
значная
кампаніяй
камандаваў
##дро
##ніст
Мор
Кало
адказна
ўзроўні
тэлекана
Адрыя
прыпіс
нагадвае
класічнай
цэнтральнага
##жых
##заве
##нара
бак
падпа
Магілё
даследчыкаў
размешчаныя
##нду
Ne
Фра
##жанне
Алег
ідэй
Побач
азёры
дачку
Індане
Віцебска
навучальных
Ў
##гнуць
Ману
Пушкі
моцны
праве
маёнтку
разнаві
незадаво
манумента
спецыяліза
128
аца
1888
стварае
французскіх
##фэ
##ork
##ung
le
Гла
іера
клеткі
творах
міністраў
##халі
##родак
Сіцы
выле
зяме
даліне
Вялікія
прыналеж
фарміравання
Уэ
лічылі
птушка
вяршыні
маёнтка
адпачынку
савецкага
кандыдатаў
праведзена
##мік
Бай
ўзросту
Нацыянальным
pr
##скра
пап
тва
##статко
Чырвонага
найбуйнейшы
лы
Сямё
хіру
Кіеве
збожжа
капліца
паліцыі
забяспечвае
##гас
##ніса
111
Два
Рама
##ніліся
серый
##амерыка
пайшоў
ed
аконнымі
Нідэрландаў
эры
стру
выдзя
гаран
марму
вырабы
годдзя
носіць
разгор
мірнага
працягласць
амерыканскай
Кай
##логій
гадамі
лістоў
старажытнай
##ny
бае
##тыкай
Камя
кажа
сажа
прыйшлі
Радзівіла
Іў
Ind
педагог
Віленскага
грамадскай
архітэктарам
##злі
паа
3000
роля
абіра
фізіцы
дэпутат
прайшла
прымалі
вядомасць
тэхнічных
камандаванне
каналізаванае
##велі
##сыла
##шанай
чаму
ўраў
##жнасці
##льскія
Будапе
радыка
спрабу
адносяць
значэнні
Камуністы
палітычная
Пас
Спіс
дому
далёка
наогул
справяд
дзяржаве
паўднёвых
Паўднёвага
дзяржаўная
en
##лека
##надта
##сенне
Тадэву
паверсе
Маладзеча
традыцыйна
##лежна
Паўночны
выдавецтва
Нобелеўскай
##ite
Ли
веку
парка
імёны
Нёмана
розыгры
Харватыі
рымскага
заснавання
##лта
уклю
сутак
рэгуля
вайскоў
##te
##рны
ціка
пагор
стары
тарма
абараніў
сённяшні
прызначыў
адбывалася
##ff
##ski
##зды
##лев
##фей
ян
Таў
дзю
Бала
##ляліся
падвер
пэўнай
трэнер
##парт
няў
вадзя
круга
##ноўскага
абшчыны
памераў
Паўднёвы
ўстановы
ўсходніх
саюзнікаў
рэдактарам
sp
заа
дыры
словах
напісана
плямёнаў
##ram
##гаса
104
XXI
##ліней
мэты
тэорыю
ўсходу
##накаманду
акадэмія
прапаноў
дакументаў
##нейшыя
Нёман
Адрозні
сумяшча
ускраіне
лацінскай
бры
Тама
брэй
Адным
збору
выбіра
шляхты
##лагічная
карціна
Уладзіслаў
аве
Ігар
Вара
##страмі
Адама
героя
дызай
даміна
паўфіна
драўляная
##ins
##ius
ию
##града
1866
Арха
ўзор
татар
ваенным
занадта
раўніны
Літоўскай
Найбуйней
арганізацыю
гістарычным
##рае
1867
цыта
шара
баках
звання
турысты
паранены
##rib
Сэ
Сера
##фікацыя
Антоні
праграму
этнаграфі
ўдзельнічалі
ўвайшоў
рэдакцыі
невялікай
паўночных
перавышае
прадстаўнікамі
Іса
замку
запро
роўная
заводзе
Германію
культуру
прафесарам
Кы
##дучы
##ковіч
##стория
бюджэ
##падобны
склалі
двухсхі
ўласцівасці
th
##чках
аха
##джаныя
##жнікаў
званы
малых
Іосіфа
Стэфана
удзелам
асяроддзі
рэарганіза
кв
##тынг
скора
Патрыя
лічыўся
духоўнай
практыка
мастацкім
мастацтве
семінарыі
скасаванага
##лов
##эля
фарму
канфіска
крышталі
складзены
арганізаваў
##ru
Пор
саба
Ленін
Англія
адзінкі
людзьмі
калекцыі
катастро
эміграцыі
##бана
##корд
Жыў
ХІХ
##рскія
Храм
Канды
разбі
экіпа
трэцяй
шатланд
вырашана
каралеўскай
1893
трап
яйка
Слова
бацьку
валодаў
развіццю
##чкай
Кер
##зента
1831
тэлеві
рознага
яўленне
пашыраны
##пушча
##трапі
квар
##нічалі
Слаба
сяржа
часціцы
міжнародны
старажытныя
Архе
Потым
болей
роўна
атрады
ранніх
Магілёве
адзначыць
папулярнасць
##гуа
жыць
Саксо
трыбу
##льнасцю
Ламбар
дапамог
ўпрыгож
##иче
##рода
##роту
Шаў
##рэдку
этапе
Васіля
напера
працай
запавед
зафікса
##польскага
працягвалася
##рг
Дэй
Том
метад
спосаб
беспера
ўспрыма
гістарычныя
##віца
Іза
асе
ордэнамі
радовішча
чэмпіёнам
##дума
##днага
##сараў
1850
##градзе
задачы
верасень
фармальна
самастойна
захоўваюцца
##out
##гуле
##роны
##ццём
Аму
Асоб
трой
##ктыўна
Камен
армій
важную
Усходне
займалі
пацярпеў
савецкія
выконваць
Цэнтральная
праводзяцца
##КП
##АТА
##лёй
##феру
##жаная
##чкамі
Каме
Паня
веча
засу
##наўскі
польскім
##ражы
Смі
моз
адце
мэта
прафі
Берлін
двухба
лаўрэат
сутнасці
абвясціла
амерыканскага
##руе
пан
срэ
1871
засе
##метраў
кален
малітоў
узросце
Пы
##залі
##льца
##рэгу
##стах
##дзяцца
стаяў
тэксту
абапіра
прывяла
узнагарод
аўтамабіль
супрацоўнік
Цу
##несан
##грунта
песню
ўваход
налічвае
гарадскія
##эле
##ican
КПБ
##праві
Уста
бары
ружо
літар
скаро
упадае
Іспанія
агульны
слоўнік
сітуацыі
##вей
##мены
##лоўскі
Альфон
радзіму
узбярэжжы
Кэ
бег
1894
Капе
Сент
эква
сталіцу
сярэбра
падарожжа
камандавання
##au
##lop
##льц
Маха
Соне
Алена
Мясцо
ваколі
падабен
выяўлена
матэрыял
літоўскай
узведзены
карысталіся
92
##гавая
##лагаў
алей
уніі
Тураў
Часта
свяці
злучае
расстра
апазіцыі
##нная
лесам
спектра
вымярэння
матэрыялу
навуковыя
палітычным
##лар
##фізі
##тнічны
рэжым
інфра
адзінства
Навагрудскага
піля
бераг
Кароль
Характэр
магутнасць
выкарыстаны
налічвалася
самакіравання
Аз
##нёны
Мат
Спі
Экс
эль
бяро
неча
опер
##чнікаў
дыяпа
стром
адміра
тэндэн
выказаў
намесніка
прыйшлося
медыцынскіх
Найсвяцейшай
ВПС
дыск
##браўся
рукапіс
Заходнім
забудовы
ўтворана
знойдзена
такая
колеры
авіяцыі
сакратара
##тх
##дуе
##стку
Кал
дах
##вызна
факт
цагля
##гадовай
##дзіліся
паходу
Пабудаваны
інфармацыю
##фт
##чля
##дзяў
##дным
##пель
##цілі
##эфіцы
інша
рымля
вінава
Чарнаго
засталася
наяўнасці
##ail
##ары
##шэр
##ition
авало
свядома
уключаны
эканамічны
апублікаваны
##тое
##ткія
кель
заслугі
намаляваны
выкарыстоўвацца
Усё
явы
Давы
моду
##ленасць
святар
##рыйскага
яўляцца
сярэдняга
матэматыкі
##гуль
##дава
##ском
алка
Герцага
##хім
Vol
Празе
вапня
групе
задач
дзядзь
Існуюць
антрапа
кансуль
музычны
медыцыне
тэхналогіі
заснавальнік
##ксаў
уме
##жнымі
Самы
поспеху
губернатара
##ogra
арт
Папы
тыдзень
ўступіў
##ick
und
Пля
##дадні
##спарт
##тыўна
##шаная
вялі
даць
салі
унія
Іаана
Гвіне
кісло
імпер
Полацк
аэрапор
галерэі
прыдвор
Людовіка
##ons
##Указ
ліній
паэмы
Гродне
даліны
камуны
Габсбур
Германіяй
##мум
кано
хаке
Анджэ
табліцы
Народная
Сярэдняй
пратэсту
напачатку
Цэнтральны
##проў
Дне
Фло
ван
##ляцыя
##манам
1884
Баля
усёй
абяца
баявыя
паўтор
Венгрыя
Казімір
вядомай
гуманітар
архітэктараў
ВМ
##нтоў
раб
##неная
##нцамі
1840
Мака
Чыгуна
дарога
##ферэнцыя
Францыю
асуджаны
праводзіў
##екта
Car
Дан
1881
зона
сцяны
##нуўшыся
Джэймс
парафія
каралевы
развіваецца
##зел
маё
Эдвар
##манская
настро
імпуль
Жыгімонта
падкрэслі
універсітэт
##ье
Бая
ацэ
есы
##натаў
##шаных
акцыі
запла
ахвяра
прычын
##пярэдадні
прадметаў
сярэдневя
##фур
##блей
рых
##йскае
ключа
эпідэ
##бод
##зан
##сэн
нес
##чаным
васа
сайт
італьянскі
Цэнтральнага
Бю
Агі
эсэ
ванд
зорка
грошай
даведа
прасоў
спецыфі
##нтро
зло
сухо
сход
добры
спісе
перано
Канадзе
высокая
майстар
выконвае
падвярга
сярэднюю
фестываль
мастацкага
Еўрабачанне
##бны
##нска
##знавец
##нялася
жанаты
прагрэ
змешчаны
Казахстана
выпраменьвання
##наўка
Было
Падля
Падоб
прымі
прыродных
паказваюць
##ix
##кона
131
неў
##пісец
куро
Парла
Славе
каледж
сацыял
Даследа
пазіцыю
вызначае
адбываюцца
##чане
спец
правя
эфект
доўгія
барацьба
##здоль
##лістыя
##нічала
Дзевы
Рыгор
покры
скуры
эпізо
ўмера
Кангрэ
абвяшча
нямецкім
стралковай
##ck
##сцэн
Par
Меды
Адной
Амаль
верха
дыска
бачыць
вярнуць
знайшоў
Champion
вылучаюцца
##хт
##нача
законы
літары
сястры
накіроў
аграгарад
Ёрку
Акця
цукро
могілкі
Пятровіч
Гора
Стру
бара
##няліся
месці
##лагічна
Чалаве
студыі
Польшчу
аповесці
сучасныя
пераехала
прыпыначны
##ДП
##бекі
##жалі
тун
##турна
Юрыя
Такія
дыкта
аддзел
канцэр
меншай
Злучаных
дэпутатам
##тас
##ўто
Ерэ
Парк
форм
ліцэн
палеа
трапе
##нальнай
славян
Кампанія
апісанне
вызвален
крыніцай
правесці
царкоўна
захоплены
##НА
##віг
##езд
##кет
##мае
##рас
зры
##свету
шчас
Гарадо
зверху
кругла
надпіс
свабоду
самалётаў
Працягласць
##дыён
##онаў
Далё
піра
дубль
##вальнікаў
выпадкаў
дзяржаўныя
##педа
Man
бор
Малой
прыся
станаў
славянскіх
лабараторыі
падзяляецца
##же
Тэй
ўну
браты
іншае
гармат
дзеячаў
аднаўленне
некалькімі
скульптура
Еўрапейскага
##сол
La
##мену
##піла
##рухо
топ
##довай
наса
саты
##шчэнні
рэген
сцэне
саветаў
размешчаная
##люе
##тэту
лёт
1879
запар
пралі
страль
Чорнага
працэсы
ранняга
растуць
Францыска
вызначыць
характарызуецца
1891
Кіры
рухо
соль
##нічным
##сексуа
Асіпо
урадам
ўзбрае
кампаній
працягнуў
брытанскай
##зме
##цій
Кір
СМІ
Шан
жыл
усю
атру
Добра
Працы
прыём
Еўропу
Усходзе
Фрыдрыха
Адраджэння
Скі
##праду
вара
Літва
Пружа
траге
здабычы
##радзілася
Полацкай
прыняцця
афіцыйным
настолькі
ператвара
дазваляюць
назіраецца
Ad
Вё
ль
900
##трапо
##чынак
эстэ
##кцыяналь
памерам
высокага
падрыхта
трэнерам
Іерусалім
брытанскі
характэрна
Рэн
сме
зблі
##рычныя
герой
прыту
сакрэ
чорны
Рымскі
марскі
Усходняя
аўтадаро
вызначэння
##AN
##ver
##везе
##каму
##дская
##торыю
сапра
святло
Магілёва
апрацоўкі
адлюстроўвае
дэмакратычнай
##мён
##йсці
##лоне
##меся
1887
Брест
Касты
гарод
нагру
Аўгуст
гродзе
Патрыяр
рэфарма
133
Col
ўру
мячэ
ісці
Ірана
інспе
Венесу
пэўных
духавен
выклікае
сімвалам
дакументы
адлегласць
факультэце
размяшчэння
be
##ндзе
978
Багу
поки
сілай
Венецыя
Віктара
шырокай
шырокім
##ile
Аг
##хары
сот
ўро
Amer
##тызацыі
выявай
заступ
непада
эмігра
прадпрыма
захопнікамі
Be
##нтамі
1800
1882
нагоды
ператва
выданняў
музычнай
##міні
НАН
ідэя
##праект
падве
гульцоў
структуру
##дне
Ака
крэй
Берлі
сцэны
існую
##грантаў
Альбрэ
аранжа
ўпадае
Бярозаў
уласціва
падпісаны
дзяржавамі
##ціі
Ди
##жань
##зныя
бюро
ураў
нівод
падда
адсюль
кавале
зрабіла
Чырвоная
журналіст
##sp
##фта
Эры
##сцера
баёў
выцякае
спыніць
функцый
di
##неды
##філь
Малі
Паса
Мярку
метэа
франто
металаў
азербайджа
узначальваў
агі
1868
сюды
злева
кожная
прынцэ
выпуску
адзначаны
недастатко
пагаднення
пераведзены
##запа
ато
ежы
##няцца
Фелі
гэтае
лесві
рабоце
Кіеўскай
вялікімі
пастаянна
збудаванняў
##ТА
##чор
ІІ
##вань
##тэран
##шкамі
Астат
вопра
прывёў
лідараў
раздзел
будучага
захаваць
рэгіёнах
кветкавых
Брытанскай
##змы
Is
##грок
##жала
##лкаў
bel
##ublic
Выву
Памя
клімат
Чэхаславакіі
Ed
Кро
Тал
Арка
Сака
праяў
роўны
Старэй
пісаць
падобных
спецыялістаў
##ім
##хах
350
##пуляр
Вале
Зялё
нападу
Кашалёў
каналаў
супраці
інтэрнэт
##ндзі
Ота
Эды
Дзея
нега
сала
багоў
весці
гравю
літур
##апрацоў
дагаво
знішчаны
сельских
вучылішчы
##саб
Ви
##дзеў
абмен
##дзілася
звязаных
музычных
турыстаў
Югаславіі
інструмента
атрымліваюць
>
##стом
Аку
алю
шчу
НКУС
шкля
паска
##вальных
біскупа
фальклор
##ope
##лагам
Капі
белых
зрэдку
касцёле
сапраўды
скончыла
грамадстве
дзяцінства
Магілёўскага
##фя
##ше
##lor
##карпа
##рыхтоў
Песня
Працу
абліч
##цінскай
##падобнае
Аўстрыя
створаная
##жи
##рань
Хут
посу
Конга
грэка
ектам
нязна
танца
Чарнігаў
чырвонай
аўтамабільнай
1876
Гарэ
Сабор
Перава
перажы
##матычныя
наступа
багаслоў
паверхню
пашкоджа
батальёна
гаспадарцы
палітычную
Уладзіміравіч
an
бал
##льцаў
Троі
ціск
архіе
назем
напаў
асветы
пірамі
каралёў
пясчаныя
адбываліся
называюцца
##рат
Пэ
##хода
банка
рыхта
##вальныя
Парыжа
прадзю
таўшчы
Адкрыты
Заходні
рэкаменда
уваходзіў
адсутнічае
падрыхтоўцы
разнастайныя
##ien
Cl
##ндры
Мая
##ніяцю
кару
##чнікам
Вікіпе
працах
дыстанцыі
распрацоўкі
##rad
##дом
##мед
те
##зель
##сант
гол
##завод
веда
Алесь
Якуба
пэўны
такое
уяўля
Швецыя
школах
ірланд
дзесяць
рымскай
здзейсні
##жая
РБ
рэз
агонь
Рускай
расчля
святка
успамі
фінале
яднаны
Скарыны
гадзіны
шырокія
паўвостраў
##рэні
##чыцы
##роўні
##стыцыі
узмац
Усходу
ваенная
кватэры
пакарання
Баранавічы
##фи
ездзе
нерво
чарга
##адварот
прадаў
захапіць
выпушчаны
ўпраўлення
травяністая
Феа
каа
любоў
фартэ
шлюбе
##пісанне
Італію
Палесці
праведзе
прыватных
##фрэ
##мала
118
кай
фай
яга
Паля
Ніжэй
восем
##тыўнага
Дзяржа
Польскага
іспанскай
чалавецтва
##oft
##вяшча
##ніцтвы
лагеры
займала
паўабаронца
Сацыялістычнай
##кого
Ком
арка
##славам
ахвяр
бакавыя
шматгадо
патрабаванні
##воі
##вата
Грэн
гняз
граб
нявы
Прафе
Славя
каран
паяды
разма
перасе
абазнача
належалі
прыродзе
рэжысёра
пражывання
працягвалі
скасавання
Міжнароднага
##пата
##фана
Літ
Цела
пласт
вылучаны
канкурэн
незалежна
распрацаваў
##гс
##став
##менаў
нена
спла
тыпы
фара
##чанага
Варта
сувяз
капіту
трамвай
##ступлення
вывучэнне
Sch
Меў
асоба
вопро
арэнду
важных
еванге
усходу
нарэшце
спрыяла
часцяком
уладанняў
прадстаўляе
Уа
1862
Адоль
войск
уплыў
кропка
размна
прыгажо
##вію
##жак
##нуюць
Баку
Серб
дыха
Кубак
Расце
англа
штаце
кляштара
муніцыпа
изменении
##НУ
Зы
##нобы
Спецыя
службе
парафіі
старога
ўсталёў
адкрытага
англійскага
паўнамоцтвы
##ньч
забру
прыла
Егіпце
гораду
гарадамі
фантасты
пазнаёміўся
электрамагні
##лёт
Сім
##рвана
Заме
паву
апраў
##нізацыя
Унутра
асобны
пячоры
завецца
законам
вылучаецца
##BC
##sch
##ніста
селя
хваё
ёмам
рэкла
Максім
верхні
продкаў
паселішчаў
фарміраванне
×
##хаі
Gen
Балі
Мета
адту
ракой
рэкорд
даскана
царквой
аднолька
дадзенай
відавочна
апавяданняў
Op
##дзем
##мяша
##плом
##ніцца
цыкл
Іосіф
пазбе
плыні
вырабу
Айчынную
каралева
народныя
прадметы
мясцовасць
пастановай
нацыянальную
ёю
Мале
Славы
падму
прымы
Атрымаў
тэкстаў
карабель
Сярэднегада
фры
##ноўка
Гена
Смаля
##Этнічны
##раваныя
Джордж
названа
асноўная
астранамі
драўляныя
магутнасці
праваслаўная
##кас
##сіс
##хар
##пілі
##элек
Ква
##падак
##чнаму
Бало
акцыя
метры
слабы
Дзяржы
чорнай
трапіла
шырокае
ўтварае
гістарычная
характэрныя
галоўнакаманду
Тан
Фон
##каюць
##наўна
1873
гату
Расію
народны
##дзо
##льф
##шна
Рыа
1772
Горы
катало
медалі
ніякіх
аперацыя
рэсурсаў
стралковага
##iew
##хто
Comp
Бітва
##водзяць
раўнін
рэльеф
строга
##працаваў
адзіная
галерэя
каэфіцы
рухавік
фабрыка
кароткай
мужнасць
пытанняў
Міжнароднай
Нацыянальная
##ma
##мпе
For
Mic
газ
ўмо
##шскай
высу
мясці
пажар
трохі
паваро
прылад
швейца
ажыццяў
павярхо
адзінага
замацаваўся
##cc
##arus
##гель
Хро
Ліза
упра
##рыйскі
колераў
паражэння
магутнасцю
Гомельскага
Уладзіслава
##жную
##нала
##аўтар
##летра
1865
Існа
Сістэ
планы
Японія
старэйшага
##ксам
Від
##канцы
##шаным
##каўказ
ізаля
апісвае
прынцып
кавалерый
##грам
Вяча
асна
Закон
цёплы
мовамі
Апошнія
мікрара
складаў
Беларуси
##erb
##нове
##рэлі
фія
##тыўны
Жыве
розу
грузі
жылыя
нядзе
##лекакор
Стэфан
залаты
змаглі
паліцэ
Сталіца
фарміру
распачаў
аднайменнай
падтрымліваў
##ign
зд
рап
Ліво
зыход
моста
знайшлі
перамір
камуніка
палітыцы
##бн
##вол
##кві
Алжы
выкі
Лівіі
ўспамі
асобнай
прадухі
яднаных
вырашылі
медыцыны
займалася
пасляваен
спрабавалі
каралеўскага
##тер
##eral
##нега
Ільі
закра
Узбекі
воінаў
нельга
праўда
рабілі
краінай
##лекакормя
адноўлена
працягвае
дакументах
заснаваная
дзейнічаюць
канстытуцыі
класіфікацыі
##yn
##рую
Бог
##данні
##енача
мяце
эста
##тнікаў
Міхал
кірма
ледзь
Апоста
кароны
здолелі
Напалеона
загадчыкам
адзначаецца
спадарожнік
французскім
Sc
##гром
##ераў
##назва
##торых
1815
Оскар
найме
паўна
кляшта
падвой
планет
снукер
срэбра
робіцца
партрэты
бесперапы
патрыярха
праваслаўных
##роч
##тый
##ция
##онка
езда
карпу
Юпітэра
рашэннем
ліквідацыі
##ax
##быў
##дая
##спяхо
алге
чара
##вальны
слуха
нязмен
старон
рэакцыі
уступіў
пашырэння
ўключаюць
тэхналогій
##грэс
увар
дарож
жылых
маючы
пажару
папуля
Некалькі
маёмасці
перапрацоў
##mp
##шыр
##мераў
Wind
Трам
даюць
узброе
жорстка
старадаў
узнагаро
забалочаныя
##цио
ФР
Порт
лужы
бразі
дрэвы
цудоў
буйным
дысцып
рускую
дыялект
незакон
партрэт
прычыне
кароткія
індаеўрапей
##таць
gov
Асе
Эфі
вяз
1875
вене
Лагой
Вільня
гібелі
каралю
фігуры
Еўразіі
малюнак
##The
##ton
##ксце
ПАР
Раза
##нічага
белым
клетак
нешмат
ўласна
Старога
Чырвоны
злучэння
японскай
параўнальна
карэспандэнт
спадарожніка
##ката
Кем
азо
##стках
Успе
архіў
гіган
перса
##дзяржаў
заклад
захопу
набыла
празаі
рухаві
групамі
мініяцю
пабудоў
кандыдата
культурны
прызнанне
##iel
Сіці
жыла
##галіна
серыю
##наўскай
##фармацыі
абгрунта
адзначыў
млекакормя
##ola
##oot
##сіна
ане
яблы
драпе
банкаў
партызан
фізічнай
вызначаны
звярнуўся
навукоўцы
называлася
наступнага
археалагічных
##дзія
##піна
Тома
армян
Эдуард
другую
наймен
часова
Албаніі
позняга
кантролем
##сін
##тэі
Яно
вуг
матры
Праект
левага
паслуг
епархіі
варыянты
Міжземнамор
італьянскай
##гся
КДБ
Мір
ліры
##нічная
межаў
увагу
герояў
хуткім
шырокі
сучасная
пацвярджа
навукоўцаў
правядзенне
##мскі
##рэна
Смо
Яму
##бажэн
1877
этап
зімой
дазвол
знакаў
Антаркты
Зеландыі
Савецкая
хімічных
##РА
##гета
##нням
1869
1883
Шэкс
##тлераў
##цыйнымі
карпара
мастаком
паведаміў
неабходнасці
арганізатараў
##Вт
##oda
##ктах
фане
аддаў
жывых
крыва
праста
Калінка
Людовік
датуецца
ахоплівае
дасягненні
#
##баль
##сары
art
Уво
##васто
##рэшты
Чаты
езду
##лектуа
археа
морам
бліску
рымскі
конкурс
марской
правага
чорнага
практыцы
здольнасці
нацыянальныя
##ES
агня
падаз
ўзгад
прыход
пражывае
індустрыя
міжнародным
высе
Дабра
пэўныя
вяскова
капітан
валоданне
яўрэйскай
здольнасць
Еўрапейскай
##ец
ff
Си
1820
пава
лінію
занята
пачаць
рабіць
хрыбта
выдавец
польска
задаваль
мусульман
рэферэнду
элементар
спецыяльных
##ere
##тлі
##нета
##ковае
##фесты
Улада
лісты
артыст
пасёлку
Скончыла
імкнуўся
Узброеных
узначаліў
чэмпіёнаў
пераважаюць
распаўсюджана
##зов
##пту
##хры
##ннай
Бія
туды
жанры
ўвазе
Упадае
кінатэа
праяўля
удалося
Францыяй
насякомых
Вільгельма
тэрыторыях
##ману
джа
уну
Нара
папа
сасу
Сканды
кветак
нашага
поўным
Свабода
Польшчай
Казахстан
пастаўлена
##нент
##ветов
##мскай
1814
Сена
ідуць
ўзгор
палова
спектак
лінгвісты
паўвостраве
##aj
##шке
##іды
оп
##еўна
##дзіны
Кузь
місіі
##рэдзіне
культа
моцным
капліцы
трапілі
ўчастак
рэгулярна
Нідэрланды
##зей
Go
##ліяй
чын
##довыя
капэ
кіла
хаце
ўзвы
карты
ворага
Візантыі
перавага
наадварот
прамысловых
##суа
жо
##насе
##пуск
##тыма
##чнікі
##штэйн
1200
Зара
##равалі
мілья
набор
гавары
калонія
рэаліза
прадукты
імперыяй
інтэрпрэ
пражывала
архіпелага
навакольнага
##квет
##ціне
Gre
мёр
##ction
##намсі
##няўся
сяле
згада
##тычнымі
Ваенна
дастаў
званні
кватэра
элемент
маёмасць
прызваны
Паўночным
вылучаюць
навуковым
зняволення
інфармацыя
культурнага
італьянскага
##каць
зброю
крэды
керамікі
харчовай
##ГА
##лс
##калі
Гро
НАТА
Смар
##ндская
вясной
нерухо
шляхоў
абаронца
ансамбль
##лся
##пас
##мато
1859
Невя
млын
Малая
Творы
разар
Жлобін
Полацка
знешняй
поўнага
султана
##падобнымі
Радзівілаў
прапаганды
камандзірам
##сп
##ale
##итеб
##сона
##кавай
Play
Такі
Ціма
двана
асобна
галавы
прапар
Решение
аднавіць
страціла
літоўскіх
абвяшчэння
гарадзішча
Балтыйскага
Магілёўская
неабходнасць
##du
##шцы
Крыжа
Прыба
ўсеагу
вышэйшая
граматай
тэрмінам
Інданезіі
тэрыторыяй
чыгуначная
##ans
##нск
##вічу
##сках
Эпі
##звано
анта
покину
Міністэр
паказалі
скарыста
цывілізацыі
##жым
##тча
##абра
пша
##тэрый
мяне
Петры
самае
##каваная
Канада
выявіў
старой
утвары
##чынскага
пераадо
традыцыйных
##go
##ціну
ага
рук
from
славе
уніка
паласа
унутры
абедзве
членамі
Выступаў
хімічнай
Верагодна
артылерыі
політэхні
духавенства
Баранавіцкай
##ai
##ner
##rat
##губ
##пур
##ксон
##шылі
108
Кля
Наў
##дскіх
Праў
Трой
агню
піва
Мадры
страва
інтэрв
Алімпія
асноўную
Македоніі
апавяданні
партызанскага
##ters
##біны
##тнік
Геа
##німам
ўзяў
непра
Босніі
зносін
назапа
пароды
Леаполь
возерам
захопле
крызісу
тэхніка
фартэпі
Галоўным
мінскага
папулярных
заставаліся
абсталявання
метрапалітэна
##зны
Імя
##жанай
York
заяў
белай
##водства
акруго
спроба
штатаў
машынабуда
##рно
Бун
ежу
##жаным
##жская
1700
доля
##падобным
запісаў
марскія
спалілі
чыгунка
Берасцей
аперацый
прыкладам
энциклопедия
##начы
Глі
##зімку
1856
Саму
лапа
сбор
току
Витеб
магло
трэні
астраў
рамонт
сястра
агенцтва
Напачатку
знакаміты
##ЛА
адсу
нары
Кубку
жанчына
сітуацыя
стартавым
выцягнутая
медыцынскі
##пін
##мета
##свед
Суд
бух
1872
базу
##нентаў
усімі
##гламера
сабраў
##нацыяналь
сканцэнтра
абслугоўвання
прадстаўніком
##ount
##брыя
Іта
бля
сяр
1654
##чыкамі
Фёдар
эстон
храмаў
эстафе
статусу
кіраваць
абвясцілі
палкоўнік
французская
супрацоўнікаў
характарыстыка
##una
ВНУ
##нарда
1858
Двух
соце
княжа
тален
Працоў
апарат
дайшоў
навука
робяць
ўскраі
вывучае
найвялі
гандлёвых
старажытны
##лок
офі
шана
##будова
##шкевіча
сканды
масавай
змяняецца
невялікім
пабудаваць
распаўсюджванне
##ain
##йцаў
1842
Дане
Сіле
веды
гета
давя
Window
Брэсце
хваста
ўчасткі
Літаратур
функцыяна
бібліятэцы
захоўвання
літаратуру
амерыканская
міністэрства
##ваю
##фля
шчо
Дага
фору
##ковымі
Plant
бяско
ўраду
##кладзены
Заходне
вядзецца
польскія
засталося
пасажыраў
аўтамабіля
экспедыцыя
Рэспублікай
##ване
##дзеі
Муж
##ліген
Другую
лёгкай
магазін
Кандыдат
медалямі
інтэлектуа
падабенства
размешчаных
рыбалоўства
He
del
##славе
сотні
сышоў
Хельсі
палякі
справу
легендар
субтрапі
сядзібнага
элементамі
арганізацыяй
##ors
##бон
##дняў
ДНК
рынак
акіяне
доўгіх
пляменні
росквіту
выступалі
выкладчыкам
галасавання
##ana
бэ
##дове
Капа
##мскага
##самоль
патры
прака
самім
хацеў
Ордэна
##беры
Пяр
Рэч
Мела
Шэкл
Каўка
чарна
важныя
мацеры
сродак
сцвярджае
імператры
пазбегнуць
##ак
##https
##ктыка
##цэнтры
##чынскі
вусці
мнага
падно
скарб
прэсты
Чарнобы
прайгра
простых
нашчадкі
расследа
вярнулася
заснавалі
Люксембург
Кастрычніцкай
##omo
Лос
ўпа
Cent
выні
ідэю
Жытка
рэста
вайной
рачной
камісія
Кацярына
рухавіка
турэцкай
беларуска
завершана
кінафесты
ўдзельнікі
кваліфікацыі
##ие
##бол
##зах
##пола
Аві
Язэ
##прыня
леда
паду
памеру
Салігор
Гістарыч
вызваленне
##из
кс
##доры
ява
1839
Макс
закі
игро
коліш
##вальнай
выпадак
кірунак
стадыён
дабрачын
ўключаны
падпарадкавання
##ya
##еди
##цэп
##дову
##болей
##тынга
Энцы
папра
запісу
кампанію
прэзідэнцкіх
##ксы
##ліфа
##нтам
БНФ
Коў
Фут
##дзець
аста
дала
неко
спры
##жанага
пойма
арбіты
галава
пяхоты
легенды
будучыні
фінансаў
Літоўскім
прамавугольны
##ніта
Пта
Само
натх
Залаты
гульню
Партыза
метадаў
валодаюць
будаўнічых
рэканструкцыя
##лма
##мая
##сфа
##віль
##рыст
##право
1794
2020
Паго
назі
пажы
падвы
сфера
паэтаў
##тычнасці
абмерка
кампакт
наперад
унутраных
ўзначальваў
##ett
##бкі
##ний
##сян
##цэна
##чвае
тыпа
Вайна
Сцены
Пакроў
адноль
насілі
кааліцыі
паказаны
чырвоным
дасягнулі
Беларускае
адпраўлены
распрацоўцы
##чачы
##довая
##сціць
##шаюць
жылы
копі
палеп
гавора
ціскам
сяржант
прастола
прынцыпы
Маскоўскі
нашчадкаў
Багародзіцы
грамадзянства
##oz
##ўны
##енко
##мава
##шамі
Мац
дало
карч
маёр
фрак
аздоб
гулец
Валожы
біблей
рознай
пасмяро
альтэрна
валодалі
склалася
экспарту
ўяўляюць
вяртаецца
далучэння
развіццём
скульптар
завяршэння
рэлігійнай
нацыянальная
##лцы
##бала
СНД
Хер
Нале
інфе
##нікава
Гарба
ўніка
падруч
фунтаў
Баварыі
выбраны
дзіцячы
манархі
палякаў
сабраны
сярэдніх
тэхнікум
пасольства
БС
##жнае
Rec
глу
Малы
лепш
##рыстаў
дапаў
Бярэзі
выйсці
папраў
фасады
пакрыты
пасялко
праісна
марскога
футбольны
##ome
Вэ
Хмя
##еланд
##раныя
##пусціў
дацэнт
мядзве
нібыта
пералі
Астравы
тавараў
Вярхоўны
Уладзімі
патрабуе
выступала
французскія
##men
##лёг
##пісах
##тэрыі
Кура
##пастаў
Марса
Чарль
аформ
##каўскай
знішчыў
набажэн
развіта
Прыкладна
гандлёвыя
інтэліген
Беларускія
рэлігійныя
забяспечыць
##кшта
сле
##сарыя
##шаўшы
Stud
райо
стуж
Месца
тамах
фінал
Рэвалю
крышта
траўмы
езуітаў
міжваен
Міхайлаў
водзяцца
дазволіў
землетра
выкладчык
ўласнасць
германскіх
карыстаюцца
##версе
##лкамі
кроп
знакі
Альгер
водара
загаду
Саветаў
Яраслаў
правілы
скараці
заклікаў
ўдаскана
Асноўнымі
Ламбардыя
Канстытуцыя
##ame
240
нам
ням
замк
полу
цары
эліп
##леўскі
белая
Гомелі
раства
калгаса
аркестра
дазволілі
скончыўся
распаўсюджаныя
##oll
УЕ
##нева
##тызм
Роў
ука
шка
##става
Мэры
алба
сада
меней
ўзялі
Марока
вуліцу
артыкуле
кантакты
лістапад
пацярпелі
далучыліся
##iev
##жуа
##фюр
##вель
##ктамі
##рэнню
шчыт
##графій
апроч
России
формай
ваяводы
перашка
заменены
індзейцаў
##19
##зеф
##рму
##ровы
Пал
##ленае
Рафа
пяча
##шскага
Замак
Рамана
гуляць
забілі
манеты
пісьма
злучаны
сімвалаў
ўключана
выкананні
расійскія
абавязкова
##ux
##ёры
##цтву
ГДР
ген
##мовіч
1600
аграр
##таўскай
Георгі
##лізуецца
пераста
выклікаў
галоўная
кандыдат
Дзяржаўная
педагагічны
распаўсюджвання
##AT
##СК
##ляга
Мур
Пле
Шко
стр
Рыча
сыну
граду
мігра
заняткі
Галоўнай
Галоўная
Кацярыны
дынастыя
савецкая
дзейнічаць
амерыканскім
##co
##блю
Соф
Марга
##циональ
уласна
Венесуэ
Рагачоў
клімату
крытыка
экспарт
Гродзенская
брытанскага
##ral
##іда
##мова
##рэзаны
##тавала
Томас
нізка
опера
царом
ізраі
##станцыя
хвароб
велічыня
злучэнняў
непадалёк
падтрымаў
ранейшаму
узбярэжжа
ўсходняга
папярэдніх
перашкаджа
хрысціянскай
##OS
##erv
1874
Укра
глад
раск
Партыя
Рудоль
войску
заходнія
прэзента
Віцебская
справазда
‰
Ки
Ілі
Яка
Мова
прымаць
Альфонса
заваяваў
народнае
Габсбургаў
##AS
Яд
аэ
Gro
Хан
Fran
БелАЗ
Сакра
балаў
зарас
шчыта
Вароне
трэцяе
цяжкай
Тарпеда
лідарам
нідэрла
прынамсі
ўласціва
Берагавая
невялікімі
цэнтральны
Аляксандрам
##цова
Art
Меса
Элек
бель
душы
знаё
июля
##штэйна
Сібір
Вылуча
адзіна
утвора
Ізраіля
Каманда
дыяпазо
гледачоў
захаванне
некоторых
падзяляюцца
падтрымлівае
##li
##nal
##воз
ph
фр
Хой
УЕФА
Эфіо
рэйх
сцэн
Група
Зараз
касма
крама
крамы
неафі
памен
разва
акупіра
вуліцай
станцыяй
паляванне
пачынаюць
інтарэсаў
журналісты
##oph
##зілі
##разу
Абе
Час
##istor
Белы
Вора
##сткамі
Мядзе
губля
вучобы
улікам
шырыні
Ісландыі
выпрацоў
дамініка
Лукашэнка
Французскай
абазначэння
##IN
##ism
##цем
na
ет
##зіяй
der
Изд
Паэ
Пісь
Мантэ
расся
клубаў
сяляне
сінаго
накрыты
групоўкі
кампенса
страцілі
кампазіцыя
цяперашняга
літаратурных
##мэн
##тся
ex
Soc
аспе
тыра
фарсі
званыя
старыя
танкаў
словамі
Галоўныя
каляндар
Транспарт
##жор
##віну
##куру
##лымя
##нным
ЦВК
рага
##нскаму
зямлёй
ўведзена
ўзначаль
панавання
тэлевізій
свабоднага
##кий
We
іе
##нген
тэм
##шчыка
Гале
ехаў
змян
разгар
саслоў
словаў
архіепіска
гістарычна
дыферэнцыя
##СТ
pl
##лтан
##ццам
Край
Лукі
храме
##ваючыся
Унутры
галаву
лепшым
спадзя
Полацку
Роберта
асістэн
пакрыта
абаронцы
майстроў
суднаход
хмызняком
драўлянымі
##нц
<
##att
is
220
алга
сіно
##рыйская
Спарта
аматар
прамым
чорныя
лічыліся
турнірах
гарадскім
публіцыст
тлумачыцца
абсерваторыі
##erc
Ge
##ames
##жага
гне
##шчыкі
Тала
лёду
##бскага
Друго
зборы
##каўскім
адрасе
дамамі
ліштва
Архітэк
бакавых
пашырэнне
фрагменты
адраджэння
двухсхільным
еўрапейскага
прыхільнікам
##St
##ОВ
##ous
##фію
##нгла
##ццем
##дання
##дараў
Стэн
Янка
Супер
истор
ўзоры
невысо
Венецыі
прыпадае
паветраных
электраэнер
ўзаемадзеяння
##ship
##дэры
##ерам
Без
мыс
адво
кора
сэнс
##логіяй
вытан
спыніў
тыдняў
юстыцыі
знішчана
Навуковыя
Складаецца
працягваецца
##era
##фард
##хана
##ology
##судар
Адно
Швед
ішлі
аспрэ
нагор
намер
падле
урачы
ўзаем
##ленасці
карані
Мексіка
кінасту
чатырма
Камітэта
паўстанні
плоскасці
##пыт
##зіць
##літа
Змі
Хра
Фаса
##рылася
пагар
сузор
Водныя
надзей
органам
прафсаю
прыйшла
рэчышча
энергія
Аргенціны
арганізоў
ўсталяваны
##гно
##кал
##мбу
##шалі
мне
##нейшы
Скар
Стры
роты
Карэі
Сезон
Тацця
карма
крызіс
македо
хрыбет
біскупам
мяркуюць
саступіў
Аўстралія
становішчы
супраціўленне
##АА
##рэла
##сібі
des
inf
Comm
Араго
Плады
цесна
##рыйскіх
стаялі
шчупак
турызму
Нарадзілася
медыцынскага
##гура
Зда
ход
##стэра
Куба
Новыя
узяты
іншую
Вельмі
алкаго
загіну
мініма
цыбуле
лячэння
Даведнік
пакінуўшы
цырымоніі
персанажаў
Сау
##вален
1832
Інда
глаба
Выхава
Запаве
Растоў
апсіда
цяжкіх
пратэста
называўся
найлепшым
абсталяванне
##хімі
347
Кун
уяў
улад
Дунай
бяспла
доступ
землеў
Ізраіль
Арменія
няправі
##водзілася
уведзены
існаваць
вызваленні
развіваюцца
##ща
At
уру
##сёлка
Маро
шкло
##дзіцца
Мерку
палёў
іерар
##годдзяў
Міхала
##лічваючы
афіцыйнага
дасягнення
найстаражы
##дых
Гю
##сцёр
зго
Клуб
##льніку
##плення
Нацый
Старо
гутар
флоры
ігрок
##мейства
Ціхага
быццам
разгра
Імперыі
высновы
маладога
зборнікаў
традыцыйнай
забеспячэнне
Іран
Абод
прыя
Індыя
верта
малая
пояса
##рэбраны
лясных
Марціна
восенню
здабыча
купалам
бальніцы
квантавай
кіраўнікі
радовішчы
фестывалю
##жыя
##конт
##ёраў
дэма
##таваць
Вакол
арэнды
военача
памерах
перапіс
музычнага
##іс
##шава
##ember
##шэвіч
кону
солі
акруг
ектыў
звалі
накры
Рычард
лясной
пранік
Малдовы
разбіты
рымскіх
дарослых
падаткаў
эканоміцы
##are
##rid
##неа
##нір
##тып
##воль
##змаў
Гей
сег
забы
Пскоў
сукве
Вольга
Джорджа
выйшаўшы
гімназію
кіравалі
поспехам
суверэні
застаюцца
Пецярбурга
гаспадарак
сімвалізуе
ўстаноўлена
##пто
##хна
##лужы
ган
дух
##ннікі
##тацыя
валу
етна
напр
стрые
##даўскай
##ндскага
Шаўчэн
працаў
праекты
найвялік
раскопак
самалёта
адмовіцца
павялічылася
##нгер
Ола
Ства
рашу
ішла
##водных
Таджы
горны
Крышта
вядуць
праліў
Джавані
аднаўля
паднача
тытулам
подписал
гаспадара
насупраць
##11
##ий
1796
Мора
Горкі
Трэці
блака
гонцы
тытула
адзення
правялі
праекту
правадыр
выходзяць
становяцца
даследаванне
праводзілася
цо
##тора
Шры
##ловіч
##мавіч
##нгель
двай
Антыё
Чорны
асімі
князі
падпо
право
Леанід
аднаму
Лондана
заходні
тэхніцы
узброеных
ўваходзіў
кампазіцыю
медыцынскай
каштоўнасцей
##uk
1845
1857
Пана
##тыўнае
Фланд
Адносі
Камуна
Пастаў
гэтымі
поўнае
выпушча
камандай
ўнутранай
сацыяльнага
гло
##рэчча
духу
Брагі
Дзярж
Персі
змена
такую
высвет
грунту
Выканаў
гарматы
свяшчэн
пабудавалі
функцыяналь
спадарожнікаў
##гей
##шах
##дзвю
воў
##роўцы
ўзбу
##раваць
##шэўскі
змену
служа
чорна
гітары
стаяла
##ворчасць
Антонія
захаваў
магілёў
паляўні
паступа
драўляных
Украінскай
рэканструя
перакладчык
Сярэднявечча
выкарыстанні
спаборніцтвах
##іл
id
##ении
Іаан
азія
асве
##нічнае
Цвіце
сайта
спыніла
дзеяннях
праграме
ядзернай
збудаванне
кіламетрах
паралельна
уваходзяць
##clop
Урада
згоды
метал
плады
прота
Арсена
Барана
Пятроў
абстра
Чэмпіён
летапіс
ядноўвае
пражываюць
рэалізацыі
прыхільнікі
##ack
Эў
And
ФРГ
акт
рыс
шкі
##дзеся
адкі
Джэйм
Сцяга
атакі
аналіз
настой
фіялета
ставіцца
аддзяленні
меркавання
адсутнічаюць
##зак
##эйн
ем
##куро
Cor
Lit
Кот
##лівыя
Ірку
нуля
фрэй
карні
бізнес
перакі
Георгія
дадатак
погляды
футбола
фільмах
адмовіліся
паўнамоцтваў
разглядаецца
##нал
ГАЗ
##білей
1792
Ваві
аксі
дэко
плён
Зорка
Пярэд
Динамо
Мюнхен
дзверы
завуць
кальві
цэрквы
Георгій
капітана
польскую
Беларуска
Выхаванец
носьбітаў
пераможцам
Грамадзянскай
##бна
##жбы
##шце
Wh
ях
##бцоў
List
прэс
цера
любой
чорная
Вітаўта
Каўказе
самалёт
установы
інтарэсы
цэнтральным
―
##нье
Pe
жэ
Дно
Уол
##чынай
##бавала
##дэбург
Вёска
Фільм
Жывуць
балета
лаўрэа
каапера
тэрміны
Асноўнай
адкрыцці
Дэбютаваў
падрабязна
налічваецца
##lin
##ris
##бела
##лопа
Сэр
узы
ўве
##ёнамі
Стрэ
агля
адмя
логі
акунь
вяшча
кіруе
мазаі
##каванай
відамі
колькі
адзіную
дэклара
перадаць
Пераможца
аўтаномнай
Gu
##stem
##шыла
210
##новах
1849
##ленымі
неалі
сасла
Дэпута
спадзі
Румынія
зялёныя
Перамогі
арачнымі
батальён
акупіравана
##дов
##слы
##няла
воз
уво
Аста
клубы
планта
апошняя
валадар
пустыні
філосаф
гітлераў
ўтварэнне
аднайменнага
##nik
##збор
##чыне
Res
Тэр
ачы
##сылкі
1797
Стам
выку
несу
##кладам
рэтра
даказа
фактыч
складаных
навучальная
размяшчэнне
##TC
##da
##псі
ФІ
##зета
##чыся
Асо
Нан
Сіно
Выбар
Летам
акцый
рэпер
##шчэннем
Грэнла
Кірава
аднага
курфюр
славута
утварае
Астатнія
Закаўказ
агульных
нямецкая
Энцыклапе
##ДІ
##skie
##ганы
##зная
Ідэ
спіра
факта
заняты
калоны
паўкру
шырыню
назвалі
районов
рэлігія
сярэдні
штодзён
пацярпела
збудаванні
прыпыначным
прамавугольнымі
##ler
##элі
##дыма
Ass
Ану
Баў
##ндскі
суму
##ograph
##жэннем
вясны
нейкі
фонду
правай
тэлеско
экспазіцыі
падрыхтоўку
эканамічным
хрысціянскіх
##міў
Lin
Бро
1846
языч
брамы
паласы
Усходні
абагуль
вучыцца
загадзе
гістарыя
канцэпцыі
складаныя
брытанскіх
рэзідэнцыя
каталіцкага
##дон
Беа
бое
Ніва
Шэра
панэ
віцеб
етнам
заахво
высокую
Бібліятэ
месцазна
##31
450
абі
шыі
##торый
Сант
лагі
мето
рэві
шкла
##cyclop
##насцяў
акіян
жанру
рабоў
жаночай
ігракоў
Міцкевіча
персаналь
польскімі
камандуючы
##ніт
##дзям
Дрэ
Окс
Лігу
хлеб
эскі
звілі
крылы
##мыслова
Паўста
апісаў
лёгкіх
Полацкага
выяўленыя
скрыжаванні
Гродненского
разнастайных
##ліла
Дон
Хол
##віўшы
ліцэ
брама
свято
сцвяр
запасы
падыма
Эдуарда
атрадаў
перасле
расстрэ
савецка
дыяцэзіі
асобнікаў
інфрастру
аўтамабілі
закладзены
##жур
##цье
эр
##льеф
##шаць
АЭС
зон
1790
1834
Капы
Мана
Шлях
няве
Класі
мірны
назоў
восені
вядучых
верхняга
дадзеным
практыку
шведскай
кітайскай
малодшага
грэчаскага
заваявання
некаторымі
працягвала
фашысцкімі
паспрабаваў
удзельнікам
ўдзельнікаў
##sz
##лоны
##міла
Сіл
##вешча
##народ
вяла
кубі
сачы
цэлы
масла
Шырока
народы
турызм
увайшлі
шэрагам
##ступленне
Брытаніі
знаходкі
этнічных
дасягаюць
Маскоўскім
##лэй
##штур
Бах
жні
рызы
ланцэ
Майстар
Хмяльні
бельгій
значным
функцыю
аўстралі
сусветным
ажыццяўляе
заканадаўства
##etr
un
##кель
вела
хана
штра
Самая
псіхі
валасі
цяжкія
Красная
мільёна
Сучасная
перспекты
тэрарысты
педагагічнага
##нет
##бран
МУС
##жнікі
##скрып
1853
лега
таем
друга
ўказа
зборная
населен
заключаны
збудаваны
ўзнікнення
рэчаіснасці
net
Уве
тая
##ніцкая
утрыма
штурма
вытрыма
перамен
ярусная
Манголіі
вывучэнню
савецкімі
фестывалі
публікацыі
супольнасць
супрацоўніцтве
##мбі
##лкай
##дскія
##зіцыя
1806
сыны
цюрк
ядро
выкры
турме
іншая
Сяргея
плотка
сепара
Праабра
багатыя
залатым
падання
разраба
геральды
пасмяротна
канчатковым
Атлантычнага
Qu
##пало
##хара
Тэк
Сіль
Тэўто
Кембры
жоўтыя
магіле
Залатая
ворагаў
маладым
Створаны
агульную
аповесць
дыялектаў
наступнай
паводзіны
атрымлівалі
прысутнасці
заснавальнікам
Плі
##жання
##сістэ
аўды
крым
##разуме
Новым
выдзе
касця
##ляваныя
карала
маладыя
савецкім
Фердынанд
вярнуліся
Маладзечна
##rans
Клаў
аптэ
даху
рамё
важны
Берліна
актрыса
падыход
##праўленне
Сонечнай
малюнкаў
ўключала
армянскай
разгортва
злачынства
расліннасць
##lo
##ni
іл
##йдзе
Фун
іль
##манта
экві
##аргані
##лінгаў
##шылася
вымаў
##инского
Europe
апуска
багаты
метала
блізкія
дыяметр
бальніца
залежнасць
археалагічныя
тэрытарыяльнага
##AR
##енні
##рыня
##ціла
Рэйн
двое
ніхто
травы
Латары
ўпадзе
Валерый
Верхняя
Пастаян
апісання
акупацыяй
дасягнуць
публіцысты
сукупнасць
Int
pol
зер
шпа
Хуан
##навічы
Бенга
гармо
класы
малой
набра
нацыі
пуста
Мазаве
Ніжняя
ацэнкі
стаяць
тройчы
выявілі
нараджа
перадач
атрыманы
зялёнага
запрошаны
культурным
тэхнічнага
Дэмакратычнай
##ca
##rop
##вян
##лат
##хра
##шло
Te
##трон
##лерам
##тонаў
1852
Льва
казкі
Абодва
Дзвіны
выехаў
работу
ваеннае
дзіцяці
калоній
паўстала
праблема
сельская
іканаста
перакладу
Еўрапейскі
забаронена
чвэрцьфіна
эканамічныя
інструментаў
##акія
##дань
##цюар
##ведам
1855
Адбы
Юзаф
Доўгі
дарад
арбіта
зямной
распра
медалёў
Франкфур
падножжа
Гарадзішча
памяшканняў
найбуйнейшым
тэрытарыяльнай
##леа
##уме
ых
Ізя
Суха
паго
пояс
##савета
Малод
Манчэ
Слуцк
набраў
сухапу
транзі
Пачатак
франкаў
ўзнікае
галоўныя
перамога
раскопкі
~
##зуа
##рмо
##меда
##пень
##ннага
Сбор
Герман
прыкры
рымска
крытыкі
пазіцый
пераназ
пагрозай
выдадзена
выкарыстаў
кіраваннем
яўрэйскага
архітэктура
матэматычных
эксплуатацыю
##чэў
On
##ргіі
1818
1847
Мікі
шыра
##равана
Армія
альпі
зволь
Галава
берагі
зялёны
медаля
экстра
камбінат
чацвёрты
аддадзены
мерапрыемстваў
##фен
##дзец
ляс
іму
Смер
воды
фізік
хвале
дэталі
Вікторыя
акадэмік
галоўную
пакінула
Мяркуецца
Усебелару
адзначана
перасякае
саманазва
грамадзянскіх
##erg
##бом
##кое
##зона
##магі
Плу
кух
юні
##часна
Яўге
плац
##еўскім
##чэнцаў
Мюнхе
Латвія
аблічча
мінскім
чэрвень
злучэнні
студзень
перавароту
##que
ны
##матра
##роўку
Парт
аргу
зону
набе
##чанняў
мяшча
тарфя
Каліні
Утвара
версій
дэсант
камяні
нароўні
святара
вадкасці
падоўжыў
кіраванні
дзяржаўную
прысвечана
пілястрамі
майстэрства
##41
Кю
Шк
##line
330
1837
брэс
папле
спект
Анаста
Веліка
аблогі
накшта
Горкага
Сборник
абедзвю
засярод
камянёў
масавых
Віцебскі
гандлёвы
паставіў
прапанову
выкарыстоўваў
##ari
##пых
##рэм
##вязь
##ксан
##рэта
аты
1810
Грын
аква
вікі
шашы
Гітле
водгу
вяліз
глебе
камун
пладоў
удзелу
аднавіў
атрымоў
мясцовы
прыбылі
салдаты
называцца
Гродненской
ўдзельнічала
Gr
іў
##мбле
Ігу
Рух
##клады
1780
Энер
арку
горныя
чацверы
вадаёмаў
народная
сапраўднае
цэнтральных
##льба
lib
##ентаў
дзвя
тура
Апера
Эстон
прага
яўрэі
буйной
народу
здольны
кантакт
міліцыі
штогадо
ўласныя
накшталт
фізічных
чырвоныя
расійскім
карыстаўся
ўтрымлівае
настаўнікаў
натуральных
выкарыстоўваючы
##мене
##рады
##тлер
##чань
##ючая
res
##нутых
Мало
Орша
Оршы
абля
##пленне
Зоркі
Сінга
луска
рангу
Паверх
вітамі
знакам
сённяш
Асамбле
галінах
дазволу
знішчэння
папулярным
папярэдняга
расліннасці
##se
##ank
##йда
##эдзі
Пап
дуб
Брон
кроў
нала
Дэрбі
няроў
рухам
моцныя
Каўказа
Чалавек
ўзніклі
асобнымі
рашэнняў
Евангелле
мяркуецца
дадатковыя
даследаваў
дэпартамент
##son
МТ
##чова
##кавым
Зава
Міко
хоры
ўнія
##часцей
сябры
цёпла
Англію
каменя
спробу
статуі
зацікаў
прыехаў
фестыва
пераслед
фальклору
імкнуліся
амерыканскія
парламенцкіх
спаборніцтваў
##yt
##amb
эў
##льфа
##маны
кап
лая
Сафіі
адтуль
нізкай
плацдар
разгром
агламера
заходняя
арнамента
ствараюць
генеральны
##АК
##Агу
си
##стго
Вая
акрэ
срэб
Быхаў
даўга
турмы
тэкта
##пусціць
Уэльса
раёнам
Брандэн
Капенга
Палесся
дзясяткаў
папулярны
кампазітара
літаратурны
сацыялістычнай
##ньі
##хун
##німы
##тыва
Эрэ
гук
1791
1801
1854
адлі
##льнаму
агнём
падае
переш
ваяваў
вёсках
ліпень
нізіны
самцоў
##дзеяннем
##лоўскага
##матычных
Кракаве
ўласнай
паверхня
уваходам
займаюцца
венгерскай
##no
##orm
##була
##рыву
Пія
##незій
Каса
УССР
атая
зару
нака
пакоі
сесіі
служба
фільмы
партыяй
патрэбы
American
National
Першамай
жыхарамі
зборнікі
Чыгуначная
англійская
дэмакратыі
##rit
##кіа
##рба
##нгам
анё
##лягае
##сіяна
##фрасі
Дэві
Слаў
ваку
гама
палю
русі
ёзна
цераз
Штатаў
буржуа
лекцыі
аперацыю
Багдановіча
##any
##жку
##тыю
##троф
##рэнца
лесе
ліга
мему
нады
##тоўскі
Лявон
Ноўга
беска
рытмі
заводы
##легласць
вынікае
камента
Полацкім
абмяркоў
дзеяннем
завяршыў
каменныя
прастору
Фінляндыя
вывучэнні
Беларускую
каталіцкіх
цэнтральная
##35
##тля
##льтра
5000
Бура
Трэн
Мёрфі
гіпер
рамон
##дзеянні
Мікола
здаўна
маштаб
##Агульная
атмасфер
манархіі
еўрапейцаў
аспірантуру
каштоўнасці
Баранавіцкім
апублікавана
захворванняў
эксплуатацыі
##ij
##yd
##ów
##бус
##лос
Сур
Хор
##зераў
##фільм
вочы
пазы
абрад
ведам
вузел
тыдні
буйная
кропкі
кірылі
объеди
паслугі
рэгіёну
сапрапе
служылі
бальшаві
традыцыя
фактараў
Васілевіч
кастрычнік
ўмацаванні
спецыяльныя
##ino
Air
Пол
##сабля
1836
Open
апал
Акцяб
Ліста
мудра
насіў
сімфа
шэрага
Сатурна
брыгада
заняпад
малюнкі
развіты
##вальнікам
вайсковай
трапічных
арыентацыі
драўлянага
прамысловай
рэстаўрацыі
дэпартамента
павялічваецца
##зіў
##дзір
##чный
Sci
лат
выце
збег
като
##йскімі
Памор
манда
даўжэй
лясамі
мульты
рэзалю
Франсуа
англіча
замяніў
паветры
герцагам
святароў
транспар
звычайных
сцвярджаў
ўзброеных
настаўніка
аграгарадка
чыгуначнага
Pa
##ндру
##снік
Мах
аша
1809
trib
Юлія
##цінскі
Браўн
праро
профі
рэчаў
жоўтага
законов
пытання
Брэсцкім
прызнала
выклікалі
пасяджэнні
напярэдадні
правядзенні
##дэй
##зур
##ress
##чары
##ности
Раён
абва
асла
Жыццё
Каспі
арэне
назве
арышту
правам
Сістэма
служаць
выканана
Народнага
арганізма
вырашэння
вызначаюцца
US
##гнен
##тлаў
Mag
Ава
##ногіх
1833
міра
##прэсія
Вызва
Расці
аэрад
папоў
крытык
##большага
Матэрыя
ваявода
называе
Вышэйшую
наведваў
названая
пакрытыя
настаўнік
эквівален
уваходзілі
перабудаваны
##руа
##сцён
##чара
Ger
Ані
1648
Тэха
Фрон
##рыстам
Касту
выкра
Шырыня
палёту
паперы
Тэмпера
пасёлкі
Жыгімонт
Прафесар
поўнасцю
універса
Заснавана
Шматлікія
эканоміка
пазбаўлены
спадчыннікам
распаўсюджанне
##ам
##iam
##кцы
Co
##вена
##чака
дро
Ірак
канс
Людзі
бывае
малыя
##неславя
алтары
кукуру
агульнае
усходняй
Фёдаравіч
змянілася
налічвала
нацысцкай
Смаленскай
сельсавеце
##зга
##моц
##дура
Dis
##куляр
удар
##джаных
##ніцкім
Патры
Такая
##нацыяна
Лейпцы
любога
нелега
нумары
станцый
сядзіба
Фларэнцыі
ваколіцах
дадзенага
літаратурна
спецыяльнай
Прадстаўнікі
##гім
##дку
##мфа
##lass
##лара
##шкай
мор
сін
##мерна
атле
бягу
##нічаць
сляды
вегета
Наталля
Сучасны
абавязкаў
афіцыйная
выпадкова
звычайнай
абмежавана
абмежаваны
гісторыкаў
адпавядаюць
маскоўскага
че
260
ski
Хен
арх
ёмі
##менка
##рэвіч
##трына
1835
Галу
Галь
Зага
блок
Чэрве
мексі
Уключа
каралі
блізкіх
вучэнне
турніраў
эвалюцыі
выступілі
планавалася
рэйтынгавых
падраздзялення
##ER
##сне
##энь
##ахоў
1775
1841
Када
велі
##лістых
косці
рухаў
трагі
грэкаў
забіць
Дэпарта
званіцы
першымі
рэльефу
Заходнюю
вяртанні
ствараць
грэчаскіх
прызнання
Баранавіцкага
прадстаўніцтва
##лея
##мец
##яны
вэ
##цьмі
Іар
Гва
Спо
рыф
##ution
Пасе
кодэ
##ворыць
##стоены
Нават
армей
касцю
рабіў
ўзяць
Асацыя
апісаны
вучоных
дзевяці
самагуб
вінаград
спосабам
##білітаваны
старэйшым
цыліндрыч
меркаванні
чалавечага
павелічэння
размаўляюць
##ash
##ань
Ag
пр
дол
##рыўся
##тыднё
1828
1829
##джанне
Сцюар
вывяр
лепшы
##раваных
##сцерага
Склада
Турцыя
абстрэ
вароты
##прыканцы
немцамі
Брэсцкая
намінацыі
падпісалі
паўстанцы
пабудаваныя
прысутнічае
##КСМ
##бож
##пёр
##фан
##жамі
##штам
Бял
дак
зай
1843
Анры
Ліса
##нейшым
Артур
Пасту
мужам
палях
цыкла
адыгра
музеяў
назваць
інвесты
будынкам
прызнана
малекуляр
федэрацыі
выбаршчыкаў
##дла
##іла
280
1566
Brit
Зако
Лаза
Міра
Эква
Дубро
Якава
лонда
патро
##тавання
Светла
абмену
чорных
простыя
ўбачыць
вядомымі
Чэмпіянат
Мік
іна
1822
1851
Ліда
Сяля
разе
руды
Times
Майкл
сетку
Сардзі
дыплом
пошуку
прынёс
состав
указов
пракуро
растлума
Стакгольм
мясцовымі
атрымліваў
грамадскія
паслядоўна
расчлянёны
свядомасці
фізіялогіі
вырабляецца
##По
Оў
Аза
##чанае
Пата
газаў
таксі
званай
падару
траўня
Паходзіў
прызнаць
звычайная
паўднёвая
Фердынанда
наступленне
адлюстраванне
супрацоўнікам
##зду
##зне
##мыш
##ogle
##тран
Клю
##ляючы
##лівае
1821
1844
Моги
лева
##пісаны
Ніжні
Пачаў
поста
шляхі
мадэрніза
каталіцтва
еўрапейскія
падтрымлівалі
Канстанцінопаль
##іх
##ony
##вро
##рол
ав
##сені
Rev
Юры
упа
цел
##даючы
1819
Фрэн
сфар
##тыўным
бачыў
павод
рэцэн
пачало
яднанні
насельні
перайсці
ўжываюць
памяшканне
двухпавярховы
##зеля
##рдаў
##слова
Магу
нарад
прамой
продли
апсідай
каледжа
паўтары
прымусо
Калумбіі
заключыў
міністэр
прайграў
выпушчана
арганізмаў
палкоўніка
ўкраінскай
##17
##cz
АБ
Eng
зуб
руб
дэка
злёг
##рэвалю
Івацэ
жоўты
класе
манеў
падло
выліча
ансамбля
часткамі
гісторыкі
фарміраванні
універсітэтаў
##las
##ual
##рыа
##знай
##нінай
1667
1826
Сафі
Трох
дзяр
дубо
меза
Перыя
знізу
балота
дажджа
спакой
Пушкіна
Усевала
буйнымі
вадаспа
мянушку
шырокую
адкрытых
нечакана
патрапіў
распасці
рэпрэсій
спявачка
сістэмах
Рыгоравіч
наваколлі
фартэпіяна
журналістаў
міжнародныя
прыродазнаў
##yp
Ни
ес
##рыса
##чоны
бро
кашу
паез
рота
##раўскі
Ігара
порці
район
руска
фельд
Раства
роўныя
барысаў
трэнера
заняткаў
капіталі
асноўнымі
геаграфіі
дэманстру
скасавана
тэхнічнай
Чарнагорыі
кмАгульная
пабудаваная
Незалежнасці
Распаўсюджаны
падраздзяленні
##IS
##yr
##ЧА
Bo
##нцам
Вал
Сон
нор
##полыя
Мель
Хігі
ваза
змеш
скаў
браня
марак
Віталь
адвака
блізкі
герман
камеры
пазало
вольным
Акадэмію
механікі
мінулага
хуткасцю
архіпелаг
палявання
памочнікам
##ас
##вил
##вій
##зян
##фея
do
Мю
##говы
##мунд
Bel
Lib
Sal
Юра
луч
##ронта
##севіч
1817
куба
масу
##шчыкам
Белая
Чарта
ахове
##наўскім
запісы
кадраў
ранняй
чвэрці
шведскі
прыязджа
веравызна
каштоўных
навучаўся
накіраваў
рацыяналь
інжынерам
паведамляе
спалучэнні
Азербайджан
традыцыйныя
##меа
##хма
##само
##фран
360
Яге
зро
поп
шоў
Лепе
Турэ
Марці
Форму
думка
культ
Гульня
Трэцяй
абраду
абшчын
важнае
заняць
сценах
філіял
рэнесан
дыялекты
здольныя
кансульта
Скандынаві
вайскоўцаў
доктарскую
лацінскага
ўтрымліваюць
##icz
##ild
##тэм
##паве
Сал
днём
каго
##лагамі
##ніцкіх
жонку
сцягу
увагі
званая
музыцы
нарвеж
поўная
чарапа
глыбока
паступо
сваякоў
гарнізон
сабраныя
супраціву
Трансільва
культурныя
##ohn
##ліцы
1807
Баль
абмы
гука
юрыс
##льніца
Альта
Бавар
Верхня
Львова
паслом
дзецьмі
лютэран
прайсці
снежань
Акадэмія
губерняў
музычныя
польская
назіранні
павышэння
прыватнай
складанай
яўляючыся
прэфектуры
Championship
##ргы
хе
##коса
Rep
Афар
Стро
Тэрэ
квіт
тапо
##нальны
Кастэ
зброя
##матэрыя
будовы
гулялі
паразі
праёмы
стылем
уладаў
жаданне
вагаецца
выстаўкі
прынесла
Галоўнага
сканчэння
беларускае
заключаецца
Праваслаўнай
ўзнагароджаны
##ио
##жэла
##рокі
##скон
cod
Вац
рус
##плекс
Бата
Восе
Віта
гома
капу
мело
ўліч
##ournal
прылі
садоў
снега
строй
прынца
фальва
##раўскага
кароткіх
стромкія
створаныя
выступаюць
праяўленыя
тэмператур
бальшавікоў
##пен
##леты
Кап
##цэнта
1783
Аран
фірмы
Замест
зброяй
юрысды
Брэсцкі
апарата
поспехі
Шэкспіра
гадовага
падобная
пастаўля
сучасную
высакарод
спалучэнне
традыцыйная
##ON
##зве
##нон
ro
ен
270
Mas
Мяжу
Папя
Раду
віда
Север
надае
Справа
злёгку
поўную
разгро
Аляксея
братамі
верталё
сувязяў
называць
апосталаў
даследчык
пераклада
Каліфорнія
Шчыльнасць
##пал
##ited
##ound
Уіл
вад
Буха
Гняз
Лета
віру
Працэ
Флары
Юзафа
вугле
дэкрэ
Белага
багіні
франка
шырака
гарызон
спрэчкі
ўласных
актыўных
пакаленне
дваранства
прадстаўніка
##еа
Й
##пом
##тус
ая
##rary
Met
Каі
лоў
##ласцю
##хвалі
1813
валы
жанр
Андэр
Драгі
кухні
расшы
храмы
Нарман
песняй
пераўзы
раманаў
тэрміну
Encyclop
Бабруйск
выпусціў
прыгарад
рухавіком
катастрофы
##ДУ
##ase
Зве
блы
сму
тую
ўцё
##зуюць
Дома
Куры
Расо
лікі
мата
Дэвід
рэках
сядзя
##наваная
Італья
Амстэр
зліцця
кругля
ляжаць
сканда
##тоўскага
маёнткі
паглына
энергію
Палескага
адказнасць
беспаспяхо
знаходзіць
мужчынскай
##32
##сов
ТБ
##rist
##леры
##накш
Кві
уба
цык
жыло
тапа
##дуецца
прозы
Мядзве
Падоль
уплыво
Свіслач
бываюць
жнівень
паліцыя
адзначае
змяненні
нападнік
класіфіка
националь
рэспублік
фальварак
чалавечай
англійскую
археалогіі
арганізавана
##сс
##рыф
Бон
##ступы
##славіча
Micros
спрыяе
Палессі
советов
Балгарыя
забудова
органамі
стварыла
Швейцарыя
сусветных
ўнутраныя
карыстацца
назіранняў
травяністых
электрычнага
##йны
##ates
##рэжы
Блу
Уль
Хад
мед
##боўка
##лівай
##навіў
##плане
1773
Скот
нашэ
стал
##чанымі
Памер
зубча
лугах
раскі
тракт
палаты
Сталіна
дзевяць
зносіны
камедыі
нумарам
Сучасныя
моладзевай
пацвердзіў
наведвальнікаў
##yl
##her
бог
ібн
##касць
##цэвіч
Мані
буры
##джаная
Самыя
Франц
Эдвард
адвагу
Мексікі
епіскап
народам
пакідае
дысцыплі
падтрымкай
работнікаў
##hel
##нян
Ab
іа
##неса
Луц
адо
##ціцца
Дада
Еліза
прынц
розны
ўмяша
Кожная
Служыў
агрэга
адапта
афіцэр
наконт
рамане
tribuna
галакты
майстра
фасадзе
Асноўным
Леанарда
Развіццё
аўтаноміі
каралеўскі
пастаяннай
канструкцый
геаграфічных
уладальнікам
##65
##чава
Агра
Каха
Сваю
##ерасій
адрас
левай
паэма
родам
апсіды
газету
фабрыкі
імперыю
выконваюць
ўтвараюцца
объединении
павелічэнне
##НС
##ena
##куе
##мян
##чцы
##зайн
##сткаў
##стрыі
##туюць
Араб
руча
Дзіця
Токіа
папаў
турму
Карлам
канале
Вялікіх
барабан
венецыя
прымала
Міністра
Напалеон
іспанскі
Усходняга
актыўнасці
правадыроў
генеральнага
##зных
##пана
Элі
##канцо
1803
##туецца
дошка
коней
матча
палом
асобай
сканаў
##лінскага
Антоніа
История
здолела
карціну
могілак
сборной
чырвана
вопросах
вырашаны
нямецкую
Францішка
ўтрыманне
віленскага
праводзілі
ўтварылася
развівалася
супрацоўнічаў
##дзэ
##зіс
it
СІ
##жках
##слав
##шова
Ахо
##мяцца
##скапі
1816
Адпа
адрэ
##метрыя
##разовы
Публі
казаў
нарка
##ктыўных
##тарктыч
вёскай
канвен
паасоб
ўсклад
асобным
знешніх
наступу
бронзавы
магчымым
участках
пахавання
васьмігран
каталіцкая
перабраўся
прыведзены
Адрозніваюць
##Вы
##ель
##жом
##цава
BBC
Зам
тре
1802
каса
любі
марфа
Генерал
Слабада
назапаш
Бразілія
глыбокай
зборніка
Паўночную
абавязаны
Гродзенскі
накіравана
пратэктара
губернатарам
канфедэрацыі
найважнейшых
##Ка
##ark
##фме
El
Me
абл
дне
##ненню
1825
здра
Барба
карон
нормы
сардэ
сутыч
##карыста
Даклад
Конрад
прытокі
сястрой
тэлефон
дробнымі
дывізіён
Пакістана
напісаная
напісання
сапраўдны
старонках
прызначэнне
##бая
##ніч
##бяга
##рата
##свят
Her
слі
ёме
Ганд
Касі
даве
мона
сент
эфір
Армію
Вадзі
Дзеці
візуа
##тэрміно
Белаве
##каўшчына
дадзена
мінімум
упрыгож
чыгунцы
агульныя
азначала
надпісам
матэматык
платформы
падпісання
каштоўнасць
рэгістрацыі
партызанскай
##ВА
СБ
сэ
##перш
##марфі
##нутай
##нінам
Ново
сіні
драмы
##нецкага
##тэрынар
Даліна
Жанаты
Караля
людзям
Севасто
дыяметры
вызначэнне
завяршэнні
парламенце
млекакормячых
##дэш
##льн
##сом
##шал
##лайн
App
шар
##завыя
Пато
Свяр
выга
дына
Алеся
Мяжуе
схілы
Грэцыя
Крыста
адкрылі
выстава
захапля
нападаў
Дзмітрыя
знішчылі
мадыфіка
звольнены
пакаранне
зацвердзіў
Цэнтральным
IP
Дэн
Оль
Чац
##тэрам
1808
душу
дэпо
Андра
Непту
прыме
стэпа
фікса
фірма
##магчыся
Сцябло
Франчэ
горнай
адзенне
выявамі
падобна
сектара
друкарні
цягнецца
Паўднёвым
Праабражэн
разбурэння
адрозніваюць
дэкаратыўныя
##зова
##няме
380
Ліх
Шпі
##стыка
аліў
журы
лопа
лінь
прыг
рамя
##ленаві
Вызна
храна
хутар
яднаў
вучобу
курорт
моцнай
суднаў
змяніць
паўстаў
абедзвюх
вяртанне
самалёты
аказалася
французаў
архібіскуп
грамадскім
папулярнай
гаспадарчыя
##ball
##логи
##ensis
Ваты
адста
запоў
княгі
Астроў
Лаўрэн
званых
методы
набылі
вышэйшы
фасадаў
шпіталь
паступае
варыянтаў
дамагчыся
паўночная
рэзідэнцыі
беларускамоў
##air
##шны
##галь
##зялё
##ляна
##скур
##сціў
##тоне
Лік
Рад
1811
1824
Круп
Неда
Пірэ
пасу
рашо
вокны
стало
##ворыцца
Сапраў
грунта
заваёў
лідара
навуцы
продаж
ўлетку
##каванага
Апошняя
зараджа
калегіі
трапляе
Паверхня
асобнага
здагадку
паказана
мастацкія
ужываецца
Каталіцкай
##ере
Fr
##ings
112
Аст
##бачка
Драў
Скры
Алены
бралі
вяршы
давед
Сербія
багата
белымі
важнай
вектар
дамага
мелася
псіхія
правяла
пэўнага
састарэ
гаворыць
занесены
стаўленне
установах
германскай
пагадненні
палітычнае
ствараецца
##61
##ty
##быць
230
Min
ваў
сек
умо
шаў
##бергу
##леную
Дырэ
##ктыўны
Гаспо
прасо
указа
ўвага
мірных
полюса
рускім
рэдкіх
Сусвету
масавыя
перасоў
рэгіёны
##графічныя
вышэйшую
вядзення
зробленыя
прэтэндэн
вызначаюць
сацыяльныя
архітэктурных
##ve
##шчаў
Выя
нау
##грамы
##ламоў
Абха
Дара
Фрун
узвы
ішоў
манет
падся
разум
Святых
востры
ўдзеле
##ходжанні
Варшава
Увосень
апошняе
вандроў
пракура
шырокая
астэроід
давялося
прывесці
спраекта
драўлянай
жывапісец
змяшчаюць
ўсталявана
рэзідэнцыяй
сцвярджаюць
Генеральнага
працягваліся
энцыклапедыя
##angu
##гімі
##чаму
##евіча
##шанае
Arch
Арта
Нікі
малы
прар
рана
целы
Голас
вырас
Косава
звонку
##водзяцца
##земнамор
Эстонія
выданнях
дзіцячай
сыравіны
асабістай
капітанам
перамяшча
украінскі
беларускімі
прысутнічаюць
распаўсюджаная
##33
##пру
##льме
##шскі
##жанні
##лівым
##рычны
Ніге
Рыба
рэнт
##ніцкія
Месяц
Садру
Супра
самкі
суткі
сюжэт
##кавацца
бульбы
##менскага
Значная
дваццаць
поглядаў
Сацыялісты
распрацавана
##ют
##ara
##eng
##цян
Ac
Жо
##скет
дзё
1804
Загі
хаты
мульт
нукле
няпоў
падка
Адразу
Катало
афарба
секцыі
Варшавы
епархія
станцыю
##графічных
асяроддзе
каталікоў
адмовілася
англійскіх
камуністаў
канфліктаў
фінансавых
##ha
##urg
##onom
##жнік
##мары
You
Ужы
1789
абут
веру
выця
Магну
актуа
паўзу
смале
водных
гульца
формах
дамогся
перамоў
пратако
тканіны
##аўтарстве
Аўтамабі
адкрытыя
дапамога
зачынены
насялялі
прычынах
стадыёне
чырвоная
вызначана
выступіла
абумоўлена
##нью
##токі
##шыны
Sup
##вораў
##горыя
##ненай
Спра
раба
Паўлу
Плані
колаў
сінгл
##війскай
##падобна
атамаў
словам
Гарадок
Чырвона
##ходзячыся
дакумент
завостра
Сяргеевіч
дапамагчы
чыгуначны
ўзнікаюць
знойдзеныя
паходжанні
канструкцыя
старажытная
##OR
##vel
##льчы
##ника
##тыяй
Абі
##плены
##роглі
Знак
Туры
лешч
Совет
былым
ветру
вынай
прале
##паўнава
Бенеды
Маладо
Масачу
##кладання
##лагічную
Святапо
вагонаў
раўндзе
сустрэча
перавозкі
Найвышэйшы
адраджэнне
сутыкнення
італьянскіх
##oj
##ЗС
##зун
##рев
Tr
ВІ
##тону
Мэн
##лкова
Спро
пабы
усім
апеку
ювелі
засноў
здзяйс
новымі
мітрапо
сядзібы
Паўлавіч
бакавымі
знешняга
адкрылася
вышэйшага
апавяданне
ўнутранага
##ід
##цям
плю
##санам
##ствен
1799
Віла
Твор
гару
папы
роды
сума
##ніцамі
Падзя
відам
макаў
самак
##нальныя
Заслаў
Партыі
Статус
Шанхай
падпіс
руская
экспан
##ступіўшы
Хрыстос
адзінае
выпадкі
галавой
малюнка
паходзе
саўгаса
месціцца
рукапісаў
ўварвання
Гомельская
бібліятэку
Варшаўскага
Тэмпература
прафесійнай
Заснавальнік
Гл
##писо
##рыян
Rom
лац
лэй
мац
том
1788
1838
Арцё
Міка
дзіў
свят
спон
этно
Music
Жонка
Свярд
архаі
натоў
цяжар
Прымор
Тройцы
версію
вярнуў
падзея
дапушча
змяніла
супадае
Рымскага
высокімі
кандыдатам
шчыльнасці
##нацы
##штай
Сям
лег
сен
Баге
Зэль
Ляха
Русь
дума
цяга
вечна
індуі
##ктыўныя
Чыкага
дыяспа
задача
зместу
кальца
малака
падгру
статуя
адказаў
вулкана
Вадазбор
вымушана
заходнюю
прынцыпу
свабодна
касмічных
навуковая
партыйнай
абсталяваны
венгерскага
міжземнамор
паведамленне
##дот
sv
##ance
##бона
##ским
##штаў
Лен
##ненты
##цісну
гімн
крыло
прыха
Міхась
арэала
лісцем
старан
атаясам
вернуты
вучэння
арабскай
паходзіў
следства
Microsoft
венгерскі
прапановы
выяўляецца
пагадзіўся
электронаў
Гродзенскім
забалочаная
дэмакратычных
літаратурнага
мерапрыемства
##74
##ull
##заду
##зджа
##памо
##тлан
All
Аве
чут
##нешні
Гано
Дрэз
бала
семі
##роўскі
Дуная
Самым
консу
купал
прачы
спева
акушэр
вывезе
дабрабы
творчай
актыўным
гімназія
красавік
Прадпрыем
прадметам
рэжысёрам
царкоўнай
Сусветнага
нагадваюць
ператвораны
Li
Se
##бека
Гло
мяч
##рынга
info
сана
скра
таям
казак
рэгла
узвыш
##манстра
##рычнага
Record
System
Марына
Самалі
грыбоў
пэўную
##бургскай
##графічны
Найболь
кахання
спрабуе
сентября
эстафеце
гісторыяй
папулярыза
распавядае
дрэваапрацоў
паведамленні
##вою
##нят
##спы
sh
##book
##ргыз
##ртуа
Can
Апе
Эфе
##ondon
Дзве
зіму
фель
хвой
запас
судоў
Даслед
Смарго
моўнай
эвакуа
##наўленне
рабства
Культура
злучэнне
малодшым
прэтэнда
фельдмар
каменнага
армянскага
тэлебачанні
Сярэднявеччы
##ska
IB
er
Чо
Кве
Крам
Сайт
Сямі
##бленне
Данія
Навасё
пракла
прылег
раннія
фігура
шукаць
надпісы
перешел
саступа
фальвар
Хрысціян
прынеслі
цывіліза
Археалагі
навуковец
тэлебачання
##75
##НІ
##РК
КК
мё
##вада
##гнаў
##фамі
Сэн
Эрн
##перак
##чынка
Заба
Пачы
высі
ногі
салё
шары
##шчанка
Корпу
Уздоўж
Уяўляе
Франца
правер
Таджыкі
пачуццё
рускімі
Новасібі
ўласнага
ўжываюцца
мітрапаліт
гістарыяграфіі
##ree
##маш
##ржэ
##хін
##сіма
##ёвай
##серыя
##целем
Пада
яйкі
ўніз
artic
Карын
вопыт
рэжыме
забрудж
чыгунак
прадказа
ўступілі
карэнішча
дзесяцігоддзі
прыхільнікамі
##ric
##ury
##гал
219
Ост
Коль
Янам
барэ
трое
##зуецца
world
Крыва
дамен
дыпло
сядзе
хваль
Стывен
перага
раскоп
чорным
паняцця
будаваць
біялогіі
дзеліцца
знішчыць
помнікам
дэлегацыі
невялікую
Германскай
развівацца
·
##шок
ёр
##фора
##ётаў
234
Апу
Моц
пярэ
Канта
Папам
Спаса
дывер
##ганскай
Львове
іграка
абвешча
алгебра
архідыя
граматы
мастакі
насення
паказаць
харчовая
районного
прыходзіць
Арганізацыі
біялагічных
гаспадарчых
падраздзяленняў
##нтэн
Mac
выд
##ковую
1805
комі
Шэраг
паўсю
Тэйлар
баявой
пайшлі
сербаў
спявак
станам
Прызавы
малекул
выглядае
кангрэса
выконвалі
вільготны
дазваляла
каштоўныя
пераклады
праспекта
аўстрыйскі
дзяцінстве
##iety
##гарэ
Ека
Лоў
Таш
Уай
бута
зата
##дзенай
##льскае
даўно
жывой
радок
Працуе
Старая
зварот
кнігах
некалі
рэдкія
старым
ўзрост
Таццяна
каханне
праліва
прыстаў
выйграла
запісаны
сярэднія
далейшага
пасяліўся
пахаванні
паходзяць
сельсаветы
славянскай
Нідэрландах
Старажытнай
захоўваліся
##row
##stit
Акі
Шон
##адука
##довых
ford
АССР
ўспа
##водная
##гскага
##руецца
Вілья
Друка
палёт
ўкара
летніх
пайшла
разліч
прагляд
радзіме
іероглі
акружаны
актыўную
дэпутаты
студэнты
Хельсінкі
астравамі
разбурана
Захаваліся
##пец
ge
pd
##каса
##клік
шоу
##скара
##скрай
1300
Mart
Бана
Шара
##лінскі
Марке
Мерка
Скота
балот
вугал
ранне
ростам
састаў
Минской
Расліна
Мікеланд
прымаюць
Вікіпедыі
падпісана
парушэнне
рухавікоў
брытанскім
старажытнару
##org
##мбы
se
##наса
Ахе
брэ
літ
сон
яек
4000
анар
гарэ
гіпа
кача
раса
##ванням
##шанага
бавоў
гібры
медзі
##пушчаны
codice
Людвіг
Размна
разбіў
рымлян
Прыпяць
шчыльна
Забудова
Старэйшы
выдатныя
кіравала
прызналі
цягнікоў
выключаны
адпаведных
рэйтынгавы
сяброўства
##14
##ise
##res
##лды
##мяр
##гала
КНР
бел
дэн
ног
Гётэ
Лева
аніма
гербе
салод
судом
##вальная
Кастра
Курапа
доўгай
раннім
Зборная
Першага
сакавік
увайшла
прыкладу
прыкметы
рабочага
тэхнічны
Віцебскім
Евангеллі
перамогай
лейтэнанта
прыроднага
Мікеланджэла
тэрытарыяльных
##СЕ
##ald
##ДРП
ви
эс
хан
##ватыя
##дэнам
Кола
асма
яшча
ўзра
эстра
Газета
разьбя
задачай
рымскім
Чарнамор
найболей
драматург
катэгорыя
прынцыпаў
навакольных
##15
##own
As
ди
Шты
##ников
гана
дека
##тавалі
Замка
Марсе
Медычы
Святла
матывы
моцных
пункце
студый
Рашэнне
верхняя
вокнамі
манарха
маршрут
пажыццё
прылада
цяжкасці
Лацінскай
ветэрынар
каардынат
царкоўных
Дзяржаўным
пачатковай
скарацілася
забяспечваюць
##36
##целі
МАЗ
##aboda
##прыпа
Аэра
асту
прыт
часа
шэры
Габры
весты
грады
коман
крыжы
нізкі
##будаўні
Войска
Сапегі
заліве
каналы
размер
трэцяя
Вішняве
Тадэвуш
багатых
выслана
найперш
нядаўна
палотні
раўніне
столькі
сценамі
##бургскага
перайшло
таленаві
Беларуссю
нарадзіла
староства
англійскім
землеўлада
неадкладна
рэспубліцы
завяршылася
адміністрацыя
##ora
##osa
##бня
##бію
зву
ляп
лугі
##куюцца
Арлоў
Турын
арген
выхоў
загру
змест
##чынскім
дрэнна
здымкі
разгле
хворых
Усесаюз
доступу
засушлі
Вячаслаў
стылісты
інжынера
Асіповічы
Францішак
пастановы
суперніка
эсперанты
астраноміі
дадатковых
Транспартныя
характарыстыкі
##16
##84
##AL
##ox
It
##ania
##йных
Ele
Mad
Лон
акі
дыс
цяр
##служа
Акія
Узро
прые
##паліта
Жамой
гліны
##каваным
Кадафі
гнезда
люстэр
якасць
ўрадзе
граніцы
рабочай
фінскай
Андрэевіч
Надзвычай
выклікаць
парушэння
разглядаць
германскага
канферэнцыя
дзяржаўнасці
##эш
##педы
##стов
##тоны
ані
кВт
руд
##ранка
##руюць
##федра
1827
Уруг
бежа
капе
рысу
дачок
лячэб
мэтаў
туман
Дуброў
Франка
зацвяр
пэўным
блізкай
працэду
чарговы
дзіцячых
кляштары
шырокага
ідэалагі
ўжывання
большасцю
навуковую
наступнае
насяляюць
Магілёўскі
гомасексуа
падтрымалі
мітрапаліта
##ät
##ott
##гом
##длі
UN
##вела
102
750
Bar
Вор
Дам
что
1774
1823
Голь
Катэ
Себа
Тыбе
Цера
дэві
##водныя
Group
Іаган
падзо
праба
Артыку
атрыбу
шэрагі
Чэрвень
абарона
блізкая
узнікла
ўваходу
##стоўскага
пляцоўкі
ўжыванне
прарэзаны
уласнасці
забаронены
Арганізацыя
праваслаўнага
##MS
##ПУ
ft
##цёра
Сэл
##лікіх
##радам
##еўская
Мілан
жыллё
князю
арыфме
культу
меліся
Дэпутат
Латарын
марскім
Ганаровы
канцэрта
магчымых
народным
перыядам
сродкамі
хлебазапа
Аляксеевіч
спадзістыя
сутыкненні
гвардзейскай
заснавальніка
адлюстроўваюць
##90
##me
##бок
##ards
##леса
##паду
ВКП
Пун
##таюць
1569
запы
##горскі
РСДРП
Ферна
басні
калон
інакш
Кракаў
Медаль
Нарэшце
алфавіт
пошуках
рэзерва
просьбай
драўляным
напісаныя
чацвёртым
арганічных
перакладаў
псеўданімам
##ood
##руш
##цыё
##года
##кула
##нтэр
##чкам
##турны
Homo
Абду
Доне
РСЧА
дэтэ
люты
Блакі
дружы
масай
норма
члена
Антона
Арышта
Краіна
Рабоча
Турнір
адышоў
выбуху
карону
нумара
экстрэ
аднойчы
каменны
літургі
адправіў
артыкула
практыкі
прапануе
Франчэска
рэлігійны
усходняга
Казахстане
навучальнай
нарадзіліся
праваслаўныя
##біт
##гур
##літ
##сел
БЭ
##рыяў
##чыку
эпа
##менам
##славу
Даку
Мура
арфа
саду
скло
##блення
##жаюцца
##ковіча
франк
Гітлер
Зрэшты
Оксфар
восень
жыццём
Дэклара
выдатны
далінах
рэакцыя
ставіць
Дамініка
Супрацоў
Усходнім
праспект
сітуацыю
Антонавіч
выраблены
камісарыя
перамагла
пераходзе
еўрапейскім
пісьменнасці
##enz
Sk
##бата
##навы
##неве
Гіл
Варо
амфі
гуку
мазы
танк
##iction
зарад
клубу
належ
сухіх
##забеспя
London
Бернар
Біблія
Венеры
Філіпі
большы
алгарыт
вырасла
залатых
кангрэс
майстры
Пінскага
вылучана
захавалі
тэалогіі
Вашынгтон
ўзведзены
найбольшыя
паўабаронцы
прыцягнення
##рум
##штэй
##шэль
Маа
паш
##ляцца
Духа
Дэні
Леон
Ніла
славы
ардына
вакзал
бакалаў
паўнава
Кіраўнік
вадароду
прывілеі
прынцыпе
разведкі
утвараючы
брытанскія
далучылася
Аўстрыйскай
мужчынскага
старажытнае
тэрмадынамі
падпарадкаваныя
##кою
##снё
Эл
##ннае
Хва
##завых
##нальд
##чышчы
##шэнню
бран
пялё
свін
Пісаў
карту
прасу
##нтынента
пасялен
планета
покрыва
##дзейнасці
дасягаць
пакараны
кантактаў
пераканаў
семінарыю
вывучэннем
пазбаўлення
найстарэйшых
перасяленцаў
am
##фрэд
пяр
Дзін
Хаця
долю
мёрт
экзэ
Георг
кароб
клапа
падар
Бангла
карчма
франта
Закарпа
маладзё
надмагі
Запавету
Размяшча
Створана
адгаліна
дыпламат
запрасіў
звестках
пашырана
сховішча
імкненне
атрыманне
дывізіёна
паўплывала
публікацый
тэхналогія
шляхецкага
іспанскага
##34
##фле
##юра
##бораў
##лькоў
##лікаў
##ючымі
дадо
##рэгуля
Рычар
гукаў
лодкі
награ
стасу
##ністамі
Сувора
плямён
родным
рысамі
шлюбам
Украіну
злучана
канцыля
мясцова
продажу
Лідскага
вобласцю
віленскі
гіпотэзы
драўніны
музычным
паверхняй
плямёнамі
краязнаўчы
прымянення
камандуючага
Камуністычнай
ператварылася
размеркаванне
заходнееўрапей
##ET
##ave
##une
##варь
Буэ
##водам
##генаў
##жанае
##цыдэн
2500
наме
Зямлю
Узнік
запаў
новаў
трыва
Крычаў
Паўлаў
Прыдня
лакама
паспеў
статут
Генадзь
каранёў
паданні
яднанай
Усерасій
адстаўкі
замежнай
трапічны
часопісах
спартыўных
кандыдацкую
прапанавана
##нуа
My
##лагу
##ццёў
##зацыя
Акта
Выяў
Гіль
Мера
вока
##ources
агляд
крапа
крова
судзе
туркі
Вацлаў
гвалтоў
загадам
карціне
прайшло
фінальным
аднайменны
моладзевую
чыгуначных
імператараў
візантыйскага
мерапрыемствы
прыналежнасці
##ЕЛ
##enn
##вра
##мок
##сий
Эйн
##ктыку
Даро
Спад
лека
##ніцкую
плямы
эмбле
Google
public
Уваход
кажуць
сотняў
Княстве
Станцыя
багацце
яднаныя
Масачусе
Слуцкага
слоўніка
літоўскім
прагаласа
манаграфій
электраэнергіі
##ube
##ніш
##хію
##aria
##віды
##йная
##суры
Сем
жар
уні
##ision
##класі
##лянка
##стабі
##чаўся
Лізе
Рызе
муча
##стасць
даждж
дапоў
сёлаў
чыста
##нясення
Кыргыз
дэкары
стрыма
Асобныя
мадэляў
разабра
раўнава
сказаць
усталёў
ўстойлі
памерамі
пераязджа
тлумачыць
успамінаў
франтонам
адпаведныя
прэзідэнты
выкладчыкаў
пастаяннага
архітэктурны
запатрабаваў
##спі
qu
##ater
##atur
##біта
##вязі
##пава
con
Пуа
ала
мыш
нік
##Списо
##нутым
##сцкую
Папу
мене
наві
упэў
##графію
Іране
газет
нагля
саміх
Ліхтэн
Музыка
абраза
зычных
кажучы
Супраць
невыраз
Альберта
Стаўбцоў
актыўнай
вырашыла
прыводзі
шырокімі
беларуску
пераважае
прысвяціў
вільготных
Шматгадовая
прыходзіцца
будаўніцтвам
кансерваторыі
размеркавання
падтрымліваюць
##ЕН
##ova
##коп
##сек
##сака
122
Джэр
Трае
##ндэрта
Гедзі
Пітэр
кансо
надаў
саюзе
сцяне
вугалю
давала
дзеячы
продкі
расказ
Амерыку
Бельгія
залатыя
манахаў
антысаве
вылучыць
камплекс
чырвоных
штотыднё
Манчэстэр
аўтарства
прадастаў
сонечнага
Літаратура
адрознення
актыўнасць
палотнішча
скарачэнне
інструмент
перамяшчэння
ператварыўся
##IC
##маа
##сте
##endo
Жор
Ліп
Наф
##глымі
Моск
Стоў
навы
нера
##носяць
летні
экано
Прусія
біятло
паразы
побыту
завяшча
Рыжскага
ўніверса
Брестской
неандэрта
Іерусаліма
вырабляюць
стварэннем
украінскай
грамадзянскага
##джэр
##заны
НДІ
лаг
##ндыяй
1770
безу
кода
міжу
нясе
##чвання
##ческий
Maria
Арысто
Прасто
ствала
стравы
Камітэт
Першымі
метадам
рэзерво
Минского
будавалі
жаночага
паядынку
Валянціна
Максімілі
паслужыла
выканаўцаў
грамадзяне
павялічыць
губернскага
транспартных
супраціўлення
##ega
##eum
##мура
##рджы
##ткоў
##штаб
Блі
Буд
Тыр
дно
##цыска
Part
Кінг
волю
Вольф
апыта
вымер
звыча
##лістамі
##нальным
Густаў
ніжняя
ўрадам
##лінейнай
вестыбю
Палескай
каменных
крыжакоў
Лукашэнкі
турэцкага
Адміністра
выконваючы
мусульмане
пастаянная
##дыяй
##міль
##сыпа
320
Inf
pdf
Пон
пах
сук
##манія
Хасэ
Юнай
Мацве
бізне
знака
рахун
снуке
цароў
чараў
галаве
наклад
парады
працэн
спрыяў
Электра
каледжы
падверг
пачынаў
прыступ
прэпара
служыла
Займаўся
апісанні
арабскіх
канцэрты
гандлёвым
правадыра
чалавечых
шведскага
ідэалогіі
папулярныя
патрабуецца
прапанавалі
інструменты
ўдзельнічаць
перакладаецца
##біла
##плод
Заў
Пту
##зіўся
##стэры
Кару
Япон
бабу
ночы
паке
сады
##везены
Грэча
Малыя
гонкі
пасол
сінта
танкі
Аквіта
Марыяй
носяць
плямен
уваход
шляхці
##вичского
ажыццёў
аказалі
декабря
жаўтава
зімовых
чэшскай
аматараў
міграцыі
асаблівай
выкліканы
дапамагае
доўжылася
сведчанні
створанай
францыска
праводзяць
##тэд
Цё
##руха
Гім
Рам
Хло
зму
##давіч
##лярны
Пела
Татар
Цікава
Ягайла
ветэра
вузкім
чэшскі
##горскага
##сёлкавай
Кангрэс
паходаў
прымаца
адкрытай
беларуса
змагацца
перадачу
падрыхтоўка
##oss
##гва
##жба
##ліп
##рэр
СА
##сцін
Бак
Клу
Юлі
##ксамі
##льный
##сцкіх
Лебе
Нары
сібі
Минск
былыя
Буэнас
Чацвёр
курган
курсаў
кустоў
святой
будучай
дывізій
камсамо
прыроду
прымыкае
выяўлення
злучаецца
кантракта
футбольнай
размешчанай
ўстаноўлены
інтэлігенцыі
атрымліваецца
##эна
im
##шкоў
Сля
пур
##фрыка
Зной
Свед
Якуб
кошы
сіна
Устаў
айчын
выгну
голас
пласка
сувязя
татары
##вальнага
Уільяма
зменены
колерам
лесастэ
наладзі
шпіталі
дагаворы
даследчы
прынятая
этнічнай
беспрацоў
дазволіць
змяшчаецца
магнітнага
суадносіны
ўзнагароды
прафесійных
кампазітараў
распараджэнні
незадаволенасць
##жд
ra
Aug
Reg
ind
Азя
мін
##часці
Піса
твар
##джанні
матчу
маёра
павяр
вільга
рэформ
тэкста
ўладка
Ноўгарад
замежныя
прамежка
узровень
Паступова
культурай
Васільевіч
Герцагавіны
Роз
##хіміі
Матэ
Фаль
##хоўскі
Адука
Гдань
пагру
сабак
Часцей
вежамі
імёнаў
Эканамі
абшчына
воласць
пазіцыя
раённай
спасыла
выдаецца
пабудова
перамага
кіеўскага
намаганні
Каліфорніі
заставацца
Скандынавіі
надрукаваны
пераемнікам
папулярнасці
жывёлагадоўля
##ery
##nia
##ціс
ad
Іш
ВС
Яр
##port
##мелі
##носе
Mot
fic
Бёр
Выт
Ніл
РКП
Шва
##днымі
##каран
##ляўся
##мацоў
1784
Анжу
Жыро
Знеш
міты
неса
##жнасць
##люецца
Аддзя
каруп
непаў
порта
Верхні
выбару
нізкая
раптоў
аўтабія
гаворка
прадпры
заданняў
захоўвае
місіянер
паводзін
чалавеку
юрыдычны
Працавала
архідыяцэ
філасофію
аднаўленні
паўнаварта
прыгажосці
арганізацыямі
гвардзейскага
дэпартаментаў
##73
##uch
##зас
##лсі
яй
##orus
##сход
дэр
##ктару
1798
John
fact
Бялы
крок
##трымоў
##чаюцца
Афіны
Докшы
Чэхія
паўся
родна
цырку
##раванні
Савеце
партал
трымае
халіфа
##вядзенні
Мюнхене
доўгага
насенне
светапо
трансля
княстваў
Кіеўскага
брамнікам
перанесена
выяўленчага
##szaw
##йнай
##мкаў
##тэлі
##шкаў
Jan
Вей
Рус
Шту
##лёўка
##расій
##сбург
##чаную
бале
руку
##віцкая
##чнасцю
Давід
Карат
бегчы
выбух
захва
змене
пакуп
сойма
цягну
ўслед
##джаецца
##несеныя
Адзіны
балоты
грузаў
закону
верагод
команды
музыкан
Афіцыйны
рухаецца
плануецца
чырвонаар
ваяводстве
этнаграфіі
Dr
Азію
Шыро
ачкі
зняў
супа
##сцкага
Ірака
Ганца
Малай
Эліза
карце
медыя
##электры
Адольф
Жыхары
алфаві
Гітлера
забітых
набывае
суседні
адкрыўся
кручэння
механізм
поспехаў
дагаворам
дыяпазоне
загінулых
удастоены
запаведнік
складаліся
тагачаснай
адрозніваліся
##чно
##лары
Har
Анг
Уру
душ
##earch
##няючы
##слага
cont
Мост
Пало
войн
эндэ
адных
вячэр
домам
Полымя
Туркме
глебах
кузава
##наўлення
Евангел
Маладыя
моцнага
ваеннымі
ўсходнюю
ўтварэнні
Распрацаваў
захоўвалася
кампанентаў
рэспублікан
арганізаваць
Канстанцінопаля
##чко
Aw
Год
Кну
Пуэ
СНК
меж
##байка
##лівых
Гену
нясу
##бертам
Алеса
Тбілі
мозгу
Даніла
Штогод
раўнда
Міністр
Устаноў
Юнайтэд
гетмана
графікі
цячэнне
іншазем
духоўную
параўноў
аформлены
востравам
падпалкоў
старэйшых
арнаментам
еўрапейскі
звычайнага
міжнародная
прысвечаных
рэлігійнага
Азербайджане
камуністычнай
прамавугольныя
##83
##pl
##uv
##ПК
##ley
Ст
##кота
##ление
Nint
Бару
Гурт
выпа
карт
скур
Андро
Марты
Педра
Кандра
Кацяры
баскет
горная
настая
планаў
раздра
асамбле
дапуска
даўгава
заняўся
паловай
разліку
рэакцый
Nintendo
маршалка
прытулак
рэтраспе
старонак
французы
касмічнай
палітыкай
працоўнай
адваротным
псіхалогіі
Пецярбургскай
##inc
##ini
##дуюць
##нёсак
##танка
Берг
Брат
пупы
##ніцтву
горна
узгор
Аравіі
Вітаўт
Ніжняй
Стамбу
знешне
кавала
каменю
манахі
упразд
Палессе
валадара
выдатных
Афарбоўка
аддзелены
звязваюць
парушэнні
выклікаюць
карыстаецца
прасёлкавай
праіснавала
разнастайнасць
##12
##45
##GC
##to
##box
Де
Ск
Rad
Віт
Ней
##ative
гусі
колы
міна
объя
руіны
##джэнняў
##чваюцца
адбора
паслаў
рабочы
апошнюю
Ірландыя
Кембрыдж
абласной
адкладаў
акцыянер
бацькамі
вуліцамі
дваццаці
музычная
палонных
Евангелля
антарктыч
рэдактара
Прэзідэнтам
палітычнымі
праціўнікаў
национальной
размешчанага
Чарнобыльскай
##орф
##знае
Mon
Воў
вэб
рыз
##вальд
##жнаму
Russ
Суда
ФІФА
бавар
блока
дзела
ззаду
казах
палат
палос
прадэ
труба
цвіце
яўрэя
Закана
ананім
вытоку
добрыя
рэдага
туркаў
цяжкім
Астраве
Манасты
абрання
мексіка
спрыялі
епіскапа
масавага
паўторна
персанаж
##перапрацоў
Бангладэш
складзена
Арыштаваны
французскую
праграмавання
##тса
##наву
##ндрыя
1776
Фізі
евіч
зені
увёў
цэла
Манта
Новае
краем
Прымаў
нейтро
вобразы
грамады
органах
##Колькасць
Лізавета
алтарнай
англамоў
беспарад
вызначыў
вышэйшыя
мараплаў
яднанняў
знікнення
апісваецца
традыцыйны
ўтвараецца
распрацоўку
літаратурныя
жывёлагадоўлі
##іў
фи
##ліну
##тера
Out
##нецкі
1620
Лаба
Язэп
артэ
калю
ліха
мача
тэні
браму
забра
флаты
чароў
інтра
валада
прыяры
прэмій
Арханге
Восенню
дырыжор
сябрамі
сімвалы
баевікоў
кароткая
выхавання
назірання
адноснасці
уздзеяннем
накіраваўся
прадстаўляў
травяністыя
літаратурная
##ЕР
##ool
##бал
##жэў
##кці
##гвар
##зары
Іаа
Лан
Тэо
Вена
Дэка
Замо
Непа
Рыка
Тулу
гона
##дзецца
Ірына
Гэтым
Толкі
кантэ
любым
макра
раёну
спасы
схіле
імпар
##камбіна
Перыяд
аранда
асобін
спусто
сцягам
##лагічнае
Выданне
Запарож
атрадам
выдатна
заявіла
рэсурсы
святары
вучылася
паказала
пясчанае
яўленнем
кіслароду
паўднёвыя
спектаклі
перадаецца
розыгрышам
меліярацыйных
##ОР
##ime
##лсу
##ньё
##фун
Ір
Ая
##orum
##руць
Вюр
суі
##вінах
##ровыя
крам
пред
Алега
асобе
грызу
канве
##значаны
Ватыка
Гарвар
дадому
метаду
органа
папярэ
Шэклтан
дзясяткі
меркавана
падводных
паўночныя
яўрэйскіх
ўзбраенне
чыноўнікаў
Бабруйскага
##af
##ute
РК
он
##прам
##сцям
##урпа
##навых
##ранта
1778
Cont
Саба
сало
сойм
Прата
балан
глеба
дашко
місты
посуд
Купала
прамыя
##скрыміна
Полацкі
раёнамі
ўяўляла
механіза
праектам
рэалісты
асабістым
аўтаномію
захоўваць
падзяліць
сялянскіх
складанасці
Першапачатко
натуральнага
суправаджаецца
##ил
##ali
##els
##шан
Зеў
сюр
эра
юга
##чваць
1660
Рэлі
Швар
алею
вагі
##тнічаў
атаку
дзярж
маляў
мораў
танцы
тэста
шкоду
Фасады
жаночы
залаці
мануфа
пошукі
просты
рызалі
стужкі
высланы
заявілі
камісар
кіслаты
недахоп
##графічнай
##працаваны
Некаторы
Тадэвуша
Фактычна
мясцовае
спынення
трагедыі
імкнецца
Краснадар
гаворыцца
значэнняў
правінцыю
Бібліятэка
дзяржаўнае
сацыялізму
царкоўнага
устаноўлены
мемарыяльная
рэвалюцыйнай
элементарных
стваральнікаў
##ke
##ym
##эта
Mod
пацы
##кавага
##тыўную
нізоў
аблогу
крыпта
##леўскага
Warszaw
вырабле
прадукт
працамі
Савецкім
галосных
калонамі
карысных
наміналь
спадчына
ступенню
сфармуля
ўсходнія
пазначаны
неабходныя
папярэднім
прамысловы
ўпрыгожаны
выконваецца
пераўтварэння
##зні
##дыка
##незі
##нсан
Бас
Хаў
сна
##ieved
##лінга
Нача
сцёк
##даецца
Індыю
Бундэ
Карды
Сябра
Яўрэй
карэй
краях
пакой
Памеры
добраў
зруйна
насіла
прапор
спуста
сумесь
сходзе
##бярэжнай
гадовым
карліка
прэміяй
ўвайшло
нацыянал
перадгор
пастанова
прагрэсіў
пярэдняга
іспанскіх
Адлегласць
знакамітых
Прадстаўнік
упразднении
Амерыканскай
археалагічны
##Ва
##Ма
##жах
##тум
##шчо
##эла
##ёра
фэ
##вяць
550
Bla
Сай
вал
##ктрон
##масці
1781
Богу
Насу
кань
Свято
марэн
Пасоль
Рэльеф
бернар
ведалі
кожныя
рэпута
узораў
##фармацыя
Атланты
выгляду
паркавы
туркамі
Славеніі
змешчана
сутнасць
Бургундыі
контракты
мастацкая
адсутнасцю
максімальная
рэгіянальных
##TA
##бат
Ox
оф
##курс
Мас
Паа
аду
гно
Гага
акта
паба
жадаў
Адсюль
Днепра
дзеяча
дзікіх
перара
шахмат
Савецкі
балотах
палатно
Комплекс
ганаровы
абсалютна
адступіць
ўтрымання
запаведніка
прыналежнасць
Вялікабрытаніяй
##тул
Іу
##дано
##лака
##тэру
Сне
Тон
Эге
дна
ток
##тавіч
Анго
зато
тубы
##годдзе
Божая
Нагор
Прага
абелі
водна
гліня
ноччу
проба
##лінскім
##нальных
атынка
пераду
подзві
хатніх
##etrieved
##даўскага
##нальнага
аркестр
асобную
багатай
крытыку
Прыбалты
Славакія
Суворава
базіліка
захапіла
павольна
Львоўскай
вайсковых
вечназялё
вызваліць
знішчэнне
Бабруйскай
Міжнародная
##ваі
##illa
Ант
Неў
Нур
Той
сфа
##рэнка
##тэтам
Will
Ланд
вобл
етра
руля
эсто
Вінні
грэкі
лодак
трупа
Будучы
Тэатра
абарот
асадка
войнах
даліна
лічачы
секунд
творам
##гадовага
Свабоды
палеалі
першабы
саюзных
археолаг
гараджан
карнізам
ставяцца
выраблялі
прыватныя
расійская
скарочана
эканаміст
нашчадкамі
працоўнага
ўдзельнічае
паведамлення
спецыяльнага
##км
##VII
##kow
##атле
##рэра
Бло
ВМФ
Ежы
Чап
##будоў
Арэн
Звяз
Кёні
залу
энда
Крыма
Музеі
футра
##нальная
адышла
сектар
Антанты
Вацлава
судовай
выстаўля
калісьці
майстрам
урачыста
абараніць
будаўнічы
кантэксце
партыйных
бронзавага
спецыяліст
Садружнасці
замацавацца
працягваюць
прысутнасць
##ПА
##бё
##юк
##ota
##rag
##ано
##жня
##шня
fe
СТ
##педо
Мек
1777
Book
Выха
долі
курд
літа
фено
##цыянар
Брусе
Фрэдэ
борце
матор
ўверх
давалі
дамовы
змагла
Дагавор
вуліцах
выпадае
называў
падмаца
праўдзі
раўніна
чорнымі
##Списочный
перавагі
процілег
##дэбургскае
Горацкага
змагаліся
Партугалія
прымяненне
трапляецца
імператары
ўсталяваць
Мазавецкага
натуральнай
Старажытнага
недастаткова
папулярнасцю
тысячагоддзі
Ленінградскай
перайменавана
абвінавачванні
выпраменьванне
дзесяцігоддзяў
сфарміравалася
##ит
##віш
##зла
el
Ап
##лана
##лове
##эўна
Кім
##дзела
##каваў
##ленка
Вось
кафэ
ксян
##рыстыя
Пінск
арган
гуляе
піста
слаёў
сцяна
цукру
##тарскай
уласны
Кафедра
гадзіну
гераізм
пагрозы
эскадры
##тыфікацыі
Віленскі
Сусветны
абалонкі
пераклаў
працяглы
японскіх
Парыжскай
Паўстанне
блізкасці
заказніка
захоплена
генеральным
грамадзянін
старажытнарым
##18
##IA
##der
##или
##туі
##orth
##адор
##гама
##цылі
985
Нау
гнё
##дзіне
##рскае
Жыто
Нася
драб
дызе
зімы
інер
духаў
збера
маньч
паліт
цясні
Адыджэ
Альбом
Астрож
Герцаг
Нікала
арктыч
гандлі
готыкі
дарогу
добрай
добрым
замкнё
лепшыя
Records
Альберт
празаік
цячэння
##Напісанне
наяўнасцю
хрысціяне
спаборніцтвы
дэмакратычная
сярэднявечнай
##ink
##рей
##isch
##гало
Бой
піг
##ement
##відаў
##нічая
##танам
Сало
бана
бюст
небе
ўпэў
Камча
Колер
Пагад
Украї
валок
нешта
нядаў
рэкор
узаем
Карэлі
першын
погляд
ратушы
Journal
Паўнамо
Себасць
газетах
нанеслі
фармаце
Дзяржава
Нарвегія
выпускае
паўсюдна
Заканадаў
Петраград
геаметрыі
металургі
экватарыя
Традыцыйна
нараджэнні
пашкоджаны
расійскімі
чацвёртага
эканамічнае
адрознівалася
##EC
##ГБ
##бел
##ёва
Gl
АА
##каля
##фашы
Лар
##давая
##ровак
##шанко
1655
1785
Кука
Рэйх
гукі
кулі
куры
броне
канча
##кцыйных
Кірыла
аснова
вальма
згурта
нашмат
пазвано
паняцці
эмігран
дзялення
касманаў
крытыкаў
лацінскі
часопісаў
Міжземнага
Пухавіцкім
трапляюцца
самастойнай
разнавіднасць
зарэгістравана
##udi
##лэн
АТ
##зана
##рынг
Мэй
Рак
меч
##цовак
Гуга
Рэгі
Цвяр
паша
субо
хоча
##вінскі
##ненымі
Карне
жоўта
рэшце
шпіта
байцоў
прагля
раённы
##роўскага
доўгімі
кафедру
мільёны
пасадах
боепрыпа
рэдакцыя
ўсходняя
паўночную
згадваюцца
экспанатаў
Слонімскага
патрабавалі
праваабарон
рэферэндуму
заканчваецца
сфарміраваны
Сярэднегадавая
распаўсюджаных
##бас
##рог
##банк
##зоны
##шкам
Бей
Раў
флі
##сціна
Publ
arch
Дэлі
грыб
ўхва
##рыстая
Жалез
жылля
наймі
пошта
судны
##рыйскім
Святая
адмовы
аказаў
мірным
рассея
рэктар
Камісіі
кіслата
матывах
шырокіх
актыўныя
дзярнова
звязаная
узначаль
духоўнага
прыкметна
пакаленняў
наступлення
традыцыйнага
удзельнічалі
падтрымліваць
##por
##кію
##іці
Ev
##несі
##ледзя
##манда
##ровая
##слака
Атле
Белі
арен
бажа
мура
начы
ядры
Волгі
альян
валас
ведае
вежаў
паляў
узгад
ютара
##Station
Белдзя
Натура
Чарльз
ацэнак
вяскоў
зелена
сыграў
ісламі
Дзятлаў
варожых
истории
спалены
##пальскага
Трэнціна
сялянства
ваеннаслужа
умацаванняў
прадэманстра
паслядоўнасці
хрысціянскага
##iat
##жбе
##ктур
##сція
Жоў
МЗС
дат
рот
##дзямі
##целяў
Мадо
ната
##знаўца
Sport
Коста
Лівер
карка
этапы
##ootball
гвалту
кандэн
кольца
юбілей
аказала
глыбіню
кабінет
памылкі
санітар
сінтэзу
чытання
ўласную
антычнай
кінемата
мацерыка
паказчык
усходніх
ўведзены
ўтвораны
##сельніцтва
Наступныя
асабістых
выхаванне
загадчыка
заключэння
папярэдняй
працягнуць
Пружанскага
двухпавярхо
федэральнай
італьянскім
геаграфічнага
##дцы
АМ
##енка
##роды
Кол
іды
##жэнню
##цяцца
Лада
Эдын
скле
##люстра
##ркуючы
Афана
Барта
Вершы
Лепшы
Монтэ
роляў
Смерць
невядо
прасла
розным
##шынскага
Могилев
Названа
адыграў
вярнулі
гравюры
дэталяў
закрыты
спынена
ўчастка
гандлёва
паверхне
скончана
Віленскім
дывізіёне
каляровых
ніводнага
Грэнландыі
невялікага
незалежных
перабудовы
прапаганда
размнажэння
распрацоўка
чэмпіянатаў
асаблівасцей
грамадскасці
нацыяналісты
##44
##им
##ars
##lav
##lex
##ери
##сок
##циа
##шук
БП
##ions
##тэса
пса
1782
ружа
яйца
Inter
Выток
Эману
абары
даваў
чысці
Захаду
Настаў
Судана
дэкана
магіла
спуска
ўзнача
##матычнай
Венгрыю
буйнога
сустрэў
Акадэмік
Баляслаў
Наўгарод
падобнай
перадача
блакітным
кітайскіх
балгарскай
квадратных
найбольшую
найстаражыт
Каліноўскага
супрацоўнікі
##чыца
Пса
Рок
Штаб
арга
лене
пішу
##мовіча
водах
хвост
##лучэнне
Джулія
гетэра
знікла
крыжам
маніфе
нізіна
пенсію
размах
цягнік
Футболь
абласны
багатая
напэўна
покинул
пунктах
стыліза
Перамога
выходзіў
кінемато
кіруючай
найменне
пралівам
пласкагор
эканоміку
астэроідаў
перыядычна
Міжнародным
атрымліваць
##itt
##мут
##мчу
##тре
аа
##даба
##дэне
эгі
Нахі
Ціро
гіне
##ровага
##рослыя
Брані
прамы
санты
скура
Маркса
Слуцка
парафі
ультра
Трыпалі
схіламі
трымалі
Адкрыццё
Планоўка
Старшыні
датуюцца
жанчынай
правілаў
працягам
участкаў
збудавалі
перавагай
міжваеннай
навучэнцаў
патрабуюць
ўкраінскіх
падраздзяленне
##13
##мад
##дачы
##кефа
##реля
Per
##а
##н
##і
##р
##ы
##с
##к
##л
##е
##т
##о
##д
##я
##в
##м
##у
##п
##з
##ў
##ц
##г
##.
##,
##б
##ч
##э
##й
##х
##ь
##ш
##1
##ж
##ю
##0
##9
##2
##ё
##С
##П
##ф
##)
##(
##А
##—
##-
##У
##К
##Б
##М
##8
##e
##a
##«
##»
##В
##5
##3
##4
##i
##Р
##Н
##6
##Г
##7
##o
##Д
##r
##n
##З
##"
##t
##и
##s
##Л
##Т
##I
##l
##І
##:
##'
##u
##Ф
##c
##d
##h
##/
##m
##Ш
##Я
##Х
##p
##Ч
##X
##Э
##;
##g
##Ц
##y
##S
##’
##Е
##V
##f
##b
##́
##A
##C
##k
##N
##w
##M
##v
##P
##О
##T
##B
##Ж
##%
##D
##R
##Ю
##E
##L
##G
##z
##Ё
##H
##F
##W
##O
##_
##K
##U
##x
##И
##J
##j
##–
##°
##]
##?
##[
##=
##Y
##щ
##+
##!
##“
##&
##Z
##q
##ъ
##é
##ł
##„
##|
##Q
##”
##ó
##ä
##−
##á
##Ы
##Й
##Ў
##$
##£
##*
##ї
##×
##ü
##ö
##>
##í
##ń
##ś
##α
###
##Ь
##š
##‰
##<
##ā
##ę
##―
##ο
##ą
##~
##č
##ς
##·
##′
##ا
##ž
##ρ
##ν
##ι
##ć
##ż
##τ
##λ
##Щ
##€
##ė
##è
##ú
##σ
##ε
##ū
##±
##ī
##à
##μ
##å
##є
##π
##æ
##ų
##ç
##ر
##Š
##κ
##ل
##‘
##γ
##ý
##ě
##ē
##ß
##â
##§
##⁄
##ό
##ي
##\
##ə
##`
##ō
##ѣ
##}
##ί
##β
##ј
##θ
##ı
##•
##ñ
##ø
##ά
