[PAD]
[unused0]
[unused1]
[unused2]
[unused3]
[unused4]
[unused5]
[unused6]
[unused7]
[unused8]
[unused9]
[unused10]
[unused11]
[unused12]
[unused13]
[unused14]
[unused15]
[unused16]
[unused17]
[unused18]
[unused19]
[unused20]
[unused21]
[unused22]
[unused23]
[unused24]
[unused25]
[unused26]
[unused27]
[unused28]
[unused29]
[unused30]
[unused31]
[unused32]
[unused33]
[unused34]
[unused35]
[unused36]
[unused37]
[unused38]
[unused39]
[unused40]
[unused41]
[unused42]
[unused43]
[unused44]
[unused45]
[unused46]
[unused47]
[unused48]
[unused49]
[unused50]
[unused51]
[unused52]
[unused53]
[unused54]
[unused55]
[unused56]
[unused57]
[unused58]
[unused59]
[unused60]
[unused61]
[unused62]
[unused63]
[unused64]
[unused65]
[unused66]
[unused67]
[unused68]
[unused69]
[unused70]
[unused71]
[unused72]
[unused73]
[unused74]
[unused75]
[unused76]
[unused77]
[unused78]
[unused79]
[unused80]
[unused81]
[unused82]
[unused83]
[unused84]
[unused85]
[unused86]
[unused87]
[unused88]
[unused89]
[unused90]
[unused91]
[unused92]
[unused93]
[unused94]
[unused95]
[unused96]
[unused97]
[unused98]
[unused99]
[UNK]
[CLS]
[SEP]
[MASK]
ה
ב
_
ש
מ
א
ל
##ים
##ות
,
.
של
ו
ע
כ
##ור
י
נ
הו
##ית
ר
הוא
ח
##ול
ק
פ
"
##ני
ת
ס
הי
ג
##רי
-
את
##יר
##ון
##ונ
##די
##לי
1
##בר
על
##וד
ד
ז
##יל
##וב
##וס
##ינ
צ
##ומ
##יה
היא
##ופ
לא
##ין
##שר
שנ
##חר
##ום
(
)
2
מש
'
##יב
##יק
המ
##ימ
##וע
##וק
##פר
19
ט
##וש
##נה
##יד
הם
##וי
##וצ
##וג
לה
##טר
##וא
אל
הת
##יים
מא
##יש
##יט
##אש
##וח
##יס
מס
##יע
##יות
##רב
כל
עם
##וכ
##לה
##יא
הא
##מה
מה
מע
שנת
ראש
מק
##ונה
20
וה
או
##רכ
##אל
פר
מח
מת
אר
במ
בע
##דר
:
##וז
הש
היה
##יצ
הפ
הח
אנ
למ
##רים
אח
##וני
מל
בר
##יפ
רב
##חק
הק
##נים
לאחר
##וט
שני
##מש
##לק
##נס
בין
גם
##יכ
וב
##תי
##יג
זה
##נות
##דה
##מו
הצ
הג
##אי
אמ
כי
##זר
##שה
##סט
##אר
ידי
##פת
##מת
שה
##לים
מצ
דר
הס
##וף
חבר
קב
ישר
##קר
##אה
בית
שם
##קה
##נט
##ירה
ספר
##לו
שב
##רט
הע
##ורה
##וה
##חה
##ונים
לפ
##קב
מב
##נית
יש
##ולם
##פק
פע
##לת
בא
הב
תח
##את
יה
מכ
##עה
גר
##מן
מי
##דים
לב
##גל
אחר
אב
מדי
ישראל
##נת
##רת
##וך
עד
##מי
##עות
תק
##רה
##00
##טי
יח
הר
##ונות
##יתה
נש
לש
##ירות
##מים
##ותר
##נג
##לא
##כה
די
##שת
נוס
כך
עיר
##מצ
אז
כן
יצ
##ילה
קר
3
##מות
##בי
##כת
##נו
עב
קבוצ
לע
201
בת
מפ
עצ
אי
משפ
גד
##נד
מר
אד
##ולה
אך
##ואר
##חת
ומ
##דות
זו
##יו
הן
##ורים
##פרי
הכ
4
מג
יותר
##פי
##ופה
שנים
שמ
##ורי
##ודי
##אות
מלח
בני
##צות
##עת
מספר
היו
##סק
200
כא
הייתה
אינ
הנ
ול
18
סרט
הה
##פה
##שים
##דו
##אים
##דת
נב
##מר
##ויות
##לט
##ורת
צב
ברית
גב
אשר
חלק
ברי
בק
לח
בס
##שי
ראשון
##בים
##רות
משחק
##לות
נע
איר
##או
5
פי
##וץ
##ניה
##ודה
אחד
##יקה
00
ממ
##של
##לך
כת
עולם
##פות
אופ
עבר
בח
ספ
שי
חד
199
##ינה
מן
מוע
##נק
##מבר
##חות
##טים
##or
אור
יר
אף
##נוע
שימ
מד
בי
##גר
בל
נפ
##בה
##er
סי
בה
מרכ
6
–
שיר
##ובה
##יותר
חש
##ומי
כמו
##סי
##ובר
איש
##ודים
גרמ
חי
ביותר
##עי
רק
מהלך
##ימה
##פים
##בת
דרך
כאשר
##ולים
אות
##גה
##ולי
;
ממש
תפק
##עים
8
פול
##זרח
מט
##ווי
הופ
מרכז
יד
##ריק
ארצות
##צי
לכ
רוב
נית
רח
##ליה
קי
##מד
##רג
תפקיד
תוכ
עת
##שות
##יקר
יכ
כוח
##וסט
##וות
שכ
S
##אן
כדי
##יבה
##צה
##ולוג
פרס
קט
המש
זאת
חוק
אפ
7
חיים
##la
נבחר
194
שלוש
##כות
מאה
מטר
הל
בן
##גד
##ינים
לק
תל
15
##יעה
החל
קבוצה
##ולד
##ריה
##קים
##ורג
שנה
יל
נח
##זה
צר
##גון
אוני
##ומה
זמן
##ונת
##ונית
##ידה
מערכ
ארץ
בכ
##שו
אס
נכ
A
##ברס
C
הד
לת
רבים
השת
##ורות
אם
לר
##on
וא
##סה
##in
##ורך
##ילות
צי
##יח
##an
M
עמ
##קי
קיב
לס
##דור
##קס
צבא
נה
שט
אלי
לי
להת
כול
##טה
##גת
T
##ילת
ניצ
סדר
כב
##ילים
שע
אוניברס
בש
##רך
מקום
כש
##ורט
##ניות
##רו
נת
ראשונה
אוניברסיט
דבר
##וו
נמצ
##צע
##טון
אדם
קול
##לית
אלב
סב
צפ
##חו
מלחמת
##ירת
חל
מדינה
קצ
נוסף
##קום
רש
אחת
197
##קד
מנה
אופן
##חים
רוס
ניתן
גדול
##ווה
##ומית
##ומר
##תר
##ייה
שנות
תע
חברה
198
9
מוס
אזור
מז
שנייה
תמ
##מית
מנ
חברת
גיל
עוד
בפ
##אס
צרפת
ניס
B
##פו
##רבות
##ובי
טע
##בות
תקופה
##ניים
כנס
מזרח
נר
נמ
##en
רצ
זכ
לימ
f
##ומים
נק
##בד
##ברי
סט
מערב
##ציה
זכה
##יגה
##ישי
0
יע
##אלי
לצ
##סת
##נון
##יז
מוצ
לפני
פרי
יום
הט
##ar
##וון
במקום
##וקט
##ודות
שר
שימוש
##דון
לג
אפרי
כלל
##ינוי
##קבות
כדור
##גלית
##וריה
אני
קרי
##למ
וע
סוף
עלי
תוכנית
196
יהודים
בג
##ישה
17
כמ
אלה
הגיע
הוצ
תוצ
##שב
יכול
רכ
רפ
##בל
##mu
##סים
וי
פוע
##ירים
##ואה
P
שונים
צע
שחק
שתי
##חון
מלחמה
נגד
##יבור
אלבום
##קת
##אית
for
נא
קה
##פל
אנגלית
##צל
הז
מפל
נוש
אחרי
##es
למע
##יבות
אולם
דרום
ביט
##ופת
טור
אחרים
סמ
195
##ינג
מור
עשר
בעיקר
נולד
בעקבות
גור
מוז
##קות
חמ
##כים
##mula
##קט
ביק
כתב
D
מוש
אלו
בעל
formula
יהודי
##וחר
אמריק
ירוש
##גרת
ונ
קור
##ומות
תנוע
מערכת
##אם
עבודה
הפר
משפחה
16
##ליט
נוב
##al
אותה
שא
R
ירושלים
משת
##יפה
במש
מדינות
סג
##רח
אג
עבור
##פור
לפי
שח
##בור
##ילו
##זור
10
וש
##נר
תחת
צפון
משר
תה
L
ארב
##סון
משפט
##כל
##עו
חוד
קבוצת
##וכל
12
##he
סוג
מסגרת
##at
תיא
גבוה
חזר
רג
##ימת
תא
טר
אוניברסיטת
##יטה
##קל
תר
אוג
קוד
טוב
נשיא
מקור
אול
000
##קו
##בו
193
ור
סדרה
מילי
##ופי
##חנו
להיות
מלך
שטח
##זיה
מיד
עוב
אביב
נס
הור
השתת
עי
F
מול
N
ילדים
פס
איט
יחיד
כס
ליגה
##לנד
ים
##יסט
היסט
טב
ערב
I
מופ
יחד
אין
##ברה
חז
כיום
עצמ
אנחנו
פל
ארגון
מנת
##וכה
בשל
מפק
המת
/
קונ
##יכה
##טו
סיפ
רבות
יוני
##מצעות
בעלי
כוחות
ללא
H
##פס
כמה
פור
נקר
באמצעות
מצב
מוד
בריט
ינ
גרמניה
##כר
עצמו
G
וס
##יבת
אוגוסט
ידוע
בקרב
תקופת
מחוז
נשים
יור
דוג
נבחרת
##גור
##כנ
במשך
יצא
##יון
כלכ
פעילות
##is
מאי
##ic
שיחק
##דש
##וצר
תחילת
דמ
##יתים
##ינת
##ודית
תש
כולל
%
##ויר
המשך
רומ
##לב
חס
בט
הוק
עונת
##לין
##ויים
שלושה
##וגר
אנג
כה
##ינו
##ריך
תוצאה
אוקט
##טמבר
הצלי
עית
וכ
לכן
ממשלה
במר
##צת
ער
ביצ
התק
ות
פוליט
192
קשר
##ינית
##גו
11
13
ניו
14
##גות
נוע
בב
##ילי
אירופה
W
יולי
הוע
פני
##גים
##ופר
ספטמבר
בסיס
אוקטובר
קו
##חי
פיק
##צר
##וקר
##וחד
תואר
##ווח
מטוס
חת
##ולות
מוות
עש
ינואר
##ובות
##ימות
##ודת
##רכה
ייש
שלטון
##פשר
שונות
##לח
בול
##חרות
##ינות
##כי
משמ
מונ
E
##ימים
##ריות
אש
##ולוגיה
ימים
חדש
מתוך
##כתה
ציבור
אינו
אוס
##יאה
אליפות
##אשונה
כנסת
מוק
קלי
תחום
##ומת
הפס
עסק
##טל
קד
גל
41
##יצור
הסכ
פג
הוב
כבר
##מוד
הרי
##ליות
אירוע
פת
זכתה
##טרה
פעולה
מים
כגון
##יך
תוך
קל
פועל
נובמבר
##אט
##כו
קיבל
שימש
שאר
וח
לראשונה
תרבות
##it
מבנה
חוץ
אתר
##כן
טיפ
דין
##נדר
יוצ
אוויר
##ופות
כפר
נוספים
ראשי
גדולה
דצ
מפקד
אנשים
מסו
אפריל
##יני
דצמבר
##מוך
תכ
שירות
##ריים
מחקר
##ופים
חינ
אוכל
שת
וג
##פתח
התא
הצל
צה
חיל
זוג
##פט
־
פית
נצ
אפשר
##נצ
בתי
כלי
שלישי
תהלי
צד
##ברים
גמר
##el
חוז
חק
מאוד
תוש
##מט
יחס
אלא
נמצא
191
##מיד
לט
##על
בדי
קבוצות
מיליון
דה
##לווי
מפלגה
##בק
##צוע
החלה
אזרח
תנ
אה
יו
ולה
##כס
למרות
יתר
דג
מונה
משה
תפ
##ליים
להקה
בלבד
קרב
להג
##ווא
קש
גוף
שינוי
לד
##ביר
##ובים
##יכון
נושא
השפ
פבר
שלב
מיל
בלי
בז
דמות
פברואר
##ימו
חצי
ישראלי
##יקט
צורה
זמ
פלי
בידי
ימי
מאוחר
##דל
עברית
נג
במרץ
##סטר
משמש
רשת
שש
##us
בחירות
ווע
דומה
בינ
##פריה
ופ
קומ
##re
##תה
סיום
##חז
שחקן
##אמ
בנ
מטרה
##יית
אנשי
כוכ
שירים
טלווי
##אק
לוח
##וקה
##טרון
עזר
משמעות
העונה
ני
בצ
##ימפ
משרד
כח
רוח
לאומית
##זם
סיב
30
וק
ערך
##סם
ספרד
עני
רי
עונה
שוב
עקב
שרי
זר
חדשה
צורך
##רבה
פעם
היום
##דן
לקר
נקרא
##מל
לעיתים
##ייתה
פאר
שבוע
מתח
##le
בתוך
##אב
רוסיה
אוכלוס
##נן
תחרות
תנועה
גביע
הקמת
יב
מחלק
טלוויזיה
##סקי
##יכר
משחקים
##קע
הפך
##זמ
דו
חופ
אותו
נהר
מעל
הדי
##12
חינוך
רחבי
גז
##קבל
האמ
לאורך
ממשלת
##ייס
##ימפריה
##וניות
כדורגל
לבין
שג
שהת
שו
מועדון
##ובלי
הרכ
מעמד
שיט
ממל
יס
יהודית
ניש
חברי
מוכ
מוב
##ou
בד
##עט
##וסף
לנ
פש
הצטר
##יעי
t
##זי
##רכים
##ion
סימ
מסע
##יקו
תהליך
##סל
גא
בעוד
##דרת
25
יורק
##מיים
מעבר
משפחת
##וניים
למד
שית
2010
2011
מנהל
##נגד
בריטי
קהילה
נראה
שיא
זהב
פרו
נול
במי
שפ
ניצחון
להשת
חברות
##ישית
21
ארג
מוח
כיוון
##וקי
המצ
ניה
אבל
חר
אצל
הצלחה
חט
פיתוח
עיק
2008
O
##om
תיאטרון
מידע
להש
##ריט
עדי
מוג
והת
סיפור
עז
ירי
012
מתק
##ניק
##ומיים
רא
בריטניה
##ופול
##ובל
##דיה
##ונד
התי
הגנה
חודש
##יבי
ספרות
##בורג
מדינת
לימודים
2013
##רבית
##ch
במיוחד
התח
##פרט
מוקד
##צים
נט
##il
ספרים
נוער
##פן
##וקס
##טיין
The
##as
##נם
למשל
מדו
בלתי
מדע
##יסה
##אג
פרופ
##טרים
צמ
שער
2016
היסטוריה
190
חב
ראשית
##ריקה
נחשב
להב
נקודות
דוד
2007
##בע
אמנות
עוס
##ברג
גרמנית
##ואל
דוגמה
המס
טיפול
##et
##יהן
##לול
פק
##רית
##ol
נוצ
התמ
##מור
d
##יעים
מקצוע
לונ
2009
עור
קולנוע
J
מבוס
קודם
סק
##מין
אחרות
מבצע
אחרון
פיקוד
פא
##נסה
##ברת
##סור
##ומן
##ואי
קצר
חולים
006
האר
סופ
28
##מיה
2017
להע
##יאון
##ינס
עומ
##צית
##נדה
##וצה
ון
מורכ
ערוץ
מרכזי
אמריקאי
כמעט
##פוס
##נדי
##חם
ם
אינם
##וציא
הול
גדולים
ספורט
##ולט
מחדש
הגיעו
החלו
איטליה
דול
##וקים
2018
##מון
שניים
חומ
##לטה
רעי
חול
הנה
אצ
בעלות
כר
אימ
##וניה
פנים
תיכון
ראשונים
##ואים
בכורה
להצ
רבה
דור
ארבעה
כפי
##חב
##ונס
##יחס
##ושה
אוניברסיטה
##of
לאומי
צוות
V
משל
פיר
תג
##וקרט
אינה
הסת
##צו
השנה
##יכות
מצרים
יישוב
##סוף
##עד
##חד
הלי
קא
שפה
##וזיקה
גוד
##דיו
יכולת
2005
##ולת
לצד
נכת
סכ
##am
##ing
אפריקה
דת
מין
חזרה
חוס
מנהיג
##ונט
קטן
סגנון
ליד
מאמ
##יקים
בור
לונדון
למעשה
K
שדה
ככל
גרי
s
עול
משתמש
וד
ישראלית
האימפריה
רבי
נוספת
נור
מלא
הסכם
##יבוש
יחידה
יצירה
##יסר
זכויות
משנה
פרט
24
##למוד
חיילים
לו
סיים
בגל
ניסיון
תומ
מוט
הפכה
שלום
##חן
צרפתית
100
לז
תקש
רשות
ענ
מערכות
טעם
צבאי
טקס
##וקת
22
##נטים
נחש
##קרים
50
##חוד
נד
סל
מקרה
ציון
עלה
הודי
הצפ
אמריקה
עיירה
מעור
##וכים
##ישים
פרק
##קביל
ארבע
פעמים
מחנה
טורני
שק
##זק
##ריז
##ירו
הופיע
קשה
להפ
ביטחון
##נע
שופ
תקשורת
טבע
לפר
##וצים
גלי
התפת
מקומות
תב
עדיין
לקראת
אומ
פולין
רחוב
##בט
##יפות
הצליח
מדעי
##ונג
##ra
##פיה
נעשה
התג
##ותף
גי
יחסים
רמת
אנגליה
כות
המע
שמש
##os
כו
הני
יהודה
משק
שיע
##יבים
##יטי
באר
נפג
עצמה
קרקע
מרד
מיני
189
004
##ושים
##בוד
##נטי
אוט
##יצה
of
רע
התע
אק
גבוהה
מכון
סרטים
##טרי
צעיר
איטלק
##דרה
##יוון
עיתון
##דרות
##ידור
##וטה
נערך
מיוח
כסף
נולדה
23
מרי
גרמני
##ועים
שוק
חיפה
לימודי
מועצות
חודשים
שערים
מאפשר
עובר
מקרים
שהייתה
שווי
2000
תעשי
אנט
##ונק
מפר
##שרת
אולימפ
השתתף
נכנס
##וחה
##בס
##וצע
הוש
עבד
תלמיד
בנק
ניק
##ופיה
##שרה
##ot
ברז
פחות
פעיל
אישה
טורניר
##ed
רופ
הוד
##רכו
הביא
##גן
##ליית
כלומר
##יעות
הונג
כנסייה
ומת
במה
אוכלוסייה
רפובלי
ימ
##ביה
רוז
נמל
נשק
אזורים
כללי
שכן
עליון
דם
מוזיאון
הפל
##שית
מועצה
רוסית
וול
U
הפע
##ריסט
##שט
##לם
##וביץ
פארק
לבסוף
##יבל
תנועת
תושבים
מהירות
המא
טי
ביקורת
נוד
קריירה
איחוד
##אנ
מות
מכונה
תת
##סטית
שליטה
אבן
מני
טענה
סול
תופ
##ידי
##כני
שיתוף
##ברו
##ווים
איס
##חל
חדשים
התנג
2019
##ורד
מצד
סוכ
##בול
##סו
כנגד
נוספות
אוסטר
החליט
חומר
##שטיין
##ינט
עזרת
משום
קיץ
עין
למצ
נוצר
כע
ויל
##און
##ur
##יקום
מידה
##ברות
ייצור
שלישית
##לל
היות
גובה
##ינוס
מהווה
קוב
נכון
##נתה
ספרי
003
עצמאות
##ידים
בניין
נוכ
##בון
דקות
##יפי
##גוד
ניצח
באי
רביעי
אלכס
התפר
##ציות
##לס
כני
גבול
הקרב
קיים
נקב
סיבוב
יהיה
מודר
מילה
##קיה
חור
אדום
##id
תרג
חמש
צבע
גישה
26
##and
ורג
סיימה
שיטה
##בן
מדיניות
כיבוש
במקביל
מהפ
##גי
##וכס
נציג
##כיר
דא
לשם
##יתי
##שם
שירת
ביצוע
סנ
התפ
##חרי
מאת
חלל
יחידות
השפעה
60
מקב
##נויות
40
ית
שעות
קת
עברה
##לוט
##ומט
הנס
ממוק
גיד
מתי
דולר
##ter
יצחק
שחקנים
ההת
##לאומי
שונה
חדר
אמצ
דמוקרט
##וגל
פסט
קיימים
טובה
מרבית
הגיעה
##ידות
מזון
נפר
קרן
הצי
שחר
בינלאומי
##סר
שנתיים
##ליף
תורה
מסורת
##ig
במד
יעקב
התנה
הגר
כחלק
88
לעומת
סביבה
מחז
##וגה
שול
משחקי
כפ
משטר
איג
והפ
וצ
בפני
##ad
שמה
פרויקט
עלייה
צורת
בגלל
27
##וטים
כוכב
נפטר
המשי
בוד
והמ
שיל
מטרים
תעופה
כביש
לשע
קיום
##אד
מימ
הקר
עץ
אורך
הדר
##ארד
נותר
סופר
002
גברים
גודל
קיבוץ
##ליפ
רווח
קבוע
חג
##ומיות
עמד
ילד
סביב
קהל
##ויד
פיל
משקל
יוסף
מכיוון
מאמן
היש
##ורית
בניגוד
לפנה
הרבה
יצירת
חדשות
אמריקאית
התאם
##ac
רמ
דרגת
##וכן
אית
גרמנים
סגן
סנט
מוצא
בפר
ריב
##עין
##פתי
נאל
לל
טכנ
מלכות
רכב
ביטוי
דמויות
##ושי
מרחק
עניין
קיל
זכות
2001
##סטי
יחסית
סיר
איל
זהו
##וטר
פרש
אמר
פרופסור
נוג
##ינטר
חקלא
עשרה
דרי
משא
##למנט
דני
המכ
גדולות
סדרת
רד
לשעבר
אזרחים
##ent
מפעל
עיקר
הופעות
שיפ
##ינגל
חמישה
השק
המשיך
לפע
בריטית
יחסי
##עון
84
ערים
הוקמה
תוכניות
כלפי
עוז
עובדים
אילו
##וכות
##ימס
שיטת
תמיכה
הצטרף
ראי
70
חברים
יכולה
##un
בתור
אמצע
##נז
##לטות
##אני
האם
##פיל
##ער
##גש
התקי
אברה
מפלגת
צרפתי
##ונו
זכו
##וריון
הוקם
ישיבה
##טג
##ודר
עיצ
רפובליקה
המח
רעיון
להגיע
רשמי
טק
וז
##חילה
St
שבע
לילה
פרסם
##ולו
מקס
סחר
שמונה
##ויה
תס
נכתב
מעט
גורם
לשחק
כשה
29
כיהן
שחור
ליצור
בהת
אוסט
החז
רדיו
80
הודו
פסטיבל
חוסר
ראשות
##יטים
##ro
מערבית
משטרה
##ובת
##יאות
##מיות
למצוא
האוס
הופעת
מו
חוזה
##יאל
ציר
תום
פתח
כללה
##נח
טל
##ושב
לקבל
##קבה
##יכת
מבין
קיבלה
אחרת
נושאים
קטנה
למעלה
מחל
##ירי
התפתחות
מינ
מסלול
ממשל
the
מתן
##נב
##קור
##ועד
וט
הולנד
איב
74
##רש
קמ
##ידו
האס
ווי
השב
ישנם
ממלכה
ניהול
##יקס
מדובר
##יאן
90
הקים
פרלמנט
הכל
קרבות
מאות
מוזיק
פופול
כאן
אט
סמל
שבת
תנאי
##יף
אברהם
חתם
56
המי
##ארי
קבע
באה
בקר
##ia
קרוב
חזית
שלט
עובדה
נמצאת
אדרי
וילי
##בש
##סקה
אירועים
ומש
בריאות
אוסטרליה
כוללת
c
תחומי
37
1999
גן
##מך
קלא
##קדמיה
##וטי
##um
אנרג
וועדה
פעולות
66
סר
##וסה
##צח
##ולוגי
לחץ
ללמוד
גורמים
##ושת
רומא
188
נערכה
ברלין
הוביל
באל
187
ולי
קיימת
אדמה
##ir
תחנת
תזמ
הבר
##אור
משלחת
##רבי
היפ
פורט
המונ
מכת
לגבי
ביחד
הוכ
נדר
גול
אלכסנדר
##iv
אלק
עקר
בחינה
##יעת
p
עצמם
צרי
##יעית
קטנים
##וגים
עשרים
חלקים
מפני
1998
62
##נטית
טוע
יהדות
לראות
##ורס
סובי
עתיד
פתי
יא
טרי
נשאר
הקד
##יעו
עורך
##טות
סד
קיד
##ation
סיוע
מועצת
רצח
מבוסס
נהרג
וני
##פית
קצין
מחש
נחל
אלמ
מתא
עתיקה
מכל
##וחות
שעה
##נא
סא
1996
עוצ
פרסום
נמש
##וארד
נערכו
פרנק
ראשונות
צעירים
אחוז
נמצאים
חוקרים
ייח
##ולית
הופיעה
מאבק
שינויים
להר
בעלת
אוה
##ליטה
##ברט
##גורר
משך
פות
מסת
בו
לחימה
בניית
מינים
מיש
##יקל
##נוס
לימוד
כבוד
עבודות
תי
כמות
רפואה
##זן
##יץ
הרג
##וחים
##זים
אינטר
יצר
חשוב
שאל
ההר
והש
בריטים
ראו
ולע
זיכר
אנדר
##אצ
ממוצע
חמישי
עיקרי
מקורות
אן
בעיות
תגובה
##ושל
##ודיה
##פיים
המר
##im
מיכ
רצון
שלמה
בנייה
התנגדות
גדל
דגם
מחלקה
מוסד
##קף
##מיני
##בח
יכולים
##דם
המל
##קן
לעבוד
מוסדות
חשיבות
ופר
##em
מתרח
ונס
נודע
מזרחי
טמ
##מלי
שיחקה
מטוסים
פט
דגל
##יבורי
גידול
במדליית
מוסל
##ut
##ורר
צבאית
תכנון
הופעה
כניסה
כבש
##ותה
ליג
שידור
##וזיק
##ow
למנוע
תול
מופיע
##od
גנר
דעה
סטר
תוק
אולימפיא
##גרס
##דיון
אחרונות
1992
##דג
הוצאת
טען
נשא
פועלים
##תף
כדורסל
##ימי
צל
לבנון
##מנות
##ונל
1995
ציל
הרומ
מחלקת
ואל
המט
בירת
##משיך
שוש
צור
סן
##לר
תזמורת
1997
החלטה
תושבי
לכת
מרחב
ן
עמק
500
##יצר
אנרגיה
1994
סיבה
מכבי
מגיע
בזכות
##איות
אצט
עירי
הוס
קומוני
##וצי
186
##אוס
##ולוגית
מחצית
Y
לגר
##פול
משפחות
שס
כלכלי
נבנה
##חור
מקומית
סע
פיג
לידי
קילומ
##פיק
שומר
##דיאל
##ען
ספרדית
מצעד
זיכרון
31
הצב
בוקר
גנרל
אלף
אתה
הנד
עברו
##נתר
דברי
##וסים
עסקים
##מודד
מטה
סמוך
##מדה
מתחת
תער
##קוב
פצ
עזב
In
רובר
פוליטית
שור
פתר
מבצ
##תים
האמריק
בחר
יוז
##ישות
ארוך
חרי
##לתה
העות
אחרונה
להשתמש
רחב
##טרף
מערבי
סטוד
מחשב
לבצע
יסוד
נקודת
מחלה
נות
למען
המוזיקה
1990
דוגמת
##ידן
##ועה
ברק
1993
מפע
1948
ישיבת
סך
מסוים
##st
##ie
סיכ
גיר
מקר
שלושת
##פג
אפשרות
נתן
##יין
תחילה
כוכבים
##ואן
מקובל
שחרור
מקורי
ראה
##יצג
כלכלה
זיה
מבנים
נפש
##כור
עיצוב
רשימת
1991
הדת
דיר
מושב
שכונת
ערבי
##לן
תור
##תו
אסיה
התנהגות
שואה
הונגריה
##ינר
##פיין
יוונית
פגיעה
אמצעי
יית
רקע
נמצאו
אולימפיאדת
עולה
מזרחית
פעל
ולא
כהונה
##חש
##ריס
##ופית
##יסד
ידע
צבי
עוסק
שגרי
##סטים
אפילו
מאחר
##ילנד
עשרות
##ec
שישה
הצליחו
ספירה
המג
1944
סוציא
ערי
דייו
הגד
##oc
התרח
מחזה
1941
##op
תרגום
##יבית
מודי
יימס
##דרי
נתונים
האש
##אז
מסחר
##רד
משתמשים
מיוחד
מיס
הוח
דוקט
אופי
הרצ
יצאו
שופט
מומ
כלא
מרכזית
ידועה
השתתפו
ניסה
ארכ
משפטים
חום
m
##ניס
ביניים
תשל
לוי
הכר
ריכ
כהן
להקת
##זית
דרומית
##נסות
אצטדיון
אוסטריה
##ag
ניתוח
##נל
רוסי
מוזיקה
טווח
מאוח
פטר
אישי
##סקו
הנפ
##ימן
החש
הבינ
פרטי
בפרי
1942
בוא
ליט
פרקים
עומד
יצירות
##הם
שטחים
עיב
לעשות
השתתפה
כולם
ובמ
להס
קטע
קלט
מראה
חיצ
##וויז
חיפ
מאר
חפ
##מייה
##יקות
##ליק
תיק
גרם
בחירה
מועמד
תולדות
נוה
עיתונ
##ווג
1945
הרב
בסדרת
מגד
הללו
כעבור
והא
פה
מנג
הורג
פינ
##וגרפיה
פריד
##כב
והע
שוכ
##קיע
Ch
רומניה
בולט
##סייע
נז
##ay
כיס
רשמית
ברזל
##חתה
בתחילה
אחים
משותף
סוריה
הוציא
אסטר
חומרים
קרובות
תלמידים
להכ
##יפת
חוקי
##מוס
לבן
מודל
##ריו
נפת
1989
מגדל
מכיל
מחלוקת
##ופן
מורה
מאיר
תפקידים
##שתה
צמח
מקדש
זכר
החלק
##ילוס
##יכו
##ובו
עלתה
״
הרכב
דרכים
נזק
##סית
##פא
ארי
##מיר
יוצא
עבודת
מסוימים
אהבה
שאלה
##וקות
בוט
##טב
תעשייה
##ul
הפג
מאשר
ייתכן
פרסי
##פורניה
מתמ
##nd
חטיבה
לבר
פונק
הרכבת
##ינגטון
נקודה
יוע
תצ
התייש
לוא
##50
מתאר
ממלכת
רוק
שישי
##אנס
ילי
קבלת
##וקרא
184
מופע
קרל
כלכלית
תיאור
עשוי
חוג
זרם
מורכב
קיר
עונ
##ריד
כתיבה
##לטת
##רכי
בנות
הוכר
קונגרס
שיק
צריך
ציבורית
מזכיר
איכות
דברים
חופשי
##ליח
לבנים
##סות
כוללים
ריצ
עמדות
שהוק
##וקא
##וסי
פון
##ונן
כתבי
טרור
התר
##מס
לשון
##אנה
##ידר
קיימות
קצב
חיבור
מכש
לומ
השכ
אלוף
מקומי
ישנה
##30
עולמי
ציור
ועדת
תוצאות
ביר
##ואלי
ביל
לפחות
אכן
##ווין
מטרות
##רכת
טכני
כנ
קני
היסטורי
הות
שותף
מעולם
מחקרים
הנח
והר
##ce
תורת
##ועות
מיקום
##ציית
ענף
לאומיים
##יטור
מלון
דב
##זו
שילוב
מנסה
פסק
קשרים
מלי
משות
בבר
הטר
אחראי
נמוך
כללית
השתמש
##צם
ניצחה
##מע
נקבע
קפ
מרט
ליבר
עמדה
##גלות
שות
אקד
סין
חקר
אנוש
##ונם
והס
מטוסי
מפרץ
תמיד
קראה
וסט
מלכה
מעלה
העת
##פורד
משתת
1980
##טור
##וקיינוס
לוק
ירדן
##טרו
de
וו
חופש
תקווה
ציבורי
גרסה
##יסת
פרנס
תנאים
כד
מבט
##לוב
גבי
##קול
אלפי
טנק
חורף
וור
כנר
מרג
##ri
##יבו
הזמ
רוד
שמאל
אופרה
דלק
היר
גמ
##ולוגיות
אנטי
עות
קורס
1943
מוקדמות
##נברג
##סיה
רוברט
דיווח
מחזור
אזורי
##פע
מצוי
ספינה
מעשה
הקיסר
השח
מושג
הצליחה
איטלקית
##חתם
בסמוך
שושלת
מערכה
##ov
יוון
טייס
כלשה
##ליל
ירוק
##וואה
אקס
פסיכ
הקול
##יקת
אכ
רובע
משימה
##ידת
עשה
##פש
יז
רחבה
סוגים
מועד
באים
מפתח
?
מעב
זוה
##ופיע
האנ
לתת
בעיה
שמות
נמשך
אורח
המב
דרמה
1986
מגן
הפכו
גזין
קיבלו
##דרים
סנאט
להימ
כיש
##פני
מגלה
חלב
לתוך
##ers
ארגונים
##סן
מדבר
ישוב
ארמון
##טיח
##חרר
אלקטר
1939
חקלאות
ריכוז
מאמר
זוכה
שנית
ענק
מלבד
##יפים
בירה
שטר
##יסון
חיי
מודרנית
נוגע
סטודנטים
1970
סני
1967
הספ
פוג
##ביל
##וין
תאי
הוג
ויצ
מציאות
הורה
שמר
לבנות
המק
בגר
שלה
##וגרים
בולטים
מקומיים
כנראה
ממצ
והצ
חוב
##יתות
##ואט
פתרון
עיראק
ויליאם
לשמש
המשיכה
אגודה
הלכה
לפעול
יכולות
נקראת
##וצרים
דוכס
מבקרים
פעלה
ספק
1982
איגוד
1985
לוד
1968
##ויס
מאפי
פוליטי
קדוש
ויר
קיצ
##מותה
עשי
הרומית
פרטים
##לג
1987
תחנה
##אנו
קנדה
ערבית
עצים
הרח
אוקיינוס
חשובים
פורסם
התקיימה
חכ
הוצאה
ישן
ערכים
ערבים
בלא
עולמית
גטו
תוקף
1940
נאלץ
##קדם
חצר
1979
1973
##בלים
שבועות
##גרים
בכלל
אמונה
##יכים
לעבור
עיבוד
קילומטרים
ובר
לינ
עיקריים
להח
סרטי
קידום
מוכר
בתו
קאר
אינן
אמנים
ענייני
מסוימת
מיר
התייחס
חו
הוחלט
איסור
רחובות
תחר
משמר
##יקי
פלסט
שיעור
טובים
185
X
##וריות
1976
ילדות
b
##th
מוביל
ניג
זוגות
הצעה
בטר
המה
טיסה
קשת
##קין
הפלסט
כריסט
##רין
עסקה
אלוה
##וזה
התמנה
##ציב
רופא
מגורים
מערך
ביקור
300
נאס
##כהן
הפעם
הקונ
תהיה
##ובן
##עש
##יאת
##ופעות
##ינטרנט
1972
סכום
התקיים
לשיר
בחינת
מועמ
רמה
חברתי
משמעותי
כוונה
רפור
נשל
##יסטים
לצאת
קרא
and
##בעות
חשש
שהה
טובת
אפיפי
ביקש
שצ
##חרת
ביקורות
##וריית
פירוש
משבר
שוודיה
לוחמים
לשמור
האיר
וועד
1969
תחרויות
להקים
והק
הצה
מודיעין
קטנות
1978
1983
##ist
מבוססת
##מרק
אמן
הוראה
##סוק
הנרי
השתתפות
##ודד
אתי
יק
a
קולות
ללי
חיות
ניסי
שכונה
הכרה
##BA
שוויון
דורות
חסר
##לאם
##ישת
n
אגף
שבעה
הנג
##גיה
##דיל
שריון
מחיר
##מא
הגא
חובר
חשמל
לפת
שמואל
##qu
ממוקם
שמת
המד
דובר
גרס
לחלוט
1975
האד
עשו
35
לוס
קבר
לחלוטין
החוף
מאז
##פקת
נבחרים
##יאלי
מינוי
הסינגל
##יקאי
##פטן
##est
רביעית
בולג
בוצ
##טרית
אולי
דרומי
טורקיה
ביקר
##ניקה
שיטות
שפות
יפן
בפריז
החר
סכס
התקפה
##ופל
אפר
המוזיק
ווש
##דית
##ard
ואן
הצפוני
נפצע
##יפן
ציונית
אמה
1977
אהר
##ובלת
להק
##וביל
##יסי
סיבות
##לון
סיטי
חוף
ומס
##יסות
זמנים
תמונה
אפיפיור
32
##פקט
ובת
אירלנד
לאפשר
הפקה
##לינג
מנד
##יזם
אחריות
פוט
##זת
לעבר
חבורה
איראן
##ליטים
נותרו
אשה
דמוקרטית
קווי
גוש
פרשת
##og
חוזר
1981
עונות
##ובד
מלכותי
ביצע
##נטינה
הביאה
וושינגטון
דן
שכר
פרישה
מרק
לטינית
גולד
מהפכה
1960
in
מבק
לחלק
פעמיים
##חין
סמכות
עזה
מוסלמים
קדי
##אמה
אירופי
הורים
למח
עלו
שניהם
רס
לגרום
מכר
##לטו
Al
האי
כיכר
דמי
##חית
אייר
זע
תחומים
עמדת
##יגו
מאוחדת
מחנות
המפ
נוסעים
השר
יער
יוד
בנה
##מנים
##דיים
יחידת
נחשבת
סיפורים
1964
##נץ
צו
1947
עשור
##שרים
##פלומט
##וטו
עונש
מיע
במס
עולים
הבקיע
לאזור
שוחר
סימן
הבתים
תופעה
דוקטור
אודות
רכש
אלימות
במע
##בורה
Re
רכבת
מכתב
הבל
שוד
התיישבות
1949
לרכ
טכנולוגיה
טקסט
יצאה
##יתר
מנכ
##ילס
##גלה
ריצה
##ap
מנוע
הצפונית
##נך
סוכנות
##בדות
האג
נפרד
##ָה
קפטן
בליגת
שהש
גבולות
עיריית
##בוש
##ובינ
דעת
##יצד
##ניין
באות
ליגת
1965
תשע
הקומ
לור
פיצ
שד
אוצר
עימות
מדליות
1971
פדר
אויב
##דינ
##פילה
##בית
הלו
חקירה
!
דיון
פסנתר
##ימוי
##מטיקה
מורכבת
הסט
לשנות
ולעיתים
ייע
רגל
מחבר
קצרה
לחזור
נישוא
העברי
##וויזיה
והח
מושבה
כיצד
גיוס
משול
נפתח
צדדים
מדר
אנגלי
סוחר
##זהות
גבוהים
##ילד
נורווג
הפת
משתנה
ומצ
##av
הודיע
מעין
ירידה
##סמו
##דיות
שלח
חיוב
180
אינט
להיכ
##ak
##קנה
הפסד
##חדות
ניהל
חלקי
גרסאות
##ימור
נשוי
צעד
הזד
הצגה
מהת
אגודת
טבעי
##ומיה
אישור
שניות
להביא
סינ
1950
מצא
טמפרט
הכריז
קריית
##נדט
שומ
נסי
##ab
הקימו
גילוי
##יגר
סרטן
הארכ
##יתית
##כרים
התקבל
לצי
##יאוף
חיפוש
צופים
כבד
פרסים
##ושבי
אתרים
הקיס
שורות
השל
ברור
מאח
תנועות
דייוויד
גילה
ייחודי
חשבון
חבל
מכונית
נפט
היע
הון
חייל
סיכון
להעביר
משמעותית
מהמ
במאי
המז
##וכית
האל
גליל
אוב
שיח
בוו
הועבר
האק
##יסטית
סופית
##ine
##גוון
ורי
המפור
מתחיל
זהות
נאצים
לרב
אזרחי
400
במת
##יהם
##עזר
תכונות
אחרונים
שרון
##סמ
##כול
מבלי
##וית
ודי
מכה
מימון
התש
הוענק
עק
להשיג
##דורה
לפיכ
הסדר
סקוט
מגיעים
לפיכך
##עור
שליט
אמור
##חקר
אוכלוסיית
ויקט
נוסח
עצמאית
מחול
דתי
ניסו
לקב
רשימה
יפו
##טלר
רדי
##our
##ניט
הגב
##וואי
##פון
עכ
להמשיך
##כירה
##רינה
תרופות
תמונות
1946
עו
נהרגו
יועץ
הסתי
תינ
הוקמו
##יי
##מעות
צעירה
כתבה
רשויות
##רכות
##ess
כולו
מינה
לעולם
צורות
נהג
##מנה
הפסק
הקור
##סמה
ציפ
##ולוגיים
תשלום
העברת
##עיף
המונח
ישראלים
השי
זכייה
פליטים
מגוון
כדורגלן
האינ
מעצ
רפואי
מתכ
An
##ושות
כותב
נשיאות
נשלח
הביאו
קס
ייצ
חיד
##אפ
ילדה
משתתפים
1963
1938
להופיע
מצור
ניסיונות
חוש
פלא
##סטן
##ברר
המנ
רוסים
##ויי
מאפשרת
ריק
עדות
בכיר
גרמו
ארוכה
ארד
קשורים
יישובים
##וער
תחנות
צדק
מאפיינים
האצ
אמריקאים
יפ
##וצות
##סטון
איטלקי
חזקה
הוציאה
מיוחדים
אומר
הוחל
ויד
##נסים
##ריב
הלם
##ָּ
##וּ
##וצרות
התמוד
Th
36
##בסס
##ill
מלוכה
סוגי
הציע
תסריט
ברצל
מנצח
##וקראינה
רגע
ברצלונה
חלוקה
ין
הארמייה
שירותים
##ולף
ליל
ובס
Mar
תוס
נוף
מריה
1961
נולדו
שקט
הוט
מתב
פותח
##לחין
סטי
נאצית
ואר
התכ
ניקול
##פיות
1936
##וֹ
שבט
מסוג
עובד
כחול
##ושע
##שע
מפגש
איפ
התחיל
##ביב
##זוב
עוזר
מסמ
##לע
הפסידה
רגיל
באורך
להתמודד
גיב
הפלי
סביבות
##קדמות
סוציאלי
תקופות
מקורית
##BC
הפקת
האקדמיה
סוב
תות
ירד
נישא
לכתוב
להגן
דיס
להשתתף
##ne
NBA
##נטה
Ar
מפיק
##קיים
עיתונות
##וריים
v
אבי
שימשו
##אנים
##ge
הנמ
למעט
מאמרים
להסת
##זיל
1958
##if
אדריכ
השפעת
פלישה
אנו
##רבים
פיגוע
השמ
זאב
קולומ
מבקר
##ht
ובה
##דס
נאמר
45
מיליארד
חוקה
משותפת
שפר
מיוחדת
למדה
סגל
מנצ
שלטונות
##ארה
##נמרק
הופך
פרידריך
##ועת
כתיבת
לזכות
##קית
מחוזות
##וכת
עידן
לני
עלילה
ך
בולגריה
קרוי
נגב
##ובסקי
##אורה
סעיף
##ווד
התחת
שרה
תמורת
##כט
##בא
##מאות
חטיבת
לוב
סטיב
מהיר
שיפור
בגד
179
רצי
תלמי
183
גאורג
השכלה
הסמ
הופיעו
עצב
קריאה
לנג
קליפורניה
שיו
יפה
היותו
##כם
חוקים
אתלט
##ud
נהוג
##ינור
##נהל
##וסטון
##נסי
מופיעה
רפוא
סובייט
##ber
לסייע
עשויים
יעד
נוסדה
אמת
אדוארד
משפטי
קנ
1955
הנסיך
##יסים
תיקון
עוסקים
הסכמה
פוליטיים
הובילה
עותקים
רציפות
##גיט
שינה
לדעת
ספינות
ראשוני
##זרה
דווקא
##דרציה
מאמץ
שטחי
מקרא
מכשיר
תומאס
עצם
קרבת
ולמ
נתניה
סיני
והייתה
##ell
דל
##וגרת
היקף
גרעין
##all
המשיכו
תיירות
רוט
מאנית
טרם
מקבל
עליית
קיסר
=
##ימר
גדוד
##ופט
##זבת
הערכה
רופאים
1953
##יביות
##ct
יג
חני
מחלת
##לוג
אירועי
להפוך
להחז
##שן
##נדו
פריז
אמיתי
נעשו
##ran
1959
תמורה
מעשי
##פלה
##ניח
מילואים
יבשת
ומי
יצורים
שהצ
1957
מתקפה
התגור
פתיחת
תפילה
##ולן
1954
נלק
התב
מאור
&
קוק
דוב
תפיסה
1918
##צור
##20
נבחרות
מאסר
##וסק
ארלס
טוענים
הועלה
התקיימו
##שיות
##תייש
יציאה
דניאל
יהיו
##מק
##נסיה
1952
זק
מידת
אישיות
1933
סירב
מאד
חזק
בשר
שום
משורר
מאחורי
##יקטים
##ודו
אלון
זילנד
איי
נושאי
חיילי
לעמוד
רואה
איז
הכת
##ובע
##ורתי
דעות
##טיל
פעילים
בתים
עירוני
העמ
מרצה
ברזיל
החליטה
שלבים
##פיר
יי
עזרה
ומע
מצרי
עיניים
גבעת
##מציה
היטב
צמחים
##וגוס
חובה
יוכל
מוצרים
לאומיות
כרט
##ונתה
ישנן
ספרייה
##וויל
התפטר
תקציב
##נדס
קרק
##נקה
שווה
בחיל
נדרש
טא
1951
קינג
הרפ
דואר
מרטין
##וויה
גזע
חמצ
לקח
מרדכי
אורי
Ne
מהווים
פורטוגל
מתנג
משמשים
מית
ציד
##תור
אמנם
פעלו
33
##ובוס
פרנסיס
פשוט
אישית
מעורבות
אלג
תפס
##ודור
מסר
שלהי
עוסקת
הצטרפה
נצרות
]
בטי
1920
נפוץ
ארגוני
מישור
##יסוק
מעורב
ביש
ששת
חברתית
שמע
פרשה
יתרון
מוקדם
##יציה
פיטר
סופי
תרומה
רבע
דרגה
מבצעים
יקר
הארי
יידי
[
סקר
150
צרפתים
דירוג
יוצר
המרכ
##מינ
##פקה
אריה
Z
והג
המופ
פתיחה
##חרה
##te
חופשית
להוציא
עיקרית
עיתונאי
נתון
##יטות
מייקל
זיהוי
היטלר
יוצרים
נישואים
לואיס
והה
ניסוי
שירי
מייצ
##אוט
ולק
מספיק
צריכה
##שרות
##כנן
34
עקרונות
והפך
מפלגות
##טן
משרת
ינג
שבעים
טמפרטורה
##פורט
סכסוך
מדויק
##ביא
והכ
ניכ
האוני
ויט
בלגיה
שופטים
להתח
דלת
De
##ub
מיכאל
בצד
כתר
חלו
##ריע
פופולריות
עצמי
Le
אומה
הכשרה
##ילום
קדושה
##דין
Com
וקר
שלושים
ווד
הדיוויזיה
בנימין
##פח
נמוכה
##וור
ומה
קצינים
##אול
ובע
##ian
בלה
הרים
אלבומים
שאלות
כספים
מצבים
מחאה
המנדט
##וגו
##ורם
השביעי
רובם
שמעון
התפרסם
##ארק
יצרו
יין
##גנ
אוסף
השלי
בערבית
ניכר
גוריון
קטעים
##ip
דתיים
למש
הנחה
השוואה
מעלות
תיאר
דימ
פשע
##לכה
##זציה
##שרו
בוחר
כוחה
שתיים
##והה
##איים
אלופות
עשיר
##תיו
דח
סלים
קשור
אתיופיה
זרים
##אתה
תאריך
תערוכה
לספק
1935
סיל
בקשה
##מני
קשיים
פנימי
דקה
##לקט
זהה
##ופיים
הסתיים
שערי
##וכר
בפרט
הסתדרות
מיוע
##מלית
מציג
##גרית
ץ
בגין
בערך
העביר
אלוהים
הגדרה
מלאה
רחוק
שבר
##ילית
כימ
##קלי
וינ
גיבור
כונה
##זע
##נסו
ישירות
גופים
1934
##ציפ
כיה
לדי
למוזיקה
הבי
גבר
הנש
מהש
אותיות
משטרת
הולדת
שוכנת
שיד
##פרד
הולי
פרוץ
##שיו
##קבלה
לחם
הקברות
יוח
קופ
מילים
חופי
ליא
אסירים
משימות
פוסט
קהילת
##בירה
מעצר
מפורס
למת
הספר
פתוח
מתאים
מפת
##יפורים
##art
##תייחס
ומח
חברתיים
##ילוסופיה
##ְּ
להיש
עדויות
##בשה
ובש
סח
נוצרו
##NA
##צרט
הפול
##ִי
הישג
האסטר
##יטר
שייך
אנד
וכת
היל
ישו
העניק
##ליטת
מעגל
מתגור
##בדים
האמריקני
הועברו
תחתון
הפיז
להיכנס
רצועת
תארים
חשף
נבנו
דגש
נרצ
צבאיים
התאחדות
ביטול
פועלת
שורה
ההופעות
##זרת
פיז
##ִּ
נוכחי
ציוני
מכללה
ארון
##ידא
חמישית
לואי
אנה
רעיונות
חמישים
לאל
מורדים
הצטרפו
מינכן
עושה
##יסטי
דינ
ישבו
שגריר
רואים
עליונה
לעזוב
##סלי
התגייס
נבחרה
##ולוגים
מהר
38
יושב
עמים
אלן
שמירה
החלטות
בדר
אולפן
##נסקי
הנדסה
ולש
כק
מיקר
קודש
מנהלת
סיפר
גשר
##וללות
במונ
כספי
המוס
קשות
נכתבו
יוה
הגנת
##אווה
מכוניות
##נאי
##אונ
נורווגיה
פרד
כשל
הירי
אמצעים
אפש
##נש
הקשר
182
מנחם
יידיש
##וזים
באו
מוני
פולנית
ואי
לחש
##פרס
##יווה
##עיל
שיקום
הלבן
חשובה
המוש
##חנה
##ליהו
ישנו
##נלי
אתרי
העצ
##ומם
מראש
מכירות
##ולטה
ומכ
למדי
##io
##יזר
##ימון
בונד
הקלטות
##וזן
אפריק
פוליטיקה
חסות
l
הכח
הובילו
##והר
נוכחות
קוס
יצרה
צומת
תשובה
מפור
##לטון
אירופית
75
בטרם
לתק
הטי
האקד
##ph
ממצאים
Un
רוחב
עשויה
##איר
נוצרית
##פשט
האב
מפג
זמנית
האת
וייט
מיט
הצלב
##סטנט
היד
חייב
בדיקה
שהוצ
מסוגל
סובייטי
כולה
ממוקמת
##פך
##ain
מוחמד
סובייטית
שנש
המודר
הפרי
לפתח
##גרות
שמינית
מתקיים
הצבעה
##ולדה
כפרים
כוס
ימינו
הקפ
קובע
##נהג
בעיית
איום
טענו
החי
אינדי
וות
הציג
אימון
930
##מרי
w
##נבורג
##וגות
מבחן
קומוניסטית
##וגן
יהודיות
נאום
##ואות
לגמר
קונס
##וגוסלב
סמית
שליח
##נטון
##קון
##ומנט
##ופיות
לפג
1917
##וסקבה
מולד
יבשה
פלור
1919
גרמה
מקומיות
מקסיקו
סת
צבעים
מוסקבה
שפת
##וויזיון
הכרי
ראיון
אוסקר
##נוב
אוש
מושל
בצי
רות
ימין
ונש
##זון
לקחת
מקצועי
יסודות
לבד
הודיעה
מתכת
נרחב
##כרו
ובנ
בבל
בשירות
משמשת
מניעת
תוא
תחתית
נופ
הדג
הברי
עלול
תיקו
חיס
איתו
נשלחו
ובא
##ללו
מתים
מצויים
קלות
##פקיד
אותם
פיליפ
קואלי
##ry
עשיית
##אללה
קנה
סלי
החליטו
##חקנית
אבות
אוניות
מהא
##מלכת
תאים
פעילה
נסיך
Sh
מאמצ
באס
חתונה
##סיף
הדרגה
כעת
בכירים
ליטא
עג
יריב
##ורתוד
מביא
##ight
##יסטן
אספה
מסך
מכונות
אדריכל
כלשהו
##דק
##וגרפי
##וכי
חיר
קתולית
השראה
##וריא
שהע
##בלות
פרוט
##פלד
דרישה
אבט
תרם
ביא
כיכ
המוצ
##ידוד
צעדים
קדם
##וונים
הופק
##גרם
האינטרנט
ארכא
מסדר
מלווה
יהושע
ובית
תופעות
##כנע
מקל
טריט
הונ
גירוש
אמנויות
הנהגת
##יכול
אחדים
תביעה
קורא
תוספת
מצליח
מטבע
פרטיים
ניסויים
##ant
לספר
מגרש
הזמרת
##ידון
##כרת
##יביים
נרח
דומים
מחשבים
מתייחס
ובי
##ord
##יווי
##תרת
דק
##ירא
הלה
g
חלוץ
##וצרת
פיקוח
##זוק
גרא
חיבר
לתואר
צהוב
לעלות
##זות
##יצי
##ינון
עוצמה
שהק
1929
Sp
48
מתקן
עצמאי
כישלון
##יגות
שגרירות
##ובליק
טענות
כלים
למר
##טייה
מגע
קצרים
נלח
##נקים
אבר
ההיסט
לוחם
מספרים
להלן
אדי
פנה
##משת
1932
פעילויות
פופולרי
קנדי
שוחרר
ביטוח
##מדו
ממוצ
שכבות
עוברים
בוג
יסודי
##יגן
היב
בהרבה
##ity
סטט
קוריאה
תשת
מצלי
##עיני
והשת
הגיש
מתרחש
מתע
מיעוט
לרבות
##קרה
לעסוק
כיסוי
##ומנות
ליכ
חצ
תהליכים
העל
##טא
קולומביה
עיטור
מציין
יעוד
העפילה
מתרחשת
ראוי
תרופה
##יטת
רשתות
##ושם
##רביה
1921
בסט
אילן
והיו
דיכ
תשומת
הבדל
הבול
+
נסע
ארצי
הוכרז
ידיעות
התגוררו
בפס
התאר
שהשת
אופנה
##ורטוג
עוק
44
##וזיציה
תקיפה
לשל
בשביל
##ימויו
הביז
##אלה
שלילי
Pr
##אלית
##יפו
##ob
מליגת
מוצר
##ַּ
כתובת
כלכליים
הבד
עובדי
לנס
##גורית
דיוק
שומרון
קודמת
רוג
מגיעה
נייר
ניצחונות
עברי
לקיים
##יסדי
טונים
אובי
עבדה
להצטרף
הושל
42
##מידה
חקיקה
##נור
הנהלת
שמיני
מסורתי
פנימית
שמונים
##ארו
סכנה
נועדו
הנהגה
יוכ
שכונות
טניס
פלט
181
##ומק
##נסט
שעת
נביא
שבא
בדיוק
##רמ
לים
מארק
מלכותית
##כרות
פקולטה
פילוס
הגירה
טעות
מתוא
נעצר
אליהו
##ive
עממית
יישום
##נשטיין
הצעת
צלי
##וגוסלביה
מניות
סוד
החברת
ארמ
##וכנה
גומ
ניז
אדריכלות
##יהו
לנצ
טרנס
לחק
סופרים
דומ
שולחן
##ודיו
##ימיה
הפסקת
בשיר
ממשיך
אוניברסיטאות
##סין
היכל
אבו
אסט
##ינשטיין
לקדם
##טית
מינית
תשעה
אליזבת
Am
##וויג
המאו
משכ
בגרות
##קטיקה
ייסד
600
אריק
יכלו
You
החמ
##ירס
1924
מלכת
מסחרי
עמית
כותרת
ליב
גופ
חנות
הכי
##ולג
זמני
חנ
בפי
ברכ
הקה
האיים
שנב
חנויות
בקטג
מקד
##נייה
שוער
##ילון
תד
ידועים
##ויט
##ולל
שמן
להי
##ינתה
מסי
מטרת
מזג
המתאר
למנות
##גרו
חומרי
הזמר
אנושי
עט
הפור
טוען
סיד
##ופק
בנג
הוסיף
##ens
1931
השיג
היסטוריון
מאב
אוק
ציין
שיב
שחקני
##ציונ
קדיש
##ich
Con
1922
שירותי
בינת
וידאו
להציג
קודמים
לער
מועמדים
בסוג
היינ
הדוכס
דרכי
קיצור
פרשנות
אחדות
שהס
Q
לומדים
כאב
מקרי
שיחות
39
בהצ
רמב
מזר
פו
##אסל
לפעמים
##בלת
מקצועית
##וניו
##מונד
יעילות
מארי
התייחסות
ניצב
הפיכה
מורים
ומא
##יחסים
##לף
המחז
##זרו
ויס
##זמן
שותפות
קפה
ההול
המור
##ילר
לבנה
עקרון
##ver
הזדמנות
חולה
ראייה
מחתרת
##חנים
##נוי
##חתת
איכ
לרי
משרה
התפתח
סמים
בעלים
##בורד
אלפים
h
למה
המודרני
דופן
כאמור
אנושית
לנק
חות
מדריך
##יצים
האו
צורכי
מהגרים
##יחוד
דרגות
טה
דרג
צאצ
אונ
שנתי
רו
ניר
##וגי
חלוקת
חסרי
ארתור
רצה
##ורן
פומ
פוס
המוק
הפעלת
נועדה
##ופס
האלק
52
##ונלד
מכהן
האוסטר
ביס
הקלא
##פייה
לפגוע
סיור
הכנסה
ריש
השתמשו
בחירת
##ik
גדלה
להבין
תוצרת
55
ביפן
מנהיגי
##וטית
בודדים
##ort
מקובלת
##ימנט
הגל
נכלל
קתדר
גיא
עיתונים
חיה
מוסר
##וזי
הולך
בדיקת
##ארט
סבל
מסוימות
התה
הצגת
ידידות
מסכת
מתנד
לווי
מכירה
נוצרי
בתם
האפ
מסמכים
תלמידי
תעשיית
##ue
נישאה
פציעה
1925
השרי
לכבוש
חיצוני
ממי
פיקד
נחתם
##פין
##ווייץ
ישיר
הנז
קרובים
התעל
להתגורר
##אפט
ברב
##וכלוס
נבנתה
##ישוף
##נטיות
רשם
נישואין
הסק
שוא
מייצג
האות
##וכיח
##ליפה
עירייה
הקב
כרמל
##ast
##per
##מנו
חלה
דירה
פשטות
Be
השפעות
נתיב
פרויקטים
מושבות
דמיון
במגוון
החליף
בבימויו
לקרוא
##ננה
מצו
אייז
הרפובליק
זל
##end
עריכת
קרקעות
סימון
מובילים
שוכן
בטור
כינוי
##לאות
בסיסי
ונג
המות
800
פינת
ברוק
##גרי
הלך
##גדיר
##שום
##ומנים
Me
קיש
עיקריות
##פילד
אימונים
בינתיים
לחיות
שאול
כור
ערבות
##קסוא
רוצה
תחבורה
בדיקות
סניף
הדרכה
כללו
זוהי
חוקר
ממוש
נרצחו
##וויץ
##ידית
לזהות
מודעות
##חלק
חלקו
פח
הכיר
בראון
לכאורה
האנט
דודו
לבחור
##מנית
ציונות
##סבורג
##ust
##כרה
ברג
##aw
קוט
לוט
דנמרק
47
##גלו
He
אמרה
רול
הבנה
באקדמיה
##פרו
קנט
מסל
קומדיה
הרמ
##ck
מצי
רבין
זירה
##דיף
תוע
ושל
##ינגלים
פיט
##יחות
טוק
לכהן
##ok
פרץ
הגרסה
יוק
ציבוריים
קלע
רומן
מלה
צלב
אקר
אוטונ
הפסיכ
בצל
אלכ
גורמת
סוס
##ודש
##ופף
##מונ
רימה
קבלה
##וצת
מהות
לקבוע
לגלות
תו
בהכ
##וזאור
##מולה
למחרת
##פלומטיים
התגלה
יחידים
ונסון
120
התפתחה
##נדל
בנים
המדר
נותרה
נציגי
אורג
דונם
זווית
יוצאי
התברר
והב
ספרדים
טירת
ף
##ld
במא
מצאו
ליפ
לאר
נוצרים
שדר
יציבות
##לאו
##לויה
התמודדות
לחל
לורד
חזרו
##חום
הפוט
עומדת
מדעית
מחבלים
הגן
פצוע
נמלט
המילים
מחליף
##פרה
##רייה
בסין
חיו
יזם
גבוהות
נוסד
##טין
נטייה
פגישה
התקליטים
קביעת
משתר
הספרדי
ובנוסף
1923
ידיד
מונט
יוכלו
סצ
קורב
תיכ
תוכנן
##וואן
וסיים
צילומים
##טת
##ind
הרוק
ארבעת
קואליציה
הבה
השע
1927
דיסני
##אדה
הקו
לקרב
שקר
קרובה
נטל
בוצעו
תכונה
##יפוס
הפצ
יוב
##פנה
האנג
נערים
##זל
##בלה
רוזן
הכב
חשיפה
ללה
##יתת
באט
רווחה
מתנה
לאו
נחשבים
הכול
אסטרטג
מצווה
קרח
המושל
בוגר
גבעה
שהוקם
התגורר
##פנים
מדריד
הבוגרת
איתן
נפול
הבכירה
אלמנטים
##ינסקי
##רבויות
64
במח
שהו
הודחה
משאבים
##בורן
##יגל
הולנדית
ציוד
##לכ
מעוני
ההפ
הירח
טול
צליל
הומ
גוט
קוו
רכוש
1926
##קש
דרישות
##אנית
גולים
וועידה
##ְג
כף
##ינד
וויין
הרומן
##לד
חוות
הכנ
מחסור
הסבר
ארס
מתוכ
בוסטון
##man
וועדת
##דיק
פאול
רכישת
הקורפוס
נהגו
##חרים
הפרדה
מבר
##גלים
כיפורים
רשמיים
מכללת
שחקנית
קונים
שוטרים
שהוקמה
##קלאי
אינד
תלוי
##נאם
ונק
טנקים
הפלסטינית
הישגים
רעב
אבנים
##ונר
ולהת
להרוג
שווייץ
קסון
Br
תורג
אנטיש
טלפון
משתנים
ארגנטינה
##סיס
לגד
האונייה
יוצאים
נו
מאמינים
הסתיימה
תמך
לפנות
ספי
##וחת
טובות
השקעות
43
חקלאי
##בך
מספק
דיונים
דוגמאות
כושר
לעזור
##גם
ומר
הודעה
##ate
##וגת
בעצם
יומיים
לומר
לשלם
אספקה
מפורסמים
ולח
פולני
##בורת
המו
פוטר
##ולטאן
##וזל
מהס
קבעה
אורתוד
65
נרצח
##ss
תז
ולס
178
##ליץ
En
להתע
##ניום
נסיבות
46
##נטו
##יטו
מוכרים
סיבית
הלכת
##טיינות
##אמס
נועד
פולחן
##יצות
אליעזר
הגדוד
חשב
אולימ
חזקים
##יטד
האמריקנית
טבלה
ידיעה
ייס
תיבות
##יטל
##ליפו
מודרניים
אסור
יוסי
ביצעו
פוליטיות
מנחה
כלב
דתית
מצומ
מזוהה
e
נחת
ا
##ריאל
שהות
פרנסיסקו
##ירוב
אוזן
צרכים
פאל
הקימה
אוז
##נקו
מגל
##קטור
##רטה
הנור
מולדת
חמצן
רפורמה
##ice
1912
קהילות
שיג
לפס
דגים
לייצר
##ational
ואחרי
תקנות
מלאכות
##גול
177
תומך
בהתאמה
החת
בגרסה
הוצאות
משם
לימד
II
למס
קשים
יוש
##וניקה
מולק
##ודעה
מערי
איסוף
טורקית
אולימפי
שנוס
חשובות
איבד
עצמית
מרח
##סליגה
דרכה
בונדסליגה
שרים
אילת
שישים
מהרה
שלם
##נטר
נער
שיווק
דרש
מסמך
מילא
##סיק
להד
##פיע
נובל
נפגע
התקפות
אולימפיים
סימנים
##פנות
סוניה
חזה
חמור
סולם
##רכיה
התנד
האסלאם
##יוו
##וברים
מרכיב
ברוך
הביס
שרת
זרוע
להימנע
##לובקיה
השלים
נפוליאון
ניסתה
התחלה
##זיים
לגור
##ווית
גופה
##משך
צמי
מחו
##יקן
להיל
מהנדס
##סום
##זרחות
האול
to
חומות
מלחמות
מופיעים
ארצית
##ies
שיכ
ובשל
המפורסם
##צרו
מפעלים
##גיון
##קרנים
מחלות
זקן
החזיק
הרצליה
אגם
פופ
הטב
מקבלים
1916
דמוקרטיה
##וזר
BBC
סור
##ודיים
##מרון
חידוש
ירו
יבש
נהגים
##חיית
##יאני
עורכי
##oh
גילי
העלה
צפוי
מורשת
ריאלי
הודות
##פויות
במצ
התנגד
יאנג
מקסימ
חוזרים
יוחנן
נובע
אירי
##וקטורט
זמר
מרץ
תפקוד
גילו
##קיימת
##ואב
##קבלו
נפגש
i
##יבא
Is
התחתן
מיק
מתה
עכו
גג
מוקדמת
מונדיאל
##יפוי
חימ
##ירן
שודרה
##ly
בוס
הנצ
רובה
להישאר
גשם
##סטיות
שריר
מוגבל
פרטית
להט
##רְ
הימ
כרטיס
יוס
חירום
מתגוררים
##oy
אבני
נורה
##ug
##ארית
##לקס
שורש
##ילתה
תינוק
וצי
##נחנים
לנסות
ציורים
שכבה
51
הרש
מרת
פגש
שהמ
לדבר
ביתי
חייה
אהרן
פייר
וגר
מחשבה
##נין
נשארו
##סידי
מתו
לחקור
חשד
להתא
##בוק
##יקאים
אוקראינה
##ae
##ib
אחי
מצוות
באשר
##יאס
מדליית
מחי
תומכים
עמוד
ויקטוריה
##ליס
הקרח
##מדת
##וקול
##וארט
ליש
מוסלמי
כאל
איסט
קוראים
##ֶּ
עוצמת
לרכוש
אלבומה
##ובב
המוג
נפטרה
מאיים
##ודיות
רגשות
מאמצים
המוט
שליש
##וקן
לשאת
הגשר
ניצחו
איננה
נציגים
##בטא
אומץ
##בקש
##מול
##one
קפרי
טבעית
תחמ
אזרחית
סייע
##ומטי
מעבדה
##כלים
##קוס
##בלי
תקף
תפסו
סיכוי
מתואר
ישירה
מסורתית
החלטת
הנחת
הוראות
במל
שרידי
##וללת
אולפני
אווירית
טון
ניתנה
מאל
הוראת
גש
##וצרה
לזמן
פרנץ
הוצע
y
##נטיים
אוד
מטבח
נוק
ועבר
דאז
##דוד
אגדה
לאקרנים
##אנג
בתלמוד
הידר
היפני
ראשיים
והנ
עניינים
##כוח
חלונות
וחבר
יוהאן
##קיף
אלבר
##כויות
##פריד
הבט
נכבשה
ספורטאים
מאני
##ידך
קליטה
54
סיעה
רכשה
דיגיט
הקליפ
פירות
מטבעות
במוסקבה
אוח
גלא
עובדת
דייוויס
##קסיקו
מזה
לשכת
מחזיק
לסי
מסגרות
##לחמות
בשבי
סופרת
אנימציה
לעצור
##לקת
במרוץ
##פסת
לפתוח
Se
בסק
מהק
לנהל
בוש
מצל
משרדי
##ואו
בקטגוריית
טופ
סו
הפרש
קורבנות
49
##lan
ופי
יקום
לשרת
פיתח
מתקד
בצע
ילה
הנוצרים
ההש
כרב
הפעלה
##גרה
היעדר
מכירת
ולת
אחוזים
הפיק
זכוכית
קיס
להציל
##וידאו
##ונא
מובה
גנ
הסימפ
שכת
סנטה
איתה
##ure
מתקדם
##בוע
##ובנים
מנהלים
ונת
הוחלף
למחצה
בוי
אשכנ
הכנת
איזה
נאצי
הטיל
##land
להתקיים
##ואלה
נפתחה
Sc
Wh
פער
נפוצה
##ירוש
הדתית
53
בקלי
##טיני
האור
הבכור
##נאות
הכנסות
צילום
הטרי
הממ
צפונית
השגת
160
הקמ
##וויי
ממס
ניצול
##וחק
אריאל
58
##נציאל
ערכו
##גס
להילחם
##לטים
לליגת
##פריק
700
##ינסון
החול
נימ
##ביע
##ond
עזבו
רמות
##ish
להחזיר
לאיים
מוזיקלי
אפשרויות
##חיות
מוצרי
בתא
זא
דיסק
מקוב
ולדי
לגמרי
חוט
ריא
תקן
1910
להחליף
1913
הכהן
מכתבים
פונים
קורט
##לסון
אישים
קונסטנט
פסל
הערב
##אונדים
ומונה
סה
יזמים
בתמ
דיבור
עמדו
Wor
יונייטד
##ff
##ביץ
לרגל
סוחרים
לחת
##וכח
לנד
כיתה
##והול
שהח
דפוס
שבועיים
ליס
עלילת
פרסמה
##נסון
מסקנה
אלברט
אופוזיציה
בטבע
מקצועות
פוק
##לייאוף
##צקי
##כנית
סבב
שוט
מותר
ונה
עצבים
בחש
מהירה
##פסה
##מרו
הסי
ויז
הוצג
עוברת
הכינוי
לנצח
במהרה
קטעי
האט
ארצה
76
התיכ
הרחבת
##ove
שבח
מגמה
נאש
הפגנות
רמז
בתולדה
ריבאונדים
r
ال
אטל
האופ
##ליזם
וזף
##וול
ליכוד
לייב
##פטר
##ונקציה
מרכזיות
עירונית
תרבותי
תגובות
250
בקפ
עומדים
##אקי
פונקציות
בוב
כפול
צומ
שמחה
##אנט
וגד
##ore
התבס
הפדר
יומי
הוצגה
התקבלה
הקרי
תקנים
La
סלע
בווינה
##אלו
אובדן
מחלקות
צבר
ארוכות
שבעת
תושב
מוצל
המשול
תחושת
גובר
מגזר
האסלא
ענפים
##ננט
נסיגה
##ביבה
השתי
אותן
שז
בגדים
כלשהי
מייסד
גדה
התמק
k
פעולת
##לוס
סמכויות
ביקשו
ריסון
קלה
שלו
נוצרה
לקוח
משלב
מורכבים
##ייד
ויק
ארנסט
מתחילה
הַ
אחורי
##ect
עלות
מתנדבים
##ier
##יכוב
##ונצ
חולי
למא
הער
נערה
##רבו
קדמו
צרכ
הולם
עלולים
##חרו
הריון
##יאו
במשחה
פנט
גילמה
שיש
השבת
קניון
##גלי
עשרת
צמוד
מילר
הסובי
חוברת
כפייה
##ואטיה
אתלטיקה
מרים
לכבוד
מנהיגים
וינה
נמנה
ממונה
בריצת
יחדיו
##מיית
##נדים
חנה
יליד
ערכה
בכינוי
ושב
ניכרת
אדמות
והוצ
קומות
##ong
הפסיד
שהתר
ברורה
אקט
##מפ
##ass
רוי
האטל
ולמד
בודד
מקצועיים
מותה
רפואית
חלון
העמותה
נאלצו
לברוח
ייק
בוקרשט
##יערות
המוע
##ונטו
##ונטי
במכ
##יאנה
##ציני
כרי
מנסים
להבחין
##כתי
##ודרת
##פסיק
לעיל
מיסים
נפל
לקוחות
רפורמות
כוכבי
גרסת
פקדה
לוג
כנסיית
להיע
שחורים
רוכ
לציין
##מם
##וטות
הצלה
ריאל
לימודיה
##iz
פחד
##ולין
למות
להתג
חודשי
##יבר
נסיכת
צפונה
לחיל
בעונה
הארכא
##טיבת
נתניהו
##ire
##נקט
##מותת
אמיתית
בודפשט
מאו
מסק
##מיקה
##ענים
עבירות
ומד
קשורה
השישית
מוגבלת
##ילור
##ירתו
האלקטר
בורג
1911
מדורג
##ica
לשר
טורקי
הפורטוג
הודיים
מגר
ביים
התגלו
מונחים
השחקנית
##שייר
אספקת
פוליטיקאי
##מונים
אפור
רז
##ודרה
בשח
1905
להעניק
##יאט
קילומטר
שרדו
בידור
בונ
##יגים
אושר
כמויות
צמצ
##גוריתם
איכרים
##בורו
סקי
##אום
המוב
נכשל
להימלט
פתחה
המקור
נאמנות
##ופרת
התנ
שמאלי
סדרות
חפץ
קונג
איך
לאה
רגילה
נתפס
תבוסה
ירדה
לשוב
הכריזה
איננו
מזל
הצלחת
בווא
נעשתה
שטי
ראיות
קטל
המלא
##ood
##ath
##זרים
יוגוסלביה
המוזיקלי
עיתונאים
תומכי
הסינית
צריכים
עשתה
חיזוק
כלכלת
להניח
היווני
לשלוח
##גנו
לתאר
נרש
קינ
רומנים
מדד
##יטס
הקונס
הפצת
שהר
הרומאים
מיוחדות
תוכן
מוגדר
תקר
##נעה
##קפת
בניינים
בכת
הצעות
לתקוף
בקב
לאמ
לאס
שהכ
התאוריה
אפקט
ביצעה
להוכיח
##בני
דגמים
טורקים
תוכנה
57
הפש
להוביל
נוהג
ומג
שפל
עשירי
אומרים
החס
קבועה
Ma
שמא
שמירת
דיור
##ניו
חודשיים
הית
##ונגרית
מצרית
החברתית
##ורק
האירופ
רגלי
התלמוד
##ילם
בולטת
ויליאמס
##ang
##וונת
סטרי
עתה
אמסטר
Gr
פונקציה
##יגת
מעצמות
My
הראש
##לווה
עורר
##וסטר
גינ
##פירות
נכונה
דוק
קשרי
##פוך
##וצץ
נערות
מייק
עסקי
רפאל
רה
מנגנון
המקר
##פילים
יוצרת
##ולק
##ואיד
מקביל
אפל
יעל
חקלאית
##גרד
נאו
##tern
פרצה
חוברות
תסמ
קפריסין
בנוי
שייכים
אפשרי
שיקגו
##טרת
נוהגים
אונים
ובמקביל
##גיד
נכנסה
פנימיים
##ורש
התות
##ובש
##וזא
המדרש
הוצב
מפעיל
##ith
ליצ
דתיות
יתרה
נמנו
שביעית
##יגול
היינריך
מורכבות
הווי
אובייקט
ובק
מזכ
קתדרלה
נאמן
לבקר
ללמד
לסגל
אינטרנט
טוני
יודע
##זב
משהו
85
##נזר
##יפון
טיר
##טרנט
שלטו
בקונ
##ליך
האזור
צבאו
קומיקס
באב
במק
לידה
##כון
##ide
##פלי
יניה
שלבי
מובן
בטיחות
עדה
נשר
מאורעות
##פד
ענפי
##לום
תרמו
המוקד
הפתוחה
בקרה
##ומון
פרטיות
דיין
##וציה
##יקון
לטפל
קולג
כהה
זוהר
אמסטרדם
New
מהל
הפרוט
##נום
מודרני
We
מיצ
רכס
הביע
בקנדה
קבועים
כיפה
לשלוט
מעטים
מטאל
בנט
הגדרת
פשוטה
היפנית
מלוא
פקודה
בקצה
שוור
הליך
סביר
##יקלופ
ברט
גאר
סיא
מסוגלים
##תיישבים
##וגרפית
טיפוס
הושאל
##נסיל
חתימה
האפריק
ליק
הועברה
טקסטים
הקמה
כלבים
התשעים
קהיר
קרה
1908
שדרה
##וליה
##ונתן
לאב
##יסטיקה
סרג
לפרסם
היוו
המסת
מוכן
צמיחה
ובפרט
מהה
שפירא
קצה
שמצ
שדות
עלמין
להבטיח
בהכרח
הופכת
לוין
באש
מנהיגות
##ial
81
##ברידג
לערך
במוזיקה
##ֶה
טבעיים
תצפית
גלובוס
נטוש
הקט
סכנת
גני
Car
מציע
המנוע
ויכ
פלורידה
מתנגדים
למונ
לאכול
מצטיין
לחוף
רצף
##גוריות
חוויה
תיירים
קלאסי
##uc
##מטית
הפסל
זמרת
בסי
##וסיף
ברנר
הביל
קציני
אמי
הלא
אשדוד
כוסלובקיה
ההג
קליפ
ואו
ועדה
נפגשו
##פרת
אלפ
לגל
תובע
הקהילות
תשיעי
Sch
סימפ
והד
ניל
לנגן
מומחים
לוחמי
##מיט
מחוד
תחמושת
ווא
מרוצים
##יתור
להרח
עלולה
כוללות
הפדרציה
Bl
טום
##וטט
חילות
כלה
הבריט
##ומב
יובל
השקעה
יוצאת
לבטל
נפלו
##פתק
הסכים
מסגד
וילסון
פילדל
לשח
אינטרסים
המרכזיים
la
הפי
לערוך
מכללות
הובאו
העתיק
כאילו
קז
למלא
ארז
ההצ
מורג
גאורגיה
##יטון
לדר
Pro
נכנסו
##מטכ
פוקס
##ock
חרם
גדי
##ory
בקה
ללכת
##ימנסיה
צירוף
הרגלים
##ost
צמד
מסביב
##מקד
הנא
רישי
לסיים
כשר
ממלא
העברה
נשואה
קורבן
היפנים
תשתית
לתמוך
התרחש
נעל
מטען
להתחיל
הדוקטורט
##ern
יונ
##נכ
ברא
ביטח
מתבצ
מקה
ויקטור
##מתה
פיוס
עיקרון
בוצעה
טיע
גייס
המקס
נעשית
פטרבורג
כג
חסידי
פועלות
1900
בלו
קנס
הרומי
יוזמה
##az
##וחו
##מטי
##רבט
הרס
משמע
##שירי
האצולה
אהוד
לשכנע
מאופי
##גלס
דולרים
מנהלי
רזי
העלאת
הלוי
נסיעה
##ריץ
לומד
הפלייאוף
##נגר
##מודי
וסי
חיובי
קודמות
גרג
מוחלטת
בוצע
וכתב
מתאימה
נאסר
מוחלט
שיניים
##אמפ
הותיר
##up
אישר
##עתו
אוקס
הארט
שכיהן
אלפרד
עידוד
סוציאליסטית
1906
התקדמות
קטגוריות
צולם
לשפר
נטען
החשוב
טכניקות
מכריע
הקונפ
נבחרו
פטירה
##דרו
לכפר
תעס
סיכום
##ּוֹ
72
סבא
מוצב
הנו
אסתר
##וריד
##ריקס
השבטים
##נדרטה
Par
להעלות
ארוכים
1909
הגולן
סטיבן
צילומי
חלקית
עמי
צפייה
היסטורית
##אטה
95
אורתודוקס
77
החיל
היווה
מהומות
##וטון
שמס
לבוא
קווין
אמא
ולצ
שקל
התרחשו
המיל
פילי
האלים
רשימות
אנטישמיות
##קשה
הרו
סולו
עכשיו
זיג
בהיר
יני
לשמ
##ורדו
ביולוגיה
##סס
##פלת
אוטו
חלום
170
מומחה
##CA
##מצם
עסקו
היבטים
הווידאו
פעילותה
טריטוריה
הנדר
צבעי
בהיות
רמי
כבשו
Man
פורסמה
חוגים
ממשלתית
עופות
פדרלית
רחל
ליברלית
אוו
##עלת
הכנה
##ודלו
בלק
להעפיל
##וסת
טענת
בנקים
שיעורי
##חייב
המוני
##בקות
כרך
מקי
##פתחות
##רתו
##סיים
תועלת
חיצונית
##יצב
59
להיו
המשת
מונח
פילדלפיה
ויצא
גרמניים
##10
ימני
ארנ
במילים
##se
אדולף
##גני
תלויה
##אייר
זעם
הקוד
##ועי
Love
##יפס
והט
גורל
צירים
##פולי
##צרטים
קרט
דורש
אמורה
הנפוץ
טכניון
פרידמן
כריסטיאן
נפוצים
הידועים
##ואץ
לארג
לכדי
##נויה
##ונזה
המית
וייס
##יפר
##פיץ
67
רון
שבס
פולנים
פורסמו
סומ
דיווחים
בקי
לפרי
##ונדי
##ment
##פסים
תאונה
##פיו
##מירל
חשמלי
##ביות
1904
גרעיני
##ישור
ובכ
##וצח
##וכרת
##ינגר
מאידך
כסינגל
##עם
שמורת
##ֶר
איפשר
אמיר
רגש
אַ
להז
##נובה
##חתי
רוחות
להפעיל
מושבים
##ah
נמצאה
תערובת
נתק
פורד
שייכת
הפרשים
מתמוד
אליס
מנתה
מוטיב
הקלאסית
##ישר
וְ
מחוק
בריאן
הקמתה
כותבים
הישר
##יפור
מקבלת
##ארת
מתאימים
מפקדי
כרכים
בצעירות
הליכה
1907
אושוויץ
##ont
##קוד
##וניס
לחפש
Col
גברת
חברתיות
חאן
עמוק
דוניה
הערכות
אליפויות
DNA
להיפ
מוזכר
##סיי
מבוססים
##איו
סמך
##und
נפצעו
##ack
##ישל
##נוני
חדרה
##TV
עצמן
גורדון
##פיס
לירות
רצועה
תעשיות
##אנוס
הזר
מחר
הסמוכה
בוה
בארי
נלקח
פסוק
הכרעה
##קבע
ייעוץ
לצפות
תחושה
ממשלות
בעד
שולי
לבדוק
אנר
מפות
לודוויג
##oun
##נציא
שנכ
הופץ
אובר
פנ
##בדו
פרנ
תעלת
מדיני
אבא
דיוויז
איתם
פטרי
השווי
מאנים
ארט
התל
סמוכים
חרב
ריו
אורן
##ick
אילי
בלט
התוכנה
ונט
##נסיות
טיס
##וסטה
גרין
שיער
נשימה
המבורג
##נצה
אירו
##ence
שנועד
Ph
רצו
אומרת
למכור
מסעדה
##בוב
##שלח
מרצ
אופה
##יקגו
הצט
##ידס
משותפים
הפופול
קיצוני
ורשה
מתחם
##נואל
לסט
ברון
ומב
##סטיים
טיילור
מולקולות
##וטב
Ro
נרכ
הודח
ניתנת
##ורף
Ad
הלאה
הולכת
להבדיל
##דיס
אגר
ליני
ממוצעת
הקומיקס
World
חכמים
שכם
וייטנאם
##ולטות
פצועים
עצי
התחילה
##רס
החינ
סינגל
##סטל
כמת
מתגורר
שהוש
הומור
תוצר
הבטיח
##ֵּ
##פיקה
נתונה
התמודד
האגם
המאר
סנטימ
##לחם
##עדי
יורו
ידיים
מיכל
קומה
##ונדה
והפס
בטרי
נמנע
דומות
גרע
פתחו
קריאת
מוזיקת
תעמולה
ראיה
שיצ
נמצאות
##נגן
הציגה
סדירה
קדימה
חצות
פעילי
בהירות
##זרות
בגא
בייחוד
לנוע
קרקעית
אורלי
כמורה
##au
משרדים
##וננות
בימוי
ספרה
עושים
##ביבת
סלא
##pt
דאל
מיניות
תאוריה
ההומ
המייס
##דידות
למים
הביט
##ורגיה
אדומים
הרצל
ויצמן
כריס
דוברי
להשתלט
המוח
תקפו
לוחמה
העניקה
ומק
טיב
נותן
##ארקטיקה
סקוטלנד
עקיבא
הרחבה
מחס
הגזע
לתחום
יעיל
63
הירש
מסוכ
מאזור
האינדי
פיקודו
##מום
עיו
##ous
El
חם
לאחרונה
סיו
סרביה
תוכל
קריירת
המשק
הלכות
מספקת
אייל
סבר
##למית
##וטלנד
מתוכנ
חולון
חוקית
נכסים
##iss
שמח
משתרע
נושאת
אשת
נמכר
##אפי
פסקה
המנה
להגדיר
העד
הפרעות
נוסע
סודאן
Te
##ניזם
ההק
גט
נוח
##ירוויזיון
גומלין
מדידה
פוש
חדרי
שפלה
להפסיק
זרע
קאמ
חוקת
שהופ
מסילת
סיס
מזרחה
השווייצ
##ימפיא
דווח
##נטינ
##תיישב
למדו
##יביה
##רוול
אימה
Or
טבריה
בדיוני
הפדרלי
ניתנים
qu
##מוני
צמחייה
פונקציית
קראו
##וים
ריי
קורה
הנסיכה
פגשה
קרול
אומות
נקבעו
כתוב
סובל
חיצוניים
מנהג
צמצום
##ותי
##פקד
הדומה
לפיז
רווחת
##מעו
השו
אירית
Mus
מצפה
לצוות
מערבה
ספרותית
##ala
רובין
השפות
דמוקרטי
##אותו
For
כשב
פרדריק
שליחות
All
איטלקים
הביזנטית
##אנד
##נעו
דחה
צול
מסדרת
1903
הרבנים
סמינר
האינט
מגוונים
82
הקדומה
כלליות
התפטרות
פגע
אריסט
תעסוקה
אפס
##וגיות
מעקב
##וניאלי
לבחון
רבנים
ממייסדי
זור
גברה
טקסים
אמנותי
##ונדר
האטלנטי
##פרק
בקמ
טיימס
רגילים
דון
##יחסת
עריכה
##נגה
שלד
לשכה
מחליט
תזה
הנות
כבדים
ממשלתי
##ime
סבלו
שחיתות
ירש
הפלסטינים
לקי
אפי
איבר
פליקס
##ere
הכרח
מינהל
הפילוס
##יאנוס
ביקשה
הקליט
חלי
יוזף
מסופר
שימור
בחרו
איים
כינוס
מצט
הענק
##מפרט
האוסט
68
יומ
שקע
##פצ
##גית
אתגר
המוד
חוזרת
עמודים
נשמה
פיני
פרצו
תיע
נפילת
זרמים
ההד
קרוס
זומן
##ann
##ימוש
לכלי
##ארוס
אסף
ירק
99
לאט
אוטובוס
אמון
נגר
הרגל
מיליוני
עשירה
##יטרה
סמלים
##בתה
##יטקט
##רמונית
הניו
אוכ
הוו
Ex
##עתיק
Joh
מגבלות
רווחים
##יאים
אווי
לגייס
##SA
בניה
ואלי
מאזן
גוסט
אתונה
אֶ
##לקסיה
האוט
נראים
הספק
הרמן
האוסטרו
##נְ
התגר
כללים
לפרוש
וורשה
להכיר
##ואת
עומר
טיסות
להחזיק
##ומבי
מסוף
לתפוס
ילדי
נפגעו
חיוביות
164
מרוכ
נתקל
אהרון
שאלת
התאבדות
##פתה
שאיפה
נמוכות
דורג
העלו
ספציפ
שיפוץ
האינטר
מהד
זונות
##בנ
לקה
ההל
סופיה
פמיני
##וליות
רוחני
העונות
##ינדי
לאח
ריח
מבקש
שמיר
##רן
דיאל
קבורה
מסה
##וררים
בהשר
מלכ
סירבו
וכש
ברוס
והצטרף
##ובץ
##תיימה
קופר
##ite
##ורדס
זירת
להקות
הועלו
הוליווד
89
מפה
96
הפיצ
במדיה
176
לאי
בילי
##ירויות
כצ
ריד
הפק
הסברה
פקודת
##old
טיל
נמר
##ונזיה
מדליה
מעורבים
וסטס
שמטרה
בוק
נלקחו
הסולטאן
##אוג
##ינק
##וגניט
שארל
פתוחים
אנטוניו
נקבר
עמותת
##oth
קום
מדוע
פרדינ
להראות
##חתן
חרדי
61
מרוק
מוזיקלית
קיפ
הוכת
האדרי
המלחין
המשמעות
##דוס
מימוש
זרי
לטר
נוסחה
נוטה
##מצא
יעילה
כלכליות
המפורס
באת
הבנת
לפל
מוצאים
##וואר
צייר
##ach
##מנט
לוותר
מגלים
##פוז
משאל
רגליים
ההסת
זי
וירג
התרחשה
לשחקנית
איבדה
מספרת
##יתוך
הלל
חווה
לייש
המנזר
פנו
המרוץ
והמשיך
##בקיע
קצרות
האוכלוס
תינוקות
הנע
מרוץ
קרים
להוסיף
היסטוריים
##תות
הממל
ולפי
ולדימיר
##איל
בחקר
אמריקני
Ed
שנח
השלמת
טילים
מוכרת
תכנים
##מיש
לוו
מאס
1902
לנת
הוטל
להסביר
##טחי
חריפה
מסחרית
באימפריה
מלמד
דוקטורט
ובח
אזרחות
צהריים
##נסיית
בקור
##יבוי
הסכמי
##שיים
אפרים
׳
##מלה
##רגם
אקו
קורסים
קלארק
##ורו
##וואת
מנוחה
מטי
מיטה
נחנך
בעודו
מתושבי
מונתה
אופט
מרב
##יתו
##רגו
##פרים
תלת
##איי
התעלה
שדרות
דירות
##צא
וכיהן
אתם
סוהר
תפילת
##כניס
עבה
##וותה
##עלות
##מרה
##קרן
החוקר
פירוק
להשפיע
78
##ַי
זיל
סביבת
מודע
לפרוץ
בהצטיינות
ברנד
פז
##שא
פיס
השקפה
130
##לייה
רנס
Fran
קיבוצים
##חקו
##נגנון
בשפת
##ve
##ale
##אטי
WW
נוי
קומוניסטים
##נטוס
כינה
##ליג
מופת
מהח
צוע
ששודרה
דמוי
##les
הקת
והוח
מוריס
##טס
סבורים
##ott
Tr
מקבילה
אקדח
##סטה
##נבול
##ואלית
רנ
ורדן
##עתה
אזורית
##איה
הומוס
##מטרים
באמת
חייד
69
שרף
שביתת
מחוזי
הסורי
##יתיים
כפרי
נוט
החלפת
מהג
ראובן
להתייחס
סערה
##קלון
טונה
הנחות
נבה
כולן
בוחרים
נמלטו
מוניטין
חן
לחזק
דטר
##ימברידג
האקלים
##sk
##מבורג
מפקח
בספרי
##ов
##ary
המסדר
נוספו
##יטרי
ניצל
##חקה
כנע
עתק
אילך
המשל
להיב
##ְר
אירוח
שיעורים
re
##יקלופדיה
משמעותיים
שוח
מאמין
מארוול
נפרדים
עובדות
מרכזיים
##בוס
טס
נוז
להתרח
המון
החוצה
לארי
כיהנה
רישיון
בשפות
ניתנו
##אהב
תווך
##ינתן
##ome
הפיל
אוטומט
גיליון
פתרונות
חיש
להפיק
ארבעים
##נדריה
ממת
פונה
תותחים
174
יקרא
אפליה
סווי
עמוס
##דד
קלן
##קרב
הדוק
ערביות
קפל
##מח
##פקות
קלים
תצוגה
##גיע
ככ
השירה
יוזמת
מגדלים
Cl
לשחרר
##יכולוגיה
העלי
נמוכים
##ולוגיית
חוסיין
להשלים
נרחבים
##bert
##ונטה
##טרות
##אבי
מתחרה
נופש
באינטרנט
לייצג
##ומנית
דלקת
מבוק
נוכחית
הגש
נתנה
נתוני
מועמדת
הונגרית
ההיסטורית
##בצע
קומוניסטי
הצילום
אסי
##חף
הובא
מתקני
מחודשת
רקורדס
האקדמית
עזבה
הוצגו
תמר
נמנים
לוה
קוא
התחז
פינלנד
##orn
##מיל
##נציה
במט
נחום
##ונאי
מכילה
חיבה
נידון
נפגעים
אישיים
עצום
חבורת
תאונת
מערביים
##נדית
פסגה
לכינוי
##וחי
מבצעת
טקסס
גרמניות
לסגת
מישה
סינג
צבאות
##והל
##נטרי
##בדלים
דיכאון
להתפתח
אורוג
בורסה
ויילס
גבריאל
##ריח
##יציליה
מבצעי
##שילד
##מליים
נכש
עתי
שבטים
##age
הזה
##וזאורים
מילולית
הקלי
הסובייטים
##צף
עיסוק
##ידאולוגיה
##בתו
לפתור
##ובעת
##לקים
##קבלת
שבש
גנים
אירופ
עבדים
שוודי
סיפורי
הנת
יציאת
נפץ
אשקלון
##מייר
מתת
מארג
אחותה
##ace
לצידו
##משו
ליר
אוטוב
השחורה
מדג
פותחת
אוטובי
ונכ
##sh
אלט
בבי
לאופ
נגין
השבט
התנק
הסביר
מאורג
מבוגר
ניירות
##ופין
קלאסית
גבע
תוח
מסעדות
צעדי
שהור
בראש
##son
##מצאות
קשורות
סידני
##ox
לטי
מוא
לפריז
##מתי
##זיקה
מייס
ערכי
מנע
במונדיאל
רובן
בסיסית
##ix
175
עודד
ביערות
המתיישבים
באד
בשורה
ניגן
מתר
המעי
חוזי
האומות
סחורות
פישר
שוטר
לכלול
73
ובן
בסל
1901
ההשמדה
##ליין
לתר
המזו
מוצג
##ומור
הרא
##זרתו
אריז
##lat
##נבו
קרני
בשונה
”
בתורה
רעידת
בהשראת
המיועד
ובג
דיני
נסגר
שמרה
התערבות
##מכו
מגמת
משימת
אנת
86
דבק
הצהיר
מיה
נאלצה
פרידה
It
סיג
##ריכים
צינ
מנהטן
להגיש
מיועדים
סטנדר
לוחות
בקפיצה
##ָא
##טרוס
אחוזה
on
הפאנ
גדר
אבטחה
פקיסטן
אסיסטים
סגנ
יונה
פלילי
הכנות
וולטר
נייטר
סטלין
שימשה
אורתודוקסית
הוז
שהא
הראו
העני
##גנטינה
##חול
ייחודית
##אסר
##שון
##אמרים
בובות
הופכים
##ונסו
נכל
הוצא
עמנואל
##אלים
סמואל
הברזיל
לנה
נחשבה
קרולי
הרווארד
ונד
וקט
יאן
תהליכי
##וקסמבורג
ישנים
מתחילים
1897
חואן
סייעו
מחזיקה
איסטנבול
2020
ימנית
האמנה
##קדמה
##ורגית
שנתית
תקלה
המדי
היצ
לקחו
ייצוג
אינטלקט
משורי
בברזיל
##ובינציית
אינדונזיה
יהל
##אליות
יריה
##ימית
הקיסרות
##פרות
##ical
הסינגלים
##ium
ברכה
בזמנו
תרבותית
$
שיצר
##VD
וולף
שביל
לורנס
##פסון
הקוס
##נסת
טוט
גורמי
פיצוי
תפיסת
פלוגה
תכנן
תקרית
תוכנות
געש
הארג
משפיע
ורב
עזרא
הטירה
שליטים
פוצ
וכבש
מעני
מירוץ
##בשו
##ican
גיס
מתמק
והקים
נקראים
##צנה
האכ
הספיק
קירות
הועלתה
חלשה
##ודוויי
מרקוס
שבועון
##are
לתא
הפילה
Amer
בוטלה
נשיאת
איינשטיין
רום
הרדי
מדען
תימן
מצוקה
מתכונת
היח
למדעים
אוטונומיה
##ina
##ִים
##ופלים
יט
הותק
##פינים
לחשוב
ספורים
אכז
##וטיוב
סידור
קרלוס
יאיר
מתגלה
דיפל
##חדו
פרדיננד
##מיץ
71
הערכת
להתחרות
##ימט
הפט
1898
ועבד
##ומנויות
##ound
ייב
כדורים
##ame
##כרזה
##OS
##נטל
##ורדים
הוזמן
הוכיח
מאוחדות
##באו
מלכי
בירור
##IA
##יצוג
לבק
שבחים
##יער
87
מיג
ויש
האדמו
הסל
##כא
ביג
כית
##ליטות
מורד
ערעור
פלסטינים
##וקז
שמורה
##טח
נכס
נורת
##ייט
הזכרים
קרואטיה
Je
המצודה
סובלים
מספרי
הוענקו
##רכז
טילי
נלחם
משפחתי
בפל
הגעה
כמלך
מעניק
מקובלים
##ton
המונים
110
הלחין
##ונאית
צעירות
x
אסק
##ובעים
רציף
מובהק
בוריס
האנדרטה
מצליחים
##lar
דיק
רגישות
המוזיקלית
שביתה
רנסאנס
החודש
תקליט
##שייה
מרה
תקצ
שומן
חסרת
אורוגוואי
ביצים
העובד
##כתב
רוצים
באירוויזיון
חמשת
שנע
יול
קדמה
מתמחה
מכלול
##יקור
##אווי
ספרותי
פן
השיפ
סיימו
לייבור
הדיפלומטיים
לילי
בוואריה
גיבורים
דרבי
העדי
העיר
ביקוש
##che
גורשו
מצומצם
##נזה
##וולט
זנב
לסוף
מוגדרת
הרק
מנדל
נמכרו
##גדל
Sy
ספג
עבירה
מנס
פיזי
אוניית
שנס
וולט
ראיונות
79
תרפ
הגדלת
מישל
##כנו
##ריון
ברס
השתנה
אלח
שלג
במחז
הפרובינ
הוצאו
מגדר
כניסת
עצומה
שכללו
תלות
##סריט
סוציאל
כתובה
מצליחה
##ביד
מעורבת
להתר
צמרת
אחראית
התפתחו
חכמי
עימותים
באק
ושה
התחילו
ווסט
דירקט
##פינות
שיחה
##פטית
הקנדי
מובילות
פלד
לבדו
לוטננט
אנדרסון
מחד
עצרת
ונציה
##נגל
הדמ
##נונים
נוכח
##יטן
##ריוס
הדסה
נשארה
##ועדונים
לשתף
הציגו
מקיף
מבוססות
אפשרית
##ומינ
##פלגות
המתחם
תורגם
הוכרזה
אוטובוסים
##לְ
לנצל
האוסטרית
פרל
##יאנית
מרשל
נקראו
הופעתה
##טוס
בווי
הפסידו
Ge
והוביל
##oci
המרי
האמין
המחזמר
ביז
פוגע
חסד
נבד
##נרי
169
ביירות
מתקדמים
הפיכת
אומנות
אורחים
##מנויות
קתולים
מרש
גרוס
הבדי
זלמן
##יטריסט
ולאחרי
במג
יעדים
משולש
מייג
מוצגים
##ריג
עדן
מרכזים
עונשין
ושי
נפח
וחתם
רוני
אווירה
ואס
נפרדת
עבדו
##וניסיה
המייצ
##כולה
מאן
הראה
חתמו
דימוי
שרידים
מהע
מיז
אימן
הזדמנויות
##ומטר
לבל
יוקר
סעודית
מכס
גוי
מולי
הקיסרי
בוח
ועידת
זוכים
##ose
ארטיל
מסח
מחולק
אסטרונ
סאט
שהג
בטוח
פסולת
האוסף
גונ
סטאר
בברי
סמלי
המוסלמית
ניד
טבלת
נובעת
טכנולוגי
1896
כתבו
אנדרי
הסכימו
הפונקציה
בער
סם
הטור
הכלים
פרסומים
##פילו
ולד
הוכחה
##וביה
אלופת
##וניוס
דלתות
קים
תצפיות
ריבונות
בעת
והסת
מלחין
וחי
הפאנצר
רוטשילד
##ile
השעון
##ובית
1890
גו
הקל
תיאום
בשווייץ
היוונים
ישראליים
אושרה
##צרה
ימיים
בקשת
הבילבורד
Comp
מתבצעת
סניפים
##ירוג
מלאכה
##ild
##כמים
רפי
כביכול
לתפ
קרע
עופר
קונסרבט
אחיד
בעבור
##ake
הוציאו
##חדה
הייח
למין
השוכן
ממלכתי
92
Gre
הנקבה
המניין
מיועדת
הרומנית
נווה
המצלי
מחווה
הושפ
ספיר
קונט
154
165
בהנ
גומי
הלידה
היוותה
##וננו
בחל
##דירות
כבדה
Su
הסכמים
ניקולאי
תאילנד
נדיר
הסיני
עיירות
תעשייתי
קארל
הארכה
ירדו
עורף
גאווה
מחירים
הטל
עילית
אחראים
חלקיקים
##עלם
DVD
לחס
לפק
סלוב
לשמר
מצטי
##מב
91
##ותית
##מדים
בהק
ארסנל
הקדום
רישום
##סקופ
קמפ
סמי
ממדי
להרחיב
וחיל
טרא
##כבה
מנזר
מעשים
##פרעה
##ינויים
ירקות
##ותרות
זרות
במתחם
ותואר
##ישו
##עלו
On
##רטון
##ומרים
מפורט
שינתה
98
פנייה
התנדבות
140
באול
הארד
הזכר
היותה
רכבות
##סטאר
מיא
ממר
כונו
שופטת
97
ונח
איומים
לול
טיעון
העבדים
##רויה
ארצ
##וממות
##לוונט
מינר
טכנולוגיות
##ork
ממק
הכירה
הציעו
אולימפית
##ep
ייצג
##צוח
##ius
שמי
המשפ
נויר
קושי
האסלאמית
ישע
עיט
בקול
דאגלס
הבוגרים
ופל
שלל
מתחרים
כישורים
ופרי
לכוח
באטמן
הפטרי
הרמטכ
מסלולים
##זיוס
מצויה
##כיות
##נאים
##פלים
##וואות
הסול
הראל
יהודיים
היתר
להטיל
פרחים
רגלים
Qu
900
רעה
שודר
חיובית
מורי
בגדוד
משודרת
טומ
הדוג
שחורה
העבירה
##אוור
אחמד
הפרת
##בעו
ליה
ריגול
הפזמ
מישהו
נכונות
השתל
גדלים
ששה
הלגיון
הספינות
הרפובליקנית
טייסת
הפרעה
לסדרת
המלכים
המהדורה
##כוי
##פרטה
לזר
מסרב
##ise
שבק
דגמי
מסביר
##יגי
##בלנד
הדב
נגזר
בגלי
דומינ
##iel
ביי
חובת
האשמות
סיווג
המקוריים
שפע
פיזית
##יקרו
קרס
הולכים
ילידים
טיפולים
##פקדת
כספית
אמורים
חסידות
סוכר
לשימור
חמים
יצור
##קהלה
ופס
##וזאורוס
האיש
שידורי
קברי
##ופוט
בשי
##וונות
##ואידים
אישרה
שבמ
ובתי
שחמט
אקלים
להגדיל
##ung
בונה
במקסיקו
מתמודדים
##נסק
דונ
גאולה
האזורית
##אדי
##וברט
בתפ
היכן
וערך
קובץ
Rec
לפרק
למג
מפגינים
83
גזר
יחזק
מענה
נרשם
דוא
וסק
קאל
Cr
##והים
168
התארג
יערות
מדענים
##ts
##וגרף
WWE
תרכ
סיפק
רכישה
קופה
מחזות
כפולה
סוסים
בוטל
##איין
##טיים
יגאל
נאמנים
##מעה
השא
פרג
##ומטריה
נדחתה
##גע
חרף
בימה
הושלמה
התמוט
נראית
למל
1899
יומית
נוחות
בכר
מרקס
מילאן
המלכות
ממשיכים
Fr
שגר
באמ
הנהלה
ממושך
ההולנדי
##וצו
עשויות
התפרסמה
##וזת
אולמות
התנקשות
טו
קריטרי
##ook
מכרז
לאסוף
מפורסם
##ונתם
##זנים
ורכ
##ערות
מצבה
שיכון
מרחקים
העלתה
##וקראינית
כתובים
##ומג
חבלה
לאלו
שהוע
הזמין
הירוש
##אקציה
האנושות
הקולנוע
מתכות
##ובס
יוג
##ובינה
חינם
נקמה
התעללות
קמרון
הפילהרמונית
פנח
##יכיון
1000
ניצלו
##לימה
בשת
מאט
לשיא
שכבת
##pe
##יסק
מחפ
בקרי
’
מתארת
אלטרנט
תסמונת
לוקח
מעוד
משתי
אינס
סואץ
כשם
שערות
אלכוהול
ממוקמים
כתבת
ריבית
סלעים
##ביים
##באללה
חתמה
צלזיוס
ודר
מהפכת
פורמט
הווה
##נדרה
ארל
נוא
לקנות
צפויה
סלט
טבעת
הווארד
##ife
##טיחה
כיכב
נהרס
שובו
הכרזת
בהיותה
עוף
##מכת
חרקים
הסב
ממוח
שווים
סכסוכים
##ורדי
בהר
יוסטון
סאל
המינר
##ict
שרשרת
הקונפדרציה
פיא
התעני
חברון
נוטים
שבה
התחי
אישום
פועלי
הפסדים
##יברי
פרשים
תרצ
התהילה
התאמה
##מלות
##ידל
לאון
קווים
##ּוּ
##יינו
חייבים
##ורא
##נוח
אצולה
חוקרי
תאגיד
מניע
בחינות
דיפלומטיים
##נקן
וטר
קלפים
מיידי
##אסו
##נתי
אמני
חפים
מפרי
סירבה
בטה
הריק
רט
##ליכי
גישת
חסיד
##ניית
##דף
1895
מיוצ
חמורה
##אמין
מתמט
קפיט
תופעת
##ke
Gu
##יבורים
הסימפונית
קייב
אדמס
מתבצע
גפן
דאג
הזדה
##וטא
##ורמ
והז
קשי
Intern
##לקה
##ניץ
##נקי
הרכבות
##בנית
John
אוהדים
בדראפט
##מכה
ורדי
שיחקו
כדורסלן
סטיוארט
הפלמ
ניווט
צפיפות
st
כריסטופר
##ons
##ריקת
Fre
Her
מטרי
דרשו
משאר
נעים
התפרסמו
##יגור
##מאכט
קארי
מרגרט
##ואנה
נזכר
הורשע
נעצרו
רוזוולט
##עלה
טיט
##שורים
משפטית
##BS
נובה
##פתקאות
שמשמעות
##ציג
94
159
מתייש
עצמים
ריה
##נטרית
הפופ
ההונג
הנחיה
הנחתים
התחתנה
הצנחנים
##ount
##לאים
##ציפי
בשב
קצת
גלים
##אגר
תוכננה
##אמר
##olog
פרנסה
ורוב
שלחה
##וגרפיים
יובנטוס
אחז
מאחור
פוא
##וכיות
##ולח
##סקת
ויא
מבצר
סטודנט
##שוב
##יסטיים
172
שינ
##ction
הפרה
מוטו
הבדלים
באג
סקס
איירס
חסידים
##סיקה
לקחה
קולונל
הביתה
לואיז
אוקספורד
##ושבת
גשרים
חקירת
שנבנו
קונגו
הגשת
כבשה
בסתיו
שוררת
##שיר
מטרתו
יודעים
ליברפול
פוליטיקאים
השמדת
סתירה
זיק
##יחים
היור
סוני
תמכו
תלמידו
סקו
אלופה
הזהות
##ושבים
למב
גרה
##ויל
Ab
Pla
גוא
הירושל
##דורף
הפחתת
##ימפיאדה
לתחרות
האסטרונ
טלוויזי
סטון
ווט
חתן
מועט
שעון
הושפע
—
Go
##ימלי
com
רמון
כבדות
אידי
מלאכת
מסצ
הנאה
נכתבה
גיבורי
התשיעית
אלקטרוני
רפובליקת
##own
אינת
אלעזר
קיט
אימו
מציעה
בוז
מהכ
אסון
ביפ
תוחלת
נלה
##TA
##ivers
##פקטים
גלגל
אזרחיים
93
הצד
נייט
##פורמציה
המאפשר
עוצר
המזרח
המטופל
##ודיע
דיג
ללב
חרדים
לגיט
סאלי
ביקום
ויתר
סדיר
פשרה
איבדו
חקירות
##נקס
149
##סמונת
זוגה
מרבי
בגודלו
ספורטאי
##ְׁ
לופ
גבורה
עימה
משרות
גולדברג
נחק
דוברת
מסקנות
שמרנית
האוכלוסין
אריזונה
מרפ
טוענת
חטיבות
##ירית
מתקיימת
##ינגס
לחמ
בעין
##ys
##ועידת
1889
אנדרו
##נינג
להקל
פנחס
המבצר
גידולים
##שווי
מטע
אינתיפ
ארק
שורת
היס
##יסטיות
משתתף
167
##ינופול
התנהל
פתוחה
משפחתית
##פדו
One
הקצ
1893
גופי
ומט
מתג
דיפלומט
##יאטר
גנב
וקל
פוגש
##ודרים
אדמירל
למט
##יקספיר
מזכירה
דויד
לבוש
תקין
גיטרה
להשיב
שכנות
זרועות
##רבעת
מימן
עובי
##דיר
העור
##זמרת
וית
אחות
ממשי
נצרת
עוזרת
##וויק
הכה
##לילים
ברוקלין
##ידורים
וותיק
##me
מסכ
מעריב
במתמטיקה
תשס
ספגה
הפילי
מוקדש
##ָר
##זמה
אנרי
הגבלות
האפש
פחמן
##חתו
Ap
##יכתה
בתר
ופור
##וספות
חימום
עתירה
סף
השג
חקלאים
##וליני
נמסר
פיינ
מיידית
##iam
חפצים
הפמיני
155
להא
זכאי
פינה
הענקת
##שויות
1870
מתבס
מדעיים
##ירוגין
ביטויים
סנטימטרים
##מנון
מתפר
חרושת
מהדורה
ציט
לדון
Can
חשיבה
האוסטרלי
פסח
קסט
1848
צומח
ואח
היסטוריונים
##רכיב
##פיפות
כתובות
רשאי
משקיעים
אלקטרונית
חומה
ראסל
נפשי
לינקול
סרן
בקומ
פלסטיני
##ינגה
באך
קאס
##וטיים
ביור
והוק
אינתיפאדה
קבעו
##פתחת
הרגליים
Bla
גאל
מהנד
קומת
המוקדמים
ווקר
פרנצ
צבאיות
1892
שפית
בקליפורניה
Chr
מפעלי
##ילתי
בחרה
מרבה
לסק
ההתר
מנוג
פינוי
שנולד
תרומות
לתקן
שטחה
תאוריית
קרטר
נחר
החרי
יחידי
עשירית
מסתיים
פילוסופיה
##יקוי
תפוצה
##אמי
ומנ
רן
יורד
הנהיג
להוות
תעודת
quot
רצופות
##MA
ודו
שאב
לעומה
##מכות
##ינם
הבק
הערות
##מטר
##ושית
האמינו
אזי
צמחי
גשמים
הפילוסופיה
##co
מנט
בודה
קליין
##לקן
1878
אמיל
עזיבה
Pe
הצר
1885
חללי
מוסף
מיון
סבלה
04
ומל
##נתרופ
הודיעו
החללית
##דגיש
שולח
פארקים
##amp
חורג
באיים
גוסטב
נרחבת
סנד
הזנב
עצמות
יחזקאל
תביעות
##מפרטורות
הקיסרית
מבטא
מנות
פטריק
מאפיין
העתיקות
מצאה
157
זרה
מאבקים
מהנ
שנאה
לארגן
מפקדים
מחק
יורם
הטנקים
הפסח
כליל
זיהום
ממוצעים
דיבר
ונקבר
פקודות
במב
בתפקיד
קוצ
יבוא
סבסט
מילוי
המונית
מפעילה
##טיף
האסטרטג
##משכת
ישב
מדור
שלמות
נדירים
ולהש
האקדמי
לסירוגין
דירקטוריון
אדמת
גדות
והפר
##erv
החום
התרבות
War
האלמ
הרברט
ניוטון
##דילה
שלחו
##גרום
סוח
##שתיות
##צאות
קוש
שטן
סרי
ליין
צפיות
קביעות
##עול
ראתה
נוגעים
##ance
##מרים
שסי
אלים
החור
ונצ
##eth
יימ
המכש
##ek
##ביהם
להכין
איברים
סיביות
##לץ
יונתן
כתבים
מובילה
ממשיכה
נסיכות
פלסטיק
חכם
גוגל
##יימר
ופרס
מוסרית
##ונוס
הצמד
משירות
##צתה
##כניים
הפיר
Tra
##נסיים
##int
##ward
תפר
לאחור
התנגדו
פופולרית
##act
##ark
##att
מִ
עיון
מצוין
מיעוטים
##בב
##נגדו
דרוש
האוניות
טיול
ספרדי
העבדות
אוכלוסיות
אווה
איני
והחז
מסיבת
הבריטיים
##לילה
משיח
עתיקים
לינקולן
##מונט
##משות
אוי
סנטר
מיכאיל
##גא
##מלים
##ונאות
גובהו
יוקרתי
מסוגלת
##we
כבן
הוכתר
מאייר
נחשבו
הצטרפות
גמלאות
דטרויט
הרוגים
##נזי
##קסואלים
##שבו
##ולוס
מתוארת
מנועי
להתקדם
קלר
שנג
סגור
עומס
הרוזן
חמאס
חיסול
רעייה
דהיינו
למכ
אשכול
היווצרות
1894
##פולה
חזון
שירה
המשמשת
צינור
פרוטסט
##וטת
באלב
החופ
חנוך
##קוף
טרג
נחמן
היק
מרכיבים
נהנה
סוכן
ברובו
חילוקי
##מאי
##פוט
דנה
זול
הנחיתה
פציעות
במונח
הטבעת
המזוינים
1891
העדר
יוצרו
ביאליק
##פסו
והי
העצם
שנקר
גלעד
בהתבסס
פרנקלין
1880
החיה
היסטוריות
בנח
אופניים
זבל
סירות
תאוריות
יחזור
שקלים
##ics
גע
יואב
1860
אלפא
##ניסטית
האווי
הוזמ
שמים
מתייחסת
##וויר
מוקף
##ert
##sch
##נצחת
מדרש
שיתף
הפרעת
נפתחו
שהב
אטומים
מוגדרים
##gr
מחבל
פרנסואה
##ult
##וכנן
טמון
לשרוד
מחובר
ישיבות
הדינ
גולני
להתגבר
##ודא
Co
מהצ
הבאר
שקבע
להתפטר
And
##מצאה
קלו
להצביע
סנאטור
##יבלים
משירי
וסייע
מחירי
##וכחה
חומרה
המרכיבים
##דנים
##פגני
והוע
עומק
קלינטון
ובב
##ובלה
תכנ
##ימיות
הליט
חילופי
רבקה
##זכ
##ישון
וגדלה
שמאלית
יהלומים
ואב
מקצת
צדקה
קובי
נהרות
מוצלחת
##ניעה
ונע
נאט
בינוני
פיגועי
שנוצרה
האימ
כבית
##אבל
##וויח
ביתר
הגעש
זיתים
לכתר
שיריו
המפורסמת
רם
##מודים
##פרצות
דיאלוג
##na
##ופון
באנט
הצאר
שכתבה
האוסטרי
##נתקות
בקולג
##וציולוגיה
##רבייג
##זיות
דונלד
להכיל
מילאנו
##אתר
##דיט
125
דודה
תקיפות
קונסרבטוריון
##אשי
##רתה
התור
סטנלי
סאות
פייס
שוליים
למונדיאל
163
אוף
תצל
בארגנטינה
##יבן
##קטיבי
1886
פראנס
##ננו
לחשב
הנקר
הסלא
ואלו
התעור
שנוסדה
אגן
פאולו
בחור
סטטיסטיקה
שליליות
##af
המוז
צוואר
בשיקגו
הברונזה
וקי
##RA
גולן
הסלע
גדעון
##וטל
##פייר
אצבע
בסוף
נפלה
##ולגולת
ניהלו
המפל
מדיה
##ערה
לאד
סער
קוז
נורו
##יוונים
##וריונים
שלע
בארכ
מתוכננת
נגן
העדיף
מפקדת
הרכס
השיב
עבוד
חומצה
קרינה
נמס
וועדות
השחורים
מתייחסים
##נציקלופדיה
##ובנה
אמיתיים
הפלסטיני
התעניינות
##יקרס
ולר
רבת
ברמן
הונגרים
##יזרים
הסימ
ושו
ממח
מיטב
הגדיר
עוררה
טורפים
##וגב
לאש
נודעה
##יקין
ובז
1882
הימית
הצופה
ירוקים
##תפה
וּ
##מורה
ירקון
רוחנית
##יקד
לשים
נכללו
באוקראינה
##לתי
אמרו
ימית
השחמט
ביטחוני
##oll
##ows
##גנית
שיקולים
Will
השיט
171
פעול
##ורגי
הפא
מכני
שביט
מוסרי
התמודדה
#
##וזרים
טים
##ומיניק
הרצאות
Ac
פלמ
היפר
המלח
רצוי
האוניברס
##ליב
טבח
מתרחשים
שקים
הדפוס
101
יוא
בעקב
והור
##וסון
ובד
טימ
לקונ
בתק
##ינלנד
לירי
טראמפ
הרבייה
ההונגרי
הניק
נשמר
מכוון
166
משב
אופיי
##ברון
##ומרי
הרט
אסטרט
בקוטר
נשלחה
קטלוג
כמקום
אימפרי
נוהל
העמיד
173
מושפ
פסגת
הרבות
הנקבות
מחולקת
לית
פסים
שכנה
##yn
##חינה
ידעו
תותח
בעומק
ישת
חזרתו
לנסוע
Wind
ברירה
מגעים
##גרט
מתפ
##ונציה
ובתוך
מוצלח
רקטות
מאפשרים
פצצות
ריפוי
##קסס
##צבורג
הפנט
DC
במיל
היבט
ויין
סימני
##ריין
גרון
זהים
ליווי
##ומוז
נקבעה
##ֵי
תוצאת
קדומות
תערוכות
שבטי
מבוגרים
מצלמות
ונמ
##ונרים
שרות
מתנגד
אוליבר
חליל
##itt
אידיאל
רייט
פסנתרן
אסטרטגי
International
נדל
הפקות
ריקוד
מייסדי
רשומות
דע
##בתים
חסם
בפיר
##for
##de
##ele
גרוע
הרחק
המסילה
מגיעות
דרור
לשמוע
חוזרות
##oss
##ונוב
חופשה
ארמיות
מבקשת
צולמו
בליווי
רפואיים
צלילה
חלבונים
National
##ובהו
##למיד
הוגו
נרשמו
נבל
אורגן
דייגו
Ass
ואה
להיר
נדי
בוני
קונפ
אלמנט
מאסטר
ניסוח
עולמות
קטר
##נועים
##יבק
נכדו
מתברר
שלילית
בפלייאוף
ההונגרית
הבס
ייסון
ערובה
ריאליזם
##מרא
מקנה
שלטת
האופי
נפתלי
##ציו
פרה
##וננים
##que
רץ
האן
גיבוש
הנמוכה
מסעות
יזר
סלו
גרנט
התגלתה
##וכב
גוב
שרד
שפור
מכוסה
##יסטר
מאש
##דתה
שנמ
שון
הטכנ
המקד
הרוב
בשמות
המותג
לחתום
משלים
גאון
וילה
העט
ומוצ
במהלכה
##טחו
מידות
יוליוס
ואד
פירושו
אא
##בילי
הנט
1881
##יאק
שותפה
צינורות
##ַל
##קוביץ
חומת
גוברת
פנימיות
כיכבה
כינון
מתוארים
החינוכית
##כמה
בקירוב
##ניהם
יציב
##פסט
j
350
ייל
וירט
אנתוני
אוטומטי
התמוטטות
חיז
ערכ
##וליים
שדים
האימה
חזקות
קריטריונים
##בירו
##פז
תלמוד
בערי
הפיקה
הפצצה
סורים
פיזיק
מבחנים
02
##כניקה
מתמשך
התבססה
נירנברג
חדירה
נורווגית
##out
##אטו
##טרום
לשק
פרדי
קופת
הפסיקה
שבויים
משפטיים
חדרים
בחטיבת
##פלל
##אונד
בתש
##ונאים
להשמיד
נקט
Bar
מאגר
ערוך
רובי
מלכים
##וספת
הושלם
שומרי
השוודית
לאימפריה
##קסון
בְּ
לאור
שירתו
##וסופט
נהגה
גופני
נפילה
חוויות
##וניקי
אבחנה
אונסק
##ase
##ומך
##לקות
ולב
שחל
##יפציג
ניהלה
תרגיל
חשמלית
מעניקה
##ודק
הרד
מוצגת
מגדולי
קץ
רושם
בריכת
בהד
הקרה
##שרתו
באופ
אלבומי
להתאים
הרמה
הנותרים
ותר
יממה
רגשית
שהותו
הרומני
##irl
##ley
##פשרה
##אץ
##hel
##בעה
לאת
כיושב
בצלאל
בשירה
התבסס
לעודד
##יעץ
התת
קאן
חסימה
ריבוי
מנו
עפר
הטבח
טיבו
הוול
בריסל
כץ
##נעות
האה
וודאות
איבוד
להגביר
בילבורד
##ופעה
##יקרה
לכס
1887
ספסל
דאלאס
פורטוג
המסה
מכונת
תעשייתית
והמת
הצייר
##חותה
התו
מצר
חשיפת
##בולוציה
מוכנים
##עבד
des
##צויות
הודה
רצופים
לבה
תשמ
אנטיוכ
מוגבלות
טעמים
פיגועים
ירח
היגר
לעורר
באיירן
החסידות
בגימנסיה
פוטנציאל
מעוניינים
קצוות
##נזים
##קטין
שאי
גוון
מינס
קולה
תאורט
##ans
##oph
נמד
החות
נכבש
עדים
##אסטר
מאג
ניט
נישאו
קלמ
בלוז
נתגלה
##פגניסטן
בשליטת
זיהה
מושלם
קוראן
Univers
##ien
אימץ
רעננה
גזענות
מלווים
כמש
לאכ
המלצות
להשאיר
תורמים
##זונה
##יכובו
מעוניין
מכרה
חריפות
##פירה
לורה
ניירו
רודולף
##חתות
כותל
חוליות
##יבלי
##ניוס
משי
##וריוס
הוור
לוקה
לתושבי
אירים
הכחדה
פלישת
##זין
מיועד
יצרן
ריקה
##וגרפיות
מתיחות
##אגה
Ag
##עייה
והמש
המטען
וניור
עינויים
##yl
153
הסן
האשכנ
פד
ביטל
מתבסס
ניצולים
הקלה
מקשר
התקוממות
Mag
יורש
##ליזציה
מלחים
הראשונית
חרס
משוב
ויכוח
מילות
משמעת
אמריקאיות
##ירון
ושמ
אסלא
##וחם
##נפלד
Cor
##פגשים
הוספת
מוזיקאים
חתך
ווייט
##שתית
מוכרות
עוסקות
##נבי
##נגטון
יקבל
שטרן
##צמת
קרקוב
מערביות
##גין
אונס
נפשות
##וען
קאפ
הביעו
לחזית
משווה
##idae
הצהרת
אהדה
מבוצ
שטחו
אינטגר
##חלף
דיו
דשא
משחקת
אלפיים
##חזות
הדור
התבט
התלה
חתימת
לחצים
פשעים
##ma
ממד
הזמנה
סגנונות
מופר
מפרט
##נצל
חלקן
רציונ
בקהילות
בהסת
היין
מנשה
פלטינה
התייחסו
נמשכו
קמה
##ינוביץ
משוחר
עמודי
##ושט
גוס
מפס
ושות
קיצוניים
##TS
וימ
מציגה
ממשלתיים
דורון
מראות
בעיטות
קדנציה
האוסטרלית
##קטית
Raw
מעמ
מיקי
רביע
אפולו
מרשים
פאולוס
דלה
ולכ
הביש
היינו
המסורת
חזבאללה
מתגוררת
1877
וברי
ומור
פראג
למשוך
ניתוק
שנפ
##ידרמן
##וויד
נהיה
חייבת
שעסקו
וויכוח
##ֹת
##יחד
המאוחרת
הטילים
דיוויזיית
##igh
סיט
הפאר
לאחרי
לפלייאוף
##נסן
##ונדק
הדף
אפרו
מכילים
##ool
ויג
הנפוצים
##יסא
קווא
אנדרה
מינסוטה
ולג
אלגוריתם
##נגרו
##סקים
von
מינימום
אטר
זית
והוש
פחם
מאכל
השפיע
כנסיות
##פתיע
גויס
בוגרים
נדירות
##יפדיה
אזכור
בנויה
בסדרות
פריטים
##ודן
הלב
לפיד
שהוז
פשוטים
הפופולרית
סלב
כובש
תרמה
הסטנדר
##ames
הפח
ששר
שלהם
מהלכים
הקדושים
נהרסו
##פאת
05
אנז
1871
הובלה
במעט
בתער
הפיזי
אוטומטית
הפה
שייקספיר
דוכ
טרב
##ולציה
בשמה
המכונים
##ריצים
נחלת
עתיק
סגירת
המקצוע
##צן
##ורייה
אידא
האני
אוגוסטוס
פרנקפורט
##נאל
ממדים
קליטת
קרויה
נעדר
תומכת
ובצ
בדור
מיתוס
##נהגן
מאוחרת
##פתיים
הכריזו
##גתי
יון
שוע
עלים
שלטה
נלסון
לאופולד
ציבוריות
מעדי
שנחש
הזדהות
ובל
הקשים
השיגה
מאוחרים
##יפל
וכל
Tour
פייג
לפיזיקה
פרח
##וקרת
הפלא
נעמי
פיתחה
העניקו
קריאות
##וארת
מגה
גדולי
המצליח
משתמשת
##ובין
1867
בבקשה
הורדת
השתלטו
##נאו
##כתבה
כמובן
החברתיות
לבו
ארנה
מאוב
מבטיח
##מרת
אופיר
המאוחרות
זורם
שמוצ
הדתות
פורמלי
שהתרחש
אשל
הגי
ינה
##כסנדר
##וליתית
הועמד
ייחודיים
##ign
בילה
רייס
פיתחו
בהש
פונ
ליידי
נסעה
##ES
Em
##וקסי
Med
באנ
חריף
שגב
##ורטון
והרג
קובה
תחייה
הרומאי
שטראוס
נתגלו
פנסיל
##ורגים
##וריום
##pr
גלם
צדי
הסקר
טוטו
כבישים
##HL
מאוי
הקדמי
התחרה
לבסס
אבטלה
##זגו
##יכמן
ניב
במות
המחוד
שחייה
בהנחיית
תשכ
אדלר
שהפס
באייר
למושל
סיפוח
מיניים
איילנד
עורכים
גרעינית
מולדובה
##יתן
##וצית
מפצ
לרדת
גילאים
##ילן
גילאי
לוואי
שוורץ
בוסניה
וחר
##וטוס
##פשרו
הדחה
מצטר
הכניס
קתרין
##כית
קפלן
אטומי
האוסקר
לוקסמבורג
##כנות
שאן
זוגו
לאשר
פרינס
הונגרי
##אסט
##מאן
##מעת
At
לקשר
הורכב
לעומק
Tom
פוז
Life
יכלה
קוסט
דיי
וגל
סנקט
אמירה
האופט
זהותו
##אבה
נלכ
אפיק
##ניון
##ננים
בכל
ארלי
ההור
##פתחים
שנוי
דרמטי
לצמצם
מסילות
אקדמיים
1883
##ביליסי
וביים
כז
##לוות
הרע
ירדני
קברות
צוותים
##נבל
שחי
מסות
קייט
קרוליינה
##וסו
##ריפה
באח
מפרש
כדורי
סייעה
שותפים
שייח
American
##זול
לדת
שלא
מרוצת
הבולגרית
##row
נבע
ידועות
סינגלים
##ger
##מליות
יואל
ההודית
החליפה
טלפ
##ואטית
הקומית
והבקיע
באיי
נופל
##פתחו
קמו
##ונייה
המדו
לתרום
##ננות
וינס
ממסד
קריק
במהדורה
אותות
ברברה
הבבלי
##ps
Ste
הוסמך
סטפ
שהוח
מוסיף
סקרים
מצביעים
##חוק
ונפ
לחדש
קושר
החב
חתנו
לחשוף
##LA
FA
162
לצר
נעה
##וביות
ואמו
התבטא
הרבנות
התפרקות
##סְ
##דרון
##תפות
לדו
בלאק
לקור
הסולו
התעמלות
וממ
מתוכן
להפחית
קוגניט
##XT
סבי
קבל
קרת
הגיב
נוזל
מוערך
נפרדות
##ושן
ואש
נקי
כובד
##סטיליה
דינמו
##פירי
##קטיב
אבה
מתוק
אתיופית
רחבות
שיקול
##כוס
No
הנגר
לקיסר
מבקרי
סיבים
פותחה
להכניס
##ear
##קדוק
אשור
דיכוי
דמויי
הפגנה
הנהרות
התפרצות
סאו
שקד
##מוניה
1864
אמין
סוציאלית
Har
ככלל
##וזות
במית
אוונס
שיצאה
התגוררה
##כמות
ההס
מפא
##למיות
האפל
סטוק
סכין
##רכא
##פסות
##יוותה
לאנט
אימצו
הבולטות
SA
152
סיביר
##ַה
##יצת
ונב
כיב
בלעדי
החרדית
נישואיו
##ניאל
שאה
פרקי
החזרת
העפילו
ארגנטינ
##וליג
בוכ
למי
נעליים
ווטר
לממש
בישול
מופיעות
##ומביה
נטלו
מתמיד
עורכת
מכונים
המלחמות
##קיס
##וצאת
מיזם
פנתה
קומי
##סמינים
חיידקים
##וסות
חובות
לגדול
נובלה
##cy
שהפ
אביג
ועדות
מדויקת
שמועות
##ידע
06
##ורתה
##יאנו
לאות
ואדי
ציורי
האינדיאנים
##למי
התאוש
ביפנית
מציינים
חטף
מנש
קוני
סעיפים
האישיים
דום
הוקרן
נוצרת
שלמים
להעריך
שרב
##ודדים
פלדה
פורקה
האוונג
קיימברידג
פקיד
חמצני
יצרנית
מוזכרת
MI
גרף
מבקשים
סיימון
מתמטיקה
##ונקים
1868
אוהב
חותם
המחול
לוחמת
##ונרד
הציעה
##org
##ords
ואג
אנשיו
##ett
##ריית
הקש
תמכה
נכנסים
רחוקות
חוצה
שולט
ראויה
שארית
##קסואליות
##ילא
156
לגא
אדיר
מימד
הואשם
##נשי
1863
מרוח
אקדמי
גודלו
למסור
בעונות
מבצעית
נרל
צאצא
הקושי
לנוכח
עשורים
הקולוניאלי
בייג
צורף
בפורט
מתתיהו
רגימנט
הדמוקרט
נגרם
שריפה
בכיכוב
התארגנות
##וצב
161
שווא
בוגרי
תקינה
הפרסית
רעל
ונוס
שביים
##ליש
##נחה
במנזר
לשחזר
##חיל
השערה
TV
1861
היוצר
ציפור
פפ
התיע
נעלם
הירושלמי
אָ
בטא
דאר
חלומות
הלוואות
תאולוגיה
בפילוסופיה
קשב
תשנ
חבית
מוסט
סבור
הבודה
מיקרוסופט
##ii
ושר
קורי
רבני
קורפוס
גריי
מתקפת
קביעה
הפסקול
עבודתם
##ברגר
דורגה
ילידת
נתמנה
שליחים
##סקות
ברה
לונג
הייתי
מרובה
אמונים
##ּת
Res
ארגן
שוחררו
##חס
##כז
באור
ואור
פולק
פיין
ביקרו
##וזית
אנגל
להתמקד
##שערה
לבקש
מעורר
##נהיים
ביון
##OT
##ald
שטוט
חולקו
בסנט
האריס
והסתיימה
##ריל
נספח
##פצים
##צלמה
אבול
אמנת
אפשרה
הסכימה
##כבת
##כבים
לין
הנוק
לורן
נתנו
בפומבי
אמריקאיים
ומסת
שחורות
רובינסון
לחי
הרצוג
התפרקה
##מרות
109
##דווין
האיז
Black
##נטיקה
תקדים
חמורים
מייצגת
##ביוס
מופק
מקיים
ההכרזה
בוע
ששו
בראד
האקס
המשפטית
בגדר
סברה
ברבר
להרג
אוהדי
עסקית
המוכרת
חמושים
אבק
##ואלים
##ֶׁ
##אך
##פבית
##יריון
הכומר
מתמקד
##וקל
למק
אטום
תפעול
החזקות
מתמקדת
קונצרטים
זינ
מחמ
המושבים
##enn
שן
לבי
נחקר
ביצירה
להעמיד
שוכנים
קן
בלגית
מהותי
הנפוצה
ומפ
היגרו
פותחו
##קובסקי
הפילוסוף
אסת
מבח
פלו
ולהע
הוגשה
פולינ
##נזס
##נכה
מגז
לביא
הפסיק
הקרויה
להתרחש
שהוכ
##פטומים
הגנים
בתה
בניצ
בידוד
פריצת
סיורים
שנבנתה
חלבון
לחדור
איסלנד
158
חריג
סינת
בלבול
השווה
התגרשו
ממע
Char
לצלם
הצגות
התקפי
פלוגת
השלימה
##פלגה
ורבי
העיסוק
ליז
אביר
כשהייתה
הפזמונים
אדר
אנדי
ברכת
##שיץ
שהוג
גינאה
עיכוב
##וחית
אדל
היאבקות
##ימם
##מציא
ייר
רימ
##פלציה
החשמלי
הצוללת
ישעיהו
##ata
##דיי
שמכ
נדרשו
הבישוף
##ng
סס
יווני
ללהיט
מוצאת
##גדה
##וקקת
##ליטי
אלת
במונט
שטוטגרט
##חקיר
בקט
מבני
נעורים
הקצה
להציע
ירון
תדמית
חגיגות
צוללות
סבסטיאן
צפת
##וגנים
נדחה
רצפה
להסיק
פסיכולוגית
##אסף
##קיז
ההע
האבירים
##קלור
רחבת
קילוגר
##פיד
בטון
מתפתח
ניתוחים
האירופאי
הלח
ריפ
הכיל
המתא
ליפן
סנדר
##ופוליס
לוויה
מדורגת
שמרנים
##אדו
##יהור
בהס
גרילה
המיני
נחשבות
עתיקות
דף
##סטין
איצ
##וטיות
קומפ
המאוחד
קדומים
בהופעות
רפובליק
##יסטה
פיי
פלג
טמפל
מזהה
עמוקה
רויאל
נביאים
ספציפי
מלאכותית
##יצוא
המעור
סוזן
אזה
האיס
וויל
הוטלו
החווה
Er
##טורה
אנצ
נטו
נראו
##גנונות
המקסיק
Pa
Rev
איטי
סלאם
להקליט
מחוקקים
דגי
לנקוט
תלויים
##כלל
218
אירע
חובב
##נגו
לנח
Comm
משלבת
נתקלו
##way
ברו
להנ
1879
השיגו
כיתות
מוסמך
והוציא
אשמה
מתקדמת
העתיקים
##יחה
ללח
הוקד
##קטיבית
מסכים
נחושת
התקבלו
מכשירי
הגה
הנב
יבנה
יריבה
לאומים
##וננת
##לאן
והל
חמה
##סריטאי
בכיכובו
##ִּי
באדר
שאיר
##יתונאית
le
מַ
1869
##ER
##TP
##קסי
העק
אולד
בשבט
להיט
מותם
##ליסטית
משפיעה
תכופות
##BI
##ler
מוצבים
דניס
הטלת
יורה
תקליטים
##שהות
105
העיד
אמנון
יחיאל
הדיגיט
ch
##גיגות
##נוביץ
וורנר
להסיר
שיווי
##ומצה
##סקול
סלעי
שמשון
##עז
##מחות
כיו
המלצה
זכרון
כוונת
נתיבי
קמפיין
ההבדלים
##בוי
שכנים
##ич
##וכנת
הלס
פיפ
הגלי
יפני
פורת
קרבה
להוריד
##ודם
##פרעות
הופר
מסוב
המשפיעים
##ins
##מיס
##ציץ
##פורש
##קעין
ששי
מתאפי
סרגיי
קרינת
##גרף
ובט
מלק
קירור
הוסיפה
\
##ליון
וותיקים
##ולא
און
לשי
בנין
קדום
רומי
##קסט
##ורין
1876
הנדל
זקנים
##PA
יזרע
מונע
מתכנ
תואם
מתקבל
סעד
מקלע
עשירים
וחס
כמקור
שהשתי
תקלות
המשקעים
סיכונים
##נקש
בנדי
ברצף
הובס
ופרסם
##ron
Sk
##ונין
שדי
אלתר
מזוי
עבורה
##ings
זיו
הגברת
הליבר
המנהג
לוקאס
נימוק
ספריית
גאי
דוכסות
##ונדו
רים
ההיפ
מגלם
מסתי
הלוואה
המינית
סיעת
147
בביצ
מקאר
##אא
החצ
הכתוב
לצייר
נפגעה
פגישות
##נקר
לאמץ
שלפי
בלהקת
שתיהן
תעלות
גופנית
##אקו
Im
Pol
גורן
במחזמר
לוויינים
##ֶל
##ola
##ופיז
מעת
שוטף
ועברה
מביאה
תוארו
##ומטרי
שיאן
קרחון
כנפיים
##ומנת
ראס
##סיוני
קונסט
בסביבת
NXT
בהג
כמח
אוהל
מגדיר
הוענקה
##DA
##ווינג
הוסיפו
שיתופי
##be
חסן
##יפורי
הורדה
הלוויה
חפירות
קונסטנטין
##קטי
##וליט
הגעת
פניה
יונקים
##ater
##ופור
מרס
נאב
לינד
הכרחי
רקטור
##למד
124
בון
מוגן
אירעו
הקפיט
##יקוס
קלאס
קולינס
דימויים
סינגפור
##ירוס
##נדסת
בייקר
מודלים
“
חלש
##אליים
לחמה
החירות
בהונגרית
Fl
טרף
צנז
שיפר
הבורג
הכירו
המתמט
התמקד
אמנותית
בחשיבות
המילטון
##קרת
צוק
1500
לבדה
מחסן
המתואר
השיניים
תרבויות
Per
חופשיים
לוז
גראמי
שליטת
אילינוי
האז
רנה
חולק
טוקיו
##אואר
רמלה
מיור
נפשית
ההתנתקות
דוח
##ליפים
מובא
אשכנז
הולנדי
מלונות
##נהאם
##גוואי
אנדרטה
##לטר
##ינגן
כנף
1872
כותנה
תבנית
שניאור
z
הושק
הדגים
03
##נהיג
ננט
העפיל
פרננדו
##נפ
##טיות
##שנים
144
בשו
מהב
שיס
הותר
והתח
והפכו
##ועם
המלי
עודף
חובבי
ניזון
הסורית
יוקרה
##ions
ההשת
להתי
באסטר
מצביע
Christ
דרכ
מרוחק
##ble
##לקסיות
הבסיס
ממוחש
מדרגות
מישיגן
בלום
השיל
הקוטב
קיצונית
##ан
##מיע
מסים
שגור
גילתה
גולג
אשכנזי
הצלחות
פיצויים
אסכ
גיה
ורז
##חרונה
להיח
העבריים
##יסול
##IS
##ors
##ארך
##ורטי
Gen
לגלם
הכפרי
##any
##ימאר
כים
מחפש
אבדות
##סקס
##יאגו
##צהרה
לידס
המורשת
הצביעו
מתמודד
אנושיים
הבלט
כופר
פאנק
##ליסטים
אומנם
מאתיים
שלימים
האח
פלק
##וקציה
מתוח
ניצולי
השווייצרית
##רר
הנציב
פרנקו
ממשלתו
צנזורה
##סאי
01
שגרת
נדרשים
עובדיה
Ind
הכס
לותר
מנוח
נכסי
באשמת
סגול
ובאני
זכרים
ארמניה
הנילוס
התבססו
יהודיה
##צבים
המחודשת
CO
בנד
הררי
קורות
הסברים
משמשות
מצטיינים
ורוד
לברי
נאפולי
נופלים
רדיפות
##סיוס
ורה
מעיד
קרלו
משולב
ניקולס
##ֹר
מציאת
ניקוי
##חווה
דופ
כרם
ללכ
בנאי
הפוך
חושב
עמיר
אדמונד
התכוון
להתערב
##סטרו
ערע
מוטי
בטוחה
שבועי
##ורכת
מכנה
אמריקנית
##כח
##טרס
בנס
Music
רחמים
קומוניזם
MTV
##בלדון
בשחייה
##מצה
ביו
אוהיו
יריחו
לילות
בפיזיקה
קיי
עכשו
##גובינה
אלמנה
התיישב
מוזיקאי
##יצוץ
דרשה
פרבר
המטר
בחפירות
בפק
פרוב
התוכן
זמרים
תזונה
המקהלה
הקרינה
מקיפים
##אף
##דיוס
1850
הגלקסיה
##ָּה
##ריקות
זוהה
הטרנס
עלולות
רבינוביץ
##ral
##ורוב
הגות
מתבססת
Windows
מסורתיים
Day
כיר
אחיות
מחייב
מאובנים
משו
מיתר
##נציאלי
ישראליות
לְ
##ouse
היי
ריס
והתר
##פרטואר
סוכנים
אלקטרונים
##ato
##ירותי
מארה
##צמות
מרתף
מראים
האמנות
נושאות
אפשריים
המייסדים
אמפ
הנק
הסר
אוהד
לקרי
מייל
הביטלס
החזיקה
להביע
##חקת
##יצקי
צני
##גנציה
במנוע
יורדת
שהוציא
מוזכרים
נסים
ברבים
יפנית
לחלופין
##ֵל
08
ולו
הלוג
קניה
להרוס
זמינים
ופתח
קשיי
להתפר
##שיטים
אפלה
מערת
אכילת
לדאוג
רובינשטיין
145
שמרו
דורשת
בממלכת
להכריז
אוזניים
טקט
##כוהול
הכין
ניגריה
שווייצ
בובה
##ומיניום
והו
פיש
לסין
אוסלו
השורה
זיקוק
חורבן
כמושל
כתבות
הדרומיים
##וטיקה
טורק
האורג
נסוגו
נותנים
הוצבו
הצטיין
מתנגדי
המחוקקת
מחזורים
מפנה
נענה
הקווים
פרופיל
##פקים
1873
והול
המשלוח
ברברוסה
האנגלים
Mon
הגז
פונט
משאבי
המהירה
ממושכת
התיכונה
כט
Cla
ככתב
ילדיה
##יוטר
האיט
המסי
חוסה
הריין
איפשרה
חומצות
חוקיים
הפיליפינים
##ze
151
Time
התנדב
מוזיא
##ניש
ביה
##וחלים
פדרו
החייד
##ילב
הנר
הדדית
מנואל
מוזיקליים
##כיה
##פכו
##לוגיה
נחשפו
הגולגולת
אלומיניום
##וזו
ברנ
הצפוניים
גת
חנק
וגנר
המיזם
סודיות
פיניקס
##קלים
בבק
##בריות
בפרס
ללבוש
ממקור
הנחיות
האירוויזיון
Don
בזו
הרוס
בפראג
ערביי
##ner
##יכוך
ובנה
לממן
המוחלט
##ille
הופמן
מייצר
משיכה
הקדומים
##אגון
##שיון
##בירים
##שרתים
זמין
בגדאד
השתלט
פרשנים
##ple
##ubl
##ella
##ופרט
באדן
בטל
צמר
##נליזה
גארי
ונתן
סטפן
קריסטל
##בצ
450
הטיפ
טנקי
בוגרת
ברנרד
קלעים
##חרית
לסגור
מעברים
עירוניים
קוי
הרבי
לשבת
מורגן
##נגי
##דיית
וחש
כשמ
##יתנים
הסינ
##דינבורו
##כסנדריה
בולגרי
מסלולי
אוטוביוגרפיה
07
##קציה
הסוד
אוהבת
דרישת
גלגלים
הלטיני
##דתם
שרר
מוצרט
מחויבות
קולי
רומני
אתגרים
הקנדית
להתאמן
האולסטאר
פב
##ופרים
1865
ארנולד
יורדים
חינוכית
To
איד
תשתיות
##ורטוגזית
המובילה
##דנית
##וצקי
##חסטן
וטי
האוג
הציוד
רצועות
ברומנית
כרת
פאב
שבי
סיאטל
תכלית
##מיניסטר
מתמשכת
##דא
דקל
פאו
##ימיים
הניח
טאון
הקבורה
מלכתחילה
##ֹן
מאכ
פוד
##וזיקת
המני
ובפרס
במפורש
תעודות
##bur
##שמו
זב
הלן
וקב
Star
מקדם
נקבל
תקנון
העצמית
מכוונת
שורשים
129
פלשו
משטחי
תותחי
ראשיות
##ru
גוג
##פוליס
העצר
מעשית
העבירו
הפרחים
כספיים
להיבחר
##alk
##פרית
יורשו
גלות
סלול
שהסת
##ונומיה
מטענים
ביצועים
למתמטיקה
##ולס
מהי
אמבר
הקמפיין
שלעיתים
##ink
##ולש
##פקו
##וארה
תרע
בהתח
הונה
והתא
זמיר
עלון
פליט
האנטר
העריך
מסרים
##זמין
שהחז
האידי
מהנדסים
לחר
פרא
במסגרת
והוחלף
מתיישבים
האמריקנים
م
di
##rans
##ורגם
118
סאן
גדודי
להני
מפלה
להאמין
אינפלציה
##אוּ
##קפה
09
מעי
##ריקים
פגעה
אליוט
השאיר
ובעלת
מגדלי
##כיים
הלכו
ריאות
החיסון
##חליף
##יסיפי
לשו
האלג
הפיני
ונשלח
תוכנת
מהפכנית
איזו
וזמן
הורדוס
ממקימי
צרכנים
דז
##סטוק
עבדאללה
המתמטיקה
##ינקי
ובמה
וגרם
תרגם
הגישו
השמים
מהוות
סיפרה
האחיות
##ומני
בקרת
תגובת
##ream
שהוס
נוצות
##טרן
אכל
לקט
פצע
הנכים
ומתוך
מאדים
שבוצע
נפוצות
הבסבורג
להתיישב
פלש
קטג
לפתע
להלחם
סיפון
גיהנום
מועמדות
טורנירים
Mo
##ושביה
סיירת
##ליפינים
האדומה
השיפוט
עוינות
נקל
מוענק
דיווחו
##VP
אֲ
בארט
מחנך
חירות
קאמרי
איירלי
נציגות
פיצוץ
החזיקו
##oug
התדר
ופול
הבחנה
אסטוניה
##ai
הקנ
הגור
ולחם
נרשמה
עוררו
העו
כרית
לבקשת
מלאות
סוליה
איילון
ובייחוד
##אלף
דנו
ורוח
בטהובן
##ְל
С
נניח
אלוהי
אנטון
מצודת
עיצום
בדיונית
החלקיקים
אִ
דאגה
משלי
##נקפורט
מיליציה
מלחינים
##עף
Out
ברד
הסיב
נבעה
סודי
ריהאנה
דיגיטלית
##mer
##חררו
שקי
##ביעים
פולי
ההסתברות
##נסר
##אספו
סימט
מסוכן
דלי
באוס
ישות
נשאו
צרכן
לוודא
נותנת
עתידית
רטו
נדרשת
השתחרר
NHL
יופ
שוני
יציבה
הבדיוני
שנט
אירעה
המאפשרים
גס
##פרין
134
ברל
ושנה
כומר
מסוכנים
לפילוסופיה
##ידד
##ומוס
ואמ
ולט
##יאנים
יופי
עופרת
החופים
פלטפור
פסיכולוגי
Bo
בובי
לאנג
זרימת
איוואן
פלוגות
התנהלות
תומפסון
##ַת
באלג
הקדי
מתון
גנטית
##פוג
בפע
למז
והוס
נפרדו
יצרנים
##anc
Met
כרכ
סבה
אסר
סלמ
הגעתו
חטיפה
מחליטה
בוטינסקי
##ציוני
מניחים
מקיימת
המרח
שובר
נלחמו
מוטל
למורים
שנכתבה
##חזק
##פונ
##זמור
הובר
הייד
לשבור
מכביה
##ash
##מינל
##קטוס
חנן
רלד
הבטחת
ריינג
התלהבות
הכפ
ויה
למור
הופעלו
לממלכת
##יצו
##פשרות
לינץ
חלוצים
מפגשים
שעש
ברכב
תקפה
החזיר
מערות
נעצרה
ראיית
##ליאם
##רתית
1875
צריכת
והופ
לרבי
השפיעו
מסורות
אורלינס
הפוטנציאל
##יאר
##לאב
שען
כימי
קולט
שהתא
כדוריד
להדגיש
איירליינס
מוליך
להשתלב
##חשה
##ופוס
בכלים
פרויד
##ade
##ינן
##אלימ
החט
כוב
אינץ
חוללה
לטעון
מנגנונים
לויד
סעיד
117
ואט
ראמ
בולטות
##PS
##ene
##ימוס
חפר
מהו
טקסי
שכבש
פורום
הרפתקאות
##ביו
Gl
הלק
יאק
רונ
ולהשת
שנמשך
הטייסת
הסקוטי
מונטרי
האווירי
107
תערוכת
##ism
##חזר
##נטות
ליטר
ריינ
וילנה
התקליט
יזרעאל
חדי
##סטרונג
קובעת
והופיע
##ביט
וורן
ריקו
אחידה
הדנובה
ההשערה
ציפורים
##מדי
##גלתה
מקו
שנד
בולס
בפור
קרום
##ארמייה
האשים
אללה
תורן
חוזים
שנוסד
באתונה
פושעים
202
ורד
כישר
נקלע
בריטיים
חיוני
שבתוך
תכנות
מתכוון
##ana
Sm
חדה
חזיר
פיזור
פרסון
לפט
##חראית
הרחיב
הדוכסות
##ימונד
כנרת
אומרו
שייטת
ארכיון
##ave
##מאר
##טמברג
נסגרה
דרושים
עבריים
##חנת
שקול
חושים
כמרים
הרפובליקני
התפש
לבטא
אכיפת
מונעים
##atch
הדרכת
והופק
לנהוג
להשקיע
הציונים
השתלטות
##חאי
##שיב
##וקרן
##עיים
גרים
השריפה
##בטאת
##ינדה
##יסוד
בוור
נחלה
סלילת
מפורסמת
##למס
##ונסין
מעטה
עוזב
אופציה
כרטיסי
סופרמן
קלינית
מנגנוני
##נצר
תיו
אדומה
ברמות
הבלקן
שנגרם
אהב
וקו
רוא
Girl
ניקסון
קולורדו
אינדיאנה
בוים
בלומ
וישי
טורב
עולי
מפיקה
צביון
##ליגנציה
האדמות
המצוות
פוריות
הסתיימו
הפוטבול
פין
##יליאן
והרצ
##רון
Sou
שלז
מרקו
הורחב
מלאים
עיוות
התרבותית
במיתולוגיה
וטרי
יוטה
הומני
##ונאוטים
תיכוני
השליחים
##ידני
##ירוי
החרב
נצחי
שלישים
Records
##כלן
##מכים
סוי
בגדי
הנית
לרוץ
וקטור
ייחוס
Do
הבז
סאב
##ציפלי
Stud
ולהצ
לפקד
חוקתי
פומבית
##צמן
אגד
לרג
##וזלים
##ושיות
הייז
הנחש
ויצר
תקיף
אלברכט
התגלות
William
##ונסה
לתמ
הצבת
הוקרה
ראויים
##ארג
##יצעה
נאה
שוג
##ision
גרשון
ההתקדמות
##ָׁ
al
##ement
וינג
קוונט
אופנוע
עוקבים
##דרין
ומוס
נבדק
שימושים
##לאס
כיסא
שגוי
הקווקז
התפתחויות
##ope
##אלץ
##אמים
##עודה
הטיס
הפוס
המערה
הטיפוס
מחזיקות
המעפילים
##to
##דינג
שיה
לחסל
רווי
בורמה
הבנים
הגרעיני
מיוצרים
מודרניות
תרבותיים
קסם
ברחו
השתר
הוחזר
מולקול
אתלטיקו
##כלית
##צנות
אבדה
פירס
הפוכה
וצוות
נכללים
האנציקלופדיה
##rit
119
גרו
שפרש
בשדות
מתקנים
נסיעות
להשתנות
נקו
##נפורד
גישות
לימדה
מרידות
ספורות
##ארים
##נדרו
רוצ
##בניות
לאבד
הוחלפו
##port
ABC
הרץ
וכר
הרווי
נראתה
IS
##מאים
כרוך
ניסן
אורכה
הורשו
התקדם
התקפת
פנסיה
שיגור
שהט
ובחלק
טונות
האומנות
##וקטור
דפנה
הפני
תהודה
האנגלו
והלחין
משתתפת
##וזיס
בלם
היג
ירה
ופית
לאוס
לענות
נאסרה
##יטקטורה
צוענים
ארגנטינאי
##גיר
##פעילה
Val
קיין
ברטון
גויים
שהיוו
ארמיית
סוללות
מקדונלד
##טט
127
הנרח
אמהות
ציינה
עכשווית
##ימב
Your
השלט
##נציאלית
מנצחים
נאשמים
##ank
רבו
הושג
זוכת
התאפי
זילבר
ליאור
אמריקן
סוציאליזם
ארכאולוגיות
##DS
ליכט
הממלכת
משמרות
אופייניים
מפח
1840
זרעים
השפיעה
עמידות
בהט
אורט
בתמיכת
להיפגש
נוגעות
##ריטוריות
פופולריים
##mus
מודול
תעתיק
החפירות
##צצה
##וזמה
##לטפור
אבנר
וייל
תרזה
הגולה
לנקום
בסמ
Live
##טיזנים
המלאה
כונתה
שנשלח
מתוכנן
שוחררה
תאודור
הימורים
מאוחרות
##והן
מהפר
המצאת
הדומינ
קתדרלת
##סול
##שבע
מיי
מוזר
תורגמו
להיווצר
##ven
##ידורי
סהרה
מוקפת
לקבורה
מדברים
Fe
##אמנה
##צצות
ברוד
הלמידה
טורפדו
מהט
אויר
קאלי
##EC
##ברד
הפרס
קונצ
Gra
לאם
מוצאו
התחייבות
##ברוק
1830
הסכמת
נמשכת
שכתבו
מציגים
##RI
תרמ
מריו
סברו
אכילה
פקידים
שמורות
##זקת
##חקות
##חרור
הבור
החני
להפיץ
הרוד
פערים
##ריף
##וצרו
איק
המתי
אסטרטגיה
##ּר
בהח
רעש
##וקרטיה
מייקה
השמיים
שכונתה
##מנת
ילך
במדר
כיפת
הסוכר
יהפוך
המופיעים
##כירות
והדי
הדיסק
מעלים
מקיפה
השימור
רבועים
תשלומים
>
צדדי
המיוח
נישואי
##וקראינים
##rom
וקס
זיקה
##יבישוף
מעביר
##ירג
##צבה
##רטי
##וקרה
146
##מינגה
טוביה
לייזר
מושפע
הושפעה
##ורשים
##ענת
##ינטי
Pet
סולן
##ימושים
המדיה
בראשונה
האירופאית
et
##יעצת
בוול
יושבי
קוראת
קישור
קתולי
האסכולה
##ux
122
מאלי
בהינתן
ביקורתית
##עית
##קטר
טאי
נפסק
רודי
לעקוב
##יננו
135
דיקט
מוכנה
##vel
AC
קין
שלי
##כוונה
שבנה
ביקרה
הסלעים
להתחתן
לרבנות
מקבילים
Up
##וקסים
הנשי
וליה
החשיבה
השוואת
התיבות
##MS
צאת
וריא
יצוא
יקיר
US
אנס
מעש
ישמש
מוחי
מכיר
לצבור
עמידה
קודמו
קם
##וורד
גלוב
ומשת
אסורה
בשחמט
מקווה
רגילות
##stem
CIA
עמר
אודי
ובמר
לדרוש
עישון
אחיינו
חשמליים
מאופיין
##inc
הרת
הוגש
התמחה
האלגוריתם
##נף
Nor
אקראי
הרולד
סצנות
הארטיל
גרב
צוותי
סיציליה
נכנע
##טום
העלים
צאצאים
תגבורת
מוזיאונים
##אתי
פרפר
כוכבא
קרנות
הפורום
עליונות
##קרו
##שלום
הבת
##וכסות
##נטיוס
אהוב
ומופ
הצפנה
למגוון
השבויים
Cap
חרדה
דרוזים
כלליים
נורמות
##ריקו
der
הקס
ותא
ליאו
מרקם
##ואליים
שעמדו
קהילתי
שלאחרי
ממשלתיות
בברודוויי
139
360
##ונומי
מניעה
מאמנים
שהתגלה
האיברים
##חנות
מיטשל
סיפקה
אווירי
חשודים
יאס
נמכרה
יישובי
סדנאות
אזרבייג
##ָל
##ארס
##ודדת
##סטור
אפגני
לתכנן
##ute
Dr
הגנ
1859
הלחם
מתקב
ניפר
##ומנטרי
בלגרד
הוגדר
רייגן
המדינית
th
##וקוס
והוכ
לקלי
מחיה
רונלד
##פרסיוני
שפורסמו
##BO
##קולס
לתה
נסוג
זריקת
חוקרת
יבשות
דוברים
בולוניה
Sec
טיים
לדחות
החליפו
שפיר
פרוטוקול
##ולר
##זהר
##צעה
וסר
הוות
ומונ
נפאל
Night
חסרות
ריבוע
גרנד
דמים
הלנה
לשירה
מתמדת
ראיין
מילולי
##ino
##ופעת
נשי
##ונטים
##מידות
##סטרים
פריס
בעזרה
המסוק
הקונצ
קסמים
##זיס
Vol
##יצועים
##ower
הזכ
##מותות
יביא
דבורה
סוגיות
בעשורים
והעפילה
ארמסטרונג
##יסו
##וקפים
בפסט
ליור
במדליות
##ואית
##וקלי
104
ורח
גברי
דייב
##ליפויות
##air
##אלת
Part
חתול
מוצה
בלייק
בלארוס
פרוטסטנטים
##ולינג
ויסק
הבינו
ללהקת
השלכות
##מְ
##טיקה
משמרת
ומוזיקה
##כמת
##פלות
קרפ
סדאם
כימית
פגיעות
הצוללות
קליבלנד
##ושש
הנוצ
קרובי
שהוכר
אלבומם
המכילים
##שְׁ
##כניות
טהור
גופות
ליישם
להחליט
##נטגן
Rock
וציוד
ייבוא
יתרונות
בפורטוגזית
##ימא
##סלו
הוה
כלבי
לייק
מונד
נכבד
בסיסים
המינרל
המכילה
##אלד
##קפות
##וכנות
שעשו
שבתות
שנהרג
מצוינת
התיכוניים
##AC
אלס
השינה
##ск
סוע
שלק
בירד
האסון
ילידי
בואינג
##nal
Tw
Wom
צופה
אירחה
השחייה
##BM
לוע
נשמע
מסייע
אטלנטה
הקונסול
טורונטו
מטופלים
הגיטריסט
##לוק
148
Red
##תיימו
מנדטים
הרגימנט
##br
##lex
בזל
וחת
שחש
וניו
כשיר
חוליה
חינוכ
המקראי
בקוריאה
סלובקיה
Art
אירח
פלאש
לטביה
בסביבה
Air
אימצה
גוטמן
הקלטה
להלכה
תוארה
מסחריים
בסקוטלנד
##וצק
##גורה
##מיין
מהפך
Dav
ברם
בלוק
בנגל
נשות
היורה
המציג
קבצים
##ימני
##וואנה
איאן
מבחר
המשתי
ציפיות
##פירת
ובמד
והתי
פרסמו
סימפסון
##יוור
##ילמה
שתת
##נקציות
גבעות
דגלים
נופים
להיכנע
##חורה
התגל
ומטה
טיסת
בוטלו
גבינה
מציינת
מחליטים
Op
##אגרב
##להומה
איגר
ואמה
האפקט
הרוצח
להפרי
משלחות
האבולוציה
האמירויות
Sa
III
נרד
סנה
##וניסט
##רבעים
חששו
תמונת
הבארוק
פסוקים
ציידים
##iver
הדו
##נגשות
ברונ
להור
רצתה
אחסון
הגישה
מגנוס
בפסיכולוגיה
##רינג
באפ
נמנ
בכנסיית
למוסקבה
המשמעותי
דרב
הדק
ניח
אורז
בגני
הבטן
ספריה
השיגור
מעריכים
אסטרטגית
##ליי
לשב
שרו
אריסטו
בנויים
לכימיה
מגרשים
מדוברת
מוקשים
בוועידת
הממלכות
##גיח
רצחו
לערים
קליעה
אורלנד
Po
##דינו
מוה
עשב
פתא
שגש
אולמ
אמילי
פארמה
והרצגובינה
תבע
מחסה
הצביע
הפלוגה
שביעות
שחקניות
##ַר
הסקס
סונג
אפשרו
מתקדמות
ְ
##rael
##בייר
##יביץ
העדפה
השנהב
סגורה
פסקול
אנדריי
קובעים
סוציאליסטי
Act
אסד
כהנא
מוצק
מרגע
בקליפ
פיוטר
אקדמית
מטור
מכסה
מקדי
שוחד
גרייס
סינית
אפריקאית
*
##ומא
##פוצ
FBI
##קדאון
המכר
ומוש
האהוב
מיקרו
מרפאה
המשולש
1858
ימות
יבשתי
נורמן
סיסמה
##כנים
שנק
##יבורג
##יקלים
הסינים
בצפת
גרנדה
הצהרה
נטילת
קשתות
מתוקים
##ena
##let
##ערת
באז
דיל
ענת
##ישיית
דורט
הכרת
Enter
להסתיר
לחות
חימוש
מדינית
##ret
##חלפה
שבפ
גאגא
מציל
מרות
רשמה
בודדת
מרכבה
תפישה
פיליפס
טוטנהאם
##עס
##וטן
##מינה
Eur
עושר
חולשה
אבידות
נוכחים
NG
המול
מעוות
שלש
פרווה
משקאות
מחלוקות
##וטס
מטיל
בריחה
פטרוס
הצבאות
אירוויזיון
##אלס
##אקה
##ילוק
שברי
ניידות
אנטיוכוס
כריסטינה
##והב
נון
אמות
כילד
כותבת
מכנים
שהייה
אולפנים
##וברה
##יאקס
יהאד
מנגן
ננסי
המזבח
##ini
##ממות
ותק
מנעו
גבעתי
ההיסטוריים
##ony
MVP
##נהלות
בקבוק
מקורם
העיכול
מושגים
תחושות
הכוללות
פרקליטות
Dis
##ווינס
1857
הקרט
פלסטינית
ישי
מאלו
מחמת
מצויד
נערכת
תיארה
בחורים
לובלין
##ציח
מזד
מעיין
נקבות
הידועות
וירטמברג
##ft
##זדן
##illa
##בשתי
מיסי
אוטונומית
יות
הבוט
וגאס
##ותרפיה
בבתים
בגרסת
הכשרת
המטפל
פנימייה
אפגניסטן
נאשם
שחול
מסוקים
מצומצמת
משוואות
קונטיקט
##osa
##ושין
##נסית
##יקאית
ולוק
התפשט
והפסידה
##גמה
##נלנד
צפה
בפול
ליון
רכיב
עדיפות
מלאכותי
אינדיאנים
שאק
Hist
אגדות
מיסוי
התנהלו
קרניים
אלפונסו
הישרדות
##וקב
Ele
יורי
מדונה
תוארי
תרומת
דומיננטי
##חתים
113
מלאי
השקיה
מיגון
רלוונט
הפרוטסט
##קליפורניה
דיוויזיות
##חבת
Af
קרמ
השחר
קרוא
מופשט
אייכמן
התמחות
##der
As
##stit
הבא
קאז
##וכנים
##נבוים
לוקי
במאים
פרנקל
יוזמות
מייצגים
דורטמונד
##ויו
דיז
המיס
הרוקי
החלבון
המתייחס
מונופול
##ענו
Sal
כוש
Cont
בליס
פטור
הממלכתית
Jour
שררה
Colle
הצדקה
##ike
טווה
צירי
ביילי
נסיון
התמקדה
Il
וַי
##שלכות
with
מחלף
פורסט
פענוח
מרפי
מסעדת
הגאוגרפי
הברזילאית
##ָאנ
##פעלי
הסוב
וגור
ליפה
נקשר
שהוצג
##פליקט
הדעה
מונו
סובבים
קק
##קרנה
כשש
##ations
אתנית
מיושב
ציינו
הנקראים
##אנז
##ters
##יניה
CBS
דמו
שרכ
##ומטים
נאות
##סטרומנט
להתנגד
מסט
אשראי
לשתות
עומדות
במלחמות
מגוונות
##ינסק
##ורדית
שינו
בחייה
הפגין
פחותה
מנועים
הורוביץ
ספרותיים
מאוס
נספו
משרתת
נזקים
פיננסי
##שׁ
Mic
דחף
1849
להול
הדפיס
הקלטת
שהופק
תיאטר
אופייני
תבל
האריה
אפריקאי
מעדיפים
דיפלומטי
##ET
HOT
לנפ
מעס
טרנר
מתכו
##מישייה
יריות
תחתיו
##ולטן
גמל
בעור
האנס
ספגו
עיצב
שגרה
זכיות
מנהרות
שהתגלו
שכיחות
##ara
##ופע
##חררה
דרק
בחשאי
הנגין
העוני
המאפיין
ניזונים
המונדיאל
##שלחה
זולת
שבית
קונפליקט
##חבר
דנ
##ומנו
##נטור
במור
ובסך
עוקב
פיסט
##סטינים
Super
המסורתיים
ויע
תרס
בדיני
התחנך
קלווין
טומי
הבחין
השתקע
קרקעי
איפשרו
הטייסים
##ַב
Mac
אחורה
נחיתה
הודעות
סרטנים
קרונות
##נטין
Soci
פיגור
##uck
##גסקר
עימם
פרוזה
והשתתפה
##דול
##ופתי
##יבול
הום
המפר
במקצה
הרייך
##לחמה
##מידו
גלוק
הדגיש
##ְי
##דט
##iew
טנ
נצר
רוש
ברכס
אחוזת
גטאות
הפיוט
##oft
Kn
Boy
סהר
סרק
נלהב
הופסק
לכוון
פריון
תרמית
בתדירות
המוזיקאי
האדריכלים
##בלין
מספקים
רוזנברג
המזרחיים
##FC
##pl
##נדרי
##סיון
בבול
ודור
בצוות
ולקבל
מקורב
המארחת
נכח
דיפר
מרשם
עוצב
הגובה
הפינה
ערפאת
תוואי
הקשרים
הכנסיות
##ודינ
San
לנין
פרוק
##יכויות
התבצע
חופים
ניזוק
ar
##רטני
Fri
פיב
שפי
כינו
ועלים
הדרקון
##צק
##ual
לשא
פאס
##יזציה
שבמה
ההרוגים
התותחים
##ילוט
##סמים
לאנ
תדיר
קיימה
קליפת
שהציג
פיזיקה
מוקדמים
עצמאיות
##פטי
750
זקוק
דרווין
להכשרת
לשליטת
ממלכות
רכיבים
##בעת
##tain
##ודון
וינצ
שנכב
אנוני
הביעה
עננים
חינוכי
הוותיקן
הערביים
כימיקלים
##urn
en
##ישורים
הבנוי
הנדסת
וסופר
מגילת
המצלמה
שוקולד
בסיסיים
רת
##ition
Cent
ונשאר
קשריו
שיוצר
התנגשות
הקולנועי
שהד
הלהט
גויסו
חולקה
סוכני
בדיעבד
גלאזגו
##на
##פלס
בקד
השמר
וקלי
מעולה
שרירים
הסקוטית
קלאסיים
Ser
הדח
פשט
אדון
לוסי
שמקור
שנקראו
מקוריים
##עירי
##רטור
אהבת
הקסם
השומר
טימור
שהתרחשה
ליניארית
ארכאולוגיים
בחת
1854
בטכנ
היופי
למדוד
אוגנדה
עיראקי
הישיבות
##בדת
דלא
סכר
יפתח
ליבה
פגעו
צנוע
בראשית
מוגנים
טכנולוגיית
##ML
##ברן
ופת
יגרום
בטרייד
הקרחון
מוסוליני
חליפ
להדי
לחלץ
בנעור
המעבורת
##ka
##יתא
##יפלג
##יתוב
צלם
##טיבית
הבשר
הערי
החכמים
המלאכה
נפגשים
בסוגיות
דיגיטלי
בקטגוריה
נשת
##וארטו
##שתינה
באסט
ברגר
המועד
פארקר
רימון
בגיטרה
התפלגות
מינרלים
עון
##שלנות
הסופר
העמדה
יושבת
מבודד
מהדורת
צפויים
ריבלין
האצילים
##כלות
רוע
##טרפות
גידי
ליסבון
תוניסיה
##וגד
at
##ited
RNA
ווק
##וסקופ
הולמס
בדימוס
הגדרות
מעידים
##ail
##וטם
רייצ
ירידת
נרכשה
##AS
בדק
##נדלים
##ניקים
הוטלה
אורלנדו
##II
##por
היט
לגשר
עיירת
חיסכון
ההולנדים
##אנטים
הרחם
פורה
תעלה
הוצעו
הכבידה
חישובים
אמריקנים
האוקראינית
##ye
שנצ
סייד
היווס
המציא
ספנסר
הלהקות
del
טבעות
סרטון
פרימיט
ההלניסטית
Ang
נין
טנסי
לכנות
אצבעות
ייחודיות
##ֹב
##וכבי
אשם
טוס
ענה
טכנית
##ֶת
##כנת
יִ
גלן
העתקה
מימין
נכשלה
החשמונ
והכריז
מגזינים
du
##ling
Ber
NBC
דפי
##יוויד
1851
וקור
רכשו
מוקדי
סירוב
רחבים
ואמנות
טכניקה
פלסטין
מקסימיליאן
##זמון
דוחה
יומן
קייזר
הבולשב
הביצים
##ילוב
106
116
##יליקה
אופק
רוצח
##ציונלי
אוליב
טיילר
אקדמיה
העמידה
ערעורים
ההיסטוריונים
##גתית
##לקסי
132
בכי
ביצה
החיצ
וולד
תמיר
המליץ
משוכל
ספקטר
בודדות
הופסקה
חזיתות
להשתחרר
##ón
ענן
פקד
רשום
ברידג
חלופה
מסוקי
מוסיפים
חץ
##בחנה
##לחנה
בהשת
סטארק
ספיידרמן
ספציפיים
##וארו
##וויטר
הקוא
קוסטה
Robert
##ינץ
האתי
עיני
הלהיט
הסימפוניה
##ודז
##פלר
גדת
קאי
החזון
הסדרת
נכנסת
התנגדה
##גנה
הקופ
ענתה
הזורם
צעצוע
קברים
ווטסון
אירופיים
השידורים
ההז
##וויית
מבוא
בהתחשב
##ital
##וצרי
##נדרט
בזק
##ודיוס
הנעה
הוגשו
המאות
ימונה
נדירה
מינימלי
ברנשטיין
##vent
##חרתה
העכ
בוויל
האינד
קריסת
חיבורים
##za
##בז
##והלת
גרד
##יקנים
השלג
הכנרת
מרינו
הושמדו
להפריד
שליליים
משמעותיות
А
##צהיר
בזר
נוחה
תופס
ואזור
לנדאו
לשאול
סלומון
הבריטיות
שבקליפורניה
##נול
143
Cal
ומו
תרי
לפרש
עוטר
בצידו
זכאים
עיתונאית
לאג
אברי
מדרי
מעבד
חריגה
##ליז
##עדית
נסת
##כיחות
לחוות
בדנמרק
ריאליים
136
ונו
##ology
ספרט
עדיף
שילה
השתייך
חבורות
הכנפיים
138
##נחלות
הסוס
המחיה
הספרט
##ופוטמיה
אנטארקטיקה
##its
חטא
חיפשו
חשאית
##וניאלית
החופשיים
טכנולוגית
##fer
##ופח
##ליקה
המעט
והתמ
וינט
עוזי
Heart
בינוי
צללים
רחוקים
##שך
##וקרטס
מלטה
שילב
Israel
סלטיקס
האמנותית
##ייני
טרו
##פריות
האגן
החמאס
שתיקה
המגנטי
אביגדור
למרגלות
קילוגרם
##ַח
##oup
##וזק
##אשים
##בהים
##דינל
##רידי
Net
כשע
חמוש
לרשום
כרומוז
מטיילים
הביולוגי
אמנ
וצל
מזו
פאי
קירי
לאונרד
לנז
אייס
לופז
ללוס
מיין
מכדי
איזון
פרוסט
##רוג
108
Cre
מגב
מושלמת
##פללים
ומדי
יזמה
מצבי
מתוע
עוצבת
שכירי
בילדות
להתקרב
ליברמן
מהאזור
שטרלינג
ארטילריה
##צנת
##קטו
CD
pr
##ודוס
בקת
דגן
ושירה
סטריט
##שק
##דייל
##והאן
ויני
ירמיה
מפתיע
ספרטה
קמפבל
בסינית
צלילים
מהאימפריה
טד
112
זעיר
ידעה
שעבדו
לסג
הוכח
מתאם
צופן
למטרת
##ор
##יטוס
##נזניה
הטופ
ולטר
נוספה
הולדתה
מאזינים
##OR
סאר
וקול
יונג
##יטורים
הפיצוץ
מסייעת
לאקדמיה
קסטיליה
##משכו
ביץ
##ונסול
דילן
במסדר
אחורית
הברזילאי
М
##ane
##ula
Jew
איו
עצר
אריך
כתום
לורי
מסוק
הוזמנה
גירושים
##ος
##ונז
##work
##ברפול
דורי
דינה
הרגו
סופח
הודחו
היצור
נלווה
המאופי
למחלות
פשוטות
כרטיסים
##ев
##ברין
Des
שגו
התרג
יואן
מייד
##מינסטר
הוויר
להתבצע
מתמטית
גבעתיים
##דוף
##ודאי
Ver
המצו
מרפא
קרוז
אלוני
הוצבה
תעודה
מגדירה
מאפשרות
אתו
בקל
סטין
פינק
שרצה
להגיב
מעידה
הקרניים
משולבים
##גולי
##ימאן
##ליוס
##פסיד
שהנ
הכנף
שיתוק
מרשימה
לקול
הוואי
המקדי
המקיף
עלויות
##100
##נדב
##וכבים
מחקרי
במדריד
גולדמן
כדורעף
כפופים
הפרובינציה
##חקים
תשי
בכור
טורף
קדומה
המשוואה
תסמינים
121
Play
לטור
אהבתו
התחרו
התקנת
מצידו
סטייט
טרגדיה
מודעים
מחייבת
##ti
1855
לקלוט
מילאו
סגירה
גרעינים
הגאורגית
בתע
##ינברג
גלוי
פולט
##LS
##rag
##ומל
דבש
מוי
ותחת
ויוצר
פגיעת
אולמרט
##ינגו
מכוב
וונדר
שיריה
בנקאות
##ety
##rop
##לתם
ברקע
הציב
מותג
בגזרה
השולט
יצרני
האורתוד
##זרית
##פיני
ופג
המרת
חיטה
מנור
הסלוב
צאצאי
קלייר
רציפה
הגיטרה
השתנתה
סטודיו
שסיימו
טמפרטורת
##ür
##זהיר
##יקית
##מתין
זני
איבה
התלב
מאלב
וותיקה
תאומים
##גתה
##פאן
##ates
מדים
יוצרי
נכשלו
ובשנות
משאיות
ציירים
מועדוני
המכה
לגדל
צבעו
ופעיל
לבירה
מחשבות
הצבאיות
סטנפורד
##cus
תהל
##ידוכס
אסונות
עמוקות
פנטזיה
חיוניים
כנה
אונו
ששלט
מדרשה
שודרו
במחלות
בריטיות
##FL
##סנל
##berg
##נגרד
נאג
נדב
שאלו
שלמד
תורם
איטית
אלימה
פנימה
שפרצה
תפילות
לרפ
##וארים
בוחן
הפצה
חלקת
לטוס
נשבר
בוהמיה
ערביים
תוספות
המועדונים
Aut
משכן
מגדרית
מהירים
תעבורה
##וכלוסיות
הגשושית
הנורווג
התיישבה
צרפתיות
קיצוניות
לאן
גאור
ונות
להיא
נדון
מחברת
העדיפו
ראשונית
##פתעה
כשג
סמא
##קסואל
תרנג
גורסת
הכימי
ברורים
איגודים
##זס
IP
##פטים
123
##ריטים
בנפח
וקונ
שמור
בראונ
שסביב
הידיים
לרבנים
המדענים
הנשיאות
מועדונים
מערכונים
##ta
קוטר
בחווה
ספונט
##בדה
קמח
רלו
כאבי
מעוטר
סוחרי
נשארים
בנת
נמת
הסטר
ועזר
רבתי
איימי
התייע
חלשים
##רכאולוגיה
Big
Reg
1847
ומנה
תומר
הסירה
##וגני
##סטרי
ואנ
רני
שהתמ
תיבת
האטום
ממשית
קיטור
גילברט
עמוקים
##וטף
ברני
ובני
הנוזל
ייצגה
להיטים
שהיווה
המצליחה
##ַע
השט
מתעד
##קטורים
אימוץ
ספינת
הסדרים
1852
ברכות
מיוחס
קשישים
102
שבצ
המוצל
איירון
טיפוסי
ניתנות
רלוונטי
רפואיות
##סטנטינופול
##ric
##סטול
Mer
קון
אופני
מוציא
מזימה
נזכרת
שייכות
האיראנית
אינטלקטואלים
##יכי
Arm
הסרת
הראפר
יונים
מסיים
אצילים
Company
##NT
##ינב
##מדות
##צרים
אגדת
המינ
##נהאואר
אריות
הרפור
מגנטי
מונקו
התאומים
פירמידה
##ארגן
##ובני
yes
כשא
סלק
חשבו
הכרזה
אלימים
בהירים
##גוריתמים
השווייצרי
##וזרת
814
##וליזם
לארח
הבינוני
##lo
##ces
##ריאה
Fil
בפת
טונ
נטש
High
הסבה
להציב
נקלעה
שומרים
מאופיינת
##כירי
ארית
לסטר
נסעו
השומרים
הלט
צער
באגם
הקטל
רפיח
במרוק
מחויב
מכירים
מצריים
התכנסות
בטורונטו
##net
##ield
##יאמי
Hol
מצע
##ובשים
ומרי
מבוט
מצטרף
היערות
עכברים
המדליות
##נשט
ההכ
מצה
##וקאסל
1800
באפט
מיכה
עזרו
האינס
יוצאות
עצורים
מחוברים
מעפילים
##rad
במז
הרה
סות
##פונות
קייל
תקרה
הנמכר
קומית
הבונים
הליכים
מכשפות
אוסבורן
##כתוב
##תיחה
##ונסקי
פורק
בהרים
פאונד
הנסיכות
הזור
באוסף
גאורגי
כימיים
האידאולוגיה
142
בבא
המשכ
צידי
ההידר
המיקר
יעקוב
##פוזיציה
ביולוגי
הארכיבישוף
##ָם
##ומש
##ארדי
ולנ
##ובליצ
מיגל
משקה
נכחד
פרשו
עתידה
צנחנים
התמודדו
מאפייני
##שמה
##ואיט
במו
1853
כובע
צוקר
להדוף
מסירת
##ובינציה
העופות
פרקליט
גולדשטיין
University
##ер
##ode
RA
So
לברך
Mount
להכריע
מנדלסון
##IV
##יטיס
הרצה
לקומ
סולט
רונן
בפנים
ללכוד
מבקרת
התאגיד
שארלוט
בישיבות
מתאפיין
נישואיה
##יגרת
##פוטר
Che
##דיניה
מאוכל
מרפסת
##ציונלית
דרמטית
ולנסיה
המקראית
מוצלחים
צח
גופת
הלוע
פונו
ארוחת
מעצבת
סילבר
עזיבת
מכניקה
ונצואלה
##וחן
##אקים
ספיקת
שפיתח
האסלאמי
##ME
ب
##פקדו
אתא
סאד
והצי
מונעת
עליות
טלסקופ
משוררים
לנט
##otten
אגפים
לאסטר
תמיכת
קונסטנטינוס
ותש
הבלטי
והורה
נסיגת
אנדרטת
סצינות
קפיטליזם
Li
##שתים
ברן
בהלה
התותח
העצמאי
נובעות
הלהיטים
יווניות
המקסימלי
##רוּ
קרבי
תיבה
הזרמת
מועטה
רגעים
ספרינג
המעורבים
##פדפן
##פיזם
קנו
ביסס
ירוד
מרסל
איברי
יוהנס
מוגברת
##אפו
##נוט
##קטות
ממא
##מיתות
כפוף
להתכ
נעור
נשלט
שטען
במאזן
עמותה
התנחלות
##וארך
ושרה
להפר
Award
משחקה
פליפה
תאורה
אוסטרי
ולימים
חוקיות
Ke
##בודה
צאה
##ience
##ופיית
##קסטיל
חלקיק
מתכנן
הוחלפה
##נחת
שלמ
חושך
נעזר
פינס
גולמי
וחוקר
תסיסה
##למנטרית
סוויפט
אנטוניוס
##ובא
##ותח
OS
בַּ
צרה
שרג
##ובבים
הגסט
המהפ
והתע
כשלה
הגלים
הקרנת
מופעים
רוברטס
##אצא
##דלי
##שֶׁ
לצע
מחמד
האפרו
השונה
נחשים
פורמלית
##ֹל
אוא
בקשות
הבלגי
מיסטר
קובצי
בצילום
הפסיכולוגיה
В
חזן
פרחי
שריד
הנמלים
וינסנט
סאטירה
שהשתתף
הפיזיקה
##טגיה
NGC
פאט
##ליטית
Associ
היגיון
מילימטרים
К
##וקק
##צוף
##פטון
הטמ
##וניית
להיווצרות
גזים
לאגם
##ונטריו
לתפקד
להורות
המתוכנן
צרפתיים
המאוחרים
זן
הטה
##פילית
##ריטוס
AS
Not
חצה
אברמ
פרשות
קידמה
תופים
הסדרות
חליפין
פלילית
האלקטרונים
##צב
Ter
רנד
לדכא
מהדי
ריטה
אגרות
מתקבלת
אפשטיין
חוסייני
יישומים
סיכויים
שהתנגדו
##ביון
##ובסק
##ריום
##זיוני
##נבאום
##ריאול
אנרכ
מעדיף
נרכשו
בסרביה
הנמוכים
האוסטרים
##ֹא
##ura
בסנקט
כיכוב
בצוותא
גוונים
ליברלי
<
חוכ
צלע
##לילות
המקו
ודוד
בקושי
ייסדה
כשרות
מתורג
הצוואר
##לוך
כפת
שבד
לעבד
צייד
ממדית
מתאפשר
ממוחשבת
##ינא
##נרת
##פוק
##over
##גריה
הלש
ויח
ושח
יגיע
סמנכ
רדיק
לצידה
הושפעו
זורמים
פסיכיא
וינגייט
פרסומות
##MI
##ein
DS
##isch
##דיפת
גנטי
רייכ
אדריאן
היריבה
המוענק
מיוחסת
מקרטני
##לוה
במנצ
לוקחים
##ואין
אנטר
נגמר
שיבח
הדבקה
הדנית
הנפשה
התותחנים
התנגשויות
|
##ree
##ארות
בתח
מטב
שבג
ומחז
ילין
נאור
פסיכולוגיה
##ney
##בתא
Hen
שהז
##לווים
בואי
לשמו
השקפת
School
פירנצה
המאובנים
והאחרונה
##איץ
##איון
111
Die
הוגן
הקנה
הקטנת
נסגרו
אמינות
בעזרתו
הקבינט
מייצרת
מרגלית
קדושים
מיועדות
##ְה
##יסלנד
באטל
בבור
הבוס
מיאמי
המייסד
מוצגות
ומכיוון
##קומ
##נדינ
##שבות
פאן
וניק
לאימ
נטלה
חיתוך
הקרנות
אזוריות
בבג
ותפ
חדל
בבלי
הדיג
העתי
השלם
סדרי
הפסחא
יקבלו
נהוגה
היחסית
טרנסיל
##פץ
##נצחה
פרב
רעות
האשמה
השיער
ליווה
ולהפוך
התרחבות
##טלף
##ביאו
##פסיה
וכמ
ערד
##פרייז
##ינגפור
ריינה
התאחדו
מיומנויות
##פוף
Es
Jo
בבה
מצח
במחקר
רחוקה
שהציע
מעריצים
Song
התער
זכור
יציע
סאנס
זאבים
הפצצות
השפעתה
ניכרים
בקמפיין
הרפובליקנים
##נטס
##צבו
##נגוף
טאר
חילוץ
כימיה
רנטגן
תאפשר
טריטוריא
קונסטנטינופול
##יפיק
##סטוס
133
איטיות
גיבסון
הזמינה
רולינג
בריאותי
יאר
ערן
לרכב
נאבק
התרשם
יוונים
מעבורת
מרובים
Pre
ומרג
ומתח
בדפוס
גולדן
הדופן
בחריין
בקמפוס
משוואת
מעסיקים
אפריקאים
##ris
##ואנ
Sw
גיבר
ארוכת
המתקד
אלכסנדרה
##uss
##מיק
כפל
1846
2015
לנקה
בגידה
ברומן
המפות
מילון
שצולם
דמיטרי
ההעפלה
יריבות
משקעים
תלונות
##לילי
Mot
הלגי
הסקי
תודה
ביתיים
בינונית
הארטילריה
##MP
##els
בולי
גרפי
כוננו
System
גמישות
הבתולה
השייטת
משולשת
טרופיים
##דורס
בסקי
עדנה
רשומים
AP
דיב
ובינ
לוטו
שרמן
הקרוא
חנינה
מסוגת
מתנות
פורטר
לווינה
מוקדון
מפתחות
גולגולת
##ij
##אגיד
##וויט
כבל
Inter
לחיפה
ליושב
אוכלוסין
האופניים
הדיפלומט
##ama
ומז
זיכה
מזמן
נורד
ריבר
בעברו
ליטול
ספירס
ערוצי
ויימאר
ולמקום
השרירים
תרכובות
מהארמייה
##אנוב
##עידה
סנג
אזהרה
התיעודי
ראשוניים
גבה
קרלי
הבהיר
השיקה
התבקש
התווד
לגיון
לייחס
מפואר
מתקשה
##וקספורד
מהפכני
סמאקדאון
##טיבי
Eng
אום
הבלא
המגד
חביב
חושף
חשפה
נקבה
החימוש
##ros
##טוף
##ריא
בייס
נצפה
רוכב
##וריאלי
ברקלי
הטבות
הרגיש
מונטג
מחוקק
מועדים
אפשריות
##uk
##אמו
or
##גולה
התיר
ומות
פלסטי
תיווך
הותירו
Tim
טרט
סוק
עשן
דחתה
הנחתה
התקרב
מטילה
אידיאלי
רביעיית
באפגניסטן
באצ
אורב
במדי
בסתר
חשוד
מורט
##וגרפים
הכפול
נוזלי
נמלים
הפרווה
מרכיבי
##גוג
IBM
קפד
##כניקת
וליאן
מחסום
הידידות
המנגנון
##קם
##amb
קימ
תרנ
Jose
אספת
דויט
מדגיש
מונרו
הרקולס
טקסטיל
בוונציה
##ֶב
##ליזה
ושלח
מאיה
משוח
פריי
אגרוף
גולדה
ניסים
הותקנו
רוברטו
בקריירת
בטן
סון
התנצ
ספין
עורק
רוסו
##יאורים
##נשיונל
ההתשה
תווים
אלוהית
מתפתחת
סטיבנס
הבריגדה
יסודיים
דמוקרטים
1831
הפינ
ופעם
##חלוקות
אנטיג
הפלדה
טייסים
העליונות
וגא
##ווארה
ברחה
ייחס
לסמן
עסקת
אוגדה
גובלת
הפשוט
חששות
לעמדת
וימבלדון
##גבר
##ודעת
דתם
מתנ
סרב
##ונרדו
##סקאות
אפיל
בורא
המחת
המיק
כיון
רוקח
הגבלת
הטילו
בסטודיו
למבוגרים
Kar
לחמו
רוסט
בורות
ברסלב
הליבה
לסבול
קראוס
בגלריה
ארכאולוגי
##itz
SS
לאק
סוצ
באגן
התפצ
למול
איתור
שנשאר
ביוזמה
הבולים
ולהיות
103
אבוד
קורן
לשהות
איגרוף
עונשים
ספציפית
##והי
אבדו
גדלו
הוסר
ופיקד
מופעי
הכהנים
הקירות
Journal
ננ
משח
כשהת
מבוצע
נגנים
נחשפה
שתמכו
תאוצה
תלונה
##פרטהייד
קיבוצי
הארגנטינ
##ان
##ראן
נרת
##נזרים
גורש
דתות
המתע
פוני
חקיקת
מחזיר
בנייני
מחולקים
וסל
ינו
מייש
רותם
הכמות
הפליג
נעשים
אלתרמן
יתומים
הכבישים
העיתונאית
##יפט
is
ההט
לוצ
הורי
התכו
מנעה
ברגמן
פריחה
צביעה
תיעודי
התעניין
##לבון
ומוע
לייט
מפלי
שהתי
ומקור
מהתקף
נמסרו
הנדרשת
ליהנות
מצויות
פמיניסטית
##lin
##uch
##צלר
un
##בולה
##לודי
בחס
##ואציה
האפס
ביצות
הובסו
היידן
ובזמן
Bre
בבו
##אניות
אנתר
הממש
וכעת
להתק
סיבת
מקסים
הוכרזו
מסירות
שינויי
בריאותו
דיפלומטים
##סלר
אוכלי
אליאס
להפיל
נעלמו
ציווה
אונייה
אוסטין
אנטוני
לבנייה
למציאת
נוזלים
##ֶן
עס
Ear
לעד
##אפולי
Paul
אדמד
בחופ
במערה
לרצוח
מאפיה
חובבים
העורקים
##able
Roy
כמע
שגד
##יתיות
2014
הפאן
שושנה
##ар
##ֵר
##ולאי
Good
אביהם
ההוקי
שאירע
גייסות
התודעה
מרילנד
##קוט
צאן
##אניים
##נויים
בלוך
##ילומטר
בריתו
להגביל
להקטין
בצפיפות
קולוניאלי
##סוול
לעצ
ונוע
##יבודים
בסטוק
הלוחות
הנפוצות
מדויקים
דינוזאור
##אטוס
ופע
בקיר
להבה
הגמרא
התקשה
חיזור
ההפרעה
טעויות
אלקטרומג
##aut
##ures
##ליאן
ובפ
חוה
פצצה
תפסה
הטילה
חלשות
יעבור
מומלץ
התפוצה
מינויים
אוכלוסייתה
##חלים
Show
והמצ
##לינגרד
בילוי
לכפות
תובלה
טביליסי
ברודוויי
##קא
סוז
סונ
##ונאוט
חזות
לפקח
נחקק
סיקה
ספור
##ורמנדי
בונים
הרצאה
ייקוב
מיוצר
מלזיה
ציונה
להשוות
עלילות
הלורדים
הנורווגי
##ריש
Rom
##יבסקי
גינס
לבוב
סידן
שטוח
האחות
חודשה
להעיד
מותרת
ששלטה
משתרעת
מועמדויות
##לחן
HD
##גרסה
וויט
האורי
יעילים
מלכודת
##ֶם
Lou
ליף
שרט
##ודדות
##ווילי
הוכרה
חללים
במפתיע
ההמנון
ותיקים
משכורת
ויקיפדיה
##AR
##ְב
##אלין
Mor
סאם
##זיהום
למנזר
הניקוד
##וקם
##גלגל
##קינס
חגי
להגר
ששון
ותרבות
הצטיינות
##raph
##נדרס
נגע
פאש
דליה
מאבד
נציב
רועי
התאבד
מסודר
חוטפים
מביאים
מוסלמית
הפרטיזנים
מונטריאול
##נטלי
הרך
רנו
##קטיים
הקנט
התחד
לוול
לקום
הפונה
כנסים
ליקוי
החילוץ
בפרנקפורט
##ull
##ורטס
החץ
Land
בקעת
סמול
הוכחת
הונאה
הוכנסו
רך
##ודתם
##טווא
##ופפים
הרצף
ובעת
מעתה
מצלמה
אראגון
האפיפי
נזירים
היריבות
הרומנטית
אינטרנשיונל
##ensis
פשעי
היושב
פאוול
בתהליכי
##יכב
ברפ
##אריות
פלוא
שופץ
אקוסט
לקנדה
משיריו
תדירות
במילאנו
רומנטית
##פשים
Bro
Way
ואת
לנש
אסיר
הימל
סיאול
גרינברג
מקבילות
##ימוב
ויו
לחן
##ומאים
Stre
זבול
יפים
משוכ
סאמר
אפליק
דיאנה
סקוטי
מונטנגרו
##ארן
##וסר
##חלקה
##פגנג
220
Rad
##ואיזם
3000
אפרת
כנער
ועברו
מקהלה
סביליה
קולומבוס
אֶת
זרח
מגנה
קנזס
מודיע
מקומם
קמפוס
קפיצה
ההקלטה
הצהירה
הקוגניט
הצרפתיים
אבד
וחל
כפה
לגי
גובל
התלת
זוגי
עותק
חבילה
כניעת
הכלליים
##ְׂ
##באות
##ריאן
תימ
בנקס
התאג
טוהר
##חלויות
תגלית
המתופף
המייעצת
חקלאיות
משפיעים
##du
##וכד
##ומס
##נצח
240
אורה
דיזל
השתן
מכות
אוחדו
אכזבה
בסופר
החתול
מרגיש
משלוח
שהעלה
השקיעה
סולטאן
מסחריות
הייחודית
##ידט
Tri
אנק
תהי
##ודרות
אתני
הערה
יעדי
משקף
פרדס
הושגה
טרומן
ייצגו
לאסור
לתורה
קטינים
התנחלויות
##ha
##אגי
##ידיה
בלש
לפול
שמנה
##וכימיה
Trans
מקבלי
בחברון
הריסות
שיפורים
##ינז
##כלול
##כרון
נאצר
קאסל
הכילה
ומינה
חברתה
ליאון
מאמצי
מופעל
מעבדות
והסתיים
הפופולריים
בקן
ולשם
הונחו
הערבה
חללית
ליפשיץ
מדעיות
האימפרי
##קשים
James
וולאס
שווקים
•
##era
Of
##rich
יקרה
נפיק
אבחון
השערת
יקרות
סיפקו
ציפוי
תאונות
מבש
רמט
King
מטות
הישגיו
המצביא
הנדרשים
הולשטיין
ع
בבט
1832
1845
ותיק
נשית
צילם
בכירה
בניסן
בעיטה
נהרסה
למילים
פילוסוף
התסמינים
הארכאולוגי
סנס
Club
ינאי
נהנו
שומע
נזירות
הימנעות
ָ
##חתמה
##לינה
לקל
1839
הנגיף
פוינט
המתארת
מעניין
מתלמיד
מוליכים
UN
##שתות
וכס
קדש
מחוס
באלול
וודאי
פרעות
הסוסים
##רוֹ
##ברטו
##חשות
260
ממה
##בורות
לרוח
אלסקה
ששודר
איזבלה
הורכבה
ממונים
קיבוצית
לנו
הצטי
טובי
מעוצ
מתאב
Grand
הבטחה
ריימונד
Park
פריק
ייסוד
נתפסה
לפרישה
שאקירה
תבניות
לנינגרד
##וסיה
נלמ
רגשי
הברכה
ניצבת
קונצרט
שניידר
טלוויזיונית
##אהו
##inal
##ווינ
##בריים
בקופ
המלט
לאפס
נכחו
נשפט
עוני
פוסק
רגיש
שבתי
David
וציין
מסירה
מסתור
מתבטא
שחזור
תבוסת
בואנוס
משרתים
ניידים
אוריינט
ומשמעות
נוצריים
##ִׁ
##ִינ
##סטו
##חריב
##לבוע
Off
וקה
רבא
ואנט
טרום
מינג
##וזיקאי
הזכיר
חסרונות
יהודייה
האופייני
##רכבה
דורה
חניה
יארד
Great
נכנעה
סטייה
שיכולים
##וקיינוסים
מזע
סיק
אימת
כנען
מהאי
הפרדת
מוצאם
נאספו
פירוט
רמזים
ההוכחה
המליצה
לבנוני
מוטיבים
בתרבויות
רכז
1843
וריק
מודה
סמינ
ניקוד
אפלטון
דינוזאורים
יסד
נוצח
נורא
##כזריות
קליפה
קווינס
התעלמות
האקדמיים
טלוויזיוני
##אמור
Mod
טיג
ועבור
לרומן
מדידות
הרלוונט
עתידיים
לחמישיית
לזמ
נטה
השחי
לונד
שהשפ
הצלחתה
##טיחו
וזה
אקסי
פריץ
יודעת
מחמוד
חשבונות
פוטנציא
פרגוואי
##ari
##אנון
##דורת
לצוד
פריט
שוחט
##פצה
האנד
נוסה
הופעל
לעיני
כסגנית
מבטיחה
העמודים
הטמפרטורות
##גלנד
##וקית
ורט
##מידים
הלסת
כהים
פורטו
##יבוריות
האנזים
##ym
##יתם
ניא
רמן
##ימציה
1844
הווא
לפיר
אורות
כיפור
Instit
תופסים
גיברלטר
##וזב
##למות
המיר
ורנר
מיוש
הונהגה
an
חטפו
אוילר
ובראש
מדידת
מרוצה
סיירה
פוטין
##yr
##נתק
##קעו
und
מזמ
גינה
מצדה
הופקו
לגדוד
שולבו
##מינגהאם
קוויבק
המתמטיקאי
##דרס
##דגוג
##ופמן
##יחסה
126
מפד
##ינגהאם
מיזורי
לשווייץ
פלייאוף
הדומיניק
##אמת
##ומטית
מלאך
##אוריות
גראנד
סופחה
פינקל
שביעי
אורגון
שלטונם
תחילתה
גאוגרפי
##ол
##פוץ
Ev
##ינום
Bel
יפג
כמי
דומי
נחות
הגזים
הנצחה
סאונד
קופות
##נדינביה
הבסיסיים
אובייקטים
Mc
לכה
לסל
צפו
איתי
ומים
וספר
מעוז
קיימו
שתייה
הקישור
חמורות
ציפורי
תוכננו
לאומנות
פייסבוק
##án
תמי
Thom
אוון
סוור
פליי
פנוי
יפנים
אופרות
היחסות
אסטרטגיות
הדמוקרטים
1842
ולשל
גירוי
פוגעת
הבריחה
לצילום
##ren
אציל
באקס
גליק
מתחל
קופי
##ישרדות
אחזקה
וביחד
גדודים
היכרות
כתחליף
קבועות
##ורדינטות
תאורטית
תרגילים
##בונן
##יפוח
##ution
##מונית
המרש
הרוז
בישוף
ינסקי
סגנית
המפיקים
סובייטיים
##eral
##מטים
המתר
הקרת
משדר
תירס
הסצנה
מוטלת
מתנהל
נחמיה
##נוגרפיה
Rotten
הרכבים
המקוריות
##פיט
ארה
קית
בלוג
עזים
והציג
שהתפתח
##אליס
##ורגו
בֶּ
##גויות
ופרש
מעוג
סעוד
סצנת
רוקי
אשליה
פוגשת
אמירות
האיראני
##ְנ
##תייה
קאט
בקוד
לפטר
שהונ
הפלות
תביעת
ריכוזי
ובמדליית
##ועו
##חלת
הצע
מחב
##ומיום
התבר
והאי
מגיש
עכבר
פינג
שיאי
מוצאי
השיירה
##orge
גיורא
הצופן
מירון
##נדנבורג
אגודות
אתניות
##קני
Nat
סאמ
הקיד
לינה
מטאור
##CO
1820
הוסב
המשו
התומ
שואל
##בקיסטן
להמיר
מרוצי
להרכיב
הביזנטי
ירושלמי
##חזים
##other
גותי
דיקן
המאג
ששהו
##אקציות
הקרבה
לבלום
מחברים
מככבים
מרובות
אלקטרוניים
##ונקר
לאמה
מסור
שוות
תיגר
לגנוב
לזכור
מגלמת
נקראות
ספריות
רמאללה
##עיה
##יגרו
1806
לחוש
ריכר
לרוחק
אידיאלים
##ico
##נחו
מלט
גאנה
השאה
הוכחות
הקמפוס
מבינים
הסתברות
אלכסנדריה
ביכ
דקר
נצי
ראפ
##atoes
ברוז
מונק
נהפך
רוזה
השתנו
מצטבר
ריכרד
שאליה
דיזנגוף
##ֵה
ייא
רבן
באוק
כיור
בלפור
ההפצה
השיחה
חפירה
ידיעת
מכרות
עקבות
מיתרים
מעבירה
לאונרדו
##li
##אסי
##שוט
ex
אוֹ
##פיקים
שיגר
מודעת
מקהלת
עולות
שאיננו
ויוצרים
##ודתה
בלטו
בסיב
הוחר
ויור
הביצה
כיהנו
נודעת
##וריאנית
מלקולם
מפורשת
שנעשתה
##מביק
הקן
##רכבים
חורב
מעון
כריתת
סוכרת
שהלחין
תשובות
התוספות
ההתפרצות
##ירט
##גורי
העש
שבל
יימי
אלנבי
לחסוך
עוקבת
ענקית
איגרות
מוגבלים
##אביס
##גשוג
בתכ
תודעה
אוברסט
הסיירת
הריקוד
מייצגות
בעק
2012
הנגד
פנמה
פרעה
שושן
##קורפוס
דראפט
קונטר
וסביבה
מחזורי
קומנדו
הנזירים
תיכונית
##בעם
##ואמה
הגלג
לקצה
האחור
מסומן
עניים
הייצוג
זקוקים
הדרגתית
פורוורד
מקצועיות
לואיזיאנה
##ita
##דיב
בורח
הבלי
משחר
נגיד
נוגעת
נורית
קרתגו
##ca
##ий
##ימאי
Fla
מחט
האפר
הדפס
חיפש
מהים
שכטר
שכנע
הישיר
בארכיון
מקצועני
האוניברסיט
המיתולוגיה
##ריכה
נאם
שין
##רטיסים
##שווייג
Dream
נחנכה
אקספרס
חוקתית
והתיישב
תקציבים
אופיינית
##יפול
1841
כושל
הלכתי
למתחם
טורינו
עסקיים
הומוסקסואלים
##olf
##ович
קאו
נשאה
רבנו
מגמות
ציריך
שמיעה
תרגול
דורשים
מוערכת
המלחמתי
תיאודור
##ותן
##זרי
##גייט
ואנג
חדרו
כפות
למנה
ברונו
הגרנד
הנוסף
הסלול
תחליף
הליגות
אנרגיית
ומאמרים
סולימאן
סנטימטר
##ִית
##יזי
##קוק
PC
חצו
חרט
טדי
תיש
בועז
נועם
להרים
רבייה
##מורט
##נזוס
כעס
שצי
הימצ
מארס
נבון
שפרי
דרושה
הגבלה
הכחיש
שיטתי
מדיסון
שגיאות
הארמיות
הסטודיו
מייצרים
הוורמאכט
המטרופול
באולימפיאדה
##ֹּ
##burg
##אבים
##יעייה
ממוז
גושים
מוכשר
מנהגי
בכימיה
##eg
##ולדס
פלס
בריא
שקרא
לוקחת
שרירי
אוצרות
הגדילה
המכפלה
משתתפי
שימושי
שפותחה
##אקיה
##מאית
גרר
מון
פוי
##ימלית
והני
וורד
House
אמונות
מחפשים
מחזיקים
שניאורסון
##ael
##ira
##rat
##וערת
##ליסט
##אנטרי
המגדר
כחולה
מעטות
קינגס
מסודרת
סלוניקי
Tomatoes
##ava
##red
##אקס
##דלר
IV
NA
הגע
יקט
קמע
##לינים
דאון
ניצן
פלוס
ששכן
מעטפת
רדיוא
בהדרכה
גליציה
ולהביא
חינוכיים
##וצל
##פיא
##וטוב
##ידאו
חידש
ארוחה
סוקול
רומית
קליפים
הצלבנית
מסודרים
##ַד
##מטיים
This
What
בסיט
החכם
לסקר
הקריב
לתבוע
והעביר
##ְט
##דרן
##פיון
##ריזה
Ben
התקף
יורג
שהתח
הוכנס
עבדול
קולין
אוכלים
כוננות
צריכות
כשחקנית
##סני
##פחה
##קלם
##מרית
חיט
פנג
##ופרות
Gold
אורת
לנון
אדירה
ויילד
ולמדה
מסתבר
משאית
שנויה
אלכסיי
הדומים
צבעוני
גילויים
האולימפיאדה
##ody
ווס
לדח
לאלב
נלכד
נצפו
בגלות
בסצנה
זיכיון
מארבעת
שוודים
והבל
קשרה
שהרג
כינור
לינדה
מנצחת
תקוות
החשמלית
##con
##לקמן
מדה
מסג
##enter
##ודלים
רויס
המאכל
המצאה
מועבר
טבעיות
האפרטהייד
ליכטנשטיין
##גלל
##זיר
שמול
גודלה
גלריה
מעוררת
טמפלרים
##ּס
שכב
וילם
רחצה
ריכז
שיוע
נמתחה
בבעלות
הסרבים
האחראית
##ars
##ברתית
##יליות
בלוב
מאוז
רבוע
להצלת
אליסון
תקריות
הענ
ויב
בעני
ומשק
לבשו
##וריורס
בשובו
הותקף
קונבנ
רודרי
##זיט
##כתש
HT
##כיחה
Jud
Pal
נטר
השות
כינס
איציק
המשקה
סיינט
בורבון
הימיים
אנושיות
משוריינת
בפרובינציית
בפט
סווא
ענפה
חטיפת
הפוסקים
השתתפותה
להתעניין
##ube
##יסוס
בבס
Mart
גמלי
להתמ
מפרק
מתרג
צהבה
המריא
ההצפנה
היעדרות
П
סורי
בולים
הוערך
סיפוק
התאפשר
אוסטרלי
##IC
sh
##ותרו
פסי
##ָאנְג
##ונינג
##נינים
##ציונל
פעמי
ביטלה
הגופה
ההפוך
טכניקת
פרינסטון
##ָן
אלד
##וערים
בריו
לברק
נחלו
שנדר
בלוטת
המשכן
רכיבה
הכיתוב
שהורכב
בשוודית
מאורגנת
הראשוניים
הטכנולוגית
##EA
##ורץ
דס
הוקס
משוי
נדחו
שאור
##ילווקי
וינטר
לשירי
משנים
בווילנה
הצפיפות
וולפגנג
##ique
##ogle
משכנ
בכתיב
הבינה
ומריה
יוצרה
הארמני
מוסטפא
סאליבן
פוטבול
Entertain
##ject
##דרלת
##וגרד
Min
בנש
##בישים
אינג
אמרי
##טוואפה
ירושה
ליטאי
מפורש
צמודה
רשאים
הנמצאות
מצטרפים
קלאודיוס
##app
##mun
##itch
בטבת
דלתא
##ולקולה
גלילי
דמוית
מרצים
בפירנצה
הקיסרים
ספרותיות
Ca
##קידי
ייד
קרד
Just
מצול
ושותף
נפגשה
דוכסית
משולבת
##סטד
##בסקי
##והיו
650
טוד
קלרה
אורנג
התפור
נשיפה
קנטקי
קריפט
ולהגיע
##יאליסטוק
ליניארי
##מבל
##נתם
ותה
אנני
פאנל
בכסלו
בהקדמה
המצביעים
הפורטוגזית
Sun
שבב
אדגר
הפוג
וההת
סדנה
חורים
פומבי
רדסון
בפרסית
הארכיון
בדו
בעט
שוי
בוגד
גיסו
בדאבל
חווים
ליישב
קליני
שליטי
תכננו
בעיקרה
שנחשבו
אינגלנד
##ен
É
##ריכת
והנס
שבמר
האידא
השדות
ואסטר
להצליח
להתפלל
שהוצגו
התרחשות
Dan
הבאת
ומבקש
חשדות
סיעות
עטיפת
##ואנליזה
##קטיביות
לתפקיד
פתוחות
תהילים
אוגוסטה
##IP
##cl
##אסה
##ולץ
##לאיה
ליע
בודק
הפלת
התרש
חוטי
הקולג
התפוצ
נודעו
קניות
רומנטי
מגדירים
##אדט
##יהום
##לאוס
טבק
1834
דקוטה
למאכל
ניצלה
סויוז
הכבדים
אדריכלים
##אנש
AM
##ular
Les
1836
Rich
המקב
השעש
ואימ
לגרש
מוזס
דרייק
החלפה
החלקה
הפילו
רבעים
קונסול
גיטריסט
##bo
יץ
##לילת
##וכרים
##כונים
הילס
חילק
ללוח
לצרף
ממונ
גרימת
ההקמה
הוזמנו
להסכים
מושפעת
החינוכי
חיוביים
##ואליה
מרתה
צירף
דימום
ודאות
מוגבר
פוסטר
קלאוס
רגליו
היבשתי
ליצירה
משוכות
שרירות
קטגוריה
אלקטרוניקה
##ָב
##ורון
##ישול
##וביים
בלאס
מושא
ששמע
החמיץ
קונרד
שלומי
נובעים
לייפציג
אינטלקטואלית
by
Mas
Mat
תמצ
##ונטינ
##וקתית
גגות
הבקר
המרג
האיטלק
הגראמי
משתייך
אמריטוס
אדינבורו
אירופאיות
##ארץ
137
שזר
תתי
##אורוס
##ואנוס
אקשן
בזלת
היול
טרומ
צמחה
כניעה
זבולון
כדלקמן
שנהרגו
ופילוסופיה
##ארח
##צין
Bab
##כתבות
בגזרת
וקנדה
חריפים
שביצעה
##בלב
כמצ
לקס
נזר
##בונים
City
הורש
הטרף
הועמדו
אוטוביוגרפי
##ole
##ray
##ניר
##ופיל
##מניה
##מקים
##ניטי
שנר
##ותחים
##למידה
המקל
קינן
הגרלה
הדלקת
שמיים
ביונסה
השקפות
התפשטה
טיפולי
משפחתם
סכומים
האסטרטגיה
Pat
דוש
דחו
לקד
##נדורף
Mich
הומר
הציל
פטיש
המבוק
כאבים
לחזות
מושבת
מתעור
צעירי
ורוברט
נרחבות
Hum
בסר
נדה
צפי
1835
Ever
ומנכ
פלין
צרות
להתיר
מכרעת
מנייה
הסוציא
הקתולי
הקוונטים
##מץ
##ham
באכ
הנכ
שהתע
הכשרות
מקסוול
רעידות
ארכיטקט
האינטגר
הנזיקין
הסמוכות
תיאורים
הפרוטסטנטית
##מעים
Bas
המזה
פסקי
##פקטיבה
בתמוז
החסות
שנתפס
האחדות
הפרוגר
ובזכות
מלבורן
ממגוון
פרובינציית
##וקיה
לנתק
ורסאי
בברקלי
כרונית
נשואים
##ָד
ברת
מטכ
סתם
בסוד
ברנה
הלבנ
חשוף
חסרים
מבינה
נגזרת
תלייה
תשוקה
בלוטות
השתלטה
וחלקים
חריגים
המסוקים
אינטראקציה
הפורטוגזים
##זאר
המנג
לביים
בחיבור
מרחבים
Entertainment
##ior
##יסס
דחק
שמג
הטיט
לאול
פסלי
קאנט
הונחה
מגובה
ליחסים
סינטרה
##ֵן
CN
HBO
הפלט
מדיצ
אגמים
איגור
אסטון
שגברה
אינטנס
אסורים
העתידי
ייעודי
אזרחיות
##ios
##יזת
##ייל
בָּ
מהז
##ional
##טיחים
##פיינים
שיבוש
אייאקס
##נמן
##יזים
##צבות
אדו
##ימנים
Back
בגרי
זמנה
משבט
הערצה
שאחרי
הסרבית
מקלעים
רהיטים
דומיניק
השתייכו
##ורטו
וטו
West
הסכר
תבור
Light
השמדה
ונהרג
נמנעה
קולמן
אנתרופ
המיתרים
העליונים
##HA
##ст
##ויג
אכס
יעלה
אלישע
הוקדש
הוגדרו
המנהרה
להפגין
מסוכנת
רצינות
##נתרופולוגיה
ארכאולוגים
##זקה
##מיך
##איזם
##אמות
נטע
1821
הביטח
אבשלום
חלקיקי
האלטרנט
המאמרים
התוקפים
##ארל
##לפו
חוצ
הגרע
הפרח
ולבן
טורי
ממול
מקצה
פולה
אולגה
מעגלי
בקהילת
אפריקני
##ְד
##כלי
##פנת
##וטרי
##ומרת
Hot
##ופורט
ואנה
ובור
ונאל
חסרה
עיבד
שבאי
מכריז
נמנעו
אינטרס
יסודית
לאיתור
המפגשים
##ציזם
Wal
דמה
הדל
ליו
##למניה
##פילין
1838
Brit
קרופ
עגנון
מתעורר
בניהולו
זכרונות
ליבוביץ
הדוגמאות
הפאראלימ
##נוד
##וטין
##מרשל
##ריעה
הצלם
חוזק
כרונ
##ובלנות
דיברו
חילוף
לכסות
ממילא
סחורה
בהופעה
הדרגתי
ולהקים
דוגמנית
מעיינות
AR
##וורת
לסת
ככוח
סבתו
אלמוג
בקרוב
הופקה
תחקיר
אקדמיות
הזיכיון
##ila
##כלו
##פכת
##רגע
##והגים
##וויתי
##נטינו
איפה
עוגב
##ידריות
אבטחת
בגרנד
בפינה
חגיגה
נהיגה
תאורטי
##זגה
##וזני
וזר
לסן
##נלסון
במיש
האלב
זיהו
יצטר
הגלריה
הספיקו
ליטאים
בתאוריה
##ird
##למה
##נוול
1813
Serv
בקבר
זולה
##קטיקות
##רכיבים
התייצ
נאמנה
פריסה
רקמות
אלברטו
למדידת
סגורים
שקיימת
Society
מסכימים
המפורסמות
##פריז
##תרים
ופט
שתש
ויום
לאלי
הנזיר
תינוקת
##ID
##ינאה
הקי
ממג
אטלס
סצנה
אבירי
המטאל
מחודש
קאעידה
שהתחרו
טלפונים
Б
##מתן
Let
מכח
נתח
##מניות
1793
הוחז
הגנטי
הומצא
הסמכה
##מפרטורת
הבטיחה
##inus
##ואלד
Blue
החיפ
מטרו
גיוון
ידנית
מבחני
נראות
פיצול
רבעון
הרבנית
לקיומה
רשמיות
התאפיינה
##יאי
##iter
##אובר
אספר
נחתו
שכיח
הודעת
מדיום
מקימי
קנצלר
שיתפו
הארמנית
הבדואים
היוטיוב
מילימטר
סנטיאגו
הגימנסיה
המייצגים
ויסקונסין
##ייר
##ator
##ידול
בייש
עגול
שהוד
שהני
הוסכם
מינור
סייבר
שודדי
המסחרית
קטלוניה
##יפין
ושת
ברום
הניב
וזפה
זאבי
לרכז
מלצר
פורץ
הפחמן
להדיח
לשטחי
צפופה
קיסרי
זעירים
בפינלנד
אייזנהאואר
IC
##וואל
חמד
##כייתה
נחוץ
נתמך
הדיחה
באינטר
הפליטה
עלייתה
סיבובים
##קעי
##וגדים
##רידים
לטבע
זכריה
מונטה
קריסט
התעורר
להיחשב
היומיום
מיומנות
##יזלר
Bra
Und
##בלנקה
בסלע
האשר
אטלנט
המאפי
ובעקב
קסטרו
זוחלים
להתאבד
מגוונת
קלאסיות
##יעתה
חוגי
קליי
ייסדו
שומרת
##קסואלית
בלהקות
גרוסמן
המעיין
ירדנית
לפטירה
פשיטות
##yd
Bad
מאק
שמק
בהור
התחלת
חלופי
לשליט
פיינל
קירוב
קניין
אוהלים
התבטאה
להגשים
לינוקס
מושפעים
Bu
טפ
##ילוי
##פדים
ביח
קנת
אאוט
בהתר
לגשת
רובו
##לקסיית
הרבני
ומאידך
בגאורגיה
האפריקאי
##נוכה
ואבי
הדסון
היימן
הנובע
לשיטה
משקפת
באלבום
החזירו
החרמון
העריכו
ורעייה
מחלוצי
נכונים
##ci
##go
בפש
שמב
Alex
ופיר
מתעל
הלבוש
ולהחז
מצודה
סבויה
הטבעות
מעצרים
קופנהגן
זיכרונות
דמוקרטיות
טכנולוגיים
Arch
York
ובתו
לחור
לכבד
טורים
נדרים
עפולה
שמידט
מסתורי
הארכאולוג
המקצוענית
##סלב
##form
##אהבת
##ברלי
העמוד
הרובה
וסביב
יהלום
מתמטי
גמליאל
דגימות
##ופטוואפה
בקולומביה
##ועל
##זונ
המתח
ראול
בעודם
חיזוי
ייצוב
רובים
הקבוצת
להמתין
מתבטאת
ניצבים
בתערוכות
##ax
הטיר
משתף
שאנג
אירגן
אויבים
התמקדו
ביולוגית
##וארס
גות
לטה
##עונים
זהוב
נאמד
אופוס
בקובה
היובל
צלמים
שפיגל
ההומוס
להתפשט
סיפונה
המנועים
המשמשות
דיפלומטית
##oot
##ough
##לותה
דרו
צימ
##וטבול
זנים
אנדרס
בגלוי
השתלב
ואורך
והפיק
בטייסת
בקופות
והפסיד
שבאזור
הסוברים
וולברין
התרבויות
##mann
##דובה
##סטאג
pro
לאצ
משט
קלף
##ורינג
בריק
לויט
ממצא
שרדה
הבונד
הולחן
טכנאי
נוימן
הפינוי
מיוזיק
קרקעיים
##וקד
##טרל
##טרק
##ניצ
##דיקה
חדד
לות
רטור
##ומטרית
גלגול
סבירה
רציני
העניים
להתחמק
קאופמן
מסתיימת
מתפתחות
##19
##פריט
זהר
בנתה
ברנס
והות
חרוד
Group
הקומה
רציחה
מקדשים
שולמית
בונפרטה
מקלנבורג
##עק
sp
##פרון
##רבול
Wil
ההמ
האלי
הפלה
וניה
נטשו
היפות
ובתום
ולימד
לתקשר
פגזים
הצינור
שנודעה
Charles
##אזי
הגם
פפר
והלח
כלכל
##ובייקט
התרחב
כפופה
##ומטריות
Jewish
בפירוש
ייקובסקי
##קיהו
Sim
באקו
וחול
לידת
מירב
קיווה
הלוואי
כרישים
סיירות
##ודסה
550
ורן
ימה
כנצ
פלה
##צועות
ופוג
מצבת
מתפק
שיעי
##וגמנית
ירוקה
לחסום
רכושם
שלוחה
זכייתה
להתעלם
עוברות
להתגייס
##ונך
##מטה
##יסקי
עדת
עיס
ומכר
וסיפ
מולו
פטנט
##נסבורג
במלאת
ימשיך
פקידי
ריינס
הירוקה
האפשריים
##בשות
##ואיז
##סייד
בחצ
יפר
##וניום
פרוות
שיחים
בריכות
ורוחבו
לעיסוק
##ציונליות
במנגנון
המקדימות
##נִי
##סמבל
1792
החיד
חרות
Press
באטלר
מתחלק
שייצג
בהצגות
חבילות
קבוצתית
##אווא
בתב
בהאא
חנית
מהמט
פילו
##ימטריה
הרכיב
טרנסג
אורגנה
יושבים
שבועית
תשלומי
השתלבות
מצוינים
##נְג
End
המיט
דמעות
מסווג
ניומן
באסלאם
הנייטר
המינימלי
Av
מעו
##איירן
להית
צווי
בהחלט
הפרטה
התגבש
לשקול
נוקשה
בהובלת
דיווחה
ההבחנה
והביאו
טכניים
יהונתן
מאמינה
מישורי
פיזיים
##פינ
##חקרי
##ניסט
לכל
##ittle
1795
לוהק
פאבל
נשלטה
שיתפה
ברגימנט
הכפריים
1801
מנתח
דפוסי
היידי
הסולן
מהכפר
קנטור
אסכולת
עצומים
אירופיות
##תיני
##יסרות
בתיק
צברה
שחקר
איתמר
בלגים
דבלין
הפייס
מיילס
קנייה
פוגשים
צניעות
הפנטזיה
טג
גלו
הוקי
לדוד
נוכל
ברוקס
הימלר
סקירה
צלעות
האיברי
הגבעות
המחזאי
טיולים
נודדים
טלק
גברו
מינו
מצאצ
צעדה
הוזכר
הושגו
מדגים
מחילה
עבדות
פיסול
ובאזור
ירמיהו
לייצוג
ביוטיוב
חידושים
##ED
##וויס
Sil
בסא
בייט
האקר
הגופ
סובר
האיבר
השיבה
לבלות
בטוחים
היהלום
בתערוכת
שהתקבלה
סביבתיים
##אקר
##רוס
Tre
שלכ
##וגנית
##ופרית
החמה
למוש
למחז
לשגר
הכתיב
מאמרי
הבריאה
המפטון
העשורים
דד
##urus
בחן
בסד
גרש
##ander
ברוי
סוצי
בקובץ
המונג
השקיע
שריפת
להאריך
מוטורס
מתאפיינת
נישואיהם
##ano
##las
##אהן
##פרן
##קמה
באוג
יעשה
כדאי
כרמי
לטפס
מוסא
הלאום
פוצצו
התאחדה
חולצות
##בריח
##ודלם
Sant
חדלה
חכמה
עקבה
וואדי
סילון
United
אנסמבל
דפוסים
הציפור
הצפיות
התבצעה
##וריץ
##יגרם
##יעור
##ריזות
1833
ארזי
גרופ
העוק
וביל
סוכם
שסיפ
זאגרב
לפלוש
שיפוט
ביסמרק
דורותי
##ero
##גיש
##יזל
בנז
אקלי
מוחל
מלגה
ביטון
והוצב
כרוני
נוסחת
פורבס
יוצרות
להכשיר
נגישות
וסטמינסטר
אמל
יכל
מטפ
הדול
ולהכ
נייד
נתרן
South
יוליה
הארווי
הבריכה
העצמות
התקפים
מאכלים
ציונים
הקולוניאלית
Vo
##ואיס
אדמו
הרוח
התמר
וולס
ספוט
ראלף
דיוקן
טיהור
לנחות
מעלית
שורשי
שחיקה
להזכיר
נלחמים
אורניום
מוכשרים
רימונים
##ér
##RNA
##חבות
צסק
##יבציה
##נציות
יאסר
מוצע
סילב
שהפג
האריך
ההליך
לוהקה
האריסט
גלקסיות
Association
##חלות
##לינקה
אולט
טורס
קונה
שבשל
החובל
חיסון
קיימא
ריילי
להנהיג
רוקפלר
##כלת
##ננת
##יותה
##קרות
בשמ
##טלפים
##ציחות
אוור
איור
משגר
נחמה
ניקי
לאוני
מאגרי
מלהקת
שפיקד
Joseph
ברורות
וויליאם
##gy
##לכת
Mil
נשפ
##סיומה
1789
הנפה
והאמ
נבדה
##ועדוני
תקיפת
בליגות
מקארתי
קזחסטן
תוקפנות
בפיליפינים
לאפ
לעז
גייל
המעו
לברר
הוויז
הקובץ
חולצה
טרופי
משטרו
פסיפס
רכיבי
Google
שהוציאה
לפסיכולוגיה
##ин
הבש
ורפ
from
גבאי
וקומ
ליסט
אנלוג
הנובר
מבחין
ממצאי
שטיין
האתיקה
הפירוש
זהירות
ההיריון
##ודרו
##ועצת
##ירתי
גבת
פגם
צוי
לטובה
נשארת
סודות
קתרינה
ומדליית
תזמורות
##idge
##ning
##ינטה
הקז
והגד
לווה
ליוו
שהוא
האנרכ
הרפוא
ולהפך
תורות
##וויזיית
בהנדסת
ונסטון
חושבים
מעגלים
מפיקים
משקפים
צבועים
קטלנית
##ליא
##שוא
##ific
##ster
Are
##יטינג
בריג
זאוס
יזכה
כשלו
לאבי
שאפי
שבפר
##ואליות
גרסיה
מסרבת
מקסיק
פרייס
הותקפה
הרישום
התאורט
Ob
טט
##בססה
Str
ננו
ריג
רצפת
שואף
לכמות
צורפו
הגופות
ששירתו
התאוריות
##ty
##hem
##גרש
##צנים
הארב
הדיס
הרשל
##ograph
בכירי
בלייר
לישון
לספרי
הגדלים
שיאפשר
וינסטון
פיליפוס
תסריטאי
הבולגרים
##וננה
##שווה
השוק
צוללת
המכשפה
המצויה
שנמצאה
משמעויות
אינסטרומנט
##גשו
ועצ
##וסטין
##כורים
בימת
הפרד
קטיף
קלאב
שלקח
מסילה
בריאים
להרחיק
תלויות
משוחררים
שהסתיימה
##ארכ
##יכס
EP
be
Mad
ונר
ביתא
דודי
דיסל
הרמב
רוטב
הריסה
תהילה
אייזיק
מרוחקים
ביב
בצו
זוע
משע
שְׁ
##ופטרה
רכבי
מקשרת
ראווה
הקדמון
האצבעות
הרוויזיוני
##och
##כלה
##שיית
ווג
ווה
טרה
סאק
אפוא
כנפי
מאול
שניה
הגלוב
התרסק
והשיר
האריות
מחסנים
סוגיית
בסיסיות
סמינרים
פורומים
המשמעותית
הקולנועית
##מבה
##וברי
תיל
##בעיות
דונה
נגני
##ומנטים
בקייב
הוויק
ובשלב
נכנעו
עוזבת
##קטיביים
תפיסות
עיטורים
##ומנה
##נובר
Law
con
הדס
כמד
בגדד
ובמש
לארכ
לעכב
מכרו
נמלי
מופקד
עתידי
רפאים
שתכנן
חולקים
##וארי
החם
ושא
##ודעות
במנה
ותומ
חדות
רגלו
ריקי
##ליקטים
אירוס
ירייה
קלמנט
בעייתי
הציווי
ובאותו
והעניק
לסינגל
משפטיות
שלזוויג
הארגנטינאית
הדינוזאורים
הפחם
והמס
תעשה
גארדן
קבוצתי
ארגונית
חילונית
עיראקית
טרבלינקה
Lu
##ונגר
הסד
נעו
החלי
וריה
לבאר
נינה
סיכם
המאזן
מלמדת
מכוסים
שהקימה
##ינוע
גוז
##וטציה
וארץ
מפרס
שורר
בפסוק
לערער
מסכות
נחיתת
התוודע
חשופים
מדגסקר
נאלצים
התגברות
מכשולים
התאוששות
תרבותיות
תעשייתיים
##יוֹ
ברלי
דובי
הוטב
מזור
צפרד
בטקסס
טיטוס
רובוט
תכולת
המסופר
הצהרות
להודיע
מוציאה
Network
ברקוביץ
האלפבית
##chn
##פייס
Mem
לעג
מקג
##ופונס
באקר
אמנית
והוצא
נהנים
נחלים
##יאטראות
אומנים
גרגורי
להיראות
ריקודים
גרגוריוס
ייעודיים
##נוּ
CA
##ange
##בוים
Leg
גרט
Film
אוטר
טבעו
בתאים
נשמרו
האוגדה
כפריים
לייקרס
עיתוני
היתומים
##צלם
##יפית
בשש
לבט
צלח
##אריים
Home
נטשה
Royal
בתשרי
לעקוף
נהנתה
שונתה
הוגדרה
המלחינים
מאורגנים
מסורתיות
רדס
להנח
ליטל
שייר
חוותה
הכניעה
הנובעת
התחולל
להיערך
שחולקו
קרולינה
המשוררים
הפיס
השוא
מנחת
גלעדי
וגילה
סוללת
שמחוץ
הלפרין
מובהקת
תרגומים
##oo
##zy
##וקרי
ולפ
והשפ
וממש
ורדה
לחמוק
לעלים
פלדמן
מפתחים
פרדוקס
הקומנדו
התמקדות
##orm
דתו
לקמ
ישמע
לאיי
לעוף
מזבח
ממוס
פרומ
השתלם
לרדוף
רדיוס
תחזוק
הבהאית
הניקוז
הקיטור
מקסימלי
המקסיקנית
##נתח
##ines
בלח
כינ
עמל
1807
Open
ולפר
מפאת
עדין
ועידה
מחאות
צלפים
שעיקר
גזירות
החיידק
קוסובו
שהפסידה
דיסלדורף
##רטיב
ולז
לודז
לסלק
ממור
מניח
צוין
בהונג
זולים
מסיבי
יאפשרו
הופקינס
ספורטיבי
בעצ
##ונסקו
הייל
יניב
##שווילי
הסתבר
שבירה
הוכיחו
הספנות
בסמיכות
היונקים
המעריצים
המודרניות
##ada
##ביק
##ינל
##ated
210
Inf
הכש
לטו
תיר
##ולשים
הסיט
לצדה
ועמית
ענבים
רוזנטל
מקסימום
פלשתינה
מתמטיקאי
אגו
אמו
להמ
##אצאים
##שראות
הריב
הרקד
בברכה
סמלית
קלמנס
אלגברה
שהתנהל
בטכניקה
שלישיית
המצליחים
סנאטורים
NFL
Sur
וגז
Jean
גאוס
##וקולים
ההצהרה
טרופית
מקבלות
אירופאי
המפשייר
סולומון
הסנ
##אמרית
##יסריה
איסר
הוגר
השוש
רקמת
שמהם
בפרוץ
גלימה
המטרו
התכנסה
והחליף
שנכבשו
הקאנטרי
להרוויח
##יגוי
##גורוד
גנאי
##חויבות
##יאטריה
אלחנן
בבייג
דורגו
המדור
המיסי
התגרש
כיפות
מונחי
סינים
Island
במלחמה
הלכתית
שוכנות
המצריים
הסטנדרטי
##ey
##ושצ
##מפה
##וצחים
##ישייה
1810
1829
הוטס
להתפ
נדלר
אילנה
וגרמה
מזהים
אדומות
וכריסט
חלוקות
הפמיניסטית
##ba
##י
##ו
##ה
##ל
##ר
##ב
##ת
##א
##מ
##ש
##נ
##_
##ם
##ע
##ד
##ק
##ח
##פ
##ס
##כ
##ג
##ט
##,
##ן
##.
##צ
##ז
##"
##1
##-
##0
##ך
##9
##2
##ף
##(
##)
##'
##e
##a
##8
##ץ
##o
##5
##r
##4
##i
##3
##6
##7
##n
##:
##t
##l
##s
##u
##m
##d
##c
##h
##A
##S
##f
##C
##g
##–
##T
##M
##;
##y
##p
##B
##P
##D
##I
##R
##L
##N
##b
##v
##k
##ּ
##F
##E
##H
##G
##ְ
##W
##w
##O
##/
##%
##ָ
##V
##ַ
##־
##ִ
##ֶ
##ֹ
##K
##J
##z
##U
##x
##ֵ
##X
##Y
##״
##j
##а
##ا
##é
##q
##ׁ
##?
##о
##и
##Z
##!
##е
##ل
##=
##н
##&
##р
##Q
##]
##[
##в
##ي
##+
##л
##с
##ر
##к
##م
##á
##ֲ
##т
##ن
##ü
##α
##ب
##°
##ׂ
##و
##ó
##ο
##د
##ö
##׳
##д
##í
##”
##ς
##$
##س
##й
##м
##ֻ
##ع
##ν
##ρ
##ة
##’
##у
##ι
##ä
##ч
##—
##ح
###
##ă
##́
##τ
##λ
##я
##г
##ε
##ь
##è
##С
##\
##ت
##“
##б
##ه
##ف
##ق
##κ
##>
##ج
##А
##σ
##*
##μ
##ç
##â
##К
##ი
##ش
##М
##п
##ş
##ა
##ı
##η
##В
##ί
##ы
##π
##<
##|
##ك
##з
##γ
##É
##•
##à
##β
##ی
##П
##ú
##ز
##ά
##δ
##υ
##Б
##ֱ
##أ
##ό
##ط
##ц
##Р
##х
##ص
##ā
##ł
##ß
##і
##ñ
##ω
##ֿ
##š
##Н
##Д
##Г
##خ
##θ
##ш
##И
##{
##Л
##َ
##ã
##ე
##×
##ա
##Т
##ō
##}
##О
##έ
##ţ
##რ
##ή
##ć
##φ
##č
##ლ
##ø
##ф
##ს
##χ
##ّ
##å
##ë
##Π
##ж
##ო
##ī
##ô
##Ö
##ê
##ύ
##Κ
##Α
##ा
##æ
##î
##ș
##Ф
##ő
##Á
##ð
##ğ
##−
##₪
##Σ
##غ
##ț
##ნ
##`
##Е
##र
##ю
##‘
##ვ
##Μ
##ё
##्
##ն
##إ
