[PAD]
[unused0]
[unused1]
[unused2]
[unused3]
[unused4]
[unused5]
[unused6]
[unused7]
[unused8]
[unused9]
[unused10]
[unused11]
[unused12]
[unused13]
[unused14]
[unused15]
[unused16]
[unused17]
[unused18]
[unused19]
[unused20]
[unused21]
[unused22]
[unused23]
[unused24]
[unused25]
[unused26]
[unused27]
[unused28]
[unused29]
[unused30]
[unused31]
[unused32]
[unused33]
[unused34]
[unused35]
[unused36]
[unused37]
[unused38]
[unused39]
[unused40]
[unused41]
[unused42]
[unused43]
[unused44]
[unused45]
[unused46]
[unused47]
[unused48]
[unused49]
[unused50]
[unused51]
[unused52]
[unused53]
[unused54]
[unused55]
[unused56]
[unused57]
[unused58]
[unused59]
[unused60]
[unused61]
[unused62]
[unused63]
[unused64]
[unused65]
[unused66]
[unused67]
[unused68]
[unused69]
[unused70]
[unused71]
[unused72]
[unused73]
[unused74]
[unused75]
[unused76]
[unused77]
[unused78]
[unused79]
[unused80]
[unused81]
[unused82]
[unused83]
[unused84]
[unused85]
[unused86]
[unused87]
[unused88]
[unused89]
[unused90]
[unused91]
[unused92]
[unused93]
[unused94]
[unused95]
[unused96]
[unused97]
[unused98]
[unused99]
[UNK]
[CLS]
[SEP]
[MASK]
##je
s
.
p
##na
,
##ra
i
##ni
##ko
##st
u
##no
o
je
##li
##ja
##va
##ri
d
##la
##re
##ne
##ka
po
##ma
##ti
na
##ro
##vi
##ta
##vo
z
##di
##te
##ve
"
##ji
##lo
g
b
##to
##ci
ko
##ju
##ki
1
##da
m
se
za
a
S
##le
##nje
su
##ru
##me
##sta
##ke
P
##zi
##ku
od
iz
)
(
do
##lje
##nja
ka
2
M
k
##sti
B
##sko
bi
##go
-
##ski
N
##ga
ra
##nu
K
##tu
pro
##ca
##pa
##mi
##de
go
##po
pri
##bi
A
da
ne
sa
##si
T
##lu
##či
19
te
##če
D
##mo
##ce
pre
##pi
t
H
R
v
I
##ba
20
O
##sa
U
##sto
godi
##že
##ča
##za
##bo
G
##do
##gra
##er
##nji
##se
C
##ći
##nih
mo
f
##so
š
##lja
e
##gi
##ar
V
##će
##ži
##nom
##ća
h
koji
##ske
:
L
Z
##rva
##jo
J
godine
##ža
##du
##rije
re
Na
ve
##nog
to
ma
##đe
##or
st
##vni
sta
kao
##be
##gu
F
di
##ska
no
##vje
##zna
ob
##kom
##še
ta
##nim
Po
##pu
##vije
##pe
##rvat
##mje
gra
E
##nije
##ze
##ran
##lju
me
##an
li
##ge
vo
##vu
##vr
sve
##su
##cije
200
##cija
raz
nje
##lji
##bu
pr
vi
pod
##čki
201
##ši
##skog
##lj
##dni
Za
svo
Ma
##ho
pa
##mu
##stu
dru
/
ili
koje
##he
bio
si
##zo
##skih
##nju
##đu
in
os
##on
##kon
naj
##ša
ti
##dje
3
##dno
bo
ima
Ka
c
gla
pu
##nt
##cu
mi
što
##ha
de
ku
dje
##rža
##vno
##nika
##il
##skom
pra
##ng
##skoj
če
##nst
##hi
##šta
kra
Hrvat
##sku
##fi
##vom
##šte
pozna
##lazi
knji
koja
##tra
##čko
##ste
pos
18
zna
mje
##stav
oso
##rija
##št
vr
##nosti
##vanja
Bo
199
Sa
##sni
##00
##fe
##ona
mu
##zu
##ču
pred
##ću
4
W
ga
5
bro
ži
##nti
##čke
##nta
##red
##tni
##nova
ni
Mi
du
vla
##žu
Ro
Re
samo
ro
njego
##vanje
op
stu
##dio
##al
či
##nd
##pisa
##gre
##tih
Ra
veli
ru
Me
ba
hrvat
##sla
##sp
##lek
tra
##nski
##tje
Pa
nije
va
Š
##jom
##vih
##čno
sto
oko
posta
Bi
jezi
ali
Go
jed
##om
##lije
##đa
Ta
Ne
Do
pot
##ruč
ot
knjiže
tako
6
##nica
##spo
##novni
dana
ja
spo
č
ju
##vjet
##sje
##lova
Ko
##nci
uz
##stup
nakon
svezi
pi
##liko
pla
##ljeno
##ter
##bog
##tiv
##dan
stra
obi
tre
nji
bila
cr
##pra
##tno
##lika
##pada
##vima
pje
##dija
##gla
stanovni
prije
Ba
osoba
Be
##joj
##mr
Ve
ča
##reme
poznatih
osta
##tom
Pre
##ver
##vić
##skim
Da
##pre
##van
##čka
To
;
##tak
7
glaz
slu
kon
vrije
godina
Ju
al
##nici
više
voj
sje
kako
##sno
kori
##vor
poja
sku
Mo
##liti
drža
poče
prema
##uro
la
9
tu
##stva
8
Su
##stra
područ
##telj
##tro
##ch
Ja
##in
neko
##onal
##vio
že
##em
fil
No
##kra
##rod
lo
može
##noj
##bli
##njem
svi
nasta
dije
dobi
##dar
##ur
Pe
##rom
rije
pe
kri
'
##mije
##ije
ime
##šti
##rp
##meri
Zagre
tije
##vog
15
##man
kod
##rao
##rt
isto
be
##nik
##iz
##rati
vje
or
##vlje
gdje
će
17
##niji
lju
##vne
##logi
##voj
zbog
nase
nagra
igra
##tar
198
dok
fi
među
##kla
16
Li
Jo
##jući
prvi
##nice
Nakon
obja
ar
stolje
nalazi
Č
au
In
čla
umje
##klo
##vori
##dici
##nost
##vao
Od
##čili
grad
##vara
##tor
mogu
Je
##kti
##rš
drugi
##cima
##čkih
ih
10
##hva
##redi
194
##tri
##nija
le
jo
dva
Vi
De
w
##nima
Le
svjet
ško
##štva
##ciju
bilo
##kri
##đer
tri
živo
##među
glazbe
##lom
zapo
##tim
##kre
Se
broj
vrijeme
odno
##vlja
La
##pan
Pri
Te
##tka
##stvo
politi
##stupljeno
zra
–
197
dio
nazi
još
##vnih
##jski
##ner
##nske
12
##stava
##loš
ki
Bu
između
##bje
##klju
izra
##th
Di
##vali
Pro
Ž
##mrti
povije
Ri
Du
albu
14
##dom
bu
radi
##bra
##čkog
##ck
##telji
srp
##bro
djela
svoje
bili
0
##vrši
zaje
ge
##vod
196
##co
Ni
Mar
Fran
##lija
##000
Si
Al
##el
##stavlja
proiz
##pli
Ha
so
slo
par
##tjeca
##nstve
biti
klu
Nje
of
kada
br
Gra
##nskih
Ca
zem
razli
An
usta
posto
##spje
njiho
elek
jer
##vaju
jedan
kolo
sva
##đenja
13
##en
##pis
žu
sma
##vina
##kve
nad
##zira
##snije
pristupljeno
##ber
fa
Iz
%
ci
toga
##jedi
Ru
##gani
sna
mno
##vim
##nca
##đenje
11
##dnik
##čne
##vine
ce
Euro
##uze
##leme
##grad
##ltu
teh
##ršća
##gle
##ksi
ri
obra
##for
Pr
veći
Ku
##stri
on
##bor
jedi
is
Au
Sta
kro
##vodi
##vore
##kup
dr
svije
časo
oba
primje
Ti
Lo
Ar
pove
rata
prve
oto
us
So
Ho
##ječ
bra
The
##đen
##stro
nekoliko
##hu
sla
##tt
stoljeća
##ral
##jka
n
##šnje
cije
hr
##ško
Kra
000
##čkoj
također
grada
##ciji
##kih
##dine
nas
Lu
##dra
##voji
##cional
Ga
pomo
##šao
sezo
Sve
##jna
##rita
popu
danas
##lan
iza
##der
##jem
##lima
##vna
##žan
izda
stude
##ako
ww
str
Cr
pjes
www
##žbe
##rio
tr
protiv
##vizi
##pri
sredi
##nio
191
ši
“
km
kom
195
ca
naselje
listo
##met
##nskog
odre
vreme
tijekom
##vnom
##pisu
Repu
meta
##fa
##tori
##jske
kultu
##log
tada
organi
jedna
Y
##vati
kasnije
im
kršća
##čkom
Pi
Hrvatske
##lno
##vši
već
nagrada
uspje
prizna
koristi
Co
##pera
##vođenje
smje
##ry
##lni
##đi
##zali
##sne
##kim
Vo
koju
##pad
##dova
upo
stanovništva
##ranje
for
##bno
##lar
##rbi
193
sred
svoji
##ren
##lne
##novi
Godine
sti
jedno
rad
##čni
kla
poslje
Rođenja
##nama
Smrti
Va
stanovnika
##tvr
##dovi
časopisa
##čilišta
djelo
##vnog
Hrvatskoj
##šnji
##žno
##tko
skupi
Prema
##plo
##vora
II
##stitu
Kr
##var
hi
##risti
Ki
sl
svoj
prva
##dije
ameri
film
##laze
dvije
vrlo
##ljen
##bnja
upra
sasta
pose
##men
##tora
nisu
##čaj
održa
tele
##lim
##čkim
mjesto
medici
Dru
Tu
Mu
Her
„
##tre
##mati
Naj
obje
znanstve
tek
trav
##čna
prosi
##vede
tvr
192
the
bez
pojava
nego
lip
##gao
obli
##rana
mora
drugo
gu
##lovi
]
Republi
##dnika
##tku
mla
Fi
##dru
##nak
##vla
##nj
opći
##vija
[
sli
preko
##blja
ožu
predsje
##rske
nogo
pret
lu
ke
prvo
taj
##pro
##nska
najve
uklju
##riji
##che
##štvo
##meta
##tne
2001
gi
ljudi
vlada
kolovo
##nstvo
##kva
##čin
##stupa
##čku
Hrva
pokre
##vreme
gru
He
##rta
kru
odlu
##šću
smatra
siječ
mani
Tako
ho
##lta
plani
novih
Ge
eng
pobje
##zija
vlasti
##rni
najbo
##sije
##blje
Među
##vala
##rima
jezika
##ktu
##gosla
ide
kojem
##telja
glu
lje
##lih
listopada
potre
zgra
ustanova
ok
30
kroz
konce
slika
različi
prosto
ure
fo
25
##takmi
osnova
zavr
##stru
Zagreb
Gla
kojima
Osni
še
književno
##rani
unu
ova
##kova
hrvatski
##kaza
rujna
postao
njema
kazali
travnja
zajedni
manife
osni
kad
odnosno
stru
treba
godini
##ven
puta
##štu
##tnosti
svibnja
##tio
##net
Car
##sli
##kle
lipnja
utakmi
ulo
##un
žan
mate
Uvođenje
području
osvoji
##vila
studija
auto
put
manifesta
##dna
##nosi
prosinca
Zagrebu
##gova
##što
teo
otkri
promje
srpnja
ener
Pu
##ll
##rak
##menta
viso
Hi
emi
##lte
##sim
kriti
strane
##ljede
vode
kuća
##graf
##liza
##jskih
##đena
naro
pono
nekom
dodje
##ndar
##tna
##dina
##liju
2011
ožujka
župa
ek
##grafi
##rno
velja
##ble
##kata
##nstva
Ameri
##kovi
gr
kojoj
##šće
kre
regi
tro
imao
posljed
učilišta
književne
sjever
kolovoza
##tima
##kraji
##čar
##zima
Hrvatska
Osnivanja
gro
pogo
siječnja
##son
##tiri
neo
##drža
##lna
##toli
##zem
često
##ljev
fe
vodi
##čnih
##vaja
##ton
istra
##štava
##ss
##rna
##star
obitelj
##ljena
razdo
Ch
##kt
##nata
izgrad
važ
##dne
##love
bor
imaju
##bora
##tion
crkve
televizi
vra
21
teme
an
##pozna
##mir
##gli
album
nekog
##šnja
uda
##zni
elektro
jezik
##qu
##nar
gene
Herce
poku
##tira
vije
2016
Bio
samosta
##fo
##jeva
inte
##tkom
površi
odgo
##nsko
##kta
SA
doba
područja
##les
skla
svojim
##pio
##bio
priznanja
##sre
energi
##tke
##ška
##bije
svoju
=
fran
proje
##mom
##viti
službe
2007
zašti
bli
##kulte
vrsta
##pisao
##um
spa
Tije
nacional
##rje
##com
utjeca
povijesti
X
##ved
radio
Os
umjetni
2008
Vla
sjeve
24
22
##nskom
##zije
##vnim
pisa
##vana
Srbi
##bri
Fe
##jska
institu
##rne
San
određe
Francu
##tica
inter
pravo
2017
save
četiri
posti
sudje
##jskog
##logija
Gu
##set
druge
sce
##noga
zapa
posje
stvara
novi
progra
and
proizvod
##lov
##pova
zajedno
veljače
##mini
##vanju
obitelji
Sla
##ttp
pozi
društava
vremena
2006
BiH
##movi
sim
23
##stvu
plo
dodjele
##sna
##više
##lin
##ljo
##nuo
sv
Jugosla
tom
##br
##zenta
ugla
##ty
Kri
##per
isti
##nce
loka
##wa
Ce
##sh
##panjo
Tijekom
##lina
prava
New
sastav
polu
##roja
2009
Kon
##mira
##vica
lije
studi
com
kojeg
##zma
##gar
Ci
##godi
repre
he
##vlju
2010
potpu
Njema
2012
##lnih
##žio
sastavu
fakulte
prija
##nda
##spe
SAD
mnogi
tehno
##nskim
##lio
natjeca
kr
##tovo
Kar
##ćeni
mjesta
tome
##panjol
organiza
istraži
spe
##ncija
##bom
francu
ozna
##oni
dolazi
2013
Zbog
njegov
uključu
2015
##kro
Če
kemi
2002
Hercego
##kog
190
##mogu
dobio
želje
##heo
##ld
poslije
uspo
##rodi
Dra
produ
zat
Dana
zgrade
##us
njegova
elektri
##čnom
##nuta
klub
reprezenta
arhi
Spli
##slav
rat
##som
##čio
član
predstavlja
##ly
ako
nu
2005
##kao
polo
Ivan
##mor
Pra
Kao
##klope
književni
ona
##mina
##stoji
sljede
njezi
svih
mjestu
##loga
Op
dra
njih
bile
##nciklope
”
##voje
način
miliju
zi
##tog
Ova
klasi
##lle
fina
poda
zapovje
rezu
Fa
##ndi
##činje
##fri
uglavnom
##bija
##fika
okru
zrako
Tre
popisu
##rali
poput
http
##sija
##chi
##urop
Ita
##line
vrati
postaje
mnogo
ras
govori
28
##volj
stran
materija
##den
napu
Bro
##ya
unutar
##es
Ži
sam
##lobo
##gh
##nuti
proce
##cha
2014
##hvaća
##ard
pleme
27
##isto
objavlje
sura
##jima
##ljem
##zer
enciklope
ču
##vari
##rala
26
dija
kojih
života
##pak
isp
mjese
talija
##vanjem
sezone
##kcija
##gađa
Veli
pripada
##mča
zo
brzi
doda
##ovje
2018
slobo
hra
##slu
##cijom
##ul
##čić
Pla
Prvi
profe
##stvom
##kazu
Iako
sastava
tem
nema
##nte
##uma
##ćem
1991
gospo
Gr
##skoga
##vijek
vrste
##ške
2000
Bra
Republike
ostva
uni
##jskim
države
##ment
_
završi
##nka
ze
##tera
Gi
bisku
uči
komu
kont
Ze
##ime
##vili
preda
uvje
započe
##ruža
svjetskog
##naca
veliki
##sk
tje
Ber
##blju
akti
rea
Joh
poli
##nad
Fo
albuma
najveći
pokuša
momča
drugih
joj
##njima
##učili
##ški
##rova
neke
##šenja
smrti
visi
ukup
##nov
##dri
enciklopedija
##peratu
reda
stoljeću
naziv
škola
29
Zem
Wa
pora
##wi
##zam
arheo
##kade
##zda
nika
2004
##pisi
obu
100
čini
građe
##čan
##njo
narod
izgradnja
jeziku
##tan
dijelu
pojedi
izlo
##čnog
Ke
Vu
##prije
pomoć
čega
kojim
2019
država
indu
##lozo
milijuna
Vr
tog
##veo
Sara
##bre
##ster
##vra
##gor
njegove
##dr
čovje
##nisti
područje
##čina
europ
##kcije
gradu
doma
##ts
ugo
iako
nove
prona
##vac
nosi
##lnog
čak
ove
bije
Par
##tet
##mija
kraju
189
IS
Mari
Rije
##nove
budu
preuze
završe
##kov
Sto
##čuna
progla
Također
##vnik
engle
##volu
temperatu
međuna
ple
glavni
##nde
Ši
##čenje
##jni
naselja
karije
dobro
anti
pripa
Bar
spome
mode
##raju
##šu
književnih
manje
događa
eleme
##pr
zako
##gom
pravom
duž
##čenja
##ranja
poveća
dola
objekata
naziva
Ste
jednom
##čnim
kate
##đar
car
##tski
juž
##šlo
##nike
Hu
položa
ovi
kazališ
##ssi
izgra
nepo
##lia
Pos
neu
uvijek
njega
##rea
epi
##tivno
nalaze
knjiga
fizi
Dal
hrvatske
studenog
##logije
ste
##čari
utvr
sluča
##nicu
neka
omogu
maj
rijeke
##dam
mije
gotovo
slikar
Sje
##jedinje
##nac
proble
pet
društ
##listi
##forma
jugo
četvr
##šten
Grad
##bur
50
kraj
##mer
##dro
##is
razliku
rezulta
svijetu
Uz
##bar
##dila
Knji
On
Hrvata
ponovno
tijela
značaj
##rem
per
pokraji
##bran
##čnu
pjesme
postoja
metara
##snik
kape
##lnim
&
##ković
##tin
Međutim
novo
##lić
dvo
##ljivo
Isto
manji
Wil
skup
ha
?
##dnosti
Tra
ug
napra
kame
Tur
nagrade
##tla
oda
drugim
standar
##kvi
##ns
skupova
##ćeg
nastupa
1990
##pla
prili
Josi
bla
##rica
Bosne
And
188
##lica
##luje
najbolji
proda
##por
fun
##niti
##kazi
primjer
manifestacija
svog
snage
2003
Đ
##tova
##đeni
ovaj
##lla
jeze
bri
imala
svje
podu
Njego
tran
##sci
Gor
##zor
##rice
»
osvaja
uo
Pod
neki
We
##nasti
eko
osvojio
Mon
postoji
naz
##ljeni
boga
život
kar
##đuje
zla
##dnici
##čica
##tanje
osnivanja
predsta
sustav
ž
Bla
predsjednik
dugo
Or
##taka
##ler
«
##cje
sklo
otvore
srod
osi
bole
##tivne
posebno
oku
##tac
Q
Europ
##lozi
riječi
osje
##njen
31
##jskom
Brita
gospodar
Man
zatim
Pred
svijeta
obo
##teta
sjevero
##zini
##šić
40
izvor
##poznati
koriste
kontro
##nzi
uspješ
##njoj
muze
##uzima
ope
raspo
znači
Hrvatski
##dnoj
velike
katoli
at
potom
##sam
##noge
osobi
tih
##nos
##nović
znanstvenih
187
Drža
poveza
##tr
ljud
##kav
geo
sre
Per
malo
rim
##čnoj
sada
##ćina
tla
kralja
##bili
##mbe
arhite
##matra
Stu
##rd
1992
##čine
##nijih
##vode
##tnika
posve
##kama
##žba
sin
Rim
ša
##tika
zvije
zemlje
zrakoplo
filma
##ćenito
##nut
snima
Lju
ispo
demo
snaga
##dera
##riju
##šla
ovog
rada
##res
##san
sveće
teri
brita
svojoj
jednog
##boj
##vnosti
##ruž
dalje
postoje
##jedno
grana
zah
svr
staro
Že
Har
##metni
sing
##jan
uzro
doku
##ks
opera
Kako
##diti
porodi
##zak
ulogu
##gleda
##češće
one
##cijama
para
!
ogra
pjeva
opa
Osim
veza
##ris
foto
žanra
##vnost
sudjelova
kvali
oni
##nal
poseb
povijest
tradici
iste
obično
cent
stro
svjetlo
##lici
npr
spomi
izbo
napada
##ple
##šli
Tri
izgu
##šenje
##dove
##renja
moguć
obliku
##vnu
##biti
##vljuje
##don
##rba
##vini
osim
kraja
energije
##lice
##pisana
##tnih
Lon
vlast
namje
##sen
živi
gle
savez
zahva
čita
Dubro
Niko
karak
Uni
skupine
##ura
smi
##liji
naroda
dan
##mana
izvan
sigu
nastanak
zbor
##limpi
##laz
Saraje
Zagreba
##stio
##digra
Sjever
poznat
Slove
##riti
nogomet
kršćanskih
1993
napo
deset
povje
neza
##rojatno
iznosi
Por
##gne
koli
186
##vca
zvu
književnošću
Ča
##vdje
##50
##titi
manifestacije
ina
##kad
sadr
općenito
##rane
zapad
pli
suko
zlo
upotre
##rski
napa
For
##fici
imalo
##tisti
njemu
##shi
##ny
##spi
susta
ban
studenoga
sustava
tim
##tske
njima
##port
druga
izja
svom
umjetnosti
##stima
trenu
##mio
##blika
filozo
članova
##dese
ovo
kraljev
##zom
sup
##mna
##ćih
svim
počeo
##gen
##čava
sjedi
najviše
izu
##sle
##loški
##nča
St
##tus
česti
mini
razvo
##mani
uključujući
##lli
djelatnosti
dvora
hrvatskih
ap
slije
ubr
Nor
podi
##šava
Kada
ruko
Beo
##njeg
ratu
##slo
tisu
hrvatskog
velika
Jugoslavije
Con
##dima
smr
##šnjeg
##tci
1999
sela
##glo
nešto
sko
##gri
nastu
##dnji
1995
korište
sastoji
##rena
društve
osno
parti
otoka
postro
##pora
jednu
akade
sadrža
parla
Yor
pravi
pona
prote
##mon
Popis
međunarod
moder
John
##vića
##vani
Raz
Svjet
##nstvom
veliko
novina
Afri
##ria
počinje
##stoja
postala
##deo
##tina
##ff
##mova
##vnika
kralj
kli
svojih
##jskoj
##cke
Cha
Poče
##pom
pretho
##menti
kluba
##lnu
književnosti
##mes
imena
topli
zamje
tak
rasp
računa
um
tehni
##ktor
##dili
podije
prihva
lat
dijela
##nicama
imali
##cea
##logijom
odigra
tehnologija
promjene
mijenja
čiji
##sima
mre
priro
##gue
Eng
imenom
pis
Dalma
oz
##ut
##pušta
oti
zbi
##nin
##žen
##čiti
##ph
gor
##vci
Indija
##ger
susre
općine
##njuje
ak
sezoni
ver
tj
##čen
trgo
##kazuje
ana
##vice
##par
##vesti
bilj
##kr
##bina
filmu
##ret
scena
##zv
##lnom
1998
1996
instituti
životi
najčešće
proši
Europi
##dovima
##like
Dan
početku
reži
##ciona
služi
posla
ovom
##dana
##sob
##sama
Danas
Wi
živje
Ob
##ćen
##we
ter
##vlji
odje
##rac
rje
potpuno
##tnik
##mula
upravlja
##loških
početka
osobe
broju
##kida
##njom
##ntar
pjesma
##bila
razdoblju
##jih
vjerojatno
##dnost
60
tzv
struč
##nstvu
##đan
##rin
##vremeno
kor
##vena
Ima
##raka
poma
zemlja
udru
Drugo
god
##ženje
gita
##ziju
##rie
izo
##voda
Chi
liko
III
profeso
##jelo
##đeno
mogao
škole
ista
1994
diza
##vljeno
##jsko
##stao
ljuba
##bert
##ds
Miro
razvoj
grupe
##pravo
##žni
##ou
##zapa
##tnost
##teo
##gled
##štine
pravnih
Španjol
festi
##miš
##sova
##lit
izvo
isko
Hercegovine
crkva
UN
pru
##rić
vojske
čine
znanosti
epizo
##snika
##zs
##sao
##tovi
završio
ad
##šen
##land
##vale
gleda
španjol
##BN
provi
šest
##renje
##sse
##oj
##feren
nagradu
Inter
kojom
Prije
popular
##tua
osigu
##stan
1997
jako
Europe
##naka
##pije
time
poznati
##ljene
##roa
dose
ukupno
##gija
##laga
##nicima
početkom
##lski
organizira
rođen
vozi
##rava
napisao
##ranju
Stje
socija
##nskoj
##veni
Novi
oči
##razu
Nije
##rano
sud
godinu
pokaza
pote
ISBN
Ško
knjige
šu
##tječe
naslje
##niju
##teri
uče
kilo
Davi
##kuplja
##ir
djelova
##mp
##sak
snim
##cor
##dy
Fil
školu
skupina
niz
##leksa
##stre
##dak
Republici
##snih
Engle
obilje
diplo
ipak
zemlji
ono
##cho
##mah
sveučili
##štena
sedam
##prija
##mar
fakulteta
una
##len
Mla
##zozem
pone
nor
##tanja
Ako
rela
##ziji
##fini
Save
stari
zada
nekim
Kralje
##ser
##dia
##ksa
posljednji
sr
hla
imenova
kona
##tem
##žena
##ksu
##đene
potvr
##vnoj
1945
jedne
##mima
dao
nedo
##ley
##tnu
##lini
##loška
oblik
papi
##jne
radiju
Nalazi
objavio
doži
boje
prvom
simbo
Fer
##gnet
##II
##lizira
kuće
##tice
##dama
Ban
Qu
spre
dzs
Pari
##pisuje
##sfe
##tona
Ara
##ban
Bal
1980
poznata
##dić
##stom
iznad
##est
pobu
zagre
psi
struktu
En
društva
##gnu
teorije
Mje
biv
objavljen
kritike
tru
plemena
prosje
##kar
80
sadrži
Igra
postav
top
meto
##dnom
##nče
izbor
##tte
Stra
statisti
mar
povra
500
oruž
poe
Kad
##čara
stranke
traja
vod
##gna
##ncu
gubi
##vač
polovi
mnoge
zato
pobo
1941
##tnim
stvar
prisu
kulture
Isu
##nsku
zavod
##ill
dijalek
žive
##štem
stri
perio
zagreba
##rigi
pada
Nacional
##toč
porta
momčadi
##rina
##mena
oslobo
##dbe
prikaza
##tivnih
Kraljev
Povije
##grafski
djelatnostima
djece
##dov
Či
spominje
##cent
dijelom
moguće
kine
Opći
##jsku
Hrvati
##hani
Zla
Sva
Sch
Pristupljeno
vraća
reli
otac
ostalih
##ft
##čini
borbe
političkih
Split
##ye
zdra
serije
##stoje
prvaka
srodnim
bivši
repu
glumi
čime
širo
posljednje
##cama
##snu
sina
##NA
genera
prvog
##teme
##ptu
##nes
obla
tijelo
Ot
serija
Tr
različitih
teško
184
ljest
##metara
odra
suvreme
##ćima
prirod
##tnog
redo
obuhvaća
Wor
niti
dire
svijet
##baci
predsjednika
dinasti
zraka
razi
medi
##val
Mađar
##ćena
hrvatska
Ovaj
##voljno
Bosni
bol
##vre
##uzeto
##bama
Slavo
lati
##cijski
dobila
pjesama
Ivana
male
igrao
upora
onda
popis
vrhu
##torija
##valo
turni
Bre
far
revolu
industri
##ron
izbje
Pje
blizini
##zne
poko
##nstru
uređa
##kte
##ljeća
##mat
zadrža
konti
televiziji
osam
Žu
razvija
zapovjedni
Vje
američki
supru
+
##dnja
##njena
pala
medija
##que
obrazo
Taj
puto
##sio
mladi
zema
postroj
##20
žena
neprija
najpoznati
##tije
##žda
Film
##važ
tehnika
poljo
odlazi
##snost
naslov
von
kva
dobiva
##od
Juž
početak
185
susje
oži
##ssa
##tki
##piti
obzi
tur
##žava
neovi
Preuzeto
Tro
##ker
puno
##rila
strani
grupa
##tivni
kata
Ovo
##dnog
brzo
sni
tiska
##stali
idu
mm
##lum
jest
njegovu
Josip
većina
##rama
##han
##učilišta
##rine
##dor
napre
##pila
rijeka
ograni
Hen
pridru
glazba
##ćuje
##dao
izvr
##fu
najbolje
vjer
Com
Br
oblika
##šća
Kod
Bru
svega
##tine
1970
kne
Austra
važna
utakmice
##gan
njegovo
zamije
##min
##vljenje
osobito
broja
##tić
premije
umjetnika
##lip
ama
Jedan
svako
##tal
stanja
##jevima
protu
južno
giba
građevina
zastup
##nera
posljedi
bolesti
##kli
Zako
35
##bilje
identi
isklju
70
informa
90
Ša
spaja
postup
Poslije
općina
prostor
njemački
##povi
Char
##pija
zahtje
ispod
##šena
##vene
Cu
regiji
djecu
prilikom
list
ostao
slučaju
Gru
##gije
materijala
##din
##cka
Aleksa
daje
nače
jedini
postaja
##jevi
##biča
forma
general
##cem
Prva
vanj
osu
utr
selo
##lac
##čena
##nia
##šeg
klubo
porodice
uspio
Samo
##ol
Gre
najsta
Vladi
jugoisto
gori
upu
Geor
momčad
trži
automo
##ncije
ostali
##čice
izumr
vidi
odgovara
popula
promije
treći
##jnu
##vljen
podrije
žene
okre
Še
##šar
##kto
it
##čeni
##gradu
sebe
pogi
NK
El
čemu
velikim
Han
pripre
ured
nazivom
##stala
odli
karita
jez
prou
srednjo
zakon
briga
zapravo
glazbenog
zemljo
##mpi
tradicional
Veliko
katego
pomoću
igrač
otoku
društvo
Kla
budući
središte
vrijednosti
##laska
čet
tvari
izabran
stvori
kršćanstvom
teži
krajem
željezni
##škom
##toma
##ES
program
36
##rtu
##žić
kaže
ubije
igrača
##meni
Radio
##tnom
započeo
nova
##kedo
anto
kralje
medicinskih
##nciji
publi
divizi
ugovor
Albu
zara
gradi
utjecaj
površine
određenih
Ton
##dnih
ubrzo
##tok
##leko
95
odnosu
duži
Vije
pola
domo
morna
defini
pogla
##loba
preo
konstru
financi
instru
##linu
drugog
##BA
am
prvih
vrata
Napisana
Gro
svaki
##snog
##lovima
Ed
Ipak
zauze
gimna
rock
funk
##im
##leo
Kasnije
##slima
glazbene
##sional
otvara
Lan
1989
puko
##hom
odmah
##pne
siro
zaro
županija
izvje
subje
vratio
183
##the
dogo
##ncima
video
kana
dne
jugu
Drugog
nogometa
32
velikih
proizvodi
zbornika
##vinu
istraživanja
civi
##mci
van
##teristi
odu
izmje
zaklju
nukle
pjesmu
##let
supro
Miroslav
prijesto
##rov
##ktora
polja
##žbi
##njaka
dulji
en
180
##ksiko
mikro
##grafija
komp
##đuju
tamo
##leta
Osije
poduze
koncert
njihove
##ženi
vojska
Srp
ukra
Ana
riječ
specija
Mc
drugom
Nova
uteme
Drugi
63
veliku
Marija
oče
djeluje
poljopri
eksp
##bil
napad
sjeveru
hrvatskom
umi
kosti
Srbije
1960
jezera
Dje
Tada
trgova
##logiju
utakmica
brojne
sjeverno
Olimpi
##ght
nogometni
33
##štvu
##štima
zajednice
smo
##čeno
##bla
Knjiže
Vene
mehani
utakmici
cm
##dnim
##gara
atmo
Bur
##poru
Izra
##use
činje
##snosti
##rko
vlasni
##ruje
##tija
##menata
##bisku
Voj
##ljenje
Ali
umro
##vača
nara
##rap
kong
odnosi
r
muška
##teoro
prvu
##fer
otok
kojemu
##mpa
kompa
prvenstvu
|
Hrvatsku
##fikacije
prima
ponekad
isku
##vljena
Pjes
fra
glazbeni
Najve
došao
navede
45
deve
uspjeh
##tani
##uri
##ture
djelu
starije
##njak
##snim
prese
njegovih
##au
gluma
SS
##blji
zau
##volja
vidje
’
##lie
##ad
toj
##ćer
##leku
etni
gašenja
##grada
potrebe
dvor
boji
suda
1918
singl
vjero
glazbenika
duho
možda
natjecanja
Bri
##lti
počela
promatra
##lama
##tlji
pribli
ten
ponu
njihov
osjeća
preuzeto
##lub
##tz
##my
Veliki
##žja
crno
Dok
farma
građa
javlja
##cifi
demokra
Egi
Zna
Ante
bora
##kin
pore
##ana
razvije
World
prvenstvo
##kove
Zo
Može
bosa
filozofi
##sso
razdoblja
Ver
##kan
##čuje
##loške
igre
drugoj
prvoj
Mini
##wn
Album
jednosta
tam
##nstava
##škog
##ok
čvr
rodi
##lili
brod
IV
teku
pokreta
njihova
fre
sagra
unutra
York
##ljenja
optu
svjedo
##oma
Njegov
istak
dopu
zemalja
##tional
državi
##slava
drve
##rodni
francuski
vodo
##kvu
domovi
mjeseci
košar
zabra
##tili
##tivna
##har
##cio
zbir
itd
blo
podje
sposob
##nić
Hrvatskog
##nila
##vka
Slu
upravo
prisi
##78
opet
##miju
##siji
##rili
imati
gradnje
##deset
Kana
##jim
Bor
vrho
Narod
##dol
Wal
zatvore
##tila
##genti
različite
Pravo
Kor
Sveučili
Anto
naru
županiji
objavljeno
##dnje
##žiti
Mor
seku
osnovan
boja
co
##rus
Glavni
vojnika
Krle
karijeru
arhitektu
##pana
kultur
##llo
Međuna
članovi
Nji
emisija
formula
##šnjem
građan
dese
##ćim
albumu
komunisti
vid
kolonija
1987
poz
##xi
mnogim
Njemačkoj
cje
pokrajini
karakteristi
profesional
Zemlji
nao
Spo
dove
smislu
Recor
##lis
asi
kome
međutim
sporazu
Splitu
luka
zrakoplov
većinom
Predsje
astro
igrama
##tes
Univer
postigao
181
##ceu
turne
kup
stanje
ža
njoj
mađar
##at
Tomi
##zerva
Che
mogli
povu
situa
istoime
vu
dro
posu
##strija
org
stije
Kre
lige
Spe
##vlada
##nula
Sredi
novog
odgovor
istočno
Neki
nek
##hađa
podataka
nau
##ther
1988
roma
klju
##vničke
kole
pros
zabilje
##vane
##žene
Vin
##misli
ovih
pojavljuje
##cy
izved
1944
##nese
##gama
Sti
pruža
svake
##ted
##wo
##čani
isla
pretpo
##rum
napisa
izlazi
##tere
##ljujući
300
veće
kise
##šnjih
anga
Sre
jedinstve
kratko
##tnoj
##gro
##ten
nekada
oču
velikog
Cor
Hercegovini
žrt
poznate
žanru
rekao
ekonom
Prvo
##ang
Svi
trener
150
ujedno
obavlja
njegovog
Dr
razdoblje
jezičnih
izvori
##et
nadbisku
cara
Sv
Subo
##pita
##metri
Isla
Dar
magnet
struja
Am
##ntima
origi
##by
##zde
##niku
jednim
jugosla
Ovdje
##ština
povla
Ime
##viju
tvor
Bran
Petro
znača
emisije
službeno
obali
##rska
##vski
##čila
nekih
##toka
putem
metal
##garske
##kuje
##lazak
ispu
najvaž
TV
##viji
##leksi
Polj
##lita
##hra
##ls
okvi
njegovim
##dnu
Crkva
obzirom
Bel
općini
kući
simpo
prvenstva
voda
##vjeko
Sha
umjesto
Fre
ostale
sjeveroisto
##stori
psiho
Ange
Micha
Petar
moleku
uvođenje
znatno
visine
##ela
predsjedni
nagla
##ina
##šni
indi
Nikola
zove
upozna
završetka
saču
nastaje
##sco
##žbu
Slobo
gradova
Carstva
##jno
poslo
Gar
plane
otkrića
Književnost
fakultetu
dolara
projekti
kilometara
Nu
oca
##nosa
izrazi
stup
pješa
Time
potreb
kompo
austri
##igra
om
partiza
##nke
izumrlih
##voru
prijatelj
Indi
ekspe
povjesni
##miji
matemati
##NK
nuklear
Sred
38
Willia
34
mogućnost
žup
došlo
selu
brat
relativno
##pta
autor
engleski
Mer
dovoljno
##rata
Fu
zu
književnicima
jednoj
prijevo
vojne
pripo
ponovo
najma
##her
tere
##čnosti
šuma
glazbom
prolazi
##činu
bom
ostalim
##pti
##čak
hidro
centar
Sarajevo
Obja
Italiji
kongre
Eu
priva
zvijezda
svjetlosti
žanrova
jedinica
##jam
##njiže
priča
##ćeno
Kro
##nga
##ćom
uži
njegovom
bude
Gran
simpozija
meteoro
##tur
##vođa
istoku
##škoj
##čević
Nizozem
šport
oživljenje
redu
prošlo
neknjiže
##tm
##ženja
sklada
##nili
##govor
##šku
preži
##rskoj
sport
antološka
1984
svojom
glazbenih
mjestima
neknjiževničke
atmosfe
##lena
##ljaka
1943
Ujedinje
##raž
1986
zado
Ona
odo
granice
##mpe
čovjeka
dobili
teritorija
Ukraji
##tia
sovjet
Grada
sjedište
##klu
govor
nastavlja
nedosta
sljedeće
internet
sami
prostoru
osob
organizacija
nesta
vele
visoko
obna
teksto
##dge
Spa
1981
##dran
Većina
vodio
##ero
izdanje
##CO
farmaceu
čin
ranije
##burg
navodi
##džbe
Tuz
slike
osvojila
##zno
novim
Domovi
Budu
isključi
komi
##stiti
bavi
dokumenta
##plova
pobolj
##ksual
franje
smješte
Hrvatsko
Napo
apso
##vinama
vozila
##lnoj
##tska
dre
svoga
##mak
disko
životu
meda
blizu
Krleža
Francuskoj
zajednica
zaba
sigur
koristiti
##cijske
iznim
poznato
Velika
medicinom
Van
teritori
##ine
##logue
ošte
##strije
katedra
naju
smatraju
proizvodnju
obno
putu
Radi
politički
Ale
##vama
ligi
sum
miro
Njiho
##ministra
##elek
područjima
1971
dosta
Obi
farmaceutika
ovdje
tvrtka
aktivnosti
more
veoma
toliko
##kazuju
##spa
##skoro
koncer
preuzima
##kaz
Ministar
cijelo
##gru
Pan
profesor
##rira
1950
sila
nat
rod
##šnjoj
##bičaje
Oni
neće
nikada
Stjepan
osnovao
majka
položaj
1985
Austri
##dona
Cla
##ham
vojni
##mica
zapadu
##raca
odvija
Republika
dogodi
dijelova
1942
čije
šta
dopri
omogući
korpu
potrebno
ino
odlučio
upotreblja
##snom
politikom
Leksiko
##žili
##njeno
djelovanja
dužnost
##ot
Kali
##njeni
zrakoplova
##nina
##zmu
##čer
zapovije
Haj
razloga
##berg
lik
zauzima
##vaca
dinastije
1969
distri
##lska
zapadno
pravosla
zemljama
##žne
objavljena
##zirao
1979
govore
##šan
rake
problema
##ida
cilj
reko
procje
čovjek
htm
Alba
dužnosti
mono
Dio
savje
uslije
biskup
grani
##miti
proto
HV
##kna
##mjer
preki
rezultat
njegovi
potra
plemi
sati
##klop
djevoj
Njegova
izjavio
političke
##reda
##FA
##čima
posa
##tove
nasi
##reni
želi
obale
hrvatsko
##vici
##nus
planina
zaslu
ovoj
Ć
dijalektu
prelazi
temelji
različitim
sklopu
dodije
Pozna
borbi
ispa
##nsi
##lske
uve
Star
37
##koliko
uze
1982
##mila
kandi
##padu
usmje
planinar
##vljuju
pohađa
##10
Anti
proces
##lea
##žna
četvrti
razvoja
izložba
You
##yer
##lt
smrt
standardu
##lon
imo
##bijedi
Glaz
vlade
Franjo
prostora
179
##nis
moć
raznim
Brazi
Sy
##80
Sin
War
vladavine
##pto
##tle
misli
stranka
##zacije
Budući
1948
##lik
##žar
učin
##telje
brani
Flo
prila
Francuske
##čem
##lira
##tero
udalje
lege
izaz
spada
Rich
tisuća
—
naja
Makedo
##zan
inozem
kontine
##yo
##zant
osnovana
##rist
Sarajevu
400
izuze
ulazi
kućanstava
nezavi
predvi
nada
##rami
kuhi
jezičnom
Kata
Antu
današnje
Croa
sile
mogla
Americi
##40
Miha
otišao
pak
propa
završ
agre
glavnog
mali
Mno
##jeve
Oko
##tru
##tici
182
Tony
Ad
Kršća
uglji
dubo
arap
pita
Val
##ženo
organizacije
ravni
ovu
izbora
##Po
projekt
##mda
izvora
##rij
Crkve
flo
Robert
##lnosti
##AT
piše
kršćanstvo
opre
motora
košarka
slučaj
##tho
##risto
najvi
kralji
programa
Tho
##veno
srednje
dužno
##mirao
amand
ostaje
koncent
##tha
uboj
1983
mogućnosti
pokri
nado
David
##xa
##gdje
##tana
##ké
NBA
lako
##toj
kvalite
Sunče
svaka
portala
##tic
velik
kazališnih
orga
Medici
42
stanovništvo
označava
pored
imenovan
uhi
##logiji
##značaj
redovi
životinja
##pred
##tnici
talijanski
županije
Leksikografski
papa
39
ministar
##plji
##gio
Kuća
rijetko
naslo
moraju
školi
logo
1968
##vorio
temelju
Kru
stanju
Federa
nikad
miš
radu
resta
Sljede
nega
ukazi
prakti
mor
##spješ
proveo
gre
novu
##tovima
##siju
##bnju
##id
##žnje
Kine
##bine
samou
HR
##njim
nju
čija
napušta
##tskog
##nuli
voka
razmje
US
Institu
poslu
Zemlje
1975
trans
Već
Augu
prete
status
isključivo
##ških
Bož
1976
##pina
bje
Kara
Para
Er
razne
studijski
##sic
sudovi
roda
Šved
redova
raznih
izborima
obrane
hrvatskim
kćer
##grafije
sudjelovao
crkvi
uključuje
##fere
sja
1974
##paci
novinar
##dini
Ter
##njuju
Mate
##ide
##žila
ponaša
električne
Pau
postupa
1972
##ćenja
##rca
stože
minuta
sprije
postavlja
dalj
Petra
Njemačke
Mila
filmova
Ser
raste
hoke
Poslje
ski
model
##mske
knjiž
Rijeka
##vedena
##desetih
Početkom
mase
veća
Una
bolje
stvari
norma
##teljima
priti
mnogih
trebao
##vcu
47
##60
##vak
Zakoni
domaći
duga
##lila
najboljih
Šu
bilje
najvećih
liga
##vodno
ugra
##can
nastavio
svjetske
Ope
##dre
osoblja
polj
Katoli
kućanstva
gale
Poké
parlamenta
##phi
diljem
zapovjednik
regu
ostala
promet
nazivaju
##ms
kupa
obiteljskih
kota
proti
proizvodnje
eki
##govara
svećenici
čelu
sljedeći
Sjedinje
pobijedi
##ljka
uzima
svjetski
##ed
poluo
tisko
velikom
##kić
podrža
baštine
##vske
ovisi
radovi
##vita
groblja
1978
spli
stadi
1967
sezona
Don
potpunosti
seriji
uredbe
##kciju
kojega
##30
##nior
okoli
pojača
stoga
##skop
doz
ura
konta
Osman
##vajući
##godišnji
Zapad
##raz
Sunca
japan
krila
statu
Sam
svibnju
##veden
##eb
Hajdu
pilo
1920
Prvog
##đenih
HD
##ws
##fon
nastala
##nose
##sona
šte
##šo
##lizam
Ger
možemo
mjeseca
vezi
naslije
čestica
Ex
Indijanaca
##ljiva
obliko
najveća
##kraj
usposta
izabra
##nijim
poti
sjeverozapa
gusto
amandmani
##šnju
1973
dijelovi
##zuje
nosa
prido
saveza
Vol
##vnici
polje
##DH
##wer
##štvom
temperature
hrane
##pće
plu
projekta
reprezentacije
##njih
prepozna
##nena
Ben
liječ
##presi
##vački
cijeli
Jedna
svjetskom
##nicija
ispred
Dani
polju
odigrao
obiteljskom
og
##vrše
umjetnici
##boru
Još
George
godišnje
vrijednost
Aleksand
##bs
završava
obiteljska
##mona
##anta
poru
smije
potencija
Beogradu
44
izvodi
smanji
posljedica
##bice
##pisima
##jku
##čnost
otpor
##tta
##tti
75
##šnjo
kandida
##cia
##zora
jugoslave
##lly
##sobno
atom
drugu
Italije
ravno
komunika
##tel
filmo
Bog
1977
strana
##ćoj
##nciju
poboljša
odredi
potpisa
##čića
Teo
traje
##zio
55
zgrada
##rene
##sca
sigurno
Um
##rug
jezero
Atla
##qui
##scipli
sklad
Universi
promjena
špi
Srba
##mišlja
kg
brojnim
reprezentaciju
##ppe
dal
nesre
srednjovjeko
##vnica
vrh
avi
ska
1961
##ljenih
temelj
origina
modela
održava
Šibe
kasni
Tom
Beograd
prista
bogo
poči
američke
##valu
provodi
x
##đivao
najstariji
Zvo
jedinice
##vec
naseljeno
inf
pojave
ovim
smjeru
strije
autori
##ESCO
priklju
zemljopis
##yu
##čene
uvo
##vero
Records
olimpi
ploča
##mercija
samostalno
##ction
48
##mski
kop
Gene
urednik
Iva
Lou
##dnica
spek
muzeja
##panj
sate
nastao
orke
tvrtke
Povijest
glavna
##nari
##stanti
arheologijom
##zin
pozor
Sveti
l
titu
Sveučilišta
masa
njihovih
maso
intere
vojsku
##bini
izdava
Župa
Harry
Postoje
mala
brzina
##ljeva
knjizi
##ljani
većinu
##slje
naf
započela
##ksima
Jack
inženje
klasifikacije
poslova
uspješno
motor
karijere
huma
započinje
46
##laca
Bila
kapele
stranaka
##laza
inim
počeli
trenutku
izd
Londo
Medi
muslima
##tov
donije
##ward
##tive
##und
##veli
iska
##šio
##shing
##vile
prikazi
glazbu
41
Švica
priloga
##ali
##gno
Politi
##ljak
tor
roman
donosi
sustavu
##čje
manda
Franje
zemlju
All
VII
dom
grob
Krista
dijete
jedino
1940
##ici
##ira
godinama
##gon
Can
granica
Spi
nebe
UNESCO
kombina
Vuko
grane
Hr
##ena
##war
##tiva
Fili
##Popis
dijelovima
##gent
prste
##snoj
okuplja
dolaze
##tek
turisti
##cen
FI
##cep
Los
##lovanje
43
ref
sebi
1930
Filozo
Njemačka
zoo
šire
##vremenu
problem
podrš
##gita
Marko
površinu
JNA
°
djelomi
dokaza
##rika
##int
##gal
odnose
nastupi
##sch
##vča
Rimu
istom
mlade
##thno
1962
moći
##sha
struje
izgleda
##lović
Peter
deta
brzine
Cent
Austro
Budi
1966
dvostru
##kidanja
pobije
engl
svemir
veze
##lnik
obve
##hni
NDH
zao
Gospo
52
##zar
##os
okupa
stanovnikaPopis
desetljeća
lošeg
slikarstvom
##nute
##kana
daleko
opreme
zdrav
Marije
Mil
Prve
tema
Varaž
pripadaju
##mas
##rovi
bazi
##dži
HS
strate
##gacija
uobičaje
magi
temperatura
medicine
Iza
##zanje
##del
Leo
Mjese
Ab
njegovoj
iskoristi
##jev
##sliman
Rođen
##mun
židov
raditi
Nacionalni
hu
Jose
120
Parizu
Kan
Tek
stariji
Srbiji
##vljeni
Talija
##tual
##ljuje
##dža
##cisti
tuma
restaura
Razna
con
Bill
bibli
stvore
##rok
1939
opisa
##snici
mjeri
naći
emitira
Novo
Pose
zaštitu
primjeraka
##tivnog
apo
Velike
##selje
konku
moru
zasta
Bje
zase
pošto
178
radni
##ning
prosvje
##njene
##nk
varija
Pjesma
sudjeluje
ože
mir
##vniku
posao
##vodio
bivše
ništa
koristio
kritičari
vremenom
rujnu
skoro
dalmati
Ala
dobiti
##zacija
uređaja
##stoj
1914
Unatoč
slično
##70
pokret
administra
grafi
##bilj
##jala
turi
Portu
glaso
pučke
nepre
##SR
Iste
##zapad
##ct
pou
ugar
uništi
priče
##dinu
pusti
tiskovinama
##cioni
Michael
morao
49
##zona
neprijatelj
##tter
Japa
urba
ptica
komercija
##nki
##nea
##žuje
pokretanje
##šne
160
##thnologue
mlado
##štaj
Hel
samostan
kolek
proizvođa
ala
prvim
Jan
baze
prouča
##novima
radova
Klub
##ire
Ate
1964
neda
premje
##mora
blago
botani
diskograf
studij
##sov
##it
##ranih
Franci
Akade
Zadar
prvenstve
##OS
VI
##nutačno
##lost
istraživa
##put
##gura
tipa
zračenja
listopadu
##žnja
broda
##tum
orije
uvjetima
ISO
prenosi
ravna
korije
##ure
obe
Beču
jednako
opisuje
Is
Art
cijevi
1946
Osno
razno
samog
američkog
specifi
Rado
porije
točno
energija
primjerice
vođa
siječnju
##BC
sezonu
##vie
##onar
podrijetla
efe
Ugar
tero
##gy
sprem
##elektra
Super
Krajem
##vilo
red
Luka
popra
vidjeti
međusobno
##bin
Ivo
Kućanstva
##ling
##rove
Sovjet
nepozna
veličine
pokazuje
##12
prilago
Osnova
energiju
##bita
##škim
City
SF
širi
dijeli
##mili
##tječu
kapaci
##čenju
1965
##fina
##ljom
zvuka
Wo
oruža
školova
zele
zahvaljujući
predme
centra
ugro
##mann
ideja
net
djelovanje
poho
##nat
veče
siste
prikazuje
##ston
65
nastav
dostup
Interna
naoruža
##nikom
lipnju
Tele
metala
Red
poena
##lona
Crno
sjeverne
kazališni
##vano
1963
potro
jugozapa
vijeća
stranice
moglo
otkrio
neposre
et
##tosti
sed
##gona
spi
uključi
potpisao
sazna
udaljenosti
##tike
ekono
##mla
##sis
##car
dota
presta
##mba
Zapo
namije
prolje
služe
Filozof
intenzi
konačno
kuhinje
površini
##šića
##ys
##šnjim
##zina
noći
kupo
pitanja
stvarali
##cal
##stog
srpski
mr
Fra
onih
igrali
utjecajem
##hat
##vin
ate
njemačke
zakona
izrade
ožujku
referen
raču
radom
odbija
linije
##smo
tona
Milo
pitanje
##cs
wi
Press
Postoji
frekve
regional
Fin
upa
uslu
okupi
##katoli
koliko
prirode
Histo
##stor
Meksi
instituta
mito
##ših
umjetnost
She
gala
krugu
smješten
šti
oružja
##bus
pomoći
travnju
Slova
stil
Kršćanstvo
Amerike
Jer
objavljuje
izdanja
pojedina
1919
vodstvom
američkih
##ong
Oba
aku
##đivanje
##porta
James
formira
razvoju
vrt
Paul
sveti
potječe
##zama
filozof
republi
eg
letje
nared
##hije
Win
Toma
##berta
sudio
London
kulturno
##lak
der
##rodno
Ya
napustio
poreme
##lizacije
##dnju
##vko
mrt
glavne
primije
poljoprivre
##trija
šved
prera
vjetro
državnog
kuću
skupini
##laže
zanima
posjedu
fu
1947
Viso
Općine
gradovima
plan
Kalifor
62
600
Kom
visini
##roda
Hal
zaštite
Vladimir
##NL
Mnogi
naslova
University
priču
Hrvatskom
##čito
određene
##stila
##tskih
njezin
linija
vremenu
smanje
samom
zaroblje
javnosti
##uda
ani
Mü
##ford
kola
predlo
ostvario
Francuska
udar
preuzeo
##lizma
##zanja
Najveći
##zmi
iznena
najznačaj
##rik
oksi
##sila
Londonu
istočne
##kovima
novine
Stoga
vre
ljude
##prilike
kale
glumci
##koho
pristup
sru
nastup
Druga
medicinske
rasvje
bar
izvođa
devet
formi
živio
##ljana
Frank
autora
planine
ošt
##vela
discipli
elektroni
Jugo
##cijskih
Naime
crkvu
sukoba
postati
zatvara
53
##tnije
##čkoga
##bni
postali
##cegova
sastoja
Air
soli
##njskoj
Mosta
umiro
My
Tvr
tko
##AS
inde
izraz
nalazio
Phi
koma
Geo
pop
osniva
prijed
odbora
Argenti
##gni
boj
sloven
##zao
Pav
##redio
laici
uopće
ozbilj
Dina
stje
##pisani
najmanje
inova
pjesni
noć
inicija
stanica
kolovozu
inačica
1956
Udru
ruke
stani
pojam
Međunarod
##govi
Martin
ujedinje
materijal
dimen
##nge
99
Jadran
komplek
objavlji
stva
brodova
Josipa
kultura
klubova
nogometaš
##lesa
točka
Black
ispra
razini
##reno
##con
pisac
kongregacija
raspada
postaju
Bije
europskih
jasno
sveča
siroma
prošlosti
##ljiv
arheoloških
##nuto
##stant
znak
HVO
stanice
1936
preci
sabor
prosincu
park
##hija
Smi
klubu
otvaranje
XV
953
njen
ciklu
predmeta
distribu
smještena
pogre
bolnica
sama
glavnih
Umje
kore
poto
srpske
atoma
perzi
dovodi
CD
##tnica
razu
nastoja
Ubr
##sjeća
položaja
Kraljevine
##žman
priprema
64
##gori
##stili
Vale
brata
stalno
Cro
gašenje
verzija
177
karitativne
##ljivost
najveće
##cki
##giji
1953
Zapa
leksi
51
##ardi
opti
imovnog
ocea
uskoro
##šle
dijelove
karitativnih
##zme
Knjige
brojnih
musliman
Apo
Kate
sceno
Ukidanja
##metu
Upra
##lacije
Tomislav
treće
fakultet
regije
56
slove
jedina
Stanovni
bombar
knjigu
##gua
00
##rstvo
visoke
##žnost
##ps
##njeva
postrojbe
##phy
Ovi
Ran
Slika
stare
##ces
lova
krvi
asiste
crnogor
poziciji
##TV
##cer
Bon
međuvremenu
preživje
##tura
##dobno
ušao
lista
pripadnici
##kada
##teljica
Ama
##ljima
super
impresi
##nor
##tch
One
izdanju
Die
##ralne
tekst
##RJ
##cro
predstavljaju
Novom
površina
prezi
shva
zadnji
Usta
##gaja
##đenju
kali
bogat
rijeci
##ndo
##šiti
bronča
Sr
čast
Africi
izgrađena
natjecanje
Vil
omoguća
##voja
skri
javno
pukovni
zvo
##slova
redatelj
Sil
njim
rade
Vojvodi
odvoje
Zra
##stero
ocje
zvijezde
ljeto
ruski
srpnju
dvorane
##lus
Fri
##tivnu
##cijska
staja
##vrš
Studi
Lin
hrvatskoj
većim
##ting
robo
ići
dvoji
tvrdi
EU
stranica
##grija
zrak
Dalmacije
pripadnika
Boga
Elek
crta
pojavio
Gori
##teran
Ubrzo
kazališne
##ffe
učinkovi
uvr
vul
klima
raspra
željez
njihovo
Gore
biskupa
Bosa
##rijem
1952
dati
85
##vred
tradi
html
##ding
Smatra
finalu
osvojili
Kore
riba
pobjede
refor
nizozem
Vele
zaposle
y
goriva
##ljačka
Što
1917
Madon
dosti
cijele
##vju
sveučilištu
Auto
Osta
##turi
mladih
##90
snaž
političar
Pored
uloga
reprezentacija
1958
Ču
Šo
objavila
flu
##trije
ovisno
lak
događaja
elemenata
William
slova
##skr
##chen
slave
slijedi
54
tip
bitci
##OR
Mali
alkoho
živjeli
Najpoznati
##list
nai
procesa
Ji
Stan
imenu
1000
##AR
likovnih
##manu
##slije
spomen
Papa
jezikom
##as
##lda
RH
uza
unatoč
EP
##terna
Neke
Zri
doći
posebice
njihovu
završetak
##ruza
vodu
zamisli
čestice
izgubio
175
Italija
industrija
##op
72
##dara
nastaju
Af
časopis
uloge
kisi
ligu
Čla
ideo
##mno
57
Crne
vijeće
njihovim
dugi
##stvima
istog
Var
Mala
##rat
del
glumac
utakmicu
naciona
##metra
komuni
porodica
skupovi
168
župe
Između
##ndu
##lega
tera
regija
##mokra
Istra
unutrašnjo
brojni
##11
stre
stilu
##cijskog
152
639
Muze
krista
trebala
elektrona
Sli
Washing
nakla
svoja
ljudima
##visi
dubro
konzu
##bru
završila
Sloveniji
##los
oklop
supruga
otprilike
##tacije
politike
klo
pokrajine
Bil
pismo
1938
SSSR
nazvan
skladu
uključuju
##kse
##vcima
##part
monar
obrambe
podrijet
Sho
##jedna
Lje
##kupno
kato
unište
kemijski
Sco
službu
Jugoslaviji
##pat
njezina
takav
umjetničkih
homo
memo
istovremeno
razo
redatelji
58
proizvodnja
##čana
##ziran
generala
hrvatsku
republika
mra
##nder
##povije
osnovi
##VD
ratne
##dora
##naest
##bljena
muzej
armije
##jak
##ntu
Poja
snagu
središtu
##šno
##nger
ubija
zapovjednika
##moć
170
Selo
odnos
nemaju
stekao
teorija
programima
##stve
1959
turbi
##tinu
nam
opisao
##daka
##gram
##ltira
leži
praiz
životinje
Sveučilištu
novac
kreće
##lptu
starog
uki
sveučilišta
Hor
privla
dužnosnika
##broj
##mber
978
##ljive
tvrđa
stvaranje
južnoj
pravca
rekord
Mađarskoj
sata
direk
razlika
##tis
uzo
svećenika
##ceae
američka
XI
Milan
državama
približno
proizvoda
pojavljuju
tipi
dviju
proglašen
postupak
mjere
Želje
majstori
baca
evolu
kulturu
##čaka
središta
HDZ
Općina
njemačkog
sredinom
##ćuju
Whi
Primje
pobjeda
Tor
Tran
Karlo
pravila
ustav
##kinja
Kroz
klase
prati
pobjedu
lice
voza
načina
svakodne
razlikuje
Ham
Yo
Gri
##vedbe
okomi
##ćenje
##bić
##dae
1954
1955
skra
##burš
##nulo
##govori
##šna
jezici
pretvara
poča
dolazak
statističkoj
Pala
dakle
nacionalni
veljači
176
##racija
svakom
##sor
medicinski
jednostavno
koor
Dubrovnik
izravno
televizijskih
Nazi
##16
1957
referendu
bitke
##tonu
Bošnja
Olimpijskim
##nku
današnjeg
povijesni
prihvaća
romana
##pati
God
sjevernoj
800
##grana
križa
trenutno
prvenstveno
##tost
Emi
1929
iznimno
današnji
karijeri
1949
presu
gibanja
##bile
aran
došli
Europske
točke
oružje
##jica
prof
vratiti
##ljivi
SP
dužine
srodnih
##koj
##nae
##novo
manja
prvak
utjecaja
crve
hipo
traži
##rka
opu
##loge
litera
##15
##wel
86
odnosa
topline
port
ispiti
tlak
##rav
polovici
nomini
raspore
##cus
##ttle
Festi
Stari
sinte
kardina
##kciji
Afrike
drugači
izbjegli
opo
##visti
luke
svojstva
web
Duna
igara
osloba
76
dvoje
1928
##rale
1910
1912
kemijskih
##med
ul
##lića
##chu
Shi
Sal
pomi
ciljem
kemijom
svećenik
Savez
člana
planinarskih
73
##lijar
starih
ukraji
članica
glasi
##ćeri
##dinami
##tvor
drži
scenografi
fizika
inspi
##puštanja
konferen
premi
kostimo
##RO
rasvjete
razvio
provincija
##18
Norve
##juće
bur
glasova
književnost
##jana
novom
pobijedio
Kova
anali
navija
državne
##nie
##ville
znanja
brigade
znanstvene
pisao
carstva
eksperi
epizoda
postavio
studenom
utemelji
##ranu
##tropo
zahvat
tlaka
uspjeli
razlikuju
##sar
Općini
moto
grčki
##rista
her
korištenje
Rijeci
nacionalne
španjolski
##lm
##pine
plovi
slabo
izvrši
Tan
omogućuje
Dva
ise
suo
Richard
##ćene
##djela
buduć
kontra
##sau
##nedi
obzira
sp
trebalo
##ak
ilu
sme
##štini
ljestvici
##šći
Ly
državu
djelomično
stručnjaka
smjer
količine
kazalištem
##jci
proglasio
##lazu
ostav
epizodi
festivalu
podzem
cesta
ustro
veličini
Jedi
položaju
##rci
Službe
##lacija
##dže
##thi
Rumu
nalazila
poro
izvi
očeki
austro
##fal
običa
##mbo
Jean
umr
svrhu
samostana
poremeća
subjekta
kontinenta
##kru
##ves
kazne
stripa
seksual
vino
miješa
##13
##trag
Plo
glo
zvje
napravio
suradnji
1937
festival
Eri
Broj
plem
služio
Que
nose
osla
stavlja
Pal
##čnije
Bilo
veću
##mino
poj
##tskom
Aziji
koncep
objekti
Ap
upisa
Svetog
Brod
Glazba
uspi
transpo
plemić
post
Peru
listi
parale
biologijom
##dago
glas
##nskoga
vodom
količina
Andre
bizant
vladar
##mokatoli
rezultira
hrvatskoga
##TA
Mur
simbol
Zadru
producent
raši
domina
svakog
##yja
digita
##šim
##nami
Više
Blo
Rei
inva
##bitirao
divizije
##des
ljubavi
maksima
##dilo
Life
##more
##dal
glum
dolaska
##zik
1915
##klanja
skulptu
##lite
vjeru
značajno
prekri
66
rene
šume
##rajući
##gnut
##rskog
Alex
##trijar
borbu
84
1916
##medici
stvaranja
ljubav
snimljen
1921
sisa
energe
okviru
najpoznatiji
##eld
ostalo
tekući
milijar
vladara
Nekoliko
92
##bilo
##roma
##lskog
##čja
rastu
##17
##stim
##šeni
obeća
nastupio
kostimografi
##morske
istočnoj
ser
skupa
crte
Ili
Staro
Tehni
magne
brojem
unaprije
konkure
##rović
##predsje
četvero
96
Lee
uspjeha
teritorij
biva
kontrolu
##vera
dizajni
Umro
glasa
članak
•
izazi
djeluju
##njaci
Sko
stranu
##ima
##siti
##terija
parlamenata
Monte
##vjeroja
oblasti
revolucije
portu
potica
##rgi
alu
1934
##zirati
##19
mine
plaća
Kur
##likop
Sudje
dokumenti
##nne
Pru
##teljem
skupinu
DVD
Arhi
##vedeno
International
250
Kne
konja
##phe
plina
ponaj
##šeno
Japan
brodo
cjelo
tjedna
Bjelova
##pho
Oso
##rnih
##lovao
dža
metra
vezu
##njenih
smatrao
zapadne
##ljko
peri
Th
Blu
prosla
galerija
##tara
udruga
eksplo
##isti
130
egi
fon
majke
*
Ant
stat
nepri
operacije
##raj
##pske
Mogu
igrati
##metar
Konstanti
##lnika
##nijom
djeca
mlađi
Yu
hokeja
##srp
##bori
##14
##ek
Opera
nepro
manjih
svojem
##mera
gol
krug
raza
##zz
Ken
##stavljanje
Srbija
pristupa
##pular
uklo
impresioni
age
Večer
takve
1935
dodi
najpo
Zajedno
##Bi
##lec
##nau
ulozi
većih
Unu
bal
##ameri
pruga
prigo
važne
praizvedbe
Rock
doigra
##lci
dizaj
zanim
Organi
klinika
riječima
slikarstva
##liga
potpo
snimanja
Koso
sredine
##leti
most
Osijek
oznaka
##ring
##sada
afri
pokušao
slovenskoj
ostaci
Velikog
godišnji
najbolju
##tions
SD
##logu
sho
prijevod
libe
malih
važno
tehnologije
##ER
##ov
##žak
bitka
tisuć
Croatia
pokazao
##ia
pojedinih
donio
izgrađen
##ženih
Billbo
##posla
pjesnik
značajne
kupu
bosansko
ideje
jezgre
važan
oslobađa
obr
Nove
fanta
lansi
##šavanje
oženio
Drago
usp
Bosna
prešao
službi
cijelom
osnovali
elektroma
Dre
vojnih
otkriva
pogotovo
engleskom
školovani
##sia
Ea
SR
##tinj
izba
kćeri
izraža
princi
politiku
1913
tehničke
kanala
razlike
##nita
##bljen
##ralni
sredini
##ing
Indijanci
najprije
Amerika
arhitekture
ploče
Rusiji
značenje
iskori
74
##desetak
elektra
stanovnici
##logy
##pala
##torima
angažman
pokušava
88
novca
Često
izdaje
helikop
koristili
naše
intervju
174
##ration
pristu
kontinu
kvalifika
spomenika
##slov
njihovog
takoz
termo
Jur
1951
barem
dobar
postavljen
osvoje
##žnju
dozvo
inače
profi
uprave
osoblju
srednjem
lede
odliko
169
Tru
htio
##kovića
rasta
shvaća
spomenik
##grani
zavje
Splita
osman
navodno
1931
cijelu
Ferdina
Medicina
##komo
##cira
vanjskih
ljestvice
##ney
otpora
istu
Bugar
Yorku
spoje
državni
seo
logi
obalu
##ndri
Hol
fro
##mato
intelek
odbio
Pokémon
##lesu
1933
Proje
malim
neobi
Christi
biljaka
izvorima
biljke
rano
najboljeg
rezer
apsolu
internetskih
##ón
bre
vlastite
glave
izradu
##ljivosti
pape
Barce
Chica
kraji
Stjepana
zapadnoj
1900
1924
1925
vijeku
##hr
##vačke
prijenos
##znu
82
imale
ulica
preime
##gnuta
Marka
onaj
topo
Ugarske
gimnaziju
službeni
##ffi
West
opse
dijele
vojsci
##qua
Cal
Mac
uzgo
natje
##medicinske
##sili
pjevač
rijeku
mati
68
##dent
tlo
Odlu
označa
vjenča
daju
##stavljen
protivni
##loj
prosti
##pski
##rkos
konzerva
NO
Rezu
Zato
ratni
bošnja
interne
postiže
##gledu
osnovne
doživlja
##žem
by
##mskog
stroj
društvu
kompozi
reći
plasi
##nički
kampa
scene
selja
Osijeku
ota
Madri
unije
Mün
hit
Frie
vrši
dovelo
##72
59
dvaju
nadzor
##čvr
vjere
##šteno
metoda
poslao
podgrana
##seu
podvr
Arheo
južne
Napisani
smanjuje
##vy
##danja
medicinari
nemedicinske
##35
reflek
skladbe
Aleksandar
provincije
Domovinskog
povjesničar
##jke
##rječ
glavnim
narodne
izrazito
Dalmacija
obranu
##mentu
vijeka
nogometnog
166
okruga
djelima
King
datira
pacije
Carstvo
revoluciona
Ljublja
inozemstvu
##las
##way
Lei
Sport
##ranj
##loškim
##bne
##ram
##stin
fol
odluči
električni
jaja
Pavao
Jor
gore
##pisivanja
udara
Japanu
opće
Bibli
##donače
oprem
posjeti
Azije
našao
Karlova
stranici
Istre
testi
Ei
čvrsto
živjelo
##dnice
poza
Predsjednik
Lea
razine
filmovima
koncertne
##tali
Obu
##tacija
njihovom
##leu
upravi
planeta
1932
molit
nazvao
poznatog
Kori
Rea
Dubra
snimio
98
Doma
dotada
doživje
Hrvatima
francuske
stroja
narudžbe
78
##lovanja
protje
duljine
njihovi
Australiji
UE
slje
##ky
britanski
05
čeka
dobri
četvrt
Mir
##šisti
1922
savezni
aposto
domini
sličan
Rezulta
sposobnosti
164
mreža
pronaći
restauracije
sukob
izvorno
##vska
rekla
otvori
ostatak
krajevima
##BiH
zatra
bubnja
155
poka
plasti
postojala
preporu
##zine
700
Glo
kvar
Velikoj
sigurnosti
##dala
Dubrovniku
##ntro
##racije
premda
##hercegova
##tivi
Stro
kompone
##AN
Cre
građana
nastupao
Sjevernoj
baš
Države
debitirao
140
izradi
Narodne
povezuje
##wor
povećava
pridružio
##nts
Fal
Gradi
funkcija
##ruzale
bolest
##lista
objave
glumica
moderni
##deći
##pen
##sad
##reti
uma
##namje
Saveza
Srpske
poraza
prevlada
optere
akademije
##gs
09
Fla
večeri
National
izgradnju
Nogo
kamena
Zi
kanad
svrhe
razmišlja
##cara
proljeće
##wan
bodova
##HL
širom
##šević
kapi
mjesec
počinju
kategoriji
Cam
bira
stoji
Mađa
pokazuju
Top
##danje
sadrže
elementima
novinstvom
##dugo
Šta
Zvoni
ističe
okolici
same
Dvije
krimina
##plje
Male
angaži
##vijet
brzinu
##čuju
nastajala
##bna
67
htje
##novića
droga
promo
##terpo
History
osvajanja
##neu
Ove
Pože
Rodio
sliku
zatvora
Pot
##žnice
neuspje
pohađao
proizvode
doče
Vlade
širine
patrijar
Svjetskom
##am
Petri
grupi
vatre
Država
uspored
Bli
zastupnika
Ty
##lisa
##vaj
Ph
mornari
Far
svjetlost
turniru
Love
Potom
kazališta
##giju
UEFA
##sur
Zu
podacima
njemačkom
progo
učinak
08
##žnim
##loškog
troško
prijatelja
Kup
zemljopisne
##njača
Živo
studiju
##kuju
Roma
biblio
izbaci
korpusa
pije
odbor
glazbenim
156
##vanđe
predmet
##wood
##ranjem
Donji
Igrao
mleta
aviona
jedana
redovito
industrije
##vodu
Tuđ
##lističke
istraživanje
ese
krenuo
odluka
Neu
postupno
Em
Antun
zrake
##ista
##roka
Arme
vojnu
naročito
mreže
nomina
##žnih
Kame
from
teče
ljeta
Charles
##ljan
Son
odred
podsku
Bez
1923
Rusije
razlog
razliko
Mal
##lizacija
##rit
masi
nemogu
##sve
Med
tki
Marti
zasje
umjetničke
1927
popri
Herceg
subjekata
zapovjednikom
##tena
172
##laskom
ubijen
koordina
srednjeg
informacije
##lera
Cou
ovla
zausta
Thi
podršku
događaj
rezerva
##nijeg
bana
##ngu
odluku
##nc
stabi
objasni
##ller
signa
automobila
žele
##rostra
metode
većini
politička
izgradnje
dug
##deri
149
##vskog
Lau
##fenzi
1911
došla
zagrija
Gil
Sci
hva
relje
humani
otvorena
##dba
##gda
##zaciju
Dalmaciji
glago
kompila
državlja
ulaz
Bjelo
Santa
grupu
natrag
Tar
Jedno
##ctor
##non
nadmor
postalo
funkcije
##fan
kora
##dnicima
Cije
Kini
baza
radija
##ea
##cean
Habs
drago
slavo
slučajevima
Pariz
Gornji
spominju
sredstva
##vito
ondje
Otac
sino
Grand
##vid
Ai
sk
##vodom
snagama
##roni
radika
građevine
usa
Diplo
Riječ
multi
postroje
računala
zad
##supro
uhva
HA
##mska
Kona
filmski
značajan
neposredno
##http
##mine
aktivi
određuje
kraljevstva
Nada
Najbo
dobra
zračenje
proizvodnji
##šene
tad
ov
##luju
Sunce
kerami
Početci
okolnosti
pol
##šlja
real
odvaja
sljedećih
##ua
1908
Patri
naselju
suradnju
pokrajina
##CA
činjenica
##36
##ralna
zadu
želio
preosta
stadion
##ise
likova
čaro
ptice
eu
uspjela
talijanske
raspuštanja
##teka
Tamo
podno
American
##sić
Cen
##pisuju
vjetra
##braja
prob
gradovi
trenutačno
##ljenost
##SK
##ktivni
posebne
Engleskoj
Oli
##stara
##vnice
kulturne
Slavonije
##rup
##novu
samoupra
##tkih
guver
Slovenija
biskupije
veleposla
diplomirao
Kel
des
bolji
likovni
spadaju
Epi
##tički
rato
utvrde
69
##ntna
##žnog
1905
nepra
kći
##đenim
Vrho
budi
izdao
teni
sjeća
sabora
studirao
nacionalnih
kemičari
##32
##nel
Eliza
velikoj
osnivanje
Del
Gali
79
87
Oto
Johan
brzinom
##moni
Isus
kopne
crkveni
##risa
tlu
poni
Karla
drama
vrstu
podmor
strukture
finala
periodu
opro
rječ
SFRJ
ribo
objavili
naslijedio
profesionalni
##usa
##spla
Gal
kruga
##clo
##dozem
kontroli
##via
izuzetno
Tuzla
mira
vite
Područ
izgled
prevodi
sekundi
eks
Đako
pedago
stožera
tajnika
posljednjih
##biji
sulta
odstupa
vojnici
žrtve
sestra
tržištu
##dena
bru
Thomas
grč
niže
Sastav
##bia
06
Ul
##stih
Izvor
110
77
histo
prome
generacije
##đenjem
proteže
vlastitu
manjim
dodatno
##34
##bir
##gena
##burgu
ato
Cari
Park
uzgaja
povijesne
##nste
##tskoj
Plani
turnir
Regi
kino
nastavak
##tama
Saint
Nikole
francuskog
##znog
nes
poljoprivred
##znih
Parti
Proiz
većine
arheološki
##tuje
##vare
Ras
Tim
Miho
prio
stupanj
informacija
nosio
zabora
jednostav
159
boli
##tković
Nijemci
ugovora
tehnolozi
filozofije
naseljenosti
##IS
07
##king
jesu
04
Henry
Kralj
grija
otocima
##pini
Gua
ovoga
##svim
##zova
obrazovanje
Mr
##telju
zare
##ljke
##toni
##štenje
Vlada
ceste
skija
Sveto
bavio
objekte
dvadeset
polovice
##nec
146
Sama
Stre
sjedištem
##ralo
##tnja
Etio
neiz
94
pan
loše
rođa
Novog
kapita
Kazali
prijestolje
Komu
##vljenja
Elizabe
alterna
redatelja
##dbu
Boži
njemačkih
sudjelovali
Maria
bitno
vladao
fantasti
Jako
vide
Kopri
odvje
bombardi
Max
pare
rast
stoljeće
književnik
ote
ubo
##zirana
97
Bea
niza
Barba
četni
znanstveno
sc
uzor
triju
susreta
pojavila
Španjolskoj
as
##stina
koristeći
ruku
Mostar
odluke
takvih
##dolf
Ac
##pela
Svaki
Trenu
prate
žesto
##stavljena
##plom
##šnih
volu
Gospi
oboje
domaće
Stanovništvo
##biju
jača
Mario
Music
domova
ostavlja
Neret
kvadra
XX
##III
##stica
vojna
ratnih
Jeruzale
##ralno
ulja
vrtovi
profesora
##ming
##nicom
Real
renesan
sporazum
igri
rezultatom
##MK
osnu
zalju
Južnoj
kompanija
Wel
kal
izdan
stadio
Predsjedni
##blo
##zijski
prepo
##tati
##landa
proš
Zatim
jugoistočno
##tskim
##činom
France
potporu
povratak
karakteri
globa
nekad
gradom
ph
aero
Dobro
Skup
stvaraju
nakna
njenog
napisana
Dne
##likom
##tijeva
utvrda
glavnom
##tnice
ubio
##tivnom
Ministarstvo
##njska
gravita
njezine
tjedana
vrijedi
jezicima
##ür
##rer
vlasništvu
Austriji
Sveučilište
pretpostavlja
oka
##pović
Produ
##tip
Sun
alba
##kvo
##zmom
počelo
presje
student
zovu
potak
vratila
reprezentati
##lor
89
##suprot
poslove
##ATO
misi
Stran
topni
činili
##án
##binu
##formati
Jadra
poziv
granici
##cher
razd
akcije
##bel
Ivica
ubrza
Član
promjera
Autor
listu
održao
promak
dogodilo
03
##štinu
done
prirodi
uspijeva
##tran
162
takva
doprinos
prilično
mužja
pretežno
sobom
putovanja
Lor
##vorom
##šteni
ljepo
Berlinu
Veći
feno
iran
križ
titulu
granicu
pjesmom
med
Kolum
temperaturi
##ziti
##kava
145
indija
##tea
povremeno
ada
##šoj
Day
May
stvorio
##ras
##šice
##mente
Stri
akcija
uzrokova
najuspješ
Tere
ratova
prikazan
rimokatoli
##grama
obavje
odbaci
natjecanju
At
##vljene
njena
sestre
podatke
mornarice
naseljenim
njem
Gašenja
Vukovar
ostvari
sloj
Istar
pogon
predstavnik
##veza
otpu
##struktu
djetinj
Sljedeće
pokazala
veličina
Gora
treni
##ath
Premda
vlastiti
##leon
Zemlja
seriju
ravnote
zahtjev
režirao
##maca
skladi
zračne
CO
valja
novije
reakcija
sjevernom
##boja
Kolo
korist
cijelog
##mil
rep
san
uzdi
zvuk
##vedeni
Naziv
kapetan
snimanje
##maj
morali
##nen
Der
##stovi
nitko
njene
prekida
kazalište
prethodno
##ugh
##nema
1926
##šković
zlato
uporabu
bioloških
##rar
Sar
sluša
##cijskim
južnom
djelovao
struktura
##win
##gala
Ple
oblje
ogrom
zločina
##mus
osnovu
kul
rođena
##vidu
prim
astronom
inovacija
##done
##taciju
obliž
stigao
har
britanske
##sove
##sten
Scho
##jača
##đivanja
održavanja
165
Jane
prave
putni
orijenta
##mac
154
ane
bijele
emigra
lokalne
prodaju
proizvodnjom
šo
Ure
Kanadi
Andrija
Slikarstvo
HK
##rusa
gar
neutra
leksikon
##para
vru
#
id
isu
Njegovo
##ngo
##reo
teške
##cker
let
sasvim
##gr
##vinom
##rijski
kontek
neutro
svojeg
potrebna
##sal
##pise
Hrvoje
biskupi
nacisti
Obuhvaća
02
Asi
kanal
zahtije
preselio
##rizo
##rnim
toka
jednad
ostati
Vrh
moč
pole
svetog
roditelji
središnje
##spekti
brazi
Muslima
##iro
##menu
##ntne
europske
važni
dvorac
##rsko
##žuju
uto
Gale
zabio
austra
festivala
neovisnost
##seksual
Christo
Britaniji
Cel
NATO
proz
doživio
publici
plin
slože
dinami
povezan
zahtijeva
Urug
škol
doveo
armija
Mostaru
jednaka
publika
HRT
Dugo
turnira
svjetskih
##afri
uspore
ponavlja
prijevoz
slobodno
##šak
##rskih
dovr
krea
otvoren
promica
razumije
LZ
vizu
glavno
As
Sou
kano
Green
novča
Subotica
interpre
Španjolske
tokom
ljudske
Sjeverne
##sea
##šica
hor
dala
pogu
##govora
stambe
pravilu
pojavlji
scenarij
##gić
SI
Fen
##šavanja
Knjiga
##die
neku
zavi
dalji
Bob
istoj
traže
Slovenije
održavanje
sveučilište
Chan
infe
Južno
dali
koali
pogodak
##muli
##povima
probleme
slučajeva
Austrija
gradonače
uro
##larne
##rtava
zače
Rio
skokova
Billboard
ano
niži
Atlanti
različita
sjeverozapadno
Sici
##šavaju
##lian
Izrael
udruge
125
##đenog
Kupa
##loškom
Kultu
krajo
visina
industriji
nacionalnog
>
##diji
razvi
visok
navode
procesu
sposobnost
ur
pritom
Rimskog
##pp
##pola
Južne
odakle
produce
avio
Oscara
Turaka
međusob
policije
##ence
Dinamo
astrono
korisni
tisućljeća
##tela
##loško
1906
##nijeti
Nasta
marke
prijedlog
Hrvatskoga
unutrašnjosti
Cho
uzroko
slobodu
##Ethnologue
skladatelj
njime
##ges
Sea
Nema
##vedene
spozna
molekula
ujedi
direktor
glazbalo
narodnog
otpo
mješa
visokim
ispi
podsjeća
Lov
bes
etno
vijesti
##dica
Premi
vidio
galakti
povezana
##gnuti
vaterpo
##pus
##stak
glavu
gnije
najra
Bernar
Socija
dolini
povezi
##grafiju
zaštiti
zajednički
KP
##nilo
##rsku
Roy
##lesti
vladi
radnika
sadržaja
šum
Bogo
bici
vatro
Naselje
djelatnost
##rku
ofenzi
osnovna
automobil
velikosrp
emo
imu
kraljica
zapadnom
Gol
Hit
mađarski
##lene
Wol
barok
rimske
slične
##doča
Mike
Spri
okrugu
osobno
popisa
obožava
određeni
Ono
propu
drvo
##federa
##matski
prepu
##sel
##wal
Ah
##rnog
##vojio
Domi
nazo
konji
uslijed
Tour
prikuplja
Adam
Otok
kontinui
latinski
##RA
##ans
Matija
partne
rimski
kulturni
odrediti
podijeljena
održan
##cto
Obra
prora
zadatak
sredstvo
obrazovanja
##IN
##nogu
stara
Dalmati
##sche
pokraj
koncerte
uzrokuje
##ben
Nad
##vodnja
učitelj
##dd
##cle
Svoj
Vrlo
with
poraz
srednju
Željezni
statistiku
međunarodne
##remo
vrsti
Glavna
epizode
geograf
spajanje
sjeveroistočno
##lnost
Puli
igru
osve
##sina
tržište
Jugoslave
nadmorske
vio
##žnica
nadi
tajnik
##zika
Pobje
opora
uživo
Ostali
previše
##sin
obnovi
fazi
papira
##bour
znanost
upravljanje
##pili
Dobi
turneje
željeza
##čicu
##žaba
brda
navi
Sjedi
predstavnika
157
postojanje
##ntni
ministra
organizaciji
Rimljani
talijanskog
Branko
dobije
General
FC
Mos
glavnu
##ljep
##pedia
izla
plesa
preve
simboli
##tičke
1903
https
trenera
Sing
Vite
romanti
Slobodna
##cr
##pove
najvećim
Povijesni
Posljednji
##mid
Malo
svaku
interesa
katastro
Crna
Zahva
dovesti
Sjedinjenim
SK
##lište
Dia
zva
##ranog
##elektrana
postojanja
##seudo
islam
konve
primio
prijelaz
##kara
LZMK
odsje
stiho
igraju
izbija
rješenje
##larni
##produ
produci
reakcije
upotrebljava
##lde
naji
rabi
mosta
rezultate
##stora
leta
Goran
mlije
jednak
aktivno
tadašnje
##cht
vina
planu
slavi
ostavio
trgovine
##pić
Mel
solo
##rovima
mlađe
upozo
nacionalna
instrumenta
##hor
##tsu
##licu
tvore
vojno
period
elementi
##novac
Juraj
bugar
članom
postane
slikarskih
1907
konden
skupno
Prvu
suve
proče
zašto
##dski
Hot
care
Times
boles
priho
titra
minima
nezado
poseban
svu
smatrali
##čilo
presti
bave
dikta
prodaje
##peri
trop
travi
moderne
##lei
##tsku
kut
tan
##tiona
ioni
nazvana
živjeti
konferencije
edu
##panja
jesen
čimbe
pretpostav
##rona
Luke
peći
srca
biolozi
##vel
##šnog
##hrvat
Pier
Isusa
prikaz
borbama
brigada
cijeloj
povratka
##ros
Poko
Austrije
registri
Mosk
Alexan
ističu
objašnja
istodobno
93
Lije
modu
zatvor
Fire
subo
izrael
##lovu
Gon
pouzda
snažno
čelika
Filozofskom
##vršio
eksplozi
poduzeća
##leni
##vost
sub
emiti
održavaju
##žje
seli
##rijama
američkoj
europskim
graditelj
##cku
..
...
centi
Srebre
igrači
kamen
Dri
##urnal
Hajduk
operacija
Tem
mili
ruše
većeg
nena
osnovni
plinova
158
uveo
Održa
Europu
ubojstva
Miche
duboko
medalju
##tore
##strom
Večernji
elemente
HNK
palača
podrazu
zaljeva
##hua
duge
Rijeke
tehnike
spu
deko
pjesmi
predvo
filmskih
voditelj
##ult
##stupan
dvori
odlaska
vjeruje
izložaba
##toru
Fro
Državama
preimenova
##fra
gov
Mladen
internetu
prihvatio
francuskom
##EN
##cie
##gana
spoj
##organi
žrtava
rimskog
##ET
jug
tale
dubrova
teže
privu
učili
visoka
vlašću
svjetska
elektromagnet
Glu
traj
tijelu
autonom
političkog
##uli
nafte
biljka
uvelike
nama
rasko
Demokra
##zirani
Zanim
opskr
##landu
venti
##ltar
Smje
gitara
pretvori
stadionu
Božje
ulici
United
MiG
Pripada
gradove
izgubila
javljaju
##tono
##tsko
Pho
pad
stvarala
Ore
zlata
izbjega
zoolozi
redovnih
botaničari
provinciji
144
pera
proči
putnika
posjeduje
Bara
Neza
baru
##isa
Ray
svome
Mađarske
znanstveni
Edu
otro
Bosnu
Kristo
poginuo
društvene
##ons
plat
nedje
prefe
105
##ravno
##čenjem
uspije
Antonio
rođenja
Plan
korištenja
##IA
##čnici
##ljenim
makedo
hrv
##lišta
Luci
Mary
posvetio
##cko
kože
skuplja
engleskog
##gera
Lar
online
##redo
Live
Živi
Istri
Pavla
##konstru
Glas
dobre
Sjedište
muškaraca
sagrađena
##era
Lud
Rima
čuva
povelje
povjere
radijskih
##žom
##voljan
slobode
##zga
ušla
Međunarodni
83
##komu
##slave
##bljeni
Monar
komple
održana
predaje
sporazuma
zamijenio
##vjerojatnije
##nto
nebo
Svaka
Unutar
element
posvećena
##alni
Mou
Jame
opsa
labora
Fakulte
posebnim
##gel
##reta
Kir
nadle
utrke
uklanja
referenduma
Eko
bit
legi
##tner
folklo
gledatelja
##jić
##sey
ika
Stru
diplomat
dimenzija
premijera
##stana
trupa
uvjete
divizija
neprijatelja
orgu
##lijeva
vojnog
ostalog
najboljim
It
##ranim
Mato
figu
Colle
##čanstvo
najmla
rješenja
##miru
Cer
morala
umjetno
kiseline
glazbalima
Sku
naba
Dragu
visoki
167
##lizaciju
##žina
Vra
soft
##ralnog
##ziraju
neuro
autono
Italiju
natječe
##đimu
Ide
Mau
obrade
palače
postaji
##hla
Fon
asp
FIFA
mladu
inačice
##bala
1909
Brani
osnov
Obitelj
cjelokup
klasifici
izre
napredo
politika
##krca
124
Aga
##burga
##europ
Đuro
župi
Zakon
sadržaj
148
najo
##MS
##stoća
knez
finale
proizvođača
##tten
##kovac
##ntski
##stanu
isporu
kombini
srpskih
programu
promaknut
Kö
##noda
Rat
pao
umire
uzrok
trajala
Maksi
##vači
##tisak
gitare
##ngi
japa
pokušaj
boži
peti
##ova
Zaje
krva
Gornja
Područje
Svjetsko
Federacija
##tivu
kuć
kneza
parka
kazalištu
prirodnih
##brao
##view
deblji
perioda
Politika
##UD
Sna
##lasti
jugozapadno
Mlado
tabli
Hrvate
civila
Željko
gradske
važnosti
ljestvica
##gur
##tiku
njom
puca
atmosfere
##formi
najdu
pogled
obnašao
##fta
Mark
inteli
učinio
izložbe
opasnost
prometni
iko
vege
##slovno
Johna
1878
najviši
opasnosti
povijesnih
##HS
##crta
dis
vita
Pokre
zakoni
##mm
Mariji
radove
impresionista
##rida
bivšeg
depart
godišnja
##kija
liječenje
dođe
rodnom
##df
$
01
##ball
zona
Turci
pripoje
funkciju
Svo
hard
##cijskom
četvor
spektra
nadbiskup
##djel
Kraljevstvo
##vce
najbli
##gove
hero
rukama
valova
dobivaju
##vit
Širo
Enter
objekt
vojnim
Budimpe
direktno
određena
polufina
kontrover
političkim
zapovjedništvom
primor
mandata
osnivača
Dubrovnika
scenaristi
##tao
Im
##sena
kipar
onima
služba
suprot
Židova
srpskog
prijatelji
poh
glazbi
desetak
ć
##šča
##gene
Rad
##čenih
cilje
rodio
izašao
nepreki
##mene
blag
federa
napraviti
Najpoznatiji
##cena
Beč
Muzej
crije
rekor
Rusija
postići
projektu
HSS
okon
Filip
ultra
promovi
njihovoj
istaknuti
##pča
Mora
##bridge
junior
##cyclo
župani
ex
##vići
braće
zavari
upoznao
objašnje
##pha
##sky
troku
komenta
nedaleko
stranicama
##sus
##nijem
Fede
debi
##hoslova
Njegovi
##ppi
Edi
##dnikom
braka
gustoća
Kni
modi
hrani
pomaže
religi
pomogao
##vil
##lora
kiru
ozlje
režima
##vis
##enale
zrca
osnovnu
Kraljevstva
diskografska
eura
staze
divlji
‘
##zon
bas
nizu
Video
potpredsje
cvje
Mirko
glava
univer
sat
obzir
navesti
mišljenje
poklo
publike
134
duši
##ljenog
pokro
sunče
izvješta
književnika
fosi
podaci
institucija
Lit
php
boža
Grčke
trebali
poluotoka
##ćeva
McC
Mle
##čanstva
Joseph
gibanje
točnije
istočnom
nasljednik
##NO
Vrije
Benedi
tadašnji
potpisuje
djelovanjem
Zahvaljujući
##tam
##ream
Kašte
reagi
socio
dopušta
vlasnik
melo
ugled
milijun
upotrije
podrazumije
##37
##kani
##vrije
##ljenju
##roviti
pute
Križe
stakle
međunarodni
##ata
##nic
Papi
zadržao
filmskom
reprezentativac
##lana
##mond
135
Gio
brak
##gnosti
ubiti
pravcu
Ox
pisma
čeli
bienale
Školska
Španjolska
##vosti
ideju
oblici
športa
nastale
Festival
porijeklo
roditelja
pripadnosti
sjeverozapad
najpoznatijih
##loni
vas
sjaj
studenata
##kso
##dimak
luku
spor
svirao
Kazalište
vaku
Kraljevstvu
##zolu
Kreši
teoriji
povijesno
##lej
##torij
VIII
Bitka
lakše
predo
otvoreno
određenim
omogućava
premijere
najvažnijih
106
Neo
hram
Gvine
cesto
##38
##day
109
portal
##ik
##resi
maga
odlučili
Washington
##bit
##gia
##tos
##fija
Zim
Jeff
okrug
obrani
bojištu
studije
Njemačku
Hum
vrha
##ralnih
treća
katolika
##ćev
ekva
Otkri
istok
logor
##bovi
##rskom
sreb
mogle
Karlov
individu
prirodni
sudjeluju
zapovijedao
##mb
filmovi
naslovom
obnaša
ustanak
##mić
##gora
Dou
Dole
##intere
istim
prezime
Sau
Nico
##gorija
integra
posljednja
meteorologijom
zapovjedništvo
eli
doline
negdje
##ŠK
Alf
popla
centru
##nističke
ekspedi
1904
leža
grije
pravu
Spring
##zen
Il
Cra
##žavaju
groblju
intelektual
##lgi
##znom
##tetom
Maro
Donja
izvedbe
Sarajeva
nacionalnoj
##fti
##šenju
rezi
Najčešće
budućnosti
##zy
##ntan
1848
Karl
baviti
razvila
feuda
skupinama
ab
Mile
foku
ulice
prosječno
nare
koloni
priliku
količinu
odlaze
duljina
katolički
Hy
Reda
poža
srce
prolaz
sakuplja
##ken
kiselina
tal
##losti
reci
Angeles
filmske
iskustva
priznanje
pronađeni
val
Kari
##govima
Srpska
akademiji
primjenjuje
Ade
omla
sara
egipa
nogome
integri
Ethnologue
##znim
##gradnja
utječe
osnovano
knjižnica
Napu
Soko
gole
hodoča
nastalo
fotografija
##bica
##gati
##goni
grčke
kreću
kritičar
nogometne
##klada
##vrata
bića
drže
pruge
Sastoji
znameni
postignu
Slo
Stone
Drugom
Uskoro
oksida
kulturi
gitarist
najstarijih
##diju
##toku
Hill
Marin
proba
##torirao
predviđa
promijenio
Imao
radila
138
Osje
Poli
temu
Zadra
pohva
##grafiji
odabra
uzasto
građevi
pobjedi
##varu
Dom
Ska
##grade
posade
prehra
nalazimo
ponašanje
središnjem
##strem
lokomo
zapisa
potreba
geometri
Federacije
Hercegovina
električnog
natjecanjima
132
ske
##interesi
ostvaruje
sigurnost
##rti
##janje
faze
postrojbi
sredstava
Up
900
malom
procije
važnost
##ão
Gun
##rijom
grof
Louis
Trenutno
##zori
debita
nadmorskoj
populacije
popularnost
Nobe
Žene
svira
osuđen
##fikacija
svećeni
Engleske
Jupi
aktu
Prosje
isprva
##fur
##gović
Balka
oprav
osigura
kvalitete
BD
Joe
Smith
načinu
gubitak
Europskom
pjevačica
Ministarstva
##žnji
##listički
partije
pokrenuo
pozornost
međunarodnih
ist
Lati
Gospe
strada
Znanstve
mobi
zone
glumca
prostorima
rasprostra
##malj
pretra
vodstvo
samouboj
gospodarstva
##sica
Sim
pdf
Inte
usko
##ljenom
plije
##bilnost
Površi
prince
pitanju
imenovao
##39
##šili
und
duže
Ondje
izjedna
Aleksandra
suz
Pret
takti
Armije
Ža
Klu
Moder
investi
##ters
bakte
polica
pobjeći
katoličke
povećanje
međunarodnim
##uts
##tkim
##lling
Pen
##štene
detalj
oceana
prilika
filozofiju
##šom
##čići
##vskom
jese
Dobri
index
##godišnjeg
Zdra
Island
jeziko
Sredozem
olak
svakoj
konfere
starosti
koristila
Gan
Mia
ulje
##laganje
##čavanje
govora
modeli
zauzeo
konstant
nago
predje
razreda
Stranica
##jice
Big
##tcima
noge
prevo
odlučuje
139
norve
##ševi
nudi
Polja
##gencije
teritoriju
fotografije
fede
čišće
Najsta
Natjeca
krajeva
pogodaka
povratku
HNL
Jen
##pisom
Iran
misije
Madonna
okupacije
Den
Hra
Lige
pozvao
prednost
gospodarski
Rusi
pišto
dokazi
drveta
nosača
Elektro
pogleda
humanitar
##ZU
Božić
pobjednik
gostu
crne
faza
##njenje
ispla
sakra
teoriju
potvrdio
##nošću
##kcijom
Stadi
vojvoda
##mou
meksi
zakonske
predstavni
##MA
##rich
Hil
Crve
##nijela
litur
susret
znanje
najvjerojatnije
zas
Gala
prav
menad
ubili
Kongre
Vijeća
narodu
praksi
prikla
122
Primor
terenu
pjesmama
##TP
##elu
##kvih
##mirala
kneže
Daniel
diploma
parlament
kraljevstvo
mađ
duše
dokaz
sustavom
##žju
House
stopa
ljudskih
AS
Maru
star
očito
poste
stijena
tiskane
##bal
##ses
##rića
##čeva
##vskoj
znao
događaje
nominiran
službenim
tradicionalno
Rod
##ktori
klubovi
##ratio
utrka
Dubrova
glazbenik
suvremene
North
ulaze
##laganja
posjetio
preminuo
ubojstvo
##ele
##ffa
##gina
grb
1880
Pore
uzdu
##saurus
narječ
narodi
saveznoj
MW
Kle
Publi
zraku
rukopisu
spomenuti
stvaranju
##zuju
diri
zastava
orijenti
##pje
##rid
##mara
Metal
senior
##tetu
##tnje
##žnom
Som
##lnicu
ples
Klasi
sprje
stila
izračuna
##piju
Ear
logora
govorio
Francusku
j
hranu
uglaz
parkovi
učenika
političku
dete
Virgi
Manche
##pul
61
##kula
##well
##đivali
češće
atenta
bijeli
tenkova
zale
fotograf
aktivnost
sudjelovala
##rstva
Marga
najja
radili
rodila
##godišnja
visokih
dvanaest
elementa
poziciju
##fil
Ander
pučka
##gradnje
Meksiku
američkom
talijanskom
##up
##dnike
##šilja
1890
Crnoj
obita
##vijesti
izasla
Gospodar
<
Cru
rado
primi
gorivo
kalenda
##čaja
Pin
ugle
bliza
Izbori
Najvaž
statuti
korišten
policija
suradnik
današnjih
izdavanje
predstavnici
Čo
ribe
dioksi
Društvo
zajednici
##ID
##sara
sen
##ljenu
avion
tvrde
arhitekt
električna
##žnu
ću
omje
##stički
resur
##vencije
turske
učenja
potječu
##yan
eta
reče
##ncijom
kasno
otoci
ustanka
obnavlja
blu
kot
uže
1500
infra
Umjesto
Zvonimir
izvođača
kraljice
Boo
vođe
važnu
dizajn
izvode
Subotici
molekule
orkestar
##rnu
##jani
omi
##zijom
##đivati
kritičara
##baj
##šnim
isho
odba
podupi
legendar
##hana
##mskih
teksta
##sy
##ravni
Posa
juna
81
DNK
Mati
članaka
tradicije
##bon
Ker
bijela
zbirka
primjenu
qu
Gold
uzeo
##socija
Glazbe
smjera
sekundar
Jim
boravka
časnika
##31
##traj
zid
##cijsko
švica
kemije
posjed
prevla
široko
##tička
Hitle
slovo
spored
izdvaja
##rence
stupa
sporta
vješti
brodovi
kontakt
pam
info
ženu
Encyclo
kronike
stotina
porijekla
Isa
Samu
Roger
sceni
##govarao
Indiji
Napisao
Cy
viši
Kosta
gradnju
odstupanje
Časo
Upravo
smjene
zatvoru
izgubili
##LA
Obično
privreme
zakonici
##foni
##skopa
Ener
borba
Četvr
Društva
##mis
Ol
##mble
Digi
Sada
ženi
Svjetskog
nasljednika
##dice
Cri
dla
line
utrci
stupnja
pokušaja
kulturnog
##zovi
bub
braća
kisika
situacija
##art
##lca
##šina
Goo
Ron
Mara
Muha
izlu
##terije
Provi
rekonstru
##ghe
beo
slična
proširenja
##indu
102
##nijeli
europski
1895
News
Grčkoj
vremensko
arheologije
luba
##dinama
nastali
britanskog
društvenih
##zza
Klo
Maga
Dvora
Gabri
nerije
romanu
carstvo
funkcioni
đa
108
geno
##stičke
korak
lokali
kulturnih
##pur
##dava
reme
ekipa
tenka
tvrdo
Državni
prirodne
##sce
Bat
omo
orbi
javne
Zbor
hidra
raspr
gimnazije
##AF
91
Ur
Usp
##pisni
Abra
Club
stav
ćemo
##ssocia
##cionalni
mnoštvo
časopisu
##hen
##mni
pas
prvobi
upisao
navrata
kompleks
Mona
##zirane
White
naglo
pioni
zadar
računar
napustiti
Ujedinjenom
É
##teh
Ek
rudar
državna
posebna
prosjeku
sudjelovanje
##dis
BBC
##ćenih
Teme
udala
Njihov
neovisnosti
NHL
opada
tranzi
kompanije
ravnatelj
ger
pošta
Međimu
likovi
filmove
izvanred
##NS
Smo
##novog
baski
provje
onemogu
Sredinom
građanskog
odgovaraju
##sora
1902
Hero
peto
rane
gosto
##tent
Čak
Boris
počini
dvorski
njemačkim
##sz
Moj
cili
##žnosti
zaljev
Kala
plas
muzeji
pseudo
Tehnička
lokalnih
alfa
postale
premijer
##pska
107
Indu
Mili
basi
ljubi
##cci
##meo
##zro
tok
Paki
lete
River
sudova
128
karte
klavi
pomak
osnivač
##UP
##čevi
##tarnji
##sljetku
poviše
šumama
liječnik
Meta
cijena
rezultati
##vnije
Pone
Stani
ranih
Poljske
ekstrem
zastupa
nastanka
Gö
##ševa
tisuće
beograd
pogledu
japanski
mjerenja
upotrebljavaju
##nara
Indije
selima
kretanja
nastavila
##IC
##num
umrla
interes
Jugoisto
uspješan
nezadovolj
##vanih
Egipat
drugima
Portugal
rezultata
atra
sudac
Studirao
pojedine
postojao
religija
##dile
fos
pisati
rukomet
skladbi
Švicarskoj
Pano
debe
Treći
tehničkog
Domovinskom
147
Holly
Brazil
odlukom
privremeno
Đur
strogo
Rezultati
##ep
##rad
nape
Roman
držao
napadu
fla
##ranom
Martina
zamjenu
klasične
obilježja
znanstvenici
##top
##pani
Homo
izveo
njezinu
porodici
predložio
##cla
##hur
##sion
euro
spušta
##šče
ang
obala
dobilo
groblje
najpopular
organizirao
##cca
tram
Pošto
Egipta
pobune
uprava
turneju
dinastija
##bova
##čici
sfe
##znica
Inde
Johnny
tražio
kategorije
##ila
lika
preba
istica
dramati
uporabi
atmosferi
Oda
##ganja
brže
##vjezda
temati
turski
upravu
nadimak
Britanije
dob
##pskog
boju
kuku
gramati
manasti
##rei
##rey
bog
##koplo
##rodnoj
##štenja
Slije
ruske
Henrik
zbirke
spomenu
svojevr
arhitekto
India
polako
demonst
inspiri
prostire
različiti
proglašena
##mund
##nome
Cana
Gram
tvrtki
uzastop
prenamje
bod
selek
vapne
uvjeta
kalendar
politici
samostanu
##mori
##jućim
pari
srbi
utje
morske
zrakoplovstva
Ive
hiper
istoka
saboru
verzije
71
##orđe
Kli
crna
dnevno
visokog
ponašanja
115
1896
Manu
kraljeva
srednjoj
##šila
Ustav
ribar
otpada
kan
trbu
Bisku
cijela
misija
pokazi
koncentra
kW
##mbra
Jela
sije
sastoje
Poljskoj
osa
konsta
Viroviti
##hn
Bol
imi
Matt
egzi
cvije
doselje
redovni
pravoslavne
ocean
autoce
komenti
prolaze
proširio
djelovati
##ror
104
114
##ksija
Preko
Svoje
menta
opaža
razina
zainteresi
kazalištima
##sher
##čnik
##selja
1901
špor
južni
volje
obnove
Njihova
vanjske
vojskom
njemačka
članovima
zagrebačkom
Ora
muče
štiti
grčkog
ubraja
uređaj
Boy
Adri
Salo
dono
provo
pobijedila
malog
spisa
čisto
Udruga
bolnici
oslanja
učiniti
zamjena
Prilikom
mjerenje
Ang
javnog
Najveća
republike
činjenice
##jević
Ladi
skre
mnoga
spoji
vanjski
Chu
crvene
muzeju
formalno
razmatra
Uspo
Crkvi
glavi
Spome
Egiptu
ostaju
razinu
##rek
Sur
sveu
Jakov
aplika
izmije
zaradio
##jor
118
nov
zida
glumio
kralju
tekstova
američkim
##wu
##šenjem
netko
onoga
uništa
Associa
Koristi
ugljiko
pobožnost
##vke
tvar
izoli
masli
ranom
planet
šuplji
državnih
milijardi
zastupnik
posljedice
Cilj
Kije
doka
mjera
Ukupno
##godišnje
ozljede
##kola
##kvom
##ljama
udio
novoj
uzoru
zemalj
kineski
postavljena
##nse
bata
Colum
razred
električnu
##pao
##tto
Ye
##ille
##vizije
romani
Chicago
povodom
ugljena
protivnika
##ija
##kor
Jac
##stera
Mada
kugla
mrežu
fizike
jugoistoku
sjeverozapadu
##kala
Maj
banke
Centar
njenom
radnje
institut
strijelac
Čehoslova
dodjeljuje
prepoznatlji
dvje
umije
aranži
završetku
##dore
Sveta
odije
arapski
desetlje
ae
##đenom
Bogu
pirami
dvorana
mladosti
##ara
##ndge
##stem
State
doktora
određeno
rasprava
kapacitet
infrastruktu
Münche
konzer
narodno
zločine
nasuprot
Obje
lica
Bayer
Steve
ideal
Matice
Posebno
Roberta
zauzeli
Članovi
nogometna
komunističke
##idi
##ticu
Aca
Ada
izbori
osjećaj
partner
tradiciju
##ore
trajno
vodila
graniči
školama
zahtjeva
##kau
Jos
toku
##ficije
zadnje
kraljem
raspolo
sjevera
azi
Villa
spolu
August
jedanae
posebnu
propisa
sustavi
udo
##panje
Zapovje
uvođenja
središnjoj
##cou
Bau
šef
Meto
autoh
oltar
skupštine
eksperimenta
prošao
savrše
vlaste
Bjeloru
Trenutačno
##nit
Isp
resto
gradskih
podijeliti
##nela
neća
Zoran
osjetlji
##hama
preu
rodu
predstava
uko
Podra
poginu
uhićen
projekata
umjetnički
##side
Horvat
Friedri
primjene
podijeljen
##rša
voja
cijev
ceremo
oslika
posljednjem
ustano
vrhunac
ljudskog
##ruju
##tenti
jedni
svemu
starom
trećeg
dvojica
stranih
Diplomirao
Nepo
zvao
Donje
Kneže
ora
Vodi
bolesnika
##pher
Pet
##ženim
Savi
oklo
opis
papir
vratar
Journal
tekućine
Švedskoj
oštećenja
##mero
##tivan
Magi
Ukup
vijek
termin
okoliša
trebaju
##gata
##teru
cla
##dniku
bjelo
tekstu
ukupne
javnost
sljedećim
##tini
krsta
čijem
Berlin
izradio
povukao
međunarodna
##arda
##tića
Karo
trofe
Pretpo
prebaci
pretisak
identifici
##zdu
Tay
domu
ekvi
kolu
olta
Mnoge
slici
Giovan
Radnja
identitet
FK
Pisao
krize
odjela
sukobi
izvanre
Kal
trene
Mjesto
ostavku
gospodarstvo
svakako
biskupija
##ía
##gie
129
Coo
dnu
1898
High
Ispo
formu
petna
vulka
mješta
Crnogor
strojeva
##mbi
KK
Of
Sina
##tiraju
Štaje
Promje
načine
trećem
bilježi
dogodio
pobunje
domobran
lokalnim
ustavnih
##čom
##rinu
##volji
croa
liste
šalje
Zlatko
Institut
meteoroloških
##33
OI
Uo
350
##pisac
meha
##cijsku
Nagrada
suradnje
##kovci
1870
Stalji
župnik
podjela
sjemeni
ponajviše
##rma
##đenu
##vjeda
prika
težine
Američki
Mont
Mladi
Najviše
lokalni
kolonije
skupština
tadašnjeg
##tala
otku
Albert
počele
nogometnu
##lskih
izvu
vrtnje
metropo
stvoriti
vlastitim
usi
anđe
kroni
satelita
nastaviti
populacija
međunarodno
Imo
SHS
fizio
smanjenje
postrojenja
##tts
Un
##stern
Free
Vrba
šaho
pisaca
osnutka
europskog
konkurenciji
##FC
##cra
##gin
NS
Way
Igor
Pula
izri
Damir
amater
Gustoća
vlastitom
udaljenost
Jugoslavija
sastavljanje
##ntry
##larna
Rose
##ljivih
Micro
belgi
Fender
odusta
smješta
širenje
kemijske
upotrebi
pitanjima
##dt
ušća
redom
teroristi
stvarnosti
##zara
136
brane
slikara
temelje
ende
kara
košarkaš
##book
Lisa
##formira
##nstvima
igrala
građani
izvedbi
uporabe
osvojiti
jugozapad
##vanu
kromo
Hitler
tjedan
središnji
##EL
##now
##zgo
##jama
##tari
##zove
##ralnim
##žavanje
časnik
odašilja
Law
mijenjaju
##kemi
Web
Hein
desno
Nezavi
dovela
Republiku
##rovo
Jeze
rece
donese
hipote
najpro
poziva
takvim
prijenosa
Kaliforniji
##sine
119
Cur
Zlatni
golova
određen
usporedbi
zadovolja
uk
argu
kono
Sabor
objekta
pjevača
živjela
##kali
Vuk
##vskih
Franko
Istraži
Šibenik
promjenu
Slavoniji
kršćanske
novinskih
mari
Profe
najveću
širenja
##gma
##vat
##xel
##braz
142
Isti
Juan
jazz
koga
zamo
Andro
Parla
apsorbi
sjeverni
Pie
##preme
Komi
dugu
Edward
kasnijim
slovenski
##ant
##piji
Blue
migra
specijalizira
ŽNL
##hrani
##ktura
vene
Povje
Poznat
crkava
kapela
kratke
minuti
zastave
pokazalo
Cambridge
##ople
news
povr
počne
Europa
zanema
prouzro
##šine
Clar
spro
Jedini
obuhva
prometa
prenamjena
##pin
ber
##tović
Azer
dinosa
generacija
AC
##vicu
126
Col
Lake
košta
zvjez
Vatika
strukturu
##ntno
Jero
Like
vile
oduše
progna
simpto
kontrolom
##xu
##bac
pp
##redu
Ilija
ulazak
Mladost
kandidata
##sho
Play
##gorske
zalje
ljudska
franjeva
Arheologija
##gn
gri
##skome
Post
avan
poruč
stavo
povolj
interna
namjera
problemi
predavanja
predsjednikom
cu
obro
glazbena
proljeća
##muna
##gorje
##lskom
Pove
malu
Queen
Rober
singla
narodni
članove
automobi
svijesti
ostvarila
Avi
uzeti
važnih
Meksika
pokreće
političkom
137
##riraju
Jurja
privi
ratnog
ulaska
uvjeti
najljep
Zrakoplo
##njić
Ira
boš
##novih
Liga
Tito
svjetskim
##AC
antro
vozilo
prikazuju
stupnjeva
##klja
##vesi
##znice
##čnoga
hije
stan
Djelo
Tuzli
primo
autobu
Jackson
katedrale
Sjedinjenih
##ridi
vjetar
manjina
##jac
IX
127
odobre
Usprkos
koncept
povezani
##ić
šez
Philip
Rudolf
nositi
izgradnji
##žo
doktor
stupio
supruge
zapadni
Makedonije
preuzimanja
grofa
Brazilu
zdravlje
zagrebački
najpoznatija
##SS
##mbu
ero
samim
obradu
trajao
zdravst
povezane
školovanje
temperaturama
##mia
ere
uga
##dović
##ljica
dječ
bloka
pokriva
zakonoda
identiteta
brežu
stočar
studio
vezana
antropo
osobine
informati
##BI
##avy
##keta
este
oduze
učesta
Raspisivanja
##neta
Kin
cou
duh
šan
1894
1899
Lewi
##njskog
Kraji
progre
stjeca
Vijetna
odlučila
pobjedom
##čla
Bili
istar
pušta
bespla
Ferdinand
nacionalnim
uspostavlja
Bugo
krivo
Zastava
položaje
pronašao
službena
Sudjelovao
ći
Ferra
nadah
omjer
izboru
načela
terena
argenti
portuga
Beograda
tvornica
helikoptera
##kratko
Trogi
poezije
izbornik
predvodio
putovanje
##cuje
zre
troje
snažan
dvorani
sljedbe
nalazilo
pjesnika
##rst
##spot
##turu
Cata
##diplom
zasnova
svjedoči
kraljevske
organizaciju
##tpu
Kotor
izložbi
smatrati
pobjednika
problemima
##činja
nivo
zasi
hrabro
tereta
ostvariti
##jućih
##onald
vala
katolici
postojati
tradicija
##lata
##nito
116
lov
##kladno
Sudio
cilja
zaštita
muslimana
gospodarske
natjecatelj
##tche
Kva
Phil
dvoj
##žalost
Perzi
nalik
prodan
Mjeseca
pljačka
Ash
luci
roku
parku
gradska
naredio
iskustvo
Grea
Kina
Zden
Juven
nazna
##gradili
mandat
Osnovna
trajanja
upotrebu
##yl
ekipe
namet
pusto
sedmo
domaćih
prvotno
osvajanje
javnih
usluge
kritika
Zanimljivo
objašnjava
##dea
##šnu
##rovu
##sing
XVI
pal
##rskim
1893
ruka
otvorio
pojedinim
kapaciteta
centimetara
##strana
plinovi
stadiona
poglavito
Nizozemska
##kne
dobija
zdravstve
aerodinami
povijesnim
##field
1860
1889
2020
##vizija
staza
žlije
Moskvi
procesi
glazbenu
poznatim
##move
##sfer
sklop
##lé
##ins
krv
ula
##linom
nemi
Zastup
brojna
##Na
##arch
##nomi
Sum
Vojni
stijene
značenja
zajednicu
nogometu
branitelja
palj
blaga
ojača
zračna
napisali
Dije
inci
drame
Tuđman
križar
oblike
##dbi
HE
Mom
trgu
čitav
membra
Varaždi
Angelesu
nepresta
odnosima
umjetnik
zapošlja
##pany
uru
zamiš
surađivao
##nej
masu
zime
Mongo
pokopan
prošlog
Najbolji
konačnici
af
##bula
112
Opa
##lnica
juga
laga
Matica
Zemlju
ispada
ozlije
Portuga
propada
##OM
KS
Raj
##torom
alata
Zapadno
automat
upravom
govornika
tradiciji
Biza
Odmah
zgradu
satelit
svjetla
vrstama
knjižnice
najvažniji
nedostatak
konstrukcije
More
gola
leće
suge
karaktera
sno
uku
Četiri
kalibra
Muse
izlaz
Turske
motori
vježba
vodika
Marijan
postizao
biologije
##lilo
##slio
##sovi
voli
Svete
grofo
napon
Fridri
pažnju
##listička
potomci
komercijalni
##kati
Tibe
nisko
vijeć
Indone
slobodni
podrijetlom
proro
##vanjima
biljni
Palesti
nepravi
Mađarska
značajna
prisiljen
smješteno
upravljanja
znanstvenika
istraživanjima
##ré
##završ
jače
minute
kandidat
dokumentarni
##pol
apa
drva
obave
prosječna
unutarnje
##zvu
tenk
##čevića
Brije
Sjeverna
##gg
##lean
Clau
karta
agresi
vizual
Europska
mišljenja
pripovije
##ček
##nile
##tiji
rit
1897
Dimi
učvr
##laciju
Meksiko
brojeva
najbolja
trgovina
komunista
Tou
pokretu
uglazbljena
##renih
Mleta
krivu
klubom
osigurati
##mne
##ener
Obo
javni
sloja
centri
Njegove
Nijemaca
kondenza
konstrui
medijima
portugal
televizijske
Mad
Meh
don
##ljuju
tiče
Award
Grupa
Serija
ruskog
visinu
##jemo
Jaj
##novim
dekla
odličje
priznao
gradskog
kontrole
poginulo
posvećen
##BS
Sura
osmo
Milana
gornjem
pregled
situacije
##ild
vrp
##sauri
Anđe
paro
##forman
režim
izdavača
Britanija
kombinacija
##tilo
aspx
Dakle
bubre
otići
slabi
##novanja
rakete
valovi
religije
Akademiji
osigurava
homoseksual
Bay
Sir
kuk
usluga
nastavili
karakteristike
##ques
##ries
##trop
dale
baran
srpska
kvalifici
Australije
##zad
sro
upi
Klju
Sela
iduće
singlova
##nds
##pte
##tjecaj
Konji
konfi
kupio
potrazi
verziji
ograniče
†
PO
##tain
koro
najni
borila
polazi
raketa
Hajduka
izgradio
mnogobro
Nar
težak
Kristi
rendge
stakla
##elektrane
vjernika
##til
el
Idu
datu
našla
ugleda
vezane
donijela
pobjegao
vrhovnih
##ars
Rena
##prijed
Alber
Krsti
Studio
Ponekad
aranžirana
premješten
##bec
##njače
opru
Davor
podsa
jezike
Ugarskoj
najstarije
##poli
Križa
##mentima
aktivan
bubnjar
orkestra
smješteni
Nizozemskoj
##low
Mata
Most
daro
naseljima
jugoslavenske
punk
usavr
vladu
Marina
Srednje
medalje
kapetana
letjelica
##cri
##ctu
##čane
##stova
##vjeti
Peri
sinu
valu
Astro
Teksa
kajka
smrću
Bizant
višestru
vlasništvo
skladatelja
##him
Cup
grm
Žen
##ženju
rubu
Bunde
opere
Otvara
bogata
izdana
bolnice
biološke
karakter
##bara
##zinu
sul
##berga
Pisa
iona
nespo
Čovje
cijene
aktivni
razvijen
##pru
##cial
##heim
Čako
Archi
##EC
##are
##smi
##cila
saz
wor
##basti
##novom
##plasi
Sala
lega
Svoju
brodu
tenisa
Djevice
Narodno
Istarska
prapovije
##scu
##mela
##ziva
##mović
##govore
braku
America
brodove
##formacije
Jugoslaviju
Luca
podre
Razlog
ekspan
zadaća
korisnika
eska
spon
Treba
tjele
Program
gradski
neuspješ
Vojvodine
časopisima
Dol
nei
seg
Musta
uskla
adapta
pokrovi
poteško
dostupan
iznosila
##fizi
Sor
Tita
domi
tkiva
School
htjeli
predgra
tvornice
akademiju
By
##tnju
Mira
monta
istaknu
nesreće
značilo
##fica
##larnih
najče
otoke
srebr
oprema
vodene
fašisti
izlaska
posjede
nedostatka
raspravlja
##mea
##zbi
##zov
Ane
Elec
nekoj
sakri
dovolj
gitaru
izaziva
##eni
##zel
##drži
##šima
East
Neka
Korču
kaznu
pasti
ekonomske
##ola
##krea
##pima
Dic
Nau
##graphi
black
šećer
Madrid
Vijeće
ciklus
Perzija
ukupnog
Zemljine
osnovnih
UK
##nora
##zana
117
uža
Antuna
odbije
Upravno
predavao
sastavni
doživjela
Mana
Balet
mješo
Japana
nadalje
##kie
reše
Socie
tambu
Davida
pušten
turbine
zvjezda
napredak
podrazumijeva
##mal
##one
##here
Out
Bela
Popu
neba
Brown
naime
Projekt
naslika
Ukrajine
državnom
Administra
posljednjeg
##zet
##stice
elektrana
napravljen
##hl
##gore
##sper
##drije
##mosta
duša
Antho
Reich
muškar
srebro
Židovi
Internet
novinara
oblicima
##tovao
slijede
##hercegovački
sjeveroistoku
##thy
hip
##lagao
1885
Podu
paša
Operu
ispri
##numenta
Stephe
srbija
vodama
##zra
Ći
##bera
Fina
Urba
sveta
vezan
pripadao
Nige
Town
Oscar
Prince
napred
serijala
##cco
koe
##dniji
sind
kućama
zemljišta
##ae
##zala
Plu
1861
Messi
ranog
Mjesec
ciklusa
stranku
oružanih
rijetkih
dijagnosti
talijanskih
##čare
duhu
Južni
izmiš
reforme
turizam
proučava
kontekstu
korištena
Ram
Swi
##mijom
suho
Space
pluća
##ferencija
prednosti
##ril
Isuso
nezna
Andrea
bubnje
korpus
napokon
društveno
nužno
takvo
ukida
Sjeverno
planinama
##boli
Qui
skr
##čarima
Deuts
cesti
Godinu
Mađari
jezgri
usvoje
Valenti
susretu
udaljen
zagrebačkog
##vivši
Srije
čelju
napade
pokušali
potreban
prijevodu
AM
##tory
Grci
bori
archi
elasti
obrada
oznake
religio
odgovori
temperaturu
##ud
##gari
##saka
##zili
##licom
Irske
Srijem
spajanja
suprugom
ustanove
Mag
Vino
udovi
crvena
Novinstvo
jugoslaven
##FL
##brati
zapre
gubitke
##sil
zim
Shan
Banja
##žavanja
Record
zlatnu
Francisco
drugačije
Sovjetskog
televizijskim
sad
Anta
indo
trag
nastoji
dokument
razvojem
djelovala
poluotoku
svojstava
zabilježio
Fox
odr
kance
pilot
razum
Pjesme
zbirku
podjele
verziju
##IT
##gov
##jma
##dira
ući
##krije
##lošku
##ženog
1886
Long
Topli
podruž
rimskih
##wen
Doda
cirku
teška
uvjet
potiče
sprema
toranj
muslimani
međunarodnog
željezničkim
wa
natu
Vjeko
obnov
samoj
dvorca
poslan
zločin
fizički
austrijski
učilištima
##žer
##glas
101
Beli
Papu
aspe
zvan
jesti
##vencija
Engleska
##DA
##JE
Jon
##morni
##tivši
ambi
impe
bloki
Oxford
ženski
klavija
tržišta
original
unutarnjih
znanstvena
frekvencija
##sma
##čaju
Kvar
Razli
gospoda
ravnopra
letjelice
##kči
##kretni
svima
zadnjem
lokalite
Povijesno
zapovijeda
Dor
Vic
por
##janja
##ssion
ikad
Preda
Royal
dvoru
Kosovu
glasovi
vatroga
vratili
naknadno
primjena
svjedoče
pozitivne
##hy
##lls
##rim
##čun
##džić
##kvog
##renu
##tivnim
Elektri
savjetnik
##ux
Tol
1892
Henri
rjeđe
##munjske
Company
najavio
osobama
er
##želj
1888
ušli
##rijeru
banka
točki
izlaze
mladog
ulogama
današnjem
plemenima
podignuta
##mone
Boe
pau
##kršća
patu
Pojam
kraće
nevje
skrom
tjeles
vodili
zaosta
obnovljena
##luja
##meda
krš
1850
Fred
Stefa
kakav
temama
zapada
krajeve
posjeda
kardinal
nalazišta
doživljava
meso
##genera
##zaciji
Pravi
kredi
potrebne
##woo
kuka
nabije
popularan
nizozemski
##mov
Hai
##kultu
muzi
nogu
Najvi
krunu
devede
figura
vodora
akumula
signala
služila
socijalne
jugozapadu
institucije
##vsko
mane
zoni
evanđe
opljačka
slučajno
okolnostima
Bala
Poku
grade
izraza
jezeru
Površina
određenom
##ngs
##bona
Bou
1891
Jona
crveni
dizali
ukoliko
Williams
kilograma
##AM
Ari
##nnica
mezo
ilega
pretje
Poljska
vjerske
vojvode
agresije
sustavima
Ski
##leran
##zorom
Esto
otpad
linear
potoma
telefon
ukazuje
željezo
istaknuo
Katoličke
ekonomski
##voz
Ky
##sred
##lovića
Origi
Posta
Stara
šesto
League
vojsko
prirodno
društveni
objavljuju
uobičajeno
##paju
##silo
anar
nagi
seri
Polje
njeno
opsje
recen
Afgani
predao
teškim
Narodna
ostataka
pokušaju
započeli
raka
daljnje
domaćin
zadnjih
nekolici
razdvaja
##bn
PS
##spio
Carl
##centri
Ivani
Zrinski
rasprave
započelo
perspekti
Grb
men
Theo
izdu
Venezu
zavoda
koncerta
pritisak
športski
postrojba
##IK
##ders
##vide
List
Ljude
Stock
Takav
starim
varira
vojnik
razvili
##dow
##ćeve
new
Kraj
sudu
odabi
zasni
Njezin
naboja
nosili
austrou
ljekovi
termina
ekvivale
kršćanstva
Istovremeno
kle
Biha
Spar
kuha
uvod
depre
Gornje
zasluge
istoimene
##core
Apa
##rište
##torica
Bavar
očuvanje
pojavili
pripreme
##kina
##ljub
Deve
Vare
Wolf
borio
Ukrajini
Vojvodini
skupštini
naseljenih
##bol
ugu
##ntnih
Caro
Tiho
filo
oper
##ljivim
slavu
Nogomet
Središte
etničkoj
kretanje
pregleda
omogućilo
političko
poznatiji
##mjese
imovi
opsta
pismu
ranim
donjem
jezgra
##vjetnika
zbivanja
karakterizira
ekra
pasi
Marie
bliže
istje
Kosova
nazivi
blagdan
usprkos
zatvori
lokacija
prisutan
trgovinu
brt
##ktara
besko
širok
##štinama
Glavne
gornje
etničke
spriječiti
asistencija
komunikacije
##šem
##rini
##tile
Trebi
Habsburš
koncerata
nastupila
cen
1882
samu
European
prigodom
smještene
zrakoplove
Haa
abe
1884
zavoj
Bistri
Stadion
slojeva
svemira
popularna
##ano
Pli
##vnoga
3000
izga
Hamil
krilo
dubine
boravio
priznaje
Pragu
odjel
uvodi
Zvjezda
održati
provode
najmlađi
određenu
frekvencije
određivanje
televizijska
Predsjedništva
##jaka
##šala
##stein
1881
egzo
##mislio
napona
Istočno
imenima
koncerti
omogućio
podrijetlo
##kovo
Shu
man
##ničke
##bilnosti
prilike
primiti
naselili
pjevačice
##kera
hoda
minu
Robin
ilustra
problemati
nezavisnost
##gnuo
Bue
Net
propor
Časopis
nazivali
Mai
lopa
papu
vlak
Napre
artic
Uslije
hidrauli
prometom
izgraditi
španjolske
##IV
DJ
##kovu
##kruž
Dire
Dvor
##čavaju
Posje
Wilhe
oboga
ureda
Tvrtka
radnja
srpsko
granata
morskih
prijeno
upravno
Švedska
napisala
plemstva
##gge
##bana
##rnom
##venti
širem
divlja
stalni
vojnom
zakonu
automatski
materijali
##lka
##ove
ac
Bow
rub
Ocea
fara
prozi
zgradi
pješačke
obavješta
povlačenje
konstrukcija
reprezentacijom
##ktom
Bad
Smr
Kaza
crni
Veliku
fokusi
genoci
javnim
teških
naravno
zakonom
izvedena
pronalazi
Ćo
Pur
Wei
Kape
pado
hebre
zabri
drveća
snimke
##grafskih
električnih
##jm
##zisti
zaga
##graphy
razma
ovlasti
predstave
nadbiskupije
##mice
##čeki
Ske
pohod
Bruxel
Srbiju
napali
zvijež
Azerbaj
Charlie
radovima
liječenja
##lulo
##vate
1869
Mega
Song
##monija
Južna
Evanđe
izviđa
tvrdio
promjer
prestaje
pritiskom
stoljećima
Hun
loma
##dinski
napao
paleo
oblast
posjedo
Francuzi
muškarci
Zagrebačke
sudjelovati
##glu
Soli
##ničkog
matri
Dunava
gornji
emisiji
računalo
područjem
televiziju
onog
##zirali
Ljubo
našli
proći
vodeći
mornarica
transport
šeće
tamno
##građena
drafta
napome
Jadrana
povećanja
doktorirao
RT
##šići
četr
aerod
scenu
dospje
svjeto
##lobodila
Rolling
uspjelo
predmeti
Kraljevina
Nik
##vodni
jači
zali
##tirala
okonča
crkvene
ogranak
poljski
koncentri
Kraljevini
Bir
Open
Vidi
Amster
turizma
sljedeća
zoološki
pukovnika
prostorije
1871
državnim
starijih
eva
##vniji
##šnice
##lnikom
likvi
analiza
prehrambe
##bosa
Hon
Godi
dani
katka
Mandić
trgovi
##staknuti
Katarina
današnja
osvajaju
konfedera
prirodnog
suradnika
##pilo
Gir
Gle
rasa
tvori
##ventual
Zakona
lijeva
Tradici
džamija
propaga
brodovima
revolucija
##mad
Fun
ara
humo
prito
šesna
Ostale
oblaka
Ameriku
dvadese
##ary
##dot
##kes
OS
##hiji
sig
Grafi
Prote
grebe
pojas
analize
ugljika
dogodila
potencijal
protestant
srednjoško
Cle
ale
koz
José
Pera
metar
termi
lijevoj
pretvore
značenju
Friedrich
##šana
dže
Lege
Druge
Pleme
benzi
bivša
Celtic
sukobu
učenje
skladao
Dragutin
Dolenjskoj
promjenama
##peo
Tko
art
cari
leća
silu
broji
Židov
individual
obilježava
inicijativu
povjesničari
Pretpostavlja
Gau
sra
vol
##vojiti
Laker
posre
mišića
##fikaciju
programi
instrument
prihvatili
međunarodnom
##fre
em
##ving
##čniji
Tech
zimi
Anton
cilju
iznos
raspu
##miranja
Grammy
Razvoj
karata
voditi
filmska
legenda
vladali
čarobnja
atmosferu
četvornih
Manchester
najpoznatije
##DE
noću
##tnički
Djela
Priča
novinama
##ppa
uoči
zaigra
prestao
sovjetske
ekspedicije
iskoristiti
##chie
Lat
Bori
izbore
priruč
vijest
Osijeka
Osnovnu
otkriće
zemljom
elektron
pronađen
latinskom
##wig
dar
##sniji
spot
gosti
trage
časni
članku
nasilja
Veneciji
francuska
napustili
snimljena
francuskih
Christopher
##lat
##fera
Clo
Jones
##čavanja
Dragan
interak
vladaju
švedski
Petrović
agencija
funkcional
##kat
##ryja
NAS
##vrati
zate
zglo
##terana
strip
europskom
otvorenom
##bela
Jak
##vanog
leđa
odsu
Nijem
dresu
misti
servi
Ekonom
pretvor
singlovi
botanički
##nko
##nića
##šnom
kula
##jskoga
teren
Google
rezolu
Isusova
Turskoj
slikama
nazivima
mitologiji
nacionalno
Proizvodnja
##njenja
Ivanu
Night
Toron
ponudio
rječnik
susreće
220
Ever
plasman
britanskih
laboratori
ispitivanja
konferenciji
##mel
##mala
čim
Ceti
frag
kami
rasi
Ostro
izumi
okoliš
potroša
predmete
intervjuu
kompleksa
praktički
##yd
##jte
##ndra
##kavši
##lijom
Phila
desni
čakav
##janović
Turska
izmjeni
budućnost
prikazana
##dise
edi
trg
##kinje
##šnjom
Bona
divo
zagor
Američke
željeznička
##ily
##she
##pota
XIV
Band
Draga
vojvo
aktual
točaka
obalama
povijesna
pukovnije
##hai
##sja
Đu
##ljski
Alfon
Nevesi
dobrim
oslobođenja
##eta
##wie
MTV
ome
Polo
##novine
Majka
South
najza
pošte
silom
smeđe
Crvena
trenin
podigao
Krešimir
odigrala
vjerskih
Tea
uvi
odma
Goren
dolje
razni
vozač
##elektri
hokeju
obnovu
organa
dolaskom
djelovali
##crp
##row
Dy
##sana
Rade
Your
puni
anima
ovako
udžbe
dvaput
hladno
reljef
održala
Are
prekr
vibra
antifa
apstra
izlazak
legendi
ST
##gine
##pama
Fort
kade
oslo
Ferna
Pošta
pomalo
srebra
Brazila
Standar
ciljeva
izgublje
Ljubljani
dodijelio
omogućuju
simbolizira
1883
dato
naiz
naki
##vojila
Balti
Chris
imamo
Little
Pierre
naprijed
mediteran
kategorija
##zati
Rai
tragi
takvog
uveden
Nadalje
gradnja
mikrore
Europsko
skraćeno
današnjoj
iskoristio
##čju
dim
tvrtku
doslovno
prototip
svojstvo
zanimanje
##eo
##ör
##mama
##šnica
gove
Vinko
opisi
reper
Buenos
kameni
njezinih
zdravlja
pripadnik
##jao
gardi
Srbima
astero
Objavio
analiti
dodatne
njezino
najvažnije
##neli
##tele
Roo
Tai
frak
štetu
komada
lijevo
Science
Sunčeva
reprodu
progresi
kam
1830
1875
Mono
elip
repa
sena
djeci
pravni
potresa
pravoku
vjeruju
narodnih
teologije
karakteristika
##Tu
##cky
##žile
USD
fin
tea
##vision
Russe
arhiv
datum
efika
odras
Glavnog
pravilo
tradicionalne
tomu
uzbu
flote
jefti
maksi
sistem
struju
krenula
medalja
tekstove
vrijedno
bogatstvo
prirodnim
razvijena
situaciju
Association
Alži
ansam
hvata
iznosio
djevojke
navedenih
##pozi
##than
##žilo
pče
Nata
donje
##đivanju
iskrca
običaj
trudno
pozicije
ratovima
službene
upoznaje
španjolskog
televizijski
Aa
##sson
Tal
1879
juri
Massa
kašte
mozga
ocije
vokal
utječu
animira
dnevnik
pisanje
ličnosti
poslovima
Nizozemske
dokumenata
μ
##nule
##zaka
Reli
##gledom
Scott
Young
klije
patri
horizo
primir
vještine
dugogodišnji
predstavljen
IC
##duše
1867
Grčka
Radni
ispre
akademi
dionica
nedavno
lokalnog
standard
katolička
360
Novoj
Sydne
najbr
##šavanju
Građan
Sabora
tehnici
priznati
visinama
katedrala
događajima
televizije
Mra
ocu
išao
Istan
Uskop
straž
rezide
Sjeverni
dirigent
##cta
##rel
##napo
##šnoj
Dže
sur
##jutro
Leon
ledu
kozmi
ratnim
baština
nemoguće
prvoliga
naposljetku
##hou
Oly
##chine
##venih
Odra
kuna
njezinog
studenti
##kea
##nas
KPJ
##voran
Ford
Medve
zaljevu
znakova
dogovore
načelnik
svrstava
##ket
##zone
istih
koman
nekro
osobu
tajni
vesla
kapeta
moment
zidina
srpskom
univerza
Rob
Sky
1887
Evan
beta
žita
milja
podne
nijedan
zračnih
rukometa
zadržati
gimnaziji
prihvatiti
##LO
##stavi
Juri
poba
Barto
Ljuba
Zagor
predi
Norman
kotara
mrtvih
natpis
podatak
trideset
republiku
disciplina
brodogradili
##sty
##ljku
Dža
Jase
Puto
Jakova
Proble
Slavko
pomaga
terito
hotel
sekre
Život
doveli
tjednu
Anthony
Napoleo
dodatak
instali
nikakve
vještina
preselila
##zia
##rino
opor
zrna
kolum
##ncional
lijeve
vlasnika
Europskog
Operacija
propovije
##dske
##ncem
##rpje
Blan
Vran
nesu
bojne
hrama
rukom
potrebi
narodima
potvrđuje
djelovanju
nacionalnu
namijenjen
scenarista
Kalifornija
socijalisti
##té
##vá
##mie
##vro
##njin
Jamesa
Taylor
skloni
igračem
Napoleon
poznatom
akademija
Međunarodna
##lic
Ina
Ral
1800
XIII
Paula
drukči
pripra
Osnovan
Zapadne
Varaždinu
festivali
razvijati
španjolskom
sol
pasto
doista
inženjer
preuzeti
##pinu
##tian
##zila
Bari
Loka
idea
Sardi
čitao
Irskoj
naravi
##žima
Hla
Hou
epide
naran
izdala
veličinu
samostalna
Ö
##šaka
XII
Šte
Rovi
frana
njenu
Aristo
danima
njenih
otkaza
Drugoga
pritoka
određenog
katoličkih
##hibi
##ksem
Aba
##ktoru
neči
izvla
tisuću
drugoga
državno
ekonomi
istočni
utjecao
sjednici
Christian
performan
rezultiralo
##tie
FA
pl
##tiju
Sel
rang
teret
prenese
devedese
arhitekta
predstavljao
##bie
BM
##fora
pode
##mirani
Bruce
Prvom
heavy
morem
##ljenjem
benedi
ponudu
albumom
dizajna
gubitka
Bud
Sma
##plici
disk
pota
Bunje
Zračna
desnoj
spasio
učenik
obavije
prelaze
Varaždin
eventual
magistra
skulptura
udruženja
Štajerskoj
##bl
##lem
PC
##ktivno
Radić
Tuzle
upita
bojnika
okomito
osobina
ulijeva
konstitu
kristala
smatralo
nuklearne
sredstvima
srednjovjekovne
##psi
##lone
##lovo
Haw
Pono
razra
##lementa
Carstvu
Society
samostalni
zaustavlja
##trie
450
Demo
Dream
snije
Wilson
prenose
članice
životni
Monarhije
pregovori
primjenji
zrakoplovstvo
najznačajnijih
##banj
ose
Suda
božić
impul
znali
gitari
prsten
ženama
Frankfur
djevojka
tehnički
središnjeg
samoubojstvo
naci
klasa
liniji
vojnoj
stranci
preuzela
pravilima
projektila
mg
mol
bazu
dubi
kosi
##nstein
radne
držali
Katedra
pogotka
pratiti
svirati
kinemato
osamosta
trenutak
##neo
jar
Kenne
glavo
virtu
Kanada
Springste
stanovništvom
1876
Sisa
Sofi
niske
oštro
Kemija
jeseni
radioa
stabla
uporaba
Osnivanje
##rilo
Sed
##manom
Tome
hrana
križe
ugarske
koeficije
sastojala
vlastitog
zauzimaju
Eve
Gen
##glice
ocem
Blaže
Uteme
Vatro
jedva
##čanstve
Nedugo
rekrea
kratkom
odlazak
produže
čovjeku
grijanje
administrativno
##tat
##bach
##dića
##toga
Fan
Odje
rađa
umno
##činama
Izbor
princ
račun
Kanade
Mostara
Planina
provede
prisutnost
NOV
luk
Hall
##tičkih
metalu
visoku
opravda
tvrđave
Švedske
Hercegovinu
##žim
##shla
##tnji
Aero
pozdra
Sebasti
invazije
ekonomije
monumenta
popularne
zajedničke
napravljena
NR
##mane
##vard
HAZU
Kora
Memo
Mnogo
trećoj
reforma
značaja
komedija
napadima
sle
zma
##novoj
##tinjak
Mitro
Gotovo
igrače
okreće
atomske
graditi
okolice
otkrili
poredak
procese
izražava
otkriven
uništiti
Prosječna
Ujedinjenih
objavljivanja
##ers
rati
Susje
hvali
sliko
Otvore
teksti
##lizaciji
jednoga
sarajev
Venecija
smještaj
osnivanju
visoravni
procjenjuje
##čo
##zlo
Io
##kori
##trina
Soma
napi
nebu
##ridija
dotad
akciju
prepre
Postoja
najviša
pokazali
Konstantin
talijanska
dokumentima
##cks
fer
Vasi
test
tima
vike
Makar
dvjema
Henrika
vertika
Statisti
kulturna
tekućina
članstvo
cijelosti
spomenici
Rumunjskoj
HB
##jome
disa
motivi
planini
pružaju
Britanci
etničkih
pukovnik
susjednih
##vnicu
1200
brdu
Vilim
podlo
prodi
aristo
posada
bogoslo
Europski
završili
##đom
##tomi
Bazi
Duga
endo
okri
Model
rizik
##grafske
Sustav
kopija
prizem
Slavena
glumaca
upisuje
četvrta
kvalitet
upotreba
Najstariji
##jza
Fle
pun
Masa
sili
##lozima
Spora
iselja
mediji
sličnih
domovinu
predstavio
znanstvenik
##hre
##ćani
Gib
jak
kip
##brana
##njava
Anna
Rafa
laser
šesti
Online
naviga
zapisi
sestara
uspjehe
domoroda
postaviti
brdo
zuba
Mihaj
priči
Afrika
uredni
Srednjo
vidjeli
engleske
krugovima
she
Muzi
peča
##ralnom
Klima
Pakra
ikada
izola
njemačko
načelnika
neprestano
Encyclopedia
Gy
##stran
Thea
zubi
kućom
tajne
Kosovo
konkre
reguli
spojeva
podignut
suradnja
Dalmaciju
Britannica
prethodnika
##hol
##plja
##press
##zović
stiže
ispita
životno
Pokémona
iskorišta
istraživanju
##sed
Abu
1873
sugla
ženke
##metrije
savezne
dominika
nadbiskupa
znanstvenim
##iru
##psko
##potre
Feli
Hoff
Ateni
desne
karto
sekve
##kandina
njenim
stigla
nakratko
osigurao
plemstvo
dobivanje
Vjerojatno
džu
##vojim
##znost
1877
Pripa
promi
puteva
stavio
Osječko
zauzela
Preminuo
prisutna
mnogobroj
razvijaju
društvenim
nogometnih
Zagrebačkoj
živ
Cali
Dona
Hong
dosada
postavi
Giovanni
klubovima
ostvarili
arhitekturi
televizijom
##đani
##lično
bore
bogato
speleo
cjelovi
hijerar
odličja
njezinim
stručnih
zamjenik
Alexander
Nogometni
##lyn
Ae
##bivši
očiju
plave
Jedina
definira
preuzeli
Instituta
britanska
glazbenici
nekadašnje
##RI
##brio
##ljci
Omi
1868
Maha
defi
uzgoj
Govori
modelu
liturgi
temelja
govoriti
sagrađen
zadovolj
pobijedili
##zum
##genu
Sche
Novak
della
zakri
bratom
urbani
dogovor
stotine
visokom
sjevernog
Mé
##losa
Šan
Babi
akva
mara
eduka
mreži
prisustvo
raznoliko
##rez
##borg
fluo
kriv
srča
pretr
Moguće
Pacifi
prijam
tijeku
potkraj
snimila
zapadnog
proizlazi
skulpture
parlamentu
zamijeniti
NA
##tuda
vodiča
Primjer
drugdje
održano
životom
Englesku
Münchenu
knjigama
odlučeno
primjerak
crnogorski
##goj
##run
Bry
zbo
Paris
Volde
hindu
predu
probu
Grande
boraca
kapitu
otišla
prodao
srednji
neovisno
sastavom
slobodan
DC
Ir
##racr
dužina
izdrža
obradi
sumnja
inzisti
##oslobodila
Američkim
promijeniti
adre
grba
Oruža
prstena
potpisan
glazbenike
##né
Oz
RK
##losr
##peti
##gradi
##renim
##čavao
održi
torpe
fronta
Poznati
riješiti
Ak
Swan
krei
rabe
vjerski
atmosfer
povjesničara
unutrašnjost
Ig
##ljni
Pia
Kale
Poda
pišu
##ljenoj
##njskom
Takva
ljeti
pojavu
radilo
usredo
snimili
sisavaca
standardi
literaturi
umjetnošću
unaprijeđen
##rite
##riva
Kemi
Leopo
Madaga
sponta
najvećeg
zatražio
obnovljen
prikazati
oslobodila
produkciji
Show
##građen
snazi
večer
zvali
##metrija
Arhite
Viktor
Izabran
mladeži
granicama
poremećaja
produkcije
Ligu
Otto
Ugla
baci
##raciju
plana
sporo
grčkom
moguća
pojasa
članke
jakosti
kršćana
predaji
korijena
istoimenog
##PS
##ika
Neda
jabu
Kriti
Simon
majku
stožer
molitve
posebni
obljetnice
##hard
mju
sav
želu
##cernji
##rijske
srpskim
komiteta
Biologija
Entertain
latinskog
##klear
##novci
opko
proc
topa
Water
točku
Franco
jakost
pilota
putova
Premije
ubijeno
Columbia
slobodna
gimnazija
najstarija
standardni
##kos
##ženom
Schi
Frana
Ljudi
Zašti
dijama
filmom
Istočne
Neretve
sloboda
vratima
mirovinu
nalazili
postupka
završena
odgovorio
strukturi
##Ma
##bnu
##dus
we
KUD
Put
rop
1857
rumu
Čini
kruni
makro
sindi
cijenu
Ugarska
glavnoj
izvedba
opisuju
usredoto
smanjenja
trgovački
Sjedinjene
dvadesetak
civilizacije
##geni
##hura
Sca
##miral
##tribu
rani
učio
žila
Dražen
Warner
pomažu
utvrdu
Belgija
beskona
stvorili
ustanovi
##bano
##cita
##kića
##nida
##vačka
Pule
##đivala
balka
klime
bogate
stigli
sustave
prevoditelj
##kure
Mezo
Motor
krune
ostatci
kraljevi
kršćanski
otkrivena
Oh
Age
##rizam
Pekin
bojna
evaku
kakve
sestru
skladba
demokratske
##crt
##lome
##gurno
##šavao
Satur
Češke
ustroj
napadača
Šibeniku
građanski
susjednim
društvenog
instrumenata
Dro
SDP
##nička
Beau
Libe
Pola
bala
hrva
takvu
Presve
rečeno
hektara
Slovenaca
pokušavaju
##eli
##duje
Jaco
efekt
regula
kostiju
majstor
radioak
navedene
neutrona
Čer
##soban
Jezik
bakra
valne
##tinenta
ostane
otišli
manjine
reformi
spasiti
modifici
benedikti
željezničke
##dows
##dura
Kau
Marce
diver
donji
zupča
povući
korpora
postigla
fotografi
Es
ud
##jaca
Arno
Teri
Irana
kriza
likove
princa
stekla
##ldemokra
Pokraji
kratica
Karlovac
transpor
zagrebačke
##iza
##liku
##pali
##venu
moza
poga
suspe
borili
očekuje
posjeta
utvrđeno
Katolička
podsaveza
magnetskog
školovanja
Wan
okup
šumi
Saudi
ploču
teški
Andrije
koljena
stanova
##mpo
cha
##kroni
Pana
##larnog
Leksi
Teodo
femini
liniju
parova
Microso
raznovr
starijeg
transforma
neposrednoj
kvalifikacijama
##bnih
##leva
Men
##terma
Sound
##zacijom
Jelena
Osnovni
instala
značajnu
proučavanje
##cts
##xico
##klina
Voji
atle
kari
rota
Apple
certi
genet
kolod
psihi
zapis
Steven
fiziku
južnog
Nastupa
Velikom
Makedoniji
Primjerice
austrijske
aro
bak
ben
Face
leda
pato
##zijske
naboj
raspon
refere
udarac
upisan
krenuli
pravosu
Michaela
korpusom
jedinicama
nacionalnom
##ln
##pka
##ndža
##dosta
##renju
##snica
Kasti
Power
recep
donose
izdaju
ciljeve
prometu
vladari
Bošnjaka
slobodnog
korištenjem
sastavljena
##rest
##house
##topis
Egip
Erne
Okru
Sava
boda
odbo
kopnu
naših
traga
Jezero
nosila
prototi
nagrađen
natjecao
staništa
partizana
ujedinjenja
α
##pni
PD
HSP
##dskog
Kola
hote
živča
akusti
konver
oznaku
Vrijeme
leksiko
paravoj
zaštitni
Jug
Rey
jam
Vaku
pamu
spra
Darko
iscrp
ulaza
osobni
primar
operati
orgulja
zauzeti
konfigura
podmornica
zlostavlja
razlikovati
##ita
##veri
Ami
atla
First
Hidro
signal
batalju
staviti
podnožju
podržava
prestala
učitelja
kardinala
patrijarha
djetinjstva
##gga
kotar
Revolu
divlje
vladala
zastavu
objasniti
planinarske
##cum
##tsa
Abe
simp
##ničkih
Antio
Godina
Jordan
Olympi
nedugo
pisani
redove
krajine
predaju
Albanije
izazvati
ozbiljno
ostvarenja
##deli
ion
sor
##ntara
meteo
znaju
Ukupna
napisan
svijest
teleskop
hercegova
korišteni
Australija
planinskih
producirao
projektima
slikarstvo
Crni
Rosa
mesa
grama
tinej
ženske
München
kršćani
misiona
turneji
učenici
poluotok
trenutka
otkriveno
vjerovanja
željeznica
primjenjuju
ZA
afi
1874
mada
paru
##manski
Procje
dolina
putuje
zlatne
Izraela
dolasku
okolnih
funkciji
najprodava
Tradicional
##izam
Mars
##linama
Krist
najte
##bljenja
Filipa
razoča
psihija
pomoćnik
prisutni
sličnosti
##24
##ED
##ćka
AP
AR
Az
##menom
mišić
ratno
rashla
Belgiji
histori
europska
modernog
Najznačaj
Rumunjske
događanja
napravili
pobjeđuje
##ent
##tej
##viću
##blije
##štaja
faši
gustoće
komisije
zajedničkog
##hro
##jnog
##rišta
##sport
##čnika
duha
ogla
veže
živa
Davis
Sedam
muški
popre
ukaza
Svojim
slatko
periodi
opštinama
Objavljeno
##ani
##mur
naš
1862
Rasp
mega
zapu
##lement
Ljubu
Molda
želju
##trieved
izazvao
slabije
dobitnik
Sudjelova
monarhije
odvjetnik
##llu
Old
Thu
Home
Skla
bara
smiju
grčkih
prilog
djeteta
listova
ljudsko
stotinu
Općenito
Sljedeći
planinski
biografski
arhitektura
##masa
##čeve
##čenim
goran
preno
kolega
opremu
slični
vlakna
vojvod
igrajući
izabrana
njezinom
sjećanja
zatvoren
francuskim
##žva
##gate
##kine
##rius
čvo
##serva
Abdu
Port
konci
znati
motiva
novoos
Nagrade
dovršena
medicinu
pojaviti
Južnoafri
##meti
moli
##službe
izgla
Franka
brzini
porast
pričvr
Čovjek
odredio
alkohola
iseljeni
Objavljena
političara
željeznice
nacionalnosti
##bout
1864
Domo
ruda
show
radar
većem
Ludovi
straho
nastoje
izdavačke
doigravanja
##GC
##tovu
ATP
Lam
##ljević
boksa
svete
Crvene
obrana
vidimo
stilova
upućuje
liječnika
prihvaćen
unaprijed
Kategorija
##ος
##ов
##pov
##ssu
##vol
##pper
Had
nađe
##ntskog
neraz
##vremena
Luksem
obolje
pomica
razmno
Češkoj
usporedi
Bugarskoj
direktora
kilometra
Nin
Sad
osvr
##delphi
stepe
nacija
igranja
inačici
pisanja
turskog
Marković
navijača
neposred
izgrađene
festivalima
Gimna
iskre
krono
##narstvo
Danska
pobunu
rezona
špilja
doselja
narodna
smanjiti
##deni
##renom
Maka
Vuka
Bugarske
pokazati
primjera
dodijeljena
kombinaciji
##roš
##tusa
Cli
lim
##vanim
Jama
Uskr
Bogda
Dušan
dugim
antena
svlada
motorom
zaredom
stvorena
sukladno
objavljene
##ispo
##tude
##veru
##žiča
Jar
mal
Game
Moha
ubla
Briti
lanac
ulazu
crveno
fizičar
napusti
plemića
lijekova
zarobljeni
##chy
##šin
##vanom
##vjeta
vila
Franz
Rocke
božan
mirno
opsade
dvostruko
Jugoistočnoj
##ini
##brod
##stire
##toria
Krapi
Missi
reali
rocka
straha
kineske
podignu
##stavljeni
Uglavnom
Francuski
paralelno
sudionika
##VI
##kol
Uči
1866
Boja
Jure
Arago
atomi
dosad
Colora
basist
bogova
glavom
zakone
upotrebe
nastavljaju
##ffen
Wri
##ranić
##zenti
neto
robe
##hranje
Sisak
materi
medvje
jednake
Nobelovu
Istodobno
Sovjetski
mijenjati
pridružuje
električnom
najznačajniji
##šama
##žbom
Min
Aloj
dozna
kliza
raski
stoje
Leonar
Tijelo
hotela
marksi
infracr
osnovala
svetišta
Wer
Alan
Piše
počevši
statusa
željeli
listopad
namjerno
trgovini
Madagaska
franjevci
kontrolira
zamjenjuje
zatvaranja
##GB
##ON
##pna
Hoo
Las
##njama
##ntnim
##verpo
izle
uskr
faktor
imenuje
tambura
Talijani
pojedini
populari
glazbenom
svojstvima
##xo
##tty
##sser
Din
##dišta
žice
Istanbu
oduzima
Osnovana
sastavlja
istoimenom
predstavljala
##džu
##dorf
Lyn
Sie
Care
nave
##otball
misao
monti
činilo
članka
Central
pločica
služili
primljen
rezervat
slobodne
postojalo
##KA
750
Mah
##lskim
##pendi
enti
gena
oplo
Vlado
unija
Rođena
grupom
jadran
tlakom
četrna
Završio
donekle
dugotra
izvorni
povlači
vraćaju
porodicu
povezano
mehanizam
osamdesetih
posljednjoj
Lom
##grafa
izoto
kisik
Arthur
Walter
krugova
povećao
progona
sačinja
slučaja
vjeroja
ovisnosti
testiranja
##TI
##FOR
##pia
##tino
Sen
Anne
Hard
dona
##njskih
Stepi
gorja
stati
rimsko
izveden
tražiti
prirodna
sovjetski
zabilježeno
Oa
##sonom
##thern
Boli
Hans
vida
sunča
trupe
arhivi
rodova
zelene
trokuta
događaji
Slovačkoj
književnog
poboljšanja
željezničkih
##mos
##urs
##čenog
NASA
ling
sedi
##bovima
Baran
nasla
odveo
Biblio
dovode
Pokopan
izvedbu
nazivamo
odrastao
znanstvenog
##bat
##blu
##zić
##vite
##šiću
##lovac
onim
magni
patro
Pariza
mislio
neopho
poruka
jedinki
protona
tražili
Karijeru
poduzeće
tinejdže
popularnosti
sedamdesetih
##uta
moj
Chur
##ljivom
Brati
Death
Požar
bježi
miste
očituje
vodećih
dimenzije
energijom
promjenji
proglasila
zatvaranje
Entertainment
##pone
##ware
##ćenog
Bour
Ligi
Serie
manju
nezgo
poreza
pravim
lokalno
toleran
agencije
medicini
tvornici
elektrane
jedanaest
pozitivno
suvremenih
##cing
Len
Sno
##bergu
##ktima
Sibi
samih
Odluka
ogleda
ujutro
Njemački
ljudskom
reorgani
jednadžba
povezanih
proširila
##nan
čo
XIX
##ćenim
Camp
holo
hoće
Osobi
Potre
ratna
sunca
##staviti
iselje
Osvojio
Zbornik
turskih
Splitsko
crkvenih
sportski
##str
##witz
Ava
Ože
Pto
##posle
Bull
Melo
Zavod
lanca
##strirao
Odigra
bogati
sinova
vozača
dodatni
mjestom
oružjem
postepe
suzbija
pjevanja
primjeri
aristokra
prijelazu
protivnik
jugoistočnoj
##rior
##stal
##zele
##ljice
##lskoj
##mskom
Dija
Yorka
otklo
##cijskoj
##vljenih
pogona
čuvaju
poticaj
svečano
majstora
Cry
Nov
ace
##rirao
Ista
Kuku
djed
nali
zbora
logoru
pojavi
ruskom
British
vidljivo
vjeroispo
zadovolji
financijskih
Gui
Kha
##mpson
Bond
Foto
Ured
rase
##monije
ritam
uvjer
komore
isprava
razviti
ukazuju
modernih
zakonima
humoristi
različito
postrojbama
##ntom
##rede
Psi
Who
Annu
Cape
##stvari
##torske
Igrač
obuku
rodom
sound
strah
dospio
prioba
savija
Meteoro
croatica
određuju
pobjedni
uzrokuju
Argentini
pojedinačno
##ew
##vier
Oro
Sankt
Julija
Street
fluida
Sjevero
muškarca
otvoreni
njemačkoj
postojale
komponente
najvažnija
producenti
Xi
##hara
##rete
##sley
jela
padne
sjede
traka
Postao
bivših
dodaje
ljudski
planira
povezuju
partizani
scenarija
arhitekturu
##RS
##lsko
Luj
lek
##ćanje
Baski
Justi
Lewis
satra
češki
Bayern
vezani
razgovara
ograničena
##žoj
##hiju
##lanče
##njani
dane
kaza
##stavio
Nešto
Zvije
Zemalj
bolnicu
spojevi
pojačala
suprotno
Gorenjskoj
povezanost
umirovljeni
Administrativno
##bja
##thu
See
Dunav
Formu
Stoli
osjet
German
branio
gradić
porazio
Američkih
raspolaga
uzrokovati
##dum
##žih
Rese
nesi
Prija
Babilo
Sparta
reaktora
nastupaju
komentirao
##lonu
Boro
kova
unuk
Billy
kopna
zlatno
Župani
crijeva
državnu
izrađen
kratkog
nastati
platfor
pravima
Benedikt
četvrtfina
Philadelphi
prvenstvima
Teh
##tirao
##čnice
dvanae
seljaka
teoreti
postupku
raspored
svjetsku
proizvođač
##jer
##venka
Pomo
Snima
motiv
zaslo
odreda
zaposje
Jutarnji
svetište
mišljenju
obroncima
preživjeli
stručnjaci
##ssy
Spu
##sters
morfo
omladi
kasniji
nemoguć
sličnim
pripadala
##enne
##čaru
1849
izum
##bljeno
##zirano
Vreme
kostu
Blažene
odlučuju
vanjskog
izbjeglica
odašiljača
ponajprije
##lara
##nite
##noma
Alek
Globa
death
stazi
Sezona
Značaj
figure
pristao
turbina
prostitu
surađuje
Budimpešti
##led
##vey
Uda
Good
zama
Diokle
apsorp
pohoda
Johnson
Liverpo
donijeli
govorili
zadržava
saveznika
porijeklom
Indijancima
##lk
Str
##šanju
1872
Njen
viru
Varša
##ljanima
Hendri
Vancou
dovrše
hetero
izvede
hokejaš
starogr
debljine
dodatnih
osnivaju
uništena
Mediteran
prezimena
samouprave
svečanosti
financijski
##ship
Dur
Sol
##rovog
kruna
neugo
višim
mjenja
stvarno
Dominika
Subotice
predvodi
vecernji
Osmanlija
samostalne
ograničenja
promijenila
##ár
##zdo
AK
SO
##ckom
##dela
##stici
obrt
onom
##renjem
Lovre
Povra
navod
Champi
južnim
Božidar
radnici
Dobitnik
utjecati
vlastima
istoimeni
##ghts
##čadi
##đima
Ele
Wiki
Zrin
Burgu
Treća
uredi
težina
duhovne
ostatke
propasti
pješaštva
scenarist
##fona
##liki
##zonu
Mre
##nivši
##šenih
Hugo
Vrbo
jetre
Živko
Boston
Crveni
orbita
rasponu
dostignu
pjevanje
vojvođan
naglašava
radijskim
portugalski
zagrebačkoj
poljoprivrede
##gea
Fel
Inc
Woo
epo
Solu
arte
Primo
bombe
ubaci
Vukova
govoru
spajaju
lokacije
padalina
pripisuje
##hio
Jr
##soni
##tone
Sud
##šavši
##žnici
biće
jake
muža
##mnasti
dobru
droge
pisca
podra
zvala
Stefan
carske
invali
džamije
Osmanskog
zaštićena
Švicarska
Karlovačka
sy
##illa
##unda
Tha
Beat
Jova
Bitci
Mihai
##grafska
##tiranja
imigra
junaka
pothva
ranjen
susjed
Stranka
simbola
sinonim
dominira
katedrali
podijelio
##BM
##EM
##kl
##baca
Eco
##pskom
Best
##njenog
volio
Pohađa
Utakmi
oceanu
svakih
##lističkih
dostupna
guverner
marketin
programe
Retrieved
poremećaj
Ujedinjenog
pravoslavna
##denom
##tland
##đujući
mlada
želja
Pojedi
delega
nikako
Jadranu
filmsku
toplina
prostore
magnetsko
renesanse
sveukupno
zaključio
utemeljena
##ço
##cre
Ogu
prota
Stanley
alumini
trenuta
uništio
pronađena
specijalne
muslimanske
opterećenja
industrijske
gradonačelnik
##fat
##tit
##erra
SIL
##lasku
Dark
Arena
Odsje
bismo
bitku
misle
njeni
tisak
Radovi
Zlatna
odjeću
događaju
Vladimira
pregovora
Zagrebački
objavljeni
slikarstvu
BDP
Dvo
UNP
Izna
dobu
Nenad
kreve
štete
bojama
buduće
kometa
prošla
kromoso
naseljen
glazbenoj
toplinske
vlastitih
pobjednici
##ula
##tman
##ševića
njome
usred
vjeri
Pjesmu
okreta
prekra
article
prijeći
ulicama
dijalekt
Komunisti
komunizma
publicist
##loma
##tizam
Hera
nade
##tirati
##zivanje
uništen
Rezultat
prošlost
urednika
dijalekta
##rent
Vid
ode
Snje
arme
konju
unosi
klubove
ostatka
pogorša
toplinu
domaćina
lokalnom
talijanskim
##čad
Hin
ospo
talo
zago
Sopra
penja
rodno
Uznese
mogući
polari
vegeta
zadnja
spektar
sastojao
kvalitetu
##pac
Ug
202
##ljubi
##ktorom
punih
Zadnji
pravac
Zdravko
pretraži
Akademije
Poštanski
##sul
MP
##jena
Hur
##mjera
liva
pasa
etike
londo
skrbi
palaču
prihoda
shvatio
jedinici
principu
zaposlio
odgovoran
poručnika
napomenuti
povijesnog
povlačenja
##inu
MI
##meno
##mont
ira
##ments
Izda
poje
##ctions
disku
onoma
##stičkih
Moskva
manipu
šećera
inačicu
izabrao
moslava
tjednik
tvrđava
četnici
pozadini
jednadžbe
omogućila
površinom
sastavljen
planinarstvom
##kins
##nity
##žine
pig
Juli
akro
neja
ušću
kazna
kupole
članci
glumila
imovine
simetri
tragovi
uključen
min
##ralnu
naje
Statu
audio
bande
zakre
pobuna
pravne
Najveće
sudionik
čišćenje
poslijera
jedinstven
posjetitelja
##dalu
##feld
McL
##klasi
Scha
remi
ploči
ženom
Santia
Specija
nastupe
sekcija
istočnog
slobodnih
devedesetih
##glica
Cour
Dama
miru
suče
izbio
mudro
nizom
Jersey
pratio
pregle
preveo
zidine
poljima
sistema
trajalo
meridija
svijetom
perzijski
uspostave
zabranjeno
##ML
##ac
##lot
##ssel
voć
1859
##njenim
##tation
kakvo
podru
##ljubiča
ekstra
globus
sinovi
talent
uputio
country
narodnom
Dioklecija
##luk
Huma
trka
Grgur
Prima
##govarati
bijelim
državom
emisiju
skladbu
prekinuo
sastanku
nastupili
pojedinca
situaciji
činjenicu
hokejaškom
industrijski
VN
##mnji
Ani
eti
Vida
##rodica
radnog
sumnje
tumači
domaćim
izmjene
grobnica
izmjenji
nadzorom
zapadnim
izdavačkih
upravitelj
ed
Hea
Kim
##čnica
Zara
gorje
Julije
glasnik
masovno
okružen
Institute
prijelaza
umjetnička
##ala
##cos
rus
Utvr
leže
urug
čuti
neret
Gorica
Jedino
Manasti
odraslih
sustavno
Primorsko
kulturnom
ID
##sera
Ata
Mat
##divši
##šenog
orto
wiki
Benja
Drave
Odise
izašla
kabine
Konačno
Vukovara
nakladni
##dir
##pke
##ljevi
Ekva
Pear
arti
gama
upada
sestri
Gradska
gradskom
krajnjem
odvjetni
sagradio
tekstovi
dvostruki
mehanički
sudjelovalo
fr
Njih
Sene
Tekst
korup
takvi
činom
##logical
Alfred
Osvaja
dionice
karijera
sastanak
##SP
##živo
CIA
Dam
##lture
1863
Izgu
Pave
Suko
komo
kuta
građena
portalu
Bjelovar
Bugarska
lokaciji
njemačku
spominja
zaštitom
##eja
##pskih
roka
tota
Iznad
Kongo
ekspo
opozi
stale
vodik
predra
pristi
stječe
sumnji
takvom
urugva
vektor
posluži
definici
svjetsko
spremnika
središnja
završnici
produkcija
##zzi
up
##late
##žica
##brani
5000
Liber
cestu
kutom
Museum
Starog
Douglas
autobio
načinom
otkriti
sudbinu
obavljao
povećati
uspjehom
Šibenika
predsjeda
Washingtonu
##eu
##bes
##ardo
##nesu
HOS
Bene
What
ruci
čina
Group
alumi
mokra
System
celulo
majkom
osvjet
potrebu
Industri
##rja
##chia
Ree
##gmati
##terom
1865
Rama
kanjo
nekoć
nogama
ženska
turneja
zabavne
razmjerno
prihvatila
konferencija
##yon
##doru
240
Fau
muž
##ljina
1700
1856
dodao
impro
posmr
utrku
Dvorac
kratki
interva
Carigrad
komisija
udaljena
Muslimani
dodijeljen
istraživač
##šci
HP
Oku
pija
zadru
poruku
sinago
oprošta
oženjen
liječenju
proračuna
uslijedio
umjetničkog
##vki
Les
garni
Đurđe
želji
Domini
jezgru
obnova
prozor
savezu
snažne
gradnji
provela
spektro
Bosanski
Leksikon
Svjetski
japanske
lingvisti
postojeće
##sala
čuo
Chel
Polu
Wood
koko
zamr
Brian
Media
Uspje
priku
vjera
čijim
nazivu
nazvali
savjeto
Ferdinanda
novoosnova
zrakoplovne
##krug
##teke
##vrat
Fur
##tnicu
Svje
##rirati
##stupio
Pojava
močvar
College
Stephen
koncertu
nastojao
neprekidno
##xe
##fen
##sani
očima
pješča
priprem
Službeni
tehnologiju
##oks
##zdi
##ljić
Anu
Bole
Obli
Pero
erup
##dijski
kugle
nadne
većoj
špiju
##tionary
boriti
izvire
revija
ugljen
izvesti
rimskom
suprugu
ventila
općinama
suvereni
mjesecima
prilagodi
uslijedila
međunarodnoj
##anu
Izu
Pio
Mani
Karađ
bavar
nižim
##stitelj
##tiranje
Moskve
djelom
okoline
partija
softver
dogovori
privlači
djelatnik
međunarodnu
zabilježena
##NG
##yn
##hova
230
NFL
##netar
##stone
Brat
vidu
Ispod
Miami
karbo
sreće
sreću
časti
##ziranih
pozvan
razmak
Izvorno
Naklada
Sunčeve
nastavi
baterija
izrađuju
Norveškoj
nogometno
odlikovan
disciplini
dizajnirao
koncertima
matematike
potpredsjednik
##bnim
Otta
Troj
Karta
Leona
žrtvo
Kaštel
Zgrada
polaga
smisao
##fikaciji
Turcima
Zauzima
namjene
osoblje
ljudskim
vanjskim
službenoj
podskupine
RS
##llen
##vaka
##zare
dna
pres
žute
Nicho
klimu
Češka
Johann
Slično
##ljivanje
Airline
Francis
egziste
održalo
Osmanlije
polufinalu
umirovljenja
##lažu
##steri
mino
Acade
Babić
ženka
Chamber
mjesecu
najjači
sposoban
prethodne
utemeljio
podmornice
##fli
##zal
##grom
Swe
chi
han
##stani
Akvi
Mijo
Toni
gube
##stička
##znosti
Prvoj
majci
plava
stanu
osnove
Velimir
detekti
izdvoje
obrnuto
prirodo
Škotske
pritiska
zadržala
službenom
utemeljen
doigravanje
tradicionalni
##ña
##ray
##reu
Iv
NGC
Proto
dobara
petero
##jednosta
Windows
Nažalost
naseljena
postavljene
Međunarodnog
##AL
−
##dika
##jicu
sar
##polje
##rovom
##stija
gume
neod
Disco
Gradu
utoči
potoka
simpati
Rumunjska
obilježje
podatcima
procesima
središtem
debitantski
financijske
##knu
##pse
##sfera
moti
vrti
Dobio
amino
crnog
gline
konzo
kolege
širina
američku
neslužbe
uspješna
spajanjem
konzervati
prevladava
umjetničko
zamijenjen
električnim
##morf
##ndro
Timo
pale
##leksis
##milija
gušte
spoja
spola
Dinama
favori
najsla
protok
podatci
zbornik
##sari
##teti
Ovu
Zlo
Beča
Dalj
Voda
muške
puška
koncem
načelo
ispriča
stanovi
##bež
opi
##dnije
##tvore
etio
trga
##politi
koncu
okvir
pošti
##lementi
dubina
lijepo
konačni
planove
razredu
vrhovni
američko
poslovni
galaktika
popularno
prostorija
utakmicama
zrakoplovi
##wai
ai
bih
##menzi
gađa
Detro
Loren
lijek
nesla
##bljenje
Nalaze
Sisačko
Slobodan
posebnih
pozicija
Barcelona
nezaposle
činjenici
Eli
Ten
beg
leb
oru
Okla
koša
loze
nera
utro
Bruno
Dance
Grani
straža
vrhova
široka
autenti
gornjeg
međudje
otvaranja
zemljište
##ssma
##štar
Brdo
Opća
Sije
bezu
čelo
##struki
dojam
kirur
poštu
odbila
pograni
vinogra
zasniva
dogoditi
državnoj
postotak
formirana
proizvede
sjevernim
##dos
##tene
Baj
ton
1600
Land
Preo
mene
žica
otapa
Matije
lovaca
ocjenu
kamenja
glazbeno
polovica
Vjekoslav
potpisivanja
##rone
##ties
Lav
##podne
1855
Dave
Odno
dopi
izva
živu
likom
pojma
Califor
probija
izazvalo
strujanja
suvremeni
##jca
nabo
Hadži
Nekada
doživo
katkad
tehniku
Mezopota
neobično
objasnio
razgovor
Španjolsku
termodinami
##Cata
##ckey
##žito
##čicom
Sile
Tvor
##linski
Petru
Schwar
dječak
ukupnom
visokoj
bjelanče
mađarske
##Nacionalni
poglavlja
naprezanja
ch
##čnja
Lui
São
Glava
Union
inspe
kameno
topova
svojega
uređaji
Promjene
sirovina
upravljao
šezdesetih
MH
##poda
Azi
##dolfa
Over
loptu
trake
Ovisno
##lonaslje
razigra
saznaje
telenove
prikazivanja
sudjelovanja
##AD
##hrane
Arte
Loui
krvo
Serge
ometa
##gradnju
bivšoj
imanja
prakse
##cionalno
cjelina
otkrila
nadolaze
poljodjel
pripadali
sljedećeg
stijenama
##loa
1840
Crkvu
Unije
dobile
kompre
prazni
Bernard
Bizanta
Odigrao
trećine
Vukovaru
sjedišta
kulturnim
tadašnjoj
godišnjice
konvencional
##pes
CH
##lari
##nell
##nisa
##nogo
##sonu
hop
onu
##kvica
kule
opus
trča
Clark
viših
čelik
Mariju
odbili
trenja
neočeki
posebnom
prosvjet
čeljusti
drugačiji
diferencija
zajednicama
gradonačelnika
Aja
Ilo
Brad
Stutt
kompju
Nuklear
krajnje
služiti
konstanta
nastupala
najutjecaj
proglašava
ujedinjenje
koncentracija
hidroelektrana
##miro
##sfere
##čišće
Data
Eric
Rodi
niko
vuče
šoka
Neptu
Tokom
česta
Zavoda
hitova
izgara
kaplji
Nagradu
cjelinu
fizičke
vojnike
##Catalogue
Napredak
zatočeni
bogatstva
podijeljeni
prijateljima
##TO
Hei
##ravak
Ovim
kiše
mina
uzne
##rodice
##vojili
Vojne
makar
pejza
Phoeni
napadi
titula
prostra
soundtra
poginulih
zaključiti
##tney
kažu
nevi
tuži
##parati
Adolf
Michi
Branka
Najviši
dvojice
završen
obrađuje
zauvijek
Argentina
jedinstvo
napravila
ća
##kvim
##rald
##čevo
imp
##povje
Luja
difu
Bolog
prire
satni
Mađara
grčkoj
regiju
slavni
zaista
isusova
pomoćni
sekunde
četvrto
kampanje
pretrpje
registra
nastupali
lokaliteta
vlasništva
zaustaviti
označavanje
##mit
DS
FN
##teći
Ota
Arse
From
Posu
##kovići
Dekla
diska
žrtva
Golden
arhiva
nacije
odjeće
Skupina
Williama
historio
susjedne
dalmatinske
namijenjena
##ín
##geo
HT
Pea
paž
##ljava
Skra
bija
Ljubi
Mužja
Parag
Stipe
raspa
komuna
požara
zrcala
dječaka
četvori
školske
likovima
lokomotive
##rada
##gavši
baro
dalo
glume
izbjeći
Današnji
ostalima
precizno
pronašli
popularni
filozofija
##gas
##kur
##ute
Pop
Rela
Earth
Pomor
nosač
Jeffer
kompro
opisan
stablo
##cionalna
dokazao
naranča
otkrije
ugrađen
ukinuta
komunici
napadaju
nositelj
skupinom
Prvenstvo
mješavina
trgovačke
##agre
##damu
##glia
Ibra
roba
##zirala
Izvje
Church
Kovačić
Travnik
okolnim
rekavši
bosanski
projekte
uništava
venecija
vjerovao
premješta
vremenski
industriju
osiguranje
##lop
##umu
##čile
uli
##žnicu
Pavle
budže
kozmo
lopte
staru
turbo
Našice
dnevni
poruke
četnika
keramike
značajke
##lá
JA
un
##ches
Nina
kipa
Centu
grčko
otvor
vatru
Trener
pisali
pogoni
vraćen
ozljeda
datiraju
sačuvani
društvena
milijarde
prijevoza
autonomiju
originalno
mikroregiji
##25
##rato
##zena
McG
##berku
##motor
##music
alge
pivo
Under
treću
ukupna
Osobito
Poznata
Početak
poglavar
smatrala
zaslužan
Elizabeth
Špi
##nizam
Cele
Peču
koža
pića
Kelly
Londona
Wilhelm
povreme
ugarski
##stavljeno
Materija
Rimljana
Strossma
asistent
neretvan
ugovorom
kratkotra
postepeno
splitskog
uspostavljena
##inte
##kret
##žniji
Voya
obru
Center
boravi
kirurš
Harryju
Jacques
biljnih
glumicu
gradili
Microsoft
Nezavisne
preživlja
strateški
zabilježen
veličanstve
organizirana
##rag
##čac
##lish
##rizma
1815
Apri
plja
##govoru
##novići
Izraz
čisti
Rusiju
legende
nesreći
svezaka
izjavila
Barceloni
jedinstveni
##bove
##žana
set
##jnica
##ničko
That
##bljene
##ktivne
##portal
Hispa
Vitez
glasno
izvore
naučio
pridje
rotora
Pekingu
cjelini
kongres
padobran
temeljen
standarda
Najvažniji
televizijskoj
′
##hei
##nosu
##soli
Vio
die
##kosti
Baja
Dali
Hava
Maja
Orbi
Susre
dječje
istina
Formule
natječu
potpisi
potpunu
baterije
pilotima
otvorenog
potpisali
vremenima
prijestolja
##IM
##xt
##plan
##scher
##ardian
Blago
junio
otkup
atleti
Zajedni
smanjio
zaređen
domovini
pravopis
splitski
utvrditi
Muslimana
divizijom
Posljednja
zavarivanje
Komunističke
Av
##sice
##yera
fru
##vredi
Doku
licu
Eugen
abece
bojom
napla
##teljice
anarhi
nadmoć
zelena
gradsko
potpore
sjevernu
utjecala
časopisi
tadašnjem
pacijenata
pojedinaca
jedinstvena
##kona
##lson
##nkom
mač
Nara
Nisu
Salz
mise
pokr
umre
šefa
Spiel
oporu
world
ruskih
Chicagu
rezervi
Prostire
padinama
pogrešno
ugarskog
pukovniji
razumijevanje
##esto
##lile
##vstvo
Lord
mona
##cation
cjevo
kartu
##dencije
Stewar
komora
režiji
skanda
težinu
Partiza
mužjaka
natrije
prašine
publiku
ubijeni
činovni
Bošnjaci
izražaja
redoviti
postojali
Pripadnici
promatrača
poboljšanje
Najpoznatija
##zzo
##dali
##dere
##čiću
dječa
Milanu
clanak
manjeg
niskim
čudovi
Student
dostoja
grupama
turskom
Bundesli
Svjetska
poduzetni
intelektua
##cina
špa
##anski
Seku
name
Šuma
Imaju
Sutje
sedmi
crtača
dužini
kasnog
snagom
trijum
vožnje
krilima
njezini
privile
ravnini
Hamilton
dizajner
interese
jedinicu
potrebama
##cin
##ftu
##denu
Ober
nano
##medija
Karak
uspon
Filipi
Lokomo
egipat
prošli
silama
ljepote
župnika
uništili
uređenje
Predstavlja
##kee
##sts
##mata
235
Hay
Kise
##ziranje
ružiča
zidova
##nistički
prozora
srednja
osmanske
pridruži
provesti
trajnica
troškova
uspješne
kvaliteta
pretežito
Švicarske
velikosrpske
##jn
##pt
##ful
##his
IM
nadim
koševa
kupiti
prešli
Popović
Zapadna
knjižni
prirodu
Anderson
Olimpija
Svjetske
izabrani
održavao
zapadnih
televizija
operacijama
najistaknuti
##dou
##hau
##izma
zam
nizi
slom
Broda
Isprva
Odbora
tornja
etnički
razrije
spreman
letovima
vrijedan
oslobođen
poglavlje
postupaka
austrougar
franjevaca
onomastica
vojskovođa
kategorijama
##kal
Sh
##džan
##kise
##ševo
Hop
ade
koa
enzi
čiju
##larnim
bomba
kvant
ratom
broncu
hranom
načelu
njenoj
reperto
trgovci
dioksida
strojevi
Kovačević
guvernera
ograničen
poteškoća
naoružanje
##cij
##hea
##bury
son
Berg
Scena
hibri
našeg
zloči
ponude
Austriju
pseudoni
napustila
stvarajući
statistički
zrakoplovstvom
##ig
##lomu
##smje
Aka
##venog
Frei
maha
Grego
brije
kanta
Palača
albumi
dvorcu
htjela
ratovi
rimska
zračni
mostovi
Ukrajina
volumena
stanicama
##sata
saj
špe
##ROFOR
##klade
Sila
##loškoj
Anima
Marse
asfal
javna
plaće
mlađeg
obveza
podnio
napravi
podrške
poznatu
Grafički
Slovačke
gimnasti
prstenova
zarobljenika
zrakoplovnim
##JA
##nty
Wea
##llino
##moder
Dragi
Slave
izvoz
retro
Glavno
mladim
nestao
Koriste
tekstovima
unutarnjim
pokrovitelj
zajedničkim
desetljećima
diskografske
##VNO
##prem
##thor
Naz
Jezi
zlou
Disne
anime
bolja
atribu
dijale
kamere
##komunika
Georgea
rukometu
zagovara
Uznesenja
nastupima
radionice
tadašnjih
Zagrebačka
departmana
kraljevski
antifašisti
objašnjenje
kompilacijski
##tuju
palu
Minne
##rivanja
##ziranja
izvela
oltara
preure
prešla
staroj
Chelsea
Vjesnik
izolira
lubanje
simfoni
šestero
Albaniji
Američka
Venecije
očuvanja
pristaša
institutu
Međunarodne
najuspješniji
##gui
##ćan
##cken
##slim
USS
##lnice
pomr
držati
kažnja
srušio
dioksid
sultana
svemiru
trebale
UNPROFOR
redovima
završiti
rukometni
učinkovitost
##ño
##gos
##gus
Zma
##rovim
uzra
Prona
bakre
jakim
marka
prebi
kanalu
polemi
Srednja
podnosi
izgrađeno
osvojenih
intenzivno
Olimpijskih
prisutnosti
državljanstvo
##tik
AN
IP
##mari
##riku
Tel
Rada
Tipi
jaka
seiz
Najče
potez
maleni
prekom
znatan
običaja
oružane
volumen
domovine
sačuvana
Karađorđe
igralište
proizvoditi
komunikacija
Vis
Mešt
danu
robu
udje
Locke
diser
dulje
suigra
počasni
Augustin
trajanju
troškove
elektromagne
1858
Brow
Casa
Kupu
Naru
obraća
staklo
pisanju
pojavile
privatni
Konfedera
slobodnom
označavaju
##OP
##šca
##šek
AL
CS
##kton
udu
uka
##nogue
saže
nisam
Samuel
razara
satiri
vjerni
čitave
Biblije
crkvama
dozvolu
izgovara
iznenada
predstavi
prikazani
sljedećem
discipline
kontinuirano
organizirani
##ati
##get
##kako
##tniji
Daru
Vita
naši
Kupre
nadma
praksa
Njezina
mogućih
stručni
zadužen
Karlovcu
stvorila
Filipović
inženjerima
svakodnevno
predstavljanje
##US
##fü
##ncia
##živje
mlje
štet
žanr
##jevića
Struč
Oklaho
obični
okvira
udjela
Ukoliko
listovi
Bošković
rotacije
pripovjeda
sovjetskih
odgovornost
rezultatima
##cz
##mune
USA
##cture
##stiju
Poto
katu
krov
Dubli
ruska
sjeme
kotača
raspad
kratkim
Fakultet
Istočnom
izvršiti
kemijska
količini
zatvorena
uspostaviti
##snike
Down
##tičkog
Giuse
Jovan
ciklo
razlu
župna
držala
inhibi
Minogue
dodjeli
običaje
odrasle
ekspresi
sadašnjo
Slavonski
izgradili
ratovanja
samostalnu
naseljavaju
Meteorologija
##psu
Ou
Py
##pata
Hog
##lnoga
Mori
Great
blues
dodir
spasi
Ustava
otočja
Ponovno
dijagno
Norveška
nastavku
preživio
Ljubljana
japanskom
količinama
##TS
##hov
LP
SE
##wski
Phy
žar
##ksije
##tehni
##thers
Sami
Will
caru
moje
Građe
Helsi
Slaven
krumpi
otpoče
zračnu
Premier
djevoja
ljubiča
obnovio
pojavom
konceptu
partnera
praktici
sinkroni
dužnosnik
eksplozije
demokracije
ultraljubiča
##žaj
Zve
Loši
forme
lovci
vampi
izlije
pojedno
pridonio
privatne
bosanskih
dugometra
opremljen
Eurovizije
političkoj
prethodnih
studijskog
##28
##INA
##cert
##nesa
##rity
##čano
##klapa
##renog
##kavski
##savlje
Jimmy
Majke
uzduž
većom
Udruge
Problem
bitkama
improvi
vodstva
Branimir
protesta
Argentine
Katedrala
poluzavrš
nogometnom
mnogobrojne
prevladavaju
##VA
##py
##gme
##šje
Đa
Gaj
Kosa
Frane
bilja
tlaku
Svetom
adresi
srodni
Augusta
izvršio
snimati
tipično
Primjeri
oduvijek
pozornici
zahtijevaju
##dati
##čanj
103
Joa
Tad
zbu
##parni
##skama
Made
navo
Pompe
Sauro
bolni
naveo
ovome
preva
Škola
Boeing
akciji
osobne
Njihovo
content
dovršen
stvoren
vezanih
Dolaskom
biskupom
trajanje
značajni
Fakultetu
premijerno
ljestvicama
aktivnostima
##žani
Sni
##kvizi
Bell
Ozna
kiša
opća
znan
Bowie
Ruske
odgoj
razvr
spora
bijelo
božica
niskog
orbitu
Narodni
boravak
neovisna
simptoma
primjenom
stotinjak
##OL
##rec
##šaj
##dska
##rian
Mine
##litika
Janko
nazad
##servati
Franço
blisko
proved
sjemen
Madridu
Vjeruje
centara
platina
trgovačko
vladavina
stajališta
ispitivanje
##esa
##lins
ISS
##manna
Diza
Pica
Sini
izdi
mete
odse
##istinu
##licama
Deset
Magda
petro
sinom
produk
trenut
zvanje
Zapadni
poražen
vođenje
žrtvama
predlaže
##ruz
##tou
##burn
##work
##zoru
##štra
Ška
Volu
kopi
Hvaru
Perry
medij
nekon
njegu
činio
brodom
ostatku
sudbina
vratara
metodama
Hollywood
nevjeroja
obrambene
pregovore
značajnih
lokalitetu
Pé
##kira
##čiće
111
Ura
oli
1854
Hvar
bolj
poša
sobi
bandi
dugog
kreta
pisci
ručno
fizici
istinu
otvora
Machine
Massach
istočnu
jezične
stručne
gradskim
Europskoj
ekspedici
posjeduju
osloboditi
Jugoslavenske
##fun
##žbo
izi
##tizma
Hell
Mažu
gost
šibe
Božji
China
Light
Sulta
luksu
Madžar
Stjepa
Zenica
malena
odobri
pacifi
intelige
memorija
Središnje
takozvani
teritorije
životinjama
##dé
##mre
##trom
Žar
piće
##tirali
Shake
harmo
prigu
filhar
odobra
planta
Habsbur
kamenih
pomorske
serijama
bakterija
korištene
otkriveni
prilagođa
primjerci
svjetskoj
vojnicima
oproštajni
prijamnika
postavljeni
aerodinamiku
##ice
NBC
shi
##manti
##mento
##sniku
1806
Arti
Holo
Zele
alat
Musso
Sulej
brana
zmija
djecom
kupuje
prodor
trofej
Staljin
kopnene
snimiti
vjerova
Croatian
Norveške
klasični
naslikao
Španjolci
##OJ
##ön
PM
##dane
Pao
##lovom
1852
kodi
osmi
smet
##energe
##kovica
##movima
Delta
lovac
operi
remek
Afriku
Andrew
Dumble
indeks
prvoga
Istočni
oznakom
suđenja
Enterpri
tjelesne
slojevima
priključio
nezavisnosti
##zore
pul
##vskim
Lici
Sadu
Antar
Singl
geode
puške
Starom
manjoj
plijen
samoga
##njivanje
najnovi
nestali
predati
ribolov
Organiza
Prijenos
Regional
Research
brončano
navodnja
gitarista
negativno
Parlamenta
izgradnjom
trgovačkih
fakultetima
oslobođenje
##NI
##busa
##šanje
Nače
##ničkom
petor
german
klavir
povodu
zavjet
kratkih
starija
neograni
normalno
postigli
razvitak
saveznici
nominirana
nuklearnih
promicanje
odgovornosti
bombardiranja
##fro
##zla
PR
Rje
dri
##stona
jaha
Takve
čiste
Danske
Jednom
učinje
Vuković
nesreća
vrhuncu
hlađenje
kongresa
korijene
nalazile
rođendan
umjereno
potvrđeno
Perzijskog
lokomotiva
načelnikom
originalni
sveučilišni
gospodarskih
##45
##bola
##msko
##ćana
out
##brary
Srbe
doza
Alija
Emanu
gladi
ovise
potok
Đorđe
iskopa
zastar
Zelandu
novosti
razbija
stripom
vulkana
ostavili
prodavao
snimanju
zahtjeve
Središnji
olimpijski
roditeljima
̋
AD
##zilo
fau
lom
##stroj
Lisi
Pavi
Vice
amfi
skrb
Kamen
glasu
pisme
Matthe
babilo
nadgro
odlično
postave
povećana
vlasteli
ceremonija
predjelima
regionalne
organizacijama
##cuju
##gure
##stle
Ano
eri
##ktivi
Jese
nači
##vladao
Horva
Iranu
kakva
potje
slabe
biraju
misiju
prikup
Muhamed
Povjere
bunjeva
stranim
zapisao
Helsinki
Krapinsko
engleskim
infekcije
koristile
operaciju
crnogorske
dijalekata
##jio
##chan
##luka
Coa
Izo
##stave
##čarka
Grka
Odre
Sher
loši
##tonski
tajna
živih
##begović
Concor
Mehmed
kupola
novoga
prvaci
robova
Poznato
bijelog
bojište
duljinu
glasilo
uvedena
učinili
##menzional
Giuseppe
ključnih
materije
podvrsta
sadržava
otkrivaju
naoružanja
zajedničko
##base
##elom
##jevu
Desi
Este
Folia
Mercu
Trans
onome
Howard
bavili
emigri
neobja
palači
radnik
vijeću
aktivna
brojevi
oživlja
stožeru
ubojica
reakciju
materijale
projektantima
##lati
##mile
##ženu
Gia
kose
sani
voće
Metko
mačke
Katalo
pomije
posude
sniman
sultan
parenja
namjerom
pričvršće
dobrovolja
makedonski
protestanti
##Bo
##ça
##dem
##kai
##rke
##daju
##mita
FBiH
This
sobe
Bobby
Pedro
borac
brine
rodni
Aposto
dublje
grčkim
metodu
Đakovo
nasilje
poraženi
Portugalu
postavili
snimljene
tehničkih
ukrajinski
##OO
##TC
##dani
##lipi
##ruma
Mol
##morfo
##ntifi
##torski
Allen
mongo
Ivanom
napose
##godišnju
interve
početni
protječe
Nevesinje
koalicije
poslužiti
jedinstvenu
##uzda
ABC
zap
##centa
##njenu
ruba
##dnijih
Cleve
Merce
Srpski
diskri
dugoro
izjasni
odustao
pravnik
ustvari
zagovor
Football
centrali
raspodje
financija
##ens
##jen
##back
##ggio
##brije
##činju
Emmy
Ster
Wild
misa
##bljima
Brodu
znamo
Bijeli
kratka
izložbu
izvršni
katalog
dolazili
vlasnici
Sardiniji
nerijetko
odgovorni
Savinjskoj
katoličkog
uspostavio
koncentracije
##vova
Bul
McD
1814
kapu
zdru
##ktivna
Iraku
Irska
Linco
Mount
omota
##čivanje
Digita
Gustav
dolinu
lijepi
mladić
Hermann
izlazio
izloženi
lokalnoj
pokrenut
razgovora
teologiju
uključena
zaključak
suvremenog
poslijediplom
Giu
Krš
uba
##light
##plete
uzme
##tonskog
##vljanje
incide
usvaja
napadač
naraste
kongresu
muškarce
Temperatu
California
Stanovnici
britanskim
nogometnoj
Maksimilija
##zba
##kalo
rok
##šćuje
Toki
iznu
puna
##ljivog
Salva
eklip
punim
stoke
Carlos
Oslobo
Plants
Trećeg
lagano
tenkov
Toronto
poretku
snažnim
stupova
telesko
ponovnog
presjeka
trenirao
uključeni
Massachuse
preostalih
kvalifikacija
##ane
##jati
##klet
Dži
Jel
Pam
dou
##rstvu
Girl
Nosi
Saha
golu
jama
moja
Human
Takvi
štita
Montre
Review
kvanti
Russell
Svetoga
pogodio
vlakana
donijelo
petnaest
pohranje
priredio
temeljem
vrhovima
Portugala
Tomislava
dobrovolj
operaciji
definicija
svemirskim
gospodarskog
##на
##kut
##beni
##jiti
##guage
##prema
pune
rana
naklo
sferi
Princi
Zemljo
franši
svezak
fenomen
sastavi
govoreći
klasičnu
jednostavni
katastrofal
podijeljeno
promatranja
odgovarajuće
razmišljanja
##dat
SV
##dola
##drom
##iser
##roti
650
pog
voća
broje
speci
birača
dobrih
igralo
najraz
##minacije
Osnovao
daljnji
domolju
pištolj
preobra
igračima
židovske
unutarnji
nuklearnog
gospodarska
##žića
Dun
Ango
jelo
##zemalj
Valley
istine
svjeti
Formuli
putovao
podjedna
klasičnih
Azerbajdža
britanskom
rezidencija
jugoslavenski
##dž
##ith
CK
Kno
raj
Žig
Bile
Moon
agent
drasti
ekstre
učinka
optužbe
puštena
donijeti
navedeni
pretvorio
nogometaša
zahtjevima
raspoređenih
##dac
##buna
##test
Jin
dno
otu
##tteru
##šenim
Cher
Hali
cito
skro
sobu
Dobra
ampli
junak
očeve
teori
drvene
morski
Samostan
Zapadnom
dozvolja
izabrali
prezenti
stipendi
ulaganja
prijetnja
prisiljeni
završavaju
umjetničkim
Zü
nm
tv
##pica
##ricu
##djeti
Alfa
Igna
osku
Tanza
Rimski
vrstom
izdavač
lokalna
posjedi
gradskoj
izazvala
odigrana
rijekama
sportske
lokalitet
pronađeno
sadržavao
službenog
dragovolja
prethodnog
##tas
rs
vam
Dela
rizi
##bljuje
Cezar
Denis
Polju
imuno
srije
nadopu
pravog
valjka
zvonik
široke
Gabriel
nastave
znakovi
islamske
službenu
izvođenja
okruženju
patrijarh
posvećuje
pukovnija
Olimpijske
jugoslavenskih
##ug
##ра
##hin
##ite
##oka
##sas
SC
260
Qua
##ffice
##pskim
##tvori
1851
Kaka
Luis
Moza
Supe
soba
Proce
tende
##ravanje
##ćivanje
drveni
nadvoj
odvodi
početi
zastra
nejedna
odredbe
plemići
položio
Nasuprot
dokazati
osvojivši
posjećuje
čimbenika
izbjeglice
meteorologije
IA
Ud
##žnoj
Tin
mit
##cizma
##posje
Deep
Iron
blje
Šime
##mentom
##rijeti
Evolu
Latin
Troja
zvana
Hogwar
Milano
Tonyja
snimao
svojst
zlatni
Pavelić
faraona
katedre
desetaka
najčešći
poslovne
spoznaje
sastavima
posljednju
organiziraju
##ddle
##kato
##rodo
##zigo
Llo
1813
Dubo
Gian
Vode
##tičkom
Books
facto
gliko
ranoj
Sadrža
Techno
radnih
lijevog
Smješten
kasnijih
stanovnike
jednostavan
##kel
MA
##nčić
##lando
##lnici
Dead
Duha
NOVJ
Obna
kost
lišće
postu
fronte
vezano
postava
rimskim
slavnih
tvrdnje
Napomena
hidroksi
knjižnici
nadzornih
zvijezdama
tekstopisac
iP
##taju
##vsku
rođ
##jnika
1846
Prou
Bella
Hotel
bitki
detek
ispao
široj
bazena
danski
svetac
##ljenosti
##đivanjem
Naslije
Popular
brzinama
Jeruzalem
poglavica
filozofiji
posljedicu
procjenama
doigravanju
##laka
##sovu
Nan
kvi
##ginja
##rijet
##zanju
vrat
##leonto
##čarski
Broad
Jabla
Raste
Unite
tanke
People
milosr
obzora
elimini
izmjena
resursa
zapadnu
bazilike
izrađuje
povećala
preimenovan
organizirali
С
##java
Ful
Kai
leu
##logom
##rovih
naša
dugih
lanča
nevid
plaža
svemi
Proces
Spomen
zalaga
cjeline
zaprije
izvođači
konkuren
njezinoj
pregovara
sudionici
višenamje
Rimokatoli
prihvaćena
jugoistočne
situacijama
##jali
##ljivu
##rodne
##čanin
doča
##meniti
##toriju
Lucas
Singa
flota
komet
radno
Cijeli
kamenu
modele
podiže
slaven
zidovi
čitavu
Indiana
Kennedy
povukli
redovno
Ljudevit
ubrajaju
ubrzanje
uključio
negativne
Makedonija
Zapovjednik
uključivala
##zent
Lao
Bele
Tara
grož
išla
odve
vuko
eseji
##roameri
Eritre
Rijeku
grabež
nekoga
prikri
ratnom
teškog
Čaplji
okolini
orgulje
obračuna
troškovi
izvođenje
Konstantina
svjetlosnih
##95
##mum
Tau
šut
Empi
Niki
Nedje
Porto
Susan
radna
##njacima
Većinu
kolegi
##grafskog
tražeći
uvrstio
uzimaju
Colorado
Enciklope
postupkom
Francuskom
Ujedinjeno
pridružili
CN
##head
##rium
Pat
Alja
Gior
Indo
Tiro
srcu
##kanaca
##zanjem
ljevi
Junior
kasnih
stilom
Sudionici
analizira
dopušteno
distribuciju
##LS
izve
sece
trima
##njavanja
eksploa
siguran
zračnim
doprinosi
galaktike
kalendara
proglasili
Ministarstvu
organizirati
##td
##svi
##fiel
##nsis
##stry
all
##dnija
##pende
igno
bijeg
gluko
maloj
toksi
Oliver
bivšim
doktri
karika
ponovi
Izraelu
Ladislav
prezenta
primarno
istražuje
napuštaju
Dubrovačke
generatora
##EG
##ppo
##rela
Gav
Kil
Bros
apsi
doti
davao
herce
kamene
režiju
aktivne
asocija
budućeg
optužen
pomogla
uvršten
Heinrich
Shakespe
filozofa
grobnice
minerala
vitamina
završnice
zaštitnik
nadležnosti
}
##ree
##site
##minje
fazu
tune
Kazah
Kranj
južnu
lukom
učini
Miller
Nation
Portal
Belgije
mužjaci
sekcije
bakterije
gospodara
jedinstva
praktično
promjenom
federacije
ideologije
obuhvaćala
##yi
##ziv
Vul
##danju
##kovih
##venom
Krka
Podi
Thor
kave
##tuzija
Mosko
atlet
plavo
tetra
beskra
people
uspona
domaćem
korijen
osnovno
nebeskog
Jedinstve
kalendaru
mađarskom
prilikama
zapovijedi
oblikovanje
UD
Ian
nag
Solo
koru
pano
Ambro
Njena
flotu
prise
toplo
Brzina
Duklja
bavila
pojasu
pravih
snažna
tramva
zadaću
Inicija
motorima
piramida
utjecali
utočište
vjernici
koncertni
priznatih
stručnjak
obuhvaćaju
ostvarenje
postojećih
povijesnom
sporazumom
austrijskog
pripadnicima
AG
Ino
Mio
Ori
psa
##canje
liku
čuje
##dovala
Poput
Znača
opeke
uredu
Koreji
analog
heroja
padaju
odabrao
podjeli
sindrom
hlađenja
Putovnica
evolucije
jezikoslo
obavljaju
jednostavne
kompozicije
najuspješnijih
##fom
##nua
Us
##nati
Cve
Svr
que
Aire
Sana
Srca
deva
puha
Commu
March
odmor
sloju
spore
##teljske
uvrije
zadaće
oblikom
prolaza
Zapadnoj
konstruk
nagovori
pravilno
redoslije
vjetroagre
matematički
pobijedivši
zatvorenika
##hal
HKD
fri
kel
pti
##kland
##njema
##siona
##tnička
##zorima
blije
ikono
Saboru
Leopold
analizu
Richarda
mijenjao
otvorene
talijanskoj
##naj
##vče
PP
##fata
210
kau
usu
##venim
Prof
plod
YouTu
carem
kakvu
opruge
poisto
stalna
gostima
gradiću
izrazio
filmskog
praćenje
svijetlo
Hercegova
dobrotvor
varijanta
zabranjen
produkciju
prometnica
stabilnost
##HF
##boju
##vanj
Clu
ine
uši
##stati
Hand
Jozo
Judi
biro
orna
škri
sunce
vodič
##damenta
Kapela
izbačen
radijom
reaktor
slojevi
Juventus
odlikuje
zidovima
potrošnje
prirodnom
poprilično
proizvodio
referendum
turistička
uspijevaju
##ggi
##jalo
Cvje
Seve
Guide
lopta
rangi
špilje
##nologija
archive
bijelih
impulsa
nestaje
otopine
rijetki
simptomi
Bjelovaru
pokrenula
prvobitno
materijalu
##92
133
Kol
fik
raš
Izet
izru
vese
garde
masti
oteža
uniji
doslje
leđima
nezako
titule
Baranje
dramske
ratnika
učinila
visinom
ženskog
##stavljene
albumima
izrađena
tijelima
dinosaura
prihvatlji
najpopularnijih
##fej
##lići
But
Jam
##karag
##ćevoj
Dino
punu
zidu
Posla
##noameri
Bukure
enzima
vezama
ispušta
obranio
pedeset
automati
pretrpio
razvijene
proizvodila
##psa
##sme
Vuj
Zbi
Onta
kult
osci
ovje
sveo
##ralnoj
André
Istru
Možda
mozak
Spužva
imanje
malene
živote
Dnevnik
Pohađao
Airlines
Uskoplje
bugarski
donesena
lokaciju
prodanih
vlastito
formacije
japanskog
održavati
oslobodio
Amerikanci
Nacionalna
helikopter
komunikaciju
tradicionalnih
Á
##inst
##tava
nasu
##perior
##viziji
Kovač
Malte
anglo
župan
obična
tipova
vježbe
zrakom
portret
smatran
zavjeta
Urugvaju
Vinkovci
mehanike
procjene
susjedna
Politički
francusku
stanovništvu
##uer
IT
##opći
Trg
##nirao
##pisno
##a
##i
##o
##e
##n
##r
##j
##s
##t
##u
##k
##l
##v
##d
##m
##p
##.
##g
##z
##,
##b
##c
##č
##h
##š
##1
##ž
##ć
##"
##0
##S
##2
##f
##P
##9
##)
##(
##M
##N
##B
##đ
##K
##A
##-
##D
##I
##T
##H
##R
##O
##8
##5
##U
##3
##4
##C
##G
##6
##7
##V
##L
##y
##Z
##J
##:
##F
##w
##E
##/
##W
##Š
##;
##x
##'
##Č
##–
##Ž
##%
##Y
##“
##é
##X
##„
##]
##[
##q
##=
##á
##”
##_
##ü
##Q
##&
##?
##Đ
##»
##°
##«
##ö
##!
##í
##ó
##+
##|
##а
##’
##ä
##Ć
##—
##о
##и
##е
##è
##р
##н
##α
##ú
##â
##ñ
##ç
##•
##*
##в
##к
##с
##ο
##т
##ā
##л
##ς
##ν
###
##>
##ã
##ا
##ρ
##μ
##$
##‘
##ë
##λ
##É
##ō
##<
##à
##ι
##∙
##ø
##ε
##τ
##σ
##ô
##ş
##†
##ı
##ł
##у
##Ö
##д
##−
##π
##ل
##×
##′
##æ
##м
##́
##å
##ő
##ر
##κ
##ū
##ß
##ʻ
##γ
##η
##ý
##ь
##ن
##я
##й
##г
##م
##ř
##С
##β
##ī
##п
##ě
##ê
##̋
##ί
##Á
##ά
##ό
##ч
##б
##ω
##ي
##}
##К
##ب
##و
##ă
##υ
##د
##φ
##ń
##ј
##δ
##→
##ð
##Δ
##М
##ы
##і
##А
##ò
##ğ
##ē
##{
##θ
##~
##ц
##з
##П
##س
##י
##ì
##±
##·
##Б
##ו
##ی
##В
##€
##ш
##Р
##ه
##Å
##ï
##έ
##î
##О
##Н
##õ
##Д
##ή
##ύ
##ś
##`
##ə
##х
##ة
##Т
##←
##ė
##ר
##ა
##χ
##ה
##Ó
##ت
##ع
##ح
##ţ
##Ü
##ش
##ù
##ი
##û
##ћ
##ա
##Σ
##£
##ל
##İ
##ق
##@
##ą
##Ł
##ˈ
##Г
##ę
##ج
##И
##Ú
##Л
##ж
##ש
##Κ
##ב
##מ
##א
##Π
##Μ
##ъ
##ș
##Ø
##ز
##Ç
##ת
##ー
##Î
##Α
##⁄
