[PAD]
[unused0]
[unused1]
[unused2]
[unused3]
[unused4]
[unused5]
[unused6]
[unused7]
[unused8]
[unused9]
[unused10]
[unused11]
[unused12]
[unused13]
[unused14]
[unused15]
[unused16]
[unused17]
[unused18]
[unused19]
[unused20]
[unused21]
[unused22]
[unused23]
[unused24]
[unused25]
[unused26]
[unused27]
[unused28]
[unused29]
[unused30]
[unused31]
[unused32]
[unused33]
[unused34]
[unused35]
[unused36]
[unused37]
[unused38]
[unused39]
[unused40]
[unused41]
[unused42]
[unused43]
[unused44]
[unused45]
[unused46]
[unused47]
[unused48]
[unused49]
[unused50]
[unused51]
[unused52]
[unused53]
[unused54]
[unused55]
[unused56]
[unused57]
[unused58]
[unused59]
[unused60]
[unused61]
[unused62]
[unused63]
[unused64]
[unused65]
[unused66]
[unused67]
[unused68]
[unused69]
[unused70]
[unused71]
[unused72]
[unused73]
[unused74]
[unused75]
[unused76]
[unused77]
[unused78]
[unused79]
[unused80]
[unused81]
[unused82]
[unused83]
[unused84]
[unused85]
[unused86]
[unused87]
[unused88]
[unused89]
[unused90]
[unused91]
[unused92]
[unused93]
[unused94]
[unused95]
[unused96]
[unused97]
[unused98]
[unused99]
[UNK]
[CLS]
[SEP]
[MASK]
t
##he
a
##in
##er
the
##on
,
.
s
##re
o
##nd
##ed
w
##at
##or
##is
##en
##an
##ar
##it
c
##al
of
##es
in
f
b
p
##as
and
##ing
##ic
"
##ro
##ion
to
m
T
S
d
##le
h
1
A
##ou
C
##il
##ent
re
M
##st
##am
##om
##el
##ol
l
2
-
B
##ct
I
n
The
was
e
##ad
H
P
th
##et
##ur
##ch
##iv
on
for
##ation
##id
##ly
is
R
##ce
##ir
##ig
D
##im
g
19
##ot
##us
##ut
20
as
##ers
F
L
)
(
##ra
##la
'
##ow
be
##ith
N
st
G
##ter
W
he
##un
##em
with
J
by
##ist
E
##ul
##th
al
##ver
at
wh
##os
##ay
an
##rom
##um
O
con
##her
##ge
##ri
In
that
##est
com
de
v
se
pro
from
##oc
##pe
##ber
##ain
it
##ity
##od
##art
##op
K
##res
##av
##ew
U
##ac
##and
201
##ate
##up
his
##ud
##if
##ies
##ort
or
##ard
##ia
##all
##ich
##ab
##ore
St
##ill
##ld
##ess
##ian
##ub
##igh
##ak
##ated
##qu
are
r
200
##ag
##ip
##se
##ant
ch
##ary
:
##ive
ex
##ov
##ere
##ment
##ug
##ap
Ch
##nt
##ong
He
##our
##ial
V
/
##und
##ear
were
##ast
##ame
##ine
le
##ell
which
y
##ust
##ction
##red
##ost
##og
##ish
##ord
3
sh
##uc
##so
##ical
k
##ork
18
##te
comp
##ther
pla
##ran
##mer
##ie
##ight
##ue
also
##pt
It
##irst
inc
un
has
not
had
##ure
##ous
##ition
##ok
##ff
Un
##ry
whe
first
##port
ar
–
##ave
##ign
##per
##erv
##ire
##fter
Th
te
##ric
##ide
##ass
##iz
##ome
us
##rit
##ond
ro
cont
##hed
##wo
##own
##ater
##man
##ice
Re
part
4
year
their
ad
##age
##ount
ap
##cc
cl
##ult
who
Y
Al
##ree
##ect
##ational
j
199
res
5
but
##land
her
one
int
;
##ence
##ach
##ang
##lud
##ime
##ations
##ib
ab
##ack
play
##ory
##ens
##amp
##ound
##low
##out
its
De
Se
##ember
##ugh
##ru
Mar
##are
##orn
##ally
##wn
have
##ould
includ
##ool
two
rec
man
per
bec
##ng
this
##ke
ag
##ions
##00
##over
##tern
Ar
##ubl
##uring
##ile
##ild
##ates
en
##ade
been
off
sc
##ck
##oin
New
work
##ph
##ased
up
other
##ne
##ark
##les
##orm
##ite
##vel
##ress
6
##ited
##ts
after
##ivers
As
##aw
dis
##ied
##act
##ces
##gh
comm
im
##uch
Le
##ents
##chool
##ely
sp
##ors
##old
##ail
out
##we
198
new
des
##ted
##oy
##ons
##urn
##ind
over
Com
##iss
ne
##fer
##ase
spe
she
##hip
they
##one
##ward
ra
time
##ose
##ced
##ob
serv
7
##ath
##gan
##able
##ance
into
##ings
tra
ev
all
und
loc
##ough
pre
##io
##ood
##inal
ele
gro
##ilm
##meric
##pl
On
197
8
can
Americ
##outh
col
form
##rough
##cted
kn
sec
##ans
##ook
##orld
bu
under
##ished
pl
##way
9
him
##rib
##ram
##ft
##ious
##ason
##du
bet
##ren
reg
we
##oh
##iversity
when
##ton
##oth
##ake
more
##ral
##ick
where
Sh
##orth
publ
cent
ret
##ual
##ollow
This
cons
would
years
ind
##olog
acc
stud
team
##ered
##rad
196
op
##cess
only
pr
##ily
##ve
##ics
##form
##ween
##ved
again
##ener
##oun
film
me
qu
rep
rele
##ince
most
sub
17
##ident
during
##ont
found
##rans
She
act
##ular
Col
sup
##reat
##use
##che
ear
An
##ix
##duc
##ision
##ict
##ah
10
ass
co
fe
##pr
##ins
University
Ind
%
##any
between
##iel
att
##tt
three
pol
Z
through
app
##cial
##ock
inter
made
pe
##ouse
Pro
##oci
##att
##fore
##ank
later
##rie
sy
##ating
rem
##als
then
##ober
##az
rel
there
pres
used
about
follow
dec
##ities
##ative
##aj
mov
them
known
ed
such
##overn
##ars
num
fam
##ik
American
##ames
0
##ann
##ace
so
end
194
season
##ived
second
United
##ific
15
16
##ale
##ier
Sc
ac
became
##oot
am
dist
school
ent
##erm
##ball
##inn
##son
195
some
12
##emb
def
inv
Joh
##ife
##ury
##air
do
than
##ject
##une
##velop
call
art
##iew
##usic
##ley
Be
##bum
##arg
May
##led
##ten
##eb
trans
Eng
four
pop
record
well
Jan
including
being
##eries
##ines
##ever
##ield
prov
##ement
##iam
##round
##ash
##ather
set
At
ph
John
album
Is
pos
##ros
##iver
##hen
born
Te
appe
##ys
Q
dire
##pos
##very
After
many
##ern
##ctor
11
##enn
Con
sing
&
Comm
##til
lead
##ople
##ures
sur
own
##ep
##ional
##owever
add
day
##urch
##ike
Ju
##ron
##ists
##other
count
before
Fran
against
##cy
##der
Cl
##its
##stit
##ina
##ert
writ
##arri
bro
est
##ired
National
sign
show
high
##stem
World
##ute
##ise
while
Nov
develop
group
rece
For
main
##imes
193
until
both
##uary
Ph
##ism
Wh
oper
mod
Aug
no
go
orig
song
##ower
Ad
Sp
##rict
em
##ven
##erman
number
##ague
met
##000
##ural
August
Oct
cap
Car
released
min
##amed
fin
Sept
Aust
##elf
13
March
mon
med
14
##ll
June
##overnment
##ized
States
sever
build
York
September
January
##ek
played
Brit
dif
fl
War
October
##uro
back
##aid
cre
name
##ution
gener
School
hist
July
##ting
series
start
sm
##tend
##ives
called
192
spec
area
Apr
design
Me
Can
##ually
’
char
exp
##uss
##ty
April
##gram
2010
##ird
##mber
##ister
##ctions
##illa
will
Count
people
November
##rid
family
comple
run
##ternational
offic
long
##els
191
Dece
2011
feat
##ract
open
South
December
var
##erson
##ained
game
aut
##ull
##ple
ob
ann
##ene
His
won
music
##ful
system
##ues
German
Cent
##ause
000
Ge
produ
##ps
several
mat
suc
##ission
same
may
##ey
##raph
Or
##ax
return
contin
public
2012
##ai
based
All
early
##my
They
##rist
colle
organ
##ilt
##ajor
disc
##ital
##ety
##aking
##eng
##xt
cur
use
##ology
former
##rent
##duced
##ulation
##rand
##ets
2009
##ior
these
following
Feb
##fess
2008
state
Par
Pr
##cept
bl
##ured
##lish
##ross
inst
air
##ible
##vent
city
##ium
near
Euro
Man
book
##view
##ped
began
2013
support
##hes
##ided
##por
##ised
##ange
##ruary
February
since
##ants
##by
head
##ient
child
##au
bel
class
##ared
##ility
##omen
any
2014
Ass
##oard
##ootball
North
##ued
dr
join
There
##ampions
##ments
Ed
##iving
eff
partic
##ink
inf
##ble
band
gu
##ined
##me
Austral
prom
conc
commun
town
along
program
##ox
Gu
Will
2007
land
place
poin
now
tit
2015
##ically
government
##rop
pass
City
##arm
##ner
US
small
each
old
##ris
25
British
final
sim
##pend
Bar
occ
differ
care
did
Bro
result
you
##ling
named
##embers
located
##ove
Pol
30
held
str
##sh
Am
County
##oman
##ott
##arch
##chn
member
##eter
Europe
company
took
home
term
$
##rol
State
2016
##part
##ices
##yl
##resent
Co
2006
local
world
##ival
major
##aving
club
Colle
ins
estab
century
##ience
##ales
success
##wards
compet
polit
However
served
station
Har
##stru
received
par
Cal
##af
_
II
built
##ae
eng
##augh
htt
could
around
##inc
tr
desc
##ony
members
##iness
Canad
Her
bus
##arge
line
mill
West
##ane
##ored
##ret
##lay
##lack
Ex
##ator
##ats
##ampionship
21
##ains
##ring
ext
single
##isc
law
##reen
ref
##ages
house
King
League
last
##tle
Christ
##ham
hel
report
##ec
Mc
##ounc
car
##ille
##ster
And
##for
Min
##ately
##ently
##ograph
like
2017
event
charact
left
Ab
ty
Af
El
national
##mp
six
published
##ilit
villa
imp
##con
##ung
##ians
##hor
##oss
190
##yn
24
##uck
cour
##pect
Bl
##que
list
Geor
During
Acc
##let
mark
five
##ged
##ford
##ode
##ondon
##though
##rew
##ublic
appro
Sw
##eth
top
##ified
##itions
vers
##ivision
camp
Reg
London
##ula
life
died
##atic
##ides
deb
because
north
defe
##get
population
large
down
22
##ature
rest
##arried
William
due
##aster
##ording
building
right
war
present
third
profess
det
include
X
##ask
said
2018
##alth
##ches
within
##ays
##ality
##min
##ien
consid
requ
age
death
current
High
##med
included
##iod
##lev
tri
##vers
fac
##ze
larg
English
##ering
south
Char
##ourn
##row
Hist
##alk
We
##rench
##iven
23
##ively
##amb
stand
Part
represent
conf
manag
lit
Sy
##uff
##ouncil
##omin
av
College
##gy
189
allow
Comp
post
##uk
person
##reet
##ization
Ne
different
2005
football
##bor
just
short
dem
##akes
adv
ep
##ief
hand
##estern
Park
Ret
##eder
po
Dav
level
Fl
##urg
leg
##oad
very
still
la
describ
##ration
##ery
perform
dra
French
vis
##ald
Air
##ially
##ves
##vious
son
water
##rieved
ww
Dist
www
##idd
Pres
##ese
moved
By
##angu
iss
##laim
##apan
##ata
trad
Med
incre
if
La
##ison
children
##used
addition
million
cor
species
##work
Sec
best
Res
another
career
##ining
##tended
month
side
original
##line
—
##ocial
led
##ning
##inning
appear
##ards
##iet
Ang
Rep
educ
##urs
period
Japan
crit
equ
When
##ington
##anc
those
##adem
exper
##bs
often
Cor
power
26
##ana
##riend
En
resp
Afric
service
##ney
International
project
##ness
##ridge
2004
27
though
##cl
188
River
announ
##alf
##ody
28
pat
constru
Phil
No
##tain
##attle
port
even
##ument
##rick
father
history
House
import
##lished
el
win
make
##ency
2000
among
es
##aul
San
Pe
##ino
2019
One
hum
track
##hel
late
order
##par
##hem
village
##ribut
##ges
business
##ler
Gener
Br
sold
country
beg
Russ
men
##ociation
Sup
came
non
arch
grad
##ize
title
##ote
Art
##side
previous
##osp
del
news
established
women
##ones
turn
##ociety
##ense
##unic
started
Gl
week
Ital
##ases
]
poss
games
role
ca
sol
##ched
Retrieved
went
what
##ference
##conom
##ugg
##ords
award
##ruct
sk
much
val
ship
Tr
field
http
[
aff
##nder
186
##ilitary
England
attack
29
bre
##ploy
Sch
character
produced
rad
stat
Mich
techn
tot
mag
East
##ilar
origin
fore
invol
young
effect
every
##umb
##ries
With
Ste
100
repla
District
langu
round
author
common
cr
way
kill
##co
chang
##levision
Pl
##lu
cover
Indian
=
election
##partment
fact
tw
rese
control
fr
vol
##na
sit
histor
become
##ara
special
Roy
##epend
announced
##cast
init
2003
cult
Championship
appoin
clos
process
##omet
##reg
187
story
Cup
##rote
activ
worked
various
##ray
fre
##yle
##ms
Sm
##irc
##urther
##ament
These
##empt
Rec
few
Ac
next
joined
From
##int
district
##read
general
given
access
Per
Church
##rest
development
General
”
debut
##raft
“
site
written
students
community
##ummer
##oph
player
having
using
##iber
pain
Hol
##lin
take
Mon
##day
gr
##app
##self
elect
Ag
created
##hern
##ached
prote
##omb
##ournal
great
##avy
married
Gro
You
returned
total
##ape
host
##mit
fun
Ber
wrote
##oon
claim
##aff
##ories
##forman
tem
Port
##field
##ole
##posed
##ett
##useum
Thom
##ee
##lands
however
Rober
##lect
##alt
beh
popular
Des
James
##ript
prim
sl
Qu
examp
international
President
31
Em
Council
##formation
compos
hig
2002
Calif
rail
##stitute
2001
Australia
India
##itor
##orthern
##sk
Californ
##ivid
Street
##ention
production
epis
##ports
##ush
##aken
##iron
##ots
need
##astern
##ivil
sent
##outher
California
vide
position
##sequ
European
Ap
founded
##ger
church
##ville
America
##ops
##ander
west
##outhern
Tra
version
east
full
political
times
lab
1990
similar
##etwork
Rich
half
50
##ica
continued
George
Que
intro
Ant
Army
official
point
works
##ico
Bel
match
friend
described
Nor
interest
brother
direct
##ogn
Off
Mor
gen
engine
Cour
pri
sw
##BC
Act
without
##ological
##minist
performan
pract
##iment
David
find
pp
elected
view
##ael
Val
Roman
##icle
comb
opened
invest
real
review
##ellow
recorded
particip
indust
Dr
ant
road
##uel
Association
Pal
television
lim
disp
Canada
attempt
##ferred
##ream
##ead
Party
considered
fem
##urb
star
##itte
region
Republic
##arent
days
##lex
France
ident
##olution
##arn
##ights
##reek
##rated
According
##hib
party
Mal
##ama
research
daugh
gl
squ
deg
Bra
##ius
Lou
##ances
broad
bas
lost
important
making
##oe
##bert
proper
##ividual
mult
Paul
military
release
president
ve
Division
appeared
185
Royal
ter
##ha
##ying
Stud
##unicip
ke
##era
##aper
promot
signed
##of
##ination
dep
grow
less
social
priv
Pre
gradu
##ibr
further
##iles
##ising
test
particular
wife
hold
1980
avail
1999
appointed
struct
Hall
##oor
ren
##irl
formed
working
##sc
good
formula
##gether
together
##ping
##van
Ear
Mag
##pecial
influ
fund
nov
?
##ells
##oll
##lear
econom
read
dest
40
Red
##cer
While
tradition
see
professional
areas
##aign
developed
##ership
example
Hen
##aining
##key
get
Robert
##ij
meet
##atter
exist
Australian
hy
individual
Union
##ably
Times
mer
##ither
To
Dem
video
##anish
Company
##ks
low
rank
Pat
rock
language
##nect
##utes
produc
mid
##azine
TV
Black
##plic
Press
##rap
##idence
cond
does
red
playing
director
##ours
##wood
##uit
##ences
ten
Vol
aver
free
##iddle
Wash
typ
although
##ma
Mary
##be
hon
##olic
##ishing
Road
##ule
##itect
##dom
##atch
Arch
##uf
office
Je
Mart
Award
div
should
case
##iol
##imately
fail
##com
##ways
never
available
arr
##estival
employ
modern
my
ground
z
himself
##ills
live
mater
Mac
Some
##ittee
1998
Society
style
##ship
reported
Law
others
Sen
coach
1970
vict
body
hous
laun
points
Washington
independ
##ari
across
strong
successful
##iction
cast
##iting
##ique
##ertain
Rail
Department
services
mother
signific
##liam
circ
##craft
Ma
human
##itive
!
black
light
recogn
##ceed
foc
how
race
rev
First
##iding
Thomas
ce
base
##cing
Court
ord
belie
Kh
##liament
UK
##off
##anted
Cap
##ography
relations
doc
Academ
Music
##pite
##hers
cost
Germany
##ago
Pri
separ
1997
##ming
##hold
Angel
education
tro
1996
##men
Center
Group
Jack
performed
daughter
ide
Vir
##ecut
##ipp
mot
##ocr
184
##oney
away
Gr
months
fire
tour
dev
league
Institute
cross
Sam
suff
events
##ators
My
Mad
##ification
Club
##berg
product
sour
##istic
Charles
##ston
##ya
Sal
##itz
##ope
##lymp
designed
##ensive
followed
Central
assist
taken
gave
##ume
Mount
features
##ederal
becom
vot
##ili
Island
##alls
completed
market
##ought
bo
##val
songs
China
teams
includes
Olymp
press
regular
largest
originally
campaign
Sim
##gin
##atural
##rag
impro
construction
##ened
help
Mex
once
finished
#
##most
Serv
phot
Bill
Ke
##ential
##burg
i
ste
Bay
News
put
seven
acqu
currently
History
##ensus
1995
But
expl
Although
##viron
Cong
Met
Jew
##less
Town
rul
Cath
fight
##elling
must
material
##ateg
front
white
Franc
##acy
associ
tre
##rian
Great
Michael
Alex
Rad
##ores
featured
eight
remained
mar
Since
contract
##go
Canadian
sound
phys
administ
Mont
Sk
average
enc
Western
players
##hod
##gress
episode
##stitut
Ser
##aker
board
throughout
Ze
Sing
##ude
##ospital
Miss
Ir
##igned
1960
1994
Christian
##CA
stage
##roy
qual
##chie
##hest
agre
Green
study
##ware
proble
flow
Louis
dam
Up
sele
##atory
Scott
information
ge
seen
training
km
##anding
directed
significant
municip
bi
Cont
goal
Mark
plan
##aint
##iers
##leb
performance
Gold
##aries
leading
et
Mer
##ilities
consist
condu
##rey
liter
der
##fic
capt
Don
1992
mount
schools
eventually
earl
bank
living
entire
##leg
bar
##uggest
Vict
anim
Histor
involved
range
network
##ida
awarded
suggest
added
radio
##ibrary
Tex
groups
Trans
pur
Dan
Film
inj
subsequ
usually
##apt
Cons
Tur
Grand
able
##rab
Academy
park
##erous
know
past
##cent
##arter
Other
Wil
novel
hit
Museum
##sy
private
##iqu
##mercial
respons
##aut
wid
##20
183
##rain
Smith
Los
relig
Del
##vin
##asons
health
##isl
Kn
##airs
br
Richard
Inter
##ength
Jose
model
##itar
via
Dire
Peter
1993
central
Do
mus
Tom
Ham
Im
either
Op
##emor
architect
Ire
##atre
Japanese
##ades
##inese
##ements
Frank
Book
prot
##de
White
##lo
##vironment
##oms
##incip
##oice
surv
anal
winning
court
Che
aud
##asing
close
##overnor
replaced
##ids
degree
Henry
provided
Tor
##ani
dou
##ym
wind
##ranch
cand
look
35
cop
Lat
1991
##band
##udd
##here
##ned
Pla
reb
cou
##ala
##cle
African
sem
Lit
##unt
Chic
forces
##oul
college
Minister
stri
##board
Chinese
space
Italian
type
upon
colla
treat
above
Spanish
##aching
sex
fourth
night
##icated
discover
##atives
##iff
subject
ill
Best
##hood
##aged
##rought
Lake
##sel
shows
command
##icy
Rev
situ
tourn
Africa
Mus
##bour
Ter
countries
respect
Bu
states
Virgin
section
Year
competition
travel
killed
fav
reached
approx
Pet
saw
##istry
Ireland
##itch
books
placed
length
##annel
##ishop
fif
sen
Paris
##icles
##iation
##vert
mean
Rock
owned
Hill
aircraft
Ben
decided
Lab
change
loss
Camp
stated
gun
Mel
##uture
occur
##za
civil
ser
##ems
##och
Bur
achie
accept
attended
express
Texas
Commission
accom
fig
Day
Not
data
##imate
Russian
Catholic
##aland
##gen
pot
center
contribut
introduced
##ving
scored
police
##ka
##ply
least
##hi
connect
Victor
##medi
##aval
page
provide
lo
Just
Two
obs
far
Star
##uses
prem
commercial
Penn
mix
viol
grand
critic
##olf
##face
listed
say
meas
miss
chart
cut
Atl
##arily
1989
Fore
Ann
broadcast
method
##ability
##erve
candid
Chicago
##atal
Sant
rather
Play
hom
##aves
exc
##odes
farm
plant
##urity
Lu
capital
purch
whose
related
pay
##aur
##head
creat
##ometimes
##uter
Democr
opt
arg
Government
##ena
##rael
##stitution
action
parent
rights
##stant
cy
effort
parts
Rob
##ona
occup
almost
compan
Carol
instead
##mar
60
frequ
sil
##unk
Follow
hard
Records
Most
behind
brought
##ises
1988
Football
previously
ever
Super
exhib
Mr
deal
##rup
active
webs
Kingdom
##ror
Fin
studio
Go
##west
Second
river
pred
Flor
gold
##rd
##pecially
stre
Educ
##ini
##ufact
division
Bo
reve
##irth
account
##ex
films
jud
##ria
media
##lam
God
Israel
##ilies
nomin
Angeles
1950
possible
Mo
transl
neg
##va
##edy
draw
buildings
Brown
bur
plann
##ano
##shire
neigh
Sir
##ump
artist
document
force
Committee
Cro
lived
Following
##ician
changed
fall
##oring
Gra
45
Cast
32
championship
Arts
writing
##ows
##iences
especially
mass
outside
Pac
Women
organization
sym
soon
coast
relationship
Found
lik
##duction
##ites
##asc
Public
northern
##unn
##embly
Old
island
##asket
bill
industry
##olk
little
sch
1987
##elt
Mill
##aled
##sych
Sur
southern
https
object
##earch
magazine
tax
Zealand
Aut
too
##ancial
railway
##rial
##ires
execut
function
summer
##vey
Board
approximately
##porary
Festival
esc
itself
determ
establish
ended
stop
##pan
Cur
##umn
regard
Kore
##irm
girl
prof
runs
spent
journal
Congress
1986
size
female
bord
ran
standard
Kar
##idents
##aps
##inent
primary
defeated
##nding
tournament
##yr
Swed
sometimes
lower
Commun
##retary
taking
imm
structure
pers
except
##ye
natural
wood
movement
##ios
Saint
Du
princip
##lim
##road
beginning
cred
##arian
##enced
systems
key
Sov
##thlet
Mil
allowed
block
anc
highest
investig
If
##ension
##itt
Wal
181
according
represented
##ground
500
plat
Under
running
##cher
1985
ask
traditional
generally
Fort
break
Inc
##put
Scot
independent
whom
complex
##sec
##ocal
Er
collection
required
##elled
##press
wide
##essed
36
Ox
##back
##ota
Mass
website
Journal
king
edition
##teg
1984
##well
celeb
quest
##ergy
Joseph
Land
Mur
Bet
##lag
Prov
multip
##oys
##wer
manufact
towards
##to
Leg
Many
Es
##istan
##abit
winn
higher
leader
date
studies
families
##ada
Force
che
commission
sus
self
##aily
seat
noted
oppos
future
let
Bank
route
teac
##oo
food
##aught
link
33
come
##heast
pie
hor
closed
Oper
prison
##aring
remov
Spe
##igan
Parliament
Mod
units
newsp
county
big
Fre
nar
western
student
##ounter
dram
opening
studied
money
##ican
##AS
sat
##pected
Wood
##oma
chief
Virginia
##antic
How
##chan
##str
Techn
vari
thus
super
##ste
concern
Bre
army
surround
##ita
Liber
applic
ball
property
Georg
Class
battle
Navy
##ta
##ibility
entered
##oke
destroy
er
dig
##ado
##uments
##ready
launched
##cies
location
operations
1983
##adium
earlier
##asion
##ils
##lor
du
means
Mexico
Science
Irish
Greek
den
Ros
companies
##ette
sett
Post
numerous
Squ
Big
practice
plays
personal
Bus
Fr
sn
Sl
Soviet
issues
interview
certain
Work
Education
staff
##uth
##asketball
+
contains
##bur
##ficult
below
Ha
##ura
woman
lack
##ux
##utch
##lav
prob
Ele
##ola
##venue
course
Martin
##ylvan
Mic
Cr
Ol
##usion
1982
Sil
famous
Gar
keep
##tained
Northern
##cript
environment
writer
difficult
clear
di
Den
Pan
##plied
##orpor
household
senior
##ribution
Columb
##ams
Italy
associated
move
org
adop
gra
##ests
##den
Later
##ify
##oint
Wales
That
musical
academ
mur
Emp
##eds
##oid
##ingu
##teen
Its
observ
appearance
##itiz
##arriage
##overs
better
##ban
singer
already
Battle
unit
abs
##ether
annual
artists
##NA
emb
selected
prior
##enth
score
##ection
manager
Sun
mission
operated
scient
som
settle
increased
80
##rack
##mark
Fer
Service
sports
Valley
Research
emer
1979
CD
fa
Florida
##iled
issue
##rying
feature
transport
##ylvania
complete
##rative
minor
goals
1981
equip
##uz
34
love
##ift
editor
Hum
becoming
##reme
thought
Chief
characters
pen
Pacific
centre
Hot
Cla
additional
cust
territ
majority
Bi
matches
##idae
dom
decision
##etic
##inary
##tm
##ricult
182
screen
##oper
##isk
terms
Profess
##lying
180
results
mostly
specific
Ev
schol
##plement
concept
room
##rief
##inct
##azz
percent
bene
##ulated
going
particularly
##nded
Out
Southern
Fred
victory
guitar
activities
Sub
article
attend
programs
Sa
Oh
limited
Over
##ider
ens
Their
sum
##mitted
caused
##ersey
train
##airman
management
Ill
today
text
##obal
Radio
changes
##imb
create
saf
serving
nine
Jun
Win
1976
1972
shot
names
collabor
##usband
squad
trib
##izing
Mos
quarter
retired
forest
remains
McC
hot
1945
Penns
Jewish
legal
##het
immedi
1974
Sar
Ro
give
financial
1930
Dou
veh
initially
bound
threat
passed
job
detail
##vention
1975
sea
Spr
science
1978
##ato
university
##gn
Oxford
Haw
65
Awards
eastern
##bury
trade
Camb
##ua
indic
got
Pennsylvania
economic
##ero
discuss
shown
lines
supported
instr
Hel
forced
##ands
1940
Jim
takes
Men
Life
lay
prop
insp
Def
norm
subsequently
quick
Long
##ockey
word
##anced
husband
hours
box
More
Lord
religious
Jer
Edward
culture
##nes
70
ded
census
Braz
Arab
soft
38
##ón
1968
##change
stay
##isions
evidence
##isco
htm
Mat
Tw
1977
##stra
90
energy
##FL
Sol
vir
raised
earned
##mond
medical
arm
minutes
birth
happ
officer
presented
sister
So
consider
##cement
source
BBC
##raw
referred
##bon
larger
1973
37
accessed
step
##istics
##ulf
Cam
##ario
Social
fle
##mon
Av
Railway
Queen
Lee
##aches
rap
weeks
helped
cal
label
##ternal
##rel
amount
longer
inn
##cel
rate
179
Office
##isation
##ampion
remain
speed
complet
Young
variety
Carl
leaving
parents
foot
failed
Tour
##ga
Jud
##ients
Games
surface
middle
phil
uses
arran
provides
platform
Ver
movie
drop
consists
claimed
1971
mention
1969
##anda
Broad
altern
##itation
Britain
meeting
Inf
meaning
sequ
offered
Gal
1920
##ady
believed
mach
Mah
##bers
##mission
III
##FA
composed
##ters
##ees
##selves
themselves
Conference
Despite
Hy
##roll
Matt
colon
anti
##iance
forms
Rou
##iger
Sat
##gl
Brazil
##BA
Os
Bost
arrest
##ledge
status
Jo
chall
depend
mainly
Director
Championships
44
1967
always
##itors
install
##ny
Jul
recording
carried
Main
##iring
acquired
Tri
##house
List
Top
adj
seasons
Bow
cases
council
Jones
Pak
##arters
##oir
##enty
Fe
##imum
increase
ver
focus
fort
older
75
##aters
##itan
batt
Cle
remaining
overall
Ott
theory
cell
Sund
pil
##standing
##arden
integ
Both
separate
poet
##ati
Latin
##atively
Assembly
medal
lic
Carolina
People
##ols
eas
##uge
conv
Spain
Jersey
temper
Are
##ysis
contest
operation
##ging
Foundation
Civil
##onse
here
experience
##nds
##inet
stations
done
mem
##kins
tracks
Love
##iana
federal
##lah
proposed
Bob
legisl
Boston
turned
Eastern
##ken
graduated
Mot
Tod
recent
##irit
##ties
Line
starting
Di
log
foreign
##emporary
heavy
belong
##rem
Empire
##burgh
producer
houses
policy
pow
targ
online
Governor
appears
Bas
Dutch
Summer
categ
native
##rast
demon
learn
municipality
41
##anded
Russia
£
Bh
multiple
vote
bring
bridge
brief
refer
poor
Scotland
require
Middle
Luc
##urban
historical
continu
##ervation
wing
regional
finally
makes
fifth
peak
los
Of
Arg
latter
42
System
hospital
technology
##reater
Hon
##ki
##down
estim
nearly
marriage
prevent
charg
face
##ipl
Develop
Theatre
Ram
Williams
Library
##ugby
##emorial
nearby
society
Albert
Series
depart
##pose
##ession
##yer
partn
brand
Str
responsible
##isher
Ty
our
might
constructed
##iant
succeed
crew
##hy
promoted
##uan
records
Bal
covered
Another
1964
eth
Stan
Jac
39
problems
cultural
Ur
##itude
troops
Bul
Tro
products
Est
male
managed
##ares
##poration
Iran
organiz
##ental
##ously
1966
##ault
Democratic
Health
Prince
1965
##action
Coast
Ly
capac
fellow
##apers
pick
conditions
enough
‘
Ca
Kent
Step
serve
citiz
psych
heart
Centre
Francisco
USA
despite
corn
Charl
domin
passeng
double
cer
Ob
##vement
Good
professor
cause
##ube
diss
paper
sched
plans
##ffic
##ansas
Van
mechan
individuals
Belg
expla
##yan
arrived
##omer
necess
Dis
Team
Creek
jun
##undred
store
affect
Islam
##uries
elections
shoot
increasing
issued
Offic
honor
leave
##adel
Johnson
incorpor
##ky
Syd
dise
master
##imin
Tim
Hung
48
discovered
Ohio
Review
Earth
influence
Open
nature
Engine
comment
ships
Sand
Order
ess
museum
channel
##esh
Station
pra
Also
response
asked
newspaper
primarily
##itted
firm
income
walk
##iano
Bor
levels
##rice
Dev
appearances
##writ
Michigan
##uty
Wind
Song
think
don
whole
##wan
##antry
Major
dark
##orning
##wa
Little
##ca
##oura
progress
kind
spl
##RA
BC
directly
##abeth
transferred
lives
display
Columbia
wanted
mm
##osh
saying
Dar
Sea
Blue
autom
told
Fam
Cross
##osoph
##iro
##umed
Olympics
youth
##right
ang
##BS
##ias
value
univers
##sen
Gall
extended
oil
Pop
55
Four
deep
titled
49
Tem
chem
Jean
prin
Far
Add
Federal
Portug
##portun
stars
##awa
Mid
talk
elements
Philipp
border
politician
Tre
Historic
basketball
cities
##cean
decla
Sydney
Stat
parish
##verse
Andrew
whether
Cy
##ador
##wide
1944
premi
##ih
likely
Head
##gypt
friends
drug
##ricket
stories
ult
Prem
dead
##rupt
pan
Secretary
Water
officially
grew
##ources
subs
initial
idea
43
##enes
Wild
cro
47
Rel
Three
renamed
##onic
##uten
##peror
path
numbers
produce
share
##inem
green
Mu
Gh
Asia
64
x
neighbor
##TV
##igr
Eliz
square
##phy
Show
##stein
scene
00
Die
Ray
Ok
Born
projects
Bern
sla
Lim
residents
letter
Accessed
##II
communic
Scottish
Ell
reason
participated
uns
Ul
candidate
Development
##add
Egypt
Int
highly
CE
##ims
address
##ully
##resp
cle
actor
headqu
department
1963
prominent
##akers
Enter
##ulations
##ela
##ali
Az
##gar
##oz
continue
ri
##ented
unc
##ips
Manag
##astic
quality
##edd
Province
Ep
color
follows
##AC
notable
positive
growth
##chester
Alexander
amb
Time
moving
##ronic
chap
##ira
##fect
basis
##ogue
Field
Det
Univers
purchased
Senate
##onto
##book
1962
Chap
##ellig
sal
Jackson
ancient
Ve
conver
nation
##bre
Berlin
touch
floor
solo
commonly
##oud
conducted
##ić
Web
Corn
historic
quickly
yet
##ione
Republican
winner
smaller
opportun
Guard
FC
Max
Each
51
##hew
extra
##obile
formerly
collect
##stitu
province
alongside
divided
capacity
##dro
Child
potential
effects
##aped
distance
Ba
card
##iated
revealed
Georgia
Register
##ski
##ributed
Kenn
##stone
##ila
removed
ordered
content
##rich
46
Brook
Ash
1942
genus
Publ
direction
Cult
##izes
Card
##amin
words
Ak
intended
##ounds
Poland
officers
upper
##inois
founder
behav
inh
computer
mic
##inals
##icted
Avenue
probably
laws
planned
178
inside
##IS
##thing
dedicated
competed
Jr
##ried
##secut
1948
Jeff
stra
bomb
Daniel
bird
executive
##greg
1961
treatment
Tam
Sports
mountain
recently
52
comes
street
##ech
featuring
Pen
##chen
immediately
Tay
activity
Ken
##iest
purs
security
Muslim
##ras
##ifying
##win
##iga
implement
facilities
Illinois
ut
har
benef
Lew
forward
impact
cat
fill
offers
Victoria
offer
Polish
Program
##vis
##etts
feel
##oned
sail
slow
Hospital
confl
problem
##ennis
question
reviews
##mann
##isters
era
metal
gas
rule
types
Cat
lies
1939
Independ
##zy
soldiers
prec
lif
##ieuten
Bang
##urt
Hor
1946
protect
Game
contact
Uk
Harris
1956
Kong
spons
html
assigned
electric
search
1941
giving
reach
Professor
##oted
##alle
rat
Toronto
Raj
attention
typically
##AR
nuc
institut
stone
Justice
Asian
blood
Home
awards
Base
##orship
Cambridge
rare
##ja
##ella
Dun
sens
spread
1943
##ulpt
##rate
defeat
campus
Corps
physical
##pre
##rovers
widely
hundred
Elizabeth
owner
##icine
drama
Mov
##mir
##yt
destroyed
Rome
needed
ability
conne
workers
##ora
Rog
##respond
##using
Boy
thr
seek
su
##emy
##worth
##omme
operating
1959
hop
max
Hong
Way
leaves
##ption
efforts
agricult
##oration
Corporation
300
##ocated
##ograp
Cop
roles
Queens
Hind
respectively
Elect
organized
Route
##ancy
academic
##anks
adult
##IA
charge
##achus
Business
gained
branch
repe
hosted
perman
Arm
##rics
Before
ir
##iter
1958
table
##end
Special
Econom
dance
##achel
assistant
flight
##irmed
##kn
##ieutenant
serves
counter
##hens
miles
Bridge
##ishes
estate
1947
##ederation
##ropical
weap
enter
favor
purpose
##ko
Les
##illy
##wick
##thur
##AF
recover
streng
resident
format
##light
conference
##adelph
Jon
Bishop
Villa
##aya
adopted
1957
##ternet
Att
withd
##ba
See
##han
Bab
settlement
beat
##can
Ari
mixed
##vest
ice
coming
dyn
wa
Rh
target
largely
approach
##AT
Ministry
wall
Sever
symb
pack
##gs
##more
##resh
municipal
pressure
177
Philadelph
##cul
Argent
##icient
ly
bad
says
cerem
##gers
decl
##iy
albums
compared
##aka
##aling
##nam
episodes
##hire
Rod
##fort
acting
reform
Form
digital
##rical
Po
Media
actually
Massachus
##aging
heav
Der
##rence
Ta
##eld
places
ranked
clubs
suffered
##enge
##oles
Orig
voice
Network
##inity
Philadelphia
accepted
elev
concent
##rance
Joe
##ening
Olympic
pet
nominated
agreed
Massachusetts
Common
UN
##umber
languages
Brad
blue
##istered
##ables
##edom
industrial
mor
administration
declared
communities
Mir
sources
##bed
Atlantic
##iat
cam
##onents
semi
##rane
captured
affili
##aces
scale
combined
##edia
##ilding
union
Bell
pal
##gu
Brig
##duce
##lab
##ropol
sevent
1955
##li
##ev
fast
estimated
continues
mentioned
Bec
##ns
therefore
growing
yards
Human
recognized
split
apart
taught
request
singles
Li
Ont
##grad
controvers
coin
##rim
Ger
Billboard
equipment
Spring
Viet
Duke
Bon
cars
teacher
##mas
recon
hour
Conf
Aff
Da
resulted
aband
instrument
##ES
resist
leaders
##yond
Prime
pict
##ulty
prep
##bourne
Revolution
presence
##itled
54
boy
##inson
Magazine
wild
identified
retire
becomes
##onia
Highway
Ra
condition
occurred
scholars
##uts
##perial
Ven
murder
agreement
##ensity
scoring
1952
critical
Santa
##ker
##ething
administrative
Ah
Fair
flag
trial
dia
Among
newly
##pton
Sus
sales
##ouri
Fle
expanded
##itness
library
1949
motor
serious
Project
53
##ses
tells
fix
figure
designated
Mike
expected
correspond
Kir
Band
couple
rural
transfer
distinct
##urer
twenty
##etery
Night
analysis
champion
leadership
##emetery
Islands
van
|
##osen
concert
##amber
constitu
models
End
pit
sport
citizens
Som
reduced
##load
Sn
true
providing
joint
MP
sites
##ivity
1954
coal
Studies
Forest
spring
Gen
feet
Pakistan
Fox
fell
twice
Wilson
##iate
secondary
Indust
##olved
territory
##encies
Bir
Ontario
##hemat
##unte
##ighter
Jes
Hay
buried
Bad
vess
##ographic
peace
1953
Today
##VD
parliament
##ima
##ordin
paid
##nic
gives
##like
mess
silver
##yal
Colon
surrounding
pattern
Taylor
Girl
paint
distribution
Captain
tim
urban
defined
spot
Sher
slight
von
stream
Nether
propos
titles
1918
contemporary
Organ
kept
Bol
Dam
minister
granted
Ira
knowledge
task
inspired
column
felt
Airport
##ologist
reference
Master
allows
##war
existing
conclud
damage
Pers
Through
labor
##eller
##ansion
sculpt
festival
unique
##mad
Power
nort
##10
Nic
plants
##estic
##orter
Turk
positions
cells
votes
inform
housing
Because
strugg
painting
obtained
Community
##agon
Us
performances
resulting
secret
code
situated
##onent
software
Supreme
minute
bott
##ctors
Id
Lt
Anton
comedy
bal
losing
##gal
Chris
1951
##ibly
vac
articles
##iform
##ricts
thous
Police
finish
greater
Swedish
marked
Athlet
chairman
creation
risk
organizations
FI
rules
##nel
##MS
sexual
provin
recomme
teaching
Budd
##50
Korea
Week
EP
races
association
launch
spirit
shop
##iser
400
illust
Technology
doub
literature
begins
consum
hall
parties
##chestra
Light
govern
connected
Castle
receive
disease
##akh
suggested
experiment
cab
piece
bass
claims
Stephen
Ker
##lers
Hal
trains
##án
56
Sab
##ervative
##aug
image
Kel
##heim
weight
enj
##odies
web
##gend
Marsh
confirmed
committee
Rom
##ancing
applied
stock
Stadium
showed
liber
##alion
##imal
Naz
classes
traffic
lot
entry
57
goes
captain
Like
150
##uns
AC
##range
##ucky
##ogs
facility
voc
##iling
1936
simply
##miss
1938
##occer
##bit
wear
##iced
sides
Arthur
##ilton
Walk
##ez
##oty
bow
defin
##outheast
Batt
Anth
Sav
mom
suit
Nations
graph
##ashion
succeeded
versions
carri
injury
exam
Mountain
magn
theme
billion
Netherlands
lear
Free
roof
formation
tree
##ois
Francis
##ighth
##omy
completely
younger
Circ
brown
seats
custom
##una
Alf
governor
##erc
Lady
habit
##kee
actress
fully
Marg
##lace
want
doctor
58
Kal
Represent
##itzer
arts
extend
cert
hands
females
##iner
fish
##ronze
tower
net
scientific
chosen
headquarters
figures
IS
syn
supply
Su
bought
##inger
Bla
tried
holds
##EC
1919
Between
##elligence
##ii
Barb
Davis
Mun
##osophy
Fire
##lywood
aired
visit
oldest
fans
measure
Maria
##known
things
element
##sey
yard
##omot
App
volume
pun
Greg
Ron
##athan
auth
Pier
##uate
rob
thir
Marc
Color
maintain
##urd
Lind
challeng
##ée
##hedral
footballer
##ef
##iques
returning
##FC
Pu
Polit
##bo
instru
publication
feed
narrow
something
Sunday
##aret
Cub
athlet
critics
allowing
Dor
Iraq
politics
Tal
Han
##ova
aim
##met
relatively
Lewis
occasion
Minn
ven
##erved
1914
entitled
reports
materials
##aks
sixth
officials
frequently
##olid
alone
Beach
meant
##iminal
Steve
attacks
lett
baseball
partner
Sem
rapid
achieved
Tenn
Freder
Hart
Due
Administ
horse
Premier
66
##pass
dial
advert
1937
restaur
DVD
ple
situation
##mod
necessary
script
advanced
Golden
Earl
temple
conduct
##alty
Pit
global
Abb
##yes
bit
yellow
authorities
portion
pair
daily
starring
attra
##water
Test
commissioned
Regiment
regions
##HL
##bell
Emperor
1900
mut
lake
Hu
Gi
Wat
principal
##rig
earth
Short
##struction
brothers
Alb
notes
proceed
winter
##kes
##clus
opposition
fighting
Kim
performing
normal
##iable
simple
creating
Final
59
##osa
##SA
arrested
Philip
aspect
What
audience
1917
iron
contain
FM
beaut
visited
settled
straight
termin
Moh
copies
Country
sons
Several
rain
mind
##aven
Balt
theatre
promotion
##iary
drive
alt
Medical
##rin
##LA
vocal
##ifically
Pass
loan
accident
##anta
##igen
Cra
##je
guest
63
Bah
Brother
Trust
##ss
desce
##aly
Gre
Daily
About
Sweden
effective
kil
Tai
etc
##uled
##play
approved
##ressed
Cas
Ball
Lead
##gest
sle
##orne
##real
Hun
##mouth
Ross
##lyn
##eral
Military
fair
Legisl
##MA
memory
background
subsequent
62
rang
Prize
founding
flood
agent
tal
conflict
tele
##ruit
seem
distingu
occupied
Ins
generation
alle
storm
Korean
##pson
##ression
ending
safety
ox
sand
employed
commander
authority
refused
1935
mayor
Fa
fought
royal
##nce
id
animals
##ipe
Hou
dim
sets
attempts
cho
Leon
##arp
Sciences
towns
spect
bud
Trib
methods
##ropolitan
unable
Labor
##regon
documentary
expansion
##idge
receiving
##ER
morning
portray
##ji
##ureau
Six
99
Ford
powerful
##da
1929
bul
Bru
enjoy
1933
machine
consisted
Lo
learning
underst
##gian
##otic
cancer
Hard
##bec
##elve
map
vent
Family
##umes
Books
neighborhood
95
focused
engineering
61
Down
arms
Now
##oln
##eman
girls
Ho
sense
hydro
dropped
application
unknown
defense
Addition
burn
samp
Stand
Report
##uls
rear
Channel
Oregon
trees
Region
cart
176
Memorial
Ut
protection
Wall
Melbourne
Stock
##osis
highway
districts
height
##TA
extensive
shared
households
##anning
architecture
watch
finals
lect
combat
Swiss
resources
attempted
##asty
##OS
Area
Township
Eth
##kin
selling
Americans
72
##wh
broke
apparent
exchange
Writ
shortly
##ava
##uing
1910
rot
##onym
AD
Bat
##aska
setting
##ante
Plan
valley
Ocean
maximum
Nap
##ls
rough
Indones
##urance
attacked
consult
Pa
Even
covers
Khan
##room
##arc
permanent
begin
##isted
fields
Early
##mes
ring
##plies
hero
your
##ocese
##inder
villages
##har
reject
Wars
virt
Cape
Ten
respond
##lan
contributed
85
1928
Holy
adapt
##ownt
Squad
retirement
Anne
##rect
needs
##pot
Ka
Nick
inters
corner
derived
bra
Baron
Clark
Manchester
resc
Miller
gar
##IC
containing
##CAA
occurs
Queensland
funding
slightly
##orney
tail
glass
actions
crime
##iab
##pool
mis
##illery
##onsin
beyond
Live
Serb
##ivals
Sum
01
elimin
seg
converted
Tok
encoura
1934
Indiana
determined
##weight
##pa
mile
Missouri
Wisc
Kansas
Census
educational
##ears
Turn
##rowd
##opher
##apore
Son
Who
Mas
roll
##40
offices
opposed
write
onto
##urches
Modern
institutions
Dig
faced
Wisconsin
wound
finds
Federation
basic
ends
68
matter
touchdown
pilot
1922
IV
76
##ori
Ast
airport
##zech
Coll
Junior
1923
##een
##30
Upon
influenced
ways
Entertain
flu
developing
Conc
Management
NFL
climate
##zz
##bro
Zh
hotel
Mexican
##enna
##lic
Jacob
dipl
##oven
Gil
Jos
Simon
Cab
##cycl
Prior
##time
1924
lyrics
emph
qualified
1932
Dec
fer
Kr
1912
fiction
worldwide
structures
Minnes
trust
aged
prepar
##ums
##stream
Singapore
##no
domestic
existence
##asy
economy
temperature
##ulate
Disc
contrast
##yo
Norwe
Tenness
load
Maryland
##sky
boat
refers
##vard
##ito
##iders
letters
08
67
Tony
##achelor
Vi
McG
Then
Czech
Linc
sust
racing
##anger
Staff
row
Further
technical
Walter
Christmas
Hand
1921
Marine
convers
##anth
Gord
##owa
##rees
##rete
rise
reasons
##ource
Pope
properties
##ür
vehicle
castle
Morris
exclus
Heart
lands
phase
##SP
guard
Page
Point
Od
pieces
alternative
protest
09
##inth
##rog
wrest
advant
controlled
Tennessee
supporting
try
1927
Minnesota
##bra
##ID
##wise
Command
##writer
Harry
##ropri
composer
opp
producing
acts
swe
avoid
contained
category
fuel
negot
males
Whit
Howard
grade
vehicles
ultimately
NY
##amm
representing
##prise
door
##uccess
Labour
##oster
walls
multi
1925
invited
Fellow
##olished
guns
Bos
##bi
enemy
wealth
bor
##aming
Jane
##hing
1931
Entertainment
Stone
##ci
##iny
Affairs
fashion
Real
locations
partnership
Ltd
78
##oured
Lincoln
profit
Places
Nich
consecut
sac
rein
Norwegian
successfully
bands
gall
##asters
rom
educated
deliver
finishing
calls
planning
AM
fresh
77
abandoned
uk
97
Municip
functions
herself
69
##iments
##obe
Though
proved
NCAA
identity
##pet
constant
advance
##alo
steel
extrem
doing
pul
trained
##elle
diam
##igration
holding
kick
Ren
shape
88
##cow
passing
Adam
##ika
harm
density
sought
clin
formal
equal
Transport
Prin
graduate
compar
reflect
Volume
##wich
##fully
Author
##aria
##CC
96
Execut
scenes
71
centuries
sector
##hat
##zona
Winter
emphas
Rem
san
visual
Colorado
Prim
Hans
Malays
entrance
Building
incorporated
Burn
programme
##anton
stadium
>
Temple
73
Vis
##olis
funds
judge
##uration
connection
Rand
Independent
##ami
alleged
environmental
Back
ast
##itage
Philippines
1915
##iversary
Ga
exhibition
choice
reaching
Hamilton
Front
quant
Bureau
Only
Brian
##zen
74
##anna
folk
deploy
rugby
classical
polic
inhabit
plot
wins
inaug
Ts
Hur
##ublin
##tered
Dougl
heavily
Services
god
mel
median
specifically
Sri
fram
1916
Kat
Norway
Engineering
Low
tall
detect
rich
##ateur
Space
passes
ec
##lines
Rose
bronze
Foreign
Gab
##IT
##iti
quite
lat
escape
Vice
trav
appoint
negative
carry
Div
laid
spok
decor
consecutive
SS
hired
##ading
##ogy
starts
speech
rival
establishment
##owntown
Television
journalist
Jews
recognition
Ali
Arizona
patients
resigned
fleet
Niger
micro
standing
ceremony
nuclear
core
ax
protein
91
Liberal
Let
##agh
collected
##cyclop
##cia
Internet
07
decades
Houston
incident
pup
##hr
1926
Well
86
expressed
nob
maintained
##olm
##erto
Sound
promote
vice
marg
tend
Moscow
Express
poly
##set
##eria
literary
##erts
merged
Portugues
Pot
scheduled
Design
Gib
Security
Allen
edge
metres
da
Domin
DC
Fame
voted
Ark
##atab
Executive
##while
06
##po
Doctor
##erb
foundation
ori
stating
importance
Historical
decre
junior
failure
98
Hollywood
candidates
really
##oes
internal
Prot
tor
price
merch
175
installed
##stead
starred
Regional
##ples
##haps
##western
regarding
strength
##lets
entirely
##oto
##text
observed
registered
##ía
heard
##roit
trying
dates
Vietnam
investigation
##usal
passenger
independence
Tar
Na
Edin
##ão
##lain
survey
##gro
##aki
87
##acent
reign
budget
standards
##isf
compete
Turkish
programming
Stra
improve
catal
##agan
twelve
Frederick
Patrick
Dick
1911
accompan
toward
volunte
ideas
opportunity
comput
northeast
cas
##df
##risis
Infantry
##olas
descript
brick
behavior
Mit
Medal
Naval
##iful
##law
Aud
sale
##mb
SR
Tourn
##ographer
opin
closely
Austria
Portuguese
locomot
Once
hockey
##CO
homes
Fund
engaged
Lar
landsc
shaped
Jay
1913
Brand
Beng
ment
chemical
Wy
cricket
81
AP
##outs
##actions
##ilation
improved
Tel
Switzer
05
joining
82
##pur
driver
##utt
##come
##uther
Heritage
cru
Wolf
##ryst
Gram
Square
equival
wor
Tan
sole
##isms
representative
describes
Bou
##osed
Harvard
Oak
Thus
##position
aid
draft
Edinburgh
Abd
##aded
swim
Rac
views
Rab
Drag
Album
##iva
selection
paintings
looking
weather
profession
##aser
Liter
##raine
Here
regarded
courses
consisting
Switzerland
impr
drink
opera
##ception
Gard
ethnic
##appe
weapons
##vens
04
headed
portra
É
CO
##ieval
poetry
Age
experien
##oli
operate
strateg
animal
believe
Kentucky
defend
Anderson
fine
occas
Samuel
Douglas
crowd
1890
details
FA
initi
Palest
playoff
causing
##poses
##iang
92
reserve
##gor
Silver
##aro
au
Diego
northwest
flat
##isa
Fac
##uties
users
waters
Information
03
orders
constituency
praised
##eke
Conn
mand
##ologies
Islamic
##aga
##anga
##raf
Phys
##fall
paralle
##ctoral
##aved
##ogen
factory
residence
birds
acid
Connect
powers
wheel
##track
79
applications
##duct
substant
##igation
Hug
mole
synt
##iley
jazz
signal
violence
overs
Baseball
93
corpor
singing
##orage
##pret
dro
##ictionary
Il
##atures
getting
engines
##idel
##gr
jur
84
89
pione
Gordon
##apes
vocals
Farm
ille
introduction
premiered
Hotel
drawn
possibly
speaking
##ourney
exact
##stitutional
Every
cod
chose
##enz
##ographical
##jan
02
ABC
adap
affected
employees
transform
cooper
Forces
Native
Associ
##rum
easily
Dal
limit
coordin
Lev
1908
values
##ushed
exped
##umin
Care
Roc
demonstr
Sport
Senior
PC
Detroit
Israeli
franch
strike
Hop
##icide
gene
Chart
gain
bodies
AS
actual
pros
Gree
Mean
Mississ
rebu
hair
worth
favour
images
##TC
agency
*
##wealth
leads
criminal
argued
briefly
religion
ere
Dublin
160
ahead
survived
##idden
sell
Children
##ager
replace
tropical
Hockey
Buck
adjacent
Dur
extension
Dom
Member
presidential
clean
crown
##ghan
Jord
Ern
Matthew
exerc
##ikh
Anthony
sections
Mand
concluded
Alan
Jam
emp
armed
Pict
seems
##uation
regularly
Micro
ruled
sty
Oklah
Global
Communic
Eric
Clin
Moore
objects
distributed
Lin
subsid
surg
Gallery
bed
##pective
comic
Roberts
dry
steam
Rol
ans
##uv
##entially
medium
##agues
moment
upd
##gency
##DA
edited
##ello
engineer
Imperial
causes
interior
chain
##ques
mathemat
agricultural
Third
Mayor
Jesus
skills
entertain
pages
symbol
##IN
##uct
Turkey
obl
##don
nick
Juan
earliest
duty
nt
shell
rating
trip
##heless
divers
superv
reduce
stores
Bowl
Oklahoma
##eler
Ban
pdf
seventh
eg
##rome
120
participate
seconds
piano
Croat
##inema
Armen
ped
##PS
Bry
somew
statement
why
aware
Record
licens
Lieutenant
Local
doll
obtain
Alab
opposite
composition
Finn
##lusion
Guide
stands
select
musicians
2020
typical
debuted
retrieved
Administration
<
deliv
1906
witness
##onom
reput
Tournament
CA
trail
Current
Village
techniques
mist
Commonwealth
Lyn
emot
Squadron
##bl
historian
Cook
Kam
convent
reserv
decade
inhabitants
boys
gets
greatest
##anes
depth
Quebec
bottom
Ku
enl
combination
Youth
##dale
advent
injured
CEO
hill
diplom
Origin
arrang
83
roads
solid
interests
Catal
reading
##organ
Phill
##ippi
personnel
operates
##rif
Brigade
consequ
costs
notably
grounds
Deput
check
##rations
##unch
advoc
Inn
broken
documents
killing
tank
ones
##lected
Cooper
Lang
##adow
Montreal
Ow
calling
reality
bishop
Run
1905
Hills
Vo
belief
##ules
Prix
undert
seed
motion
##rip
##life
writers
Sel
revolution
UC
##aph
regiment
##active
businesses
someone
strip
Colomb
Bart
##icians
demand
secretary
islands
designs
eye
accused
residential
ban
##iot
poll
bond
Stew
advantage
Lanc
painted
prize
250
Gaz
translated
Ale
flying
faith
##adi
##és
##agu
Hawai
attract
170
##alled
Your
##kh
1909
##rine
user
##RC
Satur
##onder
shel
1907
purchase
remark
Greece
session
94
##heastern
railroad
##21
Cost
charged
chair
Alabama
Nar
##aux
##ista
musician
##rator
Treat
##PA
##antly
collaboration
##imore
sequence
##hist
Iowa
repeated
Operation
PA
zone
##cha
items
Saturday
1880
##ogle
nothing
Chairman
Cemetery
resistance
transition
##teenth
renov
degrees
##sex
Dream
churches
vo
##odox
##elson
grant
shall
Lawrence
Eag
examples
##racy
philosophy
note
ancest
600
Death
##oyd
##zer
Environment
##oa
##aine
Nik
electronic
susp
Danish
batter
device
driving
##iants
humans
unus
Pitts
showing
##oen
Whe
brain
capture
##father
##inner
Constitution
Louisiana
Rights
invasion
coll
Rugby
resign
throw
##icts
Row
##iami
Schools
southeast
Sym
Railroad
##icut
wings
##aren
##ui
##essions
##ilst
Architect
##mers
Ener
Puerto
charges
Cow
Broadway
kilomet
recip
Andre
Margaret
##amic
rooms
##ensions
Crit
##enh
Pap
thick
passengers
##uster
heat
dismiss
##cription
reaction
admitted
##aired
Mississippi
SA
Amb
owners
##emble
Antonio
Pear
##agen
Mem
##BI
Iron
Sha
##box
##ategy
##friend
##elsh
retained
hun
save
assumed
Gene
accommod
shut
winners
attached
credited
Five
McK
Miami
##abled
Morgan
##cious
southwest
tries
Prote
caught
##hetic
stood
biggest
damaged
Our
tick
##ails
Rang
Encyclop
Pur
accur
Gri
Lam
##ners
separated
faculty
##ooth
factor
legend
proced
Seattle
Fall
##ads
##borough
fired
##ocks
dated
goods
Dave
Meth
Ryan
dies
Wa
fly
##enny
enfor
turns
Communist
interested
freedom
##ducing
mine
asp
factors
photograph
deleg
Jordan
##anned
determine
166
Pow
Laure
perhaps
teachers
innov
stages
delivered
Argentina
Ped
commit
carbon
restored
veter
terror
Shah
Liver
Roger
painter
displa
vary
index
Cru
Dall
aer
Mrs
NAS
courts
##cell
Chile
Marie
releg
classic
##ture
##dam
1904
communication
pool
##resents
committed
fan
##opter
Additionally
routes
contributions
chance
cool
wave
filled
Reserve
rejected
investment
frame
Century
##orph
##ifications
translation
flo
Sky
##vements
##abad
MS
##igenous
immigr
purposes
equivalent
##argo
carrying
##odge
nor
##issance
refuge
Kevin
mort
retail
##going
##iller
Dark
Sac
lawyer
represents
bran
##illing
Garden
##olt
Set
cycle
garden
Psych
phen
Story
##ellite
learned
soundtrack
Welsh
print
Key
extremely
Nag
returns
1901
soci
Mountains
1902
Mission
Disney
calc
provincial
##insula
ru
Gulf
Imp
difference
##coh
breed
Denmark
##rak
Campbell
accompanied
##jo
AT
##fe
mining
unsuccess
Ll
Baltimore
Jess
Bruce
Ent
ham
Connecticut
##ructure
Dean
##ardo
1903
duties
institution
Las
##OR
Agency
##cu
compris
Publishing
enh
colour
##eline
Rick
membership
Afghan
priest
##veland
Rot
1870
isol
adapted
weekly
archae
Mach
Thompson
publications
Fern
Norman
Peace
delay
expression
anniversary
renew
cited
Orchestra
Hamp
Territ
##rell
mobile
township
interpret
Kings
168
Colonel
##order
##atabase
sort
popularity
##unnel
Alexand
criticized
##hess
Fil
prepared
Taiwan
Var
linked
arranged
organisation
##ogether
context
Hig
die
wounded
Alfred
suggests
Kelly
champions
ign
Donald
Fal
stret
##uscript
##pers
Grant
circum
Representatives
##istical
##unes
Atlanta
##otte
##eland
Non
AR
sed
##net
##thodox
Natural
uniform
franchise
cold
Sax
publishing
##king
assault
defeating
Walker
colonial
##chi
significantly
tack
Cer
##ét
inher
Chem
lov
##rons
##stan
Bud
##ctic
Mond
##utions
experienced
Honor
Belgium
Culture
Arn
Opera
mouth
appropri
subjects
theater
understanding
##gon
##etime
anth
##bar
Last
Rub
correct
shooting
unf
marine
intelligence
Johann
severe
##now
plus
Buff
Maur
otherwise
measures
aspects
gang
Ward
Broadcast
Sarah
liqu
Ever
##coming
stayed
##rix
protected
Trad
##irt
Tit
hits
teen
##icial
##atherine
grass
MA
##ania
Cleveland
174
Tokyo
164
medicine
responsibility
##ET
Shar
stopped
Tamil
Frid
##uma
na
Russell
Ay
Metro
demonst
util
##ugar
herit
Sud
roughly
tur
naval
divor
Crown
milit
Nob
profile
##hesis
perfect
Liverpool
##angel
involving
Peters
##vo
##12
scholar
crossing
knock
Palace
picture
Lane
##vant
##gas
DNA
Dyn
Gran
arrival
Nav
##ache
Alban
Chall
Battalion
Ship
##oral
Saf
Bull
##atically
cycl
Meanwhile
##ceived
relative
##unction
##heme
Cre
fra
##cop
devices
Admir
veget
##yst
##ogan
Dead
Place
Upper
parallel
Ran
Dra
McD
##eless
Ukraine
##ocracy
Officer
differences
option
Singh
Beck
windows
##gi
Friend
evolution
defensive
technique
submar
actors
Bapt
Defense
plate
Athletic
Studios
forming
Commander
Legislative
800
myth
ownership
meters
Market
##htt
Moon
conqu
theore
Bed
##pse
classified
buy
ensure
storage
guitarist
wr
Ult
Anna
fixed
Metropolitan
legislation
CBS
Bush
challenge
instance
##oom
safe
synd
successor
##emic
credit
Michel
brig
##ED
Kennedy
Energy
heads
downtown
##ovak
kid
Hungarian
Invest
preced
##aked
Deputy
Karl
daughters
dating
Stewart
##rapy
##othing
formally
Pittsburgh
Fried
Christopher
covering
##chell
evening
Robinson
##assador
requires
CS
##rett
Nort
Lank
recept
disappe
restaurant
window
assistance
peaked
persons
replacement
Dh
novels
universities
neighbour
cm
Glas
##hyth
##oly
heritage
##IV
##apolis
streets
##zh
ur
frag
##St
##edding
falls
ble
diagn
##burn
Obs
##mosp
solution
Cricket
Ext
ago
##icks
descend
missing
Kaz
charts
Wright
capable
Official
##EA
##gow
Gon
Pas
thousands
hosts
dog
sun
Beat
Brazilian
##zo
##laimed
nickn
##ión
##oslav
##orial
Nelson
##19
climb
refere
Dance
alleg
filmed
Convention
##xual
lin
Sain
papers
Round
Vinc
questions
squadron
handed
Never
authors
Boys
##isd
coverage
encounter
coastal
##overty
flows
fict
appearing
Austrian
##ige
##avalry
Austin
imag
Cole
cup
Race
equipped
Chron
explos
offering
##lock
##ellect
##cular
eyes
Pun
policies
##ifer
Rud
##illed
testing
concerns
celebrated
##atters
##olph
Ottoman
fit
vert
scheme
Franklin
Alliance
Portugal
NS
banks
Vienna
Ry
169
Comple
imprison
##amps
cous
Brothers
Unt
Nash
hors
##ridges
Cathedral
pg
##udden
Beg
eval
167
plane
##die
flowers
requirements
Hell
processes
mil
gather
depos
##lon
Conservative
file
advis
##phone
opinion
Dictionary
divisions
AA
Hom
##di
Equ
annually
somewhat
##tery
##tenance
grown
temporary
expert
Murray
Medicine
exception
practices
components
##merce
VII
accompl
##ni
Fu
chapter
competitions
##inian
##rik
Agricult
output
Fel
Lith
assess
##dd
##state
##arsh
165
Wol
##under
weak
Malaysia
memorial
signing
##eway
recru
Lower
restrict
##ibl
##ework
truck
recordings
WW
rates
1898
Hungary
Marshall
Adams
##uous
tennis
##uted
Pierre
##mingham
landing
medieval
Ky
driven
reputation
Kit
Nep
##ouver
crisis
##ti
Dallas
##intend
meets
appointment
##atern
##enez
raise
Again
José
considerable
##TS
##iency
nom
Hindu
Indonesia
adding
journey
101
Yan
poem
catch
ranking
debate
graduating
Rain
##ando
instruments
##bal
camera
soccer
commemor
##lades
helping
filed
wooden
##osm
##hered
assembly
circuit
Rio
bab
Langu
sponsored
Authority
Fact
Stanley
##stances
Ori
Hold
Thor
gender
##otes
Nord
weeke
Anc
rent
soil
Mort
Hit
deputy
alcoh
##ymn
##inh
##roke
childhood
replacing
contra
qualifying
##ester
criticism
rose
manuscript
##astery
pitch
##olo
CP
fishing
entertainment
##itals
Call
##rates
Note
##inding
Motor
expedition
##car
##anny
relief
Lib
rend
snow
##iki
visitors
Banglades
##enses
##igious
surrounded
Tele
branches
modified
##rat
entering
cook
achieve
vessels
Originally
prime
##ideo
1860
Hend
warm
fal
justice
spiritual
Birmingham
surre
influential
Code
mode
##pro
huge
Chand
Pad
surviving
Heb
Gill
benefit
Graham
Judge
nomination
173
Mack
Bernard
manner
Kon
##DP
##sch
prisoners
##elli
##icon
dream
finding
##phony
bear
Knight
NBA
##rastructure
occupation
Champions
explained
studying
##olly
murd
##ishers
excell
Arkansas
hur
##asure
##LC
message
NBC
Bird
Rural
changing
absor
Scient
Economic
##cho
supposed
Unlike
##tha
Portland
##crib
frequency
##yard
##wing
tied
expect
struck
##oria
Nazi
Capital
existed
Cha
Vik
Works
Years
sufficient
Box
130
monument
##orf
Senator
definition
Kan
1895
Chen
grey
fest
artistic
Fleet
collections
Food
forests
suspend
##cles
1899
strongly
victims
concrete
Neb
eleven
##bridge
Emer
appeal
declined
##iac
Aqu
Herald
##mate
##HS
Guardian
boundary
##acher
friendly
Chamber
mart
##after
bringing
##ecution
experiences
##ushing
Tig
##lac
powered
##uri
mo
Init
##ults
competing
neut
manufacturing
Priv
Ye
##ivated
Method
##ugu
##seud
skin
Cass
distinguished
##itter
Prof
Trade
Ot
Confeder
Carter
##gie
shif
compl
pron
surf
##lete
pric
newspapers
cards
Windows
##lad
Camer
increasingly
bes
vic
1896
SC
##rage
Girls
Si
vision
Brooklyn
eighth
accounts
completion
remember
tex
##cht
tie
fear
offensive
aggreg
proposal
depending
dress
instrumental
##hus
CN
habitat
secure
segment
USS
##dy
Nation
hang
Billy
amateur
songwriter
##ele
strategy
Prom
mental
##ON
Survey
Section
##acon
bat
Along
##ront
Utah
preserved
racial
indicated
##ultan
##oca
hip
##iege
Training
scholarship
##arest
donated
Princess
SP
##antasy
##ayan
##orer
occasionally
Ald
Hud
Jimmy
Online
##rehens
Comics
##25
Py
turb
Benn
Limited
assign
Assist
##eed
Carib
shore
markets
reun
Ukrain
designer
ben
Benj
mounted
Gary
Rap
panel
##udi
##aste
Om
lasted
elder
##bach
##eping
fruit
threatened
163
boats
vessel
##aver
satisf
Glasgow
funded
Evans
resolution
atmosp
shares
##lie
rivers
##80
repro
1000
Google
prompt
##graduate
Orthodox
mountains
visible
mir
1897
Finland
##inction
Movement
##bishop
Apple
##nia
thirty
wine
license
##night
EU
prohib
##usalem
##OC
theat
Ord
##ication
planet
controversial
Season
traveled
Digital
drawing
Vanc
earn
Within
Pra
##osph
Jazz
Ref
happened
IC
Orle
eliminated
##zi
##equ
drew
dynasty
Lud
Theater
Wrest
Maj
##chang
##isition
Gor
jurisd
Iss
react
medals
kingdom
##len
fold
##mund
##rant
Standard
NA
Bible
Sign
involvement
##ruption
Champion
grandfather
Yug
controversy
illegal
unusual
withdraw
underground
##EN
##fl
VI
##ribute
anch
Jerusalem
suicide
##lude
whilst
losses
Horn
##otype
affairs
soul
Rest
domain
##stic
##arat
##iors
cyl
recre
speak
Indians
Gray
##estyle
movements
Nad
inner
rounds
Vancouver
##ín
Seven
fled
UE
##igible
Mess
genre
##pen
lists
attracted
Vic
##ects
##emen
Event
moder
##igrated
Victorian
bon
mob
acted
counties
##amental
denied
Dak
tools
Dub
##aments
Plant
Has
minimum
Guy
printed
maintenance
##attan
tell
Patri
whereas
visiting
expos
Full
Baptist
Venez
Protest
##rang
##pat
description
1885
executed
##ounced
reinfor
Aren
classification
##aman
Clar
Chang
##16
Father
##opal
Leban
posted
Ce
gov
1889
Cart
treated
defence
110
releases
##atur
construct
Brist
Tower
championships
##24
Around
audio
diameter
everything
continuing
anything
emergency
furn
draf
##iration
poverty
Political
recommended
Cher
Orleans
penalty
##aware
Bomb
ha
Player
##15
Loc
##otton
1892
Basketball
arc
landscape
wides
longest
##ellectual
dominated
Richmond
1893
##iop
Ru
satellite
Amaz
nav
Case
uncle
nations
Ple
##mal
Warren
##pes
switch
Alt
marketing
Instead
meetings
teach
vs
##orus
Norm
##annels
##ricane
Rena
fictional
dang
decline
##mat
proc
##then
##23
Delhi
rated
wrong
1894
phone
Edition
##ović
Tot
ton
discip
Members
Benjamin
##bean
Johnny
adopt
##illo
facing
Flore
Warner
portrayed
##rec
##estone
surgery
1888
Mans
##idency
##rity
directors
Grad
##lington
knew
elevation
##eton
participation
Winn
rapidly
ST
159
##asa
##iah
specim
eld
wick
turning
discovery
compilation
##gressive
##pha
effectively
Encyclopedia
Kath
Ian
Canal
##ocol
pray
pure
##obi
honour
##ranean
Map
Baker
Jason
Harrison
venue
sudden
architectural
chapel
Lithuan
##oni
##wall
##ennial
prede
Shortly
overse
Hampshire
representation
##ologists
Friday
##pread
Nev
movies
describe
##hai
IN
gard
intention
useful
trading
missions
ML
Nam
Prad
##lap
##17
spoken
dub
Bris
beautiful
1850
##leton
Late
download
##DS
centers
Soon
battles
##erted
Griff
tow
electoral
Mars
pregn
cable
concerts
Eug
approval
##hu
string
##ahn
##mentary
begun
crash
##ultane
beach
##mi
assass
DJ
demolished
FIFA
Jenn
##ailed
remainder
##13
yield
parliamentary
NHL
attributed
##agn
##ré
Milan
##uda
Constant
hundreds
Bangladesh
Living
terminal
gone
##ailand
competitive
tests
bay
##ingly
Advent
Comb
gay
canc
ratio
stable
Ukrainian
##18
injuries
massive
##sect
125
affiliated
Bes
youngest
prol
Direct
patient
toured
exists
erected
understand
networks
creative
Andy
easy
Nicholas
intersection
Mother
##pent
1891
##ferences
artillery
Barry
patrol
##vi
Ric
Charlie
concerned
departure
##GB
##oba
Tu
Sin
##bu
PS
Such
processing
Wing
lieutenant
1865
thing
Verm
videos
adaptation
##14
Rico
cousin
passage
publisher
##ashed
##break
schedule
astron
##iece
Fitz
greatly
valid
platforms
external
##theless
worship
Singles
integrated
##usted
Ko
worksh
operational
Plat
Secret
blocks
periods
Thailand
##uble
##cknow
rescue
Tang
afterwards
##hythm
Pil
Goth
Draft
incom
##ivan
##rating
Organization
frequent
Mitchell
myster
Alice
corporate
LP
ready
apparently
Monte
chamber
populations
breaking
McL
rif
Madrid
Yugoslav
convention
##place
Exper
Princip
volumes
##ruction
lap
Trail
Mong
##ingham
themes
##mo
stress
innings
##ndar
proport
advertising
amongst
Yorkshire
occasions
agriculture
Start
Stars
Racing
Cultural
##orous
voting
electron
producers
##porter
supports
opportunities
Kil
tact
Treaty
invent
picked
transportation
outd
generated
loy
Get
##inist
##zes
absence
Bristol
CC
Lloyd
Bachelor
##ancell
negoti
Chel
Orange
Ice
##abilities
widespread
bid
Falls
agencies
thro
Manh
ruling
keeping
Muham
Tol
Until
Sid
jobs
Wayne
phr
writes
normally
Burg
junction
##oga
Egyptian
les
##legraph
associate
Frances
infantry
##GA
YouT
copy
Pir
Reform
##town
Phoen
Track
tribe
Guine
Control
Communications
UEFA
relationships
viewers
##archy
sees
Defence
enjoyed
Jama
##rac
##fare
lob
emerged
Sah
mal
##anner
##olia
wants
duo
Trophy
##mates
Fine
predomin
categories
acknow
Pruss
1887
##sea
dual
##rav
employment
1864
customers
attending
Small
colony
##én
155
truth
behalf
component
##amo
neck
gross
##asi
wat
Carlos
viewed
contested
1861
detailed
Rav
rout
157
deck
relocated
Poly
characteristics
Mes
156
abroad
##terior
Universal
send
Jonathan
Caribbean
substantial
RA
leaf
Roll
sentenced
gradually
suffering
1863
##soft
##ilty
##ivation
##bane
channels
Kum
##uated
##ewhere
Vel
Kirk
spoke
Former
Construction
Glen
wire
hope
Venezuel
encouraged
Maine
contribution
##ensively
Zone
Parker
Tob
IP
##phan
Luther
##arks
Turner
Mediter
claiming
##eenth
##DF
##geon
Josh
Mult
suspended
signs
resemb
tenure
##erk
predecess
wet
spending
benefits
Broadcasting
thousand
hal
##ishment
credits
Et
illness
Face
Hudson
##oda
##ounsel
Video
Mi
horses
statue
tempor
##ductions
infrastructure
##quir
Stu
##pression
param
Having
Mall
##26
Angl
Schol
Action
experimental
AN
Tib
YouTube
choose
supplies
indicate
infl
produces
wel
1886
outer
Charlotte
participants
##sis
Freedom
cul
phenomen
Net
moth
premiere
Merc
##ials
Barbara
immediate
##ais
Blood
##mel
Belgian
Adela
Craig
Students
##ijing
seeking
supporters
characterized
##stad
ceased
Deb
transmission
##otan
1862
talent
discont
°
kit
##lem
Kap
##iture
Urban
holid
hearing
##castle
##ör
liquid
Branch
cabinet
##MP
Grey
Doc
CR
Esc
##ricted
extent
spaces
Salv
700
Together
##asts
##feld
##folk
swit
touring
defending
reportedly
Grade
Electric
everyone
rebuilt
##usc
LA
Mediterranean
timber
styles
Systems
indigenous
Woman
Shang
##iri
##prene
agents
excess
Mind
Hunter
animated
Steel
##enberg
fil
commanded
Kl
##ashi
extreme
representatives
apply
##avan
1881
conservation
##27
Arena
Classic
Fisher
Finnish
ranks
merchant
Bri
none
drugs
##andal
missed
Hispan
##hum
##reprene
##ulu
Pin
partners
monitor
Fight
Aer
pm
Conserv
Bert
##ovo
shock
Arabic
##nik
poems
struggle
Much
assets
Afghanistan
##IP
##mun
vast
Wang
clock
Collins
wars
moves
##othe
##master
adults
displayed
Past
roots
Chapter
strict
Support
mac
Sche
asks
##archers
percentage
hat
Songs
impos
highlight
Oliver
simultane
assemb
PR
Muhammad
restoration
##gate
Beijing
reveals
Unit
Nigeria
sentence
1884
wedding
Language
##gorith
conj
pull
Parish
constitution
Policy
drummer
identify
Wor
##igs
admin
recovered
decides
Lad
businessman
researchers
140
ninth
Hawaii
congreg
##ulum
ocean
concentration
publicly
Nature
deaths
exposed
liberal
terminus
##ubb
Trinity
guide
Cob
##ader
Collection
##ducted
insurance
##ensis
Know
linear
facilit
##abil
trap
partially
earning
aimed
##jab
solar
commented
bright
Adelaide
impress
conservative
Hunt
Speed
ther
Manhattan
##ME
##acht
borders
recommend
disapp
Lore
Similar
##gart
##icip
Saints
Buffalo
Model
excav
##ifies
Hous
danc
sustain
Shel
locally
matters
##oples
substitute
##hill
##struct
descent
governments
##ulating
Persian
shr
exceed
##rov
patron
inaugural
##alia
##mend
Lov
Steven
casual
intellectual
intent
assisted
swimming
Soul
158
##uable
weekend
##rehensive
##bes
charity
##itud
honorary
Isa
Din
Nova
##col
PhD
subd
depict
athletes
##asm
steps
organised
links
IB
##encing
subsidiary
Tech
weapon
##onian
pod
tiss
Studio
##rose
belonged
Cad
focuses
Commissioner
partly
principles
Pav
Pay
Dram
Greater
lock
tribes
personality
##nda
##othy
Near
suburb
completing
##IL
##pany
Sig
fur
##uits
Fem
Advis
destruction
1882
gat
Gun
provision
##eme
tribut
Len
Kos
##acter
##owski
gram
Where
##fish
Mak
Hope
Romania
##reck
EC
Stevens
##iciency
Soccer
Alberta
alcohol
mathematics
##amics
##rade
Spirit
Ivan
nurs
Larry
Philippine
##MC
CB
abuse
Yale
Gabri
clinical
##urers
##plicit
Germans
Lanka
Admiral
secured
tunnel
territories
licensed
unp
Microsoft
##arth
Nat
##itual
Municipal
electrical
Ring
drafted
Catherine
explo
##onymous
comed
Appe
Ja
implemented
##uru
Bengal
possession
regime
broadcasting
IT
##rystal
Abbey
keyboard
Diam
stim
Jerry
ranging
php
possibility
Vincent
reven
borough
..
legs
##iph
Pont
##iveness
...
Had
margin
##ching
ninet
##fers
appropriate
##brid
Vas
neither
scientists
Clinton
closer
pursue
Sr
stem
discussed
const
Therefore
Swe
rand
##umbent
##antine
involves
essential
##itarian
105
false
settlers
Hugh
export
palace
relation
notice
inch
apartment
##keley
##aton
##ST
Cand
Throughout
##agar
foss
runner
##itable
establishing
mines
##look
repair
##ector
##lett
Salt
Statistics
##nie
escort
##hab
##azines
##sequently
Brisbane
1871
Person
deployed
drums
sight
Initially
##22
Bron
merger
sessions
##uki
##acks
config
Ug
Beh
Hem
Storm
resort
photographs
balance
Marvel
Adv
Ridge
Annual
Ral
coaching
Gay
Nebr
sculpture
possess
Lag
106
##alendar
Cinc
cash
enrol
##cribed
diverse
##arged
Hebrew
falling
unsuccessful
Phot
operator
submarine
limits
subsc
guilty
clearly
Joy
Dod
Cold
anyone
Morning
Romanian
cann
judges
Sor
cemetery
revenue
Mason
farmers
attorney
##acle
##roph
input
qualify
spin
sang
Theod
Industry
Celt
Industrial
##ów
initiative
MD
Attorney
Terry
154
Tak
Nebraska
algorith
submitted
prest
sailed
##olds
Clay
eldest
Pant
debt
Fif
Hann
Sultan
opponents
##away
Socialist
Magn
ride
advice
continuous
Rangers
NC
Norfolk
fighter
##unc
suitable
blog
##AA
Wes
Aber
discussion
rising
Commons
153
##ierra
empt
manufactured
py
coff
Finally
##iliar
Biography
Stre
Lis
housed
principle
Anglo
Democrat
municipalities
1883
##ancellor
closing
photography
connecting
cargo
##igg
##sters
Wrestling
eat
random
underw
editions
voters
golf
subt
traded
##ère
##usk
##auge
##opes
Edwards
##eta
consp
jum
soldier
thereafter
Fab
rig
Phoenix
Pack
Blues
##helm
##emed
spr
beating
violent
productions
##eters
Ground
Symphony
desire
strategic
texts
Borough
responded
##itis
Archbishop
##holm
Article
initiated
reduction
Serbian
insect
##ews
Cann
Susan
Muslims
Iv
civilian
##aja
Tag
sympt
dispute
Byz
charter
exclusively
##cour
##eston
provinces
latest
activist
Tun
romantic
immigrants
##rows
torn
##onald
Bund
Malt
##bound
Barcel
Bath
helic
accessible
Leeds
trick
##borne
survive
discontin
##din
convin
lowest
Pel
##enger
1876
lose
Perry
remove
upgrad
Wel
earthqu
Pic
Cuba
migr
##boy
##inental
wearing
Challenge
Gilbert
Mul
##28
##race
layer
regulations
compens
crossed
dismissed
internationally
ju
##agre
##owed
Ton
Bour
Hamb
Diocese
increases
Minor
Assistant
salt
Based
tool
origins
##hard
1878
nucle
orchestra
##enti
photo
circumstances
cinema
colors
throne
Punjab
##iler
Barn
##uez
hyper
Herbert
Say
née
decisions
Qual
Thir
indicates
congress
hunting
hypot
patterns
Technical
Snow
##apping
Bright
radical
controll
manufacturer
outstanding
RAF
Furthermore
acres
Springs
##gam
Soft
disband
Alaska
rect
##idal
Cou
Madison
##ML
fab
Trump
serial
Ancient
##itime
##lee
##maker
##keeper
manif
physics
monastery
efficient
mechanism
compla
##osaur
Weekly
cattle
Abdul
surve
##assy
Data
Vers
##orious
locomotives
Munich
fitted
else
dangerous
Herman
Hav
Pictures
extensively
ongoing
marks
arrangement
manage
por
labour
##overe
Term
fee
Computer
conventional
##lus
ideal
doors
fifteen
festivals
conclusion
##ocratic
alter
Cincinn
boundaries
baby
Athletics
##lik
##arked
Keith
grows
believes
Peninsula
wrestling
Literature
mechanical
##urst
##acts
imperial
Professional
maps
opponent
files
Faculty
pale
certified
Wed
ray
Neil
coalition
seeing
dominant
tag
Cond
1872
Murphy
electricity
Currently
Contemporary
##HA
surpr
legislative
##uka
twin
Syria
landed
superior
communications
Lan
persu
riding
Iranian
##roc
##point
Helen
magazines
agree
smooth
demonstrated
Athens
Cincinnati
ll
venture
##zed
Nevada
rarely
pictures
devoted
Berkeley
minority
wealthy
exclusive
##asant
travelled
1840
tort
##orporated
##nan
##roid
1875
drivers
##mediate
organis
##ocation
Conservation
##rot
expensive
##haus
promoting
strengthen
battalion
Maz
interpre
Campaign
##ido
##mont
Side
Chair
jurisdiction
traditionally
Compet
fat
nep
Jefferson
Antar
104
##11
banned
Barcelona
Dog
Amster
Bak
Next
Rogers
##rypt
lingu
##sa
eligible
Allied
Harold
Coal
distribut
exhibited
##aha
1879
industries
Ib
Curt
1874
expand
practical
##rez
##arrier
versus
Henri
Ethiop
concerning
vul
##onies
##iya
Sull
Franç
##EL
temperatures
Holland
pip
hence
originated
##ygen
tribute
requested
fasc
shift
##stitutes
##onds
Gonz
cancelled
Circuit
raising
##RS
heir
absol
##raham
acquisition
##ixon
Hob
describing
Amsterdam
##oi
belonging
Lear
trials
reaches
##esty
flights
excellent
Type
marry
els
rib
Guinea
##kt
##works
camps
unlike
sisters
connections
Seb
Robin
##29
libr
Those
winds
surviv
conversion
traditions
contributing
implementation
hear
mail
topics
aqu
bag
Brew
recognised
intern
##nell
withdrew
Jar
Sad
108
jury
identical
proteins
Patt
pseud
simpl
midfield
Bald
significance
Tigers
clothing
respective
##OL
doubles
##ested
inhib
machines
permission
remix
reviewed
Buddhist
interviews
nam
genetic
##zing
##tains
Mend
settlements
Math
surn
##ouncill
Buch
Lion
evac
horiz
ritual
bom
sounds
##encer
Shaw
Pradesh
drum
pointed
Aar
Mann
Stuart
1867
constitutional
Stanford
Financial
##omon
acknowled
Kle
overseas
1868
Archives
eggs
##unct
reorgan
##EP
##http
##achment
designation
diver
rum
Rhod
##abor
accord
retreat
delivery
restricted
Monday
Ottawa
thin
Provin
##mith
horror
Nepal
Lock
Luke
##elfare
Mut
zero
gallery
elsewhere
##rus
##cling
##idad
Osc
##olition
##mits
scores
isolated
avo
Masters
database
caps
##case
rej
internet
tip
sample
preferred
##stance
##MI
kg
Tribune
##orig
##rington
nephew
Players
Princ
Vegas
Newcastle
##60
Mol
departed
biological
lar
Brun
managing
##bel
##gio
##inum
Production
alliance
rid
commune
references
Bog
exercise
##oked
endemic
dependent
Hond
outbreak
automatic
Flight
inducted
petition
Peru
giant
couples
1873
1877
argument
Christians
Hein
compound
Joan
Study
prices
biography
convicted
rocks
treaty
##ibilities
OS
noble
Gazette
##ugs
engag
kne
Yang
Florence
playoffs
##xi
##cules
##eties
neuro
spend
##inations
Dennis
##rod
sung
transmit
canal
Raw
farming
Hughes
Serge
vertical
1866
Protestant
##py
walking
Derby
looked
##erbai
Lie
Aviation
Eventually
circle
Tas
reporter
rub
Drive
usual
109
##eli
collaborated
emperor
defended
##athy
Ralph
geomet
##osy
##rors
##bow
##ieg
portrait
##aran
nut
waste
spir
approached
##ortion
##hent
Azerbai
mos
Arnold
Chester
Arc
tight
##igo
tu
##arriors
tons
Got
edu
corresponding
Rat
##celand
grandson
##asha
McM
tanks
enrolled
##iour
107
graduation
Confederate
Luis
sequel
inherited
Hispanic
Territory
Shakes
resignation
Gas
##amese
eigh
Expl
helps
Harbor
##pin
Armenian
Creat
##iji
Rivers
Chapel
Municipality
Gw
103
preparation
execution
depression
##entle
shopping
campaigns
framework
measured
##ivia
##oons
Kenya
Mills
archive
relevant
propag
##irms
odd
cloud
influences
inspiration
##etta
Tax
Vlad
Gregory
##omic
decide
##angular
##amily
forg
Block
neutral
##born
Colombia
Grace
finance
variable
blow
##cester
crimes
perspective
ties
columns
reporting
ft
Sullivan
##rooms
aw
funeral
renown
Tow
exposure
specialized
Eston
tub
guests
guar
tier
Democrats
mainstream
bases
##issions
sharing
##hl
Log
exclud
slowly
belongs
BA
Sz
shops
Moham
ski
copper
wider
thinking
relegated
participating
##ampa
Bass
evolved
Occ
Environmental
moral
battery
angle
Return
enters
Inv
Kab
##arma
till
rebell
1869
Pi
##cope
Serbia
torped
##icing
Dragon
protests
comfort
Walt
Denver
gal
Dakota
##fit
chron
acceler
receives
##berry
1848
colleges
cooperation
Kay
##nex
Gust
condem
Protection
##ivic
##olen
Sierra
AF
mamm
Obama
filming
##br
Costa
Shakespe
Days
arriving
##ao
##aration
resear
quoted
reducing
vel
##wig
##hips
encl
Archae
bachelor
root
##icking
resid
€
Bobby
Rah
Napole
answer
##ho
##ente
##sible
bell
mans
Ernest
beauty
commenced
Ni
gauge
march
awareness
revers
mini
##ean
Heavy
conscious
##enos
gear
carries
##ificial
##acc
tenth
Iceland
##fly
Wilhelm
negotiations
Mail
Primary
Christianity
pharm
Delaware
quarterback
disch
ticket
ward
fulf
oriented
Was
##tar
##stown
sa
Economics
Va
Tong
Grove
Venice
flew
Watson
compiled
fundamental
##wald
elementary
View
##iscopal
##osexual
##atar
##oded
Albums
Student
Deuts
Still
saved
remote
Oil
##vision
Compan
DS
Tibet
summit
instruction
Number
Finance
##emies
Vill
Abu
Mahar
ESP
##uzz
Soph
hills
Sloven
tone
decorated
entreprene
Gy
thor
Operations
Og
Phillips
1830
conven
phosph
##icate
interpretation
Pul
characteristic
115
encom
Manuel
vocalist
##ipper
Malay
##care
narrative
Yu
Future
honors
alive
chrom
forty
coup
##itic
1800
tram
explains
##OM
Newton
victim
Quarter
##enburg
monthly
atmosphere
Prest
##ificate
tournaments
difficulties
Gang
Globe
hidden
Kun
##sor
Eg
organic
Nathan
Friends
confess
visits
Shakespeare
distinction
enthus
MTV
coat
Somers
distinctive
Intelligence
sket
physician
Fro
##ected
proof
##ishops
stead
carrier
Sony
Talk
citing
##etary
Beth
birthday
recalled
Mathemat
##US
burned
##ospel
Syn
gran
cruc
##athon
Exchange
Wells
prove
Butler
Treas
MC
Link
attempting
statistics
punk
Pedro
Leonard
Tradition
dollars
##erver
removal
##ospitals
assists
Petersburg
regul
##onomous
##ensional
recipient
##irk
pian
Crime
Wag
Filip
affair
partial
depicted
symptoms
##rupted
usage
##outheastern
##WA
gate
Railways
structural
##cut
##tical
Site
promin
functional
Vent
Range
comprises
incumbent
pairs
##fire
Leader
curric
speaker
Chronicle
Sic
simultaneously
Cork
Right
resumed
Berg
worn
overt
Bag
Lost
Wellington
##ilia
Any
inhab
departments
interchange
error
##imir
##aco
Toy
disbanded
economics
##opl
worst
Hamburg
favorite
slaves
Archive
supplied
##bing
Lux
Krist
Moroc
Abraham
Shanghai
challenges
##levard
accompany
Formula
135
##sp
Ny
##inus
Sheff
jump
##irts
grades
updated
##oking
Flow
tourist
predecessor
fro
Altern
coaches
undergraduate
crosses
revised
Deep
comprehensive
##oj
##body
Fig
patent
options
##leyball
Must
hybrid
coinc
##upt
bath
Ghana
gh
q
bonus
waiting
diseases
Independence
Yam
Anim
Ches
aboard
CH
##itro
Ted
soph
Transportation
Sut
pulled
Princeton
encompass
restaurants
##giate
Swan
Hab
Carn
Lions
##uckland
phrase
u
kidn
outdoor
breeding
Nashville
legislature
assum
technologies
Guild
1859
spell
##iper
indicating
##anim
##asia
Daw
##umni
Slovak
writings
127
149
Bened
##ogical
switched
##acre
fifty
worker
117
Ober
essentially
fib
Source
backed
exactly
tox
##venth
Voiv
roster
Gam
spots
informed
1857
Ferr
Fish
Soci
telling
Cu
Haz
AL
Nan
Magic
##istration
namely
Pon
blind
speakers
##chers
Warsaw
historians
ratings
unless
Raymond
Argentine
##gom
Wallace
##kov
##flow
Mig
Kö
hyp
steep
corruption
dramatic
meat
tum
emphasis
Put
##caster
##hn
##isen
Anal
Bulgar
Lor
documented
##via
looks
Performan
Southeast
ol
##anni
Bloom
Auckland
Liga
Wu
##phal
intercept
128
exhibit
##ahl
register
rab
cutting
recovery
##izer
descendants
sugar
Forum
##oustic
plain
murdered
Lamb
##esters
difficulty
Horse
closure
Giants
Citiz
clim
choir
revol
bankrupt
129
hole
exhibitions
amend
explain
renowned
Bav
Marx
tested
escaped
BM
altitude
ministry
Á
Anti
Happ
consolid
HD
targets
Ec
##comm
Look
breast
citizen
authored
kilometers
ib
##atra
##entieth
attendance
##mill
widow
CF
##iko
coached
approaches
##stituted
Price
permitted
##rague
supplement
virtual
installation
quad
Beaut
feeling
deter
objective
recur
talks
orche
##cca
studios
improvements
Roche
endors
parking
gap
##ampton
placing
Bond
coins
loop
veteran
sleep
solutions
posts
Dest
Bach
sitting
voy
Eddie
parks
demands
tours
happy
##asht
##atus
##eras
##ournals
mit
##wings
bats
sized
Leo
Clarke
oxygen
##rison
numbered
Shep
deemed
##noon
Syl
Bear
##atta
Ess
##vet
Palestine
##bie
elevated
Sheffield
##aced
experiments
##alam
##velt
Mü
compr
therapy
Sean
scatter
slave
alternate
decom
evil
Croatian
clar
Commerce
volunteers
##kar
je
Jacques
delayed
sure
Delta
Carr
##apped
siege
##yers
Kur
belt
variant
emotional
ske
butter
enroll
seeds
gardens
Productions
semif
##odeship
brigade
orn
Midd
dissolved
peer
collective
##minster
##oker
##yler
valuable
##cott
##fortun
Editor
cathedral
##haw
buses
pushed
tourism
enforcement
##awn
Joint
Aj
hind
Ax
ma
impossible
rela
interesting
lakes
reception
##ds
##bus
affiliate
##EM
mask
consistent
##RI
bull
binding
plastic
historically
Eld
annex
##thlete
Higher
consumer
Ruth
desert
Rut
Prop
Northwest
passion
##aba
lie
enemies
##isch
Stage
Palmer
boss
##iability
friendship
thanks
##oming
Renaissance
ID
##cker
hyd
Croatia
##redit
##wright
Maced
stops
arrives
familiar
##auer
rac
Saudi
Bennett
travels
connects
##lined
seemed
Lebanon
Jen
rhythm
institute
##arson
comparison
Bent
ecc
faces
##ocket
##bul
programmes
##incorporated
Eff
Marqu
Stein
cavalry
Telegraph
laboratory
NP
Dol
##acional
stroke
Meet
Films
compositions
explicit
##former
##aho
illustrated
##iev
controls
##oric
Coach
##rection
locomotive
##ective
##oka
Cruz
Voivodeship
Isab
bench
Diamond
Lem
Amazon
##nal
Suz
clan
amounts
Tommy
##rets
Hat
sav
##ovich
Roose
##ouses
São
aims
flex
##aukee
Bulg
grav
oblig
predict
##do
119
feud
drag
gift
uncertain
Pearl
extinct
Reed
pioneer
administered
##pine
Moz
##angle
1854
judg
Krish
explan
##rary
113
golden
##gence
Revival
tel
traveling
abolished
##include
Anglican
touchdowns
##rency
doct
stake
Junction
Secondary
##okes
##byter
ruler
verse
onlyinclude
cave
prox
Mang
Harvey
horn
rice
analy
Syrian
concur
referring
Statistical
123
Perth
gathered
bin
logo
Ronald
Gabriel
archaeological
##ashes
Eagle
genes
peoples
organisations
Cox
prosecut
scientist
corps
landmark
1856
scen
##orders
Gothic
permit
GT
surname
hardware
Friedrich
Wald
Celtic
Ing
collapse
drinking
diplomatic
temporarily
Bruns
##agonist
examination
flash
resol
communist
Stef
Rele
Reading
##IM
ages
##tingham
##rift
##rous
Montana
Otto
Exped
improvement
Golf
Sask
##person
Hitler
nearest
Artist
cylinder
Methodist
recruited
tru
grave
##arus
McN
lane
tube
basin
##lection
##oro
ber
aggregate
ESPN
Scar
prev
##sburg
brew
##apters
earthquake
Essex
consumption
Beginning
jail
pupils
Oscar
theories
interaction
##iast
failing
taxes
Agriculture
##OT
Poet
milk
Room
headquarter
Stakes
Bod
bone
Eagles
qualification
Reyn
thereby
chemistry
Interstate
accum
##imo
flank
procedure
universal
Notes
redes
Grammy
universe
##ete
##stract
academy
##dal
Danny
predominantly
Craw
##cz
jew
Laura
Foster
##él
af
payment
pap
Sak
##rock
stere
##izz
answ
founders
retiring
Dame
orange
fraud
##uin
##waukee
##yd
Kash
Wals
Watch
magic
firing
##RL
suspect
Giov
##achi
Yellow
Cameron
shield
Private
##rimination
##erse
forth
putting
regulation
Month
XX
Imm
##uman
##zyme
##inery
Franco
convinced
Advan
variation
efficiency
Slav
printing
cogn
retain
Ara
Mumb
memb
##pector
contracts
accommodate
##quer
unex
bearing
##pled
orb
Cant
prepare
Byzantine
##ibli
symp
##orp
147
Lex
##yright
Boulevard
Spencer
Venezuela
challenged
Lot
abund
orbit
freight
Musical
##isan
autobi
Original
bridges
Owen
brings
liv
Kate
Columbus
attacking
Nevertheless
Less
footage
arrive
martial
##acles
##enson
thirteen
Roosevelt
faster
Harper
extends
Election
##ña
##herent
prestigious
##tty
signals
reservoir
suspension
Pep
Thai
sharp
actively
celebration
counsel
concepts
disaster
tape
118
pitched
discontinued
##roe
Alger
sovere
Somerset
virus
##original
disturb
fantasy
fame
Voice
memor
Milwaukee
Shir
craft
literally
Isaac
equation
theatrical
Kol
Kerala
beaten
##idance
align
thesis
Stockholm
unincorporated
##where
##ulus
Jak
Sex
1858
Workers
holiday
elabor
GP
##umer
Jur
nest
accurate
##furt
enact
Airlines
radar
obvious
disorder
Jamaica
airline
Tab
manip
fabric
reward
##vae
##oses
aviation
##bird
Kid
XV
102
arena
artificial
barrel
collaps
readers
##IR
##anne
##uros
asking
##inking
leagues
underwent
Performance
##airo
sweet
situations
145
##Station
Fourth
progressive
##eda
WA
maintaining
fastest
Elementary
Gate
900
extending
sick
flour
##redited
triple
comments
##gus
pin
Brunswick
athletic
1851
nickname
Todd
##mn
##itus
fourteen
imprisoned
##ubs
##last
Lac
cad
Gand
Wool
runners
##issa
Using
Advanced
calendar
sustained
##duces
metre
Relations
##core
psychology
lad
##aping
manual
neighboring
##err
Suff
Maurice
adventure
Ful
Exhib
venues
AB
drove
Wednes
Š
##boro
ordinary
Path
shorter
##yll
gaining
##arta
##unny
##ifier
##liminary
fighters
relating
computers
TH
Chi
Raf
gymn
Cabinet
Chan
Provincial
##zon
prince
##éd
114
137
##overy
confused
canon
flower
colleagues
ye
Boe
tomb
Artists
##hm
Cov
skill
Oakland
employee
##itol
behaviour
vulner
sciences
Sang
boards
Scientific
remembered
discovers
lifetime
MV
Scout
##lights
Liberty
contribute
Nine
exit
pist
Geoff
client
Liv
##ás
Lak
Isle
NASA
##quiry
##gomery
##liga
1855
makeup
Rolling
preserve
##SC
Kom
Kill
Reich
Indies
Pract
beam
Presbyter
Indonesian
Revolutionary
diet
graphics
induc
Rhodes
independently
##itudes
reverse
Baby
##mother
wish
bars
philos
Lett
Pent
PlayStation
ranges
##OP
Peng
broadcasts
Rams
empty
poison
realized
Rif
afford
Bulgarian
Kin
Saskat
Tasman
missile
shipping
Edmund
Cardinal
mainland
Montgomery
crops
consec
Davies
grid
focusing
dimensional
Indianapolis
−
photographer
morph
##uli
perceived
fo
Buc
dogs
Dale
##rapped
Sudan
##ambers
sixteen
convert
##umberland
Wildlife
##urbs
148
photos
revival
handle
Flying
Manila
resource
silent
Cec
reflected
##ische
toler
1852
Bulgaria
flav
succession
segments
professionals
##isp
tasks
Starting
Left
##asse
##inee
telephone
achievement
Rus
abb
##fecture
350
Issue
Lakes
soc
Travel
124
tissue
artwork
mixture
afternoon
##cos
legit
backing
clients
patri
Sussex
ing
dialogue
lib
understood
generations
Pand
animation
exha
engage
flee
Thurs
ambassador
Mumbai
116
listen
Nottingham
Ahmad
prevented
clay
Sebast
magnetic
willing
coc
cuts
dict
dancing
##ansk
rede
##fol
displays
stored
Architecture
##list
Movie
breaks
Pod
Tou
bare
queen
##elia
lights
manages
gast
##unning
hung
prisoner
##eto
##communic
Writing
victories
indeed
Mix
Manager
intense
prefer
handling
HMS
Canter
##ittees
feelings
governing
##osing
anthrop
Azerbaijan
Dim
Pick
Eight
sending
announcement
metropolitan
##strong
Prague
warning
Artillery
##inyl
Laboratory
Aw
argues
cultures
editorial
engagement
Palestinian
investigate
##pid
Prison
##wart
126
Kra
##illes
Lisa
enabled
experts
eventual
oct
Bosnia
Volunte
midfielder
Fly
##iology
bombing
Made
Kenneth
samples
##racks
##iffs
Lucas
Trent
134
gif
##letin
Philosophy
Intro
diversity
138
Foot
clot
apprec
##aca
##Hz
##umi
Tir
compat
orient
politicians
Aub
##ussels
hospitals
Amy
##pecies
observation
IA
lying
##enhagen
Valent
Nak
##iracy
##ulous
Nancy
##elin
Flag
fallen
commentary
package
abilities
scr
reop
Triple
moderate
Panama
creates
##icular
Table
coffee
Outstanding
##acco
fluid
Wonder
dialect
Representative
##thal
cow
Armed
Sweet
signature
Vern
admir
dealing
circulation
Ghost
relie
##naissance
addressed
shed
boot
culmin
diesel
interface
XI
statements
##music
Ellis
criteria
Cut
##atha
##ieties
##ndum
##isons
alien
fairly
stationed
casualties
##UC
##gebra
##oting
fewer
##ucker
presentation
##star
##acteria
Mobile
Resources
##IF
Mario
literacy
Expedition
adjust
codice
Ahmed
Index
molecular
threw
##ometown
enzyme
deliber
##iche
##cat
Kor
Latino
Circle
surprise
radiation
AG
shots
fisher
pilots
##iffer
Drama
dubbed
trouble
horizont
manufacturers
##eor
Ki
139
offs
Quest
Westminster
Liu
Twenty
##EE
Lok
Pain
chest
##dess
sheet
Iraqi
Against
Johannes
variations
matrix
Baronet
anticip
allegedly
Apoll
##aceae
##ateral
bears
1853
immigration
##opol
advocate
Raid
##aire
Rice
Sent
divorce
meter
Holmes
Franz
journals
severely
commitment
Rank
width
releasing
##abe
que
unanim
requiring
seriously
##child
##erness
Colin
optim
permanently
Hi
rivals
cartoon
assessment
Parks
cinem
reforms
##osophical
##rawn
##alymp
##omorph
##ployment
upcoming
##ema
Gardens
integration
teeth
NG
##rys
##eling
##estershire
##omed
Duc
Hod
span
meth
##iens
Vid
Besides
developments
##urated
conductor
Pete
##atin
##senal
Dy
centres
advertis
presents
celebrate
##lair
forcing
Facebook
encourage
##zig
Pink
exile
Louise
##uis
Scotia
ash
refugees
plates
transit
democracy
Canterbury
##ourg
rifle
portions
Armstrong
Legion
motorcy
arrangements
Canton
spokes
lawsuit
destination
Devon
noise
Durham
Justin
syndrome
congregation
##brook
Apart
##aughter
##cont
poster
shifted
tackles
chapters
RT
Observ
##hall
133
136
Java
circular
volunteer
##bin
Cyr
Fra
colonies
1847
Bark
Aaron
Ambassador
1849
varied
##acked
Motors
diocese
##lend
Brooks
nominations
##phab
Pom
locality
Yugoslavia
nineteenth
##mina
Kas
##quest
##tic
##enesis
##holders
surrender
##var
Roth
Laz
##irect
Bros
Harm
Viol
##iago
Belf
##isha
Gur
Mik
##ended
impressive
cotton
merely
Sons
lighting
maintains
##onso
vow
##namese
Folk
aest
Heath
##atorial
requirement
exterior
Glou
headquartered
Nu
Popular
##empl
defender
Vietnamese
pitcher
##mary
##ussion
Congo
memoir
Emb
##apur
##icia
honored
prototype
uncom
athlete
Jag
Without
Fat
Ster
Natal
##sted
symmet
146
##atoes
Ages
ampl
mall
Transit
##adier
Palm
abbre
empire
specialist
Hopkins
##alling
blues
drain
streams
separation
psychological
Bil
Ply
Store
ghost
Cornwall
conjunction
counterpart
intermediate
fran
topped
confidence
Buenos
Powell
144
Vari
Manit
Heights
listing
volt
comics
acoustic
lux
Emma
waves
minimal
Copenhagen
##angered
suspected
unve
enhance
Sold
pole
elite
Julian
grants
Aires
promised
audiences
inscription
renewed
##regular
pianist
##Ar
haz
Politics
Ach
centered
Proper
privile
rebellion
Crow
Take
Amend
Miguel
singers
##fa
ordained
overlook
nationally
LGB
owns
trio
suddenly
lift
pound
reserves
considering
fortress
divorced
similarly
Presbyterian
intervention
Duncan
Porter
##ichi
enlisted
demanded
girlfriend
Estate
push
borrow
hometown
##DC
##habilit
autumn
invented
personally
##orge
varies
chronic
kitchen
##iffe
##ensen
Cust
Tree
customer
tom
Mechan
Andrews
guidance
Buddh
quiet
societies
Why
Oz
beliefs
Paralymp
councill
specimens
potentially
Nas
loyal
Desert
panels
transformed
##ombe
curriculum
heading
##hin
Hir
essay
François
##RT
##ju
##bek
Account
Rush
##ctuary
##itious
denomin
##ław
Institut
automatically
##found
Mull
Veter
hem
liver
encountered
##ija
polar
Ferdin
survival
consultant
Chin
analog
altered
##si
##är
##athi
Spect
doubt
anchor
auction
##mons
obsc
privately
attraction
deals
relay
allies
143
electro
Saw
##ucks
##omes
##inguished
interact
allegations
rever
abandon
infection
Richardson
##erg
Allan
Serie
duration
expanding
cla
##adows
##eo
indoor
Hus
##ocene
##onomy
##andy
Apost
Knights
Newport
Benedict
larvae
suspic
Cort
Hull
LGBT
wait
##anthrop
##gov
Lords
Kingston
relatives
##ingen
##iatric
Present
Parliamentary
mentions
##axy
##ocent
Tiger
Mam
Associated
##iden
kills
Colonial
messages
disappeared
vector
NAT
##apest
Metal
Marcus
Georgian
identification
ministers
survivors
danger
tributary
##ér
Mine
Campus
restrictions
##IDS
SM
buff
shelter
pink
Cinema
comprising
Cord
fung
oral
digit
implic
Simpson
##NS
##arr
##ashire
floors
##afe
##rific
##intendo
favourite
ion
opens
reveal
discrimination
Faith
lectures
Engineers
investors
##igate
Plate
Competition
neighbouring
Cuban
stick
##ustrated
provisions
##avia
ERA
Categ
Machine
republic
repeatedly
Dj
Previous
hydrogen
Episcopal
authorized
conducting
##ieu
bapt
##uba
##cano
followers
##shore
improving
##tes
Eugene
##III
storyline
raid
##inated
Appro
nationwide
##otion
hier
decrease
drawings
Commercial
##isi
ic
algorithm
tut
Brussels
##otto
compact
transported
BS
Herm
Gerald
burial
##etti
pregnant
##aders
accomplished
masc
stolen
torpedo
concentrated
kings
ports
operators
Lancashire
hopes
praise
explore
##ocity
sulf
closest
hect
Solomon
##borg
Julia
##iman
bicy
premier
Aur
sensitive
##eded
Worth
suppress
findings
##eric
cens
111
merc
Species
##fortunately
Woods
noting
announc
associations
pill
toll
topic
Theory
wore
##munition
Advisory
Core
quarters
Lyon
##iblings
Inside
doctorate
Nintendo
fru
##ipped
recognize
##BO
banking
exchang
engineers
Jin
##ovan
##aturally
Safety
receiver
Dund
##atories
NSW
Chad
Fun
##overed
Lodge
Rhode
trend
entity
emerging
crick
joins
Gibson
carved
scandal
Ports
IF
Bryan
Celeb
LS
##ilian
##ophone
Distinguished
Jung
seized
Led
Physics
batting
##icken
##ben
Ng
Gren
Wednesday
irregular
Edge
Cardiff
1820
hook
##ipher
revolutionary
urg
Hass
Hoff
##roscop
##osl
Planning
bassist
Shop
##quet
volunt
Chelsea
##ourag
##uxili
##istani
Glass
IM
lineup
targeted
phenomenon
Um
chore
transp
developer
conferences
##DI
##abi
Double
inhabited
##BL
##rah
360
Zimb
cock
Zhang
Nacional
siblings
##iu
Cypr
dece
soap
mineral
assembled
jet
artif
overw
confront
##alties
Rovers
deeply
particles
procedures
styl
Idaho
##jection
stretch
varying
##nut
##force
Gael
Paulo
secular
verte
Comedy
pursued
Interview
##omo
Grande
dors
hunt
Bea
item
Corp
Blake
##essa
ridge
suggesting
scope
graphic
##ska
tab
Pine
beneath
Giovanni
PP
##icity
Miles
watching
referendum
unt
Malta
Aven
Level
smart
correl
destro
priests
democratic
Subsequently
Chase
Tunis
##inda
Own
1846
travelling
generate
SN
deriv
Bailey
inches
##oque
craf
mansion
withdrawn
##oshi
Shin
knee
##icz
Continental
ov
##gends
firms
rocket
##OW
Change
Connor
Leslie
alumin
##vironments
Pos
lessons
Chancellor
##avian
paying
publish
##post
FBI
libraries
IBM
cit
Rout
Actor
Thursday
integral
gla
feels
##avier
stones
varieties
homosexual
farms
sin
##ellers
##vy
##iao
##izations
Evangel
Formation
Henderson
##ahan
Complex
prosper
prospect
##odia
##HF
##mid
##lies
Orland
##acular
estates
colonel
##gra
Peak
anime
easier
Fighter
Napoleon
rational
Emily
Hindi
vital
hosting
Tampa
Rachel
Uganda
##GS
##gary
Sou
##eding
airfield
Ana
sheep
1845
enable
rebounds
metab
happen
##bery
voiced
acquire
##usa
beet
define
legendary
##pert
Sle
##ndez
deposits
Agre
Fraser
Rodrig
Plymouth
Doug
Spec
hoped
##amy
rebels
##atics
temples
lecturer
harvest
revenge
performers
dism
##entry
abbrev
occasional
striking
bout
bulk
Kumar
Surrey
towers
Albanian
supporter
twentieth
workshops
Examp
##uer
##fast
Por
##lacier
Fernando
1837
airing
configuration
muscle
dynamic
stronger
pounds
Kre
treas
Hurricane
##aku
restore
pronounced
RS
upgraded
Robertson
registration
##ilo
Anat
Trin
apprent
journalists
##lia
Ek
Kurt
staged
à
##iscal
Males
Birth
##bet
##yon
Brien
learns
Caroline
upset
Arabia
devast
##imination
streak
Chuck
Contest
##anti
Dum
sword
creator
onwards
residing
Bran
jack
Bever
clergy
thorough
sky
Paper
shallow
Cert
amph
eating
##ailing
theology
reads
ruins
solely
judicial
une
pace
##itely
Dipl
##rition
##backs
Reid
farmer
Bradford
Saxon
sailing
Academic
Classical
immun
Preston
impressed
bio
authent
Publications
##abwe
##ilion
maid
##VA
Wend
##uchy
##ulsion
##umph
Clif
Hero
Relig
##writing
Access
UA
Parad
##ento
##mented
wreck
Lay
True
cott
##enc
##vik
perpet
Publishers
Dart
moist
Cardinals
##hal
UP
Kem
rainfall
##phis
Cohen
Curtis
Calgary
hull
mutual
Notable
1812
Spider
talking
governed
sequences
##illon
Champ
Testament
furniture
##bian
chlor
Search
proceeded
##ivo
##hand
##otten
ferry
evident
Highland
Sox
Come
Basin
dying
Rib
cosm
voyage
burning
colours
Meg
wheels
Aboriginal
Tues
Principal
##harm
##asp
##isle
Poin
bold
shoulder
achievements
Learning
stability
missionary
Sof
Dw
##uras
fate
sacred
colored
##unda
Banks
acclaimed
proportion
##ohn
##ridor
doctors
Dow
1844
Geneva
warfare
bore
Universe
forb
##manuel
loved
Santiago
Ferdinand
##intendent
Aircraft
Frankfurt
mysterious
PM
Lucy
axis
Lutheran
surfaces
Directors
WC
epit
Results
monarch
Oslo
Screen
compounds
Kw
Ecu
Legend
Interior
Ign
femin
Actress
SE
##phabet
rounded
preservation
##monton
conflicts
##chel
##vor
activists
criticised
##ardi
Wesley
##ws
##ituary
Bradley
practiced
reactions
##omi
##ovsky
##chewan
Shield
discipline
reconstruction
Mé
112
knows
Dominican
TC
Ellen
lease
Zimbabwe
Dob
Being
Adrian
flooding
ho
VIII
unre
##ulture
##olith
terrain
occurring
##hurst
quar
cricketer
Mold
##ictions
confusion
Legislature
Sene
Bears
developers
Mercury
##aji
##urse
Vil
troubl
acclaim
intensity
Pakistani
innovative
neighbourhood
1841
Trip
weaken
punishment
RC
Fergus
bypass
advisor
ensemble
welfare
##ishi
imposed
surrend
acknowledged
Sit
##inite
HIV
insects
ammunition
##occ
journalism
distinguish
##eper
Eve
AIDS
oxid
boarding
civilians
preliminary
##gae
environments
Ö
calcul
Scholars
NE
Tyler
layers
Salvador
tourists
relegation
transformation
Arsenal
Warwick
##edo
##ints
##ischer
McDonald
rotation
Emmy
##ported
Burns
Break
teammate
consequence
Forbes
renovated
constantly
Saskatchewan
##insky
Burton
sits
Heaven
Milton
recruit
##umps
Cyprus
array
dozen
helicopter
Alpha
hitting
migration
##oku
Half
biology
watched
Category
SF
##inas
##chard
##itory
dock
Haven
legacy
vegetation
##rier
Carroll
RP
Riv
rally
Moreover
Vladimir
##boys
aster
schem
Windsor
##iott
##rano
##ropod
1839
trips
ware
kilometres
##nai
ow
tea
##kinson
Located
Twitter
monitoring
MW
Lig
Orlando
cleared
citizenship
##anyon
boost
Population
Cit
Gö
Urugu
fatal
Amendment
corporation
GM
##onial
Hess
Planet
involve
Manitoba
gathering
precip
collecting
observations
manor
Institution
Cave
arbit
Finals
properly
curve
Beyond
Charter
algebra
portraits
egg
##kan
##nty
thrown
mad
mild
virtually
Crist
equally
exploration
##rators
wickets
Software
Brid
Wake
Luxemb
Writers
1500
Berk
##arrior
##CAR
Dia
##prises
fees
##ighthouse
consensus
##olics
Shore
Reynolds
ta
rook
##makers
Dynasty
vicinity
specified
lip
Gamb
##arians
moments
Blu
Cos
Hed
##thouse
Rabbi
absent
conceived
Progressive
×
attitude
Presidential
##canic
Romanized
Cauc
Fifth
##idelines
goalkeeper
reass
Belfast
##istent
Rosen
quart
Sla
Jennifer
##beat
Stri
Guang
entries
SO
##ifax
Grow
prey
Constantin
Money
Bedford
theorem
Glenn
territorial
##stand
Cavalry
sporting
##ouns
testim
Gol
Muk
##erves
copyright
Carne
volleyball
##lass
##oyle
Bend
Param
Bundes
aerial
wildlife
Barnes
theoretical
Legal
beer
##iblical
Claude
naming
depends
archives
##alan
Vij
chorus
1836
Crus
catalog
Middles
handled
competitors
Nuc
absorbed
activated
interviewed
compensation
Ecuador
##ologically
##cock
Ced
##usters
Additional
promotional
Total
threats
interactions
##elong
Lynn
Headqu
feeding
CM
##chron
Ming
Profile
continental
comprom
##aris
Raz
Karn
dancer
absolute
interpreted
##ytic
fla
Burke
sacrif
##comes
cabin
crop
fossil
confirm
##hart
Integ
measuring
Loren
manufacture
Richards
mathematical
##oya
unem
codes
commanding
##tz
lobby
##ometime
MB
variants
renovation
badly
Martha
##alin
encourag
Fellowship
##laus
sor
##imer
lung
paras
Self
Strat
Das
##irates
##uxiliary
Lithuania
assignment
##immer
dw
Shadow
confron
refuses
Working
complic
##umm
Plaza
clothes
capabilities
1843
Lah
Chal
tract
Sisters
lasting
optical
imprisonment
1838
desired
Leop
Basil
struggled
Liz
explosion
Linda
Mater
##ctorate
##EF
##bank
tale
Capitol
magnitude
tribal
Feder
crowned
undertaken
CT
adoption
bacteria
##aru
sax
kids
Stafford
Exhibition
ibn
habitats
Ig
inclusion
##aze
##ipeg
##erals
##missions
Memphis
Morocco
Filipino
##upe
Vale
grain
boxing
editors
Rochester
Claud
Johns
Critics
Edmonton
##math
Gan
Knox
southeastern
##role
##plant
Brighton
mi
Opt
##atever
slavery
unclear
spectrum
Cly
hurricane
IL
slopes
##icit
Lenn
MG
quit
remn
Albany
Crystal
probability
##grim
edges
Tennis
##ordinary
Letters
##lez
pub
Task
trig
Czechosl
architects
##dorf
mature
Similarly
##addy
creek
unions
repairs
Morrison
receptor
##ados
nose
conce
tables
Train
zones
Agricultural
AFL
Springfield
##unal
Others
Halifax
##ndon
##inter
limestone
statistical
instructions
##asan
crack
Kad
##ocate
Male
Chess
Letter
conversation
##inos
Guj
consideration
hide
ballot
posthum
Winnipeg
##oan
Bord
prayer
reluct
performs
##itative
northeastern
##esar
##aneous
Devil
regardless
Lip
Brent
Dud
molecules
Czechoslovak
##cot
Cornell
prompted
naturally
kinds
membrane
Ost
##estrian
NATO
consent
outcome
flagship
scattered
unexpected
##awi
Lic
unw
Cycl
BCE
##algam
##uy
##ritic
1842
IG
Canyon
pig
##enzie
Edgar
anten
weigh
Founded
Chemical
##achers
Bot
oak
convoy
Pione
drives
riders
Kurd
lifestyle
##ém
minim
poorly
sponsor
Ens
hol
Bras
Tall
seal
finale
abstract
##inae
stabil
Fiction
Lut
Meh
##annon
cant
uncon
strand
Blair
armies
layout
depicting
nicknamed
manga
Guards
decreased
##atem
Balk
##ections
##pit
raw
Troy
Clement
##gue
Thames
distant
unn
botan
##ellar
##ennium
vinyl
complain
##ups
MLB
cancel
agrees
interim
Enterprise
Pomer
Recon
suburbs
Criminal
remarkable
##eg
revived
Fi
##berger
premises
##arium
##stock
Build
Hunting
averaged
##UN
##cend
Hack
Karen
dispers
screenplay
##uj
Naples
brands
Sacram
overwhel
##appa
ITV
lun
Dayton
runway
dressed
Crawford
Ard
Kang
taste
thriller
##ikes
André
Picture
Antarctic
Neg
dinner
Warriors
Southwest
Eb
##astics
##ocaust
brill
Contin
symbols
consequences
considerably
##pla
Pros
Ges
Angels
introduce
##eu
##iar
Agreement
##ilda
##amine
Johnston
preparing
##him
dish
1832
Rocky
din
holes
voltage
proposals
##gun
##ipur
traff
presum
Nobel
stepped
separately
wake
investigated
##apa
##ochem
Kazakh
Wagner
velocity
navy
##alions
united
##aft
Gat
hub
Bulletin
Lancaster
Lomb
rivalry
Utt
Salem
proven
SH
Speaker
##idi
##eness
Pale
advised
accordance
##quin
##reens
Autom
rejoin
enterprise
##linary
draws
##ettes
Names
horizontal
presidency
##uta
Teh
heter
##ountain
explanation
##oding
Govern
Theodore
Strong
quantum
emigrated
Ath
Clear
##oko
1835
argue
Harbour
Literary
~
telev
estimates
recreational
##pace
orth
##stanbul
rendered
suburban
Lithuanian
Sul
##ogram
Marian
exempt
Ethiopia
##boat
##chez
##encia
Malc
Ri
Eye
populated
fed
##stadt
Excell
nan
pled
Arctic
Notre
bankruptcy
##vas
Khal
Evening
NO
medic
Aberde
eighteen
##TE
Mob
Marion
finger
##uchi
Mom
##imity
Armenia
doctrine
##rium
saving
thermal
vault
faction
adequ
militia
portfol
##DR
##ør
Tat
truly
underlying
sustainable
Prussian
garrison
dimensions
impression
Lif
##penter
neighb
Him
phon
pref
Sabha
Thunder
Moss
Patric
predicted
hypothesis
southwestern
bread
##ylum
tun
swing
guided
Database
gameplay
grandmother
inaugurated
Fay
Hip
cryst
Albania
certainly
autonomous
Pé
Innov
Congreg
sculptor
Body
Document
attribut
Sed
tent
thread
exhibits
elimination
Betty
penet
preval
Belarus
##ango
Hels
expelled
composers
MacD
cameras
##beck
Wick
kiss
Gmina
marking
abortion
aggressive
##rone
moon
trim
Jeremy
Doll
Clare
##imental
physically
Tuesday
##adal
##onal
Spart
intend
Belgrade
##cs
##ön
GA
aside
rapper
endangered
clerk
breath
tension
Ein
skull
Combat
peninsula
##site
Kann
Ulster
mechanisms
Mis
opposing
Batman
syl
fertil
SL
Atlas
lesser
##irie
##heric
##osystem
Anders
voices
strategies
Kiss
epid
laps
crucial
Catholics
instructor
##orum
rape
tong
violin
Hil
##andro
disagre
planted
Newsp
Newman
necessarily
##fo
Bj
Ya
##rill
obst
motif
rises
trophy
Zamb
outs
Darwin
capita
disappoin
##ño
»
CIA
Resp
NJ
Rhine
Malcolm
promise
gray
Boeing
rehabilit
replic
discussions
bowl
scales
Wyoming
##stable
Hayes
intens
TA
Roh
##urities
committees
##guard
assassination
Meyer
dimin
orientation
Hugo
Niel
supervision
amp
Kyle
Sheriff
##isers
jointly
##rud
Ey
Fur
verb
synthes
blocked
legally
Published
Fo
kin
lover
guards
Associate
##assis
Elliott
performer
Portsmouth
##ég
Zen
facade
rings
marble
mud
auto
reader
Housing
considers
SW
conve
mystery
Americas
scar
dense
Vision
depicts
substance
Cel
lig
##asium
Scots
discl
##onation
Julius
presenter
entrepreneur
tradem
proclaimed
##zhou
cream
##ductive
proximity
terrorist
Indo
Jesse
Ludwig
unveiled
##arin
allocated
manuscripts
gamb
Gustav
servant
removing
##icester
hamlet
reconc
estimate
##oux
Factory
Joel
collapsed
Poetry
Jake
Typ
Dere
Carlo
diagnosed
Individual
tob
moll
Lav
strikes
genera
rolling
manifest
Fast
tackle
currency
favorable
Liberation
##ylan
220
arose
sculptures
##inned
Qing
enrollment
##airy
Pars
embarked
Gir
##umble
Ley
Rey
##utical
Pau
Cool
Cros
Manor
disabled
reserved
##thood
parad
philanthrop
##HC
Lap
cha
##35
accus
Butter
##itated
Alexandria
demonstrate
protagonist
directions
diff
vulnerable
Wit
bonds
logic
stair
customs
##enary
Montene
discipl
directing
engra
##70
##oop
carriage
##adh
companion
researcher
ES
healthy
Slovenia
socialist
Psychology
Virt
slot
Cloud
contend
audition
evaluation
##icus
Hale
##criptions
Monument
commerce
eds
Allmusic
Republicans
##90
##RE
Pere
administrator
Marin
Rever
bills
##forming
##pp
##etics
deterior
maternal
##ación
Monroe
Dorothy
##ographers
workshop
condemned
##antle
Lynch
Griffith
##RO
Apollo
enhanced
##cin
ramp
propri
surpass
##cence
Nass
pine
Baltic
Weather
Seminary
householder
Headquarters
fract
orchest
##oves
##ymph
Dir
Poll
labels
Carnegie
subspecies
commercially
##eri
Vit
Edwin
fires
seeks
##uters
honours
referee
##ifiers
Guatem
consistently
##iday
Loy
##oline
Strateg
##hol
##ingo
Ans
##cience
Scand
Various
athletics
contracted
marri
Charleston
tet
##effic
aspx
##ahu
basement
##dia
##hou
Cul
Lil
Annie
prosec
##etheless
Wis
##Music
##aines
1815
trump
##restrial
default
Coalition
Depression
gam
suffer
Electronic
gates
server
specimen
bones
Sap
##ienne
Laws
unoff
intellig
Dew
##lesiast
Andrea
mosque
Maritime
disk
Bohem
##ogg
AI
Ide
epic
knocked
Heinrich
Luxembourg
##ogo
##ught
Leh
Rhe
Minne
longtime
recurring
Kids
Ernst
##aternity
Product
Recording
Gem
gly
##ulates
depot
reiss
##ultural
Creative
Than
salary
proceedings
indirect
##osure
Hag
##woman
Sugar
fier
Arist
Drum
counts
spotted
harbour
rushing
artifacts
##iformes
consort
guarant
imported
TS
cere
perc
holder
María
Marcel
##chin
Gospel
pastor
Marines
##azi
##rank
Diana
novelist
innovation
philosopher
northwestern
RBI
WWE
Terror
bishops
##ESCO
##alis
vig
synthesis
certificate
##ishn
monks
Greene
gentle
antib
incidents
accidentally
governmental
Ble
Mathematics
Easter
##structed
Prussia
politically
Brom
cater
examined
Holocaust
calculated
questioned
Achie
lengths
accompanying
##rh
Exc
Fan
Hey
misc
Concert
custody
DA
garn
genres
##onne
Hood
radi
millions
##zan
Jamie
rebel
Course
inland
facilitate
##power
Elections
Examples
alphabet
Arms
Shen
bounded
##aceutical
Cho
proceeds
Brah
Oblast
editing
cub
Homer
Animal
Communication
§
Progress
Programme
consumers
semifinals
##pection
Word
tune
AFC
cum
assert
utility
maj
##uting
Leicester
Mick
speaks
Wik
Superior
rescued
reflects
Heat
divide
killer
Kot
Tru
##atham
Moor
offense
##hend
analyst
##uum
Maxim
Counties
agreements
##olar
penn
storey
humor
unrel
Norton
##atial
cluster
priority
##hey
Gaelic
Baldwin
##arms
##inds
##holder
Neigh
romance
prohibited
investigations
CBC
##izard
##DE
humid
intact
presenting
##igi
##sole
Koh
Maid
Epis
Nadu
circles
aftermath
1834
Marl
Visc
WS
Complete
Belle
notion
##rob
Sag
Berm
Surv
Dawn
neur
Victory
##eps
##umen
##ewise
##iking
##ormal
Falk
USSR
##aternal
filter
trailer
Prefecture
RNA
dealt
vacant
respected
Wolver
comedian
preceding
cyt
Romans
substr
leather
accuracy
cig
spite
hotels
tornado
preventing
successive
##ondo
Dag
Kend
induced
Cancer
conquest
rectangular
##edded
Decl
Raja
Walsh
##hematic
Streets
Churchill
arguments
##alli
Hors
Leip
Logan
challenging
Seg
Choice
explored
withdrawal
complicated
Hort
Make
elaborate
Estab
Hut
Grammar
Nigerian
Religion
geographical
Dong
##illance
Greatest
Handbook
feminist
##kees
##path
##rica
##likely
##ppe
für
Bene
##otypes
infer
variab
invitation
sponsorship
##avor
Viv
##amped
Amateur
##atsu
Herze
subscript
mph
Initi
valued
batteries
continuously
fare
Gross
Ballet
tobacco
memories
prominence
##anca
##este
##forest
poets
obtaining
1814
Sham
careers
##ár
Moses
walks
knight
##ographed
lateral
##empor
Vick
##optera
barrier
Directory
Sebastian
deployment
Chemistry
canton
veterans
pier
Eurovision
Border
settings
essays
subdiv
disorders
Laf
Rup
Emil
donations
lens
mate
Berry
Medic
Single
dispos
Julie
Democracy
achieving
LC
##eeper
Rosa
illeg
sectors
Industries
450
haul
##luence
admission
é
##cons
121
Coff
Bergen
nights
marketed
unsuccessfully
Hast
reviewer
##iw
##layer
Kenny
purple
initiatives
##esa
dé
loaded
particle
Fantasy
surrendered
##alla
pav
freed
parade
organize
provider
##https
##estock
apolog
##iane
Bren
##hell
##itary
lots
##omical
Buddhism
Marri
locals
scorer
Stories
branded
Und
Piet
realizes
Insurance
Reference
##bern
##held
##idan
##amation
planes
##erie
Bio
##irical
Nuclear
exhaust
Num
suppl
Thomson
ceiling
Istanbul
climbing
volcanic
##days
GC
Sind
errors
##UP
##tto
##span
dust
Herzegov
redevelop
##abling
Built
Process
formats
##istle
Gott
plural
fortune
##elfth
spur
mirror
doctoral
acre
enorm
introducing
fights
spelled
foundations
##herd
liner
motorcycle
consciousness
##qual
CNN
McA
decree
Speedway
controlling
##45
##course
UNESCO
ancestry
submit
surgeon
chess
Female
##atro
Unfortunately
disputed
Louisville
Steam
Hundred
##tor
##ilogy
marsh
diplomat
advancing
comprised
autobiography
##page
Vin
1833
delegation
NH
##elage
crypt
museums
750
Fut
Stern
##blem
tickets
reunited
Minneapolis
##avi
ATP
Cock
Fest
speeds
unlikely
CL
Fear
Name
brut
Newfound
interven
invested
SD
##arte
Eis
##tenham
Klein
managers
##pez
Bagh
screening
##TI
##oche
barn
Syrac
Claire
Analysis
develops
wingspan
Hert
MO
##zens
resolved
amid
Hardy
drunk
advocated
##38
##andra
##ficial
Malaysian
fragments
##kers
##mail
brilliant
240
trails
murders
navigation
##chaft
vacc
Gates
Griffin
Deutsche
##bone
Alc
Sara
Vatic
Kosovo
##cestershire
icon
Clara
fault
organisms
##cole
Bun
Seoul
Biology
attractive
Discovery
balls
modest
harsh
payments
1831
demonstration
##log
Laur
happens
mammals
parishes
##itively
Beatles
Joshua
ris
##casts
irrig
amalgam
Pab
UFC
sid
Lect
adds
Dylan
Summit
counted
Aberdeen
##how
##hausen
##rising
loose
##iolet
Copa
arguing
Brock
bombs
allied
dollar
##auf
Font
##ometer
freestyle
Swim
saint
responses
contestants
##oots
nominee
ceremonies
##arel
Large
disappear
Educational
Cairo
Graduate
commissioner
PL
##agne
##iker
automobile
practition
Newfoundland
##long
Adolf
##onna
tens
##ounters
##hra
overcome
protecting
harass
reliable
##EG
Krishna
crashed
regiments
##itars
altar
laser
rookie
immigrant
##asis
##through
pursuit
herb
sizes
brack
ballet
luxury
##uto
Flash
Corpor
undergo
accounting
congressional
##world
smoke
blacks
accredited
##plane
raids
##piece
repr
wonder
conspiracy
Hook
Zion
degrad
casting
resides
Trinidad
reopened
##arthy
tap
##roleum
ingred
outlets
Drew
critically
Constitutional
##books
platinum
esp
Bronze
Merced
overlap
continent
SV
Drake
GS
##orms
cra
facts
Stefan
Syracuse
healthcare
##NT
stint
reinforce
##iae
122
Fri
elderly
extract
quarterf
iT
flowing
Manufact
Oriental
inception
Pam
Appeals
detection
Herzegovina
##gg
##word
Happy
leased
«
Bott
Sansk
knowing
##ilee
throwing
factories
##jord
Hern
humanity
ore
##ashtra
##pel
Bast
Sard
deceased
Introduction
##IG
OF
##neum
Smart
Astron
nationalist
##ourse
Pharm
Making
##akk
ey
##arsity
##48
trace
##urea
rider
Concord
Kashmir
derives
noticed
highlighted
##46
EM
1825
sunk
Given
##wen
##zel
traces
trucks
Sherman
categor
semin
Things
chassis
Au
Lars
Samp
Linux
witnesses
objectives
illustrations
##rep
##aram
Adult
Ferguson
##card
##oces
##aceous
##itorium
Vermont
narrowly
delegates
′
##arag
Auto
Potter
tactics
##onde
Tales
pollution
Agu
Webb
Georges
institutional
##iox
LL
Lon
##alore
Pitt
UCLA
Dubai
scout
Tourism
Hydro
solve
railways
correspondence
1810
gods
pipe
Match
massacre
##lesiastical
concurrent
##lis
cc
arist
Variety
reinforced
##amba
##avel
##horn
fet
Host
Burma
chaired
##cro
##anor
LLC
Yet
##rible
##inders
cooking
geometry
availability
sad
Maxwell
graduates
certification
Rao
##hears
finite
ell
Kane
cement
contrad
Religious
partnered
##ller
Diet
monuments
##iba
Sta
##isive
resur
alumni
Sanskrit
##ritz
Reb
##phant
insisted
consecrated
rod
Marco
##lectric
Greens
Scandin
dimension
Southampton
Tell
Divis
Kaw
##onica
termed
Rip
Ling
Yard
believing
mandatory
Fuller
##front
Duff
themed
wishes
marginal
Sacramento
##ilateral
Climate
merchants
puzz
vine
##houses
Recre
Santos
variables
##anche
##arity
Mile
Solar
lined
redesign
recommendations
##hero
Suk
ethn
Kerry
Silva
Terminal
endorsed
mechanics
Ferry
incor
Colony
acceptance
organizing
##nton
antiqu
Chapman
Webster
destroying
Denis
Leipzig
##ascar
Fresh
shirt
##ymes
fus
Boyd
heroes
Jeffrey
##ès
##erner
Belt
##acritic
inherit
Fighting
maker
NASCAR
strange
Emergency
promising
accommodation
##tti
loos
viewing
##missioned
contents
IX
Tank
Tah
##fight
Fiji
Teen
cord
##season
openly
pregnancy
IR
##grade
keeps
refurb
Myster
Philharm
capability
##rews
##getown
undertook
witnessed
##asma
Bibli
fiber
##ding
mills
Ms
lady
puts
Sandy
Produc
goddess
Downtown
spelling
Previously
Cay
lanes
exercises
complexity
##ht
loans
upload
Hul
whit
rubber
Winston
entities
cognitive
interactive
Did
Nurs
Observatory
Constantinople
Cav
Fant
newer
seating
WN
Rox
blast
Crisis
##imi
##midt
sod
##agogue
honey
Motion
enlarged
subtropical
##uen
BR
Flet
Hyder
boxes
Treasury
KC
Fed
WH
##heng
busy
glob
##church
##rified
Vander
fundra
enclosed
measurement
Ist
Rag
dup
fruits
Budapest
charted
hectares
collector
Quin
Morton
smallest
celebrity
Cosm
Rule
flown
garage
licence
##garten
##heimer
##cats
##isure
##cliffe
Applic
Generation
##elly
buying
iTunes
perception
Wi
Lal
##onomic
destroyer
modes
Freeman
colspan
defunct
projected
declaration
##36
##eur
##uga
sitcom
Janeiro
##arded
1828
Morm
porn
rulers
Marshal
Cumberland
##amas
Nicol
Gymn
Suffolk
ultimate
salv
assume
umb
##osity
dining
Success
Physical
machinery
##walk
tough
Sacred
convey
Website
judgment
pel
dancers
preceded
sends
watershed
Gul
Yar
wicket
Ras
Casey
##pie
Dock
dorm
wart
Willie
Partners
philosophical
##uku
screened
dil
sab
Humph
nursing
beds
fiscal
granite
searching
pump
civic
Chennai
coloured
equations
Bombay
profits
##dan
tuber
Gibral
Mongol
fusion
amendment
Job
Dixon
Neill
Truth
Vatican
##say
##gedy
##quez
Crom
Timothy
linking
trainer
##rella
Derek
reprin
enacted
carriers
coordinates
neighborhoods
##the
Shi
##onaut
##oning
Mund
indie
crater
Inspector
Dry
##alous
Felix
teles
Ps
boom
##erical
revolt
##WS
boyfriend
percussion
Grim
Meeting
surprising
##berra
portfolio
professionally
##gins
##vern
Stop
crews
Visual
abbreviated
##nez
Vaugh
starter
VC
##atas
##enza
##lach
210
Elis
Garc
Ident
Cities
Transl
MIT
grammar
flowering
##atri
Shan
Print
staying
Providence
Acad
defines
##eh
##gic
Buk
cruise
emotion
Iz
##enton
sued
equity
feather
mythology
HM
##mitt
##geons
Sikh
Wilm
retrie
lawyers
testimony
quot
liked
nurse
Browns
transmitter
Koch
Need
##ordination
filmmaker
##laws
##rish
Nin
demo
Sometimes
il
Edu
plaque
wished
interrupted
Cotton
lacked
Overall
Ci
HS
##inki
Wei
mobil
##ourable
Yah
##verage
Consult
gravity
##eno
Wings
embassy
Vernon
Waters
Midland
combine
Observer
contacts
crafts
descended
##azar
rankings
##rina
lord
Nikol
wheat
chains
slope
hiding
Michelle
Title
Period
dorsal
Yankees
providers
Estonia
Citizens
complaints
##oping
##techn
Geoffrey
Lé
Pt
lifted
dropping
websites
HP
dys
Strait
strictly
whatever
angry
backup
theaters
ecosystem
##ambo
##arf
Dre
##istence
bigger
trafficking
##lys
Gav
Lob
Sep
##pending
Canberra
battalions
nerv
nitro
Gardner
##39
CDP
Enc
SEC
##opy
ups
artic
Madras
strings
##vie
tar
chim
Stephan
trapped
extraordinary
##shaw
blank
diving
chromos
##rs
Tasmania
interference
##ei
##lord
##vine
##rians
##urally
frames
Hawaiian
detected
230
1829
Cheng
verses
##wyn
McI
##asive
##rosse
Janet
##ku
##lamm
recount
gest
Rotten
##onda
##idian
Uttar
##building
Slovakia
diagnosis
publishers
##family
Ashley
Gibraltar
Leadership
##rust
hostile
Patricia
Geological
##olithic
avoided
Churches
freshman
lac
Tanz
##oining
Plain
update
##ís
beta
Carey
sided
Commod
summon
propaganda
Ved
Have
Singer
Coleman
lecture
equality
tubes
Reagan
walked
coupled
threatening
reconnaissance
##leigh
Xbox
Hutch
Hang
cort
desper
opinions
Norwich
1824
Text
Merit
toxic
butt
subordin
##ieri
dign
Hampton
computing
Uz
Jessica
costume
Adventures
Initiative
gig
Chiefs
Impact
maritime
regulatory
##gang
1821
likes
Lines
patch
##atz
Bruno
bacter
teamed
Chilean
Pirates
heating
amaz
reef
amino
terrorism
correspondent
##ariat
cycling
Wid
makers
invention
apartments
Northwestern
Nixon
Yemen
incorrect
Heavyweight
##anan
##ushes
carb
##uni
USC
shells
sanction
lyric
metabol
combining
##Os
##ptic
Sinc
convince
missionaries
##ogh
##lore
Madh
Maya
ordin
conserv
Honorary
designers
Adri
unity
Guadal
Heroes
Fletcher
protocol
lighter
sometime
regulated
conviction
decorative
Pall
metall
explicitly
Congressional
##warf
spawn
Uruguay
diamond
wrestler
Ecc
Boat
remake
bicycle
invaded
##amination
seemingly
Jenkins
volcano
##uana
acids
robot
Garcia
##loo
reper
bowling
Excellence
adm
Cell
Guitar
Engineer
classroom
Use
Castro
garnered
secretly
##iad
##chant
touc
Raiders
Augustus
##yg
##atum
Sched
Schne
Sicily
eliminate
contributor
electronics
Sue
##erick
##ledon
worse
revealing
measurements
Jal
Stad
Madag
Evolution
##ea
dean
urged
##diocese
Tucker
possessed
##ández
pupil
shrub
overth
Worcester
investments
##ych
##ipel
##ampire
governance
deer
disputes
##isy
##uca
##beit
Quinn
Indigenous
struggling
pretty
Wer
spo
Telugu
##lections
##47
##pic
Loch
##rities
Quart
sixty
teaches
differential
##ride
Zero
evol
Plains
##fts
caf
Athen
lith
loud
postp
Calvin
peaking
requests
parameters
##cio
##dad
##wait
##actic
##plete
Holly
floating
aesthetic
##NC
Fork
routine
expenses
phases
##court
Mt
pa
dens
simul
##cession
##agi
Mā
##print
Sutton
catalogue
Metacritic
##arre
Lund
mentor
advances
anywhere
##LS
##eted
PDF
Siber
Papers
Wander
bullet
##ifferent
Brandon
addresses
publishes
missiles
Sib
##group
Outside
enthusi
oversee
drainage
violation
accomplish
##KA
##mans
Nig
##isting
shortened
Bess
inquiry
consulting
BP
Boris
juven
Batter
orphan
descendant
##arts
##ovic
eag
##arents
infant
prizes
Tibetan
differs
ISO
##ataka
encounters
##37
##pi
##bys
DO
##quis
1826
Arag
Very
##neys
Fen
Titan
Ultimate
##emann
Glad
holy
schemes
##osion
Cherry
Roland
Sharon
##aic
dent
vest
Bavaria
Francesco
##ermo
Rules
foods
Tropical
Northeast
anthology
disciplines
celebrations
##gage
Deal
anat
decay
disgu
advisory
playwright
##wal
TD
##oine
Bin
##inisc
Fields
loaned
spacecraft
##bol
##izon
Dies
Lambert
generating
progressed
##oco
Paragu
improv
ignored
appealed
sediment
listening
Erik
##elihood
banner
RCA
##ostic
translator
substantially
Ti
woods
fitness
informal
seasonal
mes
Teams
Ladies
alignment
ancestors
carefully
##lar
##arriers
Bengali
skilled
sandstone
##amph
Cash
Myan
sear
broader
Kok
tongue
Mohammad
##clip
Cran
Bulld
Conrad
##voy
Ji
keen
shipped
fails
expertise
constituted
##isse
Bom
##zburg
Hits
Vall
mast
wool
curved
segreg
shrine
Reports
##onn
##atty
Dion
Yuan
Sales
Tin
##illas
cass
Flora
inver
warned
lacking
prosecution
Hank
polymer
132
Wan
##lings
Carm
Comic
Premi
emissions
Rig
##ogene
##jections
Nicolas
conquered
constituencies
##GP
Esp
Lisbon
Whitney
Landmark
guidelines
Bug
Tul
Sidney
bordered
decoration
##rí
cloth
stems
trustees
Georgetown
##communications
##cule
##oved
enormous
recreation
131
Chev
Cott
Botan
Randy
brass
Proceed
Achievement
##uran
bike
Chrys
opted
tender
voluntary
terminated
##FS
finest
Marathon
determination
CI
Dup
##addle
Muse
Pearson
melod
overh
engaging
Maharashtra
##RNA
##bles
Jet
##antes
Pride
Davidson
capturing
Behind
Rafael
trademark
similarities
Santo
aided
gains
thirds
precise
##istically
confident
Medieval
##ramid
struggles
translations
##base
##ignty
bund
crest
Myanmar
Electoral
mathematic
dissolution
##anian
Sally
cease
##ailable
knockout
prolific
presumably
Ace
3000
pension
resemble
instances
##agger
##iatus
sank
stuff
##umping
Algeria
Philippe
complement
##jud
##imar
Rebe
Shim
Wins
mock
##ascular
Exeter
masters
contestant
Settle
extant
Hermann
finalist
utilized
Katherine
NR
Plus
showc
Carson
Helena
charitable
α
##eros
Dul
Negro
infected
##uke
MPs
Mald
Lebanese
McCarthy
excluded
Tyr
##ogenic
risks
Jackie
Adventure
Christine
Rica
Milit
drown
##lif
##ubble
bomber
ER
Gov
Venet
##inde
bush
##reshold
servants
talented
##oft
CV
ster
Joyce
highways
reversed
livestock
##ifa
Read
ease
Duchy
pottery
Sporting
Hew
1813
batted
Volunteer
compatible
##anto
rode
Baden
Roberto
Lun
totally
tracking
unofficial
##mud
ul
carn
##ardment
Almost
collegiate
Underground
##ughter
della
##olan
##rimin
Madagascar
Gandhi
analys
##ogl
Chip
Stoke
expense
##ithe
##ophon
##reated
sophistic
Gut
Pok
sphere
##iza
Ole
Til
##pring
Omaha
Towns
reson
rocky
crim
##Family
loves
mistake
broadcaster
Kolk
Leopold
Mercedes
sacrifice
geographic
Mys
Cecil
wards
evangel
Guatemala
comparable
Spl
1790
Gian
dome
applies
GB
##chem
##isor
##ucci
paved
loyalty
forewings
seventeen
Fry
nave
##estead
sketch
teenager
systematic
##etz
Bram
Barber
Tunnel
Mats
smugg
Monica
dreams
shadow
marched
iP
mood
educator
##rea
chip
theor
Rebecca
bombers
colleague
countryside
Lub
Too
maneu
Honours
subscrib
WB
Gle
Zar
##agers
Mare
Matthews
Superman
##but
RO
alk
1827
Wimb
Rifle
comeb
Bolton
landown
upgrade
##ité
attained
persuaded
las
##icist
insuff
Phillip
legitimate
DM
##ften
Grass
Hannah
Companies
supposedly
DP
##aston
binary
resided
##akov
##inia
excessive
##ods
##ersh
Arr
qualities
Kul
Tac
##ioned
ally
Tanzania
penalties
valve
García
insurg
supern
guitars
##ayer
Soc
mouse
conform
thoughts
##baum
Ibn
Bard
recy
repl
folded
Fashion
Regular
nobility
discharge
##anium
##children
coordinator
##into
Hammer
specially
##apor
##annah
Britann
placement
competitor
##sten
Germ
##brahim
beside
councils
retaining
##aza
FS
navig
kicked
sou
cultiv
##iliation
Chambers
butterfly
demanding
141
##comed
cuis
relax
surprised
##bot
Phase
divine
tonnes
Helsinki
peaceful
transmitted
asc
##never
pond
Calcut
applying
notorious
McF
Rid
Oliv
Twin
##ivities
Applied
Bolivia
console
##shop
##uddin
Wade
Hastings
abolition
incorporate
##dor
Hawk
Monter
quantity
Strategic
overwhelming
burst
dragon
armor
Sister
crystal
streaming
##abul
##antom
nerve
hoping
Jacksonville
##atu
1809
Below
financing
effectiveness
keys
Zoo
##rique
Basic
trigg
locked
surveys
Officers
Collegiate
plantation
preference
##ça
ric
1819
radius
revision
stopping
##run
Wong
Shoot
Nielsen
enabling
##anas
##ylon
Fram
Wire
portal
Calcutta
homeless
highlights
identifying
##aeus
trunk
Recent
instant
abundant
Toul
snake
publicity
##enic
##olin
Tud
1816
silk
surveillance
modifications
##TP
DE
Bac
Ves
Vald
Manual
strain
##unciation
employer
##irs
Jas
Jub
Ket
Wür
1822
Drug
Sach
gifts
ambitious
##49
Riley
fellowship
affiliation
Exp
warn
Euc
THE
##unted
Cowboys
launching
reasonable
Deg
Dres
Huss
Elder
Appeal
immune
dialects
embedded
##apo
##asth
##itas
springs
Routledge
explaining
approaching
AllMusic
distances
squadrons
##eni
##ologne
swept
Rather
Empress
settling
communicate
##enne
Flem
erupt
traced
precurs
limitations
Hour
forum
Dragons
reflecting
##awk
##anya
##foot
Miz
Hin
##omore
stom
##ronics
linguistic
corporations
baron
dwell
interf
repeat
Convers
Embassy
##bat
Els
aug
tiny
##erville
Senators
uprising
Hyderabad
gastropod
##anz
##oise
Jab
##advant
##imeter
restruct
submarines
μ
##las
AV
Dee
acute
Indoor
miners
beaches
damages
summary
Anniversary
terrestrial
Percy
Rough
singular
Alexandra
landscapes
nervous
Hartford
Dunn
Mell
Rally
Shire
dip
##cover
sworn
partition
commemorate
##gia
##rape
FCC
##ertation
Baroque
reformed
Caesar
cruiser
loading
sanctuary
attributes
##urai
welcomed
Cunning
Kod
##ringe
Reserv
Stalin
collision
sentences
incorporates
##igm
Kick
##ashing
Toledo
Million
1818
Tian
##raphic
enz
Dors
Advance
wartime
advocacy
detective
strongest
##66
##cal
##emia
Nothing
Ree
Rum
Wyn
1801
skating
##iformesFamily
##nance
##opters
imper
Kazakhstan
Alternative
commercials
##⁄2
##pex
Qatar
Caucas
dozens
wireless
##eroy
##oken
freshwater
Mud
mixing
stamps
hanging
Patriots
announce
comeback
finishes
woodland
expectations
inex
Leone
erect
betray
Philharmonic
##iani
Fol
yearly
constitute
##nde
Aus
orch
sect
tunn
fever
##ulin
Nut
Lands
Leigh
Macedonia
resembles
technological
Pag
Erie
Shiva
Boh
MVP
1806
Portra
Android
commanders
celebrities
Beau
Rook
tends
bitter
submer
spreading
##UR
Rex
Gunn
spar
##iously
Hawks
prints
Glacier
Monthly
##WR
##omal
Mant
Pred
boxer
Confederation
investigating
##leen
Alm
Scr
Resort
Savage
Peterson
Hak
aus
nas
Away
palm
##making
jewel
Credit
implies
inflamm
Panthers
nevertheless
Clem
Shank
adequate
feedback
bol
1803
paths
aggress
classrooms
seas
vibr
Paramount
portrayal
##lide
proud
domains
posthumously
##âte
MI
Buddha
Powers
tasked
conting
complaint
##jiang
Coch
Beautiful
protesters
##heads
rely
Penguin
Ware
Impro
Hanover
lod
##ermark
Barton
coined
organs
oversaw
Mohammed
modeling
##LE
DR
##heed
vit
Canon
cannon
Estonian
tactical
##cue
##inqu
joy
tooth
Cologne
Episode
supervised
exceptional
gy
freely
striker
Ló
Namib
halls
choosing
Karnataka
##wy
##rio
Gos
##wara
##inees
owing
Jup
Voy
Jets
beings
tendency
Recreation
##elic
Hyde
##racted
Jorge
entert
Resolution
fu
##nian
##pling
pursuing
survives
Buckingham
##illet
Shak
narrator
##nas
##amen
Acts
Britt
realize
Patriarch
realistic
suggestion
##pec
##sha
wit
Luck
amphib
shapes
statues
Stro
Rudolf
rushed
warrant
Cameroon
creatures
intensive
##affe
1817
meteor
##itational
synchron
Nem
##ounce
Inner
Europa
melody
generic
Cret
integrity
cultivation
##ün
gre
dispat
Reverend
Carpenter
##lake
fut
pic
Pond
Venus
Auburn
occupy
##ublished
Barrett
delegate
##ueb
##andi
Fow
Taj
Veh
##recht
wage
Giuse
Hence
anthem
steady
Middlesex
Kub
Pool
Wein
shaft
##urgical
Gloucester
prevention
##elo
inning
adventures
##anco
Cham
Stutt
raced
designing
Theological
##elles
##inate
Zur
Pole
##erving
##ustain
courage
inspection
Clyde
1795
slip
##itivity
Compos
quantities
functioning
##cery
Nou
##inski
Lives
summar
Kolkata
cultivated
Honda
##ilingual
pioneering
##raul
MHz
Sixth
Tracy
abbey
Newark
handful
Investig
Paradise
##arez
1823
pneum
##enstein
##daughter
Companion
switching
@
##IAA
##ono
Cable
Style
Torres
enables
Christie
receptors
##riot
##ytes
##bourg
Mikh
##ourier
Bound
Sharp
Thanks
Trevor
thinks
abd
unm
Rican
princess
complained
##arl
##amous
Roma
Honey
loses
metals
Viscount
defining
Europeans
##iag
##lli
Agnes
beats
Angela
Dudley
methyl
Personal
peripher
incomplete
rush
Albion
spectators
##obic
##uity
Lima
Papua
retros
interred
jaw
##ennes
##izers
##umped
Mons
##ranger
Civic
##hampton
remarked
Winchester
demolition
encouraging
##adic
1793
Basel
troop
Antwer
##uh
scholarly
Historically
Kens
Thur
sher
Willis
Arlington
##pol
##ocolate
Murder
Cambodia
Sinclair
AU
##vals
Era
##orian
lean
Mirror
Priest
Winners
Wo
loosely
Malayalam
Bash
chef
##market
pocket
Lindsay
##lov
Wen
Pierce
parody
lengthy
teenage
remnants
Illustrated
Č
Wet
Slam
bust
powder
suited
annexed
##ensed
Pablo
Sophie
screens
attractions
consolidated
##lesh
Mou
Floyd
Sofia
spare
##raction
interrog
revenues
precipitation
##keys
##landers
##assic
beetle
Valencia
unanimous
exceptions
Nab
embra
División
disadvant
##rar
MT
mont
Xavier
favored
offshore
screenwriter
##ilib
Ned
##ingers
replied
Strike
Wimbledon
##GC
##toire
fant
corridor
Cod
violations
PBS
paired
securing
villagers
Å
Lü
Occup
rehears
downstream
Ó
HC
##aden
cav
Juda
ende
dealer
Catalog
mistaken
contacted
Bit
Mih
Schmidt
Veterans
Yuk
Duck
Roads
Hearts
valleys
##ril
regards
sovereignty
Zagre
##news
Wave
López
Prairie
torture
succeeding
peas
soils
##osaurus
module
triumph
momentum
sponsors
##aird
Kai
##ctica
hurt
Siege
##ikk
Nun
##utely
Boss
Huff
frog
Birds
affecting
Performing
VA
Aviv
Haiti
galleries
Neo
##letter
Investment
##ibald
1798
Cald
Pioneer
accepts
Patterson
Architects
ED
Sé
Wine
dances
harbor
insert
filling
subscription
##KO
Yes
##odied
##orrow
barely
accepting
commentator
##unta
Rise
rack
##acking
porch
outcomes
evolutionary
##ked
##alus
##inks
Reviews
humanitarian
##onge
##week
ICC
vend
lunch
Better
sacked
unders
diox
Bates
hiatus
twelfth
unemployment
##oner
##ipelago
teammates
Afterwards
positioned
##afia
guy
Weber
motors
auxiliary
breakthrough
oval
Swift
undef
Dawson
blamed
fossils
campuses
threshold
intelligent
Vijay
Falcon
Broncos
migrated
teachings
Consequently
##pei
##iston
Hollow
Sheikh
Monster
imagery
Giuseppe
dynamics
reminisc
Iber
Tomatoes
pastoral
anticipated
OC
rh
##fold
Cedar
descriptions
##cken
knife
snail
combines
contempor
determining
##ález
Toyota
financed
##tel
spy
Advert
atomic
hazard
Manning
contrary
##jee
cf
ts
Lepid
isolation
1811
tear
##fields
Rising
uncons
instruct
additions
Ala
Antiqu
purely
Colleges
Colombian
Mole
elong
nit
Myth
readily
wo
##fried
Eden
##ometric
Zagreb
compuls
jumping
dedication
frequencies
personalities
##86
Kob
stab
Scouts
conson
cyclone
Archaeological
##lop
##stones
Turks
Jacobs
sailors
displaced
posterior
Mab
Kamp
Booth
Traditional
Universities
##kel
Nest
Trav
fake
Shirley
televised
lighthouse
recommendation
##ede
##owitz
Irving
encoded
insufficient
1808
Zach
Feature
senator
consumed
uniforms
ON
dot
##ospace
##ellation
mandate
Practice
anterior
##anus
Giant
expend
donation
rehabilitation
##stage
feast
button
collaborative
HT
##onte
Amar
Mits
albeit
##ographies
Property
Standards
152
##yards
deeper
gaming
##rika
Benson
Smithson
frontier
SK
##ostal
realm
Schwar
curves
bits
euro
peaks
Battery
fulfill
Declaration
##phe
##izable
Harri
Parade
genome
amended
##ynom
Lope
Known
matching
Paralympics
##33
PD
Ud
##amar
Turb
Want
Patrol
Stuttgart
##omers
Peer
coeffic
monster
fraction
symbolic
Conservatory
complications
Czechoslovakia
smoking
incorporating
##isely
bark
Andreas
##orted
Cornel
seeded
optional
encompasses
##rug
##enheim
Frost
alpha
cooling
Critical
inventor
Brain
doubled
employs
González
comfortable
##kok
Byr
Often
foster
whereby
Midlands
Inst
admit
Tonight
formations
Dro
Luk
Dundee
examin
magist
Madonna
Cunningham
RF
##uine
monk
Beauty
feared
nucleus
inscriptions
Vikings
##amer
horm
nonpro
shoots
reprinted
Lik
Tap
##umann
Mini
metro
Assess
supers
triangle
Proceedings
Lj
##pper
Bolog
flies
Marina
Strange
Alg
Dial
chase
ellip
choices
participant
##anteed
Dolph
Hammond
pleasure
transcription
##hof
Assy
Bermuda
Polytechn
##nis
Zhu
Dust
Lorenzo
resistant
consequently
##jin
##oso
1807
##raints
lacks
besides
unified
Coventry
Haj
##ocide
##ainted
Ibrahim
Holdings
ancestor
surgical
primitive
irrigation
##afa
Dix
bail
Alleg
brows
toile
Hansen
wounds
Journey
Innovation
transaction
##55
Beverly
Normandy
excluding
##fax
Leaf
drops
atop
Archer
ethics
incons
anonymous
Eyes
##irling
Libya
Thorn
terra
ballad
speculation
pac
##ewide
asset
Laurent
lesbian
textile
asserted
emotions
breakdown
religions
Montenegro
ba
##irus
Moy
sings
Jerome
stance
tallest
employers
Vul
Nordic
liberation
Brady
ideology
uncommon
hab
Krak
riot
Noble
Select
Citizen
##eneration
ecological
##bred
##dict
Eva
##itting
Solid
alarm
magnet
vacuum
Kee
Tet
Kind
shar
masses
evacuated
Technologies
stamp
Bryant
Latvia
framed
Economy
Constitu
##chy
##atti
##insk
Tut
Bhut
Tate
disqual
quarterfinals
##cor
##hao
Pf
mere
##ylogen
Dover
Jenny
##onshire
Corner
rebrand
anarch
Munster
pseudonym
Associates
discussing
##BE
##mut
Hos
Gore
Reds
jung
lion
Piano
Salis
inval
Jesuit
##pectives
villain
Francisc
Brigadier
submerged
demonstrating
grab
cuisine
asteroid
##abulary
Resist
observe
##icultural
Cheshire
overtime
circa
steal
incarn
magical
Gentle
Holt
Yosh
Shane
anger
##ropolis
Genesis
deliberately
witch
Indeed
imaging
clusters
paternal
##neath
Pratt
inact
intra
fuselage
proportional
##evo
##perm
##thon
Hok
Kiev
Sale
Brett
Weiss
cheese
Seventh
Sergeant
eleventh
PT
##ynes
Via
##atisf
Sidd
barg
##rapeut
clause
Sty
##shine
##ulent
Chak
Nazis
darker
explosive
Dodgers
sleeping
motivated
Augusta
KS
neo
unrest
Antwerp
fragment
nitrogen
##yu
225
Roch
depr
##iances
Saxony
maiden
Seth
Vand
Vermo
viral
Eleanor
confluence
UT
##pler
Duk
##ethyl
##ounded
Shell
inequ
##tures
Cinem
commod
pathway
trilogy
sovereign
##lew
Jah
##arton
1805
aunt
gluc
Inver
Raven
spirits
Trustees
Ré
##ugged
File
Neal
Pied
trends
adviser
Bez
##chair
##eated
Pray
repertoire
specializing
##gren
##send
Quad
Doyle
occupies
regained
##aurus
Rost
Gujarat
Nicarag
atmospheric
concentrations
mol
ensuing
ceremonial
sop
fres
##iguous
approxim
executives
displacement
##park
Clayton
pilgrim
Teachers
columnist
theological
Chop
Close
Galaxy
timing
batsman
reduces
operative
chancellor
decommissioned
##cod
NT
Rebell
Tracks
Sanders
NZ
##arya
Cot
Rust
Shawn
underway
advantages
##200
Von
node
scrap
##ulative
Saturn
Alberto
labeled
##ND
##acio
##eches
Clan
Pend
mice
Barker
cinemat
spatial
decisive
exploring
disability
emphasized
dramatically
abn
escal
tales
postal
sophomore
•
Yok
Tort
rope
##grass
##intage
##atis
##opoly
Evan
Pasc
Seym
bays
thrust
sophisticated
205
pour
Libert
dictionary
##wi
Image
dairy
##NG
##ène
270
280
1804
bias
metric
polynom
creature
Antarctica
financially
Poz
Lily
##ijuana
Partn
basal
fears
Amanda
Viking
expired
spanning
##otta
Tuc
Till
Māori
##athetic
prefix
Duchess
##otti
Dise
slee
autonomy
##FF
##bahn
BMW
##itate
embry
canceled
treatments
ecclesiastical
grap
Instr
##adays
diary
courty
resolve
sexually
ACC
##ingle
Aston
Barack
Calder
confisc
SB
rows
Gould
guerr
##iplinary
guarantee
Tip
##ilers
Moll
facto
tunnels
MacDonald
##ocaly
Capt
Aleks
Import
visitor
cellular
costumes
inherent
##mus
Rw
Casc
wives
Mining
preview
weakened
AK
Ez
##lage
##roup
1600
1789
##isphere
Intern
gravel
graves
diploma
synthetic
coordinate
##fr
duet
capped
Clarence
flexible
derivative
Evangelical
CG
Cry
och
Quint
Thirty
incent
clip
##iciary
memorable
##tex
Yo
##gent
Spy
Ov
Chu
Kerr
motto
##ertiary
matched
##kle
##nders
naked
prose
heated
diagram
Internal
stripped
Valentine
excellence
EA
##awks
##fred
aka
solic
laying
mapping
correctly
##anu
irre
##ipedia
sprint
Ferrari
instructed
AAA
Okin
Spot
myst
Maple
painters
Monastery
demonstrations
Synd
##leased
Frontier
oath
##gerald
Fleming
Parkway
insight
assessed
##HP
##witz
151
260
UTC
##rected
Bulldogs
ensuring
unconscious
Rit
}
Sew
Kell
##rescent
Elisabeth
mortality
activation
1794
Carmen
Constantine
Smithsonian
##aea
##adia
##bons
Cyp
##ophys
Libr
rays
Abbott
tended
molecule
Augustine
McE
5000
laugh
competes
Bé
##imedia
##rically
Quarterly
##pus
ga
detention
Ž
Fuj
Mog
pressed
##combe
##entric
suite
Kaiser
geography
acceptable
##ouf
Belie
Lopez
Siles
tumor
flooded
Swimming
purchasing
Organisation
TR
Bee
Cliff
maxim
traits
Counsel
Fischer
Release
lineage
welcome
lifelong
dissertation
WT
##raid
##ères
##flies
intim
Reservoir
Fitzgerald
IGN
Beaver
devote
retains
Greenwich
algorithms
Ski
Robb
Targ
Downs
Payne
virtue
guaranteed
Administrative
##asaki
grace
Graves
skiing
##clamation
Waterloo
reflection
CW
catches
repaired
automated
Archdiocese
Partnership
##sover
Pseud
Basque
##85
##org
Mk
Cyn
##ographs
Mormon
Nay
Porto
erosion
summers
gambling
promotes
protective
Ai
Elm
Hof
Pes
1792
Cove
tech
sealed
monarchy
relieved
helicopters
tin
aquatic
hierarchy
ii
##thor
mim
Beast
aligned
escapes
##soon
##adequ
##unders
socio
spans
clinic
rifles
##Le
1802
Joey
Trek
revel
debris
Antoine
interval
sufficiently
##ße
NL
##user
Cey
Howe
Ranch
Gloria
Mickey
Regard
conced
Catalan
Mikhail
Bundesliga
wag
hydrox
Parsons
answers
averaging
specialty
cooperative
buck
Adults
rector
tensions
weakness
Lans
eaten
rented
Arabian
advocates
##34
##lich
##rolley
Archaeology
##ungs
1780
email
wholly
statute
unnamed
##EEE
##chet
Ips
##erland
Shannon
##ulla
tang
##chay
142
##orthy
Andr
Salisbury
adjoining
β
Omar
perf
##jected
Galway
Greeks
patents
##NR
BB
##ardy
Aid
jam
##iegel
Dana
adul
Shepherd
psychiat
commissions
ME
Bonn
##inster
Johan
Rouge
freel
merge
picks
wages
Italia
Weston
recall
Russians
upstream
##heart
saves
Alumni
bottle
Sources
Stevenson
perennial
##club
##lessly
Seymour
##ocus
Jaw
Ride
Sunn
##ourage
Entry
Dresden
conclus
FL
hex
Idol
##imeters
Allies
Hassan
robust
pageant
WP
Adj
Kah
Ske
Diane
globe
remod
fortified
listeners
Eup
unh
Mood
pointing
installations
##öm
Flat
Check
Elite
Lauren
corners
faithful
Ethiopian
acquiring
granddaughter
Lill
Wheel
Titans
associates
RE
##rones
Evil
crust
adoles
commands
confined
##ryn
privacy
detained
Williamson
documentation
##herty
Caled
shoes
arcade
Theres
Walton
posting
innocent
Sob
1776
affects
inmates
##ān
EL
Qué
Choir
atoms
Magdal
Rahman
Jupiter
Standing
scrapped
steering
concentrate
##75
##lance
holders
pharmac
professors
vegetables
subdivision
transactions
Conservatives
Sev
Murd
Abram
Turin
matric
Wanderers
##arine
gren
Bally
deity
Suther
premium
OR
##inness
reside
keyboards
subjected
##dish
Mist
Save
frust
lunar
Andhra
##election
inheritance
civilization
##ako
##thy
##gard
##irate
odds
Olive
cameo
Airways
remarks
Carlisle
cleaning
1200
Barr
asym
triangular
para
Josef
Cannon
avoiding
deciding
theatres
Everything
##99
Rita
Fritz
parap
Collier
Avengers
conceptual
Bres
entr
prolong
##clipse
Hague
arche
##ilibrium
Sustain
##reditation
delivering
awa
Shut
##gender
cheap
Refuge
destinations
Sens
Bangkok
composite
nonprofit
residences
syndicated
ET
Alps
Chero
Extra
##iseries
suffix
calcium
relates
Marketing
Preservation
##UT
FK
Trial
ranch
skate
safely
impacts
steadily
##teb
fox
toy
twe
##luded
holidays
1796
Cull
Quant
caves
cycles
plasma
borrowed
sel
specification
Dodge
apost
bless
hatch
rigid
explores
Greenwood
schooling
standings
Fla
math
marker
Baghdad
talents
Ministers
Riverside
Carlton
cottage
rejoined
conventions
Cred
Mugh
mang
Judaism
planets
plateau
destroyers
electorate
##fin
Mao
dug
##utory
Said
Tehran
Allison
Collect
Rainbow
prevalent
organizational
##pm
Manch
Slavic
freeway
chemicals
inflation
{
Niss
Tram
Aless
profound
declining
negotiated
Zam
retro
inadequ
202
Fres
##phones
roller
Wheeler
Emmanuel
minerals
##stop
Fors
Pius
hire
stip
riots
Ranger
accent
plains
chicken
Randolph
promises
Bangalore
underwater
Judith
identifies
##ahi
##oub
##uria
HBO
Hare
Hipp
Jian
Monitor
reconstructed
Find
Brief
Touch
Multip
admits
breach
Coastal
Dominic
Reformed
##mare
Gert
Coming
Forever
hydraul
Released
marriages
Territorial
##NP
##agram
##atile
##lette
incred
bedroom
satisfied
##jana
Crim
emergence
warehouse
##pal
##ibus
Hear
Imag
occupying
successes
##des
Gob
Yas
Rodriguez
selective
councillors
##raz
taxi
Bulls
delays
lumber
prehist
photographic
transferring
OP
1700
blade
overd
##ellites
Evidence
forested
Sutherland
lag
Herr
Factor
operas
excavated
collectively
##inel
##wana
ine
outsk
physicians
harmony
finalists
##DB
##ozo
##oire
Bian
Gaul
Samoa
pistol
sodium
Bahrain
councillor
##rite
320
Dil
Mayo
exempl
Anthrop
Fortune
Holiday
wanting
Gn
mys
##alach
Coul
Purd
Myers
aging
emerge
stained
##ividually
Cherokee
Bucharest
Rebellion
prominently
##emi
##yar
HA
##pora
Hes
Antio
greet
chances
Schu
##minton
Kuwait
Mozart
Charity
motorway
##ondu
##xiety
Diss
Macau
pride
Harlem
Hawkins
Midwest
##rath
Uzbek
arise
mascot
scripts
sketches
Abs
Bhar
##athlon
repet
cardinal
##tre
##note
Bologna
Burlington
compromise
Restoration
##umar
Cic
Pup
ram
IEEE
herald
warriors
Different
##anch
osc
Volks
##byshire
styled
Jakarta
nutrition
altogether
Cover
Glory
unpre
Angelo
reinst
theolog
economist
compression
excavations
##uest
agenda
hammer
Mystery
healing
heavier
161
Cars
pamph
##db
tragedy
obituary
criminals
productive
transcript
ingredients
nic
Cubs
Jain
Arrow
Schwe
alike
midnight
discusses
compliance
Ave
Yak
1797
Burm
Donna
mathematician
Gla
Bahn
Strip
Carbon
Travis
Greenland
wrestlers
controller
strengthened
FF
##ević
Shu
Henn
René
hate
vowel
natives
SI
##appy
##ński
Bax
Kannada
kidnapped
##alom
##eyer
##otechn
Abbas
chord
contamin
Blackburn
overlooking
Ik
Jagu
Mate
Events
rituals
650
Anch
insign
##ventions
##hak
Guru
##irable
podium
grouped
mothers
eighteenth
receptions
##cur
Naw
Rapids
detached
Returning
Cannes
Legacy
kinder
viewer
overhead
Commodore
Supporting
Gale
meal
##prising
refugee
continuity
expressing
Lod
Peg
FIBA
##achute
##ischen
##istries
gospel
seated
sheets
Goodman
traders
licensing
grandchildren
Lug
tips
##ologic
burea
dioces
NI
wed
##scape
Insp
Behav
Guerr
Attack
overturn
Apostolic
1799
Bols
Marse
indef
dwelling
overhaul
##isal
##agonal
Unity
Orient
phones
sensor
Ort
##ramer
Nina
Prec
pent
stuck
Gerard
Alfonso
compass
Lexington
outskirts
##isciplinary
Journalism
Venezuelan
##udh
##guez
##sein
Mün
##actory
blogs
Mongolia
barracks
addressing
discography
##igl
kW
Sho
Browne
dioxide
rotating
injection
bot
Tact
##uating
##urable
Carmel
##fordshire
suspects
inscribed
submission
##ratic
##oulder
dwarf
Flanders
declaring
##44
Amt
Bronx
Elvis
onset
Resident
announcing
practicing
continuation
##opa
##uder
dos
##andan
##ighed
Ceylon
Whilst
geological
introduces
Angola
Dreams
Sculpt
pharmaceutical
MM
MLS
meg
##antan
Ruby
WR
debates
Theology
Edith
Think
reunion
Highlands
statewide
##iak
##hardt
cats
tenor
similarity
celebrating
fortifications
İ
##oren
PGA
##asted
Weap
Pitch
polls
relied
Interest
interfer
Đ
##gel
##vian
Coc
##iaries
Regina
fixture
processor
coordinated
Má
Sv
Pip
Boul
Cron
info
Admiralty
Rein
##owment
Charg
##clusion
Approx
McCart
homeland
whenever
Derbyshire
##bis
Sü
##amby
##heid
##cidae
##grave
##itian
Cats
heaven
outlet
Version
illumin
##avelength
Stephens
reorganized
##zt
##bage
162
Gel
Noel
Schw
Tuls
fron
exports
Recently
entrepreneurs
hob
##lable
Evel
##osphere
##oughton
trigger
inferior
##iaz
##azzo
##arios
Thing
Autumn
forgotten
underneath
215
Shot
Named
static
throws
airports
Opposition
##lynn
##rops
##uala
Furn
Peruv
wagon
Magnus
Rescue
judged
Abdullah
##ío
burg
Words
gable
lords
observer
##jar
Tunisia
genuine
balanced
defendant
undergoing
Kak
Slo
Tran
Points
privat
UM
##ibal
Schl
Blind
semic
Normal
factions
marathon
Icelandic
##gee
##frey
Phi
Plans
captained
targeting
enterprises
preparations
lymph
rides
##writers
shocked
Emirates
Honduras
holdings
inserted
assumption
Gru
Thous
Vista
Camden
Nicole
throat
tissues
Countess
pedestrian
##reach
##izards
Colla
Courts
Flemish
Ipswich
Quality
contractor
##isans
bred
Ricky
niece
spear
Brooke
Dwight
##otherapy
deposit
blocking
Christchurch
##WC
##cie
Beir
asce
Garrett
phenomena
##phoon
Brick
chanc
podcast
sanctioned
Poor
airs
##agraph
Vaughan
superintendent
##iban
1775
Assam
Perman
Twelve
iconic
Resistance
171
Ela
##illion
Elena
jersey
Scholar
markings
concludes
unrelated
Jing
Rodrí
Daniels
Clinical
##iodiversity
subdivided
Nah
plug
accusations
Kant
Agent
nutri
Simmons
##bye
Dear
Foss
Mercy
container
inventory
Geographic
Humanities
modification
sexuality
Barth
accidents
testified
discharged
referenced
technically
##opus
Spin
Conway
logical
Isabella
##UM
1791
fence
voter
Habsburg
notation
##ivot
Pras
Raph
berth
Boxing
Rodríguez
##unker
##ayette
delight
attitudes
undefeated
advertisements
##zone
Hanc
halt
Sophia
dismant
instituted
##eaux
##lled
##antha
Witch
attain
pending
superhero
##owo
rip
plum
Himal
Pasha
prone
daytime
drought
confronted
intentions
##vol
##orio
Huang
spont
Patent
ladies
circuits
defenders
eponymous
thickness
Electrical
##32
fi
Koz
Cors
worlds
Monmouth
Ary
##assed
Hick
Perkins
pushing
restart
Clifford
orchestral
structured
##unga
None
debts
Stones
asylum
fierce
keeper
Hoffman
legends
Paraguay
aluminum
overnight
birthplace
simulation
##tta
##ikon
Paw
Sau
Wah
##storm
Mets
armour
Welfare
ethical
projection
zoo
idol
Pilot
theft
dental
racism
slower
Fernand
appeals
Resource
##bill
Tale
Dorset
##psy
RM
Jans
calm
pools
##agnetic
Acting
infilt
storms
pretend
stomach
Portrait
lineback
triggered
periodical
##bc
psy
slogan
defeats
treating
##illi
##ribe
Mega
rust
Flood
Salon
broadly
curator
modeled
Jennings
HR
##icap
##ogie
cel
##green
Date
Linn
apex
cliff
Counter
Towards
presided
##qui
##lift
##enders
Isles
funny
##culosis
commence
exceeded
limiting
neighbors
##coe
Zhou
recognizes
individually
##tail
Pike
Figure
behaviors
dominance
positively
unreleased
Fris
Gaza
Rash
##osaurs
stalk
precision
representations
isot
##outube
Mayer
ambul
sinking
clearing
comparing
Rim
Afro
desp
canvas
inability
##kind
Beta
Jill
orbital
reactor
investor
negotiate
##oki
##shi
Hoy
XII
##emberg
crystall
##acia
##gone
550
Paint
oscill
redist
Higgins
progression
counterparts
implementing
##uded
Try
Chatt
Hogan
Memory
Schneider
supermark
Biographical
developmental
##etto
##avers
Bury
##boards
frozen
wavelength
##SI
##iov
##with
Chow
León
Relief
billed
supreme
townships
##tee
ét
Vie
Noah
Pueb
Watt
Flint
Jules
demise
Burmese
Reporter
comprise
Luft
McCl
Witt
savings
academics
precursor
##SE
##onson
Eugen
Intel
Monaco
infect
precisely
lightweight
##plus
##upta
206
##orers
olive
Karachi
JP
Pie
mars
##unting
Depot
Hyper
Martine
jealous
Germanic
reminiscent
Draw
rebuild
fundraising
originating
partnerships
Nue
seiz
Wiley
Islander
Polytechnic
##ART
tv
##loqu
Sod
##ranes
Somalia
juvenile
afterward
##än
Za
hell
Inters
Millennium
corresponds
##arie
spac
Berger
Rotter
waived
substrate
##e
##a
##t
##n
##i
##o
##r
##s
##h
##l
##d
##c
##u
##m
##f
##p
##g
##w
##y
##b
##,
##.
##v
##1
##k
##"
##S
##0
##T
##A
##C
##2
##M
##9
##I
##B
##-
##P
##H
##R
##D
##L
##F
##N
##8
##)
##(
##x
##'
##G
##W
##E
##3
##5
##J
##4
##7
##6
##O
##z
##K
##j
##U
##q
##V
##:
##/
##–
##Y
##;
##Z
##%
##Q
##é
##&
##’
##X
##$
##_
##—
##á
##]
##[
##=
##”
##“
##ó
##í
##ü
##?
##!
##ö
###
##ä
##+
##è
##ā
##ć
##£
##‘
##ō
##ç
##ñ
##ø
##|
##š
##ł
##°
##É
##ã
##ú
##č
##>
##*
##â
##<
##à
##å
##ū
##ă
##ë
##ı
##ô
##ī
##а
##ń
##æ
##ß
##о
##−
##ž
##α
##и
##×
##ş
##€
##ê
##Á
##е
##Š
##ș
##н
##р
##′
##Ö
##⁄
##с
##~
##ï
##»
##μ
##т
##ś
##ę
##в
##ا
##§
##ğ
##«
##β
##к
##î
##ο
##ð
##л
##ț
##ý
##Ó
##Č
##Å
##@
##İ
##Ž
##ʼ
##ą
##•
##}
##ř
##ò
##ρ
##ν
##{
##ε
##Đ
##ʻ
##τ
##ς
##ι
##λ
##ē
##Ō
##ż
##д
##Ø
##ě
##Ś
##σ
##ل
##ő
##·
##Ł
##đ
##ė
##`
##Ç
##κ
##\
##м
##π
##ì
##→
##у
##ر
##õ
##γ
##Ü
##م
##ن
##я
##י
##́
##Ş
##г
##ي
##ù
##‐
##п
##й
##η
##ा
##δ
##Æ
##Î
##ו
##„
##†
##±
##ə
##Ż
##ḥ
##ţ
##्
##و
##Ú
##С
##з
##θ
##ω
##د
##ź
##б
##ь
##û
##र
##υ
##ʿ
##ί
##ب
##ч
##ы
##س
##ệ
##œ
##中
##ר
##א
##ṣ
##ṭ
##Í
##ה
##Δ
##φ
##Ā
##Ä
##ی
##ά
##ό
##大
##ל
##А
##ṇ
##ň
##^
##®
##ت
##К
##М
##ư
##ơ
##х
##ŏ
##В
##Ș
##ه
##מ
##்
##州
##ー
##П
##ב
##ạ
##ع
##ả
##≤
##Σ
##ц
##Р
##Þ
##ש
##ת
##¥
##क
##า
##王
##ế
##ि
##χ
##þ
##の
##і
##人
##त
##О
##া
##ņ
##Α
##म
##न
##И
##ح
##Н
##स
##έ
##Б
##ů
##≥
##ễ
##ン
##国
##Ḥ
##文
##日
##ة
##ी
##南
##天
##ή
##ж
##Г
##李
##ш
##Ć
##Ω
##ύ
##व
##ش
##ق
##ف
##ร
##ج
##Π
##∞
##Т
##Д
##े
##ד
##公
##年
##ǎ
##ल
##子
##Κ
##ա
##്
##¡
##À
##山
##נ
##ị
##ע
