[PAD]
[unused0]
[unused1]
[unused2]
[unused3]
[unused4]
[unused5]
[unused6]
[unused7]
[unused8]
[unused9]
[unused10]
[unused11]
[unused12]
[unused13]
[unused14]
[unused15]
[unused16]
[unused17]
[unused18]
[unused19]
[unused20]
[unused21]
[unused22]
[unused23]
[unused24]
[unused25]
[unused26]
[unused27]
[unused28]
[unused29]
[unused30]
[unused31]
[unused32]
[unused33]
[unused34]
[unused35]
[unused36]
[unused37]
[unused38]
[unused39]
[unused40]
[unused41]
[unused42]
[unused43]
[unused44]
[unused45]
[unused46]
[unused47]
[unused48]
[unused49]
[unused50]
[unused51]
[unused52]
[unused53]
[unused54]
[unused55]
[unused56]
[unused57]
[unused58]
[unused59]
[unused60]
[unused61]
[unused62]
[unused63]
[unused64]
[unused65]
[unused66]
[unused67]
[unused68]
[unused69]
[unused70]
[unused71]
[unused72]
[unused73]
[unused74]
[unused75]
[unused76]
[unused77]
[unused78]
[unused79]
[unused80]
[unused81]
[unused82]
[unused83]
[unused84]
[unused85]
[unused86]
[unused87]
[unused88]
[unused89]
[unused90]
[unused91]
[unused92]
[unused93]
[unused94]
[unused95]
[unused96]
[unused97]
[unused98]
[unused99]
[UNK]
[CLS]
[SEP]
[MASK]
τ
##ου
σ
κ
π
α
,
τη
##αι
.
##ικ
ε
μ
το
του
##αν
##ια
και
##να
##ερ
##στ
##ία
##ατ
##ει
ο
δ
##πο
την
##ρο
##ων
##ντ
της
##ρα
##ού
με
"
1
##ση
##πό
γ
##ος
έ
Α
##ρι
##κε
από
##ες
##λλ
Σ
##εί
##ική
##νο
##ετ
##ότ
Τ
Μ
##ών
##αρ
##ίν
τον
Κ
Π
η
##ιο
##τα
##σε
##μα
)
(
συ
χ
##ολ
Ο
2
Ε
##ές
επ
να
##ορ
##θη
τα
##ως
##ικό
##ματ
##λη
##λο
##υτ
##τη
β
που
##ίας
σε
##εν
19
##ις
-
των
##λε
κατ
##ιν
##ρί
##ισ
##αλ
για
##ργ
υ
τις
ό
##μο
ή
προ
##ίναι
##ικά
##μέ
Γ
περ
θ
##άν
φ
Η
είναι
##ας
Β
##ρά
20
##ής
##ιστ
##λα
##ός
##ιά
##το
τους
##νη
πρ
##σει
##ελ
##ουν
##ους
Το
##γκ
##ασ
##ταν
##ρη
##ρχ
Δ
απο
Ν
##θηκε
##σης
##δο
##ρε
ά
##μά
##μπ
Ι
##ον
##ίδ
##κτ
##ρό
μέ
##εται
δια
##ιτ
αυτ
αν
οπο
εν
##ίου
##ης
οι
##έρ
##er
ανα
ήταν
##οντ
##τά
##ημ
:
Λ
##σι
##στη
λ
##ικής
##μβ
##an
συν
##χε
##που
κα
##αρα
##ιλ
ν
Χ
εκ
##ιδ
ένα
##τερ
##αντ
ως
##ρω
##ικού
##on
##in
##όμ
ότ
παρ
Φ
##σα
##ητ
##ικές
##ρατ
##ίο
##ται
##λλά
εξ
##κο
##γρα
##θε
##ότερ
201
##εύ
##σεις
S
πο
Ρ
##ην
αντ
##ματα
##αγ
έχ
στ
##μό
200
##ar
εί
/
«
##or
C
»
μια
πολ
##κα
##πτ
##καν
απ
##σο
Έ
A
υπ
##en
κατά
##μέν
3
##δα
##άλ
##ικο
##ότη
##ηγ
##ποι
##es
σύ
πρώ
##άρ
επί
##ευ
##λογ
##σαν
M
ότι
##ικών
##ίες
##ίκ
##νω
##al
##όν
δι
##ιακ
##ουσ
αγ
18
##μφ
κά
αρχ
κυ
##ρος
δεν
##πα
T
##γραφ
##μού
##με
##ξε
μετα
παρα
##ίζ
##ρή
##ρου
##ρέ
υπο
##ότητα
##ρού
μεγ
B
περι
##θεί
##λή
διά
P
##φορ
##at
##μη
##σκ
##ώς
##ογ
Οι
##χή
##is
κο
́
##έν
ζ
Ά
##μερ
πό
##μή
4
##he
##ριο
##υσ
##τε
επι
##ic
##λέ
καθ
##όγ
##έλ
##στηκε
5
##ωτ
Θ
##σω
##υν
##έχ
άλλ
##ριστ
'
##ίτ
##ρώ
##πε
είχε
##ματος
##ικός
περιο
##ούν
##αστ
##λά
σχ
##λευ
ενώ
##οι
αλλά
##ήθηκε
ακ
δύ
έχει
##ντας
##ξη
##μαν
αποτ
R
##θν
D
##ραγ
Μπ
##μμ
##υγ
##ρια
μα
όπ
##σία
##χν
##it
##ημο
199
θε
##ουλ
L
0
Επ
##έρα
H
##όσ
##ιβ
οποία
##ιώ
θα
##είο
δε
t
##ιος
μετά
##θή
θέ
##ρίου
σημ
##ούς
όπως
ομά
##ψη
##ουργ
G
##αλύ
##ρεί
##αί
ιδ
##οκ
##όρ
##λλην
##της
βασ
F
E
χω
προσ
δύο
6
##ονται
##στα
##άτ
##χαν
##όλ
##σκε
##el
##μάτ
##ησε
##νται
ίδ
##έτ
##εις
Με
##μός
I
p
χρό
Τα
##et
Μα
Αγ
μπο
##σσ
##τή
##ρυ
πρω
##ράφ
##κτη
##ίλ
##θηκαν
οποίο
##ανε
##ur
##ωγ
##ιμ
##ol
##ρκε
##νας
8
##ότερα
##ήμ
o
Ό
##δε
7
s
##ϊκ
##έντ
ιστ
##μένη
παρά
10
##ίσ
##αιν
##αλλ
##υχ
όπου
χώ
##σιμο
##as
ανά
χρη
##άντ
σκ
##ρον
##νομ
##μένο
N
d
##ion
##il
##μεν
W
##αθ
##ρες
9
έγ
##ωση
##ιπ
##ίων
##βε
##φή
##om
πόλη
πλη
198
επίσης
Κατ
τε
##ξύ
##us
##ιγ
##δή
Σε
στρατ
Υ
##δι
##σφ
##ρισ
##ed
##ρύ
##φέρ
##ιας
##ρας
c
##λος
##άρχ
##ωσε
φορ
##αλύτερ
χρόν
##φο
έγιν
αυτό
##όταν
of
##πει
##είται
περί
καθώς
πολιτ
##ηση
Γκ
##εία
αποτελ
##ολογ
##νομα
##and
##υνα
##ριν
##θλη
Αν
##δια
οικο
##στή
ευ
Ζ
γνω
πρό
Πα
##τος
χρησιμο
##χρι
δημ
##ψε
##re
γεν
197
μέχρι
##le
##ιθ
##άκ
##am
κοιν
εκτ
αυτή
Τζ
##ρία
##ωνα
##κλη
##έα
##ορία
συγ
##εργ
##ρίζ
μικ
διο
μία
##έλε
##νης
##οντας
##δες
17
Αυτ
15
ξε
Θε
12
##στό
##οί
υπό
Μετ
##μου
##μάτων
##εδ
##φερ
χρησιμοποι
O
##ac
##αρτ
Ευ
έργ
##μμετ
##ίος
##ρκ
##λλη
##αρχ
##ιχ
επιτ
βρί
J
μεταξύ
16
##άζ
έν
έγινε
##ro
##οσ
##ιαν
##δη
Πολ
##άσ
Ελλά
προς
##ing
##υπ
##ειο
χρόνια
##ισσ
##εκ
πρώτη
έχουν
##ισμού
ισ
196
Από
μεγά
##ακ
##ήσει
##άγ
δημο
##όνο
λόγ
Συ
τελ
τέ
##ισε
##θέ
##όρη
##ίγ
##ικούς
Στ
##θετ
##μβρίου
##έγ
συνέ
συμμετ
##λυ
##εξ
14
##ιού
θέση
##ζί
όταν
##ερμαν
##άνω
πιο
##είς
##λαμβ
##μπο
##μένα
##άχ
##διο
έκ
##ίνη
11
f
##λιο
##λώ
##κρι
##εντ
13
K
##ίνει
##ερο
##εβ
##ιών
##σεων
Κα
θεω
##ίστ
ταιν
##un
##ch
έδ
##δας
σελ
πολλ
##μως
##ρετ
Ντ
%
γε
περιοχή
περίο
194
στα
##χει
##ήλ
κατο
εντ
–
μπορεί
##ισμό
εκε
the
αιώ
Σύ
##βα
ομάδα
##ίδα
αφ
##πη
##άνει
##ολή
χαρα
Ανα
##ίστηκε
παι
##ri
αδ
μεγαλύτερ
πα
##υλ
##σσα
##τες
εργ
##σπ
##άς
πολύ
V
σημαντ
συγκ
##ιουργ
κατα
##ραγματ
##ειν
##σκεται
##εύτερ
κύ
##ργαν
γρα
##ul
##μπερ
##ξαν
Εθν
##κη
Παρ
εγκ
##ώντας
##άλλ
##ιου
##λης
The
επο
αιώνα
##χο
##σταση
περισσ
##ρών
g
##πιστ
ελλην
ένας
διάρκε
##δρο
οποίος
χωρι
εμφ
##τσι
Αντ
##λαβε
##μφωνα
##ent
βασιλ
##δό
περίοδο
νο
##δου
δημιουργ
##ad
##γε
##ικαν
##κλο
##00
##στά
##τηκε
μόνο
##ιζ
##σίας
##os
##είου
##ρθ
δεύτερ
διάρκεια
Νο
σει
##ντα
εφ
##λου
μο
νέ
h
##σουν
##ριθ
όμως
##ότε
195
##θυ
##νομά
Κο
m
Ω
##ύπ
##ργότερα
υπάρχ
##ia
##τών
κυβ
##όμεν
πραγματ
##ίνο
μη
##χής
##εια
##τον
##ίζεται
κιν
αστ
μετ
επιστ
##θερ
μουσ
b
w
Βασ
##ούσε
##γωγ
U
##ιάς
ψ
δικ
##ρική
##ντε
μαζί
##πλ
##δος
##γλ
Περ
ζω
##εφ
##ότερο
μέρος
193
προκ
##ρων
192
##ντο
##οποι
πατ
πληθ
##ότητας
##λευτα
συμβ
πλ
##ημα
τραγ
##ατο
00
μπ
##κλ
ενός
ώ
##ταλ
##κες
##ροπ
##ag
##ποί
##ήμερ
είχαν
λε
Μετά
##κευ
παλ
βά
##ίνα
##ήκ
##φέ
αξ
##πος
##ικοί
##ωμα
##um
##θεση
σχέ
##τι
τελευτα
##κρατ
έναν
κατηγ
βρίσκεται
##ot
##γέν
πληθυσ
##ισμός
##μένων
##έστ
##ηματ
##ραν
αγων
Κατά
ι
ξεκ
##εμβρίου
σχε
##νώ
εισ
##ήμερα
καν
κάθε
##id
##πουργ
##στημα
##αρίου
##χυ
##μος
##γγ
Αθή
##ut
##μένες
Γερμαν
##μι
##τολ
##άφ
##iv
επαν
##οβ
Αλ
##ερα
τμή
##πού
##στε
##ίζει
αρ
υπή
and
##ροφ
περίπου
Απ
πρώτο
##ist
##ra
##τική
τότε
Ή
σειρά
αριθ
##ραβ
St
in
191
παρουσ
πυ
##λοι
##σμα
αναφέρ
συνο
Για
ανέ
000
##ήν
όνομα
##σί
##μών
##ειτ
##όπ
##ίνεται
Μαρ
##op
ασ
μέσα
##εχ
##υστ
##ers
κατασ
πως
##φερε
Ιω
τίτ
##νοντας
θά
κλ
##έφ
##νή
##γχ
χρή
αργότερα
Πρω
αντί
##θλημα
##ίκη
##οφ
##ig
μπορού
##τές
##ανεπιστ
##όμα
##μένος
κυκλο
##ec
Κά
##χω
άν
βο
##im
##έρνη
Δημο
##ιακή
##κολ
δεκα
##κτή
##τί
##τησε
στο
Προ
μορ
##ation
##em
##ήφ
φορά
αποτέλε
##νήθηκε
καλ
επικ
##μένου
##έας
##δία
χρον
Είναι
##ικητ
##μμα
##ρεια
##διά
πρωτα
Επί
##τάθλημα
τό
βαθ
##ινο
αυτοκ
κυρί
ιστορ
##ιωτ
έως
2011
##ύγ
ύ
##στόσο
Να
##θούν
Την
##χώ
##γραφή
βιβ
##έσ
κόμ
εμφαν
Ελλην
##όμε
Γαλλ
οικ
##ρίς
εκλογ
κυρίως
νη
Εκ
μέτ
είδ
ταινία
##φορά
Αρχ
##ir
##ειτουργ
##ιακό
##του
ηλ
##δικ
δη
χαρακτη
##ινή
αρκε
νε
Τον
σχετ
κατέ
##ιό
ανθ
##ασία
##γράφ
##χεια
]
Παν
Ελλάδα
κατασκευ
##ότητ
λόγω
##ιση
##πά
όλ
##σταντ
##ούνται
##μενο
##δοσφ
σκο
##χα
Γεν
##δοση
##ter
##ικία
[
παραγωγ
##ανου
##λέον
##δει
εγκατ
προβ
πάνω
##ωματ
συγκε
##χές
##εθν
δεκαετ
##ξης
γύ
οικογέν
εθν
##ay
##στηκαν
πή
αντικ
##ουλίου
##αλα
Ου
Κων
συλλ
συνέχεια
n
σπ
Οκτ
##νταν
##άβ
κατοίκ
##άμ
σήμερα
πριν
λειτουργ
Αθήνα
##γον
Γε
##ότητες
##έρας
##όντ
δυνα
##έμ
έργο
κάπο
##od
Σεπτ
l
##ξει
επό
##έλος
##χύ
ειδ
##og
Λα
ακολ
##χος
##ώθηκε
=
λα
##ώνες
##αιτ
χιλ
##ιλο
γλώ
##ψει
άλλα
de
##έκ
##τό
##ανο
##λό
Κωνσταντ
##ουλε
έκαν
##ελφ
Κυ
##άστηκε
ξ
##αγωγ
##ρωπα
gr
χωριό
##γων
αποφ
##ώνα
##υμ
##γνω
ονομα
##γμα
χωρίς
μεγάλ
##ωνία
##σια
κοντ
##αιο
Επίσης
Αρ
Σα
##ρώπ
##ίτερ
##επ
λογ
μονα
Ch
##έμβ
##κά
εται
Συν
25
Καρ
##τω
In
δί
##st
τρό
αυτά
##λον
φυσ
##δων
τοπ
ω
##ew
##λίου
σημα
Τσ
##ονταν
Ιωάν
##μπου
2010
##ίσει
##υθ
Ιανου
Ήταν
Μά
Δε
Απο
##ωβ
οικονομ
##τής
Πο
##έργ
##ιάζ
##ήθ
##ρει
##tt
ρό
ίδια
##ard
Αμερ
##πον
οδ
##κό
##ρους
##ορίας
##ιον
τι
μερ
##μετ
Γου
##ιθαν
Αθη
κυβέρνη
a
30
##έθ
##ρεις
##oc
μεγάλη
##γκόσ
περιλαμβ
##θλή
Λου
αλ
##πολ
##βολ
##έπει
##σή
τύ
##στου
άλ
ανακ
καλλ
##γελ
##δυ
##νοι
δρα
##ρικό
##παι
##ζε
τρί
##ερό
κόρη
έτσι
##ess
πρωτ
##μεσα
καταστ
##σου
επιτυχ
Πανεπιστ
##βαν
##ίμ
υπη
τμήμα
##θος
τού
φορές
γνωστ
##γκόσμ
##ρωπαϊκ
##έχει
##λλα
έφ
##άρι
αποτέλεσμα
##είχε
##ρεύ
&
αποτελεί
##των
##λλο
##ov
ποδοσφ
##κου
Μαρτ
επίση
##ίνησε
##ev
##λεκτ
Ιταλ
γεγον
##όμετ
##όμη
συμπερ
ομάδες
##ow
##ανδ
αποκ
σώ
##χολ
##ώσεις
##εινε
προέ
άρχ
##ιάν
##ατη
μιας
πολλές
ετών
21
πόλης
αυ
##ill
θάνα
##th
_
2012
διαφορ
μέλος
κόσ
##ρεταν
##ητή
2008
##ούσαν
κρά
ολο
εποχή
##λυμπ
##ρης
κορ
ιστορία
Δημ
μέσω
συχν
’
##τζ
##υο
σύμφωνα
##σωπ
An
μικρ
##λω
ονομά
##άρτη
##τικό
190
##νει
συντ
συνεχ
##ειες
##σον
2009
##ρείται
##ερά
ιδια
##υτικά
ιδιαίτερ
##ουρ
22
##άλι
τρεις
πιθαν
Δια
##όλου
##ειδή
ίδιο
συνεργ
##χι
τοπο
##γαρ
##τους
Υπ
τίτλο
24
##ουλευτ
οργαν
##έντρο
Αυγ
##γεν
##ρευ
έκανε
υπερ
##χθηκε
##μον
Δι
βιο
##ουσα
Σύμφωνα
##νονται
##ίτη
χει
##εδρος
##μενη
##υζ
Φεβ
##ttp
επαρχ
λίγ
2007
##ότερες
μητ
Δημοκρατ
Κύ
##ψηφ
##est
##φα
##κτησε
πολλά
Φεβρου
ώστε
μάχ
##πολη
##ηθεί
##θο
Αφ
##μούς
##all
γιος
##νών
##ρίας
##ρξε
συγκεκρι
##μματ
τραγού
υπάρχει
πρωτάθλημα
v
τηλε
##ce
χώρα
##πέ
##κας
νότ
2013
βιβλ
##μοσ
##ίνου
συμπ
έξ
εκκλη
##όφ
πηγ
##θησε
##ρηση
##φόρη
μον
πλή
##πτυ
##ότερη
##ζεται
##ξεις
άλλες
τόσο
##ουνίου
##ρίζεται
##τιο
λέ
23
##ber
πί
αρχές
##απ
for
##ολογία
βρίσκ
εκλογές
κοντά
Πολιτ
2014
##art
ηλικία
αερο
##μί
Ιν
σαν
τέλος
##χεία
πρά
επισ
##στο
κρατ
θερ
Παλ
όσο
Ολυμπ
##ολόγ
##ουδ
Βασιλ
##βη
Πρό
##ικότητα
κατοίκους
##γραψε
δήμ
##ΐου
##μοί
##ell
##ρυσ
##όδου
σχολ
έδρα
Ρω
Μεγ
##πεδο
Αυτοκ
##ριλίου
Θεσσα
Ερ
2006
τρι
##θεια
##ώσει
συνα
Αυγού
##μία
αναφέρεται
ακόμα
Θεσσαλον
##τέ
Οκτωβ
Απριλίου
αδελφ
##δεί
πά
Ιουλίου
τά
Σεπτεμβρίου
Μαΐου
Μαρτίου
ντε
##λεύ
Al
ξεκίνησε
##ιακά
στρατιωτ
##αστά
##οδ
##ισαν
συμπερι
αρχα
πλευ
2015
απε
##νωση
##λεμο
καρ
ντ
##υτική
χρόνο
τρο
##ειας
έργα
Y
##λαδή
##άριο
υπάρχουν
##στήρι
κι
##av
##θήκη
γεω
Οκτωβρίου
πρόσ
##ian
μεγάλο
αυτές
##ούλιο
##ρεψε
διεξ
Ιουνίου
οποίες
##δών
Αυγούστου
##ίον
##θω
αφού
##είων
##έμου
αντιπ
##ευση
##ριος
σύνο
βάση
##ραση
##δόν
κέρ
υψη
##ιερ
189
##ορφ
χρήση
##άνουν
έλαβε
##όμο
##ie
##σιο
##όκ
##δον
##έμβριο
Όταν
26
##ινγκ
##ήγ
##τας
##ήμιο
χαρακτηριστ
28
##δί
##ine
Αγγλ
##κοπ
##ήθως
##ou
γύρω
com
Ωστόσο
##ρεία
ανθρώπ
κυκλοφόρη
##υζαντ
προσπά
μέλη
##άλυ
συμφ
μορφή
απέ
##όρεια
συμμετο
φύ
##εχν
ww
φιλο
##ιστική
πρέπει
κομ
www
##λλαγ
ταξ
##χθη
ιδρύ
διαφορετ
δηλαδή
##ιέ
ισχυ
όλα
##νό
ανατολ
##δικό
##ρικής
##όμενο
εμπ
##έθανε
##μενα
##ρυθ
##ργάν
##ep
Εθνική
##άντα
κοινων
##ούλ
εδ
συνολ
##ίνος
Ιστ
διεθν
Ιανουαρίου
διακ
##αγγελ
δεύτερη
Ί
Μακε
Χριστ
παλαι
εκεί
##ημερ
ατ
Πό
περιοχές
##ab
##νες
ακόμη
εκτός
27
##αφ
ποι
##ιντ
ηλεκτ
δεί
2004
διοικητ
##βά
##βο
προστ
τέσσ
Σκ
σύστημα
##δης
στά
μηχαν
http
##ότο
πλα
Ar
2016
##ap
αγγλ
##κης
Μάρ
τελευταία
Ελ
##λεγ
πήρε
δολ
Λε
Νοεμβρίου
##θρω
Αυστ
ποτα
##qu
ανο
ονομασία
Σπ
οδηγ
Πατ
##ήτ
##ίδες
##δίας
ομάδας
##ζόν
γυνα
##ματική
##ρησε
##ανά
##ran
φυ
φιλ
νέα
εμπο
##ατα
##ρίστηκε
##είας
;
##ud
##ατομμ
##αρά
Στα
##όχ
Δήμ
Ηνω
Έχει
##ίζονται
Δεκε
καλύτερ
Ξ
##νου
αρχικά
Αγίου
ζωή
##νολογ
Καλ
##θέτ
##πουλος
##μπουμ
πλέον
πλο
100
##εμ
182
##τικά
κατηγορία
ακολου
##ουσία
##ροφορ
##υναι
Του
χα
##ειών
2005
Κορ
κρι
##ίκης
##ησαν
ανεξ
Μουσ
αγώνες
Εν
ορισ
##ord
##ζυγ
##ιστα
ημέ
##σίες
σπου
όχι
συχνά
##ίους
##ort
άλμπουμ
Αυτό
##ογράφ
##μην
κεντ
Δεκεμβρίου
ανάμεσα
θη
καθη
##ινού
κέντρο
##ίζουν
##ταση
δυν
συγγραφ
##άνι
##ροι
##ρχεται
##όδ
ηθ
μαθη
σύν
##ήτη
βασιλιά
μήκ
εναντ
Άγ
##our
##ινό
πρωταθλή
συνήθως
##υφ
##ινα
##ωτερ
γλώσσα
##υτικό
Βρεταν
##σό
##άου
πορ
##σχ
προηγ
παντ
##μοσπον
29
κυβέρνηση
##ικα
Un
##κών
τελικά
υπήρξε
2000
##ιτς
πραγματοποι
Κύπ
##γκοσ
πρώτος
##δρα
##ΠΑ
γνώ
ρόλο
##ub
μπορούν
##βάλλ
Αθηνών
άρθ
χαρακτή
σχετικά
##στερ
ομ
##άλε
Ελλάδας
##εύτηκε
ποδοσφαι
##ζα
γά
αρχαι
##ήμο
Αλε
γαλλ
188
##σωτερ
σύγχ
διάφορ
##ant
##γο
##ρισε
γεγονός
σχηματ
Έτσι
##io
πετ
σημερ
##λάχ
##βί
σταθ
επιδ
##ήθηκαν
##έντε
κάτο
άτο
##ροφή
Φεβρουαρίου
κάτω
##ge
εναντίον
2001
γυναί
##σμό
πρότ
Σου
##δέ
πέρα
##ik
Σερ
ξαν
γίνεται
##γκα
γίνει
##ak
σεζόν
##ανα
##δισε
κάποι
δού
##γραφία
κυκλοφόρησε
##ιχεία
##ity
χιλι
Mar
##κει
##χεί
προσωπ
Εξ
##ρησκε
μυθ
παιχν
##ριβ
πρώην
μεγαλύτερο
παράγ
σύζυγ
είτε
##τικής
αθλη
Κου
##σελ
άλλων
##ρός
##τσ
##ey
##ύν
ιδιαίτερα
##λλήν
εφαρ
καλλιτ
ρω
##χη
##λών
##ολο
άλλη
αντίστ
Μακεδον
##ίβ
##λλογ
ανάπτυ
βουλευτ
φαν
##έλα
υπήρχ
κυβερ
μεγαλύτερη
άρχισε
διατη
Παγκόσμ
##μένοι
##τώ
Ανδ
Pr
υπολογ
στοιχεία
##ίδας
Γεω
##πουργός
ανήκ
##στικά
πε
##ράτο
δεύτερο
##μπό
##φος
αγώνα
##είες
##ίθ
Ρώ
ίδρυ
Πά
γερμαν
##ροσ
##γρά
##ich
##φόρ
δο
οποίοι
Πανεπιστήμιο
##σπαν
περιοχής
χρονιά
##ίνης
##οντα
δυο
εξελ
##νευ
##ήχθη
Σχ
##up
##ποίηση
e
##θωμαν
##ρισης
##ιστεί
##πειτα
Βεν
##οπ
##λει
θάνατο
##ωνίας
νομ
##τελ
επιχει
k
Στρατ
Ισπαν
σχέση
γεννήθηκε
Παρά
εκατομμ
ίδιος
##ασίας
##λευθερ
παρουσία
##ηνο
γιο
##ώπ
Βαλ
δρά
μέτρα
##ιμο
187
##σκευ
χώρας
##υρί
γνωστή
σχεδόν
Φιλ
υπέ
##κλή
πρωτο
##εφαλ
2017
##ip
δραστη
##δειγμα
##ιακής
##ιστές
##ίζοντας
##λμ
τρόπο
##ησης
παρατη
πρώτα
##άσει
διευ
##λληλα
##ίδι
τιμή
##δρομ
##άση
##ούργ
##ιές
πιστ
αναπτ
περισσότερο
κερ
##μηχαν
##ίπ
κάνει
##ϊκή
##λύ
βορ
##ιμετ
##ίχ
επειδή
γνωστό
2018
##ουμε
##όμετρα
##θα
31
##ητής
##στρο
ΗΠΑ
##ύρια
εύ
##χών
##έβ
##und
παιδιά
Έλλη
##ούμεν
##θυν
επιφ
Ατ
δεκαετία
Ρωμα
##τικές
σφ
ου
ταυτ
καταλ
συμμετείχε
##if
##αχ
50
θρησκε
κόσμο
σκηνο
##παίδ
##ιλά
##έστρεψε
##κιν
μην
διαδικ
##οτε
Ως
τρα
φω
όλες
τρία
to
Ευρωπαϊκ
2003
Βουλ
##γραμμα
##ack
##ριζ
##σεως
υλ
τερ
ακτ
υπηρε
##ατά
μάχη
##ήματα
##eg
πρωτεύ
εκδ
##όμενη
##ρικά
υποστη
##ριά
##ίκος
Μέ
Διο
πατέρα
αρκετά
##λακ
παί
##ct
παράδειγμα
##ωσης
Αιγ
##ρισκ
Κόμ
αντιμετ
χώρο
κέρδισε
Αυτοκρατ
χρησιμοποιείται
En
Ακ
##ίμα
##ρίζει
εσωτερ
##γα
##πελλο
186
υποστήρι
χλμ
εκείνη
##όλις
Ευρώ
ικαν
##ισσα
αντίστοι
##φό
νέο
Γεννήθηκε
έτος
##ιλε
##αγωγή
μοντ
##ok
πληροφορ
θεωρείται
2002
##δήγ
αντι
πέθανε
Μον
##ύγου
έκδοση
##νά
ανακο
χώρες
Εκκλη
Αλέ
αυτός
##ιακού
Νέα
τέλη
ολοκλη
##δική
Νε
χιλιόμετρα
##ρωση
##ωθεί
##ριών
Ανατολ
διδ
##ρέφ
##μένης
διέ
##ρότη
##ηκε
Τού
##ρούν
εφημερ
πατέρας
##δημ
##άτω
ωστόσο
επιτυχία
διάστημα
Αμερικαν
κω
##ικοι
συλλογ
Ευρώπη
##υρο
##ψαν
Μια
παραγωγή
πολιτική
##έλλ
εκπ
##φέρο
αποστ
##άρια
πληθυσμό
##ιες
##ατολ
Ρό
##στασης
ρο
βοή
##ράν
Ένα
##ιοι
##υπο
τραγούδι
πρόεδρος
βοη
καλο
δεδο
Παρα
##ιετ
##οπτ
1999
βρίσκονται
ανδ
ελληνική
##αντι
##δοσ
φέρ
##βλη
ανέλαβε
μήν
πλευρά
τεχν
πέντε
ζωής
##ιγκ
183
##ann
παρέμ
##ιστικό
##ίσκο
χορ
##λαν
##άμεις
##ιστή
##ραι
γυναι
##δέχ
απογραφή
νόμ
αυτών
Βασίλ
δρό
αναπ
##ρές
μας
##ριαρχ
τιμ
##άσεις
μουσική
r
μακ
##έδ
##ίδια
Μπο
##ίκο
##ειά
κάποια
πίνα
σημείο
##άζεται
##οσφ
οικογένεια
##πτωση
##ργάνωση
αποκλ
εξωτερ
##αση
##πολης
!
βραβ
βόρεια
Επιτ
##ποτε
πόλ
άνθρω
ενεργ
##ula
ελ
νότια
σπίτ
κυκλοφορ
##ίδης
προϊ
αναγνω
##ινά
παρουσιάζ
σκοπό
Ρα
##ύρ
##φυ
##μης
40
δύνα
##περ
##ain
##εγ
##παν
##ρασ
Le
πολυ
πεδ
αυτού
##εστ
##μογ
##όνα
Έλληνας
##ώρα
Άν
μελέ
εποχής
τετ
χτ
στρατό
μήκος
##έρι
συστή
##λεύθερ
ερ
ιδρύθηκε
όλη
αριστ
##ρικές
δικαι
ιστότο
Μο
1997
οποίων
##έων
##ρίγκ
##πτο
γνωστός
πλά
##ιατ
Βερ
##ονδ
##ώργ
##κος
κάτι
άρθρο
ηθοποι
##ρικ
υψηλ
έγιναν
γράφ
##ory
|
##ph
Γαλλία
τέχ
Καλλ
ήδη
τοποθετ
##ριση
##λαβ
##ιακές
χρώ
Γεωργ
##κρα
##κυ
##ήσεις
##ηγός
##εύει
αρχιτ
όνομά
διάφορες
Th
##ρισκόταν
##όλο
##ατιν
##έγη
st
##ύλ
βασιλιάς
γραμ
##ροπή
άλλο
##ούνταν
##θεν
βρέ
γραφ
νησί
Χά
##ιμα
οδήγ
Sp
##ματικά
υψ
##ειμένου
συμπεριλαμβ
##ποίησε
##αίρισης
συνδέ
αυτής
Γεώργ
συγκρότη
άτομα
καρι
185
##ue
ψυχ
πίσω
##μέτ
εκδό
##μεί
##κεί
Νότ
##λάχιστ
προβλή
##ίκου
##ff
##άκης
Αλεξ
ηγ
κάτοικοι
##ast
##στεί
##ισμούς
αυτόν
##άλιστα
##νε
##ρείας
μόν
χαμη
##δρό
αγορ
μόλις
##ιους
ασχολ
##ύχ
περιόδου
δυνάμεις
##λάβ
##ΕΚ
##ρούσε
τέτο
##έζ
συμμετοχή
##χθ
##εκτ
Μετα
##μάν
##ούθησε
Δεν
form
ενδια
πάρ
ρε
Ρου
##ένα
##λασ
##ίνουν
πόλεις
βιβλίο
##εύθυν
στιγ
άλλους
προκαλ
επίπεδο
##αίνεται
##ειδ
##ies
##ρούς
περιλαμβάνει
##όμενος
συγκρο
New
Πε
στοιχ
έφτα
##λαντ
·
ενέργ
Δημήτ
##σσας
αριθμό
θερμο
1990
εγκαταστά
##αντά
al
όρος
##βδο
Νικ
κλη
X
##αρτη
##ευσε
επέστρεψε
συζ
ανάπτυξη
περίπτωση
Ισ
##έλεσε
Μητ
##ρακ
Παλαι
χωριού
εξής
έπ
##μματα
ιστότοπο
Πρωτάθλημα
έδωσε
αλλαγ
##άνια
μητέρα
##ψήφ
##φέρει
##ib
##άλα
μορφ
κινηματ
Μικ
Z
ύψ
μαγ
πόλεμο
1998
Εθνικής
184
βρα
##λληνες
θεατ
σημαίνει
ονομάζεται
##ισμα
κοινότητα
##αρντ
##ρόν
κίν
##άτου
είδος
Βυζαντ
Μιχ
Τουρκ
εντός
##ούντ
##δικά
κανον
Θεσσαλονίκης
##ίσι
##ry
Περι
##τρια
##μορφ
##ωσαν
ορ
##ht
##φων
##στρατ
Ιωάννης
κορυ
##αστή
##αζ
##λυτ
εκατομμύρια
Συμβ
##σοφ
αμφ
Οθωμαν
2019
αναφέρει
##ίοι
##άφη
δυνατ
##ens
επόμενη
##ημον
πάλι
μήνες
λίγο
##μοι
##ιστής
##θέσεις
κατάσταση
γραμμ
κομμάτ
επαγγελ
ανήκει
##ary
##φιλ
σύγχρο
διάφο
σκην
##eb
##end
##λι
##άλη
βρισκόταν
Μερ
##άκη
δημιουργία
Καθ
##αβ
##μική
μικρό
σωματ
αξιο
##μένους
##φρά
##ug
##όγου
καθηγ
παρέμεινε
ενα
φωτ
εταιρεία
##σιού
1996
##ερις
##ογραφ
οφ
Γαλλίας
##ρητ
περιστ
##oh
##ont
##έλι
##ττα
Υπάρχ
formula
Com
δεκαετίας
μπορούσε
γέν
##άμπ
##άτες
##ond
αι
πολέμου
περισσότερα
ιερ
οποίου
προπο
πρωτεύουσα
Αυτή
συνέχ
σύμβ
##αίρου
##οβιετ
Μπα
Bl
πει
Έλληνες
ασφ
##ώματα
##ive
Πει
##ήκε
##ανατολ
σπουδ
##ish
εικό
##ρικού
βαρ
αμερ
##καί
ποτέ
##νωσης
##ρεση
Παναγ
##ϊκό
##λία
Τελ
##ob
##ust
##ανό
##ίσματα
##θησαν
Βαρ
##είχαν
Πρωτα
##στική
πληθυσμού
##ικον
##δίου
##θηση
περισσότερ
γον
##οτεχν
πρα
Λονδ
##κτική
##ήσουν
##στος
##πότε
##σεν
##ιακός
κό
νίκη
σώμα
έπαι
τεχ
##έχουν
##ματικό
on
Γερμανία
Κωνσταντινού
αντιστ
χρο
ημερ
##εύεται
τελικό
##ιακών
Ομοσπον
σύλλογ
##ίτες
##ίντ
##50
αυτο
##έι
αποτελούν
μισ
δεξ
##θέτει
ού
##ρήσεις
Eur
##βερ
δραστηρι
κατέκτησε
##ηλ
##θύ
##ίστηκαν
##άζει
##ιδη
οικισμός
επισκ
ρα
είδη
##θυντ
περιβάλλ
##ψεις
##ώτερ
σχεδια
ψη
έντο
##μυ
κατάφερε
Ιωάννη
συγκρότημα
διοργαν
##θεσία
Μαρία
αριθμός
κτ
##καδημ
χημ
##φθηκε
Καρα
Διεθν
έπειτα
##αιρετ
##νοβ
μου
ακριβ
Νορ
Κυπ
##oy
##ιωματ
σύνολο
φαίνεται
##ρρο
##μιο
σημαντικό
ηγε
##ευτ
οπότε
Άλ
##ανίας
##υμο
Σά
##ξανδ
εκδο
βαθμό
##ευσης
##ριστιαν
Ιερ
##γκε
δολοφ
##ass
Μεσ
χρυσ
##ώβ
θάλα
##ωγράφ
##δά
Πέτ
##βρα
##ivers
μετατ
Αστ
αρχή
##γματα
##ικότερα
Ιταλία
Κύπελλο
παν
##κι
##τού
##άχθηκε
ομών
##ica
όλο
σω
##σιος
διπλ
σύντο
##θαν
##γαλ
υποβ
##γου
##ψης
1991
αποτελείται
##ατζ
περισσότερες
##λόκλη
τηλεοπτ
τέσσερις
##γνώ
##man
παραδοσ
re
De
μνη
##χώρησε
##κτο
βορειο
φθ
Μελ
πλαίσ
##οδο
Ένωση
βιομηχαν
##λόγ
60
##az
κατηγορ
##όνη
32
##org
##ασκ
καθε
##θήκες
##ρικών
μικρή
Χαλ
οξ
ρυθ
1995
##σως
##ότι
χά
##ίωσε
εφαρμογ
##ect
##λετ
ιστο
ιταλ
ευρύ
συνδυ
δημοσι
Παγκόσμιο
κατασκευή
##μες
##σιά
αναπτύ
κερδ
ερμην
IS
Σχολή
αναγκ
Πετ
##χθεί
Γάλλ
##ιώργ
νοτιο
##τεί
##ρισμό
αντικατ
##νοδο
πρωθυ
έκταση
λύ
##ne
##εφαλής
διάφορα
Κεντ
##όρα
Κοι
υδρο
Παπα
##ήλθε
##age
##άκι
φων
απεβ
Μου
##ισμένη
##άμε
απόσταση
πανεπιστ
##ημίου
Ελλάδος
##πτώσεις
Και
πρώτες
επιστημον
##άστ
έξι
Κοιν
δίσκ
##δύ
πρωταγων
##σά
##τυ
##ράς
##σιών
πλού
##ζει
νεκ
αυτοκράτο
προκειμένου
##πτει
ύπ
πλατ
Γιάν
θερμοκρα
ολόκλη
##χία
έρε
##σκι
Χα
βασίλ
##τήτων
μέγε
##χου
Ρο
##ατρο
ποσο
Μπου
##κειται
φυτ
##όμετρο
ονό
##υρ
καλοκαί
επιβ
Αργ
##γκο
ανεξάρτη
ποικ
##κή
##arl
1994
επαρχία
##ισμένο
Γρα
υγ
##μείο
##πούδα
##λευση
##ρειας
σημαντική
##άνη
##κού
##μικό
λευ
##ith
μεγάλες
##άσι
απέκτησε
##μπού
##αθοσφ
##ώνης
αγωνίστηκε
Μπό
##μελ
##ίνι
1992
Καστ
##και
##ρεύτηκε
μονά
ξανά
λιγ
Br
βελ
1993
##ασε
##ρωσε
επη
##δήποτε
δύναμη
##ώνει
Λευ
+
##άνης
προπονη
όλων
διεξήχθη
συνολικά
##ωπ
υπόλοι
δέχ
κρί
πέτ
##λευθ
##χων
##λους
εξουσία
φωτο
Παρίσι
##ίδη
στό
αντικεί
ιδιο
Ερρί
προέρχεται
ταχύ
έγραψε
Στά
Ψ
##σος
##ier
##ice
δω
80
##ίκηση
Άντ
##ate
Βου
1980
##ικη
##ακτ
##έλει
καταγ
τραγουδ
ταινίες
πληθυσμός
##son
αυτήν
Sc
Κό
Ρά
Univers
##uc
Κρή
τουρκ
σταθερ
παγκόσμ
##πούδασε
ανδρών
αυτοκρατ
συγκροτή
Βιβ
βαθμ
εκκλησία
Μακ
1989
μονο
##κτήθηκε
δήλ
##ίτης
ισχύ
Εται
##ριας
μέγεθος
##ζονται
Cl
ημ
Gre
Βι
##ιούργ
ζώ
Sh
ίσ
##ρίσκεται
εμφάν
πολεμ
διαφ
##ath
##μων
Γιώργ
##μέσως
##εκτον
καριέρα
##σκο
διατ
##ical
γιατί
##ουσια
##ολογίας
έμ
δό
εκπαίδ
##ίδων
πρόγραμμα
##λογία
παραγωγής
στρατηγ
παρακ
σπίτι
##άνδ
##ld
##άτι
Βενετ
##ικότητας
Δήμου
##όμενα
υπήρχε
Αριστ
##φαι
λέξη
ει
##ίδραση
μετο
##ίσεις
ταινίας
μυ
γρά
1974
##όντων
ΠΑ
##ετέλεσε
κου
##oll
έχοντας
ευρωπαϊκ
##άνεται
Σήμερα
##ang
πληροφορίες
Κύπρου
##μές
##κτήσει
δευτ
##εσ
κοινό
##φεραν
et
μει
##υτικής
Θεσσαλονίκη
λόγο
νερό
35
##έμπ
##ιμά
##λεσ
##ούρ
Επιπ
κοινο
αρχαία
πρίγκ
##ξεν
θέσεις
επιτρέ
##πως
##θέτη
##ϊκής
##έρια
ψήφ
αυτούς
απεβίωσε
##όπουλος
##μής
##ιστών
Ντά
θρό
έφτασε
##60
##λαβαν
καλοκαίρι
πρωταθλήματος
##όμος
##μητ
##νοια
##λλήνων
Κολ
αισ
αρκετές
σχή
αξιωματ
Υπουργ
ιατ
Καν
##ρίων
##έτα
απαιτ
στιγμή
δυτικά
1970
##ίνων
Σερβ
Πολέμου
##ούνιο
κτί
##αιτίας
Μαν
εκστρατ
χαρακτηριστικά
Πειραι
pp
Άρ
##ational
Τη
λογοτεχν
##ρεπε
Αργότερα
περιγράφ
##ξο
##λερ
ιδι
##υνομ
χριστιαν
κλά
Παπ
##έσει
βα
##ρονα
έλεγ
##υμφ
##ωλ
ελεύθερ
πηγές
απέν
καλλιτέχ
θέμα
Am
δοκ
##όβ
##ροπής
##ασίες
##ιαλ
κεφ
επικεφαλής
κόμμα
αμερικαν
ανατολικά
##θει
Εκτ
Πλ
##ώνων
33
70
##ind
Πρώ
##φαλ
##ίρ
500
Δημοκρατίας
##άνεια
βοήθεια
Σαρ
καλύ
##βολή
##ire
##ούμενο
Ολλ
πρόσω
Γεώργιος
##ότερος
##όδο
υπέρ
κεί
λαμβ
αφή
πρόσφ
##ριαν
##αλά
##ern
ελέ
##λογα
γυναίκες
##έσματα
##σμού
##ράτ
##ραντ
φάση
Αδ
εγγ
πολλούς
γάμο
##άνου
##ook
##ραγκ
αυξ
##φέρεια
στεν
##ύργ
γι
##μβανε
Pl
εκτελ
Ελλήνων
Βουλγαρ
##ial
δημιούργ
##έλο
προβλήματα
ζωγράφ
Βο
ερω
##ρήθηκε
φτ
##όνων
##ure
To
##ινε
##στάσεις
παράδοση
##σκολ
Press
##στησε
Pro
##υμα
Νέας
##μνη
εβδο
μεταν
σημαντικά
##ινής
##μόν
ψηφ
εξασ
Λουδο
πόλε
181
Πανα
##ώνεται
##te
μάλιστα
Hist
οδήγησε
Χριστιαν
Νικό
##στατ
εθνική
Πορ
Δημοκρατία
Δεκ
##αυτ
άφ
άκ
αγγλικά
##BN
##ton
Φίλ
αποκλει
συμπεριλαμβανο
##πομπ
##ώνας
##ρεντ
Σαν
Ηλ
Πόλεμο
##νταγ
εξο
##θετα
##ιέρ
βιβλιο
αντιδ
τμήματα
1960
Q
##μίου
##μάτισε
Οικο
Αύγου
σύγκ
##ιζε
##ρην
όρο
αναγνώ
κυριαρχ
διαδικασία
καλλι
##ict
παραπ
μερικές
ποδοσφαίρου
##ρονομ
##ώτ
ιστοσελ
παρόμο
δολοφον
ISBN
##σού
##υπα
μυθιστ
διαγων
αποκαλ
κυβερνή
##στής
πάντα
αποφασ
##20
##ιλία
κράτος
##βέρνη
δήμο
συγκεντ
οικογένειας
##ριγκ
##θηνα
γεγονότ
##ληψη
##ek
μέτρων
πτ
##άσιο
Βασίλειο
##ίνες
χρονολογ
##ζόταν
αύ
Οκτώβ
λέγ
##γραφική
Κάρο
##ινη
διαδέχ
δημοφιλ
άνδ
ξεχω
αφο
##υγεν
ελα
θεωρού
τρίτη
εξαιρετ
##ίλια
##στικό
πολλοί
κλίμα
Νέ
Ακαδημ
μεταφέρ
##άβει
κατοίκων
##ζαν
Con
##iz
##ρώθηκε
λίμ
νέου
##ώνη
##act
έστ
##λων
Υπο
##κτηση
ημέρα
κάποιο
υψόμετρο
##μπερτ
Πανεπιστημίου
##τερα
##βαση
##ματά
##ss
##ίστα
##ίσουν
Ιστορία
##πλο
##άνα
βραβείο
επίσημα
Κατηγ
##δεικ
Σοβιετ
αρχιτεκτον
δημιουργήθηκε
σχέδιο
αργ
##ιακούς
Ακολ
##ριακή
##ork
##ριες
εμπό
Μουσείο
τύπου
##όνι
##δερ
##ροπολ
##μους
##σες
##ιορκ
μαύ
υποψήφ
προσπα
##μμουν
##εύγ
τραγούδια
##έγερ
πυρο
λιμ
Βρίσκεται
Κώ
Ηρα
άλλοι
γυναίκα
Εκεί
σειράς
πολιτικός
##ah
ολοκλή
##ρυτ
##άσισε
απαγ
υποχ
βουλευτής
90
Ένωσης
##άγεται
##ήματος
##ιστικής
άπο
Βα
άρ
Γερμανίας
##στερα
180
κυρι
##ωρί
La
απέναντι
##εση
κτή
ανακοίν
Μιχα
βί
Υόρ
λειτουργία
εκπαι
ύψος
##ore
κρυ
επει
##λοβ
1986
Νικολ
τέτ
##αια
ημέρες
Εθνικό
##μπα
κύριο
##αστεί
Εί
άγνω
Σουη
##δεία
δήμος
##ιζόταν
”
##ωμένη
Δύ
##ιώτες
μέση
τέσσερα
ποδοσφαιριστ
μετάλλ
##φών
Δού
##ιέλ
##φέρονται
σχέσεις
##ock
Δικ
Σχολ
University
##ment
##σας
μετακ
Re
1982
επιχεί
##ρησης
δούκα
##κτες
αιτ
ενο
##ικοιν
θεωρία
φαιν
Υπάρχουν
##διών
Μέχ
περιπτώσεις
?
##ητές
ούτε
##σσες
αναζ
##ron
##τικού
έτη
1985
##υματ
##θεσε
Τούρκ
##μένως
διάδο
34
Γιου
##όπιν
##κτικά
“
##νύ
έλεγχο
πορεία
αποφάσισε
ομάδων
συγκεκριμένα
Εργ
##olog
##ρέψει
δράση
##ίωση
αμέσως
Βρα
##tern
##λανδ
i
δημόσ
δεσ
ορθ
##ρίζονται
Ορ
##ψουν
οποίας
δυ
##ειλε
##σκα
##αρχος
1981
εχθ
##τηκαν
Joh
##ερν
υφ
##τικών
Αποτελ
Αυστρα
Λού
πέρασε
##θέν
Τζέ
##άνονται
συνέχισε
##ριού
παρακολ
##άνοντας
πνευ
Κόμμα
επανά
παράλληλα
διευθυντ
παιχνίδι
##λάχιστον
##ft
##διού
ελληνικό
45
ταχύτη
##ost
##νηση
Πάτ
##λήθηκε
θέματα
##ult
νομού
##αγωγής
##υχε
επίθεση
Ελληνική
##rom
Φραν
συγκροτήματος
φο
##ούμενη
θαν
##όδους
##άστηκαν
##φαν
Ιαπ
Επιστ
##ear
επιρρο
1988
χαρακτήρα
##ημένη
##όχρονα
Συνο
κατηγορίας
Αυτοκρατορίας
##τικός
II
##μηση
##θήσει
εκλέ
##orld
σκορ
γρή
Fran
##ασμό
Απρί
εμφανίζεται
##γαν
##λοιπ
Ένας
Αγγλίας
συνθήκες
σοβ
μέσο
##ΟΚ
θερα
Επιπλέον
Μέχρι
επηρε
ύπαρ
##έκα
συνεργασία
##πόν
38
##ιδηρο
αφορά
φυλακ
##cl
##οτ
επιλογ
36
##πετ
Σταυ
##ικώς
##ick
Ιανουάριο
##στές
##αίνει
φίλ
Αθηνα
γυναικών
##οσιαλ
έπρεπε
##πεζ
ίσως
ιπ
καλλιτεχν
Βελ
συγγραφέας
αλλ
καταρ
##μένει
εμφάνιση
##ελε
ανακαλύ
##ach
179
1940
Σημ
Υπή
συγκέντ
##δίδ
##ρήσει
##ρώπης
##ίνας
Αμερική
ποταμού
βυζαντ
βρέθηκε
εαυτ
37
δείχν
Ρώμη
##ence
##ρικός
th
##ϊκού
##ργάνω
αναδεί
περιέχει
Ευρώπης
σκοτ
επεξ
Φίλιπ
απόφα
##ειτον
##land
##αλεί
ηθοποιός
##ισμών
Βορ
##ions
##πτά
Ανά
ακολουθ
##ωμένο
##λευθέρ
##θρα
σημαντικ
##λιά
1987
##δαφος
##ξουν
συλλογή
##βαλε
ζων
Γουλ
Νά
διαπ
χαμηλ
##λογο
##ωρο
αποτε
##γό
##ide
μέρη
επόμενο
εξαιτίας
##ερού
ενη
##άσκ
##υγε
1984
Ιούνιο
κυβέρνησης
όλους
Κωνσταντίνος
##ανελλήν
γλυ
τουλάχιστον
Ρε
φιλοσοφ
##πλα
Χαν
##ροσωπ
Οκτώβριο
##iss
##οντες
γραμμή
##εύθυνση
συλλόγου
διεκ
##ώθηκαν
##ήρυ
##κινο
##άι
ποσοστό
επίσημη
##ράτης
αγρο
αντίστοιχα
κόκ
Αγίας
κορυφή
ηλεκτρον
##έπ
μέθο
εφημερίδα
##ιστικά
Ph
Σεπτέμβριο
##αλία
εβδομά
αποσ
παντρεύτηκε
βρεταν
##ικίας
Νικόλα
τελευταίο
Μάιο
Τζον
επιφάνεια
προγρα
##γκοσμίου
εξελέγη
##εύουν
##υπη
##ισμοί
γραμματ
προσω
έτους
μύ
άνδρες
λεγ
##ιστικές
##ούτ
##ούτο
προγρά
συμβόλ
##λλει
Sch
##βου
Ανδρέ
##ότητά
##ήμα
ιστοσελίδα
ώρες
αιχ
γή
##πεδα
Τρί
σκλη
παραπάνω
Ed
##οσύ
##ηγό
κλασ
αποτέλεσε
##έλφ
αποτελέσματα
απορ
μελέτη
##μπι
##ιώτης
##ίς
αύξη
κάποιες
κόμη
##ντεο
εις
Όμως
Αλέξανδ
εκπομπ
γειτον
αδελφός
##ρευνη
βοηθ
##out
##λιν
##έθηκε
##τερο
προσπάθεια
#
αστυνομ
έργου
##τύ
αναφορ
##αρτο
κολ
##ρίζουν
έδαφος
##ατικό
θρόνο
Λουδοβ
##βεία
ναός
νεαρ
μουσικής
Καλα
αποτελεσ
##ϊν
##άλου
διαθέτει
ρωμα
1975
##έστερ
Χρυσ
βουν
##νησ
φτά
He
Πολιτείες
Κάρ
σημει
κράτους
##όντα
##ωρ
97
ευγεν
αντιμετώπ
Κάτω
μή
όργαν
##αθοσφαίρισης
ισπαν
Διοικητ
##σων
δημοκρατ
οποίους
τομέ
##ood
##ελά
Ιδ
οφεί
καθεστ
##ίνημα
##ly
41
Επανά
##πεί
Όπως
##έρο
##κτυο
εξέλι
μελετ
Αμ
Αλβαν
πρωταθλη
μπρο
υπήρχαν
αδελ
##αισ
αλλη
κόσμου
άνοι
Άγιος
δήμου
Μάρτιο
Ιούλιο
κάστρο
##per
περιοδικό
##εύματα
δημοσιο
σπουδές
Δήμο
αντίθεση
##λεια
Τέ
νησιού
επεξεργ
x
##λντ
μεσ
γκ
επιπ
Μιχαήλ
εκδόσεις
##νουν
Αγγλία
επιθυ
κλει
κη
##bert
ρωσ
Ελληνικής
επαρχίας
κύρια
1950
υπουργ
ακολούθησε
##σσεται
##γραφές
##oun
επιλ
συμβολ
##ight
μέρες
θετ
τερματ
Κοινοβ
συστήματος
##ιάζει
Κέρ
κομμάτι
τραυματ
Αγία
ασθεν
##ρίες
##στών
Αύγουστο
δίνει
##ωσ
συμμα
##ιβάλ
##ράτη
ελληνικής
Σμ
##ροσώπ
Μακεδονίας
##φέρον
Σικ
##ρκο
Ηνωμένες
υπόλοιπ
##ασαν
Παναθηνα
βιβλία
39
##ιδα
1979
org
απλ
γυμ
##άρα
δυσ
αεροσκ
καθηγητής
Φραγκ
συμμετείχαν
ανάγ
Mus
βρά
αντιμετωπ
σχολείο
##ιάστηκε
##όλα
Ντέ
##αρχία
##εράστ
ιδιωτ
στρατού
##ικου
Τελικά
συναντ
##ign
τάφ
Γι
γλώσσες
##χους
ομίλ
##αδ
Αθήνας
ξεκιν
περιορισ
ανατ
##φρα
##άρχης
υποβιβ
υιο
##ξου
##φοί
Πρά
Φρει
##ρωσης
ερευνη
έξω
ζωνταν
##cy
##λί
Σοφ
μαρ
1978
Αμπ
##μόρ
la
##ιτελ
##ite
τρίτο
at
##εστιβάλ
Γουλιέλ
φυλ
τεράστ
Φρειδερ
Αθλη
##δηλώ
##λωσσ
Αντί
##έπειτα
προεδ
Δεκέμβριο
##80
##γι
1983
##ράφηκε
κινητή
περιλαμβάνουν
διαι
##ασσ
##ρισμα
42
Πρόεδρος
ch
Οίκο
απει
σημερινή
##ερχ
σου
Λέ
##άλης
τυπ
##τογαλ
γκολ
##νίας
##κων
##νος
πλαν
##ιρ
γενικά
##μικά
πηγή
Κανα
τεχνολογ
Νοέμβριο
τέκ
##θεσης
απόφαση
όλοι
Λυ
προσε
ίδιου
Γιαν
##ex
Ντε
##old
##ύπτ
1821
Ματ
##au
1976
κόρης
##όμενες
Απρίλιο
##όνου
διάση
##ae
απόλυτ
ενδιαφέρον
##βεβ
##ιμη
1944
Ποδοσφ
##άρων
χαλ
Γεωργίου
διατα
by
j
πυκ
##ολές
απώ
Ενώ
##amp
##ργάνωσης
y
πραγματο
##εδρο
ar
1967
ενσω
Βόρεια
τραγου
αφιερ
κινηματογράφ
Παράλληλα
##δυτικά
Λονδίνο
##άζονται
μεγάλα
παίρ
γη
εστ
Παντ
λατιν
Τρι
##αλαμβ
πλοία
##ρέτησε
##ans
##πια
##ιων
επτά
##ουργκ
υποχρε
κατηγορίες
τίτλος
Εκτός
##ρθε
Λίγ
γερ
Ιστορ
##ειοψηφ
παγ
Ρωσία
δισ
μέρα
προστατ
ορίζεται
##μπά
##άμεων
χωριά
##ίκες
##πων
τοπική
αυτοκράτορα
μεθ
##ουσίας
έρευνα
##νού
##υτικού
απεικον
μετέπειτα
Πελο
##αλε
σχήμα
άνθρωποι
Παγκοσμίου
καθο
ειδικά
πολιορκ
##βετ
##ήτησε
επόμεν
παντρε
##έρω
υδ
Είχε
δυνατότητα
αδερ
##όρων
διαβ
δημοσί
Σαλ
##σμός
θητε
John
έμεινε
##οιτη
πτώ
διακρί
##φραση
1912
Αλεξάνδ
##συ
##ίκησε
Τότε
Απε
δώ
χρησιμοποιεί
##υρα
εγ
λά
1973
Λιγκ
βλέ
επέτ
πω
##ρχονται
Αίγ
##θέτης
##ett
##raph
##pt
τέχνης
ανθρώπους
αερ
##δικού
Ει
άποψη
διαδέχθηκε
γεννη
300
##είωσε
##port
##ιφ
ατόμ
1977
ανεξαρτη
##θου
εδάφη
επεισό
ανακάλυ
##ικόν
Ντα
χιλιο
##30
##ίνονται
στερ
έννοια
μαρτ
##BC
Φερ
##φύγ
Met
χρηματ
Εκκλησία
##ουντ
ed
##10
1969
παρουσιάζει
##ics
##ζο
##aw
##ήμη
ομο
Wh
διοργάνωση
ελευθερ
τομ
##ιστάν
Be
##edia
Κιν
ραδιο
1971
λή
##ληση
##ace
##θαλ
κόμματος
φρά
χρω
ήττα
είδους
δήλωσε
παρακάτω
##σκαρ
βόρ
τρέ
##ιτεχν
##ong
##ωτή
Ουγ
ανακοιν
τροχ
##les
θάνατό
##οστ
επα
υποστήριξη
1945
##άγματος
##στες
##άρχη
##ρυν
##εύθηκε
Tim
ακολουθεί
οικονομική
νησιά
##ιπα
λιγότερο
εντάχθηκε
εκατ
##ύλα
επαγγελματ
##εύσει
τελική
Gu
θεραπε
##στιτ
Vol
##ατική
##λια
σύνθεση
##ρόσω
##άλει
εαυτό
Αγώνες
μάζ
##αστήριο
διοίκηση
##ευε
44
ώρα
47
Οικονομ
δημιούργησε
ηχο
1920
##ubl
##σοκο
Θέ
##ροί
άρχισαν
Λόγ
##ανατολικά
##ιάδες
##μαρ
##tm
##πας
παίκ
έπαιξε
##έφερε
Αρχικά
χρησιμοποιήθηκε
βρε
Par
πρωτότ
##υτικές
φό
ναό
δικαί
στη
Μέγ
οκτ
Μπρά
##ολογική
πολλών
ξεχωριστ
θέατρο
##ous
Κύπρο
##μια
Ιταλίας
##κόρ
##μπουργκ
αστερο
προσαρ
συνη
διατή
1964
πήγε
le
υλικό
διαλύ
εύκολ
έργων
γρήγο
μεταλλ
ελληνικά
##ors
κέντ
κίνηση
θερμοκρασία
υποψηφ
##ΑΣ
##ποίησης
συμφωνία
##βηγ
προκάλε
Σικελ
πραγματικότητα
Gr
έφερε
σημαντικές
##μαντ
1968
ήρθε
World
τελετ
φιλοξεν
επίσημο
##σφαι
##έγερση
##ver
Πολλ
τεί
Εφ
διαθέ
ελέγχ
λόγους
##ιδών
καταν
##ix
##όρι
παρελ
εφαρμογή
Μαλ
λειτουργεί
##ξεων
1972
τώρα
##ριστεί
Λευκ
εκδοχή
##νεύ
##άνιο
##θήματα
##ητική
##βλημα
##αλος
##que
##αγων
Αχ
##ούθησαν
επικοιν
προγραμματ
κτη
##πουλου
αστρον
ταυτόχρονα
##ηθούν
σύλλογος
Γαλ
Εβρα
##υπτ
##βιτς
αναφερ
##ΐας
##ταξη
##όφων
πίνακα
Ορθ
##ium
##ιεπ
Σκωτ
ανεπ
προϋ
θάλασσα
έχασε
1941
Άλλ
##γράφος
##ins
120
##ζι
##θήκης
##τήσεις
##ρισμός
##ξικό
πάρει
οργάνωση
φασ
##χτηκε
1930
ορειν
αγωνίζεται
ουσια
Dis
πλειοψηφ
Σελ
Βραβ
δόθηκε
##iam
##έλλου
##rid
δίσκο
##ντου
εικόνα
δουλ
γλωσσ
##θνο
Θεω
##ρηθεί
Δήμος
εορ
τομέα
##στολ
κατέλαβε
ψευ
##ειδών
αρχηγός
γεωργ
αποτελούσε
Ge
κυκλοφορία
συνε
στή
History
##ρωμα
##έρων
##μπεργκ
στόχο
##ουκ
αναφέρονται
αναφορά
ίδρυση
βασιλε
αδελφό
Ανακτήθηκε
##τροφ
περισσότεροι
##λλου
ΦΕΚ
##μπούτο
παρατ
##κεντ
λατ
επεκτ
Ro
ΕΠ
Γυμ
##νταγμα
##δεικνύ
htm
υπουργός
ανάλογα
μοντέλο
κοσ
παιδί
##λεπ
##ινών
Χρη
λι
νικητ
σημεία
εκπαιδε
##pr
φέρει
48
##ντερ
##ποδ
συναυλ
ζητ
##μβούργ
έδρας
εγκαταλεί
Col
πλαίσιο
##μόρφ
Λιβ
νερού
ντεμπούτο
##uk
υπέγραψε
Βασιλείου
en
αυτοί
Σού
Μεγάλη
ζευ
περιφέρεια
##ουτ
εργάστηκε
βι
##ητικά
43
##ρησαν
εμπει
δεύτερος
Ad
##όνια
##ροφο
Σι
τύπος
Παι
##στρα
ξύ
##ατος
μορφές
##enn
εσωτερικό
άντ
55
##θμι
Στέφ
γεγονότα
ενισ
##ληξε
Θεο
Καλλικ
Γερ
χρώμα
σύγχρον
Κοντ
έζ
εικο
Γιώργος
ανακοίνωσε
Ελέ
1961
##σκευή
δέκα
Άγγ
λεπτά
##ons
##ζερ
απαρα
παρελθ
μοι
##ολα
ανθρω
##υτικών
Σουλ
52
Ex
##κριση
συμβόλαιο
Κού
γύρο
είσο
1963
συστήματα
Αερο
##δειξη
χρει
μά
σύνορα
Συγ
κράτη
σταδ
ανήκε
##υμφεύτηκε
El
150
Κρι
##ήγαγ
Απόλλ
##ημένο
##ίτα
##γορ
ανι
##ίστρια
##ox
σύντομα
Λά
ποσ
παρο
##κατ
##ϊκός
Ma
έναρ
αποστολή
##φέρεται
##che
έγκ
ρεκόρ
Μακεδονία
κατανο
##λεί
Οδ
##λληνο
Γρη
Ιρ
διαδο
##one
ποί
κάνουν
χρονικό
##orm
αισθη
##ότερους
##πεια
##λανδία
πρώτου
##yn
μερικά
##ύλου
γυ
##ροφής
εκείνο
νέων
Οργαν
δικαίωμα
##ean
ιδέα
καταγωγή
##πους
ίδρυσε
##λες
βρή
##ετα
##χοι
εκπαίδευση
σιδηρο
πρόβλημα
##άτο
κιθ
αγορά
Ύ
##ρώσει
Αυτοκρατορία
##οκρατ
απαραίτη
##ξία
ακριβώς
Ολλανδ
επιπλέον
Φεβρουάριο
χρόνου
Μόσ
επιχειρη
Βερολ
##ύνα
Man
αγγ
στοιχείο
##σιν
νίκες
##40
οχυ
75
επανε
##σματα
ψηφο
Ισπανία
##ραμ
Επιτροπής
##γραμ
μέγ
αρνη
εξακ
CE
επιβεβ
##ina
στρατιώτες
##μακ
##όνους
Ιδρύ
##άνος
##μιλ
εμβ
##pl
##ame
εκστρατεία
##ert
##άρτηση
##ανία
##ματικές
διετέλεσε
Υπη
Ασία
σημασία
##ford
Πασ
Ειδ
Γη
αύξηση
μετονομά
>
Κρο
Κυπέλλου
##ρως
##etri
λεπτ
Περί
##ιστικού
τριών
φαντα
κορυφ
μικρά
##ews
προσπάθ
δεδομένων
συνάντ
##μματος
φοιτη
διευθυντής
κατόπιν
αιών
ύπαρξη
##χό
##oci
##άντια
##ωμάτων
Ιπ
διαφορετικές
##δοσης
1965
εξέλιξη
##ΚΕ
Μεσο
Πρωταθλή
ασκ
Πάρ
ζήτη
##έδωσε
Υπήρξε
διορίστηκε
άγ
βάρος
σχέδια
γυναικε
μυστ
αναπαρα
ύστερα
1966
παραμένει
εμφανίστηκε
Διά
##μορ
Θρά
αρχαί
Δημητ
άμε
πρόσωπο
Εκκλησίας
##ανν
##ειδής
##νονταν
##ντι
δρόμο
προσωριν
καθημερ
##ινός
pro
ονόματα
σύζυγος
φον
ηχ
εταιρείας
ολοκληρω
##αίου
Τσε
##ματικών
##σίου
##ρίδα
##κτησαν
##θύν
##ρήνη
αποδεί
ανάγκ
οικογεν
Πέρ
εμφανίσεις
##σύ
##αλο
άνοδο
ΣΤ
##δοκ
Ινστιτ
Βιβλιο
Κερ
##φόρων
αρχική
γρήγορα
##λησε
Όσκαρ
##ώνοντας
##ελήφ
##δόσεις
αντα
κοινοβ
49
αναδείχθηκε
καμπ
##κτά
##ρίσει
έδει
κοινότητας
ητ
ιστορίας
46
χερ
Ρουμαν
προσκ
Πέθανε
##αται
##νεται
αλλαγή
επαναστ
υπηρεσίες
##φθεί
μικρο
##κοσ
κώ
ζήτησε
##ash
πρωθυπουργ
##70
ακόλου
##ώσεων
πρωταθλήματα
Σέρ
Αλέξανδρος
##γκου
πίστ
μπροστά
μεγαλύτερος
##βέρ
όρους
##άλια
Art
Αξ
##γραφα
καλά
##ius
##ολογικό
Άγιο
ευρύτερ
Πρέ
μαζ
1946
##ήσου
στρατιωτική
καταγωγής
πρώτης
περίοδος
Rec
ανώτερ
##πι
##κηρύ
πόντ
##δίων
Κρά
κινηματογραφ
στίχ
μπορούσαν
ενέργεια
διασ
πεδίο
##αινε
επέκ
##ρώντας
Αφρική
λιμάνι
ανταγων
χαρακτηριστικό
des
περιβάλλον
##κραν
βγ
##ματικός
επικρατ
σεν
Πριν
ορισμένες
##όσφαι
συνει
γονείς
##μιν
##βαλ
##ροντ
Πειραιά
εξωτερικό
##μπελ
##υλο
##ειναν
##ητικό
Ασ
##διν
ρά
εκτέλε
έναντι
δομή
Συμβούλιο
οκτώ
δικαιώματα
##ριχ
ιδε
##εζ
φρού
##ρεσ
έκαναν
##τήθηκε
επιστροφή
Αβ
##φοράς
##ωκ
##amb
##λυση
##χίας
##άφους
##αρκ
Αρμεν
Or
φί
φαρ
συζύγου
οπλ
Βά
##κεν
51
##βλε
Is
##λεϊ
##πόλε
χέρια
δολάρια
γνωστά
Σπούδασε
##δημα
προηγούμεν
##κεκρι
Καλλικράτης
τύπο
##ιστούν
Πρόκειται
καιρό
##ιμος
πρωθυπουργός
##στας
Ρωσ
Κρήτης
θύ
Νορβηγ
ιστορικό
##ale
##ισσας
Ουγγαρ
κεντρική
##μικής
προο
Έπειτα
65
##ρεύει
##orn
##ίσκ
##βολές
Europ
All
νομο
Τέλος
##ικίες
υπόθεση
Ηρακλ
χειρο
##άδες
γνώρισε
Χατζ
σοβαρ
##att
συστη
προστασία
διότι
διαχω
Μεσση
##ision
Αιγύπτ
ποδοσφαιριστής
##αγγ
##οντος
Κυβέρνη
σταθμός
##ail
χώρος
Κόμματος
##int
##άλλον
μεγάλου
##ley
##γραφο
##γραφικό
##ισβ
Εντ
Εγκ
178
ποταμό
συμφων
γλώσσας
Ελβετ
Ιωανν
υποδο
καθιερ
κόλ
απελευθέρ
νέες
##ιανός
##ήμης
##ograph
##νι
##γείας
##24
##όνες
γιν
##πτική
κανείς
αντικείμενο
##ai
σερ
Ξεκ
προσδιο
Καποδ
σύνδε
##eved
##ύρου
Car
χάρη
1928
κτίριο
Πανελλήν
ονομάστηκε
##αλίας
Άννα
##τοι
εκφρά
προπονητής
μετανάστ
εντοπ
##γραφίες
Κον
Συμμετ
πολιτικής
διαφορά
νέος
έλλει
53
##πουλο
ευκαι
εδώ
##πλά
We
Βιέν
χρώματα
1939
πλειοψηφία
αίθ
δικό
εξοπλ
σκηνή
ιδρυτ
δώσει
##ονίας
δική
γραμμές
##ίωμα
βαθμούς
##ατών
##etrieved
σώματος
ιν
64
an
πυρή
##ξή
ένωση
αποδε
Κάρολος
##εμα
Χω
400
##αίρεση
συγγεν
Πορτογαλ
αντιστοι
##όρειας
ελληνικού
##λάκ
Χάρ
τερμάτισε
Intern
##μπλ
εξυπη
##νων
##NA
##πολέ
έπε
ταχύτητα
τέκνα
##μονή
Κάθε
##σιμ
##σημο
Μεταξύ
##ίκα
##πορ
1943
Μαυρο
Νίκος
δυνάμεων
Καπ
Κλ
τελευταίος
##υρό
##ίβου
έζησε
εκδηλώ
##αρδ
1958
είπε
##ward
##άφος
ταξιδ
##ντον
χρησιμοποιώντας
Cr
##έτες
##πασε
σχολή
Τμή
Τουρ
Καθώς
Λο
##λάβει
προσπάθησε
Ντέιβ
μιλ
κερδίσει
δίπλα
άνω
Λόγω
##ask
##ney
And
War
τυχ
##ματικής
##ισμένος
επιχειρήσεις
μήνα
επιρροή
08
##ωδία
##χώρηση
Λι
οπα
πεί
##ιολογ
απευ
μεγάλης
Νότια
Ιου
επανάσταση
##itt
Μία
πλαίσια
##δυν
εκμετ
αδελφή
##σους
09
κομμάτια
συγκεκριμένη
στάδιο
επίσκο
##αλύφθηκε
Γκα
σύγχρονη
##ιστά
##μησε
σκηνοθεσία
##αγή
##ωρος
επιλογή
##αιων
υπηρεσία
##ποιήθηκε
##eth
αλλαγές
δευτερ
Κρί
##ρισμού
Μάχ
##μας
1962
επικρά
έστειλε
πρόταση
εξαιρετικά
Τρά
ετή
##ράσεις
##ιμή
Μαγ
ήθε
ορυ
εξετ
ανοιχ
##βων
Bar
απλά
ανθρώπων
πραγματοποίησε
##χρον
Ζαν
Ρωσίας
ατο
##ώδη
##βίωσε
1947
αποσπ
Εύ
κλπ
##ald
York
πάντ
αγωνιστική
μάρ
##ition
04
νύχ
##ys
συνδε
ενσωματ
δεδομένα
Ομά
54
##λεται
##σιμη
1918
ναού
εκκλησια
Tr
Γιάννης
##ίνησαν
ανάλυ
καθαρ
Μητροπολ
##μικού
Μπαρ
μοναδικό
επισκέ
##ολής
μελών
χρησιμοποιούν
##ρημα
αραβ
##ίκησης
καλύτερη
##νησε
τέχνη
αμ
παρελθόν
συγκεκριμένο
##μπε
Αρχαι
Επιτροπή
##ros
##καθ
84
as
δημόσια
κατευ
τσ
Καζ
νόμο
##λογος
Νικόλαος
##στον
στρατός
On
μήκους
ξη
##δεια
##πούς
Ρού
ομώνυ
56
##άει
##ican
##ασμα
##έλου
##βία
σύγκρου
1959
κοιλά
Συμβουλίου
85
##νερ
##έλευση
##ολόγος
γέφ
##ίλιαμ
##υκλο
##άσματα
εργαζ
ηγεσία
προκάλεσε
Έχ
κάποιος
αποκλειστικά
μάλλον
ρίζ
##κτικό
καθεστώς
##ενς
Αττικής
##ρν
##ώματος
εξελί
##φάλ
ομοσπον
πύργ
μακρι
##μίας
Μπε
##έτης
1936
1948
σκε
##βάν
##γκοσμί
##υπτο
##ise
λεπτο
Αυτοκράτο
συνοδ
ρεύ
αντικείμενα
1956
##21
##ings
##χά
χρησιμοποιηθεί
Μη
##άτια
Will
Μονα
Ομοσπονδίας
παπ
Λονδίνου
##γκοσμίως
ενάντια
##ιζαν
##κοί
αυτοκίνη
εξακολ
πλοίο
##εύσεις
φρου
λάβει
σχεδιά
βασίλειο
07
βίντεο
##μμά
—
Fr
Μονή
##κοτ
##λευσης
κομητ
##ώνονται
δραστηριο
διανο
##έρες
##ίμων
λίμνη
##ριστικά
##iel
προώ
συμμετάσ
γαλλικά
απάντ
δει
Βε
##ιόν
Ρέ
οξύ
##ρήματα
περιφερε
Ού
##νησο
Χαρα
συνέπεια
57
συγκρού
σπούδασε
##sk
οικογένειες
##γραφίας
Κωνσταντίνου
##άσουν
1922
Γυναι
κατάλλη
##co
##ism
θυ
##ουλος
μοναχ
μετάλλιο
ολόκληρη
##ρξαν
ξεκινά
Ομοσπονδία
Τρα
εντυπ
##ρόφ
##ομην
Stud
Έγ
μικρές
Σύστημα
αεροπο
##σιμα
κύκ
ήθελε
ήρω
##ισμένα
εργασίες
συνηθ
##ild
θητεία
1935
Μιλ
Τεχν
##yl
##ρότ
##πούλου
##γκοσλαβ
1955
καμία
##ere
##rist
έντα
κοινή
μεγάλος
##ληρω
Άρη
σκέ
προσέγ
Ερρίκος
κίνημα
εάν
Ισρα
έδρες
παιχνίδια
Ισπανίας
καταργ
##μιλο
κομμουν
γράφει
##ήγαγε
ολοκληρώθηκε
Βί
κλα
έναρξη
##rig
πρίγκιπα
##μέτρων
μπά
Γκου
διεθνής
Em
Har
μαχ
63
πωλή
πολιτικό
##ίση
Ηνωμένο
σα
##ίζονταν
##θων
στέ
χρυσό
Καναδά
##ιστικών
δίκτυο
βρεθεί
Ηνωμένων
αποτυχ
πράξη
ελάχιστ
έλ
##ner
λέει
αρνήθηκε
ζευγ
σημερινό
##clop
##ιώτη
##ριου
##όσο
Αμερικής
Χαλκ
Ανακ
μεταφορά
Μπέ
υπηρέτησε
##ung
Αλλά
##ελλην
προτά
μυθιστόρη
διαμά
Μοντ
παιχνιδ
Δύο
##ci
##ούμενος
##ιστο
εργασία
σενάριο
Fl
Μολ
ελαφ
υποψηφι
εργοστ
Ελληνικού
58
##λεον
##ήτηση
διαστ
99
##ιπας
Retrieved
##άτρου
##ουσες
##τοί
##κοπή
καθορ
##νηγ
##ames
##ράκ
##αισθη
Cent
Χρή
ανήκουν
BBC
##φη
##άδ
##έρμα
Βιο
##ουσας
προσο
Διον
##όμενοι
##αρια
πρόκειται
Ag
επανα
##ίδιο
άνθρα
1949
θηλυ
δραστηριότητα
##δρου
στρατεύματα
##sp
θαλ
Βραβείο
##πή
##έτο
##ίλης
from
Βαλκαν
##ράπη
αέρα
ξεκίνησαν
συμμετοχές
τάξη
Άνω
άτομο
μεγαλύτερες
Φιλο
προσπάθειες
Φυσ
##πόλεως
It
##ρούσαν
σταθμό
ανε
δηλώ
περιλαμβάνονται
##pp
κατακτήσει
##ott
Βραζ
κριτική
έκθεση
##ρόπολη
φύση
χρονιάς
διεθνή
διαφορετικά
##15
γιορ
όρια
δείχνει
05
Αλφ
1951
οφείλεται
καθολ
πέτυχε
εγκατέλει
##ata
ζώα
πιθανώς
##υτεί
Βικ
##ματο
εξαφ
##έρου
μπα
##cyclop
επαφή
Τουρκία
##άζουν
##στικής
59
1929
εγκαταστάθηκε
πιά
Βουλή
Νίκ
Κέρκυ
παλιά
πριγκ
σύζυγο
Amer
##φαί
Τά
##ζουν
##γιά
##ληθ
##ματι
θεώ
##ότατα
καθήκ
##ίσματος
φυσική
Θάλα
https
##ποιείται
##αία
Πατρι
δούκας
αμυ
πρεσ
Κω
##αστάθηκε
αριθμού
##ελέγη
##ικατ
##ουθεί
φυσικά
##μεία
χαρακτηρίζεται
πτη
Μαντ
ανοικ
##ρέφεται
προϊόντα
##sh
άλλαξε
πεζ
Αφού
αρχίζει
ημερομην
Ολυμπιακούς
##12
##άδα
##ound
εφαρμό
επόμενα
##δρόμιο
καλλιτέχνες
##υκ
95
καταστροφή
##βέ
##ιμάται
κατάκτηση
πέμπ
γίνονται
νεο
Τύ
Υπουργείο
##ark
##χες
##αναν
Κέντρο
Εθνικού
##ικος
αιχμα
σχεδία
##γραφικής
##ρεψαν
##gl
##ταξε
ξέν
##hel
##αρν
Θεόδ
##χωρήσει
μακριά
ομα
##ίσταται
Καρλ
##ρεσε
προκρι
##ολογικά
is
Θη
##τήριο
αρσεν
τί
μουσουλ
Ακαδημία
κύκλο
##τς
##τολεμα
Ευρωπαϊκό
προετ
Σχολής
συνδυασμό
διδασκ
φυσικό
##ύλιο
##ημάτων
ασθέν
87
66
αποκτήσει
πραγματικό
φως
##πολίτ
επιστρέψει
πεντ
δυσκολ
##hem
αξίωμα
κεντρικό
##ημών
Φρά
##ember
φαινόμενο
κλεί
ημιτελ
τροπο
##ίτσα
Αχα
##ρήσεων
##ile
##βατ
λέγεται
κληρονομ
Ορθόδο
##στης
εθνικής
εισβολή
αντίδραση
εξασφαλ
κείμενο
Ac
μετακόμ
ΕΣ
Comp
πτώση
γήπεδο
##υχή
##νήμη
ενέργειας
λίγα
σημαία
Ab
##έλαβε
Her
ποδ
1938
1957
ζώνη
δισκο
βαρύ
##ιω
##ινές
μό
αγα
Ουκραν
Δημήτριος
Rev
Πλά
##ητό
δουλειά
σταδιακά
διάμετ
##λωτ
##σθ
Εκε
Μαδ
δικαστ
χώρου
1927
ιστορική
##ίως
el
ΑΕΚ
Μό
Ισα
νοσοκο
##ητών
ουσιαστικά
##τοκ
Record
ανασκα
χιλιάδες
αντιπροσωπ
δραστηριότητες
##amm
ασφαλ
τεχνική
##ιανού
Ελισ
κεφαλ
αξιό
κυρία
δεκαετίες
πανεπιστήμιο
##19
##its
ενισχύ
οργάν
##λοκ
##άβετ
νευ
Ανατολικής
μεταφέρθηκε
επίδραση
##στού
##όσφαιρο
72
##iew
αρχαίας
παγκοσμίως
κορυφα
ορο
ατόμων
βασίζεται
##row
Αίγυπτο
οικονομικά
##18
with
##ωπο
Γιό
1952
67
κόμης
##συν
ανθρώπιν
06
Αιτ
Απεβίωσε
##φέρουν
διατά
68
##άνε
##πουν
αρχηγ
διαγωνισμό
Βρετανία
##δόθηκε
1953
νομό
##bo
μεταρ
##δείας
##ανγκ
μηδ
##πέδου
##πειρω
##λαμβάνει
Μπεν
κώδικ
διακρι
##16
απομακ
ολ
Θεοδ
αγά
λογαρια
##μενος
οποια
74
Pa
##ations
σύμβολο
##αθμ
62
##χώρι
καλλιεργ
##ull
Που
κατοχή
διαχεί
##θρο
##ίσχυ
στεγ
##κτικές
##ιστη
πτυχ
καλλιέργ
Qu
Δα
pr
Δρά
προβλη
προσωπικό
Νό
παίκτης
##νια
##λίας
Μορ
χωρητ
υπόλοιπο
Αυτός
FI
πολε
εργασίας
τοποθεσία
γεωμετ
##ρασιτεχν
αποκλεί
Κατηγορία
Air
Καθολ
##ύλη
##ρίζοντας
Γιουγκοσλαβ
88
##θετο
1954
ερμηνεία
ον
δορ
Τζέιμ
Πτολεμα
οθωμαν
γιου
Πρωτο
##φές
Θεσσ
σύμπ
Ιαπωνία
##own
Σί
πτή
οικισμό
βρίσκονταν
Dav
Δο
##θους
Λογ
Τζό
διαμερ
##ve
##δους
Μαζί
##ίνοντας
Εμ
##ελήφθη
εκτί
Κίνα
αντισ
Τε
Πρωταθλη
απογ
Ρόμπερτ
##ουβ
μετονομάστηκε
Λί
δαν
##θέτησε
Μπού
μισό
δύσκολ
##http
πρώτοι
βραβεία
Εταιρείας
Πέ
1926
160
##ούντιο
μέθοδο
σύζυγό
##ξα
##θετε
κυριαρχία
Μω
##ΚΑ
##ιός
html
επιστρέφ
##πολιτ
1919
διεξήχθησαν
συνταγ
Ελισάβετ
##ύγει
Μάχη
τμήματος
πλήρη
εξυπηρετ
διαμορφ
##αιτήθηκε
δακτ
##γος
βρο
ενθ
##υγες
##γραφής
μεγάλων
##χέ
πλήθος
##δρομή
διοικητής
##λοντ
Έγινε
συναρ
άνθρακα
απαγορ
##SA
##άζοντας
Υόρκη
pl
##στεία
πίνακας
Φιν
νίκησε
##lect
Εδου
μάχης
απόλυτο
##BA
τιμές
μονάδες
δίσκος
##ρήνης
Αραβ
βουλ
αγώνων
##ϊκά
Κόλ
##ικλ
##oman
τύπ
##ρντ
υπέστη
##μενε
Σοσιαλ
##άσος
##ήμες
##άλας
##ίρεση
Εδουάρ
άνθρωπος
κατασκευής
##λας
βόρειο
επίπεδα
απελευθερ
πλήρως
οπ
##όμου
πολιτικές
ονομαζόταν
ποδόσφαιρο
μυθιστόρημα
177
μόνος
##ρευση
Μπερ
Υόρκης
σπουδα
αρχιτέκ
##ωμά
ομώνυμο
μνήμη
##ome
03
βρέθηκαν
##έχνης
ιδιαίτερη
##ητο
##αρίας
73
##αιτέρω
##inc
##άκια
1923
κυτ
κοινού
Τι
καταγράφ
‘
##μονες
χιλιομέτρων
συνδέεται
##ύκ
Βοσ
ιδιοκτη
##βας
##ιάδα
##σκετ
μοναστήρι
Επανάσταση
τοιχ
πίεση
##ριστικό
παλαιότερα
Φιλίπ
##17
##αίσ
##μπέρ
περιοδεία
##ινούς
##σημεί
##τάται
Encyclop
αναπτύχθηκε
Χιλ
Pol
No
Κρήτη
##τύου
Ελευθερ
αντίπα
μοναδική
##line
Ασίας
Ολυμπιακό
μυθολογία
##ενή
##όρθ
αποδο
κρύ
##δυνο
##ology
##φοίτησε
##are
παρέχει
##ρίθηκε
86
1924
χρόνων
χρησιμοποίησε
##ΟΣ
##παθ
σπίτια
πλατεία
Εταιρεία
γενν
##ίωνα
εμφανίζονται
##βηκε
Τσα
βλ
ένο
Αγων
γενική
τίτλους
Χό
σιδηροδρομ
1942
##κτό
βομβ
##καδημα
Στρατού
βρήκε
εντολή
αυξη
For
άνο
έλαβαν
Δημήτρης
Ελληνικό
##αλάσσ
Μαργαρ
##ίστας
Ρίτ
μαγνη
γαλλική
ευκαιρία
You
προσέγγ
γιατ
##uss
##ήφθηκε
υπήρξαν
κριτικές
##ίζα
##δρυ
Δω
ενν
κείμενα
##err
φτάσει
Καλύτερ
επιδρο
##ώσουν
##έσπασε
##ρώματα
##ουθ
96
##λεγχ
καταλαμβ
αναφορές
ασφάλε
οικονομία
λίγες
εκτελέ
ανεξαρτησία
δυτική
καλύτερα
##ρείες
°
##τατ
1933
πόδια
τετραγ
##αιρέ
εθνικό
ια
ηχογράφ
αιγ
##14
κοινωνία
εγχ
Ακαδημίας
Ξεκίνησε
##ξουαλ
περιγράφει
##oth
##θελ
προετοι
περιόδους
ενότητα
sing
##af
##ιλα
69
συντη
##ρεβ
##έστησε
Αυστρίας
1932
αγώνας
##άθ
##μώνα
έκτα
Κώστας
αποδίδ
##ρχή
Μεσσηνίας
σύγκρουση
υπόλοιπα
##κύ
##ροσω
πόλεμος
Αιγύπτου
Λουδοβίκος
Κασ
##ρίν
##σις
ἐ
Me
παρόμοια
ρή
κοινωνική
##ποτα
κύπελλο
πρώτους
##ini
Se
αρχαιότητα
##ague
μαθητές
γινόταν
##ler
Φο
Γιο
ακού
Τσι
κατοικού
82
διαπραγματ
άμεσα
παγκόσμια
International
αστεροειδής
μεσαιων
συστατ
ανακοινώθηκε
##ES
τέτοια
συγγραφείς
##πείρου
διαμέ
Γραμματ
εξέγερση
##ωτο
##εύονται
ξέ
βασικό
##υγή
φορτ
κεφάλι
λοι
δεξιά
αμφισβ
##rans
##βουλ
ανάπτυξης
εύκολα
##στικές
##ητά
1934
μόνη
οικογένειά
##αρχίας
##φά
##ταφ
επιτρέπει
Τζέιμς
ανακηρύ
θεωρούνται
Καθη
ομιλ
αμυντ
##σιες
##όραση
##ορική
Σμύρ
τάξης
ιστορικός
φά
κλή
##ατικά
Μπέρ
τέτοιο
Ιη
γερμανικά
μετε
στερε
Αυστραλία
Ox
παράγεται
##απλ
Gl
##νταμ
##πτεται
##ank
χέρι
έντονα
##όμηση
σσ
εκπρόσω
ασχολήθηκε
##σεκ
Sup
Στε
km
ατμό
##εμβ
##ount
##urg
Έδρα
περισσότερους
##ώνουν
λόγος
##ξι
1914
κερα
##ριώ
98
Όλα
Ποδοσφαι
di
Black
##σσονται
τοπικό
στούντιο
##ωμένος
•
##φέρειας
##πειρο
μονάδα
διαφόρων
προγράμματος
##θμιση
1913
1937
εκείνος
υποστηρικ
εφημερίδας
83
##θέντ
λο
##ίθεται
καλαθοσφαίρισης
Ινδία
##ΟΝ
είσοδο
πολίτες
bl
αθλή
αναλάβει
ΕΛ
##se
Ζω
Νή
##ίκων
##λικά
Τζάκ
αυτοκράτορας
02
Χόλ
καλή
συμπεριφορά
##σθηκε
##μβούργου
##άριθ
Μέσα
Χίτ
Φίλιππος
επίτ
θεραπεία
Ζώνης
συγγραφέα
##ool
Βούλ
<
απασ
Θα
Mag
άσκ
Κι
168
##ορά
Κρατ
έντονη
##έτη
Μάλιστα
χωρών
Ιδρύθηκε
sp
##ορικό
μεγαλύτερα
Χρησιμο
μικρότερο
πολέμ
οδηγεί
##ade
στοιχείων
78
89
##ru
Lond
σειρές
μαθήματα
##στείας
κή
κυνηγ
##βιο
συμμετάσχει
ποδοσφαιρική
##θείας
##nal
ακτινο
χαρακτήρες
##ριάς
##γεται
λίστα
Κατηγορίας
##δεκα
μητέρας
αναπαραγωγ
##ρευν
##ίτηση
##όρες
φωτός
Ινστιτούτο
##ωρη
πρόσβαση
περν
έρευν
κύριος
##φελ
Cor
##σέ
##ωτική
Ιερά
στατ
Ρώμης
εμπόριο
##βαλλ
Ηλιακό
μουσείο
γερμανική
εκτιμάται
##ότεροι
Ανακαλύφθηκε
επεν
πυκν
μαρτυ
##ωνύ
1917
Κέ
##ικες
77
Επο
κυβερνη
συμμετέχει
##df
υιοθετ
##ονία
σταδιο
επαρχίες
93
Λό
ακτές
Σημαντ
Play
Christ
παίκτες
μεσα
θεμελ
Επειδή
λη
##στρου
Bill
συσκευ
##ωτικό
διοργανώσεις
Γης
συνθήκη
επιχείρηση
##ρούνται
##ραφ
μελέτες
καπ
δίσκου
ευρέ
προκύ
Go
αναγκάστηκε
πτέρ
##δεις
##ρικαν
Καλι
Πολεμ
Μάλ
παίζει
μεταβλη
τουρ
περαιτέρω
Χου
##κερ
Βλα
αυστη
ανάλυση
##ΑΤ
διαν
##ετία
τόμος
##ien
μνημείο
79
130
συνεπ
##ιανό
νική
περιελά
##rim
##αντζ
##ώνται
Σάντ
##γραφεί
##στικών
##na
θανάτου
γλ
αποκαλύ
φωνή
Αποτελεί
##13
ex
##ιβασ
συγκεντρώ
στάση
Βόρειας
##πρα
Δυτική
##έθηκαν
##ife
κατατ
Φεστιβάλ
επιβεβαι
γαλα
76
μικρότερη
##πης
επιθετ
##ποντας
##κεκριμένα
ΑΕ
##όλων
ηλικίας
Σύνταγμα
ευθύ
Sm
##ευξη
μίας
εκλεγ
Κέντ
##ax
Μπά
κατασκευάστηκε
##ck
ΦΚ
Υπάρχει
τρά
ανατολική
ταξίδι
##δικός
Gen
υπηρετ
εξηγ
##χρω
επέκταση
αστρονόμο
αξία
βασίλισσα
Ser
συναντά
οποιαδήποτε
##υσσ
##έφυγε
Ind
##πεται
μπαρ
London
πλούσια
Ass
μεταγεν
un
1925
έμπ
οδό
λειτουργίας
145
άδεια
##ριακό
οικισμού
δημιουργήσει
1908
εναλλα
Μάντ
εκτετα
κατεύθυνση
##δοί
##ym
##μαρτ
πνεύ
art
Καλιφόρ
ονομάζονται
απέτ
##ari
Εμφ
στόχ
προω
Κοινότητα
κανένα
παραιτήθηκε
##τικούς
Δυτικής
##ena
ρου
##ίματος
##ατάσταση
προέκ
1931
όργανα
##ΟΥ
National
##ειος
ορατ
σταμά
William
##ance
Αντιπ
92
Er
Κιλ
Χρον
έπεσε
μείωση
##πτυχ
Πάντ
αρχικό
Τούρκους
επέ
Τζάκσον
σεξουαλ
ανάγκη
##ροβ
μεγέθ
πρωτε
##εύθυ
πού
μάχες
υποστήριξε
##ίσθηκε
##για
Αυτές
κωμ
καταφύγ
Πέτρος
διακοσ
καταλήγ
χρήματα
μετακόμισε
##asket
εβδομάδες
άφησε
ιδιότητες
ση
##φορο
Συγκεκριμένα
Πή
##ίτρι
##oph
Τερ
απελευθέρωση
Σπου
ro
ρί
ιστορικά
πιθανότατα
Χο
ακολούθησαν
##ater
προσφέρει
Med
Αυτά
##ειώνει
πιθανόν
προτ
Oxford
##ριζε
ενδε
ζουν
##έες
Te
Pet
Καβ
διοικητική
176
Ανατ
##γματος
##ούμενα
ακαδημα
προέρχονται
##FA
πειρα
υλο
ματ
##λώνει
##ανθ
τελευταίες
94
ανακατ
βεν
σοσιαλ
ικανότητα
##αγιά
Δανίας
απέκτησαν
Ίδρυ
βελτ
ποταμός
παραλλαγ
φήμη
##ιτζ
##ελώς
##ούρα
απου
##ces
##orth
πατρίδα
μοί
##11
αποχώρησε
##θέτουν
Ανδρέα
υποψήφιος
Ζα
διώ
Κυβερ
Καρόλου
##μισ
##ουκά
##ύρος
Κοζ
καρκ
Music
διάδοχος
##ριστική
##λάν
##ανού
Brit
μετάφραση
βό
μουσικό
ρύ
συνάρτηση
##υρος
ερεί
εγγον
Ιωαννίνων
αθλητές
ηλεκτρο
##τάν
##άγου
αντίτ
αρχιτεκτονική
##αχθεί
εκδόθηκε
εγκαταστάθηκαν
##ασίου
βασιλείας
Νικολάου
πολιορκία
Κύριας
διαδε
βλά
Πρωτ
έχουμε
##ικάν
μεσο
καταστροφ
##νουά
##πτες
συμβαίνει
πώς
μεγαλ
##ερς
Σαξ
##ημένα
τετρά
##νία
##ίνια
##ριζόταν
δέχτηκε
Σλοβ
προπονητή
παραστάσεις
γερμ
##ris
##πολε
##μήθηκε
Ισραήλ
1900
Records
##ara
##όντος
Bo
Ελληνο
Αφρικής
εκτέλεση
##νάσιο
##ρουργ
τυπο
##μπολ
Κολο
ζωγράφος
εγκαταστάσεις
Μίλ
γης
ευρέως
##ink
##ows
##ίκας
600
##εύοντας
ποιητής
Θερ
μεταφρά
Βουλγαρία
##άγγελ
Ολλαν
εκκλησίας
##ήριο
pdf
αναμετ
##βαρ
εξαρ
Εδ
##σερ
der
κυπέ
##ροφοριών
Σύλλογ
Έκ
νότιο
Πύργ
πρότεινε
Πιερ
φτάνει
πυροβολ
##ρόσ
##λλοντ
My
Υπηρε
κοινότητες
βρει
περιεχ
τετραγων
##ένιο
Ανατολική
ημερομηνία
Pe
υπάγεται
Ντο
απόδοση
γαλ
##λογική
διεθνείς
##άτης
Πολύ
Τεχνών
z
##άγει
##σουμε
σημείωσε
Παύ
Gro
##γραφικά
Στάδιο
##erm
αδύνα
##ρίνεται
μυθιστορ
##ωμένα
ακτή
στυλ
παίρνει
##νοκ
κάλυ
κανάλι
##σής
τρόπος
κυκλοφόρησαν
##λεσε
Βέλ
King
Γυμνα
συλλόγ
ΕΠΣ
διπλωματ
Αμερικανός
λογισ
Στέφαν
κέντρα
Λίγο
μπλε
##μιά
170
Πλατ
Ευρωπαϊκή
##ποίησαν
ποικιλία
##δρομο
διδακτ
νέας
θάλασσας
##ηκαν
##ετερ
Βολ
λευκό
Συντ
τραγουδιού
01
##θης
##χτ
col
μολ
##ασκευ
Περιο
εταιρία
##σοι
δασ
άκρο
θεωρεί
συνέβη
Χριστού
ανέφερε
##ael
θερμ
ξεπερ
##ase
##θενται
πράγμα
όργανο
##ήσεων
##σκεψη
Πόλε
##άτων
##ρουν
διεκδ
Νυμφεύτηκε
γα
##όσον
##στήριο
##στάσεων
χρονολογείται
Περσ
υπερασ
υδρογ
προϋπο
βουλευτικές
##ταξης
##αρία
Πελοπον
##ένας
ζητή
μετέ
Λευκω
απόψεις
##κομ
##τηθεί
Παρι
χώρους
##ζελ
##δυνα
ph
##ολογικές
πολιτικών
τηλεοπτική
Αεροπο
οικογενε
Γουλιέλμος
Αθ
επεισόδιο
##λάντ
Επι
κατακ
##ates
##ευαν
αιώνες
οικοδο
##πλη
##μονω
Δημοτικό
Πάτρα
Τουρκο
υπεύθυ
Ανδρέας
158
υλικά
Κλει
συνολικό
χειμώνα
λογαριασμό
Νη
Χέρ
ενια
##ιδή
##αντα
περιέχουν
τω
μπό
οπτ
αβ
κτι
##ιεπίσκο
Πολλοί
εξέδωσε
εταιρείες
##ρυγ
##αστα
##νησης
λαμβάνει
Κεφ
##σπα
Μπάρ
Αργεντ
##ino
##ασή
Πρίγκ
κατάρ
Εξωτερ
##ίλη
πρόεδρο
##ηφ
##βια
##χρο
Κλα
##ρώπου
##μμάτων
διάφορους
##όνιο
ζει
##ευσαν
Comm
##δότη
##ώπου
ουραν
ανάγκες
κυπέλλου
επιστημονική
##κτορ
Σερβίας
Τοπ
λιθ
γάμος
##ειτούργ
εκπομπή
Θεοτό
Λέσ
σκοτώθηκε
ηγεμό
θεωρη
σκοτώ
Αριστο
μελλοντ
##gr
Αυ
φοβ
##ολόγιο
Μπολ
##ωρίτερα
νό
##οδότη
κόκκινο
##ury
Jan
Βαυ
##ουσίες
Αλεξανδ
Πειραιώς
##δίδο
##ιτών
Ευρω
##ιώτ
##ήγηση
Βουλής
κάποιον
##ντος
γιους
Κινηματ
διαστημ
βοηθήσει
##άλο
##ότης
ΚΚΕ
μικρός
##τει
Co
##είνεται
εμπορική
μονή
περίφ
προγράμματα
##φορία
Πατρών
Φορ
λόφ
ιδέες
τιμήν
##αίνοντας
χλω
##άνο
ορισμένα
τουρκική
Κοινοβούλιο
##ij
##τταρα
Πατριαρχ
##fr
σουλ
πολιτικά
Διονύ
Σοβιετική
αναγνώριση
##μόρφωση
##ίστριας
##μάρ
##ιδας
εδα
Αστερο
Καλαθοσφαίρισης
εισαγωγή
##αλείας
εικονο
159
δημοσίευσε
175
Publ
εξορ
##σιου
Arch
Ευρωπαϊκής
##θασε
Καμπ
ευρώ
έκλει
##ίλι
##δικής
##λημα
##τούς
157
Στρά
μητροπολ
λεω
##ξεί
προπ
##ρευνας
Σέ
##γράψει
ίδιας
##ooks
Φλω
κτίρια
λοιπόν
σταματ
##ήρα
Αμβ
σκηνές
βιβλιοθήκη
δωρε
Δεύτερ
αριστερ
οδήγησαν
ανταλλ
ιδιοκτή
##όνος
ηχογραφ
δολοφονία
επιθέσεις
##ισης
##ball
Times
συνοικία
στρατηγός
ονόμα
##ωτά
##έφθηκε
##όμενων
Κυβέρνηση
Θέατρο
χτίστηκε
Ζακ
εντελώς
Ολυμπιακός
800
πρίγκιπας
##ούχος
δικηγό
du
απαντά
ατμόσφαι
αρχιτέκτο
##μιλος
σαφ
##ίνησης
κατηγο
πόντους
Μαξ
προσπαθ
μεγέθους
Γάλλος
off
##ότερων
##θημα
##κειτο
##τσα
Παρισιού
οικισμούς
χρήσης
Ηπείρου
συμμετέχουν
or
##θερο
##άσεων
βιομηχανία
##γή
ιππ
μάζα
Sport
ευχ
##λανδίας
##ιτσ
##ιάδης
μοιρά
Βιβλιοθήκη
##φορντ
Βιβλ
κρίση
ταξίδ
Ερρίκου
κεν
παραχω
παρουσίασε
##ποκ
##μένουν
Συνολικά
##φόρο
πια
##υρίων
##αρί
βάρ
##οσύνης
ερείπια
συνεχώς
Αστεροειδών
τηλεόραση
γεννημένος
σχολεία
##όλια
παιχνιδιού
##eph
Τούρκο
κατέλαβαν
οξυγ
Τζα
λύση
νύχτα
πόλεων
γράφτηκε
περιοχών
##ίσω
1921
Αρκα
ναυτ
κίνδυνο
γνωστές
##ridge
μπήκε
##φυλ
##άλους
ενδο
αίσ
Τόμα
##ειώνεται
παράσταση
εκπαίδευσης
συνεδ
Ευαγγελ
φιλοσοφία
αυτοκρατορίας
##CO
##ριό
Wal
Wind
βοήθησε
##ριακής
σπάνια
Bi
ριζ
σκόρ
##γκεν
Τορ
Βουργ
αστερ
δορυφ
ΕΡ
110
δίδ
κατοικ
τεράστια
ΠΑΣ
υψηλή
νή
##υβέρνη
αντικει
κρα
##ουλού
##τροφία
Όλ
Λουδοβίκου
Per
Σαντ
##ρόκειτο
εξασφάλ
Μαχ
παραγ
εξερ
##ΡΙ
##berg
##αίων
έφυγε
ουδ
Μαρίας
##γιο
ανώτ
άμεση
Πολιτειών
##άκωβ
##τεια
φτω
##έλθει
εδάφους
συμμά
##στηρίου
##ισή
##πημα
Βενετία
πλανήτη
##αιότητα
προώθηση
νερά
Αϊ
140
προκαλεί
##ετή
##lin
Λουκ
κυρίαρχ
ευρύτερη
εκλογή
προσέγγιση
be
εθε
αποσύρ
##ιλίας
υποστηρίζει
Mac
λέξεις
##II
τόπο
απεικόν
επιτροπή
ανιψ
ανέβηκε
##αλό
##έγιο
έλλειψη
μέθοδος
##stit
##άλων
##έμβαση
τέταρτη
διατηρεί
εγκατά
Δημητρίου
single
##θειας
Χαρακτη
νόμου
##κρατίας
##βάθ
γράμματα
διοικητικά
μοντέλα
Μαρκ
εκτελε
##τρα
κρέ
σύλλογο
άλλος
άνοιξε
##ήκαν
##χρόν
ανεβ
Ιάκωβ
πέρασμα
Αχαΐας
##όλη
τεκ
σχετική
wh
ροκ
σκότ
ζημ
Mich
##ικατερ
##ωδ
##sch
##ργκ
##οκος
εικόνες
φαι
δίνοντας
μεταναστ
Ακόμη
##τιν
##ρέου
Αραγ
##βύ
Αικατερ
##παίδεια
sh
##έλφια
##εγέρ
##υλίου
Κομμουν
##ωνυμ
Συμφ
1910
Rock
Mer
##πεζα
αγγλική
Res
Διετέλεσε
συμβούλιο
λί
##στιν
##ογράφου
πρότυπο
Γιού
##βολής
ύφος
περάσει
##ήρηση
δέντ
##σσάρων
Αντίθετα
##γερ
πρε
##ετε
Αμφ
Τμήμα
Disney
σοβιετ
Τραγ
υγείας
διαταρα
##pe
##ταρ
##ουμένως
βασική
Βουργουν
Περιφέρεια
Κατα
εκδηλώσεις
156
τσι
Κί
περιλά
πρωτοβουλ
παράγοντες
ήτ
διαίρεση
Mon
σφαί
News
ειδών
##anc
##μοιβ
164
πλάτος
##κεύ
CD
ευρήματα
πωλήσεις
αεροσκάφη
##ύχει
επικεντ
Πανελλήνιο
βορειοδυτικά
##inal
##μικές
Συνθήκη
Κεντρική
κατάληψη
##πέμπ
##χτεί
##εψε
##ουά
μέλλ
ολυμπ
όμιλο
##ενεργ
##igh
ιερό
##άγονται
ενίσχυ
##ιε
Ναπολέ
##ιστώντας
Κόκ
θρησκεία
Τόμας
κανόνες
σύμβουλος
Μέγα
Χίτλερ
κάνοντας
τουρνουά
Ne
##iction
Αναγέν
##μείνει
##χθηκαν
πίνακες
αυλή
φεστιβάλ
Χάρι
Κλε
Κόσ
##τοντας
##ρίστηκαν
πλευρές
επιγραφή
επιχειρηματ
ζεύγ
##μερινή
ηττήθηκε
##oss
126
δημό
ιδίως
Θεωρείται
βαλ
##κτα
Λατιν
Έλ
##ευμα
βέβ
Γραφ
εννέα
##ντάς
ειδική
γραμμής
del
φύλλα
##θησης
προβλέ
##μν
##ιάνα
Ελένη
Κροατ
θέσης
υψηλής
##τικ
υποτ
##ανδρέου
##umb
ac
Σο
χειρό
μετακιν
εξέ
εκτο
κληρον
##ique
γυρί
##vel
δράσης
Φραγκίσκ
##ιθέ
##άρτες
Μάικλ
Δικαι
πρεμι
##ille
όριο
εκλογών
παρουσιά
##ούμε
ανέπτυ
Ιατ
##σταϊν
τετρα
αντίτυπα
ακτινοβολ
169
βάθος
τούτου
εξουσίας
βουλγαρ
ξεκινήσει
##χης
##άνες
##βούργ
σερβ
πήραν
Χέν
##ετική
αγκ
Διεθνές
ελέγχου
επιτυχίες
Πηγ
Κάπο
διεύθυνση
χαρτο
άνθρωπο
##ναι
Rep
παράγει
δείχνουν
παρατηρούσε
##πτουν
##ρήθηκαν
ραδιοφων
αποτελούσαν
διοργάνωσης
στίχους
Βενετίας
##γίου
##ώνυμο
##oot
έρευνες
Φρειδερίκος
##δρομία
αντιδράσεις
##25
##σκόπ
διαμαρτ
##έλεξε
βάσει
Αυστρία
αλληλεπ
##λείας
τροφ
βασιλική
##βίας
Τρο
πολλαπ
Αυτοκράτορα
Πεντ
συντε
##θετη
φόρ
επιστολή
##yle
##ροταφ
##λεύθερο
##όφο
Γιάννη
πρώτων
##ίλλ
επάνω
##ream
##τεχν
συμφών
εξαίρεση
διαφορετική
Πριγκ
##τεν
##ρολογ
Ακολούθησε
##ux
166
##ρεν
ταινιών
Παπανδρέου
##ληπτ
αγωγ
Βενιζ
Διεθνούς
..
σενα
Robert
##ζέ
##fer
κοιλάδα
##βή
...
105
##θέσεων
##ρότητα
διέθετε
##air
##ψία
ήλ
ισχυρή
έθ
Κουρ
##ιάζουν
παγκόσμιο
νοτιοδυτικά
##stitut
Πρωταθλήματος
149
##rat
Βάλ
εξαφαν
ζευγάρι
θεωρήθηκε
χαρ
εγκατέλειψε
155
έπα
επεισόδια
ΠΑΟΚ
Κάστρο
μέρους
##ήρυξε
##χώρησαν
Γεώργιο
εκκλησίες
όπλα
##άνων
ασπ
##ΦΑ
##ake
##πόλ
##χείο
##οσκοπ
σκηνοθέτης
επιμέ
##ios
μόνον
πρωταθλήτρια
##ιμπ
δίκ
Reg
Απόλλωνα
Κομνη
##δείγματα
ποτά
##ισμένες
##ουμένων
περιελάμβανε
##δήλ
εθνικ
ενώσεις
διαλέ
περνά
109
καταδικά
Αμα
##ρώνεται
Mc
165
##υδ
American
Γυναικών
##ene
1911
1915
Phil
##ety
##ουσαλ
γυμνα
ισχυρ
μεταβ
Νότιας
επίσκοπος
έκρη
Περιφερε
πράγματα
##πότη
Φερδιν
##ole
##ωνική
ομίλου
Κεντρικής
προετοιμα
προηγούμενη
κτηνο
εντυπωσ
συνδυασ
ικανοποι
τεχνικές
##ανέ
##ταγμα
τιμω
ουσία
περιοδικού
##ωλο
119
Εθνο
Τέχνης
γέφυρα
τρίτος
Μαδρί
έφτασαν
##ίκι
Πυ
##φορές
τεχνη
Επιστημών
ασχολείται
##ξονα
βασιλείου
παλι
προϊόντων
##ωσή
Σχε
81
League
##γιάν
Τουρκίας
125
Γιά
David
Λίβ
παραδοσιακά
##μίλ
##οδε
978
Μάγ
πυρην
##σαρ
146
##ρισαν
##όλος
νωρίτερα
##εσης
Πλη
γραφή
αντίσταση
it
Ανατολή
βιβλίων
##βει
Βόρ
χάλ
Πέτρου
συνασπ
βομβαρδ
Ιστορίας
προσπαθεί
αποβ
αντικαταστάθηκε
##ρωτα
147
Alb
##στούν
Ορισ
##ράπηκε
Ίδρυμα
αυτοκίνητο
##θέτηση
βελτί
Νορμαν
##ουσαλήμ
νοτιοανατολικά
Μπαλ
πιθανότητα
##λής
1906
έφθασε
κύκλ
Μεγάλου
πρόσφατα
##era
##κοι
δημοτική
αγωνιστεί
Ιερουσαλήμ
πληροφοριών
##δοσία
Βερολίνο
σαρ
πολυτ
Φερδινάν
εβδομάδα
διαμερίσματα
##υσαν
γραμματέας
##ϊκές
καριέρας
##χας
61
134
ιαπων
καταναλ
##ece
Ροβ
δρο
##ovision
συνεργάστηκε
Off
ευνο
απορρί
163
αρχίσει
Int
Ταξ
Παναγίας
ορίστηκε
##ολογικής
πρωταθλητής
προέδρου
Επανάστασης
##ke
##ούμερ
διαμέρισμα
##σινο
Mic
τάση
γένος
κυβερνήτης
κόμβ
##ασιών
ζήτημα
##ίπισσα
ρόλους
ανθρώπου
153
##ύει
Λιθ
ρόλος
ξενοδο
εκατο
ελληνικών
##ίνηση
##άριος
αλυσ
qu
τομείς
ολόκληρο
##ινόπ
Λατ
πλέ
1916
Jour
περιοδικά
Άρης
Βιέννη
##ντες
hist
αντιτ
προτι
##ρόεδρος
τιμήθηκε
ΙΙ
##άσκαλος
εκπροσώπ
διεξαγωγή
##yst
βορειοανατολικά
διαφορές
λογοτεχνία
ασυν
άνοιξη
##λητη
ζώων
Φρανκ
Θράκης
ειρήνη
συνολική
ανοίγ
προτεί
εκμεταλλ
##θες
έμφ
απέχει
τοπικές
φέρεται
απαι
##ρικούς
συμμετοχής
Dr
ενημέ
##urn
Βασιλιά
κερδίζοντας
Τιμ
αρθ
Γερμανός
πολιτεία
##υγατ
##ζού
αγάπη
##ασταθεί
ναυ
##ίτσας
##τίου
συνελήφθη
ί
κυκλ
πρεμιέρα
##ement
μεγάλωσε
πολιτισμού
##ονα
κόμματα
χρειάζεται
##γγελ
##der
περιέ
1905
##ouse
Κέν
Χει
##board
ολοκλήρωσε
##μυνας
##ρώνει
Σερβία
Στρατιωτ
##ρις
προσοχή
καθήκοντα
ελληνικές
Αλεξάνδρου
##ύρα
Ασφ
πλεον
##δούς
φάρ
πυρήνα
Πολωνία
υπογράφ
συνδεδε
he
τοξ
##ανι
##κτών
συστά
Fre
##ουκάτο
μικρού
Eurovision
##λς
##έρρι
##ειτούργησε
##icle
λεί
##μπουρκ
##όρυ
167
σκα
ρίζες
met
Ανθ
##νοί
##ρινε
απαγό
συναυλίες
##ΗΣ
##oft
##μει
φιλε
στίβου
##όμενους
δυτικό
##βασ
πάει
Ηρακλή
γράψει
##έριο
139
##oul
##κοφ
##άγμα
ανακάλυψη
δημιουργώντας
Γενικά
περιστρέφεται
Ρίτσ
Πρωθυ
Τούρκοι
εβρα
αιτία
##ρόδο
##σημα
Σαμ
ντα
μαύρο
απόπει
Ανάμεσα
εργάζεται
οργάνωσης
Τις
Πέρα
θυγατ
Αλεξάντ
αντικαθ
##any
con
##ωτικά
Καλιφόρνια
Συμμετείχε
1909
Wil
Ιωσ
##ction
χορηγ
διαδρα
βιβλίου
κινητήρα
Δυν
ακρο
##28
Κλά
διαχει
Κατο
Σωματ
Παρόλο
Ουγγαρίας
##CA
λυ
Πάπας
οποιο
έδειξε
έμβ
Μεγάλης
διαδρομή
Υπό
παραλ
οροσει
προσφορά
αξιοσημεί
##τυπ
##ϊκών
Μεσα
αδελφού
τέταρτο
κατάφεραν
όσον
##όμενου
ολοκλήρωση
##we
Op
Ιωσήφ
αποικ
συνέδ
φρούριο
καλύτερο
σήμα
σταυ
καλύπτει
καταστράφηκε
##μάς
χο
διπλό
##σεκατομμ
άντρες
Ολυμπιακού
στρατιωτικό
##υα
κοιλ
απαντ
##ατου
##ονος
αληθ
κινηματογράφου
ΚΑ
Ψυχ
##μούσε
1904
ντόπ
αναφέρουν
ερασιτεχν
##ύφ
##λαμ
UN
##μανου
αναβ
##κτικής
πρόσωπα
174
Οίκου
απευθείας
##une
πιθανό
Ρωμαϊκής
##ρολ
δουλε
As
σώματα
Av
κράτησε
Sk
138
Υπουργός
κινήματος
##lex
##ited
συνεχίζει
κομματ
μισθ
έδωσαν
##είδη
υπεύθυν
$
##ana
Σωτή
Αντρέ
Ποδοσφαίρου
##όκο
127
Σοφία
εμπιστ
διαστάσεις
αντίπαλο
##ήνη
αδυνα
προέκυ
##άτη
Σαλα
Κατερ
##ove
παρουσιάστηκε
##αλαν
##υλακ
συμμαχία
συγκέντρωσε
ερυθ
Αλφόν
Εξωτερικών
##of
III
Ωκε
Metal
καύ
έρχεται
##ony
##ral
τόπος
##γκαν
Πελοπόν
##ΕΛ
##μαι
Λος
λήξη
##θια
118
λαμπ
##θώ
κώδικα
##ξεως
Ber
##ασμένο
σύζυγός
##ίτι
##φόρος
διέταξε
εκείνης
##ετών
υλικού
τεσσάρων
Βουλγαρίας
##ούσα
ομοι
απώλεια
αίθουσα
αεροδρόμιο
##ιανή
Ant
υπερβολ
περιγραφή
συνεργασίας
##oria
διαρκ
δημοτικό
##σβ
##έλη
ψηλ
Θάλασσα
χαρακτήρας
##ήλθαν
Θεού
Εσωτερ
Σώ
συμβολή
##ography
άμ
##μβαναν
ρι
##γκρέ
Rich
Επισ
εθελοντ
Μασ
Γκρέ
αιώνας
136
αδερφ
διακυβέρνη
##άκος
συρ
##χημ
71
θέλει
σύνδεση
σταμάτησε
##εϊ
διάκριση
##μούν
Top
##ούντα
##όπουλου
Σκωτίας
Γερμανοί
Πολωνίας
107
##αρίων
αγαπη
παρόλο
##ρόντ
##σιμες
Σουηδίας
αυτοκινή
νοσοκομείο
At
Paul
##άρου
Charl
ενεργό
Τί
##round
##οντάς
##ύπωση
φροντ
##ωτη
##ιδίων
##ks
cl
##ject
##σταλ
129
ισοδ
τόμ
καθυστ
νούμερ
αεροσκάφος
δικά
##έστρεψαν
αμερικανική
##δοποι
##μονία
διεργ
##πέτ
ελπ
Νομού
##IA
τζα
στρατόπεδο
Super
εποχών
##γει
Λεξ
έμα
##έφρα
ρυθμό
βυθ
αγωνιζόταν
250
απλώς
##γκερ
Μεν
ισο
γνώση
Χερ
έληξε
Ντέιβιντ
πεθ
ιταλική
επανάστασης
##ρεφ
ηπειρω
Im
##όπους
##όρισε
1896
δοκιμ
ηγέτης
εσωτερική
##ματικού
περιουσία
Φα
Jul
λαό
ήττες
κόρες
επικίν
##ραλ
εισήχθη
πασ
Σταθ
ποσό
Οθωμανική
##ινόπωρο
ενήλ
ενημερ
Γουίλιαμ
δυνατό
γενικές
πρακτική
περιεχόμενο
##ΠΟ
##ific
##υγαν
φυλή
##όμενης
φίλος
ύψους
επιστήμη
στήρι
σπουδών
##σπερ
πετοσφ
στόχος
μν
##ίνους
##υνση
Νεο
Άλλες
##eng
Cit
Ολλανδία
##23
Roy
Φράν
##ημένες
ποσότητα
Καποδίστριας
Ελληνικά
κατάλογο
##ινγκτον
Ατλαντ
ηφαι
τοπικά
##ριους
##στικού
##υκλοπαίδεια
Mart
Πάπα
εγκε
εθνο
ασφάλεια
βαθμολογία
##ower
τέρ
Μιν
ακρί
προκύπτει
εκκ
##ίδαξε
128
Μηχαν
τέθηκε
Windows
σχετίζεται
παλιό
προϊόν
λεπτομέ
έκτο
##θαίνει
αφήνοντας
##δειξε
##θήσουν
φέρουν
νεφ
ουρ
##έδρου
ελεύθερη
##ευθεί
τελετή
αρχαίο
συνέντ
Εκδόσεις
Παναθηναϊκό
##υγχ
##ύριο
115
Rad
ζούσε
135
ιστορίες
148
news
γενιά
##σανατολ
Μεγάλο
##ήρια
Εκείνη
Αφγαν
Ρωμαϊκή
πολλαπλ
##όρο
Φά
##ane
Mad
Ριχ
ισχύει
αποτελεσμάτων
##αίος
έντ
##ρασια
Κινηματογράφου
Ang
##ραμα
Φαρ
αριθμών
συσχ
νικητής
σχεδιασμό
δημιουργήθηκαν
άρθρα
##πω
##δικές
διαδοχ
Σουηδία
συνθέτης
μάτια
πραγματική
##δού
1907
Φραντ
δωμάτ
νόμος
παιδιών
##ume
##ώδης
##σπασμα
κτήριο
Δία
εμπειρία
σύγκριση
Μαργαρίτα
##ident
Mod
ξεπ
εκπροσωπ
αποφοίτησε
##μαχ
##aint
Συνα
νέους
se
διασχ
κόστος
##σκολο
##ογγ
##eral
ψήφους
προσωπική
##αγόταν
γνωστοί
τοποθετήθηκε
Nov
Μαύ
Πόρ
προερχ
##τηση
επισκε
δευτερό
παρατηρη
##ogle
##μακε
Οικου
##ευμάτων
Michael
δεύτερης
und
κεφάλ
ψήφων
##κές
##ίδου
Οθωμανικής
τυ
Award
αποκατ
Στέφανος
##ίαν
Βερολίνου
Arm
##eta
##βεια
Τσά
ωκε
σινγκ
κατασκευαστ
ρυθμ
αυτοκρατορία
##ple
Κοκ
Δυνα
173
Φωκ
εφόσον
ιατρική
ελευθερία
Κωνσταντίνο
##ολογικού
Πολλά
##λειες
##ilm
επέτρεψε
ετο
φυτά
##θρωπ
εξά
θεάτρου
##πατ
κρε
Aug
##έκτη
προσεγγ
##βος
Σβ
διακό
πράξεις
εμπορικό
##κορ
καφέ
αριστοκρατ
##πλαν
Soci
Μπελ
άγαλ
πόρ
ισορ
Σάβ
Μόσχα
κινηματογράφο
πολέ
Οικουμεν
ορχή
154
Billboard
καταλάβει
##τριες
Πολλές
υπηρεσιών
φάσ
Γερμανούς
αντιπολίτ
##ures
μετατρέ
*
##κτος
διηγ
εφαρμογές
Ev
καταργήθηκε
##άτος
Έντ
Λακ
λήμ
κύτταρα
εξαρτάται
χρέ
##γραψαν
##ze
Διευ
##σχηματ
CF
##ικοποι
##έος
σκόρερ
επρόκειτο
Σεν
τεύ
εννο
γωνία
λειτουργούν
##ολιθ
##γνωση
Άντζελ
Συνήθως
συνεχίσει
σταδιοδρομία
Εισ
Λεβ
Αφρο
##φεν
##άσκα
143
προχω
πολυάριθ
δεκά
Greek
ανακαλύφθηκε
ομοσπονδ
##ime
##ual
##ξιο
Ελε
Χημ
Γαλλική
ειδικότερα
##ριμ
διαφορο
##μικών
##είδ
Μυ
ρη
τροχιά
προηγουμένως
ιδρ
χειρουργ
##μάρχ
Χαϊ
Επικ
Επαρχία
πρότυπα
##ery
Αρκε
Κέντρου
γεωργία
καταφέρ
διή
στρατιωτικές
δώδεκα
διεθνές
##ρυσο
Jos
δοκιμα
κανονική
##γωνο
πτήση
##AS
πώ
##ιώσει
##τησαν
Αθαν
είδε
##ρώσεις
μεταρρυθ
Σαιν
αφορ
##σχε
##χαγ
106
ορκ
Άλλα
πανηγ
Dec
##ψήφισμα
πρόσφυγες
απώλειες
επαγγελματική
##ii
May
Στο
ηλικ
##λαίου
Camb
επόμενες
Καντ
Ανδρών
παρουσιάζουν
Star
κινήσεις
σημαντικός
##άδελφ
Χρήστος
επιζ
σελίδα
αγαθ
Σύλλογος
σημασίας
##ήνης
##άρτης
Μόσχας
Μπορεί
γράμμα
υποστηρί
##ιεπισ
βουνό
φυλακή
##VD
Ger
Ερυθ
Journal
##αλί
Mo
έβ
##cess
βράδυ
Τούρκων
κατείχε
Βόλ
Μνη
##μησης
Hell
τοίχ
δικτατ
παντρεμένος
Άμ
Φλωρεντ
αδέλφια
Άντζελες
δημιουργεί
τροποποι
Μέτ
Φιλίππου
πραγματικά
Can
Παπαδό
οριστικά
##ότου
Δευτ
Ηρόδο
αντιμετώπισε
Ιακ
λαού
έκρηξη
ἀ
##όντου
έρευνας
##ζη
##ίτσι
##μονα
van
αφορούν
ομώνυμη
##ωθούν
Αντών
Λιθου
παραμονή
##ρινθ
μεν
Cont
κίτρι
##θεται
ζητήματα
οικονομικών
σχετίζονται
Άρτας
##ύρω
##ξίας
144
ακαδημ
χαρτ
Αναστ
##γματι
##ροπία
εθνικές
##27
##τός
έφεραν
##29
εικον
Αιγαίου
von
##ότερης
##ογράφος
καλαθοσφ
##άκτ
##ωνε
##ats
##δός
Αψ
Λάν
##θήσεις
Κίνας
αντίπ
Κοινων
Θεόδωρος
περιλάμβανε
Επαν
##ίστησε
Φιλιπ
Ινδίας
##τως
αρκετούς
ενδιαφέρο
##τώματα
συγκρούσεις
##δέσ
##ατικού
άνοιγ
διάλυση
φθινόπωρο
##de
##ham
Πόλεμος
##ωμένες
αντιβασ
Πρόγραμμα
γίνουν
##ric
##μνο
##ώνυ
Πολων
δυνατή
θεωρούν
Κρό
Ιουδα
Sl
##ζοντας
Πετρού
νομίσματα
##ΕΣ
##way
##τια
Τζορ
παραγωγός
μειον
σινγκλ
συμμετέχ
##ενο
##ιτσα
Ροδ
##ματός
αφηγ
δάση
Μανου
##ζας
##καλ
ρέ
αίματος
τρόπους
##ψή
##ασμένη
άγαλμα
##OS
βουνά
αριθμούς
δήμαρχος
προέλευση
##ούκ
##ανός
##ινων
καὶ
cont
αλή
Λεμε
700
αίμα
##εύτηκαν
πανεπιστημ
αντιστοιχεί
##γεβ
Πρα
Εμπο
πίστη
βασικά
δίνουν
ζωγραφική
James
επιστρέφει
##σαυ
Βρυ
Πακ
απλό
δικτύου
##ότα
θεσ
νησ
γενικ
στενά
δικαιωμάτων
##ιόρ
ιταλικά
108
ψευδών
##rit
##λογη
Αγγ
1897
Γρηγό
θαλάσσ
σχεδίου
παντρευτεί
εγκατάσταση
αθλητ
Sal
Εθνών
Κώστα
κατοχής
καθηγητή
αναγνωρισ
Φωτ
αμοιβ
υπόλοιπες
##ζης
Γκέ
εξισ
δύσκολο
αριστερά
δέχεται
απομακρύ
1903
##πεία
##αίνουν
ερευνητές
##αίο
ιθ
##δικών
απλή
Καστο
Κυβερνή
##ιάτ
Εστ
λόγια
##ated
Tur
##ΣΔ
##ριστής
πειρατ
εφημερίδες
##ystem
##ρήσουν
Ροβέρ
διερ
##οφύλα
Σκοτ
Ριχάρ
κομητεία
επιχειρήσεων
Ρεν
Σαβ
απάντηση
##θηκών
##δρομος
Υπουργείου
##26
##μοντ
Δρα
συμπεριλ
εγκαθ
##ισμάτων
##πελλ
103
web
##right
τρέχ
##χαρ
εκτίμηση
κατοικία
##έδιο
##ετικά
εξει
μοιάζει
##mann
Βέρ
διαμάχη
προηγούμενο
##γραφε
##ευμένη
##ότερου
Σοβιετικής
133
##φέρειες
Μουσουλ
κλίμακα
προήλθε
##ησή
##είος
##θύμ
##χαμ
##ύρων
οδού
Αντιό
μέλλον
κοινωνίας
##ελέχ
πέφ
##φέροντας
απασχολ
συνόλου
χρόνους
Bro
##κόπου
καθιέρ
Εμμανου
Βασιλιάς
##ola
##ιασ
πυροβ
συντα
Όμιλος
Αιτωλο
ανέπτυξε
Δούκα
##είτο
αρχηγό
##ούτοις
##άζονταν
τραπεζ
##νέ
##άντο
##ευόταν
οδηγήσει
αντικατέστησε
ηχογραφή
##ιάδη
ιδιότητα
##IS
Έσ
Inf
κει
αθλητής
91
vol
Έκαν
##ξανδρο
ανθρώπινη
δυναστείας
αρχιτεκτονικής
Αζ
##ives
Διδ
Μαρα
Κατόπιν
παραλία
##σεβ
Βαν
φαγ
##ευτεί
Συλλ
##ave
Cap
##υνη
πλαγ
νομοθετ
##ουζ
##φάβ
αυγ
Σερρών
αντιμετωπίσει
##σίων
αστρονομ
δημοσιογράφος
##ποτά
σιγ
##υρίες
Καίσ
##ER
Κε
##isch
Ίν
##ella
137
Ρουμανία
καταφέρει
δημοψήφισμα
##TA
##χαλ
##μπαχ
αυξαν
καινο
##rem
Πιο
απέτυχε
ιδρυτής
back
Μεγάλ
##θωνα
παρεκ
μαθηματικά
do
##ονες
ακου
περσ
πλοίου
τάξεις
##ictionary
##φθ
βασί
πετυχ
τροπ
Βορείου
αποτέλεσαν
##μαγ
Γκρά
συνω
##στήρια
##κτώντας
Παναγιώτης
κατασκεύ
υποψηφιότητα
Χορ
εκατομμυρίων
##ικης
Τεχ
ομό
κωμό
οικισμοί
ονόματος
πανελλήν
##πες
##μονής
Βοημ
##ήμονες
Φράγκ
απειλ
μεθόδους
εξωτερική
##μπρα
##τήρια
έκφραση
σταθμού
ανεξάρτητα
γενικότερα
σι
φύλα
##λάχιστα
δρόμους
Ελβετία
αποσύρθηκε
διαφορετικό
Γκε
##νησυχ
κιθαρ
ταξιν
##αστήρια
προτού
λπ
θυσ
μαλ
εγκαιν
Αλέξανδρο
προφαν
##ίω
##ινου
##ground
Έχουν
χτυπ
Μικρά
##ίγμα
##θεντ
εορτα
δυνατόν
εκατοντ
διάμετρος
καλλιτέχνη
ΟΥ
φτερ
συμπλη
Κυριακή
Cambridge
##άται
καλοκαι
Θεοτόκου
ευγενείς
##outh
αιθ
σατ
ραδι
ειδικό
συνδέονται
##βι
##γά
##μάκ
##στάν
βου
##παιχν
##ξείδιο
Κάρολο
διαχείριση
##όγειο
σχεδίων
προκαλέσει
##ονγκ
γάμου
προσθήκη
By
Επιχ
August
Μεξ
εξαγ
φανέλα
δημιουργηθεί
##erv
##άσισαν
Νταν
ατμόσφαιρα
##ίφ
##αρέ
Hen
Βαρκε
χρονικά
##δημο
##είλει
υψηλό
##στήματα
Μαυροβ
αλλάξει
πυκνότητα
Τζορτζ
στελέχ
σταθερά
μεταγραφή
πολιτισμό
δέκ
προσανατολ
##δινα
##άθηκε
page
νεαρή
ΕΕ
Pal
##βασης
##ύματα
επιδό
αριθμητ
κατέχει
##uch
υπάρ
ανατολικό
καρδ
Αγγελ
Βασιλική
Σαξονίας
ανεξάρτητη
##ντεν
έρθ
προσωρινά
##ημένος
Πορτογαλίας
##ασης
arch
Νέων
νούμερο
##γοβ
Li
Tra
Βυζαντινή
διατήρησε
αναθε
Βιβλίο
κόκκιν
υπολογιστή
##εταγ
##έστερη
μείνει
ισπανικά
Χώ
αξιώ
##μίσεις
Ιησού
καλές
Αθήναι
##ΜΕ
Αλβανία
διάλε
λογοτεχνίας
##uck
σύλλη
Σαρα
Έντου
Βαρκελών
φοιτητές
##θεσή
δημοτικά
Οικονομικών
κυκλοφορίας
μηδεν
λέγοντας
##άσθηκε
οθ
δόγ
Elect
##αφν
Λόρ
Έλαβε
Αναφέρεται
124
Cal
εφη
Ερν
Φρί
αστυνομία
δαπ
##θνους
πλοίων
Απόλλων
##έλης
θερμοκρασίες
##λοί
Δη
##μπος
##ριακού
Αριστοτέ
Τάγματος
δισεκατομμ
οποιοδήποτε
Φιλοσοφ
Χέ
Νέο
γενιάς
Σπουδών
##όρος
Άρθ
κατέληξε
##πός
Ben
Αγίων
τρομο
αναλογ
ξέσπασε
δημιουργίας
κυκλοφορήσει
μπαλ
χρήστες
Ηρακλείου
δίκη
Υψη
ανασκαφές
960
##ρυνση
##γραφικές
Μεσαίωνα
Ρίτσαρντ
φυλά
κοινωνικής
##άιτ
##υντ
1895
δρόμου
Ναυτικού
αντίθετα
μετέφερε
Φιλε
##έγεται
τοπικής
δημοφιλής
τελείωσε
Φλ
πιέ
λεπτό
παραμείνει
χωρητικότητας
##ίνγκ
Βατ
έτο
##ράκλ
##earch
επηρέ
Πανιών
Ρωμαίους
Βρετανίας
ετήσια
συμμαχ
καθεστώ
σωματείο
αρν
βασικός
κατανομή
##ραία
Ευρωπα
συγχων
Βασίλης
Ηρακλής
συντον
βασιλεία
επιστήμονες
##λην
##μάντ
βιντεο
προβλημάτων
##ΐα
##δελ
αλφάβ
##ode
##ορπ
πελ
Thom
Ποντ
Μέγας
##ugh
##υσε
Βοι
κελ
##ζονταν
Μεξικό
επικράτησε
##έτει
1899
εισέ
εκπαιδ
κάποιοι
Πελοπόννησο
##eder
##ones
WW
Ουγγαρία
##res
##πότα
##mer
##εινή
Μισ
##ρχονταν
ατμο
περιείχε
##orge
##αρχο
##κληση
ΠΑΣΟΚ
πάρκο
##els
##λάμ
Αλβέρ
##ets
##έστερα
Αστερ
104
μόνιμ
##ανατολική
τύπους
βρίσκει
ομίλους
##rich
κατανάλ
ανακτήθηκε
ολλ
ποιήματα
μέτα
ποικίλ
Κέρκυρα
διατήρηση
ρού
Παντρεύτηκε
##κοσι
1878
κυμα
##δήλωση
αποδεικνύ
σκηνοθέτη
υψηλότερη
##ents
Αρά
##ρειες
ποίηση
Υπερ
Δημήτρη
υπεύθυνος
χρησιμοποιούσαν
##ποδες
μέτωπο
τεχνολογία
εξίσω
Παύλος
μπάσκετ
TV
##ριβή
Ταϊ
βασικές
θεωρούσε
μεταφοράς
τοιχογραφ
δημιούργησαν
Δικα
καθεδ
βουλευτές
πρωτοβουλία
##ώδες
φυλές
επιλέχ
νυμφεύτηκε
##ΙΚ
##φθηκαν
ζούσαν
κρατών
##τυακ
Mor
αση
##ακαρν
Καθημερινή
##ύτ
αλληλο
1000
Ακόμα
συγκο
##ύλες
Ντου
##γένεια
Εθνοσυν
##ετη
διαδεδο
συνεχίστηκε
Lou
Ρωμ
Life
γενικός
συντελε
επιπέδου
Αιτωλοακαρν
Ώ
113
Βάρ
λογική
έγγραφα
τροφο
αναζητ
αμφισβητ
Αφγανιστάν
αποφάσισαν
##ef
αποκάλυ
##δεσ
Σολ
φτιά
κύκλου
εργοστάσιο
Ναός
στάλ
##κτικών
ενδιά
δίνεται
Αποστ
περιφέρειες
Ηράκλ
##rop
Part
Έρικ
έμαθε
υποβιβάστηκε
##εθ
θεά
##ωτικών
Αντων
κοινά
όντας
όγκ
##μπερι
Συνέ
εκπρόσωπος
id
Sci
##μείου
αιγυπτ
co
Hot
απονε
Συνέλευση
##ριντ
λίθ
##αγεν
ανιχν
τείχη
σοβαρά
τηλεοπτικό
Gra
αρμο
Χατζη
σηματ
αυθεντ
##rib
Κοσ
εφο
μέτρο
υγεία
Ιωάννα
πλευρό
σχηματισμό
##ινς
##εύγει
σφαι
Συμμα
τίποτα
Πελοποννή
προχώρησε
##ισμένοι
Παναθηναϊκός
##σφαλ
##δυτική
Κοινο
Παρόλα
αναμέτ
Αθλητική
ανακάλυψε
##ura
##ωρα
##πλων
##erson
ανακηρύχθηκε
Ζά
##able
αρχαίων
##ζου
μακρύ
περιβαλλ
##όρου
αναγνωρίστηκε
##γκά
μέρει
εγκαταλείψει
ερωτ
Ανεξ
λόφο
##ουθούν
ρωμαϊκή
##du
##άβουν
βασιλείς
Ήλ
μνημεία
σύγχρονο
Πολιτισμού
οικονομικής
έμφαση
##ίλα
##ρινή
##θέτες
Φρειδερίκου
Έκανε
εκτάσεις
ενέργειες
##διδ
##υση
##ρευνών
##στικός
ιστορικοί
##αρη
##δισαν
Associ
##ΕΦΑ
##γών
Βέ
##ρεστ
##άχθηκαν
τραγουδιστής
##θι
Ερζε
§
είκοσι
καλλιέργεια
ονο
##ροταφείο
απαιτεί
τραγουδίστρια
##όου
σπό
παρόμοιο
δυναστεία
Don
Min
μονοπ
συντο
αρχεία
θεατών
ασθενείς
Λαμπ
κατώτερ
επιτροπής
αντίστοιχο
##ano
##άσια
##νομη
##ούλα
##ευμένος
στάδια
Ερζεγοβ
άφι
διαπιστ
επικοινων
##ωτές
123
Προς
κακο
##ασμένα
ανάκτο
Βοσνίας
συνάντηση
στρατιωτικός
##ρευσε
##οίτησε
συγκέντρωση
##φι
##κλά
##ήμια
Πίτερ
ρεύμα
πλατφόρ
##τερος
μαλλ
έθεσε
παράλλη
##ution
αίσθηση
δύναμης
##ωτό
θυμ
κον
Richard
επεξεργασία
σχη
##στατο
##βάλλει
##σεστερ
Ποσει
κόμικ
##εστη
φημ
Μόνο
φασματικός
συναλλαγ
ηρω
λήμμα
φάρμα
ασφαλείας
κοινοβουλευτ
##ρελ
Κλη
δηλ
##οποίηση
##ούμενοι
συστημάτων
##ιοί
ακρίβεια
Εμμανουήλ
παρέμειναν
επιτυχημένη
Γα
##ολών
##ρθαν
αφορμή
##λεψε
Οικ
Ρότ
κλιν
##έλεχος
λίμνης
##φου
##έψει
συμπτώματα
##ani
##ινακο
##δρόμου
φυλάκ
θάνατος
##θως
Θή
επαναλαμβ
καταλήγει
πιστεύεται
χρησιμοποιούσε
##ίδρα
Άργ
##iet
style
προκρί
Γκαρ
Βουργουνδίας
##άγη
##ψεων
αυλ
νυμφ
επιδρομές
##za
παρέ
##εύουσα
Σικελίας
Il
Τό
αριστερό
τελευταίου
##ήρυξη
##ανται
στόλο
ηθοποιό
##ρέψουν
δημοσιογράφ
##αστήσει
##στορ
Σαχ
##οσύνη
Μονής
##ξικόπημα
αρκετοί
εκτείνεται
ποσότητες
##ζά
Ολ
##ling
Βουρ
διάδοχο
συμβουλίου
αποτελούνταν
ταφ
##ίτιδα
πεθάνει
δεύτερου
Εφημερ
Σατ
ελέγ
Τσάμπ
φυσιολογ
πυρ
έλεγχ
μεταφέρει
##ρής
##ινοί
δρομ
κύριες
##μερή
ελάχιστα
ετ
##ριτζ
Λίμ
στέλεχος
##φτ
##υπηγ
κυπ
βοηθός
##burg
##ίνιο
χάσει
αναπληρω
##olit
117
κατάταξης
πατρι
πετρε
κανόνα
διπ
Ανώτ
διαλύθηκε
περιφέρειας
##αντες
Ειρην
δικηγόρος
υποστηρίζουν
##νους
ind
Πλούτ
καιρούς
σκηνοθετ
1890
απέρρι
ατόμου
μεταπτυχ
##gy
κιθάρα
έκλεισε
##ίμου
##φόρου
##όρους
##πέμπει
Καλαβ
έδινε
Αλή
Ασκ
Νεκ
##ΙΑ
Αυτοί
cm
##ινητο
απειλή
συνομ
##ico
##έτι
κυβερν
διάταξη
##amil
λάθος
θεωρίας
σύντομη
##uth
Δό
##δώσει
Roll
ζωγραφ
##όλι
ταλέ
Καραϊ
σύμμα
##ίδει
ηγέτες
οντ
##ατικής
ομορφ
σύνταγμα
διαθέτουν
##μιτ
εγκλη
Κέρκυρας
ασθένεια
Encyclopedia
περιγράφεται
##γκι
##ίνονταν
επιτέθηκε
Ιλ
ύφ
όχθη
ισχυρό
κατάργ
χρόνος
##ital
1881
Πρώτη
δάσος
παλάτι
Ναυτικό
αποτυχία
συλλογές
##ma
υγρό
περικ
ανησυχ
Mot
##αιναν
Tour
αυστ
πάπα
χρεια
αγοράς
λατινικά
##la
Πασά
πυρκ
Καλαμά
Πάτρας
ελληνο
μηχανή
ταξίδεψε
μετασχηματ
ισοπ
αντιπροσώπ
US
ολλανδ
κλάδο
συνεισ
Μητροπολίτης
##μελη
Αλεξάνδρεια
Σύντο
Κυπριακή
im
βεβ
1880
ποιητή
Βυζ
Live
αναρ
##σματος
Κριμα
άξονα
βαθιά
Charles
##χια
λίγους
##υχαν
114
Λει
πεπ
Jean
##ητήριο
μοίρα
Europe
οπλαρχ
αποστολής
##υτή
χερσό
αστέρες
γραφείο
υπόλοιπη
κατατά
ειρήνης
χρηματοδότη
Ολο
Hall
Ποτα
έμπο
κατάταξη
δημοκρατία
παραδοσιακή
Ath
Αψβούργ
απουσία
##ότες
βελτίωση
Ξάν
##τικοί
ιδαν
φράση
επιθυμία
##ike
##υχώς
San
##λόγηση
Ελληνίδα
κωδ
τυφ
καλό
Καρολ
Αγγλικά
σκοπούς
##ανή
Στερ
ρομαντ
καθιερώθηκε
##ίγου
##ρχία
Όθωνα
γνώμη
φιλόσο
μαθητής
σταθερή
Αραγωνίας
##atch
Ριζ
Σύν
συγχών
##22
##έμεινε
##por
ad
Παύλου
προβάλλ
αξιωματικός
##αταλ
##ρίνει
πρωτεΐ
Δημιουργ
σωματεία
προεδρικές
DVD
θέα
Ερρίκο
##φυσ
##αγγέλ
γραπτ
χρονο
καρδιά
Νορβηγίας
ΣΥ
θέσεων
παίξει
μεγάλους
ακολουθούν
οδο
ημερών
γενέτει
##ta
##ιώς
##κους
Sim
Βιτ
Πρέβε
βάσεις
συζητή
Dictionary
συνθετ
##νόμ
##έργη
Fri
αμμ
Συχν
κόλπο
κυβερνήτη
πολιτείας
παρουσιάζεται
##yr
καταπ
κάποιου
ανέρχεται
##ιδίου
##τορας
##ητικές
βιντεοπαιχν
Ολλανδίας
##ελτ
πρόσκ
πάντως
παραμένουν
##ρτζ
πρωί
πτερ
δήμους
Σμύρνης
ιδιαίτερο
Ευρωπαϊκού
αντιπρόεδρος
ήρθαν
πνεύμα
Ηνωμένου
##emb
μακρο
μπορούμε
Εσθ
ελλ
Time
κοινωνικές
##υγα
##έντα
αερό
απαιτείται
##κετ
##γονται
έντον
ανανε
καλύτερες
Λήμ
##λησης
φυσικής
προβλήθηκε
γων
αντάλλ
##ues
Nat
Tel
##ister
Σπαρτ
##πτονται
βιολογ
εμπνευ
καθόλου
##σμένο
Roman
Μολδα
αποδίδεται
παράγοντας
σχηματίζουν
##ωτών
αξιωματού
ουδέ
χρησιμοποιήσει
άσπ
##ούλια
στέλ
άλλοτε
εισήγαγε
απογόνους
καλλιτέχνης
λιπ
νικ
επαγγελματίας
##μημάτων
αναστ
δίδαξε
κορυφαία
##καθολ
άλλου
μεταφρα
απογραφές
λειτούργησε
Eng
Κόν
θρύ
βλέπει
##όφωνο
σύντ
##ουλτού
##ούντας
προβιβ
ολοκληρώ
καταγόταν
##ird
##usic
Εάν
Τσεχ
θαλάσ
αντιπροσω
116
Μπαρτ
διδασκαλία
##όπων
metal
δείγμα
Τσάμπιον
πολέμους
ab
##έλας
εκτιμή
Πρόεδρο
αναζήτηση
##ράκη
##έλους
##αντέρ
##αμερ
##ρίτ
1870
Ανατολής
συστάθηκε
##ias
όσα
Άγγλ
σπιτ
##ριανού
Ενότητα
##ξίες
Sec
καταφύγιο
παραίτηση
##ato
##νός
τελει
Ιρλανδία
##ϊτζ
##μεναν
Τσαρ
αγιο
Mal
##ταθεί
Συνέδ
δοθεί
##ube
##πεζας
##ούθως
Ματθ
θεωρηθεί
##AR
##μπιν
Ros
τής
αίτη
Πέτρο
Συρία
##αμεν
##λαμαν
##ρίζουμε
Institut
Μέρ
Ιβάν
Πόλη
κύκλος
αντιστοιχ
Συντάγματος
##έσουν
πτυχίο
Γερμανό
αναλαμβάνει
##εινό
Alex
ΟΥΕΦΑ
επανήλθε
υπολογιστών
##ka
Ap
##ages
##ροου
αγόρα
τελεί
φύλλο
Ταρ
καστ
Παυσαν
επιφάνει
##ιεπίσκοπος
παραδείγματα
##be
Θράκη
απολύ
πολιτών
Λέν
άνοιγμα
σύντομο
##ón
##iev
##ροδο
##ίστανται
μουσικά
##ID
##con
Στεφ
σημερινής
##λού
##υτο
##ίχνη
ελά
Αστυνομ
συναυλία
θρησκευτική
##by
##ξας
προτί
μορφής
##όδων
Champ
δύσκολη
##ρίδας
γαλλικό
##αρρύ
γεύ
Αρμενίας
πρόποδες
##uel
Φθ
per
παρέχ
Στίβου
##ιζόμενος
λαμβάνοντας
##άντες
εποπτ
Τράπεζα
πλαγιές
##έκτημα
γνωρίζει
σύλλογοι
Πήρε
ασβε
φίλους
δικαστήριο
οικονομικές
ναρκ
κάποτε
υποτελ
Les
έσο
λαϊκή
άθλημα
Γουλιέλμου
##ένια
Ιουλ
Εγκυκλοπαίδεια
##ύνη
πραξικόπημα
διάταγμα
Des
Red
##μάνοι
ενότητας
αποκλείστηκε
##ca
υποκ
##ημιτελ
γραφεία
É
##ρχο
##θνος
##tr
##μέρα
##ληφθεί
##ger
##ζεφ
Φόρ
κοιτ
προάστ
επομένως
##ker
θέρ
αλλιώς
δηλητη
απόπειρα
διακρίνονται
Σιν
Άλλοι
αποχώρηση
##ΗΕ
αυτονομ
επαφ
Inter
εργαλ
αντιμετώπιση
Sw
##iter
##ιάνο
αιχμά
##έως
##ζεν
##νήθηκαν
επανεκ
##ύρι
##στοι
Val
άγνωστο
Βραζιλία
##άλλη
1902
Ιράν
κλασική
συνδέει
##ωνο
##ύχημα
τέρματα
Γιουγκοσλαβίας
λωρί
##ωνύμιο
αποστολές
όσους
Γυμνάσιο
διοικητικό
##ριοι
Βαυαρίας
περιβάλλοντος
Lib
Pat
Φρέ
Αμβέρ
Βέλγιο
βασιλικό
Λευκωσίας
σύγχρονης
##βάρ
Γκο
λεωφορ
θεωρούνταν
##ωφ
Σαβο
Βυζάντ
Γαλλικής
δέσ
αλβαν
Αικατερίνη
επισκέπτες
Χρυσό
φύγει
μπόρεσε
##κελ
1901
προβολή
ανάκτηση
μερικούς
ποιότητα
ευρωπαϊκές
##ροκ
France
##li
ετερο
νομικά
εξειδικ
μεταφέρθηκαν
##μηθεί
##ωνυμία
συνεχή
σημαντικότερα
One
##κοπής
προφ
Μερικά
Πελοποννήσου
έξο
αυξήθηκε
Νικη
Αυστραλίας
Φώ
##irst
απότο
θαυμα
μίλια
υποδη
κατευθύν
ψευδώνυμο
CH
Jo
##αγμα
σπη
##ρινγκ
Περιβ
##άνγκ
##ανακ
##άσου
Δανία
δρόμος
Μόρ
όχθ
Ομίλ
Αμπντ
##ριδ
Mil
Θεό
ντοκ
##όπουλο
δέχθηκε
δημόσιο
λειτουργίες
##στι
νόσ
Μπατ
##μβούργο
παίκτη
##ικότητες
γερμανικό
αποφασίζει
##olf
Πι
Λάρ
Ντό
Σμιθ
αντίληψη
βυζαντινή
Στέ
δείτε
υποθέσεις
κοινοβούλιο
##ισκ
Βαβ
Χαρ
Θωμά
εμφανίστηκαν
##ιστικός
ασυνήθ
ισχύος
κόσμος
Ιάκωβος
συνεπώς
ασχολούνται
##over
##φόρα
γεμά
##αιοκαθολ
μεταβολές
λεπτομέρειες
##ψυχ
Ver
έβδο
φωτιά
Tw
##όνας
καθαρά
Διεθνής
θεμελιώ
προτάσεις
ζωγραφικής
Μι
φε
διαφων
τοποθετείται
##υτές
Χρυσή
ηγέτη
αναπτυχ
δυναμικό
Que
κακ
Ρωμαίοι
διεθνούς
##ανών
ΕΡΤ
εντά
στρατηγό
Σταυροφορ
διοίκησης
##ξελέγη
αρχών
διήρκε
##omen
##ωνικό
ευρω
##έγερσης
προσαρτ
##ha
Μί
σή
##σιων
##έργης
επισήμ
παρεμβ
Μερικές
##ept
##ολόγου
καταδ
Ουίλιαμ
εκθέσεις
##μεντ
##μανση
τύχη
##πιστεί
δηλώνει
Μουσείου
διάρκειας
##ield
##έλεια
υδρογόνου
##ορθ
##άνδα
Grand
ορθόδο
Society
Ταυτ
υποσχ
συνάντησε
ψηφοφορία
ιδιοκτησία
πρωταγωνίστησε
##δυση
οχή
1898
that
πολυπ
Σιδηρο
προέκυψε
φτάνοντας
αντιπροσωπεύει
##itz
##μήσει
##ούτου
αλκο
##μπια
##aster
##ρόνια
##λευθερο
διαρκε
πράσινο
αλφάβητο
φωνητικά
δεδομένου
ικανότητες
##ριζαν
θείο
πλου
##τήματα
Πολυτ
Προεδ
εμποδ
βλάστη
Νορβηγία
προημιτελ
##iki
##γκό
##μφαν
σεβ
Διακ
πέρασαν
σημά
Σφ
Νοτιο
Πακιστάν
αυτοκτον
##ein
##ισον
Γνω
##δίκτυο
πλούσιο
Προέδρου
παρουσια
νω
κυττά
ονομασίες
##ξέ
uk
##ator
##tain
##σκεί
Δελφ
θεωρίες
υπολογίζεται
Εγ
##ευρέ
εκά
Εύβο
Σικά
εκμετάλλ
αποφάσεις
Λύ
όπερ
##γκας
Λωρ
Σκο
ροή
Αλβανίας
συλλόγων
##eum
χρονική
αγών
Λάρισ
ενεργά
χαμηλή
δολοφονήθηκε
##θεσίας
Διεθνή
αναφοράς
##ίδος
##σκου
διαδικασίες
##ette
##άνειας
Μεταξ
αφιέρ
κινεζ
Υγείας
σκότωσε
Κόρ
##νευσε
επέλεξε
οργανισμούς
##δέλφ
Αθανά
Παρασκευ
αποθηκε
##τρέ
##ποιηθεί
Greece
στόλου
έκδοσης
εμπορικά
εκατοντάδες
Αρκ
Αξιο
κατανό
##υμης
ευτ
##aut
##ητες
##μπαν
Βλαντ
χημική
πετοσφαίρισης
##me
##μάλ
##μπέ
Tom
Ζερ
αγνο
Λεξικό
σχολής
Λορ
μάρτυ
πολιτισ
##χορ
WWE
Εδώ
Λετ
κωμόπολη
πληθυσμών
εξώ
Σικελία
παρασκευ
##ars
How
θέλ
1822
φαινο
οργανώσεις
ύδ
Ρεθύμ
όχθες
##lo
Δημόσ
πρωτοπό
Βρετ
τελε
αξίας
εκλέχθηκε
Κάλ
Κιλκ
αφαι
συνέχισαν
χωρίζεται
σμή
οριζ
##αστούν
Βοιωτ
σκάφος
Συνέδριο
Οθωμανούς
##δην
ακρω
κηρύ
Λωρρα
τροφή
##ράφηκαν
εξερευ
εξακολουθεί
##ania
Royal
αρχείο
##ΩΝ
Συγκ
Γιουν
Λάρισας
συγκεντρω
παραδοσιακό
Βίλ
Love
Περίπου
Γερμανών
##ada
CO
μόνιμα
στρατηγού
##ρέν
tr
##ίκια
Σύντομα
διαφημ
παιδική
ευρωπαϊκή
##σσυ
##θερα
πακ
στί
πανεπιστημίου
φυλής
μικρότερα
##ën
Έφ
##ίκους
άκρη
κατόρθ
ορεινό
στελέχη
not
##iller
φίλο
φυσιο
μεγαλο
##γκού
res
δυστ
Trans
βασαν
παροχή
ποίημα
περίφημ
πολιτικού
SS
##αλεία
Βορρά
ενδεί
##φέρθηκε
παρέχουν
δραματική
Κηφ
ναύ
##στους
άλβε
Μεσογ
Διευθυντ
βασισμένη
##ειάς
##τερη
Λεω
##ράματα
##ρεϊ
ανί
align
προστά
υπογραφή
Πατριάρχης
Ul
##istr
Τσί
School
σώζονται
αλι
παθ
επακ
φάσμα
προτε
Υπηρεσία
Po
##άκων
DNA
##γραμμ
έγγραφο
Ρουμανίας
προϋπολογ
εξελίχθηκε
NA
χάρι
ασκεί
γλυπτ
πλημμ
##chn
##χάν
##εθεί
##φόρησε
Απέχει
συναισθη
υψηλότερο
σταματήσει
Οξ
φυτό
έσοδα
Φίλιππο
##συχ
##όριστ
Κοζάνης
καθεστώτος
##γλου
Θανά
αντίστοιχη
χαρακτηριστεί
##inn
##ίσου
Ασπ
συνή
Paris
μετέβη
υφίσταται
##ιδηρό
Σπυρί
υπάλλη
Θεσσαλίας
##υβ
κάρ
Συχνά
δεξαμεν
πρωτεύουσας
##yd
νυχ
Όλοι
υπερο
γένους
##σιμότητα
##ποιούνται
Πορτογαλία
##τάρ
βελτιώ
Λογοτεχν
σκοτώσει
##γές
##άχου
εκλογική
Τσάμπιονς
##ΙΜ
##ολόγο
##σονήσου
##CH
##ορα
##όνε
αλε
Χαλκιδ
σπουδαι
εμφανιστεί
##σιους
Νόμπελ
αποικία
τροφίμων
##ports
Πιστ
##ολογικών
δάσκαλος
Σωματείων
##κια
Πρι
##ύρωση
άμυνα
Γιώργο
ονόμασε
##ander
##χειας
Μπαχ
##χυδρομ
Μπράουν
κυκλοφο
##ιτο
Χίου
##δειχθεί
Γιόχαν
θρόνου
ελεύθερο
ομώνυμου
ποιότητας
Αλέξανδρου
Gi
##oug
Of
##ίωσης
1889
##έμβριος
Περιστ
αμερικάν
λαμβάνουν
Bal
Jac
Αχι
σπήλ
τυπικά
##σημερ
ενηλ
μιλά
αυξάνεται
##St
##λιθ
Εμπ
Αζερ
βήμα
κλασσ
Βιέννης
φωτογραφίες
χρονολογούνται
##βες
ρεαλ
ασημέν
##AF
##ετο
διακρίσεις
καλλιτεχνών
##πόρ
Όλες
Αθηναίων
συμφώνησε
background
##άντι
αποφασίστηκε
Πλα
##ήψεις
North
διδάσκ
Ιά
σοφ
##τάνου
Καρδ
am
Μού
Φαλ
##ρικοί
##ευχθεί
Ηλείας
άλβεδό
παραδόσεις
ξύλ
καρκίνο
Ειδικότερα
fr
Ναζ
Μπιλ
παραι
ένδειξη
μέγιστο
αυτοκρατορ
προέλευσης
##adem
##μίες
##ρεμα
Λουξε
έρθει
Μικράς
πολιτικούς
##δωσε
##ρέσει
νέοι
συνέδριο
συνέντευξη
Λαυ
μπου
πιθανή
φυσικών
αρχιτέκτονα
αδια
λαός
color
πιάνο
ουσίες
Κράτους
##AN
ΕΛΑΣ
σφαίρα
γυναίκας
περιβαλλοντ
##γωγή
Γεωργίας
Τζων
ίχνη
επάγγελ
μεταφερ
υπάρξει
Νέου
εκείνα
##ita
##ωξη
##ύμβ
όρου
απαρτ
στήλη
George
ευθύνη
πίστευε
Ιαπωνίας
διοικητή
Mont
συσκευές
επέστρεψαν
##όντια
##ρόπολης
αναπτύσσεται
##χερ
σύγ
απόδειξη
Εσωτερικών
##αργ
##κλει
Μεθ
υλικών
##ευρωπαϊκ
νόμισμα
επικράτεια
##ρχη
πι
##ιβερ
Αγκ
Καθε
ανανέ
κανονικά
προηγούμενες
Αρκαδίας
##τομή
απαί
##έφρασε
Συνεργ
ειδικές
υποστεί
ακολουθήσει
`
ήχο
διαιτη
απεικόνιση
τραγουδιών
αποκατάσταση
##ταί
Dem
Μαί
ακυ
##ανθρωπ
Έντουαρντ
##στερη
πλεί
Ορθόδοξη
επιγραφές
Day
##όρασης
##ματάρχη
##γράμματα
θητείας
δημοφιλές
Κοινοβουλίου
Έν
##υτής
##όνης
καυσ
##φαίρισης
##ήτρια
λανθ
Οδυσσ
##δίδονται
καθημερινή
κινηματογραφική
Σάντα
απόγο
παραγγελ
υποστηρικτές
##ατες
θει
ρωσική
αποδέχ
επεκτάθηκε
##ύς
##νεϊ
κόντ
ενίσχυση
επικοινωνία
σίγου
διαμαρτυ
μουσουλμαν
##ival
top
ήρωα
θεού
απομάκ
γέννηση
παρατηρείται
στρατευμάτων
μαν
σαλ
##έλλας
Πιθαν
πλανή
εκείνες
τελετουργ
μικρότερος
##ero
##κεια
εξαπ
πάρα
συχνότητα
καταστάσεις
App
Ειρήνη
μηδέν
κάλεσε
διεθνώς
επιστήμες
Kn
##άκου
Πρεσ
πόσο
νόμους
Έχοντας
Καβάλας
διαστάσεων
##δύν
βενζ
Παγκόσμια
Κερα
Κιλκίς
τουρκο
Ηρόδοτος
Δικαστήριο
παρουσίαση
##ρεσης
αγάλ
Λεμεσού
πλευράς
μοναδικός
##θείς
##κτης
Die
Λάμπ
Google
ανάγλυ
χρωματ
αυθ
##πολις
δέντρα
ευρεία
γλωσσών
παλαιότερη
##IN
##sc
##ένε
##βέλλα
Γενική
Συνταγ
αριθμοί
εργαλεία
##ρεπ
IV
θηλα
κομή
Radio
κουλτού
λεκ
Song
Class
Γενικός
έμβλημα
δίσκους
οργάνων
φυσικού
##άτα
##ιάλ
Ινδο
Νιού
Citro
Αγώνων
παράγουν
ανταλλαγή
ενό
##βλεπε
Αψβούργων
##έλων
##τιση
net
μαρμά
συνειδη
##uz
##ray
##ειές
Pri
Κρη
ρητ
##ington
παρατηρήσεις
##ΟΠ
Μόλις
συνήθ
επιστήμης
##υμβ
χεί
##χθούν
blog
τάφο
βαρύτη
##κύπ
Αχιλλ
Ομάδα
ταυτότητα
αμερικανικό
##ποιεί
Ιεράς
ημέρας
##ετικό
##πετάν
Chem
Ανήκ
δικαιο
μικρής
χρήστη
##aj
απογραφής
οικονομίας
Άρχ
Νέστ
φυτών
τόνους
Ρωμαίων
πριγκίπισσα
##ree
##βιν
ΑΣ
##σπαση
Mark
πρέσ
Αιγάλε
μπαράζ
δηλώσει
υπεύθυνη
Γιανν
##ύμα
όψη
##κευση
Βόλου
προει
Αιγάλεω
παρεκκλή
##ther
##wood
##κινα
Μοσ
##γόριθ
εισπ
πληρω
Πέρσες
Πρώτος
was
Μπρι
μοτί
απογο
μεταφορ
Μικρασια
οργανισμός
##rown
Pur
##μμένα
Μογγ
κέντρου
Ομοσπονδ
##unt
##ένι
αμφι
##νινα
##κείου
σχέσεων
κτηνοτροφία
##έλες
##ιάτες
αναπα
##ισμένων
##ναβη
Bel
πιλ
θεός
κακό
πέμπτη
##ειον
Dan
Mat
λαι
##λοβακ
γέφυ
ανθρακ
σκοτώθηκαν
##εύς
##μοια
στρατο
κίνησης
σύμβολα
πρωτότοκος
Παναθηναϊκού
##δαι
1830
πρόγ
Ηλίας
##ootball
Δημοτική
Ενότητας
εκδήλωση
επαναστά
επιβεβαί
Κοινότητας
##αστική
συσχετ
προκαλώντας
Ταν
Peter
ίδρυμα
##hip
##όλιο
Μιλά
Colle
συνθέτη
αντικειμένων
##ῆς
##led
##βεν
##γας
ημι
τύποι
βάρους
Publish
1894
##μπν
##οχή
##θελαν
μονής
φύσης
κάστρου
πετύχει
συλλογής
Διοικητικές
Ζαχ
##αριστ
μάζας
Εξελέγη
Πωλ
ξεν
αιμο
επιλέγ
παλαιά
Εξαιτίας
##λεπτα
Μεσσ
##μπαϊτζ
ένταση
μικρών
Άγγελ
##άρτησης
επιτυγχ
Συλλόγου
ημερολόγιο
##εχο
σλαβ
##ωτικής
διακόσ
πετρελαίου
##ür
Βη
Λιμ
Προσ
διαδό
βέβαια
κύκλους
Απογραφή
οργανισμού
##ext
στρώ
Μπερν
αρχαίος
Βασίλειος
Do
Pan
νεαρός
Ισαβέλλα
##ais
##παρ
##δαγωγ
##ήτησης
προεδρία
Ol
##βίκο
εξα
τιμής
φάσης
##ιονίκης
καταδί
αλήθεια
διαδρομ
κατακτη
συγγραφή
Αζερμπαϊτζ
τεχνολογίας
no
δέν
1835
##στησαν
υπερασπ
μουσικός
χρηματοδο
Αναγέννηση
Ναπολέοντα
αναφερόταν
##ians
##ιοντ
νωρίς
κάποιους
##όμησε
Φιλιππ
γενικό
αντιδρά
Ηράκλειο
Επέστρεψε
##TV
West
Καλών
επαναλ
πλήρης
ομώνυμης
Βαθμ
αντιλ
Ομίλου
αρμοδι
Μεσόγειο
τζ
##έσκο
Βίκ
βορρά
παράθυ
διαμόρφωση
##φια
Ηχώ
εκατό
αλλάζει
δείγματα
Αθανάσιος
πρωτότυπο
##isc
Σταν
Ιακώβ
τέρμα
οπαδούς
Γκού
##ευμένο
##θμισης
δανει
στέμμα
παραχώρησε
##ώρου
εικ
Υπηρέτησε
##ural
εξω
αδιά
οχυρω
Δούκας
μετατράπηκε
αποτελούνται
##αγια
##άουντ
ποντ
στενή
ισπανική
ιστορικές
αποκαλείται
Θου
Κλέ
αναγκα
πεδίου
απόλυτη
συνθέσεις
##ριπ
Ναό
φιλό
επικυ
Ιταλός
ανήκαν
διαθέσιμο
αντάλλαγμα
εργαστήριο
up
σεναρι
οικονομικό
##δησε
ποινή
ίδρυσαν
γεγονότων
συγγενείς
ΕΣΣΔ
Enter
μηνών
Πινακο
αποκτά
επενδύ
Παναγία
τοπικών
επικοινωνίας
##φν
##θεσ
##ρησή
νεοσύ
άγνωστη
Παρασκευή
ιστορικούς
##iat
πέρ
ενδιάμε
Μαδρίτης
##OR
##ενός
Βρέ
##ώδεις
##ευτική
Citroën
Company
κατέφυγε
κατάστασης
##ΕΑ
Bre
δέρμα
προτάθηκε
Ηλία
Κυκλο
##ama
##ετός
Δεδο
##έφτηκε
##κτικός
ήθελαν
προσαρτήθηκε
##σταθ
##χουν
alb
Ρόλου
όπερα
ζωντανά
διεκδική
εργαζόταν
προστασίας
πρωθυπουργού
##κοψε
Λευκά
##κανδινα
αυτοδιο
ισοδύνα
βασιλικής
Αζερμπαϊτζάν
##πεν
Ολύ
Thomas
εισήλθε
##σταλλ
##ίδρασης
σκοπός
σταθμούς
επιστημονικής
mod
Σούπερ
διατηρούσε
##ενών
ΜΟΝ
υποτα
αφήσει
Γρηγόριος
οργανισμό
Πρωταθλητής
Ζο
Σεβ
Αστεροσκοπ
Δράμας
αρχαίου
Βασιλικό
Γερμανική
##ώνος
Ιντ
Group
βγήκε
##ικότητά
έκτοτε
εξίσωση
##ele
##μιλη
μελ
##ιλίες
##οράς
λεη
1860
Great
##τίθεται
Στρατό
τεύχος
τακτική
##γδο
##βαντ
##ρίζονταν
Pop
Μόνα
διασκ
μέσου
τσαρτ
παρατή
βρετανική
υποδεικνύ
##ίμπ
οργ
##εύσουν
πλήρες
μέγιστη
μηχανές
##άχα
##ζικ
οξέος
Μπρί
Τέτο
αλφα
Σμύρνη
υψηλές
κενό
αέριο
article
διευθυντή
Ταυτόχρονα
##ῶν
##άγια
Ann
Μάν
ανεξαρτησίας
##θουν
άσχ
όμορφ
φαινόμενα
κατακτώντας
χρησιμοποιηθούν
1885
Σκωτία
κάλ
##ραγμάτων
Βυζαντινής
παραλλαγές
διαφορετικών
λειτουργούσε
##ιναλ
στρατιωτικών
##ideo
Άγγλος
συστατικά
χρησιμοποίησαν
##τφ
σας
##arts
Φλώ
Μπρέ
##τήθηκαν
κοινωνικά
προτείνει
##βης
##σμένη
Μανουήλ
σελίδες
European
Κοινοβουλευτ
κατασκευάστηκαν
##μίν
πη
Βαλδου
διαστα
κτιρίου
##άμι
Στιού
προσφ
Ανάπτυ
επιτελ
χρώματος
κυβερνήσεις
##rest
Sil
Θεοφ
Ρόδου
βήματα
ζημιές
##ΤΑ
Dev
Sam
εκπλη
προνόμ
Σαβοΐας
συντηρη
πορτογαλ
συγκεκριμένες
##άξει
σήμ
ουρά
σιγά
##ειδείς
Προοδε
επάγγελμα
##ps
##βίλ
Άραβ
Ύστερα
##ιαγ
##ύρο
##τορα
Γλυ
μπασ
οδός
Volume
Καίσαρα
θεατρικό
πιστεύουν
καταδικάστηκε
Port
σουη
##υμάτων
υποδύ
##λήθηκαν
επαγγελματικό
##ines
Van
##μησαν
κλήθηκε
διήρκεσε
μετάλλια
αντιπάλους
FIBA
μπροστ
νομική
Βουλευτ
ακριβής
μερικοί
απάντησε
##ζω
##off
έτ
επιφανε
##λευσε
##ατικές
αποδείχθηκε
BM
##σίως
Βελγίου
Αύγουστος
διακρίνεται
κλέ
Euro
Βήμα
##ίθενται
κέρδισαν
μεταπολε
φαντασίας
##όρια
κατέφ
πουλιά
σύσταση
ανεξάρτητο
sc
έκτ
City
Αμέσως
Παγ
trans
Κογκρέ
καινού
εγγονός
αναλογία
μί
Στό
##ισθεί
1834
σχήματος
συνορεύει
δυνατότητες
Γκαλ
##λήματα
κλάδος
Παιδείας
ξεχωριστή
##σεξ
Φιλα
στεφ
Ανήκει
πάντοτε
πολέμησε
σχηματίζει
Τόμος
Θεάτρου
στρατηγική
##ίγκ
Ζη
##ειδές
Ital
τρόφ
Μάρτιν
Πολυτεχν
λατινική
Βραζιλίας
διαιρείται
Ποι
ιδρυ
καιν
περιτ
επισήμως
##ριον
πτήσεις
επέμβαση
μελετητές
ξεκινώντας
καταστήματα
##ρεπτ
High
##ητικής
αυτοκράτ
τραγουδιστή
Σύμβ
##ιμαντέρ
τοιχογραφίες
##den
Αιγυπτ
##ois
cod
##μείων
##στάιν
##ύγουν
Μέση
##έρασμα
επιθε
συμβεί
Περιοχή
αλγόριθ
κατόρθωσε
ΟΗΕ
Χολ
##ωμένοι
διασπ
φυσικές
##ques
1866
Ντον
Τζακ
εγχώ
χειρ
σκέψη
τεκμη
έπαιζε
παραδο
στόλος
Χοσ
Ιράκ
##θέματα
διασώ
Κορινθ
εθνικών
ονόματι
κεντρικής
##νικ
##έξει
ίδιες
Βασίλισσα
Λουδοβίκο
Λέων
νησιών
αιχμαλώ
θρησκευτικές
ποδοσφαιριστές
##azz
##ύλων
δομές
επιβί
μέσων
συγκέντρωσης
##κλα
δανε
Πρώτο
εξεγέρ
##ρονη
##όλιθ
Δεσ
Χένρι
δουκάτο
##ερί
απα
Πάνω
κινητήρες
φιλόσοφος
αναφέρθηκε
##lay
##ret
##ικισμό
##τηρίου
Αντώνιος
##κτυα
##ίτσια
##ότητές
##διαίτερ
ένωσης
##αμερικαν
συγκροτήματα
χαρακτηριστική
αψ
##οικο
Ταιν
αναλύ
Γάλλοι
αρχαιο
τάφηκε
διάμετρο
##ush
##γεια
Φου
##glish
1888
Σώμα
Κηφισ
Κινέζ
λατρεία
ανθρώπινο
υπολογιστές
ηχογραφήσεις
##γειο
αρω
Deep
εξοπλισμό
λογισμικού
αγωνιστικές
Fe
##γκασε
##ιτική
Ιούλ
Νική
αρραβ
βαριά
λόγου
Θεός
Εδουάρδος
##ελλ
##ρονο
900
##είωση
καθα
αποφο
τέταρ
##iy
##ople
μαντ
νεαν
αυτοκινητο
##ever
Τετ
αξιοθέ
Στιούαρτ
##ραπεί
ΜΟΝΙΜ
Συνέχ
##ρίσθηκε
δημοφιλή
χωρητικότητα
##nes
Hol
ομιλη
Άμυνας
κόντρα
Εθνικός
Ιδιαίτερ
Ουκρανία
Μητρόπολη
ταξινόμηση
Del
##inger
##νοιας
κιλά
όσοι
##άγματα
##μάτισαν
Ανδρόν
Μακεδόν
συντεταγ
καταλαμβάνει
μεγαλύτερους
πανεπιστήμια
Αλκ
εξάπλ
καθοδήγ
Association
##ετούς
##λογές
μοντέρ
es
##ιδος
##μινο
##ional
Club
##υτικός
Ειρήνης
Πεν
μικρότερες
υποχρεώσεις
##μόνα
ύλη
χαρά
##υμαχία
αναρχ
θείος
##ears
1879
θεώρημα
πολεμική
γεωγραφική
##μαγνη
##στρια
Gold
καινούργ
ξεκινάει
αναγνώρισε
εξασφαλίσει
##ude
##αιας
βία
##μάνων
##τέθηκε
##ογραφία
έχασαν
φακ
##ραφεί
Micros
Τσαρλς
Γιώργου
αγόρασε
αγώνισμα
κλίμακας
##cient
##ίστες
μελω
οικοδ
δείξει
Μεσογείου
γυρίσματα
αυτοκινήτων
##χελ
Αδελφ
Τάγμα
επιλεγ
Παλαιστ
δυσκολίες
##δαλ
##όφιλ
λίτ
στίχοι
μεταρρύ
αιχμαλωτ
αλληλεπιδ
παγκόσμιας
Αυτοκράτορας
##λόνα
Ντι
νεα
στρατιωτών
##ολη
##ύγιο
Έκτο
##ητικών
Γουίλ
Χανίων
επιρροές
τουρκικά
##σιμος
1848
διαζ
όπλων
εξέταση
χερσόνησο
##ονική
ιερέας
Μερικοί
κοινωνικό
αυτοκίνητα
Run
Τους
##ατικών
##δεύτηκε
εκπομπές
τρομοκρατ
δημοσιεύτηκε
##ular
gov
σεισ
ευκολ
ορθογ
προανα
δεσμούς
Ακολούθησαν
ΝΔ
Διό
Δωδε
βραχ
##έλαγος
φωτειν
Καραμαν
Σταυρού
διάσημο
συμβάλλ
εταιρίας
##fl
##άτρα
##πέλα
Σαρλ
όγκο
##κεντρο
αερίου
##αχτ
mm
##βρου
Αφρικαν
συγχώνευση
Βλ
Λεύ
πεδία
εδαφών
σχόλια
Δούναβη
αναπτυχθεί
κατανάλωση
δημοσιεύθηκε
##ούλι
##άγους
Andre
Βουρβ
πεντα
προκατ
σκοτών
σώζεται
δευτερόλεπτα
##ρίκ
##ρεμ
##press
##ούταν
υδατο
επίσημες
ψα
Πρί
Green
Βόρειο
Ανω
αιφν
βαθύ
συνεν
σύντα
##ρισμούς
εξορία
Γάλλους
ενσωμάτ
γερμανικής
##MS
##ειλαν
Στατ
ξαφν
##νοντάς
Ποσειδ
κατάρρευση
Gal
Histor
Online
πηγαίνει
##ύη
##πτη
χρε
##ράκης
Κυρι
χάρτη
διατυπ
περιεχο
Αλεξάντερ
αναφερθεί
επιλέχθηκε
Basket
διάθεση
σημαντικότερο
##ally
Νου
Χασ
νεαρό
νομός
νεώτερ
Τεχνολογ
μηχανική
απαιτήσεις
στρατιωτικής
παρουσιάζονται
##βελ
##ύλης
Cup
Oct
##τουρκ
μέσος
Έλληνα
Αρχαία
γυναικεία
συμπέρασμα
χαρακτηρίζονται
##ection
κορυφές
Φύ
όπο
Αλγερ
διπλά
υπόψη
χρυσά
Διαγων
συνωμο
##βιομηχαν
Καστοριάς
διαδραματ
##ιμώ
##view
αμφιβ
επιτα
Νικόλαο
εκατοστά
αεροσ
οθόνη
μεμονω
χρονιές
προσωπικά
##ένη
##υκλ
έρι
Βιετ
νότο
##ρχος
μαστ
##λογίας
μαγει
Σπάρτη
Τσεχοσ
Ελεύθερ
δεκάδες
στάλθηκε
ύμ
Μαθη
ζεύγος
θεμέ
παλαιό
Μιχάλης
συσκευή
##ειου
##ρινό
##βλεψη
##τυπία
Carl
υδρό
ζώνες
καθοδ
υπόλοιποι
καλαθοσφαι
##θέα
comp
##annica
##ριστούν
καταστροφές
##AC
##ria
Φλό
##ρούσα
Βουκου
κυκλοφορεί
##καφών
Νίκο
House
##olution
##άνονταν
επωνυμία
ενημέρωσης
σχεδιάστηκε
##αδέλφ
##δινάλ
##μάνους
Περιφέρειας
πρωθυπουργό
##χυση
Καθεδ
παράγονται
##ora
##υτικούς
νυχτερ
Απόστολ
αναπαραγωγής
##βαθ
##έρει
##ιαία
Δίκ
1884
δεσμ
μύθο
εστία
γαλλικής
κτίστηκε
περιορισμένη
##red
Βού
Γουιν
κλίση
συνεχεία
σημαντικότερες
##ET
##κεται
κυνή
εισόδου
χάλκινο
προστέθηκε
##λλων
##τικο
Act
Ήλιο
Λάρι
χήρα
##ολόγων
καταλύ
διαρκεί
Πρωταγων
παίζοντας
##μπεκ
##φυλακ
College
παλαιότερο
προσπάθησαν
##υσή
Τάρ
Τζου
ελεγχ
επιδημ
συμπλή
ετεροθαλ
##gar
##ίμι
Μαρι
διατελ
διάλεκτο
Λωρραίνης
##μύ
##χνει
άκρα
αγορές
προοπτ
διαφορετικούς
##form
Τομ
##κτήσουν
καθένα
συζήτηση
##όρφ
εθ
Τηλε
εδαφ
ζητά
##ργάνωσε
θετικές
αίθουσες
απονεμήθηκε
παρακολούθησε
Λεων
λήψη
υπηρέ
Αντώνης
διαστήματα
##ώνιο
ματς
θύματα
##ΣΕ
Κάσ
1893
ντρά
Νίκου
θηλυκά
δημοκρατίας
##ren
αρμό
κωμωδία
προσαρμογ
Κυβέρνησης
Ηρώ
1854
Όρος
Κυκλά
δεκατ
καθιστά
προορισμό
φιλοσοφίας
Lu
Σίτι
Χάου
ξένων
γρήγορ
φιλοξενεί
Φω
##πουλ
##αίριση
εγχει
Κάποια
δίκτυα
γίνονταν
##λεν
##λάκη
Web
Αλα
##βαλαν
αποχω
Πραγματ
δικαίου
##ιγρά
##ρουσ
θεό
Russ
##ωτικού
αρχής
εκπομπής
αγωνίσματα
Βίβ
##μοίως
λίμνες
έκτασης
φιλανθρωπ
περιέγραψε
διαδικασίας
Ρωσική
υποστήριζε
##καρ
ΕΑ
##αρχη
##όρθωση
##ποιήσει
##έλια
πέτα
##ιδήρου
τελικός
όνει
Άραβες
Microsoft
τηλεοπτικές
##ίνε
##δαφ
##βική
##βαίνει
Smith
επιδιώ
συγκαταλ
1833
τάφος
Awards
##χριστιαν
Ιρλανδίας
##μενοι
Ιππό
##θεσίες
διορθ
Μεξικού
σήμαινε
εμπορίου
τμημάτων
ακολουθώντας
##θεσαν
##μαχος
##νοιες
Ηλεκτ
Μονάχου
παράγωγ
Καστίλης
σύγχρονα
##ρώς
##λλος
##έροντα
Βούλγα
Μόναχο
ιδρύματα
θερμοκρασίας
##καμ
##όκερ
Sur
Χάλ
##ότυπο
ναυπηγ
ομίλων
Βρετανική
επισκέφθηκε
##ote
##αιγ
##μέρ
##ρχε
##ικων
Cult
ξεπερν
πριγκιπ
λογισμικό
αναμέτρηση
##ελο
us
Land
Saint
τροφοδο
##arth
##όροι
new
Disc
##γράφηκε
αεροπλά
Θάλασσας
##χός
Soc
Συνεπ
μαλακ
φίλοι
συνέβαλε
γνωρίζουμε
##άκτης
πρώιμ
σφραγ
Βούλγαρ
καταφέρνει
##ced
Ωδ
άφιξη
δέντρο
ταξινο
διαδοχή
διοικού
τουριστ
ευρωπαϊκό
προκαλούν
εξασφάλισε
Οσ
νύ
φώ
##πυρος
στάθ
Αντίο
τεχνο
κινουμένων
##τωνα
Πάσ
αμα
κάν
Κεφα
συνειδητο
παίρνοντας
τερματοφύλα
##to
##μέτω
101
μτφ
Σύνο
March
##ρισμένη
φιλελεύθερ
##πία
Leg
Δαρ
##αντος
αλλού
προσφύγ
νεότερος
προσέφερε
##Basket
System
αρσενικά
δολαρίων
ΕΔ
Σέρβ
ταρα
μεσολ
δήλωση
μόνιμο
αντιπρόσω
Εθνοσυνέλευση
περιλαμβάνεται
##ript
Pap
##χρονη
##μούσαν
παραβ
Νοσοκο
θηλυκό
Champions
δημιουργείται
Bur
Ρεάλ
Τριά
##τισμού
Πολέμ
σκάφη
##στήματος
προσωπο
Εκκλησια
##οδό
Μαυ
άνε
αναλ
ξανα
ειρην
ηφαιστε
συνεχείς
Ινστιτούτου
μαθηματικών
ντοκιμαντέρ
##ов
1892
λουτ
μπει
##πεδίου
μαύρη
αίτημα
##ΣΤ
##λίν
##γκαρ
Σιβ
Ισλάμ
εκδοχές
αθλητικό
ταχύτητας
επιτέθηκαν
##ιονο
##ριακ
έντονο
φορείς
απορροφ
φαρμακε
Ολυμπιακών
##χημα
Che
ναζ
##τειας
1500
ομιλία
οξυγόνο
Συνέχισε
##άζα
##ντων
##σσει
##όμων
Συρίας
Μάντσεστερ
##μπή
##πούν
##ίτησή
##στοτε
Σάμου
αναμεν
Λειτουργ
Εφημερίδα
σύγχρονες
επιτρέπουν
δασκ
βρήκαν
ρωσικά
ντράμερ
διαφέρουν
Πρωτεύουσα
Meg
##πλωμα
##όσημο
σκου
ταξίδια
εκάστοτε
ακτινοβολία
ep
γλύπ
πένα
Μάρκο
αφαιρέ
##bs
Out
όπλο
απαλλ
πέρας
Πατριάρχη
##ένιος
Έθελ
Μπρού
Εκπαίδ
##άσινγκτον
ανακατασκευ
##ελή
##ίσμα
##ωνας
Έγραψε
ιθαγεν
μνήμης
κίτρινο
υποψηφιότητες
ΑΟ
Τατ
Λομβ
Νότιο
##ιμότητα
φορολογ
Τράπεζας
1891
αργά
##ago
##uman
##ιατό
Έργ
Άννας
Εκπαι
μακρά
σύλληψη
Αθηναίοι
λεγόμενη
δημοσίευση
πέθ
Μουρ
##ευτικό
Γάλλο
βάσης
παρότι
##ρέφονται
διαφέρει
κινείται
απαντάται
Αποτελέσματα
##αίους
##δυνος
ασβεστ
ευγενών
βλάστηση
Καλύτερης
ιστορικών
Φραγκίσκος
κατοικούσαν
##άγο
##ξων
##ESCO
##etaa
##ποδα
Μαζ
ορισμένων
##βάλ
##οτθ
##σάρ
##ληψης
παντρεύ
κερδίζει
##GC
##νυ
##έλτα
Louis
##ολφ
Όσ
1840
γιορτή
τεράστιο
Αεροπορίας
##ετές
Σέλ
Χημείας
Παπαδόπουλος
Ἀ
Boy
play
Γαλα
σκοπ
eetaa
##ρώματος
##ολογείται
##ιανά
##δίδει
Πολυ
καλείται
sur
Σει
εντο
πύλη
Κίνημα
πν
##κτων
Net
ιππό
ρίζα
Επίση
πλατιν
ενδείξεις
παρακολού
##έτως
Νέβ
##θέσει
γενε
στέγ
Αναστά
Καλλιθ
ιδρυτικό
ακολουθία
μεταγενέστερ
##vent
##αγής
Κακ
##ροπές
μήνυμα
Συνεπώς
αδελφοί
συνόρων
επικράτη
##θοι
Γλα
##ύλιος
Λεον
σωλή
αθηνα
Martin
παίζουν
αφιερωμένο
βασίζονται
βραβεύτηκε
καλλιτεχνική
##ρεθ
Αι
Τζόν
ξύλο
εισιτ
τέλει
##ρόσθετα
επιμέρους
συνεργάτες
##άδων
##ζίνα
Est
Τρεις
προσφέρουν
##εμφαν
ακρα
άλλον
τύπων
αστέρα
επισκευ
Πρίγκιπα
αποικίες
Αιν
##αίσθη
##μέτρου
Κοντά
Ρωμαιοκαθολ
##LA
##ουνς
##ούνα
##ρεαλ
Σίλ
##βαείο
παρόν
ποταμών
Βιομηχαν
Εντούτοις
Παγκόσμιος
##BS
##υμπ
##ίγια
Όθων
γάλα
##ριακές
Ντάνι
πεπερ
κινδύν
επεκτεί
Ιστορικό
κριτήρια
απεικονίζει
##illa
##άμεθ
##ητρα
Εμφαν
ζητήσει
##ολέ
##αστη
##αλιού
##ώρηση
Δύση
Μωάμεθ
##μένοντας
Ιακώβου
γιατρός
Κατάλογος
Αγωνίστηκε
πνευματική
επιχείρησης
##ON
##εγερ
Μέλ
κιβ
##ρίδιο
Αγρο
απλού
##ικοποίηση
αριθμούσε
Ουάσινγκτον
##uary
αποζ
Μιλάνο
θεατές
Σχολείο
απομονω
συνεργαστεί
##χηση
Ορλε
οίκο
##ετικές
ανάγκασε
##ince
gre
στόχους
εμφάνισή
βασισμένο
μηχανικός
εκστρατείας
πραγματοποιήσει
Att
Inc
Παγκ
ανθρώπινης
Χι
##τισε
αναπαρ
αδελφούς
εμπορικές
ηχογράφηση
ζυγ
##μάται
1883
Στίβ
λέξης
αεροσκαφών
##φαίστ
Λάρνα
Πύλου
Καταστ
ξεχωριστά
##ύπων
Πελ
Σαμπ
ετυμ
##έλειας
συλλα
##eck
Jack
Ναού
##θετες
επανέ
##esident
##ιλερ
##ρογγ
τοί
##φήβων
σκού
ρυθμού
ανάδειξη
θείου
Σικάγο
μόνιμη
αναπαρά
επίδοση
μεταβολ
Βυζαντινών
δισκογραφική
##IC
##κς
##κός
##ριγ
Τζο
ταύ
1867
Οξφόρ
codice
##go
##als
##ρευε
Books
εγχεί
UNESCO
πολύτι
πρώιμη
κοινωνικών
##ϊμ
Mel
##ιάδας
##λήσει
Αρμέν
Οίκος
ΜΟΝΙΜΟΥ
ελεύθερος
πραγμάτων
Διοικητικά
υπόλοιπους
##άνδρας
ενδεχ
##στερνταμ
κριτικούς
ανακοίνωση
##αίας
Γαβ
Φοίν
##ματικούς
περιεχομένου
πορτρέ
υποκρι
General
εκτελέστηκε
##ιταν
λείψ
Σύνοδο
δίκαιο
επεισο
Εβραίων
Ντέιβις
κειμένου
στέφθηκε
κατάλογος
Τζόρ
ποιο
πυρα
συνένωση
κατάργηση
##asc
##σιτ
Ελπ
Σαι
Museum
άσκησε
προσωρινή
Γλώ
1886
υποχρέ
Δυνάμεων
Αργεντινή
Nor
Φυσικής
δυτικής
απέρριψε
Οργανισμού
##ιλντ
##τήσεων
βελτι
Science
γνώσεις
διευθύν
μεγαλύτερου
##ée
Αιθ
Frank
τόπου
##θετήθηκε
##υρε
right
διασω
όρισε
χαρακτήρων
αντιπροσωπε
Γιουγκοσλαβία
##Cl
θρυ
##πελλα
Κρίστ
English
νικητές
σχεδίασε
διατηρήσει
πιν
μεμβ
Χουάν
Φρανσου
κεφάλαιο
συνεργάτης
φωτογραφία
##ΡΑ
ήχου
έβαλε
αγρότ
διαδικτυακ
διεξάγεται
##τουν
κατε
##έτρεψε
##ολόγοι
παράκτ
##συλ
δικές
ορίζει
Άμστερνταμ
##αραώ
##κάνια
##γεγραμ
Γουέλ
Καζακ
γιορτά
Ελευθερο
υποψήφια
επιδόσεις
πληθυσμούς
##οβιο
##υτών
##φούρ
πωλ
ελαι
καταλαν
πιστοποι
Βουρβόνων
Πρωθυπουργός
##ώνου
ετη
##φρασης
Μαραθ
ήρωας
τέκνο
##ώρ
##δέκ
Si
##itch
Angel
Ελεον
German
πίεσης
περιηγ
τέτοιες
αζ
Λεο
Νιγ
1850
Ακρω
Αλέξ
άνδρα
διάλυ
συνόδ
αντιδρα
σχετικές
κατανόηση
απαραίτητη
Δημοκρατικό
ολοκληρωθεί
δραστηριοτήτων
Luc
κλι
Δαμα
Ραδιο
##ικοινων
Edward
διακρίθηκε
Κωνσταντινου
προγραμματισμού
Κελ
ακέρ
εξέχ
Αγώνα
##γράφηση
ελαφρά
άγνωστα
ψυχαγωγ
πλεονέκτημα
πρωταγωνιστές
##ior
##rie
Φό
##ρυνε
ΑΠΟ
##ριστά
αποχ
album
Τραπεζ
πέφτει
##όπλο
Τρέ
Κρητ
##σκόπιο
Λίμνη
συγχέ
κατέλη
οδηγίες
άγνωστος
Αποτελείται
##έδρα
Nic
Φρου
εύρος
##χλω
Γέ
ερώ
Κολλ
Κριστ
φωλιά
πάροδο
τέχνες
επηρέασε
οξυγόνου
Βενιζέλου
απεικονίζεται
##és
##aur
Sol
Book
##ροσκοπ
Όμιλο
διαλυ
έμειναν
διατηρήθηκε
προσωπικότητα
άξ
δου
νυν
##εβιτς
##ολαίας
##ωμένων
Λάνκα
οφθαλ
Αποστολ
αντιστασ
πλείστον
##let
##χρη
φιν
Ακου
Night
έξοδο
ανοιχτό
Αρχιεπισ
πλέι
κάλυψη
ορισμό
αδερφός
απεσταλ
τριάντα
κυττάρων
βόμβ
σφάλ
##ειδούς
Βουλγ
Γενικό
πεδιάδα
σταθερό
παραλλαγή
##έξ
εργάτες
τρόφιμα
ακόλουθες
πληθυσμοί
συλλόγους
##ιβά
##ρεξ
τιμών
##βάλλεται
##τικότητα
φτάνουν
ορισμένοι
Ποδοσφαιρική
##μενες
1887
Sant
##καστρο
##ροπίας
##σμένος
ειδικ
σχολές
Ιούλιος
αναπτύξει
Χώρα
United
ανακαιν
θεωρούσαν
αρχαιότητας
σχηματίστηκε
##λοπ
##άγος
Βίτ
Λουί
προσώπου
##αμ
##αναγκ
##νήσεις
λόφου
βασίστηκε
επανεξελέγη
##λαΐ
ΕΚ
##θεία
ηθική
προσελ
δισεκατομμύρια
δραστηριότητας
##lor
Τρω
Four
Ντεν
Fried
Τσεχοσλοβακ
##όντι
##τονες
##φορίας
χρονών
Μυτ
Χού
πυραμ
πέμπτο
πόλεως
προφανώς
μουσικούς
απαραίτητα
περισσότερων
##λεκ
##λεία
##όμορ
βίας
Νήσων
χαλκού
μαρτυρίες
υιοθέτησε
νεκροταφείο
##ορες
αποθή
Βορειο
επισκέπ
οχήματα
Ιδρύματος
Ep
##δικα
##πούσε
##ομένων
ασχοληθεί
αντιπολίτευσης
##λεντ
Κόκκιν
κυτταρ
φάσεις
Studios
Συμφωνία
πληροφορία
Δελ
##ματάρχης
σχεδιασμού
Ξη
##ιάννη
1864
Film
Vict
πολύπλο
ελεύθερα
επεξεργασίας
##ki
ρυ
ενασχ
Review
επιφαν
Ερζεγοβίνης
##νί
Div
##άνους
##όμησης
ρόλου
Αττική
μετακινή
##οσπα
Cro
σού
Camp
Μέτωπο
εθνικά
προπαγ
φοίτησε
έλλειψης
##τριών
επίθεσης
u
##πηκε
Aut
##δυτικό
sport
δήμων
αποτυπ
τετραγωνικά
##άλες
διε
Παλα
τυχαία
μοντέλου
προστατευ
##στασή
ποια
ίδιοι
ευεργ
##ξειδίου
αραβικά
σοβαρές
στήριξη
σχετικό
κατάλληλη
συνδέθηκε
##κον
Γέν
Στερε
έφταν
ελαφρώς
οργάνωσε
αντιβασιλ
γυναικείο
Σόφ
##τασης
Ράιχ
ισοβ
σόου
books
κλειστό
νικώντας
##τιος
Hal
Αυλ
##στήρα
Aust
πότε
όγδο
αδερφό
καταχω
τηλεόρασης
##ιλι
##ντάν
Χίλ
στιχ
Anton
γλυκό
Ρωσικής
ρεύματος
Ουκρανίας
##hed
##μασε
γιγ
Μάρκος
Πόντου
περνάει
συνέπει
Εργάστηκε
##θάλα
1871
σκόπ
##ωτικές
σκληρή
χαμηλό
history
φυσικός
επίσκεψη
Συνομοσπον
κυμαίνεται
##yp
όρ
##βασε
##ριακός
υποβρύ
ταχυδρομ
##EN
##ψα
Apr
Βισ
βλα
##μνημον
εκφρα
επιβλη
πρεσβε
τάσεις
Γενικού
Κλειστό
περιεκτ
μεταρρυθμίσεις
##ητη
Ζι
Σάλ
πλην
Final
έλεγχος
εσωτερικά
##ipp
go
Ηθ
##μοχώ
Πιτ
Hill
Holl
Μυστ
μάτι
μακρό
βουνού
επανει
κτήρια
αρκετών
σχολείου
επιστολές
προσωπικού
sec
Φλώρι
σκηνής
ετησίως
##arn
##λλι
##λοφ
##τσο
αίτ
##γονος
Εποχή
δράμα
Νίκαιας
εστιατό
Κροατίας
πιστεύει
##υμά
##έσεις
Σλάβ
μονό
##ιθέτως
Τραγου
##dom
ξυ
##έλλες
φοιτ
Αντιπροσώπ
γο
##ρεθεί
θεσμό
αποζημ
εγκατασταθεί
συμπεριλήφθηκε
##ναλ
##ύκλ
Je
##ster
Afr
ερμή
##ουθούσε
Σλοβακ
παρέμβαση
ποδοσφαιρικό
é
##αιη
php
##μόνων
Έσσης
κυριολ
κρατική
##σίν
##γελο
##διος
Game
προωθ
##θέτοντας
οροσειρά
προσφύγων
##ΜΑ
σο
##book
350
Μαϊ
κρασί
Πάντως
διάδοση
μελέτης
ευρύτερης
##iana
Ουρ
##ublic
Sing
Αδόλ
Γαλατ
ίδρυσης
αστέρας
εξέγερσης
##ορδ
##itor
##ρειών
fact
Νότου
Σαιντ
Σπύρος
φρουρά
αστέρων
προσελκύ
Εδουάρδου
καταγραφή
δημιουργούν
##αλού
##ωστε
Κρέ
κρο
1882
Προφή
##ούμενες
Αριστερ
μεταβολή
γεωγραφικό
πρωταθλητή
σημαντικότερους
##σέζ
##ματη
##ριακά
Λιού
##ητικού
πρεσβύ
Αμερικανική
##σσυφο
αφήγ
δεξί
##ρισμένο
Κολομβ
αντισφαίρισης
Κορίν
κυνήγι
##έιν
##βουν
Όσο
βαν
κτλ
Georg
Λευκορ
δωρεάν
βρετανικό
##omb
##yth
##τεκ
##etta
##ύμων
έντε
ταλέντο
##υψ
##έχνη
##τάνος
Κοσσυφο
νεοελλην
##ύθ
##rol
##ski
Ca
##όριο
βοηθη
##ιστικούς
αστέρια
December
αριστερή
Διονύσιος
τοποθέτηση
##κτήρια
Ρότζερ
διανομή
ανάκτορο
καθιστώντας
πολιτιστική
##άσπ
##βιλ
##angu
Δεί
##ποιες
Νίκη
##τίας
Max
ίδρυσ
Φλωρεντία
αντικαταστά
##λαση
##αίρετ
##ασμένος
##ρολογία
πύργος
ανταποκ
απόκτηση
##ison
##ιναν
##μπρέ
##οκλή
Tre
νησι
##ιγράδι
αίτηση
##da
ΑΝ
##έτου
όροι
γραμμένο
κοινοτήτων
σχηματίζεται
λεξ
##ινητό
Ντιβ
προμή
ψάρια
έννοιες
εκλεγεί
εξετάσεις
σχηματίζοντας
##κλι
##τηλε
Men
Ούγγ
ότου
αρμον
ανοικο
οπτική
Αντόνιο
Βελιγράδι
μετανάστες
##ied
##arch
##ήνου
##σμένα
Θεσσαλία
διαδέχτηκε
##ατς
##υλα
VII
Αρσ
τρύ
Προστ
διαταγή
κομμάτων
##κάλα
Ομό
##ούχων
Σλοβεν
νότιας
καθυστέ
μετατροπή
##ισι
##νάμ
##ades
##όνοι
1836
##δέσμου
##μβέργης
Ερνέστ
ανόδου
χημικό
##ταρα
##ολόγια
##δέχεται
χρησιμ
Χρονικά
πλήρωμα
Δημήτριο
Κατασκευ
αρχιτέκτονας
##έρτο
Sun
Purple
αγροτική
σπουδάσει
επιπτώσεις
##ρέλ
ζε
God
Τιτ
##υφθεί
1877
Σφαί
ετερ
Καρχη
αντιμέτω
κατηγόρη
##ima
Μή
Καιν
εκτοξ
Σύνδεσ
παραιτηθεί
θρησκευτικό
##ριων
##λησαν
##πτοντας
Στάλιν
θετικά
προδια
είσοδος
Οργανισμός
Πινακοθήκη
##ider
##ισηγ
Ελα
Άντερ
χημικά
Κατοχής
τελικώς
Βρετανοί
ισοπαλία
##χίες
Earl
καθένας
στηρίζεται
##TS
Τόμ
2020
ψυχή
πέναλ
}
##ida
##ule
##οργ
##χως
ΝΑ
##ευσή
Ρίο
##στρας
FIFA
Πανε
κακή
Κορρά
Φρίντ
βορει
κύματα
εργασιών
επιφάνειας
##άρτ
##ίτου
σπά
##ρχίας
ακόλουθα
ορισμένους
##ts
1828
Σύγχ
Αρχιτ
προσέ
Βασίλη
Σχέδιο
έγραφε
διακοπ
Παγκόσμιας
ήπ
##ρηνα
Μερκ
##ριακών
δωμάτιο
Πεζ
Γάλλων
##μοχώστου
αναγράφ
Ερασιτεχν
σημειώθηκε
Ρήγ
1875
απεργ
##κτήματα
Ιστορικά
νομοθεσία
Πλούταρχος
##ασμού
##πόθεση
αρχαίους
παράδοσης
##bl
μόλ
##ative
##θεταν
Henry
Χρυσο
εξαρτ
Αρμενία
εκτιμήσεις
τοποθεσίες
##γκρε
ΕΠΟ
Ουσ
##έστερο
φθάνει
δυναμική
cent
προορ
εξίσου
εδρεύει
##ίασε
##ωτής
Ιβη
δερ
##atist
##έμβρη
Ημερ
##ρόπουλος
ιδιωτική
Αμμοχώστου
απαραίτητο
προκρίθηκαν
προσωπικότητες
##ξος
Χάμ
έπει
περιέχ
δίπλωμα
Φρανσουά
κληρονομιά
σπον
Στρατηγ
##σφαίρισης
Μουσικής
BMW
Στέλ
φορτη
διατριβή
##λλυ
##αλου
Rel
##annel
Queen
μείγμα
##ρέφοντας
ορχήστρα
##ωδίας
Κυπελλ
άσκηση
διόρισε
καινοτο
διδακτορικό
κατασκεύασε
##μίνα
Ζου
κοκ
##ισσες
1863
Γύρω
Νομό
αρτη
South
ηφαίστ
κόλπου
παραδό
Βαθμολογία
IP
##πτυγ
Πυθ
##ιώνει
##ποινα
Γκραν
επώνυμο
διάσημος
##ona
Κάν
αλά
##λοχαγ
1862
υγρα
##έργεια
Γενεύ
Ήπειρο
Κροατία
Βασιλικής
##ih
##άφου
Χαρά
λεηλ
##ροουγγ
ευημερ
διακοπή
##ματικότητα
εξαιρετική
παρατηρηθεί
ίπ
##κτρα
Σάρ
##λόγος
Εκδο
επέν
Τύπου
κρυπτο
ξεπέρα
συνεδρία
Τραγουδιού
συναρτήσεις
Dig
ήσαν
##αρχίες
##estival
Τζόουνς
Os
##τημα
Θρησκε
Λευκωσία
Φινλανδία
Βαρκελώνης
συμπεριφοράς
sup
Ρον
##δύνου
##ιδιών
γαμπ
αδερφή
Σουλτάν
κρατήσει
λεπτομερ
πολιτείες
βιομηχανική
διακυβέρνηση
Cast
ύπαρξης
ελέγχεται
συνέλευση
διοργανώνει
περισσότερη
##εβο
##κηνα
##όλας
Σακ
ετήσιο
μαλλιά
αρσενικό
Who
Ναζί
Πλαν
##ότοκος
Ουραν
##αίνονται
Δικαίου
Γερουσία
Entertain
ολοκλήρου
ΔΗ
Αρτ
##ορίου
κάπως
Βραβεία
χειροτον
χτισμένο
υπογράψει
Αντιπροσώπων
##βάλα
Αγά
1853
κολλ
Ημέρα
εξωτερικά
Britannica
ανατολικής
##ζή
q
##νον
##σιέ
ακριβή
Ιουστιν
κατοικίες
οργανισμών
Fa
##δίδεται
ανθρωπο
τραυματίστηκε
Ha
##ουστ
Tor
Ενω
##μπορν
1876
διευκ
ρούχα
γραφής
Ιωάννου
##σόφ
##azine
##ωδίες
ουγγ
##ροφόρη
Καππα
Λεοπόλ
προήχθη
Καζακστάν
παρουσίας
Φαν
##λεγμα
Pict
κρέας
##λώνεται
τοπικού
##avy
##ays
##ώλης
1861
June
ποιν
##πτώσεων
εφευρέ
τείχος
εγκεφαλ
##ira
Σιγ
Αποτ
πεζο
διατηρη
θρησκείας
−
Δί
καί
ελατ
σόλο
##ιάννης
μέθοδοι
γυμνάσιο
διάσπαση
μουσικών
επίκεντρο
FM
Ir
##ούνι
οστά
##έβαλαν
πολων
επιδεί
##ματολογία
απέσπασε
Πετρούπολη
Πρωθυπουργ
κυριαρχίας
Ast
άρα
##μμένο
Κρις
μείζ
μένει
πέτρα
Βυζάντιο
##ala
##rary
##στερο
Επιτελ
Γεωργία
συζητήσεις
AN
Όρ
##ουλά
Tri
all
##ιανών
φόρο
θησαυ
φανερ
Ιταλική
Πρωσίας
εικόνας
Διοίκηση
ανέγερση
αφορούσε
περιστασ
κατηγορήθηκε
συγκεντρώσει
##ούλη
Βερν
ψευδ
καμιά
Σοφίας
καταλή
μπάντα
επίσκοπο
πολεμικές
##ason
##λυτα
Anth
Άντον
Ανζού
τοπίο
μοναχός
ναυτικό
διακεκρι
Καποδίστρια
εκστρατείες
Entertainment
Δοκ
μαθή
χωριών
Άγγελος
Βιετνάμ
νεκρούς
διακοσμη
μετείχαν
Γραμματέας
προκάλεσαν
##ηρη
##λεφ
Na
me
Νόρ
φωλ
αυγά
Έκτοτε
Μάρκου
Ελβετίας
##AT
##idd
##uff
##ρίσκ
Πού
νου
ραβ
στρέ
Ιεροσ
Προτε
ενιαίο
προτερ
επιμέλεια
απαρ
Αστρο
εδρών
ζώνης
Ιρλανδ
Φραντσ
Καταλον
πέναλτι
ατμοσφαι
εμ
Κάι
##έρφια
##ενείς
##όμορφ
κουν
##εύθηκαν
Metall
Οθωμανών
συνέπειες
φυλακίστηκε
##πτε
##βάθμ
bit
Bern
πανο
Princ
παλαί
παππού
σπήλαιο
υπηρεσίας
##σημ
op
1825
έγκυ
έστω
##νοβιτς
Ιμπρα
##istrict
##ιάζεται
κήρυξε
διακοσμητ
προηγούμενα
##acy
Emp
Νεί
##κισσα
Sept
ιππο
##εύρεση
λέξεων
τίτλου
διαταγές
θαλάσσια
πρακτικές
προέρχονταν
##έου
##τρο
Not
Κλή
νοση
χώροι
μονάδων
σταθερο
επιλογής
ηθοποιούς
##βό
##ζος
bi
Bra
Ιτα
Λύκ
έκα
πήγ
##έλυσε
Μακά
πυρι
Πάρκο
ομοιο
στροφ
έντονες
##ja
##λεϋ
τούτο
##ολογίες
Ζηλανδία
καθυστερ
ενδιαφέροντος
λεγόμενο
μακροχρόν
##λλε
άτ
##κτου
##άνισης
Παπαγ
αξιώματα
##ούφ
##ρίθ
Gar
Γρεβ
##έκρινε
##χομένως
##ποιώντας
Κολοκοτ
ενώσεων
διάγνωση
μειώνεται
χαρακτηρίστηκε
##even
##κεφαλ
Band
##άιτεντ
εκτοπ
επίπε
απολογ
αυτοβιο
μέτρηση
παρόμοιες
Πανεπιστημ
Cat
ευτυχ
περιγράψει
##διω
ΚΕ
##ποιοί
Στυλ
Franc
ανάμε
θεραπ
έρχονται
βασίλισσας
##lem
##τσε
Cy
θεία
ζήσει
οδηγός
British
υδρογόνο
εφαρμόζεται
##app
##ατε
##βατο
Sab
ποπ
Pier
Βέρο
πτέρυγα
ξενοδοχείο
##ese
##λώθηκε
ανακαλ
Κάποιοι
Γουλιέλμο
αποστάσεις
Γιουνάιτεντ
##τεχ
##zant
##διαι
ερη
προμη
##εύονταν
ουρανό
εργαστεί
μόνιμους
##σεία
άριστ
archive
Ελευθερία
##ope
Πί
##άρντο
δεχτεί
στρώματα
##κόφ
##ότσ
##ρουπ
τύμπ
αξίες
ηγεμόνα
τελείως
Συνορεύει
##μπί
##βηγκ
##χαϊμ
Joseph
Παλαιό
αφαίρεση
ζητώντας
πρόσφατη
κυβέρνησε
Αμερικανικό
Δικαιοσύνης
##ωρου
Ζωή
ηθο
κύμα
State
αγορα
πλειον
προγεν
πώληση
οδηγούν
##υτη
##ιζερ
##κίνη
##λιος
##μειν
Πεδ
Παλαιά
εξάδελφ
Παλαιότερα
διατηρείται
##aff
##gen
Κρυ
μιγ
Hand
ήλιο
αγαπ
καταθ
περιόδ
καθοδηγ
##αράς
Νόβ
Θεσπ
Κουν
ανθε
Γουόρ
λόγιος
θεμάτων
στείλει
μετάδοση
καθοδήγηση
στρατιωτικά
πρωταγωνιστικό
##ose
Όσον
ψηλά
τεχνών
εμφύλιο
κατάλληλο
ag
##ίτας
##ρεγκ
##ρύτων
οδοντ
χώρων
δικαιοδοσία
##ua
##δελβ
νιτ
##istry
1800
Μαίρη
Διαθέτει
πρόκριση
##μίρ
Έρ
##orum
##ίδρυ
##ριές
Hel
πόδι
##έκτησε
Έθνους
πρωταθλημάτων
##ώλη
##μαρο
Big
Ήδη
Σλέ
φύλο
Μαξιμ
Ζωγράφ
εθνικού
Βρετανικό
ιστορικής
Far
χτί
Νιου
Καθηγ
Γρηγορ
κεντρικά
μαθαίνει
καλύτερος
##ιτος
Λοκ
βγα
Αντι
νοτι
##μπέρτο
Κορέα
Λάρισα
Τοπική
σημειώνει
ομοσπονδία
χειρόγραφα
##ober
##ather
##ήματά
##ενήντα
Άνταμ
Νομική
θετική
σιδήρου
αρχίζουν
##ιγρα
##λασια
##λαντές
μοναστη
Κολοκοτρών
##όβου
Μεχ
υγι
##ρωσαν
εναπο
μόρια
μειώθηκε
διαχείρισης
fl
##βεντ
αρρώ
φέρο
κλάδου
συγκρι
Αμβέρσα
αδυναμία
##ΠΕ
##unk
##ειρα
Open
##ολόγους
φορτίο
βόρειας
κάποιων
φυλακές
παρατήρηση
σεξουαλική
διοργανώθηκε
Lat
Αλά
Ναυπ
στήθ
Χαϊδελβ
έδειξαν
Πρέβεζας
δανεικός
##ιολ
##τρά
##γκελ
par
Δαλ
Χιού
##ρώνουν
εορτά
παγετ
πυρκαγιά
εξελίξεις
##ναί
##όχου
##ώπων
Ράντ
##ρίσουν
Φθιώτ
σοβαρή
ανοικτό
εποπτεία
Αθλητικός
βαθμολογίας
χαρακτηρίζει
##ωτα
ΒΑ
ωο
##κτός
##σεών
Γκόρ
Γαλλικό
αρχαίοι
φάρμακα
Αριστοτέλη
θρησκευτικά
υποστηρίξει
##onia
##ούρι
Law
Ουν
Γκάρ
μπάλα
υψηλά
διευθύ
Ξεν
εμπλέ
##ization
κανάλια
κοντινή
##ατάστασης
##σαι
Σωκ
##αλλήλ
συνά
σκόρα
συστατικό
Καλαβρύτων
##γες
##σεϊ
##χνε
Δρ
##λλών
τσε
Μπάμπ
γνώριζε
Δυνάμεις
σημερινού
διεκδίκησε
##τιμ
##φεί
μίσ
1868
White
δικτύ
εισηγ
αποφύγει
πανελλήνιο
##αλει
Ασσ
Δάφ
Κρα
έσπ
αναδιο
επανασ
κρίσης
Προβηγκ
διευκολ
102
απή
ται
##ετίας
##ference
επιστημονικά
##λευε
##ieval
φιλμ
φτωχ
##χωρίου
Ρωμαν
Εβραίοι
Ερευνών
απόσπασμα
εφαρμογής
αντικατάσταση
AC
##inus
##λειας
##ρευσης
Μπέργ
φτερά
παρείχε
κειμένων
κινδύνου
Διευθυντής
ολοκληρώσει
Af
##όκιο
##δοκία
εκρη
μακε
συμμ
Album
πάλης
##αστηρίου
ευαισθη
θεατρική
εμφανίζει
Αναγέννησης
##én
##ελπ
##ικας
##φωνα
##κοβιτς
Kings
Λίβερ
πέτρι
κηδεία
αισθητή
εκπροσω
χημικών
συμφωνίας
Γυμναστήριο
αντικαταστήσει
Ur
##ύνης
πυγ
Τρικά
περισ
στρώμα
Πανιώνιο
ιστορικού
ιδιοκτησίας
##ee
##urch
##ητος
NGC
Λασ
##ίονες
μτφρ
Polit
Scott
παρεν
κόμικς
αυξηθεί
Institute
##ίτος
Sir
Αυλή
οπισ
##θαλάσσ
πρόσο
κανένας
Παρέμεινε
ασφάλειας
Τουρκοκρατίας
##ήνιο
##φυλλο
θεσμού
προφορά
Καθολική
συγγραφέων
δημιουργήσουν
##uf
Rob
Ευγ
Σιχ
##ιανής
Γουέστ
Λουίζα
αστική
αφήνει
ονομάζονταν
μετανάστευση
##ολία
##παιο
##ψεως
##ριανή
ναούς
##ιζόμενη
Πάπυρος
θεώρησε
αντιπαρά
αγωνιστής
τελειώνει
Φραγκίσκου
καταγραφεί
χάνει
χρυσού
δοκιμές
Κληρονομ
γερουσια
συνεισφορά
##άρμο
ημισ
διασκευ
επιστήμο
πλατφόρμα
αναγκάστηκαν
##λαι
##κίδες
ποδη
Νάξου
πυρετ
Κριμαίας
συνθηκών
Αρχαιολογικό
##σίμ
##elli
##well
##γκάρ
σκόραρε
σωμάτων
εκατομμύριο
##oo
Bon
αρκ
##ιέται
1872
πλησ
αρμεν
ποτάμι
Σπάρτης
ψω
##work
όρη
Count
ανεγέρ
μονάχα
πάρουν
Τελευτα
ζήτησαν
Ανάπτυξης
σημαντικούς
Δημοκρατικού
Rh
Εβ
##μιού
Φέρ
θνη
ύλης
συμπί
Channel
ισορροπία
κατασκευές
κληρονόμησε
##τάνο
Βλά
Καλο
κοσμή
γύρισε
##olo
##ελί
##ζάν
##χιο
Sa
##μετα
Λουκά
δημόσιες
εκλέγεται
εξωτερικού
Κυκλοφόρησε
##φλ
πάσ
έφτια
λεηλατ
πέτρες
μετονομα
##ota
ΒΔ
μω
έφθ
πεποι
απασχό
ποιητές
μετακινήθηκε
αντικαθιστώντας
##ορος
Σιλ
κοπ
πλάκα
αποδοχή
εκπέμπει
ρωμαϊκής
χάνοντας
αντίστροφ
##reet
επεκ
αυτοσ
κλειδί
Μπράιαν
σημείων
ενεργοποι
συναντάται
Λαζ
Οντ
εγκα
μόρφ
οικία
στόμα
##ιάζοντας
αγάλματα
διάφοροι
##νής
Νικο
April
Island
Γκραντ
καπετάν
προετοιμασία
##IT
##ηλεκτ
##όνησε
Χέντ
πουλ
τραβ
Χέρμαν
περιπέ
ιατρικής
##όξ
##θαρ
Μύ
##στός
Γκά
φερ
##icial
##αζόταν
Κομητ
σαφώς
σώσει
##ανατολικό
αξιόπιστ
βασιλέων
μουσικές
παρέδωσε
Πτολεμαίος
χριστιανική
##ιακοί
1874
part
Κορν
##εκτικά
Ντόνα
Χωρίς
πόρων
νεκρών
οπαδοί
πτέρυγες
διαδοχικά
ξεχωριστό
Up
1873
Ιερό
απόφ
αναπό
αντανακ
εντολές
παράλια
περίπλο
νικήτρια
διατάξεις
καλύπτουν
Χατ
Just
θυρε
##πουμπλ
δευτερο
προκύπτ
διατηρούν
απαγόρευση
UE
##ious
##όρθω
υφυ
##έφαλο
Post
Ιππο
Maria
άγρια
συνιστ
αμφιλεγ
##ras
##ίτο
ΔΕ
##άρει
##ρωθεί
Ράιν
Λαϊκό
νόημα
##βουλευτ
άνδρας
γερμανικές
καταλήφθηκε
Ανο
σφο
Βεγγ
κβαντ
##άσματος
Βοιωτίας
Τρικάλων
επακόλου
ευρύτερα
στιχουργ
Παγκόσμιου
Χρησιμοποιείται
##ζον
θω
Σκου
ορίζ
Περού
πιλότ
αρχοντ
ατύχημα
πράγματι
στράφηκε
ιδιοκτήτης
βιομηχανίας
Πρωταθλήτρια
ψά
Επίσκο
Λέσβου
Γραφείο
Σταθμός
Παναγιώτη
ελευθερίας
κατασκευαστεί
Ga
##ύουν
1844
αγρότες
σύνθεσης
διοργάνωσε
##αρης
Λυκ
έλε
ουσιών
πούλησε
τακτικά
εγκρίθηκε
εγκατέλειψαν
##RA
##πέζ
##iver
Πικ
τιτ
##άντης
##μουλα
Κύπρος
Χριστό
ανεπιτ
δώσουν
##στημάτων
Τζόνσον
λεγόταν
Φερδινάνδος
χρηματοδότηση
##ado
##alog
Σάμ
βολ
Const
Επιχει
αναλαμβ
επιστημών
##ΑΤΟ
##ικοπ
##ξιών
ενδυ
##γγειλε
Chron
γεύση
ιταλικό
Αδριανού
Αμερικανίδα
Bib
are
Ενό
##ράτες
Death
Δαμασκ
Rolling
αποφεύγ
κατακτή
εντύπωση
μεταμορφ
Ολυμπιάδα
Γαρ
Βαγγ
ερευν
σωστή
συμβολίζει
χερσονήσου
καταγράφεται
##μς
##atus
##όμερ
Γρηγ
Τραν
##ροφυλακ
τυπική
σηματοδο
Αργεντινής
αφιερωμένη
πολιτισμός
##MA
##ξπη
Κη
##ιντς
##όγια
Αισ
ντι
##πιταλ
##ρούμε
##εράσει
##κρατία
σεισμό
υπαλλήλ
εκείνους
Αλί
##εστραμ
Ασχολ
Βαρσο
άντρα
Μουστα
Σαρδην
Century
Πριγκιπ
Christian
Λίβερπουλ
ενδεχομένως
μεταγράφηκε
μυθιστορήματος
##πλες
##υσμα
Μεδ
ημί
##λίγκα
1856
εκδιώ
κάμερ
ετοιμά
υποψήφιοι
συνδυασμός
πρωθυπουργία
επαναστάτες
##iman
##ιχθεί
1829
1865
ακτιβ
##ασμάτων
##μόρφωσης
ενταχθεί
Biography
Παυσανίας
προκρίθηκε
##γη
##irl
##σθέ
AS
Μοχ
##αρτών
ανεπτυγ
ευαίσθη
πολλαπλασια
##άμους
1826
μεταξ
ατομικό
αντάρτες
Πρίγκιπας
Παρασκευής
εκτεταμένη
Σταυροφορία
εκμετάλλευση
εκκλησιαστική
ne
ανώ
##άρχες
1869
Παρισ
κατεβ
Διοργαν
διδασκαλίας
ηλεκτρονική
##sy
##ete
##μάδα
##μάκων
Χοσέ
μισθοφ
Στέφανο
έγκριση
εξαδέλφ
προσαρτάται
##oma
##εγγ
##άδας
##ινες
Cur
συσ
##έχνες
Αργυ
σύμφ
##κάλεσε
Φρανσ
Τριφυλ
Ελληνικών
καλλιτεχνικό
περιφερειακής
##μικ
##υλος
Gall
Γκίλ
Ναβάρ
Τριαν
αφοσι
Επαρχίας
Επομένως
αυτονομία
αντίστασης
δημιουργός
##εύθυνσης
##ηγορ
Κίτ
##ημοσύ
Τζαν
οξει
Brown
Αφροδ
Καντα
ιδίου
Πύργος
αδελφές
ανεπίση
διαδηλώ
αναπτυσσ
προγραμμάτων
##ιαστ
##συγκ
Down
θρυλ
ριμπ
πέσει
ιδρυτή
Πλατεία
District
υποδηλώνει
περιστατικό
Der
##ιάδων
##χρονο
##ιδε
Di
Γρά
όμορ
Νέβιλ
πάπας
πείσει
προβλε
America
Project
στιγμές
ενθουσια
κίνδυνος
συνέθεσε
καλύτερης
κεντρικός
Publishing
ταυτίζεται
Deut
Power
μνημον
αξιολογ
επιβάτες
διαθέσιμα
##σσο
##ντιν
doi
his
##φρεντ
καθαρό
Απόστολος
Πολιτικής
ηλεκτρικό
παραχωρήθηκε
Εσ
ζώο
##δικαλ
Γκορ
άλμα
τελικού
Research
ιδιωτικό
διαταραχή
αναπαράσταση
καταλαμβάνοντας
##χόλ
τή
##ιμίρ
ακμή
Δίκαιο
αρκετό
πόρους
μεμβράν
##υγής
Αυτο
Ντελ
πύργο
##μούνται
κτισμένο
##ΕΙ
σκλάβ
Τμήματος
##och
##δρος
Στοκ
επέζ
Αργολ
διαβά
##οκρατίας
οδηγούσε
πρακτικά
ισχυρίστηκε
χρειάζονται
περιβάλλεται
##hr
te
Sat
Τεν
##ριανό
χειμερ
Λατινική
em
Δαν
1824
αραι
##οικονομ
Αρχείο
οδηγώντας
##αρό
Βρυξ
##μένεται
Λύκειο
εγγράφ
Οθωμανοί
Αυστροουγγ
July
σκελετ
πολέμων
κορίτσια
Οικογένεια
δευτερότοκος
CN
East
##ικητής
Γεννη
μέταλλα
Βρετανούς
σύμπλεγμα
αντίστοιχες
αντιστοιχούν
Χαρακτηριστικό
##ny
##δυλ
##σπου
##τούν
##ρίδης
ισλα
ορει
##ημένων
##ρόφους
Αγγλο
βρουν
##ούμενων
έντομα
ελάχιστη
επέτρεπε
ηθοποιού
εναλλακτική
##γουά
##σιακή
εισο
θύμα
κραν
##ωμένου
επιτεύ
εταιρίες
εξυπηρετεί
αποσπάσματα
SA
Ικ
##άρχου
Μπετ
Σεμπ
Αθήναις
Σταυροφ
τροχιάς
Βυζαντίου
χρειαζόταν
à
Ζάκ
##ature
##ίνουμε
βαθμού
γαλλικού
κατέκτησαν
επιτρέπεται
##my
##ΚΟ
##άνδρα
##μαδια
Βραν
##χρόνως
Ισαάκ
Κόριν
Μισέλ
January
αδέρφια
εκείνον
νεότερη
προταθεί
σημαντικών
άθ
ρώ
Mur
τσα
ανοί
άσπρο
ένταξη
##ιμότητας
Άγγλους
παραπότα
##agen
Sum
Ηγε
Ραϋ
1815
Σίντ
##πονται
Μπαγκ
ξεφύγ
υποχω
γνώσης
Καταλαν
ορισμός
Σπυρίδων
ανατροπή
επανειλη
μαρτυρία
πειραματ
γεωμετρία
επεξεργαστ
gu
##λάου
εντυπω
Βελιγρα
λείψανα
220
Ott
Αδε
Σαί
Best
##εύσεων
##ιούζικ
μπάσο
Johann
γραμμών
μοιάζουν
οθωμανική
διαγωνισμού
μεταρρύθμιση
γεμ
ερχ
UEFA
Στάν
άνθη
νήσο
ολιγ
σκληρό
αυξάνει
συλλαμβ
καρδινάλ
Αεροδρόμιο
εξωτερικών
συναντήσει
Βελιγραδίου
χαρακτήρισε
##oire
Cam
fran
Μόντ
Τόσο
χορό
##δρόμων
Μυτιλ
κανονικής
Αποφοίτησε
συνάρτησης
συνεχόμενες
av
out
ντυ
Τσάρ
Wrest
οχυρό
ενεργε
διενεργ
ελέγχει
προσώπων
ανθρωπότη
##λεμ
##νταρ
Πεκ
##λεπτο
##ούται
##τήσει
Μαρξ
απόκ
κηδε
οφει
##γιάννη
##σελόνα
κεφαλή
October
Βαλκάνια
πίστευαν
αισθητική
αντίγραφο
εκλέχτηκε
υποτροφία
προστέθηκαν
##αιος
Dep
##ϊκούς
Ιορδ
νικη
##έστειλε
καταγε
μορφών
μειωθεί
##ουλου
##ρεσαν
Iron
##άγγελος
Λομβαρ
κατάλη
αλυσίδα
οικισμών
σημαντικότερη
##ΖΑ
##ati
ΣΕ
##Ball
##ione
Κούρ
στενό
ρουμαν
οφείλει
καλύπτεται
ανακαλύπτει
##πιον
Feb
έρη
κρη
σπο
Αχαι
απόρ
##cessed
υπηκο
απολιθ
Αυστραλ
θεότητα
Πράγματι
ζωγράφου
παραδόθηκε
Περιφερειακής
##nd
##ΝΑ
min
κασ
##ische
##πέντε
1843
αντεπ
ακτίνα
κοινής
δακτύλιο
διάσταση
καταστράφηκαν
τερματίζοντας
##ιάρ
##ψιμο
Bell
Μπάτ
άπει
##ανδίας
κύματος
Βρετανός
απόγονοι
ιταλικής
παραλίες
παραμονής
φιγ
1851
ξέσπασμα
υιοθετήθηκε
##βάρα
Ρος
Επίσημη
Νεοελλην
πεθαίνει
χτισμένη
Τριφυλίας
συνεχόμενη
Kar
Τέρ
νάρ
##σσουν
With
συμπα
##ύχθηκαν
Παλάτι
Υπολογ
κοπέλα
αντίθετη
συνοδεία
ορκίστηκε
επιτρέποντας
εγκαινιάστηκε
##άρο
##Play
##μπόν
Μάγκ
Ντού
Σουδ
Αθηνά
##ρώθηκαν
ρυθμός
ανέθεσε
τρόπαιο
συνθέτες
αντιμετωπίζει
##νομο
τόν
Ρέντ
Academ
Μαδρίτη
γραμμάτων
στρατόπεδα
##gypt
mar
Μπί
Πάλ
##στατη
ξηρά
απομό
Αιγαίο
εξηγεί
λατινικό
φωτογραφ
γερμανικών
κατέστρεψε
αξιωματικούς
##ϊρ
##νοή
##ists
ερή
Φερν
ανήλ
καλα
διάλυμα
χαμηλής
διάφορων
φροντίδα
Βρυξέλλες
αποδειχθεί
διατηρώντας
πετυχαίνοντας
##αγές
##νησος
Πάσχα
σύνταξη
τελευταίας
παρακολουθεί
##μουν
##ιλιάν
ποσοστά
Φιλαδέλφ
μυθιστορήματα
450
Νεά
Χέλ
έσω
ραγ
1832
Marc
ροής
τρισ
Προπο
ποιος
δυσκολία
εξάπλωση
ηπειρωτική
##κόπ
##ύτη
AR
Ετ
Λιν
Τέξας
εφαρμο
καθημερινά
μεγαλύτερης
##ταμ
##λοκή
man
##όμαστε
νομισ
σύνολα
Βοημίας
Κατερίνα
επιλογές
Ακολουθεί
κιθαρίστα
Σον
δέρ
Λεόν
Ροντ
επιτευχθεί
ακτινοβολίας
{
##υλά
τας
##ατιού
Γοδε
Μπέν
έκπλη
ελαφρύ
##ούμενους
σερβικά
Καρδίτσας
καταγεγραμ
##на
##ύρας
##ities
εκρή
Ελίζα
έξοδα
δραπέτ
συμμάχ
##ιούζικαλ
Ancient
έπαιξαν
απογοητ
πιέσεις
προνόμια
##συγ
Εκδ
##άλλου
##ρίτης
βαπτ
##ύσματα
Stone
κρατή
ενιαία
εκδότης
##ποιήθηκαν
περίφημο
αγροτικές
ημιτελικό
δικτατορίας
pe
##όνγκ
##ονότι
Μπον
άκου
αισθ
##αστικά
Φρανς
νήσου
συντρι
##λευθέρων
Δεύτερο
κτιρίων
αρνητική
πειράματα
Μπαρτσελόνα
##ba
Su
##ετού
dem
Long
απόσ
Αιτωλ
βραχύ
Ελένης
Μπρους
απόλυτα
τελικούς
προσωνύμιο
χειρόγραφο
φόβο
##ατουάζ
λιοντ
φιλία
##Station
βαθμός
ιατρός
εχθρούς
κατοική
Ριχάρδος
διαδοχής
φαίνονται
ηχογραφήθηκε
##len
##rian
##αθούν
##ρινός
1837
YouT
Σημα
Βιρτζ
επίλυση
κορίτσι
διαδίκτυο
παράγοντα
Επιπρόσθετα
##ör
##κυδ
Gh
Άγκ
##βάλει
##λινγκ
##μενων
Γουά
##γραφών
##ξένησε
Dream
δάσκα
φεουδ
Ασφάλε
επίσημος
September
Περιλαμβάνει
Ορέ
Τέσσ
άθρο
Θεοδώ
εξόρυ
τόμους
Δουκάτο
Medieval
θεωρώντας
παρακολου
##ika
##σαλ
Ενα
##ester
##ιάσει
##ώτρια
ντου
##ιότητα
λευκά
Κόσμου
Γρηγόρη
##ιεπίσκοπο
εσωτερικές
διοικητικές
##ψίας
Your
Κλεοπ
Μητρο
δεσπό
πέραν
όπερας
μαθητών
ασθένειες
ριμπάουντ
παιχνιδιών
240
Ούγ
νορ
Μασσ
Πνεύ
Κωνστ
στηρί
Εύβοιας
Θανάσης
διαπίστ
πυροβόλα
PlayStation
##imer
##νασσ
##λευθέ
λογοτ
στρογγ
κανονικό
επαγγελματικά
##σόλ
##άντων
##λογες
Women
έρωτα
μάθει
πηγών
Byzant
αστέρι
πλάκες
φεύγει
επανάλη
εργαλείο
##omm
##ιάκ
##ραχ
Αρθ
Σορ
Mary
Techn
Συμμά
Public
ανοιχτά
ισχυρές
Ανατολικό
εργοστάσια
##ova
##spot
##λασία
Καλύ
λένε
##υροβολ
πλάτη
στοχε
δοκιμά
χάρτες
Κέρδισε
πολεμικό
αντικειμεν
τοποθετηθεί
δημιουργούνται
##νάς
##ναν
DS
ΕΟΚ
ίση
##ensis
##stein
##δωρος
Park
Κορυ
Πέμπ
αλγεβ
βοηθά
διανυσ
προφορ
Ανεξάρτη
αποδεκτή
σημειώνοντας
##σαμε
mon
Ουέσ
##κτικού
##δημοκρατ
αυτόνομ
σπιτιού
αρνήθηκαν
##σετ
pg
Βό
##ρέντ
360
##ledge
ανθρωπ
England
Σκωτσέζ
υποψήφιο
Βρετανικής
γεωγραφικά
συμμετέχοντας
##κιο
##σιας
Ντί
τσά
Αρτα
Εσπερ
Καλογ
##μπάσκετ
##ουκάτου
##ισμένους
μυστική
οριστεί
αεροπορική
##yt
##ρπ
ΙΔ
##ουλφ
##φτεί
Dom
σφοδ
##ατικός
εμπλου
##ολογικός
ζωντανή
Διοίκησης
σημειωθεί
χωρίζονται
προσπαθώντας
Νομ
αντιγ
Empire
εκείνοι
σύμβαση
παράταση
αμυντικός
ελάχιστες
επιχειρηματίας
##ιδο
##ρατσ
Ουλ
καφ
πάχ
αναμ
αμινο
λευκή
online
διαιρέ
επικαλ
Σκανδινα
δημοτικές
##iro
PA
1204
Δραγ
διάσημη
Φαίνεται
παίρνουν
τελευταίων
##cc
€
Ούλ
##ουργία
Center
Λέοντα
άμυνας
γραπτά
γνωστούς
εξουσίες
προσπαθούν
Πρωταθλήματα
##κυπ
From
stud
έκτη
σπαθ
διατελέσει
εργαστήρια
σχεδιασμός
αποκαλύπτει
εκπαιδευτικό
Ακτ
τρού
##μπριτζ
ανερχ
αποκτ
επενδ
τοίχο
επίτευξη
υπέγραψαν
Οδός
φήμες
Αστέρας
σύγχυση
μπορέσει
επιθετικός
σεναριογράφος
##IV
Fox
##αχτυλ
rock
Ισλα
Τσερ
ήρωες
όγκος
Στοκχόλ
τέταρτος
Μοναστήρι
Ελληνισμού
##zo
##esch
ανό
##μολογ
μεση
υπαί
##λλαδικό
Ωκεανό
ενηλικ
καπιταλ
αγωνίστηκαν
##ωργ
Vir
σετ
Ξενο
Πορτο
Παρότι
YouTube
Επαναστ
δυτικές
Football
Ακουιταν
Εβραίους
προχωρήσει
σκηνοθέτησε
##ram
Ρί
απον
##δρομίας
Μονακό
Στίβεν
αποκορ
Οικισμών
διαμάχες
οπλαρχηγ
προαναφερ
Χαλκιδικής
προκύπτουν
Λη
δά
##oung
1859
Αιθιο
Μπάντ
##ολόγηση
Φλαμαν
κατακτά
αρνητικά
ελάχιστο
ζευγάρια
μοντέλων
εταιρειών
υποβιβασμό
Πλέ
##υρθεί
Fact
Γκρί
##θέντες
Λεοντ
αντιφ
κατέρ
υπαίθ
πτερύγ
υψηλού
Kingdom
Ντάνιελ
μετάβαση
συμπληρω
##κώ
υβ
##ένης
##δόνα
Dou
ρευ
##μουντ
##ριούχο
πύλες
υπολεί
πρόθεση
Φλάνδρας
επαναληπτ
Πελοποννησ
περιστροφή
##δοι
##elle
##νομή
##φωνο
Λαν
ανη
##γράφων
##ικισμού
βαθμών
Φράγκων
εισαγωγ
χημικές
Ροβέρτος
Αθανασίου
επαναλαμβαν
##κομπ
Bas
Ταλ
##ittle
Ραφα
οροφή
Παρατη
έντεκα
αγγεία
Μεσολογ
ομορφιά
ακαδημίες
διακόσμηση
##ya
ΤΟ
##φρεί
Ven
μεθυ
##μποργκ
Sports
διασκε
τρίτου
τουρκικό
πραγματοποιηθεί
ψή
Βακ
##φθούν
Σιντ
Κορέας
εξαφάν
χορευτ
Πεζικού
αγωνιστικής
παλαιότερες
προβλήματος
##σαφ
βω
##ista
Atl
##ερίου
##φιλντ
Χανς
γκρι
ντελ
##βάθμια
##χώρησή
Αδελαΐ
##ελήφθησαν
Ατλαντικό
Δυναστεία
μετέφεραν
χαμηλότερη
##ady
##ely
θία
##ούλου
##ission
βραχώ
Αστέρα
Ρωμαίος
κλασικής
αναμένεται
παραδοσιακές
αντιπολίτευση
1839
Σεντ
##άλειψη
world
δραπετ
εισπρά
υποκατ
αφρικαν
υπεράσπ
αντιληπτ
εβδομαδια
συγχέεται
συστηματική
##ύβ
##ιλς
##iews
##γωνα
##στημ
Γκυ
οτι
φρέ
Σλαβ
πανε
Found
Πειρα
##άγονταν
τεχνοτ
Σώματος
αδελφής
αδύνατο
μητρική
πληθυσμ
τελικής
ανάλυσης
Φινλανδίας
πλειονότητα
##TC
##άγι
##ίσεων
Coll
χρέη
παιδιού
πυρήνας
Χόλσταϊν
διασχίζει
συμμάχους
αναγνωρίζεται
Dar
Χαμ
##νθηκε
Γουόλ
##οποίησε
ηφαιστ
μαζική
Βίκινγκ
Γοδεφρεί
διασκευή
Βιρτζίνια
Γερμανικά
μεταφέρουν
##ξής
asp
Βρά
##μάδες
αφενός
Studies
Ουαλίας
πρωτόκο
Ναπολέων
Αεροπορία
Ποσειδώνα
συνολικού
NBA
gen
reg
##conom
##ριανός
First
πτηνό
##ρήματος
επιτάχ
αθλήματα
γειτονική
γυρίστηκε
Πατριαρχείου
##μώ
##καμπ
##υπος
##θείσα
Πύλη
μάνα
νόμων
##ological
Μνημείο
νικήσει
περιπέτ
υπάλληλος
Γερμανικής
βιβλιοθήκες
πολιτιστικό
δὲ
##raft
##ώνια
Κλαύ
Συλλογ
βαλκαν
καταιγ
Γερμανού
ανέλαβαν
αυξημένη
εξερευνη
κουλτούρα
Φραντσέσκο
##EC
##ατρί
##γενή
##ροπος
##ρόνος
μεθο
Μαγνη
μαύρα
Νάπολης
διπλωμά
προμηθε
ηχογράφησε
αναπτύχθηκαν
καλλιέργειες
##iff
##raf
##λώνα
οχη
##ριώτη
ενισχυ
κεφαλα
τόπους
θεατρικά
ελληνικός
##αΐ
##gan
##άρη
##ριέ
##ονικό
Τζέρ
ιερά
λαών
οικό
##ιγουντ
Λαϊκή
Πόλης
Ωδείο
δομής
αρκετή
σκέψης
επόμενης
βοηθήσουν
συνεχίζεται
##án
##cer
Ak
ΠΟ
##iano
##ιστος
Γκότ
υδρα
Συρακ
##ιστήριο
Τουλού
τάξεως
ενώπιον
ιδρύσει
ενδιαφερ
τυπογραφ
υπουργείο
Γά
όχημα
ισχυρά
σύνδεσ
Στρατός
πέθαναν
στοιχει
κεντρικού
##vo
±
##oli
##ραξη
Βυρ
Μπάλ
Μπλου
Διονυσ
Σελήνη
συντηρητ
αναδεικνύ
γεγονότος
εξειδικευ
παλιότερα
##po
##mon
##rum
Έξ
##πεγχ
Ιον
πραξ
Ραϋμόν
εξαγωγ
ναυτική
πρωταρχ
Φρανσίσκο
τελευταίοι
Μητροπολίτη
Bos
She
Κέι
##ευτικά
inter
επαρκ
πτηνά
Κοπεγχ
προοδε
Διαθήκη
τηλεφων
Ιστορική
Άι
γου
1858
Blue
Τζοβ
WePlay
αρχείων
εξόριστ
προκάτο
τατουάζ
Πατριαρχείο
##ty
##φύ
PS
da
##ώτου
##βαρντ
1820
ΣΥΡΙ
ηλιο
βακτη
ηγεμόνας
ανθρωπιστ
αντίγραφα
ημιτελικά
##γν
##πέδων
Χάρη
##άρτημα
Αρβαν
τυχόν
Αναγνω
WePlayBall
αποχωρήσει
##ετς
##ξες
##δρας
##κτωρ
Ele
##λωσης
Glob
δώρο
αέρια
σκληρά
μικρούς
ισχυρίζεται
οικογενειών
Αστεροσκοπείο
##ξπηρ
λαιμό
Σταματ
τροφής
Πατέρας
##σμ
##δέλ
##ύση
Μαρί
σφαγή
Σκοπός
συμφιλ
Εκπαιδε
υπουργό
Τρίπολης
αποτελέσει
βιβλιοθήκης
##DS
##alk
##γευμα
Steph
ασίστ
##ολιθική
Επιχεί
Σχεδόν
πόντοι
αρχαιολογικά
##DA
##sen
χό
##ένκο
ΝΑΤΟ
ηλικιω
προσβά
φαγητό
μεγάλοι
κτισμένη
μοναστήρια
##ελλα
eur
Λίγα
διάσω
πεθερ
Ξάνθης
αναλυτ
κινητο
κέρματα
σχήματα
σχημάτισε
εξοπλισμού
Ελευθεροτυπία
συγκεκριμένου
##zy
έφη
Wall
σκαρ
##ινγκεν
##μήσεις
Μέγαρο
##κόπουλος
αδελφών
Αφροδίτη
Κρίστιαν
άθροισμα
γνωρίσει
Δημοκρατική
Ζή
##ετής
##ιλεία
##γενείς
##εύνηση
##δεικτικά
Σαίξπηρ
αποκορύφ
αρνείται
πουλήσει
πρωτεΐνες
##ακε
Μιθ
ΜακΚ
Χάντ
απρό
elect
αντιβ
Βοσνία
Αρχηγός
Ακολούθως
εκπροσώπους
##μαλ
Κή
##ονικά
##σμούς
NASA
Δόξα
μαρα
Προσω
χαρτί
Παρθέν
μεσογε
πορτοκ
αντιλαμβ
διατροφή
οριστική
προσβολή
φυλάκιση
Βούλγαροι
Καραμανλή
επιθυμούσε
προϋπόθεση
##ites
Δερ
Serv
Άλαν
Μεντ
Media
κέρδη
λαχαν
ιερείς
σχολια
Λευκορω
blogspot
##rey
##χελμ
Κιέ
##ιατών
ακτο
εναρ
σωστά
δακτυλ
οποίον
ταλαντ
Ιωάννινα
Νοσοκομείο
Ναυ
νετ
##άλουν
Cons
Κινγκ
ψήφου
Μπολόνια
αυτόματα
αυτόνομη
τρέχουσα
Αντιόχεια
εμφανίζουν
κατηγοριών
συνεχίζουν
##μπέκ
##ρχου
112
Νασ
Karl
τάγμα
ειδικών
κόστους
πεζικού
τετράγωνο
Φερδινάνδου
##aro
##ικερ
##μπλο
##σίον
rec
Αρα
Βαϊ
κού
##γουεϊ
άλογα
λογοκ
συζητ
Καβάλα
ανώτερο
αρχαίες
κλείσει
στοιχείου
λειτουργικό
αναπτύσσονται
Κράτος
θεωρητ
χαμηλές
εισέβαλε
ερμηνείες
μεταφερθεί
προκαλείται
##cept
##ides
##άτσι
Ste
##ικοκυ
Batt
Show
##γιάννης
συγκρατ
κατάλληλα
επιχείρησε
συμφέροντα
αγωνιζόμενος
##ader
111
εκσυγ
κρυφά
##ιναλίστ
##ευόμενος
κάτοχος
μερικών
επιστημονικό
##πελ
##οσπά
Doc
Ουτ
θρα
##ύλους
Ναύπ
##άχτηκε
##κευσης
Έβρου
##ράτηγος
φιλικό
Λάρνακας
Πριγκίπισσα
SP
Γκό
ντο
ογκ
απλο
Μόντε
Πέντε
Δηλαδή
Ομάδας
Ανώτατο
αποδίδει
##ér
Άτ
##agon
##ύσει
##ημένοι
##λώντας
Famil
φορέα
##ρωταγων
Ισραηλ
γήπεδα
όμορφη
δόθηκαν
κτήσεις
μαζικής
κάτοικοί
μετακίνηση
αυτοκινήτου
διεξάγονται
##άρες
Ζηλ
##φορών
Τρία
αγρι
αρετ
οροπ
##έμεται
index
δωμάτια
σκοτειν
Μολδαβίας
αποτελώντας
ενσωματώθηκε
##έζε
##λεξ
##ύλια
Lab
Γκόλ
θεών
ιερέα
ξένες
αποβιβ
φιλοδο
Κρατικό
απορρόφ
τράπεζα
##πουμπλικαν
ηλεκτρική
Σπαρτιάτες
Κληρονομιάς
αρχιεπίσκοπος
##ΒΑ
ev
τὸ
##ίοτε
τῆς
Νορθ
αλλο
##ετέρου
Έκθεση
ΣΥΡΙΖΑ
αερίων
##εκτήματα
Κάποιες
δευτερεύ
αντιπάλου
αποκάλυψε
καθηγητές
συντήρηση
##σόν
122
Κέλ
σωζ
Fire
αυτοπ
μόδας
Νάπολη
σύνδρομο
στεγάζεται
υποστήριξης
##net
AF
αθ
φυγή
Αχμέτ
ελπίδα
κτίσμα
νησίδα
θεμέλια
κρίθηκε
November
εκφράζει
σωματείου
##ava
##ισα
##πούρ
##ρχαν
##όντο
άνευ
έφυγαν
εξέφρασε
συνέγραψε
αποκαλύφθηκε
επικεντρώνεται
##86
##άδι
##ρώων
##ental
##κτορα
##μένας
Χάρα
αρίθ
##δοσκοπ
##ρίσεις
μετρά
φαράγ
εποχές
νικητή
ανάλογη
μετακομ
παππούς
συνοικίες
αμερικανικού
##ατσ
##λαος
##τζερ
Κρε
##θέντα
έθιμα
έπεισε
χρωμάτων
μετρήσεις
αστυνομίας
θρησκευτικών
Λουξεμβούργου
##RO
έσ
##ιλορ
##ωνόταν
έθνος
##σσοντας
Μεχμέτ
##γράμματος
κινούνται
ραδιόφωνο
περιουσίας
ολυμπιονίκης
##γκλ
##ιμαν
##μηνο
##παρα
##κτους
ναοί
##ποίθηση
αρχηγού
αθλήτρια
επιτεθεί
κεφάλαια
εξακολουθούν
##γεί
##στάλη
Good
Πηγή
απεί
επετ
##λώνουν
Άρθρο
Ινδονη
κεντρο
περίεργ
Ρεθύμνου
μουσικοί
πλανήτες
τοποθέτησε
##ky
##μαθ
##μυθ
##ιτσι
##κηνο
Μόν
##άνιες
Ατρό
Ελευσ
επινο
##βάλλουν
Τορίνο
εφοδια
Χρήστου
αγγλικό
παρήγαγε
Ορισμένοι
γερμανικού
καλύτερους
οργανισμοί
Lev
##άνθρα
1827
Παρκ
Όρους
Μουντ
Πάφου
Ταξια
αυστηρά
πληθώρα
παιδαγωγ
Δημοτικού
πρωταγωνιστή
##ΤΕ
##φημ
##έιρα
##ηρία
Pre
Ζαγ
Hard
##ήγαγαν
πόρτα
Γαλλικά
παικτών
Γερμανικό
στρέμματα
βυζαντινής
##κοκ
##μέα
Aud
Μοί
Λιου
##γμάτων
ιδεών
ανώτερη
καταλόγ
Καποδιστ
προδοσία
προϊστορ
πολιτικοί
εντάχθηκαν
απομάκρυνση
προϋπολογισμό
συντεταγμένες
Όμη
μάγ
διπλή
σημεί
λύσεις
ακτίνες
απόγευμα
επισκεπτ
Σιδηροδρομ
επισκέπτης
Μικρασιατική
περιορίζεται
συνεργάζεται
EP
Fer
εξέδ
Παύλο
##ικισμός
Περισσ
ερυθρό
εκείνων
μουσείου
προσαρμό
Αξιοσημεί
ευρωπαϊκά
επισκέφτηκε
Φρό
##πτικό
έξυπ
πλάι
Ανταρ
Παπαν
Σφαίρα
συμπατ
αθλητών
σουλτάνου
##θεϊ
##κεϊ
πέ
##ένις
##τατα
Ιων
##ληθεί
βαμβ
εξουδ
τάφοι
ανιψιός
κλινική
ποτάμια
υπαγόταν
καταλάβουν
πρωτοεμφαν
επιτυχημένο
συνασπισμού
βιβλιογραφία
κυριολεκτικά
συγκεντρώσεις
##iles
##χείας
polit
διαφθ
κολύμβ
πολεοδο
##dy
δα
Mem
στροφή
δικαιολογ
καθορίζει
αποτελείτο
κληρονομιάς
επαγγελματίες
Ke
τει
1814
αποδ
ξεσπ
Βυρτε
δωματ
Μεταξά
οφείλο
προκλη
Σταύρος
Πολιτεία
αρχιεπισ
Ασφαλείας
##una
Μάξ
πυρά
στρε
##θέντων
Άργος
Παλαιο
Αλβέρτος
Κυκλάδων
Φρειδερίκο
βιομηχανίες
Ze
##gress
1845
οριο
Ρώσοι
Τρίτη
όγκου
χαμηλά
ασημένιο
καταγράφηκε
##ili
##aily
ταχ
##άλεσε
##γράφο
Αβρα
Συμε
αιώνων
απέκλει
εξέλιξης
περιορισμό
αναπληρωτής
##κί
##ίνοι
Λισ
##ολίνι
##ρολόγ
1823
##έγονται
ξένους
συνεχής
απόγονος
ξεπέρασε
τελειώσει
Χριστιανός
διακυβέρνησης
Ση
##εζου
##ελής
ΕΑΜ
δοξ
##ρείου
διωγ
σαφή
Αντώνη
συναισ
##σμπουργκ
γηπέδου
εθνικός
##ενμπουργκ
αποτελεσματική
##δάς
##ήμων
αφότου
κάστρα
τυπικό
##ification
Φλώρινας
Φόρμουλα
##δοσή
##ρότητας
Μεθώνης
παραβία
βουλευτή
επιτυχώς
κριτικός
περνούσε
τραγωδία
επισκόπου
μιούζικαλ
Πύρ
Καρυ
Ρόδο
ράμφ
##ωμένης
Αλίκη
##θύνεται
Econom
Philip
Ελευθέ
Περσών
ευθεία
λεκάνη
απαιτούν
Δεδομένου
αθλητισμό
εμπειρίες
Βυζαντινούς
##ουχ
##προ
Mov
##φάλου
Dark
Σέρι
γοτθ
κουρ
Βικτώ
Ζάκυν
Θεσπρω
ανταπο
θεσμός
κωδικό
Ναύπλιο
μακεδον
καθολική
προάστιο
αναζήτησης
αποκτήσουν
προηγούμενης
##υλων
But
Δρυ
δεχ
εγώ
Τοσκ
άλλης
ακατο
χιονο
##ικότερο
επίδει
παιδικά
Γρεβενών
Σαλαμίνα
αποσυρθεί
##lam
##ody
##δάκης
φυλών
γνωστού
Ορλεάνης
Πληροφορ
έστειλαν
ενήλικες
λατρείας
αξιολόγηση
προσχώρησε
Bab
Έπαι
Νέος
υποστ
Studio
αναταρα
Πολιτική
υπουργού
Αμερικανό
Καλλιτεχν
προσπάθειά
Εκπαίδευσης
επιβεβαίωσε
μεταφέρεται
Αμερικανικής
παρακολούθηση
DC
##θενα
Hom
Κότ
Χίο
##σχεση
##όγλου
Γυνα
Εκατ
γλυκ
Σκηνο
Σουλε
πτήσης
Λέγεται
ηθοποιοί
ναυμαχία
επηρεάζει
ηχογράφησαν
Πη
##πόταν
##ασσάου
Πρόσφ
εξαντ
προερχόταν
Αριστοτέλης
##έσχ
##ench
##έλκυ
Στη
Hans
Plan
Χάιν
##ήγησης
θανάτ
ώσπου
Λήμνου
κοινώς
αιχμαλω
βαθμολογ
##βού
##θιο
##μπάρ
άργ
κυρ
Βλάχ
Egypt
ΑΠΟΕΛ
δεσμό
επεμβ
πήγαν
Σταυρό
αρραβων
Αντωνίου
εκσυγχρον
Γυναικείου
μεσαιωνική
ανακαλύφθηκαν
##ori
Sn
##πίας
act
##iness
##βαλντ
##στάλλ
1841
χάρισε
επαρχιών
##use
##έθη
##οντά
Cla
ΑΕΠ
ξυλ
σοκ
##γουελ
δραχ
ντερ
Φλόρι
άλγεβ
έθιμο
ανίχν
νόσου
χρησίμ
ξεπερνά
Συνδέσμου
συναντήθηκε
αναμετρήσεις
##mp
##ρέα
##ύλο
Σω
##θυπο
Ήλιου
στράτ
Καραϊσκ
γρήγορη
Στεφάνου
ξεκινούν
##όι
Way
##έλειο
##ώδους
Ροδό
Ανωτά
ελλει
##κείμενο
πολιόρ
##φέρονταν
Ιατρικής
μηχανικό
Ειρηνικού
Νεβ
σάλ
##αρχείο
Ροδόλ
αγόρι
Albert
Ιμπραήμ
νίκησαν
διασωθεί
κινητήρας
δολοφονίας
##OL
##éd
##υλλ
##ωρτζ
##όβια
750
Tem
Σκό
σιτ
##osoph
##όλους
##ήσουμε
θεούς
τοπία
Βεατρί
κρυσταλλ
πατριαρχ
##td
##kin
##ιαμ
Bay
Cas
ΜΜΕ
φθο
χελ
##πείας
Κομο
παρτ
##αχθούν
##ρυχθεί
Ονομά
φτιαγ
##ιαστικά
Μπανγκ
Χριστου
ρεύματα
Αστρονομ
επιρροής
ξεχωρίζει
μετατραπεί
αντικατασταθεί
##πί
##πεξ
CS
##enth
##έστη
πιπ
##ρέφει
##ριστή
Πουλ
πάσα
μυστη
Νασσάου
μέταλλο
δηλώσεις
εγγεγραμ
περιήλθε
##δάκη
int
Φάση
##ριστές
Guard
Κάρλος
Τζόρτζ
αναγεν
λίτρων
Διαμαντ
δύσκολα
κατεδαφ
ανάγεται
παραγωγό
Μεταβολές
Αικατερίνης
##αινα
##εμιν
Bad
Sel
Δρό
##άγουν
Τυπο
Νίκολ
δοκίμ
θαυμά
##λήματος
τρίτης
Αγγλική
ανάμεσά
μεγαλοπ
σύντροφ
εκτέλεσης
θεατρικές
καθιέρωσε
Αναστάσιος
##urs
##ιντερ
Bank
ίδιους
διαθήκη
μέτρησης
παραγωγές
εικονογραφ
παρουσίαζε
μύθος
Χαράλα
ορυκτό
Αλέξιος
μουσεία
εισβολής
Επιστημον
επιστημονικές
##ΙΣ
οσ
##ants
##έντι
λει
What
Ουγγ
πινα
πόνο
Ευρυτ
Μπουρ
##ήφθηκαν
έθνους
αιγίδα
##μογραφία
αιχμάλω
νοικοκυ
σταθμοί
Τουρκική
συμφωνίες
αντιπροσωπεύουν
PM
##ζεκτ
pop
Ευτ
Καμ
Τόνι
##έλεξαν
Κασταν
Χαϊδελβέργη
##ots
##πεις
tem
λαν
Αγαθ
Σύρου
υποτά
##duction
Marvel
μιλούν
Δευτέρα
Εκλογική
εισαγγελ
συμπρωταγων
##aux
ΙΑ
Jon
Work
Παρτ
γοητ
φλεγ
Λίγκα
Νίκαια
Παναχα
φθάσει
##ποιήσεις
ευγενής
συνεισφ
αφετέρου
μελέτησε
εγκαταλείφθηκε
ΙΒ
##endo
Bus
Δολ
αδι
βαφ
##field
##ληθυσ
Road
Stad
Λεύκ
εγγυ
Λένιν
Μέσης
Μαλαι
πάθος
σήραγ
Θουκυδ
Παρόμο
Σουλεϊ
πλησία
##κειμένου
ποιητική
Οργανικής
σωματίδια
δημοφιλείς
διεργασίες
μεταναστών
##αγασ
Φασ
φρε
Prof
Μέντ
Πρεσβύ
περιφερ
πλησίον
γειτονικό
##τοφ
Θηβ
Σκα
##ούλας
##ύλακα
Wood
Επτά
ταιρι
χορού
##ιούνται
σήματα
συνιστά
Μεραρχία
Κοινοπολιτ
γειτονικές
δισκογραφικής
Ts
##ries
##φυλλ
Μπω
βού
##ετικής
Εστία
Κόλπο
##σδήποτε
##τημάτων
Modern
Συνασπ
εξελιχθεί
θερμότητας
προειδοποι
Πετρούπολης
παρουσιάσει
##iga
##ωάν
θεσπ
συνδ
επινό
##ρεσιτεχν
Σάββατο
κατέστη
καυσίμου
φιναλίστ
φοιτητών
αξιοθέατα
ἔ
##τιά
##όπη
Ty
##αλιά
##σεντ
αμά
χιτ
##νευση
##ούλης
σταφ
ιδιαιτ
κατορθ
Μουσταφά
Βυζαντινό
ανθρώπινα
##άλαγγ
Arts
Διεξ
σύνα
Νόμος
γκρουπ
ρυθμούς
πρόσφατες
##κυστ
Τολ
γαστ
τζαμί
Τζωρτζ
κωμική
νομούς
οπαδών
στήθος
αλλαγής
στάνταρ
τύμπανα
περάσουν
απομακρυσ
##ko
##κοβ
Κάθ
Μην
1849
διαρ
σπορ
τοις
όφελ
##ιστήρια
Άγγλοι
εμπρός
παλαιο
εκδίδει
περιγράφουν
##US
Ιζ
##ργου
##ίτιδας
Earth
ακτών
εμφυλίου
ερμήνευσε
επιχείρημα
##ξερ
##ρυχ
Cre
Jer
Toy
λόρ
χτύ
Ντάν
Οδού
βλάβ
διάβ
##ότητάς
Λούντ
διάσπ
Βατικαν
Συνόδου
αρχικές
δήλωσαν
Δήμαρχος
παρέμενε
πληροφόρη
προϊόντος
Αλεξανδρού
επιφάνειες
προσπαθούσε
υποστηρικτής
Κομμουνιστικό
συγκεκριμένης
##πυ
γηγ
εισό
χάλυ
##ίκησαν
εκτόξ
Πετάση
Festival
αιχμάλωτ
σπουδαία
αεροσκάφους
##ϊτ
##asy
##σάν
πικ
##ύνθου
βοσκ
θέλουν
σταυρό
αντίθετο
υπερασπιστ
σχηματισμού
##osh
##χού
Σάο
##ciman
Nick
Ιλιά
σκακ
καθαρή
κατηγόρησε
αρχαιολογικό
##EL
##ελα
##βικής
Πασάς
αφηρη
υποδυ
άρνηση
επαφές
εθνόσημο
κυρίαρχη
Κυπριακής
Δημιουργήθηκε
αποτελεσματικά
##oni
##pha
δέ
##βατοκ
δελτ
επαρ
ερει
Πάουλ
καλυμ
Corpor
Warner
σύγχρονων
διαταραχές
χαμηλότερο
##90
##σών
ΚΟΠ
Χάν
τηλέ
φωσφ
Πέτερ
ελαιο
οξείδ
Γάλλου
σχέσης
ανώτατο
στάθηκε
βουλευτών
διαστημικό
ا
##aker
##alth
##ιλεύ
Lin
Τρό
##χτηκαν
facto
Πόρτο
μετρό
Νοτίου
λεξικό
πρόοδο
κλάδους
Γραφείου
Αντιόχειας
##ριάν
##υπτά
Mir
Son
##δίτης
Πύργου
αναβαθμ
δουλεύει
γεωμετρικό
δηλώνοντας
επιστρέψουν
οικογενειακό
##000
##iot
##ιέτ
Ba
##ήρου
##ώτιο
box
Βιλ
##μάρια
Διαφ
Κλασ
Ιερός
εορτή
προεξ
αφήγηση
τοίχους
Εργασίας
κατείχαν
μετάλλων
σύγχρονοι
υπηκοότητα
##oz
##uv
##epp
##ress
who
τρώ
όρων
##κομματ
Σελευ
αρθρο
φωνές
##ρωμάτων
Νικολά
αρχιερ
τομέας
Francis
Δωδεκαν
κοιλάδας
διοικητικού
##μισυ
όρθ
##γκλας
##οκλής
##ρασιτ
1857
βλάβη
θανατ
κλασικό
εγκληματ
ναυτικού
σύγχρονου
αυτοκινητό
ποδοσφαιρικών
##ήσ
##έρως
est
sch
αιμ
ταρ
Κιου
θεάς
Μπαντ
γεννή
φρόντ
ύμνος
εισοδή
ανταλλά
εξαναγκ
παρακμή
Λακωνίας
οχημάτων
τεχνικών
δημοτικού
διεκδικού
##46
##μιχ
όξ
##έλλα
##ατζή
Βίντ
θαλασσ
σπάνιο
εικόνων
βασίλεια
επίβλεψη
μηχανισμό
παρασκευή
αντικειμένου
##TP
##ηύ
##θεμα
##ιμου
δυτ
Κασσ
οίκου
Κορίνθου
αναγνωρίσει
χαρακτηριστικών
OS
##βολο
##ουσών
ρήξη
Jacob
αιτίας
τάφους
Πιερίας
νοημοσύ
τελετές
τιμωρία
Συμμαχία
διαζύγιο
θεωρητικά
Λιθουανίας
αυξανόμενη
##δόκ
##άμου
##δίες
Tro
ant
pre
Γκι
κίτ
Όλγα
βράχο
ενθάρ
Κομοτη
σοβαρό
προστάτ
ρωμαϊκό
πρότζεκτ
φιλοξένησε
Μεσολογγίου
##ούδα
Μεκ
##ένεια
Βοστ
κοιμ
##ώνυμος
αίτια
λιμαν
##ήγγειλε
Μιλάνου
λιμάνια
φορτίου
σκοτώνει
Λάνκαστερ
Ευρωμπάσκετ
##στία
Λυσ
##irect
##αντίν
##ρεσιον
Febru
έλεγε
Little
Αρχειο
Μεσογε
ισημερ
λεπτών
Αρχαίας
Λαογραφ
μπαίνει
Διαθήκης
μουσικού
Βουλγάρων
Βρισκόταν
προοπτική
διατηρηθεί
##EG
##υλη
ζάχ
Ball
Spec
Γκέρ
##γωγείο
Καπετ
Άρθουρ
πράσιν
ανάγκης
γράφεται
ενέκρινε
Μαυροβουνίου
UK
##μονώ
##χναν
Αγα
##other
##λάντη
ημικ
##γραμματ
συμπλέ
διεθνών
εμπλουτ
διεργασία
Μακεδονικού
Στρατιωτική
ηλεκτρομαγνη
##χί
##δυνη
Βίν
Νατ
Free
Μέρι
Μέσω
ενδημ
υγρού
Library
Αριστοτ
Τρίπολη
ερωμένη
θέματος
μυστικά
τέτοιου
ανατέθηκε
αφιερωμένος
υπολείμματα
επιτυγχάνεται
##βαδ
##ιεσ
ra
##iden
##ούκα
Έλε
Γέφ
έβγα
Σταμά
##εύματος
Κολέγιο
ρύθμιση
Οξφόρδης
Ορθόδοξης
260
Μυρ
χολ
##πτικά
τζαζ
##ρωμένο
Κοιλά
χρυσή
##χνοντας
καρκίνου
κριτικής
Χριστιανοί
##νιο
##είον
Βαγ
Κεν
ιερο
λάδι
##κτησης
Γιορκ
πάγου
Τέιλορ
κώδικας
πορείας
διαδόχου
Βαρκελώνη
καθιέρωση
ποικιλίες
αποκλεισμό
Σημειώνεται
Πρωταθλητριών
##ονο
πχ
τχ
##πεσε
##ιτικό
Αποκ
διέσχ
μετείχε
εμφάνισης
Πτολεμαίου
ακολουθούσε
παρατηρούνται
νερ
τρυ
##μίνας
##ποιος
Αρχή
ήμισυ
##ασμένες
ζωγράφο
μαρμάρι
χρήστης
συνηθισμένη
##ét
##ан
##έμο
##έρη
##ource
##ραπέζ
##ριστη
στολ
επίθετο
σπονδυλ
##ía
##έρμο
##χώρα
##έφσκι
Mass
Κονγκ
Πύργο
Street
Νορθου
πληρεξ
προξεν
Friedrich
Βενιζέλος
γράφοντας
ταχύτητες
Νορμανδίας
##kt
##dia
Πρε
σακ
ομότ
μοιρα
αιφνιδ
Βενεζου
Βρετάνης
αναδείχτηκε
αντιμετώπιζε
υποστηρίζοντας
Παπού
States
δείκτη
λόφους
πλουσι
ξαφνικά
παιδεία
υποδοχή
πρόσφερε
ραδιοτηλε
επιδράσεις
υπερβολικά
Μαυροβούνιο
αναπαραγωγή
στρατιωτικού
##aft
##χον
PC
##ωτός
Ατα
οξε
##ender
##ιολογίας
γέννησε
κρατάει
γενέτειρά
διεξαγωγής
εκλέγονται
αξιωματικοί
αμερικανικής
Αρχιεπίσκοπος
##ough
les
##ραγωγ
άφθο
φλόγ
Mario
αλφαβ
διετία
θυμίζει
νεότερο
συμβουλ
επισκοπή
##βιομηχανία
εξορίστηκε
συνεχίστηκαν
##eld
##νεϋ
ΠΕ
##ourt
Λεγε
Τρίκ
γύρου
νευρο
αγαθών
συμβατ
τρόμου
φορέας
##θεραπεία
απόδοσης
πρόκληση
εγκατεστη
Συνέλευσης
##cht
##ici
##σσε
Κύκ
Ναύ
Back
όλης
μέλους
Αρχιτεκτον
σχεδιαστεί
χειρουργική
##ense
##μώνες
ήλθε
Human
εκλεκτ
μπαρόκ
εκτελεί
εκδόθηκαν
ελεύθερης
ευρωπαϊκών
##αζε
##βιχ
##ολά
##μιστ
##ρεφε
Τζά
Sony
Ντάρ
Young
Σαουδ
ακτής
επανδ
συντά
##ιολογία
αναγέν
Ιατρική
παράνομ
πενήντα
Alexander
υπέστησαν
καθορίζεται
προκριματικά
##ττ
##ήττη
Kon
##άρους
1831
Παλλ
Πιέρ
μέγα
##μάρχης
δήμοι
εσφαλ
θαύμα
γενικής
μετατόπ
βυζαντινό
ανθρώπινου
αντίδρασης
##35
##ερή
##πλευ
Fin
Πίν
ερα
##ωλείο
Guide
είμαι
συσσω
φύλου
εύκολη
χημεία
Επικρατ
αραβική
##στικότητα
Αμερικάν
Ειρηνικό
Φλόριντα
εκδόσεων
συνδικαλ
Μακεδονικό
τοποθετούνται
##έδα
##τάζ
Bu
##μπεθ
Ford
Κρου
Ρενέ
οπίσ
Ευγεν
λαούς
Μαρίνα
τέλους
αποφυγή
φτάσουν
Καλαμάτα
Ναβάρρας
Ελληνοκύπ
παραθαλάσσ
περιβάλλοντα
Lo
##ουσά
Dun
##αναστ
##αρχών
Mess
ανισ
εύπο
Μαύρη
εκβολές
σχεδίαση
δεκαπέντε
θερμότητα
διοικητικής
##DF
##ρνε
##δαία
Ray
κυκ
##ήγησε
αφαί
φέου
γλυπτά
ριζοσπα
Magazine
Runciman
Εδουάρδο
Ντόναλντ
Οδυσσέας
Χριστίνα
γράφτηκαν
ξεπεράσει
προέβλεπε
προετοιμά
εσωτερικών
##elt
MP
Έστ
Ζεν
νεύ
##μενου
1847
Kenn
Real
ενεπ
##φόρους
Απολλ
Προμη
μεριά
Τραγού
κόμισσα
πολεμικά
ακολούθως
ιστότοπος
καταγράφει
στατιστική
συμφώνησαν
δευτερόλεπτο
##ίλο
##αλφ
##ένος
Jun
Ναρ
##λάντα
1855
Συνεδ
αναβά
Σιδηρό
μερική
ονοματ
Ταινίας
γέφυρας
επιμελη
February
καναλιού
κομητείας
πολεμικών
ομοιότητες
προϋποθέσεις
σχηματίζονται
##δές
##έττα
##υφορ
##φόροι
εύκολο
συνέδε
Αλφόνσος
παρόντος
Αθηναίους
Βασιλικού
Χόλιγουντ
προστάτης
πρόσβασης
τεράστιες
σύγχρονους
καλοκαιριού
hp
##ange
##vers
##μπάν
Lew
στε
Μπαν
##λογικό
ζεύγη
ανήλθε
παριστ
φέρνει
##λαφ
##ύης
##όμους
ενέπ
πάλη
##osition
##βάθμιας
ίδρυσή
διασπο
σημάδια
παράθυρα
Μαργαρίτας
διαμορφώθηκε
Έζ
##βαινε
νεοκ
ξυλο
##γονταν
εκδίδ
ημερή
προϋπ
συνετ
συντή
Miller
λωρίδα
άλλαξαν
καταδικ
μυστικό
διαδρομής
διαθέσιμη
παρεκκλήσι
##σμπαχ
Μονο
Τσου
ώρας
Apple
Αρτέμ
Γούντ
Συντα
θαλασ
Commun
Κιέβου
μεσαία
νότιες
Λευκάδας
Σουλεϊμάν
VI
##έναν
##ίζας
##χτης
rel
Έδε
Λίν
Ερμή
οξέα
ρέει
##κτορας
δόγμα
ηγεμον
ορυκτά
άλλωστε
ενώθηκε
συγκρούσεων
περιστασιακά
##μβο
Σό
##ρείο
Οδό
##νομεν
Άνοι
Ντιν
##δικείο
Union
Πέρσι
οφειλ
Pierre
ιππικό
κυπελλ
περιθώ
##ιονδήποτε
παραγόντων
λογοτεχνικό
μεταφράσεις
μεταγενέστερα
##wer
##zer
ζα
##έρης
##ίτζι
τοῦ
Τώρα
γύρους
κουζίνα
αναφορικά
απαιτούσε
δορυφόρος
περνώντας
συντάγματος
##ράκι
εκθ
Κουτ
Φερρά
πολυβ
συχνές
στέλνει
καθολικό
συνολικής
##ζην
##υκτ
ΙΙΙ
##γκμπι
ακερ
Stand
ανοσο
##ματικοί
εκκλησ
Άλφρεντ
ασθενών
έκφρασης
μαθηματικός
##ροτ
IC
χμ
##ikon
Σπη
Μπασ
εταί
προγ
νόμοι
χαθεί
Columb
Ιταλοί
γωνίες
επιβολή
κόκκινη
πολυτελ
υποδομής
Τουρκικής
περιπέτειες
δημοτικότητα
παρατηρήθηκε
##βέντ
Αιμ
σαι
Μορφ
##έργειας
φράγμα
Edition
Αντιθέτως
Δυναστείας
παλαίμαχος
αναγνώρισης
υποστήριξαν
##έκτ
##άρας
σύρ
##ύρωσε
Prim
Rena
Τυνη
##νοθάλα
##αιρέσεις
Ουέσσεξ
δουλειές
θεολογία
Βυζαντινός
μηχανισμός
##39
##ετρο
##ωφελ
##δηλωτ
Σακε
πειθ
##νοκτον
Child
θέσει
Ανάλογα
εκείνου
Ακρόπολη
ανταποκρι
αστερισμό
ιδεολογία
αποχώρησαν
εκτελέσεις
περιορισμούς
This
Γκλό
ΕΣΚΑ
##κτήριο
Μπομπ
ψευδο
##δέχθηκε
Βαλουά
εμπορευ
ισοδυνα
καλύψει
εγκλήματα
Πιστεύεται
αστεροειδή
εσωτερικής
μετατρέπεται
##va
Def
κιτ
λάτ
##άνησα
##μάνος
μαρξ
τορπ
σύμπαν
##ποιημένη
Νορθουμβ
αποφάσεων
εγχείρημα
προσαρμογή
##ίφη
##helm
##sych
app
Έως
Επα
γεί
ευγ
##άουερ
##ώσεως
όρκο
##ότοπος
Αντικ
Πάολο
σαφές
έφτανε
σιδηρό
Αριστεράς
συμμετέχοντες
##ατρα
##μιερ
Κοί
##τερου
Σουδάν
εισπρα
ενίοτε
τειχών
Πλάτωνα
ερευνών
πρόσκληση
Διαγωνισμό
αναγνωρίζει
Championship
Vo
##πτης
οχύ
##ίνσκι
Τσέχ
ερεθ
φλοι
Story
συνθη
Παρισίων
επανάληψη
επηρεάστηκε
Κομμουνιστικού
##lu
##ριγγ
##σούς
##μμένη
Σπόρ
##άνδαλο
##ιωνίου
μόριο
συλλη
##ώνονταν
Βίλχελμ
απήχηση
διέφυγε
ενθαρρύ
Μεσοποτα
κινήματα
επόμενους
ανατολικές
mag
Βαβυ
Σωτη
##ιούχος
Μίλαν
άγιος
χορός
##έμματος
όφελος
Μακεδόνες
ηφαίστειο
ηλεκτρονικών
##ni
1806
Βουδ
Ορχή
ενοχ
Χονγκ
αιρετ
αμπελ
δόντια
πανηγυ
βοήθησαν
Ltd
Gard
Mach
Rout
εφικ
τεστ
Θωμάς
γαλάζ
##ισμένου
Νείλου
Τορόντο
περνούν
εισόδημα
περίφημη
Αθλητισμού
##ασο
##λλης
##πληρω
Corn
αλου
Armen
Σλέσβ
άλογο
πιστός
βόρειες
Χάρβαρντ
##ανατολικής
Γρηγορίου
Ατλαντικού
προσωπικές
Περιφερειακή
##ζέλ
##τζα
αφθ
##ρχηστ
Γαβρι
ιερού
στελε
υδάτων
σταδίου
ζωντανές
απομνημον
##αγό
af
##idae
##ιαίο
##ύλος
##άλλιο
Ευβο
ανεπάρ
δέκατο
μιλάει
ασθενής
τείνουν
Ζακύνθου
Φρανκφούρ
κατανομής
επικράτηση
ευρεσιτεχν
##θλι
##πεδ
Da
##βιος
Εκλέ
αμετ
καρχ
υγρά
πρόθυ
Μεδίκων
επισκοπ
Φρίντριχ
υλοποίηση
κυκλοφορούν
##ώγ
Άου
φυγ
##ριταν
Mill
Καυκ
##αγασκά
Ερμής
γονιδ
λόγοι
τριπλ
πελάτες
Βαλδουίνος
περιοδείας
υφυπουργός
Βιβλιοθήκης
С
##ión
##aven
##inem
##βέστ
##ητού
Κυν
1852
Εικο
ακατά
ανακα
εκτεν
καλός
κρατά
Κολλέγιο
δημοτικής
εμπορικών
Βουλγαρική
πολυάριθμες
Kh
car
Νεπ
Chap
ιερα
ιστιο
μυαλό
τουρί
Ομάδες
πλούτο
σεβασμό
πατρίδας
Μαδαγασκά
Ορισμένες
επιτρέψει
κομματιού
Ασχολήθηκε
δικαστήρια
##ελέ
##ello
##λουν
##στικ
Μπι
άμα
Χανιά
ατομική
οριζόντ
δημόσιας
ιδιοκτήτες
χιλιόμετρο
ηλεκτρονικό
καταστατικό
##αγορ
##ινικ
##χική
inf
Της
οδών
##ηγορία
Κάρλο
Καρλο
Μπέντ
τηλεπ
Church
βαθμοί
Σλέσβιχ
επισημα
διοξείδιο
προσδιορισμό
##κην
210
Lar
rem
μπέ
άουτ
##είδηση
##λασίας
Ευριπ
Λίγες
Μάλτα
##ρούνταν
ευρισκ
Γενικής
έναρξης
έφθασαν
κτηρίου
Αμπντούλ
συνέλαβε
αποτυχημένη
##φλέ
##ocal
##ιδρύ
USA
edu
Στή
##μαστε
##ρίδια
Δράμα
έμοια
λουλού
διασφαλ
διεξαχθεί
διοργανώτρια
οποιονδήποτε
χειροτονήθηκε
ζύ
##άρτα
##άνηκε
##ηύθυν
##σιμων
πλοκή
Daniel
εμπερι
Πρέμιερ
προσευχ
χρηματο
πυροβολικού
περιγράφονται
##τάς
##ινομ
230
##αιμία
##ρέστι
αλιεία
πίστης
Σωτήρος
ανταρτών
εξώφυλλο
Πανιωνίου
κατέληξαν
αποκαλούσαν
καταστροφής
Βυρτεμβέργης
πΧ
λευκ
##δονομά
εισβολ
επιμελ
ρωσικό
ανάληψη
σημαίας
κυρίαρχο
αρνητικές
αποδείξεις
συνηθισμένο
ιχ
##νωσε
κηλ
1842
Ανρί
Ενετ
Λίντ
ίσχυ
κήπο
##ιώθηκε
Μπάρι
Δυτικό
ορεινή
Αλφόνσο
κατευθυν
Νικηφόρος
αντιπαράθεση
##IL
##ament
##anger
Δίας
Κρού
επέβ
Κάιρο
αμαρτ
υπέρο
διέθεταν
οργανική
συνθήκης
Διοικητής
διέρχεται
##σσό
Kir
##aedia
πιαν
Κεφαλ
Κυρία
πρίγκη
Ιεροσολ
ιδρυθεί
κατέφυγαν
κιθαρίστας
##ϊντ
Los
##abeth
τέως
##γράφου
προφή
Τζόζεφ
Pictures
επιδρομή
διακόπηκε
ιδρύθηκαν
καθεδρικό
υπερβολική
εμπιστοσύνης
αποδεικνύεται
##eh
##ΕΝ
##ὴν
##λαγ
##σικ
##ίκτη
ευν
##τταρο
1700
εγκυ
ανατο
παγαν
ταπει
Harris
Ομόνοια
πρεσβεία
σύνδεσης
Ζηλανδίας
αντιπάλων
εξαφάνιση
αναγνωρισμένο
Έμ
##ήλες
##ύνει
Are
κατεχ
φόντο
Κόλπου
κοινές
νομιμο
έκθεσης
αθλητική
κατάληξη
ενδέχεται
Ρεπουμπλικαν
##έζα
##α
##ο
##τ
##ι
##ε
##ν
##ρ
##σ
##κ
##η
##ς
##π
##υ
##μ
##λ
##ί
##ό
##ά
##έ
##γ
##δ
##ή
##ω
##,
##.
##χ
##ύ
##θ
##φ
##ώ
##β
##1
##e
##a
##i
##0
##"
##o
##r
##n
##Α
##t
##2
##ξ
##ζ
##9
##Σ
##s
##Τ
##Μ
##Κ
##l
##Π
##Ε
##Ο
##)
##(
##8
##-
##u
##d
##c
##3
##h
##5
##4
##Γ
##Η
##6
##7
##Β
##m
##Δ
##Ν
##Ι
##p
##g
##ψ
##Λ
##:
##y
##S
##Χ
##A
##C
##f
##Φ
##Ρ
##b
##M
##/
##«
##»
##k
##T
##v
##Έ
##B
##w
##P
##ϊ
##D
##I
##R
##E
##́
##Ά
##L
##Θ
##H
##'
##F
##N
##G
##O
##W
##Υ
##Ό
##Ζ
##V
##J
##z
##K
##x
##U
##%
##–
##Ω
##ΐ
##Ή
##]
##[
##=
##j
##&
##_
##Y
##’
##é
##q
##Ί
##Ξ
##X
##;
##ϋ
##Z
##!
##|
##·
##Q
##Ψ
##+
##а
##°
##”
##?
##“
###
##и
##о
##ü
##Ύ
##>
##ö
##е
##á
##р
##н
##—
##ó
##è
##í
##‘
##ἐ
##ä
##в
##•
##<
##с
##ὶ
##л
##к
##т
##ë
##ا
##$
##ὸ
##ç
##ἀ
##*
##−
##ῆ
##ῦ
##ῶ
##ı
##à
##Ώ
##§
##É
##д
##`
##ῖ
##ὰ
##ل
##ὲ
##ā
##ὐ
##Ἀ
##м
##æ
##у
##ñ
##ō
##ὴ
##€
##×
##}
##ἰ
##š
##ˈ
##ş
##â
##ن
##ر
##ي
##±
##ć
##{
##ч
##م
##′
##С
##й
##г
##ú
##я
##б
##ἔ
##п
##و
##ē
##č
##→
##ь
##Ϊ
##ΰ
##ب
##з
##د
##Ö
##~
##ø
##К
##ἱ
##ī
##^
##ὁ
##А
##س
##М
##Š
##ă
##ß
##ô
##ἄ
##В
##П
##Б
##ê
##ğ
##ա
##ὺ
##ã
##ἡ
##ə
##ł
##ы
##Р
##İ
##⁄
##Ἐ
##å
##ð
##̓
##ū
##ž
##ː
##ц
##ة
##ت
##ὑ
##£
##Н
##ῷ
##î
##̈
##ï
##х
##ш
##ی
##Д
##Ἰ
##ح
##И
##ὅ
##ῇ
##ع
##ه
##ῳ
##ᾶ
##ò
##Ş
##ὀ
##ف
##Ç
##ἶ
##Т
##ق
##і
##Г
##ा
##ش
##Ü
##≤
##ћ
##О
##ն
##ῃ
##Á
##@
##ج
##י
##ж
##ɪ
##ط
##ი
##ἑ
##ー
##ý
##া
##\
##ù
##Л
##ა
##ј
##Č
##Ἑ
##ր
##û
##≡
##ф
##ز
##र
##Ἡ
##ո
##्
##ἴ
##ン
##ו
##ъ
##õ
##خ
##†
##ὕ
##ὡ
##ɾ
##„
##ك
##Æ
##ė
##ń
##ő
##ǎ
##ɛ
##Ф
##ὄ
##∞
##∈
##ר
##ě
##א
##ì
##ș
##∆
##ի
##ţ
##Х
##ἦ
##ὼ
##ɔ
##Е
##Ἄ
##Ἱ
