[PAD]
[unused0]
[unused1]
[unused2]
[unused3]
[unused4]
[unused5]
[unused6]
[unused7]
[unused8]
[unused9]
[unused10]
[unused11]
[unused12]
[unused13]
[unused14]
[unused15]
[unused16]
[unused17]
[unused18]
[unused19]
[unused20]
[unused21]
[unused22]
[unused23]
[unused24]
[unused25]
[unused26]
[unused27]
[unused28]
[unused29]
[unused30]
[unused31]
[unused32]
[unused33]
[unused34]
[unused35]
[unused36]
[unused37]
[unused38]
[unused39]
[unused40]
[unused41]
[unused42]
[unused43]
[unused44]
[unused45]
[unused46]
[unused47]
[unused48]
[unused49]
[unused50]
[unused51]
[unused52]
[unused53]
[unused54]
[unused55]
[unused56]
[unused57]
[unused58]
[unused59]
[unused60]
[unused61]
[unused62]
[unused63]
[unused64]
[unused65]
[unused66]
[unused67]
[unused68]
[unused69]
[unused70]
[unused71]
[unused72]
[unused73]
[unused74]
[unused75]
[unused76]
[unused77]
[unused78]
[unused79]
[unused80]
[unused81]
[unused82]
[unused83]
[unused84]
[unused85]
[unused86]
[unused87]
[unused88]
[unused89]
[unused90]
[unused91]
[unused92]
[unused93]
[unused94]
[unused95]
[unused96]
[unused97]
[unused98]
[unused99]
[UNK]
[CLS]
[SEP]
[MASK]
##de
a
de
e
o
c
,
p
##ra
##te
##on
s
##re
##os
.
##ta
##ci
##or
en
##en
##as
##in
##ar
##un
##do
##an
##er
m
##is
##qu
##ón
##al
##ro
##ti
##da
f
##to
"
se
##que
un
##ri
con
A
l
##es
##om
que
es
##ción
##ic
1
n
C
os
re
##di
##ha
E
##la
as
##men
com
##le
##res
v
P
S
por
##ol
##tu
M
in
##tra
O
##ma
##us
##il
(
)
unha
##ou
##el
2
##ca
##ul
##oi
pa
g
b
##mp
##ia
##ran
x
te
##ei
é
B
an
pro
##dos
d
##ía
19
T
##dade
ca
D
##tes
R
F
L
##lo
##ica
##tos
##pa
G
ou
##mente
I
##cia
##ec
##io
##co
##za
-
##ga
des
como
para
##go
En
20
##tan
##gu
##idade
sú
h
##ce
##tiv
##po
N
di
##tor
##ión
foi
po
##án
##mo
##tr
per
ex
##ter
##én
##ina
##tro
##pe
##li
##mb
par
súa
lo
H
i
##das
tra
esta
su
Es
V
má
for
##ba
##den
##tre
##ras
##ín
##ña
ma
ac
seu
máis
##ov
##tas
al
##cións
:
##iv
me
##ando
##ir
##du
##ob
cons
U
ta
##cu
##he
t
##ten
##mi
##mento
la
##ren
##xi
co
##bi
non
##rim
##tal
##cion
ser
X
to
200
J
##ado
##ix
##ac
##ur
##am
##ico
##um
##ali
##ase
##tar
##era
##bo
##ís
##rimei
##pi
##ari
##pos
##tura
##ru
##gun
ar
##xe
##ici
Un
##cul
##ib
##ers
primei
do
son
ter
res
##ada
##ns
3
entre
dis
##vi
##ez
este
##dor
##ch
As
si
201
##ista
##és
##na
##me
##lan
##teri
##ros
##tri
##tica
##les
##gar
##tin
ob
##las
Con
##almente
##ub
Os
na
##ve
18
##mén
##va
ha
##cen
tamén
##tá
##qui
##des
mes
##tivo
W
##ron
##ces
Re
##ño
nov
K
car
pre
##nde
au
pos
##ome
cor
ano
##tic
##ona
pr
moi
##rei
##man
ti
##min
temp
sen
##ab
San
le
mo
imp
##so
##tros
##der
sob
##tado
##fe
##mos
5
pres
parti
##gra
De
4
vi
##mas
can
##ero
##rante
du
ap
ab
##fica
##zo
##gos
##ale
##aron
An
##ano
##lica
anos
medi
199
of
;
Ma
espe
##lu
##inci
Al
##tru
sobre
cal
li
##for
gran
seus
##ver
Pa
Ca
lu
##ente
##los
##00
##ior
á
cas
##per
mar
##cri
ó
Se
Mar
##orte
parte
/
In
forma
##ello
##lec
fil
ba
or
ra
##ación
ten
especi
comp
pe
##ing
ro
##tico
men
##cional
##mbro
##tou
nome
##eiro
r
##ana
##titu
##icos
##bal
man
segun
pero
##tantes
Com
##th
ata
##ble
##vol
##encia
fun
##tán
Por
cidade
##no
##gan
6
coñ
está
##erra
##rec
##índa
inc
##uro
##ún
princi
conc
##be
##olo
segu
##pois
onde
los
emp
##ton
Esta
##ixo
##tiva
fin
produ
##feren
##eci
8
pas
##por
7
lle
era
##ula
##con
##ais
inter
pol
##ili
##ío
##culo
##xa
so
xa
Ar
qu
durante
##tó
##mentos
Na
habi
##ante
##ie
sé
La
sub
198
##sa
##té
súas
##toria
maior
rep
##ira
##isión
contra
cre
##cas
cando
'
ne
##ario
Ch
##icas
##enta
##xo
dous
##cos
##ismo
##ill
##ración
##unto
lugar
cu
9
primeiro
ins
vari
ori
##ven
##tras
##ide
cen
mun
cha
pode
##mais
##gn
##ai
##ino
##terior
gru
##id
##ban
##iste
che
pobo
aínda
il
cara
##ías
##ita
Le
##ves
##rado
##ober
##fici
##dente
##ás
inf
primeira
##vo
his
despois
da
##car
197
##eira
us
equi
foron
##ivers
##ións
##ala
##ían
ver
mesmo
lib
Car
##aliza
só
##ral
vol
##eral
##ris
outros
##tante
##pec
##rica
rela
fe
##onte
mul
##óns
##ito
##ne
##tion
trans
xo
Par
gu
##iro
den
século
gra
rex
segundo
##ñen
Fran
estu
##úas
actu
fac
gale
ad
##pen
k
##cial
trabal
##xen
habitantes
fam
espa
ban
exp
##ion
##ber
##ell
lon
10
todo
##rar
Foi
tres
u
Cas
##xía
##mán
##rio
##cal
##lic
17
##mar
edi
coñeci
15
escri
##gas
##idades
##xec
anti
##tación
##ts
##úl
camp
impor
##dio
sa
##dia
##cias
desde
Cor
##eo
##ticas
##ular
cl
##zar
##ine
tan
Co
pub
The
Gu
##bu
hom
princip
dúas
##ck
af
##istas
comez
É
xu
##ingu
ce
mon
##and
196
##iza
##zas
##dou
##dores
##tí
193
tempo
diferen
fo
Lu
Pe
apa
##cep
nú
##eces
##tores
##ición
##má
chama
Ba
polí
Me
concello
##xes
12
div
##tón
##isten
ga
##inado
##has
plan
super
situ
##ge
##ús
##eito
##últi
estado
Espa
##emp
##im
Z
##ilia
##úns
grupo
Des
16
el
##ios
Ro
##ece
desen
##rá
direc
xen
inte
Uni
def
prote
##dri
ci
país
##ena
##tres
Y
##par
tras
##úb
##rea
fran
equipo
##gre
##tido
Vi
##pu
vez
##dar
##rou
prov
##van
Cons
no
tiña
así
El
poden
cul
vo
##ifica
rec
##fes
ch
gober
carrei
0
##eros
##it
mor
z
eran
##rece
##egu
##pon
están
##ér
Gali
##cio
constru
11
##ril
ir
##gres
Bar
outras
ind
poboación
##ticos
##demais
##000
##anos
Univers
uti
##ard
conside
14
is
195
Gran
desenvol
##ria
últi
lingu
##ea
Euro
seguin
conver
II
##rada
parro
Ne
##ig
Du
perso
nado
Man
pequ
##gúns
##gou
comple
Galicia
##quia
Su
##xin
repres
194
elec
siste
%
col
sin
Sa
##tada
núm
##xu
ven
##hi
##ados
pes
nove
##rí
the
illa
##cis
13
Segun
nos
base
pou
Is
##óx
Fer
and
##tivos
ato
##leres
fa
contin
##oma
reci
##arca
##fic
organ
cer
##aria
##can
##iu
novo
##ens
exemp
##edade
##óm
##eron
##ós
presen
##fer
historia
##ución
mulleres
##cido
viv
baixo
000
##fi
Pro
utili
hum
rei
sete
norte
Ra
homes
##ores
fal
##ose
##op
hai
dende
prop
Tam
cada
##tral
##zou
##osa
España
parroquia
familia
nor
cé
maio
##cor
Mon
funda
sec
##bido
192
bo
pra
compos
poder
##fa
Pre
eli
tempada
##zos
##torio
conta
##cn
##et
sur
Tamén
teñen
banda
aca
##cula
##dra
##mina
subs
##tando
form
##cidade
##tados
##ler
Ou
galego
##omen
Mo
km
sol
min
tanto
antes
esc
##tia
xeral
vida
Lo
##fec
##ños
##dan
número
sendo
camb
##tina
até
##forma
##mio
capi
##ova
##ida
##ór
##tel
tri
##elo
ben
xul
Jo
##var
##dencia
estre
dese
##ilo
##mer
Q
##uc
##reiro
So
ho
##gado
##II
carreira
dé
comun
##tera
##eiros
Á
estes
mundo
resul
del
Li
ri
##bro
Val
##lar
partici
Este
##ias
compa
tí
##eta
catro
##usa
##cel
##tural
tar
##incia
##turas
especies
191
##cter
##ido
coma
##tamente
publica
##entes
tivo
estas
xunto
lingua
##son
##ulas
guerra
apro
ún
ele
Tra
##cir
cur
Ale
##uña
final
##xido
##oloxía
##bel
inclu
tu
##ese
mentres
w
sistema
diri
Universidade
estaba
##ñas
Estados
las
##ques
xullo
##dro
##tela
##pón
##pas
##til
varios
obra
ale
##se
pequen
Bo
##biu
##úe
cos
actual
##terna
##fo
##oso
##inais
##pre
consegu
cin
todos
##tribu
pun
bar
«
»
logo
##mes
##igu
##ciais
##ove
##gunhas
activ
amb
##dal
provincia
##tín
##iros
denom
##ich
permi
##ue
grandes
Or
Unidos
profes
val
##bil
quen
Ber
mos
exemplo
mús
##erva
##via
partir
divers
proces
día
##ceu
medio
terri
presi
2007
inici
Te
##cada
pu
mu
##bol
mais
ing
##dea
##día
##deu
mus
##istra
##aneiro
##che
##coñ
##dica
##ística
##olóx
##gal
ali
##cha
fron
Da
empre
esti
Mun
morte
##mou
##vés
gañ
épo
##tidade
##menta
To
Segundo
##gor
Durante
memb
Ex
serie
##tén
##osé
coñecido
propi
feb
##arios
xuño
clas
nova
sal
grande
río
##ph
##iona
xoga
##mel
ado
##ír
##adas
##gue
##antes
ru
##ial
##anza
##vesti
xén
Can
desenvolve
moitos
cales
menos
##ka
tipo
goberno
##tt
##ustri
principal
##bum
##inas
longo
tor
25
##fico
distin
ve
veces
outra
##tamento
comarca
##dial
ál
##ip
sign
setembro
##indo
marzo
–
fer
##drid
deix
Ins
vis
der
maioría
tro
##iz
##ública
##xima
2010
##tubro
y
Ha
xaneiro
ag
pen
Santia
través
segunda
centro
Madrid
##mor
Santiago
Europa
rexión
##cular
época
##grexa
Para
inten
abril
proteín
outubro
mili
##ord
##teriormente
dece
cél
##ical
##lado
decembro
capital
30
##úa
##lares
continu
auga
eles
lí
et
econ
obxec
debido
importante
##gosto
comezou
##gon
xe
mi
##tancia
##ke
álbum
perío
##cin
##ído
orixin
##pais
outro
##íu
contro
##ellor
##dida
agosto
##cemento
títu
##ída
fronte
Francia
##fía
diferentes
células
estru
Unha
gre
incl
##taron
##tec
pop
total
fu
datos
capa
Rep
cir
##land
san
comer
Nacional
conf
##lico
2011
2008
tradi
varias
Ti
zona
roman
novembro
##teu
derei
facer
ofici
munici
obs
pri
pouco
amp
Po
Xo
##cla
##leb
##érica
ocu
niv
2009
##pou
##mia
especie
inde
##damente
algúns
##deira
reali
##orn
pers
##peti
posib
Au
persoas
interna
##wa
##ise
investi
fillo
##bar
mer
mill
febreiro
##tivas
##don
##diu
momen
Ta
efec
rev
##gada
mellor
tr
##erio
2006
##val
##ki
terc
##tino
##ecu
Camp
##ry
real
##mon
autor
Col
estra
ese
##ocia
desta
Premio
María
##ini
##lla
Nova
##pera
recoñ
servi
XV
Ho
mesma
For
uns
seguinte
dentro
fre
##cado
auto
Sal
cola
partido
##sión
##ización
mé
meta
espec
xeito
entón
relación
##ho
190
he
mas
indi
lles
##rico
vers
##pel
##mica
##encias
##uel
##cionais
Ademais
pal
estadoun
primeiros
finado
Entre
ela
Cen
período
ademais
##pal
entra
##vas
neces
caso
##tbol
21
significa
cate
tarde
local
existen
Qu
##tituto
traballo
respec
fixo
Coruña
ani
##tivamente
##esa
encon
]
Joh
num
##tóp
##cou
Gar
perten
Fern
##mpre
bas
corpo
##lación
orixe
24
fon
[
lev
oc
##dado
case
##ono
22
progra
##grá
axu
##cente
2005
conx
##rase
cinco
indepen
pai
##ría
éxi
##dido
arti
##lev
Santa
materi
##ya
##tali
Gale
representa
proba
##iva
filme
##cur
uso
superfici
on
##culos
Ac
##íz
##cidos
##índo
His
##dentes
##ministra
Como
descri
obras
##mula
##ñol
##bre
##cola
##ñola
momento
pel
move
cris
Bu
domin
##áns
Gal
##cés
caracter
##gación
##zado
millóns
nin
##rez
celeb
ref
influ
##ritán
##lés
José
##cito
##tis
proxec
##bri
##ordo
Porén
compañ
Di
##rados
##dese
descu
2012
aparece
##ys
título
23
moitas
política
Be
##ixa
chamado
cá
coñece
Am
ós
##ume
2000
##idn
exper
empres
toda
2004
apoi
##écn
grupos
##cho
Non
punto
##dic
Xa
xénero
Ju
cel
##ins
##ork
estable
##mis
feito
principais
Despois
Fe
189
presidente
##dr
finais
##our
deter
Cu
inglés
##onas
pin
estadounidn
nacional
proble
##tude
Aínda
rema
Th
##rando
puntos
desenvolvemento
converteu
##endo
##reu
gol
##all
##cía
casa
##onia
##urope
música
##ionato
Imp
via
reli
##nos
##tía
mode
Cando
XI
club
##mental
irmán
##und
##cl
##reta
Den
##xos
Per
días
cru
Pres
##aría
##rios
##ulo
Ga
estudos
termo
##uso
bran
##bas
Tras
arqui
industri
preto
deci
fai
public
Ten
perman
##lección
##tora
bal
her
principalmente
chegar
membros
proceso
liña
Instituto
##tir
éxito
##ferencia
década
pasou
Ser
##ff
especialmente
aque
ante
28
todas
metros
político
##veu
##iron
##cil
litera
26
##zada
27
##quera
países
##xia
esa
##tiu
coñecida
##ene
frecu
substitu
superficie
Vigo
##dución
188
fra
_
pilo
chegou
produción
Son
##tais
social
Real
##teiro
español
mol
##eno
Guerra
Ponte
##usión
##bles
Mi
##uns
competi
xera
##dez
##vado
Compos
Nor
experi
Mus
##ciden
isto
AD
pla
##iras
##ética
art
univers
##xas
##icamente
atóp
Reino
##trou
interes
##ps
##ército
##culas
ren
Pol
expres
mal
área
1999
##pan
##cer
importantes
mil
##terra
##unta
##ádo
##vers
República
##talla
tal
bi
loc
moito
Pi
realiza
##ál
numeros
arre
evi
##cida
2013
pare
##III
fol
2003
mello
##od
Carlos
##omas
hoxe
francés
Cl
sepa
##bor
##úen
oe
cuar
##gh
Estado
britán
territorio
##illa
##imo
##ental
distribu
nivel
##bur
##ilar
Lon
##cción
##ác
##entí
Her
##bos
papel
último
debe
Barcel
pasa
##fri
##volución
##xeno
##útbol
represen
algunhas
seguintes
##volu
##ang
##omía
disco
asocia
atopa
común
interpre
conte
europe
Manuel
estrutura
##inación
Anton
defen
atra
##eiras
##ñan
##tifica
posición
proce
escu
##meric
##posición
##ivo
2014
desa
Cal
##ly
##reas
Está
libro
Barcelona
ocas
Terra
reti
come
##ad
figu
##teriores
programa
##órmula
membro
chamada
fro
volta
29
porque
bac
eleccións
púb
emb
propio
##esti
condi
económ
##pol
##fun
moder
unhas
civ
proteínas
administra
construción
posto
ADN
caus
##ja
##ciedade
Compostela
Min
av
illas
Ka
##grafía
##tus
popular
##dir
York
cientí
##cra
Tor
##ture
fix
iden
##ms
simp
pá
hid
##ire
Gre
##leo
igu
Ja
constitu
teor
técn
Francis
frances
##pios
galega
tur
2015
edición
##itos
ami
##ional
Interna
depen
palab
##ni
##vidu
##tacións
##tero
Isto
media
sempre
antigo
##pl
alemán
Fin
##tidos
##tadas
##nas
Cha
reac
crí
##ok
norm
edifici
##tese
calquera
seis
extre
director
ur
Sur
Ver
pesar
##formación
187
Así
##ísticas
New
##itan
Mal
situado
##unci
50
nada
senón
##talia
individu
cultura
histó
gañou
&
Mundial
##fon
##vos
Ru
natural
secu
categor
##dico
##lia
##ft
##zan
xorn
##rias
dispu
##ciona
##lou
##eb
abs
Partido
cap
mari
##xida
##greso
##poñ
deri
Ir
##rente
conxunto
##zón
Har
home
XX
##gando
ima
emi
##mática
##onal
afec
##reo
##ura
Men
aproxima
deu
equipos
aband
anterior
derro
tempera
##uñ
dimin
mic
descen
Si
ini
tama
##xina
At
presenta
186
op
cantidade
##ille
John
##maña
2002
2016
III
cla
##cina
##lada
formación
igrexa
Italia
##ardo
terra
##pación
campo
##acións
Pedro
mostra
peri
Rec
##dios
mediante
van
central
##lor
redu
actividade
Ing
cine
Alemaña
##íns
movemento
Il
militar
Sch
loi
##tur
orde
Ter
corres
respon
##íf
clasifica
Norte
pró
Pos
##cto
enfer
único
liga
va
Aca
capacidade
poten
animais
Go
leva
resto
Imperio
fora
Gra
##gen
31
considera
itali
lanza
nomeado
Rom
##xto
partidos
sería
ide
at
formula
relacion
##ley
2001
##erto
##éx
sab
##recen
divi
##taba
##isa
gal
##anas
##xión
oficial
muller
Portu
##ans
propia
localiza
##ty
Div
supón
resultado
cro
aus
##istro
española
zonas
Ori
##ídos
##posta
debu
##levisión
cidades
comb
##usto
##RN
Tiña
elixido
antiga
100
##au
dicir
##ró
ener
##tio
adi
intro
##bir
##cidental
Unión
##trim
cr
##terio
estilo
control
##ciu
Sh
##ach
vir
No
Ben
cambio
correspon
##deo
tamaño
##gro
Ge
cub
##bilidade
terceiro
colabo
##zación
##frica
gas
posteriormente
xeralmente
Juan
##pres
iso
estivo
Dis
##arias
##ds
París
docu
He
##ilidade
finalmente
versión
Antonio
bus
alcal
Francisco
##ár
consecu
##olog
escol
Roma
meses
##erta
##mun
##ile
resi
##nes
cargo
recibiu
##xio
Will
Mer
Lib
primeiras
xornal
exército
##porte
alta
Fórmula
##idos
acordo
internacional
##torios
##logo
40
##tual
mec
”
##ucle
##grou
##elas
##trimon
estar
Do
acep
##ería
Hen
propiedade
quin
función
Bal
idade
##gunha
persona
interior
propor
pó
##bía
có
##obre
##tida
fei
Mic
Ram
suces
ascen
termin
descubri
cli
##duca
Aus
causa
##telo
bacteri
dar
provo
Segunda
##dura
elas
situada
Fil
fos
##licos
especial
##ismos
“
Pr
estudo
recu
Pal
última
##esta
##sos
Ros
Bri
##enos
arquitec
bis
xur
##dados
##laterra
##gados
##lio
##ian
Mor
tes
Inglaterra
Bra
monta
##ity
nai
costa
##viv
az
promo
diversos
##eropor
IS
##ovi
##tagon
presenza
##ger
publicou
alcan
extra
reg
pois
posi
semel
etc
estaban
lonxi
##dad
cristi
##tualmente
partes
##guez
tea
elementos
##ella
Gon
incluíndo
##bra
respecto
##gares
##quista
##ben
portu
##aro
Ste
seman
##ice
xeo
pan
##éc
##eses
Hai
Desde
##mó
forte
vila
América
sim
cic
limi
empera
##ko
##quí
posible
##tiveron
lista
pec
##dap
##dé
##lin
encar
varia
proxecto
##quis
##unca
Je
##tró
Ara
superior
ferro
esca
##NE
Primei
##metros
casos
Mu
problemas
Za
##ks
enf
única
Estes
##nia
Pas
Fede
flo
##ónica
Igrexa
##ham
alto
cabe
ago
Ci
##ulta
##ficar
fútbol
XIX
carreiras
##eis
plantas
novos
##ápi
Lugo
vas
##col
##bia
cri
1990
##itar
##quer
lei
pequeno
atópase
##vis
Club
fillos
ór
##rán
pl
sac
novas
ocor
##trimonio
filla
ambi
volveu
##50
=
##pio
pequena
País
##vor
Portugal
sexa
menor
teoría
fab
##ulares
2018
##pro
##rel
##dres
##titude
ax
espazo
aplica
relixi
##xer
er
influencia
televisión
luz
Mari
cabo
##lán
##ima
Sol
##ed
Logo
fís
vin
arte
formar
enci
Rus
##torias
##uros
Xoán
##ual
hi
Fa
##torial
Edi
##vedra
data
##todo
##quía
reino
orixinal
quí
obri
dou
dif
ré
concep
##eroporto
##lí
Estu
profun
coruñ
##eceu
Hu
##ximo
##íos
altura
levou
##cios
##ecer
len
portugu
##ticamente
##ey
Catal
instru
##demia
ades
colo
defin
enerxía
##óra
incor
pi
titu
diversas
##ublic
##ches
##ético
Fo
repro
##by
organiza
##ela
Tri
exer
##ible
Rod
sociedade
Ban
##triz
##gel
Má
aproximadamente
rápi
regu
dec
##lamento
depor
Willia
canción
ARN
Mas
##tz
ep
rock
enferm
exten
##estiv
pelí
##ístico
##ted
igual
candida
##ández
ár
principios
poe
adap
distri
##zando
campa
##tional
flu
##dy
xogador
batalla
##difica
linguas
##jo
marca
fic
conserva
##rol
Vo
tipos
dirección
nom
Vol
pei
castel
184
protagon
1998
coro
conseguiu
encontra
##dendo
adestra
baix
Mc
Pero
división
inver
##del
División
Wa
##ingún
60
Castro
situación
grego
##rana
sede
##rer
1936
##xiu
##mico
Pontevedra
1991
1995
humanos
Bas
molé
creación
Bor
velo
##usti
novela
afir
abandon
183
decla
ni
tre
##BA
libre
Bi
concel
forza
Ed
temas
##mada
coruñés
particular
García
##ish
Internacional
Rober
semellan
Europe
##dá
público
vitoria
dá
1996
##enci
categoría
asas
cami
##istencia
prác
IG
##ñeiro
1997
demos
##yo
actualidade
##cidente
##yn
gar
bos
##ies
aten
##inou
escen
##inada
metade
dez
actualmente
empresa
##ign
##ulos
##BN
lonxitude
formas
##pé
núc
##ingü
adop
últimos
Unido
cabeza
redor
proteína
Ph
ácido
##misión
revista
##vada
##blemente
Pra
reun
##mu
Mos
lugares
##mios
condicións
##iso
modelo
integra
Fernando
esten
Liga
Tur
Cab
emperador
características
##ld
fen
mundial
Estas
paso
destru
ningún
Cris
Londres
Sen
Copa
eta
introdu
profesor
80
ISBN
libera
##recer
concen
##gón
##pia
Pen
augas
Rei
conven
orden
comunica
##mado
lado
##ung
sín
Sta
Vic
sufri
##cro
Dende
organización
agora
participou
##áb
crecemento
veci
Cel
hon
Oc
respons
##rique
##fonso
canto
1980
1992
carb
regres
##entemente
algo
##estival
utiliza
Dan
alí
quil
compren
equ
explo
##ric
valor
Castela
IV
##mentación
famili
xogo
##eu
planta
##lula
indic
1994
##ila
##ora
velocidade
colon
escritor
ambos
##ezou
##vel
##íase
ocupa
clás
enfron
##ríguez
importancia
##dición
moe
incre
##ancia
Fernández
nunca
##fos
Rodríguez
##pto
##ízase
ponte
Ouen
compañía
aves
institu
medida
condu
##bou
cará
##chos
rexións
##vid
edificio
selección
civil
##bita
##tit
Cer
recep
raí
##xis
apoio
pequenos
##unciou
fan
grazas
información
2017
Lou
carácter
IGE
##nx
modo
##ner
—
##ame
##unda
persoa
León
femin
Vila
##mación
traballos
fóra
##tería
##reira
185
campionato
Galega
##curso
concentra
##igh
##ple
micro
Char
##cese
Algúns
Medi
##alización
##est
estab
##radas
compar
motor
arredor
Cul
bu
##ames
##poñen
publicado
electr
axuda
##zá
##untos
miú
+
Moi
Va
##cteri
Monte
hor
ens
unión
1993
comeza
dereito
recol
Academia
##ompa
sus
##ons
Ap
##rais
##éxico
##mbo
Ó
profesional
##lea
##zaron
célula
##wn
cambi
África
vai
##berg
morreu
##trás
pequenas
##omo
figura
##volucion
diante
xenes
500
conser
##iss
fí
##ment
##fera
##ceso
simple
opera
servizo
defini
entidade
cm
Pla
Gober
##mara
Luís
chega
nucle
Alex
##xose
pp
##uncia
árbo
resta
forzas
oito
terceira
##pes
Bro
contén
70
org
material
escola
diferenza
##uls
ec
musical
principio
ache
##ker
acción
##íti
nave
noi
municipal
Casa
ingles
Pop
terras
considerado
##leiro
Sil
lan
Lin
Ad
prim
gaña
ocasións
clase
##racións
trasla
traballa
educa
##deiro
obxectivo
Cru
##fre
##boa
radio
restos
##itas
Los
dirixido
diminución
enga
aumento
naceu
##xén
miúdo
podería
tema
Bur
permite
qui
referencia
esquer
ouro
provinci
90
dens
Vir
##algúns
realizou
formado
catal
infor
quedou
tó
##ficos
Mil
##itario
vía
Ab
David
infec
tradu
fase
avan
sinx
Campionato
latín
##mato
alcalde
insta
##ick
Ri
cató
minu
sí
Ce
indica
forman
literatura
##ínsula
normalmente
escribiu
181
libros
##inar
Air
32
##ífico
preci
verán
palabra
logrou
séculos
##cais
tropas
americ
##media
##ento
1970
Comun
premio
##tureza
##cando
##osos
quiló
maiores
182
puido
bio
Galiza
35
exis
lide
dereitos
be
espi
##cadas
deriva
tiñan
Pu
sistemas
investigación
##dón
depu
Historia
##bida
Mes
1989
##ínci
piloto
Tu
soa
##iblio
investiga
aeroporto
cadea
Consello
recon
##ridade
prepa
Hol
dan
##gún
##rela
independente
##xual
##xica
aspec
##ack
##anismo
deixou
baixa
produtos
##arra
Geor
México
estación
viol
implica
##dn
Res
##ford
excep
realizar
Pan
##chas
##loxía
tempos
##isco
maneira
##mase
##ína
##paron
##gráfica
##lez
##dol
arque
##centes
##peración
Primeira
##posi
##éctri
variedade
ol
Wal
##pez
##tron
pé
alterna
dominio
##oubo
áreas
##iel
ampla
##ther
humano
##din
China
##ilio
##mático
poucos
cambios
Austral
Cos
INE
Tom
Ven
goberna
Cali
guitar
decidiu
Che
francesa
##cultura
nomes
interese
##olóxica
##cher
##ws
comunidade
##tú
inclúe
responsab
occidental
Migu
PS
numerosos
competición
autores
efecto
cancións
demo
Bras
j
enca
##quiri
Bel
mito
##aban
##dando
##mentar
existe
deseña
##uta
servizos
##idas
Vil
##rin
rexei
##dían
##port
artigo
levan
Miguel
mate
determina
33
deseño
1987
##citos
mellores
Australia
##amer
temperatura
##ttp
##adores
recente
##len
Chris
##mino
dedica
180
##metro
acompa
##arición
##tancias
Bos
dra
##olóxico
desapa
##tría
?
expresión
Centro
mani
prac
Cana
36
Sar
##éon
viven
##reto
cultural
##daron
relacións
##baixo
obtivo
##cuí
Dom
cuarto
##rosa
quilómetros
verdade
algún
decis
fonte
Nov
1960
tradicional
recoñeci
##pado
observa
##ánica
##rantes
Martín
acu
guer
Cla
Galego
teatro
##dú
sue
##terrán
Ló
ame
Super
similar
sitio
existencia
gobern
natureza
##tares
distribución
Wil
##íon
##cionalmente
##gua
distancia
longa
##aba
##onces
idea
pasar
execu
selec
##si
levar
##imal
efectos
pron
xefe
sentido
magn
Em
even
recoñece
Ag
##ting
##osas
Lan
##fil
Galle
nego
numerosas
actividades
comercial
##peci
1986
Pon
ama
atopar
ára
Lei
##xir
producir
##beis
##my
enc
tradición
##oe
hos
Pri
##éri
45
fontes
VI
##ador
lími
##cidas
##raron
italiano
ww
Museo
destaca
##ertos
Depor
horas
coche
##oli
www
López
celular
industria
xer
estados
había
##ky
funcións
Don
complexo
inau
xogar
posterior
porto
xapon
emprega
##vou
##ward
boa
colec
aparecen
##ters
mans
grava
inicia
Plan
cere
infer
sos
##oncesto
Rusia
película
##licas
Ramón
Er
posúe
refor
##vir
mercado
adoita
°
entrada
núcleo
##chi
dó
probas
Dra
##íncipe
ciclo
1988
Cá
xogadores
Máis
independencia
rol
##esión
traballar
go
volver
##fra
Xapón
Actualmente
favor
##idente
NBA
##mal
##tase
fose
presente
foto
tecn
##ision
##dre
blo
economía
inaugu
##esía
vexe
##mias
apareceu
##cy
##ezas
mediados
Ana
Fili
Hon
misión
##eos
Record
clasificación
Paul
!
Gol
castelán
##tadores
composi
##eran
Fu
##ñor
##osofía
##landes
manter
##tern
##culares
xene
bispo
Gen
lago
formou
comba
Xosé
confli
Califor
fundamental
ámb
1983
comezos
medios
evolución
##tindo
1979
##pra
##iano
creou
##tendo
##turo
realidade
territorios
composto
conden
Asia
contribu
##sións
##pital
##pica
Jose
Mundo
84
xira
California
incorpo
##perar
impos
papa
distintas
Wor
vista
##ouco
XVIII
1985
##cionar
##ão
##ídas
Porto
chegada
1982
##ustra
establec
trata
##emb
##zados
traballou
Posteriormente
municipio
campaña
demostra
espos
##lido
Afonso
anunciou
suce
##dis
manifes
##algunhas
##límp
##xentina
##fac
loita
##hibi
Fre
dor
##zz
ningunha
Idade
Xunta
##americ
Goberno
chan
sinal
distintos
##didos
##erdade
parece
##ramente
obser
entrou
##raba
##umi
cromos
tiveron
##érez
##ficas
extremo
##lacións
Eu
##ann
Social
##com
bre
##turais
##minar
niveis
Xeral
resultados
Ob
modifica
defensa
eléctri
bastante
converter
##ectos
camiño
formada
distrito
Constan
coi
membrana
##iller
##ific
detec
Jul
##retario
campión
##ex
##zález
##gi
##taxe
James
Anti
noite
práctica
##ent
nota
##pole
##ls
CD
poli
Mel
Bla
regular
##fire
lic
británico
viu
Luis
##rentes
máxima
##hu
Illas
logra
##tions
González
##izan
##ology
comezo
disc
Ferrol
obxecto
web
trip
##rese
von
peso
##han
sor
hidro
visi
golpe
1984
evitar
’
##iado
##ara
fala
rede
absol
##ney
##ixos
tex
##rac
##pela
toma
Brasil
publicación
##téli
símb
facendo
conquista
crear
madeira
secuencia
34
##ité
1977
amor
masa
##partamento
etapa
Alber
matrimonio
ensa
Pac
anál
Robert
Festival
lix
##máticas
##isto
Del
compor
##clo
Die
##teca
ministro
##mentais
##micos
aire
duns
##itaria
India
directamente
enxe
Ur
falta
##ut
dia
##ólogo
37
bandeira
adul
##tory
Congreso
Española
##crición
dita
##xeiros
pedra
##ington
minutos
##enas
nese
centra
##lon
Bru
##int
bra
obter
##iles
antigos
##posto
ps
sangue
##diron
##neo
##hael
follas
refer
Ál
líder
Illa
resol
voo
metal
amea
pon
##lín
sector
anteriores
gañar
invas
1981
pensa
1978
mei
actor
Escola
##cuíto
imaxe
compro
reprodu
alma
escrito
##usta
identifica
Santo
Hel
inmun
constit
pens
Finalmente
coñecidos
Central
##teira
Rich
militares
segue
##enza
Que
texto
##cionario
bacterias
1976
diá
##usas
##íron
179
Inter
##teral
doce
##ash
##erais
##landia
##dística
moléculas
Río
aquel
##drés
##dantes
##úde
escrita
consecuencia
elabo
38
locais
##art
sens
##receu
presión
##ood
mando
inspi
Cataluña
##borou
palabras
##riba
liñas
trono
viaxe
presentou
Carbal
##let
resposta
Camb
Ali
Records
corte
produto
##20
97
enfermidade
enla
inferior
Sou
##ustria
poboacións
Canadá
organismos
##tano
Sin
##rena
William
##rido
##omb
Van
Ferra
conde
factor
Sec
##landa
semi
##dge
procla
##ultado
personaxes
##drón
queda
Soci
fundou
concepto
##olóxicos
Popular
nenos
1975
dobre
restau
##él
Cara
mam
lingü
##eles
##éano
dispoñ
##crá
deber
inmedia
localidade
envi
##landés
Jean
romana
##we
individuos
resistencia
mono
elimina
Michael
baloncesto
Flo
War
amos
Mac
converté
reacción
##ses
circ
medie
tratamento
reinado
##bes
produciu
Outros
1950
aconte
xeneral
##umo
carga
método
Pérez
cab
confir
castelo
difí
unidade
há
##vera
bene
##vei
##eri
##dical
continuou
##micas
Tro
impres
##estión
lar
comezaron
virus
frecuencia
contrato
##pí
avo
conce
estadio
##bis
Era
##leiros
contemp
problema
Estadística
amino
##edo
##cea
##vista
cump
##ivas
clases
desenvolvi
##rup
##ómen
http
transporte
xor
rebel
hip
##esús
preten
exterior
##gración
##gby
esquerda
##bun
fondo
raíña
expan
##ábel
Mur
porta
calidade
Fac
estruturas
##eli
personaxe
##gráfico
extin
Americ
Irlanda
##amento
1974
##tividade
satéli
pertencente
ace
irmáns
apren
sinxelo
##ceiro
Media
nega
produce
comúns
chin
denomina
##xime
##rencia
Fri
Asocia
mestura
excl
praza
Sue
ingres
cuxa
##reg
compostos
deus
xogou
##ings
##puxo
houbo
Vas
sil
##ivamente
##abe
World
porén
será
cantante
##ones
##bili
filmes
##SA
##abel
##one
funciona
conseguir
usar
económica
sex
Prov
##fas
##fato
##ges
contacto
familias
Tran
##teiros
On
acceso
Algunhas
##umb
##ival
##ónico
branco
glo
rúa
podía
Arxentina
Debido
humana
##ivos
fus
##uti
##lados
##mando
##rador
##roso
##cursos
bol
compoñen
Deus
XVI
rapi
femias
##vio
##ricos
Ig
caracteri
persoal
crítica
Ve
probablemente
propiedades
xente
liberdade
ríos
Constitu
Lis
oriental
Pala
##zi
máximo
sobreviv
##mann
labo
machos
##nal
lin
##oides
Cro
procu
sociais
##bus
##cili
accidente
##elan
1973
utilizar
peixes
obxectos
inicio
certa
42
Press
Parlamento
formando
##idi
##trase
expe
provincias
##quez
pódese
Emp
busca
##mella
tales
termos
##xinas
ciencia
grá
cuali
##áticos
##tística
barrio
##quela
39
hidró
Xe
##taría
perda
##bul
##idé
Fon
ovos
##ane
bom
##cesa
educación
procede
chegaron
avión
poeta
##isterio
inclúen
41
Ib
sexual
##ñou
esque
##pers
técnica
encima
##deas
fib
dereita
baseado
Astu
##cionado
##xencia
##vención
estranx
300
pista
referen
##icía
##ciar
naturais
##cindo
##logos
progres
armas
fabrica
Dou
##trali
Xogos
tomou
##uri
National
##stru
fundado
confi
##zamento
march
metro
##sen
##íferos
animal
prima
colum
pais
lec
artistas
proto
oficialmente
43
cated
densidade
##ze
University
casou
fronteira
aer
caza
pros
##ires
condado
fenómen
desenvolver
##leza
monte
números
clima
Mentres
##vier
Bul
comunicación
tempadas
1930
Alexand
cuxo
infan
adquiri
descuber
agru
asenta
Sha
##postas
Tan
George
pública
Aragón
din
explica
factores
1972
comercio
finan
Grecia
diferente
Las
recibe
romano
##tn
actriz
pren
entidades
##maron
mante
##inastía
Amb
##ámica
pobos
inverno
sección
1968
ner
##toral
##xentes
extensión
captura
##bano
##cien
Gru
##vin
ang
Asociación
Exi
##licar
##ático
arma
util
cores
fundada
detrás
duque
##eco
nu
bás
técnicas
fis
##radores
2019
Cur
futuro
##gno
48
Breta
##íbel
##iden
participación
esposa
All
Lea
mestre
pilotos
##quin
##tte
fas
razón
##cus
epi
representación
##hí
##gü
Existen
Edu
aprovei
##orán
Ferrari
##olox
##lida
##leira
concellos
sufici
orienta
estableceu
indican
##je
##dada
adestrador
Bretaña
auton
xéneros
políticas
xornalista
monu
Atlán
disol
romanos
Fal
noroe
industrial
##zadas
abri
##alizar
percor
inicial
##ux
Jack
viax
memor
procesos
permitiu
##mn
Esco
##10
recoñecemento
Cada
##olóxicas
Derei
##ua
histórico
Sam
1967
rele
##tuais
pezas
##dencias
dólares
##ficación
fir
inglesa
considerada
administración
Aug
bases
Ni
Pá
paci
atópn
Sim
Navar
completamente
##uma
aparición
##izado
##xidos
multi
178
design
Bran
##reiros
##mé
Xer
ampli
ecu
##gadas
favo
plas
##emblea
##elos
ofi
patr
dific
cito
dedic
honra
premios
composición
coinci
##roe
atmos
##ulación
atraves
Valencia
parroqui
1969
chegando
recor
75
ataque
composta
44
Grande
carbono
##mita
estudar
mosteiro
edificios
inicialmente
hora
##iana
Oli
altitude
obstante
##ré
fede
##his
saída
án
plu
deco
reda
##rón
unidades
posteriores
conec
##cados
##oviética
##forme
Salva
Día
materiais
##kin
Cruz
Sp
far
vinte
##rano
neu
tomar
##bado
##ibles
transpor
##tem
Cam
##igna
Austria
##mida
agri
estudio
Henrique
refu
desenvolveu
##reos
pul
##cello
consiste
empa
réxime
políticos
Ata
científico
certo
dirixiu
##ny
##bios
Dar
poi
irmá
chamados
1971
##caron
##minado
imper
física
##íza
Exipto
##dela
XVII
Trata
curso
Charles
planeta
##seu
##ror
##gueira
adoitan
##zóns
Kar
iniciou
Países
marcha
Stu
Roman
fixeron
elemento
acol
##ómica
península
coñecemento
derra
alum
asinou
deben
poesía
##cialmente
outor
##iblioteca
Ke
Martin
150
usado
artigos
##ines
múlti
Civ
##lexio
Aten
##tol
Ala
construír
rapidamente
editado
empresas
##rael
##fal
Deportivo
Trans
devan
partí
ocorre
franceses
acadou
##xios
##oro
Ken
Ren
relativamente
##rens
títulos
1940
exclus
ambiente
movementos
##TA
argu
mesmos
Isabel
curta
##tone
hel
moderna
bandas
voz
rexistra
cho
ruso
asegu
Voz
incluso
##mello
román
baseada
páx
47
amigo
colección
##ary
##mber
creado
tendo
completo
rode
55
publicada
ambas
contido
antic
perdeu
terres
Les
demais
propios
##ech
##alizou
gradu
tódor
##ínase
imaxes
##olí
mole
arquitectura
respectivamente
encontro
constante
seguridade
##xim
Tea
Hum
XIII
52
We
##burgo
identi
Estudou
##ive
##grada
lexis
Sev
branca
utilizado
##BC
médico
Ham
nacemento
completa
azul
Wi
##tiles
árbores
##eld
##ultade
pasando
sali
Xu
1931
FC
esco
##ling
##oide
europeos
fíxose
municipais
motivo
Federación
##digo
xes
frag
##ól
##trato
##todos
seguir
some
feitos
enten
mm
saúde
Jor
Tim
TV
Cidade
química
acompaña
##tein
compe
##xente
##deron
##bio
1920
##tios
sufriu
video
##hada
Roy
canle
##xenos
##terráneo
dial
vel
bordo
coches
oficiais
##ilas
textos
rexi
Peter
cabal
repeti
usu
##gano
Indi
escas
motores
##kh
##ares
conv
46
##erdo
##lidos
distingu
##tici
ideas
aminoá
corrente
acus
episo
medal
Ciencias
dinastía
portugués
##leu
rematou
recentemente
simi
##istente
Cristo
Sub
##tua
ara
oposición
trala
secretario
##pecies
1945
semellante
bor
secund
torre
aqueles
mó
conteñen
templo
activa
similares
##teres
príncipe
Arte
morre
próxi
sul
dado
Hab
VII
enor
republic
internacionais
Fra
Richard
filosofía
axi
Asturias
##ctor
##eas
##oia
Olímp
ascenso
##ñar
posibilidade
##teo
##win
Tal
##miso
##didade
1939
mamíferos
les
##OE
Ric
Bern
dirixida
idi
Thomas
veciños
##íxeno
árabe
Baixos
Europea
métodos
galegos
normal
Trabal
atención
##pren
crea
altas
análise
organismo
##glo
fundador
Antes
pasaxeiros
denominación
campos
##túa
Bea
bur
coñecer
Cre
tá
XII
paz
agu
fusión
##12
estrada
consta
49
esfor
circuíto
tratado
trasladou
presentan
177
futbol
##aise
##ñois
My
##mbur
moedas
estudou
linguaxe
considerar
##plas
Blan
corre
volume
##40
##onais
Alon
parale
Pob
Só
##dicos
musul
materia
##ars
##NA
Gro
negro
urban
versións
Funda
coñec
rolda
creada
asasina
ana
daquela
Presidente
##ware
1966
unir
Atlántico
letra
característica
##net
costas
casas
moeda
estrelas
admi
reconstru
Rib
1962
verde
Ko
nobre
semana
Rock
beira
histórica
##cebis
cren
compositor
denominado
1963
exac
pesca
difícil
##tidas
65
##politan
benefici
Escocia
construído
Malia
##gs
páxina
universidade
##tiño
chamadas
alimentos
##áz
##ficial
escribir
concentración
fós
españois
Ama
##ku
Cou
Ger
##ificación
poemas
##ledo
terminou
Mol
Star
habitual
##SC
1958
Chan
pintura
grega
asi
rápida
cad
1965
artes
recursos
económico
convo
entrar
descoñ
##mba
1964
##ret
##ísticos
valores
##oa
derrota
mín
atribu
protección
simplemente
##ples
goles
terreo
##fé
diferenzas
1937
reis
53
lanzado
símbolo
prata
Pacífico
vivir
Dic
Alí
letras
fundación
contemporán
ran
Fútbol
contrario
compoñentes
##óxica
inimi
certas
##TP
##leta
##formes
Aires
suroe
var
soldados
##dita
##máns
medieval
##hib
ton
##didas
dando
##mí
##tara
envia
Cuba
simb
segundos
seguiu
##gués
asociación
##inal
##izou
Gallego
ase
Martínez
##tive
fla
escudo
##éticos
centros
Bill
Hill
leis
usando
##dil
ves
Eduardo
##erre
calor
##vía
Outras
científicos
##mith
batería
totalmente
dipl
ú
Suecia
##éticas
mascul
escul
exemplares
##ceira
alemá
programas
deli
despra
coñecidas
##trib
trá
señor
participar
##marca
romp
perió
certos
400
dú
1933
escala
Sociedade
escra
negra
relixión
Frank
flores
semanas
Pode
Navarra
conflito
presentes
##at
Sy
##pias
##ckey
alf
aven
malia
colonia
votos
potencia
Williams
patri
##FA
afas
gobernador
##way
Dec
PC
PP
ane
##pedia
orixinalmente
##dora
eses
audi
estrela
xi
##étri
Radio
figuras
hipó
Estatística
Grupo
capitán
deca
##ye
tax
visión
##uss
##tab
##60
##crito
1934
ponteve
##wood
1961
FI
American
##eza
##tóns
Consultado
forta
##grado
sacerdo
ul
accións
anal
Alonso
Ul
diámetro
deputado
rapa
breve
fracas
colaboración
dele
##eración
indu
agricultura
##receron
torneo
Sevilla
bril
coroa
mantivo
##graf
acce
Dereito
considé
vive
apo
bras
cidad
décadas
##ázquez
##teb
##har
##trop
Lic
absor
interpretación
##dindo
League
Moitos
menores
##máticos
##tana
##dario
suxi
aspecto
Ese
manda
nalgúns
##over
Tol
nac
defens
permaneceu
##íxen
##resa
##dúcese
impac
radi
actuais
necesidade
pala
Hor
elección
ave
person
Guiller
nervi
deixar
##80
comerci
Sco
sabe
##torno
famoso
equival
ví
Depu
##rono
Polonia
##có
##lando
##tenta
límite
compañeiro
1948
prensa
dimen
modelos
novamente
##biles
Leon
interac
pertence
##inte
##cing
##péla
##trada
británica
titular
Rena
bizan
receptor
##visión
xogos
##minación
rápido
consumo
##etas
reforma
expansión
##cán
fr
1956
Concello
especializa
protes
populares
##mora
anteriormente
Domin
##timo
Riv
quinto
experiencia
##inta
sta
##ot
impe
51
cinema
producido
Econ
Bio
capela
crise
artista
Vill
Bou
Bon
euc
aldea
facili
particip
concertos
neg
##garon
Estre
departamento
líqui
requi
convertédo
1959
poucas
tens
comportamento
carta
Civil
Paulo
##ronce
pasado
##yr
caída
desemp
##cementos
##30
Costa
Segu
activo
xun
Patri
refire
específ
##ízn
Nic
Nob
autoridade
64
##tima
Artes
##hat
correc
AC
vehí
atopou
coñeceu
cumpri
residu
insectos
temperaturas
##tiron
##izar
emisión
permanec
dixo
##fen
##imos
##iados
##icais
propias
##dito
##tían
antigas
##ocu
##deus
Tes
estrea
tecidos
directo
##pin
##domin
católica
tradución
##ong
##cismo
##yer
Suíza
cabar
compi
ollos
arcebis
57
Sac
Todos
evolu
instal
##ceae
##ight
Rob
xuven
agra
incremento
Comezou
##fam
##deiras
Mag
vías
##cé
endo
Louis
regresou
##íp
necesario
corpos
##tamentos
ed
Álva
##culación
convers
##old
acum
xeración
Demo
vén
Lau
agás
cousas
ilustra
##rito
sing
parque
profundidade
##cracia
Teatro
océano
distribuídos
decisión
Filipe
plata
presentar
Saint
human
proxectos
transmi
##bada
##lesi
chá
hábita
ía
pole
bosques
pontevedrés
##hei
##uela
narra
funcion
europeo
##ier
acor
frecuentemente
##pélago
Berlín
54
gala
parella
##CA
1946
cancro
##dam
85
substituído
plano
##unidade
##ball
Flor
soberan
##tian
posu
##tili
autoridades
##phy
solici
́
##esas
##ville
Temp
Gi
acabou
Gua
1947
##tti
xard
##lus
madu
paisa
meiran
##camb
secuencias
mantén
Bél
##ander
##ides
integ
mural
repar
fortes
Exército
56
Viv
déci
##ificar
apenas
1957
Wash
aba
Vicente
catalán
##fan
##ID
memoria
adiante
contaba
##uxo
dio
##amente
##vn
##ízo
##bunal
1918
##cencia
aquela
molécula
establecer
asis
censo
imperio
##édo
##xic
##uto
orix
Bélxica
Dal
afirma
diferencia
##ranza
producen
cultivo
descubrimento
Revolución
próximo
segre
##tics
Pub
renov
CO
##uais
Teo
by
adultos
estreita
candidato
científica
1955
recib
|
últimas
##ilib
##larou
sux
##razón
repa
patro
Parque
recibir
pseu
##ciones
##tm
vul
opin
árbore
saíu
autón
recom
lixeira
Fillo
haber
Álvarez
Reg
vix
##ñeiros
motivos
##11
##ket
##sas
Tre
cita
eleva
risco
120
incen
Cultura
relacionados
festa
síntese
Constitución
fich
Lingu
aspectos
exposición
Soviética
sangu
##ind
pne
azuc
demas
circuns
##ith
acei
##vais
precis
ámbito
denominada
##xeo
Outra
continuación
##ática
##istros
montaña
Blo
##ladas
tradicionais
1932
##vase
1953
Torre
kg
##dina
Ministerio
Nar
1935
venda
Washington
##ster
eti
rende
##daria
1941
viviu
instrumentos
Black
Direc
poñ
recla
Bir
lemb
You
escena
investigacións
típ
##ecución
##organ
1949
europea
##anda
Inde
West
##ustiza
guitarra
##dí
psic
foran
diminu
orques
Vasco
Fro
intento
1954
raíz
Stan
neuro
PSOE
##chez
medicina
infra
##cipl
##her
58
1938
74
deba
Outro
podían
ácidos
lanzamento
Asemblea
##ricas
Daniel
Bre
##dante
##ficou
##try
facil
triun
bloque
cámara
pintor
##gulo
electro
Zara
supe
homena
catedral
cerca
próxima
##ibilidade
expedición
Orde
rou
##ratorio
medidas
construíu
múltiples
Scien
intelec
##tipo
Fun
Red
arco
perfec
destacan
Salvador
Pin
comen
Partici
algunha
categorías
##ght
Smith
provocou
padrón
Olímpicos
hú
agrí
abran
partículas
Bil
áto
conci
73
responsable
##ore
Organ
evolucion
95
escolas
Cir
seres
condición
##ik
duración
##tle
fáb
##mburgo
barco
enfermidades
Joseph
cuberta
##ult
##grexas
órbita
anticor
Af
Ox
invasión
combusti
norteameric
##umes
##ítu
##cionados
instalacións
##camp
Len
Comisión
UE
XIV
montañas
zo
Comité
00
##ganos
xenética
Carl
futbolista
declarou
escritos
ferra
Az
##deG
abre
labor
visita
72
mecanismo
Nese
Campo
desembo
76
##ecto
continente
Sán
log
onda
arquitecto
Án
primi
alemáns
175
revolución
Kos
álbums
baixas
revolucion
##ábn
##tís
##xar
suspen
colonias
##taban
acto
fenómeno
propieta
hidróxeno
1952
deixando
##hid
Haw
tare
enorme
máqu
##wer
##desa
##tter
dura
estreado
Gil
Xur
tiv
##belmente
encontros
significado
1922
indíxen
Fis
Pouco
xerais
Novo
##st
##tista
cuarta
Sab
oli
VIII
NA
ade
som
##trans
pola
remo
##lante
celebrou
am
apre
costu
glicos
med
traspas
ros
lenda
posúen
depende
comerciais
aquí
##cendo
ruta
series
intención
clásica
##gin
Bol
estri
67
musicais
##fede
Oriental
definición
retirou
satélite
aé
participa
Hos
##ósito
británicos
vice
encón
##eitos
sovi
##cre
##dice
grave
institucións
##mul
##ionais
Sánchez
Tratado
intercamb
63
Xesús
precisa
americano
espectadores
##más
##tudes
1919
Compa
nacionais
##ertas
1944
arro
rebo
##tiña
Carol
italiana
Sici
##gy
cría
axudar
##pp
##cón
##alición
##ólogos
monar
sá
Republic
actuación
62
subes
aplicación
cantidades
##ínas
exemplos
practicamente
pneum
provén
capaz
##tto
1929
código
##grafo
abun
hipo
1923
curva
##ariz
bel
Tar
proxim
Gab
##rista
##socia
claro
##eck
##istema
Villa
Buenos
tecido
##bn
fogue
sexan
acadar
voltas
##idae
Trala
##bon
mis
copias
gregos
##ant
##recía
Atóp
danos
almacen
brasile
##bación
inven
tratar
Far
neno
Colom
alber
87
##rato
bó
Cató
comprende
descubriu
encimas
policía
atmosfera
aí
##leos
peza
inn
salva
aminoácidos
empezou
identidade
Serra
funcionamento
##ournal
##vidade
constitúe
##més
praia
##iores
Nu
competen
Mili
Chica
ópera
cambiou
correspondente
##mol
Bis
nob
##ónimo
Ang
puide
homenaxe
fá
##ring
mel
##anova
abor
##món
Hoxe
mensa
necesaria
tér
serve
59
sitios
chamar
##pus
vermella
##NG
##ony
usa
Israel
presidencia
International
automó
##16
acadé
Ouro
exter
contras
##bert
culturais
escal
amigos
Indepen
lexisla
poderían
nalgunhas
##13
Princi
amare
##15
##ífica
curto
sucesor
Occidental
##tador
capítu
meirande
##nou
comunidades
##riz
dixi
Diego
##quín
##ótico
Nobel
ordes
Mediterráneo
##tismo
arquipélago
99
preocu
mostran
carne
rematar
##presión
abandonou
##dras
##entos
##tario
##lá
##itz
160
une
##ultades
##La
receptores
##eria
hab
##américa
##elandia
antí
Pers
Xul
hol
neo
vitorias
empregado
##tical
from
##lam
Ol
amplo
β
Ku
xenoma
Vázquez
víti
custo
Chicago
##well
arcebispo
oport
seguindo
construída
conservación
##tiños
Quin
82
peixe
##gaba
1928
prisión
Apa
##hol
##posicións
##kes
Mars
noti
esper
produtor
##burg
##ertura
Chile
órgano
proporcion
espacial
##AR
críticas
alimento
demasiado
serían
reprodución
77
coci
debut
moita
discos
previa
xudeus
tecnoloxía
##ándo
vello
St
dominios
>
1951
Institu
pasaron
ausencia
amplamente
candidatura
##ómez
ocupou
Premios
cau
cob
##dolle
##gul
##14
1914
Britán
avogado
##entais
cristiáns
temporada
Oriente
176
Reci
##unt
##ek
ín
Gala
posicións
operacións
residencia
deman
orgán
Alexandre
determin
proposta
Angel
museo
Fron
descar
1917
concerto
portuguesa
IX
nar
Virxe
vesti
inteli
Ánx
seg
##gio
Mont
Royal
sitú
##the
##ítica
Zelandia
natal
particularmente
##riño
eri
Associa
##laxe
chu
conquis
períodos
solución
Península
reais
Nacións
relixiosa
priva
Elec
##gante
##óspe
fábrica
##ety
atoparon
##rus
cerim
designa
australi
##ctos
City
primavera
películas
respi
##iar
Fla
órganos
descoñeci
66
69
expor
Eli
1924
1943
regula
razóns
ancho
leite
empez
literaria
##mus
##real
ataques
##ep
rugby
96
RA
##vese
And
frota
##xico
##ómico
vermello
ocupación
PM
Gómez
ciencias
nutri
molecular
##renzo
estiv
lonxe
Romano
chamou
Socialista
##hy
##uz
Mosco
Atenas
68
##deiros
permiten
##duras
##diz
Ind
Hung
utilizando
filó
vivo
minor
98
Maria
poema
semen
##podos
1942
Cabo
listas
referir
##lón
##bres
600
Mass
rexistro
Guillerme
alcu
cobre
protagonista
##gna
Wol
consello
##ud
Cór
##illón
pódn
punk
enter
estándar
anual
sinte
Hal
potencial
##andro
barro
petró
Journal
##hen
##mona
familiar
resultou
Miss
Alfre
##18
Cortes
Primeiro
contexto
Ya
##iais
##ridge
##field
1925
##postos
superiores
##red
descon
eventos
pés
compoñ
formato
sua
##erali
barcos
Ibérica
##izada
avións
rochas
ferrocar
determinar
##17
Có
crim
North
##güidade
metabol
##tmo
hero
acaba
equilib
reaccións
substancias
##tch
##esia
Rafa
Oxford
aberto
lanzou
estrate
##vil
Dina
anar
apar
desas
Rol
##fí
##ceos
##goza
##lex
corazón
##IC
rango
978
Lar
clubs
hóspe
##gráficas
Sicilia
destino
igrexas
##kov
diso
directa
Constantin
##inea
Educa
expuls
##mir
86
##umas
patas
finada
##ónicas
Fundación
transfor
##opla
inva
euros
secre
pensamento
abaixo
Mace
Hungría
impacto
##hire
##rich
Zaragoza
Liv
cadeas
personal
##xuais
Sant
perigo
titulado
Lisboa
alternativo
combate
fachada
Colle
Riba
clara
latino
ourens
perder
desempe
##ftware
Vilar
coord
falar
cambiar
##ástica
Finlandia
constitución
##miento
predomin
##tono
electróns
mob
pecha
recuperar
recentes
Escri
froito
marchou
sanguín
lá
vocal
Limita
##far
Han
diario
##wal
##xias
uni
Bergan
alimen
##licación
disputou
temporal
destacar
glic
prece
bronce
consel
absoluta
##tha
Castel
##esi
soamente
Gri
atrás
mecan
físico
procedente
localización
representar
##AC
##olas
morf
##úr
##renta
1926
filóso
sep
precipi
utilizada
Baixo
Sobre
traxec
gañando
óp
Atópase
nuclear
##sar
79
##usos
tele
atopan
turismo
Cés
xorna
longas
moderno
##bó
##gamento
##hou
deporte
colaborou
fabricación
##ast
extrema
informa
92
Bob
impuls
imperial
metropolitan
##llas
dep
oita
límites
traballadores
ox
##ómicas
aceite
consis
incluído
Wes
Corn
culto
##mero
agrupa
1910
Franco
terminal
Mans
húmi
neur
Casou
Lingua
concre
##clopedia
##ficamente
##dera
Ces
altos
vec
##bidas
eu
Betan
estudantes
##tente
filo
rebotes
##capa
Pros
taxa
##cta
##tebrados
retirada
Bergantiños
separación
##landesa
Lago
puxo
##teiras
videoxo
complexos
parroquias
##leto
1921
##tun
Auto
rúas
with
táboa
Jan
Litera
urbano
comida
rival
suxer
presti
medalla
recoñecido
##ixe
Gas
##19
##vie
α
fins
nela
tería
discipl
##kins
Human
cromosoma
##óp
acha
Antón
segui
supuxo
relacionadas
alfabe
denomínase
sinais
sementes
##glas
Mou
comezar
tendencia
##zais
inferio
transcrición
##íña
acer
uniu
afric
88
Chi
editorial
inferiores
recin
##undaria
convér
famosa
ocasión
##lé
anel
documentos
publicacións
Moscova
sala
terror
##áticas
doutor
eléctrica
##SS
89
aparel
Hea
intes
institución
Paz
##dalas
Henry
femia
aparecer
1927
galegas
Natural
##teros
realizada
exip
sexo
Eus
emer
Papa
Serbia
##ji
Nú
800
cír
marido
solar
##umacher
realmente
liberación
Diario
##oni
Stra
King
Schumacher
adaptación
Cari
##áfrica
sup
César
Conserva
alimentación
Music
senti
espazos
tráfico
Suráfrica
Columb
esp
arqu
##tade
ensino
History
##tea
##úxose
pene
paras
##hal
##ápol
hipótese
##sor
##tena
Agu
Mul
quere
Whi
mesmas
transmisión
##tádo
##ísmo
line
feita
Ángel
meridi
unicamente
facía
acabar
Comunidade
Johns
##ínn
##qués
Díaz
##terios
portas
##lid
Br
enviou
historias
Mais
Society
festival
##estru
mala
escritora
##hn
CF
saír
Medio
Pierre
evento
atopaba
##dicas
inmediatamente
CE
ber
fondos
excepción
procedentes
##hibición
##ficiencia
Participou
##gara
##garo
hospital
##craína
Martiño
##mic
lé
varía
descenso
prolon
##encial
ficción
##bana
##ñez
78
debía
lugués
##ixón
Conta
poida
lateral
seguido
historiador
##chen
Eng
##óckey
Tres
Colombia
revistas
##tta
##óxico
eclesi
Ánxeles
##rey
##rida
gan
id
##reiras
Andal
gris
##tición
seren
##dd
##mpa
faise
taxon
fosfato
metá
domés
clásico
dispers
individuo
Mary
1912
Nico
Celta
fórmula
Hy
radiación
terrestre
Administra
Rub
##ídese
Park
usan
##ani
##familia
xaponés
Federico
dependendo
149
Rafael
##ises
##cara
Rey
##fol
##uega
cus
Scho
pazo
##cle
alu
espal
##éns
##xidas
espí
suma
Edward
orquestra
solo
civili
Inici
Pic
eng
aeroli
documento
##téndese
##dula
Betanzos
alcanzar
cidadáns
empregar
##line
inmi
revol
novelas
pacientes
##MS
250
organizacións
Í
##tión
lume
actos
bauti
liderado
continental
##mpouco
Harry
parede
##turi
bosque
postos
##istentes
consegue
EP
xerar
##ificou
##terais
Sebas
músico
guerras
##mores
diagn
levaron
boca
volve
quedar
fres
neer
##lis
##losa
Ós
##enzas
emba
Moitas
xestión
Comunista
##goña
Bus
Miño
torno
##ueb
##gais
interme
redución
##ju
Mich
##óticos
regreso
Cambridge
procura
oto
Tour
tren
##lamenta
relixioso
##bs
Gales
horiz
##eth
coo
Green
Naceu
global
estadouniden
fi
##ridos
Florida
Sor
1900
vento
nación
pira
Napole
Xen
Chá
reducir
teorías
utilizan
##sion
Pab
exilio
Provinci
europeas
infección
escoi
sexto
exitos
popularidade
recomen
##donia
alte
##mentas
Xunto
infancia
chegan
raíces
Stre
Alta
estreito
realizado
Biblioteca
Der
axente
libres
intereses
cruz
##tención
lis
pis
debaixo
har
cadro
obriga
serviu
especiais
<
##xénese
aplicacións
##fia
tera
fotos
garan
sínto
Noruega
frecuente
fale
manus
Granada
Carballo
posesión
##rupción
Distri
retirar
independentes
##ilton
##andante
aparente
##árma
Cine
podemos
caeu
macho
amplia
##illo
diñeiro
quizais
termina
utilízase
##ür
deixa
rexional
suficiente
alco
sido
College
##ata
gla
##ceiros
Grand
Mariña
Cle
décimo
Senna
Viena
ús
estabe
pronto
provincial
93
abandonar
compañeiros
Constantinopla
##og
##ken
Vie
##els
Carta
##ualmente
Turquía
corresponde
##cilio
Banco
deron
##gma
nace
raios
##alizado
cerebro
destina
##clu
pares
prome
propa
solitario
dimensións
83
Vin
status
instrumento
##vez
##idad
##trina
axei
roda
Jones
posta
posibles
guitarrista
Dous
McLa
cultiv
##cidentais
Aro
continuar
##mana
reser
estatu
intens
considérase
##ñn
##dés
1916
##RA
##tania
canles
07
Tribunal
combinación
##lish
embri
tocar
ourensán
Boston
configu
codifica
descrita
##tum
09
Cola
xusto
enlace
##tom
##ugos
consa
cromosomas
Of
Racing
crista
software
##bacteri
##pla
##ariotas
establece
##deres
hóckey
representante
##fin
##cación
semellantes
Castelo
##ure
representantes
cali
éxitos
##sal
aux
orixina
representan
Munici
vantaxe
superviv
ja
durou
continúa
##deal
##grama
Corpo
perspec
Jac
Clau
##gantes
pouca
rique
servir
##ábeis
pale
##ástico
municipios
Hi
##tinado
tribos
##ótica
fabri
fortaleza
descrición
Yo
cun
aumen
posiblemente
CA
ic
lúa
Andre
secundaria
##guai
Bai
Sob
drama
##lie
cil
rural
cuestión
recinto
cata
fama
require
universal
ofrece
combina
fósiles
coalición
Montes
Ricardo
incluía
definitivamente
indo
Oscar
ov
##ceno
Mark
edicións
modernos
asasinato
envol
pobre
Blanco
##danza
Gregor
consideran
##pei
area
mellorar
##ota
esté
migra
##ladolid
idioma
transforma
gen
conclu
*
##kal
##tolo
marxe
usada
forn
topón
lixeiramente
##cesión
Conde
detido
históricos
##cionada
concelleiro
Hom
civís
clave
Cultural
ingleses
mantemento
##vose
pic
fluxo
##crática
causar
concurso
estadounidenses
##itores
impul
escura
árabes
Enrique
Valladolid
transición
ferrocarril
May
Win
##metra
trinta
Investi
##érico
##ométri
azucre
gañador
lingüística
investigadores
Fol
ras
##óxido
oxida
##25
##incesa
norma
diocese
palacio
##feo
mozo
Draft
Ferro
Pablo
gravación
##trin
lograr
infantil
##ois
levaba
anticorpos
##ciase
aflu
poñer
dalgúns
Ze
##lano
redes
##racción
McLaren
acces
introdución
1913
##condri
##grantes
AP
##cepción
arriba
##pany
Unidas
htm
Guinea
disposi
Dinamarca
Dentro
mitoloxía
##tita
Lam
##estra
viño
castro
Palacio
asociado
prefer
producida
plataforma
##TS
Cra
##xeron
maríti
cargos
Gor
sar
agar
##ionista
Xerais
ondas
ortodo
páxinas
columnas
vexetación
relacionado
##colas
##ilidades
sueco
líquido
dividida
individual
Bay
Som
existentes
diplom
##rie
Ec
Bell
xuntos
específico
variedades
historiadores
##romp
ocupar
comunmente
Island
orixes
conservado
Rugby
Times
ultra
terreos
Terceira
perigos
Napoleón
##tificación
##ola
164
Alto
dificultades
exclusivamente
públicas
artificial
obxectivos
una
invi
tódalas
She
núcleos
Salam
adica
pronuncia
##plo
Toledo
##ñá
garda
intra
##itarios
confor
mitocondri
once
consi
doenza
##hel
##wis
##zade
considerados
dro
Adri
describe
distritos
matemáticas
##dó
##more
##tiza
calen
publi
patrón
orixinais
##umin
dedicou
violencia
##doba
mudou
decide
celulares
rib
vita
arras
ditadura
Aeroporto
suf
inci
axiña
legal
morto
semif
subdi
bens
ficha
norde
mandato
utilizou
##úp
actuar
esencia
promoción
##ori
mortos
líderes
##irá
Max
dito
##tionary
disputa
##vendo
fárma
ameaza
sacerdote
presentado
##idal
##grafías
inscri
habitualmente
Art
vella
extremos
enxeñeiro
##ceas
emo
fór
teó
baía
pape
excel
Provincia
1911
retra
emprego
determinado
##ust
Hou
aci
clor
aumentar
literario
ATP
Aba
##die
contar
substitución
Bac
petróleo
asentamento
08
vac
##corre
invol
confun
asasinado
desemboca
##orca
##gán
lados
correntes
##lip
GP
Bib
voces
aumenta
faleceu
resulta
##ics
Condado
Estudos
opinión
cinemato
destrución
##ovas
moral
tribu
Cr
##able
##arch
piano
viaxes
monarca
domina
seguen
vivos
EU
Ovi
##pidos
pase
beta
despe
falan
estuda
rebelión
##ance
Vene
saber
cuña
prodúcese
permanente
Clar
doutora
##oven
Superior
##éb
Pó
##deos
##ugosla
infla
cristianismo
##isma
170
ope
##redo
1905
hetero
deseñado
puideron
Scott
miles
debería
substancia
##fu
##ily
cál
rein
Batalla
cristiá
##eto
crítico
músicos
Wo
Glo
Lab
riba
agre
desenvolvido
restauración
##miño
##para
ces
situados
Editorial
escenario
operación
##kar
xuris
limita
nomeou
mac
Ministro
don
##tívose
permitir
##ló
##lom
##éta
##temu
Arqui
Evan
Atlan
astr
##tona
étn
choi
nobreza
##monía
adecu
Roberto
##ísica
cadra
##drome
Bilba
honor
pereg
##RE
##ders
##tors
##varon
cole
reve
##picais
sopor
recoñec
estacións
##enda
Andr
White
prision
síntomas
03
1906
Óscar
ocasion
##federación
##gol
más
##anca
##tosa
Ado
Pueb
United
vicepres
Association
Ki
pelo
Javier
concor
volcán
austría
descendentes
biblio
socialista
Ela
bombar
posíbel
claramente
profesionais
05
anfi
económicas
Sus
resca
Córdoba
##bón
Lee
##dific
Cin
hiper
contou
autonomía
conseguiron
Sá
compu
guerril
liberal
récor
sorte
##ius
fel
xudi
bacteria
difusión
quedando
periódico
za
##lova
Num
##ski
Cy
momentos
constitúen
130
casti
##NT
bru
mecanismos
##perou
abrevia
funcional
Jun
Ucraína
##su
retro
publicar
mutacións
Mora
solu
enxeñ
recuperación
##gus
1909
Vers
indíxenas
Deputación
##edi
actúa
dividido
##cano
Español
##tinas
arran
públicos
traballando
Pes
Sys
efica
##tificado
Hospital
antigüidade
##doro
Joa
Hall
reto
capas
lagos
contor
##ania
##dium
Sea
cicl
Educación
##iría
salien
##ñora
probabelmente
##ulf
técnico
##ueva
159
causas
foguete
feminino
Moder
apertura
actuacións
##mante
filos
longos
artístico
Igu
##undante
dirixir
pig
##toriais
##ramento
equivalente
experimentos
cár
rusa
Igles
outono
reserva
escritores
##tanos
Tele
pregun
laterais
pertencentes
##usal
Pedra
espectá
irlandés
parlamenta
##orden
dieta
desap
##ditos
humor
trazos
Federal
república
##mond
asumi
fases
##ucía
Tou
Web
nobres
circular
explicar
pertencen
comparación
##zu
##icer
##nder
explos
conseguindo
##yl
reflec
hóspede
alimenta
##LA
botán
##eamente
persegu
herdeiro
celebración
##tanto
caixa
Hamilton
Andalucía
BNG
vilas
estreou
##ndo
Ron
buscar
94
té
Life
##dw
06
intervención
##MP
##vy
Mauri
colle
episodios
fortemente
programación
##teis
Sho
membran
Love
Praza
Venez
estiveron
700
átomos
próximos
monarquía
Brown
School
músculo
Facultade
##ça
##rera
##ensis
reformas
musulmáns
clín
orbi
alfabeto
incluída
152
ría
marco
##tsu
##dador
London
testemu
voos
gravado
residuos
##ordin
serv
temper
columna
##ild
nosa
tole
Maior
chinés
determinada
##quet
Coñ
##diente
##ósitos
propósito
##iti
##reza
soci
externa
ordenou
relevan
##nis
leu
##lines
dixes
poderes
esencial
Iso
##éxase
Alba
Carmen
protexer
aco
cron
cousa
experimento
##gari
##ánico
basea
elevado
Alberto
universidades
eva
abriu
##ionatos
chámase
ferrovi
escava
Príncipe
empregados
sina
Tanto
Compañ
mexic
deuses
federal
fillas
##ferencias
##rindo
Páxina
latina
##sin
catá
##trais
Pale
conme
##inidade
estima
extinción
‘
flor
Departamento
quedan
##gráficos
##icar
Spa
Spi
serra
equipa
Sistema
cí
##oloxías
converte
Bab
dada
Emilio
Alfonso
##ite
##ecos
155
niño
##usalén
Merce
Distrito
demostrou
apel
Milán
masas
exerceu
variantes
calendario
compoñente
##nar
##alia
Sto
Tin
Orti
##ficado
papeis
Dub
Desta
económicos
##ciano
suxire
diversidade
##orde
Ear
Perú
cartas
bioloxía
tío
Xurxo
Europeo
sucesión
Ford
crías
obtén
culturas
vehículos
##bina
Blu
inv
estan
privi
entanto
osíxeno
sitúase
identificar
oce
Contin
##imia
matriz
patrocin
##lice
cone
##villón
Rexión
marcou
asociada
Ly
histor
Carolina
Xerusalén
##minas
##lle
##ctur
##ónima
suble
mariños
mellora
episodio
sectores
165
ocul
Otero
##iversario
parcialmente
##omor
##temp
153
tese
agres
calcio
quinta
Sara
xaponesa
conflitos
##GA
##óna
##rina
Rio
Phil
Coroa
regras
vendas
mostras
pinturas
retor
Basket
patrimonio
relixiosos
acontecementos
Reis
elixida
##urs
##reno
Pie
seo
Public
##ER
##IS
relixiosas
##alizada
combustible
166
Lemos
escritura
equilibrio
##bury
##rimi
Spor
Jesús
carbo
grosa
aberta
humanas
esforzos
celebrada
##ciou
localizado
Fel
dos
reper
substituír
graves
fragmentos
##nado
plena
Prost
vincula
protagonizado
fes
1915
##tribúe
Estadio
entrega
campañas
próximas
147
##dadores
##oks
Produ
fundadores
04
vio
paredes
instituto
##llo
##itch
horizon
recolle
convértese
##TV
02
##menia
1907
etapas
reunión
Medicina
Ty
125
satis
dentes
normas
Revista
##table
documental
tip
Figu
Venecia
##alo
vali
Arousa
asuntos
nomeada
satélites
Mé
##inete
fila
ingresou
evidencias
hé
Trin
pion
##queira
Corea
superar
crecente
##ak
##ceo
Chantada
polé
totalidade
participaron
1908
conxun
proporción
utilizados
laboratorio
Torres
hábitat
negocia
participantes
##xac
PI
##riel
xurí
##ficiente
aliados
debutou
encontrar
##ovo
farma
Colexio
defender
observar
##tár
##ique
##ixas
limp
##europe
Perten
carbal
modern
comandante
influencias
##ors
Kh
bro
##quismo
##tentri
Phili
Sw
Cámara
enlaces
abandona
##mbar
asin
glán
probable
monumento
desaparición
Coo
##copio
Libro
vapor
transformación
##teto
Mús
mañá
axentes
territorial
ovo
alianza
campesi
Nápol
vídeo
##miterio
Santos
continua
circulación
##utas
Cated
Supre
Murcia
adoles
quería
ib
Llo
pasan
Existe
Nápoles
quedaron
variante
traxectoria
tripulación
Fam
##xións
rama
Lotus
restri
##mócra
editor
Rai
Joan
acele
brancos
glicosa
discurso
condenado
th
Lal
ala
Valen
prazo
apareceron
competicións
sedi
Senado
españolas
##ser
Oh
enfo
consol
curtas
descrito
167
curs
volumes
##zaba
##zase
##tróxeno
nervioso
Patrimonio
variacións
##eix
##kers
sorpren
Municipal
dependente
##dt
Ele
deb
raza
revel
##trico
Foron
Compañía
position
1904
##unidades
occidentais
Profes
formaron
situadas
##rendo
Marro
sabor
Canarias
Mercedes
presentación
carón
econom
nativos
aniversario
##hara
Corte
ideal
millón
relatos
Ví
Jim
necesita
alternativa
##cita
Science
privada
mecánica
tampouco
após
devol
espiri
riqueza
relacionada
##eda
Inte
esas
##gli
Ency
Andrés
alcanzou
cristal
controlar
verdadeira
casar
anunci
centos
simples
plumas
falantes
Venezuela
##RC
##parou
Pazo
metropolitana
##íbeis
Filosofía
##cere
glu
discu
Renault
##fs
Sir
invers
frecuentes
##aime
##alas
morrer
1903
eliminar
destinado
localidades
UEFA
trar
acerca
deportivo
##ffs
sof
erro
sesión
competir
##sex
him
estí
noctur
cerimonia
facilmente
##uda
Clas
relato
Grandes
brillante
157
174
mapa
Todas
montes
tran
amizade
creando
##wor
##veda
Ami
pará
diver
espon
froitos
oxíxeno
escravos
derradeiro
61
fogar
fosen
inicios
##envol
químicos
biblioteca
realizaron
regulación
hún
Escu
redac
xurdiu
Gallega
sucedeu
##cht
esix
Terri
estatal
prácticas
##porou
110
tribo
incapa
incluír
involuc
asociados
##lav
Land
rega
muros
explotación
##hl
1000
##enciado
ensaios
clasificar
transfer
proporciona
oportunidade
establecemento
##iliar
actores
intensa
introduciu
Conferencia
##tens
Texas
nucleó
pedras
Sé
##teor
##trica
Adol
Audi
Port
Redon
##minario
debate
vermel
controla
resolución
##dista
Xeor
Company
Católica
oral
##ration
Gusta
franco
##bidos
Tivo
##ónicos
intentou
disposición
Cádiz
pasos
demanda
doenzas
químico
##ceta
irre
noso
##darios
descan
micros
tonela
Johnson
##rell
156
teña
Servi
usados
provoca
expul
punta
meridional
##yan
orna
Jacques
Airlines
Norm
post
##quistas
deseñada
Organización
##ions
Jackson
##hip
##tián
Dia
##rence
Oviedo
##licou
dixital
compañías
pneumáticos
alfa
Salamanca
##diza
##ming
##ttle
tiro
arteri
asturi
secundario
Capi
March
Rosal
Alexander
específicos
pató
pediu
excepto
aparencia
referencias
158
Ray
derru
##ometría
formal
praias
afirmou
aro
##iente
mínimo
derivado
Sala
Rivera
Ano
##monas
##enciou
Mario
saque
tramo
espírito
##eso
##cinas
inac
descuberto
##king
dedicado
PMID
ocup
Rodri
prefec
##ñal
Dun
High
separa
supera
practic
guión
placa
desexo
alcaldía
princesa
encontran
familiares
infeccións
##tat
##ivin
154
Hei
már
dise
##talidade
describiu
##cks
##tim
##varo
Cap
xuízo
##chester
fichou
dalgunhas
distinguir
##dín
##ube
Zo
Defen
mozos
radica
escenas
complica
disputar
obrigado
tron
magni
franquía
primaria
topónimo
Nin
Tru
##graph
arxen
filosó
volunta
dedicada
parroquial
##gia
##mundo
##tonia
Holly
tensión
##istó
Ran
muro
notable
##árez
Cup
fér
gai
##fonía
gros
##tuario
cociña
placas
parlamento
porcen
Constru
elevada
Columbia
minerais
recoñecida
##NU
cum
Steph
récord
##ist
Oe
homo
útil
editou
##istán
cuxos
cuesti
vivían
aceptou
Sul
cis
ARNm
específica
iniciativa
##mens
pluma
ritmo
universo
animación
##miro
##gular
Aran
Todo
máquina
##AP
##hr
##heim
##opol
##ction
##istencias
permanece
EE
Uru
##óxicos
Pueblo
urbana
profesora
automóbiles
##adn
Monta
Vitoria
abundan
previamente
##pea
##cana
empresario
##tose
variable
Rosa
refle
mergul
Domingo
evidencia
interacción
Boe
##onald
1898
1902
Jaco
perio
extraordin
##túan
frac
sons
Franç
lenta
anuncia
sociedades
Michel
Recibiu
requiri
autónoma
conforma
reparación
consideraba
##hila
empeza
Xeorxia
##tistas
desapare
localizada
Ann
##sores
##ñeira
usou
##gueiro
Lewis
olímp
presas
entrevista
estranxeiros
reivin
adoptou
considerou
##erar
163
despre
toneladas
##áceas
##toloxía
Burgos
marcas
agrícola
1890
canadn
mariña
senten
críticos
relo
Filip
depre
fracaso
paisaxe
encóntrase
##loven
convi
Letras
exerci
cumprir
filoxen
substan
percorrido
axudou
##plan
Pena
prohi
remate
recompi
falecido
sinxelos
##teralmente
celebrado
Eurovisión
dispoñible
140
##rable
dezase
proclamou
##tures
asum
vítimas
conxuntos
Provincial
perspectiva
idén
brancas
Marrocos
vocalista
conferencia
##tton
107
bri
boas
escrib
símbor
parentes
elaboración
Feli
acla
Habana
sonora
galardo
gobernos
repo
carac
aeroliña
negocios
composicións
##tish
comenta
enviado
describir
soberanía
pagar
cén
sae
Marie
debeu
rea
##pha
ses
sindica
conexión
Base
##misfer
##sk
Dam
##board
##ratos
Móna
Garda
inser
feitas
Big
Dur
Brab
André
##úm
Dor
Mah
ile
##ciron
##firen
colexio
centrais
crá
fisi
remata
Frances
derivados
##quen
Bene
concl
argumento
fotografía
fronteiras
publicados
##xela
Espe
Ander
Mónaco
dúbida
xuvenil
estratexia
Geo
simul
Zamora
xogando
##plica
1901
rendemento
Gio
Karl
cultivos
Fab
##tipos
alén
Océano
##thy
Frei
##lético
Constantino
utilización
construcións
Lorenzo
Ay
##edad
Jorge
tromp
Antiga
feminina
145
##mados
autó
Poden
consumi
morreron
recoñecer
Rou
necesidades
Tw
168
São
Us
105
tenta
##ylor
109
Champ
##cá
##ium
Law
Mam
prezo
encargado
doutoramento
administrativa
Estatu
intelectual
##ding
copia
relev
propuxo
colonial
##óf
ollo
Armada
seccións
vexetais
disolución
71
nó
McC
naves
##VD
ph
quince
impostos
##yne
##bara
Lúa
hard
intentos
##inan
Borgoña
##ítico
seca
perde
Romanía
ecuación
igualmente
dí
Cun
Sas
##éricas
degrada
propietario
##cían
162
Isa
Grou
nitróxeno
##ès
##liga
implan
reflic
Catedral
##cian
##cozo
banco
tesou
unido
##titudes
Morreu
antibi
comezan
radical
aparello
síndrome
caracteres
individuais
##uga
FA
EUA
Nosa
adian
matar
catali
parecen
Internet
filósofo
setentri
incluídos
Lalín
arcos
ensaio
inhibi
gañaron
organizou
##gues
##thur
Jer
eixo
larvas
penetra
activación
173
reca
avance
cambia
Jen
Vel
Hans
Magn
cana
esforzo
##íno
##orio
católico
mov
naval
definir
##éndez
aspi
##táceos
artística
decidiron
escultura
realización
##uk
##ess
BBC
##mentado
tenente
##tér
Guar
rica
impar
Traballou
definitiva
##esen
##unya
ceo
##guesa
##prote
dina
##queiro
iniciais
conceptos
##laga
##diais
##piter
ósos
estabele
regresar
##trices
atrac
medir
##crático
gravou
barrios
estando
##rís
ángulo
asegurar
electrónica
dea
##critos
xermán
específicas
circunstancias
##dul
##than
plans
entender
tradicións
fundamentais
Emi
Forma
##dimento
##ficiais
polime
Hollywood
abundante
##ning
Russ
asal
##érvase
consul
##adamente
americanos
Ago
##ficio
socio
anotou
astron
interno
usuarios
UC
##dias
rutas
sétimo
arquitectón
##cuenta
Música
dispón
British
cemiterio
##tene
169
acos
recru
suici
seguidores
verdadeiro
##cala
asign
desti
enerx
ratos
ingresos
observacións
Sel
Sib
##vando
Norteamérica
##feras
bale
deta
Metro
##cén
batal
Albert
portugueses
##ved
##coro
bolsa
causou
rectan
poboado
Desenvol
alon
repu
##dicións
##quistán
##ices
mix
##baron
##andina
automo
##tíns
##lidas
mira
##acá
##etts
Arn
are
fabric
##uegu
Deu
electoral
membranas
intercambio
##iri
##uber
marx
arredores
brasileiro
probabilidade
Ecu
viaxou
comisión
presiden
declarado
designado
conversión
##char
##view
##xion
ocorreu
xustiza
estrutural
Vei
alo
celebra
sexuais
##eum
achega
parellas
modificacións
Arz
capaces
subfamilia
orientación
Av
##made
Valde
Boeing
Felipe
cómpre
Angeles
experimental
##MA
##dian
escuro
fígado
xornais
terrestres
Nie
frío
toca
nacións
revolta
Macedonia
producindo
##cionou
##itarias
etique
debuxos
##veira
1899
xudía
##celular
poidan
condados
execución
inaugurado
##drich
lectura
soporte
interaccións
Cri
asumiu
círculo
concentracións
aval
clar
golfo
convento
UNE
##ristas
reciben
vontade
##DA
Vis
vence
pontes
##ecemento
cuartos
herdanza
##oloxicamente
##urt
Come
Croa
Faro
bura
vendeu
dominante
##cles
euro
Pardo
Stone
Málaga
loitar
recomb
incluíu
One
cria
Teñen
desco
Contra
empren
mostrou
##enio
##mers
146
Hit
fec
Conn
hemo
difun
dorsal
negros
Comarca
seguida
Christian
eucariotas
bé
ABC
##garia
Mall
sacri
empregada
estilos
informe
declaración
estranxeiro
celebrar
traspasado
##DE
algas
encab
##ological
salienta
atop
Camiño
mestra
Valenci
limitada
Literatura
especificamente
Ep
##ganda
apare
Alfredo
inimigos
ferramentas
##yd
UR
##foro
asen
prexu
Televisión
transferencia
identificación
##iev
Ath
Tui
1895
apun
tarefas
divisións
##ases
carn
gando
roupa
##omencla
privado
##tible
##ílica
Pamp
Ross
vesí
regra
sel
State
Estaba
actuou
Iugosla
comedia
existía
xeográfica
subespecies
Confederación
extremadamente
##glic
edu
Castil
Joaquín
##dán
##war
quer
variación
maioritaria
consecuencias
##low
Mid
##dromo
fusion
descuberta
##vita
realizadas
##ñedo
Ras
gab
muralla
capítulo
democracia
vicepresidente
##iner
1880
##formas
contorna
resolver
##core
##ombi
##quita
abon
aprecia
licenza
incorporou
XXI
Pens
Señor
activos
sobriño
teatral
rexeitou
substituíu
Mala
cero
tropicais
81
Ps
Negro
medias
partida
separada
Kn
TVG
Fronte
castelá
pescozo
pavillón
Catalunya
Universal
competencia
##rancia
antrop
fau
##ébrase
PPdeG
vasco
cursos
Piñeiro
##maras
1897
Roger
casta
Histor
mariñas
Lista
indicar
negocio
##caro
##ilan
Henri
folla
cardía
ruínas
cincuenta
##wan
Matt
baixos
antepas
finalizar
##ll
##tinal
osci
visto
altera
##landeses
alcance
aprobou
restantes
disciplina
cua
##xicas
##regular
Suárez
rexistros
semifinais
nacionalista
##ness
##ércitos
espectro
financia
comunista
destacado
##GF
US
Tai
formi
serán
estendeu
##xil
PA
##guer
##moto
Fen
bin
pép
chea
unidos
estatua
##omeo
Fan
Alas
fungos
inimigo
multitude
interpretar
115
amosa
##bilidades
actitude
adquiriu
seguiron
Dr
apos
pico
Irman
amarelo
lanzada
Francesa
existente
sp
trop
canta
helic
Teresa
encabe
litoral
Ú
Pom
aló
bizantino
executivo
infraestru
sinalización
Aé
127
ilum
elimin
estraté
católicos
metabolismo
Nas
Guer
amarela
##ön
IU
ató
imi
Ante
fuxir
Caribe
##misferio
separadas
aprobación
##rona
Prus
crese
Center
simbol
##rad
##alba
##ciles
Hern
html
##ilación
portos
Estrada
estabili
hisp
##viación
fle
Anna
esla
puntu
soviético
##tain
Dio
reco
##taneamente
Dictionary
IL
herba
esperanza
fenómenos
Lara
Señora
subleva
masculino
observación
republicano
##vania
jazz
cortes
Gregorio
abrangue
Sk
adh
##dades
##levis
contos
americana
deportivos
comunicacións
dona
Varela
gravar
noruegu
dialecto
##ugas
1870
Anth
usos
Biblia
alumnos
médicos
promover
asentamentos
voto
##ciente
playo
compra
1885
Satur
indis
valenci
comprome
##kha
##fran
hec
Incl
##inguén
exces
testem
organizado
##polis
##terno
Xoga
caer
Grazas
espada
metais
simpli
triunfo
Inicialmente
##gg
Move
Wood
ecos
here
beleza
irregular
separados
Ár
Pho
restrin
intensidade
preparación
##ος
Day
pui
orto
pena
boxes
baseados
negativa
personalidade
##berto
Pobra
consen
cruceiro
##eir
##icks
172
pór
Indon
Memor
##gacións
industrias
neerlandés
eliminación
137
nav
##forte
gases
catalá
típico
subministra
Andra
Armenia
perdendo
##EC
##unas
Marco
PSdeG
fores
galle
francos
cadrados
separado
Foot
prede
provis
coñecementos
proximidades
sho
Siria
garcía
##dicación
compite
idiomas
##ets
##dería
emis
aplicar
BM
##toma
News
acada
datas
desex
CS
Xú
##wick
colaboradores
característico
##mil
##acos
Abe
Vla
##xicos
1884
##tentes
##olítico
crenza
impresion
organizar
##madas
Iglesias
emisións
avó
tún
##ásico
destacados
pH
coe
East
belga
Industri
asociadas
porcentaxe
representacións
##gri
NH
Ok
Nel
##taxes
illo
rodea
análises
divídese
SA
##meros
úsase
embara
persoais
recibiron
Mondo
Mellor
serven
baseádo
puidese
francesas
substrato
##ovis
Ciu
1896
verdes
##lah
##cela
Tec
tec
aceiro
tartar
situacións
01
Spe
vaca
##metraxe
relevo
Augusto
Selección
##jas
##work
ler
anda
ribos
terzo
Orixin
single
pseudón
deputados
Ji
##óxeno
1889
Alan
##iación
Ambos
exércitos
Ira
Pales
Estevo
Johann
únicos
iniciar
homónima
cran
mide
merca
chaira
finalizou
##ép
##qua
##mbre
##vina
dic
##andés
clásicos
incon
meteor
concreto
Comer
tarefa
alcohol
monumentos
civilización
Frie
##inados
##ólvese
santo
aumentou
xudicial
##udo
##dúcn
arres
Sociedad
logrando
vitamina
##olle
top
Mike
incu
xuíz
Entón
mariño
polaco
acceder
anglosa
vá
##lina
##vento
mara
Alcal
escasa
crearon
instalou
##xel
##ally
##copa
103
Boi
##terol
##rático
Autón
frase
queima
ideoloxía
##eita
##icio
Kir
neto
$
Windo
sofre
Física
discíp
vehículo
Billboard
devandito
inscrición
industriais
posibilidades
##achus
##raría
polin
traxe
torres
completar
desapareceu
##imas
Mia
xardíns
modernas
supervivencia
##ínte
conca
poñen
Wilson
fosfor
levando
esténdese
concretamente
##zán
##días
108
Lit
tubo
Paris
modal
portada
noticias
petición
Iugoslavia
##pico
##tine
106
DVD
1888
moza
afecta
conten
vertebrados
##IA
##idel
estradas
estabilidade
reconstrución
##gá
comité
nordés
Estatuto
arxentino
deportiva
represión
##amos
Ill
Pobo
Prin
Micro
carro
envel
varían
Andrade
privile
suxiren
tratados
Colaborou
Pel
##íntes
alia
Vello
Alianza
xornada
mantívose
proximidade
##coa
Jr
##tnam
ións
rexionais
indoeurope
##oras
Adi
Kings
Núñez
electri
ocupada
traslada
magnitude
##icha
##vial
Ofici
escocés
depresión
controvers
##zy
bil
Game
Baixa
persa
pensar
Álvaro
humanidade
117
138
##tábel
ases
efectu
baixista
replicación
predominante
estreitamente
##iga
##urus
Lob
epí
##tedra
celta
128
135
moda
levado
Militar
extensa
ambientes
xurisdición
hí
cens
Veiga
inhib
estimula
aprendiza
91
118
Alej
Hugo
meti
Arzúa
cuxas
##ándolle
cárcere
sinteti
paralelo
##áu
##filos
modi
##tander
aliña
catalo
homose
Indonesia
contraste
##lona
aden
molus
fibras
ventos
##tilidade
neuronas
orixinaria
responsables
ión
fermos
General
tomando
deportes
nomeamento
fri
##toras
mención
obtendo
confirmou
organizada
realizados
DC
148
South
conxu
##mbra
Hun
Sei
1868
niños
Nicola
compón
embarca
hábitats
##ób
##wen
##parta
1886
##tabria
Hitler
eléctrico
Prim
pata
integración
119
citoplas
Occidente
matemática
matemático
formalmente
significativa
##ián
Ye
##gona
abol
acre
Ernes
coorden
visible
fármacos
empregando
##cí
Tr
##pido
sona
bille
estea
Campos
cuestións
afun
##óstico
resis
circun
camiños
campionatos
Comp
Johan
recta
escritas
audiencia
recuperou
residentes
##onel
Aven
flamen
Croacia
##laba
nór
Mill
daba
Libre
cubri
ofreceu
dialectos
secundarios
##guen
Rin
##tórico
lesión
vivendas
Institute
Ortigueira
asistencias
aparentemente
##als
##iña
##kas
##habi
##magn
143
##tecas
##quisición
relativa
Massachus
anualmente
históricas
##wi
##pur
##teles
Deza
adic
Disney
beiras
desembar
Cantabria
aventuras
##úan
##enne
##live
129
##poñer
##xindo
##leiras
Taylor
##gaz
##cáns
##gono
Mún
##lastos
trece
vivía
atacar
italianos
destacando
Shi
oferta
inaugurou
Hay
lac
prehis
##osamente
profunda
Esa
Pis
oxi
##virus
Amer
Dúas
Rese
Medal
salto
Jordan
Prusia
exercer
##rro
##oira
Via
doi
axus
redon
tetra
famosos
tomaron
montaños
derrotado
microorgan
##verde
1892
cardeal
Aga
Pascu
poetas
Windows
mantendo
partidarios
##adora
Rico
Acade
holan
crónica
deserto
celébrase
migración
considerable
##boada
cáps
Kenne
erros
rusos
Xustiza
mocidade
producidos
##OS
##ersey
into
firme
France
aragon
centen
baleiro
practica
##med
AS
Ato
Enci
parada
publicaron
##kan
rí
##eche
##metría
hectá
Douglas
Xeneral
##ales
Julio
xenerali
esenciais
interpretou
consideradas
##ère
Op
##http
##quio
##vido
114
Jos
Award
clado
sufrir
murallas
significativo
##ES
Fir
Sax
Tel
##guese
1891
Mira
inxec
conservan
dicionario
contemporánea
##dulas
Mara
Group
Robin
himno
Formou
taba
##óxicas
Auton
Múnic
Norman
típica
secreta
Mondoñedo
permanecer
It
unen
motiv
primo
anuais
visigo
codific
dispoñibles
veu
Duque
Xúpiter
alcanza
existir
uniforme
enfrontar
Quí
opción
aprendizaxe
##ht
##iroga
brazo
Walter
negras
complexa
Filipinas
agrícolas
criterios
beneficios
##ments
cereb
xunta
guionista
interromp
continuaron
ino
##randa
Fonte
actúan
Santander
Massachusetts
##hon
Coun
cuan
##igi
##sche
##érvn
gor
Young
rocha
sonda
adulto
vulgar
corenta
permitía
igualdade
##hard
Exe
notas
##ferente
épocas
depósitos
literalmente
Iz
crus
postu
Philip
perderon
dianteiro
acompañado
Oce
##recían
presa
##ásticos
Marcos
chinesa
Nan
##inger
Jeff
comis
descom
romanas
Pamplona
##asa
##sta
pseudo
Uruguai
Nadal
amiga
tumba
empregan
recupera
##vé
##ull
112
Mis
éus
##xelas
Eume
##tórica
deusa
unida
choiva
separar
instalación
1893
Anos
pica
Crese
poboada
deixaron
##rés
Fé
##rest
sinala
concedeu
Democrática
##tson
Orte
##cantes
decreto
Atlético
Monforte
denominar
Republicana
adestramento
##codi
##dación
temos
Gonzar
orientais
##rama
Boy
perci
##timento
Bulgaria
singular
caracterízase
##áp
Fixo
divul
##volution
Vietnam
ninguén
titulada
##ray
óso
##ariño
##mania
obrigou
subcamp
cualificación
##pó
##loga
900
cabec
aquelas
Publicou
##tás
##uke
Ari
Bun
##erador
incur
Ribadeo
porción
Circuíto
##pta
espo
Golfo
emble
retab
proven
parcial
correspondentes
##SCO
113
God
renome
Brabham
Rosalía
normais
detectar
preparar
##parte
Long
popul
Economía
PD
##bera
Belas
embar
Arthur
Harris
lendas
acusado
escapar
contribuíu
##worth
dividir
reducida
Friedrich
automobil
decisións
104
Ans
Gir
abel
##tización
sinxela
evidente
gravidade
profesión
necesarios
inspiración
naturalista
enfrontamento
norteamericano
##kon
autén
irmás
televis
doutrina
impro
acetil
apelido
Dol
buque
Jersey
limitado
degradación
rectangular
##bach
##onato
Consul
misións
xeracións
clasificados
##baix
Margari
cámaras
##gom
##mbas
lou
mio
depos
Villar
critica
engadir
manchas
Amp
fácil
quente
Administración
##ells
##rent
##viño
Tradi
##rección
vender
templos
Ré
ple
Agri
clan
Darwin
Quiroga
escribe
contidos
##encialmente
Basketball
##bour
##ilis
##guista
hebre
##ticismo
Independencia
configuración
cif
Eric
Home
Davis
Repres
complex
##íño
124
Dre
##pecie
Amor
Igna
Curtis
Pódese
Goberna
suxeito
costumes
Florencia
##tés
134
Hein
Lord
terá
##ómeros
Antár
Peters
nacionalismo
Var
##right
1881
apoiar
Defensa
orixinar
provocar
videoxogo
fru
##caria
##ómicos
comar
sepul
Pontes
coidado
viú
Diri
teore
Varios
Victoria
músculos
comparten
aso
##tomía
Case
curtos
define
formaba
Dicionario
123
Decreto
hemisferio
descendencia
##veñen
Abra
pade
aneis
bando
laran
británicas
##ecti
##ívor
Rexi
exam
vale
Brian
distinción
polimerase
consistente
representada
##mad
maris
xardín
formados
sindical
##ör
cán
1860
Cook
Steven
informou
inmigrantes
##dae
pí
126
débe
penal
François
capítulos
espiritual
explicación
Epi
Kra
esqu
##entado
Nelson
aldeas
Nalgúns
setentrional
Fi
##onto
##tella
café
melo
##relato
Gañou
coles
glico
vasos
Antigo
inmuno
prestixio
profundas
##ils
proc
vital
lóxica
##out
##vard
feno
creador
realizan
propostas
asociacións
##tema
Mir
##bados
Víctor
Edicións
compromiso
Tab
rico
mover
alcume
denomínn
terminar
Normalmente
suficientemente
##lix
##row
##haus
102
fia
##árono
afor
atlán
divor
lagoa
aristo
tratou
aceptar
testemuña
##cabul
##hidro
game
flora
ramas
pobres
veciña
Species
xeometría
finalidade
permitindo
##ort
##teza
Din
und
algu
Hawai
Honra
Bernard
deseños
demostrar
##sis
##cade
##dena
Crim
enviar
filial
costume
mensaxe
mineral
empregou
máquinas
vertical
gravacións
##uch
acen
exclu
cartos
fixéon
reunir
cristián
enfrontou
substituíndo
##ísta
doa
##irámi
Time
suave
##lovaquia
Research
distinta
encargou
playoffs
xigantes
suspensión
Gü
##rella
Após
Bona
cálculo
marcada
abundancia
franquista
##tila
##very
Has
Lev
##cista
##ianos
##xeiro
seco
Christo
##doa
##ern
ari
bon
madri
terre
Stephen
Arquitec
destacou
químicas
##ism
dur
rép
##raban
intr
##tornos
Colón
Porta
millo
í
##trie
insu
citado
temática
directora
electrónico
##arte
##wald
rap
##teses
revers
facilitar
##ct
##coc
Xeo
##erife
##illas
##torce
Wolf
cumio
Benito
brazos
gótico
planetas
glándulas
Gram
neve
##habili
##ógrafo
Alban
previs
Alejandro
adicionais
Opera
acadando
constela
volveron
complementa
##IT
μ
gri
##férica
Estivo
Tos
arroz
prohib
lesións
Xeralmente
asistencia
procedemento
ocasionalmente
##kel
nós
Afri
minas
facían
grella
Outeiro
patriarca
coordenadas
Simon
precisamente
oi
Ton
pac
1848
sodio
sólido
transcri
estudante
recoñeceu
descendente
desc
herb
##usións
##éricos
Rosberg
barreira
confundir
precisión
desenvolvida
administrativo
##em
##tex
Ada
elo
canda
revis
revisión
##gru
##xera
manip
acostu
vellos
coñecen
variables
visitantes
Dé
MS
Eri
Xes
coli
##aldade
##mócrata
intelectuais
##gó
Tá
##xevi
Palma
Vatic
sufra
teñan
tiros
iguais
liderou
Tenerife
##ippi
##mano
##árqu
##ustin
Lucas
negou
poses
vales
únese
##mentada
Volume
reducido
Principado
concelleiros
proporcionar
##quel
##ross
Bow
cam
Raíña
Steve
remon
cultiva
renuncia
altamente
universitario
Top
##venza
Baía
Kent
Ohio
debían
##harelato
##ficacións
Cristina
tropical
confianza
antibióticos
SE
##tías
Sig
Situ
comu
duro
vigor
Samuel
cadros
feridas
visitar
Abu
##bricas
##izados
##química
Borbón
altern
Atlanta
cursiva
designar
Movemento
Eti
Hes
mou
Arch
pecul
trens
Hispan
baseadas
competiu
reservas
dificultade
##gne
##maría
Tomé
URSS
Praga
cirur
consum
contan
mobili
turcos
Secretario
distancias
traballaba
##unciar
centí
##ilvania
Montre
Street
buques
levada
plumaxe
integrado
##sel
Bet
Jon
Lle
##garda
estou
Montene
vexetal
##cabulario
navegación
científicas
modificación
peor
minuto
dióxido
hectáreas
##yu
##vila
Clo
1894
play
UNESCO
achegar
noticia
conciencia
mediterrán
clasificado
##fila
##lana
##uron
RAG
Colo
Noia
inmo
pleno
Indias
Mestre
domingo
conclusión
##gondo
estr
abrir
Giovan
conter
##lem
##estar
##viera
Bang
aero
fotó
vencer
compara
participan
negociacións
xan
##dices
básica
desenv
graxos
catorce
éuscaro
irlandesa
manifestacións
##dío
##pso
sh
##oves
##riña
##sados
##grafos
Allen
Silva
folga
carbón
completou
utilizadas
##guar
##ilos
##xinia
Esto
trigo
caudal
Montenegro
moleculares
desembocadura
##lins
xiro
encóntan
longobar
colectivo
descubrir
##into
136
ían
espé
sexta
signos
Ribeira
carecen
sesenta
humidade
oficinas
raramente
##caia
1887
Carlo
cifra
metabó
comezando
oxidación
139
ate
fosfa
##idencia
falada
exercicio
##ñón
##mbor
caste
Volveu
autora
custos
mutación
coleccións
fabricante
##ath
Bale
Fish
Prix
##cisión
##tadora
xeométri
habituais
segmentos
prefectura
##móns
##toli
##exións
Mateo
Museum
emigración
videoxogos
Ah
##inio
adxac
outeiro
esquerdo
1883
Dion
alea
sulf
Miami
Pasou
Tarra
Aristó
galard
indirec
Autónoma
Diccionario
basicamente
determinados
##viña
132
Ped
medo
##guesía
##mentan
tende
xorde
Comple
dedicar
usuario
cerámica
muscular
absorción
sobrevivir
##chu
##day
##colo
Até
USA
max
Mach
amar
alban
causada
intervar
##PA
##oñ
Dy
##bando
suple
helicóp
mestres
pretendía
144
naz
##fagos
##teñen
tocou
incrementar
prisioneiros
Thom
chas
máxi
proli
bispos
xogaba
utilízn
Celanova
conferencias
##méta
Soi
Prado
diana
tingu
mandou
marcado
medievais
CH
##fase
##reat
Hip
Sum
Peña
datan
lumin
advers
xenético
potencias
superficial
Sit
miña
##torais
##íntese
xudeu
##gulares
##istemas
posuía
tentou
impedir
Bruxelas
satisfac
difíciles
redacción
nucleótidos
##bec
cans
##cionan
turco
Correo
cuberto
cabaleiro
##ticio
cepas
conselleiro
incorporación
Labo
##tarios
Porte
casado
patróns
colesterol
##nio
##vén
1876
1879
##fónica
andal
febre
unidas
escollido
gobernante
australiano
flan
nazi
Capela
básicos
incendio
orgánica
constituíu
pseudónimo
##una
Hart
gali
ofens
encarce
Football
Renacemento
#
##ere
wa
##ándar
Técn
plane
establecido
Congo
Arriba
Gabriel
editada
enteira
estende
Mallorca
lograron
convertéon
interpreta
Xén
xus
Vega
abstra
debuxo
israel
oitavo
Rexional
hormonas
realizando
trastornos
##cris
##radora
continuo
concepción
nutrientes
publicidade
##tran
##lican
Dick
aver
roub
armen
creceu
consider
definida
estudios
catedrático
Aqu
Plu
##ceron
##fismo
Play
adver
aparea
armada
cubertas
prestixi
formacións
##df
Fila
sitúa
##issippi
versos
seleccionado
Sid
peda
Simón
coral
astrón
moneta
Rodrigo
refuxia
Islandia
corporal
particulares
precipitacións
##uve
SI
Ín
##ogle
ACB
##enses
##graphy
rodas
Ducado
tornou
regulares
produtores
##eus
##lise
##gulos
atol
drogas
plural
visual
escanos
hormona
pertencía
PIB
firma
heroe
Conver
cedido
emitiu
fixera
habita
denominados
popularmente
arqueolóxicos
##lera
aná
Exemp
danza
pantalla
decoración
##oph
##itase
devo
desac
estat
propu
Kosmos
atravesa
distinto
Obs
hib
mód
##erson
alar
probar
Galaxia
declive
físicas
semella
absoluto
adicional
resultante
##BI
##cota
foise
inesta
Toronto
contiña
asemblea
declarada
exteriores
exposicións
Up
saga
##tículo
lento
Tintín
pistas
apropia
menciona
Sebastián
conservador
constituída
Xaco
##distas
nosos
devandita
horizontal
##ute
##inae
Alén
aterra
##tari
Sav
búl
Irán
Baviera
Química
trazado
visitou
manteñen
discográfica
##jec
##pher
##teno
cór
Xene
casco
peche
rotación
Palestina
enxeñaría
nucleares
Wh
1830
sacar
marrón
barroco
Británico
Hil
Lyn
Rose
salvar
ocupado
imposible
##déon
##espe
Metal
afilia
afinidade
turístico
habilidade
representado
##BS
##entou
atin
Forza
dedos
Supremo
preciso
participando
Ima
cop
ron
1871
Orle
hábi
mesa
medica
parecer
predeces
profundo
románica
espectáculo
##xese
Lie
Litu
bico
alguén
imaxin
trataba
causando
Redondela
superficies
Sep
Ríos
Posúe
culpa
supre
encoro
tabaco
manuscrito
##ió
NF
##tiga
ina
ine
1873
##sburgo
Atlas
salvo
exceso
Mansell
reorgan
escultor
xeografía
determinadas
##ariña
##lecer
Sacro
ricos
constr
Biscaia
crenzas
retorno
##zer
SS
nec
##xaros
Gian
afro
rami
Limia
Estación
Mosteiro
elixidos
cabeceira
Mississippi
##xóns
122
133
Eco
hep
nub
mostrar
antigamente
confes
orbital
Escribiu
santuario
##táb
##daba
##fero
##ranos
Hunt
cuns
##cusión
Lenin
Verde
ka
##lace
##wart
Cour
Tecn
##centos
medra
planos
seguro
solucións
##zor
##fice
Inf
Debu
Lakers
censura
rodeado
dinámica
Humanidade
subespecie
Republicano
intelixencia
##sky
CNT
##quias
1878
abas
fame
##térpre
Bizan
pacto
congreso
positivo
construídos
diferenciación
##ison
##quilo
fago
autos
bomba
soter
Sarria
polémica
interpretada
esencialmente
##deri
Bes
##xiron
cento
innov
hélice
Manchester
abundantes
##rino
Hous
eros
debux
Virxinia
##iño
##nica
Bosnia
Ignacio
ribeira
moluscos
candidatos
Marte
##mentando
extingu
dependen
Licenciado
reputación
afeccionados
##trol
amo
##tánea
incom
futura
destitu
derrotar
medallas
##ção
##book
##erzo
Def
Trar
Están
Marsh
perdas
America
ofrecer
narrativa
##partamentos
comunistas
##ouri
1865
cuán
##ónimos
Josep
estreada
liberais
xaponeses
incrementa
tipicamente
à
Lac
Wall
Isaac
perpe
Little
ducado
solares
##hin
##alth
Abel
Indo
Nela
##dilleira
computa
permiso
xigante
axudante
intentar
conexións
feminista
establecida
##sn
##omos
##rían
##xías
##íños
##pados
Agru
carl
##lantes
Vilas
recupe
##cionista
constitucional
##orras
Aeth
senador
billetes
##non
vér
Gold
fina
igno
##gresou
##ficaron
##úblicas
clasific
positiva
##ovie
nas
Servizo
estaría
Campións
##ñores
cadá
##iedade
Primo
costeiras
introducir
Hä
MA
FIA
voar
claus
fiscal
intestino
##omenclatura
derradeira
facilidade
permanecen
Simp
fría
##recendo
causan
fluído
xénica
Indiana
Vilalba
lípidos
paxaros
funcionar
compositores
##guía
Ponti
Piquet
abertas
campións
##trodu
Tony
coti
dano
dimi
etim
vidas
Mancha
asinar
Consell
Oza
Band
bica
híbri
ensamb
Liberal
oitenta
setenta
consistía
##mago
NAD
pago
##énsase
Enter
citos
signo
delimi
desexa
usadas
##lización
socialistas
##jos
Cis
Rex
pax
##tation
internas
radicais
vesículas
complexidade
##uis
##gola
Vía
##ptura
Proxec
cráter
dicindo
minoría
refuxio
designación
##pt
Iv
valo
lanzar
metano
viquin
compuxo
crocodi
teorema
galaxias
traducido
exactamente
tecnoloxías
Encyclopedia
##nés
##cíon
##mido
##nell
##range
Fort
##ficada
polar
##elmente
##mirante
exerce
Crónica
crustáceos
experiencias
microorganismos
##nan
##canos
##úlase
Agra
Vida
tsar
Linux
Sofía
Xulio
realízase
relevancia
dispositivos
historicamente
##trá
##ieis
puri
Sille
paque
##icidade
cordas
patíns
adición
intérpre
Kal
Guiti
Moore
nativa
réptiles
automóbil
galardoado
permitiron
##oir
##vey
Mei
dispa
rapaz
Moreno
episco
reloxo
alberga
impulso
agrupación
escavacións
##lyn
##ménez
pano
remó
simbó
antíxeno
ordenado
enterrado
cúp
xuí
##ulado
Luxe
taxas
atopamos
derrotou
académico
austríaco
biolóxica
activamente
constituído
subunidades
Gr
##helm
Vet
NASA
Piren
rurais
##ffe
##lau
Kon
lema
conspi
exilia
vítima
postura
contemporáneos
IA
##asta
##lymp
Aqui
evan
Reich
Holanda
entraron
existían
##head
oro
Coto
Berger
liñaxe
sospei
definido
ambientais
ampliación
fotografías
republicanos
Lí
##vali
Are
Gun
Tech
léve
##terona
predi
trián
apoiou
quinase
costeira
semanario
##ópodos
asina
European
Giovanni
contaminación
##ñada
##tigas
Fraga
Xoana
Andrew
Sancho
mental
Publica
asistiu
controversia
##uí
##dies
Cho
##anzas
##uncio
prol
reún
fibra
peito
enteiro
sesións
xestion
Alexandría
116
##laron
teles
##radoiro
Victor
Publish
sobresa
suxeriu
descobre
trasladar
##gni
##xoa
##less
##vexa
1869
ador
artil
átomo
Minnes
enriba
viaxar
redactor
##MI
Bry
Tun
Alpes
Imper
Nicol
acusa
Patrick
estancia
conquistou
electromagn
corresponden
##beth
Eugen
denuncia
signific
Ak
Ky
1840
1875
Aérea
amante
embaix
perfil
ocupando
pintores
compostel
##ffi
##élico
Gene
Arque
prosa
Series
emigra
tendas
poética
detección
incidente
incluídas
##ulan
Oro
lom
fies
tuber
Concilio
Lituania
clientes
rebeldes
Filoloxía
substituída
##tise
Joe
Mada
aber
Dublín
tronco
deshabi
paciente
controver
orgánicos
##chn
em
##town
Gou
Kas
Pío
##ífero
Enxe
Good
eixe
endé
Rivas
##zacións
Abaixo
Considé
compostas
campesiños
departamentos
##OR
Æ
##tasio
1500
1861
folk
centr
prior
Alfred
Mercia
persecución
##cant
Xun
tel
1882
Xefe
face
xeno
##ixador
##trieved
cruzar
parques
Minnesota
recibindo
colonización
350
acús
exce
fara
canal
batallas
propiamente
descubrimentos
##bot
##tecn
##urou
Cli
ans
##xolle
##entada
bater
previ
Latina
mínima
veciño
Harvard
impresión
semellanza
##tsch
Gord
Stal
leon
Houbo
variar
Stewart
dirixentes
plataformas
##odo
gus
téx
##quier
Pear
##eneuve
céleb
bóveda
loitas
prazas
Consultada
nacionalidade
Dado
Down
rosa
algor
Bieito
sombra
índice
poderoso
Deportiva
Emperador
definitivo
##NC
##ándoa
##ítimo
1867
Pilo
Catro
Premi
insul
##algunha
##sey
CC
##boas
divis
multip
cátedra
Villeneuve
provocando
##yas
##ingüe
##loria
Glas
atras
corda
macro
pobreza
primario
##cine
Eva
McG
leg
##dismo
##gonal
##rases
Team
Union
vidro
Silleda
engadiu
votación
centímetros
##omy
##vich
cura
podio
UD
##stro
Ker
##chase
##dicou
##letas
1850
Olimp
galés
mente
salas
##minente
expresar
excelente
inclinación
##iru
##lag
Seo
##eland
fica
ingre
sueca
tenden
clandes
entradas
illamento
desenvolveron
##bras
lex
sou
##estro
viña
##tivais
xogan
##letismo
promul
abellas
pechado
Hispania
fortifica
comprender
provisional
Ful
##tonas
Amaz
Volta
cober
bancos
bloques
porteiro
mencionado
ní
##omun
##vida
##métan
bios
trama
ámbor
Cooper
bailar
fantas
médica
oficina
mundiais
142
fogo
Sound
largo
arreci
melloras
sucesivas
##tie
##tilo
Pit
Aquí
Empre
Serie
fortu
fábricas
aminoácido
aproximación
##ME
IP
##thern
##vistas
baile
fomen
Baiona
Romero
queixo
observou
##díb
##ory
##coccus
tibur
viúva
Xavier
seguía
Allariz
segredo
integrada
##gat
Hat
vib
##izadas
##ínguez
Broad
ordin
sinté
ciclos
xeitos
expresa
implicados
dispositivo
Nacionalista
Kan
##ister
quixo
Bernardo
interiores
ES
fl
##ende
##itor
##remos
Bogo
gratu
xofre
dirixe
gastron
madrile
podendo
##ficientes
Vaticano
estética
pilotando
posesións
investigador
##imer
ill
fito
linf
Olymp
coman
##dientes
granito
extracción
continuidade
##DL
##agu
##nie
espor
asunto
Xaneiro
froitas
físicos
Montreal
ambiental
cabaleiros
esculturas
env
##éanos
Cole
Otto
espéci
mandíb
Páxinas
soberano
##pse
##uca
sea
Bull
Free
cari
emitir
compens
efectivo
teoloxía
Seminario
Tas
##lería
1872
Anne
Méndez
Vettel
venceu
aparato
##omba
Ral
##troit
Cala
Fundou
Alacant
rodeada
soviética
integrantes
Mü
bul
tác
##teria
Kiev
lobo
##ticais
Lauda
culmin
abandono
anfibios
constantes
necesarias
##quir
Maj
Net
Arias
elixiu
indios
abertos
Guitiriz
privadas
elevación
patrocinio
contribución
##ence
##orro
##raxe
##tigo
Gla
Exec
rota
Groen
linfo
Howard
rapaces
semente
reflicte
beneficio
manifesto
plasmática
prohibición
resistentes
##är
##dem
##gui
##jal
##mín
##uras
##velop
maci
telé
tenda
Acción
básico
sostén
Pertence
atopados
Habsburgo
seleccións
##gé
##pina
Pap
##ornal
FIFA
Iraq
adqui
cloro
fieis
pirámi
únicas
fabricar
estudosos
Valdeorras
Aristóteles
nacionalistas
##wski
Fox
Wei
##cante
##ceres
canc
Eliza
norman
siglas
autobio
técnicos
inmediato
estruturais
Investigación
##ON
SD
##ason
Bah
Cob
Hisp
Alxer
Detroit
Medalla
afluente
Deputados
clasificou
representando
cinematográfica
##nik
sura
Generali
pretende
consultado
q
Guip
##íticas
Arabia
trofeo
Celtics
integrou
racional
dirixidos
territoriais
##ui
##rary
##tland
Athle
Salom
aérea
canón
humil
Kosovo
asedio
correr
monxes
Conside
cadrado
gobernou
masculina
##colmo
##ditas
Apolo
Marín
sales
apostó
ecuacións
profesores
##céu
##ulfo
cae
##deume
##letín
##tíbel
Apro
ouri
Cabal
Seoane
exacta
reuniu
vector
fertili
sucesos
aprender
Estocolmo
bei
##dadas
1863
Ebro
Rela
Ruiz
vasar
viron
prezos
atopado
especta
contorno
evolutiva
1864
cedeu
sofren
vistas
véxase
afectan
conmemo
coidados
xurdiron
##TC
Rev
1874
Tomás
nomea
Google
océanos
ortodoxa
precurso
##ram
##fono
##pota
##véon
inex
##cánica
Ocean
aceptada
cavidade
corredor
formaban
protesta
##mádo
##zaro
gam
##mería
carece
elixir
serbios
alimentar
renunciou
falecemento
Esc
Gan
##úscoa
nena
Etiop
viaxa
mision
tivese
Comercio
adhesión
contratado
renovación
intelixente
estableceron
##peri
##ticia
##ulada
Bolo
Narón
Vladi
caras
diaria
emparen
fluores
mercados
Nalgunhas
denominacións
##jar
##bade
##cosa
##esca
##vora
##tiñan
1866
Meso
anci
Banda
remode
##ratorios
potente
homónimo
notables
denominou
diagnóstico
comerciantes
necesariamente
##cop
##rix
##ties
Sun
Anato
conto
fuxiu
Bogotá
celtas
Pública
escuras
Vermello
Domínguez
revolucionario
VIH
pur
##icios
Bach
razo
##ánicos
##ilandia
silves
##alizados
colombi
regresa
Interior
aluminio
##bola
##ónsul
paro
##tratos
Honda
Infan
altar
xefes
entran
rompeu
marchar
señores
##cionistas
Director
segmento
##rys
##ceses
##ñando
##cuítos
Execu
repor
Etiopía
Xenebra
algorit
ascendeu
combater
dimisión
utilizaron
preocupación
Lá
Book
##erario
##férico
##unción
Clark
Airbus
habitan
superou
secreción
traducida
lexislación
##pis
##rose
Sie
cama
##vantes
Branca
Marcel
dispar
falado
plasma
virtude
traslado
##mati
Irv
hin
mares
pólas
Nature
Queens
cargas
claras
##zamentos
English
retablo
relixións
##key
##now
##une
én
##ways
Gib
##ientes
##tusias
secos
Aethel
aletas
divide
adoptar
catálogo
cerebral
##TR
bí
##ppen
STS
dign
estó
cantar
inspec
Estreou
asinado
formadas
integral
Guipúscoa
prolifera
filamentos
Clara
fallo
Miller
conforme
derivada
Industrial
##mont
##zart
Fai
Neg
##díase
decl
teito
Pereira
tumores
peculiar
recompila
Agrupación
Generalitat
conxuntamente
##jan
##elli
##iares
##irona
Bris
Open
Berna
hospi
##estrada
eficaz
situar
coronel
parecía
electricidade
invertebrados
interpretacións
GA
##ette
##iada
##oría
Sau
Amar
Ball
Kong
anor
arbus
##onancia
Cómpre
chasis
ligada
liberar
Cristovo
Northumb
antíxenos
expulsado
##icis
Dise
Menor
Night
devas
novel
Newton
premia
##urrección
##ingüística
descoñecido
##ede
Sky
mís
Colonia
convoca
milenio
pensaba
magnético
##arn
##icia
1877
copa
Estra
decen
Anthony
Russell
cabezas
terapia
internet
requiren
turistas
embaixador
velocidades
enfrontamentos
##ció
Fei
##inois
##picos
espl
gato
millas
útiles
asistente
tendencias
inmunitario
inscricións
Gh
IT
ETA
hou
##ología
polic
mortes
habilidades
Nou
pep
##doiro
Nick
##ívoros
##tribúen
Dallas
cifras
marqués
transbor
aumentando
Petersburgo
correspondencia
##bran
##obia
##mster
pivo
Chipre
serbio
##turación
Traballo
dezaseis
inflamación
##log
##esis
lati
reen
Bruce
Donos
abade
requis
Oficial
ruptura
expertos
producidas
##ug
¡
##ucas
Ore
##istan
##peras
Serv
sero
Canal
fosfo
nacer
##ladores
Mozart
Miranda
móbiles
documentación
DE
##dell
##ixes
##omes
Mad
Pur
guía
Vidal
renac
hebreo
LP
##contin
camis
conflu
##aricións
Lourenzo
Retrieved
coloración
literarios
competencias
##cru
##dur
##bore
##erpo
##face
Ocu
##delas
##ínese
Data
Hugh
##utista
filas
Ciudad
xurado
sinónimo
produtora
AG
##mesa
##eller
Prata
indio
rivais
acordos
Seguridade
ferramenta
Orixinalmente
Py
##asen
##cicl
##ione
##idari
##cursor
aéreo
manga
mapas
debili
epitel
impide
retirado
referendo
##loa
eru
##goría
##icana
Acer
##tencia
Denom
esfera
susten
Clemente
gravados
representou
##peto
Hera
##ánicas
Catar
Disco
manob
rexen
coroado
informes
internos
románico
directores
dispersión
manuscritos
Cop
beb
Arqu
##zantes
Casal
Soiuz
islam
asigna
Filadel
Viveiro
deterio
xornadas
citoplasma
literarias
By
##here
##kola
Chur
##ficios
##mantes
Venus
##xencias
Wilhelm
Pireneos
destruír
entusias
outeiros
complexas
dimensión
habitante
manifestación
protagonistas
##dédo
Syd
USC
##ficia
Blue
Final
Xuven
Puerto
Taboada
Illinois
conduciu
materias
concesión
explosión
militantes
nuns
viva
degra
talvez
##cionadas
aventura
estimada
indíxena
circuítos
independen
##ñosa
##cules
##titúe
Noroe
Prince
circul
Continu
esquema
retrato
contando
##postamente
Información
Eth
new
##ásticas
Morris
xuntas
dinamar
talento
orixinou
comprensión
##pita
Renfe
empate
transcen
cooperación
##aña
##ert
##jam
##truc
ONU
##erald
##úbulos
Saúde
Traba
falla
rigor
Spring
morfoloxía
##ví
MH
Ner
alá
Decla
extrem
preser
tocando
contactos
rexeitamento
##kos
##oman
##rosoft
porco
xoves
Bierzo
##cidentes
fortale
crónicas
consolida
dependencia
##top
LE
##berht
Hand
Sete
##madura
##quetas
dicía
lagar
##eléctri
Salnés
Nicolás
escamas
interesante
##jou
##tten
Him
Kim
eds
Cate
Rede
aleta
##icación
cúpula
gramos
rodaxe
sultán
levaban
Realizou
holandés
empezaron
sanguíneo
homosexual
propietarios
lun
Monu
haxa
Política
Vilanova
dirixente
ministros
repertorio
convencional
##gata
##ríos
##álise
dono
ficou
solub
Perman
pechada
diferenciar
##delo
##uevo
Old
Ves
rena
##iliares
noveno
Anderson
Athletic
colabora
defensor
parecido
encabezou
parasitos
incorporar
denominadas
recombinación
##zal
##olar
Pou
Agus
Fire
inmen
Alasca
Guadal
franxa
fundar
litros
avances
externo
sorpres
##arización
botánica
negativo
precursor
sensación
aceptación
##lía
feu
Nilo
esgo
Franz
foille
escravi
efectiva
Microsoft
vermellas
xim
Zeus
##rónimo
escase
reduce
dividiu
adquirir
destruída
decadencia
##uer
Im
Anxo
Soto
Charlo
xulgado
Pontedeume
transmitir
constelación
especializado
##tah
##voz
##anto
##tice
BMW
cós
saen
ucra
Fland
capel
decre
Doutor
gregas
maquin
cápsula
suposto
licencia
respostas
franquismo
determinación
Nix
##lizado
Virgin
piques
##xicidade
Houston
Británica
consideración
##tira
##tulo
##ámico
1820
Hero
arbi
Mercu
casca
pedir
##xestión
Rosario
afectar
estimul
Bandeira
confusión
conservar
trasladado
rara
Xaime
seria
Xacobe
ligado
oposto
intenso
acumulación
sublevación
Enciclopedia
##cera
##ciño
##gner
##ovia
##seca
dúo
1833
Alfa
Cuar
Jane
discre
rexente
Proxecto
sufriron
tribunal
executado
sentimento
recoñecidos
##kadi
rexe
##mánico
difer
Chegou
Xirona
acepta
sábado
microbi
primarias
apareamento
##ii
##eau
##álase
Bird
Page
Pilar
##dinámica
##uman
masiva
nativo
Porsche
salvaxe
contribucións
personalidades
##xé
DO
ris
1854
Nado
estro
evacu
nubes
Flores
Helena
cubrir
espera
cliente
Imperial
mostraron
Luxemburgo
procesamento
colaboracións
##rs
##tho
##xan
##gers
##ufra
Cic
Hop
##deses
Arre
pele
vasca
##terapia
Monter
castre
Ecuador
conforman
encargada
financeira
##intes
##penha
Apol
Kevin
Valdo
elite
flexi
húmidas
Sporting
capturar
previsto
orzamento
Baloncesto
introducido
##RNA
##hor
##mie
##von
Neo
ads
ábs
##danía
macró
reedi
cantos
conviv
ferido
herbas
##titulado
Stanley
traseira
##tibilidade
discusión
descoñecida
##chel
101
meu
##óloga
Magic
suízo
lembra
Stadium
húngaro
colaborar
AR
##isen
##tris
Nig
Poi
##fitas
1800
core
cova
##dalena
##óticas
Agora
vivenda
Flandres
calcular
comparte
Exposición
Filadelfia
exploración
BA
gr
##ñase
Gai
Gau
Chin
Live
bici
Petro
hotel
sexos
vivas
Arturo
Tolosa
proxen
tivera
despren
enfoque
separou
estómago
recoller
publicadas
##if
##wai
##xón
Dá
astero
especializada
##ef
Bál
Kur
caro
Parte
basal
corri
divin
selos
lixeiro
materna
liberado
funcionais
orixinario
producións
bacharelato
##dle
Jam
Jazz
ende
fosf
Local
Marta
exame
acolle
filtra
refuxi
socios
Donostia
##orum
##ñado
fixa
Casas
##globina
Pastor
Vincen
otomán
Ilustra
anexion
piratas
DS
dn
##fícn
cit
##press
Tren
cuad
fiel
Arena
##ovisual
curvas
consenso
progreso
consecutivas
##igo
Yu
##bira
ion
Lang
Méri
cele
chil
anaer
cereais
inflama
aterraxe
criterio
presións
autonómicas
##zen
CP
Cán
Inc
Pun
##ciana
Ares
mane
Afgan
reside
dramatur
norteamericana
##trus
Cib
##garos
Marx
Shar
##izaron
Water
empra
Estonia
Georges
Studios
Catarina
salientar
automobilismo
Anto
Road
fósil
apoxeo
Oficina
protóns
deberían
exemplar
Pl
Ash
Rie
Aure
glob
meso
Queen
Solar
gluta
Orques
suscep
##cionismo
existiu
prepara
Elizabeth
Territorio
investigar
presentaron
desenvolvidos
cra
Cres
Show
eido
moto
##quierda
Wright
nomear
venres
bolxevi
reduciu
comarcas
paisaxes
necesitan
Afganistán
AA
Adam
Song
irri
System
abarca
##undación
chairas
deseñou
modalidade
tartarugas
Et
##liño
blu
Four
piso
Aleks
Boliv
Proba
##vemento
Leonor
amosan
critic
Ferreiro
basílica
Champions
recollida
accidentes
regularmente
##amá
##icul
##pens
##tric
Cinema
correu
mármore
poderos
acrónimo
gradualmente
sensibilidade
##bell
##leas
##phia
1857
1862
prés
vete
feira
##instein
Medina
Informa
detalla
estender
sentenza
encontrou
Groenlandia
##nera
Hot
etn
##ables
##quías
Bara
leve
Beach
cunca
buscando
chineses
inspirado
subunidade
##bin
##idor
##onora
##taria
##xunto
cheo
dedu
##tibles
cuncha
recada
Ámster
laranxa
correcta
farmacéu
Valdoviño
Concepción
refuxiados
protestante
##RO
##ema
Io
cré
fur
##mberg
1835
Guti
Lois
Mana
rato
##tillas
Graham
Templo
Claudio
urbanos
recibido
desprazamento
##erte
Kin
NHL
Hard
##resión
Beren
escar
Canaria
reclama
referente
conquistar
levantamento
##feta
Chu
captu
partiu
Biology
ampliou
radioac
##gregación
erupción
Corporation
Pensilvania
supostamente
##fir
##imi
##dara
Rúa
##lands
arca
usaba
Adolfo
Complu
Warner
marcar
##alizaron
describ
feridos
peteiro
Progreso
derivadas
patóxenos
terminais
representaba
##tons
Saba
ater
gusto
móbil
xiras
Gordon
Contemp
Siberia
intermedi
percepción
arquitectos
##dedo
##trio
hea
##iliou
##oidea
Pico
Regu
autóc
doado
graxa
##fosfato
Claude
deixan
Destaca
Galegos
cerimon
emisora
escolar
africano
reunións
festivais
rexistrada
tn
##kien
bea
##ulosa
Your
canon
Modern
##ismática
atribúe
típicos
Presenta
atracción
obtención
vn
##gali
##mian
##istiu
1812
Hong
abdo
Comba
Festa
Ordes
Andrea
intenta
Barreiro
sacerdotes
Sing
occi
Brook
Angola
graduou
aprobada
círculos
gabinete
complemento
experimentou
##xila
Bec
Ria
Bala
Potter
sétima
cruzados
escoitar
marítimo
funcionan
##vá
Jes
1815
Aman
Bohe
Fall
prato
medula
auxiliar
aviación
episcopal
financeiro
interpretado
##lips
##teos
cov
lexi
Checa
Delft
subir
condes
trouxo
chamaba
revelou
colisión
mexicano
dianteira
brevemente
presentada
continentes
lexislatura
tratamentos
consecutivos
progresivamente
##hai
##dorf
Zen
Itali
indie
legado
sentir
colocar
entende
Nintendo
incluían
activista
##cker
##xado
Ens
voc
##gadura
##istrou
Explo
Grove
Nueva
Plata
Panamá
achados
básicas
Carballedo
mg
##mund
Xib
net
Glen
raro
febra
Membro
anuncio
distrib
exitosa
Exemplos
coincide
estadios
Paquistán
anarquista
ascendencia
##liz
##chan
##olin
Benet
Debutou
Seattle
comunic
asturiano
taxonomía
presidenta
sedimentos
evolucionou
profundamente
##uli
##memb
Fos
##telli
Film
Marc
Ulla
lipo
soño
##tricos
Souto
turbo
Dragon
bebida
romper
terían
Observa
acabaron
outorgou
Complutén
pertenceu
mitocondrial
Bé
##tria
##dróns
##temala
Sendo
azuis
razas
##íncipes
Bartol
Sydney
Faleceu
accedeu
diagnos
esperan
aprobado
Guatemala
resistente
investimento
administrador
Bl
##ulla
Fle
msn
vende
##licando
Padrón
atacou
innova
Saturno
Lawrence
Vermella
pendente
transvers
mariñeiros
##péu
##vente
Wiki
mata
Delta
xemel
##ference
##ulantes
desigu
mercan
propón
arquivos
diminuír
eléctricos
reproducir
adquisición
eclesiástica
universitaria
##td
Rab
##dicar
abra
gama
táboas
bizanti
foguetes
Izquierda
occidente
corrupción
puntuación
enfrontaron
seguramente
protagonizada
##vana
##raltar
Juven
irman
mudar
verbo
##lecular
clorop
defende
discrim
actuando
fragmento
inclusión
intestinal
Arquitectura
Anteriormente
##icus
Actu
Obre
agro
pian
Phoen
Britan
puntas
rescate
Estudios
Regional
Christopher
exportación
especialista
##dus
##ceda
##video
1808
Galia
Roque
##ciación
museos
vacina
Kennedy
Moderna
vixente
promotor
secuestra
psicoloxía
responsábel
inauguración
##mbi
MP
Oto
Nove
Vars
voda
River
Lleida
incons
ocupan
Academy
asistir
colocou
coopera
pesetas
Bonaparte
Northumbria
##gador
##ómero
Arro
Autor
Mesmo
Sport
talla
Esquer
Espacial
proposto
respiración
Recentemente
mediterránea
Acu
Sai
##govia
##titas
Jaime
Varias
ideais
microt
astrona
illotes
##americanos
Sebastian
privilexios
##furt
##arial
liso
msnm
ilegal
medrou
puides
Hernández
afluentes
brasileira
Considérase
depredadores
1846
ances
simili
explorador
capacidades
##ée
##óto
io
##teli
pdf
Kara
Pequ
dose
tons
estím
alemás
legais
tomada
Índico
Facenda
conduta
ocorrer
tesouro
Americana
Cervantes
arxentina
relevante
matemáticos
mortalidade
##CN
##oc
##cego
ensin
ligas
trazo
Monfero
embrión
fundaron
instalar
mosteiros
primitiva
Montevideo
constantemente
##up
##tún
Ts
UP
##enco
Wis
##ansas
verso
August
Stalin
pantal
xuvenís
rehabili
observado
##dh
##etos
##ufac
Tris
esto
Calvo
valeu
Animal
Golden
Oliver
Albania
Euskadi
Mariano
creados
##americana
vectores
solicitou
##íso
Xi
##xilo
Dip
viñ
Lexis
estrés
froita
Ciencia
Formula
laboral
visitas
vivindo
paralela
puidesen
Charlotte
Tailandia
trastorno
usualmente
##ríe
##sol
##xoo
Rá
##tique
1836
##gazine
Xixón
aliado
choque
facédo
loitou
pivote
Capital
calcula
esperar
neutral
transpa
estivera
biografía
prototipo
desaparece
##gie
##vre
##dano
Amais
crime
escua
nazis
Parece
débeda
soldado
vendido
asiático
federación
espectáculos
##cky
##ulou
##recha
1858
raio
Mendo
Utili
adaptar
cruzada
mantiña
naceron
gramática
lentamente
##RI
##tmos
Eug
Pau
endos
Walker
alumno
xamais
chegaría
partícula
##ych
UN
hu
##desh
##zoos
Wild
Death
Hergé
Inver
Viana
clero
Watson
Saxonia
cadeira
declara
obrigados
iluminación
aproveitando
posibelmente
contemporáneo
##dares
Vall
puro
despo
crecer
axencia
circula
labores
tortura
xentili
reivindica
construídas
##lores
afron
psico
mortal
pasaba
tardío
cuartel
obtidos
estatuas
sorpresa
directiva
orixinando
equipamento
almacenamento
IE
##rimir
asim
##crates
##estion
Class
Laura
conso
dólar
Orange
balance
famosas
##celulares
Varsovia
renacent
africanos
expulsión
incursións
relevantes
artificiais
estatística
##doto
##tanza
Arts
amen
lava
torn
##erpool
Anjou
Liber
cefal
esposo
Dirección
Liverpool
licenciou
##guas
##ubio
Brad
Post
Thea
Rally
navar
osten
renda
Podemos
acumula
ocuparon
terremoto
##mps
ná
##tile
##lador
Beat
grans
melan
ingreso
clásicas
afectados
colaborador
procedementos
##oku
fó
##amor
##manos
##táceo
##vidos
Berg
Poli
mace
Dream
Hockey
##campista
Cedeira
asentos
extenso
entregou
privados
Edimburgo
Gobernador
aparecendo
alteracións
gobernantes
sentimentos
eliminatoria
Conservatorio
financiamento
##lei
##uxe
##vato
##encio
ética
Quebec
descub
dinosa
Collins
recurso
veciñas
adoptado
..
CR
UU
##xano
...
xel
Aren
More
nais
##mistry
discor
gratuí
parado
sensor
Radical
afirman
galería
tamaños
mercador
constancia
deportivas
sobreviviu
nomenclatura
AF
Eo
Med
Pul
ape
##grima
1859
Work
cilín
paseo
apoiado
gravita
rápidos
concluíu
##ptos
iné
##eguiu
##kinen
##toire
Lima
##bourne
andar
chave
escara
oitava
enviados
integrar
esqueleto
protestantes
simultaneamente
Bó
##idro
##mira
Rea
##estre
##midos
##ritos
calc
Abraham
autoría
clínica
Fisterra
aceptado
incorrec
invención
Convención
MV
##esto
ree
Somo
esma
##ímetro
Books
Marga
Singa
groso
Protec
pulmon
adoptada
articula
retículo
exclusiva
sanguíneos
frecuencias
extracelular
mitocondrias
##ude
##dóns
##witz
vic
##dillo
Brea
sola
Vella
covas
Cangas
Jiménez
gobernar
vermellos
delegación
restricións
Cé
Lec
##letos
Fiel
leuco
##dencial
Copenha
arquivo
enormes
Marshall
retratos
Histórico
Irmandade
##ára
##gramas
Caixa
Phila
Forzas
cranio
persas
tumbas
vencel
esporas
aprendeu
deseñador
discípulo
controlada
defensores
soviéticos
desaparecer
disciplinas
alternativas
##kai
##nst
##tío
AN
##llos
Quer
cono
simpa
vogal
Véxase
alturas
musulmá
sinalar
Eurocopa
modificar
protexida
CI
Gw
Rel
acop
##ladora
Canto
Jacob
Naval
chuvi
neses
subur
Crimea
óptica
preserva
anticorpo
aparicións
funcionarios
FE
Bot
Jar
##dilla
Common
Morgan
húmido
púxose
militante
Cí
SO
##lito
Meta
Sher
Toro
tabo
codia
cruza
Cruces
dobres
estudan
prodúcn
xogaron
maxistra
percorre
tensións
Consellería
Vé
##régn
##tenas
Crea
Pasa
seda
somb
Risco
##ficados
antece
atraer
elenco
##radamente
teatrais
operativo
primitivo
##lac
Cua
Hér
##anina
vaso
Cinco
Couto
Horas
crían
ruído
Adoita
Alcalá
mancha
Portela
afectada
céntrase
descanso
destruído
noruegués
viaxeiros
inmigración
MD
##elly
Uns
Wit
Nich
Toquio
correo
rapaza
##leveland
Phoenix
nervios
adoitaba
Sarmiento
conmemora
transbordador
##ln
OH
##imar
CoA
Wer
##tasen
Xogaba
distín
violín
##mentados
Laracha
temperá
invernos
excepcións
##LE
##sh
##cut
##mari
##mega
Age
Pia
león
##gadora
acons
metil
abadía
concén
frontal
adaptado
cristais
antepasado
expresións
##dua
RC
##zádo
hal
Aber
Debe
Iván
##dimens
secas
Wagner
##alizando
Gustavo
urbanas
delegado
opinións
espaciais
gañadores
transformar
##nu
##tud
##ecas
##lici
chi
##ferra
##foros
char
##íticos
First
Motor
Oklah
Preto
mitos
túnel
Indian
Review
tentar
anatomía
##cionamento
Evolution
engadindo
obtiveron
recomenda
desenvolven
Metropolitan
##ject
Paci
débil
expón
terci
canóns
defendeu
obreiros
afirmación
comentarios
expedicións
proporcións
##sau
##ush
EC
Alf
Nós
##quesa
Goya
Iris
auxe
Great
Salón
escon
infin
modos
peren
##delphia
##osidade
##temento
aerona
infante
Leonardo
populari
Cleveland
emperadores
identificado
mediterráneo
##box
##oria
Cub
Ian
Chap
color
Semana
Agustín
desinte
orixinan
xenéticos
empregadas
mantiveron
proporcionan
significativas
450
Rap
##rópole
amais
cardi
escaso
Esloven
Introdu
gráfica
peregri
Oklahoma
desastre
habitada
continúan
divididos
doméstico
deficiencia
##RS
##izón
##turos
Félix
##tenario
vantaxes
aparellos
triángulo
aproveitar
socialismo
RE
##abar
##duto
##gádo
##hima
Luz
Sla
##mista
1834
Bour
cedo
pura
ósea
aguda
tromb
##uración
estean
##ticidade
comprou
diarios
frescos
misteri
noventa
subdivi
sólidos
terapéu
Hércules
substituto
xornalismo
republicana
temporalmente
##of
##hem
##álv
##cena
##andra
##dorra
1814
Paio
mens
Benjam
Castre
Código
Losada
fresco
hitita
Casares
Tolkien
proceden
efectivos
eliminado
demostración
##mini
##oito
##tier
Ace
Phy
Rho
##lasto
##ésimo
desf
muda
Poder
esquí
viral
##gueiras
chumbo
tantos
aeropor
escasos
madurez
elevadas
garantir
espermato
superando
lonxitudes
##LI
##goso
##irus
##viar
Sex
Fren
Hora
Hotel
##diocese
pensou
##vencións
entregar
mensaxes
péptidos
facultade
outorgado
testamento
coincidindo
permaneceron
##nea
SC
##gang
##zano
Zel
dob
pref
Kansas
Asuntos
estatais
Xibraltar
parámetros
transcurso
demostraron
financeiros
transformou
##óg
·
##mata
Tig
únn
Chem
Coma
Ivan
##olores
##tativa
conxe
Leopol
croata
linear
nervio
tingui
condena
potasio
historio
bizantina
implicado
combustión
monumental
resonancia
ecosistemas
lingüístico
##pá
##zol
##cora
##pada
##alaxe
##drico
Pere
delta
Wessex
navíos
Arteixo
fluvial
correcto
eclesiástico
especializadas
característicos
##xou
OS
##itol
Boa
##ralla
limí
fríos
Matthe
axudan
Alxeria
##tolicismo
avanzada
sucedido
Universidad
##kra
##mph
##zig
Apo
Crí
##kkinen
adher
adxec
casada
transf
Capitán
conecta
adopción
Antártida
bautizado
biolóxicos
maquinaria
##drez
##fort
360
sáe
##endor
Alice
Islam
encla
estero
noción
operar
##tainment
Bolivia
arqueas
diminúe
húmidos
relativo
domésticos
##uste
Kre
Tib
anim
apén
hepa
prus
manto
music
asumir
crimes
decora
galegu
metodo
inversa
Hamburgo
inspirou
Audiencia
acuáticos
Carballiño
irlandeses
contracción
##pora
##usan
eco
Here
Iden
masac
torne
##ificada
Progres
enrique
defínese
nomeados
dramática
feminismo
subterrán
abandonado
establecendo
revolucionaria
##umar
Hur
##cubri
##monte
1847
Orden
patio
ricas
acredi
condens
prostitu
destinada
iniciaron
Valenciana
propaganda
##28
##zzo
sop
##erado
3000
gang
Donald
cilind
cónsul
libras
Simpson
carballo
traxedia
capturado
traballan
dominación
escenarios
tripulantes
desenvólvese
##feld
How
Khan
años
prob
Braga
acomo
astro
faría
resid
xesuí
Carter
Latino
asalto
decidir
gráfico
ocupaba
sulfato
capitais
guerreiros
valenciano
especialidade
Ita
cou
Alma
Igual
Techn
polis
veráns
Benetton
dándolle
supervis
hipóteses
montañosa
Desenvolvemento
##23
##ichi
##raca
Leo
Cass
Homo
Jona
Phys
expec
pelos
festiv
módulo
##bacterias
depósito
bacteriana
infraestruturas
##GT
##asi
##gle
##ree
##rín
Zi
Dei
Eul
Pip
##ilias
##thers
Dona
Carme
Maceda
Ramiro
Villan
vellas
Leopoldo
volcánica
transportar
Philadelphia
interpretando
##wo
##ulu
##dira
##ixen
##okie
Dri
lác
mig
##eitas
anch
cota
matri
emitida
emitido
Esquerda
alimentan
desencade
respondeu
brillantes
xeográfico
adaptacións
arqueolóxico
publicamente
eliminatorias
ISO
tub
##aisia
Arca
Cabe
Deix
ergu
##citose
criou
englo
mestu
##iruvato
cabina
protec
abondos
canaden
##ternidade
desempeñou
emigrantes
construíron
##zio
##dwig
Fas
##ñaron
Coul
Equi
Iber
Whit
aler
caca
zapa
Antena
saíron
transi
veneci
Lexisla
avermel
combinado
bibliotecas
##ídn
IC
##dana
Dela
Mata
offs
prof
reme
xuda
Resta
Sierra
tramos
algodón
vulnera
Robinson
incorpora
ordenador
protexido
##sch
Who
##patía
Lady
René
supu
##omento
Ambas
Morte
Pazos
ermida
medrar
##riamente
Iniciou
Montero
eficacia
acompañada
##70
Ia
##dehi
##vara
220
Bad
Tyr
##burgh
##lices
##trese
1809
Dave
Kris
Billy
Sonic
##ciencia
Sergio
Teoría
pasaxe
escaseza
astronomía
campamento
articulación
acontecemento
desenvolvendo
##bama
##dise
##ncia
##xena
##icara
perf
##ección
emite
matou
rumbo
Xornal
Segovia
consigo
xenomas
Baleares
Malaisia
Tarragona
favorable
argumentos
curtametraxe
clasificacións
extraordinaria
##cr
π
##ond
##vić
GT
##ermo
##gens
Lama
Xogou
Garden
feudal
rodean
célebre
Palencia
académica
traducións
proclamación
##né
##cons
##mouth
1837
plás
sita
Georg
Cerdedo
Herrera
bandeiras
entregado
diplomático
prisioneiro
evolucionaron
secuenciación
##anti
##cedo
han
psi
Mani
##ground
Grammy
gastos
sucede
unións
escocesa
exipcios
visibles
burguesía
##mea
##crip
750
Loi
hór
##istía
##mario
##psina
reba
##illóns
##xenase
domes
delica
pechou
rotura
Axencia
ampliar
demarca
encomen
Johannes
descarga
filósofos
consérvase
considerando
Entertainment
parlamentario
##21
##lae
##moa
##yes
EN
##inté
##quil
##entas
1821
Suns
Bulls
Lamas
presos
cadrada
quedaba
Häkkinen
Paraguai
conxunta
fronteiri
ML
Agos
cinto
armado
pratos
Dolores
imposto
polares
térmica
consideraban
permanecendo
perfectamente
##mne
##íra
##bais
Nep
PCE
Xan
roe
##areas
##thing
elef
##erardo
balón
blues
labre
miden
Nikola
Trofeo
Rolling
pulmóns
señorío
tributo
galardón
Operación
cobertura
##cau
##fla
Get
oco
##ásica
1856
Earth
Monts
enver
Aparece
ultravio
patrocina
pigmentos
centrocampista
bá
fn
Gam
##ólise
Pseu
Cantáb
preval
Alterna
adicada
patente
Connecti
albergar
dirixidas
eficiencia
¿
nm
##cali
##deña
##nota
##onde
##rene
##cares
##érrez
1845
Care
Raúl
Utah
válv
##lámica
gamma
polip
Johnny
Platón
prerro
Develop
democrá
estables
mecánico
concedido
rexistrou
Revolucion
eléctricas
Connecticut
especialistas
##wulf
Jab
bíb
##nadas
Azul
Exer
islá
##ándoos
Alain
Verín
Langua
pegada
Frederi
diálogo
marítima
violenta
narración
Igualmente
##ifa
##pero
##pensa
##viais
Mate
##inadas
Ernst
vixil
Camilo
exipcio
ocorren
pesados
axeitada
cataliza
cuántica
transcor
xenéticas
##hé
##yama
Bei
pag
##onmán
namo
##inador
##rolóxica
Danubio
francis
Nogueira
consolid
sensible
considéan
adxacentes
mencionada
Subtitulado
suficientes
recompilatorio
##kii
ju
##cromo
Docu
Femin
Ficha
Under
eclos
estímase
inmediata
príncipes
seminario
helicóptero
##dier
##allen
##anato
1853
faro
Román
apres
Esparta
listaxe
pulmonar
xenérico
Xermánico
comprobar
implantación
administrativas
##ém
##dible
Fene
esna
arbitra
gaélico
latitude
ofensiva
Gutiérrez
cruceiros
convertido
neurotrans
electrónicos
##av
##inus
##rero
Out
adó
##énico
Negra
mitol
prema
Awards
States
Frankfurt
pertencer
Dro
##fican
Beck
tráns
lírica
paixón
submar
usaron
Orlando
Ponteareas
exhibición
influentes
macrófagos
correctamente
##lot
##trum
##xéon
Mec
Xor
sai
##macia
1758
avoa
curi
xubi
##tólogo
aguia
Bronce
impediu
preséta
abertura
axeitado
finlandés
guitarras
seareiros
escravitude
##use
##íñas
##filia
##rican
flax
##tónica
Depen
Divers
bombas
coñécn
gótica
macizo
obtido
antenas
dourada
escudos
opcións
protexe
alcumado
combates
Portuguesa
celebraron
linfocitos
Lingüística
confluencia
estimacións
IB
##voca
Six
Sáe
Tob
adu
oso
##timos
1789
Rick
Seis
Vice
ilus
lute
Guide
##lecomun
Abadín
Barrio
Church
Marina
lagoas
previo
ábsida
##icacións
cloruro
exitoso
embarazo
poderosa
Zu
##gins
##toso
esf
pom
##peare
Dese
Iron
inda
dobra
mutua
acoller
espiñas
galaxia
Vladimir
consérvn
derrotas
educativo
##isi
##see
##lier
##tzen
##tilla
1851
Zona
agas
cable
óxido
##táculos
Obtivo
citada
escano
Sindica
adicado
fármaco
torneos
arbustos
imprenta
influente
rematando
potenciais
cordilleira
hy
111
747
Kol
##erías
##tábeis
Warri
doses
hemor
veñen
agocha
dester
penins
relata
Airways
certeza
zoólogo
Anatolia
xuventude
rivalidade
significou
envergadura
fabricantes
}
##fago
Lig
McD
xoi
##ñanza
Pino
desp
ataca
xerou
Shakes
adulta
violon
Almería
causado
centrou
desexos
##micamente
Einstein
afastado
discorre
estendida
reducindo
artísticas
κ
ón
##dale
##ller
##tury
Gos
PCR
Neda
Pren
Sene
foco
mosa
oval
##baixán
finés
vitro
Stefan
graxas
pastor
suaves
tribun
ofrecen
sequera
apartado
marcador
Escandina
espectacular
proporcional
fosforilación
proliferación
##OM
##nau
##zzi
##mite
Guy
mai
##rables
helio
ladri
Cabana
Persia
encaix
eritro
Balcáns
Edition
Marqués
erosión
escisión
estivese
liderada
olímpico
promoveu
tubercul
##ionalmente
anarquistas
catolicismo
fotosíntese
##MT
##rit
##reau
Blas
Rand
domi
metró
parda
toman
poderá
téxtil
##xisterio
Wallace
anchura
armadas
Colorado
Cotobade
estatuto
rematada
accidental
alteración
informática
microtúbulos
##45
γ
##gge
##nico
DNA
Kam
tap
Heat
Nets
##hammad
impoñ
poboa
##gueiros
Pascua
cantón
Maurice
afirmar
illados
entrando
destacada
escribindo
inaugurada
recoñecidas
civilizacións
continuamente
##mú
##kis
##poso
##culou
exci
##ámicas
Blood
parar
perfo
semic
##dadanía
Mariño
Online
Otomán
xuíces
Andorra
Castilla
Pictures
emerxencia
descubriron
secundarias
##fr
Ea
cúm
1842
Acor
Vide
luxo
##íficos
##írculo
Bayer
intre
tubos
Natura
illada
pesada
posuír
vogais
ximnas
arteria
Dereitos
Ferrocar
simetría
Galeguista
australiana
mós
Util
prós
##icismo
Ludwig
engade
acollida
temporais
plantacións
sucesivamente
##NF
##lain
550
##ílico
Nome
adxu
cera
##inista
citar
doces
##atorial
Centre
abdome
taller
##acáridos
anteces
coñecía
ámbitos
africana
arrastra
convocou
desconten
espécimes
caracterizada
##coso
##esco
##ttps
##icias
##rasia
Aero
Godo
Nord
Quen
pato
##colate
##izando
##tadoras
Branco
Terras
insign
inters
tratan
Estatal
parente
condutor
externas
disputado
enxeñería
constituír
proxección
Shakespeare
##jón
##ène
Zú
240
Ple
##comun
Unida
Women
falsa
Planta
santos
##mentaron
colapso
deposita
Normandía
reflexión
descomposición
##diña
##rádo
Kor
NFL
##trong
Reti
Toda
##inaron
##troido
Proce
Secre
helen
alicer
Báltico
cervexa
monárqu
suborde
fotógrafo
utilizaba
enxeñeiros
estratéxica
caracterizado
universitarios
##Da
~
##dum
##allo
##gart
##glia
Moto
orel
##hattan
Ramos
engan
nacen
petro
Checos
Mammal
Sports
actina
alelos
lámina
nacido
placen
traves
Galileo
hispano
condución
contribúe
discográfico
Historicamente
especializados
##TM
Qui
1849
Arms
Space
vídeos
Dirixiu
emigrou
levados
caracteriza
conformación
##zia
##lies
##pson
##úase
Paco
That
##piente
Darío
Maxim
della
gatos
##tóricos
unindo
incapaz
perdido
##idelidade
parasito
servidor
Manhattan
Exteriores
doadamente
permanencia
unificación
##tini
Fala
Pepe
Ulloa
monxe
raras
paneis
##tilación
Australi
convocado
holandeses
Declaración
fermentación
notablemente
##OL
##oxi
##wic
gli
Gand
Vive
cima
inta
mina
Argen
Artur
porno
uníon
desgra
perante
teórico
##recemento
botánico
responde
académicos
aeroportos
consciente
ministerio
Estremadura
estatísticas
##eni
##rai
##cilo
##lela
sau
Fred
Guía
##omagno
##íferas
Vista
antis
azucres
bebidas
docente
pianista
realismo
xurídica
Aquitania
localizados
equivalentes
##thel
MVP
lus
##aliar
amon
cristiás
recolleu
suicidio
vencedor
Acerbaixán
determinou
intermedia
pregamento
infraestrutura
##íen
NC
##gger
Sis
vín
##brese
Avia
Gius
This
lipí
Story
artró
plana
##alidade
##ificado
Instru
Irvine
Líbano
amplas
asento
gastro
triang
Boletín
Encyclo
Reforma
enfermo
manufac
traspaso
atletismo
cantantes
disputada
sinónimos
viquingos
Carlomagno
protagonizou
precipitación
RF
tin
1822
Ariz
that
Adela
Extre
Michi
Neves
modes
Experi
Moeche
curios
lector
quimio
##mentaria
Sardeña
típicas
Categoría
cidadanía
provocaron
sobreviviron
##27
##ev
Nó
##dence
##ilios
1844
Estí
Fame
cume
lucn
Proto
apode
preso
radic
Aranga
editar
reitor
situou
voceiro
Wolfgang
conducir
escándar
predadores
corporación
##TE
Ö
##yen
Gö
Bag
But
Kle
Neu
úsn
##badas
##zores
1839
Fóra
##inesia
Lucía
encan
minis
ánimo
Huesca
Silver
campus
previr
arredon
ligados
lectores
elaborado
restrición
autoestrada
medicamentos
##rete
Naz
Saa
Xin
die
Bron
Gros
Quei
Tara
Romeo
desaf
facto
Marino
fantás
pechar
présta
tracto
certame
analizar
hardcore
restante
recepción
inhibidores
neurotransmis
##jer
Tei
Dead
Lock
Tito
trai
zume
Antio
croma
Intera
chaman
Basilio
Herbert
diploma
limpeza
traizón
cubertos
líquidos
tradutor
Coalición
comunismo
esplendor
resultando
##iae
Gy
##illy
##nett
TVE
Wen
ped
##buses
Beau
Cova
etno
##divers
##onario
Berlin
falaba
Avenida
hábitos
ligando
respira
tomadas
Bautista
escoller
esperaba
forestal
musulmán
Eslovenia
Orquestra
vinculado
reprodutora
ilustracións
conservadores
##gur
##ime
Hé
##anal
##gram
Bat
Barro
Creta
Douro
heter
leito
recha
sabía
xesti
Button
creadas
elaborar
lanzaron
memorias
progresivo
Presidencia
estritamente
##24
##fón
##gow
##acho
##eppe
Hud
UIC
##bulos
##quina
##tidae
1852
Elis
From
asimi
turca
Patrese
estereo
israelí
montaxe
fracción
verticais
produciron
antepasados
##ng
##oll
##bona
Gur
Syn
##doras
Aban
Ener
espes
Murray
debida
fariña
remóta
Heinrich
hidrocar
triloxía
##zn
##vet
##moso
Coi
Bada
pulo
##cipres
Elena
heavy
##moníaco
faraón
granxa
illado
contrar
pasaría
puxeron
##dicamente
atravesar
compartir
dixestivo
derrotados
entrevistas
construtores
##OC
##pil
##trí
##clas
##gala
##ries
##tula
Eas
apop
##ceiras
##ilonia
Ávila
##ividade
énfase
##metraxes
Fomento
Salomón
derivan
péptido
romanés
Caracter
ascender
disputas
herdeira
Margarida
candidata
estendido
##maticamente
temporadas
funcionario
##35
##90
##lov
##pir
HC
TA
Már
Nos
gro
nuc
1823
Andy
Cell
Archa
Tales
climas
rochos
simula
Premier
solista
Thompson
destruíu
expresan
posibili
sinatura
vendidos
dixestión
americanas
revolucionarios
Fou
Joy
Wel
##minal
##tanas
1810
##inases
permí
Cristi
querían
Giuseppe
defensas
Licenciou
demarcación
ultravioleta
##cum
##osi
##dard
Alb
Pai
##onado
Fair
fans
Perió
##poñente
antena
paxaro
choivas
envelle
##proteínas
fixación
insulina
sindicatos
##omé
##eroa
737
Gray
Laxe
nich
pech
##camento
breves
polaca
Mendoza
apoiada
encargo
Singapur
anotando
eficiente
incendios
Publishing
Testamento
substituídos
gobernamentais
##UU
##ović
ARNr
Over
infl
póla
mantiv
muíños
peregr
Ernesto
Microbi
Rodeiro
acolleu
habería
rumores
semanal
cuestion
facilita
intervén
utilidade
subcampión
convertería
Ny
##rise
##tite
##vira
Tha
Wat
bab
off
##iadas
##litos
João
endó
molde
subre
##ladoras
nacion
fichaxe
otománs
deshidro
aeroliñas
consellos
positivas
Democrático
##ará
##gae
##hua
Tó
bár
Ára
##thard
##tices
##xebra
ITIS
IUCN
Pelo
oído
vaga
Eddie
Pante
antici
bordos
Arquivo
aragonés
cálculos
endoplas
maneiras
monarcas
almirante
implicadas
toxicidade
conservados
significativos
##PE
##ñoz
UA
##gall
##isbol
Forca
Liceo
cacho
teren
Finais
patria
cidadán
definiu
Apareceu
Natureza
executar
implicada
recoñecen
intérprete
modificado
pescadores
presentaba
capitalismo
ferroviaria
##xon
##dent
##ullo
Ges
cóm
bron
Francés
frustra
indicou
asinaron
Católicos
conservou
resultaron
documentais
preferencia
ingredientes
##CR
##asu
##zel
Rh
##bora
##rego
##tédo
Row
dup
##bores
Poly
Thor
##gueses
##inando
serpe
Bohemia
Compren
Numisma
libreto
Jonathan
Sciences
Vilariño
colleita
Molecular
xerarquía
comerciante
sistemática
##26
##glos
##greb
Ley
Pró
##ellos
Clin
Lind
avis
manex
subli
portal
Cornell
Técnica
fórmase
temperán
comparada
primarios
visigodos
predecesor
triangular
dependentes
diferencial
tuberculose
##cell
##nada
##timi
##ights
fusi
ving
Apple
Troia
frías
##alizadas
encerra
sinalou
traduciu
amplitude
detención
aproximada
ferroviario
adolescencia
arqueolóxicas
##DT
##fá
##ded
AM
PE
Gia
##zaría
Mons
bala
vela
Falan
checo
feixe
lobos
parto
salón
Amigos
caeron
óperas
permiti
inventor
parentesco
encontraron
oportunidades
PN
##úrpu
Aci
##daría
Guad
Plas
Sena
Toyo
deza
##xénero
Julia
excre
Commun
apunta
caixas
fantasía
interfer
xurídico
Eleccións
sucesores
xentilicio
introducida
xeográficas
instrumental
AB
Qa
##mble
Ino
Kid
Bros
cogom
neocl
renal
Emilia
napole
xadrez
ameazas
Abegondo
Benjamin
Margaret
elevados
casamento
descendeu
pertencían
sorprendente
##inen
Bár
enro
misa
Casta
anime
lisos
Consta
cuñado
herdou
pernas
Letonia
cultivar
pioneiro
aristocracia
experimentais
planificación
##anes
##kara
Avi
##rillo
Canle
Force
Anglia
mercou
subord
toxina
oración
enteiros
inmobili
astrónomo
biolóxico
renunciar
habitación
Contemporán
##rot
Ry
##lion
Amo
Tok
pós
##ester
Ames
Breo
muis
Arsen
barra
diabe
draft
raros
Lincol
asesor
paradi
illadas
lévedos
afección
rexencia
Autonomía
principado
proporcionou
##rek
##rum
##bias
##usse
##rough
Vera
Lagos
crean
fungo
liber
tumor
décima
Sobrado
achegas
acordou
Campbell
amoníaco
cirurxía
iniciada
volvería
Periódico
gradiente
vacacións
declaracións
##34
##LP
##amo
##mía
##form
##omio
Let
##únior
repe
##dehido
Adolf
Prote
Turismo
fluídos
hititas
dezaoito
traducir
indicando
novelista
remataron
rexistrado
testemuñas
AE
BR
Shin
pese
soia
Child
Damas
Encón
Neira
recto
##xénicos
Alicia
ventre
Gilbert
Nixeria
cadáver
apreciar
##amina
1841
##pendic
paren
delito
electo
Pedrayo
someter
atopadas
benestar
castelos
sintetiza
turística
proclamado
instrucións
longametraxe
##íse
##fano
##irre
##roga
##tola
Mat
##inter
Beda
##gresos
##tricas
##íciase
ancha
demol
explí
##andería
Ribada
teórica
ciclista
deputada
engadido
matrimon
operador
poboados
superado
Babilonia
codifican
arquitectónico
##meo
1843
Brun
Liña
fris
xove
Turín
daría
exhib
maxia
resal
Meridi
contes
paleon
Antoine
Ontario
chegaba
variada
acadaron
centrada
volvendo
Converteu
inspirada
tolerancia
procariotas
##rain
##ízos
##ólvn
Dob
Ibn
Seu
omb
##tanol
Rang
ench
##ciaron
##leador
Cairo
Muñoz
Sudán
cance
imple
nenas
tarxe
cornos
cortar
curmán
pertur
vermes
conduce
canteira
cantigas
protecto
sufraxio
zooloxía
presidido
puramente
montañosas
musculares
arquidiocese
profundidades
##ama
##ska
##thi
##tome
Lus
Not
dál
##picas
##quial
1832
Sada
Schw
viga
##iliano
Valle
coros
forno
dúbidas
Caldelas
atentado
dixitais
plástico
escandina
Villanueva
progresiva
vixilancia
distribuído
coordinación
##fro
##san
##aldo
##irac
##troh
mex
Bank
Puig
fero
xusti
brillo
##familias
emblema
monopol
mortais
Belgrado
Michigan
decisivo
sentidos
Orientais
autobuses
cambiando
cilindros
procesión
contribuír
controlado
inestabilidade
##clá
cón
1200
1838
1855
EEUU
sinc
xeon
xeran
coloca
Círculo
prohibi
Xeografía
residente
cualificou
libremente
estratexias
economicamente
##haw
um
UICN
fume
neta
Heart
clasi
##tivismo
Caball
Freire
marxes
escuros
Division
Teoloxía
sucesivos
vestixios
emperatriz
terminando
xornalistas
→
##uco
##back
##nock
exo
##veres
Dumb
With
##grados
Adams
Tempo
ditas
duras
papal
Cientí
Torneo
baleas
idades
Arizona
afectou
detidos
influíu
ligazón
mamífero
homólogos
gravemente
incidencia
preferente
afeccionado
longobardos
permanentes
Escandinavia
renacentista
##gawa
##queta
Espí
Fores
Novas
Punta
apoia
navío
tenis
serpes
Salgado
Raimundo
acuáticas
destacadas
transcorre
excepcional
lexislativo
##ilon
##omic
Dai
Lor
##bitas
##renda
Zapa
##ñeiras
pesos
Cristó
Empres
grosor
saíndo
romance
Portland
goleador
Económica
chocolate
eliminados
localízase
restaurantes
desenvolvidas
−
##ful
##inda
##maior
What
dilu
##ríquez
Malta
anima
feble
Conven
Ortegal
anexión
malaria
Especial
incomple
Melbourne
##íl
PG
tou
##zante
##timore
Youth
icono
Caldas
hemato
piares
Familia
Orleáns
acostuma
formigón
Ribadavia
perpendic
dramaturgo
etimoloxía
és
##lamo
##oidal
##ístas
Dios
Moon
dedo
##bacter
##globul
ditos
áchase
##rupcións
Glasgow
poñendo
revesti
declarar
sometido
##ecrolóxica
Continuou
instancia
invasións
soterrado
maduración
##ele
##enca
##esio
##uñón
##étan
Kit
##xenes
miel
##polita
inmor
ratas
Teodoro
eslavos
inventa
quentes
Magazine
intoxica
positivos
artrópodos
destinados
especifici
limitacións
microscopio
continentais
##EA
##SH
EA
ki
##emas
##gran
##rage
did
Pier
foro
vamp
##heimer
Chron
Coruñ
crece
neles
púrpu
santa
##mentres
Denver
Savoia
Turner
logros
ensinou
electrón
marcando
repartidos
dispoñibilidade
##ate
##ato
Lé
SP
##ieta
##iños
dei
inx
lab
##istes
Habi
dopa
fals
lúas
##utismo
esqui
isóto
marea
##tativas
Cannes
Charlie
Unidade
difiren
dirixindo
Sacramento
dinosauros
plenamente
estranxeira
endoplasmático
##mbul
##wich
Tir
##cleta
reab
Belar
Celeb
Feira
Jordi
soubo
Alemán
hostil
armados
residuo
##cionarios
aplicada
causadas
rematado
salvaxes
responder
biolóxicas
Checoslovaquia
##cs
##met
##nor
##urí
CV
##cino
##leda
##oshi
##ínos
Fiz
##terin
##xeira
cego
fuga
rito
##cistas
Picas
droga
golfi
vaise
Canter
inunda
Cesuras
suprema
Harrison
roedores
Baltimore
contratou
normandos
sindicato
testemuño
violación
cruzamento
estándares
##hed
##uza
##cono
Hig
OTA
##relli
##ticus
amil
densa
reche
Bundes
Nación
Parker
Sauber
cabelo
fusela
propul
sólida
Ancares
Interese
improvis
misterio
tránsito
defensivo
dignidade
escaleira
contribúen
embarcacións
anterioridade
gobernamental
##nd
##sed
##sais
##xada
Ade
Ase
##diana
##mpton
Spen
hexe
víon
coagu
cogni
vicer
##ópteros
meiose
Rockets
castigo
estadía
matando
mediada
perdida
secuela
Castillo
acontece
autónomo
soportar
suxeitos
hospitais
modificada
conquistada
Rica
empe
goza
iner
satí
Deuts
cliva
verte
Deixou
claros
doazón
orellas
surreal
Brooklyn
Estímase
pirámide
comunicar
encontraba
localizadas
contribuíron
##pul
cc
##fect
##cilla
Cale
Desa
Nada
Theo
Well
cafe
chip
##bregat
Berke
Cesou
conmu
perif
tonal
Palmas
acentu
naufra
revela
ritmos
xorden
##tinamente
Cambados
concilio
depender
narrador
negativos
prohibido
Eslovaquia
mobilidade
CN
IF
pú
##ilán
##ophy
##unes
Hob
##busto
Anel
impre
arquiv
atopada
cancros
promesa
balonmán
dezasete
doutorou
enfermos
Llobregat
organizados
convocatoria
##filo
##liza
##mera
##ysis
sis
##ibili
anco
atro
cinc
mali
polim
Barban
fálase
mercen
comprar
incendi
platino
vicerrei
Coulthard
Guillermo
femininas
paralelas
asasinatos
representados
##bet
##tag
##tza
##ñán
Sr
##oite
##tific
##ísimo
Gary
mama
piro
##tonina
cinta
Beatles
Beatriz
Breogán
Basílica
Warriors
revoltas
normativa
visitante
expulsados
abreviatura
candidaturas
desaparecido
enteiramente
##cif
Tí
Ler
##derma
##ólica
Mann
litu
mega
luces
perna
Guarda
acudiu
radios
sitúan
volven
Matthew
Systema
Tyrrell
espiral
figuran
visuais
externos
mexicana
Magdalena
citocromo
conseguen
escoceses
Canterbury
cerimonias
recadación
agrupacións
semellanzas
persoalmente
##ween
##celer
##renal
Acta
Albo
Cela
Meis
baño
Xusto
espar
imped
neutr
##queiras
##tionale
Urraca
caendo
deciden
ensinar
prólogo
ángulos
étnicos
arcipres
cataláns
defectos
directos
probábel
asasinados
Agricultura
abandonaron
definicións
experimenta
formulación
identificou
iniciativas
laboratorios
##TI
##dino
Cov
##linio
##ullas
Pana
caci
##mianzo
##mónica
Baden
dorso
##therine
Canada
penici
Network
anormal
estraño
Mesopota
Vimianzo
aparecía
esquerdas
conservada
intermedio
soviéticas
converteron
provinciais
xeneticamente
##inz
##doos
##gela
##liano
Kill
Rusa
##alizan
sumar
Cavali
Lorena
étnico
##poñentes
Hermann
Suprema
outorga
baterías
gandería
habitado
heredita
hóspedes
levantou
perfecto
xenerais
atlántica
tribunais
empresarial
voluntarios
provenientes
##gis
##zon
Ola
##barra
irra
desin
mudan
riscos
Fonseca
Policía
bloqueo
enterra
islámica
quinteto
realista
Provincias
prevención
adolescente
divulgación
121
##entan
abar
trin
árbi
##quelas
Kenya
Rudol
drena
sitún
Astron
Pereiro
gallego
ibérico
recibía
Olímpico
Valentín
cardíaco
fiestras
infraver
mellorou
potentes
democrático
incrementou
subdivisión
consideraron
potencialmente
##pot
##aris
##eler
Ceci
Hann
Humb
Rein
##óxenos
Astor
Monza
coval
danés
trato
Founda
Ortega
acorde
lineal
##olípidos
produci
##timamente
docencia
estimación
precursores
presidencial
comportamentos
##VE
##rat
##dais
##thor
ERC
##bondo
Nace
acta
disp
##trohún
muíño
usaban
Eugenio
experto
levaría
máximas
promete
loitando
Liberdade
interface
metrópole
infantería
##dow
##fina
##relo
##rául
##róns
Ayr
##elius
Auro
Espi
Fitz
Goku
visu
##física
Filla
evita
falso
gaita
dabondo
delgado
empezan
delibera
descritas
hidrólise
producíon
abandonada
Gaz
Kai
MHC
omn
##ivale
Dros
Fres
Hell
ente
Massa
reeli
Sasuke
atleta
locomo
pesado
ritual
exipcia
secreto
##bacterium
carbohid
descende
empregaba
pioneiros
Ilustración
Mesopotamia
descricións
##86
##HA
##LC
##py
##vic
##thol
Syl
##clore
##deado
##esque
##lendo
##tuoso
Rega
Rema
apor
Alesi
ceder
dexen
rexur
Carral
Hudson
Julián
dragón
febras
Liberta
Serrano
Tolomeo
condesa
sonoras
Memorial
anotador
gañadora
tentativa
inmunidade
consagración
estranxeiras
peregrinación
##rd
##lock
Cry
##davia
##under
##érase
Forn
Nami
elíp
legu
Pacto
hospe
##ethoven
aproxi
crecen
Esteban
tanques
academia
adecuado
alimétan
fuselaxe
medición
##lecomunicacións
\
##cub
##sto
##burn
##dero
##rati
##digos
##itter
##mnega
##veral
Voya
déon
sáns
##bulosa
##ferase
Neptu
Sarah
fíxoo
ligan
optou
eucali
funera
sufixo
Ártico
##bacteria
liberta
marabil
Seguindo
diabetes
disposto
variadas
linguaxes
sanguínea
compartido
interveñen
conseguinte
presidentes
propagación
vocabulario
##ос
##enz
##chus
##icen
Dig
Hub
Kei
Pat
enx
##fredo
1829
acur
vexa
Mongol
anacos
manual
válido
Cartago
Pacific
viviron
gramnega
harmonía
minorías
panorama
seguidos
variados
Constanza
Sindicato
dedicados
dispostos
perímetro
avaliación
arqueoloxía
precedentes
combinacións
Cea
Goi
MTV
Rid
ida
##reixa
##ucaso
Bres
Buff
Cron
Stor
##consin
##tappen
Nunca
arrin
fixar
grama
Contén
Marine
fociño
servía
Estable
achegou
adquire
encabez
escasas
infantís
paquetes
vertente
agrupados
practicar
fidelidade
gastronomía
lanzamentos
celebracións
circunscrición
Was
##xados
ARNt
Dita
Last
whis
monop
##herente
Africa
Molina
cheiro
online
satisf
serras
Western
chegara
dificul
dirixía
rituais
término
Enríquez
Figueroa
Missouri
glándula
mesquita
resultar
Beethoven
forestais
protocolo
alcanzando
dominantes
Constitucional
##GC
##lash
##pzig
##arius
1816
1825
Mesa
oper
Pesca
ciste
dirix
escor
paleo
Comeza
despro
oficio
Express
Guadala
diferén
piñeiro
térmico
contamin
Industria
guerreiro
pasamento
catividade
##22
##led
cy
##inga
##vedo
Cum
Sna
pau
##dicto
Vita
eman
gene
##ionado
tecla
Global
Nicara
cumpre
noites
recrea
Arredor
Cáucaso
Leipzig
Oleiros
comunas
esgrima
álxebra
impulsou
vascular
domestica
profundos
secretaria
substratos
telescopio
presentando
politicamente
BC
##thal
Sey
Zan
Buck
Foro
Mase
Pira
Ruso
trío
Spurs
comes
https
duques
vistos
Canción
Library
Nicolas
Berkeley
Universo
gravaron
metálico
arrecifes
Verstappen
descubertos
significaba
PO
##góns
##tábn
apó
##cedeu
##enson
##quisa
##zoico
1819
locu
mato
malas
subiu
##índolle
Basile
Helsin
ambici
amosou
confec
moscas
##icultura
barroca
Destacan
pantanos
restable
Executivo
estudando
aproveitou
construíon
electorais
presidenciais
extraordinario
##alis
Pér
ira
sir
Adif
Benz
Emma
Lost
Pene
cesa
##nación
Kentu
Minas
asume
duros
feliz
foros
Euskal
buscou
divina
##mócratas
esloven
formatos
portavoz
Barreiros
desprazar
mencionados
##SN
##ال
##RMS
##flu
it
##mbia
##mosa
Swe
Fang
ceca
##órmase
Gradu
WoRMS
despa
fórmn
agrade
tomado
##peridade
Pascual
Studies
ditador
Kentucky
asegurou
proveñen
vinganza
cazadores
colectiva
mandíbula
incubación
Vocabulario
mercadorías
desapareceron
##cc
SM
Dir
sén
##fores
1831
Town
coun
xefa
Ricci
alelo
nelas
prove
Pseudo
autoin
exprés
moción
serina
subxec
traslá
Senegal
Sitúase
cortado
decenas
Espírito
acusados
respectivas
establecidos
influenciado
ya
Ór
##ondi
Esp
Iri
Ltd
Púb
was
##abria
Exeo
page
Denis
Ernest
carbon
chuvia
datado
##cultores
repouso
tóxicos
Programa
Regresou
piruvato
primates
Cristóbal
Wisconsin
liderados
Británicas
encarcerado
parlamentaria
##53
##fib
##lora
##arcal
##opold
##riado
##fónico
##ternas
Ribas
acaban
alusión
ausente
dominada
fenotipo
nocturno
acompañou
Antigüidade
bolxeviques
horizontais
##rob
##psis
afo
dol
ego
##deada
##entar
##filas
Octa
corn
emen
inus
Fondo
desar
##ionistas
Challen
asasino
futuros
Maryland
Terceiro
afectado
cabalería
milleiros
restaurar
##dimensional
computador
espermatoz
iniciación
descubertas
extremidades
interesantes
##ird
NE
né
##rand
Llu
##cible
##quete
Doro
Roth
Sign
croa
diam
lámp
rego
Lorca
Muros
Samos
Gloria
Romana
Situada
capelas
serviron
Ministros
experimentar
##fis
Sm
Zh
Peo
##ridae
Walt
aren
pide
Andes
falou
nitro
##ionados
Plinio
carros
induce
##idamente
diversa
emprégn
encarga
exposta
indique
vangarda
inaugural
medicións
mencionar
preparado
semifinal
partidario
##xy
Š
##ioa
Fí
UK
Thi
Von
##cidio
##oviet
dila
fino
peru
##adoras
##domina
##trinas
Jerry
Maver
Medie
Cuenca
Somalia
atómico
láminas
máximos
suposta
surafri
textura
retornou
Francesco
definidas
Comunicación
##eg
##dei
##omi
##ots
##bier
230
End
Gul
Nik
##ecido
##táneo
peto
ramp
##ciosas
daban
megal
nariz
vacas
##istanco
illote
Agolada
avenida
hidrául
melodía
notación
aleatoria
periódica
Coristanco
pronunciado
patrocinador
##VA
Wy
##lope
##rill
Fly
Mega
Rubi
Sina
blin
iran
##rollón
Edwin
Plant
Power
cotiá
canais
carpin
femini
England
Picasso
atletas
chamaron
inglesas
afirmando
ensinanza
fabricado
herdeiros
Foundation
instalaron
protexidas
Antigamente
especificidade
##eng
##ize
##kir
my
##etta
##time
Ses
Lake
dama
##éridos
Colon
copro
notar
meseta
pulmón
rostro
##morfismo
Brollón
aplicado
atopaban
comentar
cualificar
quecemento
recollidos
##US
##inu
##sou
AI
##ezol
##olub
210
Lom
Ista
Limi
dato
Grant
intri
pasta
##queiros
Knicks
Produc
hibrida
liñaxes
materno
adaptada
apoptose
comezara
consulta
polígono
Polinesia
algoritmo
introduce
protector
distribuídas
prosperidade
Contemporánea
primeiramente
subministración
Bak
Feb
wor
##viron
unic
##mbique
Gould
destr
globo
viños
Pequín
aéreas
Levante
empezar
futuras
polacos
Muhammad
constrúe
definidos
deseñados
realizaba
construtor
escuridade
facultades
innovación
tinguidura
óv
##cóns
##misa
##áñez
Gay
##indro
aglu
cepa
Jason
Palau
arref
coiro
falec
amidón
anotar
segura
Fundado
buscaba
comando
adestrar
inserción
ligamento
colectivos
Development
atmosférica
repercusión
eventualmente
##GB
##tium
Scu
tía
Budap
Evans
Extra
Libia
##misoras
##tónicos
novena
obtida
brandos
paradas
pegadas
negociar
obreiras
reforzar
trompeta
Demócrata
descender
acusacións
inhibición
respectivos
autorización
##tata
amu
lox
##dison
##gober
Stro
grán
pesa
Brión
evapo
bioquí
pracer
Augusta
Project
Reserva
asegura
endotel
supoñen
Deportes
Mauricio
levantar
tratando
Monumento
convencer
sometidos
corredores
ensamblaxe
edificacións
##tems
Dez
Gom
Qua
Zas
##meral
##mulas
dirí
male
Área
##lizada
Abdul
india
serio
Gaceta
atraso
buscan
frases
rendas
tranqu
armenios
Liberación
economista
felicidade
##84
##ná
##gell
##téñn
Luc
##marck
##mesas
Onde
Some
ocos
##laecia
Hawks
peles
troba
Ayrton
exacto
melano
##damérica
Sección
retrans
virtual
Broadway
fracasou
coloniais
quilómetro
##hyn
##ule
##dato
##elsea
##maica
Bolí
Días
Xard
crer
ofre
##cletas
Bazán
selva
##galicia
xentes
fermosa
promove
volcáns
Atlantic
afirmaba
favorito
folclore
indución
completas
favorables
periódicos
certificado
coagulación
renacemento
superfamilia
##cli
##ged
##meda
##trea
Pei
inor
##uladas
etnia
parén
radia
xitan
Automo
Concer
adicou
inmers
Madagas
activas
gametos
Budapest
Frederick
estreitas
orientada
Mí
##gnos
##hari
##tial
PDF
mur
sam
vea
Eran
Mura
Roca
folí
palm
sobe
tira
xeor
##dicial
olfac
Master
##mentadas
superan
claustro
atractivo
defensiva
elaborada
italianas
simboliza
publicando
enormemente
caracterizou
##inn
##obi
##cari
##dini
##hado
##thro
##tori
##ardía
##dariz
##ítima
1600
1798
Lamb
Pita
engá
hapl
Botán
Urano
##olítica
baixar
mandar
esperma
obreiro
órbitas
Bizancio
explorar
regulada
silencio
afectadas
divindade
primitivos
requisitos
##36
##bús
##tty
##cess
##ffin
##gamo
##flaxe
##orcio
##parti
##zimas
Alva
Huel
Pach
Aurora
golpes
Century
Chelsea
Peterson
Valverde
múltiple
Gallaecia
dedicadas
descritos
distingue
poderosos
establecéon
emprazamento
exportacións
discriminación
##iam
##ont
ge
##bedo
##erie
##ffen
##onía
##dania
Anas
Conf
luns
show
##vellas
Honor
Jimmy
Praia
Rodol
Calder
Parada
contex
fuxida
african
modific
comparar
lealdade
piñeiros
rexeitar
Nicaragua
paralelos
Madagascar
direccións
discípulos
disputaron
repartición
Ez
##anus
##táns
Had
Two
coco
Merca
repen
sacou
##parquía
Lancas
cesión
triplo
dourado
exposto
forzado
fervenza
Benevento
Militante
amplifica
carballos
sensibles
convención
progresión
sintetizar
sexualidade
trasladaron
##uci
MC
Rä
##ande
##cete
##raft
##raza
##trán
Kom
Tex
Vos
pil
##inson
##lanos
Pris
inma
Bucks
Camer
Viviu
gorxa
pisos
##graphic
oposta
sentiu
dominar
editora
esquina
Licencia
anuncios
presidiu
##idariedade
Antioquía
adoptaron
correspón
espectros
metilación
##graficamente
Continental
fortificacións
##set
##till
Kub
##amede
##xenas
Freu
Moss
azar
time
Hills
antro
crema
soños
Xénova
manexo
primor
reinou
##landesas
Bolívar
Pelopon
hélices
pénsase
ameazada
prohibiu
##alizacións
Armstrong
comparado
desempeña
gobernada
Sudamérica
asistentes
canadenses
destinadas
##bad
##kor
im
##dari
##gale
##iñas
##lato
##pace
##cinco
##grupo
##poñía
tomo
Escol
Marca
Moaña
conti
Empire
avaliar
epíteto
falando
gradual
divorcio
preocupa
sinfonía
almacenar
barreiras
artísticos
colombiano
alimentaria
##xá
Nür
See
hop
##olina
Caña
Span
dana
paga
Maris
Sever
agudo
estil
eston
Biblio
contac
cuadri
morren
xeorxi
constan
lembran
##abilidade
contaban
iníciase
continuas
observador
socioloxía
cumprimento
restaurante
conservadora
remodelación
##29
##nais
##pede
##rita
Alz
1828
Avel
botar
gallo
lazos
Arnold
taxons
castros
debates
history
invadiu
masculi
debuxante
existindo
invasores
democrática
##áus
Mr
##cura
##lios
##omal
##pite
##rash
efé
Mono
nube
##permas
##xénica
Rodas
anató
epide
Ferdin
Harold
adopta
cobren
respal
étnica
Lincoln
béisbol
extinta
nativas
seguros
Aproxima
equivale
evitando
neutrali
tiburóns
xeoloxía
coroación
dispostas
negativas
retiraron
Britannica
festividade
reconstruír
##mei
MG
##inia
Xel
fío
##laría
Pódn
Ryan
Soul
remi
##dernos
##ophila
##ápolis
Larry
Pearl
greco
picos
##tificar
cripto
divídn
operado
Antillas
Philippe
asignado
axudaron
dalgunha
emisoras
especula
etiqueta
divididas
xestación
propósitos
caracterízn
Investigacións
##anu
##oth
Dü
##ríon
##vena
##xara
Sci
coh
ibn
##énica
Jere
Pese
##colina
##rimido
Kelly
Seman
graxo
recen
Gaspar
Tierra
burato
cubano
terzos
ascende
formais
sobriña
venezol
marxista
mecánicos
preguntas
artillería
hemoglobina
reconstruída
##IP
##opa
##wán
##arto
##tius
##ucha
Fur
McK
aga
lep
tru
Back
Fris
Colin
Globo
Versa
quilo
radar
Artigo
Prieto
abaste
suceso
Franklin
antifran
concreta
decisiva
reliquias
substitúe
Cantábrico
filosófica
reconquista
cloroplastos
##zza
##cico
##ibal
##tasu
Dum
Amen
Pron
colá
cómo
##cillus
Caban
Datos
Magno
Urban
pétar
Fisher
sondas
dimitiu
vestido
cristian
disolveu
tormenta
acompañar
adoitaban
ameazadas
ecosistema
Universitario
##end
##ink
ER
Fr
##íodo
##ucleó
1813
Boys
Dark
lama
Stock
carto
Inicia
Daquela
agraria
cunchas
reestru
comentou
comezaba
consorte
lendario
asturiana
describen
embaixada
guerrilleiro
Traballadores
##BP
##fín
uk
Kla
Dele
Guin
ilex
mila
##quilla
Papúa
Rioxa
póstu
##iformes
Bridge
bandos
fallou
##mericana
buratos
rebauti
Mulleres
fórmulas
bombardeo
rexeitada
clasificada
×
##ábi
Cid
Mob
stu
tun
##coros
Gior
Moza
cadu
insa
##respon
anglo
Coñece
mercar
##elulares
Rodolfo
Ferreira
causante
favorece
dependencias
identificados
interferencia
##ramo
Best
Odis
##istica
artic
Bloque
Mendel
datada
glacia
oscila
triste
##proteína
Emprega
Toscana
avanzar
vendidas
Wikipedia
autónomas
exclusivo
tartaruga
terrorista
bacterianas
insuficiencia
historiografía
##bai
Ní
LEB
Lub
##tarco
##tones
1806
Head
Maio
##arcado
Field
Obras
Vegas
teses
##portivo
Austin
Melide
Tennes
absolu
achado
barras
impuxo
infini
paisax
porcos
radial
alcanzan
devolver
posíbeis
vocación
Princeton
audiovisual
adolescentes
permanentemente
##ay
##bé
##borg
##eres
##gena
Biz
Pir
##marín
OTAN
Sali
blog
Mitch
xogue
Taiwán
pelota
##timidade
Barbara
Christi
Galegas
enuncia
fósforo
species
Istambul
atacaron
dominado
obrigada
prevista
ribeiras
Telecinco
confirmar
criaturas
repúblicas
##file
##ukee
##unge
131
Asi
Ceu
Kil
gov
##itora
##versa
1826
Anci
Holo
Kurt
Lomb
intu
opos
##lation
Titan
cerco
desfa
Guilla
arxila
Belarús
Público
oriente
Composte
calcaria
compiten
alicerces
ornamental
australianos
##ols
##ffer
##oivo
##lizar
Fabi
Mika
Mois
##xénico
Games
Jules
Light
herál
inxer
mingu
rompe
##borough
Apollo
Naruto
triunf
##tivación
fornece
inmensa
produza
relevos
translo
cilindro
cuantita
diminuíu
epidemia
epitelio
pregunta
quedaban
holandesa
capturados
licenciado
promotores
temperadas
intervencións
##56
##wel
IN
##zima
Isi
NCA
##quito
##ridas
nano
##manuel
Blues
Milwa
Rocha
cofun
didác
lombo
Froila
inespe
Basilea
deixara
ensinan
rebelde
ucraíno
Ponferra
confirma
olímpica
salientable
consolidación
##ła
##phe
ach
##ciado
##icano
1827
bula
pous
##tables
##tativo
##uxeron
Baños
Tebas
durar
lunar
morta
scien
amplos
cangre
morais
##radoiros
fogares
Tampouco
escolleu
gráficos
intervir
inventou
Tennessee
calidades
coinciden
despedido
guerrilla
lingüista
celebradas
conservadas
entretemento
comercialmente
aC
##mour
Aer
Liu
Xia
boi
##mbert
1776
usur
Enxeñ
Geoff
guarn
minia
Bóveda
Hughes
Inclúe
deberá
hoteis
xogado
Cabanas
Iglesia
Leopold
anfitri
armenio
gravada
ovellas
periodi
Luisiana
centrado
poemario
Milwaukee
abreviado
xudiciais
abertamente
dinamarqués
fertilidade
presentador
significados
##IN
AL
Vul
1790
1792
1793
Cata
diar
lixo
roch
óleo
finou
gripe
nesas
párro
urina
Junior
avanza
défici
videoc
ecuador
seguían
Montañas
criminal
finaliza
Comprende
Obradoiro
cualifica
descontento
democráticas
convencionais
administrativos
##bí
##get
##sus
##vik
##zoa
##áan
##abra
##alla
##mile
##mola
320
RNA
Ree
pón
##e
##a
##o
##n
##s
##i
##r
##d
##t
##c
##u
##l
##m
##p
##,
##b
##g
##.
##f
##v
##ó
##x
##h
##q
##í
##"
##é
##1
##A
##á
##z
##0
##C
##E
##2
##ú
##9
##S
##P
##ñ
##M
##O
##(
##)
##I
##B
##T
##D
##R
##8
##F
##L
##G
##y
##3
##5
##k
##N
##-
##7
##4
##6
##V
##H
##U
##:
##X
##w
##J
##K
##W
##;
##/
##j
##'
##É
##Z
##Y
##%
##Q
##Á
##ü
##«
##»
##–
##]
##[
##_
##&
##”
##“
##=
##°
##ö
##è
##ç
##ä
##Ó
##—
##+
##à
##ã
##α
##?
##!
##’
##ο
##́
##β
##ς
##|
##ć
##ō
##ā
##š
##>
##ρ
##ν
##Í
##о
##а
##ι
##<
##μ
##*
##λ
##â
##ë
##−
##τ
##и
##ε
##‘
##κ
##ê
##ø
##γ
##ò
##æ
##č
##е
##ū
##σ
##с
##Ú
##н
##ô
##π
##р
##$
##ا
##ł
##δ
##å
##ό
##ï
###
##ī
##ð
##ί
##л
##Æ
##в
##к
##η
##ل
##¡
##ş
##т
##υ
##×
##ı
##ă
##ά
##ý
##ω
##ē
##ž
##·
##→
##¿
##õ
##Ö
##}
##φ
##~
##м
##ß
##θ
##ύ
##ر
##î
##ي
##\
##Š
##′
##ή
##م
##€
##ń
##έ
##χ
##Å
##{
##д
##ś
##ب
##ن
##û
##у
##ˈ
##К
##و
##ì
##ù
##Δ
##Č
##د
##ě
##†
##ğ
##ř
##ș
##ə
##я
##г
##±
##•
##ч
##⁄
##С
##@
##י
##й
##б
##Ž
##п
##ь
##س
##ة
##À
##£
##Ñ
##ː
##ع
##―
##Ç
##Κ
##ա
##Π
##ו
##ξ
##ʻ
##œ
##し
##ה
##А
##`
##Î
##Ü
##Α
##þ
##Σ
##ŭ
##з
##ы
##Ō
##市
##ζ
##Ø
##Б
##ώ
##ت
##ę
##В
##М
##ǎ
##ɛ
##ר
##ţ
##ἀ
##П
##ح
##®
##ő
##Р
##ל
##Μ
##х
##ą
##ج
##ق
##Ł
##§
