[PAD]
[unused0]
[unused1]
[unused2]
[unused3]
[unused4]
[unused5]
[unused6]
[unused7]
[unused8]
[unused9]
[unused10]
[unused11]
[unused12]
[unused13]
[unused14]
[unused15]
[unused16]
[unused17]
[unused18]
[unused19]
[unused20]
[unused21]
[unused22]
[unused23]
[unused24]
[unused25]
[unused26]
[unused27]
[unused28]
[unused29]
[unused30]
[unused31]
[unused32]
[unused33]
[unused34]
[unused35]
[unused36]
[unused37]
[unused38]
[unused39]
[unused40]
[unused41]
[unused42]
[unused43]
[unused44]
[unused45]
[unused46]
[unused47]
[unused48]
[unused49]
[unused50]
[unused51]
[unused52]
[unused53]
[unused54]
[unused55]
[unused56]
[unused57]
[unused58]
[unused59]
[unused60]
[unused61]
[unused62]
[unused63]
[unused64]
[unused65]
[unused66]
[unused67]
[unused68]
[unused69]
[unused70]
[unused71]
[unused72]
[unused73]
[unused74]
[unused75]
[unused76]
[unused77]
[unused78]
[unused79]
[unused80]
[unused81]
[unused82]
[unused83]
[unused84]
[unused85]
[unused86]
[unused87]
[unused88]
[unused89]
[unused90]
[unused91]
[unused92]
[unused93]
[unused94]
[unused95]
[unused96]
[unused97]
[unused98]
[unused99]
[UNK]
[CLS]
[SEP]
[MASK]
##an
d
##er
##en
##ar
m
##la
##ang
s
.
p
##in
,
##at
k
t
b
##da
di
##un
##as
##kan
##em
##ah
##al
##ya
##es
##am
se
S
##ada
men
##is
##yang
dan
yang
"
##on
##tu
P
##ga
##ak
##il
##or
A
##us
##lah
##ik
##ari
ke
##ia
ber
K
-
##eng
M
##it
##um
B
##ol
ter
##ur
##ut
##el
##ing
in
1
##di
##eb
D
T
dari
##ara
##ta
##nya
I
##ala
per
ini
##ek
##uk
##akan
2
##ba
mem
##im
j
h
##up
)
(
##ap
##et
##ir
ada
##om
pada
##engan
##ul
##ja
C
##tuk
dengan
##gi
##ti
##alam
##ung
##asi
##ama
L
adalah
un
R
J
l
mer
##ro
meng
untuk
N
##si
r
20
dalam
la
H
##ri
##anya
##ter
##eh
f
##bu
n
##ela
pen
##id
##ahun
##ata
G
##gai
g
19
tahun
##ep
ba
##oleh
In
a
##wa
##and
##emb
##bagai
oleh
c
F
##ab
ju
##ih
##ida
##ok
##itu
##per
sebagai
##ra
##ed
juga
E
##esi
##eg
##elah
or
##jadi
##asa
##uh
##os
##ant
##upakan
merupakan
##ent
##ai
##atan
U
##ong
W
##ebut
w
##atu
##gian
##ula
##ub
##pat
:
##ali
##amp
##pesi
##isi
##angan
##op
##emu
##pesies
##ch
menjadi
201
##ad
##sebut
bah
##ud
##ana
##ot
ata
sa
/
##idak
O
atau
200
tidak
##ec
pert
##ip
##ika
bagian
##eka
pem
##ati
meny
##eri
Y
##ist
##ota
An
itu
##ma
##angg
Per
kar
##ukan
##ilm
peng
##ahan
##ay
tersebut
##ua
##amb
##anj
##od
Pada
##iki
##he
##ic
##ena
##lu
Ind
##eta
##buah
sek
3
sebuah
##diri
##apat
ia
##int
##tr
##esar
dapat
Ar
memb
##ew
as
o
pro
##ag
##gun
dik
##angk
spesies
lain
memil
ak
telah
mereka
dit
V
##inya
##ila
##cara
##aw
seb
##uan
ser
orang
##bang
##do
memiliki
an
satu
ker
set
##esia
##empat
##ian
mela
##uda
##ebih
kep
##apa
Al
##og
##aran
##onesia
##itas
##onal
bahwa
##han
bi
sen
pertama
Indonesia
##th
##ib
mas
##yah
##ili
##ob
##aan
##ran
##ons
##orang
dis
##tan
lebih
##aya
##eber
##dian
##etap
##hir
##gunakan
##las
##ver
##ingga
0
4
Di
Am
##gr
seper
##end
##eberapa
karena
5
##rop
##omp
seperti
Ch
mel
##anyak
##ac
##atas
gen
ant
dip
akan
seorang
##esa
##alan
##aja
Un
sela
##oh
##sa
##man
##ungan
##ingk
##emudian
##asil
##ayu
##li
dib
besar
'
##arkan
bar
of
##le
kayu
##alia
##ov
secara
##gal
##egara
fam
##dapat
##aman
##emp
##ea
As
##uj
menc
##ev
al
##imp
##ember
ordo
tetap
sej
Ia
Spesies
199
##ita
##olong
##enal
##oid
berk
##uran
kota
kemudian
mus
v
bers
genus
saat
##entuk
terg
##lak
famili
##unan
##elum
beberapa
##bit
##asanya
18
sem
##res
##arta
##idup
Sela
##art
film
kec
##buat
##anda
##ont
##tus
##duk
ya
6
##re
;
##ulai
kelas
banyak
##wan
##gu
##gan
##erah
biasanya
tergolong
##teroid
##umbang
##arga
The
terl
kali
menga
##anggal
antara
su
setelah
##aj
Is
##erint
Mar
##unya
##oda
ut
##idae
##lam
##arah
##ilayah
##annya
negara
##anjang
7
##eda
##etak
##unia
##ses
##ina
##eks
tanggal
##ikut
sel
##ulan
terb
fil
Ins
dim
da
berb
kem
kes
dua
##yar
para
St
##ig
##usia
##angkan
Pro
nama
10
##umum
##asional
mengh
ked
##ku
##amun
##ug
##ima
8
pas
salah
##orm
tetapi
bahasa
##tur
Bar
kumbang
pend
Ber
##dom
##tera
atas
ket
Pen
sang
##itar
##erika
samp
asteroid
##oc
Amerika
##ard
##tor
kepada
##iga
masa
wilayah
##ber
the
hidup
pr
anak
9
##if
##ej
##asan
sendiri
Anim
##wal
##entara
Ser
tan
##isa
dir
yaitu
##ola
pemb
##usah
##inan
##asuk
##ingan
##ind
##uku
tempat
##na
##ingdom
##unc
filum
##atang
Animalia
##ef
Arth
##alat
Sep
##inggal
kingdom
##arang
##uruh
hanya
bert
digunakan
##umlah
hingga
Sa
##adap
##uc
##lan
##ki
##ecta
##angga
Z
diter
##ingkat
##yan
Set
##ropoda
sed
##adi
Men
–
##awa
Arthropoda
##asih
Insecta
##olo
##embali
akhir
##enda
##unj
ilm
##ikat
##iap
##era
##ow
##tern
sebelum
##inggi
Ag
198
sep
serta
Seb
tim
##tif
baru
sangat
##ode
Tim
##iah
sama
disebut
##ori
memper
##ini
##udah
Sh
diper
sampai
##asal
##ebab
##utan
umum
##ei
dia
Uni
##ju
##rad
sekitar
##ens
seh
angg
lainnya
##edia
Dalam
put
##est
Col
##ikasi
kom
##uduk
kembali
term
hari
##vers
berh
desa
##angs
##entang
##ungk
Ter
kel
##ebabkan
##engah
##enc
menggunakan
selama
##wah
Ap
##ump
##ain
dikenal
##tar
pemerint
ses
##ha
bersama
memp
pes
terletak
i
ag
##ris
pern
##olah
lu
##akat
membuat
and
##aka
terh
berasal
terk
##itik
##aris
##lat
##va
##bitkan
##ond
Br
dunia
##lui
##amatan
##ulis
panjang
wak
ar
##umah
##osi
##yc
ad
##uka
##ks
Bel
awal
##aten
bulan
berp
##usi
st
##inda
ap
hal
Nama
##ern
daerah
##atakan
##emen
##ensi
##ologi
anggota
lagu
Ke
kedua
##bum
man
masih
Setelah
pol
mulai
##und
##ilis
##ilan
menyebabkan
15
mat
##abup
12
##eja
##abupaten
##pan
pers
berada
197
##aling
melalui
Lalat
##uari
##urut
##alis
Ing
diterbitkan
##ranc
La
##buhan
ketika
termasuk
##erikan
ga
##insi
##ahu
##entu
##ubl
##eop
##iter
bisa
##iran
##ubah
sehingga
peny
##gris
##ys
##me
Jep
Serikat
##yarakat
##erja
Kar
##bad
Da
##istem
terhadap
mana
##ust
##upun
kelu
##uni
##emukan
00
Inggris
##pa
res
komp
##00
196
air
II
17
utama
waktu
seba
Pem
##ine
SM
##ting
har
kons
##ura
mendapat
Mus
##atkan
mil
bagi
##itan
11
Univers
16
##ahkan
sejak
##das
Dia
Desa
Jepang
##hi
berbagai
sudah
##eter
ilmiah
##dikan
##ilih
kap
##ey
##elas
tentang
##por
dilak
kh
bawah
rumah
mend
dil
##bat
suatu
Film
##yak
Mer
ma
##anc
##kukan
##emua
lah
##yi
##erman
bern
keb
##enis
pela
##eoptera
Coleoptera
##egeri
tiga
##antu
berj
##amanya
masyarakat
pernah
Cer
##akarta
13
Namun
##mi
##ell
##ex
##ahari
tum
Ang
##vinsi
##usahaan
Or
tak
##ekerja
##engg
##ill
terdapat
##onom
194
terjadi
##ast
Kabupaten
##ihat
melakukan
##arva
##inta
Ut
##uang
##ord
##teri
Jawa
##iden
##akhir
##impin
Kota
penduduk
##anta
terdiri
ku
##duksi
##ekat
Mes
pula
baik
paling
##ni
##tikan
##buh
kecil
Peng
musik
14
##ober
##uru
##ton
##angunan
##ca
##didikan
##lis
##eo
##ajaan
X
Selain
tinggi
kerus
##awat
##ani
##usat
sementara
%
sistem
##ark
mes
En
terp
de
##angsung
##all
##oph
Timur
##yat
##ka
##uli
Pr
2010
##umi
##angi
abad
##istr
000
##ers
meninggal
Mas
##angsa
##angkat
##anjut
Barat
Kep
album
kerusakan
Selatan
##rancis
##ou
Ker
Ti
batang
mener
kur
semua
tel
##apai
dilakukan
##dirikan
Sek
harus
##lanet
##dasarkan
seluruh
din
##ukup
##ompok
sesu
##ungai
tand
ger
195
ditu
##ity
Jakarta
Jerman
##ation
Kor
##rans
##ambil
Q
##ekn
##udara
pos
kon
musim
##eran
##tt
##ekan
##tiv
Ak
Larva
Belanda
&
##asar
karya
New
menj
cukup
diri
##ukum
Th
keh
Pres
bernama
sp
2011
com
Jan
matahari
planet
##upa
##inkan
##isasi
##utus
##ebor
##land
Ac
##ebang
##unjuk
Dip
lagi
tanduk
perm
z
dih
makan
perusahaan
##urn
Kr
##ulu
So
laba
pel
##qu
##anggap
##ck
Ma
##eae
##angka
##te
##ustr
memba
ditebang
Ceramb
Cerambyc
]
Cerambycidae
is
Ger
berhasil
mengebor
masing
##ewan
Prancis
##erti
at
##gab
##ich
eks
Man
namun
Kec
[
Des
en
jumlah
perk
##engk
lahir
##ril
##ublik
sekolah
##idang
##uta
##ipun
##ubungan
2012
##jar
##egi
##elar
ters
akhirnya
##usus
##kipun
bela
Nov
##ami
##kt
tert
##raf
##ry
##apan
##gram
bentuk
2008
##ropa
Rom
Sum
sekarang
bu
Eropa
pun
dekat
Ab
##akai
##aks
ro
##ampil
Tiong
2009
##aruh
sebesar
##adang
sering
pengh
ka
lalat
tumbuhan
setiap
##eli
##perasi
seri
##api
##epat
2013
umumnya
Ba
##isme
memberikan
kl
##ci
2007
kata
Kom
mod
keku
Sem
##iti
##ebula
##ron
##san
##oy
Band
muda
##ibat
##unyai
Ka
nebula
##ge
berikut
manusia
mempunyai
##ff
##ly
pemerintahan
proses
pasukan
##usan
Hal
sebelumnya
##imb
##ttp
##asiun
##ebr
dem
tu
tanah
luar
##uhan
##arna
kapal
##eral
Mei
jenis
sebagian
##artai
berl
##atat
##urat
Islam
##alur
##asis
Pert
##ho
Sept
mengen
##ban
##enggara
2014
##itab
jar
masuk
Juni
##emba
Le
##antan
Pol
Raja
Car
Pa
Ad
ek
Universitas
September
Diptera
berubah
##gabung
dirilis
Juli
Utara
##ternasional
##omb
Pers
Kat
##iri
Sej
##aranya
laut
ind
lok
menja
Seperti
##inal
Agus
terc
##enar
April
##iwa
pemerintah
Seba
##ne
##ce
##ira
pener
30
maka
##nis
##tas
Desember
##aksi
keluarga
##uncul
##ij
pop
##atif
##ulang
##uti
politik
pesawat
##ahasa
Gr
berma
Okt
pendidikan
2006
Rep
jalan
Sp
25
Ket
##form
Oktober
2015
Kecamatan
##onomi
sum
##ve
kelompok
##utu
##ger
##inasi
India
lalu
diba
raja
##urkan
##antai
khusus
##uri
organ
pemain
##uasa
dic
keti
Maret
el
sejarah
##ator
Agustus
Mereka
##ingin
##versi
Perang
##ins
##to
November
Beberapa
##atur
Sen
##isten
acara
penga
Januari
mendapatkan
menyer
##iet
te
193
id
##embangan
kr
maupun
kal
ditemukan
bekerja
##ess
ins
berbeda
bidang
It
tinggal
Austr
barat
##argaan
memen
bermain
resmi
tok
21
hasil
empat
luas
Dengan
##lo
##gen
##embang
##radisi
kecamatan
cer
mencapai
##unung
##usaha
perang
Bo
muncul
##udaya
##iman
##indah
Dem
km
to
##kok
laki
terkenal
hukum
terakhir
##ukaan
##unt
pusat
kont
dibuat
berdasarkan
##mp
##de
Negeri
buku
sekali
##ikuti
##yl
##agn
dig
http
Korea
tem
##ans
##za
”
Febr
orbit
Li
##takan
Ada
did
##tua
##ftar
tekn
tanpa
wa
##dukung
menyatakan
sub
asal
dianggap
##truk
2016
Ph
penting
##ultan
batu
##aria
##eksi
##dang
on
##fr
bola
Dunia
##ikan
##ilai
##asilkan
re
Keb
2005
##intang
##titu
##ank
##atus
##omor
##yu
dep
##aikan
##evisi
bukan
gr
langsung
Tahun
22
##su
##tudi
perj
##unjukkan
Har
sat
Se
selatan
terbentuk
penggun
kaw
##ungsi
##itus
24
##ish
alam
kak
tuj
lama
##arti
tradisi
komun
##akses
agar
##ahui
sedang
mengenai
Pas
kurang
trans
agama
##anita
##imal
ibu
##uler
##ales
Provinsi
Tiongkok
“
mengg
##iz
##son
Kel
##askan
##tion
##utrad
##utama
##olog
band
kek
Joh
nasional
tubuh
##isan
suku
Para
##ungkin
penc
##fat
##baik
192
##asti
melawan
##bi
juta
##etahui
##ork
##anan
gelar
Untuk
##kup
##tik
Co
##utradara
##isah
ist
=
Februari
utara
klub
jiwa
##mad
art
##arl
Saat
23
menik
Tengah
timur
##eluruh
##iss
Menurut
Nasional
##lami
Sin
##akyat
Air
program
##ward
Mala
##oni
Su
##empuan
Sch
saja
bahan
Ed
##unuh
2004
sesuatu
##adakan
El
##elit
##rom
Presiden
##andingan
ayah
didirikan
Gereja
Republik
Mah
##isar
##ustri
##ulkan
suara
Sur
##ona
##jah
##caya
##alnya
##erta
mungkin
bumi
##tilah
min
berm
Eks
perb
tercatat
pulau
##umen
terutama
Mat
##araan
cara
##yata
##ihak
sumber
##ilihan
posisi
##akar
Sal
sosi
bergabung
Asia
militer
##ros
pec
Sam
##oba
mengalami
##ria
##bangun
2017
De
##orn
John
##kannya
hubungan
##ite
##encana
##atian
##olusi
##onia
##wi
##ational
ja
##ith
Kal
##roduksi
##ore
##agu
##tasi
##tic
##ts
Mal
##ary
mis
##udd
##arier
kereta
##igh
dr
terbesar
##ora
mak
##wak
peri
berarti
##arat
menerima
##ment
pan
menulis
##dul
##anjian
191
##ate
Kerajaan
jalur
##ograf
menunjukkan
##emui
ditulis
dasar
##adaan
mengambil
wanita
##embangkan
jika
sejumlah
##asaan
##etu
seni
##fa
provinsi
##lin
bin
Ge
Ketika
##empuran
ilmu
menemukan
makanan
api
Mo
biasa
tengah
perempuan
##arik
##oto
tingkat
##ampung
##obil
magn
##lim
Kes
pet
kerajaan
##usun
dibangun
##aian
hak
##olik
kepala
##min
lemba
dimulai
ww
##ask
##adem
##ingg
www
##ost
##fer
versi
ed
kol
ketiga
Ked
Sw
##rib
Menteri
Sy
##giatan
Italia
Put
permukaan
Wil
jam
ot
sebelah
##atasan
yak
##ji
##endah
##ampir
putra
##our
26
Sungai
##inc
##eles
Angk
##jaran
tokoh
##edi
Na
##st
rata
100
keluar
27
Karena
##ory
’
sin
pres
##jata
kor
Gen
##entukan
prim
##anding
##ulit
televisi
##ganti
##rat
Go
##arian
##ebar
menikah
membentuk
_
##ensis
for
##io
Ini
Tan
Dari
belum
lima
Ra
Pula
sepak
##ontoh
##gantikan
Min
meningkat
2000
ti
Pang
met
##ideo
negeri
Ir
##udul
Dr
##urun
Pulau
Dan
##vid
Tr
terus
sungai
No
##ulasi
##erintah
##anyakan
##yanyi
pihak
##uju
##idupan
##ye
Kh
##akter
penulis
##ikian
Kristen
##abatan
mut
Jo
Re
nya
bangunan
##ric
##osa
##ld
memulai
##ektur
lingk
Por
Pal
##of
On
##one
menya
bur
Rusia
sedangkan
##ungg
Arab
udara
##tra
##ass
Bahasa
sk
##anggung
Sel
##oksi
##ubahan
pendek
rek
Sebagai
##uluh
##ampu
ep
##ath
bahkan
Kons
28
##enang
2003
##yo
##ungi
SMA
budaya
Te
##atuh
dok
##butu
periode
##eluruhan
##irim
##ohon
##formasi
ditemui
##rip
stasiun
ekonomi
##bo
menghasilkan
Gu
##jid
##ret
##lm
Tel
dirinya
up
menurut
Ib
jaringan
menuju
organisasi
Baru
##inggu
menjabat
##andang
And
##aih
internasional
kun
mah
lam
datang
keseluruhan
berjudul
jauh
##elenggara
diberikan
pertandingan
##unga
##alitas
##ikit
2018
kawasan
Res
mata
##bangan
produksi
##isata
melihat
##ulus
yakni
##mainan
karier
zaman
produk
##eph
##angun
masalah
##unani
sosial
29
na
Partai
##akin
##eum
##uth
##aru
mengatakan
peran
##unda
meskipun
kegiatan
mampu
grup
2002
Sec
Britan
##istrik
##aku
keras
Yunani
Ku
##ukuran
kab
et
kehidupan
bangsa
mesin
##entris
Muh
Negara
Dewan
##awi
cerita
##itudo
Allah
Em
##arn
##yanan
##ase
Kan
##pati
mengikuti
##zi
##ral
##jo
seg
menyebut
##ock
##fikasi
##truktur
membantu
##ash
##uskup
Pemb
##gus
mutlak
##yp
pecahan
##men
sing
Meskipun
belak
sepanjang
membawa
##ema
##ordi
Angkatan
buah
##ilia
Gunung
Raya
sedikit
##yek
##iknya
memenangkan
Com
Laut
##irkan
##via
penghargaan
Sekolah
##antung
Ro
spons
warga
kat
Par
Kemudian
##ampak
Mad
31
awalnya
form
dij
AS
Ha
magnitudo
akibat
York
##operasi
pri
Aran
##elam
##ono
hampir
##erit
lap
kas
mobil
##old
Mak
sesuai
ef
##urg
industri
tertentu
serangan
##uah
Australia
Um
depan
##lahkan
##lor
pertamanya
##ampilkan
##olak
Agung
karakter
He
##rasi
Intern
Us
dimana
##atra
##elu
meraih
mur
?
Si
Sejak
berupa
##orld
Britania
tangan
2001
im
Asteroid
##ordial
Agr
Pia
##imana
selalu
##jual
primordial
##erasi
##entrisitas
##pada
adanya
melip
##co
pemimpin
Hind
ingin
Ol
##ater
berkembang
##isaran
##engaruh
##una
##dan
##isimal
mutlaknya
Eksentrisitas
planetisimal
##isode
modern
Bul
##turunan
##vi
##itam
##ames
kekuatan
##utusan
ib
prof
gereja
##isti
Kap
##akit
##ender
##rik
nilai
##ektr
Katolik
um
Kon
bintang
Im
At
##ongan
semakin
meliputi
sup
##ice
istilah
ik
benar
surat
mengk
angk
##dana
##ilip
##ilang
##uter
Pan
am
##umumkan
Award
Ex
usia
ob
##yol
##alanan
##anjutnya
##ort
rendah
kini
demikian
##se
Lu
##uman
IS
ruang
##antor
satunya
##apkan
##osp
Her
Bi
##urahan
##ugas
##enderal
Muham
data
berw
1999
tujuan
meter
!
##ie
alat
kadang
Isra
diketahui
em
Ta
diberi
video
Dep
mendirikan
sebanyak
##iptakan
Sta
Din
2019
Ud
##landia
Span
ah
si
##gaimana
studi
permainan
daripada
##war
hutan
perubahan
buk
##utuskan
belakang
Tur
Bat
##angkap
e
##alaupun
keturunan
50
keber
$
tentara
##tum
pekerja
##impinan
Met
kerja
mew
##frika
TV
ch
##ceae
##ence
situs
##ambar
Dis
Sk
##anto
apa
##elitian
Be
Perj
##deka
190
PT
Bangsa
sisi
##ysia
kita
Afrika
Sementara
##oro
Israel
Spanyol
##utradarai
##enn
Sup
asli
##ler
saya
bis
serial
kuat
kekuasaan
Sumatra
##iko
##emuan
media
##oritas
##andar
##ino
##ampuan
sal
##ait
##oth
sta
Hong
##lahan
##ella
Malaysia
milik
meninggalkan
Mon
##istiwa
##ars
Piala
##uga
##untu
Daerah
belajar
##ick
dew
##ambarkan
Ho
##edung
Sebelum
##ley
berikutnya
##intangi
hi
##sur
Selama
utamanya
berlangsung
##rid
##ambah
##udi
##anjutkan
##tim
lingkungan
##chi
##dag
Nor
##ez
San
Yang
tua
##rit
##imia
suk
pembangunan
##visi
##aksa
mul
pat
##etik
memilih
diadakan
pergi
Mela
putri
III
##uanya
bertu
tradisional
##ica
##egang
arah
##ubern
pemba
daya
oksi
Kong
World
diperk
##ahanan
##ibatkan
pember
beb
Lat
Sultan
memutuskan
##egori
partai
penggunaan
##awan
40
##adio
Dir
##yn
##lukan
cepat
##omo
Pat
##ondisi
perjalanan
Lagu
ur
##irip
##atangan
##ilangan
##ubung
co
##uangan
warna
University
##istik
Sed
##ood
mendukung
Con
Romawi
##akup
tampil
putih
Stasiun
jabatan
Udara
berakhir
##urus
dipimpin
##egitu
##ame
##otal
##illa
##bak
pindah
sis
membangun
tah
##estiv
##amen
sah
Bad
Yo
##ografi
##enangan
##andi
##gala
Sc
malam
mon
Bandung
Pes
##ren
informasi
##ilus
##dak
##ersi
Sov
mengak
aktif
Kem
Str
tiba
##acam
##ministr
##estival
—
Sebuah
tepat
##upiter
##dah
##ph
##ulauan
enam
##astra
th
##enti
##uf
tugas
##ambahan
Liga
##ewa
daftar
##ean
Pangeran
kematian
drama
str
##gas
Pemerintah
189
##anian
##eluarkan
model
##arm
sempat
##dion
dita
##isip
penyanyi
berd
Cl
uj
##hkan
kaki
dipakai
##AN
##otor
pantai
##ondon
Seri
Bur
Soviet
##atuan
Diakses
rakyat
lokal
Alk
bek
berisi
Qu
##andia
mencari
Tak
berper
##ergi
jatuh
Kaisar
##mat
##luk
kontr
Ben
berg
log
##oa
penj
##ahaya
bersi
##atatan
##ubernur
##alon
kamp
Ah
London
##elis
teknologi
y
Perjanjian
Maj
gaya
berwarna
Mesir
##ampilan
##iaya
tangga
uang
##lum
Kepala
##ega
##let
##iring
##yakit
ko
##pura
diproduksi
##amaan
##enarnya
memberi
1998
disutradarai
kemampuan
Tip
terpilih
##asiswa
fak
berat
memperoleh
##PR
episode
##sy
##II
Mic
kam
Pet
mantan
pasar
ayahnya
Muhammad
Geor
My
##bon
Po
##oli
Yes
##jem
nomor
penerbangan
pin
##50
ikut
##anjung
##asikan
contoh
##NI
Jalan
Orang
Internasional
debut
Bal
1990
##daya
misalnya
ikan
barang
tulis
##atis
bala
##tivitas
perkembangan
##go
Yog
##rah
populer
Budd
##age
##andung
##etri
##ehatan
elektr
##evolusi
##jak
efek
##lus
Ko
##ital
##gerak
garis
Mich
##uncak
##tis
bertemu
Secara
##abi
hewan
non
Pengh
##eth
##elenggarakan
##jek
##etisi
ahli
##ten
Album
##amanan
bunga
Pendidikan
##ahudi
##uskupan
Han
jawa
Yahudi
terbaik
##dus
mencakup
berdiri
lokasi
##den
bantu
##yakarta
##les
##engahan
nov
merah
##etapkan
Tidak
ta
sh
perh
##abang
Bup
Laba
keter
##artemen
dibentuk
##badi
kasus
##ool
May
mudah
##ijakan
Yupiter
ulang
fis
##ajalah
Trans
##liam
Singa
##ifat
Salah
senjata
##epatan
Alkitab
##amai
Komp
menggantikan
##erik
##anakan
Tok
Wak
##dam
##empur
sar
International
par
##buatan
Yogyakarta
ac
gerakan
##sh
operasi
Araneae
##andingkan
op
##alu
##lob
##titusi
ala
##adar
##can
188
##20
penuh
##rag
Keka
sana
familia
memakan
##ilidae
pot
pertanian
Bro
hid
Agrilus
Kalim
meminta
##askah
panas
kondisi
##raga
menampilkan
memasuk
Fr
Bali
antaranya
menarik
##yangkan
sekaligus
unsur
##ingkatan
##bor
usaha
##lawan
mati
##aturan
##tih
rep
Terbaik
sakit
##dagangan
Ne
##elesaikan
peristiwa
dewasa
##orong
Es
begitu
li
teman
##elapan
##airan
diakses
##ungkinan
##likasi
##ukul
tertinggi
kaum
agr
tanaman
##uruan
##ney
##ilik
Ketua
##omy
unit
##yam
Roma
1997
##ement
##ediakan
Ga
Aceh
##oma
proyek
##ominasi
ialah
Cor
pohon
##ual
##jang
##ack
sebenarnya
##etah
duk
int
##alif
menolak
menjalan
keadaan
fungsi
Jos
tern
Pusat
penelitian
##RI
##AS
##tian
##baya
pertempuran
##erang
meningkatkan
##iling
##itur
##iae
##hanc
Sula
##arap
Mc
##laman
Comp
Fak
keduanya
Wal
terlihat
diangkat
##odi
bantuan
saudara
William
wisata
##istan
Pend
Hol
penyakit
##fi
hitam
Gre
struktur
##uncurkan
gambar
##enteng
total
menempat
##asia
Jenderal
##eorang
Pak
Fran
dila
##jaya
##ultas
##elola
kuno
##der
##itif
diambil
##osisi
dif
##ungkinkan
##arikan
##iliki
lembaga
inter
leg
pengg
Ja
Kalimantan
##ania
gel
##lahraga
US
Eur
##els
babak
Kekaisaran
gol
##ganya
anti
##abat
bisnis
tr
##ign
##ikahan
##uhi
##oks
daun
##che
##bagi
##atal
menyerang
guru
khas
layanan
##apun
presiden
pendiri
Abdul
##hana
pemilihan
##FA
##uskan
##andangan
dar
##BN
##its
##elaskan
City
Undang
For
der
berf
Tekn
##lik
berjalan
jarak
##uali
1980
##unggal
##ikel
titik
sifat
kabupaten
##tain
##enalkan
##icara
Fa
pria
##enaga
##asilitas
Mil
berusaha
Gro
dag
##uruf
Kol
Pela
merilis
ref
##lasi
Unit
perangkat
Banj
berbentuk
oksigen
mengembangkan
teori
Lin
Astra
Kedua
rasa
##ribusi
kimia
##eld
Muslim
pengembangan
Den
segera
mengalahkan
Sang
keper
##inyak
##irakan
Wh
ge
ken
##mar
Bl
##umpang
Kam
##udukan
##epas
kemungkinan
##ke
seseorang
1996
Wilayah
teks
tinda
Sura
Sing
Pi
novel
##erdeka
##yani
1995
##ight
##ospong
##edan
Me
Win
listrik
Besar
dibintangi
Sri
##ale
tur
melanjutkan
##oll
##amat
Pur
mengirim
tampak
dana
+
Kumbang
##ner
Rakyat
35
komputer
##jau
terlibat
##anti
mencoba
dah
Yesus
##luas
##esif
pengguna
##jadikan
##endali
##engaruhi
rela
us
##any
##rus
bel
sur
badan
##etahuan
##esis
mirip
##dir
Rober
##ony
Ros
mengaku
Penghargaan
##alau
gi
Jika
namanya
##opi
##burg
##rich
terla
benda
selanjutnya
dikembangkan
mengubah
pra
##ect
peringkat
##ox
##ven
##are
burung
uni
1994
Mul
batas
Ki
administr
Press
##jad
##abel
dijadikan
istri
Zh
ri
##sen
menghadap
memungkinkan
membunuh
Berikut
Chr
memimpin
##butuhkan
##onton
##antik
jelas
terkait
tip
kend
##tup
perlu
mempert
energi
##iru
selain
James
##uci
Hen
##af
penguasa
Hari
merasa
##eus
Kepulauan
##ire
plat
Suk
es
Ameri
web
##galus
500
Sebagian
Astragalus
gunung
khususnya
##erv
konsep
pengaruh
status
mengumumkan
Filip
Af
SD
##tes
Umum
##lay
##inggian
Sedangkan
kebijakan
##erahkan
dom
tumbuh
##usa
fr
hadi
##unjukan
Ep
##ular
##ford
##iau
Ham
merek
hati
##48
Mis
60
elektron
Vol
lahan
187
Er
Studi
Cy
Kris
pred
##aph
juara
Surabaya
##was
kantor
Az
gagal
##uki
Banyak
##agam
perp
pasangan
pa
Dua
97
belas
undang
##aksud
##ee
##ham
##erus
judul
##aram
##elak
Tenggara
Tro
Adi
inv
##egun
perdagangan
##ihan
Bandar
Mel
##sit
by
32
Bu
##iksi
profesi
Os
##hoa
menciptakan
kitab
gedung
huruf
##otel
asam
serangga
##wang
Pertempuran
##edaan
##isahkan
singel
##ute
Prof
kemenangan
##use
##uasai
pertengahan
##erdekaan
indi
bebas
naskah
kulit
##wesi
publik
##tein
Kun
dibandingkan
Paus
Institu
##gak
##uhnya
##ahankan
Myc
##ty
##iro
pu
siap
##ipta
ide
aktor
gas
maj
bertahan
Bank
##tip
Tinggi
Latin
univers
Alex
Charl
##umur
pad
David
adat
Pap
1992
##itasi
kul
##aki
tanda
Singapura
tambahan
ab
##ophyl
Festival
Ali
##arlemen
##ide
populasi
##ugh
majalah
prak
Sun
ISBN
berla
##gia
Tionghoa
radio
##efin
tujuh
Sar
bersifat
Paris
inf
berita
mengandung
##dis
umat
Ek
catatan
Kur
pribadi
anim
##ume
Taman
upaya
Demospong
darah
Demospongiae
##amakan
##ews
Hist
##10
##ings
berusia
##eni
sukses
Pri
##ester
##leks
Mart
##juan
minyak
1993
##uel
##laim
##bil
##mer
##egunungan
##har
##15
##alik
may
##aceae
Sulawesi
##impan
##alaman
ketinggian
##ade
berbasis
Tai
Sim
##empatan
dimiliki
##angkaian
seles
pernikahan
##tm
cabang
##unyi
Mark
Sm
DPR
##zim
##ambang
Program
##ando
##upacara
##uat
##ujud
##uss
pp
##itra
edisi
##ujan
upacara
misi
Dinasti
bergerak
##engar
##oko
##emat
##andai
War
komunitas
perc
membuka
ukuran
##ektor
##umb
##pun
des
keempat
Kitab
tunggal
Tom
186
Kanada
Museum
terd
Mu
1970
##val
menyerap
Ratu
kela
##ero
terlalu
teknik
Mor
##enter
##akaian
turut
##gh
##abis
Buddha
selesai
Maria
kelah
berperan
Park
dipilih
standar
jadi
Ur
tersedia
SMP
kompetisi
##BC
##nam
dibagi
kesehatan
##lop
berc
##trik
Ist
konf
##itung
##okasi
ditayangkan
##dow
##abila
Rh
murid
##oman
##agus
##own
dek
##usak
Nomor
Psy
terbuka
rem
##arg
##ato
final
terbang
Rumah
##fik
sik
produs
Mi
menit
Komun
temb
kepem
Do
kisah
kan
kebanyakan
Portu
##line
kalangan
neg
Gubernur
>
##ainkan
##ial
##pir
##itis
menyelesaikan
##tihan
kelurahan
mengur
tindakan
Bla
dial
Robert
Polandia
Masjid
kendaraan
1991
##bah
menyediakan
masjid
turun
peserta
##ophyllum
Hindia
##andan
##erj
ped
perjanjian
##ektar
jawab
##evi
Gar
##itt
##ical
##ombang
80
##ekanan
dukungan
##erita
intern
istana
##ujuk
##gn
##jana
##wakilan
bak
##intah
##yst
Fakultas
Bumi
33
menggambarkan
##ue
##resi
##jari
Turki
##aca
Miss
1945
##tris
Dar
##ace
fasilitas
Soc
emas
##uma
Bulb
##chot
##ush
##andatangan
penumpang
##porkan
1960
##antara
tulisan
Mem
Mari
metode
Filipina
##KI
peda
##ejabat
memainkan
aliran
##uhu
Rad
Pertama
Tuhan
##eved
alasan
dewa
bersa
dibuka
##pen
distrik
##alisasi
mewak
##uji
korban
kategori
petani
##ese
keka
no
Meng
##yawa
##ui
##ontakan
##pek
##urnal
You
##bangkan
Hy
##isir
tep
puncak
##tifikasi
Melayu
Rich
Ilm
biaya
Bulbophyllum
bus
Mod
Terdapat
##hancurkan
Carex
terj
##butuhan
agresif
perdana
Austria
Kemen
##abrik
We
##ipil
kebutuhan
Paul
memakai
##erm
mo
##embatan
dahulu
pekerjaan
##jur
##embaga
sus
##okus
van
camp
mahasiswa
naik
45
Chris
##etrieved
RI
##ikiran
##okrat
minggu
Ca
Organ
Kebanyakan
Berdasarkan
##ultanan
##ambahkan
kalinya
diselenggarakan
##ram
##aha
##ewat
diam
aktivitas
##bel
rekaman
Akhir
Daftar
mol
sastra
##engkap
manaj
##osis
##yanya
bl
vok
menda
pukul
Awards
##by
##ling
htm
Badan
IV
diterima
mengadakan
##ongk
##onis
##ewas
##emuda
##sk
x
mewakili
perl
dat
##egal
##ayaan
##eman
##asinya
##ny
36
##kuat
predator
Lib
Sistem
Eng
angka
rencana
##unjung
pembuatan
##TV
##eritakan
asing
seder
##jib
disi
reg
Buk
##ologis
##alisme
Sab
era
semb
desain
Ri
##edakan
##elang
Ibu
Bers
##urusan
##eidae
##jukan
##arak
##enia
Super
ibunya
hujan
##ear
keda
##atnya
Peter
##sikan
##engkapi
##zh
Bab
berbatasan
##oris
FI
mengetahui
pengetahuan
bila
Mur
Satu
##ander
memas
##berg
diikuti
Keuskupan
Pel
##TA
segala
##alang
##guruan
##jadian
Peny
All
##sik
##ft
materi
National
Sir
part
saling
Perusahaan
berumur
strat
difusi
dilaksan
##urnamen
menjelaskan
lem
##my
Oleh
##sch
siswa
eksp
top
##30
##jualan
ex
Sat
Sejarah
cm
Bagian
saluran
Enter
##rani
memasuki
Ari
dilaksanakan
United
tewas
profesional
lulus
kecepatan
##adah
1950
Bay
tenaga
##arapan
70
macam
Mag
makanannya
##akah
mengeluarkan
Academ
percaya
setempat
##intas
menjadikan
China
objek
##umpulan
po
To
ula
##krip
Sub
##dilan
TNI
digantikan
<
##ubungkan
individ
##ink
kehilangan
keputusan
Mac
vari
##anaan
##eku
gug
##yataan
antar
Cr
Wakil
##anggil
mempertahankan
Kim
##onen
olahraga
##lobal
##imbol
komunikasi
##indungi
##no
mencetak
##SI
berpori
Pra
Lo
##ewati
##utup
tertu
Cina
Hukum
##anye
diant
Ob
Suku
##unjungi
oper
bukti
memperk
##enakan
ataupun
##atasi
ujung
dokumen
pimpinan
##inus
##kop
Divisi
Tanah
Ilmu
##efinisi
##omba
##ental
Bri
Lov
kecuali
##une
1989
38
Psychot
Cir
34
obat
tahu
Fer
Psychotria
##ukai
perbedaan
##osiasi
##ael
##omas
Jalur
##amin
bekas
walaupun
##uduki
putr
berpen
Charles
aplikasi
insting
berkata
Ban
so
##indahkan
##elajari
cinta
ben
koloni
delapan
##utar
tapi
merujuk
ajaran
kontrak
##bau
George
##ille
##ild
##alem
kot
situ
Walaupun
Padang
Ass
Beg
Uk
kos
kritik
##ott
penda
terbatas
##we
kode
kelahiran
Asilidae
Rec
##atik
penja
##ile
##evel
generasi
menganggap
pejabat
##uddin
Samp
calon
vol
##alisis
Ras
##entikan
lar
##cha
Tetap
reaksi
##faatkan
Il
Can
Dend
kabar
buatan
kemerdekaan
##tro
universitas
##ington
terbagi
disebabkan
##que
menghadapi
##ajak
hilang
perbatasan
‘
sens
halaman
kampung
Retrieved
Jaya
kompleks
##amu
Setiap
Bomb
90
me
beroperasi
##ulat
##way
Ox
kepad
Comm
jasa
memang
Bill
##tida
puluh
lemb
bagaimana
##ower
##hann
menang
Ant
##esu
Gi
diperkirakan
ditetapkan
Anak
##angat
pertemuan
##ology
##insip
##aliforn
##ere
Art
Angg
Viet
Perdana
##zz
##amah
wakil
cahaya
##kapai
##amil
sulit
Ci
lewat
##hail
penampilan
##robi
##eck
pintu
menging
melayani
##andatangani
alih
##lar
Fed
Lou
##ometer
##elan
harga
penduduknya
##truksi
hlm
Grand
menentukan
Bh
##ome
##thoph
Lama
memenuhi
##okan
klas
persen
##eliling
Michael
##yli
##ambut
##ition
##alifornia
Kab
diantaranya
##irus
##alin
arsit
Pener
Semarang
##thophagus
##opsi
##ferensi
Kl
er
##kota
##pirasi
Tanjung
##dayaan
dikar
##jil
dihasilkan
##egah
spesi
1988
fitur
dikirim
##NA
##alian
##tainment
tahap
ketua
##ole
kira
kesempatan
memegang
##ert
##isipasi
Onthophagus
Rah
BP
37
Val
Departemen
Up
Bos
dilihat
pendukung
logam
Anth
##ko
rah
Sunda
Tor
foto
##angkah
pabrik
mengund
Academy
##ene
##12
##tumbuhan
##ilu
##endera
lebar
berfungsi
Stadion
300
Apol
ternyata
dipas
##ikir
##dy
##ingkali
Putri
massa
California
suhu
kursi
berhubungan
Ven
sutradara
ang
##atikan
##cayaan
Star
Publ
##ux
bakar
Champ
rekan
sederhana
Del
terpisah
##anga
American
rump
##kh
##onel
Music
##ikasikan
Jac
sisa
##anji
##itor
lapangan
##amkan
##baikan
Vietnam
pah
Semua
membuatnya
##empuh
##operasikan
Kej
##alib
Tra
##cu
##gang
memproduksi
Awal
Coll
Lee
sini
member
##ras
Du
Pasukan
penjualan
musuh
##umpulkan
sul
Dana
##oki
##terian
perhatian
##esh
sebutan
##elamatkan
Suci
##angsaan
##yon
keju
##mada
Contoh
lun
polisi
atom
Bra
org
##AM
sayap
artinya
berkeb
Adipati
School
##40
single
##cal
imp
Bala
Hak
##jen
Tetapi
samping
disingkat
##ze
mengi
mm
Sil
saud
Pop
istr
kil
##bar
1986
akadem
##ucing
##anth
Hongaria
##etoph
fisik
##untungan
berjumlah
bertugas
istrinya
##ike
Ev
##yal
aksi
Tang
##AR
Buku
Brasil
##ecio
semi
Perk
Mycetoph
nuk
lengkap
berbahasa
Hindu
##11
Cap
digital
diranc
mili
dibawa
mengurangi
mit
##intaan
##bul
menengah
##port
Swedia
##TI
##usnya
kebu
ris
Tiga
Cal
##oi
##ebasan
pemenang
luk
angkatan
##epak
dirancang
##red
tekanan
ribu
##etron
1987
##wood
Jumlah
senyawa
##itual
ditempat
##ahat
##unggu
##car
area
1985
##aji
Istilah
Bog
kalah
melewati
le
berhenti
Fre
hijau
terbuat
Surat
sipil
pandangan
Kementerian
Kas
melibatkan
daging
disebutkan
layar
pengan
Frank
Bupati
anaknya
pembentukan
Bang
South
##laku
##ukur
Senecio
Troya
faktor
##embak
kiri
studio
Jon
##emar
##angit
Fo
##ude
Dew
Fri
kanan
rel
##ukiman
Roy
individu
##hailand
Kelurahan
##robium
Dendrobium
##ife
Ken
Thomas
pertunjukan
Entertainment
39
##lad
##angkit
##kin
##poran
kaisar
diluncurkan
##yangan
Bombyli
Black
Musim
kontes
##BB
Persia
##imen
Inter
menteri
185
konser
##imbulkan
be
Vic
Don
Maka
Hasil
keluarganya
pil
Thailand
tema
simbol
Gal
##ikal
turnamen
##empa
West
##bia
1983
menurun
##asitas
html
taman
##bert
Apollo
1984
##lav
with
Group
##egan
##arawan
##inj
##ism
kariernya
dian
Henry
History
Eric
##epend
potensi
Yay
karyanya
Pos
menguasai
##nu
Let
artis
##inet
dingin
pemberontakan
##ations
seringkali
Iran
konflik
dikatakan
sign
##ics
##wira
gadis
##ormasi
off
tra
##inding
tari
##ium
##akh
Lap
Ver
Penga
keamanan
menjaga
##portasi
##olongan
from
seminggu
##ustak
menaw
Distrik
##ake
Kesultanan
##iade
tipe
Uskup
##lom
penonton
apabila
Richard
Tu
Kaw
taw
aktris
positif
Bol
Ng
con
setengah
##alap
Media
praktik
##ll
##mark
##emuanya
ajang
diperlukan
del
Luk
##orium
Karya
##elompok
##ridge
##ingatan
pelabuhan
|
Abu
##ingkan
FC
##omyza
ha
Ibrani
##ito
tab
##vensi
##wasta
dilengkapi
mengal
##juangan
melarikan
UE
pang
kakak
Begonia
Sosi
kepercayaan
Mos
Papua
tertua
menyebutkan
berkebangsaan
##ates
##eria
relatif
Sol
Mana
memerintah
##wai
##jurit
panggung
Irlandia
keuangan
Tar
News
ras
go
bes
membeli
senior
menempati
##uara
pertahanan
Kata
##ker
meman
perintah
##ebon
42
peningkatan
##duc
##ps
membutuhkan
Pot
bangs
sebab
molek
Agama
kebudayaan
mengakibatkan
##rogen
miliar
##ashi
Christ
ciri
##tual
##utif
diubah
##apak
Anda
ph
##ksanakan
mendorong
##entitas
sehari
mempelajari
48
##edak
##lawanan
Fir
prinsip
antena
urutan
dijual
Banjar
Eug
tet
##bai
Mont
lanjut
##uto
##impiade
sebagaimana
##entasi
##ersial
##ops
##egis
Teluk
Bas
memer
##ance
Ayah
pengalaman
##eliti
##19
Wi
bet
Nya
berukuran
Hab
1982
##yarat
pertumbuhan
ir
melam
Darat
##dik
##iyah
Nag
merebut
Pl
saham
menduduki
##osh
kopi
##van
##udus
##cus
##ormatan
##din
##gar
Tentara
Window
laporan
gelombang
##nan
komedi
komponen
mengajar
Gold
##retaris
Lan
Berb
Van
regi
bersamaan
##ustakaan
menjalankan
lunak
mengus
pilihan
##olos
hidupnya
##PI
Keh
pesan
Nur
Kelu
diaku
lib
dokter
##undur
Pe
Inf
Daya
Flor
satelit
menawarkan
Yayasan
menghancurkan
hib
mengatur
Sis
##jemahan
##rak
##dari
Champi
##lian
##udut
##iapkan
akses
55
Hel
serupa
Istana
##BS
##13
Tw
##oo
berka
jangka
berlaku
Injil
Masyarakat
pakaian
Hi
bertanggung
##olf
menerbitkan
##amad
pegunungan
Sci
##elur
PS
toko
makam
jarang
##len
berkaitan
perairan
##etan
##chus
ringan
##abiskan
Kali
##ves
##18
##ope
dima
Windows
kejadian
Arg
1979
Cyper
1981
Sid
hadir
Red
Akhirnya
##erikatan
Aug
Cla
benteng
##IN
47
##arto
Batu
##ES
##yatakan
ayat
melaksanakan
##elap
##mati
diumumkan
##ors
maju
#
##itz
##umsi
##ulunya
wafat
Rob
Bak
ca
Sumber
Tri
Camp
dulu
Penduduk
Sl
buruk
produser
##asasti
Law
u
Los
Santo
##16
Pembangunan
##ct
demi
Masa
##damaian
Rp
Swiss
Jul
komersial
##hanes
##ury
tersebar
Utama
##reg
hist
pulang
swasta
Bon
##ster
pemeran
##yakini
Tokyo
sepen
tiap
##ugerah
sepuluh
kualitas
rat
Love
Ul
mula
##erjakan
rum
Malang
##14
duduk
etnis
75
##raph
gitar
pesisir
Sak
##jemahkan
Organisasi
nektar
Ni
##ise
##enian
##wakan
artikel
digambarkan
Bupres
berbicara
Moh
Atas
Ahmad
Bant
campuran
Ref
##row
pelayanan
skor
menimbulkan
Dusun
1978
##erintahan
Pantai
##epon
mik
nominasi
##oci
##oides
Akan
##gis
##oft
##rica
mekan
ditangkap
kami
inilah
pelangg
##eper
kaya
mengangkat
mau
##atiannya
##ystem
##25
mayoritas
menghubungkan
##okrasi
##zin
##etuju
Cent
##asaran
menyan
apakah
##ebunan
##okter
Perserikatan
##ebat
dinamakan
Gir
kuning
Taiwan
##antinya
didukung
Scara
##ontak
##esta
Cirebon
Op
ne
keberadaan
##yur
##kah
Vi
##linya
Scaraba
dimasuk
keker
##alatan
Tuj
Alam
##eet
##antas
lembap
##arno
##safat
teb
melindungi
dusun
dinyatakan
##lir
##aton
##grasi
Akadem
Selanjutnya
du
Bah
##tidae
##ungkapkan
##ture
pingg
IP
tempur
##indak
43
##urang
polen
##juk
bangsawan
dikeluarkan
alami
##akaran
##mon
pemilik
##indungan
br
Raden
larva
##elakaan
Cur
##po
Medan
##andu
##patan
Times
Bahkan
##encanakan
Day
Franc
patung
kampanye
menyanyi
dimainkan
Bombyliidae
Situs
##asama
##ii
##mus
##ematika
##entingan
mengakui
##ago
Top
menjalani
Sus
penya
##pe
##60
##sion
aku
Kek
mencegah
Pemerintahan
klasik
##antren
VII
##bal
karbon
44
prajurit
kuda
##ekor
##sman
##board
aks
ditunjuk
kuil
kilometer
##orit
dipercaya
Ram
lintas
Komisi
Pad
##unuhan
diperkenalkan
sarana
##trak
Pic
bertelur
##vel
##esan
Champions
##nes
maskapai
anj
mundur
biru
Ts
vokal
dataran
mengunjungi
##uck
mor
sekitarnya
##win
##erusalem
##be
cok
Song
Kristus
formula
400
lukisan
##arisan
##tin
Asp
sektor
menjual
rangka
lapisan
Olimpiade
##ephrit
##untut
Eli
latar
180
Semen
puisi
VI
##ogen
Bersama
##lahirkan
Lembaga
Ath
##AT
##guna
##rok
##omotif
diciptakan
1965
##ref
##isk
##unci
1975
Genus
##romosi
Teknik
https
sudut
##hta
Keamanan
##imbangan
##arapkan
rock
tepatnya
rute
##weg
Bogor
##17
langit
##ario
Has
adik
##oran
Tephrit
pelaks
Dec
PD
##arki
##adu
Pasi
fiksi
Seh
##ukis
Lalu
Majelis
##otong
Dani
putranya
sil
##atorium
49
disiarkan
Ya
##omi
signif
pul
unik
pedagang
besi
menyelamatkan
##abit
##ult
##los
lawan
##ser
kelima
##endak
seluas
museum
Martin
her
##ght
dimaksud
perguruan
##etujui
##obi
med
Seni
##tions
##egaraan
Buprestidae
rasi
##ges
Record
molekul
Pemilihan
Ukra
kesa
Bulan
diakui
cur
Bib
1976
Kn
Bintang
Pon
##arkas
##wab
##hluk
dimasukkan
Philip
Industri
Tipula
Che
##ahami
aturan
Anggota
Victor
Fin
##eksiko
Kantor
dalamnya
##aminya
motor
Av
##elih
divisi
##emi
##lih
sy
##for
terbit
##irm
##indung
##aliknya
Dom
##yaran
Ori
##arai
Khan
##romosikan
##organ
remaja
##indahan
didasarkan
##uhur
Gra
##osok
was
##ubang
berpendapat
183
ganda
beserta
transportasi
##cher
lamela
beragam
FIFA
ditempatkan
##anjutan
Meksiko
##chn
##arget
menghabiskan
Saint
1974
Operasi
##80
perwakilan
##ico
aslinya
berganti
penyer
Kamp
melainkan
##ider
##24
##indari
peralatan
Scarabaeidae
peraturan
kuliah
bank
kepentingan
Grup
dira
aspek
Yohanes
menceritakan
semen
##ER
il
Rock
pengganti
kepemimpinan
##cel
menikahi
##ress
184
##ekutif
darat
parlemen
boleh
uskup
##ason
ton
signifikan
06
Fi
Ekonomi
##utip
ekor
Danau
Anti
semuanya
##mos
##artisipasi
raya
dibu
langkah
##ege
sepenuhnya
tik
##usantara
keuntungan
##trol
Jadi
##igur
pola
##dirinya
kucing
Yu
telur
Mong
tepi
melah
Wa
Bus
Pakistan
cender
Keputusan
1973
kalau
##lasifikasi
##erintahkan
Cinta
##arnya
balik
terjad
lel
##inginan
singkat
lantai
##entrasi
situasi
arti
##asilan
gag
##ept
07
dilahirkan
Institut
suci
induk
memerintahkan
##saan
Kir
liga
mengumpulkan
Company
manajemen
Lampung
UN
tulang
mencatat
##isian
perwira
##ett
pasti
##rian
dinding
Samud
##ado
sembilan
administratif
##ikh
1967
pendapat
diperoleh
permintaan
46
tuan
sinetron
##uary
##andra
petu
##ograph
pembunuhan
##omun
Wah
kej
Bag
1977
##alifikasi
tamu
##vis
Sah
pam
Adam
angin
tergantung
##ocok
Will
##ilaku
##pon
1972
seksu
##pl
Miconia
##als
##ily
Seorang
##yr
ver
Ik
Brit
##ambi
Form
Kapal
##zo
Louis
##ependen
##okok
melahirkan
imam
qu
ditutup
satuan
##enam
Aku
bo
Meski
##angani
mengklaim
Demokrat
##olia
meri
berpartisipasi
##ebaskan
sim
inti
##tant
150
Akademi
Denmark
##ogle
makhluk
Tephritidae
efektif
mengej
cenderung
Id
Berk
Oxford
hukuman
##chen
Andr
##epaskan
DPRD
Palest
Hingga
##egas
##mo
##ucu
Teknologi
Manch
##89
##usul
57
1969
##ancam
##obatan
animasi
Amor
Net
kecelakaan
Hon
pelajaran
Max
Kelompok
dibunuh
Nabi
##alahkan
King
Sebelumnya
mu
Edward
##ull
jembatan
Jam
##27
##gunaan
Tapi
danau
##mikan
bendera
##adai
penyelenggara
Anton
rumput
berkuasa
##lima
menandatangani
Enc
pemuda
net
menekan
semacam
##ihkan
pengikut
aman
1968
Belgia
##unisip
Kampung
Wash
1930
Utsman
Nob
putaran
##angkalan
Joseph
##ano
##IS
nuklir
##ternatif
Wat
1971
##ehi
##enek
arsitektur
sambil
Kongres
Wali
Harry
##enaran
kematiannya
Sant
daratan
##idaceae
Center
Akibat
##adapan
perkebunan
dinamai
Dewa
menentang
sir
##aro
Off
Sya
##anggu
kertas
##inia
1963
Gerakan
1942
Dasar
pernyataan
dist
tahunan
05
##erian
global
kapasitas
menangkap
menetapkan
53
Versi
lihat
1966
Pasar
Berlin
Cons
Life
##ondok
prom
abu
Gedung
65
Pla
Camb
tata
elektronik
Aspara
Karang
bandara
##gales
Eugenia
##tod
seja
North
Tipul
suaminya
##gaja
membu
Kereta
##ats
disk
angkasa
##rick
Dic
##esor
dibawah
Tab
pac
Putra
##araf
##sian
Asparagales
##cht
##wati
terjadinya
ditampilkan
##urangan
Revolusi
Reg
dipindahkan
mengacu
##ense
##dat
Nap
##ote
Jean
##ulusan
suka
##etakan
Mir
##endalikan
Int
##umpul
##mas
Linyp
Dj
Der
Hall
dikarenakan
##odal
1940
##ukti
##entina
Green
PP
##hat
Lab
##yclop
subs
##seud
##aktif
agak
ev
berpengaruh
##cess
##toran
##ebaran
ditentukan
bayi
##uas
##elli
lepas
##atar
##elilingi
radi
mengan
##eder
Best
##ancangan
saudaranya
fa
1962
Portugis
##angguan
##eon
diganti
Ji
Pin
Mr
##awatan
menetap
Nusa
##bol
luka
penjara
sejenis
##ariw
Timor
teater
zat
##anggota
##ekuensi
##án
##hiri
##ormati
punya
menak
mempers
sarjana
kejah
stadion
Yerusalem
##iety
perjuangan
##22
Tipulidae
rangkaian
08
##irik
1964
##ullah
astr
telepon
Cha
Ray
Washington
##alo
Merah
##sinya
seniman
pendapatan
##ormal
ruangan
##egawai
04
dll
Purw
##vari
##vin
CD
##osen
keag
dewan
UEFA
Lam
Nas
mendek
Ash
direk
##gabungkan
tank
kejahatan
bukit
Acara
Mars
ilmuwan
Fred
##num
poin
Dewi
Imam
##imbang
Orch
##wat
pelatihan
memperkenalkan
fin
sam
##olis
Myr
tampaknya
##onj
penerbit
bertujuan
Ok
Med
Web
jenderal
##mu
##estasi
Skot
pensi
##isinya
dires
##unisipalitas
56
Kudus
Vir
label
##udayaan
kering
09
##itch
Kelas
Tour
menutup
bertindak
03
##ision
Associ
Soek
##hiidae
mengungkapkan
##eligi
anjing
takhta
##ukses
sc
prop
##ele
64
##ahas
dinasti
menyadari
##21
##ujian
PBB
##emia
##omen
##OS
One
##arung
1948
Pasifik
##hani
protein
Inc
1949
beda
Hu
mengin
Linyphiidae
menghindari
##zah
Mycetophilidae
Perb
##alas
Paulus
##app
Kont
gelap
ikatan
##du
##embalikan
##ure
KA
und
pengadilan
##ariwisata
seti
keuskupan
Ky
sapi
refer
##rey
ungg
##elamatan
administrasi
landa
Bandara
°
diduga
Kebudayaan
Parlemen
Skotlandia
perilaku
internet
Pu
Angeles
##nah
balapan
Radio
menempatkan
##ebo
59
##hip
Sampai
Chi
##ungkan
##ropis
diplom
Raj
Dam
Gun
Keju
##OC
siapa
Hanya
Tah
alternatif
mi
##roversi
menambahkan
##okteran
itulah
iklan
gagasan
##ters
nasi
lembab
##23
diad
alk
mini
letak
memuat
perlindungan
hotel
lolos
koleksi
didapat
Musik
independen
##uktikan
seksual
armada
##elahan
Micros
dampak
volume
##rac
maks
##omunikasi
Stu
Irak
Count
Peri
Francis
Nusantara
Palestina
Proses
##26
peringatan
##MI
dekade
##odo
Awalnya
Hotel
gubernur
Gad
habit
##onan
1946
##eve
jantung
menyebar
mengaw
##ejo
fen
dialek
##RT
rilis
setahun
Royal
super
Nar
Alli
Direktur
gigi
College
Bis
##abeth
ment
Mulia
##med
pembalap
##ous
Maluku
membaca
Keluarga
elemen
Pesawat
Mary
penggemar
Kuno
skala
Kos
##andal
##idur
detik
High
meluncurkan
mengakhiri
Leb
kekaisaran
apapun
85
Disney
##ganegaraan
##lywood
menara
##dominasi
##gerakan
Impati
01
pasal
mendengar
##daknya
Impatiens
##ifera
filsafat
##ng
##jing
mena
Komite
musisi
dikalahkan
##unkan
stabil
73
54
lambang
Bet
##barkan
##assar
matematika
Protes
ST
1961
##ekh
SK
##ambu
ditambah
She
Fac
dida
pasi
##embunyi
perayaan
bulu
temannya
##CA
umur
selamat
nyata
##enangkan
##inggalan
Bata
kerj
##elajah
hip
medan
terda
##aksasa
Riau
rahasia
dimak
Bern
##intasi
Aster
##mur
##wegia
pajak
Society
menyerahkan
##wangi
memanfaatkan
##ague
Saltic
mengalir
##iner
sikap
##tarik
Ukraina
hiburan
padi
##xia
Salticidae
##ajat
Smith
kaca
tayang
Gus
Cambridge
melaporkan
kepadanya
##mpu
golongan
mengarah
Luc
gab
dipengaruhi
Jer
pagi
##agar
beral
gangguan
kartu
##hal
##oka
Jin
bukanlah
pengusaha
Rub
setu
Girl
Tum
fot
sebaga
Nik
keagamaan
##ancang
menderita
##VD
##erto
wajah
##olabor
##opa
58
##asin
##alog
analisis
##ion
##nas
God
pros
mengundurkan
Banten
identitas
anc
sahabat
berlanjut
##94
ketu
##ution
Had
format
##edy
psik
hadiah
##wn
kamar
syarat
##ogon
##PA
end
Daniel
Rat
##egangan
##epakatan
##baru
##refektur
Norwegia
##mais
##entuan
diaj
Google
Boy
##rof
##todoks
1958
##iarkan
ulama
Blu
Fab
##asakan
Internet
##entar
dilaporkan
only
kritikus
anda
berpindah
Suriah
##adilan
Tib
##edral
kekerasan
Nazi
arus
sec
meski
##http
Corpor
ayam
meriam
##BA
1959
##ovasi
rekor
##ime
##sal
##aring
Luar
terbanyak
binatang
Encyclop
##akaman
##ois
jurusan
ni
##ius
fisika
sejarawan
tidur
Part
##lakukan
persegi
pal
jari
pembuat
##MA
Ju
Video
##66
Saya
nit
##ektif
RT
##ankan
##omatis
ion
##tansi
Hill
gempa
##ube
1947
Santa
Budaya
##jian
##ogo
pemilu
berlokasi
iklim
revolusi
##oner
Mill
pelatih
##ografis
nenek
Tanggal
peman
dius
wali
##ross
Land
##wijaya
66
##edali
##eview
setidaknya
##dium
Argentina
Yus
pew
Fl
##antikan
aksara
But
setuju
##ajian
##baiki
Portugal
Guru
Resolusi
Protestan
##ON
Dor
festival
lubang
Pil
Ses
diatur
##embah
##ekatan
sengaja
##ble
Kisah
Christian
kre
1920
##etujuan
##ree
mengirimkan
fos
##ream
Bukit
fokus
UU
##ulum
amat
99
indah
diharapkan
bom
##anker
minuman
pensiun
Jack
sent
##entangan
##28
Fil
Makassar
menghentikan
Sekretaris
ali
Salvia
rambut
Mataram
Menengah
Japan
##icu
Dik
publ
drum
news
##uhkan
##ots
##jaan
Ann
##yana
Gab
##ejarah
Tempat
kampus
Tujuan
layak
menambah
negatif
pembawa
Cath
dibutuhkan
Tex
Kara
##atukan
##apus
serangkaian
tahta
pembukaan
Publish
roda
tersisa
Mik
dipanggil
halnya
mengajukan
eng
Term
120
Pac
##itori
isu
siaran
disimpan
terjun
##under
##edisi
kekalahan
ular
bakteri
kontroversi
##ulitan
##upu
##zoa
Fat
zona
Hat
kolonial
Lang
Chrys
##ball
Bea
Gor
##utra
Sekitar
pemikiran
Simon
Cas
terbaru
Nat
##ky
63
Not
##lude
komandan
##olitan
pak
mengisi
sebagainya
terpaksa
adegan
Mid
perak
##itungan
isi
Ec
##asihat
biara
bergantung
##lines
kelapa
promosi
##efinisikan
##imum
Penc
Bor
Long
Perp
##empor
##awal
Solo
Metro
##madi
WI
memerlukan
Bek
gula
plas
British
Yud
##zar
ditandai
##inci
Institute
600
Minangka
von
##lang
Om
makna
padat
terkena
tun
##kand
Juga
sab
basis
##arif
Allium
##elasan
ritual
Karl
kontrol
##rama
mengenal
East
seekor
##zon
Rama
membayar
Muda
##ahit
Wid
dipert
izin
Las
Dat
67
Leg
kunci
Tingkat
Lebih
GP
##aster
Far
politikus
##emuka
##ilir
Pus
##iaan
##angkut
##KB
##vo
ditujukan
pasir
pegawai
Bangunan
##antau
League
dimakamkan
online
Wales
KP
beras
##maisuri
sinyal
##wanya
##ering
Suatu
##zer
Kak
Pam
kemb
candi
##etakkan
raksasa
ditambahkan
##ritik
August
Minangkabau
Wis
kendali
74
Mol
bertambah
pengunjung
Orchidaceae
game
##alangan
selam
##anggar
dioperasikan
wilayahnya
Won
rusak
diterjemahkan
Play
pl
App
lomba
tri
##29
##FC
harian
menyimpan
##imat
dilanjutkan
Ott
komune
it
##ekutu
Konstant
menuntut
Misalnya
Peraturan
pendekatan
bilangan
Brun
berda
but
##erson
pengak
otomatis
penemuan
cocok
tertarik
dija
Abdullah
##tha
##faat
RS
##ejala
ditug
diber
1957
##adiran
##wancara
Adapun
diyakini
Model
diresmikan
kesenian
Konstitusi
Ortodoks
##ebihan
harapan
ancaman
Sehingga
##egrasi
Ren
##dahulu
##ambaran
95
Ayahnya
Ef
##opter
Alas
Lim
menyerah
direktur
Microsoft
gabungan
Kid
Squ
##ustru
munisipalitas
juni
strategis
Exp
Son
Pember
##gag
do
##lex
179
Itu
Data
Pasal
Militer
Records
kesalahan
kesulitan
Bir
Final
##agama
##ede
Bola
kedudukan
terjemahan
77
benua
##oskop
##ru
instr
bervari
membintangi
1956
lulusan
##ilangkan
Ay
##menia
Show
Erica
Masehi
semangat
berangkat
##edo
##odes
Street
supaya
ketidak
kac
atap
##turut
Serbia
berjarak
##endam
tangk
aset
pengelola
##deb
Que
strategi
Perm
Polit
##inn
kala
##olisian
##fs
##sel
##ambo
pangg
kumpulan
##rin
bencana
ul
##eperangan
eksekutif
komik
tenggara
Dur
tarian
Hasan
disusun
86
##esarkan
##iano
kod
pej
memperkuat
Terl
bervariasi
Balai
DVD
kualifikasi
Temp
Mada
System
melintasi
terkemuka
Sud
1944
marah
Palembang
bas
lemah
dipen
How
hel
diman
Manusia
##include
gugur
Alexander
penjaga
Corporation
Tal
alum
Duk
Som
##ogan
Pala
usul
##eti
Candi
Bentuk
Berbagai
##etas
bat
##identifikasi
##ski
##ancur
roti
por
target
##tai
Shah
Sastra
Dh
penyebab
Sand
kamera
terlebih
Hubungan
Airlines
disamp
Jum
1955
##umbu
Lor
dias
Batavia
##risis
##85
Rasul
garam
bersaudara
##olan
##ragon
susu
virus
tertulis
Kesehatan
suami
mengenakan
Dig
Ped
##odend
normal
memaksa
bersen
konstitusi
##enggelam
berdirinya
terkadang
menu
terbukti
prasasti
Bob
kerap
##oloph
SS
otak
##anyaan
kanker
papan
Ot
agen
Syd
Bila
mendi
##ello
##site
##ahaman
##aritas
##olar
Bei
not
##egoro
Bapak
buruh
##ugerahi
##egat
##onald
baja
dikon
##dur
memasukkan
##aharian
##rab
justru
Perwakilan
Sik
##enting
halus
urusan
Penelitian
##ring
Konf
keinginan
##tures
pangeran
Cek
Yeh
Gram
##lukkan
menyamp
##kamah
Aleks
kesepakatan
onlyinclude
mempengaruhi
Mobil
pembela
meneg
Lah
##omena
Kawasan
##latif
##wasan
Lima
pemerintahannya
##oshi
##ebarkan
memberit
Kejuaraan
##kes
sensus
banj
Putih
kejuaraan
##obaan
House
Journal
legenda
sekelompok
##kar
guna
##olaborasi
partikel
##mb
##ón
dikelola
87
menyukai
Pegunungan
Lay
graf
berturut
melambangkan
Ear
##inat
##rut
beragama
##icus
##adaptasi
##ilasi
setara
76
##indi
Say
malah
kebebasan
Wir
pelaksanaan
Soekarno
##odifikasi
##emuk
##wara
##erankan
dagang
dibantu
pengakuan
kedatangan
##ewar
##ies
1941
Sydney
##ody
##sip
Hid
BBC
Hor
Minggu
##erat
##eal
Serial
##ubur
Tol
Kenn
Biz
comp
March
pesta
##atri
Sul
Komunis
Fu
##vora
Dim
den
##til
##endiri
##kripsi
##del
risiko
SMK
terjual
Surakarta
##sus
##idah
Cam
##wajib
ibadah
##udak
Drs
##artawan
##unjungan
pencipta
Matt
##gon
Mun
##olehkan
kain
Chic
menangani
adap
Ala
ditugaskan
Post
Matahari
##agan
liter
##uksesan
##TP
biji
##MS
hendak
##ets
##led
##ange
##oku
pergerakan
Dal
##inder
FA
Sosial
peneliti
Sap
##eff
Eliz
Utsmaniyah
menyampaikan
cita
##RL
Hadi
Episode
pilot
perannya
ent
marga
Biasanya
pembagian
##eing
Sekutu
mahkota
beliau
organik
melepaskan
##upsi
Big
anime
material
##ihir
69
##anam
Motor
##inspirasi
##agung
pendirian
##egr
diser
##lish
kabel
Pter
Empat
menjadikannya
##so
Club
Lar
##ingi
pur
Simp
memec
Association
Sama
Time
##ajikan
direncanakan
Emp
Phil
Jepara
seiring
Dayak
mempromosikan
Pengadilan
##estik
Kari
##die
Antara
##atalkan
Fe
kandang
uk
##wana
##utkan
solo
spir
dipandang
Kompas
##zan
kepulauan
##ket
88
##umpai
keenam
Lomb
mulut
Saw
##itter
AD
##oksida
prestasi
800
##siden
##ville
1952
Bung
arke
pencarian
Ketiga
##essi
##ajuan
##unting
pelunc
Fox
##asana
##udang
bunuh
Armenia
##ipp
##onstr
##her
##tle
perek
SE
Billboard
68
##tig
Pertahanan
Kart
gerbang
##ekal
##urch
##etail
##yt
Yak
diterapkan
Sara
agung
kebun
1954
##bus
##ents
kelak
dipasang
Fried
##tionary
##ym
had
bakat
##ektorat
##CO
##ova
1939
Pertan
pahlawan
##xi
masakan
Bin
Kut
Les
##uluki
menunjuk
sawah
##hatikan
##bawa
##juh
Pah
pid
parah
Poales
##hire
##imer
sak
##ataan
Hot
84
Olahraga
##urunan
sinar
##eau
##etis
leluhur
AP
##iapan
##ulata
Tari
page
diadopsi
NAS
##yakinan
##ariat
tropis
##andungan
penyelenggaraan
tol
medis
Catatan
##adangan
##ür
##eme
##ancarkan
dikuasai
kasih
Nam
temp
Api
##umpur
Tegal
##dim
SA
Bac
##utasi
invasi
latihan
bon
Stand
Elizabeth
Ibnu
Lingk
##ally
Dev
##ject
Kul
bal
efisi
karyawan
Chicago
Manchester
Mek
formal
##oyo
41
Mov
mac
dijalan
berkurang
##etus
Dok
##etika
Proyek
##inga
perahu
PL
1953
Kro
perdamaian
dianugerahi
IT
mengingat
Qur
Buddh
Kop
Seo
##iraan
##enario
Sekarang
##ose
##upai
Hend
Surya
Jim
vis
##lie
##empurna
##lihatkan
banyaknya
pekan
aktiv
Administr
disajikan
Seg
Kini
perlawanan
##hu
blok
Sejumlah
menyanyikan
mag
##earch
##angnya
Selandia
len
##araja
nabi
Serv
cipta
##onik
##oso
tud
##regnum
Boeing
manga
Roh
Cel
regional
##awinan
##ropolitan
##ces
liar
prot
lirik
miskin
dipers
bagus
mengant
##ahi
##ader
##hannel
digelar
pangkat
debutnya
dilantik
pemukiman
Jembatan
##waktu
Milan
Kus
##cap
Jl
hancur
senapan
##iaceae
##yanyikan
konstruksi
DNA
##lavia
Jenis
##adwal
Regi
jej
##antum
pasukannya
##ewarganegaraan
##otik
Zaman
##angkatan
Tun
paruh
Seluruh
##ensif
dilarang
1943
Hawa
sepeda
frekuensi
##ister
Moham
sosok
perawatan
aud
cor
fed
dieks
##utin
Hir
##impunan
Gol
##mann
Mahkamah
##bis
that
dimaksudkan
Indo
menembak
##vy
##ennis
##utaan
departemen
##paten
##hasilan
Porifera
geografis
##otan
Dong
##hai
cairan
Way
staf
medali
membela
serius
##work
senang
##isensi
teknis
##amis
Adv
taj
##gy
##ulukan
##ominasikan
##kom
Rhod
bersenjata
Panjang
##inum
kin
mar
Cara
##intis
otoritas
pir
##imewa
##even
Saudi
kepadatan
subregnum
tiang
samb
Parazoa
Gil
mengeks
lampu
cucu
jaj
Shang
wajib
berbagi
160
Dah
Mulai
##ublikasikan
##imus
##antium
mengganti
##ukim
pasca
institusi
kebang
internal
MA
Hit
##antri
konteks
Nan
akun
reformasi
##ecil
segi
Sakit
02
Plat
mendekati
pemberontak
persetujuan
murni
Pertanian
1951
Tern
##angku
memenangi
##ambat
##angkal
pasien
78
##elat
manajer
##well
83
hom
##RA
##atic
peninggalan
##ambangan
##udal
##asang
##arusnya
restoran
pertanyaan
produsen
q
terdaftar
mengad
terminal
domestik
##elek
balap
##eteksi
Sepak
junior
memerankan
##wo
##opsis
betina
rumahnya
##umber
Good
damai
dasarnya
SC
##gagalan
Samudra
##omer
##anteri
jurnal
memahami
Liu
berkat
CE
berta
Shi
fakta
##ucapkan
##onc
##rie
tuk
##incin
Wang
fase
pangan
##istribusi
roh
##nia
Golden
##undang
sewaktu
Gib
tomb
menandai
Abb
98
Medi
markas
akar
lembah
Tata
krim
Khusus
##kuit
##embahan
Cos
kekayaan
##ista
##intai
##onjol
51
##umpah
Semenanjung
pendudukan
pecah
##inginkan
pengobatan
##arankan
menjawab
tertutup
kehormatan
Terb
konsentrasi
Tet
peta
##irah
variasi
##urt
XI
##firm
Young
##apahit
krisis
personel
##str
sempurna
96
##iger
##igasi
coklat
pap
ditinggal
menurunkan
mengoperasikan
Chir
##ative
##opogon
berju
pemakaman
##bara
##adaban
membagi
89
Rus
##unggung
Wes
amp
timbul
tuanya
terhubung
rupa
##binasi
perpustakaan
##IA
Hus
##ediaan
dinominasikan
##ift
##igran
dosa
Kuala
##arya
Sut
Yos
Selat
##iku
Persatuan
##ection
klor
##orks
Lew
sol
Bre
XII
Brown
##eluk
pameran
bir
Tam
menggabungkan
Pengan
##ayakan
bandar
pikiran
AL
dengannya
klan
dicatat
tahunnya
memanggil
52
##esian
dinyanyikan
Perh
Real
bersih
gua
##pur
peperangan
93
ratusan
Sn
resolusi
##mond
stat
mendarat
Xi
##arakan
##madiyah
kg
Stan
diaw
penari
dimanfaatkan
##pu
Wanita
Penggunaan
menikmati
Cop
##ekaran
Johann
sejauh
Formula
##ampur
penyimp
pelajar
Roman
##bumi
Tay
kotak
##esuaikan
##otanya
warisan
infr
modal
Produc
membahas
berkumpul
SMAN
Games
lurus
lokomotif
Melalui
Hein
tersendiri
Pekan
legis
julukan
Bagi
Columb
penulisan
Virg
kacang
berpikir
kebenaran
177
he
##tive
##field
##mosfer
merekam
##ilat
ditur
jantan
menunggu
harinya
Rev
Wangsa
tahanan
##ilikan
menonjol
Dit
hakim
##intesis
##adiri
##ette
##dal
##rim
memastikan
##jahan
Televisi
##rav
mala
ulasan
berkisar
##onya
##acing
takut
Majapahit
##DA
##arjo
Ris
##iasaan
pemberian
penurunan
seharusnya
berbahaya
Oli
setia
mineral
##esaan
Peristiwa
wawancara
##rahim
Pondok
Atl
Mata
misteri
Pelabuhan
Py
vi
say
County
Persi
Sunan
##panjang
Athena
##je
Wu
bioskop
mengelola
##ector
##embilan
##ustin
Mati
Perubahan
Toy
Global
menyusun
PA
Georgia
##zy
##axia
##odera
Anthaxia
##eno
##ungguhnya
terbunuh
menerapkan
jen
Yusuf
pembu
Rem
banjir
komunis
AC
130
Tas
Araneidae
BPK
##jarkan
peluru
##ated
##ekusi
##oper
##asket
hidrogen
Mam
##ingat
Leon
kunjungan
penyi
Cerita
siang
organisme
Harv
gejala
konvensi
Laks
##elihara
##untutan
menerus
ditempuh
##erahan
bulat
##andanya
Pand
diserahkan
##alisi
pokok
##ohol
simp
Cyperus
DC
##edit
##uruk
Char
Albert
##orus
profesor
##rov
250
Cont
mendes
Nic
tir
pendeta
MI
Asosiasi
Sib
Banyu
Techn
manis
##antangan
memisahkan
ra
##tag
sesama
##EN
##jan
Villa
komposisi
##fe
McC
Corn
fir
distribusi
diw
##onegoro
fl
Tir
ekstr
##ns
Vo
sl
##uburan
religi
##encanaan
##etes
Samb
out
doa
##perti
Merc
komando
Cast
diturunkan
Burung
melebih
Dol
paru
makin
##sburg
##alkan
##trans
Manaj
melarang
rancangan
berjuang
kerjasama
Kum
Bengk
Kategori
Lok
dikait
menyel
tubuhnya
##ambing
##ebutan
##oboth
anggaran
menyerupai
##oe
wujud
dijuluki
##acun
##antang
budak
sebaliknya
##ansk
ribuan
perbaikan
##rol
ISO
Syekh
labor
Akibatnya
##umahan
mitologi
##luan
Sari
Jar
Panc
terang
Pictures
Encyclopedia
##PS
Aut
bersaing
wartawan
dibesarkan
Gh
Spong
General
beralih
##elaki
##umania
Cyperaceae
keyakinan
menekankan
##chel
##udin
pelanggan
##misi
##rasah
Isma
##obothris
kemajuan
Chrysobothris
meta
diperb
##pi
##wu
##lon
##trin
fac
dosen
##tad
##inis
Eth
VOC
Haji
##raft
Abad
Federasi
Pok
##ertai
angkutan
rec
berpusat
minum
infeksi
##emaat
##elayan
polit
menghadiri
##rot
teh
##ustaka
Batas
kesuksesan
Science
tes
hektar
Pag
##yangnya
keselamatan
##uaca
Sai
berguna
kehadiran
Shin
tanggung
79
Wood
Waktu
harta
ng
##isisi
blog
Out
##ature
##inter
mengendalikan
##rax
Dictionary
membuktikan
DKI
##unjang
##ante
jurn
##vern
mempering
##anon
pip
Rena
Great
panggilan
ratu
##isahan
Rumania
investasi
kakek
perman
##ardi
##iawan
Fort
Musa
sekutu
Rud
##bankan
##adipaten
disertai
##cl
##ambilan
berencana
Research
krist
Budi
kritis
##odendron
Victoria
SI
jahat
bawang
atmosfer
dikaitkan
Konferensi
Rog
asisten
Sip
derajat
##sp
Beijing
Pertandingan
##turkan
dipegang
##lement
##yd
Mosk
##ikulum
Oct
Master
PK
Indi
pesat
rob
Church
konserv
tuduhan
gu
level
berhak
Chan
Kami
##inaan
Bayern
##onomian
memperluas
kolam
adaptasi
kebakaran
##nie
semp
jabatannya
700
##harma
roket
Permainan
##andakan
lingkaran
##bra
##iness
##ertian
peluncuran
menghormati
Pengembangan
Gel
menyang
Finlandia
melebihi
kandungan
##uw
Nep
##aklukan
batuan
Luth
Kegiatan
landasan
##ilo
dulunya
fenomena
mengajak
tetangga
kegagalan
Pier
110
Dib
Muk
Dream
Modern
Jun
Mang
af
Call
penerima
Rod
##epsi
Pern
America
62
Oper
Ibrahim
menghar
war
##ware
State
Keuangan
WIB
Singel
memperbaiki
##esain
mengejar
Sha
##atria
pelindung
Ste
##upati
1938
dijelaskan
Konstantin
##astil
herbi
wisatawan
##eki
Kapten
##asalahan
##OM
Nick
menahan
kutu
semula
adiknya
ditolak
memandang
pinggiran
##opia
##opus
Komando
berfokus
BA
def
rapat
##impi
##very
Hay
##zinkan
##emporer
spesifik
berperang
##roc
pus
menyak
persamaan
##rade
baris
tembok
##iat
##akia
##ubuk
Sent
##iwayat
lambat
tentu
merusak
demokrasi
keset
##awang
##KA
Bizantium
perbuatan
disediakan
sit
Soeh
ok
##yyah
dipro
Beng
Yon
Batal
##inah
Natal
##icum
Klub
kesatuan
platform
herbivora
Cat
Cip
##jikan
Pemain
##asaannya
berkomp
Gl
##ongs
##angkitan
mengatasi
oksida
Kabinet
membawakan
Panglima
Rhododendron
uap
##NS
Book
Road
vir
Sala
Chang
gerak
terluka
##ahabatan
bukunya
ekspedisi
mengembalikan
Maur
definisi
##timbangkan
Arm
medi
memindahkan
##elai
diminta
ten
##evelop
varian
##elle
##ego
1000
contohnya
June
##edonia
berkas
##ajah
##tusan
##unn
##vasi
Carol
Politik
evolusi
##zu
##imi
By
IA
percobaan
Indon
mikro
##ography
pengarang
IX
##kson
##rain
Volume
jadwal
ketujuh
Port
##orp
##opel
babi
juri
Teori
sadar
Namanya
kekurangan
Beb
Vik
Jones
PC
##ency
laboratorium
tarik
##ET
##cc
Km
##antes
Prot
Bible
Steph
##ujudkan
maksud
perkawinan
Sony
pandang
gratis
##zen
Tuan
penutup
Komandan
menjelang
##sky
Nu
habis
kalimat
Teks
moral
##arch
Nobel
Island
Williams
bersejarah
Muhammadiyah
Qing
Indian
sesudah
Boh
Perguruan
Ye
Bug
Wik
pejuang
perasaan
mengizinkan
##ayan
Carl
Mend
##ule
##asangan
AM
rap
##empah
Pesantren
##itia
akting
historis
Prefektur
membedakan
menempuh
dimensi
Batalyon
##adir
Informasi
real
penyair
TK
1937
Jat
##ady
Marc
##enalan
Tangerang
ki
##des
##try
Game
Batang
Anna
koord
Majalah
Perpustakaan
Cul
##ungkap
kombinasi
##35
1918
meneruskan
##adal
kerabat
keperluan
menyebutnya
Massa
UK
##ekolah
paman
##akm
##dih
##vorit
menegaskan
Sas
##adaran
dijumpai
Hollywood
Ars
Chap
Ericales
paus
##baceae
menyimp
Luas
1935
nada
Hitam
Mesin
kant
permanen
instrumen
XV
1936
besaran
kelam
##vei
Fabaceae
##gaiman
mulanya
##ão
Daud
Keber
##zhou
Madrid
potongan
karakteristik
2020
##suf
uji
pemro
punggung
##zidae
Asian
aktivis
##osus
muatan
dicapai
kebiasaan
Syah
pemu
bertah
kepemilikan
pembelajaran
##ding
1933
Fern
##alifah
play
bambu
anggur
##amo
##arahan
Hulu
##ach
##dentifikasi
dikelilingi
##put
##uber
##ujung
lelaki
Friedrich
Lum
Hand
##elly
##oreng
##omenda
##nik
Ober
##ejah
Maya
riset
cuaca
##olophia
Arch
saraf
dihuni
disetujui
bupati
mekanisme
pariwisata
pay
##embahkan
cap
Tokoh
France
Kend
##ikopter
cincin
Jen
##arungan
##ication
Federal
dipergunakan
##br
Seiring
170
Maz
##BI
enzim
multi
##evin
##amana
kasar
konferensi
semesta
semenjak
sebut
##omat
##onto
Benteng
lemak
merdeka
akademik
erat
##jadwal
pesantren
menyetujui
Penerbangan
Wan
Pseud
White
English
nantinya
memengaruhi
mengusulkan
menjalin
dimakan
Russ
murah
Menara
dijalankan
##70
larutan
pemekaran
##ulatan
kandi
##urasi
Scott
amb
##ancar
Meri
Angel
##ensus
##amadya
keg
##buan
Live
tergabung
Marx
##buhkan
##cessed
Seoul
tahan
main
##sis
##entik
mengajarkan
vokalis
##bl
SU
##anjangan
kedalam
Cho
Rid
##ahlian
##jaman
direkam
skenario
memperlihatkan
Kerja
genre
pakar
##45
##owo
ret
pena
##enazah
Madura
sulung
##itri
pertarungan
Toba
seng
karang
Yun
bag
Mangk
##obatkan
##bin
##esm
##ribut
Dinas
memicu
##amer
Dek
Tem
##ejahter
menginginkan
Sor
kompet
Lahir
##iao
car
##ostolik
Yah
Hans
Tibet
##edar
##orth
Commun
##col
##ugu
lemp
Indra
##astruktur
##antis
Batak
pelukis
125
##yung
1929
paket
Rot
dipisahkan
kong
Jr
yg
cantik
kontak
beranggota
##film
Arya
Spec
##ecuali
Fabales
##okol
##onakan
##otball
diisi
tuntutan
MS
bot
bung
Chironom
72
##ants
hor
Year
berkel
Found
##ugi
Glen
letaknya
Pterolophia
lapis
atlet
##ocal
Kecil
##EC
konten
Polisi
cadangan
disana
Soeharto
Kot
Mach
koran
##zine
##emahan
Channel
##caan
Lord
motif
penyebaran
Shar
kalender
Bunga
kandidat
anggotanya
Pertengahan
Sad
##ides
Alf
Tj
Cin
kud
Jambi
Power
petugas
kron
##ebook
Central
pedang
nelayan
fakultas
dihancurkan
Ton
##46
##enanya
cetak
peradaban
##hel
RW
Chen
Mayor
##badian
##ald
##ving
Pros
##iriman
##ited
gugus
Jurusan
Aks
kurangnya
##LA
Agromy
Agromyzidae
SP
Tamil
##akmuran
##icol
awak
siklus
##ror
rup
February
978
Hard
Texas
klaim
##ekutuan
flu
Test
pengelolaan
bass
iman
##gaimanapun
##mae
##sari
##ianus
berdarah
hanyalah
##uro
Ry
inves
##inson
kadar
##yakinkan
Cra
budi
penyimpanan
Pun
##endang
tebal
berharap
##mana
diselesaikan
##ebu
##inja
Len
wah
Samar
Bambang
kosong
teologi
menampung
##inar
USA
line
Makan
stu
insiden
Manda
rempah
Tradisi
Greg
##abil
Flores
menghilangkan
##serv
##ocera
Eksp
tajam
Aer
mendatang
Blo
##etta
Cen
Hawaii
##evelopment
##gam
berdua
##yun
Petrus
nom
##olasi
##onsel
interaksi
bunyi
##90
##alaya
Kang
pemahaman
##paran
Novel
Francisco
kandung
pribumi
Keduanya
kajian
DP
##osit
diserang
Ball
Strat
tiket
rantai
##alai
##tipula
##este
persiapan
mengadopsi
mengisahkan
Et
Prix
kamu
pelaku
Banjarm
membentang
Mall
tenggelam
##tab
##artikan
ladang
##ejahteraan
Yuan
penjelasan
rom
##ajang
munculnya
kue
muslim
Ten
audisi
beranggotakan
January
hidangan
##pha
Jab
1928
membebaskan
operasional
##edera
##DI
##lag
Yam
Zhang
##ampilannya
##embus
properti
pd
1919
##angkutan
merayakan
##enny
ditinggalkan
Pemba
##omyia
jend
##onsumsi
terinspirasi
##onso
##ities
muka
##kripsikan
1900
horm
First
Kontes
legislatif
Mongol
tent
##alanya
singkatan
##abut
Ford
Mega
permasalahan
sesungguhnya
ditandatangani
##endek
Bekasi
menemui
disampaikan
##orf
##ittle
Usaha
biologi
Ron
rawa
Princ
##lek
##tales
Plan
petern
dinilai
dominan
Staf
Hutan
keman
Serangan
pemegang
kedokteran
penambahan
Ern
Diper
Stephen
website
Sig
##etapan
tipis
##DS
##ther
box
lum
audi
sasaran
##ilin
175
perut
Samuel
region
Myrtales
penerus
##ualitas
##bach
Yan
##ilton
topik
jagung
DI
red
rudal
Penerbit
##eto
Arts
Efek
##oor
konsumen
petunjuk
##tun
Hung
seks
ts
##atinya
dicetak
bertarung
dibanding
1914
bakal
berulang
referensi
menaklukkan
Ny
##able
##okerto
bermula
dibebaskan
##eam
##ech
abs
##ument
##ohonan
ternak
dibaca
É
##heim
##ido
##pis
Bidang
dokumenter
Junior
Sepanjang
Vis
Sind
Union
Project
pedesaan
##ebak
Marie
artic
Johnson
mode
terdekat
pemandangan
##inir
Armada
##omet
bab
otot
putrinya
permukiman
IC
##likan
##amboja
Kroasia
keponakan
menyebarkan
Lombok
tembakan
ketat
wayang
emp
Night
penganut
Doug
YouT
wadah
arsitek
##pin
pep
##olahan
Brunei
dipaksa
pelanggaran
perhitungan
##37
Malaya
Network
kedi
Alban
tantangan
##yaratan
##upuk
Gand
show
protes
Mahasiswa
Roll
baku
cont
diak
rezim
Katedral
##ingen
Chin
##enya
Juan
##ucapan
hebat
October
habitatnya
##adron
##ehan
gul
Broad
##wig
gun
Shan
kotanya
istimewa
Banjarmasin
##hol
July
Prusia
##opo
eksk
kesadaran
##istribusikan
kedalaman
Saudara
##uban
berani
detail
federal
Kant
Open
dewi
Lept
Lanka
Total
December
End
##lamasi
kontemporer
##uting
radar
Herman
lakukan
Ferr
alias
Public
eksper
##mun
Malik
##eher
##epung
##isika
##akau
##emis
##onim
##sial
Online
mengundang
##eed
lazim
Jeff
tabel
Columbia
##rap
aw
##urai
##endra
rasio
##integrasi
transfer
##jun
lo
Bell
mengancam
##day
Ama
bit
keberhasilan
##asta
meyakinkan
##pus
##ifer
Yug
massal
Pekerja
RC
##atap
Clas
Hakim
Periode
aneh
kepri
##owongan
filsuf
##elia
1934
berkompetisi
##untungkan
Umar
*
##cho
pinjaman
##upan
105
Imp
140
perekonomian
##lib
##yai
ho
Pengantar
pangkalan
##ific
##ights
didominasi
Edisi
##gih
Kah
Bond
##okh
lip
##emon
dipec
##nd
##tat
pemer
Contohnya
Mayoritas
##zuki
AKB
##orejo
Konsep
memberitahu
kanak
dibeli
mandiri
dihentikan
menyumbang
menyaksikan
##esel
Dag
Sky
susunan
ketentuan
##ext
##ikkan
Jung
##ador
Born
##tuanya
persa
mengam
pengas
utusan
formasi
kakaknya
gro
##aktor
Turk
Makam
bertahun
seniornya
persahabatan
terakhirnya
1932
baju
jer
##lusif
Bulg
cedera
radiasi
##ekomunikasi
Championship
kewajib
##edur
1926
Blue
##eriksaan
Heinrich
kontribusi
##ray
##ilaian
sw
##inyur
Suara
lisensi
hit
Jumat
Letnan
Mycetophila
##38
##epungan
editor
Wina
mahal
##atuhkan
979
rutin
Apabila
##ways
Old
##track
pengertian
##OR
##ajar
##ingu
##tipe
Europ
mempersiapkan
pi
klasifikasi
##ques
saksi
##encan
Lun
##angkau
penangk
Arthur
rad
##asit
##olic
##oke
sesi
##amping
Kamboja
Nug
visual
178
##KP
##ente
park
romb
Oscar
kelamin
##uz
900
1927
membant
Terminal
##enth
Kad
##ukun
bersatu
operator
##yian
Depok
Keter
berlayar
dibatasi
mengganggu
##hard
##ulik
Pemuda
Banyuwangi
didefinisikan
##tron
cak
Otto
##apur
Salib
Siti
##atural
His
aut
##bilitas
Lep
##idenan
emosi
##ederasi
Maha
##yanmar
berga
##36
##ipedia
##irahat
Patrick
##jaga
##ontrol
##BM
pag
Kela
kawan
resep
##esp
##osof
##ences
dibedakan
melakukannya
##mah
Fal
Manajemen
##ularitas
perlahan
Komunitas
##SA
##inf
##ordan
kekasih
Theod
##tap
Baik
##isius
##firmasi
Ach
juru
sekuel
Lembah
YouTube
AI
##migrasi
##KT
##owi
##con
##tatus
Beta
##onster
berdamp
suasana
##fiah
Hida
read
Hindi
kediaman
##uts
1931
Merupakan
mam
Yosh
##erba
##ektro
Heart
##jin
KM
Gelar
Hidup
##tiga
VIII
##empurn
kambing
pengamatan
Kemerdekaan
Eg
Hok
subjek
##undtrack
##upaya
Malam
Rap
lak
Barcel
sidang
adi
##ausan
Teater
mengusir
diperankan
gam
pdf
Kolonel
Myanmar
AN
wh
soal
Jay
arg
1912
Hali
Studio
penerbitan
##sih
94
gelandang
##orum
##imaan
Kuil
ditahan
monumen
penjelajah
Bima
mengu
Hitler
seluruhnya
##dut
Ich
pia
##ane
php
Purn
col
kotor
##engkapan
Lud
##eople
##isang
semiper
menyusul
sisanya
pengambilan
##sius
##ografer
Taylor
terbakar
Sabtu
##irannya
1922
pengawasan
Lip
##intasan
##elidikan
RA
Kin
##galaman
pendatang
cokelat
##ison
Hart
Cik
ban
berupaya
dibawakan
menghilang
Lt
SL
##tivasi
temper
Bulgaria
Komunikasi
melancarkan
##cer
Madi
Kaz
Mand
ujian
##ysi
Lebanon
##ardinal
gur
##itorial
Inform
diatas
reguler
Prasasti
Ismail
kapten
pengaturan
##wen
##odon
diplomatik
ditarik
est
Prabu
##ovision
Tipe
over
##terior
Berbeda
##ilid
##plin
Bany
Main
Patri
ditaw
menyarankan
dialam
kabinet
mencuri
Anne
##itanya
besarnya
dihukum
Sponge
##estarikan
##aratan
Bush
hadapan
Produksi
Kuba
pengeb
monarki
Jus
Direktorat
##ogn
##ype
Trib
Barcelona
61
Mandar
kinerja
alb
##ungguh
Conc
##onaris
Antar
darurat
1924
##ebus
##egasi
##osari
##astian
jemaat
Sebaliknya
pla
Ikan
Tony
kembar
##gabungan
Kejadian
##obot
##ubis
##uris
Kevin
Warna
minat
dimenangkan
##istol
Kita
Sesu
SH
##rida
perumahan
Him
##right
koin
pewaris
maksimum
penyerang
##utur
Cak
dijadwal
helikopter
##FI
Labor
pasang
Konstantinopel
tambang
kerangka
##orak
##lands
##yasa
hum
##ament
galak
1925
flav
Yugos
Foundation
KH
##iringi
Dragon
moyang
bertentangan
##pool
##kau
##ken
##roid
Cup
Rencana
Kw
laga
lamanya
##ün
Jong
Ruang
##cy
##ardo
##ebes
Kai
Leo
jejak
sch
curah
Produk
Satuan
keahlian
##eton
##eration
korupsi
##lok
AU
##fred
##oria
Pul
nar
Habib
Aqu
##andalkan
##vir
UI
Prop
Frans
Fasilitas
hubungannya
##pansi
##hancuran
HI
##ungu
##risten
Demikian
hasilnya
##untuh
sultan
Acmae
figur
karet
Pemilu
##ingkatkan
jurnalis
Acmaeodera
Gard
Lingkungan
PM
lengan
bertempur
potensial
##var
ol
Chironomidae
##utuh
Berg
Emas
dipublikasikan
##bud
IN
Od
##tury
pembaca
infrastruktur
##tural
Senin
dijadwalkan
semiperairan
1910
cair
Demak
##ekuatan
##sterdam
Naskah
pengungsi
gar
Bahan
##onda
ditunjukkan
##otaan
berked
Amb
alun
Kutai
berak
kabur
Series
riwayat
##vat
##idia
Brah
Jacob
Pemberontakan
Warga
sempit
tawaran
Ru
##urah
tar
1923
menyamb
ye
Shanghai
menguntungkan
Pir
sukar
mengab
disiplin
AT
punah
Lapangan
Page
membatasi
176
Nga
##ugian
nasib
musikal
juniornya
Ming
putera
Metode
diletakkan
##ovi
##gazine
Amsterdam
##uld
cel
Gala
beri
Brand
##izinkan
##SM
Za
##bung
##senjata
Service
kristal
terendah
Single
diadaptasi
##graf
##indo
are
padang
Jabatan
belahan
##bes
bij
all
jet
Reformasi
##uce
kolom
##emukakan
dikenakan
##lahi
pek
##aruan
##utr
##yama
office
##ubi
Drama
##lai
##dius
##gunya
##libatan
Space
Jackson
intelek
pengajar
diizinkan
##atum
Team
panen
Harris
undangan
Gas
Amir
rating
perkotaan
ayahandanya
beban
Haw
ganti
ledakan
Rek
Pari
Bud
bahaya
Yugoslavia
Lem
##ulihkan
Tanaman
##sium
Human
alkohol
tali
1913
Bani
##tukaran
harfiah
terancam
berkedudukan
##arut
##gement
Clark
Begitu
Je
Ted
demonstr
dikarunia
persyaratan
##aker
Town
Football
##bek
##out
Jati
Senat
##unduran
diajukan
diidentifikasi
##OL
ekonom
perkiraan
##emas
mark
##ancing
dinobatkan
kecantikan
Wei
SpongeB
Pemimpin
##yakan
kekh
Upa
Chem
Whit
Indonesian
##bury
Doc
##raham
Kolomb
Bendera
berharga
##iji
asp
Andrew
ny
Alat
Orde
Dubai
koalisi
##adam
Spor
tukang
bertanya
Cib
seleksi
tingkatan
kru
##imo
Def
duta
Bangk
doktrin
Bengkulu
##mud
##agia
##bir
##isai
##elsea
belakangan
misionaris
##light
1917
Peru
##untuhan
##engarkan
Lamb
Kediri
Asteraceae
##eser
115
CEO
##antasi
Banglad
Ran
##tikel
##istensi
##unculan
Douglas
Perempuan
Samarinda
OS
##eaksi
##net
nig
gender
bertahap
merancang
memecahkan
##cak
Dri
##usiaan
ponsel
MP
mal
sampah
##buk
CC
Cit
ham
##amika
Dharma
mengawali
his
turunan
##GM
Cre
##ontalo
menggelar
##air
Did
langka
Pustaka
##43
fi
##ological
##mara
Vern
plastik
##helm
lari
##ecahan
Indah
pembuka
##oca
awan
mitos
SpongeBob
##eling
Girls
pseud
Little
Makedonia
##sin
155
Ensik
##mir
##ereng
Gaya
Chelsea
maksimal
melanggar
##akti
pencaharian
Ltd
Thi
##rary
Steve
bor
rumit
dendam
berdekatan
##erry
Bantu
ramai
meledak
kewajiban
##iliasi
bergelar
transmisi
##47
##esc
Bangladesh
Joe
Juara
menju
Merdeka
##obo
Yi
palsu
Code
Madrasah
bul
sayuran
##yer
mengapa
membalas
##yid
Malaka
segmen
##ornis
ekspor
bersekolah
pe
Warn
##olakan
mewah
favorit
kekuasaannya
##rem
##untry
teor
metal
Eurovision
##ibur
Mike
##elian
menari
Layanan
##kins
Arn
tek
salib
yakin
Publishing
##yad
dikunjungi
new
puluhan
Suh
Karakter
81
Cuc
pengiriman
##erick
##ihara
Glenea
##antar
##wujud
grav
Penulis
Gay
Aktor
subur
respon
##ingginya
teratas
71
Asterales
pengolahan
logo
Chart
##ento
Rey
tongk
##olution
pengacara
##owakia
German
##zil
##iler
##oster
unggulan
Rand
##atangkan
##laba
sains
Sansk
serat
menganut
menandakan
##dad
dolar
##osaurus
Pimpinan
dihubungkan
127
Wol
runtuh
##abe
penjajahan
Liver
##enovasi
Sach
Hampir
##ometri
Story
leher
doktor
kenyataan
##iai
1911
selaku
##ekerjakan
mengelilingi
Taw
##ining
kudeta
diinginkan
##istis
Clath
##ambatan
Kaum
konon
menyangk
##debatan
jendela
##enh
##yph
berniat
CN
Infanteri
##zhab
##ristenan
Mohammad
##ée
Avi
166
Apa
daring
Studies
kok
##askar
Upacara
Kedokteran
##base
Hai
Kepolisian
109
1921
Adat
82
Magn
meres
hangat
fo
Ordo
Tamb
Sesuai
solusi
Perdagangan
Andre
##duh
Development
##akna
Bun
##ako
##irat
Bert
Puncak
sekretaris
perencanaan
sehat
##anggang
##bur
Water
rumpun
menyajikan
mendominasi
Florida
jumlahnya
Square
Poso
Books
rombongan
##och
fe
Blok
dada
Ambon
##anggapi
penghormatan
Of
mad
Nich
Walter
##tre
##pons
Muara
Sr
Daw
nir
sib
Earth
emb
##ileri
Tanpa
##duction
Duta
belah
menolong
##32
##dasar
##didik
Gall
Gorontalo
~
Glob
##ukitan
##uke
Buruh
Wilson
Araneus
Ish
ori
ran
dihadap
PR
merasakan
×
##entuh
waris
fem
Front
kreatif
pelayan
Permaisuri
BM
terikat
menuliskan
Pierre
diskusi
bermarkas
##TS
Zi
##ibi
Terletak
##ulf
##anus
alamat
menyuruh
Rubiaceae
Office
•
##usc
Wisata
##ersihkan
Abraham
dihitung
Aq
##lash
tit
Bela
Kala
##gantian
asosiasi
Kebijakan
diawali
jenjang
##itmen
akrab
##rio
##emani
##ijan
##wit
disukai
Kadipaten
Rab
##aliansi
##endungan
PG
Micro
Lokasi
##yeong
mens
Guang
inisi
Bosnia
publikasi
##aci
Cao
run
##alagi
##anduan
melatih
penderita
##86
##fin
basket
imigran
sekadar
penampilannya
diha
pura
kurun
habitat
##lasifikasikan
##epos
Jog
Rei
jamur
angkat
pembantu
##reen
##yanto
Kans
Panda
Digital
Nig
Desain
memeluk
kedaulatan
##urne
Laur
fosil
dihapus
##én
##anja
##eras
pendah
##lia
##omm
##amik
val
diraih
Gentian
Twitter
##imba
##umas
Conn
berhadapan
Gentianales
Maskapai
posisinya
MU
##oser
##jung
##resent
Honda
##cam
kn
##emudi
##filman
Lewis
##ebutkan
penaklukan
##kala
Stat
jazz
Tugas
Oh
Aur
frag
pita
finan
##endalian
Kondisi
manfaat
naungan
pentingnya
petualangan
##asuki
##ulaan
##opuler
gajah
AB
##iksa
Lev
Temb
berkarier
##eps
##yut
##iteria
rohani
penilaian
##tung
Rio
Poké
meja
Makanan
berjanji
rekannya
##ident
Business
arkeologi
pembakaran
terpenting
Prak
Struktur
paroki
memperkirakan
Nah
##istry
bersik
oposisi
republik
##chan
##kada
Titan
genetik
berkunjung
±
mental
spiritual
##andria
##larasi
mengkritik
##hew
has
mengerjakan
##vitas
tabung
dipenuhi
Sriwijaya
insinyur
dikaruniai
##icial
Tong
Konsili
galaksi
bernyanyi
Buah
##aluasi
robot
Didirikan
##oleon
1905
Alan
pujian
berpend
san
Mahkota
Wilhelm
Tory
Edition
##ás
##emik
##ites
##wich
Hatta
Apostolik
mewujudkan
Boston
meluas
politisi
minoritas
Asing
mengor
setinggi
CS
sya
Kode
Paku
kesejahteraan
165
Sarjana
terdengar
diperbolehkan
##erai
Koda
long
memf
panglima
merencanakan
##jara
Matius
States
penerimaan
##alth
##erminkan
##elo
padanya
Minahasa
memotong
135
##estra
Fair
Cross
indonesia
Gog
Singh
diusulkan
##uit
piano
mengikat
Bap
Phyt
Azerba
memori
Ensiklop
Ivan
Syarif
sepakat
##92
##inium
Gajah
Atlantik
##omon
Java
Venez
Pati
Warisan
peranan
perunggu
Cle
div
##unami
Gon
Home
kerugian
107
Nak
##iller
bermakna
filosof
pengukuran
Dil
Taj
Force
Studios
##angdut
menyimpulkan
##tunya
mandi
prosedur
mengangkut
cr
##entak
##ujukan
##eimbangan
Magelang
perjalan
pembayaran
##lama
kew
##vania
bant
akurat
lautan
perilis
psikologi
pemeriksaan
sm
##egak
##stan
##uantum
##ingguan
Perkembangan
##cial
##osan
Last
semasa
Log
##idiki
##alinya
temperatur
##AP
##ław
##ungutan
konstan
bersalah
##band
##erjasama
Ceko
Lukas
laju
dihadiri
Liverpool
berlebihan
Boj
Kay
Riz
Jane
Wolf
##antaian
##ampungan
##angkai
diken
pengembang
##hum
##inger
konsumsi
karenanya
tanggapan
##ekt
##waan
Ryan
Napoleon
mengeksp
membiarkan
##eksual
domba
Panicum
##hin
##esus
##imon
Trin
Harian
Manado
rentang
kesultanan
##qi
Lihat
efisien
Slov
##aterai
parkir
MTV
##enburg
##34
pembunuh
menyatukan
Rain
bangkit
jenazah
diameter
kenaikan
berlawanan
167
##endum
Margar
European
##organisasi
Harvard
Isa
Slam
Syam
badai
Review
memuji
Venesia
membran
Your
Zhou
boneka
dilindungi
##39
jo
##lien
Imper
92
Bund
Queen
diwak
Kardinal
mengawasi
intelektual
minimal
Sosialis
disahkan
mengukur
astronomi
pemasaran
pertukaran
penyelidikan
##yle
##sesi
Centre
##ESCO
Gri
gambaran
keindahan
pedalaman
gran
##uransi
menyus
sekunder
Gam
cat
Nepal
datar
sirkuit
miliknya
##wer
kond
Christoph
praktis
tugasnya
Brad
Laksamana
##NC
##osc
Stone
diartikan
##uer
NT
##load
##edang
stand
berapi
Hidayat
##oalan
Joko
##mpingi
gitaris
bertajuk
diundang
##pret
alur
ketimbang
Tua
Wel
dec
##ewaskan
Sebelah
membawanya
memberinya
##uch
##usta
obatan
Hub
sepasang
Azerbaijan
1916
Abdur
putus
Madiun
##iris
##elus
pendaratan
##tul
##arag
Karier
##afs
penggabungan
##tol
Korps
Phytomyza
Det
##engku
truk
mitra
Paroki
Republ
terlepas
permaisuri
##urs
XX
religius
Wong
UNESCO
Kennedy
##ED
##oss
##other
Meta
##elijen
finalis
memperhatikan
##dia
Ps
mic
gemb
156
##ampong
Angka
Polri
kepribadian
bersedia
##tom
Marinir
dibatalkan
ass
baw
Light
mant
Balik
terasa
lembut
Sisilia
pengajaran
keterlibatan
##EM
##lanc
Eun
Soph
##ameter
Sanskerta
##yet
IM
Eff
##angkitkan
mendalam
MT
seter
Clathria
ditingkatkan
##dice
##incian
sumur
berkarya
##epan
Hell
##ajinan
##otesis
melaju
##ists
asalnya
seluler
Pasangan
##mau
Istim
Konvensi
Est
Trip
Lumpur
Yehuda
##odoh
##usianya
##iaga
Ibunya
##illi
Mit
Vla
Refer
keterangan
mencerminkan
sun
##itamin
surga
penangkapan
106
##enger
Bari
Neo
Sho
Asal
Mongolia
Samudera
##lakuan
penal
Puteri
Toyota
tidaklah
##awar
Albania
##cient
Dist
Planet
atasnya
disusul
##yataannya
Islandia
Kolombia
##enci
##syah
Arj
Oly
Trich
tenang
meletus
##erg
Got
##intar
Serie
kredit
berawal
menud
##UM
##eor
cac
nor
salinan
tampilan
kontestan
Wall
Pahlawan
transisi
dibubarkan
wew
inc
Yaman
ideologi
menewaskan
##42
Jud
Nip
Zain
Pohon
Econom
bentuknya
diceritakan
Sten
##imbing
magnet
penghasil
Xu
##gawa
##adasi
##mentasi
berkont
bekerjasama
##tics
Jok
Cila
dinas
ditanam
waktunya
##urik
pengurus
Facebook
penasihat
##uko
Umumnya
Istimewa
bercerita
kosm
server
Gan
primer
pendidikannya
##top
Pura
aliansi
buat
Marsh
tembaga
ekspresi
##tah
Ast
demokrat
Bapa
sore
komod
campur
Wikipedia
kebangsaan
Bait
Lind
bicara
Laporan
kuasa
kemanusiaan
##raw
Pengetahuan
##tianak
rub
##tanya
##cas
##kie
lim
Sard
##hy
##ía
##enz
Cil
##esign
ragam
##epakati
##igurasi
tepung
telinga
musiknya
Intro
larut
..
...
menutupi
berkualitas
##49
##SIS
Das
Gua
ruf
kompilasi
157
Misi
Week
ABC
##ecualian
##elisihan
Pd
##arit
##isau
surya
menembus
konvensional
##sid
Geo
mempro
puc
pisang
##ongi
ara
##ophora
busana
DJ
##ines
##ternal
hamil
##TC
##ovo
##inasikan
Aktris
Shir
##anggul
Brian
nukle
negaranya
101
usah
cerdas
Pangkalan
perdebatan
##xon
CO
segar
Moskwa
gawang
jalanan
KK
rer
What
Chili
NBA
Burma
dialog
##awatir
Briga
citra
pidato
telekomunikasi
Uma
Who
Apple
menilai
sungguh
##edikasikan
Fish
hulu
Naruto
pinggir
permulaan
popularitas
##usik
##31
##enan
Norman
review
peluang
117
##graman
Alfred
fer
Daily
##reditasi
##rt
Sipil
sponsor
Krist
kargo
kecilnya
##yll
kapan
dikendalikan
Ide
Saf
##ongkar
ternama
realitas
tingginya
Va
Hati
##ftarkan
Pokémon
bik
NASA
coba
Android
teratur
Mgr
mengas
Pacific
ditembak
membakar
91
##ichi
tadi
bersuku
dak
live
Child
bawahan
senilai
##onder
audio
kedelapan
perbandingan
Ira
Anat
ditawarkan
pembangkit
##asci
Jing
sind
semif
kriminal
##ahbis
penjah
kodepos
##ariah
hantu
ketak
paham
didesain
##dinal
kontroversial
##UD
##gerakkan
##unggulan
perikan
Perbedaan
##inu
##inea
Gabri
meyakini
persatuan
Pariwisata
##AL
##silah
Andi
Lock
##lorasi
##elesaian
jajaran
##enta
sor
Over
Comte
Roger
menyeber
Forum
nyaman
identik
ketiganya
##his
yo
Wad
ا
##rahman
Hewan
konsisten
pengikutnya
£
Kod
Oxy
##akapan
Bugis
Bangka
lagunya
##anggotaan
##ove
AR
Well
Senyawa
beredar
pelaksana
##etts
##paui
1915
Virginia
bertempat
berakhirnya
berkontribusi
##cur
Rang
bapak
memanjang
panjangnya
penyerangan
##akata
Daun
Down
cons
legend
peroleh
dialami
Perdamaian
peternakan
##ugaan
1906
ketida
bernilai
##idor
Hun
##iting
Pram
Pengg
Berita
##ved
From
ditak
##intanya
article
perikanan
dipromosikan
##rang
KRL
Metropolitan
##ery
##gio
Ele
ikon
transaksi
kebangkitan
##GB
Under
malaikat
##mes
Moon
KRI
##tikal
Line
kotamadya
memperingati
les
##ftaran
otonomi
##par
Johan
Penda
biografi
##asari
basah
memperb
menunjang
Pernikahan
Secret
berputar
pemisahan
seterusnya
##pes
Ayu
Neg
Dian
##anjikan
##adaannya
Kesenian
##emier
ideal
##anjurkan
AFC
##ipennis
lereng
eksklusif
##uble
dini
Universe
nitrogen
Pontianak
Administrasi
##95
##apaian
Garuda
Pho
Sit
sex
pacu
saran
universal
##ensik
Food
##onium
##rod
hay
##US
145
Gempa
Liang
gravitasi
Lag
Tre
##elson
Davis
Olymp
system
pertimbangan
dimas
larangan
##elir
Naga
spin
##duseri
Siprus
sampel
1908
Plus
Afgan
Kenya
kanal
mentah
##ulingkan
klip
##ovan
##uela
spec
Bruce
radikal
horor
kubah
TI
manapun
perbukitan
##UH
FM
108
Perl
##rys
utuh
##impangan
diucapkan
Sarawak
garapan
##pt
Ai
Sew
Tul
perkembangannya
##arangan
penyiaran
Gug
survei
ekstrak
romantis
Fly
Situ
Saleh
Margaret
kolaborasi
##eva
##pore
##empel
Jaringan
##into
Aff
##orter
Sher
mengamati
##cul
##tone
Wind
gand
neur
sensor
##book
##eron
Pit
sejati
##imbingan
Ug
##etul
Akh
Kutu
melemp
ekspansi
disesuaikan
##EA
##cs
##uba
Deli
Arist
diputar
kepolisian
tal
pertambangan
nan
##uncil
krom
pipa
Cucur
Kebumen
Profesor
misterius
dikembalikan
##ugo
##edes
##odin
Alb
##eknik
##idasi
paksa
##att
##tinya
##tani
Cli
Bisnis
Hassan
Pep
sihir
dikerjakan
Hum
JKT
dituduh
menyambut
berpasangan
Dut
Neder
River
tikus
dimuat
##antha
##eriksa
Tepat
memadai
menonton
##gro
Pre
##iayaan
##antumkan
##intahkan
elektro
perjalanannya
##eca
##esin
##osom
Meh
##ogram
nyar
Henri
Urusan
komite
##eba
##anjur
Beat
Spir
rumus
klorida
Magazine
terbentuknya
##warsa
Panas
berpenduduk
Pek
sepatu
termuda
tersusun
dihormati
##ulia
Aud
jati
##41
ram
##lahir
soundtrack
##ely
##ysis
##sihan
kartun
melukis
##tz
##ikm
Moj
Wen
##iturgi
Stock
menghitung
##CI
##imbah
Ever
##utanan
Movie
hiper
hidung
Pid
##ingham
dinik
optik
hidrok
dikumpulkan
meningkatnya
Mim
sepupu
timbal
Matthew
Standar
Cucurbit
pengamat
memberontak
##ship
det
yay
Basil
Donald
seputar
perluasan
pernikahannya
##idin
naga
Nilai
salju
berstatus
berkomunikasi
##rise
Lady
##arinya
spektr
Anthony
Hem
##idupkan
persoalan
##akes
##itya
##ptis
##ujur
Engine
Universal
##33
##UN
##sb
##won
Civ
Fad
##ather
Meny
Fungsi
bertepatan
116
Bart
Library
Vatikan
memasak
##ingkirkan
memuncak
Television
##inari
1907
##amankan
##engketa
##ning
PKI
one
Hang
basa
Betawi
seolah
penciptaan
Rum
##genre
##anggapan
adipati
Sav
berkelanjutan
##ophy
pre
Leste
Libya
lantas
Kit
Non
##eritaan
down
berdi
##egradasi
##encananya
3166
back
olah
menjamin
##edik
Cro
Pay
##itiga
##urian
##esokan
batik
menjuarai
##olas
Turn
visi
##emah
168
Arsit
wewenang
##cia
##get
##umo
##ombak
salat
persekutuan
##ness
Mut
##injau
Delhi
Sachsen
Sayangnya
Inv
RCTI
Sound
mengob
unggul
Airways
kesamaan
sukarela
Dja
don
Gran
Kres
##jataan
teror
Dingin
keliling
didapatkan
##hao
seragam
Begoniaceae
keterampilan
##aly
pras
Chron
disek
Cucurbitales
GM
Yong
Rider
Social
Bohemia
penutur
berujung
##897
Ax
##osal
1901
kerusuhan
mencintai
Gag
##inator
LP
##imah
##otte
##ukung
gram
##tagonis
Keda
Johor
Sarah
filmnya
berlatih
##unk
##ilya
Nad
Jend
bara
perg
Harapan
##ensin
berburu
dioksida
##agen
Datuk
dikab
masuknya
persaingan
Mum
Amin
Gord
Kampus
memelihara
##rium
##ellow
Kyai
##embara
sandi
Arjuna
ilegal
kriteria
Sea
##amida
##itraan
Sof
Hana
##umentasi
memohon
silinder
##chy
##astis
Rick
Terbuka
Technology
Potter
majelis
Johannes
Arc
Hlm
Bukan
Cheng
##doa
Idol
kapit
mengkh
Shad
yayasan
komentar
Enam
Nord
Pesta
asasi
letusan
bersangkutan
##44
##abad
##amily
Yuda
file
Nagari
khawatir
Testament
##odia
##opot
proto
Sumbawa
Standard
menyiapkan
##gie
Hut
can
Peran
pemul
##tice
Borneo
Paskah
dibakar
Kekristenan
##nen
##valeri
inform
##eliharaan
##fo
group
lipat
##iskinan
Christopher
##ices
leb
Said
mayat
Carlos
##kul
Vegas
##cast
##kandung
Masalah
tongkat
nag
disel
berkolaborasi
##TM
##injam
Zona
dipahami
##RC
Hom
Tap
##cepat
Rela
Pekal
Europe
##usuk
##erdas
ramah
Singapore
perilisan
##idik
Tik
##rikan
##utipan
Century
mingguan
diperluas
Kayu
Audi
##alonkan
Ericaceae
##ecah
##atera
kepalanya
##anag
##ogne
Hur
##esium
##usuhan
Anwar
Babak
finansial
dipertahankan
Amp
Menj
Batam
Michi
berik
tawar
setelahnya
##hua
##otbah
grafis
pemrograman
##vey
##enne
let
jawaban
perfilman
##amar
##ching
Jenn
Salam
##onstruksi
##inju
Gem
Sop
Wild
Sybra
buahan
diperintahkan
Energi
Dataran
##tal
ing
##arikh
##iliun
Hilir
apartemen
meletakkan
##ocent
##ebalan
Istri
Jarak
Council
ciptaan
menyutradarai
##rejo
Khal
dihar
sampul
Pendiri
pergantian
Profil
Artikel
lanjutan
##alihan
mendesak
didistribusikan
Mits
##atrium
hiasan
tahapan
perselisihan
teg
sawit
Govern
jangan
astronom
Massachus
jangkauan
##back
##ript
penemu
Antonio
karangan
Frederick
melampaui
Management
diberlakukan
WW
##mund
##impah
##teral
opera
Mazmur
Madinah
kemampuannya
Tes
##rum
Bil
Bach
Denp
reli
seberang
##tory
amal
Tempo
kastil
##burgh
##entian
Kedung
diduduki
Mediter
137
##umuman
Atlan
Osaka
Ferrari
barunya
baterai
bergaya
kuantum
membatalkan
##yin
##feld
##nica
akal
Io
##alak
136
Tob
Ahli
codice
##onsentrasi
negosiasi
##ince
time
world
Rahman
inspirasi
##xy
##otop
Hop
Dead
Sambas
menjatuhkan
##lic
Gong
Biara
Kimia
##elompokkan
kesembilan
keseimbangan
##asu
##gap
Tujuh
Markus
Massachusetts
karb
diajarkan
##bout
penghasilan
Ara
Bow
MPR
Vari
Death
Dukuh
bumbu
Warner
Venezuela
##idan
##onde
Pemen
sepur
##isma
##aktat
Fall
Orig
rasul
##kk
##emasan
Syaikh
keraton
##EL
##cakan
Four
Wars
Wisnu
skuat
menyerbu
##hio
Row
Stef
akademi
##abet
##esse
##okia
##uksi
Letak
klien
Keempat
mendengarkan
##athan
panah
Family
Rektor
bermukim
97897
tegas
Keadaan
##IP
sulf
##isaris
##rog
##iraun
Pihak
dibuang
##gic
##set
##yaw
Map
##undingan
ster
##rofesi
lensa
berman
##tut
##ejut
bub
Amar
Minang
Chu
##akkan
Back
Vinc
memu
rokok
Ludwig
kerajinan
Demokratik
##pora
otonom
Bernard
##és
##cks
##ping
Dyn
Rhe
##lihatan
goreng
##angsungkan
##dic
##reasi
Ther
##adirkan
Miller
sarang
lintasan
port
##ordania
Sempat
jatuhnya
statistik
##uin
Garis
##gromyza
Turnamen
bereaksi
kelahirannya
##jat
Fel
sop
Hugh
lingkup
##berger
Western
Diponegoro
Pekalongan
rent
Citra
Xin
##ersey
##ungkus
##zia
aer
##impun
##utang
Maul
Thor
Jordan
tombol
##unculkan
pemilih
##endekiawan
mendefinisikan
##eur
126
##uansa
pala
tump
wangsa
##emo
key
Marg
Rail
dugaan
Denpasar
berpisah
ketakutan
Ly
gurun
Maroko
Cilacap
usianya
##aksin
##yanyian
Posisi
Tenaga
gerejawi
##elin
147
1898
##alangi
##ulatus
count
Terjemahan
Konfederasi
perpanjangan
##cera
##worth
##bourne
Telkom
##oge
Graf
##ensial
##fri
Jew
##gorit
1890
Cong
Iman
bungsu
timnas
##elanjaan
##com
##dle
nol
Alja
159
##satria
natrium
##fal
##ungkapan
vertikal
modifikasi
##ici
##isha
Gusti
Chinese
pengisi
Kehidupan
Het
Jami
index
keterb
melingk
Tumbuhan
##olk
Bes
##asila
##etulan
dipersembahkan
##ends
##zair
Aman
Hero
##faatan
Globe
Express
##opor
##anting
ITB
Area
Pasir
kerbau
Afganistan
Aziz
Teb
##upang
##osia
##itkan
kura
##amerkan
dibuktikan
pemungutan
##pong
Kle
Lis
##arius
adil
pondok
terapi
kardinal
ec
##evan
Litu
##olitik
##anganan
##jakarta
Taurat
heter
UM
Hud
menyelidiki
##fsir
Vit
##ariskan
Queens
perfor
person
mengarahkan
mengantarkan
Gat
##eller
##imanya
alumni
Bangkok
penerapan
sumbangan
##entum
entitas
pasaran
pembelian
Keg
kub
Biro
Thai
kari
mengec
perisai
##enderungan
##gug
##ating
##tonia
Nugini
People
Racing
##GI
##cang
119
##injal
Educ
Mali
Prab
kesep
Gordon
Mandarin
##fare
dri
##papan
Kamen
##ekayasa
Mekkah
perusak
mengurus
SDN
Gres
diukur
kostum
Perjalanan
Bod
##edaksi
terima
diwakili
##ouch
1903
Rose
chart
sedem
##udahkan
tegangan
legendaris
##don
McG
##lakan
bergenre
ketidaks
terlaris
tangannya
##alus
##anai
Oric
Masing
domain
Hamilton
literatur
usahanya
##wick
##iform
sesa
Linux
Religi
section
Catholic
Kuningan
eksperimen
menghargai
Study
memukul
perempuannya
sia
Cabang
penalti
terkecil
##adak
Ulama
memus
Lituania
mematikan
Ida
Nev
##craft
Hold
hier
emisi
mamalia
muridnya
##mm
CA
##aser
##impa
Zen
Ethi
dasa
Tentang
beasiswa
dikenali
mimpi
Beliau
mengandalkan
ال
bata
##epalai
##ference
Sev
komisi
nyaris
Demokrasi
dipelajari
berdoa
kursus
matang
##bong
Syn
That
Catal
Quran
Sakti
##emakmuran
Memiliki
penjahat
##lap
bad
serba
paduan
barisan
Fernando
bermacam
TH
##onial
##ontal
Herz
asap
keadilan
ES
Qin
menyem
digabungkan
##ipes
liberal
EP
##arau
Histor
Vernonia
Cab
inci
##engkung
dituturkan
Lyn
1902
This
Reich
history
penyelesaian
kawin
Aksara
Oricon
metabol
pamannya
Pekanbaru
kurikulum
tercantum
##anol
##illes
faksi
Antiokh
semifinal
Kha
Ross
kelebihan
Free
Koto
forum
menuduh
terowongan
ip
##asarana
Nations
terkejut
produktif
kewenangan
##rier
Wed
Kebun
janji
hektare
Perjuangan
keanggotaan
keunggulan
pengendalian
##epi
##ghan
Jason
silat
sirip
biologis
permohonan
##PT
Ian
See
lisan
syair
##ensitas
##yawarah
Jokowi
##tek
##tie
##ries
1904
##duktor
ratus
renang
dilayani
menghapus
perbelanjaan
128
350
Baw
##arisi
kutub
Balikpapan
##odor
##peri
Andy
Markas
antrop
Bed
you
##raltar
pemakaian
nav
Beck
pikir
wahana
Lambang
rujukan
##ér
##enium
1895
Kamis
Masih
tanam
geografi
pembuangan
Sug
nik
##arium
Burn
indeks
master
##urikuler
Ancient
Toronto
metropolitan
##pau
pg
we
118
boy
sila
Berkat
Reaksi
berkec
pendahulunya
##phy
Kö
Yordania
Dai
Pekerjaan
melengkapi
sedemikian
membersihkan
##tuh
##asad
129
##orial
##untun
Full
walau
Ternyata
##zal
kupu
##uage
Meg
naf
Bara
##aganda
##isolasi
Nil
Ujung
varietas
##odik
Joseon
dirasakan
##sidi
dihi
nark
Moore
fragmen
##yg
##vik
##odium
Willem
sayang
membujuk
pelayaran
perlengkapan
Hea
cal
kanon
berprofesi
konservatif
Clo
Fan
orn
Mini
##ularis
pastor
santri
Regional
diselamatkan
##ety
##egel
##pektif
##apuskan
##uge
##iria
##irsa
##enberg
kelaparan
##eget
158
Zhu
##bukan
##ipula
Sams
sand
tempo
gudang
Gibraltar
##cio
##iff
liat
##tifikat
dilalui
keramik
sebelas
diiringi
penghubung
##gant
##othy
##eteran
janda
##ususkan
Mobile
Torymus
protokol
diperintah
##olit
Aji
Hip
José
Iskand
limbah
Terakhir
berdampak
memudahkan
libur
tsunami
berpengalaman
##oon
##inik
##uria
hits
##ectron
Aljazair
##oday
##atuhi
##ongga
##rough
Ageng
pisau
ukiran
Kresna
kemiskinan
##astr
UNI
dor
##inten
ucapan
puncaknya
statusnya
##hod
##olok
Terk
Chall
Baj
##jiang
##rix
Moz
Terp
panel
vitamin
nasionalis
demonstrasi
##opes
##ompat
saudari
dipotong
iP
sibuk
kejaya
dasawarsa
Sebagaimana
penglihatan
##kantor
menunjukan
##ds
Kra
##ustus
Kyoto
Grammy
##view
Bursa
Jember
netral
Ima
##rence
##injamkan
geologi
katanya
delegasi
mengutip
##gl
dijabat
temurun
Slovenia
pakai
##estarian
##encaharian
##indikasikan
Sebenarnya
membangkitkan
##emer
##ylvania
sosialis
##embunyikan
memulihkan
STI
mud
##tensi
disa
##imeter
Kongo
Women
bangun
berkom
diamati
kehendak
pengepungan
##tav
##rest
imb
raj
##ombaan
##osistem
Sinetron
##lambat
berinter
Pembentukan
ID
KB
fisi
wasit
direbut
hambatan
bertanding
penderitaan
AF
##egahan
Marga
dikur
diesel
efisiensi
Penampilan
mendeteksi
##uy
IU
##otis
1909
meneliti
mewarisi
mengejutkan
##IC
##alal
1897
Banda
analog
Eksekutif
bimbingan
Miz
etika
serikat
perolehan
##stein
Arsenal
bercerai
khalifah
mendiami
Ptol
Susan
##ustrasi
##mid
##ches
##chin
##ledge
Krim
sayur
sentral
mempercaya
cek
With
Malta
##ensinya
perbankan
cl
Gamb
star
Istan
##ulainya
ginjal
Dra
##intik
kemas
silang
ditrans
##fah
Gur
Films
semak
Zo
Kub
ekstrem
investor
mengamankan
##rig
Wit
##ening
Parker
hilangnya
jin
puas
##ardian
tas
Brazil
pembah
##retariat
##yth
##inas
##atika
##ission
abadi
Huang
irigasi
##box
##emy
bahagia
##marhum
Afghan
Ikatan
Manila
Jupiter
darinya
melekat
perkataan
##obus
Edo
##anjak
##hr
##pres
Lie
Run
##antun
##tation
Golkar
##erd
day
Volks
samud
gal
Billy
##ilisasi
tawanan
dicampur
pengujian
##ampa
##amoto
Hymed
bensin
Monumen
pembinaan
AG
Ze
##ukar
arena
##arannya
Jersey
Spring
penghuni
terungkap
pengecualian
##alel
Head
Karo
SCTV
##impulan
Alaska
monster
sintesis
Berbahasa
Nun
Tat
mari
Sutradara
##anggih
##tigasi
menyentuh
menyenangkan
##CAR
##kus
Rach
hand
norma
##rediksi
Semenjak
Elect
Guide
penggerak
sekeliling
##olep
##ongg
##ores
##ische
##ributor
9789794
tembakau
mengingatkan
##eru
##agaman
Prad
##torasi
Bunda
celah
Pelaks
memaks
berinteraksi
##ín
##act
CP
##yono
Yer
Asam
Lemb
Walt
Allen
##ahbiskan
Jombang
Inn
Tag
dikutip
kantong
Iskandar
menggunakannya
##eha
CH
Dun
tro
##inton
Widodo
inovasi
memasang
##mel
##gedi
Adolf
patri
Kompleks
Pertemuan
bermaksud
diperkuat
sekalipun
Deb
Lex
Yas
ink
anal
dides
kenal
pengk
racun
landas
nagari
Pandawa
syuting
mendadak
spektrum
penyerahan
##arbon
Hamb
trib
Benedik
Menjadi
Banyumas
Michigan
##ventus
fantasi
##ilas
Sag
Mant
Was
##eting
##uatan
##entase
berlaga
##ete
1899
Crit
Gang
about
tamat
tegak
##artment
##anagromyza
##less
Stra
##debatkan
spesial
sejarahnya
NA
nu
##amia
1896
##umuskan
semata
Charlie
mengenang
fungsional
DS
##akum
##ukir
Kre
##iayai
Dick
Wahyu
mulia
Health
##olongkan
cikal
Penyakit
##ape
##ikon
ump
Elis
Franç
bermatap
Dark
Tert
##mental
penjual
sambutan
ditangani
orangtuanya
persembahan
##mal
McD
Laos
fans
Baron
Nigeria
mengkon
Disamping
Pancasila
Bersenjata
cendekiawan
CM
HIV
##abumi
Gresik
diusir
eksternal
Politeknik
Astr
peduli
vulkan
Rup
via
sint
engkau
kekaca
argumen
Sumatera
terdahulu
konfigurasi
Ric
##harata
Konon
Wijaya
terlahir
Bull
Demi
Ferdin
Anthrax
England
Kurikulum
Trump
Melbourne
dilepaskan
kenyataannya
##DP
##oha
1870
saus
Fisika
tebing
perlakuan
Rasulullah
Ata
##akiman
Perangkat
menanggapi
semenanjung
##gg
Bey
Euro
Mind
##ashion
pembebasan
muk
Seng
Usai
Fitri
Kodam
fraksi
Philippe
Cour
Jama
asrama
konsol
Special
agregat
dilatih
pemirsa
bagaimanapun
##ects
Obat
beli
Alice
Diego
##ization
referendum
terpanjang
##tura
##barui
kekacauan
Á
##ier
##ulg
Get
##jakan
impor
Johnny
Kampanye
##ips
Ternate
bersembunyi
BS
##uaya
##jamin
Egyp
maaf
Arena
Singk
Teologi
MH
om
Melas
Stars
Mys
Ret
Samos
islam
artileri
##EAN
Walau
##okuskan
Aja
##jawab
##leksi
Mbah
laku
penutu
tunduk
pencari
Komputer
diplomat
##hie
##sey
##last
##oder
Era
##hogun
Prim
setan
##enstein
##klamasi
##hop
##tica
Memp
##ubungi
tenis
##gabdian
padahal
suaranya
mengabaikan
##GA
##gor
Wo
kehancuran
Introduction
menyesuaikan
Istanbul
berbahan
Harun
diproduseri
persenjataan
kecenderungan
menab
konsonan
perpindahan
##vier
Zul
Gede
Koes
##ikator
kawah
Nelson
merawat
nasihat
sekolahnya
didedikasikan
##met
##roli
Fah
##elium
##endal
Babil
##ikirkan
Kucing
Steven
Australian
##LS
##pers
soc
tutup
persis
lambung
terpenc
hipotesis
Aleksander
ketegangan
McL
1889
##uskrip
Second
Mex
Raw
##lasik
diakhir
parasit
Pemenang
accessed
sifatnya
€
##ben
##opy
Perc
dong
mand
##amilan
##hitung
Salim
Region
Aplikasi
Ethiopia
##PN
##TO
ps
##cadi
##ompa
Cob
gay
Ciri
pengawal
Uz
##hich
##ilda
Guy
ungu
Garut
##gad
HAM
hard
Gading
mengepung
##fan
##aseh
Nis
Babel
Kulon
Inilah
Napoli
##idupannya
dipasarkan
RU
bund
orig
taktik
Habsburg
segitiga
disepakati
fon
elit
Tulis
dikat
##arahkan
Karawang
##lyn
##oven
##mouth
##ovich
##timal
##omposisi
Belitung
Jak
first
Persemakmuran
##eds
##entaskan
Juventus
##gung
##inata
Marta
##apas
##otensi
##utiara
Abbas
Asyur
amatir
profil
Pembagian
presenter
##omendasikan
##arter
Aksi
Dance
Mantan
##larasikan
merekrut
prefektur
tersembunyi
Gao
Aram
Alber
bangku
isinya
Kembali
dirawat
peti
Tubuh
##kat
PB
Ty
##ones
jan
Bollywood
mengakses
dimodifikasi
##raja
##ondis
sari
stud
tombak
Resimen
Senjata
migrasi
mengontrol
penggunaannya
##thers
##utaran
singa
##opulerkan
dirayakan
perancang
menghambat
Farm
panc
##optera
ambil
Wright
imbang
penolakan
##bk
##olet
Teh
Two
ges
##oting
plan
Potent
memeriksa
menantang
Qi
##kara
##escens
dekatnya
mengucapkan
##oord
Aga
Nes
kad
##erine
komposer
Dw
##aktu
peg
##opros
terganggu
tulisannya
MC
baca
##atuhan
##ondong
Phila
tarif
Howard
berkep
bermanfaat
dikonsumsi
##hari
minor
Ernest
##eric
##asaki
##eland
this
Fitur
disini
finish
kolektif
##vana
Joan
Plaza
##enggung
Suzuki
Ukuran
usulan
koneksi
menanam
Aj
##dahului
##eluaran
##ogaster
cerpen
batasan
mengudara
Potentilla
SBS
##askus
##ensasi
Tapan
Pilkada
pasokan
reaktor
klasemen
sendirian
##igo
##lee
##iago
Die
Sabah
mazhab
Buddhis
tentunya
terbitan
setingkat
menyerukan
percakapan
pemeliharaan
##ids
##itte
menerjemahkan
os
Ulu
imun
Penns
kental
##ungsinya
penjuru
pintar
##yce
415
Box
dkk
haji
Menga
dapur
##dayakan
perempat
Earl
Status
berkantor
diteruskan
Rai
beton
Brebes
berbuat
##olat
Kuning
Jonathan
variabel
##GP
##ilh
Fore
List
##cadion
Chlor
##anggalan
penggambaran
##enk
BB
##isia
##sida
##tiar
##tius
gov
##atory
##istor
ASEAN
Galil
Heter
##iminasi
Gabriel
canggih
individual
pekerjaannya
##oco
bayaran
##iripan
Abdurrahman
##antasy
##awahan
lingu
##ataceae
teroris
rencananya
pengasingan
##rek
##egro
##lass
##arita
Bagh
Boys
##akuasi
##enggam
##omendasi
##organisir
pengangkatan
##abuk
Lak
kir
##shire
Build
selebr
##aktifkan
Lawrence
dieksekusi
revolusioner
##ories
progr
berkap
pencapaian
Mediterania
##ATO
CIA
tor
Hadiah
Estonia
Hasilnya
Sebanyak
penyedia
terkesan
diarahkan
##upi
Rol
its
Mess
##resikan
Kazakh
pemikir
Ferdinand
diperpanjang
Cim
##ahkota
Empire
NASCAR
pembantaian
Kiai
##ondisemen
didorong
akademisi
##ful
##itel
Pow
epis
Upaya
##ussalam
Caesar
berlari
hatinya
berbunyi
berlatar
##furt
diga
tamp
nanti
Slamet
Brigade
buahnya
perundingan
Pennsylvania
dilakukannya
NS
STA
##aktur
Franz
Pabrik
penyus
##kol
1860
usai
##anaman
##orpedo
Fen
ari
##ellus
Kash
Delta
Hamid
Jiang
Kalau
Pastor
##alisasikan
Siap
##eransi
##goritme
Ana
Trop
diap
keping
Sembilan
LI
Bros
usus
Perry
Tahta
Jurnal
Rachel
Keberadaan
##akao
Shu
Tanda
diseb
Panama
sangatlah
dipastikan
pengeboman
##ffe
Sac
Tot
1886
pemas
Telugu
intelijen
Kings
Airbus
Persero
keberadaannya
##EP
##imu
##wali
urban
berist
kuliner
BT
pistol
##enix
##isal
Pria
Konserv
Pesisir
Kematian
##aren
ATP
Gian
Sport
##angkang
layaknya
instruksi
kelemahan
pengantin
##hea
ci
##egon
103
138
146
##opeza
##ajukan
Jessi
teras
##badinya
Diperk
peramp
subyek
Melastom
Sciences
komoditas
tertangkap
mempekerjakan
Melastomataceae
ji
##ians
##ners
##talasi
Perak
track
##aralaba
dev
Zhao
buta
soft
##ingrat
patah
hormon
sumpah
##ogi
##gaan
hir
Rabu
Stalin
Swasta
perdan
perkara
Accessed
Sumedang
Arsitektur
##oyd
##bell
Alor
homos
masak
tempuh
bukannya
Publishers
Purwokerto
##aham
Ged
##ijaks
##opang
Memb
Sudan
Sepuluh
komitmen
piala
##erdasan
orbital
penanganan
berkapasitas
##atre
Silla
dukuh
Giovan
##icarakan
perkumpulan
##raktik
Swift
idola
Cooper
dinamis
paralel
##fu
wal
Palu
tend
##utrisi
menun
##badikan
Sidang
dimasak
personal
##RS
##eger
##omya
aur
Cook
Liri
Finan
rincian
Anderson
Kekuatan
prasarana
dikirimkan
perdananya
kehidupannya
112
##hiasan
Resmi
beracun
pribadinya
##kon
##main
boc
##inawa
1880
dikh
##enge
##semb
Ful
1885
##embakan
Sparta
Tepatnya
disambut
silsilah
mendeskripsikan
Cant
singg
menyam
Renault
gerilya
Sukabumi
##down
##side
gir
##ovina
sedi
dikabarkan
skema
Terjun
##egorikan
Myth
##ambung
bengk
Luther
Morris
mengira
Filsafat
menghalangi
memperpanjang
##arth
Age
##ahukan
teluk
Adalah
kebaikan
menyumbangkan
Jur
##arnai
1894
quad
##taceae
Philos
Segera
tembak
tindak
##ocentrus
##eley
IAIN
Kemenangan
dimulainya
##ouw
##enjar
##ijrah
##ondasi
Kairo
Limited
kemarau
ungkapan
Afghanistan
menghadirkan
##oln
##amus
XVI
1888
Boro
butir
Patung
Benjamin
Ō
##andy
##orogo
yuris
Agency
Jacques
##usai
Reb
lit
Shim
##angganya
Maharaja
##olus
##omagn
Gory
Goth
Mara
hadits
Fantasy
Slowakia
Liriomyza
##arus
Mai
##yeksi
Mats
Step
nyawa
bacaan
Sardinia
mengerti
##atio
##untung
botol
Blitar
Raymond
##lementasi
biarawan
prosesor
##aduan
Qatar
depresi
kepausan
Catherine
Oc
Dod
beta
##ukulan
Judul
Venus
didalam
kakinya
liburan
asuransi
pemujaan
pengenalan
memunculkan
Cu
bau
##uthor
glob
MM
102
Mün
lini
roman
##imental
aluminium
av
104
Sex
##minya
Linc
Sido
test
##ladius
Newton
gandum
teolog
##osiasikan
##resentasikan
Raff
dikritik
HD
wir
##upunya
Brook
Gambar
berabad
Pengurus
terhitung
##sson
Nico
About
Titik
demam
Sarana
cetakan
Sulaiman
berisikan
##awai
##ayam
Spe
##kandal
hop
##obots
Jerry
menaruh
##asy
PSSI
##iannya
Koord
##vet
##ffer
Hyd
##diksi
##inggo
##elaran
dangdut
lempeng
perlombaan
##000
Tris
Mangg
gener
perkampungan
##zel
##mani
##ejaan
Ruth
##ampang
cacat
fleksi
##enza
Feb
##ardjo
##esuaian
terkini
Nasution
Bot
Reza
Stew
Carter
Prince
##indu
pic
##ulisti
pelopor
polimer
pengeluaran
Liter
abjad
timnya
Gregori
##illah
Ular
mang
Report
Melihat
berenang
persimpangan
AA
##holm
169
NATO
Archi
Nicholas
akibatnya
pengumuman
##ix
##idus
##erius
Math
jaminan
Myrtaceae
fotografi
menyangkut
NU
Bha
##emari
##tukar
Prosop
propor
rupiah
##ications
dipecat
##sau
MNC
##dakwa
arca
mart
##ikmalaya
Halaman
memajukan
mengindikasikan
my
##wono
NBC
cover
kakeknya
Laboratorium
`
##jati
Acc
URL
Sains
wabah
Adrian
digabung
penentuan
vs
Belak
pilih
Setahun
Oriental
rasional
menyiarkan
Asy
Jimmy
seumur
Anj
Tbk
cerah
ekstrakurikuler
##mit
##roph
##angkar
Hijau
Point
##pretasi
gantinya
Pendukung
##yong
doc
Pius
hias
mainan
kongres
resminya
terbalik
kebetulan
##DE
##ikar
CBS
Jas
Shaw
minim
pelaut
Are
##esmia
Sutan
##egakkan
medium
nyanyian
kelanjutan
149
Pris
awam
tiri
Sports
antarm
menangis
tempatnya
##ares
aja
get
Mans
##enarkan
Classi
lumpur
Gerbang
Dak
gaji
##erjaan
Bactro
Marshall
bh
##loid
##asarjana
torpedo
##residenan
dihadapi
Ess
Rute
##ultasi
Pearl
Tabel
batal
harimau
Lain
Obama
Kapoor
Bactrocera
ditahbiskan
##jam
Fam
##ulung
alas
Kasus
Aliran
Selasa
##juangkan
Mycomya
baginya
##endi
##otes
kesan
teles
berdag
koordinat
terpengaruh
##lion
##aksaan
veget
##alurkan
Marvel
pengkh
keluaran
##KS
##osta
##erald
Tower
kutipan
Khalifah
mendaftar
perebutan
Hymedesmia
Tasikmalaya
pengurangan
##lace
nas
gila
##esaing
human
pupuk
seratus
tandang
##adik
Karim
kuant
Kastil
Vladim
berwenang
##lal
##apura
Baby
Jang
host
lang
Keraton
mencalonkan
LS
##atem
Dog
Kla
mutu
##uruhan
Adams
Legis
Barito
Patriark
##rd
##cle
PNS
beg
Jazz
Puri
##unikan
Strategi
menyamar
penjajah
konservasi
MD
##efak
##phia
madu
Barry
Ritus
Analisis
##alar
##ergy
##wart
Gum
Oce
##yarak
1884
Happ
More
Kutub
Observ
benang
masanya
geometri
inisiatif
##bab
##encer
Mula
Alian
Kasih
sedih
utang
Manhat
Premier
beruang
membuang
teleskop
##iny
##pei
##oriz
1800
Datu
Color
Kidul
facto
Leiden
topeng
##oprosopa
Ensiklopedi
##abah
##bawah
Tugu
Calon
sastrawan
thr
##arans
Siwa
Prinsip
membantunya
dilangsungkan
Gond
Kent
Know
Neph
sangg
Darwin
Umayyah
mengikut
Education
pemanfaatan
Yudh
Kamus
Tinda
manual
runner
politiknya
terintegrasi
RM
Bals
##esaran
##eke
##edal
Nab
##engka
1500
Schl
TVRI
Karno
##endarai
Pramuka
penayangan
##kum
##regasi
dipan
Guinea
mobile
gunakan
Manhattan
Alm
##embung
Cinema
lampau
Okinawa
kontras
disekitar
terpencil
##isy
##low
##reh
pH
kewar
Firman
Generasi
mengulang
mempercepat
##asc
GN
##atha
##ekar
Peg
Robin
##atannya
Summer
proton
pengantar
teritorial
SO
Tao
deb
Besi
##olisis
##ampakan
berkali
berpotensi
##jab
##iprah
##linois
Tommy
mengut
dihiasi
Buddhisme
Exoprosopa
sahabatnya
##orno
Fun
cuc
##ource
##ugawa
Ayat
Radi
Alasan
Canada
penyang
lembaran
hy
Act
Shō
Biru
niat
##agiaan
Yakub
surut
Russell
lahirnya
menggantikannya
##wiyah
##loitasi
liturgi
Illinois
Kemampuan
perhiasan
diperbaiki
propaganda
reruntuhan
konstitusional
tv
##amber
##house
##oplas
Hugo
frasa
endemik
perintis
disamping
mengakuisisi
NH
##esimen
##onotus
minta
##ufaktur
Karibia
Mungkin
Guardian
Productions
cir
Conf
Salv
udang
##ophorus
##empurnakan
Bagaimanapun
cc
##zong
Army
Mangkun
pemburu
otomotif
dikelompokkan
##zig
##ouse
Now
Fren
kudus
power
##casarjana
bermesin
diakhiri
sepupunya
##WA
##ramen
##manuel
Nokia
Tangga
sinema
penamaan
mengobati
Darussalam
Tian
Hanzi
Satya
##entasan
Julius
Serang
banding
Vladimir
diputuskan
##au
139
##amina
##osfer
##tical
##iskusi
sabuk
Philadel
Nederland
Melanagromyza
##kot
kag
##arani
##kulasi
##icaraan
puteri
rentan
##orientasi
membunuhnya
##iph
##kal
Cep
Fuji
Mycale
Kanisius
kemiripan
menyingkirkan
##ör
##hib
##rint
dpl
Anom
##ingkir
Achmad
##bag
##pol
##sons
Fire
ragu
Bakar
muara
Carolina
Gul
Hog
##asiat
##adukan
##ikayat
Baker
##inggung
sebulan
digolongkan
##opoli
Bint
Menc
menyeberangi
memperingatkan
##dap
fal
Heli
view
##kesmas
Battle
##KIP
DA
##etti
Kok
##aksikan
Kanton
220
Rao
##ether
Iron
Levi
high
##unggah
Beach
Kritik
drastis
reputasi
kop
Lisa
Moch
Nara
##ondria
bedah
##ipulasi
Kadang
Motors
isotop
##ulistiwa
diklaim
drummer
kuburan
berkisah
pengunduran
##icle
##yadi
##ahtera
ensik
arahan
menump
dominasi
waralaba
istirahat
keberanian
##hasil
##warman
Dokter
##ahagiaan
##impinannya
##illy
##vius
##ekali
Hipp
Sung
Opera
Mahmud
mengga
Cianjur
diakibatkan
##onn
##ucian
Madag
Pedro
apalagi
substansi
##ipe
##kab
##rup
SR
##entr
Sti
genc
##sional
sulfat
genetika
·
PN
##king
Laura
jilid
sejajar
Brothers
untuknya
##aras
Eus
Diam
##enggal
##urnian
kapur
kejam
Samosir
oksidasi
148
Hey
Lemp
Sinar
sisik
sumbu
##icollis
Jangan
cacing
jasanya
Department
Pembebasan
intervensi
##III
MB
TA
ray
##ragan
Kelly
Republic
infanteri
lokasinya
menjanjikan
##idel
##injauan
pandai
##ANG
##ère
##adat
Ais
bro
##etuai
dakwah
grafik
koment
gampong
pembuluh
Statistik
bersekutu
##ias
Gn
##dakan
Dang
kubu
##erra
##ihal
Kag
##mping
Baud
Fland
andalan
Anglikan
Termasuk
##over
111
KPK
Luna
Ohio
Dalem
Surga
Manuel
terkuat
virtual
budidaya
gencatan
pengawas
Conference
Madagaskar
demokratis
Dy
##bour
##head
adu
beribu
Tumenggung
##enai
dest
benih
cengk
terpecah
orientasi
##laf
NO
Cac
Bone
Moto
tengk
SB
##erna
##maan
Yok
bersah
observ
Tokugawa
integrasi
##haus
farm
arsip
lukis
disiapkan
##git
EC
Tid
tat
##orban
neut
point
Franklin
Menjelang
Bé
##osida
##urity
##roskop
Nikola
ditekan
himpunan
978979415
Ekspedisi
terkandung
partisipasi
dikonfirmasi
Ges
wat
tercipta
pemanasan
##olin
Yuk
fik
Penj
Than
Goa
app
konv
##ugikan
Yonif
##atipula
Guatem
bawahnya
ekosistem
sedikitnya
##non
KO
Kis
Fari
Domin
Valent
mekanik
##aransemen
keturunannya
##aron
blu
##iklan
Ling
Shen
Tara
dina
##alikan
##ground
event
temuan
Holland
Hungaria
kemarahan
subspesies
Rin
Syl
Aven
Pena
SMPN
##icolor
##matius
Bourg
county
Maulana
gurunya
suksesi
pemulihan
##taf
##ener
USS
ner
Roos
tren
##asehat
pilar
which
Dahulu
revisi
##hentikan
Collins
Purworejo
KL
Mario
##antauan
##ekarkan
pantas
warung
Director
mengenali
bermigrasi
##py
##iber
##ukas
##zona
Jag
Pod
Rej
gem
Otor
mewa
Lincoln
minimum
Frankfurt
Information
##awak
##iley
Field
tangkis
menyandang
Bio
Lunatipula
mendatangkan
##IT
##pos
##encia
##intin
##awaran
sengit
Mesopot
ingatan
##yla
##uver
Gary
Tank
Speed
Aragon
Theater
##atifikasi
Kompetisi
##asilitasi
Gramedia
keyboard
##ijaksanaan
Britannica
WS
##oter
bap
1883
1892
Verm
meniru
dibayar
sekuler
##hitungkan
manuskrip
##ehr
LA
RP
##loma
##rict
BUM
##ilkan
##estari
Silver
dicuri
pusaka
Vincent
adv
pab
kore
Mahab
jeruk
studinya
##rif
##ibar
1891
Deep
Work
pidana
tirinya
Lutheran
Exocentrus
Diperkirakan
##FL
##tube
hiu
penyiar
Electric
sengketa
##ss
##cius
Mot
Denis
arwah
start
Aditya
Kelapa
Japanese
Guatemala
##VA
##ahuan
##cetus
##emens
debu
Perlu
Siswa
Artinya
Penguasa
Eup
Akbar
Keper
enter
berapa
Phoenix
Tapanuli
diperdebatkan
##dar
DKP
Jet
##uryeo
Rump
##ective
##Station
edition
kecerdasan
menjelajah
##bb
##sor
##elop
##eval
##andas
Jesus
Puisi
Three
kemah
##elusuri
##ifikasi
Calvin
Sensus
Uganda
##ombinasikan
##sol
LC
##eira
##ilah
##onna
##entif
Tala
##ziarah
Liber
ketert
Padahal
Ll
##alil
##cana
##spot
Pola
post
Bagus
Riset
diimp
##amatkan
##angsang
##antaran
Mumbai
Brawijaya
memancing
mengungsi
##ekad
tela
kecewa
Dokumen
reproduksi
duo
skt
##iadat
##laten
Chung
##atulistiwa
Boli
Carr
Laki
pagar
purba
memutar
menguji
Pengaruh
dipenjara
memperebutkan
##Ar
Liv
Teg
Soft
hamba
lidah
##essional
kekuatannya
Philadelphia
kum
Siam
##atanan
Pintu
##iringan
Franka
pesaing
##empurnaan
Deklarasi
perpecahan
dikategorikan
CB
##ogiri
Bruss
biola
Konser
##enberger
Ponorogo
konsultan
Benediktus
persawahan
ay
Sifat
pacar
under
kentang
Goguryeo
Dorcadion
gl
##ulyo
450
##emban
Leop
Snow
##rotoma
##zation
amino
jaman
##endemen
etanol
Barbara
merantau
##nus
Pab
pon
##osiar
diker
terper
balasan
##aminaceae
kelenjar
Transform
bendungan
pembacaan
TN
##idon
Gowa
Nash
Balsaminaceae
##iker
Crow
tril
Kumar
Deputi
Justin
diolah
Alfonso
Indosiar
Jej
bubar
Cannes
Minyak
nutrisi
rekomendasi
##sc
##sul
Mass
logika
payung
Panitia
siapapun
Mesopotamia
mengalihkan
menghidupkan
Ral
##anksi
Prov
kait
areal
sutra
Kanaan
jutaan
Barisan
kembang
deskripsi
dipinjamkan
kewarganegaraan
##een
##idu
##sai
Anc
Xia
##tator
Mitch
kalium
antarik
menduga
akademis
diperhatikan
##nel
##yum
##illo
anat
gund
##endara
defin
##icornis
Kingdom
##burn
Mao
##icola
Lami
Bebas
Carlo
Susilo
Mission
Systems
penanda
PlayStation
##obia
##otos
Low
Intel
Pelayanan
penerbang
kesimpulan
360
Blan
##onisasi
##riminasi
Damaskus
kerjanya
fungsinya
menghukum
##far
##icon
##rist
Ign
edu
Bulu
##okimia
##ulator
Panji
##antiasa
pemberit
ukurannya
penyunting
sap
##idrat
Telah
Tarian
pengin
kalsium
kementer
perspektif
mengemukakan
BK
##jong
Ende
Helen
Sebab
bajak
Balkan
dibahas
narkoba
Tindakan
persediaan
##uling
Alun
ejaan
Sewaktu
ceritanya
##baran
Galuh
Rukun
##egovina
Kristi
dangkal
saingan
##ibah
Abd
Naj
Petu
Gadis
Greek
Sawah
siswi
Morgan
##zir
Mé
##anek
Cut
UTC
##ombong
Tahap
Apakah
Theatre
vulkanik
syn
##apusan
##ompson
##ternus
Ratna
kapas
sejalan
katedral
dikurangi
yurisdiksi
##iha
##chia
##wari
##alism
##rakar
well
##eranan
##intendo
Monten
Luksemb
dorongan
berorientasi
menyembuhkan
membandingkan
Lac
##ading
1893
Seat
Yosef
Rolling
Giovanni
berteman
Pertunjukan
masyarakatnya
menyembunyikan
##ylus
##jemah
##uston
##orning
Today
Stanley
Stewart
almarhum
terwujud
##ukh
##isnis
Adri
Buda
##buwana
##elatan
Board
solid
umpan
penyem
pendaftaran
Rw
##edon
Lia
##engger
Penyi
season
Asisten
dibiarkan
Luksemburg
psikologis
harm
trek
##ingkah
balas
dekor
##uarakan
Faktor
relief
##iad
HB
##aries
Kill
Sila
home
##apasan
##esidenan
Konflik
Independ
Kazakhstan
Nasi
gluk
##esmian
Trade
finis
Explor
Filmfare
mendidik
Tertinggi
Sekretariat
Jiwa
Diana
berba
##awatiran
bertema
barangay
##ols
##anduk
1864
##unangan
##vention
Enterp
Islamic
Website
masukan
mendatangi
menganalisis
Vel
Muni
Norm
Bukti
grand
Satelit
luasnya
Sidoarjo
kehamilan
pembicaraan
##mac
Ost
##ungku
ruas
longi
Komisaris
##zio
Ain
jama
Lukisan
Pejabat
Nintendo
Transportasi
dideskripsikan
Jenewa
Aliansi
Somalia
bersikap
menggali
penyatuan
Generation
koordinasi
senantiasa
Wr
##yanti
spek
bubuk
tiada
Semasa
Robinson
Bombylius
prioritas
tersangka
Aw
XIX
1871
Jasa
tama
##dasari
jarum
Comedy
vektor
separuh
NY
Country
pelarut
rekayasa
bersumpah
kementerian
identifikasi
##pisi
Rag
1881
Kath
Ketu
Soul
Word
Zeus
Mekan
paten
Kupang
##eline
##ograd
antarmuka
linguistik
Boul
##aktian
Radar
entri
##anthrax
artefak
François
Kesatuan
dibidang
mendasar
beristirahat
##recht
Derby
mengimp
Penemuan
blogspot
menempel
tayangan
##dpl
##itium
##rakan
Chun
Meriam
penyel
Santiago
Nephrotoma
##oj
##ohen
##umpa
Beth
Chal
##ulangi
Anglo
Paulo
Anugerah
menamakan
Herzegovina
##eu
##aco
Pec
##lisit
Fame
Sili
Suhu
##alasan
momen
Chad
Dapat
slogan
melanda
tujuannya
Sei
ski
Baek
kara
##astern
##ittinggi
melepas
##ugerahkan
Babilonia
ditempati
Montenegro
pengabdian
transformasi
Abi
PER
##kestra
Party
berke
Doktor
Emirat
nitrat
gamelan
##yarakatan
proposal
emosional
keponakannya
Kō
Cyc
##aksian
##timedia
Guadal
dianut
olehnya
panitia
interior
spesialis
dikemukakan
##ilum
##unes
##ayana
##oyono
Titi
Ramad
Sakura
Prestasi
penutupan
menggerakkan
amf
Atom
Erik
tang
upeti
Chiang
Korean
Rudolf
menuai
menyis
Jendral
##angko
Alum
acak
marg
Ronald
Culture
pengendali
##iban
##oret
call
##ukuhan
Amazon
Baghdad
navigasi
penggantinya
##bs
##atai
Laj
##uture
jual
Musta
tengg
Tintin
##alifahan
Mandiri
ditonton
instansi
eksistensi
##bet
1850
##endapan
##resentasi
berbakat
penetapan
Hob
##viron
Aten
Halim
balai
disem
bersem
layang
penyihir
berdagang
bertenaga
membahaya
##dip
##bian
Nav
fre
Kast
Surah
Sekali
cakram
Semakin
persentase
##55
##gue
##lig
Lamp
Thir
geng
list
##embala
aneka
##ukuhkan
Kosovo
Langkah
relevan
filosofi
Bojonegoro
melestarikan
##rel
##enus
##ustik
duet
Disco
manufaktur
Bukittinggi
##play
1882
Berm
tour
##igrasi
kesus
##etz
##lit
Iris
##epasan
Order
plasma
##raktikkan
menghibur
BI
##ucut
mom
Gunda
Julian
Latvia
membel
Delapan
gerbong
sindrom
Thompson
personil
Charlotte
Pandangan
MiG
Pasca
kavaleri
kedutaan
meminjam
AK
Ey
##alek
##untuk
Horn
Just
Pras
##oharjo
ilahi
membantah
Vin
bec
##odeon
##ollar
Bina
Buck
##undanya
Africa
Arnold
menabrak
Antiokhia
##eer
##UHAN
##enos
##ging
##rina
122
cup
Agar
Proc
asin
Subang
Sentral
menyatu
terpadu
tertanggal
kebahagiaan
membahayakan
Waj
##etapa
asas
topi
Lubuk
Materi
Temanggung
struktural
##bro
##ece
##esti
##tadt
Bom
dram
##ticons
##inental
airnya
hormat
memperm
gulungan
dihilangkan
##inee
##ellig
##oceph
Metac
poros
Jewish
Bahrain
Liberal
menyewa
renovasi
elektromagn
##LC
Ark
Heb
rak
Psik
pentas
dipering
tendangan
pembatasan
##osl
bra
ping
##ulikan
Nickel
Slavia
Lamiaceae
1830
1878
1887
Toraja
Valley
Frances
Populasi
konstitu
disatukan
diasingkan
##DM
##hna
Lea
Baja
Bass
Bella
DKPBB
Indeks
##aragaman
rakyatnya
##ép
##log
##uty
Hj
Hil
Tin
Akun
Manga
catur
kelih
Gregorius
##bas
##mins
Gla
##amato
##onale
trip
##dirman
##strong
Bangs
Klasik
Klaten
penafs
Tunisia
##onax
Saluran
seminar
istiadat
memburuk
Kehutanan
##anekaragaman
belakangnya
##abs
##rea
##lung
##odus
##thia
##emput
##ukota
Bour
Codex
mengel
rektor
Lamiales
##CN
##ów
##inst
brev
##anagara
##infeksi
Legend
Soccer
##eberangan
Sejarawan
GT
##enes
##etra
Ent
Dara
Guan
busur
rukun
Sangat
nasionalisme
memberikannya
##ulir
##asuke
##ending
##espond
menyes
750
MRT
##efisi
##turan
##oshima
Mikha
ajaib
mangk
Saturn
Electron
algoritme
##isch
114
Kob
jep
##ulosa
Tech
Langit
dilanc
Ottoman
Lamongan
Stockholm
##arui
Mom
Bath
Jauh
Lith
##ugasan
didik
tumor
##ulangan
memberitahukan
##kov
##uar
HS
##ongo
##uncur
Kuwa
bent
Bundes
French
Yudhoyono
Kemungkinan
menayangkan
##egar
##press
Prom
dijaga
memerangi
##bola
##iser
Lot
cam
##ulian
Phill
TUHAN
digit
Yamato
lakinya
rekreasi
mempersembahkan
##UT
Cry
punc
##ewakan
derma
##kuadron
Kendal
monyet
Pelatih
panduan
kejayaan
dilancarkan
Iz
##endy
##jono
Emma
have
land
##roklam
##tanegara
kegunaan
##adas
Cot
##ittee
##ultur
Kanj
agensi
Tulisan
pembicara
Matematika
penggalian
##aft
##fir
wo
##chae
##luar
Gom
##arsus
Emmy
Haag
Must
tani
Saksi
cermin
Control
bulanan
peninda
reseptor
menyertakan
##vor
SN
113
##ensor
##ungun
Bisa
bisu
Bobby
kerak
##tasinya
Mexico
Seattle
komponis
spesimen
terjebak
spesifikasi
##sil
##ingo
Hosp
amun
tangki
Otoritas
berbunga
pendanaan
Obenberger
Organization
@
##ancy
McK
##engat
stro
stabilitas
BC
##etto
##tata
##ehkan
##front
##iance
Lake
miring
triliun
kesepuluh
DR
son
Gaza
##uncing
Break
Metal
multip
komplek
tatanan
eksekusi
keterbatasan
Djo
bos
bursa
imbalan
pukulan
performa
berdurasi
Gö
Wing
##ubishi
laser
asumsi
##ographic
##yphantes
ditunda
Sudirman
##yim
##dale
KPU
Sla
Edin
Five
menges
diserap
Perhimpunan
mendaftarkan
##egu
##kos
Gha
Lit
Uang
##resiasi
bermata
bayangan
depannya
denominasi
##oga
##pit
NI
Swa
São
##egral
Dave
kenc
malu
kalian
##inginannya
##indra
##langga
corak
Forbes
Weekly
desainer
##idi
Halich
baling
Aristot
##cons
##unch
Sui
Insp
intr
jamak
music
opini
##ahkotai
##angeranan
dikepalai
retrieved
menggulingkan
##dig
##inae
##erner
##evich
AIDS
trem
kakao
pucat
Dolich
Bersatu
Aviation
Karangan
SW
##enna
##ocar
IBM
Ner
##wagen
Palm
Kapuas
country
Kalender
artistik
Mitsubishi
mengharuskan
##rep
Sund
##change
penyam
Xa
Nuh
Six
che
Urugu
terob
Rotten
Morning
Potensi
dicabut
##gantungan
sensitif
Historical
##ease
##tawa
##udan
##gawan
##illan
Semb
Agnes
Ernst
keris
menel
##casting
##garan
Kost
paku
dosis
kawat
kompas
##kantoran
Gregory
Skadron
dilewati
′
az
##ulin
##ween
Kru
Scot
##enture
Belum
Prime
keraja
##epergian
perpaduan
berjalannya
au
##awin
##ikawa
##ollis
Umat
lucu
##ayanya
##umerta
Kapol
Moskow
Amaryll
neutron
##MB
##date
##atoes
##illus
##phone
head
Batur
Krimea
Pradesh
Rancangan
mengerikan
berkembangnya
Amaryllidaceae
##evo
##had
##vas
PH
##ović
Nir
RNA
##hanan
##iston
Afric
Debut
Ocean
Waduk
##yaratkan
kemasan
prosesi
berevolusi
dimekarkan
Aleksandria
α
Zak
conc
Magic
Urban
Chandra
belanja
menggambar
interpretasi
##ebas
##issa
alm
berkala
−
Our
bre
##imasi
Saka
diab
lonc
matanya
##enggelamkan
Perlindungan
penandatangan
##56
##amal
##iput
##owski
Peta
Ters
cuma
Wahid
cabai
Motion
Turner
Traktat
intensif
Armstrong
menganggapnya
##she
##anjat
##lemen
##ungut
diag
Pajak
Arifin
genggam
bertulis
Perhubungan
##mata
##unus
Haf
##arkis
mabuk
Comics
isyarat
instalasi
pendengar
kemunculan
memperjuangkan
##bay
Og
##pkan
Cic
##apati
Disc
Pant
rusa
cagar
kamus
##umental
Nation
vaksin
Fortune
##cea
##pet
##iton
Visi
Court
Julia
skandal
albumnya
Siliwangi
Legislatif
##opak
Ria
1879
hama
##orough
Herak
Works
seber
bintik
Eva
Rasa
##urutan
Karta
merep
pulih
timah
Uruguay
Ommatius
kesetiaan
komputasi
diungkapkan
Nias
Tiger
Nature
hijrah
berpeng
ksatria
melukai
Keadilan
Kepausan
beriklim
bepergian
##rh
##asius
Saud
dieja
##geseran
Kuwait
Beatles
jajahan
Kendaraan
bersumber
ilustrasi
Lad
WWE
##essor
Kuda
##endala
Akses
Kakek
their
Basuki
Sasuke
Andreas
Demonax
Dimulai
Nickelodeon
##reat
##sono
Dum
Var
3000
Laph
Tiap
Grant
Miami
Sudah
##instein
##ustinus
miliki
kosakata
##UR
AH
123
Evans
Solok
acuan
bermotor
##apar
##heel
rint
Isabel
Publik
Puerto
thriller
Christmas
##hya
##rul
Rut
fit
mov
##manan
diin
##ilitas
##tabilan
Graham
Simbol
amunisi
konsekuensi
Konstantinus
##asem
##ermo
eds
Misa
Roth
subt
Anast
Danny
legal
##ulation
Official
##ID
##kel
##tos
##yap
TO
Bai
Mey
##uster
Bord
Freed
tersi
##argetkan
berjasa
Broadway
diketuai
piramida
Aktivitas
mengendarai
##ows
##yss
Rak
Democ
sesaat
Herbert
mangkat
logistik
fisikawan
##neum
##thes
Tod
Bird
Lagi
mera
##emaran
Wonder
sanksi
tablet
ditaklukkan
tetangganya
##elix
Ded
##ected
melompat
memuaskan
##eas
GB
##essa
##rial
##sawa
Fem
cit
lic
##enson
also
##iharaan
Tembok
bersiap
kenangan
kromosom
mengutuk
Mojokerto
Keterangan
percintaan
##lementasikan
##ül
##igg
##rez
##ebel
Lintas
seribu
pemakai
##angsungan
dituliskan
terbentang
##HO
##syat
Eis
Lenn
tebu
##anthon
Listrik
mendapati
Government
intensitas
produksinya
##lot
Nyi
Lyon
Geoff
Kartu
Linda
Rembang
teritori
##tier
cul
jah
##eksasi
pelat
Invasi
Wayang
elektrik
Petersburg
diwariskan
transparan
##icy
737
Ple
##enaan
##ernaan
beran
kerang
terbar
Jessica
Pertumbuhan
kekhawatiran
Fla
alf
##yonya
Cana
Pink
##akupan
Russia
Koleksi
Sirkuit
Anggaran
arkeolog
Lokomotif
mempercayai
##org
kafe
##alayak
irama
Design
Sleman
##vre
##truc
cas
##berry
tong
Boles
sejuk
tangg
##ungsikan
Bolivia
politis
database
menjangkau
penanggalan
##oya
##rir
##sum
##cter
##emium
##ontan
Pale
morf
penip
##enhagen
##uranium
dicari
mengag
perihal
selamanya
Fle
Kac
pik
1872
merk
Irian
Sunni
femin
Chapter
Pengguna
kelainan
pencetak
fotografer
kembalinya
pencegahan
##arum
##obat
##wald
##ontar
Thom
##etty
##riks
##elius
Cari
Pagi
lebat
mancan
patroli
membawah
kompetensi
mencantumkan
KR
##isik
##tria
who
Feng
lembar
bersamanya
sistematis
Qa
Eku
LGB
Zah
Ahmed
Evang
bibir
kaset
Energy
Michel
Pameran
menaikkan
penanaman
Belakangan
penembakan
##jub
144
##omoda
bahu
Asasi
Monte
Uzbek
Server
Watson
stream
Samsung
dipentaskan
mendampingi
##PM
Eu
MK
Sz
##count
Epic
word
Simal
Avenue
Magister
##chis
Tad
tap
##ormat
Ayam
bait
Meiji
Param
##abilitas
Anatolia
Biography
dialihkan
##jay
##udu
him
##astro
##mance
nila
Early
Grace
front
Firaun
Selang
diwajib
pemangku
pengaruhnya
##lun
tw
##more
##tuag
##oroti
##unter
link
Every
Syiah
Krisis
Sayang
maritim
tekstil
dramatis
memikirkan
mancanegara
BN
##blem
##tors
##zaki
USD
Ves
##edian
Mama
Proto
Pengelola
##57
PE
Rib
Tek
Cape
Siak
##abisan
Egypt
Southern
anugerah
konversi
indikator
peliharaan
##lock
Tit
##ublin
Barn
konk
Hidey
Cekosl
Medical
dimilik
sanggup
##umentasikan
BPS
atr
gla
##ouver
Most
beku
memo
##angganan
mudanya
Pasuruan
Yudaisme
sandiwara
sertifikat
Perencanaan
Sean
##uasaan
##usinya
##industri
menamai
terhenti
Committee
##trat
Tauf
name
Elektr
Garden
pelawak
##euk
KBS
Lanc
full
Oliver
##odinamika
Edinburgh
##osum
Hij
PDI
##grafi
1848
Kiev
Trun
Maxim
ranah
Galaxy
mantra
dibaptis
merugikan
diwajibkan
##sue
Lut
##ilian
were
##elling
##ources
jasad
berbau
Simpang
menganjurkan
##67
##elf
##zak
1868
Dean
Gent
Inves
diagn
selir
Tomatoes
mencolok
##iks
##heed
##izat
Vas
##evelt
##onius
1873
##anjing
##ecehan
Kulit
Goryeo
Septuag
berjenis
penugasan
sertifikasi
##each
##vert
Jah
kob
Batik
Seven
##sediaan
kultur
Autobots
ditutupi
kerajaannya
keinginannya
##CC
##adaya
##iakan
##itary
Luwu
##angsur
##arning
Voice
archi
pemot
Gagasan
Profesi
Berkeley
pendahulu
tersimpan
pementasan
230
Dac
##unding
Atlas
Chand
Jaksa
Praha
diikat
Bengali
gugatan
membina
Children
perantara
penghapusan
##ms
FK
##imar
Dwi
Kei
##isial
Idris
Objek
turbin
menaiki
melimpah
##EE
Hik
Kamer
kader
lilin
Bantul
pemandu
pengkhian
##eback
##gihan
##ritic
1861
Jamb
Xiao
unta
berdaulat
kekasihnya
##pr
##wir
##ylum
##ustry
Cyrt
Plant
lebah
Taipei
kesalah
CF
##ende
Gap
##ehabil
Cloud
hilir
##dagangkan
mengabdi
##CS
##law
##ejar
Pdt
Chrom
Larry
parit
rongga
rotasi
inggris
Hamengku
khalayak
menemani
regulasi
pencernaan
##epuh
##tisi
Pav
taat
##ements
##unahan
Lucas
Choice
jaring
sembuh
Beograd
##indonesia
mekanika
Political
dinikmati
membawahi
berpakaian
penyelamatan
representasi
##zl
##aila
##card
##isih
##indar
##osoma
Card
Plas
##endahara
dididik
Ramadhan
kompetitif
dimilikinya
##okumentasikan
##elasi
Kira
##itikan
Bloom
Huruf
kesal
Oberea
Screen
diculik
mencabut
implementasi
##chal
240
BUMN
Paya
tamb
berin
dalang
Legenda
direkrut
##ifa
##ohn
Ill
##enius
Piet
Ward
Penya
menek
vakum
Virgin
##untukkan
lintang
dipindah
ketenaran
metabolisme
TS
##hala
Cher
Gill
Kate
##hogunan
Alexand
kisaran
pangkal
pedoman
berbalik
prototipe
melengkung
##erst
##mans
BRT
perd
Zhong
Persib
diajak
##ativitas
Hamburg
München
tragedi
membenci
penawaran
##TE
##är
Kau
Wer
1876
Luis
Unsur
##afiliasi
Oxyopes
ornamen
ranting
bersahabat
Engineering
menghubungi
##dio
##hur
##ils
Eb
Att
chi
##onisme
bobot
Hudson
Dirilis
dilanda
rasanya
##ubernuran
serentak
##UP
HP
rev
##kanya
1867
Anto
Dora
Sina
##fisika
##irikan
Munich
kotoran
Kristiani
##ield
133
Doa
UGM
##unaga
Iber
seru
diuji
Author
Kajian
engine
periodik
fleksibel
mengusung
diabadikan
Ö
##epha
##hone
Equ
##inang
Tenn
serv
after
batin
bijih
mayor
Knight
Eunidia
Perwira
Perintah
Panembahan
disaksikan
penguasaan
TP
Agam
##awanan
altar
Halicl
berskala
terlambat
##onta
SMS
Yin
Chev
##odontha
##osongan
##udaraan
Bhutan
Siberia
veteran
Tawarikh
Community
Penyiaran
penekanan
Cerodontha
dipamerkan
mempublikasikan
Hap
1859
##emplar
##itions
Lanud
bonus
sekian
##didayakan
terpasang
didampingi
berkekuatan
##oz
##tium
##tusi
##dalam
##ifest
Like
Made
Stev
##apolis
##ophila
##undian
Wonos
optim
Murray
Sophron
respons
kadipaten
terorisme
##news
Cis
1875
##encian
##erinya
Iklim
agenda
tercepat
terinfeksi
##AF
##gne
##ilet
##ourt
##ished
Wins
Landa
##jarakan
##omodasi
celana
penger
##ocladius
rupanya
menghuni
bercampur
terbilang
Sos
##orangan
Barang
Statis
Solomon
peralihan
pengumpulan
mengharapkan
##dh
##estis
terti
Grande
Arizona
Sesudah
tarekat
sosiologi
disarankan
Pengepungan
investigasi
pertolongan
##yō
##turn
KNI
##antho
##peare
lupa
##biotik
Jonas
Khmer
Peman
debat
##ections
Picture
Penyanyi
jejaring
serigala
Haliclona
iT
##gart
Dest
Kopi
abor
Happy
Optim
biksu
Residen
seharga
membiayai
KS
##face
##ikkh
##ipal
tam
Mugh
Mengenai
teologis
Keturunan
Broadcasting
##Cl
##jk
Tm
dire
Yunus
##budakan
Valencia
Aristoteles
##97
##lé
##bard
##enep
##mont
Maat
duri
Artis
Prima
Shakes
##rakarsai
peledak
##erifikasi
Harrison
menuturkan
pernapasan
##ME
##ván
124
XIII
nirk
tomat
##uburkan
jalannya
telanjang
Commission
Key
##usuma
disc
Biasa
aroma
Korban
Greenland
Sebastian
selebriti
##chor
##edah
##ombo
##ushi
##zawa
Edu
Yahoo
potong
bertani
pembeli
uranium
##qa
fan
Prat
Prize
Rhein
halam
Piagam
Indiana
katalog
pengebom
##ming
##read
bla
hem
##cheng
##okong
Gray
daur
segel
Remaja
lancar
eksemplar
Prosopocera
EX
Bou
gor
Moun
Koran
Woman
laras
surah
Lingga
asuhan
##arnegara
evaluasi
beraliran
Persekutuan
berkeliling
aj
BMW
gai
Amph
Clar
##omoran
Baden
bebek
Darius
Tuanku
##bolinggo
Hikayat
Houston
pacarnya
terpusat
peradilan
Kud
Yale
##isihan
Setia
Eastern
##likasikan
persepsi
ujungnya
menginjak
merangkap
pembaruan
##ár
##inth
bip
Brig
Duke
book
Marco
Physi
Justice
pewarna
Aircraft
diperingati
121
Bum
Eud
lan
##assus
##lytus
Decep
Jilid
enggan
Elisabeth
Referensi
melihatnya
##eft
##etsa
dur
sad
Pont
##ramayu
kabin
Gadjah
##emudahan
Monster
kaliber
merintis
Informatika
pembersihan
hon
##odadi
LGBT
Sign
##isalah
Major
Megat
katak
unjuk
Habibie
tercapai
pendukungnya
keberangkatan
##bie
132
##sesan
Chop
Giri
Koch
Tema
will
Homer
##usahakan
Station
kebijaksanaan
##asut
Lost
Ogan
coll
##arnasi
##bakala
##nahkan
Yahya
Rwanda
disebelah
diperuntukkan
##UI
210
Gaga
##arisasi
Alonso
pengec
Campbell
menurutnya
penindasan
CNN
##intus
##rajin
Messi
sajak
Middle
Sayyid
magnetik
pelantikan
tertinggal
Shakespeare
ru
##arte
##oker
Sour
life
Untung
tekstur
Imperial
kesaksian
dikisahkan
menegakkan
penyusunan
##cat
##chne
##idge
##oros
##rana
law
##budur
##usion
upah
Mitra
potret
dinamika
software
kaitannya
parameter
menamatkan
##lif
##enzo
Kana
Pass
Vill
bing
spor
##asalah
##ilhami
Elang
##baharui
Ajaran
Basket
menunda
partisi
Language
sebentar
sebaiknya
mengorbankan
##adia
Hui
##perma
Masuk
durasi
Insiden
singgah
pelecehan
mendeklarasikan
##tula
PPP
Iwan
pera
##emberg
##umbung
dipuji
Angkasa
Perayaan
penyajian
sebanding
dimungkinkan
dipertimbangkan
##kl
##ān
##boy
##ymn
##dong
hol
Terc
##ittata
Progr
hadis
##zionale
Cahaya
menggel
Pernyataan
dipelihara
menyeluruh
##GC
##fia
##jai
Ip
##char
hidro
rinci
##wujudan
pemindahan
##core
Harga
Place
sekte
Sentai
Warsawa
makalah
halamannya
pendamping
##amm
Lé
##ofil
tag
Lion
Orth
Pent
esai
##endaki
Buton
binti
militan
seberapa
sepertiga
penerjemah
##dewa
##utsu
Xian
jujur
Nippon
Roosevelt
destinasi
Alexandria
membubarkan
##pot
Dz
Hunt
Kirk
Lane
Angin
##minster
berposisi
berkomentar
perkantoran
##fic
CV
HMS
SMU
sho
##utsch
##itatif
Zheng
keseb
pegulat
Alliance
penafsiran
##amuan
susah
kelemba
perawat
Kotamadya
ditentang
sepertinya
Penduduknya
ditimbulkan
##ruk
##eaux
##enko
##oryx
##ropus
Luft
Path
Sisi
Yama
##eritage
Nathan
Rangga
bundar
letnan
perorangan
sekumpulan
kepemimpinannya
TB
Basi
Tunggal
Pembantu
mentrans
teoretis
mengerahkan
##ès
##qui
##yeon
Asli
Berp
Navy
Tali
Batara
Mariah
keliru
berhala
Simalungun
lengkapnya
menghimpun
pemasangan
##integrasikan
mengutamakan
TC
sn
##ande
##obar
RUU
##elles
##ewaan
##lation
gerai
Austin
katalis
kerucut
redaksi
Salatiga
download
buatannya
percetakan
pergeseran
diskriminasi
Puc
Musi
difilm
Pelajar
Augustus
madrasah
Chemistry
##ehabilitasi
Mahabharata
elektromagnetik
##LI
##yx
##asai
Cow
hat
##esias
##imoto
into
After
Tatar
berkh
lengk
pasif
Salomo
Flandria
meditasi
mengutus
Animation
Bendungan
ketergantungan
##atwa
Dou
MBC
ibn
jas
##ompet
Bian
When
sewa
Benny
tuber
Walker
##okasikan
Kartini
Indramayu
pengiring
Mandailing
##amba
##imet
Coel
heran
##asciata
iTunes
statis
Ekuador
Jayapura
Menurutnya
##CE
##lix
##ktop
##zing
Cok
Lux
Peda
Usia
Bantuan
Hospital
##64
##hae
ub
##engsi
Bayu
Pyth
Teuku
nyeri
Abbasi
Marina
content
Production
bergantian
dinosaurus
##lug
mg
Ibn
bed
kib
##ereta
Mukh
Craig
Hills
Lovato
Pinang
Penyebab
Bourgogne
Berbatasan
kemakmuran
Cass
Hamp
Rupa
than
disen
ditan
Baltik
Dallas
##ulasinya
Kostrad
Praktik
menimpa
samurai
imigrasi
diabaikan
sehubungan
Penyelenggara
##eko
##oles
##enden
##orama
Mora
enak
kian
pari
##eduksi
##mahera
Astro
Benua
Nurul
Syafi
##iriknya
menyir
Masakan
Sumenep
Memorial
mengolah
Borobudur
menyoroti
##ied
##kati
PDB
Tac
Holy
maya
Badai
napas
relasi
sitkom
putusan
sedimen
bertekad
##crip
##rone
##tuan
dsb
Dona
##utuhan
arist
##umsikan
hakikat
dilapisi
menghant
pemutaran
pengemudi
Queensland
menanyakan
##enj
##uha
PO
##cine
Isi
ann
##ampas
Darma
Intan
Mahak
Double
Iberia
Paling
Peserta
pesanan
Kualifikasi
##sar
##sif
Trad
rugi
Eddie
Plato
puing
##efisien
Dublin
Visual
Neoloph
degradasi
Neolophonotus
##uen
##egen
dog
##usian
Beast
Laman
taksi
##ponsori
Eparki
Maurice
Wonogiri
seimbang
Dolichopeza
Æ
##hara
Nop
Xyl
##embar
##erior
Romo
Store
Hasyim
melodi
penyangga
sayangnya
##HS
##phus
Lig
##uluan
Jump
Roti
trad
Kurdi
didek
Konrad
Keesokan
Manggarai
perundang
Philosophy
mempertanyakan
zo
Aeg
##ktika
##olali
Legi
info
lada
open
fluor
jubah
modul
##istimewa
Services
diangkut
original
percepatan
melemparkan
##otr
##wid
##zzo
##ulas
Toh
1877
Ment
marm
##aksana
Abang
absen
jurus
##organik
Callys
motivasi
berakting
eksplisit
kepunahan
didalamnya
##ebe
bol
##Berry
Carn
Kurt
Tela
##inella
Never
diund
diberit
kemerahan
##EG
##inen
see
Benn
Rout
Darul
betul
bujur
##edarkan
Domini
Chamber
detektif
standard
Volkswagen
##87
ud
385
Roc
ana
ful
##appij
Nina
ditum
##mentary
Marcel
Sahara
rapper
Jennifer
Stanford
Peringkat
kejatuhan
##pal
SJ
Ard
##eleng
Foto
Adela
Kerta
turis
Harold
Putera
Gunawan
lantaran
mendalami
Perkebunan
kemiringan
##dae
GA
##imin
##obel
DPD
Hyp
Sey
##andro
Acal
##ebrata
##endung
##enthes
humor
István
Yeremia
transit
Pemakaman
Kehormatan
##hout
##ouin
Kil
##empar
Rata
Sans
Swan
Isaac
Saham
horiz
##abangan
Fisher
Philipp
Rekaman
teknisi
menembakkan
##atua
bib
##onaut
Disk
##ikaian
deret
dukun
pemil
hutang
narasi
subsidi
bertingkat
berdampingan
##uwa
1869
Dioc
##olepta
buaya
meref
ringk
##elopori
Capital
mekanis
Computer
keesokan
terputus
melingkar
Septuaginta
membicarakan
μ
Tae
Gigi
Hels
Karn
Luke
Blood
Lahan
pedas
Season
##ingungan
Kanjeng
samudra
piringan
Enterprise
Probolinggo
memfasilitasi
##omac
yat
gaib
Lenin
Surin
santo
selat
Andrea
Mercedes
Tujuannya
Š
##hof
Rok
Zan
##ilikon
Parah
ingat
Foreign
alfabet
tengkorak
topografi
penempatan
penerusnya
##ön
##ebur
##time
Nit
##latan
Glas
Kids
Chong
Detik
dirag
Winter
ekologi
Megatron
kekebalan
ketersediaan
memberlakukan
##tel
Bp
##etic
##sche
##inius
Gene
Rudy
Zero
hobi
Tuban
balok
Prabowo
dilepas
Database
Halmahera
perburuan
BlackBerry
ketertarikan
Munisipalitas
##eis
##angu
##lank
aff
##efore
##indas
##matik
Blora
Hello
Montr
laris
Petani
Sinode
linear
##schappij
Perikan
penataan
berakibat
keanekaragaman
MAN
Rug
##ystal
Nyai
trop
##utiful
other
Keluar
disponsori
eksplorasi
kuk
1863
##pongia
Datar
Ralph
##ropolis
Gundam
Theory
Biologi
Penjaga
orkestra
Perikanan
diragukan
perbudakan
radioaktif
##ough
Fau
Hes
ren
##badat
##leton
Bing
hero
opsi
ubur
##ikatan
Banks
Coast
Warri
diperbarui
Transformers
DO
##gues
##lora
##rell
##sein
Nay
Via
pig
##iskus
ABRI
Auto
Jian
Luck
ikat
Alpha
Leeds
Watch
pages
##urutkan
Kolese
Division
Kebangkitan
mempermudah
ekst
Ghana
buang
funda
##orbanan
Copris
bercak
Boyolali
##esisternus
konstanta
pengucapan
##sia
SV
##asir
Anal
Griff
Kebon
meraup
Apalagi
District
bergengsi
Sophronica
prasejarah
penyembuhan
persilangan
##iste
747
Job
Wib
Baku
Bent
punk
young
##acional
Produs
Sektor
African
ibundanya
##uters
##oneura
##uannya
kanton
piring
Natural
Letaknya
Simpsons
menggantung
Haj
Ont
enc
##illon
##inian
1600
1840
Days
Figh
Fraksi
menafs
perwujudan
Westminster
Sv
##arso
##atib
gil
Copa
Next
PSIS
##engkar
##tional
Cagar
Economic
Pembuatan
berafiliasi
##cum
BW
Cav
num
##ohong
##rutan
Race
girl
urut
Seine
Claude
kepend
milisi
menelan
Karyanya
berkulit
cintanya
penggantian
UC
##onic
Choi
Peck
turb
Usman
##adamkan
Marcus
kutukan
keemasan
diharuskan
penerangan
##ocus
Div
kau
##ancah
##ranya
kaku
team
##adanya
gilir
Anjing
Future
termal
McLaren
cakupan
bermuara
Hasanuddin
musyawarah
##upe
##yen
##ikin
MTs
Toko
Beatri
Search
klinik
Lithuan
gantung
satupun
Marsekal
difilmkan
sederajat
Leptogaster
diperlakukan
matematikawan
##aper
##olon
##imbar
puasa
waduk
##alengka
pemeluk
aktingnya
datangnya
Acalolepta
Cekoslowakia
Tmesisternus
##ades
##obos
won
##ahana
##aknya
##tress
Hoff
Oslo
arab
##gnosis
mangsa
##ospongia
Definisi
Maryland
anumerta
kebencian
##99
##liga
nak
1200
Ditu
Eddy
Rafa
Azhar
petir
Angola
Method
paspor
teaser
tangkai
Security
induknya
Pelaksana
Princeton
mengungkap
##emai
Ita
Tyl
##zburg
Pack
Ping
comm
Parti
Years
antik
terak
Hilton
Holmes
Itulah
asetat
sarung
Environ
memecah
sinemat
terkaya
lawannya
militernya
operasinya
##58
Hib
tub
Kimi
Nova
imaj
Curug
Spesi
kokoh
Werner
Colorado
Kedutaan
pengadaan
eksperimental
##zed
##cion
##lich
##ecuti
##ticus
cent
Senator
melacak
memasok
neneknya
wajahnya
kemudahan
Karanganyar
didirikannya
KT
##orts
Nom
##undan
Nept
gizi
##kaitan
Nazar
elang
menum
Aturan
Nyonya
jamaah
Pembela
Hidangan
kilogram
pengangg
##zzi
##ekalan
Ganda
Mount
Thera
cross
kasta
kekun
Kelima
##iskusikan
penobatan
horizontal
##esz
zi
##arin
Lec
Didi
Fals
##aparkan
Action
klinis
Pilihan
tingkah
Seminari
pemancar
korespond
##52
##lane
NET
Sye
##apian
akut
Carey
Gatot
Forest
portal
optimal
Lockheed
bersikeras
Independent
##CH
##but
##eso
Cru
Hul
Koh
lep
##ernih
Bont
Cruz
diur
##edihan
imper
##imalkan
Pernah
bertem
helium
mengon
didanai
fondasi
Maatschappij
diberhentikan
##YA
Ald
Beh
##grade
##isnya
Hier
pompa
sakti
##elahian
##iformis
Bangun
Ciamis
berker
cucunya
ensiklop
pengrajin
Kongregasi
sosialisme
##erc
##ewu
Bit
##damai
##ensen
##ikkhu
Ring
Patih
spekt
##otarsus
Editor
adonan
##ancouver
akustik
berdasar
diteliti
direnovasi
arondisemen
##FTA
##hid
BE
##ktik
##onit
##sten
Dih
gra
Burg
Rana
satwa
Rights
Seribu
##artement
predikat
Hidayatullah
##yra
##anca
##emus
##jawa
Ily
Kri
##aitun
##akhta
##esahan
Abadi
Flash
Jusuf
Kalib
bagai
##terinya
Freedom
bingung
Terkadang
antariksa
##ushu
Hua
##inati
##pensi
stim
##akarya
Benda
Banjir
Laskar
Sunday
record
Pegawai
Campania
Suriname
deklarasi
toleransi
##ça
##qua
##run
##ipas
650
Mud
##inting
##ortasi
Lloyd
Silva
Palace
ibunda
merata
Nanjing
ditemani
bertuliskan
menjelajahi
##FF
##rost
##embun
##urung
Gayo
warn
##ahanda
Infin
Guilla
Ramayana
mempelai
momentum
Pembinaan
Pengalaman
gilirannya
komentator
BAN
Gaz
Sob
rug
##orian
##patib
##tuhan
demo
slot
Porto
Teleg
pakan
salam
Harper
Perfor
filter
fluida
spontan
Fransiskus
##bank
##ucle
map
neo
##emann
disimp
makmur
Salvador
dihargai
tanahnya
Pendirian
disamakan
pengisian
dihapuskan
kebanggaan
protagonis
mengkhususkan
##say
##anao
##ayap
Dul
Gin
Rel
##ardia
Xuan
inov
mega
Gurun
Serta
strip
Warren
berlalu
##ours
##imbun
Noor
biro
keas
Hyper
peneb
##engkang
bereks
botani
##senjatai
beralam
pingsan
terumbu
federasi
kegelapan
##FO
##PO
##dova
##pest
##ædia
Eum
1874
Rawa
Edwin
Seung
Gejala
serang
pecahnya
##ipan
Hos
Mika
sala
year
megah
seksi
Laphria
##ografinya
nirkabel
kemitraan
kekerabatan
##abo
NK
jp
##roit
205
Eti
bea
##alion
##opoda
Chow
Glenn
Instr
absol
##acamata
poster
stroke
Basilika
pelepasan
pepohonan
merumuskan
dipopulerkan
ditemukannya
##long
Dub
Pej
Sisa
Teng
##adinya
Rizal
dilam
longs
Gilbert
diingat
Brooklyn
bertakhta
bisnisnya
dikontrak
berkonsentrasi
##ña
##uca
##quir
sci
Ster
lamp
##egaran
Cohen
metro
berkes
Rangers
pustaka
berwujud
kesatria
Routledge
daerahnya
Majalengka
é
##akala
Bran
keba
plot
Flight
Hunter
aparat
Terdiri
menekuni
Vancouver
fermentasi
kebingungan
##LO
##chu
##otek
Ade
##nisun
Mons
roll
Kamar
Short
sport
##itional
mengap
Syariah
koridor
bijaksana
kesuburan
pengoperasi
##awah
##lete
lat
Uran
Watu
##ekukan
berna
Kembang
matriks
sentuhan
progresif
Perbatasan
penyediaan
memperlakukan
##AA
##100
##hay
If
##isans
Isab
Jose
Syst
##elligence
dianjurkan
beradaptasi
Publications
##ize
##agal
##ilena
Mack
Past
Tana
##elajar
entah
Marine
angkut
Senapan
dicetus
Bilangan
Kastilia
semester
Lithuania
Industrial
perusahaannya
##kha
##roe
NC
Zu
##wung
DIY
loy
Gula
Tell
Elvis
Kompi
fatal
Yakobus
glukosa
bebatuan
memintanya
penyisihan
bermunculan
kapitalisme
##200
EU
##allo
280
Lav
Lop
Kiss
Liss
teleg
##astraan
Joshua
Yesaya
ranjau
Conserv
penembak
berurutan
mengorbit
UP
##alip
##tega
Try
##anger
Slav
grac
patut
Tengku
Leopold
Yosefus
abstrak
Kanselir
dirintis
warganya
Convention
hidroksida
##alie
##opal
Ikh
mir
Mono
Tepi
sula
fauna
Harvey
Number
Spirit
fosfat
iPhone
atribut
Jerusalem
kemunduran
##etsu
##rata
Eag
Tuk
acc
##zania
Homo
Pomp
pass
Ketap
kecok
melan
Mutiara
berdaya
berpura
integral
Challenger
Revolution
sesudahnya
##aso
GK
GS
##asat
##quer
Kho
Lup
Yaz
##ayoran
##shevik
##teriak
Bryan
##atatkan
Affair
amfibi
digali
##ingannya
wafatnya
komunisme
Peringatan
##ostr
Sweet
Mandala
kedelai
Software
digoreng
konstruk
pusatnya
homoseksual
##sha
##elen
PLN
wol
Grey
Sumba
cilik
##ombolan
Travel
kemiri
polusi
gembira
merangk
memfokuskan
PI
##isin
Joy
Qura
Soci
Soet
cumi
##incang
Drive
Lasem
Syeikh
Viking
Princess
kepresidenan
penganiayaan
##68
##uja
##yna
134
Occ
Appl
Diri
Kain
Neil
Pran
Dipati
Lennon
Sering
Tafsir
Wonosobo
praktisi
##alen
##ucon
Lyc
Tog
Elli
plus
stor
Hoeve
Peace
denda
Fok
Fur
bri
Minh
##gender
##esankan
Common
Mister
Shield
##iningrat
Hermann
musuhnya
terhormat
##omposisikan
212
Guj
Haz
dal
##yangi
Cosm
Hokka
Wiley
ultra
yatim
Bawang
Edmund
kepeng
diabetes
didapati
birokrasi
dimahkotai
Kartanegara
1857
Cipta
gelas
kadal
Jeremy
nuansa
vampir
##untingan
atraksi
beriman
konsili
Hideyoshi
bermuatan
dibongkar
kedekatan
Metacritic
mengekspresikan
260
##anjar
Goku
Toul
Babad
Kamal
Nancy
Polda
hayati
kontra
martir
neraka
control
penyelam
President
Transport
perkemahan
154
Hyun
Tsar
kogn
##unggul
Biaya
Paman
Anggun
Sekjen
##eknologi
kelinci
Pemikiran
berteriak
filosofis
kekosongan
Fos
han
Dion
apel
Class
keilm
Sheikh
Strong
Sukarno
liputan
batalyon
mengemban
dipersiapkan
penelitiannya
}
##bow
##fol
CR
##idal
keta
##angkas
##tagram
Georg
Pramb
kerum
ritus
amanat
betapa
jingga
Gabungan
sirkulasi
streaming
antropologi
memprediksi
pengangkutan
##oly
##ards
##dola
##link
DAS
Arke
OSIS
Tamp
fusc
pion
plur
Euseb
menger
Pendeta
Roberts
sinilah
keunikan
terjatuh
Abbasiyah
Pendekatan
Decepticons
Đ
##edis
##eren
##atius
Unic
tugu
##galkan
Cyber
Medali
Schmid
Kenneth
pemberi
Protokol
##lip
##roy
##ishi
##roch
vit
##opica
Karna
Saxon
jambu
##ohidrat
handal
patogen
mikroskop
pembubaran
diperdagangkan
##epa
##off
##cong
235
PDF
XIV
mun
##chaet
Arif
Aula
Béla
Rein
Soed
Soem
brow
##artika
Diter
Stern
ratio
tinta
##ugaskan
Kampar
runtuhnya
Leptotarsus
penggunanya
##mia
CI
##isap
##oney
##otasi
Ayub
Wetan
nafsu
silam
Daging
mantel
Ketapang
Korintus
memantau
Kehadiran
mengenyam
kandungnya
pemiliknya
didaftarkan
asa
rib
1815
Kepem
Baekje
Gustav
dipicu
Kamerun
Perawan
Transjakarta
penghancuran
kesetimbangan
GE
##itsu
##rett
Hiz
Oda
low
mid
##aders
Benz
##tusias
Guild
Navar
kapel
Kepler
Market
sentra
dongeng
akuisisi
menginspirasi
HM
##redi
182
SAW
##urney
Darm
IUCN
Muna
Edgar
Sutra
teguh
Schltr
galeri
Kashmir
alamiah
##irmingham
anggapan
dijatuhkan
##lika
##otto
Rika
raih
ubah
##ifolia
Setan
tinju
Tarakan
meminum
koperasi
kebesaran
Ensiklopedia
Oz
##imes
##inki
Muj
##cheon
##unian
Arief
Randy
deras
Arabia
Raider
Atlanta
Belarus
Diploma
institu
resimen
Bolesław
Budapest
badannya
Mengingat
terisolasi
##tii
##atin
##ecom
##turi
Xen
tot
##uriga
Medal
Terry
Kansas
Kaukas
Kerinci
Turkmen
diusung
peranti
Nopember
dijatuhi
Christina
keberatan
Birmingham
berkenalan
dicetuskan
memperbolehkan
##epp
##town
Gos
##ginya
##tance
Kuta
Reyn
euro
Bibli
Pandu
books
pahit
sabun
Avatar
antark
regnum
pemukim
Indische
RRT
1866
balon
permen
Acantho
mengawal
disertakan
##rob
Jae
Rash
menip
##omachus
Advent
Amanda
Fransis
Nicolas
endapan
pemusik
berdamai
hierarki
##industrian
Relations
##yson
Mpu
Vil
Rabi
laun
Basis
Chair
Jeong
Yosua
penis
peraih
##waringin
Susunan
katakan
tangguh
penyusun
keragaman
mengkonfirmasi
RE
Agu
Coc
Wür
##ectic
Argo
Mail
mars
work
Budha
Fajar
Siapa
komet
Artist
Gyeong
Letkol
Sahabat
Utsmani
Prajurit
pelengkap
dipekerjakan
keberuntungan
##51
##acu
Neh
Tajik
terpan
##evaluasi
berakar
fashion
berpangkat
##lab
##tui
##vate
Ans
##lumat
kesi
Anime
##a
##n
##e
##i
##r
##t
##u
##s
##d
##m
##k
##l
##g
##o
##p
##b
##h
##y
##.
##,
##j
##c
##S
##"
##P
##w
##1
##A
##0
##f
##M
##K
##B
##-
##2
##I
##T
##D
##v
##9
##C
##)
##(
##R
##L
##N
##J
##H
##G
##3
##5
##8
##4
##F
##E
##6
##7
##U
##W
##z
##O
##:
##/
##Y
##V
##x
##'
##;
##Z
##–
##q
##X
##Q
##%
##&
##é
##]
##[
##”
##“
##=
##’
##_
##?
##á
##!
##$
##ō
##—
##ü
##+
##ó
##ö
##°
##>
##í
##ā
##<
##‘
##|
##è
##ä
###
##ū
##ا
##ł
##ç
##ل
##α
##ã
##š
##ñ
##ć
##à
##â
##ī
##ú
##É
##×
##*
##ë
##ø
##а
##ο
##~
##æ
##±
##•
##о
##م
##ô
##ي
##ê
##ş
##£
##ı
##−
##ر
##ν
##ن
##и
##ς
##č
##ι
##å
##μ
##е
##€
##ρ
##Á
##′
##ε
##н
##י
##р
##و
##τ
##ē
##ß
##ب
##Ō
##`
##ă
##·
##λ
##с
##σ
##د
##ń
##@
##س
##Ö
##κ
##β
##ž
##î
##в
##π
##т
##ś
##ه
##к
##Š
##ì
##Æ
##л
##ğ
##ו
##γ
##ع
##η
##ệ
##ï
##ò
##Đ
##}
##َ
##א
##ح
##ت
##δ
##Î
##ί
##ð
##ə
##ة
##υ
##ा
##大
##»
##ר
##्
##{
##ě
##§
##«
##û
##İ
##Ā
##⁄
##ω
##→
##ם
##ב
##र
##†
##ج
##ό
##ה
##￼
##נ
##ー
##ל
##у
##ù
##Å
##ق
##ṣ
##θ
##ف
##ת
##д
##Ø
##ά
##м
##\
##王
##ש
##ř
##中
##ș
##^
##ę
##ḥ
##Č
##ý
##Ç
##ạ
##ك
##Ś
##ő
##の
##ン
##ּ
##φ
##ی
##я
##מ
##Ü
##ṭ
##ش
##ż
##ˈ
##́
##天
##ʻ
##Ş
##أ
##ơ
##ą
##子
##ː
##이
##й
##人
##Ž
##г
##đ
##Δ
##п
##ṇ
##ʿ
##ص
##ė
##ǎ
##С
##ŏ
##न
##ả
##Ó
##χ
##ễ
##ْ
##õ
##त
##К
##ְ
##ز
##έ
##म
##б
##ि
##ч
##文
##ָ
##ή
##國
##州
##公
##山
##ִ
##า
##国
##日
##ِ
##대
##ư
##ế
##ル
##李
##皇
##¥
##ĕ
##ь
##خ
##ط
##क
##ร
##ţ
##כ
##イ
##ע
##年
##ύ
##व
##ṅ
##‐
##ス
##з
##南
##・
##М
##य
##Ł
##ы
##ד
##神
##新
##ǐ
##द
##ी
##사
##海
##स
##ǔ
##Σ
##ُ
##ラ
##三
##®
##ζ
##А
##П
##ṃ
##太
##帝
##ト
##ח
##В
##ַ
##ु
##道
##い
##金
##ّ
##œ
##น
##ى
##明
##一
##ա
##ц
##Р
##Ä
##Ḥ
##ị
##東
##스
##아
##ŋ
##إ
##北
##리
##ɛ
##Π
##ア
##本
##Í
##х
##、
##城
##安
##꧀
##한
##ק
##民
##정
##社
##ल
##上
##之
##ן
##西
##의
##Б
##元
##武
##ξ
##þ
##劉
##국
##ɪ
##प
##Κ
##்
##ม
##后
##平
##ŭ
##े
##。
##リ
##Ż
##ʾ
##史
##김
##시
##ụ
##月
##פ
##ก
##に
##家
##Þ
##書
##高
##인
##ồ
##เ
##ん
##ク
##生
##성
##지
##া
##ɔ
##ג
##☆
##ț
##京
##가
##ṛ
##会
##อ
##ิ
##市
##주
##Ú
##学
##기
##자
##Т
##事
##光
##고
##유
##Α
##ッ
##ш
##צ
##ἀ
##的
##À
##И
##ס
##ग
##་
##五
##수
##ث
##女
##江
##田
##シ
##華
##Г
##ֹ
##ज
##ह
##周
##라
##ψ
##と
##和
##德
##ย
##ั
##清
##어
##Ι
##ḍ
##„
##川
##か
##ジ
##원
##غ
##ง
##▪
##ầ
##水
##ک
##ं
##ド
##ꦸ
##©
##ֵ
##し
##福
##서
##전
##Μ
##О
##小
##장
##Н
##る
##林
##다
##동
##ส
##二
##地
##ꦤ
##Â
##た
##な
##世
##і
##श
##₹
##張
##부
##ź
##タ
##Д
##軍
##소
##ň
##ׁ
##보
##조
##Λ
##Φ
##ộ
##カ
##君
##宮
##成
##선
##제
##四
##星
##長
##신
##ล
##ว
##」
##台
##司
##通
##로
##일
##ท
##ố
##マ
##도
##상
##「
##教
##方
##朝
##비
##›
##ロ
##島
##法
##美
##行
##연
##왕
##¡
##¬
##ņ
##ƒ
##ء
##ض
##ọ
##陽
##馬
##ǒ
##ᨚ
##ắ
##り
##フ
##현
##ώ
##Л
##ж
##ต
##Ἀ
##⟩
##正
##하
##해
##ʃ
##ڠ
##พ
##⟨
##ら
##不
##主
##漢
##真
##Θ
##Ω
##ذ
##ो
##ี
##ἐ
##プ
##下
##东
##나
##미
##우
##ז
##ะ
##ა
##ḫ
##ờ
##ʼ
##ט
##ま
##唐
##宗
##白
##무
##문
##오
##화
##₩
##出
##十
##志
##會
##̊
##心
##요
##ध
##ム
##华
##朱
##部
##산
##ֶ
##ი
##キ
##グ
##土
##式
##第
##ꦏ
##에
##ɑ
##Ε
##ứ
##レ
##仁
##士
##木
##氏
##陳
##진
##ю
##て
##空
##都
##ꦠ
##니
##村
##玉
##ն
##अ
##‹
##≈
##き
##ャ
##時
##郎
##龍
##영
##ф
##پ
##भ
##ᨙ
##を
##チ
##ナ
##古
##阿
##공
##ظ
##ุ
##่
##้
##₱
##戦
##有
##語
##黃
##ꦼ
##여
##ᨈ
##八
##개
##э
##ῦ
##う
##く
##英
##記
##민
##～
##ħ
##Γ
##∞
##オ
##コ
##學
##府
##은
##У
##্
##ด
##ウ
##サ
##口
##春
##門
##ꦱ
##만
##ئ
##ब
##ช
##ᴡ
##》
##は
##原
##版
##石
##聖
##박
##च
##ष
##ห
##代
##化
##河
##花
##郡
##ᨗ
##ậ
##〜
##夫
##歌
##青
##ꦺ
##ʊ
##آ
##ᨘ
##が
##す
##っ
##バ
##九
##同
##永
##ꦶ
##،
##ᨕ
##ḇ
##《
##ち
##ガ
##ニ
##愛
##駅
##경
##군
##ण
##堂
##寺
##政
##梁
##縣
##黄
##ˌ
##ъ
##ր
##บ
##ẓ
##ῖ
##師
##院
##ꦁ
##ꦩ
##마
##트
##ɡ
##ṯ
##ấ
##ὶ
##さ
##エ
##ュ
##秋
##野
##韓
##音
##Х
##ন
