[PAD]
[unused0]
[unused1]
[unused2]
[unused3]
[unused4]
[unused5]
[unused6]
[unused7]
[unused8]
[unused9]
[unused10]
[unused11]
[unused12]
[unused13]
[unused14]
[unused15]
[unused16]
[unused17]
[unused18]
[unused19]
[unused20]
[unused21]
[unused22]
[unused23]
[unused24]
[unused25]
[unused26]
[unused27]
[unused28]
[unused29]
[unused30]
[unused31]
[unused32]
[unused33]
[unused34]
[unused35]
[unused36]
[unused37]
[unused38]
[unused39]
[unused40]
[unused41]
[unused42]
[unused43]
[unused44]
[unused45]
[unused46]
[unused47]
[unused48]
[unused49]
[unused50]
[unused51]
[unused52]
[unused53]
[unused54]
[unused55]
[unused56]
[unused57]
[unused58]
[unused59]
[unused60]
[unused61]
[unused62]
[unused63]
[unused64]
[unused65]
[unused66]
[unused67]
[unused68]
[unused69]
[unused70]
[unused71]
[unused72]
[unused73]
[unused74]
[unused75]
[unused76]
[unused77]
[unused78]
[unused79]
[unused80]
[unused81]
[unused82]
[unused83]
[unused84]
[unused85]
[unused86]
[unused87]
[unused88]
[unused89]
[unused90]
[unused91]
[unused92]
[unused93]
[unused94]
[unused95]
[unused96]
[unused97]
[unused98]
[unused99]
[UNK]
[CLS]
[SEP]
[MASK]
##ст
п
в
,
.
##ен
##ко
##ра
с
##но
##на
##го
и
##ро
о
##ре
##ни
##то
##ли
##ль
##ва
по
##ри
##ны
##ка
д
##ла
на
##ер
##да
1
##ло
##та
##ки
м
##ле
##во
##те
б
##не
го
##ени
##ско
##за
В
##ет
##ти
##ми
-
С
ко
у
##ся
##ди
а
##ста
##ви
##че
П
##ру
##ци
—
)
(
со
##ля
ра
2
К
«
»
к
за
##ски
19
##ма
##ве
##ча
про
##ду
##де
г
##бо
##по
##до
##сти
не
М
во
бы
##сто
от
##чи
##си
##ть
А
##ем
##ной
##хо
об
при
"
года
из
##мо
э
Н
Р
до
Б
##ных
##ры
ка
##же
ф
20
##ме
т
##ного
##ения
##ей
##па
##со
Д
О
##га
е
##пи
вы
##лу
##сь
##ги
##ере
ре
##са
##се
Г
##ши
##ской
##ный
##вы
##ского
##зо
##ку
##тель
Т
ч
##ну
##ря
##жи
пре
##ар
году
##ств
И
##ан
то
##сть
##мен
##ту
##ные
##щи
##ский
Л
##зи
##ня
По
##ение
се
:
мо
ме
##сле
##вани
та
##лен
##му
ста
кото
##ты
##пе
бо
но
##он
##ции
##ство
де
##ска
##би
ма
##нов
##ют
раз
##ке
##ется
я
##гра
##ор
что
под
##ще
##ров
был
те
##лся
##ков
Ф
##ным
##вер
з
че
##ная
ст
##лю
пере
##спо
##ном
##пу
##ствен
200
У
201
##ше
##це
##ды
##вля
##зы
##сси
##жа
##ран
3
З
##су
На
##она
18
ро
сво
##ских
х
это
ли
##фи
для
##ур
##ства
кон
##ён
его
##жен
##мя
##ное
##рова
Ро
так
ми
##кт
ле
##ба
как
Ка
##ца
Э
##тив
##тов
Х
##ром
##ент
##ходи
пред
ве
##мы
ш
##гу
си
##er
##аль
##бе
##ман
са
пер
ча
/
которы
##вой
Е
Со
##род
вре
##ности
##ха
##ния
ц
##ность
##вет
соста
ин
Ч
он
Ко
Ма
##рии
##сту
##ская
5
##ев
4
од
##ления
##ющи
##ес
##бы
##нии
пра
му
фи
##вя
ди
##ден
ос
##ную
##an
рабо
##зу
##бря
##ском
##лы
##мер
воз
после
##ск
##пра
##ща
##ву
су
##стоя
S
##in
199
па
;
##on
Ш
ру
##ша
##сте
ком
Во
##об
##рой
же
также
##лись
За
##чен
##or
обра
нача
ар
жи
##нд
##ком
##вания
I
##том
ав
##тся
ни
##лей
рай
##ении
##лась
Мо
##ние
##ге
##руп
##вши
ви
полу
рас
##ские
обла
##зна
##кра
была
##бли
##ция
194
прои
##хи
6
C
дру
##ник
##пре
A
были
##ван
время
Та
##тор
##en
ба
##дар
##кой
##дов
было
хо
все
##вал
##ными
##зда
##ника
##дин
##ar
##вод
##нима
##лов
##кон
##ене
##тиче
бе
##стра
M
##00
N
##ску
уча
испо
##лек
ор
Ми
##ней
##стви
вой
##es
##про
##вание
##лав
им
Росси
Бо
##ред
##вед
##ление
##лось
##жд
##ются
T
##пы
##дер
пу
##лько
##ена
##рия
7
или
##гда
##ября
Ра
##стро
##вич
##рь
горо
##гла
коман
8
##ское
##ться
##ек
##лее
##вых
явля
##ин
198
##каза
##сс
P
Па
##ений
боль
Са
##зе
##цы
##вые
##al
##рон
##логи
пе
##ству
##at
##ход
B
гра
17
##лове
Я
ию
чи
да
##ским
вер
сто
исто
##мпи
пи
9
слу
Но
ю
##нг
197
ку
##жду
##вый
##кры
пол
##зыва
196
име
193
##ением
Ба
тер
челове
##раль
Ни
##ic
##бер
##ёл
образо
##he
##бу
зна
Го
##кан
##лом
##ению
Ц
##ью
области
##вого
груп
##стве
R
##фор
свя
лет
бу
##судар
Ю
##СР
##ёт
D
##ом
ки
15
ис
После
##is
10
X
0
дол
##тер
195
192
##ёр
##ональ
их
##пер
ок
ж
пар
##фе
##чил
её
##клю
исполь
где
##бор
##цион
##ём
##прав
Се
##писа
При
##ний
произ
##вест
##сы
созда
предста
который
иг
км
##теля
##циаль
цент
##телей
други
Ки
##лем
объ
Ку
##лан
16
оста
12
##бра
мар
наз
##зд
##ат
##води
##чно
Си
##рен
191
Ж
##вая
##ников
орга
##зя
Ве
Ли
L
Ви
авто
##тия
##мии
между
##спе
работа
##скую
##пера
##кто
##стре
##рито
##дом
насе
кра
##лож
##ему
##ень
Ва
само
##нако
##it
фа
пос
дере
стал
распо
##вать
Пер
стра
##тан
G
##жда
спо
##сно
России
##сты
год
более
##цию
F
сель
лю
##ложен
пла
До
осно
##сов
Бе
##вали
##рий
Ар
государ
##нее
##сло
Ме
нау
поли
##пол
сем
террито
##вым
является
##мени
##ье
чемпи
й
##жно
тре
H
##ун
##тери
##la
уни
Алек
##ходит
##ья
дан
##оне
11
сле
свои
##ССР
##ено
обо
E
##цу
##рован
##емы
##тельно
No
состоя
%
##ческой
города
фор
эк
##ких
##от
отно
##фа
##публи
##рои
город
би
##лли
##станов
том
##три
t
ти
га
##шо
##вро
##рт
##вета
состав
против
##ческих
Не
вто
##дей
филь
извест
14
##вре
кла
шко
##ети
того
органи
##льно
##чения
##али
находи
##при
##пад
W
только
жен
##el
##мери
окру
сы
##нской
##вое
##тра
13
##ят
##сса
##нь
неско
дерев
##обра
дву
##реди
##соб
##жения
##лё
которые
##лия
##чение
##нского
язы
ва
##циональ
обще
##om
##us
##таль
коро
ак
которо
##верси
вла
##ol
##следо
спе
##шей
##вор
##тур
##чных
Пет
То
##чной
воен
вос
Дж
##рта
##вил
##ческого
##цев
высту
##льта
##бур
##сли
посе
##ники
человек
##et
Ру
тех
дека
##щен
##нва
##мина
аль
пло
войны
##кого
##ion
СССР
##цо
f
она
отде
##став
##вом
##емо
##сков
клу
##ur
##ством
высо
составля
##версите
дей
##рио
района
це
##той
янва
##ках
этого
##ут
тра
ги
##тем
V
Ре
##мини
части
Га
##жет
##дь
совет
##il
##ститу
Су
вс
##йской
##хов
над
##рая
##рез
##ях
сред
ад
сент
ла
##лле
этом
окт
выпу
##щей
помо
##ственной
основ
Про
##кото
##стан
##шего
авгу
глав
они
Од
приня
использо
##ций
##зульта
гу
кре
##рабо
реки
##ch
##of
Да
эти
##коло
##вар
##нен
рус
##вает
Ин
Кра
часть
##тя
s
##ческий
##тера
руко
чет
##дол
##ША
##телем
##удо
##бре
место
прави
##лин
##стер
США
##ео
окон
##тро
Ан
вме
##ющий
##чита
##ющих
##дии
уч
музы
жиз
Ри
##ници
апре
##кий
годах
Ста
два
сло
откры
член
сбор
##лён
восто
эле
##ую
##as
Ла
##ed
##ками
##щё
чемпиона
Он
ду
результа
участи
вклю
##шен
мат
##графи
Алекса
Фран
бра
##вший
кор
##льных
##ному
##кла
##тели
##лез
##ностью
игра
##лага
##нский
##лии
Моск
##сла
университе
компа
d
##am
зем
##тен
когда
сезо
##рев
##стов
##преде
составе
##ющие
Мар
Кон
мно
##ним
##ших
##жение
##личи
расположен
Вы
##шения
190
##шая
##зии
цер
побе
p
три
Александ
фев
н
##вин
##тий
##коно
Так
кни
занима
##туры
Пре
##and
##слу
##министра
мест
Вели
##щего
поя
##еде
25
Ха
Из
##лаго
следу
каче
##ктор
дея
чтобы
##un
Укра
##мов
##кре
февра
которых
##рё
of
##руд
##бой
Сан
суще
разви
##нию
##стран
##скому
получи
##един
роди
##re
ря
много
дви
##нови
зо
изда
30
##ником
Лу
2010
пес
##боль
долж
поло
тем
##мерикан
##тей
c
около
Бу
##ro
##лий
уже
ты
перио
кар
января
Ди
стан
Му
II
##ссо
века
двух
поз
сист
несколько
Ле
O
через
##ing
Кар
##них
##стру
Ав
Об
Вер
поч
декабря
##тии
лу
##лет
мая
##кие
некото
##хра
Нико
альбо
послед
куль
получил
один
ещё
июля
##ступи
территории
худо
годы
##ким
##зации
шта
##ждения
##ниципа
##щее
теле
Гер
мира
Де
Все
##урна
без
##цен
##него
которой
##грам
исследо
октября
##рей
продол
##фо
ши
Это
сентября
##зан
Фи
сторо
истори
августа
##вра
марта
##кси
может
##шёл
##le
которая
ха
##его
##каде
##льного
##ступ
офи
ту
Евро
июня
архи
учи
##мент
Ге
назна
район
род
##ческие
своей
##ванием
государствен
The
J
Ти
испол
деятель
##вала
Вла
них
апреля
##народ
##сом
##шение
ло
муниципа
##гов
называ
заня
##скими
##кс
##ляр
От
затем
##стей
##щая
##мента
##влен
##писи
##рах
тур
_
ули
##дела
сра
##кло
##над
ему
##льной
##бя
районе
ноября
##ходя
189
##лла
##шин
круп
других
K
гене
##времен
губер
сер
возмо
##тин
участ
кри
##ссий
##мот
гла
вместе
for
встре
21
##дет
Пи
ан
группы
##личе
##ший
качестве
##чные
конце
счита
##кви
##лении
##ra
##вших
сти
##бри
однако
##id
##мет
##рами
диви
##нова
журна
защи
Сер
##ница
уда
##дж
##ян
##зяй
##ter
22
февраля
##кова
##министратив
##чь
##ген
опреде
действи
строи
Однако
Ло
разли
##нем
2011
##вается
случа
моло
##рёх
##слав
##жил
##форма
##стя
фина
доро
коми
24
бере
участие
##пло
##тельства
сте
##чин
##ведения
##слен
населения
соот
2008
##нача
##дия
##твер
Никола
которого
Хо
##ственно
самы
2012
всех
ри
2009
##енно
##II
право
американ
стре
##нер
проис
##раб
соб
U
##держа
##роме
##кта
##скус
##нами
##менно
Влади
Украи
##ватель
среди
фут
мини
успе
находится
выступа
Би
23
##след
##риа
2007
сту
##того
##чного
переда
бри
фран
##дой
националь
##мой
##тие
поэ
элект
использу
теат
неме
##чный
постро
Рес
##доро
писа
смер
##ору
Москов
##бург
##вен
реги
2014
##цией
##ent
##тирова
установ
##os
некоторы
##строй
the
себя
этой
производ
многи
Те
Республи
свою
##зер
##веро
уе
быть
##пас
комп
##кономи
пя
##льный
##ствии
##град
институ
числе
##ссе
##нах
##тельство
##хва
2013
програм
Анд
дво
жизни
вне
годов
##мир
ско
##щения
уби
##льные
##ствует
##тки
##кции
##дена
##жды
площа
городе
##ниц
поль
времени
2006
##ia
##год
включа
##прия
четы
##вую
##щих
##рации
##логии
уров
соответ
есть
мет
##шла
##шь
##седа
##вании
современ
##лев
стар
ци
ге
##ган
муж
##нут
искус
##шим
##гласно
сере
##ябре
своего
##тами
настоя
188
##ваний
28
##лина
26
##mu
##куль
##тора
тор
##000
##лл
Бер
##виа
##пада
##шки
Феде
опера
Лени
##жной
##бира
начале
благо
игро
##ит
тран
истории
##шли
наи
всего
направ
кино
немец
матери
##чей
вра
##мом
##пла
кол
чем
##тно
2004
эта
луч
##ню
армии
стала
##ждён
2015
представи
##сут
ры
##евич
##виси
##чина
Ос
экономи
##дель
##лиз
Че
разрабо
27
одно
186
служ
част
##фф
##эн
##ствовал
##ственный
проек
##няя
призна
сооб
работы
женщи
##казыва
значи
##ad
##ac
Бы
##ig
ше
##ряд
хра
##вана
виде
##тах
работал
##тар
##тал
запад
тру
обы
памя
имеет
составляет
мона
##циали
Боль
имени
##ток
написа
можно
сов
St
выше
##mula
ша
управ
##im
степ
объя
Лю
свой
##ске
##ниче
##вори
дости
’
режи
зда
##тре
Пра
Миха
Аль
187
formula
первый
2005
##ены
Й
##гре
##шие
##ot
прези
Также
Его
##лимпи
голо
##um
название
Пу
##чень
позво
количе
турни
Петер
##мено
вз
верну
спи
генера
желез
##лок
представля
помощ
данным
##сона
проце
поддер
день
##тных
Ша
##рин
##дио
период
##цуз
этот
##матиче
сот
##из
##ut
пун
##вид
##вшие
##им
литера
##em
##вался
##ющим
выпол
##чу
Совет
##лко
россий
##еди
##тому
анг
хара
##op
##ющего
##пример
##готов
##лением
##ec
Ор
кан
связи
##кая
оконча
##ющей
##пози
##дели
упо
2016
акаде
политиче
##вшего
##ation
XV
Гу
совер
тан
фун
него
Ду
гер
..
...
2000
перед
##первые
##каз
комму
относи
##жей
##тон
Российской
второй
верси
административ
##iv
##зов
29
хи
кня
##ir
показа
##еру
дела
##ницы
##лена
##кти
##нитель
актив
акт
нео
проф
буду
фо
##лья
##пар
слова
##ктиче
##ктора
Ту
друго
##грал
возра
авиа
In
##тиво
бое
образом
сим
международ
возмож
Пе
##кро
##бле
##ессо
гг
лишь
##нец
##мести
миро
##ил
награ
##хода
2002
своих
##рию
##фика
##ie
Герма
село
Для
##цер
диа
##рд
##ссей
##лены
Бра
человека
##чки
осу
ана
##вления
##сон
m
собой
##жении
##слови
деревня
##рования
##вобо
принима
##бро
мы
##ht
дома
ост
очень
специаль
могу
##щий
##чё
футбо
Север
фрон
большо
другие
одной
##вей
##дан
распро
##рю
##od
##нес
31
in
инте
стали
результате
##ристи
Ново
and
одним
##дий
француз
##ху
##мена
худож
назначен
оказа
##лн
##волю
котором
##дра
особ
руковод
измен
##шую
Оте
##кам
##ссии
заклю
началь
ино
##бов
##более
b
##тура
музыка
##вают
2017
##прави
меда
##ственного
##ступа
карь
Роди
##тый
Ива
север
кур
##руг
Крас
##жден
##десь
официаль
запа
неза
часто
зая
тыся
гор
Сою
##чает
–
##воз
мене
##мыш
##дви
##доб
XI
начала
ней
страны
утвер
пара
##фер
способ
поселения
##ющ
##онов
##пей
##правля
живо
##шее
##вало
Каза
##тет
Ча
##ag
##нци
гражда
##мости
##ствие
##мон
чего
Украины
100
сотруд
##тай
войска
церков
##st
##храни
##гер
##сер
r
##лого
Республики
##ul
две
организа
##тая
воло
дли
w
интер
течение
появи
Ис
Чер
обу
вопро
##кое
##эй
185
коло
тя
##тета
смерти
##щение
##цов
попу
50
ору
изобра
водо
##бран
роль
##ныне
профессо
меди
стату
##писко
##вались
##гии
примен
Под
##рок
начал
Свя
1941
##og
##дя
##пита
##ческая
##лист
##ступил
##вода
дире
дет
оп
##зма
2001
широ
##ist
##лой
народ
даль
сдела
еди
даже
Восто
северо
##там
Цент
сельского
1990
могут
##веден
##стри
Васи
обес
##чер
##стана
##бора
сельсо
чу
Ал
##жён
тео
##пода
n
группа
арти
продолжа
##город
Чи
команди
##раз
золо
##зом
##ществ
юго
обеспе
##тельной
укра
##щён
##лений
приз
##мест
##грани
##ow
будет
##ственных
стать
##нения
информа
команды
выи
проводи
Пере
##ез
сай
ныне
##стом
##нет
2018
завер
корпу
трёх
##лда
##шем
первой
предпо
##пута
округа
физи
сам
умер
мор
##йти
оборо
##вшей
##лад
клуб
##гово
например
дивизи
##вести
архите
Бар
церкви
##льное
##рую
##моби
##дри
наук
##ждение
##рого
##чная
##рус
пор
##еме
неболь
##стоян
##нием
##вле
область
больше
##еха
##рым
##дина
семей
2003
хозяй
вид
мм
деся
университета
этих
учё
##лимпий
противо
гру
##поль
##тых
провин
являются
центр
##нару
##бю
уг
дра
##мышлен
##дро
##лению
##вича
Ком
мето
##ers
публи
##тельных
центра
пря
прожи
впервые
собра
##обходи
зада
влия
40
##надле
стороны
##рес
начина
##oc
председа
сборной
Кроме
смо
родился
Федерации
места
'
образования
##зей
взя
работ
переписи
изу
##чным
##мия
1944
меся
##чается
кораб
импера
менее
##рое
расс
Вто
##вели
##зова
ог
##лью
##выми
##гли
##нович
руководи
##тики
компози
##скоре
##что
Кор
фильма
##рук
##ведён
Совета
##новь
разме
иск
тот
фильм
##верх
##даря
выс
пози
принадле
см
возвра
услови
1999
монасты
бан
ну
семье
кли
существо
##тной
Ch
Ленин
##мотря
##вов
древ
необходи
##ющая
##цами
расска
рав
##жу
входи
системы
Санкт
##ева
##мию
согла
!
##стья
победи
свобо
партии
##ект
либо
несколь
ал
тради
1945
сла
игры
##жит
Фа
##фесси
##мира
гео
треть
бассей
если
губернии
комплек
a
XX
##тный
спу
##мана
##вёл
прода
##льная
компании
“
выбо
ран
Ио
Согласно
##ard
фло
##щие
тр
освобо
##тельного
каж
##лова
##чеб
контра
вновь
гре
184
Рус
выра
сою
берегу
##хе
фило
##чёт
одного
Отече
чер
коллек
##ew
Франции
##тельный
Y
закон
сезона
Запад
лей
оче
##вари
##вшая
командо
захва
1943
Хар
##пов
##джа
##жде
##шло
##бай
настоящее
##зь
импе
населён
содержа
поме
объек
Тур
##нин
фон
автомоби
клуба
##ствия
отличи
Как
Нью
##лено
##тека
пы
##стой
##еры
экс
альбом
##мин
промышлен
окончил
един
Ги
источ
##ложение
##лиза
электро
возду
##ходят
обнару
материа
хоро
##ay
##ктором
##сок
Насе
всё
##мор
##рец
Европы
##пара
школы
возгла
Пред
мя
Государ
Прези
##риаль
почти
##тил
##кин
борь
Москве
##дно
##мар
доку
Гри
##чка
##блю
права
##лга
##форми
постоян
##ce
иде
183
похо
препода
пов
месте
##телями
##ьи
сц
Кри
##нев
детей
ходе
##гна
осо
радио
отли
##послед
там
##нок
художе
##последствии
посвя
которое
##лых
##бом
##мети
##дент
опубли
##сколь
##ктив
Между
Александр
создан
бро
##тые
##III
„
##зован
имя
##нутрен
кафе
##шил
распростран
##дида
глу
##жных
##нению
##кет
Ад
##ov
хотя
вели
1991
сня
##ровал
##кими
##чном
Исто
чемпионате
##риан
пример
##ктически
памят
Националь
Родился
честь
культуры
Поль
президен
факуль
##лка
##числен
момент
исклю
осуществ
##ланд
пода
Гра
181
режисс
власти
?
##деля
##ванию
поддерж
Май
Ст
персона
1992
села
класси
ито
позд
Бело
предприя
депута
##стема
Мон
находя
наро
##ческим
команду
контро
##зм
##ровать
экспе
наиболее
реда
##вили
Ген
кана
##рет
Германии
##нение
генерал
професси
жителей
меха
популяр
секре
степени
##мб
евро
организации
##вёр
##мит
отра
##ческое
##циа
частности
##тина
Глав
техни
Пари
##писы
##ваться
##тельные
типа
различных
##пли
1998
##поли
1980
поги
отме
##зем
подписа
метров
своё
Гор
##вшись
##пись
##кур
Отечественной
Куб
селе
людей
Великой
описа
револю
Коро
съ
недо
##ель
сохрани
анти
мировой
доста
##мость
общи
##est
##блио
матче
##ствуют
Население
спор
Она
собствен
1997
##ана
182
##джи
медици
говори
##кса
Ита
подготов
##вление
##ess
количество
##ральной
XIX
##чены
##рович
##никами
большин
Верхов
техно
основном
##ьер
ответ
англий
рода
тысяч
##скольку
##хан
первого
##емых
титу
##фри
работу
##рует
Пар
##рального
социаль
ним
##они
серии
позволя
обя
35
допол
собы
##пен
Союза
Ши
многих
##рово
здесь
##чался
р
располага
гвар
##дова
##кор
евре
таких
##виде
британ
воору
##вез
##чное
##льным
1994
шо
##сей
станови
вод
нем
четыре
эпи
1995
ата
концер
пси
1996
членом
##кар
Основ
полови
##ri
1942
стро
управления
близ
своим
представлен
замести
твор
стало
##оло
##стр
2019
##туре
отсут
симво
##ьё
##лях
Велико
предо
##бил
##ново
##art
##тировал
внутрен
скоро
брига
независи
##дор
должность
сезоне
Анг
##лами
##муще
##сан
тек
##чением
##тором
рели
Раз
##шу
Кур
##чески
моря
1960
##пор
нескольких
000
середи
##ub
чемпионата
фото
проходи
кру
кандида
попы
##нодоро
Ир
рес
аре
учили
60
аэ
линии
##пании
Мини
v
1970
сме
раст
специали
##тика
л
остро
##тья
прекра
##сад
войск
поле
проду
названием
восста
Владимир
первым
Хи
1993
уничто
##ревно
кры
зву
##слов
участвовал
дивизии
тогда
##дами
Среди
транспо
##гом
отнош
Ев
##гель
млн
##юр
альбома
реш
инжен
одна
присо
Рабо
маши
##дах
финан
вышел
произо
переи
III
Ман
##клад
оте
##хозяй
##лый
производи
станции
##чал
непо
ряд
##парта
##бир
объедин
еписко
##рав
]
каза
##чён
##мая
##рина
##рения
##лые
кафед
прибы
пора
облада
времен
##едини
Олимпий
##жество
случае
кам
##доль
##чет
1930
республи
Сте
форма
полностью
##тка
##вляется
др
принял
учеб
##валась
180
##ержа
##ктер
совмест
Ана
##ментов
поки
##туа
наблю
стран
себе
##ческом
получила
био
##ционной
##вонача
милли
слож
ори
первых
##ваются
de
поста
энер
##пархи
общества
##лах
струк
##матри
двига
ред
некоторых
входит
Красно
##ётся
##рос
##кция
##цент
##ap
Вол
деревни
##бере
An
потер
площадь
закры
уста
носи
сопро
##тного
профессиональ
##тию
[
Джон
дальней
##менты
Был
##ломет
##езд
##фици
позже
женщин
1920
##стива
основан
##новре
##шта
##кты
##графии
сын
музе
Петербург
##рование
##стоит
Дже
упомина
##ссы
##вшим
библио
##рам
Они
прис
##вли
образ
нор
##лки
Сред
##жный
советский
##ill
япо
которую
помощью
##ложения
острова
1989
вернулся
пробле
##нам
Амери
стрелко
новый
харак
Йор
Констан
##нских
32
края
##брь
дебю
железнодоро
очеред
##зен
##ev
##ant
нас
уезда
l
Япо
полка
клад
##ктов
Когда
##ложи
деятельности
система
успеш
Джо
нес
##дца
филосо
особенно
зако
##док
##ct
##шка
посёл
Вен
##тании
Лон
пись
некоторые
Воз
срав
бес
##цей
кате
колле
число
##лог
##вел
ограни
##тания
километ
Кали
реа
ранее
##ума
демо
##йского
##тым
##валось
регу
##торов
многие
рам
украин
тыс
##ber
образование
1940
##ine
пяти
попа
основе
мир
завое
##спи
рей
РС
##ффек
##жного
фе
##тисти
##кую
автор
##лян
песни
империи
столи
##били
брон
пересе
развития
1918
##ort
жизнь
##ющее
дом
решение
руководством
Международ
##лам
Великобри
возрасте
констру
тон
обе
мощ
игр
##бин
##воль
конца
языка
##ов
##рис
##йн
Андре
тро
роли
Жи
ru
##нией
##стью
##ep
##эр
артилле
кос
Чере
##менталь
приоб
Второй
##креп
##ерт
##еня
Казах
указа
выз
##раи
веду
##жан
##вила
179
##сток
цар
Ху
муниципального
отказа
матча
выпуска
g
удалось
##ведение
соревно
##руется
##гам
форми
##вии
##тные
##вить
сериа
##тона
##тить
##ud
провёл
РФ
нового
+
совета
com
протя
культур
другой
##ями
избран
низ
Ленинград
##сен
##ковой
завод
имеют
озе
Тем
##пан
1950
обычно
уси
##новременно
##ian
окончания
италь
орден
церковь
учре
выступи
Им
команд
компания
самых
вну
##еты
разде
свет
##чную
такие
версии
##гры
##чении
Входит
1939
##лер
##тельное
реали
территориаль
осуществля
май
пыта
вет
инстру
ап
уз
Москва
##жная
благодаря
##мень
##рудо
внима
Пав
Затем
характер
нём
безо
расши
45
принадлежа
ордена
четырёх
выпущен
веке
##ak
студен
Al
внеш
##гей
института
##чик
Рас
##чай
##стров
солда
##образ
Аб
##ёра
##ord
проя
выну
кладби
край
##гина
##цкий
##говор
мастер
движения
##тации
пригла
Бри
##дон
городского
##лип
##круг
Тер
государства
университете
катего
академии
##ственным
неу
связан
духов
##сной
&
##еть
Акаде
Фо
дней
##чено
Вар
поэтому
сказа
цвет
вза
грани
##ристиан
европей
##хран
##ческую
##рые
Мак
ново
ей
##оз
мате
##казом
##хом
##рем
##all
нет
видов
вариан
##up
отношения
происходит
Уча
Кара
состоит
##читы
самым
h
большой
Ай
которым
граф
80
##зербай
##ёлок
отправи
требо
##дё
##ум
включая
важ
языке
перешёл
построен
##шой
самолё
военно
ска
1917
рамках
##ab
Петербур
##емой
присут
пле
ск
##гие
Нор
Киев
##мей
##цкого
Геор
выступал
##зон
убий
мень
конкур
чёр
зависи
##треб
1988
Джей
потом
поскольку
млад
река
разре
##даго
школу
Мор
главным
связа
##нул
выступ
присво
испы
Кана
расстоя
впоследствии
##гани
##ционных
пехо
должен
70
оружи
Кан
36
##льского
бит
##und
опы
Зем
Московской
выда
команда
##гру
Институ
темпера
##щена
##жай
Нес
поверх
примерно
##чем
Уи
##вато
уго
##лон
##гия
##оном
мире
Чем
земли
деревне
##гля
##стин
##рту
##дения
искусства
##our
сю
обеспечи
спортив
Эн
согласно
##жением
весь
опублико
исследования
Пол
феде
верх
##вё
Гре
##вян
функ
##циях
работе
##ябрь
33
##дже
школе
погиб
##ФСР
механи
син
##толи
##ферен
архитек
##av
относится
оцен
бога
университет
нару
неё
повы
крити
ката
Ar
карьеру
разру
КП
зи
заво
##if
отря
##мати
РСФСР
Окон
Ше
обозна
прод
происхо
##ландии
применя
Первый
##чего
##носи
Сем
постанов
театра
##ясь
бли
##стях
крепо
проект
Олимпийских
язык
рабочи
провинции
заве
мета
##зин
Фе
профессор
неиз
выстав
Сы
##бина
##ральный
новых
Z
перево
вскоре
газ
Пло
##ik
##роят
просто
##чными
##клопе
Un
##шед
противника
##ционного
имел
эффек
##няется
причи
##цем
=
##чена
частью
оби
прав
возник
гон
##ющем
##жё
всей
##тельным
##чению
##мых
иностран
°
перееха
целью
сентябре
устрой
союз
именно
##тник
##ково
##ae
##нциклопе
##пом
##льм
##щем
представляет
епархи
упра
##ссер
##20
книги
##ственные
участво
##льский
##зирован
деятельность
звание
ото
карти
педаго
сцена
##нё
##лье
короля
дня
люби
становится
##tp
##гро
Верховного
ат
Sp
##ань
##катери
Эр
встреча
аб
королев
записа
переимено
мог
Дру
Чу
поддержи
баталь
оди
Com
Гар
Том
население
пять
Москвы
##туру
178
##суль
корот
производства
преи
##нил
##th
##мат
статисти
возможность
пост
удо
преобра
контракт
бой
Коми
другими
##мимо
Иван
тому
IS
##езда
##дам
используется
меня
газе
##ell
1986
забо
##нюю
##пря
##пере
##eg
дороги
##вшихся
серебря
##точно
руб
этим
Цер
крупней
видео
##сия
первые
1987
первом
мае
##ковых
микро
действия
##мах
##ip
##ленных
##ваны
##http
##пасности
##тива
играх
наде
##ou
##их
##ронен
##рского
сыграл
плани
январе
##ющими
1919
снова
аэро
отца
##гну
1937
правитель
##зия
Николай
##емые
Верх
двумя
фильме
##ждый
##вшийся
православ
##анта
Если
##емый
управля
Воро
тай
школа
Ке
должности
Григо
Екатери
Наи
34
сил
Уни
##печа
возможно
to
соедин
священ
августе
сайте
мало
свиде
Распо
Дэ
Чемпи
##сед
1985
сни
##щим
##логия
герцо
чемпион
##50
восстанов
находился
труд
38
службу
Спи
числен
##лега
октябре
Несмотря
трене
##кер
##рит
религи
быстро
##лая
волости
подоб
##льном
En
Смо
##жений
Александра
суд
капита
институт
1938
запре
озна
##служи
российский
корпуса
##эт
полков
Pr
##шает
подо
Шу
Ниж
Михай
разо
отец
##чности
марте
##ok
поряд
##ge
декабре
##хар
уве
##дил
Ря
##нял
##сред
New
поселение
прем
тю
Фор
Алексе
##рыв
Мин
##ue
долла
эпо
##строи
Италии
мужчин
Воло
преимуще
Дан
крас
##близи
##ran
##пуска
##фикации
90
##баты
середине
учени
##стями
вол
##фли
##10
печа
Министер
реко
спа
##льную
пока
лейтен
поступил
разработ
суб
иногда
отмети
##щается
данных
выигра
мнению
кладбище
##нике
кто
##кли
##ссу
торго
разных
штат
##ждении
гим
##фина
##КА
сре
занял
ССР
##ity
Тре
психо
литератур
##тацию
Рей
спорт
##ус
брат
таким
пути
сторон
улица
##ставля
подраз
марш
награждён
порт
Фри
празд
бю
|
кроме
первую
Джа
##рована
Через
##эль
июле
полк
Пла
##рот
помощи
практически
силы
##имо
ниж
президент
37
сборную
сельсовета
##нос
округ
цен
##риса
новой
стандар
1984
Фер
##щества
принци
сна
##гой
1965
еже
проекта
Зе
выпусти
дебютировал
ква
##роя
##шев
характери
преступ
##io
станция
определя
премии
##начала
##пру
доба
##жо
##держи
##доров
Зна
##пусти
фестива
квар
реши
эпизо
##фон
отличие
##няет
приро
##цом
Генри
секрета
массо
##лло
##ведений
создания
Три
##ковского
вен
Этот
многочислен
стр
##циона
1975
##bo
##мера
Эти
##ственное
полно
бло
##вано
поро
парла
##рги
июне
Кре
сей
играл
губерна
1946
своём
имен
##пет
училище
позволи
молодё
должны
образу
другим
эту
класса
часов
роман
##льской
посёлок
Кли
##надца
##берг
подвер
##луа
1968
Там
##шан
##горо
воды
капи
здание
Дон
ради
##ционный
покры
воздуш
музыкан
пои
форму
1976
практи
реаль
апреле
операции
замен
лег
охра
избира
##лета
1973
Кубка
трен
##ссажи
центром
диссер
пти
сразу
сыгра
друг
##нить
1982
семьи
здания
##щает
##бок
Робер
сельсовет
путе
фра
шах
неф
сум
спорта
простран
полити
ца
этому
1979
1972
новые
##нику
##воначально
относя
дочь
##ссоциа
##воря
##тической
сезон
##ера
##end
Город
проте
Великобритании
ноябре
наблюда
протяжении
##вере
Крым
маршру
академи
Дмит
1963
доступ
граждан
востоке
##пой
прото
юри
получа
муниципальных
второго
##тех
##торы
##ёв
завода
Гру
1929
Золо
##лович
##мян
Благо
Фё
титул
забил
убе
рим
##ies
плат
жан
##лект
##влека
##служен
службы
правительства
1983
##ницей
Некото
рассматри
рядом
вышла
уро
свобод
яр
##гами
##доне
##тельная
1978
##йт
улицы
отда
IV
##тили
сына
##щении
1948
цвета
ау
четвёр
1959
##годня
расположена
##твор
интере
начало
##ленной
войне
##береж
Рим
служил
возглавля
1966
зе
долго
собира
##тана
Виль
фронта
Сто
1981
##лк
##АН
Mar
удосто
##эм
двор
1967
1974
Сара
поня
лё
подтвер
##жает
1926
##йский
последу
##ob
ман
одном
совершен
дело
##гах
##ph
позднее
##сил
види
Народ
1956
плане
##гент
центре
журнала
программы
##сами
аппара
##вшиеся
вместо
произведения
Австра
##кончался
творче
Фин
##нина
определён
итоге
##сам
позиции
утвержда
Кла
Советского
Анто
хими
самого
проходит
1971
чув
##ex
западе
Послед
##бан
177
долларов
##тирован
##стьян
##ксима
1954
состава
комитета
феврале
##вольно
взаимо
христиан
##шел
семейства
стоя
##вно
доктор
членов
песня
Серге
президента
##жить
1962
XVIII
##жены
##ens
Ль
вероят
Длина
прямо
##сах
поко
##дить
1958
соответствии
##жные
##ющую
##рест
k
##рик
разно
стране
##нимает
##ятся
##рией
1977
##12
##тием
Поз
жела
москов
##нициа
вынужден
1964
##ey
Кры
одновременно
##порт
дополнитель
##лит
строительство
##фициаль
1957
##циалисти
све
##вале
1936
##ссия
очередь
спустя
Россия
##BN
##падает
работать
ситуа
музей
превра
государственный
##ёром
##сур
постав
Японии
предпри
всегда
государственной
##кипа
внимание
средства
Таким
обороны
##гни
##перь
пут
аресто
прос
##дого
Наз
Англии
футболь
Первой
Луи
моно
##мби
образован
1961
##тино
Нау
технологи
гвардей
##кульп
Али
Филип
Азербай
##ностей
главе
главного
гимна
##жать
Петро
Нов
болез
пассажи
##дёт
Член
##ственная
упразд
длин
бук
рез
соору
##емон
##час
песен
##ive
##евского
##тни
##лию
доче
мед
коммуны
бронзо
##тое
ISBN
тела
матчей
востоку
демокра
##арди
Бен
экспеди
сокра
##плуа
состоянию
орденом
клю
##ковский
Сергей
боя
##рский
##оны
получили
колхо
тренер
##сою
выя
500
Зи
##лями
##граф
1969
люди
метал
спра
област
##мок
##ry
музыки
оказыва
##чиная
##СС
##уре
сформи
##вок
Th
Щ
хорошо
Северной
##енси
подразде
##стром
Ат
коне
религиоз
находятся
ракет
##лень
##ющихся
Расположен
1935
знамени
непосред
Сам
Эта
##ложил
ху
написал
##леко
множество
деву
объяс
игре
##спомина
##чек
пово
военного
##жества
тен
футболист
прин
считается
Юго
##ind
участок
Московского
##реги
тяжё
десяти
дворя
39
##щу
##виду
##лёт
сли
Михаил
##купа
##това
Кав
чел
Всего
Бал
##ченко
оз
развитие
##роб
экспо
##цени
дел
1947
преду
земле
турнира
Административ
##уго
##ust
американский
исполни
увеличи
Василь
##кторов
регуляр
##пания
Смолен
1921
Украин
##фии
44
De
Афри
общей
##гает
Am
отстав
площади
##деб
##зывает
##ровали
##мые
##сных
Вме
протека
##мым
##гар
названия
доби
изменения
научных
оригина
синг
работает
писатель
администра
оборудо
##тского
##ровки
широко
##хео
следующие
спортс
самостоя
узна
##кана
Sh
Рай
##ain
42
национальной
правило
дис
Тор
##чиков
западу
1922
##луч
64
1949
Ры
Лео
Джор
Тру
достаточно
финансо
одну
Европе
домаш
словам
##ib
##ксу
турнире
являлся
актёр
##цам
сильно
1924
##лаг
организо
боевых
##циони
1928
##коми
Стра
##нера
площад
##сем
числа
Позже
##шён
список
Вскоре
ниже
счё
инженер
начали
научно
##джан
совместно
назван
конфли
модели
пору
най
образований
##дел
##меча
каз
использовать
##клон
точки
условиях
Окончил
зам
строительства
##гло
Израи
##вшее
on
##щены
высоко
Харь
##вай
43
кро
недоста
уезд
партий
различные
экспери
офице
скульп
самой
влияние
неизвест
выпуск
Ско
предполага
победу
##шими
##ьёз
Гене
главный
##тиру
требу
административно
несмотря
основной
##триар
##диума
##син
##ллю
революции
Бур
гидро
состоялась
значение
обяза
большинство
тол
номина
00
друга
##ходится
опер
##тная
сопрово
мага
Син
Сле
1934
русский
##ight
##чить
уровня
инициа
военных
##нуть
солдат
Жа
выиграл
##дию
##шему
известный
статус
##нице
присоедини
тяже
флота
фир
##нисти
Кам
##зор
которому
библиоте
##ческими
##ld
##рист
безопасности
море
##никам
##ГУ
имели
Эд
городской
пове
теории
##мс
Лей
150
формы
такой
##юн
группу
48
##ьера
группе
зри
сельское
транс
конферен
##лод
жени
путеше
Тай
##жского
вое
##ly
реке
Вене
##ври
состоялся
крестьян
крестья
Ян
##стье
поля
##стера
Университе
##строен
соответству
Испании
оно
##назна
насчиты
1953
окра
увели
орке
вось
исследователь
Красной
информации
эксплуа
маги
История
1933
##мато
лиде
##рованы
огром
потеря
китай
##тиви
экипа
1932
лёг
факультет
раун
законо
##ант
##ss
исследований
хро
известен
биз
добро
инди
внутри
голов
##льными
уровнем
Q
побереж
##тельности
рее
Джи
##стами
##рай
занимался
Академии
##АО
##ast
Дне
СП
бомб
артиллерий
##кома
1923
позволяет
Уилья
Евг
соревнования
Ленина
медали
##рак
##ул
штата
шоу
Оде
##eb
Автор
##сол
удар
##тельность
##ведены
большое
65
границы
Иванович
молоды
женщины
преж
300
1955
корре
##никах
Фло
торгов
##мма
1931
наслед
##бют
сан
дальнейшем
остров
первая
деревян
правительство
##нан
консер
войсками
категории
писал
дипло
значительно
##ish
вокруг
##форм
ника
1914
известно
жа
приводи
##нка
Con
##нены
ум
##констру
плен
75
##ям
##тным
Бан
##щество
месяцев
предлага
##чо
странах
зрения
став
Умер
предела
события
систем
принимал
Некоторые
41
реб
могли
##az
каждый
##дыду
Осно
сначала
одино
системе
1952
значения
Мэ
транспорт
региона
##ющиеся
четвер
01
кисло
##гор
есте
##ung
##логических
направлен
##боро
##фро
##ходил
##льд
Королев
железной
написан
Её
последо
должно
Побе
всю
жерт
Здесь
Моло
приобре
западной
нико
смог
##тельную
##лине
##ьют
заму
включает
угро
указыва
министра
##телям
##лай
пункт
Име
матч
##кл
##тыми
представителей
##щено
муль
инф
##емого
последний
мон
ресур
47
первое
Азии
##ведена
парти
##чился
коле
команде
1925
##ate
##ссов
базе
лучших
##ристо
науки
##ъя
##лиа
книг
уровне
потому
##мос
напо
ряда
предназна
изо
##ссийской
литературы
оде
оч
##qu
Чемпиона
Южной
Авст
Болга
продю
##ary
Иоан
##ряду
Коман
вся
первен
##тской
случай
территория
ОО
##ect
отлича
правления
46
русской
Гла
русского
улице
вида
католи
искусств
##енью
Яро
Бор
метро
Один
Тома
мину
ежегод
176
##рее
Дей
демон
##ними
шести
Йорк
графи
##лым
##ляции
##гри
медаль
Полу
действу
серьёз
эффектив
хок
судь
муниципали
баш
55
лиги
XVII
##жской
оке
производство
паро
##кина
обязан
##ковые
положи
Высо
турец
##тую
##степ
предыду
##графия
Хан
##ich
Хот
существует
начальника
52
посети
##чины
1927
сторону
Бли
целом
штаба
##чила
##лада
##ральная
промышленности
заявил
восточной
Йо
охо
##падения
своими
##гон
книге
относительно
соответственно
храма
вока
##тических
историю
##30
прежде
мать
Сла
бело
##чика
выборах
гита
вру
эми
##ционные
97
##куп
##товой
преимущественно
боях
Же
хозяйства
##вому
##вец
Bo
Интер
стороне
Мария
Иль
##нять
##ice
##гий
игру
армия
##станавли
длиной
##нён
фигу
Мы
жил
Похо
активно
неодно
дочери
Ах
##ждена
сочин
заведу
Оль
Даль
наличи
1951
доме
Президиума
Наиболее
штур
педагоги
установлен
храм
умень
военной
основа
гар
озера
региональ
счёт
мел
##ровского
Мат
партия
##ссив
##ента
власть
##чку
укреп
предприятия
##ug
##кратно
##нском
##рица
##вера
будут
##жал
записи
##ica
##ork
##способ
##тился
##ила
ними
граница
Шве
##зация
##клады
меж
##ck
архео
##нциклопедия
периода
данные
заверши
Pro
тюрь
Ван
досто
Поли
участник
##служенный
камен
девя
путём
стади
##сев
дивизия
комплекс
зали
отделения
Брази
рома
Вин
чемпионат
Петербурге
##ory
Сим
старший
учился
Мек
##вью
оши
1905
##шек
фами
сро
всем
пило
наступ
председатель
##ith
Гон
http
русских
Пара
электри
движение
##фу
##тере
##имён
##ВС
квали
Северо
##tern
##формы
посёлка
архие
митро
газеты
император
довольно
Дере
Выс
кавале
монастыря
юриди
особен
программ
##ниях
##скохозяй
решения
Вой
ожи
##мый
средств
половине
##евский
##дови
Помимо
бомбарди
официально
##гран
Прои
##ять
##вив
##рота
перевод
развед
##olog
##тел
дене
приве
последние
основных
описы
городов
неда
теперь
##чность
##ральным
##чев
сегодня
##нская
заболе
истре
отправ
##ear
##насти
Испо
сведения
Лин
действий
департа
1915
улуч
Лан
ам
49
эска
самом
Президен
##жном
добы
художник
парт
Эль
##плоть
астро
##тали
##ational
сосед
версия
одноимён
история
##orld
музея
суда
Ак
рублей
животных
##поле
Хотя
re
##руют
арен
раск
приш
строитель
##ang
ww
Мари
тепло
##ost
Sc
##11
пользу
населённых
говорит
Бел
держа
следующий
раза
www
звё
табли
севере
интерес
занимал
вступил
##цар
##рат
бого
план
путь
Что
отдела
следует
##стник
должна
##ждений
сде
посвящён
Прави
оцени
пожа
средне
депутатов
Ам
##ровка
##шир
##ne
агент
##ond
втором
протекает
##man
электрон
заместитель
##ВД
распреде
директор
глубо
зависимости
Авто
дворов
##жем
##КО
герои
##борато
старо
54
сда
трав
##гото
измени
##вшейся
международных
понима
Бай
неуда
##товых
##ветов
##тке
вошли
именем
супру
продолжи
##щал
крупных
происхождения
расположены
той
##жена
растений
зелё
##тт
##чке
Обра
пото
степень
##жению
выход
ЦК
прош
минут
публика
Владими
##мером
товари
коммер
экра
показыва
Название
малень
юге
##нар
кварти
##нении
##ордина
##мого
сами
##станции
подписал
сельскохозяй
лиге
испа
объявлен
князя
Ара
Марии
Гран
исполнитель
##рыва
помощь
##стояние
##рабаты
##визи
книга
выделя
##ment
##щиков
выде
одержа
##ствовать
компанией
Ци
Луч
семья
##sk
направления
копи
гол
смы
##зад
Гро
##щик
##деть
составляло
##iz
58
##стры
мере
стиле
вице
Извест
##шком
суме
фабри
обслужи
результатам
##стики
италья
провод
острове
своему
некоторое
чемпионом
##тский
шесть
рок
##новить
##довой
потре
сети
процесс
телевид
Впервые
защиты
##АТ
##кле
решил
Андрей
проз
##руссии
кг
сотрудниче
Бела
Иванов
выхода
командира
современной
использования
леген
позна
##нему
Жу
53
##рение
Поэ
Вместе
распростра
итальян
изготов
напря
никогда
норма
зад
Чар
##риста
##йская
Це
уез
разработан
Венг
пользова
Импера
##фы
##рика
присвоено
бригады
ассоциа
выбра
Карл
начальник
##рил
##ure
снима
##луб
временем
##филь
Уо
силу
корпус
ген
ль
XVI
Армии
итогам
эн
возможности
хол
председателем
Святого
командир
Эк
##ющийся
частей
размер
комиссии
Джу
Кни
##ron
большую
отношении
##КП
возглавил
##кцию
56
лес
##тического
##ходе
пропа
посо
журнали
##лд
##тает
Например
Мно
групп
##кен
запо
резер
##ide
ву
##евна
коль
особо
пункта
чере
##ральных
Америки
1912
Хор
участников
##стые
вплоть
Бель
дважды
##союз
##мона
сделать
сохран
Фу
проб
борьбы
##коль
пят
верши
Париже
оса
02
Село
входят
##щую
форме
сцен
кори
##тать
Шар
гото
Официаль
династи
косми
фер
произведений
Тра
следующем
спосо
произошло
графа
##ial
##сова
##ницу
доказа
бывший
назад
организация
##ровский
императора
1910
компьют
выступил
юно
реконстру
1913
окончании
швед
##тное
бер
народа
Тогда
Право
известных
имеется
любов
миллионов
направлении
Воен
Закон
Суще
Алексей
##40
превы
регионе
57
##степенно
Николая
обви
сигна
##бель
##вшими
начинает
##ллер
премьер
##телю
##рованных
##тность
##цеп
##альной
времена
получить
семи
Европей
##вшегося
Шта
Дина
скры
##ровано
исследова
модель
ликви
Является
построй
Мер
Спе
##най
##емая
Сен
Позд
началась
Эй
Rec
$
Коло
журнал
догово
началось
Их
##чий
слов
концеп
##лес
51
страте
певи
##ённых
постоянно
##цкой
автобу
политической
счётом
##бек
##кового
##бло
Новгород
замет
##нных
сделал
##тью
рождения
положение
АН
Пес
##кте
Сиби
Летом
найден
теоре
##стых
автодоро
управление
равно
лагер
появился
##age
участия
st
шири
поддержа
крае
законода
режиссёра
##рация
окружа
##ff
07
##ратив
расстоянии
##везда
Лат
иностранных
вошёл
##сшта
проведения
##беж
принято
мл
Шо
Архи
62
Анато
природ
функции
исключи
переехал
##щихся
##бине
##мани
Ещё
Mus
борьбе
нако
жёл
рабочих
республики
Иго
Большой
языков
выборов
##бий
Нидер
епархии
появля
поддержку
##ЭС
районов
расположено
##тические
гвардии
оказался
директором
##мией
сохра
##тинен
округу
средней
ремон
Окт
##тков
зер
свер
##тр
##rom
Код
председателя
дебют
командованием
##зами
Гали
величи
меч
появились
##гин
каждой
##чив
районного
Первые
##ровской
Указом
проблемы
памяти
##защи
06
песню
##ical
необходимо
поверхности
##шет
выдви
##чне
##ционно
##сериа
король
Груп
Первая
внес
##влением
появилась
истреби
##штей
называют
занимает
вооружён
обвин
05
члена
владель
местных
Западной
турнир
##ровала
##зой
##еремо
границ
взгля
1916
проживало
нему
##ствовали
фильмов
Дом
##лизи
Ура
##летия
повре
бывшего
вдоль
сообщи
кле
национального
сопер
прошёл
успешно
высоте
пала
##шена
##рхи
генерала
создании
обнаружи
##возмо
##нили
отправля
престо
отделение
преобразо
##ire
Министерства
архиеписко
##НК
VI
пож
##тку
##чать
звез
##тельном
##ровался
употреб
##ственном
##лег
отве
максима
группой
09
Площа
военный
##сю
Австралии
##полож
зу
вопрос
пунктов
упоминается
сос
коме
трени
Герой
опубликован
систему
общество
##80
слово
режиссёр
спекта
КПСС
тоже
бар
Тю
буд
##бет
##сии
Калифор
митрополи
##лец
##пля
##ственную
насле
народов
географи
мусуль
Кол
Восточной
Олимпи
памятник
используются
легко
брата
Ву
##лово
директора
самоу
восток
исче
Пан
Прем
##ленный
##рской
##чит
Еги
##ek
##дение
подня
институте
геро
##ach
весьма
##ходов
Швей
##держит
местности
##жено
##чений
Похоронен
Лит
i
епископ
штаб
лаборато
родилась
телекана
профессора
распоря
Кита
##стон
матчах
техники
##новения
французский
##ock
##нный
составляла
армию
##зья
##вина
математиче
реша
жена
##жным
##мед
1907
##роприя
##фов
##МИ
создание
цели
##лне
##чества
звания
400
Перед
63
художника
президентом
современного
Слу
##казу
водохозяй
сопровожда
##чник
опубликова
частично
автоном
коммуна
##чета
Брю
студии
Кэ
##зию
возраста
##стен
момента
встречается
Вя
Мекси
министр
76
главной
120
##iss
##вия
##ченных
##слуги
деле
порта
Мир
Тео
##бар
##севдо
аналоги
Co
##шко
Петра
##сибир
имела
сейчас
Владимира
##солют
редко
03
инду
перегово
выступления
театр
Вороне
##единя
компьютер
##ологи
местного
взаимодей
Финлян
##крови
круг
воин
##ьев
пенси
началом
пришлось
уса
каждого
##вит
называется
##свя
##чём
приблизи
центральной
Дю
сюжет
##дал
59
клубе
Чёр
Ники
немецкий
##зал
##мены
судеб
Порту
свидетель
гро
04
##ong
Варша
Пен
жители
общего
философ
месяца
главных
Br
##рана
##сят
##ленные
Индии
##мён
Впоследствии
Тар
##новский
пункты
Le
Вес
бою
##льник
##гети
Благодаря
начинается
Tim
Бере
новую
Союз
меньше
##ore
Дми
выска
Откры
1900
опас
художников
событий
Фон
подви
Большо
финале
Свер
##ier
состоял
##ath
утра
советских
окрест
e
ссы
скло
Макси
Ex
Многие
диссертацию
основании
играть
##язы
бед
##тьев
набра
Ну
Василий
Бори
уровень
карьеры
Площадь
полуо
##нки
##рье
Всеро
##шением
##шены
монастырь
Андже
Объ
приток
##долго
мероприя
советской
##мотре
Зако
##ivers
1906
основания
Бре
конта
Дмитрий
третий
трех
игрок
политики
театре
наимено
Be
дал
новое
семь
##пто
1911
##пуск
округе
оружия
создал
открыт
рису
##реи
картины
Жан
170
лица
победы
гри
километров
08
Уз
Церков
Баш
##посто
##мами
лиц
дорога
покинул
##вшую
вслед
Москву
Фридри
англи
бассейн
ими
лен
Виктор
содержит
##сили
##шении
след
найти
трудо
работала
175
маль
##СТ
##цвет
Нидерлан
Нача
##дили
##зывал
Большая
Сибир
предме
##манской
заседа
##страи
Ph
разби
другом
##вского
Новый
##купи
##нио
##ступила
интервью
объектов
построена
нар
войну
водного
##бен
##чис
Re
Анна
обучения
Оста
факультета
лично
##щими
семина
##te
документа
приняли
входила
Занимает
вес
диск
труда
Джона
72
попал
##воен
оба
книгу
##новил
World
ориен
церемо
##слова
Хе
большим
Яков
почёт
Арм
тём
говоря
обрабо
концу
самый
экономики
Ала
##тила
Сей
броне
столк
полуфина
Дар
Вален
Bl
замени
сказал
##зре
летом
##ver
правом
внутренних
##нёс
Ган
смени
Тан
отправился
Белару
Вале
##За
пан
марки
##ровании
северной
##мую
скончался
Поэтому
перен
##унд
##шению
##леку
тренером
Памя
моги
арестован
Октябрь
##org
паралле
представители
##вос
диза
заняла
##пис
##эта
##ани
новым
создана
грузо
небольшой
Ro
##стрий
##чили
85
сопротив
Пушки
состоянии
млрд
##бах
##ой
куп
беспо
Игра
слишком
преподава
66
Record
координа
напада
диамет
члены
Рича
##скет
##ence
камер
здоров
Хай
Героя
##ah
Дерев
##ковым
линия
домов
Государственной
заводе
двой
Париж
магази
Стар
подвод
##дора
эко
##чью
##част
##визион
Работал
линей
##жную
русские
изоб
входил
лёт
стои
премию
##редо
Ката
Вологод
гале
фронт
1908
переименован
ничего
вероятно
предус
подчин
красно
означает
Фильм
Новосибир
желе
Лондоне
территорию
корабля
##idae
Ростов
запи
##альных
##печат
лейтенант
куда
издания
крей
эфи
##ав
##рый
##ствием
относятся
##вери
##гур
##лера
Император
Позднее
пулем
общины
призёр
##ts
начальником
##рона
отряд
##слава
возро
##ass
##ern
пого
неоднократно
организован
##НИ
проходил
##порта
поезд
капитан
##тье
кора
отдельных
##ics
бассейна
Института
Пау
Динамо
##стю
##дит
Первоначально
160
бази
##les
Отец
постепенно
##груз
##кций
##чики
РК
зим
Павел
Трои
приказа
##граде
##мского
ке
морской
##рун
исполня
##шал
>
среднем
война
##aw
современных
кара
жили
Тихо
##стойчи
рейтин
продви
южной
##ьет
##стане
##ys
устанавли
##града
кораблей
заместителем
##ционная
начиная
предпринима
Кин
##чая
##кому
##восто
ожида
##BC
##фей
послу
рекорд
Социалисти
##вило
1000
такого
секу
Американ
##рых
виды
лод
предложил
##шается
##стал
особы
комбина
РАН
вошла
67
остался
олимпий
присоедин
органов
##мере
экспер
##менте
газета
псевдо
Уэ
собо
психи
отставку
компо
1904
араб
попада
1909
##пти
Лос
ночь
##ченные
##тек
##веща
сингл
Тро
фанта
Air
издание
##шке
находилась
##вка
##вена
тело
индивиду
рекомен
данный
##гал
женился
аку
согласи
##чени
Викто
##ксо
вин
пользо
философии
фактически
сви
бата
проблем
отвер
наступа
ды
стрелковой
использование
##возгла
ядер
##ail
##мий
##вский
возника
щи
принят
рекла
##следования
деко
##ватории
невозмо
##зоб
бур
##ловской
Вре
##декс
втор
##нке
будучи
игроком
корабль
напомина
обли
##регистри
##шать
Белорус
Швейца
##тический
Архан
сайт
95
игроков
получения
##вской
For
горы
комна
магистра
Расстояние
la
Кубок
##форд
##ick
##кии
процесса
Гражда
офицер
вклад
стен
Следу
причём
##тру
##вол
68
##ётр
второе
сериала
##ack
Польши
Президента
бор
##жки
##ace
##чают
##ions
Доб
еще
##стям
рек
тка
совершил
техниче
большая
очков
порядка
##верен
избра
секретарь
##ходы
раство
получает
Ap
Британ
объё
лейб
вести
машин
##one
##канчи
##шинство
произведён
обсу
заниматься
лучшим
Юрий
Ярослав
мото
привело
непосредственно
##актив
чаще
австрий
ул
##правления
Comp
Бразилии
##кут
##ффе
Зу
югу
##терна
Само
удостоен
Валь
СПб
##лить
рези
полё
серий
Вильгель
библиотека
короле
Ниже
##кей
командиром
народного
##диа
Русской
##oll
серия
##шить
актриса
звёзд
выступает
##комо
отрица
Сверд
##сел
мужчины
Комму
##водство
международного
составил
Пётр
##сомо
парк
##зю
##уреат
газо
Новая
корреспо
69
Gam
нам
##ИК
##ровой
установлены
тонн
##АР
клет
##сив
местах
Дмитри
##ево
Роберт
претен
клубом
Румы
проспе
прочи
терро
##lay
74
Черно
##19
##лэ
Кру
86
последова
Новой
студий
входя
передачи
##ВО
дороге
Кавказ
руки
Дол
процессе
##вете
организаций
##дко
Эсто
##май
зло
Азербайджа
##лился
##вшаяся
доктора
сравнению
Фео
квадра
чинов
отре
##вшем
озеро
ВВС
замуж
Par
веков
Кай
готов
номер
Маль
лоша
соба
численность
дер
АССР
##шер
Кей
объявил
предше
статьи
министер
##произ
##ваку
воспи
баскет
Зо
иска
##тивной
архитектуры
соревнованиях
парламент
##бели
подготовки
##новского
машины
иметь
##old
плав
взрос
продолжил
этапе
кафедры
Карла
батальона
адмира
боро
хан
вопросам
иллю
деньги
##По
непре
##ДР
##днев
##фере
подчи
##цева
Португа
избе
##облада
##per
##лланд
жены
Дани
посла
##ходили
коричне
находились
топли
последнего
##ждая
##тик
представитель
далее
опу
Уже
##совой
длина
Мен
память
материалов
##зок
исторических
приводит
зару
кандидат
173
##ood
Сент
конференции
прито
городах
отказался
километрах
вызыва
Кер
Церкви
встречаются
##are
располагается
##ментом
администрации
глава
##льф
##oh
ус
дисци
высокой
случаях
99
##ал
##сит
##дцати
заста
He
##ёров
поедин
результаты
Сю
возглавлял
##меня
174
кине
##мской
това
Деревня
##рост
##вляет
##рэ
##ссейн
американской
объединения
##бка
##ального
Белоруссии
ван
курс
96
российских
командой
##ходом
битве
возоб
Александрович
отряда
1897
бума
связь
назвал
преда
You
код
экзем
Wh
чрез
##ходить
реестра
##кол
##циями
зарегистри
Ивана
испыта
##15
Петербурга
##ict
масшта
обеспечения
восем
Конститу
Николаевич
десан
##сторон
каса
уника
живу
##ковской
руководство
Шот
автором
73
##нейших
Михаила
##скрес
испан
большей
поражение
ребён
восьми
островов
реку
сих
##пии
летних
единственный
##сали
##ru
скорость
##щать
##пел
##сий
создать
Тол
принадлежит
полномо
моне
Сын
##выше
большие
сеть
количества
союза
Первым
немного
появляется
князь
##генти
отношений
##ite
Одна
172
модер
##дона
связано
Univers
больших
воздей
Советской
##дзи
потен
искусство
спро
этно
##ult
##денти
вторым
изображения
##дный
##ствовала
##рея
стихи
##жности
##ловский
смешан
футболу
##нули
асси
ваго
родствен
##сные
Ули
бал
гори
провозгла
выходит
гипо
журнале
трам
ого
сыном
моди
1890
муниципальное
вариант
##тную
##шку
##ологии
al
Леони
тури
результат
повто
уво
##новой
стреми
национа
призван
политических
пишет
Америке
##ждению
традиции
Стан
##ann
атмос
##хам
золотой
##льская
достиг
раско
служи
основы
##лём
Колу
сцене
##кас
##сить
совершенно
издатель
границах
Мур
защитил
стоит
##рип
числи
##жное
вои
##дера
##тинг
##ченный
Чемпионат
ВМ
станов
сет
воспомина
Список
Украина
77
Бого
##йдя
##вока
##НР
##лыми
упа
эпохи
завоевал
##ward
крепости
элементов
##ловского
##люб
романа
Эми
##логического
##хранили
##турой
свыше
переме
хре
измер
основана
##рена
созна
контроль
##бурга
Ближай
##che
полиции
Заслуженный
##вига
майо
##хотвор
##тельными
впадения
##тете
осад
Основные
спас
##шено
игрока
запу
майор
драматиче
решением
династии
##ina
Тран
расстре
##лив
##щика
by
моз
проигра
прось
топо
исключением
Стив
##еве
кано
технологии
данной
комплекса
Уа
собора
приблизительно
евреев
переход
##ляется
прошли
изнача
Красного
первоначально
месторо
##сках
Всемир
порту
##ont
изде
продолжал
крупнейших
природы
##16
япон
Большинство
##берт
##куда
##щением
посред
##уз
срок
##ано
Records
служа
командовал
гражданской
царя
##новка
Выступа
##ральном
английский
перенес
##нического
познакоми
##бурге
хокке
бизнес
устройства
Именно
речной
уголов
167
Кро
талан
Эду
дири
неде
канад
##шина
статусе
предприятий
Бей
Борис
##нём
##мам
представлены
телесериа
Осо
преподавал
##вард
русском
вече
Саратов
Украине
мело
голосо
##тиве
континен
##ros
объекта
##чнее
##тника
Чехо
температура
##пин
Китай
##ческому
##вела
Кен
Ино
подба
тенни
высшей
##сный
училища
доли
ов
##мова
разве
##сид
Сво
87
98
##рпи
последних
сообщения
Камен
##стной
привлека
герман
Порт
потреб
земель
##ведении
архитектур
##яр
успеха
Находится
статей
##land
свое
Or
середины
##18
<
разные
эваку
Ad
Музы
достига
немецких
заби
##ленд
раунде
научной
##дут
##out
похоронен
Два
успех
восстания
z
Современ
лето
##вершен
Норве
j
упразднён
165
##новому
синте
ближай
166
какой
составляли
вдо
элемента
договор
конститу
War
студентов
Теле
Cl
оккупа
стрель
патриар
масте
работали
Sch
##емым
расти
шоссе
средневе
существу
##вами
##рг
##органи
сборная
руководил
пределах
Рома
Более
выяс
высота
наряду
всему
офицеров
обучение
164
Иоси
гос
карто
воспита
болезни
##ливо
##зуется
Казахстана
##юри
нена
супер
Участник
Национальной
конку
голосов
Московский
Соедин
имуще
VII
прибли
##бии
сотрудни
фар
нужно
Швеции
##рованный
экспедиции
ее
нынеш
новая
подбассейн
##чиком
герцог
Боб
бассейновому
основным
1903
##iew
##дие
основал
##гун
музыку
распространён
Земли
##хой
##ственности
Олимпиа
телевизион
используют
##гай
Ска
84
##мель
большого
колон
##гно
государственных
##пят
Центр
уви
##сё
хор
силами
82
88
##тном
этапа
78
##ubl
предвари
сравни
руководитель
полицей
исключительно
состоялось
любо
Sy
полага
##жается
аген
Авгу
##хождения
епископа
##amp
250
##рэн
##13
мост
тренера
писателя
мне
1902
##14
Архангель
оппози
достижения
##мба
##17
чита
ресурсов
Елиза
корпо
##вычай
гости
исчез
специально
##обще
перено
##шинг
Анти
татар
магни
сва
кампании
##жидан
Председа
насто
Qu
главы
парка
83
крупные
признан
растения
пет
#
Венгрии
охва
##тическая
автоматиче
Te
Мед
Твер
##довлет
владе
вышед
прида
##крепи
##сель
съём
Псков
северу
полож
##логической
##фана
фаши
сборник
иденти
##жали
участием
##виков
поэт
другу
данного
Михайлович
установлении
##ведено
##нулся
концент
требования
писателей
Vol
созыва
пытается
##ленно
филиа
населённые
православной
лидер
взял
обнов
термин
##вав
##ностях
дочер
Intern
возвы
##ноко
непри
лока
##гене
владения
кад
Васильевич
существования
усадь
служба
##ец
Man
дево
авиации
##чан
сержан
фронте
американского
составила
здании
орби
фоне
Куз
инжене
##кола
Церковь
холод
посёлке
футболи
элементы
стрелкового
Хер
##против
Стани
выполня
Нар
##жка
ранен
##ффи
жё
программе
контроли
##ix
##uc
леса
Сар
Австрии
##берта
зоне
назначения
литов
обязанности
яй
##листи
орудия
ико
государственном
##тес
##кру
сена
принять
основные
пребы
голу
госпо
входили
класс
##сколько
портре
##фт
Китая
профессором
наказа
женой
Спу
Атлан
армя
языках
##рованной
##тников
юноше
считает
окончательно
##сена
хиру
литературе
##сро
92
живописи
ир
вышли
состояние
XIV
транспорта
##линд
##ковая
венгер
Степа
розы
Великого
at
мульт
бле
##нический
ОАО
##мара
комисса
##леб
##ционе
ворота
св
играет
персонажей
Эдуар
абсолют
##uss
подъ
прису
##кри
Ты
Теат
##логический
##кров
##лови
действие
группи
##мыка
святого
##альные
Болгарии
Amer
реформы
##рачи
собор
имеются
сосредо
заме
полковник
замок
##ньше
дни
единственным
остальные
ОЗ
Первое
проекту
энергии
моду
композиции
собрания
лицен
Col
братья
делает
##вёт
активи
агре
получив
тера
безу
выбор
Участвовал
##unt
Челя
миру
уеха
Ленинградской
##шом
##дных
любой
стихотвор
Дэви
##рода
Каре
специальности
стратеги
времён
y
Произ
##ос
##кту
известного
##ступили
##дцать
Слова
тип
##логов
вар
осна
мемо
диалек
##son
люб
оформ
знак
пье
попро
прошла
Эл
##довал
вследствие
ано
политический
##ждает
##стка
особенности
младший
Поскольку
земля
запас
##мбу
##голь
##бки
половины
конкре
кризи
##зиат
сё
сх
поражения
##ft
##жский
Саха
##тация
силь
ство
прибыл
СМИ
анали
##под
заканчи
молодых
Кири
##нена
французского
птиц
Группа
130
##фан
##рить
Жо
##ехал
дети
спект
астроно
##хай
Иса
Кубке
учреждения
Военно
качества
##логические
XIII
герой
##pt
проведён
составляют
##ваясь
опубликовал
снаря
экземпля
дворян
колони
##рья
Джордж
ВКП
известна
среднего
##руются
многочисленные
сделан
Ус
##летов
крайне
##зий
##тивных
##стую
Press
консу
##новых
##стави
последователь
включён
жесто
раньше
спектак
XII
1901
##дея
##зар
##одо
энергети
Сталин
поступа
et
##ows
##стных
Азербайджан
Изда
своем
опо
сул
##езде
169
белорус
вни
##градской
##щений
музее
третьего
карьере
##лени
Евгений
Свет
##int
устья
##вающих
глаза
Кё
##пр
Ур
помимо
регули
попыта
компаний
превос
Is
финанси
городом
статусом
поддержке
канала
обстоя
захо
Гей
республикан
Чтобы
##водства
болга
подроб
##виль
объедини
фу
Мака
подверга
Ed
раскры
##обо
проку
финала
Горь
##стской
Волго
карте
списке
Финляндии
конец
районах
пры
сом
##ax
имена
опере
отличается
водохранили
посту
Бон
государств
##менов
документаль
##жность
свободы
Древ
следующим
пропаган
##жая
функциони
автома
Казахстан
методи
##уна
гло
Шах
Органи
Франция
Уильям
##фрикан
левом
##емое
Созда
Вашинг
привле
Сибири
Турции
мяг
провер
Худо
энциклопедия
##гана
Гай
Ау
типо
которыми
самолётов
огонь
депутатом
еврей
Car
боло
Йорке
стек
победил
фре
отды
судов
##твори
Дер
юг
La
##лога
##кове
Константи
##поля
вернуться
драма
модерни
героя
автора
##стая
препара
номером
бюро
−
яко
##стого
##стного
подразделения
162
подряд
168
##тными
Речной
пусты
Дра
##дание
фильмах
скорости
слабо
Ind
немецкой
Марк
##lin
зоны
областного
мисси
оружие
паци
Hist
Джек
хло
фини
аспи
Журна
делега
##дации
##ican
##raph
##никова
##act
##лое
Часть
разработки
##ors
##нные
вторая
условия
##фия
##нной
зданий
заключён
##фек
спец
сосредото
600
Канады
##мур
идеи
численности
врач
89
##рованные
##раж
Россию
сверх
##ium
##чье
отзы
газете
идёт
Gu
самолёта
##дные
Православ
Одновременно
##льда
Семё
Хол
##енов
Истори
1896
##чалась
немецкого
##тю
городских
финал
Строи
сама
Роман
впечат
156
обратно
##разу
##чкой
учёный
##лке
мусульман
высокого
даёт
изменений
##ьян
##ровая
храни
##ерусали
предмет
Вологодской
воздуха
принимает
улиц
курсы
технику
урав
##грации
##лео
Сити
краси
##женных
Устье
рассе
удоб
рыб
дре
намер
открытия
построи
Егип
Доктор
полузащи
журналист
освобождения
##горит
Супер
предоставля
Ряза
метод
##беки
убийства
Национального
##американ
вообще
ава
1898
женат
положения
##щина
Германия
горизон
157
All
резко
выдели
##чали
вино
##ис
связыва
Me
##вето
периоди
Руко
последней
##orn
Дании
##нета
повтор
##ous
обита
материалы
причина
##дзе
##лежа
наиболь
зат
МГУ
ограничен
Bill
парамет
колхоз
проходили
плей
социалисти
Старо
использует
##мино
##совершен
79
счет
продукции
ассоциации
##новича
##бн
границе
оставался
##правил
##берга
##ember
предложен
163
##тике
##ровалась
Николаев
##рте
вырази
российской
Национальный
##iet
Дени
##самб
Скончался
РККА
Дет
##стные
выполнен
##ленного
##ллин
попытки
откуда
##ФА
##oft
родо
герба
##спорт
##енных
применения
пита
прине
побережье
Колумби
следующих
Ца
Югосла
соревнований
94
неожидан
бота
лесо
армией
##номо
##змом
самолёт
поддержки
##ори
##sh
Яку
##тивного
Лен
##дума
##лона
Wind
##ковый
осве
Главный
использованием
##edia
Мюн
ада
##мович
НК
1899
символ
##рас
основу
##нений
Греции
Лев
письмен
потери
140
скан
солне
Стре
ООН
возле
##iev
Воору
Pl
##тивы
незна
губернатора
##льское
контр
##дт
Российская
##риф
93
152
Баку
##чаются
прямой
Патриар
тему
кинемато
месяц
молеку
изначально
известность
Официальный
##чами
##ляет
##ai
дизай
##говой
аэрод
##ank
тремя
боевой
оставил
##польского
Священ
##ффер
сложности
##тта
Молда
Труда
перспе
##кович
Пала
авторов
потребо
свойства
Республике
ие
Пос
##сного
гастро
хозя
##нда
приход
ключе
##тена
Аф
композитор
Грузии
Ирландии
110
##новей
Шан
враже
такое
высотой
позволило
Gro
прогре
Институт
##бера
фай
францу
Демо
вопросы
открыта
известные
Жена
отсутствие
преоблада
вок
интен
восемь
159
убит
приняла
офф
оказались
осуществляется
##ленная
делам
известны
конкурса
Спа
##раста
##логом
##зму
Донец
письмо
155
дели
Святой
Род
th
##право
считают
подверг
##уса
##ъек
обшир
1880
гарни
существование
##надцати
Центральной
Брай
начались
##ловой
катастро
Лор
Предпо
могла
тысячи
сыновей
##хин
аспиран
народных
визи
французской
##ступить
##хта
продюсе
установи
рассказывает
##гона
надпись
1870
Спарта
утверждён
##АЗ
##щему
##шений
Круп
русско
##кос
Буду
света
##тли
##uk
Сай
On
Куль
##био
Ира
персонажа
разря
регистра
Ер
Северная
использовались
зал
программа
##скар
постра
предположи
Бру
строй
ежегодно
столицы
1895
креди
медалью
выступать
орудий
влиянием
Желез
##etr
Сере
##циал
задачи
такими
##ark
Орен
концов
##щины
1860
сфере
инвести
старто
капитана
воспри
Ac
мили
Элект
Георги
##лую
Татар
переведён
судо
недели
военные
сумел
Тимо
сне
##лков
необы
##корто
цифро
Бю
Львов
текст
знаком
герцога
европейских
среды
##фикация
динами
Джеймс
##провод
Music
##дает
американских
##ton
Башкорто
##ющейся
конструкции
сража
пласти
пограни
Песня
порядке
Цар
##зеф
представлена
Бога
##orm
любви
государство
стол
прока
Константин
выста
почто
плем
Всесоюз
##груп
другого
Награ
##хии
##стар
снаб
переу
##фильм
Иерусали
крови
остаётся
##сор
Начиная
##тером
изгна
зато
очер
металли
известным
Афи
дорог
Бро
Исполь
##мое
выиграла
опыт
##ствий
##кови
##строва
предприятие
статистики
наград
запись
Азербайджана
метра
победитель
Сино
причине
днев
Петров
##эра
Met
конгре
гимназии
сражения
##ign
недалеко
Gr
##щению
фраг
Киеве
My
Пя
##етра
##кцией
адре
кавалерий
первонача
##бал
поводу
усили
##чия
флаг
des
академию
Сева
старшего
языки
войско
##board
торговли
Альбом
наступление
формирования
преподаватель
оказалась
1885
морских
##AS
сельских
стены
##джет
##стым
форте
лучше
охраны
приё
Rev
состояния
удовлет
практиче
##БА
воду
альтерна
технических
Кы
источников
паль
##КС
##рави
атако
York
разрабаты
присоединился
независимости
историк
проходят
##мыми
перемен
Сло
ужа
Особ
фунда
##щают
перво
Матери
верхней
##ale
Горо
##Закон
кварта
##хен
##ственными
##пуль
ситуации
дивизиона
актри
##sp
кирпи
выборы
нарко
отобра
##вки
всеми
##следование
апосто
услу
Тере
научный
побережья
##вик
Существует
Жен
отдельные
классов
расположенный
##щер
##ствования
##альный
противополож
Доро
израи
Кристи
португа
работой
районы
атаку
##АС
Даге
обоих
полез
вертика
Go
необходимости
ауди
Сбор
##ктом
Мона
Award
канал
большинства
##дес
##пром
друзья
спаса
дипломатиче
обмен
министром
считал
Лиги
причиной
предостав
верто
Ада
сельский
программу
##гали
We
##шний
вед
##ology
##ционное
зарабо
флот
голланд
австра
соединения
лучший
социальной
##ват
инициативе
##енко
Крыма
Советская
##cl
Постанов
проектов
##own
##нями
комитет
61
pp
здра
##ьес
##ровалось
губерния
противоре
##лар
##sch
нер
Возмо
компонен
деятельностью
Фрэн
Француз
Чарль
Св
моста
лице
##тс
##шно
Моги
##ина
##ону
проме
одному
VIII
кров
неделю
партию
совхо
лета
картин
##мум
##пле
##ционным
стадии
интернет
руководителем
##льском
железнодорожной
швей
школ
Лондон
##рета
леги
Расположена
чрезвычай
статье
советского
музыкальных
выво
записы
##пки
российского
##рда
отече
карта
Рожде
творчества
звезды
Обо
орденами
коммуни
жёст
##образо
##шель
##ездов
заповед
##все
##ас
гли
##щиком
зрителей
##цах
встречи
продо
##тились
закона
Верхне
огне
древне
военную
освя
информацию
##ряз
Армении
старшим
бизне
Игорь
наконец
1859
##фера
##нической
угле
термина
##гера
International
##ладель
1892
Анны
ВС
##мик
Лес
сюже
службе
Карло
стаби
побед
##cy
Свобо
сестра
Аргенти
##тарём
пластин
наследия
##меров
собрание
текста
##рованию
##ровались
##теро
##новен
##ждено
едино
крепость
развитию
индей
блока
участвовала
дель
представляют
Пале
резиден
неактив
##бит
Григорь
кафедрой
аэропорт
##ons
ряде
инфра
наци
Балтий
смогли
средняя
верхов
##рядок
Eur
##ждены
старше
братом
погибли
учебных
батальон
коллектив
скорее
звуча
##бами
##дьми
характеристи
158
##знача
##рских
##ata
##служа
##ёд
племян
Але
Кир
##вшимся
редактор
##ентов
der
Каро
национальных
четверть
##лик
исход
летний
выпустил
двое
ушёл
стиль
обосно
сор
использовал
Эли
банк
отмен
изучения
##ux
Петрович
Константино
##охран
серию
Израиля
##лева
переехала
Ser
Фре
металлу
выгля
Берлин
закончи
##бая
Сена
##ash
автомобилей
##городи
оккупи
джа
##ИИ
Музыка
будущего
##онер
##сным
хотел
##городской
излу
##омет
существова
##кав
##пя
At
Книга
##завод
ансамб
раздели
человеком
оказывается
Един
выстре
##физи
##вон
Тех
##верса
Обы
Алма
Остров
предложение
устойчи
##эл
каждом
приказ
Самар
мер
##кского
видимо
##цкая
##стый
пережи
труп
##тус
участвовали
Законом
королём
##yn
тура
Санта
Мель
##шала
национальный
##att
дистанции
Только
##ально
гне
отцом
распространение
Абду
изображение
Музей
учреди
словарь
благотвори
Мей
приходи
Изнача
##тед
кот
##щики
##чество
женщина
##поро
##лана
1889
вблизи
технологий
##чие
##lect
##ффект
Узбеки
800
наличие
различи
возвращается
КО
кандидата
двора
берега
сообщение
кали
##теле
заказ
торже
единица
##зербайджан
хозяйство
Свято
симфо
преодо
деления
занимается
Таш
общественной
погре
##зона
выйти
##рованного
населённый
Много
##дру
инспе
оперы
сосу
сложи
Франци
##бия
компью
Астра
##жисс
приобрет
началу
выбран
##ане
чеш
нега
отказыва
##ниям
Последний
Маке
Берлине
диапа
танков
ще
строительстве
железнодорожная
##маном
##менту
Ураль
##ённые
Billboard
org
1864
##rit
золото
рестав
жить
Гол
Китае
##ere
US
пой
объём
##ХЛ
1893
запла
отметил
Учился
рост
американская
##гая
Times
замети
базы
местом
Большого
поса
преем
участии
постройки
международной
Stud
многочисленных
уто
фла
Африки
University
смерть
уско
Соло
оборудования
годом
дворе
домой
##ждением
ch
IX
третьей
хво
УССР
1894
##феры
моде
соли
сход
##нт
братьев
командование
Op
отношению
специалистов
##полне
действует
разнообраз
Солн
##льзя
Латвии
рецен
вот
брака
землю
минима
алгорит
картина
##раздо
хреб
конкурен
##ox
##ственность
следо
парламента
und
годам
Департа
образователь
открыл
шу
молодой
английского
##тировать
поколения
мужа
неприя
Полта
##дила
контроля
##гих
Gen
##тала
лечения
бригада
направля
случаев
посад
Бес
##тип
##циан
##лизации
достоин
##ционную
Play
процессо
мыш
большинстве
Windows
##жают
горя
приходится
День
вспо
##ations
##тивно
регулярно
##мога
##торе
Государственный
сад
моби
структуры
Смоленской
азербайджан
музыкальной
Швейцарии
чт
##скопа
##жин
денег
##вах
##ступления
##ase
##лил
прикры
##ien
##жнее
жу
##джер
источниках
столь
специ
пытался
Марга
военнослужа
Международного
сотрудников
##руя
Ля
Сек
Одним
популя
Объедин
##сленность
красо
дисципли
последнее
##ile
бен
Гоме
##any
##подоб
экипажа
битвы
содей
##тяну
рубеж
##строения
Русский
Дви
Монго
позицию
##таны
автори
обладает
дю
##ound
##ourn
оценки
завершения
чемпионов
Александров
##полков
Португалии
Была
вёл
Мэри
##TA
##ove
Было
фортепи
множе
футбольный
1878
##гию
Далее
заслуги
награды
Богороди
##вающие
##ральные
Золотой
зависит
from
##OS
шот
хран
El
установки
Сту
Хью
Сти
наси
профи
бокс
подгото
Чика
местной
125
##графа
засе
сухо
памятника
эксперименталь
Занима
сражении
Около
начался
издан
испытания
база
горно
вещества
артиллерии
Кня
Голо
дя
Бря
захват
ут
Иоанна
восточнее
Алтай
анализа
Беларусь
разработке
1886
Вай
блю
годами
престол
Президент
##сой
978
Изначально
мнение
объявлено
подру
существуют
##дать
##тывает
дума
##еву
адвока
брю
Сергея
Бара
Наполе
единиц
##ings
чуть
миллиона
библиотеки
самостоятельно
##лита
отдыха
##ванных
результатом
Людови
##ствовало
представления
##зме
##кона
поэта
любы
решает
заведующий
with
мель
брази
##мский
хочет
преде
1891
соци
Харьков
возвращения
##бон
##боры
##сского
газа
пьес
1861
редактором
##co
##лио
##ance
румы
Славы
целях
фоль
sp
отсутствует
недель
напад
депутат
общественных
Усть
##ходила
Иоган
прошло
поднима
##влении
консуль
##энер
##тельством
##дце
##ветом
одинако
выпустила
Черни
##oy
соглашение
факт
1862
##кратный
Севасто
##ress
##кну
пище
соответствует
Se
71
гипоте
Цвет
##плы
прозви
сериале
##влений
возраст
небольшо
##ряс
Вид
эволю
самые
украинский
Mic
Челове
##ome
направление
созданы
соав
Вест
##щаться
##цена
##ГБ
брак
сведениям
##дией
##фаль
Литов
высоты
атаки
достав
##нден
##кость
##теров
##споль
Риме
##горе
адап
методы
Спустя
154
Павла
Тара
лы
двигателя
Pol
первенстве
##торами
этап
1877
Руси
марок
Кал
гибели
ощу
Ричард
независимость
Абу
##тности
самое
##лизма
роты
поезда
гораздо
пев
##вшееся
переводе
ува
##пресси
индий
участке
фотографи
Дэвид
глаз
очевид
##щиеся
живёт
Bla
Эм
основного
##ционер
греб
определения
описание
##тору
##мно
повстан
установлена
осво
гвардейской
Gre
дворец
использовался
крестьянской
участка
опти
Чехослова
сцены
##зацию
News
изучал
проиграл
предоста
Бран
пришёл
Иг
опла
учеников
буква
конфи
принце
пру
##новым
южно
продолжает
ООО
стоимость
отношение
Турк
общем
вдох
##дали
построено
костю
ведущих
##лакти
Счита
высшего
Fran
головы
уд
1887
физики
##ild
Екатерин
Каждый
предложи
##теб
##тивные
##зантий
общественного
противостоя
устрои
##нси
поо
форм
авиаком
Экс
провел
департамента
Чай
грамо
жало
остальных
Гам
купи
##твра
газет
лейтенанта
насеко
отметить
приез
##ющегося
Звезда
упомя
памятников
вполне
Фёдоро
Таври
нефте
местные
фестиваля
заместителя
являлась
##лоне
Общая
Оси
корабли
Еди
##хождение
отправлен
##щаются
десять
Джер
приговор
##бат
Питер
Бах
открыто
зарубе
сотрудник
третье
часа
крыла
пары
беспла
##ans
81
ограничи
##струк
##дной
##следу
##вающий
le
##кино
сыграла
##лёв
считать
##тони
заг
цир
называли
##евича
##ельд
социали
##ллек
And
структур
##роваться
Премьер
выпущена
показал
церк
бомбардиров
губернатор
реализации
##коле
артист
схва
1812
очи
серви
закончил
предотвра
##дений
##тивов
##ert
промы
##ждается
справо
собственной
Флаг
##ОР
мотива
Верхняя
Res
Татья
учены
призёром
поп
похи
преступления
бои
##St
сексу
Ge
нашей
Елена
Ставро
Гео
Ильи
крупный
художественный
Ран
##матики
демонстри
настолько
##няли
##фом
##тропо
пожи
останов
западнее
##тоне
пери
англо
Шотландии
##нис
стара
Хэ
людьми
##ram
новом
конфликта
149
мин
цилинд
##штейн
шотланд
##вий
Бой
существенно
прихода
##ерей
пола
символизи
Поло
подзем
##ife
выпла
конкурсе
Северного
##ванный
сайта
##рных
##вился
доброволь
##мули
##вшему
учитель
ресто
DV
Знамени
вспомина
кантона
выступала
##ler
Томас
рассказа
##теат
участники
седь
Хорва
##ett
век
прид
фигур
Калу
пропо
роста
Пример
##60
##сист
клубов
##евской
ведом
подполков
##сками
Анатолий
##енин
##чиками
ликвиди
помещения
построены
режима
рассмот
1863
##надцать
решили
пределами
глуби
поход
##ИА
##ношения
руководства
##сля
мяте
заключения
мяч
сержант
критиков
научного
Иногда
дуб
Андрея
усилия
остались
применение
##кости
причинам
добра
##ваемых
возбу
мысли
отдел
эпоху
Саль
майора
Ассоциа
разделя
прив
##тельств
передан
##мита
химии
тё
небе
прошлом
выставки
##кал
перевоз
Оба
правах
Международной
направи
тропи
##шили
архив
жел
Собра
помощником
операций
казах
Республика
информация
##кторы
Есть
воде
Польше
экономического
гек
приём
полном
связанных
##талья
Всероссийской
##фестива
ранены
##тивный
выжи
корен
→
##нау
Бир
Поч
##сец
сообщил
##iel
Будучи
поединке
нижней
##ллей
коммента
Мол
##ющему
осадков
продюсер
режиссёром
Численность
##говори
##гс
полной
делу
Патри
командования
##чему
организовал
##стаи
Фар
бывшей
правил
никаких
##линг
##дного
##рованием
госпита
водой
153
названа
выбира
доход
предусматри
##енса
##циям
Другие
##цин
##жённых
зара
##NS
Юнай
##летний
##ner
##oth
##йбы
Украинской
Встре
чисто
коммунисти
##нист
##ведением
Правительства
##номер
##льному
Госпо
##пова
одержал
##плек
##На
пассажиров
документов
стиля
печати
Юнайтед
условий
##ющимся
языком
##ition
пространства
Нео
использовали
бух
##щался
жидко
##знен
Сама
серб
##россий
Осенью
1884
фантасти
осенью
гет
гран
интеллек
насчитывалось
##рома
Кле
##див
Mag
##хова
хва
##нести
развитии
Обще
стена
выигры
Григорий
##зель
##mer
##рад
действительно
en
Шев
Оренбург
##кки
пехоты
##пп
достигает
переговоры
##коне
Дома
##que
##ыш
окрестностях
популярность
провести
типи
письма
Бала
Франк
112
водных
Над
руках
##пок
крым
услов
созданию
Ранее
розыгры
энциклопе
Ё
площадью
сообщества
##слом
Румынии
спортсмен
Her
водос
причин
умерла
баскетбо
схо
лицо
##интере
Красный
Диа
проводились
связаны
носит
машино
твёр
Максима
генети
альбомов
##мбле
эста
коммуника
Ага
##боров
##манов
##тилась
любитель
##евка
дат
##шкой
Вьет
длины
Отде
##голо
героев
материала
работников
зале
архитектор
Компания
архитектора
##мса
##пления
Пор
банка
длину
штате
физико
хоккей
x
атом
всеоб
масси
полковника
##ins
коали
волость
составили
задач
святой
весе
партизан
1888
дивизион
лож
целей
##новение
звезда
##бл
старей
фонда
группо
посвящен
поселений
указывает
путей
посоль
105
гиган
восстание
консерватории
сохранились
внед
Террито
Глу
##ющаяся
великого
##правление
заняли
примыка
Христо
Эстонии
Неза
##чук
Оре
##ченной
##ведя
##ствова
##ральное
гумани
фирмы
ирланд
проводится
Soc
музыкальный
##довых
##ograph
Георгий
Dis
эмо
##нических
несколькими
намест
номини
территорий
##тники
кардина
*
##гота
##кера
опа
туда
небольших
Энциклопедия
Парижа
Tr
уме
Писа
карты
##стройки
повышен
мифо
секретаря
##энь
##лика
Ама
Леон
ед
Sup
препят
церемонии
рассказыва
Нижне
привод
Can
##опера
ведёт
здоровья
экономической
крейсе
проекти
Оно
Михайлов
##тировала
Имеет
##гать
##плом
Майкл
версию
перешла
канале
ранних
лаборатории
боевые
матчи
сочета
типов
устраи
Красную
##водится
победителем
лав
##воохран
любовь
квалифика
##ope
учиты
борьбу
номинации
##прочем
домо
шириной
Югославии
находит
известной
выступлений
##ваи
##хла
##тальный
принимать
##фте
данном
процессов
##части
1879
духовной
##гим
##фра
##зить
Климат
##уреа
связана
Примор
системой
##дая
мастера
оказалось
разы
норве
подготовке
##жоу
##ступив
плана
точно
лидеров
Выступал
порядок
опи
английском
концерт
распада
крат
Георгия
##теран
##манду
Вне
It
общим
Моро
##ложений
почита
достигну
147
Мать
ребёнка
родителей
##rad
предупре
Гражданской
##льности
##ллы
##числи
вело
##ционном
##CA
Вей
невы
Аэ
дать
безопас
швейцар
используя
Несколько
ланд
социально
##ris
##кия
##жела
надо
слуша
проявлен
треуго
CD
англ
гомо
требует
##лённый
##чко
временно
Университет
##тиков
влияния
монастыре
зао
Cor
мра
логи
##стор
Яр
партиза
##воло
ибн
последующие
тут
Проект
башни
затра
ислам
расформи
##лс
##ристов
работают
программи
муниципалитет
Вос
океана
Прин
блоки
##эк
помочь
высоких
писто
Литера
кален
составлял
социальных
снят
рос
эффект
состояла
регион
результатов
делать
##дек
##мета
сериал
необходимость
повторя
##дитель
##щались
мульти
находилось
морского
звании
методов
проводит
воссо
##ейза
1881
Комитета
1876
Ближайшие
различными
##yl
консерва
##ER
страну
Разрабо
еги
защитник
Сов
##элект
австралий
родов
описан
мужество
##ilm
успехом
документы
неред
Центрального
##рал
Кос
пересека
##цова
1865
режим
материал
##ванге
##дир
##деся
Шер
Были
классификации
радика
областей
структуре
предлагает
##ink
похода
военным
1882
шахма
уволен
##ИС
122
столице
зуб
окраи
попол
строго
японской
##ters
Силь
оборонитель
##зап
масса
весной
Калинин
российская
физической
##ari
##тинской
выставке
смогла
покрови
##тарь
Башки
##интересо
переизда
изд
разнови
дворца
##рованная
##рокко
двена
Основной
оккупации
Италия
Барсе
перерабо
взять
##ключения
славя
##ринг
температуры
культуре
##pl
##se
##ES
полный
звуко
знако
награду
Son
Калифорния
##жник
Star
фонд
Анджеле
НКВД
Олег
деление
заболевания
фестивале
Гви
##стах
среде
активности
тяжело
Фридрих
договора
##лку
##ieved
##Вт
молит
рынке
Западного
вв
##стам
Сид
##вичем
##лизован
##хара
слия
##ott
700
1871
экземпляров
рынка
нельзя
Уол
Новости
##линской
##ист
Поля
Представи
содержание
Рио
виду
здравоохран
лекар
трудно
мероприятия
пожар
коллекции
##oph
##кус
ски
друзей
##ландия
Северный
премьера
запро
##динами
##титься
внимания
предшествен
Оли
питания
блок
рубе
непро
княжества
представлял
##заи
##рёл
Хей
теку
защиту
перебра
последним
субъек
факультете
##дала
штурмо
##etrieved
Международный
Сви
##дев
кафедре
стадионе
старин
приходит
чёт
Джен
педагог
new
крест
оркестра
посредством
##лять
##муля
Уил
дета
сохраня
южнее
Норвегии
##менной
воспитан
##its
СС
Генрих
границу
историко
линг
акций
##тыш
незакон
##уэ
##рием
Ата
Почёт
Улица
выро
дете
некоторым
помог
хозяйств
кинофестива
Бос
веща
Весной
учёных
Результа
Московском
Бельгии
математи
##ссию
непрерыв
автомобиль
##ровку
МВД
кажды
империя
веру
патри
определяется
пау
полку
лежа
Таи
Витеб
главой
интенсив
принимали
##пур
обеих
АО
рабочего
говорят
вооружение
##au
##сыла
##нением
Муха
солн
Марти
преследо
поставил
##лайн
1867
##чья
занятия
##ij
##чала
наших
долгое
режиме
совсем
##тинского
реоргани
связанные
правительством
использоваться
Дем
итальянский
Sk
заложен
личности
корреспонден
опро
залива
говорил
аудито
##зил
pro
хар
##ённый
автомобиля
Лав
показывает
Краснодар
##ъю
мг
куро
строя
теория
подрост
минуте
активное
##дис
незначи
##вуд
четвертьфина
создано
##нит
небольшие
расстояние
##ТР
DVD
эксплуатацию
штра
войн
##htm
СН
деревню
действиях
процеду
##тельностью
способности
ed
Демокра
##ні
течению
обществе
специализи
управлением
Бит
##льников
Вет
окончила
характера
Тей
фолькло
##левой
##ллейбу
##ohn
##моно
работах
исторической
городу
выращи
волей
частных
изобрет
##мене
128
компанию
продуктов
##новья
приказал
матер
Мартин
Мало
экономических
##листов
##yp
##стое
Долго
древних
разгро
Фут
##тран
чём
лагерь
захорон
##дям
##гром
1883
##зета
мемориаль
невозможно
##панию
включают
ход
##ЕР
Таджи
никто
резерв
American
происхождение
страхо
Лауреат
номера
африкан
##тле
Меди
посетил
жанре
##ису
древе
Хен
Родилась
британской
Без
заря
Божи
сообщает
распа
гонке
Крымской
##ровую
Медве
резо
дав
начать
плоско
речь
функция
##дана
##тово
хана
декоратив
Пир
завоевала
числилось
эксплуатации
##ИД
храме
веществ
участвовать
тюр
Орден
выполнение
##ПУ
Мя
##stem
1500
102
##зование
Пок
Мастер
##жев
дистан
сингла
коллектива
##нула
Ему
похожи
внешней
открытие
музыкального
Ом
##еной
темы
кустар
собран
плотность
британский
лаг
речи
Общества
##isch
Group
##змы
немед
##реза
певица
##был
is
##ниями
монет
передал
эс
цель
##эф
Нидерландов
##ральди
ракеты
##нат
демонстра
проживали
##нор
##рально
Журнал
Востока
властей
секретарём
культурного
эскад
Премьера
хода
Средняя
перехода
##сени
плохо
Состав
Клю
начинают
нередко
покинуть
средний
Миро
##гности
сты
##enn
##рены
##несен
нака
##толиче
Hot
применяется
истин
дальше
заинтересо
магазин
императри
Ней
распространения
##нью
назначил
гаран
##сет
отмечает
устройство
наименование
запада
царь
служит
голову
##чались
##ral
##чёте
115
проник
возвышен
соче
обуслов
Всё
##семей
Вторая
драматур
праздно
кандидатов
##mp
прежнему
##ертво
Теха
##ществи
Золотая
##рская
конечном
##даль
съё
##ОВ
1873
Богда
исполнении
##евой
психиат
внутренней
##лете
Конгре
Льво
идея
##ournal
бель
фотографии
##бла
##веду
Украї
##зина
##ванные
вулка
включены
Людви
Радио
зимой
левый
платфор
##жеб
практике
Fl
##товые
равен
якобы
индекс
немцев
членами
135
##степен
увиде
напротив
Гос
##ube
Неме
Кирги
разрушен
окружающей
##ini
замка
Принима
сочинения
замеча
Петербургской
мекси
продажи
Основная
Пин
орган
мощностью
Афгани
##фикси
сино
Владимирович
перешли
технического
появления
##ппе
##валь
оско
хле
получило
художественной
закреп
бывших
Главного
поверхность
Абра
Андер
##ёры
##ходу
##писей
пато
игровой
потерял
1868
Игна
экспози
ани
Comm
Аму
муниципалитета
##дился
##igh
##гне
Перу
рецеп
полное
шан
инфраструк
##ровер
нефти
свадь
ar
футбола
заслуженный
109
##голов
##тетом
чемпионатов
Сал
трибу
Система
растение
##вален
критики
##way
##вель
Наде
количестве
фильмы
приказу
специальных
##сл
##ваш
##змов
Буда
##пон
линию
политического
оправ
##носит
зави
борту
народной
вопло
обстанов
зача
Кот
##тическое
Хосе
прошед
фельд
проводятся
##кка
учителем
кратер
##готавли
ширина
##кеан
источники
участником
детства
конфликт
наблюдения
ухода
мелких
##коп
Василия
западном
курса
исполнения
правда
Лебе
убить
известная
##худ
##вающей
специалист
воспроиз
телевидения
преобразован
Энд
##фферен
##чёта
Оби
##дания
тракта
##рабан
нападающий
##гард
XXI
##фре
изменя
проявля
установлено
пон
##кавказ
лингви
##ленным
Христа
колхоза
статья
армян
Возможно
одо
##пустил
##эля
исторического
вернулась
##туда
соборе
Македо
нефтя
главную
произведение
рит
##эффици
забро
##ганской
Enter
напеча
торпе
полузащитник
оты
Кузне
берег
дивизионе
епископом
комсомо
сопротивление
Ag
##ёй
Мет
Время
Улья
сумму
задача
допуска
##EE
##ыне
запол
публикации
##грамма
имено
обнаружены
бег
Октябрьской
91
боле
браке
родину
Bro
##нские
базо
соединя
терми
##ъём
появляются
##хт
Ne
развер
##AR
htm
грам
отзывы
мексикан
Всероссий
издал
осталось
##anc
##пия
pr
бака
пейза
самая
двигатель
##зовано
##ual
музыке
##мотреть
объекты
собственные
##шают
огнём
функций
международный
1866
многом
исторический
завершил
реконструкции
покупа
1850
побы
Строительство
гипер
##нокоманду
Цин
Грин
земе
студийный
##сная
Каль
поэзии
Чили
византий
становятся
рассказ
собственно
туре
Феодо
##бить
Art
спасти
анализ
населением
##нувшись
специфи
подготовку
127
##ьми
134
Брон
останови
третьем
родители
##рока
ато
утверждает
##лёк
##тти
кабине
организацию
исследование
##чному
##носится
министров
брен
##гора
##IS
Иису
мозга
станет
##ism
145
Ори
Уор
другое
1869
аспе
Трудо
обстре
горе
являлись
прорабо
104
##льника
Гарри
парке
##ёрт
##пущен
визу
##льских
Монте
подпо
Роберта
универса
полуострова
Хаба
набор
клеток
колонии
примеру
цикла
алкого
правила
сооружения
Великобритания
Чернигов
1872
прибыли
Дону
##ple
обез
вокза
фронтах
вторую
Канаде
объединение
1830
идей
Чикаго
платформы
Чан
Вяче
взрыв
смысле
Жиз
впадает
##сово
##леты
Иоанн
приглашён
107
грун
##amb
массы
##ool
##ниор
монеты
экипаж
Сала
Оскар
могло
округов
официальный
познакомился
правый
прочих
вызывает
##нного
Боро
Река
белых
промежу
военное
##шне
убийство
спортивной
бюджет
докторскую
медицины
Rep
алфа
нема
антропо
##na
Вита
услуг
посмер
124
Здание
вступа
объект
правление
1848
юби
осла
анима
исполнение
матри
справед
##АМ
плац
лауреа
##щийся
Сербии
Алексея
##суа
##жке
осталась
##tain
троллейбу
пр
господ
##чностью
Сегодня
##ii
##ранже
святых
##сила
королевства
106
##логию
уль
##ральную
аэропорта
##rat
сердце
провинция
колоколь
зафикси
реакции
Астрахан
Кем
приклад
##рической
столетия
##пала
Звез
Зим
зака
##зав
осуществи
огра
гармо
протестан
Министерство
##мп
функциональ
княже
Обычно
Францию
Ленинграде
##ид
Гиль
увидеть
Рен
Средне
геомет
решено
фамилии
размести
Мала
##ллу
Куйбы
##совет
ТВ
Уль
129
вход
Ск
Израиль
##нс
137
колледж
Южно
севера
Коль
Пле
копий
Game
песча
Сейчас
персид
##феро
Ден
Африке
##ссон
Ману
назем
первенства
##лис
##пал
детстве
автодороге
МО
##vel
Тамбов
множества
выполнения
тормо
##СКО
##уд
Чет
##ндент
уди
аристо
Псковской
скон
учреждений
##жье
Эри
отсутствия
##люс
Int
сказ
общее
распространя
провела
Институте
##вита
пиани
Retrieved
появилось
1875
деревьев
##яз
##лились
History
Сначала
перевода
123
теря
умира
следующего
##ффа
##ake
##наследо
левому
Генриха
значительной
##пах
##гена
нападения
##риал
богат
интерпре
Университета
117
аван
привели
указом
Ленинградского
Mon
перес
разво
классе
башки
126
послужи
музыкантов
Bi
Волы
фестиваль
пространство
оси
писать
Stat
Россий
Лет
##тового
вернуть
##ровке
Стивен
медицинской
способность
##ana
##мата
##щали
Фёдор
крово
основатель
##ger
фаса
u
##кета
148
##кский
Арка
Хара
живут
##левич
политик
Испол
вооружённых
Уд
заим
Дебю
автономного
##itt
##стить
атле
Серебря
размера
сезонов
##TV
Смит
серде
основателей
флага
славы
областях
секун
отборо
##честер
##ited
##линский
пари
альбоме
##юар
139
каль
##ЕФА
##нинг
чин
занято
##дович
Чемпион
среднюю
польский
живых
откло
##дино
as
озву
Sm
Яко
Герман
##тео
расстояния
Кала
##линского
провинцию
популярных
##рита
Прав
Продол
меры
нарушения
##стно
рыбо
балла
Черномор
трое
форси
медалей
##кио
##зованы
планеты
черты
сочинений
уехал
Средизем
##люби
соблю
сег
вода
##рено
соз
изданий
остатки
пришли
каждая
предпоч
Башкортостан
##rist
Муниципа
##джо
##городе
##ley
##шали
##нимом
лидером
называет
послевоен
##ric
слы
##вещения
переданы
##дского
политику
дочерью
##сской
прести
международном
лекции
Лы
плацдар
трамвай
собственности
островах
Больше
герб
приходилось
##AN
103
Павлов
##казе
##жными
людям
органы
##кент
бара
вверх
летия
эвакуи
##ап
Хель
Широ
персонаж
Выбор
выступила
беско
Тверской
##bert
Лар
воздушных
##тико
рисо
##тины
Ким
##вокуп
понятие
производству
##дика
##ve
час
высшее
##une
Адам
Сток
экза
##ів
##ma
Капи
минера
##стети
пожало
следова
культура
1874
горных
собственных
##чков
Gl
Великий
ока
кинотеат
проживает
##ношение
закрепи
пребывания
зени
поклон
добился
УЕФА
Парк
врага
разряде
турнирах
##aur
##сль
Крем
медицинских
топлива
отличаются
##жском
ступ
уезде
аренду
Ольга
Брат
Опера
премия
архиепископ
Масса
пояс
##влению
Нового
платформа
общественный
показатель
##точной
равни
силой
Храм
Награждён
защите
##вяз
138
Publ
Южного
иллюстра
##чны
ежеднев
##женные
##сис
ряды
Кристо
новому
Дор
вмеша
космо
проде
слобо
кресто
будущем
написана
##вь
ПВО
Rock
заведения
ex
реме
##тинский
аристокра
рыба
лежит
cod
упро
свободу
##ИТ
каждо
высших
префек
Бол
белые
рынок
востока
примени
##iam
разведки
##нское
##щенко
##вети
полосы
унаследо
##шков
Воскрес
##перёд
папа
клетки
##ступление
преодоле
пля
цикл
взрослых
тираж
молодёжи
нагруз
возвращении
здравоохранения
##шной
Awards
высокие
съезда
частях
##зует
пулемё
##рео
рэ
##емую
семью
132
заключается
веках
тенден
##ald
##ходило
метрополи
##нейшие
минимум
Алексеевич
использовании
Браун
вечер
Запоро
долине
оборудование
Mo
1856
Южная
отделом
гола
наделении
##НО
##ксе
Филипп
высоту
##лией
Love
политика
диска
фортепиано
Уэль
пони
##видные
##сим
Стэн
числу
Обе
##ай
домини
обеспечивает
МГ
Tra
уделя
водохранилища
Актив
замену
уничтожил
##ак
кита
Афана
НБА
1840
реже
проби
матерью
параллельно
квалификации
##стный
научные
зоо
ночью
шпи
##тальной
##ree
##туро
белый
Cent
воскрес
французских
Екатерина
официальным
##кау
танка
##ченного
специализирован
##ze
##наче
вспы
жар
##РГ
##миль
активных
населенных
линий
Специаль
Сау
клубы
участвует
Рос
зерка
рекор
##MS
##АТО
политике
обсер
##вара
пригово
мощность
эпизод
регионов
108
Сибирского
##ттер
мезо
обре
Иркут
Высота
##ара
Округ
научным
религии
Фёдорович
##жок
##рийского
##ставляет
##ида
патро
##ital
##соном
дали
пожертво
консо
переселен
BBC
##ложением
обвинения
усовершен
##лкома
восстановления
##альная
балет
раунда
Антонио
обык
##йма
##думы
##рева
142
родной
##АП
публици
пару
##ствующих
##стки
принятия
дата
переста
сыновья
##лор
##шева
Новгородской
##сило
Поя
министерства
##цком
обработки
As
Генерального
давления
Киевского
##шеб
сп
##нено
143
бас
депо
диску
телефон
ез
##ническая
запуска
Сун
##писание
##лока
ведь
точка
ГЭС
ветви
прокуро
Богородицы
an
Рядом
установить
нанес
входило
рег
дифферен
144
прямоуго
##af
кого
##line
Гур
исполнял
##нях
Импе
показали
##нора
Музе
Корне
решению
служить
Гит
119
Обла
Валерий
трой
##рони
##хими
##нома
##тара
погло
официальном
добавлен
принимала
таком
объявила
погибших
продоволь
обеспечить
##ime
##мбо
релье
белого
Посёлок
получают
##ces
выса
планы
##менного
Бек
видом
лест
областной
оболо
##кской
полёта
женского
##бую
вниз
вспомога
Чо
Русского
деревень
##ision
польского
Black
вырабо
##йо
огня
британского
дириж
правой
политические
##летряс
Коз
миссии
семинарии
Средний
##жская
Inter
правому
объединя
##гау
записан
постоянного
##фур
ДНК
церквей
##рины
##ткой
114
Сайт
призы
##ym
мону
нейро
молоде
партнё
послан
##сар
##чих
116
боепри
колеба
севернее
собственную
входящих
московского
вызван
ходу
пулемёт
##мандри
далеко
серы
массив
гвардейского
инструментов
Публи
сотни
Киевской
Тя
ГДР
балета
транспор
##зах
содержания
##вной
Высшей
жизнен
секунд
конструктор
производстве
##aj
##ала
хит
опять
выставка
Ще
146
спортсменов
содержи
##сное
118
Гера
##тическим
добиться
##пропет
Индоне
##жбы
занималась
собственного
Har
##ction
остана
таблица
отправляется
##чок
##гови
Бава
Ника
летию
лагеря
##тетов
задержа
##емом
##довое
подве
##AT
Ап
##льность
товарище
маршрут
командующего
##мас
Изо
##дне
оценку
##ull
##ённой
Народный
Флори
ухуд
настав
Петербургского
##ллера
специального
##океан
грузи
испыты
##суэ
высокий
##нито
##стыми
чему
случайно
пройти
Journal
барабан
детский
крайней
##сексу
важным
освобождён
мол
##енача
математики
136
Голу
попере
оборону
Мои
Двор
##жь
##дорф
последующих
вд
видит
Франсуа
старых
классической
##дка
преподавателем
всём
Сезон
Бет
проли
телевидении
крыль
лёгкой
Считается
НИИ
##ream
Проис
лауреат
##eth
##бери
Красная
ликвидации
Мадри
##тельству
предпочита
ас
##ничества
реестре
##ЛА
отва
масштаб
##мпа
##нель
Тек
##чками
священника
Сил
##ТС
##hem
двер
значительное
Гр
##ляют
каких
прину
прися
основано
##йс
зре
редакции
обозначения
воинов
соглашения
Сур
девять
композитора
официальных
безрабо
Мах
лед
Пушкина
##Ре
берёт
вышло
Римской
циф
##шенко
моделей
##тивная
##тило
Дуб
Наука
судей
положении
##водит
созданный
проявленные
принца
сменил
советская
##альным
Марка
реклам
коэффици
организацией
собственный
##шё
третьим
повышения
генерального
советские
Газета
внезап
##строена
монаше
Получил
портрет
отправил
вырос
уступа
113
##воды
удаётся
боеприпа
Зелё
##альное
руководителя
##ссель
Думы
аэропор
вика
воро
финиши
##НЕ
Тен
левой
Проф
Ev
Rad
Сул
пен
Грей
общий
##нила
ветера
Подоб
рубежом
инструмента
наступления
133
передана
неожиданно
##der
##ундтре
напи
пале
Чехии
КНР
разу
военача
падения
останавли
глоба
Аба
повлия
##дыватель
признал
трансли
гуманитар
волн
освободи
вывод
кван
восточном
##жников
втори
попала
##будь
Пресвя
Подоль
вручением
сохранить
##мену
Mer
##чёв
проходя
##динг
##ренко
опе
сож
##тируется
разрешение
Ас
##мили
Tel
зона
иеро
##женный
медалями
художником
термо
керами
присутствует
##мут
Адоль
##IN
##мали
избежать
##лости
Паки
лучшие
потреби
Акт
сестры
восполь
станций
выступление
##ise
обыгра
стихов
Курской
##ür
##por
склад
забы
полного
##стерои
Преобра
девушка
оставлен
проводил
Университете
взаим
птицы
вызвало
имея
образе
большеви
##юрод
каби
##пали
##ченным
золота
обратился
Ари
##лённых
проводить
вооружения
##гут
Мю
дерева
богослу
Хро
John
облож
задер
певицы
##лагается
##здо
Ок
мани
ноги
тока
привы
западных
##fer
##lass
какие
##новской
National
предложения
##лизм
##ement
тюрьме
##ena
многими
корреспондент
##няк
Дире
сказать
be
адрес
трижды
стадион
Таврической
##хим
специальные
погру
Пана
Леонид
Комсомо
чемпионатах
гора
юрис
пресс
дерево
куб
Тони
робо
##образи
##чжоу
Буря
codice
просит
провели
##хина
##шкин
Виктора
##дости
Кло
1829
Лаза
немно
##зости
##ведению
Револю
проходила
буль
##пато
Ass
Open
криста
формирование
энерго
Гло
крупным
Председатель
Костром
Наиболь
вычис
иконо
пьесы
граничит
совокуп
вопросов
##ution
вычисли
конкурс
танковой
##зора
Вильгельм
##ci
монархи
основой
двигателей
##тически
мощности
##ogle
такая
одежды
диагности
сопротивления
лин
возобнов
захватил
Тот
1858
движении
отличием
Центральный
микрорай
проведение
##we
##rans
Екатерины
горах
академик
##las
Био
Смир
Одно
Семи
прус
Глава
решений
Зеландии
##емости
мирового
вынуждены
образуют
ранга
хутор
похорон
попадает
количеством
Православной
насы
уверен
молодого
##довая
шла
описывает
следующее
Тбили
товаров
боёв
древней
имело
##енок
сбе
##ater
стрем
образует
бир
Воспи
листья
веб
этни
обстоятельства
Ab
бай
##ловка
налого
размере
предметов
ара
Ред
Генна
отношениях
Бун
дро
##евском
улицу
##рили
пом
Дмитрия
своеобраз
Росто
сооружений
##жиссёр
Станция
##ker
##вились
Литвы
серти
##нулись
музыкант
Дай
Илья
установил
##МО
##ловича
Стюар
Леона
турниров
Юрь
##метри
сердца
сторона
##лянд
Russ
удержи
Av
##скрип
иконы
##бби
Гроз
деревья
адмирала
##цвета
источник
##фта
бакалав
построить
##вку
##пина
упор
Кари
Почто
небо
##тическую
заплани
аппарата
Вну
ган
мужского
репер
Лучший
Восточно
предстоя
##фен
##зади
##лино
Стро
водном
##ПО
##зеро
##комму
Успен
нибудь
##фель
##вшуюся
кости
предметы
##РО
подобных
придержи
Шей
заро
детьми
##класс
##стная
влюб
Буха
жителя
территориальное
##outh
ске
флан
##рские
Пензен
словами
тёмно
бойцов
Известно
источником
##бей
спокой
Днепр
удержа
##сина
шер
##бинской
Статус
##ристом
блестя
мю
One
охран
храня
##гат
Германию
Литератур
##дерланд
##AC
деятелей
Речи
Mod
произошёл
Ver
процен
очередной
##пев
эфир
учителя
жителями
самоубий
проведена
##дим
##жья
Часто
военном
##ower
выступили
отсутствуют
Пру
##пустить
признание
тюрьмы
русским
польской
##бр
Герб
Кузь
алле
Казани
##воро
3000
предусмот
Кази
крупного
образована
Маха
советник
ископа
##du
##пец
референ
##бол
одоб
изучению
##байка
##швили
играла
центров
совмести
##бани
##вичи
##оборот
лейтенан
##регу
Анаста
авторы
##tainment
личного
рейтинге
появление
общин
TV
##atur
играли
Палести
миллиар
потенциаль
##бие
национальную
Life
Земля
требуется
##лизация
колё
пространстве
2020
высоким
##дец
##начале
Хоро
Челябин
младшего
романе
летнего
подсемей
##домости
Первого
ввиду
способом
##жур
шли
количеству
Буд
совеща
травмы
подписан
последнем
##бинского
соединение
пород
##рийский
собрал
##ka
лигу
обладателем
аниме
оружием
Министров
Вят
октябрь
разрешения
##orth
##зной
##дового
##ровича
##рующих
контек
ску
Михаи
медицинского
##таря
нашли
комиссия
исследователей
Сирии
исследователи
победа
##емыми
думы
давно
придвор
сколько
введён
Красноя
компакт
##тис
рук
эстети
мастеров
##тари
Перво
вирту
финансов
un
Клуб
Micros
затруд
экрани
рабочий
использовалась
Lin
##нков
##летий
тема
##боре
Борисо
Территория
современные
##кля
практику
Свердловской
сче
##сский
малых
Фердина
##уда
##полу
##лённые
будди
Рабоче
операция
построил
Департамент
Сэ
неко
фин
##вости
##колов
публику
трудов
##иска
опор
##гают
эли
иначе
истока
производится
диплом
Коммунисти
другую
##ньи
Изу
актёра
племени
творчестве
##фин
агро
говорить
##СК
Реги
еврейской
федерации
##ёрки
уходит
Super
Лука
казни
Сор
Company
креп
выбора
прибре
подозре
гитле
Суд
Бог
волны
хирур
музыканты
Фреде
законов
геральди
концепции
населённого
Cont
прио
##ённого
Русская
##me
##cess
##польский
упоминание
##дю
##тит
ролей
корабле
станцию
включена
передач
турецкой
восточных
европейской
1857
предъя
Флорен
мотивам
последовательно
итого
услуги
##ровых
католиче
##рицы
##тику
зав
встрече
картину
местном
##лот
течения
##over
властями
интересов
приеха
Симферо
Принимал
расположенных
Рэй
взвода
отверсти
испытаний
семейство
##пав
Форму
судна
зачастую
Entertainment
представителем
повести
привести
разновид
гонки
реабили
Днепропет
статистический
##пами
Кино
борьба
дополнительные
средних
##градского
моменту
заведующим
##ации
##нические
Остро
переходит
гово
диапазо
приписы
определить
##rid
рабочей
психологии
неактивными
1800
##рийской
издательство
фео
##ничество
племена
вперёд
выступали
Pe
сюр
Спас
видимому
металлурги
склады
фильму
альбомом
рассчита
судно
становился
Фели
утверждал
##inal
хранения
сравнительно
предыдущих
Владимирской
принята
350
больницы
исторические
Данные
##зиа
##етин
суток
посмертно
аренды
самоуправления
фашист
##шевского
Red
##ровок
Фра
води
##фио
Хра
Такие
##джу
сахар
Анджелесе
фана
##целя
Колле
Большое
Tw
докла
цветов
пушки
дорогу
советское
##нилось
статуса
##inae
души
##образователь
многолет
союзников
шка
занимались
##йтинг
монографи
##rop
глубине
##рению
творчество
##дум
##женной
закрыт
игроки
колледже
федерального
смертью
голосования
##OR
шай
землетряс
нидерланд
губернатором
##ам
##совых
чарте
##рических
найдены
сторонников
Треть
природе
возникла
возведён
Cr
списка
##нительно
считали
##чна
навод
художеств
##бс
юга
кожи
грана
инфек
немцы
недавно
Апол
Смер
родном
холо
##ляются
сотрудничества
##ловых
ткани
##влял
Per
баро
служеб
кримина
приобрёл
Нижегородской
Год
изба
спла
##earch
бежен
импуль
оранже
мужчина
##ame
См
проекты
Do
##слей
ВМС
##логическая
Грод
немедленно
сегодняшний
Хам
##несли
стой
полноцен
отдельный
официальной
мином
девяти
опубликована
ВЦ
1853
Разви
лодки
принадлежат
прилега
Рафа
экстра
##пци
##тивное
банков
понятия
католической
##прин
Sci
##ленное
Гонкон
Памятник
##кис
Аэро
спон
Вероят
уступив
пригород
медиа
уничтожи
ассо
Токио
армей
сотрудником
##револю
важную
неизвестно
расту
Юр
свето
Бориса
im
эмигри
Востоке
участки
Вз
Юрия
ворот
изделий
##ёс
May
шле
##25
##льт
##сюда
англича
бизнеса
##вардей
траге
гей
идею
##мане
##мора
##вавший
политех
произошед
Четы
твер
другая
женской
золотую
##дем
##ште
важных
Геро
кислоты
структура
##ьёй
Мексики
неправи
поддерживает
Сочи
королевы
произошла
располагался
##фона
община
железных
##РА
##ьем
занять
больных
департамент
пришла
##oss
опол
мужем
##ke
Казан
1855
имми
Ирку
вене
оставить
Фла
тща
перекры
фено
##жённые
описал
достигла
##шив
Дети
##ербург
клави
##ПЦ
##чника
жила
фору
сделали
Федеральная
игрой
Сон
##словия
Египта
##сполкома
Человек
эскадри
легендар
поведение
несу
съёмки
красный
туристи
Новое
инженера
позволяют
художественного
##era
##виле
##тками
четвёртый
##фицирован
##вес
##сио
соединений
центрального
переименована
Top
Павлович
воспринима
##цина
Ber
мино
египет
отряды
владение
##ТО
умерен
Татьяна
врача
независимо
роз
уйти
латин
Синода
am
##става
##ъютан
Сици
Барба
лидера
Зай
Обу
зон
Звезды
навы
представителями
Исла
Фило
позиций
Фридриха
изучение
Земле
Искус
саундтре
Arm
вещи
документах
Арт
плодо
справа
Ани
##новок
акции
учёбы
капитаном
превышает
религиозных
символом
Джан
дебютный
структуру
диссертации
декабрь
##зде
увер
фунтов
##port
бюдже
##дара
почему
Сергеевич
испанский
расстрой
значительные
Най
##невосто
Сталина
создали
Ныне
Урал
Элиза
ближе
##ллип
Жил
архимандри
взаимодействия
Евре
тюрем
версий
связей
Конституции
##зив
##пархия
юсти
##тирует
руд
ошибо
попытался
современный
Jan
девушки
выпущено
изготавли
обеспечение
Мая
Минск
тюрьму
массовой
Пресвятой
ландша
Последние
##лас
##ляли
Лай
Южный
##рный
Новые
картине
##пель
несо
возникает
Мира
Явля
Управления
Elect
предводи
сценарий
фикси
Польша
семьёй
помогает
мужской
формате
немецкие
мультфиль
##лям
##проду
второ
разработал
конфе
олимпи
железная
опубликованы
##рость
покуп
##рические
называлась
##гг
Шко
Коммер
##део
шёл
пенсию
контакт
Александром
Теперь
любого
##простран
Вашингтон
агентством
##вати
##москов
патрио
##лекопита
называемый
социального
##блей
##родю
##жие
Dr
ярко
System
первич
ремонт
выходил
Эпи
##ляция
круга
лон
##примеча
Брэ
Дави
бежал
Аре
Команда
старого
этими
описания
ПО
жертв
заказа
Нижний
комедии
Рю
раннего
Eng
охла
Microsoft
обращения
яи
##алы
##дли
взры
репре
Отто
Восток
Андреевич
боги
март
недостато
разведыватель
характеристики
Статисти
##ід
кратера
обнаружил
##шт
##хоз
Блэ
подход
сыну
сохранилось
IB
##вань
##alt
епархия
немецкими
Хуан
винов
слабы
традиционно
Inf
##вающая
райони
Таджики
вертолё
##шени
приготов
Место
оставив
капиту
##ЕН
##ксем
##ссен
бесс
ущер
сентябрь
генеральный
##24
##рино
мюзи
красного
подчер
##жек
полотни
##Са
почет
старой
душ
Inst
вста
Количе
расширя
государством
Хорватии
##рог
СО
##ману
##дная
900
пли
водоро
##ТУ
адъютан
##наб
##плика
стер
юнио
Митро
Рэ
Кеме
##чников
Евгения
исполнил
##рк
##стрии
либе
овла
очка
точек
Локомо
столицу
заключил
поведения
Фернан
изобрази
ситуация
свободного
ГУ
наши
1842
чудо
явления
і
камень
развитием
восстанови
разработку
Алба
Рима
высокую
особого
отдельно
Беларуси
Григорьевич
знал
ФК
Net
облег
Джим
Заха
зажи
кадров
труб
##тос
##ON
##женеде
https
чисел
##ковал
Экономи
детских
попытка
1854
Максим
духовен
захватили
перспектив
СД
играют
доступа
диаметром
##ator
##графические
##благо
обна
##ницкий
границей
домашних
##графический
выпущенный
директоров
##минг
общая
палаты
Фёдоров
##няют
лесах
улицей
##тированы
убивает
##СКА
##кура
Губер
Константина
представляли
представление
##сал
Крон
обоб
партн
промышленных
##сай
##цких
##станция
заба
подразделений
##ьёв
Абха
жанра
Российского
Ол
зимних
лошадей
##жер
бей
соеди
Аргентины
синд
Станислав
##кине
1849
предска
Мухамма
конечно
##графической
Нем
Выпуск
хребта
регионального
корей
взрыва
породы
##тизма
##монстри
сверху
художественных
##ланда
немецко
опыта
реализо
СНГ
дожд
Жизнь
селения
скоростью
##ios
##ius
Таган
единицы
образовании
Победы
отдельной
задачей
Bar
Пон
глад
переулок
изменение
живопис
бронзовую
озёр
интерфей
##ПС
баскетболь
слева
классу
проживал
Квин
ставший
Крыму
властью
укры
срока
учения
отличия
##хово
Библио
лицом
напоминает
Федеральным
принадлежал
распространены
всемир
Аш
##мири
измерения
обслуживания
Верховной
##риях
едва
Краснояр
ro
обсужда
одиночном
коп
##зовый
длине
Google
минуты
##гуш
Эрик
видел
набрал
законом
or
##стройка
Саратовской
##ute
осозна
##ционными
глубоко
настоящий
обучался
отказаться
мероприятий
##нуне
Уай
заканчивается
##нус
Белого
##тическом
куз
##водом
голос
редак
размеров
Film
Информа
Уильяма
бесконе
Рейн
ориентирован
сотрудничество
##ката
##товым
надё
##ёнок
Оле
##ствование
Народной
лесу
Вместо
продемонстри
жилых
труды
лат
##стным
железо
##феру
черно
Будапе
современном
французском
##de
##меры
##слави
иных
машина
##чиной
обру
прозвище
ГО
##варда
##чатые
Луис
покой
оттуда
##дня
батареи
рассчиты
Dec
##lo
##зур
наше
Третья
ЕС
дар
Кинг
подс
устройств
##чув
##ченная
мячей
украинской
##годно
Ирана
Среднего
назывался
##кель
##риат
##air
##rag
Дело
паре
Соревно
текстов
наблюдается
##хэ
астерои
контрата
##сант
вела
##щалось
Ирина
немецком
насекомых
месторождения
Дво
Дин
##ваемые
вку
Альбер
метода
офицера
английской
1852
масло
##нга
##евым
карт
имму
ВМФ
сек
султана
Особо
Канада
Лейпци
элемент
Действие
##ren
##дс
Зан
Кама
основная
праздник
крейсер
досро
##информа
сотрудничестве
городском
характеризуется
##IA
##нив
##лат
оли
достовер
расширен
инци
теме
фарма
изделия
Cap
##центри
граду
заметно
Свердлов
издательства
##ave
##вость
выру
молодёжной
##шни
Макс
Мура
Нако
псевдонимом
Слобо
черте
украинского
Амстер
України
реформа
ограничения
Яна
жюри
отнес
пропор
страница
##гуа
прор
##ковыми
заседании
##вержен
песней
##льфа
Солне
”
##chn
##роде
подал
оркестр
демобили
##рском
##валер
##штейна
Наталья
уступил
Динами
##The
##зит
ею
обря
исполнителей
##стона
базу
##ленную
##менко
пат
забра
славян
адмирал
помощник
Mac
Давид
##ническом
рыца
бежать
млекопита
Иза
html
сила
знает
каким
Молдавии
инженером
перепи
Die
Майк
двадцати
Яма
##вляют
##yr
Фина
##ницкого
Плотность
sh
##люми
##полномо
##ровском
##ническим
Чехословакии
единственной
подклю
Советов
планировалось
##эмп
##спор
##ровым
увлека
десятков
удостои
Потом
Шевченко
ph
Парла
противопо
храб
зачёте
инвали
волейбо
##лили
арте
##ющееся
въ
деви
правя
гастроли
настоящего
определяет
фундаменталь
Бёр
Лорен
Вооружённых
##хами
сюжета
рейтинг
##шна
чрезвычайно
##als
##дре
##риата
желу
заданий
Особенно
Руководи
Мали
написаны
странами
##упо
купо
юниор
вершины
знания
##лармо
1820
голоса
чувства
итальянского
##тано
##линей
Египет
командующий
целый
благодар
##дми
размно
июнь
князей
страна
Ефи
армий
отмечал
давление
##вавших
Московская
##зян
назвать
императором
##ept
Мюнх
случи
чемпионка
To
Управление
Мэн
поисках
Существуют
##борного
##ложению
митрополит
##зацией
Камча
##ющимися
Уэй
ров
мнения
Однажды
назвали
принцип
британских
авиационной
##НА
##hel
Инди
чёрный
критике
считался
группами
Британской
основанный
##центра
##лиги
читал
непода
Количество
попали
Генерал
содержат
##фессиональ
##уа
притоков
##ouse
##зино
Nov
Пьер
##ковском
лучшую
постоянной
территориальных
##хау
Охо
руководителей
Иск
автодороги
Джорджа
Нан
Гаври
соавтор
восстановлен
ошиб
##тологии
левого
школах
беремен
краевед
del
Гага
Софи
недоволь
##зды
Король
##дай
##ване
##частли
Профессо
назначение
скрип
Англия
вагонов
##яна
Солнца
##рующие
Елизавет
##рацию
руку
зачислен
регионах
происходя
певец
укрепления
гражданского
##ксов
рыбы
вытес
представителя
Inc
##ковом
Сухо
тата
Киева
Гю
Лью
услы
##ara
##шино
Матве
выбро
Освобо
журналах
##меда
процессы
приста
##ney
##брю
##пети
##точных
Ломоно
прошлого
элементами
специальный
##нея
##СО
##дат
##стное
План
напол
##грантов
##ностями
Оз
лечеб
равна
##бля
дополнение
##кр
подлин
представил
постановлением
Тон
члени
киносту
ac
Обь
##таясь
Дона
Отличи
обращение
серебряную
##ific
Брест
Католи
##res
##дило
Горького
переговоров
иной
фос
##ondon
дано
взяли
заняв
поездов
Советский
Антон
Значи
имену
изображением
национальном
Неа
кольцо
гитлеров
Med
попытку
##uch
##хема
широкое
серебряный
коопера
Азербайджанской
Пы
ТЭ
баллов
интересы
теорию
проекте
пещ
призыва
##зел
##ствуя
Саксо
впере
вопросу
Mot
изя
означа
литература
##ures
отказались
##пка
Off
Венесуэ
официального
патриарха
авиационного
##тто
##сипе
Шек
##гала
##мура
показан
подразделение
июль
сути
Спартак
солдаты
##АК
##монд
отсе
лагере
вернулись
##рьмя
Кун
водя
Тради
считаются
иран
Европу
##тального
передви
районом
иера
гражданских
Суво
стоял
неофициаль
НХЛ
погреб
Основным
экономико
учреждение
##ein
главные
##эна
печата
передать
Краснозна
##штад
Дель
выиграть
ФРГ
кольца
кафедру
действуют
домохозяй
##сье
принц
склон
##ці
мэр
управлении
Оп
##читан
Коммуна
аппарат
Колумбии
учётом
Бюро
Europe
##ническое
меньшей
образцо
##шов
уничтожить
##уи
##шками
Нижняя
китайской
эпизодов
обладатель
расширения
разным
молодым
петербург
Ленинграда
сжа
январь
Черного
героизм
народный
восстановить
Посе
дыха
ночи
перехва
##ames
##ртах
супруги
Чел
тесно
природных
##ссом
##дский
цело
отказ
Чарльз
митрополита
видеть
Главным
сведений
продолжали
хищ
Западная
##цет
Сель
##тивным
захватить
избирателей
вал
военнослужащих
##тори
##ложены
нашего
##моро
Филиппа
Западном
##жала
юстиции
##пат
монта
ноябрь
Наконец
танцева
немецким
спортивных
одноимённого
большом
Sport
Манчестер
Мето
обер
балан
загряз
практики
учебного
##варе
эстафе
упомяну
футбольной
Мели
тысяче
фигуры
Кап
##визии
доцен
##ствующие
продукта
##сыпа
Time
Ибра
экви
пытались
получивший
нала
Англию
сохранения
##номи
##летней
течении
##рка
1814
отрасли
Франциско
##инг
мелкие
казаков
оча
мине
образовано
##рной
Ang
##плина
гром
обороне
металлов
прер
чечен
государственные
•
травя
консультан
Анджелес
больнице
сражение
достопримеча
Вьетна
фамилия
Элли
соедини
занимают
Узбекистана
Af
перепра
больница
цеп
##ховского
##льи
##лато
шиф
законы
1831
акту
голова
журналов
Вильгельма
Окс
феода
винтов
скри
перспекти
##ронто
имущества
четырьмя
крестьянских
##els
Арно
стру
одноимённой
располагались
объединены
взят
критик
набира
размером
еврейского
чешу
детали
потерпе
композиция
сочи
серебро
онлайн
сможет
ультра
первыми
Брод
календар
эмиграции
делится
учёбу
дополнительных
##ража
##декса
частиц
намного
частями
королевской
гено
комен
архипе
качество
Армию
отдал
увидел
совхоза
небольшая
сценарист
##be
Mc
Эдвард
дворце
переза
объектом
Вернувшись
o
письме
##шных
Arch
сати
##здат
Внутрен
создавать
##сара
Tom
царства
просьбой
репута
согласился
##ole
##нским
яйце
Визан
двоюрод
груд
району
Волга
христи
обнаружен
Мэй
самцов
оппозиции
поступила
##мил
носил
полуфинале
продолжение
Кю
##филд
Еванге
Эрн
концертов
эксперимента
##олог
поддерживал
##емуа
##цкое
##разуме
рот
сма
Млад
живопись
десятилетия
мастерской
Джеймса
интерна
журналистов
##eral
доля
Касти
London
Имя
Book
Аки
Will
##гского
двадцать
Жю
сно
желание
подразуме
прохождения
привела
##MA
1813
Мухам
залив
##вающего
образованием
101
##нулась
милиции
встретился
юниоров
специальной
##ino
##гова
изъя
противотан
Ере
выйдя
попасть
энерги
##рованным
Pet
Сэм
##ладен
Досто
фильмом
Воспитан
выполнять
управлению
Рудоль
землях
советника
##23
Перм
мёрт
##емость
согласо
##гара
взро
фракции
##довые
трон
Уч
определение
##ade
##бус
##рисо
co
Общество
понимает
присутствуют
торговых
полномочия
##вилл
трек
песне
полёт
металла
Мэт
кубка
рассказов
##чках
Кандида
Элизабет
находясь
Мун
кух
1837
Алжи
дала
сани
походе
приказом
INS
дья
Поле
течёт
Ут
убил
суде
##жаются
полномочий
боже
снял
штраф
оценке
учёные
заводов
эквивален
Эдуард
приспособ
do
##BS
бун
апрель
актёров
называться
высокая
священник
##100
##жим
##лицы
взор
Джонс
освобождении
аги
подоз
Люксем
Ассоциации
##литет
##мейстер
расположенная
##хана
##говари
скота
широкой
нашёл
Художе
##дской
подч
альпи
широкий
талантли
технической
электроэнер
кандидатскую
##енье
обладают
японский
Работа
выдержа
спортсмена
##маш
Дву
успел
Sec
аргу
набе
наход
врагов
приехал
фактиче
Османской
ЮАР
попе
подар
считая
благород
промышленность
##гр
##пус
Еже
Мех
секции
агентства
публикаций
##iety
Land
Алла
Артур
еженеде
самолёты
##erm
##стика
Стамбу
поиска
дают
ядра
башня
превосход
Синг
охраня
Рязанской
проигры
долины
рука
тексты
##зией
##хани
делению
##ury
##ндер
Вольф
различным
значит
съёмок
отдельного
справедливо
нат
имеющих
##шила
нейт
относят
происходят
подчиня
##говых
##ковое
стрелковая
##вица
Данный
местность
группировки
##чим
Франко
Вероятно
##ир
##евская
отвечает
##urg
задачу
столкновения
##томо
##пович
американским
решила
##вис
##нир
ид
Сав
лист
непол
захвата
методом
церковно
##eng
Нур
пределы
проблема
##70
прослу
социал
Roll
использованы
##con
##нейро
сутки
Кавказа
образца
##нят
Любов
Район
астрономи
сюда
неве
Забайка
##городского
проведены
1828
контракта
Ов
окна
угла
Бла
##вестия
новыми
статью
профессиона
замы
зарубежных
Виктория
##деш
таки
##тельному
трудоспособ
##бона
Норман
Старший
популярной
эмоциональ
##дз
Независи
красноар
архиепископа
##illa
анге
Тель
аббат
Работы
строения
##мак
ширины
последняя
серебряным
буквально
сча
Администра
Депута
восприя
открытый
##стёр
увен
вор
являлось
подготовленной
Фила
Спо
Фото
##ссамбле
размеры
варианты
##ПК
Уруг
краю
отличился
Европейской
##za
##трибу
монго
некоторыми
кло
Италию
сосе
##товского
НАТО
излучения
##гка
##зера
кризиса
поездки
доб
Aut
глаго
##ровская
бывшая
велосипе
разработка
##ложена
Эндрю
хромо
Джован
телеканале
Монре
машину
##ID
сильным
##ндр
##рине
раунд
Россией
наоборот
приложения
вовсе
успехи
Преображен
берегов
Газ
##споли
Лишь
интеллекту
Part
траги
значительную
##бини
разъ
нужда
съезде
титула
Комитет
снялась
Фрун
внутреннего
районирования
Вино
эпиде
##жба
целе
##онеров
брони
Донского
1847
##жар
##чьих
Бау
##листа
Christ
Jul
Фей
обл
Brit
##Station
комедий
тяжёлой
гитарист
##матические
остаются
увеличения
расположение
пользователей
##ski
ослож
сбора
##бережной
получал
##говора
Средней
золотые
географии
##ets
Богу
Третий
воспиты
заявление
Адмира
Бене
листь
Хали
##ченное
итальянской
существовало
1851
гиль
прихо
располагаются
Футболь
путешествен
##зской
живой
территориальная
Ель
исте
тамо
прогно
коллегии
Ростовской
##вяза
выле
Калифорнии
##лики
##лины
Ков
цвето
Интернет
выпущены
популярности
‘
ведущий
##писан
эстра
окраине
помощника
##шю
Кто
##щаяся
броса
февраль
##ломе
угля
изготовления
##стина
Начина
лейбле
Соревнования
##ject
##хард
ясно
вершине
Йорка
лан
##водов
Коста
полоса
богослов
публикова
Собор
шасси
механизм
1826
ленин
Служил
Постановлением
##тим
мэ
##вени
Live
друже
отделении
оставалась
##дине
##рные
Центра
восстанавли
однажды
##ленко
дирижёр
Украинского
1838
Давы
Край
##рацией
AT
войскам
половину
Основными
небольшое
геоинформа
мурав
##тирована
посвятил
работник
##lex
##шные
Испания
половина
1846
будто
будущий
претенден
##матических
Дебютировал
##силь
Вот
1834
хорва
чувстви
скульптуры
Alb
продюсером
##четь
1839
Лиге
Синга
август
Гэ
артиллерийского
##lt
##чники
перейти
факторов
##urn
Дек
возможных
Mas
Библи
образованию
Императорского
##гоцен
##тоном
Каспи
спуска
##ссией
Центральная
##лят
Начал
вышедший
Олимпиаде
технология
символизирует
##але
оже
Вслед
Правда
крупной
благоприя
##22
какое
адресу
сборных
Спор
крем
реформ
##дене
углу
Солов
Иосиф
##рактери
##монав
Стефа
заслу
подобные
Жана
##лярной
состоят
Ru
автомати
просу
##бека
##рики
зала
дебютировала
INSEE
диалект
Динамика
приобрела
PlayStation
Самый
варьи
заключи
медицинский
крылья
привёл
мане
глубина
СК
парово
принимают
Мой
Апосто
филиал
##графическая
восстановление
##view
##нерус
##ённая
лопа
общую
отцу
рестора
Дмитриевич
Мемо
фабрики
неот
##цио
главнокоманду
наказания
art
Меж
лодок
вызвал
пациентов
##мбы
##рер
##скон
Швар
французским
##началу
исполняет
ответственность
##ФК
Сибирь
врачей
прототи
основное
##гено
Энер
##менный
пехотной
участков
королю
##стической
Суда
продаж
туристов
##жих
Авиа
коди
маркси
Евровид
##стических
Число
Профессор
уче
##виться
изгото
заболеваний
показать
Кве
##тилось
числом
детской
##icht
##мовой
прием
##row
скла
импер
книгах
похоро
большими
столицей
Tri
критику
присутствии
водосборного
##зам
Виш
Кореи
повышение
коротком
формально
##book
##цево
убы
Хилл
##вилась
##менным
знаний
Исследо
прокура
1845
##ванной
увеличение
##хер
##шенных
пострада
##йм
##ёма
Люби
высад
##летнего
##стского
Препода
почтовых
проведении
региональных
##red
1802
Другой
Япония
##хор
##ling
##анные
5000
##вится
конь
совме
лучшей
протяжён
украинских
##хон
квартира
Воронежской
##ks
##рядо
макси
науке
Наряду
хирурги
давлением
существовала
con
наме
жест
правого
состоялись
полю
угол
##литься
высказа
сложных
открытым
свободно
колледжа
свидетельствует
##ьо
el
##чева
апо
обмена
соседних
##рении
инженеров
рассказал
отмечается
##ТИ
воздух
ЦСКА
событиях
заведений
Ог
Дэн
нов
записал
##енные
##проек
##щейся
посвящена
Des
Мал
Люди
Симо
грамот
##тировали
кладбища
проспекта
учениками
наличии
Леви
отоз
##точного
светло
##ТВ
шту
##таций
самим
##дзу
##рующий
месту
скром
##манского
защищать
##пси
Reg
разными
##белев
премий
профсою
сумма
опасности
располагалась
##ами
Пита
боли
танк
##граммы
говорится
Одной
футбол
##нером
##города
буквы
японских
##лль
du
Гин
Ната
танки
весовой
столько
контролем
##магни
механизирован
зага
Балтийского
##гос
бабу
раздела
##Tube
Федо
##ook
ног
##берге
жену
пане
эсмин
##ционеров
выиграв
сельской
оркестром
полуостро
Торонто
задан
задей
Голова
иннова
сухопу
филармо
воссозда
##слежи
Брук
креста
искусстве
лесов
значительный
Sw
Тбилиси
Западный
западного
организма
Сот
Фун
Облада
миниат
польских
встречает
установления
Осети
греческого
воздействия
гроб
толщи
Берн
Мсти
##товский
концерты
So
Мати
Фрей
создаёт
раб
двум
##вшемся
Адриа
Review
культурных
впечатление
Pa
турне
переведен
ключ
метрополитена
белой
юрисди
Западно
##хая
Em
музыкой
Hol
шей
##донского
дикта
хорео
редактора
хоккею
Расположено
##руса
##ратор
презен
повреждения
Games
воздухе
преследования
Юли
Почти
золотых
Пермского
источникам
##ene
изображён
Орле
ответил
pl
360
##довым
Доми
увле
##совета
монар
вступи
прости
частной
##TS
Ник
##тович
самок
остаться
покинули
Эс
арт
##листом
транзи
основную
академия
##ппи
соло
кантон
мотоци
великий
перебро
позволили
называемые
##уро
##вёзд
##риев
Голь
слегка
##станской
синтеза
операцию
действовать
ВВ
1817
опира
вокзала
никакого
свидетельства
мем
симпа
Основан
стрельбы
известными
##лица
Малая
Малой
доцент
Посполи
##вшимися
обыкновен
##аном
Дзер
ненави
Ташкент
заслужен
просвещения
##дится
осуждён
студентами
путешествия
Ближ
порно
занялся
продукты
путешествие
220
Song
квартире
проведен
ответственности
##ответ
1835
электронной
##ваемый
перешел
##ike
##ёрами
борт
осуществляет
математических
гау
##ha
Цу
яв
Малай
фабрика
синх
видами
политическим
―
головой
правительстве
##ЖД
лиши
роду
##чалось
груди
Омской
Габри
Впрочем
небольшим
получать
разработана
монахи
отрядов
анато
##ственному
древнего
##логическом
действовал
Хельсин
умеренно
Гва
идти
листо
победой
нож
##ровало
нокау
изобрета
##oot
каждые
##жина
Мел
Белый
стадиона
##цким
перевозки
##дище
##зефа
карьера
проектом
##вская
1815
алюми
композиторов
##EN
##суда
дзю
Слово
Монголии
##план
Рок
Саму
Слов
изящ
спло
Исполнитель
Клин
Чудо
урождён
римского
симпто
узнаёт
1844
##евское
клубу
кажется
##БР
ФИ
зме
связ
яйца
делают
экономически
рабочие
эпизоде
разногла
последствия
##канской
волшеб
вариантов
ово
автоно
Электро
посещал
подсемейства
идут
Казань
надписью
продолжить
##ated
##нете
Прибал
низко
сцену
бывает
переез
вторжения
##целе
Баль
однои
политическую
##li
##зили
албан
камеры
привлек
экспорт
расположи
противников
Белорусского
##AM
декла
князем
композиций
##ллинг
1836
пошёл
подводных
азо
пожара
символов
ситуацию
##рико
##кторами
боев
замужем
принадлежала
##ford
удара
политическая
##тком
сборника
Комиссии
##новые
сете
##льевич
авиационный
недостаточно
##opter
##мотра
1832
полным
романов
гимназию
##щегося
Австро
сущ
##дость
сидя
##чилась
Турке
раздел
Пруссии
драмы
убийстве
гиб
букв
принципи
парном
произведен
дисло
сквоз
слове
##менского
##тна
Сне
идет
помести
индустри
##дении
вошло
Войска
слияния
присоединения
ЮНЕ
актрисы
Гил
Проко
камня
лекси
палом
летней
перерыва
Ивановича
источника
Образование
##ГО
##кэ
##ode
Min
Трен
Северном
пригласил
##евро
##зоре
##лиса
##влено
Скотт
болель
##клы
##меном
судья
лошади
Народного
##щалась
пакет
созы
четырех
##жна
Степ
ребёнком
привиле
Известен
собственным
##ever
Вор
##ненко
учёного
возму
уте
воздушной
собирается
способны
Гора
Метал
владел
соиска
называются
Тэ
опухо
южном
Екатеринбург
явно
##знания
полиция
правителя
аудио
принёс
кап
восточного
##фельд
угрозой
скульптур
##графических
Бэ
менедже
сделано
памятники
поставлен
##переда
палео
сотрудничал
предприня
YouTube
названы
простой
сдви
Берлина
лютеран
##ых
заменя
локомо
понять
владений
северных
Сол
преподоб
Up
Сера
Людовика
инструменталь
Деми
Фонд
общих
касается
##хия
##Исто
1825
Варшаве
##ya
##ньо
черепа
Империи
гомосексу
##atch
родом
##менской
десятки
Воскресен
обозначение
##фора
мелко
##ane
проника
передаче
##жах
##щала
Ави
Язы
вожд
Латви
судьба
издании
таблице
##взо
##able
ВЦИК
##матери
Участ
отмени
##шины
заказу
выходят
регистрации
se
потерпел
характеризу
Рон
Вилья
смысл
этаже
дизайн
заявила
##ada
##уме
##ents
1200
Марко
органа
Вра
эры
##ночных
Абсолют
приговорён
кадет
экстре
учиться
Орловской
##ппо
чай
Крис
образа
приклю
аэродром
сформирован
##сторо
нрав
##образных
двигателем
сар
##шенный
расста
ассоции
Im
Дебют
идеологи
нарушение
Вопро
мировом
выполнил
работами
##нился
уволь
##ковская
женских
технике
академика
сохранилась
##omb
##аппара
выдающиеся
##РУ
сана
повер
вступления
##AL
Вал
тел
Серб
нелега
Воспитанник
аспирантуру
представляла
##box
##гас
ура
Законо
Две
##сот
Гё
Тулу
Военной
местами
опровер
посвящены
1796
реактив
##OM
##рного
Роза
входа
руководя
предполагалось
Буэ
##новна
##нон
##ствию
забив
узлов
настаи
оптими
фигури
муниципальный
##ico
наре
патру
привез
педагогического
Голли
Марсе
открыты
выступая
четверти
##гори
часы
чине
близко
названий
##цла
утром
существовали
озере
Божией
дочерей
##df
Аля
Лау
зво
Себа
мотор
плато
внешне
Дев
Воль
Людми
чтения
Телефон
системах
##чах
Чин
Post
сильный
активность
Защи
остается
##ьез
##енти
Первую
рукопо
Леополь
крестьяне
Ярославской
##АТУ
гря
##текает
собственное
##аз
Дэй
Изд
Прото
##лея
ВО
##ложении
среднее
##IC
##Спи
Ил
##жели
запущен
##ъем
##рике
Ени
химических
Мина
##clop
##чьего
Филадель
ведут
релиз
канцеля
открыли
звук
собак
международным
##извест
Примерно
Ие
##рджи
Day
Пись
взгляд
изобража
расчё
эр
##бова
Бат
##товый
Томаса
телефо
Нет
деревянная
Новосибирск
Правительство
##ческо
Балка
мировых
квартиры
##наго
Папа
такую
ЮНЕСКО
объявили
советско
Успе
##честве
ценно
Восточная
использован
Мета
Тимофе
издана
финансовых
##зеля
##радо
##матов
Сели
недолго
популярным
Джованни
арме
техника
подразделя
захватчиками
##кову
Aug
компенса
сбро
посчита
приняло
акционер
нераз
Закавказ
мифологии
##меся
исчеза
выражен
церковью
агентство
мэра
##стером
бакалавра
обнаружено
телеканала
применяются
экономический
##нино
Хру
сфе
##неров
Распростран
разобра
планируется
Мит
##зовой
регби
Лондона
гражданин
особенностей
Вера
жизнью
берегах
короткий
##тских
Боли
достой
следующей
футбольного
##скры
##марки
##стере
Иисуса
павиль
страда
событие
поддержал
обоз
мучени
церковной
нано
Плани
Техас
рядах
Покрови
музыкальные
направлений
иду
##влять
Сразу
низкой
рассказы
выпустили
установка
##вики
1843
##фар
##обря
убиты
полком
звукоза
кандидатом
престола
Восточного
получали
различия
энциклопедии
Sun
прессе
снялся
лечение
Почтовый
Спорт
Театр
##ography
Ирты
Джоном
возможным
##маны
выбы
оператор
##кай
##пред
Рау
##тельстве
содержится
##ниции
цита
просвети
Возро
лёгких
галакти
остановить
пропаганди
построенный
##др
Out
фаль
бассейны
подчёрки
або
личных
расследо
##eph
##чьи
Пенси
Проце
эфире
Бернар
рубеже
включал
попытке
##лак
возникновения
Пря
любит
крыльев
литературной
##ele
Даже
флоти
какого
способен
##PS
Ильин
РО
1805
Кули
Эмма
Азиат
Робин
Хмель
опаса
новости
##ega
##зовые
1806
##err
##oug
дуэ
спря
экономике
##тум
сумме
ремеслен
собрании
участниками
южных
Олимпиады
оставались
Путе
вошед
разное
совету
действовали
##лево
##телях
##нинского
УК
Граф
Избира
продан
Примеча
##тропи
ряду
корпусе
русская
Of
долю
Одессе
Night
эстафете
даты
студия
авиакомпании
биат
выводу
Тихоокеан
Сью
высе
таба
греко
малой
хвосто
чёрного
##86
##десят
##лённой
сферы
случаи
Движение
Архангельской
##ato
Er
##десяти
РБ
Оса
особое
положительные
##хло
##лёку
Волги
пятый
драгоцен
демократической
Дио
Юлия
местный
##ais
##польской
Мартина
##EC
##irst
1833
младшим
Индонезии
благополу
центральный
автомобильной
##хей
лига
эски
животно
просьбе
бронзовый
соперника
Ква
Листья
реконструи
Завод
детям
##строены
развивается
предполагает
Муж
Рек
отвагу
освобождение
собственность
ведения
##ква
зве
1810
Char
точке
личный
комендан
##тиза
врачом
сталки
интегра
местным
напрямую
обсерватории
масс
Очень
супруга
Dev
Грэм
экзо
убежи
получение
продолжается
##движи
Каз
сбли
Кавказе
трудом
##usic
мемуа
ведущим
##irl
##чинки
хранится
литературного
Петропав
гарнизон
Австралия
незадолго
##жны
обязательно
##пёр
##нову
Адмирал
реальности
##трин
Приказом
называть
##BA
##umb
##нтер
1841
Начало
особой
лесной
челю
Иоганн
обнаружили
перебрался
Pre
##льским
старые
Ann
закрытия
сознания
библиотеке
преобразования
І
Pop
Анге
укрепи
организовать
искать
находят
##лилась
отдан
Жор
##водить
свойств
центральных
##ьевич
Тело
поку
предан
Жанейро
##lag
##зун
Вит
##шенные
формой
имеющие
сестрой
встретил
##рян
##хах
указано
ассистен
поддержкой
американские
##53
##ьях
ОК
Dav
раке
##cyclop
Дагестан
расследования
агрега
правилам
бронзовым
##ta
Cal
топ
устье
##стрелко
быстре
##0000
##пися
защитника
деталей
ордина
осново
постановление
двери
Америка
японского
##сию
ля
ЗАО
охране
родине
выпускает
соо
техникум
консервато
Духов
Старый
серьёзно
##amil
##дово
сбо
Каждая
Петрозавод
анонси
Рах
стипен
##правочник
##90
##товая
вражде
любителей
##зво
##work
Тим
Прожи
введена
240
##альную
морфо
победила
Елизавета
Сме
Главной
оценкам
Дро
Нам
племен
урожен
другому
Exp
вытяну
иерархи
рекоменду
разрушения
##ЛИ
##тяги
госпи
сотрудники
##ril
##зас
Сум
отчёт
графство
сценария
##логическое
##дным
##говая
выиграли
Club
##тури
##ящихся
Radio
выходе
приори
городке
знакоми
внесении
##oo
хотели
функцию
разговор
Наполеона
##тником
##манский
уде
##штадт
причем
городское
Aust
Запа
Битва
прекратил
компьютера
установили
Уайт
сотен
Зени
эсто
##проект
Сборная
сельском
уще
арене
самки
степенью
находящихся
PC
Пока
проспект
существовал
пошли
спроек
подтвердил
зону
банди
обвиня
подхода
переправи
монографий
футболиста
цы
Sim
личной
сыграв
Кандидат
уточ
##комплек
Кишин
##olution
##hip
##ревич
Дочь
сада
туризма
успехов
##еню
ув
мяча
продажу
Ливер
изоли
профе
старый
экраны
правителем
противником
##кисло
##дэ
##тау
Ая
СА
##вляя
##тало
носили
следствие
воеводства
##роу
##ровые
рога
следы
разгром
##НИИ
главная
испанского
##оти
Аса
шат
корона
поступ
Верховный
имущество
##by
##вам
##ensis
залож
Буэнос
Термин
Посполитой
##пс
Pal
Гне
товар
поэтов
##рим
Малый
изданиях
архитектором
##нув
объеди
нату
осени
переул
девушек
листьев
отрядом
##рным
Gold
Ворон
безуспе
отступа
Коммерсант
чьи
поддан
храмов
крупными
прице
Щер
пот
Указ
экране
полуострове
##чусет
оскор
поток
выходя
Компози
протеста
##вят
длинные
дает
рыболов
собрать
крупнейшим
Ахма
созданием
Дес
##листы
Петр
рака
##дением
##строил
протои
усадьбы
обитания
разворачи
450
величины
Результаты
государственным
##ложено
новей
увеличить
Американской
Цеза
зв
##тальных
Характер
учеником
правительству
ансамбль
достоинства
Вики
Софии
стере
навига
Впадает
организаторов
##ццо
##тском
ссыла
ошибки
произво
американском
веры
##бинский
живопи
бронено
строительству
wh
отбы
кольце
будущее
млекопитающих
##метров
короткие
огромное
традиционных
Иран
указан
записей
сектора
состоящий
химической
pdf
рано
внесён
заменил
молодые
православных
Крю
дух
##кевич
Ниге
древнегре
##бру
##вика
соч
подходя
плоскости
Тр
Клу
бре
снятый
Ричарда
северном
Относится
помещении
модификации
##ёк
##рих
Оки
##ватели
племён
федеральной
распоряжение
Пром
метео
##зировать
здоровье
принципы
##пари
##ьева
##ховский
консульта
жид
Физи
тетра
приведены
ad
##azine
##читься
##лийский
Альфон
понрави
причины
попросил
английским
Калмы
аварий
интелли
дальнейшего
##бана
Ряд
заметил
расширение
генеральным
кабе
орна
селек
подкреп
космических
Крей
войной
грузов
шестой
Паралле
дивизию
замке
рекой
уровней
##кья
##язычных
абстра
##скопи
сигнал
Кристиан
космонав
##седнев
близлежа
написанная
свидетельство
тогдаш
погибло
созданная
##ny
Орлов
взгляды
обвинению
изы
##жному
загру
сохранился
некро
студию
этапов
допусти
сильное
болезней
национальности
общественности
##ленном
Победи
кризис
##цкие
съезд
примеча
провинций
##щённых
кровь
красной
Григория
Священного
##ero
крейсера
##дки
пап
Кора
Фили
миль
Джефф
Решение
прочего
##ET
##дьба
Дау
Инг
Некоторое
корпорации
##ique
Милан
подно
##образие
Мюнхене
Станислава
##рею
игу
дзюдо
недвижи
разбира
Словакии
медленно
Муниципалитет
отс
##думан
Герце
Женат
вечером
лейблом
серебра
древности
qu
Кау
##стских
нагре
Джерси
Ордена
данное
задней
Нидерланды
##endo
Ной
##ризации
Василье
поселился
промышленного
##зис
Мора
достижение
предыдущего
киноре
партнёр
основанная
уничтожения
##21
учено
Монасты
##uck
Ben
меньшин
проиграла
переводчик
Шоу
нея
цепи
модифика
111
##ловая
##тонов
четыр
Оренбургской
##тела
Паль
ознамено
##левский
Арсена
нижнем
##MD
##iction
Семья
почвы
автобио
колхозе
абсолютно
Гала
отби
Постоян
передней
редакцией
##хих
##кара
Кафе
побо
портал
заимство
проповед
успешным
Массачусет
крупнейший
##пча
##ival
##ровкой
Блю
1821
Мило
кило
обога
Почётный
##дини
Дрез
следовательно
##ird
Лам
эль
Грен
душу
##Данные
##oci
ОБ
##ones
прими
железа
корруп
родного
композицию
пирами
проезд
финской
Автомоби
возникли
хе
Don
##нется
сроком
актёром
кристал
возобнови
no
друзьями
проблемам
террористи
возможностей
##нав
боксёр
примером
сень
##костью
партией
вражеских
российские
травяни
Занимался
единственная
##дза
##ella
##скоп
Oct
ова
уполномо
ветеранов
Федерального
##каче
ведётся
единого
братьями
действием
оставаться
спортивный
##морфи
news
Джозеф
проводят
персонажи
Po
Tour
ближ
цена
Моисе
азиат
##денбург
вдохнов
##ЛЬ
##шкина
Иртыша
проводился
пользовался
агра
сёла
Розен
Дея
##шевский
Великая
вступила
##erv
##berg
голове
главное
надписи
начальной
неком
дорогой
маршруты
##зинь
1809
клип
океан
введения
учителей
корреспондентом
##ll
##ака
Донба
улучшения
разда
судьи
закрыта
выполнены
особых
парази
написано
ВЛ
##пенга
Сюжет
изменить
##гуна
##обряд
отста
диаметр
завершить
##ПП
##лел
net
##писал
##рское
Такая
проез
императорской
##Со
##ats
##таго
сби
##йском
Азов
внут
обособ
Законода
занимала
Fe
КГБ
вокал
гибри
полную
автомобили
общественно
поддерживать
предположение
неи
Попов
особый
юбилей
##РК
неблаго
чувство
выглядит
разор
хлеб
выполнял
отказывается
210
Вся
##альном
##ленными
##геля
Уин
языками
местными
Val
фона
знаки
регла
Bra
барон
фамилию
признания
управлять
Европейского
Жак
кай
наве
допро
##ora
##нскую
1823
Стру
Состоя
ремонта
родителями
автоматически
##лама
##нином
кель
техническим
##ада
King
реду
##канского
Главная
продолжала
графства
##логическим
действующей
##мун
##ловым
концерта
Фро
Вороши
посадо
Вячеслав
коллекция
Sol
Завер
доступны
показывают
##всегда
связя
крипто
погиба
беспоряд
мальчика
he
судом
кавалерии
операциях
Гес
Рам
Украинская
постоянным
компьютерных
op
рев
шар
Вильню
прошел
обычных
историка
##ксен
##мерами
княжество
Энн
1807
неви
корне
Фан
градо
отчасти
стоимости
перечислен
##ume
коллеги
di
Tur
четверо
исполнила
предприниматель
##лкой
хоть
Дэвида
ожесто
бюджета
Li
##ждал
купе
Египте
Кембри
десятин
сыграли
великоле
средствами
рассматривается
Большую
санитар
явление
##новская
Мировой
резонан
##adem
сибир
##довской
Восточный
литературных
периодически
AR
Вилен
оттен
АЭС
добычи
поселен
ребёнок
Яковлевич
финансовой
диско
бывшим
##тят
бакте
эффективности
Stre
Фонда
Татарстан
##гт
##стике
Trans
любом
парламентских
засу
васса
средство
##дун
тиражом
конституции
##жий
прой
##логически
основными
Луны
решёт
Специали
провинциаль
##lam
##зву
##рила
курсов
Костромской
родила
составило
шлю
ослаб
открытых
производством
##теты
##грамм
алге
Sam
##нейшим
##ванного
бывшие
боевого
выражение
сцени
враждеб
небольшого
оре
##ренных
либера
русскими
соответствующих
##баль
Act
##ваемой
поворо
##динского
##ема
##баев
##чести
Bank
пуль
##ландию
##лярных
Джонни
Виталий
поддержка
##сян
##АТУУ
##шный
Испа
делал
смесь
КОАТУУ
Научно
Илли
звука
владельцем
образуется
##шах
##риди
моро
охваты
военная
открыть
экономические
Пай
бабо
утверждения
##топ
Венгер
##ose
##ковка
современным
Административно
Оло
1811
Четыре
выделяют
активными
вынуждена
hist
Мара
##правед
Епархия
величай
##ад
Пей
Сохрани
правовой
примыкает
Железнодоро
##зра
##веда
South
впада
жизне
противодей
##блоки
1792
West
упраж
половиной
##to
##ины
##язви
Мид
##носцев
##формули
обрабаты
##тках
перифе
отстран
командном
возвышенности
кв
Вере
Родри
Роджер
привет
Собрания
cont
##Список
разделён
завершении
воспользова
Wal
документ
##ады
##тивом
Пяти
мясо
позволил
размещения
Kn
##няка
##тены
Блэк
ранения
Je
Весь
##техники
объёма
эволюции
проживают
произраста
##IT
##куля
Вклю
Мила
обыча
Любовь
мастером
##тивную
дохода
активной
Александру
пищи
обеща
Сотруд
Рождества
##жало
сожа
Альберт
Римский
повседнев
##бари
##ровый
Игро
Америку
квалифици
обнаруживает
##нян
##морф
##ates
Бое
##лером
Особен
агента
игроку
образцы
расположенные
##ктору
золотом
террори
закончился
##ura
воевал
военноп
женщиной
скульптор
банки
ступен
Челябинской
кал
##ждают
Дугла
башен
крова
разум
узнал
Казанского
международные
сжи
City
доска
снять
имение
командующим
##лие
ток
ударов
физических
##ринга
пуше
##словно
Металлу
римской
открылся
Всемирного
четвёртого
IP
Рад
пик
1827
Праге
Такой
климат
традиционной
##лял
##ччи
##сима
атрибу
женский
##хранитель
младен
солист
очевидно
##мё
Знак
кише
Зимой
буржу
##шинского
Франкфур
музыканта
##ret
##лаз
##шок
Атле
Возвра
быстрее
галереи
варианте
Льва
токси
##выс
##ете
ячей
##гистра
отцов
самому
цивили
начинал
##становление
воспоминания
Армя
Война
проро
Дальневосто
##ham
##oman
МИД
##писки
наём
ущерб
сборные
квадратных
##зания
столе
Депутат
вымышлен
лишён
наш
князья
травму
сильные
знаменитого
##ЛО
Gra
Анри
слой
##нейший
##ковы
Пал
##точные
ареста
знаков
биологии
ОГ
конвен
отражает
Южном
заново
подобно
соверша
художники
Казахстане
Израиле
городами
##мал
антен
птица
Волгоградской
депре
мой
эше
таин
видно
чёрной
государственная
вала
папы
##рующей
сетей
соискание
строительных
Дун
Стефан
свин
точку
##женного
терапии
училась
огромный
авторитет
происходило
San
вере
Педро
Художник
Искусство
варианта
присоединились
##раясь
Нови
вариа
Corpor
называл
пытаются
Альф
Пенсиль
пожизнен
радиостанции
начато
близких
целиком
##кторе
Липе
Шуль
Землю
нерав
отклады
##yd
пищу
Иор
1793
важные
чёрные
механики
рукописи
испанской
культурной
ВГ
прозра
сигнала
конструкция
короткометра
##Фи
1808
дистри
метрах
третья
подробно
##ude
##дное
Благове
достичь
предметом
Пензенской
образцовое
литературный
##МК
##тема
нерв
Чуваш
случаю
величине
пехотного
Соединённых
##enter
1824
Кома
палу
ранней
ступени
выделить
##чее
Соб
Боло
Свой
Изабе
Австрия
ходатай
температуре
днём
Техно
Белору
человеку
культурно
французов
указ
немало
Джексон
снижение
##СБ
Тал
page
Холо
Штатов
##vent
кавер
общину
написала
развлека
материалам
##дос
##полии
1816
##постав
Августа
##плин
Копенга
вспоминал
спортивного
Красноярского
железнодорожных
Исток
образцов
называемой
##ковую
##ющуюся
Йохан
переклю
эпизода
государственную
Фрунзе
падает
×
##ideo
##низма
пшени
Франси
рабочим
двенадцати
серебряной
Центральном
##иды
##бороны
##TC
пнев
Linux
систе
реакция
##гада
##лёта
немецкая
площадки
##Сайт
Диего
счастли
историков
катастрофы
будущей
верхнем
Иркутской
артиллерийской
Бак
останки
экспона
югослав
мысль
строить
заявления
##sy
##ese
##плав
##ature
##цизма
##эффек
кому
вопроса
территорией
Доку
трети
Джейн
смотри
охватывает
Получив
историей
кампанию
Победитель
Champ
Марокко
московских
##emb
Непо
Днепра
тяжёлых
микрореги
Su
Расс
беженцев
ур
##тизм
##чёва
Блан
повесть
выяснилось
##ews
Мани
Берна
##онерами
неизвестна
университетов
Демократической
##шит
прыж
молда
оформи
поиски
площадке
рассчитан
эвакуации
##рали
Dig
##гнуть
##ложить
##регули
North
верху
заливе
Science
High
Media
пьесе
оборот
Всемирной
легкоат
сделаны
популярностью
эффективность
##рек
##берку
Видео
Боснии
Опреде
трассы
разделена
киностудии
подполковник
разработчиков
Индий
иниции
центру
транспортных
SS
##ённым
Кури
взяла
интегри
биографии
современное
##ссет
Арс
Прос
хроно
Мишель
сделала
заключении
##AD
кода
приписа
Невского
направил
аудитории
окружения
знаменитый
действовала
расследование
##лёва
##преки
поощ
евреи
поправ
Автоном
согласия
Екатерино
переведены
##ждую
##лятся
Булга
Петру
##анского
заранее
имелись
построили
##довать
пробу
замены
Следует
глазами
процент
предложили
продолжать
пояса
перевез
служили
##тист
Ски
Торпе
масла
схемы
Кирилл
Борисов
переворота
территориях
княги
Партия
отказалась
педагогический
##ьеры
ману
Корее
взросло
городские
поступает
приступил
оригинальной
смену
гусени
устран
этапах
дивизией
Последняя
отсутствием
валю
стене
##тийской
озвучи
внешних
коалиции
##lines
Стер
##льские
покон
устра
Класси
организовы
трои
Энгель
королева
указывают
Максимальная
Соро
##ить
Шри
сгоре
Премия
развёр
шведский
официальное
##дак
##ссион
выдвину
выполняет
серебряные
Великобрита
инфраструктуры
##льо
##чел
##тение
Чарли
вокалист
электропо
классифика
##тини
##сштаб
1819
Фред
иные
Школа
нрави
резерва
накануне
археологии
дио
яиц
Живо
Кале
калибра
отставке
магазинов
представлено
##zy
##лык
Ся
Бэй
внёс
America
устройстве
##ery
##лёй
Такое
Расска
показала
Казанской
инструменты
##хие
##ресе
Печ
зар
Эфио
привержен
основателем
HD
Тау
стоян
Четвёр
двухэта
усадьба
рассчитаны
религиозной
унаследовал
##земе
кВт
поиск
Коллек
Мюнхен
продаже
собраны
Белая
промо
горного
побывал
греческой
Ломоносова
английских
преимущество
родственников
##рением
оставшиеся
Жито
одни
Картина
отмечен
КН
прочие
каналов
UK
церковных
советником
MTV
##графию
##лене
вещей
##жинского
занимали
значительных
##inn
##ппа
##нове
Банк
March
Допол
ролях
Национальная
##lad
шаг
##лость
брод
Самой
участках
водохранилище
##ТА
##где
Лё
Рады
тяго
трево
селение
ансамбля
Бр
col
Лун
Брен
Dream
завоё
уроки
##хико
August
Васильев
дисквали
##ident
##щённый
редких
Цы
Иосифа
старому
произошли
##юк
##пут
##понен
Пути
##зского
повторно
реконструкция
Roy
эро
дало
##менский
простых
Христиан
владелец
кампания
ценности
##мид
зас
корни
средние
убеди
проход
серьез
Венгрия
привати
администрация
щ
##ити
Techn
сприн
китайских
##щами
##вилось
синглом
возникло
основание
внутренние
объясняется
юридических
месторождений
##пископ
##uf
полтора
договори
Программа
вооружении
несовершен
##гоне
Count
вторг
рыцар
красных
вращения
инве
канц
##uman
барокко
дивизий
гостей
максимально
Sl
Олимпийские
##26
##неф
##жется
##ранжи
Deut
Sing
дизе
Русско
набрав
принес
массовых
транскрип
императрицы
##FC
##ія
1790
облик
велико
темати
разработаны
##35
230
1795
замед
наций
условиям
движением
технический
Mart
Окру
спер
##тизации
запрет
воздушного
должностях
Пола
##пление
мечети
имелось
спектакль
активную
Шту
открытии
репертуа
##муд
DC
массу
схеме
выходить
проверки
ассистентом
захоронения
Метро
трибуна
прекратить
##ПИ
##ield
Фай
плён
Димит
насилия
##US
1818
Брайан
животные
считалось
секретарем
юридический
##глу
##бино
1784
Nint
иезу
Пробле
Минской
медицине
созданной
Российский
##nd
##бюро
акку
знать
заповедника
представить
Щу
##круп
Универси
Владислав
Параллельно
AS
Оне
##телен
Берё
##рованное
отечественной
##чатый
латы
действова
посетителей
Як
Соф
Паулу
посыла
сессии
достигли
Хельсинки
называемых
напряжения
##rol
цеха
Антио
Телефонный
Французской
аро
##рождён
добле
ритуа
самих
##европей
горной
полученных
соответствующие
##ki
Пас
##зымян
##споко
невер
Воронеж
немногих
преподавателей
разоча
ландшаф
агрессив
хранятся
республике
королевского
##тав
##кали
дне
Озеро
суббо
Аналоги
широкую
Самарской
опубликовано
##водя
##ксон
Каб
1822
Беля
##кинского
насчитывает
##нче
Nintendo
Тамбовской
направлению
Уфи
рент
##шского
владельца
##енья
соу
вошел
потенциа
##inc
1803
Мана
##лярный
послал
подчинения
музыкальное
Гот
могиле
иллюстри
Елизаветы
важнейших
пластинки
##оле
любых
тести
заключённых
Покров
Статья
Геннадий
##изме
шве
##ленда
жилищ
музыкальном
##Па
закону
ствола
МВт
Евра
находиться
полнометра
##бад
нере
выражения
##ссой
##ышлен
вылета
##винского
умирает
рассматривать
Гле
улу
нера
темно
космического
##зион
Зал
##зовых
нали
рока
битва
удлин
##ральному
##строение
участвуют
специалисты
телесериала
##erson
бесе
самоо
Энтони
привед
Эдуарда
выдающихся
Юг
Вып
трапе
механизма
посольства
социальные
национальные
Phil
риск
##льники
роско
##шево
Mil
##левых
Ладо
##зовался
Эрмита
открытом
сражался
##ext
##енс
Ял
Плу
##таров
личным
##ствующий
древеси
сформули
театральный
центральная
##ганов
крыло
царство
атлетике
неопреде
##84
##мунд
тёп
очки
осады
откров
Мексике
задания
детского
экспозиции
президентских
Гав
типу
конфигу
торговые
естественных
эт
Твор
Кирова
Белорусской
близости
##ПГ
##ану
##ровав
Дама
##водных
вузов
ранние
всесоюз
маршрутов
появлением
##ниса
##синг
##довского
секунды
проживания
1783
##динский
выпуске
бомбардиром
##тун
##скур
Тих
Муста
учение
равнове
двусторон
##груд
певца
##мерного
##станций
Август
служат
##логами
поставлена
##чера
избы
ассист
##тируются
Афанась
##добы
##укра
зла
Празд
ветра
вначале
западно
консоли
упоминает
завершился
Идея
хали
Индия
крите
рейсы
лам
шест
##рический
помещение
многочисленными
макро
аварии
спортсмены
справочник
итальянских
Сос
1797
отличался
произведениях
Камы
альян
задейство
Нер
Пом
##ляцию
подготовка
духе
Серги
лишения
обществ
##ington
встроен
пароход
Германией
поколение
чиновников
прикреп
Международная
фау
полит
##оборудо
склонах
##раса
Fre
кем
##сбург
Коно
типы
языку
пытаясь
признана
комбината
##AP
##oria
##ative
София
турок
особей
окружён
написания
основателя
Королевского
##aily
Фур
веса
сильнее
Вознесен
Патриарха
индустрии
Sal
Уров
влады
##формации
Главные
девушку
квартиру
компонентов
Издательство
Che
БССР
##шников
проры
передано
требованиям
##ca
внезапно
##жут
##луй
##даме
Сва
Игоря
выкупи
впрочем
##куру
Sil
List
Лето
Харьковской
промышленной
Чж
Ant
Наза
Пекине
Уильямс
продолжения
##имость
счету
вечера
Лер
водах
гетто
графом
пилота
утверждении
##жку
Encyclop
родились
показатели
потребовал
##ргы
КВ
##жники
##ванным
быстры
защитить
интересо
госпиталь
##ages
##мотр
##вляли
Серия
гонках
довери
застре
принесла
ой
##ставки
Волоко
Майкла
массой
формули
инструмент
неподалёку
соавторстве
##бэ
Мори
##единок
движу
стекло
взаимоот
органами
##корей
Grand
урочи
Минске
акушер
сыграть
##рид
##носить
офицером
поднялся
мультиплика
##турах
прим
сканда
стенах
фирмой
##тическими
подписали
##кнул
Class
потока
Вестник
небольшую
постановке
##тают
##точный
Чёрный
горный
Тульской
выходили
Остальные
старообряд
мозаи
доклад
вратарь
драматического
Дья
##брасы
Поги
##довский
исходя
навсегда
поверхно
Del
##пресс
заключение
программного
##ied
подполь
пропове
двигатели
von
заведение
доказательства
##фун
завеща
заводы
мечеть
Высочай
##КСМ
отзыва
ревизии
космической
Ep
ra
##спорта
##африкан
зарпла
морские
очереди
отмечено
изображений
##sc
Галь
лево
##дический
группах
оставшихся
Перио
кавалер
открытого
построения
прогрессив
##верс
Мос
аут
силе
обозре
редакция
Corporation
французские
пиво
мисти
Стюарт
галерее
Киргизии
портреты
признать
##хий
радиа
стрит
##электро
активным
необходимые
производителей
##uary
маке
эллип
##ваемого
читать
реставрации
человеческого
##жины
##альти
Пуга
##ставка
святи
болезнь
проработал
требований
##рыми
Против
списки
сооружение
##ій
##делия
подъём
литературу
определённых
Новосибирской
оф
##исто
Игрок
тайно
звучит
менедж
исправи
преследу
мультсериа
вампи
индейцев
дополнительно
##зовал
силах
символи
##СП
Венеции
Королевской
телесериале
историческом
Данная
сертифика
##графического
гражданство
Ака
##водил
##руемых
Рассе
домом
слухи
уголовного
##гата
web
##вающим
раннем
инциден
рациональ
положительно
WW
ом
Лек
Форт
кури
Филиппи
##чат
шля
изби
выбрал
оказал
спасения
завоевания
##ider
Instit
Являлся
жидкости
станцией
употребля
Энди
индо
ленты
Стэнли
общине
ученик
Кировской
нормы
гитара
выставках
сильнейших
##ars
##ira
##щет
##диум
работо
разделены
строительством
Рой
тебя
захвачен
показано
учреждён
экспедиция
французская
европейского
Ma
##eing
РИА
лого
рель
Корея
Лучшая
губернского
Not
Стал
курорт
Ведомости
лауреатом
постоянных
##акт
##коман
1801
невысо
##ugh
##туи
##жами
мимо
сроки
образец
принадлежали
Ору
Повол
колла
замкну
попечи
разгра
Имеется
северного
##https
малого
продано
независимых
рекомендации
##чьей
РПЦ
раздра
владеет
Валентина
Транспорт
##zer
Sur
inf
Ингуш
вывез
устав
Степан
франко
бригаду
Конго
нович
Совмест
пенальти
возглавляет
Единственный
##доу
##тече
Пси
##кации
энтомо
Смоленск
пропуска
трудности
свидетельствуют
Дворец
сохранил
аппаратов
помещений
Кавказского
##вию
##iter
мерт
Загре
банкро
Валентин
происходил
Инте
попыток
Известия
Основное
атмосфер
традиций
предпринял
распределения
бак
балло
лодка
проявил
применением
##мец
Ob
нев
являясь
уравнения
Рождествен
коммунистов
нач
##ровна
##ховой
диапазоне
предоставляет
Bre
вовле
литур
штатов
закончилась
##клов
Гун
Учеб
##щённые
классы
детектив
поселении
участника
Круг
мобили
##тировался
Македонии
выступают
убили
учебно
##ьен
##enta
Гим
Нова
##льником
Иванова
Airlines
технические
атак
##грузки
Макка
поселе
органом
студент
восточно
##Про
##нуться
имения
носителей
телеканал
гл
##гский
Албании
духовную
проблему
успешных
Тип
внутрь
составной
Сё
##bout
лов
Girl
Spec
кубок
важное
имеющий
демократии
повстанцев
ибо
1799
Тифли
здоро
внешнего
открытой
китайский
вероятность
Луки
##кциони
никак
разряд
оставалось
пересекает
мотострелко
##icle
##вероят
дубли
полей
землев
йо
vol
##ханов
##ствами
жилой
Концер
вершин
офицеры
совпада
##фю
Туркмени
Нидерландах
Католической
##лз
##банов
Mark
Team
проголо
магазина
температур
##raft
##ular
Шере
передачу
расположения
##вут
##дием
Merc
Раст
вывода
происше
выделены
пользовались
##ницкой
такси
аргенти
самоход
принципу
небольшими
Cre
Топо
формат
публики
римский
раствори
великолеп
постановки
Вюр
Пото
богов
вроде
любые
вас
##ллиан
лучшего
Алтайского
соперников
##лини
##сенко
мети
##дерации
Мино
Иртыш
суммы
##рующего
хутора
относилась
##ИН
весом
манда
маркет
маршрута
километра
свободной
большевиков
военачальник
##гы
##лун
санти
комбинат
освобождена
##45
##чни
нужд
Минне
##рований
критика
культуру
##цк
Ger
##совые
##форда
##ренный
Звёзд
конвер
машинострои
Мань
красные
появляться
независимой
für
томах
Федерация
созданного
творческой
##td
##фию
Мес
дошёл
последнюю
псевдоним
Краснознамён
##ПА
Ste
стремя
потеряли
##мол
Blue
поне
барона
Тоболь
одержала
##ior
pol
мара
узко
высокое
градусов
последствий
физического
ТО
Album
библей
Publish
пилотов
стациона
##ita
Leg
Грани
введены
мальчик
выставок
##гем
##гава
Надежда
учебное
высказыва
литературо
Или
Лом
##скара
кост
любое
снего
существовать
##1211
##вавшие
анархи
Харькове
Польского
##ПР
шут
рейх
хлебо
намере
больницу
основали
учащихся
чар
афро
насо
Сулей
процвета
ежедневно
концертах
процентов
фотоаппара
##28
##авто
Попу
Швеция
защита
оценил
узнать
эскадры
Куту
Серафи
доходов
ошибочно
расстрелян
##скан
оха
каме
старшей
туберку
обязанностей
##eum
Ирак
стилю
отсюда
угрозы
венти
снизи
репети
театров
##СД
##ush
##лекса
##графом
полки
резолю
диплома
поворачи
духовенства
Ды
##менные
фирма
Краснодарского
##чинок
##вропей
School
большее
тяжёлые
распределение
##словие
пробе
развива
движений
уездного
##ops
отъ
##риями
банкно
выведен
Чен
вина
пира
узел
приняты
Колумбия
продюсера
заведующего
##ober
нехва
перек
##шинский
написать
заседания
##деев
воли
Джесси
заявку
Ox
##сном
Кёни
степен
бассейне
сочетании
##yt
Реа
рота
##менное
частные
переведена
Шир
снес
утверждают
воспоминаниям
Кирил
волна
Studios
новостей
искусству
РГ
##лину
бла
вынес
тонне
ков
тун
семена
благослов
##48
##стоне
развле
солнце
историо
воспитания
##öl
мк
брату
запасы
гидроуз
обитают
выполнить
СВ
Улан
физике
раненых
сознание
Казахской
советским
Императорской
##блу
##гиба
пеше
Чечен
Society
включен
уступила
противоречи
издательством
##тицы
оро
штор
Совете
юности
Magazine
фрагменты
OS
щу
селу
Plant
компи
спонсо
концерте
выделяется
Представители
##енный
Хиро
Stone
Играх
Франц
покло
разыгры
артистов
взглядов
доступен
выполнена
##шало
кно
Гель
орто
##шенной
Прогре
расчёт
Нобелев
обнаружения
##unk
Glob
Мисс
Герои
Экспе
заслужи
первому
##течествен
родослов
переводится
издательстве
##менем
Любо
прогу
триум
минуту
потерь
партийной
посвящённый
агло
побу
Всесоюзной
Ум
Гау
Подо
весен
##AF
##aut
cl
Талли
орудие
выбрать
объясняет
исследованиях
финансирования
Уси
Port
##менных
Аристо
отдельным
##go
##Ка
##хво
##ball
Vir
Нака
Рене
оконе
заявили
комиксов
корпусом
нападение
интеллиген
##гане
##знав
##тани
##вязан
##анской
IT
Чебо
миром
Турнир
каждую
верхнего
меняется
серьёзные
памятником
Коммерсантъ
клана
ското
высказы
разруши
##ял
##ota
April
водоё
Вокруг
одежду
стилем
твёрды
красоты
перешло
столица
контексте
патен
газету
уменьши
значений
опасность
отправилась
##дда
1798
лазер
графов
оценка
городским
возвращение
человеческой
##динга
удиви
судьбы
##ony
Гуд
Алан
Скан
знака
Марина
аранжи
встречу
Ленинградский
ём
парус
состояло
121
##ковод
моей
Внутри
вызвала
Мухаммад
охарактери
Марша
Согла
Партии
наимень
продукт
Академия
приведён
знакомится
преобразовании
митин
##История
практика
Франческо
Владимиром
##asy
белыми
историки
Гат
Магни
Самым
тексти
Торпедо
почётным
##грав
Вое
1794
Week
Гале
Глаз
биологических
Кок
Power
еврейских
##amm
##емчу
##жеме
Gal
Кас
съе
тихо
Boeing
высшем
южного
##рическая
Академи
Sept
Сальва
трассе
Ивановна
исполнительного
##ears
Кёль
карту
видеои
полуша
городок
получен
принципа
снижения
смешанных
танкового
упоминания
##шоу
##дева
вторых
одобри
равнин
короткой
Билли
Вадим
чёрно
султан
##apan
Дур
Лем
##чатых
1804
вскры
искрен
присваи
часовня
1780
матро
полуфинал
деревянный
##ava
Херсо
носят
Севера
вступили
res
Уса
##влены
эссе
Chart
наклон
поиско
ученых
заменить
хоккейной
##гими
Рога
куби
строки
дизайна
сложные
победить
изображены
соглашается
театральной
##ware
Tal
##цвети
##дились
Кенне
ужасов
Донецкой
небольшом
использовалось
##МА
##och
Кс
Оу
отмет
##новском
Уровень
##let
КБ
##чевой
Активно
древние
широкого
второстепен
##пун
##wood
эги
каждое
победив
судоход
плавания
Волгоград
модернизации
государственное
фех
цены
заболо
металло
Кузнецов
бронзовые
параметров
##ja
дюй
нью
##обскому
решить
особенностью
##ee
##lav
Ази
Голов
постри
колонны
организатор
Аг
##лийской
Гроднен
климата
православный
##рога
ане
созывов
говорили
худ
##тарио
Свою
поми
снай
общения
Иерусалим
завоевать
сним
Мерку
белая
писем
прибе
натура
Джорджи
почётный
запрещено
продолжают
музыкальную
Дал
##бского
David
носить
включала
Благовещен
препаратов
##ловые
Баба
эмбле
страной
отсутствии
конференция
происхождении
лету
##зового
рё
Архео
делах
обкома
старших
признаки
республик
Корни
United
выделен
четвёртой
занимаются
российским
соотечествен
Band
##жемеся
приглашение
##ives
##ворить
Rolling
отмечают
покидает
Волоколам
Локомотив
аэропорту
добраться
##ette
##держан
##партий
похож
сделана
национальным
Дис
Пье
Цюри
пусто
реаги
Семёнович
свете
штабе
Associ
бухгал
оптима
священно
афи
Антар
Галли
Дагестана
боеприпасов
кинофестивале
расположенной
##27
яд
##о
##а
##е
##и
##н
##р
##с
##т
##в
##л
##к
##д
##м
##п
##у
##г
##я
##ы
##й
##з
##б
##,
##.
##ь
##ч
##х
##ж
##1
##ц
##ю
##ш
##0
##9
##В
##С
##2
##ф
##-
##e
##щ
##П
##К
##ё
##—
##)
##(
##a
##«
##»
##o
##i
##э
##А
##r
##М
##8
##n
##Р
##3
##t
##5
##4
##Н
##"
##s
##Б
##7
##О
##6
##Д
##l
##Г
##Т
##И
##Л
##u
##:
##c
##d
##Ф
##I
##h
##m
##У
##З
##Э
##p
##S
##Х
##g
##Е
##Ш
##/
##Ч
##y
##A
##C
##f
##N
##;
##M
##T
##b
##P
##B
##ъ
##k
##X
##v
##D
##R
##w
##́
##V
##Я
##E
##Ц
##L
##Ю
##F
##G
##Ж
##H
##W
##O
##%
##z
##K
##U
##J
##x
##_
##Й
##’
##і
##–
##Y
##j
##'
##!
##“
##„
##?
##Z
##]
##[
##°
##q
##+
##&
##é
##=
##Q
##|
##Щ
##ї
##$
##ü
##−
##>
##ä
##<
##ö
###
##á
##×
##ó
##Ы
##→
##Ё
##*
##І
##í
##Ь
##α
##ā
##ł
##ç
##”
##•
##è
##ə
##‘
##―
##ı
##š
##ѣ
##ў
##ë
##є
##ο
##à
##\
##·
##č
##ī
##~
##ι
##ν
##⁄
##β
##ا
##τ
##ә
##ρ
##ă
##ς
##′
##É
##ε
##ć
##ú
##ñ
##ž
##λ
##ş
##σ
##ј
##ß
##ń
##£
##ę
##ē
##ś
##区
##â
##ү
##Ъ
##§
##æ
##€
##κ
##қ
##±
##}
##ã
##י
##μ
##ą
##县
##ý
##γ
##η
##å
##@
##ê
##π
##ө
##ل
##†
##ō
##ו
##{
##‐
##ě
##Š
##ر
##`
##ø
##ū
##δ
##Ö
##Č
##ա
##υ
##ż
##ר
##ί
##ה
##ن
##ô
##ң
##ω
##专
##Қ
##ό
##î
##İ
##م
##Ü
##א
##Ä
##ά
##ː
##ל
##ř
##ғ
##و
##ي
##‰
