[PAD]
[unused0]
[unused1]
[unused2]
[unused3]
[unused4]
[unused5]
[unused6]
[unused7]
[unused8]
[unused9]
[unused10]
[unused11]
[unused12]
[unused13]
[unused14]
[unused15]
[unused16]
[unused17]
[unused18]
[unused19]
[unused20]
[unused21]
[unused22]
[unused23]
[unused24]
[unused25]
[unused26]
[unused27]
[unused28]
[unused29]
[unused30]
[unused31]
[unused32]
[unused33]
[unused34]
[unused35]
[unused36]
[unused37]
[unused38]
[unused39]
[unused40]
[unused41]
[unused42]
[unused43]
[unused44]
[unused45]
[unused46]
[unused47]
[unused48]
[unused49]
[unused50]
[unused51]
[unused52]
[unused53]
[unused54]
[unused55]
[unused56]
[unused57]
[unused58]
[unused59]
[unused60]
[unused61]
[unused62]
[unused63]
[unused64]
[unused65]
[unused66]
[unused67]
[unused68]
[unused69]
[unused70]
[unused71]
[unused72]
[unused73]
[unused74]
[unused75]
[unused76]
[unused77]
[unused78]
[unused79]
[unused80]
[unused81]
[unused82]
[unused83]
[unused84]
[unused85]
[unused86]
[unused87]
[unused88]
[unused89]
[unused90]
[unused91]
[unused92]
[unused93]
[unused94]
[unused95]
[unused96]
[unused97]
[unused98]
[unused99]
[UNK]
[CLS]
[SEP]
[MASK]
##ar
##an
##er
##in
.
b
##ın
d
##en
k
##ir
##il
,
y
##al
s
##ak
t
v
##ol
'
g
##da
##el
##on
##as
##lar
##de
ve
##ay
##ır
##es
##et
##ek
##un
i
ol
##at
##ıl
A
##am
##ler
B
"
##ur
1
##ik
bir
##ad
##or
##ul
##is
##aş
K
m
S
h
##em
M
##ında
##ün
##şt
##iy
##im
n
##ed
il
##ür
##lı
T
2
ç
##le
##it
##ah
de
##az
##ap
D
##inde
-
##li
##ağ
##ey
##dan
##ım
p
H
##lan
ö
f
al
da
19
E
##ab
##ık
P
##ok
G
##ine
##ış
##esi
İ
##di
)
(
20
##us
##iz
##arak
##iş
gö
ş
##ev
##üz
##du
C
##dı
iç
##la
##ası
##ya
yıl
tar
F
##ük
##st
##om
a
##um
##den
##ları
Y
o
##ini
##af
##üm
##ından
olarak
ar
ki
son
R
O
yap
##ül
ile
##ti
##ilm
##ez
##ını
baş
##ıs
L
##ştir
r
##inin
##eri
N
in
##leri
##ce
an
##ına
/
##ği
##ra
##ışt
##mak
##öy
bu
##av
et
##ön
##oğ
##ekt
##ut
gör
##ac
##uz
##ğı
##lik
’
##alar
##ist
##os
kar
##adı
##eç
##ıştır
için
##lu
##op
c
##len
##ının
:
olan
##iştir
ed
yer
##eş
##lık
dir
bul
##lam
##tı
oldu
201
##ic
##tad
200
##man
##ih
gel
dır
##ki
##eb
##up
##iler
##isi
##ta
##dır
##üy
ay
Bu
##ip
z
is
##asında
##tadır
##ma
yılında
##ro
##eler
taraf
##ız
##uy
or
##ib
##ark
en
##mıştır
##ca
ön
##uş
kul
##aya
bulun
##te
##yon
An
4
I
##öl
sonra
e
##aç
3
##ürk
J
V
ver
Ş
tarafından
##uk
##ans
##anı
##iye
ilk
kur
##eh
##ör
##ec
var
##aha
Türk
el
##ğu
bil
##ması
kullan
li
oy
##inden
##edir
##ayı
##unda
##ers
##alı
Ç
##maktadır
##uşt
##eni
W
##cak
tarih
U
Al
##ub
##dir
##ların
##üş
##yla
geç
##iv
ad
Ar
##ilir
nin
yar
##erk
kon
sür
##ada
çık
##uştur
kad
##he
nın
üz
kal
olm
##ilen
##ibi
lı
tur
##ayan
##üç
##ot
##ci
dön
##ent
üzer
##ektedir
##lem
##art
te
daha
ik
##oy
##iğ
böl
ın
##let
##tan
##üyük
##ılan
tak
##unu
bağ
ise
##cu
5
;
##me
yaş
##re
##ov
as
##iyle
yaz
ger
çal
##aman
##mış
yay
##ter
yön
çok
l
##ildi
den
sağ
Ö
##ri
on
gün
dur
aç
uz
arasında
ek
199
gibi
##ahal
sah
##miştir
##ğr
karş
ken
ya
Köy
top
##gi
##laş
##ef
##ağı
doğ
Bir
18
##cı
##arı
##eden
gen
##ısı
##imi
##esine
tek
##if
##ıldı
es
##der
##ılı
kat
##leş
değ
##üt
iş
##ken
##iyet
büyük
yok
dev
##ing
sır
##ili
##00
##eye
##sel
at
##ladı
##unun
un
hal
##tır
bel
takım
öz
##lü
##esinde
##men
ev
kadar
##rı
##asyon
6
##est
##ede
##lerin
alan
kay
zaman
##ade
Ü
##rup
##ch
yak
##ara
##larında
##larda
##ster
köy
tan
Ay
çalış
##üs
İs
##avaş
##miş
##id
##mektedir
iki
##ig
##tr
##dür
Am
öl
ak
yol
hay
##ran
İn
7
##edi
pro
uy
##iyon
##od
kaz
ul
##dü
Av
##mas
##öz
yüz
ilç
Er
film
yük
##uv
##por
198
##etim
##malar
##bol
8
Z
##ag
görev
##ımı
##erkez
##ilmiştir
##og
göster
birlik
##ünde
##una
##usu
yeni
##anlı
##oz
dönem
##nı
9
##liği
##oc
veya
ok
##inci
bölg
par
##rans
olduğu
kurul
##gil
km
##üc
##ust
w
##ep
##ezon
tarihinde
u
##iç
gir
##amp
düş
şek
Türkiye
ort
##han
göre
##iğer
##lara
maç
##ley
Kar
##büm
##arkı
##van
##erek
##ellik
##ne
hak
alt
düz
ist
say
am
##eleri
##rik
##larını
kazan
##mek
##ram
kap
##ivers
##alık
0
##tt
ür
sezon
##mi
##atı
##ulu
Mahal
##maya
içer
##ob
mil
ül
##san
bağlı
Or
##lerini
##azı
sahip
şeh
##uh
##stan
kiş
her
oyun
of
adı
##iversit
En
seç
##si
##ünya
197
oyn
birlikte
##erik
aldı
for
gelen
##met
kıs
##amam
taş
yan
10
kan
nde
önem
##rıca
ancak
##ast
der
##çek
##ılır
etti
eğ
har
san
The
tem
##yan
diğer
çek
tel
kend
##ard
Ch
##isinde
yaptı
merkez
belir
tür
##eli
##enin
üç
etk
##lerinde
olup
##istan
##larının
##layan
ser
yayın
##lerde
albüm
İl
##bul
##oj
bulunan
Köyün
##liğ
##onom
Amerik
başk
##üst
15
##lat
196
boy
ne
##ttp
nda
kab
##diği
ulaş
sonu
hem
İngil
##stanbul
##eti
##ünü
Ak
##acak
12
##abilir
İstanbul
##sek
##iyat
St
öğr
Os
##ion
oluş
ülk
karşı
##eyi
aynı
neden
bas
Alman
##aları
##ebek
##sa
##üf
Gen
##adan
dan
##mesi
önce
gerçek
##istem
ilçesine
##niversit
##ılmıştır
##larına
olduğ
açık
##lerinin
müz
##ral
##ıy
içinde
##ece
##inal
##ten
##luk
başladı
##dül
##üp
##ru
17
dol
##ellikle
##raf
Dev
##utbol
##ült
##oloj
fark
##leştir
şebek
ikl
bölüm
##ge
##rak
16
##ow
ağ
http
uyg
kom
kö
bilin
##ğını
im
Frans
Gün
şebekesi
##eşit
com
Mar
##itim
##TT
##üşt
şekil
Baş
şarkı
sistem
##eg
11
##yi
##etir
düzen
##ordu
uzak
Avrup
##hur
##ia
Üniversit
elekt
ün
Osman
##acı
PTT
ada
aş
##uzey
##çe
##tal
##ılık
##se
##esini
met
mahal
yönet
Kon
##lardan
##ça
##lere
durum
söz
yapılan
##çok
yet
the
oluştur
##landı
üst
su
olmuştur
biri
##alt
##akat
Ek
getir
nun
##ampiyon
##olu
savaş
195
##rub
##ant
dış
##esinin
##ğa
Avrupa
ye
##ileri
Dünya
##ilik
ta
##muştur
eski
ör
az
##elik
##ama
hakk
##lerinden
##lenin
##lerine
gerek
##ide
194
##bir
##dar
Ey
sal
##aber
##oğu
##iyas
##lay
tir
##larından
tamam
res
ayr
diz
%
üzerinde
üzerine
##orum
devam
söy
yüksek
13
As
##arat
ww
##ew
##ket
www
##lendir
##lanan
değiş
çev
“
##lığı
ı
##ıştı
##landır
kit
##cü
kez
”
##tar
May
Ayrıca
##alan
##asına
şekilde
ekonom
Üniversitesi
14
tüm
üy
##üçük
insan
birçok
##uyu
##umhur
kullanıl
bazı
##ich
Mart
##ber
hayvan
faz
Savaş
##ilmiş
Rus
futbol
San
##ğini
üzere
isim
Ağ
bit
##dığı
##vet
Kur
Tem
##meye
Osmanlı
alın
İngiliz
başar
Br
er
_
tut
halk
nüf
Mahallenin
olduğunu
eğitim
##duğu
##üne
##000
##yıl
##aliz
##ecek
çıkar
iz
olmak
##çi
##end
Rom
göz
##ill
içerisinde
##ud
ask
##tik
Kas
##sız
sat
kayn
##asar
Bel
Son
lar
Haz
kabul
ikinci
çeşit
##oş
Öz
Devlet
##ısında
bak
grup
##ılmış
##ğü
ilg
##dından
Par
Bur
##tib
bin
ben
kendi
##ht
bulunmaktadır
##ınır
At
üret
Hal
uzun
In
##na
AB
genel
sab
##gan
dil
grub
hakkında
##parat
ot
Es
mad
193
##aret
##luğu
iyi
harek
##undan
##ort
parç
II
Mayıs
##parator
İlk
##aştır
ter
##siyon
192
ark
##iran
fazla
El
##lül
geçir
yüzyıl
2010
yakın
devlet
##üştür
iklimi
##kan
sanat
##det
öğren
Ancak
farklı
uygul
sı
##for
##oh
eden
##fer
##elen
itib
##tü
##ation
tarım
Pr
güç
yaklaş
Cumhur
2011
##rar
and
özel
##ens
##cılı
##eniz
##sal
elektrik
Ocak
yaşam
ele
anlam
eş
##muş
–
##ehir
##of
küçük
##ilmektedir
Pro
kol
##şti
##lerden
Eylül
##emek
##asının
##muz
##ebilir
uzaklık
2008
##lus
##ültür
kız
kes
yarış
düşün
2009
##ali
##ıp
##anın
ilinin
##isan
##aat
##adece
ABD
##alıdır
##ocuk
##işim
Kasım
##ost
##oğun
##efon
##ros
Bey
##ustos
Har
##ork
Daha
görül
Haziran
2012
ac
alanı
bur
şehir
##üb
##zer
Ekim
##çı
##gram
##unca
na
##arası
zor
##anlığı
Temmuz
##ekte
geri
Ağustos
##ilerin
##ök
yard
ardından
##ron
##nik
##sil
telefon
hük
doğru
Sh
##yal
##ton
dör
sağlayan
lardır
##ug
final
##üv
2007
=
hayat
##larla
haz
Man
sabit
Ab
süre
tah
sınır
Kan
lu
##aktadır
##adığı
yen
Her
rol
sonr
##son
##okt
hat
git
ortaya
Sağ
##ünün
İm
##las
çeşitli
sırasında
##atik
##ılmaktadır
##kara
000
##öyle
sin
Nisan
sayı
##ici
sev
müzik
##ğretim
##ina
25
sağlık
suyu
##inc
mev
##ümüz
30
Şub
yerleş
##gel
çalışmalar
pol
art
##yet
##ıt
Kral
##eme
##ale
191
##işk
##lak
Tar
sadece
Aralık
hav
tab
form
Bak
##azet
Böl
##ğında
##abil
##fa
##ret
##ırak
##öğretim
list
altında
eser
##pan
##ilmesi
##lede
##lük
gol
başlam
zamanda
hareket
Ankara
ail
okulu
##unan
##müştür
duy
day
karar
##masını
görün
##aşa
tr
##cağı
##usunda
kişi
##dur
##masına
##enk
##ell
Af
Şubat
##lama
Cumhuriyet
##lenen
hız
##iyor
uzaklıktadır
boyunca
New
şub
##per
değer
##mam
Büyük
eder
Bil
Kat
değil
##ünden
##uvvet
saldır
##lanmıştır
Sağlık
mez
gön
##üncü
oyuncu
Le
bırak
Yeni
sor
Savaşı
##isinin
Birleş
##gün
2013
##pr
Amerika
program
hazır
bulunur
Mil
##izmet
şir
sen
2006
ses
İtal
çevr
Kom
geliştir
edildi
##eyen
giy
Ulus
tip
muh
tanım
##asını
yayım
olur
ede
yardım
2014
##and
##isini
içme
karak
##esinden
dün
olması
bab
çocuk
bilgi
##tif
haf
dest
rağ
nedeniyle
bilg
##ütün
##alizasyon
Ad
erk
geniş
kaynak
ilköğretim
##deş
sık
tekrar
mak
##ou
tarihi
##asal
##esiyle
Genel
ait
olduk
seb
##ess
evi
##lararası
##lin
rağmen
uç
##sı
Fransız
kuzey
##ika
##anan
anlaş
şubesi
yerine
2015
yeniden
Tr
21
topl
etki
##urg
kayb
##ılması
##tern
oğ
##kı
onun
kadın
ber
tes
ocağı
##alet
##onya
karşıl
almıştır
toplam
ulaşımı
yılları
ekonomisi
yı
yaptığı
destek
##ele
önc
hüküm
##dık
güney
gal
Gal
İmparator
siyas
gerçekleştir
mill
Th
##med
hizmet
[
dah
##gin
]
Kal
##isine
##lerle
##ğin
ydi
ilgili
##fes
##yo
kanalizasyon
Film
##ert
##ore
yaklaşık
Oy
geliş
ilişk
2016
##tiv
çıktı
##üsü
##ka
kır
acent
&
##arış
##ord
Em
Kup
Almanya
dik
##ize
yüksel
22
##mayı
belirt
acentesi
Muh
gönder
##ift
ulus
##ver
ey
##dik
Bunun
kültür
##emir
##ari
Ol
şampiyon
Fransa
elde
##ana
##falt
ödül
nüfus
##ry
edilen
##oğlu
öldür
dağ
asfalt
##ledi
##ula
##tem
Han
Birleşik
ayrıca
##ond
temsil
yanı
Lig
deği
##orm
trans
bilim
sıra
asker
##gı
kısa
##anda
##elerin
mü
2005
##cılığa
##urt
##osyal
Yunan
if
araştır
##pe
fakat
##maz
Der
X
##lerdir
Güney
##ck
##gu
ölüm
katıl
Kuzey
beraber
##baş
dört
##ova
23
dayalıdır
ama
##qu
##can
##yum
##gın
kav
Ok
##elerde
dal
başka
##th
hiç
Şampiyon
inş
seçim
sırada
yazar
plan
hayvancılığa
kil
On
##ie
kor
yür
gelenek
##ind
kısm
sun
şark
Ödül
##ektör
mes
per
gelir
toprak
sar
Hol
değiştir
Tek
##larak
##izm
##üven
olay
yaşında
şehr
mey
Paşa
kim
tasar
bey
##ınıf
##ga
din
Pol
dünya
takımı
konu
geldi
##leme
##kü
kent
Ber
##our
##ser
kaç
man
##isyon
Ah
sonunda
karakter
milyon
##luğ
##arb
yapı
##kaç
##iyer
dahil
Köyde
##adolu
çıkan
alır
Top
##all
özellikle
##ime
##itik
##br
sil
st
millî
ana
##iya
sav
yılı
26
##aren
j
kazandı
##aal
dışında
##eder
Roma
##spor
##ince
##land
Part
Sov
##ile
##uluk
kullanılan
mod
##ank
gi
gazet
keş
Kupası
?
imz
tam
id
sonuç
##azi
##ışı
Anadolu
ağır
sezonunda
etmiştir
##eviz
##tiği
İk
yapan
pr
temel
##aj
kuş
merkezi
##ücad
mo
dolayı
##siz
27
Bun
##lo
##ıcı
İz
##ohn
2004
##enek
##ise
Sel
oluşan
le
Ali
Li
koy
##elerinde
taşım
##ij
bilinen
yas
##emi
anlat
##tığı
sınıf
Ev
etm
##ami
##ümüzde
adıyla
28
##tere
##adaş
beş
Sovyet
Fran
Sul
genellikle
##nek
Yah
Başk
döneminde
##ümü
Wil
Mac
yapım
##ate
Re
##erj
çiz
##ye
2000
kitap
John
Tur
Jap
##tir
rom
##ary
##cut
kuvvet
##ff
Aynı
İspan
Dan
sonucu
genç
##eğ
Müz
bütün
##esel
mal
la
Doğu
deniz
Bay
##ock
##rol
Şarkı
biç
itibaren
##ğın
##asından
##oloji
##ire
şirket
onu
göç
kardeş
##ulan
##azar
Meh
edilmiştir
çap
##sik
konuş
Ser
erkek
oğlu
##ıldığı
##cusu
##ha
##landa
##zı
köyde
mücad
##cel
yi
şekl
##lanır
##lis
##ni
##ack
##ener
##tay
yönetim
##sam
##ğına
kr
##lendi
##iyordu
uğr
##ımsız
##min
sağlam
birkaç
##cek
arkadaş
dayan
verilen
ord
verdi
Car
yapmıştır
29
##tör
Bas
iline
Mal
##trol
##oun
kitab
birbir
özellik
##efer
dönemde
##gar
##adık
kalan
##ektir
##asyonu
100
##udi
okul
ifade
dav
##evi
##oğraf
çağ
ölç
değişik
##osu
İngiltere
bun
adam
##ang
##int
##üler
edilir
em
pek
##io
yapıl
##lanmış
Merkez
##les
hast
##ren
amacı
transfer
##sun
şu
komut
Birliği
##dana
Deniz
##alarında
##aw
sol
adını
Eur
##lek
mevcut
sürdür
##her
görüş
almaktadır
edeb
num
Ben
##tin
##dam
Kız
##cısı
spor
bah
##okr
kıy
Cumhuriyeti
albümü
düny
şey
Sam
dür
yıldı
isimli
köydür
futbolcu
Hav
yıllarda
##evizyon
##iyan
ten
hemen
Eğ
Sp
faal
kayı
##acağ
mik
kas
tır
##uyla
Çin
yoğun
##ite
##imp
aday
2002
Amerikan
işlem
Ma
##tion
Ör
##orn
##ris
edil
Bul
And
Yıl
##alya
Sal
Fakat
Oyun
Orta
Rusya
190
yağ
cin
saat
Gök
burada
2003
yine
##leyen
Kay
Ed
##iliğ
##ars
Un
yarar
organ
adlandır
yemek
##ısır
##asıyla
##liğini
##GC
teknik
##fi
##els
Arap
karşılaş
geçen
Sar
can
##leriyle
##ke
av
##mıştı
##omb
##ediy
##FA
Kır
inşa
Tarih
##aban
##larıyla
İsv
renk
##ayın
olmayan
Aş
bulunduğu
kaybet
##meni
çöz
orta
##öylece
##mir
beri
Q
##üdür
enerj
filmi
üyesi
##lüğ
##mem
kontrol
##uan
kariyer
2017
Hay
Su
çift
Sch
kullanılır
##adem
##alam
NGC
aldığı
inan
yanında
##ly
pat
Dav
##ilere
ünlü
##maları
##ick
##ayet
has
güven
silah
##ph
bağlan
##ekiz
##müş
uygulam
biçim
iklim
##ith
##neğin
haber
etmek
yarı
eleştir
##ori
Mon
büy
##ğinde
##rim
Amerikalı
Kad
kaldı
şeklinde
Tan
lig
Sur
pop
Kul
profes
##rist
##manın
maçta
##makta
tic
Sultan
bağımsız
İş
50
##edik
##ışık
##anıt
yat
sem
Afrik
##akült
ner
##tık
##gen
31
dönüş
##tu
yıllarında
##izik
İtalya
Batı
Gür
##olojik
##arlar
keşf
##meler
İngilizce
turn
Karad
lık
yarat
Biz
faaliyet
Bab
bes
mer
##vi
##ahat
üçüncü
toplum
##atör
##otor
##din
##suz
York
Mahallede
2001
Partisi
##afa
iht
##bah
iddi
geçmiş
Bar
savun
##yonel
yıldız
##iss
ayrı
##iir
Mus
Mad
Pet
##ılım
##liam
Bal
##mer
##lenmiştir
##iliği
idi
De
ayında
##cılık
rek
ismi
##ong
##rom
##amb
##co
Karadeniz
sonuc
oldukça
##isesi
nden
kel
##lüğü
model
Mich
##ahk
resmi
##dern
oynam
benzer
##üzel
##kenin
sahibi
proj
bat
çar
nokt
##yanın
idar
##yol
##aln
lik
##aların
hüc
##ilerek
##one
bek
bitir
Com
Kol
sıcak
çalıştı
Ligi
rad
Köye
re
##mez
Col
##eci
yaygın
yaşayan
han
Ph
kurulan
Uz
##arıyla
2018
##oktor
to
katıldı
##ity
##alnız
ledir
##eth
edilm
kral
kam
##iyi
##umu
ürün
##ema
##lüm
askeri
boz
1990
merkezine
Bölg
dok
tanın
Has
yöntem
##itan
Alt
rak
Albüm
nüfusu
##tm
40
##ukuk
yılından
##lenir
televizyon
soy
İmparatorluğu
Yarış
Tak
piyas
derg
formula
galak
https
kut
Paris
grubu
##arında
yapımı
##rek
Ger
Rob
##kin
##bay
1999
##oç
Sanat
##ts
##ue
değildir
başarılı
##iyatro
tep
ortak
##endi
##ediye
Yer
org
sayıda
##ücü
##kat
##acağı
babası
amaç
bulundu
kuruluş
suç
##hangi
##forman
##enn
başlayan
##ıntı
etkin
##ciler
##air
Ge
##aul
##düğü
##mekte
başlamıştır
Beş
##yalı
kuru
ayak
##alarda
##ısıyla
##kın
##aca
##itesi
kem
bunun
189
Fakült
##ikâ
İslam
Afrika
##elerinin
forma
eyalet
##kop
Doğ
##kil
küt
##ian
He
günü
ann
##madan
uygun
##acaktır
##liğinde
des
Sa
iler
##ach
##stit
Yük
dak
##taydı
sistemi
İç
örnek
##ve
don
Mısır
haline
##mesine
başında
metre
##uldu
adet
ona
##vek
##eceği
sahn
politik
Ne
yönetmen
saldırı
girdi
atan
##ılığı
mahallede
kaldır
sosyal
eki
##ory
Lond
altı
yıllık
##eği
##ısına
yör
tekn
##laştır
taşı
cm
başlar
##istik
##uvar
Sin
##ansı
mek
hiçbir
oynadı
ism
geçti
##imler
kulüb
gem
##masında
##sen
##bo
vide
##des
##uştu
Met
konusunda
##ood
##bak
##masıyla
çoğun
##tur
etmektedir
yararlan
La
##ısını
Con
##imar
Per
giriş
##üğ
başına
uluslararası
Bo
##ehri
##lah
ilan
Ap
kayıt
##üper
##imleri
##ham
##isay
sey
##anlık
mat
##ediği
Dr
##estiv
##oks
##rail
Eski
##ıyor
##meyi
öğret
1980
1998
##tür
yerel
yönünde
Must
ettiği
Se
##eral
herhangi
##mesini
##elere
Ödülü
benz
##diler
performan
yken
sonucunda
188
##asa
Ter
ziy
Uluslararası
##ağıda
##leye
sanatçı
##arın
Bizans
htm
187
part
yalnız
##olog
Ön
kir
##lisi
olmuş
Can
Mat
Az
gerçekleş
geçer
galaksi
üniversit
##üyle
ülke
çoğu
##letvek
Sır
yüzyılda
##masının
yerleşim
konum
##acağını
mağ
ordu
Fakültesi
üretim
kulüp
yürüt
##onu
gez
##lav
altın
##str
teor
##ünkü
##yen
##güt
boş
sezonu
düzenlenen
Kem
Ulusal
##dük
Mo
##gal
dem
##amil
##best
mücadele
##ân
kah
##ladığı
yılına
mahall
Mehmet
İran
##iri
etkil
Fer
##elerini
teh
sp
pay
teş
##ısından
geldiği
amacıyla
##ocu
Hat
##ustur
1997
##gr
##taş
##ision
gider
hava
ni
Port
1992
##bi
##lor
poz
başkanı
Kö
Ef
korum
araç
##ilerini
##burg
oper
sebeb
1996
##ustr
Kür
parçası
##ırı
Diğer
Yap
##ekli
ders
Mec
olabilir
##iği
Bat
İsrail
şiir
siz
motor
##emen
Fil
Olimp
##tic
güçlü
fot
##ildiği
başarı
Futbol
veren
Devletleri
turnuv
açıklam
cez
yani
Genç
Nor
##omet
!
##au
##anlar
mezun
hafta
puan
Mak
MÖ
##lığını
verir
fır
Bazı
engel
baz
William
##ai
günümüzde
##mada
##üldü
nit
##lemek
ce
dikkat
Char
ülkenin
Gu
Burada
Val
yazı
karasal
sefer
Mustafa
siyaset
##ketbol
defa
sonrasında
hede
##yüz
meydana
İtalyan
##hend
kurulmuştur
yık
1995
sak
maçında
##may
bölgede
beyaz
##ilerine
Mill
doğdu
##aba
doğr
##sin
Mer
taşın
Yaz
koş
sorun
Kızıl
elem
sebep
##ner
kısmı
Yön
özg
ilet
İzmir
##dem
Hak
Kit
##50
Gir
##leşme
##iğini
vardı
Be
fizik
keşfed
##mişti
deney
##ino
##ızı
##ternet
Yüksek
zorunda
Is
nes
##dın
Galat
IS
bildir
dair
yorum
Mahalleye
##areb
##eşil
##langı
Sen
batı
çalışan
##ırlar
##yor
roman
##cisi
İspanya
##red
İyi
ederek
Şehir
taşımalı
İkinci
imparator
mut
Dem
tart
çarp
Avustur
bölümü
eriş
##tor
##to
##ülen
Kı
bile
##are
Göl
##amaz
Don
Mur
seslendir
24
üzerinden
1993
Tel
##taj
fik
adının
hikâ
##sk
Türkçe
etmiş
lis
bilgisay
hes
hey
Halk
sayısı
186
çat
bugün
##ilmek
Mor
tamamen
Kaz
düşük
Müs
Yak
kanal
anlamına
##atif
##masından
ndan
1970
görenek
So
1991
Wh
Şampiyonası
Üç
zar
##elerine
##uc
hükümet
boyut
Londra
başlat
bay
Yayın
giz
##res
##ier
##maktaydı
Bakanlığı
Demir
mem
piyasaya
yapılmıştır
çocu
##alog
konser
olmasına
derece
##kün
edilmiş
##ld
##tand
itibarıyla
Yüz
##mal
doğu
karşısında
bölgesinde
Kara
##ormal
##ica
anda
kurum
Co
Spor
kendisine
kapsam
tipi
Cem
profesyonel
kolay
dizi
civ
##elsef
Dön
##ören
İki
asıl
##üle
doğum
Ste
şehri
##be
##lim
adında
##ba
Sil
fon
Trab
Kil
##ebil
##pit
Go
kelim
##ograf
tartış
##NA
##rid
##ash
birinci
tal
yapmış
##ive
doğal
kavram
canlandır
##kel
astr
##ames
##sh
##vat
##asaray
ateş
ihtiy
işlet
dağı
##ish
Kanada
Res
FI
kamp
##eng
Di
1960
##ani
##zon
Avustr
##yası
Vol
Fener
##ere
bilinir
2019
##dıktan
yayınlanan
Ül
direktör
Olimpiyat
##ısının
##ehr
ileri
##iyeti
siyasi
##ılarak
Kap
##age
##dak
kardeşi
##su
##erken
##iyah
##ğından
##orld
oran
seçildi
serbest
tekli
halinde
##abancı
dı
Rum
uyar
Te
Tüm
verildi
##isk
Azer
iken
Galatasaray
##deniz
kullanım
Pat
##alama
döndü
##çuk
oluşur
Buna
Japonya
##bahçe
hedef
##engin
Ale
Siv
Örneğin
Hollanda
Sc
fil
+
##layarak
##layı
##urum
Ant
alanında
kızı
60
##meden
olsa
##alarını
##hendis
terc
##lardı
##arş
Sosyal
Ven
##yn
toplan
gözlem
TV
Ko
##20
##ilim
Ham
ko
alarak
Ada
vat
##adığını
modern
##ett
Tim
soğ
sayesinde
##keti
##eks
yapıldı
##ons
##lenmiş
nı
verdiği
fir
kli
##tadyum
orman
sona
Bro
istem
##etik
maçı
Asya
izin
eğitimden
##eceğini
1994
yana
yılının
##yıldı
Kadın
hâ
diye
lider
tiyatro
Rad
##ilebilir
Krallık
ekonomik
Altın
##har
Fenerbahçe
##ice
##elerinden
##und
Ahmet
seviy
##ilerinin
##ker
Jos
hızlı
kurdu
##uru
milletvek
##mesiyle
numar
iddia
Avusturya
##ous
Geor
ziyaret
##itler
##kar
##led
çalışmaları
##ger
satış
müm
##mızı
Art
##ılabilir
video
birleş
uzay
html
köken
Grup
nedenle
##imiz
Yaş
80
hap
##urdu
##ingle
bölge
Dağ
yemekleri
çevir
Müslüm
##tul
##fat
##old
Bulgar
İsveç
durumda
##enc
örgüt
ydı
##ovision
##lasik
35
1989
##era
##leşti
şarkısı
sit
İst
mekan
Suriye
katkı
dünyanın
##tüd
Böylece
Feder
##aspor
Angel
gelmiştir
Lat
astronom
eğit
net
Azerbay
##ment
para
Eurovision
##ass
mümkün
##ilya
Trabzon
Ord
yum
ih
##doğ
Jo
##emin
hayatını
elektron
stüd
mark
madde
Mah
##kenti
##işi
Roman
red
##olar
yeri
Akdeniz
adına
değerlendir
##alarının
yayınlandı
##ınar
##öv
edilmektedir
ulusal
##başk
Bağ
##eki
Gör
İr
def
ekip
##lilik
uygulan
Britan
Me
##alarına
içeren
bakım
artık
##form
##culuk
versiyon
Ama
şarkıcı
yalnızca
ortam
Grub
‘
öner
kuruldu
kış
bunu
32
kendini
belg
##lanması
Macar
yetiştir
##brıs
gösterir
##hane
eşit
Ordu
##amadı
Mc
oynanan
##lamıştır
Erz
Kıbrıs
##lamak
##işleri
enerji
kötü
dünyaya
Devleti
Başkanı
##ael
##ğunu
##fik
##iel
düzey
sorum
##öm
performans
zengin
işgal
ışık
##ona
##altı
Robert
##ksiyon
çıkış
Çağ
##ukarı
yardımcı
##BA
arac
Kore
dolay
türü
Hen
med
çıkmıştır
##ational
davran
Van
dep
öy
##neği
Azerbaycan
Müzik
kop
##aka
Yahud
##ze
##avi
tanıt
sinema
Kültür
47
öldü
Bor
##za
##ows
Beşik
Avustralya
##ata
Şah
Fin
del
33
##ray
Enstit
paylaş
##eph
III
##ümüş
kesin
Müdür
No
##ight
90
##yı
ab
1988
##uma
arası
Yarışması
##rand
rast
Ver
kı
sonrası
hale
mahk
##düncü
##ıyordu
yapılır
birisi
tav
Mel
bilgisayar
##ital
##eyn
veri
##berg
Bah
hesap
doktor
hikây
##ded
sim
Kuvvet
yaşan
hakim
miktar
açı
##ısız
Paul
sürekli
##alara
eg
kazanmıştır
karşılık
yazarı
##ane
geçmişi
##uyor
canlı
##dek
demir
##ann
Parti
oyunu
##meyen
Süper
##ğının
##erson
başkenti
##isyen
45
felsef
küm
takımyıldı
Yahudi
Gel
tat
Kemal
konusu
Merkezi
##âr
Nehri
Festiv
##ung
|
şehrin
Ac
##ena
##arken
ip
Yunanistan
##tiler
yazdığı
Kor
takip
fonksiyon
dek
##emesi
##ame
tük
kurulmuş
tespit
##ene
popüler
##ınca
##andaş
##umlu
##ayi
ticaret
attı
Japon
metal
ayır
##lukla
İspanyol
##acık
derec
##va
nok
Fat
Beşiktaş
otom
tasarım
gök
##opol
36
1987
Tay
kendisi
Şir
etraf
Kah
##BN
malz
##ezi
Sm
fotoğraf
kazanan
##liğe
meş
David
teles
Michael
1986
##eyin
##ius
##own
pozisyon
##dikten
##amak
##ırken
##uyordu
##elerden
##imini
satın
single
çaplı
##tepe
Yar
Samsun
Gre
Say
##SC
yapmak
söyler
##lında
##manı
rap
##tandart
UE
##ford
ISBN
Pal
Hrist
##tesi
Jack
Mark
##kek
uçak
##oft
teda
##ence
kitabı
Küçük
alındı
verilmiştir
Med
Ros
ettir
##uç
söyledi
başlangı
incel
gelmektedir
hep
##raman
Bill
Lisesi
##ağa
dağıt
Je
ağaç
##uluğu
mec
Hüs
##ematik
almış
bileş
UEFA
kullanıcı
köyün
lim
oda
##obil
##yüzünde
ayrıl
görülür
ülkede
##lıca
Mez
Qu
kurtar
kişilik
97
James
cih
mimar
##adır
aşağıda
hukuk
görevi
yolu
##ult
biy
Gazet
##ardım
##lıkla
yapmaktadır
Mes
hücr
Muham
Belediy
Final
belli
##isinden
terk
taşıyan
Gazi
Eğitim
gaz
indir
Mu
Sav
##üştü
diy
##lev
nereden
gösteren
bölümünde
Mos
Sak
Gr
vur
yüzden
arkadaşı
World
organiz
##gun
##abrik
kork
finalde
kullanılamam
Küt
siyah
şirketi
parti
Berlin
kapat
söylem
Demokr
vatandaş
##ail
##ünist
##usal
Söz
##işti
Sovyetler
Günümüzde
Tor
teleskop
web
takımyıldızı
Türkç
Sah
sok
##ayla
basın
tercih
grubun
Sü
değişiklik
70
tahmin
vermiştir
edebiyat
Arn
##isar
yüzey
normal
##ydı
sekiz
##day
çatış
kendisini
##eksiyon
##illa
##gisi
inç
##alığı
1950
halkı
##ester
##ebi
Güneş
altına
keşfedilmiştir
##asıl
##abilecek
bağlantı
sağlar
çalışma
devr
kariyerine
ordus
öğretim
yapılmış
500
yönelik
##ace
best
##emiştir
tarz
pazar
Tun
Müslüman
ordusu
1985
1982
tutuk
Erişim
Sonra
##ein
##mî
yerleştir
Bursa
balık
şim
##şte
Lu
##ple
##ekten
ölçü
yıllar
##madı
kup
Mag
##sim
##ese
##ulları
##dal
kısım
Min
##mayan
##ife
yapılmaktadır
di
FIFA
##arr
kök
azal
##meleri
##teri
filmin
##liğine
yüzyılın
##abı
katılım
##oru
kür
oynan
geleneksel
##ilerde
denir
şöyle
ah
Pap
##iyel
kasab
Özellikle
Sev
##başı
süren
Kend
çünkü
##yap
Hük
kullanarak
sur
Taş
denk
##out
güzel
şid
kaynağı
Tok
araz
lü
##nak
##isel
göl
görevini
içine
yanlı
##ola
tas
##çak
##eyh
kişinin
##say
donan
aşam
yerde
##ahim
##ecektir
İnsan
yabancı
Bol
##arlı
ef
##lılık
şehrinde
##adi
##çiler
Selçuk
##asi
##ağan
Kr
Sab
Vak
başta
oyuncusu
Hind
##üny
günümüz
Mü
açısından
it
bahs
183
yenil
Uy
Diy
Tom
lisans
düşünül
Kut
Enstitüsü
bulunmuştur
##irler
pil
internet
deste
resim
1983
belirli
##lament
bal
Pan
Nik
buna
x
stüdyo
derin
Okulu
hastalık
etkisi
##daş
##rosu
gitti
Kim
Sivas
birleştir
##izi
##isa
##http
Hır
##lov
##âh
etkili
olacak
Ort
Türkmen
##lanmaktadır
Cor
Str
##dıkları
##ney
süreç
##10
##şehir
Muhammed
kullanılmıştır
Hers
annesi
##okal
##ğine
komp
##go
Geç
##ath
##ilt
##my
alanda
kırmızı
Rich
takımında
İlç
stat
mas
sınırları
İsviç
Ermeni
yazdı
dakik
ayn
böylece
Çek
takımın
##uel
siv
kum
Mir
Irak
plat
rahat
##erler
Ot
sap
filmde
kaf
emek
##blem
öne
Çok
Gül
gür
Uzun
##ulur
min
prot
##atürk
oluşturur
Kam
##dikleri
kuzeyinde
İsviçre
##ool
##yordu
yerini
Mem
mesaf
Dış
kaybetti
##ure
ruh
##mar
dizisi
##erli
bomb
cumhur
oluşmaktadır
##deb
##yse
##eliği
kuşat
gördü
gitar
Akadem
##raz
Bölgesi
dördüncü
Boy
Oğ
##lenmesi
##eliğ
Harek
takımının
Kons
korun
yedi
düşünc
buz
imzal
giren
götür
Phil
1979
Atatürk
##ucu
bilinmektedir
içerir
kendine
Rec
akım
güc
##üleb
açıkladı
gerekli
ilçe
##ji
gec
kural
Sür
##anak
sahne
##ern
Erkek
##rit
ayrıldı
fak
##ımız
FC
Sol
Sey
##udu
Hindistan
birim
##ald
kalmıştır
##ano
Brez
##laşması
civarında
Esk
##hal
bölgesi
Ex
filminde
Portekiz
aks
Cami
çocuğu
aktar
##ullah
sanatç
##olik
##leyman
My
Profes
Peter
vol
birey
Polonya
Et
yaptır
##ott
yu
arada
##kale
milletvekili
For
tamamladı
öğretmen
##isiyle
Kurulu
##ulmuştur
güneyinde
nasıl
##lâ
##tadan
vak
teleskopla
yavaş
unvan
##oni
adamı
1981
kıyı
##ward
Hristiyan
Süleyman
Katalog
Ro
etmeye
bazen
##dat
hen
##ain
##lop
gece
val
##bet
nün
Gökyüzünde
kökenli
sebebiyle
##edia
Dil
Muhareb
hala
mar
Frank
##elt
sonradan
Tarihi
ır
kateg
##ira
##pek
##car
##amet
cihaz
belediye
standart
iy
ış
eylem
Bunlar
mücadel
görüntü
genelde
##iforn
çıkart
yaşadığı
nerede
##lediği
kara
cam
tı
doğrudan
##iet
##bon
##lom
##köy
##mişlerdir
Kuvvetleri
##40
belediy
Eğer
özgür
biçimde
us
##akır
orij
girişim
##ling
Millet
Tiyat
Tanrı
Bla
Mic
alınan
si
gizli
Yine
##imli
##ılıp
##örü
Wind
kaydet
##rag
araştırma
str
##yetik
olmadığı
mekt
##tis
İrlanda
klasik
##ükle
kons
We
38
##brahim
barın
ic
Araştır
##hat
psik
Kıs
tane
ap
sert
hatta
etkilen
Kürt
Ordusu
oynadığı
Sup
şair
Ann
##bur
basketbol
##jen
yüzünden
Jon
öldürül
##inler
##hi
ib
yere
diren
ortalama
almak
sub
##lığına
##avut
##isti
eğitimi
şiddet
##macı
Ve
Bununla
Eb
eşi
##cılar
Komut
tanrı
çapında
Hasan
Ödülleri
##erkes
Universit
ilgi
1945
##ical
kesim
köş
Ermen
##rac
Sy
Sw
##laması
sektör
##etin
çoğ
kalı
başlamış
Kaf
Fo
işaret
##asya
Thom
şart
ıs
Erzurum
Aç
37
##yar
aktif
Efendi
yazılım
radyo
Antal
mon
başrol
Britanya
tehlik
dans
##los
olduğundan
durumu
Çal
açıl
##ular
bl
Cez
##edeni
##SA
tarihleri
dip
Bank
sırasıyla
##aşık
geçirdi
Dol
kamu
##ulmuş
##lub
süt
yasak
araya
1978
Sim
##menin
1973
Men
müs
dünyada
##ruk
Jul
mol
baskı
Birinci
Cal
etkinlik
hip
serg
isyan
düşman
hid
##ita
##line
siyasetçi
##astik
Tal
##eyle
sunu
##rig
men
1975
komş
inc
ters
##iter
basit
##ağın
War
Do
185
Gar
geçiş
Park
önünde
##prü
##ersiz
##deri
##abilmektedir
##hy
verilir
kanıt
Lib
düğ
orijinal
istif
test
##rosoft
Boğ
Pas
Arnavut
##ates
##apın
oranı
üretilen
Festivali
ü
aile
kapas
##rah
kaps
Dar
Köyü
##bert
sene
##ington
##osy
karşın
##ban
dönemin
olma
alg
1976
egemen
##açlı
dili
Del
eseri
kü
haft
makin
##üstü
yayımlandı
famil
orada
Başkanlığı
##ws
Tat
otur
1968
yakınlarında
esn
##çisi
Gö
1972
fabrik
yurt
çoğunlukla
1977
Wal
48
çevresinde
bilimsel
##ille
Belç
köyü
saf
ismini
coğraf
Başbak
madalya
madd
##abet
##abilen
You
Yıldı
##engi
başkanlı
ikti
polis
##tiğini
ağırlık
sağlamak
İbrahim
kategor
olmam
yapar
Los
Zaman
duvar
henüz
##afer
##ague
Tah
##çev
##oku
##eld
Ho
##ho
##ayıf
##ogle
getirildi
##ura
kararı
ölçüde
Hava
akadem
Uk
Krallığı
cins
##ited
##mamış
##işehir
Edeb
Çocuk
göstermektedir
##ike
insanların
maçına
söylen
üc
dolayısıyla
##desi
##ülü
anlay
yönetimi
Alan
##amı
altyap
yaptık
1969
Balık
1920
Beyaz
Doktor
İb
##ört
üyeleri
dışı
##umb
ref
##lerce
düzenlem
mit
Millî
Alex
ihtiyaç
Yardım
yönetic
1971
şun
##alandı
Bakanı
Venedik
Hukuk
##ech
seri
##alarından
City
##idi
Aydın
çab
yapmaya
Mas
ham
##ölç
Lou
ilgilen
Charles
barış
##ole
1967
##cık
kod
Bos
Stadyum
##AT
Yönet
öğrenc
karış
##nam
##12
etmesi
##stein
sözleşme
arab
kadros
Pers
Nur
##ımıyla
Sezon
problem
tören
##ısal
Pe
##adir
##ilerden
onları
gerekir
kilomet
benim
##enler
##mon
kurucu
matematik
mens
##ink
##emiş
##rat
George
yaparak
dönemi
##araj
##lesi
39
##doğu
çekir
cev
başlarında
teknoloj
pas
##che
cis
Fransızca
##başkanı
##ever
mühendis
sayf
Adam
listesinde
##ins
Tab
Abdül
resmî
günlük
yükseldi
edilmesi
uğraş
başkan
çalışmaya
##mesinden
##veç
dakika
##60
##ny
University
başardı
sız
dönüştür
##mamaktadır
başarısız
op
geçmiştir
dini
Windows
müziği
bölün
öğrenci
insanlar
takımına
75
Play
##luğunda
##alim
##rafik
saha
Abd
vaz
##inç
##BC
##ors
lerin
giydi
Birçok
##mut
tank
##mail
mm
atom
##laşma
Adana
teslim
General
diş
1984
hiss
##dağ
yandan
araştırmalar
##lığa
##RT
##ound
buldu
öncesi
özelliği
##30
Göz
gezeg
ticari
##geç
aslında
sağladı
cid
Cel
nedeni
Naz
zayıf
batısında
darb
halen
çizgi
184
Norveç
##liğin
##yasal
##ics
Dur
üretimi
bitk
Müzesi
Kent
##ırım
##II
mezar
ekran
sürüm
teklif
ant
##ago
Richard
kemer
##aly
Hüküm
soğuk
by
Chris
##adıkları
neredeyse
dam
Div
##unlu
oluşturan
başbak
elinde
Belediye
şah
Jean
Derneği
Ardından
aracılığı
bazıları
endü
##lup
güneş
hafif
galib
##itt
##board
##imark
verilm
ailesi
büny
Yıldız
Ta
Seç
Oyuncu
finale
katılan
Mosk
sembol
koşul
Danimark
##que
##nan
yayımlanan
##liliğ
post
NBA
Ameri
42
Yol
##stantin
halde
üye
Po
onay
erken
##olf
Ana
00
##tısı
Brezilya
programı
##rich
Macaristan
doğusunda
##ove
Yeşil
çağr
Grubu
##ony
##lenme
Dağı
1961
##üyor
Ukray
##nes
zir
Bölümü
##bin
ilçesinde
başv
rock
Karak
Kir
barındır
aralarında
##üphan
du
vefat
Başkan
Kart
uçuş
##off
se
1965
sayım
uzman
heykel
gösterdi
Balkan
##oğol
saray
ısı
kurulu
ku
kullanıldı
edin
yeşil
Hüseyin
çer
Takım
##medi
Kra
##aket
##ugh
bar
kanun
serv
antik
sarmal
listesi
##pa
Diyarb
##bat
55
##yolu
##emez
Maç
İsk
vokal
yayınlan
mac
ins
Cent
1966
lerde
vermektedir
Moğol
olmadığını
##sch
##etri
etrafında
##uf
ara
##cy
biraz
zarar
not
##astır
gücü
sorumlu
##bey
antr
numara
yapısı
##ekret
##BM
##mann
Press
Gi
Record
sivil
durdur
özellikleri
Muharebesi
ili
Pop
Op
kentinde
##maşık
örneğin
beste
##ato
fiziksel
kültürel
iletişim
##elli
kabil
##acılık
yılda
Eş
girmiştir
##ayarak
ressam
##vı
giden
##istory
##gul
300
ler
##ida
##lendiği
##ışma
rüt
arka
Topl
##ikal
##akta
zamanında
yoluyla
sıcaklık
çözüm
malzem
Babası
Mey
açtı
topluluk
Hor
onların
hastan
##vin
1930
tor
Var
Ur
##abileceği
##uman
Max
Microsoft
##mesinin
##iti
Nat
Elekt
ilçesi
yayınladı
##fı
Olimpiyatları
Hot
albümün
Kast
Ha
Mehmed
Kab
##aklı
Öğr
Akademisi
adım
##luğunu
##lanma
Franc
##ima
##alardan
180
##gre
fikir
yılın
Nüf
asp
Güven
kilis
##ign
sinem
durumunda
##leyerek
Moskova
Jan
kalın
görülen
Diyarbakır
ücret
##gesi
davranış
sürec
Star
diplom
nak
metr
##uth
pot
üstün
bunların
##tarı
##liler
65
Eli
##uğ
Plan
artır
##cılığı
ölümünden
yukarı
Dal
zamanlarda
nü
Rock
Özel
ince
Belçika
##tep
oyunc
renkli
bo
1940
sarı
178
yanlış
##rap
ph
Den
Kaliforn
Eskişehir
molek
Black
41
Mahk
##net
Da
çerçev
içeri
kişiler
adlandırılan
görülmektedir
##leyici
Gürcü
##ât
ton
182
##elerle
yaşadı
kapsamında
##AR
güvenlik
babasının
taht
kanat
nokta
##do
##arruz
Haçlı
bor
kurtul
##oth
giderek
Şu
##ont
aynalı
Dir
dalg
##ilme
Sun
harf
hayvancılık
Filmin
odak
ayrılır
parçacık
##elikle
##dit
isten
ir
olduğuna
hakkı
52
pan
müdür
Boz
##iller
##kest
asıllı
analiz
##lon
asist
##ilerinde
Far
klip
dolar
eline
bölgeye
birinc
##sak
birbirine
bitki
Basketbol
Müdürlüğü
##TV
amaçlı
Def
kra
Andre
##ala
Camii
aşırı
Teknik
dök
kart
sezonda
Bulgaristan
lideri
##istin
denklem
##we
IV
##ings
1963
cami
mahallesi
yaşamaktadır
Yas
##imin
Bölüm
##ism
##amik
Konstantin
dokuz
Arapça
##apol
sul
biz
Bon
##örf
saç
Kaliforniya
##mamıştır
Ker
bitirdi
bö
Grand
Gro
Yen
düşür
##mel
Çay
##rip
Antalya
yarım
Çanak
çalıştır
senar
başlangıç
##mür
imk
##insel
Kitap
noktası
hızla
family
yağış
##çu
prote
##adıktan
##rav
##ty
mu
rapor
güreş
##cil
150
det
yayınlanmıştır
##ild
rütb
prens
çevre
çıkardı
##espor
##ğinden
Sem
başlıca
##adiş
Ken
Sat
plak
Mün
rö
##leyic
gereken
pl
ciddi
##wood
##aleti
Prof
ödülü
von
##ect
kullanılabilir
Sistem
Çev
oynayan
Gaz
09
##birliği
bakımından
West
fay
Gürc
##uluğ
43
Yayınları
##ıf
Aug
Şark
##tain
##ûmet
Gölü
##ater
##ayıp
##ütte
##abor
Liv
göm
Düz
Güzel
duyur
sahipliği
esas
Kulüb
ulaştı
teşkil
##ati
Ün
tuz
1962
##mur
Dom
semt
kayded
Fri
şampiyonu
yetenek
müzisyen
davet
yetiş
başlandı
tıp
##üme
Ahmed
temiz
parlak
##var
ister
İsmail
th
##dere
08
birden
Murat
Prens
etme
çalışır
toplamda
akıl
galibiyet
olas
##ehrin
aksine
Est
doğan
ortadan
##cük
Tep
yeterli
yans
01
Lev
vir
Kuş
Meks
##lıkları
arttır
sözleş
Kel
Meksika
1956
##atistik
Angeles
anlamda
##uncu
Henry
hapis
##mara
Thomas
çök
##iğin
##ırh
##ülmüştür
##ıyı
tay
Dönem
muhal
getirdi
etkileş
Yay
Kış
alış
maça
##lüğünü
United
anlamı
Big
ide
Alp
Sarı
yerli
##gü
tanı
böyle
sözcü
##zi
savunma
##alin
##ER
Vic
karmaşık
şar
cinsel
Kav
öde
##cilik
##sas
döv
sayılı
Hacı
Google
vb
##ılıç
sergil
sezonunun
isteyen
##sur
##chel
All
yönel
oldukları
düzenli
Saf
komşu
Arab
edilebilir
ışı
##ys
ilişkin
Pri
Air
Bin
Tic
Gürcistan
Karab
ların
##ikat
1958
yetk
##ilenin
##lıdır
##ebe
##üttefik
##içek
sayfa
Meclisi
Çünkü
Billboard
luk
Kilisesi
Sk
Profesyonel
Konya
platform
Bugün
Fre
beğ
uc
bunlar
kullanımı
çalışması
dalga
sınıflandır
Ag
Fu
Kn
##abilmek
kazandır
nu
aracılığıyla
Il
park
##fet
Lin
gören
Tiyatrosu
Almanca
gid
##11
1941
dışarı
57
##ağında
tesis
##ölçümü
##ülebilir
tarafında
Bundan
Bit
Intern
49
Oper
kuy
Siyas
Katolik
günümüze
mensup
çekildi
Ukrayna
##anları
depr
Şirket
##okul
fin
nükle
asit
öğ
rekor
##akistan
##lad
genişlet
##amay
kapalı
##mit
Lo
##iyatı
##tip
DNA
##kları
Kud
muhtem
Apple
Bilim
yaşanan
To
Cen
işlev
pozisyonunda
seyir
Komünist
1959
##so
Ekonom
Mek
aktör
ikisi
sürdü
evr
organizasyon
numaraya
Genellikle
##aza
Stadyumu
Din
Proj
46
Hem
önceden
dost
gelmiş
##landığı
Danimarka
##sat
WW
sezonun
tahta
sk
gelişim
üs
katı
kişisel
##OS
dram
##layıp
##alılar
kullanan
eğer
##illi
ettik
Arj
seçilmiştir
##lenmektedir
denilen
##15
devrim
Ren
gümüş
##TA
bıraktı
olmakla
1957
nesn
ettiler
kalıntı
##ıldığında
Ban
Stev
istifa
Records
kurucusu
##lerdi
Açık
##itz
Fatih
Cam
pet
danış
talep
katılmıştır
Rol
ikinc
##tel
##oslav
hükümdar
idari
büyü
kimyasal
oynamıştır
Federasyonu
400
##fak
idam
sonuna
mül
##80
##aşı
##way
##ubuk
müda
seyahat
Milli
sanayi
Jac
04
Martin
terim
Tam
tüket
ob
##cının
imzaladı
##süz
Emir
serisi
##rab
Lis
##orth
##14
efsan
Kafk
evlendi
kendisinin
##ulması
Antik
sonlarında
co
rej
Lan
##liğinin
##esir
cep
ces
Hitler
ölmüştür
mant
Marmara
##orf
>
Kısa
alınmıştır
erişilmiştir
##iki
##antin
Hint
Anton
##oda
dalında
Çanakkale
Mev
Filistin
Denizi
yörün
bünyesinde
Kastam
##duc
##adişah
Bunların
##ase
##malı
bulundur
##ax
Cla
Red
inde
makal
ülkelerde
sad
##ae
bask
belirtti
gerektir
##arya
Karş
ez
##kender
##kol
Sırp
muhareb
tepk
##otik
İdar
çıkmış
Finland
##ome
metin
##19
##eybol
07
Roy
İskoç
1948
##ope
Jackson
Konseyi
##ikleri
Fır
with
Christ
mahallenin
aylarında
06
katıldığı
kans
sitesi
1918
Aşağıda
Sez
süper
Belediyesi
Louis
sürede
önde
komutasında
##itir
##ordin
##ılığında
kullandığı
sh
##ition
##ıma
##lası
Plat
parça
##areti
Koca
bahç
##ıda
güncel
iliş
Tiyatro
kıt
Edir
Yazar
reklam
Ir
Ala
şer
olumlu
##güne
##seri
1946
bölgenin
endüstr
karakteri
beşinci
evlilik
kapasit
##mos
##ijital
##lamış
kuvvetleri
dar
##gileri
##liye
görevlendir
Diz
birer
erişim
miktarda
kullanılarak
İsa
yola
gerektiğini
1955
##by
##orit
antren
##ico
mektup
##BMM
Viy
halkın
Sosyalist
gerçekleşen
##doğan
##vanı
##iklet
öğrenciler
üniversite
62
##batı
53
##ademi
Dışişleri
hac
Oğuz
##ülük
benzeri
Milletler
##ush
İskender
seçimleri
kadro
pen
hazırlık
istasyon
##ero
MS
Mih
oyunun
Joseph
festiv
72
TBMM
mağlup
almaya
ch
##elle
gay
Şampiyonlar
##oyu
##usuf
##larca
aşağı
##abak
Silah
mesaj
Dis
merkezinde
Şeh
##ota
Sad
Edward
görünt
esnasında
56
63
Fir
Hey
Pek
adlandırılır
gov
Değ
Nev
içi
ışın
##isyonu
05
##eddin
Vakfı
uzan
Modern
anah
bilgiler
bölümde
##over
Romanya
Ür
türlü
Madrid
üstünde
elektronik
##riyet
esir
Maked
görevine
Chan
demokr
görür
1943
Bilg
sahil
##ebilecek
taarruz
geçerek
ortalam
##aga
uygulama
niş
Okul
süs
Web
etik
kalk
vermek
gar
Yönetim
kahraman
hayatına
Kastamonu
seçimlerinde
Coun
##ücut
albümde
##ersin
03
olanak
##16
tedavi
Ob
179
Program
sakat
emekli
sa
emir
toplumsal
geçmektedir
##17
##lie
imza
1939
Anay
boğ
muhaf
yanına
Arjantin
vek
Ömer
##memektedir
##une
ört
off
reak
Trans
##imet
Herschel
köye
##steri
geçici
##rian
##unma
sanatçısı
Love
pilot
Haned
zirv
hücre
yir
farklılık
senesinde
##HP
##ander
##bistan
ila
##madığı
Seri
Aziz
##ternatif
dizisinde
##ym
Buff
##lenerek
##gam
kıl
##ğünü
##lemesi
Edebiyat
##kır
Cap
##ski
may
larda
bağlıdır
##indi
Hit
mim
edip
milyar
Kos
kuz
yazılmış
Parlament
şarkının
Cer
##NE
1954
Adası
##ekim
##ansiyel
başladığı
kenti
hoş
##pınar
##uvarı
Kayseri
66
çeş
Nazi
yönetmenliğini
Balıkesir
Finlandiya
şif
Viyana
değeri
cem
kapı
bundan
##ücu
##ux
Aj
##eff
Mol
##amamıştır
kayıp
çizg
Turk
Super
Yug
##ix
yakal
Hırvat
##emektedir
##arda
play
çekim
League
##ora
rolü
önder
Ori
kov
mel
King
kalp
zırh
##layıcı
azalt
İt
##akya
Mit
strate
Antlaşması
rest
mercek
kıyısında
##lığın
##ember
Tw
Lim
açılan
sürdürdü
um
yazılan
##ilecek
geçerli
##onun
##ülür
Kole
düştü
tabak
$
ulaşım
takımda
senary
Vir
günde
##eved
##wn
##lığında
Mühendis
58
kilise
##igür
evren
##antum
ödülünü
##13
finans
hab
şeker
çekti
nö
yönetiminde
##port
Ülk
ilaç
tez
Ang
##umsuz
##türü
kaçır
##alanan
##mesinde
kısmında
ekiplerinden
hit
85
çay
ülkeler
gelişmiş
ürünleri
##likleri
Nec
bol
##aborat
temsilcisi
##att
zamanla
dile
1953
gerç
Sonuç
##ediğini
merkezli
##lanabilir
sıf
Yusuf
itibarı
##paşa
1942
##elendir
ederler
Özg
anay
feth
##gat
##ilmesine
ortasında
##18
##ology
##rem
##cus
hayatı
yaprak
tehdit
tedav
yitir
##igh
##rad
##dun
dergi
##ete
##ouse
Barış
##ilerinden
Latin
Kudüs
Yugoslav
kullandı
##ii
tec
bastır
toplantı
romanı
Ec
oluştu
##tifak
gemi
aracı
Okyan
gruba
Çift
##veriş
##bek
Ka
rüz
mah
rakip
##etti
Bütün
##alimanı
sergilen
##eter
Nob
kalmış
hatır
yaşlı
Çel
##ila
##uda
bür
Wash
kulübünde
Mut
Bunlardan
##portaj
Saray
##etrieved
Cas
One
°
birliği
Bi
İli
##ding
Kütah
ban
taşındı
##sar
Slov
Eser
##no
sağlay
`
Sir
olacaktır
Napol
başlık
manyetik
1952
aktiv
uzaklıkta
aydın
anlaşma
Fl
refer
ailesinin
mode
şehirde
giyen
##VD
##gör
yarg
ötürü
incelen
##eton
eserleri
##memiş
Cumhurbaşkanı
##oph
do
59
oluşturduğu
Cad
news
Edirne
üretic
otomobil
##unk
Rap
dolaş
hangi
öncesinde
##iydi
1947
##ğe
çıktığı
##uri
ilişki
başkent
açıdan
genelinde
sıvı
99
120
67
halka
dergisi
Iş
inşaat
olmadan
1919
vazgeç
Abb
Tıp
Orhan
Kurtul
köylü
##ois
Of
##malıdır
stadyum
##ûm
tarihinin
##anik
##ecik
eleştirmen
varsay
Fars
nef
##ridge
mavi
Kurul
##ipp
Vide
operasyon
eyaletinde
##ric
##oper
##ardin
kilometre
ligde
sinir
National
leh
sporcu
##ilmesini
Show
kalır
reddet
Saint
##uni
##ağını
Onun
##amayan
##ovi
rahatsız
kg
disk
mis
akış
Net
suy
zinc
ailenin
grubunun
yönettiği
pap
Gelen
Dergisi
##uva
oluşum
##chester
faktör
ekibi
okum
öt
Mimar
birimi
Francis
Oyunları
be
vurg
kaybol
##eck
Üst
Music
1938
onlara
yürüy
##vik
tarzı
##ağının
##çilik
frek
meydan
Washington
Ox
eğitimini
##okol
takv
dağıl
petrol
versiyonu
##lec
enf
geçirdiği
çey
unsur
##likte
değişken
idare
Yunanca
##don
02
göv
milliyet
yaklaşım
Selim
pp
##gusal
##ısıt
Turn
hareketi
Ege
##atıcı
yapılması
Dört
1949
##dy
önüne
doldur
54
##urlar
##ations
<
özgü
Dün
##etiyle
uzunluğunda
##tian
Karl
Leon
kullanır
##vir
kütle
ırk
##ferans
Bl
##kür
Ba
eğlen
American
gösterildi
kuram
meşhur
Rod
Kulübü
International
Şam
sebebi
karşılaştır
ceph
##uşu
Ceph
varlık
yılların
olmadı
değişim
çalışmalarına
jür
##abileceğini
eşlik
başkanlığı
tapın
turda
88
##ilip
Körf
boyu
Adı
Şeyh
##emeye
cevap
##zade
Ray
Mersin
sıralam
tamamı
##unt
bölgelerde
Off
Vil
##aze
hükümeti
savaşı
##dırım
Sor
##iyeri
eksik
##lığının
Yukarı
hatt
öykü
ederken
yerlerde
77
ikili
93
gezegen
evlen
SS
1933
Hür
Vik
güz
Atina
attığı
Akademi
yatırım
##aff
TRT
hidro
##raç
mevki
herkes
kalma
##ower
1923
profesör
Na
Milliyet
##nu
##diş
Kütahya
röportaj
göstermiştir
##türk
##lamaya
protest
Ke
##amin
tarihte
unvanını
##üce
Mekt
Buffy
beklen
1922
1936
Kurumu
iktidar
yazılı
sözcük
##ela
##avuz
##AN
şans
##ceğini
Kahraman
76
takımlarından
BBC
adayı
karbon
çoğunluğu
from
kaydetti
##işkin
##makla
kale
yapımcı
gönderildi
karşılığında
##fab
##lip
##olojisi
ceza
WWE
Kadınlar
uzat
devre
İd
aj
Alek
okudu
92
##imal
##iret
##ezya
paral
Tür
set
##ilerle
Bölge
##rey
95
şüp
bozuk
istedi
##lıklar
evinde
Şehrin
üstlendi
cilt
maruz
zafer
otob
halkının
paket
hattı
oluşturulan
fi
##ğday
Yal
Devr
##opolis
Zel
golünü
Lit
Meclis
##aska
prodük
katkıda
forması
1951
Haf
Dağları
olmaktadır
medya
##lüğe
evli
sabah
birlikleri
##içe
kâ
Des
Toplam
Ölüm
ediyor
Times
Ref
karıştır
özgün
##ku
Day
Haber
liman
Üçüncü
Yan
konuda
Adalet
##42
##ülasyon
She
Tarım
derecede
##şiv
Birleşmiş
salon
ov
Üy
fiyat
İlçe
emr
Arnavutluk
##denin
kadınlar
##ID
##pt
##ıza
Bart
albümünde
87
##zan
bank
yönetmeni
##ube
Abdullah
nüfusunun
kapan
vücu
kulübü
aşk
Ul
Barb
Miss
zamanlar
no
SSC
bahsed
gerekç
reform
73
hayatta
şef
##pet
##razam
tanınan
arasına
türleri
##itör
##ream
##malarını
Kırım
ayar
uzanan
##hel
Kurtuluş
sel
Düş
ligi
Retrieved
##ave
nehir
komutanı
lak
mür
##ukat
dijital
##sü
mikro
karışık
##cia
istih
ayrılmıştır
##rum
yla
August
şehirdir
Cat
##ebilen
kalab
96
##pany
om
Yılın
yönlendir
##giller
anahtar
piyan
düşünülmektedir
Doğan
Adaları
sistemleri
68
hakları
##arch
Som
etnik
vücut
Konser
edildiği
sınıfı
##ella
Gümüş
hükûmet
##sem
Not
Enter
yazmıştır
69
##osunu
yapıldığı
##şam
tanış
##meli
Post
Real
belirgin
yükselt
ker
##df
esin
göreve
olaylar
1921
##üyordu
##batısında
açıldı
dönemlerde
satışa
molekül
Özgür
takıma
hastalı
Komitesi
##edisi
okun
Smith
dizinin
Demokratik
List
yayıl
##yle
Ask
##lemeye
çubuk
katılımcı
durumlarda
seçilen
##47
##abilirler
süresi
kısıt
##lanarak
yazılmıştır
Bek
##antep
koruma
makam
Cr
Soci
figür
CD
##ceği
harit
##ilmekte
##lish
alanları
öldürüldü
##lamaktadır
##mey
Ast
sinyal
Bern
unvanı
Ermenistan
Hel
doğrult
Sırbistan
fer
Albümün
##şi
kendilerine
şov
##lemiştir
Ty
Yılmaz
Sic
depol
kültürü
Hac
Baba
##ko
##paz
Çelebi
çekilen
##lenebilir
##45
yüzde
görevinden
##darı
##liliği
History
Bayram
komedi
Lad
##ello
Nok
sına
nükleer
alternatif
##iro
seviye
müsabak
şampiyonluğu
kurduğu
##üd
Fen
##ava
Mid
##doğusunda
##dükten
başarısı
##oto
##rağı
koc
Trabzonspor
##lic
Mik
It
##ks
##iba
dolu
Atlan
Ark
aray
dom
Latince
tarihlerinde
##endik
konuk
Afgan
yenerek
dakikada
Pier
alması
##gresi
işçi
Hanım
Gaziantep
gerçekleşti
##mun
ordusunun
Ticaret
##iber
##luluk
##ukur
Oxford
##sında
Allah
Devrim
##lob
oluşturdu
devletin
##ihan
Nic
olmasını
dey
Bosna
Yarım
kolon
ge
##üllü
kısmını
##mo
##jik
Manisa
##düz
Dep
hayran
##CA
DVD
yaşamış
##ason
nadir
doğrul
con
ekib
Araştırma
Nobel
yerinde
##lit
Eng
opera
kuruluşu
dayalı
birinin
çocukları
##ınız
tüy
olumsuz
yöntemi
Kulüp
yakıt
koleksiyon
Sef
kanalı
Lee
##çılık
Du
Bilimler
olmaya
##aten
yardımcısı
Dam
##iyade
aralık
anlayış
##liy
86
ex
##emli
Sonr
person
##abilmesi
çalışmalarını
anlamında
78
inanç
##asan
##ömür
dilinde
anim
başlanmıştır
Yör
arke
##alarla
koordin
sonraları
##orb
alanlarda
Nov
##rop
müziğ
türüdür
##sion
##ronik
formasını
piş
beğen
yenilen
Bunu
ayı
dağılım
##ılmasıyla
yasal
sisteminin
korumak
yaptıkları
1937
Savunma
##ilmeye
artış
değildi
##lılar
Komutanlığı
listesine
Just
Stan
müşt
Tour
kutsal
Cup
kazandığı
##igan
##omen
lay
Tokat
Harry
yirmi
yolcu
karısı
hızı
##ios
kazı
Karay
yarısında
oynamaktadır
##maması
nesil
##hisar
Sci
##arlığı
insanın
##pat
##vanya
Güvenlik
##ies
görülmüştür
uydu
##lasman
##nal
tanesi
##memiştir
edecek
##kur
tanınmış
işletim
feder
Kes
Altı
alet
Kaynak
protein
sıklıkla
yaşamını
Kurt
Şim
##aklar
Ov
##diki
Bob
##ivayet
bron
kısaca
##sizlik
açıklandı
kendilerini
##aport
Papa
paralel
gösterilmiştir
Lor
Gram
taban
##üman
had
arz
Pa
anti
bölümünü
dük
Sarayı
mahalle
gazete
##ağına
Sadece
onur
##43
Prot
gelecek
koyu
##iyecek
yerleşti
kahver
hayal
##ileştir
karakterini
demek
mahkûm
##cılığını
sağlamıştır
1935
##amış
takımlar
##sy
rakam
Uzay
girer
nüfusun
yardımıyla
##MA
hariç
getiren
##alizm
Gran
Boğaz
anılan
Yüzölçümü
Ağa
solo
##yaspor
basınç
çekirdek
Manchester
performansı
pir
Sinan
albümünü
dönen
öğrencisi
rok
alfab
Kalesi
##tim
haned
proje
oyuncular
kaynakları
Yarı
Yaklaş
parlament
1927
bulut
yayımladı
Blu
Studi
düşünce
eserler
zehir
##alandır
çatışmalar
##avar
Euro
Hayat
yetersiz
inti
Ron
Trak
çalışmıştır
uyan
köpek
##ikler
görüldü
atlet
kalit
Çam
Önce
olduktan
Inter
desteği
##yer
gazeteci
başvur
sürümü
Demokrat
##48
büt
doğmuştur
##par
##rest
Chic
geliştirilen
##muştu
Mary
Si
Tol
subay
##sul
##roid
##field
mir
##gur
Seb
##demir
Alaska
pdf
Malat
Im
başı
tablo
Kutsal
Victor
Pl
yam
köyünde
1925
arkasında
1932
şarkıyı
hayata
600
dedi
kaleme
komünist
boyutlu
##ğunda
tarihsel
#
buraya
ilişkili
istatistik
##üel
Çat
kısmen
meslek
Bankası
bina
tren
binası
##ılmasına
Mahkemesi
##gıt
Fa
Bre
Law
##ven
oluşturmaktadır
Jim
tehlike
1928
1914
öyk
birik
Büyükşehir
##isiz
ülkesi
1000
Gençler
Sı
Tes
olmasından
##iskop
##ls
##erg
##öyük
php
##avy
##rin
##irli
ölü
kitabında
sırt
insanları
##eview
Makedonya
gösterdiği
karşılan
##lular
tüf
##istler
Yugoslavya
978
##odoks
aspx
yakalan
cumhuriyet
##ebilmektedir
##eta
##ünc
##oğulları
muhtemelen
Daniel
Flor
hasar
sonuçları
##isip
vad
Will
ölümü
kaldığı
Williams
1917
##gon
dayanan
şekli
gördüğü
sıradan
kazanmış
Ep
artic
Bes
alınarak
Parkı
##kim
##dığını
##çileri
inf
Koz
çam
##ğünde
Meydan
olsun
programında
bulur
anlatır
kazanarak
kişilerin
doğrultusunda
##inn
##ette
Les
alıp
sayede
##iner
koz
##eytin
##ecilik
çeken
Donan
##aşır
padişah
yakınında
##cher
Ail
##kal
taraftar
Tro
uyum
tipik
82
lise
Video
##tainment
savaşın
layık
##49
##ball
fırlat
sığın
Ertesi
Sakarya
tanıştı
arazi
yenilg
rady
Raw
çalışmaktadır
ust
Çorum
hazırlanan
##ges
##sis
##uyucu
kurt
arkadaşları
Nas
Pub
bulunmaktaydı
##ılıyor
##ilendir
Baz
##ograp
gruplar
Ku
##likle
1915
Devrimi
detay
##ja
Cephesi
konumunda
maden
maçın
1974
##edikleri
##edek
Life
beden
sunucu
89
sent
##ón
##irken
Hon
Fried
##70
Vad
yeten
##luğa
artan
duruma
Sus
##isiklet
kampan
##itif
ayrılan
##adağ
fe
1926
kenar
##emedi
##TC
mi
nitelik
Gazetesi
##win
alana
ondan
tabanlı
Form
##ME
terimi
ettiğini
van
buğday
festival
Hab
Tev
â
karay
oğl
98
dü
##ute
##ılmasını
##ğer
his
küresel
gazetesi
##luğun
olmuştu
yörüng
edilerek
83
OS
##ansa
Kardeş
oranda
şimdi
bulunmamaktadır
##well
Pazar
orkest
kulüplerinde
vererek
##başkanlığı
##uck
ith
unut
sıfır
aşık
göçmen
ilişkileri
##án
büyüm
Company
##ua
##bar
##gn
US
News
kaya
turizm
##wa
Maria
Premi
vektör
##mini
Gelenek
##46
Ceza
akademik
ep
toplu
##vel
alma
meyve
yarışması
Türkler
sokak
duyurdu
##esh
Hy
Pen
tayin
sahipti
160
Münih
Nokia
düşen
mekaniz
rah
netic
Norman
araştırmacı
79
sığ
taşır
yumuş
Hastan
—
Organ
atmos
##row
Gençlik
##lemektedir
##unus
mevsim
1912
##mik
teşvik
Kraliyet
parçaları
Fe
##asız
servis
varlığı
sahiptir
değerli
başlayarak
Tut
##eleriyle
element
potansiyel
suik
bölgelerinde
Jer
Emin
##luğuna
##oma
fos
Yıldırım
Yaklaşık
Hum
Halil
tutul
rekabet
##şak
Champ
geçim
Resmi
delik
sayılabilir
Küb
füz
iP
ikiye
##ılmaya
gösteri
baraj
##iyen
1929
sürüldü
##siklop
çağır
kütüphan
meyv
buluş
köprü
Askeri
vermiş
Let
page
otomatik
sömür
Â
kaybed
##azz
fiz
çiçek
açılmıştır
ifad
Asker
gelerek
Havalimanı
toprakları
##lal
Mod
çağdaş
##ison
##ekreter
Koç
Fred
##IA
##ğinin
grafik
kuantum
Chicago
başladılar
zam
yetkil
##ake
sakin
Gab
Sec
tartışma
bulan
özerk
karanlık
##mede
arasından
Teş
##ilmişti
Prix
Brit
denet
döner
erkekler
bronz
ma
##ement
avan
doğa
süreci
çıkardığı
Yağ
dayanmaktadır
##mediği
Camb
##sta
sig
Evli
oldular
ayrıntı
dersleri
Çoğu
##ılmaz
##fe
Albert
Köpr
görünüm
Tekn
anıt
yürür
yükselen
##incan
ekonomi
bakış
peş
##imer
cüm
çocuğ
##abeth
Sing
##log
af
##esun
eskiden
##aker
iyon
İşçi
bölgesinin
Kanal
Nüfus
Başbakan
Indi
ölen
savaşa
Şarkının
Dük
SSCB
söylemiştir
##mud
savaşta
atmıştır
##ımlı
yel
##ahisar
Gil
projesi
##uki
sözleri
öngör
Ortodoks
öv
##rada
frekans
zorunlu
albümleri
##oya
önemli
Ram
Entertainment
istek
güçlendir
oyunculuk
Fas
Soy
##acaktı
EP
tatlı
başkanlık
##aması
##usunu
##cinsel
##eliğine
51
düğün
Rev
şarkıları
##abildi
ilişkiler
danışman
Erdoğan
##eyt
##şev
Öl
gösterime
tu
VII
Comp
##cer
##ayıcı
Cilt
akrab
##arlık
##edinci
teorisi
içermektedir
dizide
düzeyde
ayrılarak
Bad
Dok
nitelendir
je
250
olasılık
Milletvek
##ileş
olacağını
tit
Kosova
varlığını
birbirinden
Pir
por
##bilim
Mont
Royal
Alf
fen
etmekte
konferans
mük
bakan
kurgu
##ury
##barat
Buz
mag
Clar
##diğini
Çağı
##liğinden
bilm
oyuna
doktora
reh
darbe
demiryolu
memur
birini
blok
yapıt
mimari
Ebu
rivayet
Ses
##langıç
satan
itir
##iden
reaksiyon
##adet
Fizik
vermeye
uzunluğu
tanr
Zelanda
bulunması
##ülmüş
yüks
anı
##ept
dis
kanalında
içerik
##rev
Ra
##çilerin
kahverengi
yiyecek
##ned
##ktan
altıncı
yeme
aylık
imparatorluk
Pot
##tanın
##ets
kıya
terör
ayaklan
bileşen
üstlenmiştir
##mac
tabi
##ojen
kızıl
Had
yazıl
yav
##ıklı
tarihine
Mi
görsel
yapma
Çeşit
Örgüt
onunla
Laz
İnternet
felsefe
##adası
Berk
dayanır
##çesi
Kum
işg
kims
yağmur
800
müttefik
teknoloji
Afyon
anlatan
##üğü
kütl
işlemi
Belediyespor
##ault
Dik
Luc
kullanılması
##zim
tepki
SB
gelip
çalıştığı
ülkelerin
Matt
amatör
bulunmuş
pasaport
##kiye
##ournal
cemaat
manastır
##tris
Sib
haberi
##illiği
Sub
işe
##rası
##99
benims
kuyruk
##ct
askerî
valisi
##iste
Metal
##kaya
Green
mezunu
kelimesi
##uyan
gerilim
##tıktan
Grubun
şarkılar
##gs
IP
oksi
##omo
##ques
şansı
##uke
Oda
mutlak
sahneye
gereği
Erkekler
ard
##ardo
##MS
Giresun
cen
edu
Jones
rolünü
Kullan
sonsuz
Hil
işi
sip
##alarıyla
##oo
##onna
katılmış
##öyl
Dor
bez
takdir
Sanatlar
erişildi
##bil
Çık
devleti
##ria
cinayet
şarkısıyla
Üs
Güç
direniş
##ref
kimi
intihar
organize
##öly
ulaşan
cisim
##ladıktan
nih
sül
##ibe
Johan
şehrinin
##ubb
##mat
Aşk
Wat
hizmete
filminin
finalinde
getirilmiştir
##sia
görülebilir
1908
gayet
saniye
oyunları
resmen
şimdiki
avukat
viz
pey
tabl
görenekleri
##tra
Hun
##ado
iptal
deprem
yapılacak
Fr
##gir
buradan
1931
##dip
Fal
kolu
##lüğünde
##hr
Yerel
sistemin
##AS
kurak
restor
baskın
harekete
Dic
örneği
##arl
##kınma
olayı
##iğinde
belgesel
hoc
##apı
Fi
##ozof
Carl
görünür
hakimiyet
130
Lenin
Oscar
##tikten
posta
##nel
##oları
##ule
TÜ
Dub
istik
Mül
##hol
Sum
##izasyon
##sky
ted
anne
yansıt
Hik
Scott
müzikal
olayları
hepsi
AK
Sanayi
çekilmiştir
##likler
albümünün
başlay
karşıya
Karaman
Theod
aşiret
çeyrek
eb
acı
tanınır
getirmiştir
##uto
disip
hali
bayram
İmparatoru
Up
eleme
mahkem
kontrolü
Orman
çevrili
güçleri
hastalığı
Time
Aşağı
bağış
eğlence
##IS
Gol
##oung
evrim
Hayvan
çıkarak
açılış
güneyde
Hanedanı
familyasından
##tions
Nil
zih
yönde
olağan
zamana
Oli
Ca
Uç
Alb
Haw
yaşar
isimler
toz
dahi
##anus
##malarına
##mond
Yazı
##onlar
##ezer
##pool
dos
Stalin
bölgesel
##ğur
gücünü
sağlamaktadır
çözün
##con
Ten
korku
biçiminde
Brown
Univers
serisinin
kere
Afganistan
Şen
##gamber
komün
God
erdi
##cileri
Albümde
kuzeyde
kanser
öğrenim
Konservat
Um
Radyo
verimli
sosyalist
Ze
Hall
krist
gerekçesiyle
tavs
Hill
Yani
kavramı
Çeşitli
NAT
ertesi
Sanatçı
Live
##lüğüne
devir
tiyat
katman
Malatya
konuşma
Gerçek
kurban
bölgesine
##chi
##ümr
Lew
Lüb
Ga
##ilmesiyle
düzenlen
kelime
Anne
kıyas
##maların
##ety
##olo
##ubu
Club
gönderdi
fel
110
Way
##ografi
Kılıç
Federal
düşünür
##rüb
teker
kapsayan
##ES
silin
oyunda
kullanıldığı
mor
komutan
kariyerinde
otel
##şap
##atan
Çalış
##KK
nam
Jeff
Büyükel
komplek
É
Muhaf
format
dilleri
İskoçya
sek
##ındık
##luğunun
##ft
Toprak
Lar
Farsça
Cemiyeti
gösterilen
##zo
##ilmez
dosy
üste
ilham
##25
##zat
##AP
##iğeri
vergi
he
ikna
Altay
etkileri
##dae
takımıyla
Hırist
istediği
##lass
gıda
İlçenin
##uss
##usuna
Viet
Sayı
başlı
##asıt
Hein
isimleri
##olk
##latı
soru
kısalt
yürüttü
Komisyonu
##abi
##fan
##urta
mış
##pi
Dig
##ansiyon
VI
##rel
##omer
sanay
ölümüne
bilgileri
Out
ürünü
Yerleş
avantaj
1944
kadınların
##ito
##önü
##şar
term
##malara
Mahmut
##erse
##ografik
Mardin
Kendisi
roket
protokol
yarışma
kimya
muhalef
penc
alkol
bulmak
filmler
Pakistan
sf
geriye
kalabalık
##sand
olası
Trakya
yaparken
birbirlerine
##diz
imkân
binlerce
sonlarına
Tra
Yet
Tokyo
Eliz
Mass
duygu
dönüşüm
BM
##tıcı
Bra
port
getirir
listelerinde
Kars
##ıkları
coğrafi
##inger
Cambridge
şiddetli
Mağ
Reg
Night
##stem
kavuş
##usya
pul
mus
Olay
köpr
Kateg
akars
ittifak
##ude
harc
##Id
Nar
1913
gemisi
Önc
Motor
risk
Kitab
açıkça
besteci
Anti
##tıkları
kadrosunda
verilmektedir
Niş
yasa
başlattı
yoğunluğu
ilerleyen
##TÜ
##ps
go
filmleri
##onik
##uar
##emmel
Mars
Champion
##work
Klasik
zincir
oluşmuştur
##53
##AL
##pen
Doc
denen
##veti
toplama
tarihten
kaybetmiştir
kitl
Körfezi
ismiyle
kullanılmaya
Televizyon
yaşta
Philip
vs
##mekle
tarihinden
##ğıt
mecl
nötr
kadrosuna
##rut
##grad
Ein
pozitif
##ture
##akları
Premier
##çiliği
alınır
atış
ulaşmıştır
177
statüs
tasvir
##SCO
stil
##edral
##tanı
Gem
Nin
cer
neticesinde
##AM
##oment
##zet
Gön
Kütüphan
##iyesi
##ozgat
Kamp
Helen
bağlam
eşcinsel
Üniversite
Kork
Kont
##ayn
##TP
topraklarına
sözü
askerleri
Nam
geçiren
##clop
Tav
laborat
edebilir
Hırvatistan
How
bestel
geldiğinde
##oza
##ship
sosy
değişen
atarak
mekanik
Başlangıç
Riv
maliyet
##oke
##akar
olmay
UNE
##feder
Rusça
dokun
Hizmet
değin
aktris
grupta
Bağımsız
sundu
Dair
kesi
Bağdat
puanla
çekirde
##okrat
Artvin
canlandırdığı
yansı
anılır
Ağır
Mans
Rize
jüri
yaban
140
Hast
##ülmesi
bunlardan
Pil
Halep
tecrüb
Friedrich
etmişlerdir
Tib
bec
önderliğinde
##23
##liga
Gor
mater
##tikçe
general
gelişmeler
##eneral
buhar
##cess
##imde
fikr
##leşt
Rick
##anlığına
içinden
mitoloj
sıkı
##eyerek
yarışmada
kıyafet
##hak
##dılar
türünde
antrenör
Şiir
##ünce
gül
Ateş
Holly
liber
geomet
##lıktan
keşif
girmiş
yapımcısı
yayımlan
vez
ölçüm
Pierre
çarpış
ayrılmış
Wood
İktis
Yozgat
sağlan
değiştirildi
gerekmektedir
Dede
böcek
ağız
sınav
bulunuyordu
##iliğini
Kongresi
tıb
##lot
geçtiği
Mahmud
maddesi
##şk
kopya
sürdürmektedir
##üye
oradan
partinin
##ovan
Beh
evine
toplanan
üyeliği
NATO
Temel
yargı
ülkeye
kentin
sunuldu
Ni
Soğ
Steph
Kanunu
Bül
Muğ
Turg
kaçın
hizmeti
##atür
##cası
ufak
girdiği
Pic
belirtmiştir
yayımlanmıştır
London
Ki
Harp
##41
Cezay
uygulaması
Sof
Hakk
forvet
Devletler
verilerine
İspanyolca
Kızılder
##ield
##iral
Arch
saygı
Yüzyıl
##die
olmayı
##çısı
*
girerek
imzalam
sistemine
Aslan
lerdir
belirlenmiştir
Maz
##ces
yem
Kenn
##öylelikle
Hürriyet
##uzu
biçimi
kümesi
sahnelen
Nih
Tapın
çıkarılan
##içi
##ator
Tatar
Koleji
yüzyıldan
1900
UNESCO
##opa
şeyi
uk
ayrım
taşıy
Gold
işleri
Ülkenin
Ars
od
usul
kişiye
klibi
Amasya
alanlarında
çerçevesinde
doğuda
Madonna
Kırk
karşıtı
Alexander
Şer
maddi
Bolşev
yerleri
##AF
##eğin
lük
##right
bozul
mesafede
süreçte
dışına
##müştü
başlangıçta
kriz
##usunun
School
##eman
##embe
seçilmiş
##nar
dö
kuv
çak
İşlet
polit
bayrak
Win
##ılıyordu
sayımına
##26
ortalarında
##rick
eğilim
şirketin
Who
Zir
Bakü
ürünler
kurulması
Meg
##roman
Cast
Şek
suikast
oluştuğu
özellikler
##ozom
Bru
Meş
Camp
##ull
MTV
ödüllendir
##âm
##ifer
terfi
##FC
Biy
gide
noktada
Cy
Vietnam
yaşanmaktadır
Uşak
##lamaları
Keş
Musa
##CD
tarif
kira
Elizabeth
bağımsızlık
Nes
Dolay
Sicilya
yürüyüş
taşımaktadır
bağımsızlığını
lan
Eyaleti
##ysa
Şeri
ahşap
golle
denetim
senarist
görevinde
##cyclop
üstüne
Ott
Rog
lez
veda
ilinde
##amuk
##lemiş
deng
dizisinin
sıraya
evliliğ
yargılan
geliştirme
öncü
Hatta
##amıştır
1910
fayd
Bundes
kullanmak
akşam
##ody
Fox
Ruh
Hans
Stre
misaf
Ky
CHP
meclis
But
ini
##nun
Oh
elen
##general
mülk
anlaşmaz
##oman
gelişen
voleybol
Nüfusu
Temsil
sözcüğü
Young
Hersek
batıda
##ekreteri
kariyeri
açıklamıştır
##ree
devamı
sisteminde
##dirler
##malarda
sorunları
oluşturmak
Anna
izlen
uzaklığı
yüksekliği
##enti
vil
##kate
filozof
Fel
takımları
şiş
besin
tasarımı
##uzur
hır
Eyalet
##able
##siniz
evde
Kendi
fırsat
bireysel
İçişleri
Colle
miktarı
borç
Litvanya
ülkeleri
##90
imal
kalıcı
Nak
Vel
köl
ydu
Balt
olun
Manastır
##çağ
kıv
##emeyen
söylenir
##helm
Rak
etkisiyle
AC
gruptan
rolüyle
Küba
krom
##mes
##oli
##otlar
Grammy
hikâye
bilinmemektedir
##ahi
fonksiyonu
kül
Yavuz
arşiv
Journal
yaralan
uygulanan
##56
kurmuş
Şili
İbn
bebek
Aslında
uygulamaları
gerçekleştirdi
##agan
NA
##ürken
verilmiş
##gia
##abat
Cev
kaplı
Kafkas
Arabistan
##raft
onar
Birkaç
düzenlendi
##bor
kutup
siyasal
animasyon
kurmuştur
öğrenimini
##âl
##tek
##ated
nis
Çank
Görev
diğeri
##soy
##je
Salih
Birlik
##niyet
Dest
vize
Annesi
##inda
##alyası
Bolu
Android
gelindi
cinsiyet
kariyerinin
köt
Selanik
log
virüs
##soci
Hip
##ebilmek
olursa
grupları
div
genetik
Dünyanın
q
##rov
hâl
Suudi
davul
görmüştür
bakter
isteği
Ayr
sorunu
##epe
Harv
bırakıldı
gelişme
##inen
yoğunlaş
Sinop
penaltı
##chen
##lamalar
Elektrik
##atlı
eserinde
Romalı
gönüllü
700
Lord
mobil
defned
yarışı
yedinci
##tedir
hidrojen
deri
spons
Ansiklop
##lileri
Liver
yeter
##ılma
170
akın
Kategori
formasıyla
üstlendiği
81
küme
kullanmıştır
##oid
##tığını
bilinç
PC
katılır
Dec
dövüş
düşer
Topluluğu
##anıp
vit
riba
mısır
markası
Yönetmen
ilçesinin
uzaklaştır
##jder
Yür
Turnuv
sevgil
cad
##ister
elip
##book
atmosfer
koydu
##uluğunu
rüzgar
kolayca
up
##ektaş
dikkate
donanım
yüzyıla
beyin
rengi
##karahisar
ilişkisi
döneminin
alanlar
##ılaş
North
yanıt
Öğret
olmasının
##28
##arth
Nij
yuvar
kaybeden
buzul
##del
61
Rah
Ford
##dün
Kırmızı
macer
Karadağ
##în
Ulu
kimlik
sınırı
değişir
Ner
Evren
sertif
##sus
Yakın
malzeme
##ispor
sonuçlar
tutar
İmparatorluk
Murad
kadının
Hıristiyan
gösterilir
süv
arama
optik
uğrat
bunları
Lübnan
article
akademisyen
94
konak
Leg
1911
Halen
topr
yedek
##27
Vi
##anlığın
##ülmektedir
türb
##lash
Bilgi
##ayeti
İbran
Şey
Spe
##ville
Ortak
milli
şehre
göğ
sadrazam
By
##tive
##dad
71
hur
dönemine
tamamlan
getirdiği
##mişte
müze
Sayfa
Hükümet
Şehirde
bölgeleri
Wrest
çocuklar
bağlantısı
prodüktör
##şe
Ülke
belirtir
gelindiğinde
##iliğe
Hard
##DE
yumuşak
prop
Sok
Baraj
Group
caz
editör
mesafe
soruştur
##ents
skor
koordinat
##ecep
Bus
##sızın
alınması
##21
getirilen
oluşturul
##esti
maçları
##yona
Que
azın
yurtd
Sinema
gökada
##elin
eklen
ediyordu
yolları
Sas
açıklama
iyileştir
##şah
##makam
Filip
Taylor
aldılar
##ista
blog
gözük
Caddesi
gelmesi
boşan
haric
temas
Öğren
Yahudiler
dikkatini
Mis
##ecekte
kalıp
insanı
Ever
başkanlığını
geliştirilmiş
##odi
Ayak
mükemmel
giymiştir
Muğla
nişan
Europe
##osunda
Hareket
Liverpool
olduklarını
değişiklikler
Steve
Kolomb
PKK
filmlerinde
##mad
intik
verim
otobüs
rakibi
olacağı
Okyanusu
tör
Jane
Kub
eng
görmüş
##low
ında
##ediler
Coğraf
Sistemi
incelem
askerler
##gie
kasaba
İh
Vlad
Lewis
Marks
Hollywood
##maraş
Kafkasya
görevlisi
şarkısını
##kö
Att
bağır
Kilis
farkı
Ez
Wolf
olanlar
tarihçi
##iğine
Mezarlığı
##ındır
uçağı
zamanlı
Bud
Anth
##SK
##oban
Çayı
Simp
veril
##36
Pi
Işık
çıkması
Ye
neg
##lukta
gazetesinde
##ebr
Kant
sanatçının
Lef
hane
Wilhelm
ortamda
Vas
görevli
güvenli
işbirliği
Kahramanmaraş
onlar
##osa
##oann
Bost
endiş
pişir
çalın
Sn
Brian
ettikleri
yapımcılığını
düzelt
tarafı
yönetilen
##ose
##ğimiz
Leh
icra
kayde
yıldızı
Ern
yle
Mahallesi
##ebb
Rey
deneyim
Hükümeti
saldırıya
sıkıntı
##reş
eşy
yenilik
##ily
##sit
##ışta
Hur
Johnson
##gor
Ağr
##heim
kemik
alacak
##cal
suyun
madaly
özelliklerini
107
hazırladığı
pu
Kev
Lyn
Tunç
özet
Burs
yolculuk
##ikol
Flori
piyano
ülkeden
direkt
firması
Christian
qu
##ohum
Sand
##rib
muk
Arda
ikil
üstü
Cezayir
##ezid
Kanun
Associ
##obi
Erken
Ru
Stat
Sant
##pazarı
türet
etmeyi
Erzincan
olmalıdır
ima
##jinal
1916
yangın
Encyclop
##âzı
Tony
sesi
oynamaya
gri
yumurt
bölümleri
Joe
Jor
Slav
##sp
HD
##amaya
##guay
hom
gönderilen
##dim
##işik
##wig
hel
Robin
Stephen
bölgeyi
gerçekten
##yu
Maur
denize
hop
High
##mekten
gereksin
yarışmaya
İtalyanca
##laj
gövde
##eliğinde
Yapım
zamanı
konuşan
##his
##sini
lok
bugüne
Tech
Ünlü
##ahan
##ikip
eksen
sürgün
##use
##sinin
bacak
olmaması
Yardımcısı
Polis
denem
tanımlanır
Dolayısıyla
##üğün
naz
çıkıp
ölçek
uyumlu
Anayasa
oranında
çalışırken
kuran
yarısı
Michigan
##yurt
far
büyükel
##37
##omp
##atur
##ifik
vah
Siyasal
deplasman
##illeri
Francisco
Reich
kâğıt
muhalif
etkileşim
kurulduğu
Batman
Karaca
düzlem
##abey
Dun
olmaz
saldırısı
büyüy
County
##şten
Sig
yeğ
yur
birinde
yumurta
##ekler
Shak
##uşturucu
moda
cezası
kristal
dönemlerinde
Fik
Öte
Toplum
iletken
##PS
##adel
küç
Cart
Good
çelik
CE
##ando
Yel
CO
##ektif
merkezinin
yükselmiştir
Cin
kitapları
Kaç
zek
College
Sün
Marc
aşkın
##feransı
Denizli
olurlar
Saat
kilere
negatif
»
##cilerin
hassas
sürmüştür
yapay
alanına
Buda
Ekonomik
##ğrul
fakült
kitapta
Avrupalı
tüc
cent
kendisinden
türk
##raj
##iskopos
istasyonu
sitesinde
gur
geril
##lukları
ikamet
başbakan
tamamlayan
176
huzur
sanatı
##madığını
##oul
##rok
##unes
üzüm
çekici
dağıtım
direktörü
Dizi
İslâ
##38
##unç
moment
yapması
bölgesinden
Festival
FA
İlet
müdah
Columb
Takımı
uzaklaş
konularda
##iyorum
elektro
kömür
kaptan
eyaletinin
##âtı
Yurt
redde
açmıştır
büyüklük
Ces
Inc
buy
hücum
yazma
haricinde
##avuş
Ath
algıl
belirlen
##dum
East
Yalnız
Lak
tüken
kaleci
Holding
gerektiği
##aro
avcı
Amatör
yerden
##ér
́
mağaz
yaşamı
yapılar
##ual
kitabın
topraklarında
Rumeli
sürecinde
prof
bulunmakta
Kh
Sep
yerleşik
Osmanlılar
faaliyetleri
##duk
boya
Hitit
Saldır
olmaları
Bundesliga
soruml
yaratı
Savaşları
«
##cho
##itter
birç
deneysel
altyapısında
##işli
Voleybol
##97
##osh
1905
manz
##cektir
Teşkil
bilinmeyen
##usa
Blo
##çılar
##ingham
Simon
South
##tikleri
köyleri
senaryo
McC
baba
Başka
Orkest
Einstein
168
Kamu
Carol
Tunus
iyice
Şahin
Marie
Swift
ihtiyacı
Hastanesi
santr
seçimi
sözcüğ
önlemek
##yl
Polit
teklifi
sistemini
##lılı
1909
Tip
olurken
PS
Abbas
pratik
tutuklandı
Yolu
doku
millet
yöneticisi
zaten
##gâh
##ingen
algorit
Endon
zemin
Cav
Por
uğradı
takımdan
##aft
Vit
üreticisi
##35
dava
İmam
Filmde
Yahudilerin
ülkelerinde
Uğur
yaşına
Tif
sürük
Örgütü
boyunda
Kalkınma
Ağrı
send
##arn
##yanı
Hap
kus
lev
parmak
bisiklet
isimlendir
##ED
klav
belde
Çarş
isminin
başarmıştır
##ross
Ash
Çukur
Örnek
Prusya
##rü
##acını
Cemal
Abdülham
##dent
yıldan
Tri
yazında
seçimlerde
bon
Uygul
Şehri
Seferi
yazmaya
enerjisi
##akal
üreten
Güneydoğu
kesiminde
Kazakistan
düzenlediği
üçlü
hipot
tanıtım
Moz
taraftan
tasarlanmış
##ET
##ume
##stri
yerler
açar
rejim
katliam
kazanır
müdahal
Apol
Atlet
Wes
topu
Özbek
önceleri
##nin
##engiz
yapıya
olduğunda
##istic
Bang
Instit
bant
mali
sayısının
Kâ
##kent
Cro
##ğiyle
Metin
cephe
yavru
misafir
##kes
Koc
Rem
tüzel
kariyerini
##ragon
##ble
##diye
##obile
##simum
dişi
sayılır
##tak
işler
##iser
izleyic
kuvveti
kategorisinde
##olas
karşıt
makine
referans
Samsunspor
##ende
rep
kurmak
salonu
Yapılan
##resi
Feth
Turgut
Yarımadası
125
Boston
İzlanda
Türkçeye
tamamlamıştır
Reş
esk
vasıt
bölümden
##antik
Yaşam
anlaşıl
##St
91
##abir
kaynaklar
kok
Kaya
kişiden
hasta
yönetici
ağz
##bahar
yolc
Recep
mağlub
ray
müşter
yerleşen
annesinin
gelecekte
Köl
##irmen
Team
ente
betim
tuttu
istediğini
müt
kontr
bilimi
##edy
Kazan
redded
bağlant
tarzında
yetişkin
Tac
açan
Geleneksel
geride
üyelerinin
##AC
##ardi
##elly
kimse
Rıza
formül
okulda
sıralan
##IN
kurş
kamera
listede
zamanın
yaşamıştır
şampiyonluğunu
##po
Tu
İnş
Onur
Michel
tarihe
sebeple
giymektedir
volkan
ağı
Florida
seyirci
##tuk
wh
ris
gecik
materyal
Laur
Eg
##yonu
tutum
yazan
Barcel
karşılaştı
Çar
adamları
hâlâ
şeri
Çelik
Hop
derecesi
semtinde
enfeksiyon
##teki
Villa
şarap
yolunda
diğerleri
programları
##GB
belki
dergisinde
##ão
fa
Felsef
yürürlüğe
##rie
okyan
Charlie
157
Vah
Turizm
##romanyetik
asla
##memesi
haftasında
kullanmaktadır
##tro
püs
oynay
##ikipedia
Sonunda
##act
Hız
sürer
önlem
muhtar
istil
Türkleri
özgürlük
yapımında
##lace
mutf
kırsal
ziyade
kaynaklarda
İoann
Arslan
aşamasında
##ümcek
Land
güzellik
Gez
##peten
##sburg
1878
Zong
Franç
parçalar
Us
öden
haftada
sahiptirler
##sına
dünyasında
##ıplak
tenis
personel
etek
##amadığı
Müttefik
Kahire
farklıdır
##iğe
müh
ilginç
##lins
Eth
Üzer
stabil
oyunlar
##ento
##mağı
Müf
örn
amel
görevde
Barcelona
##95
##tılar
tutan
Arthur
ayakta
çalışmak
bulmuştur
DS
eleman
##melerini
Kırık
Siyah
Pey
grubuna
Dizinin
devamlı
çalışmış
##vis
çektiği
matematiksel
##ea
spekt
eleştiriler
kuvvetlerinin
Gaga
##iliğine
Günümüz
kalıntıları
Kocaeli
Başlangıçta
Las
##iyeli
White
Kayı
doğur
sunul
##ador
Sky
fesh
enstr
fikri
Meslek
Bölgede
yakalam
kurgusal
eve
##uldak
##esince
ideal
ikincisi
iktis
##lığından
gitarist
yukarıda
antlaş
Santa
Vadisi
##melerine
Estonya
Bec
Pep
hizmetleri
Süm
Best
##xt
Koy
Liz
soğut
demiştir
##zen
bırakarak
##gion
Ziya
müdürü
sandal
Kop
##opter
ayırt
Alfred
eliptik
karşılığı
##tın
yuv
1964
Sezar
Araç
##ıldığını
değiştirdi
##ston
çif
Elec
##lerken
yendi
Türkçede
örnekleri
ihrac
bi
##iğinin
sıkça
Zonguldak
Faz
Fah
Stone
akıllı
görevden
##bab
##mamak
Emre
##cin
bakır
oynamış
bırakmıştır
kullanılmış
##abeyi
##ılacak
teorik
Enerj
Napolyon
fet
##ıktan
birine
Yönetimi
grubunda
##22
##ânı
pah
Ri
##enko
adres
##acağına
plastik
##96
Bayan
##lé
Dead
motoru
##lendirme
sonlandır
sec
##eğine
##izmin
Serbest
seviyede
##try
len
2020
Günü
##kurmay
Bazen
oksijen
TL
166
Chap
Conn
aran
Society
gerekse
saltan
Kraliçe
bağlayan
belirsiz
##emişti
Bülent
Arke
etken
kamer
##imir
organik
açıklamada
##mus
kökeni
Pasifik
biyolojik
olabileceği
ka
Dim
Fot
Game
Kupa
kare
Hann
Kartal
maddenin
Türklerin
Şampiyonluğu
##nat
##istor
Bilgiler
Beat
Bing
kılıç
sorunlar
yazıları
hayatının
fas
##etleri
sattı
Ekonomi
yal
Yapı
edici
SC
##niği
krizi
arayüz
##atın
##das
Öy
Tuna
şüph
piyade
yollar
tanımlar
##ump
##gini
kullanmaya
fazl
##leşmiş
Saman
devral
Öğretmen
uyuşturucu
##etler
ülkeyi
sayıları
insanlara
tanımlamak
destekleyen
yaparlar
diplomatik
##BS
##sın
Maj
kupa
Linux
gidip
rakib
taşıma
öldürür
öğretmeni
##iyum
##ığ
##özü
Mike
fant
işken
##alisyon
düzeyinde
##omi
col
Mavi
##luklar
elveriş
Sabah
Teksas
reddetti
takımını
turnuvada
##RK
##ović
Hart
Zeyn
Arist
aralı
varol
Open
Nijer
Pınar
Newton
mantık
Kuv
Bayb
işgali
##irya
146
Nick
düşüş
trafik
##ox
XV
##bury
Gun
katk
Seçim
halif
Yabancı
sıkıştır
niteliğinde
##amamış
Hazar
şeyler
Championship
Online
imha
önemi
diyerek
etmişti
index
görünen
stratejik
Olym
anlaşması
yaygındır
Spr
##gâr
##oker
Yat
İslâm
ülkesinde
GS
115
ade
Berg
Artık
koyun
Doctor
hakkını
başlayıp
##itch
Schw
plana
Antonio
bı
##ağaç
##gücü
Rep
Mihail
keskin
kişiyi
vurgul
##aci
Arm
##cinin
Brad
Liga
ömür
Smack
yalan
maçını
durumuna
olağanüstü
mı
Andrew
bölgeler
##trop
Tas
sos
##ramanı
benzeyen
AS
Hu
Boş
Oct
kura
İnan
disiplin
döneminden
hareketleri
##üntü
galip
püskür
##poration
##ej
..
...
Kong
liste
nüfusa
güvenilir
numaradan
1907
Palm
aleyh
maddeler
105
elb
cezalandır
##esse
sponsor
mağlubiyet
##alp
Die
Doğal
##ağından
dönmüştür
miz
tün
##uluğa
güne
defans
yoksul
bellek
##iyye
##andan
Genelde
kemerini
##kesi
makale
getirmek
cumhurbaşkanı
##DA
##gız
##kun
Hid
hakem
Simpson
etkiler
izleyen
başarıyla
kenarında
##agog
##ersey
bahset
Orijinal
hayvanlar
##furt
Ras
##lıkta
Çevre
155
sef
Vers
mini
##ikatür
merceksi
başkanlığında
175
Sınıf
medres
Formula
##bank
##lini
Cul
koç
Hamb
araba
filmlerde
##ally
156
sekizinci
nispeten
öğrencileri
Göç
Endonezya
Cre
##ledik
peyn
##onyalı
marka
araçları
politika
ti
##levi
##ışında
kulak
Dör
tatil
Lud
Dost
ocak
suçlu
Center
dağılımı
haftalık
Ansiklopedisi
##85
İlişk
gençlik
bildirdi
protesto
alışveriş
değerleri
psikolojik
##sche
Key
Sid
alıcı
eyaleti
kör
almakta
Fark
Rot
##dıran
kurb
kabuk
##mediğini
şaşır
yayınladığı
okur
Fırat
Hakan
##mm
Wi
lit
Walter
teklisi
ordusunu
Mühendisliği
##apur
##ğımız
savunan
Hareketi
günlerde
topluluğu
##amba
Yerli
soylu
Oyunun
##öğ
Vek
Chel
vermesi
Bursaspor
kararlaştır
Hikâ
göze
mağar
geçirmek
arı
##eller
##odyum
radikal
Bilgisay
Matematik
975
taz
Timur
Anayas
Gazete
çözünür
##etteb
uyarı
geldiğini
çocukların
##32
Od
sup
##iness
Şanlı
sürdüren
Arsen
Jacques
##gele
Pay
##yaman
Kütüphanesi
##ekom
##üsünü
Galler
alanın
atıldı
kulübün
kolaylaştır
##izmi
ilki
planı
başından
numarası
Gece
inter
Kırgız
İoannis
Konferansı
##işe
##shire
hata
Dream
saptan
dergisinin
çıkmaktadır
##üphane
tanındı
##ezir
##köprü
bulgu
kapsar
##azığ
##amanın
dönüm
rastlan
çıkmaya
##efi
çöl
House
Harris
konut
büyüdü
torunu
yönetti
AP
##lıyor
okuma
Disney
tamamlandı
##ulus
İng
##86
Psik
olimp
bunlara
görevlerinde
##eğe
Bod
Dili
Para
kaydı
parçalan
##cast
Corn
görmek
François
bulunuyor
imzalanan
##itar
Napoli
intikam
müdahale
oyuncuları
tahrip
bölümün
verdiler
Ly
köle
yarışmasında
##ouch
Bet
##kins
Kök
Veli
simg
Kevin
Elazığ
Kongre
##malarının
görevleri
Eric
##olution
bayrağı
gerçekleşmiştir
##gaz
Pav
##ittle
tıbbi
Sloven
istihbarat
##îler
Arena
çikol
çel
Space
Yaşar
##ebileceği
başlamıştı
##bc
ilerlem
ordunun
SA
tok
Victoria
##estan
Malta
biten
keşfet
olayların
verilmesi
106
Nan
otuz
komuta
bestelen
##cül
##lılığı
altyapı
kullanı
##leşmesi
Donanması
##lilerin
paramet
tanımlanan
Köprüsü
seslendirilen
Gençlerbirliği
##92
##ılış
##oslov
mevk
##aganda
##orbası
eserin
atanmıştır
##çın
1924
##asyonlar
konumda
çevresi
karayolu
toplumun
laboratuvar
Bran
köşe
yakından
düşmüştür
Konservatuvarı
##elop
##küdar
civar
döneme
canlandırdı
##bal
keç
periy
German
Genelkurmay
Orada
##asyonal
hisset
yıllara
Hong
olgun
System
Bolşevik
hazırladı
##eum
Vali
doğduğu
topluluğ
yaşamaya
##enh
kont
kilit
Ailesi
Belgrad
Mr
##lobal
emri
slog
açığa
tırman
sezonunu
rütbesine
yenilgiye
ur
Hep
Asur
alay
yüklü
söyley
maksimum
hükümdarı
katılmaya
sistemler
##alım
165
Kle
##ebilmesi
konuşulan
geliştirdi
tasarlanmıştır
Yok
deyiş
##ilirken
Tiflis
gitmek
Üsküdar
İletişim
eşliğinde
arkeolojik
##dia
##pir
Zen
kaza
çekmiştir
##bu
##tle
müf
mermer
mercekli
##şan
##caya
Rio
laz
##iliğin
Hatay
atılan
bileşik
Nuri
Bryan
Hamil
ligin
otorit
topladı
kuzeybatısında
Det
zeytin
katılma
yazarlar
etiketiyle
##kov
eklem
etkisini
olmasıyla
oluşturulmuştur
Sony
##inus
##ihanna
politikası
Cey
##eciler
##eyecek
dondur
haklarını
İlköğretim
Corporation
##üvey
anlatı
yarattığı
Kiş
pik
belirlenen
bizzat
##hard
1906
belirlemek
Nah
Peru
Dairesi
##çü
filme
yamaç
açtığı
politikacı
##rog
Jay
XI
Erc
reng
inanc
olmasa
##ses
Long
##iliyor
Atlas
Celal
##liğiyle
akarsu
tekniği
##mund
Bed
##ampir
##biye
Rab
kahv
tüfek
Afyonkarahisar
##hem
mesle
Kariyer
Bölgesel
##sever
Elâzı
rezer
##laşmış
Albay
ihtimal
Küre
State
yapının
##üyü
##artesi
özelliğini
uygulamalar
##has
##ste
##gili
1896
Böyle
Tasar
cerrah
baskısı
yüzlerce
hızlandır
##opot
Milano
anlaştı
Komutanı
AR
Darb
Kale
Adnan
Opera
sentez
sonuçlandı
iv
Nit
est
kılı
Elâzığ
idaresi
##yas
KK
boyun
yaptıktan
Kadık
Radio
Under
korudu
başvuru
sunulan
vatandaşı
##ode
Lam
##athan
futbola
turnuva
muhalefet
##afak
gerçe
##iğinden
Hikmet
gittiği
aldıktan
##aven
Tuz
Hakkı
hazırlan
bölümünün
dayanarak
##ople
rev
donat
Normal
Rihanna
hapishan
radyasyon
düzenlenmiştir
Cur
yara
Çekoslov
sıralarda
##EC
##iyse
Guy
sir
çeşidi
Chi
##sının
Rand
Milan
Bilimleri
Romalılar
##LA
Cum
Jam
Hoca
Carlos
görece
yazısı
elinden
geçmesi
Şirketi
yeterince
##idae
Kartaca
Network
sözleşmesi
##emiz
Num
Dark
Bakır
Yunus
vuruş
Meydanı
##oon
##ages
##oçent
1500
müst
takib
Konfeder
##feri
anısına
imzalan
Adıyaman
ilgisini
Ley
şeyin
finali
başbakanı
Şev
görünüş
seçenek
belirtilen
##oba
eğitimine
oyuncunun
##teg
Got
Allen
alçak
Haydar
açıklanmıştır
##98
##göz
##sea
XX
##omut
Karşıy
Panzer
##ilmesinden
Edebiyatı
şarkısının
kuzeydoğusunda
Tot
döş
Boğazı
başlığı
oluşmuş
sürülmüştür
##lig
Len
iOS
Azeri
Broad
Kadıköy
ifadesi
Heinrich
Parlamentosu
arpa
Princ
tüp
Mücad
ağırlığı
##yem
##erin
kanı
kemeri
sayılan
çıkarıldı
Sonrasında
sam
##diven
##övaly
ölür
İpek
niyet
dernek
yaşamak
bombardım
öm
RNA
hekt
##ılmıştı
gerekti
kapasiteli
bağlanmıştır
##gio
me
Hin
Tir
pist
açıklar
history
##eva
##aham
konumu
Hamburg
serinin
düşünülen
şarkıcısı
barındıran
Amb
Özgün
çeker
ışığın
katılmak
Başbakanı
##aks
##tım
miras
takma
memnun
Karabük
##ía
##uka
##atlar
1890
##bel
hikâyesi
başlangıc
##EL
##itleri
##RL
##its
yy
##ance
##memek
##ıklar
dağın
helik
##leştirme
sağlanır
mühendislik
Tos
##terek
##üsünde
Nikol
Lisans
aileden
##ebilirler
senaryosunu
şö
ılım
Finali
turnuvaya
öncelikle
##ömlek
rahip
Çerkes
çatışma
Atletizm
seviyesi
Gur
havz
Model
İdari
Miller
peygamber
new
tuş
1877
Aile
Müdürü
adları
bitiren
düzenledi
Ceb
aygıt
ribaund
saldırgan
Britanyalı
##ido
Akç
fayda
istis
ilkokul
##hep
Cry
und
##iciler
##ülerek
şirketinin
##odu
obj
sermay
Mektebi
mahkeme
##ropol
Fern
Step
öyle
turist
şarkıyla
End
Gay
herk
##otball
ayının
##amo
##evre
Kaptan
Association
Mun
Your
Kolej
dosya
Mirası
adıdır
bilgisi
vilayet
##lag
##ümrük
Özerk
Şanlıur
beklenen
##ras
anayas
savaşçı
yapmayı
##amaktadır
##als
Miz
##dırma
verme
yönlü
yolunu
krallık
bakıldığında
Bush
Dram
##ky
##kân
##atörü
##lamada
toplant
##mec
Juan
hasıl
Dönemi
Eleştir
oğulları
Girit
ekmek
dersler
Karşıyaka
gerçekleşir
sunulmuştur
Jr
##enli
Dah
temin
İlçesi
yazılar
öğrenir
birbirleriyle
güneybatısında
##tz
##name
Samuel
##âs
##gah
Bag
##urken
Hand
##aalanı
alıyor
kritik
Muhafız
yardımı
göstermek
Niz
##abildiği
belirtilmiştir
##zım
Sap
boru
lige
yemeği
##enos
##ılıdır
duyar
him
Ertu
tarafta
##emb
ucunda
Horasan
##adıklarını
süresince
alırken
Cih
gey
hus
kini
Venez
kadem
soyut
yeteneği
geçirmiştir
Rub
eklendi
güv
Wilson
maçlarını
##leştirilmiş
That
##olitik
Kilise
Gh
900
kin
ceviz
##Station
döndür
konsol
ا
tff
yazıldı
sayısını
uygulamaya
##org
##holm
##omon
Zür
Jenn
Futbola
demokratik
Adan
Endü
sipar
töreni
çıkarmıştır
##idin
Mul
Soğuk
sahte
sanal
futbolu
Şampiyonu
128
sayıl
sütun
planda
Projesi
yanlısı
##ré
üçünc
turunda
kısmının
##edim
Gog
ring
Street
##ilmesinin
sınırında
mitolojisinde
Bahç
masa
doğmuş
##ememiştir
verilebilir
##awa
##peri
tohum
##bür
##ania
Greg
Başar
Kuşat
sebze
aktivit
yayınlanmış
##ough
Bulut
dilde
Emek
Sami
imkan
sektöründe
Zer
Fabrik
##imo
Korum
görüleb
elverişli
Kid
atöly
ilave
yerçek
Science
PlayStation
##Down
varsa
sürmektedir
##likten
taleb
pencer
partisi
Aleksand
basketbolcu
î
yüzü
karın
sırayı
yapıda
##ladıkları
karşısına
##leb
##oter
##darma
boğaz
kraliyet
mühendisliği
147
Müst
ihan
Jersey
##maktan
akımı
buluntu
##unum
Power
yazarın
Hic
organı
yeraltı
ortalaması
##odin
##Tunes
Light
##ography
Christop
çet
Şük
##eland
##roları
Melik
Türkçesi
başarısını
gelişmiştir
Song
tanık
olayın
aydınlat
kaldırıldı
##zu
yazın
öldüğü
##malarında
##jan
Ry
Henri
ulaşır
federal
mineral
müretteb
rastlanır
ilişkilendir
güneydoğusunda
Kasab
##uspor
Marg
Trip
Yedi
tepe
halini
##eto
##uther
Dokuz
yatak
sürülen
SmackDown
##maktadırlar
##ensi
şik
##içesi
işleme
kurumu
saldırdı
ucuz
umut
Turan
tamir
yuvarlak
yerleşmiş
##abe
Grek
rekoru
gittikçe
##amya
verg
cinsi
sancak
yayına
coğrafya
soyundan
##39
##EN
Anıt
bran
öldürdü
##ümlü
Vinc
Gürcüce
aksiyon
Dördüncü
Great
Krist
Little
yerleşmiştir
olabileceğini
##ider
Che
faydalan
çalışmalarında
##oi
##evk
iskel
memlek
ulaştır
ödülüne
##graf
##ımın
yayl
Cengiz
Harvard
oynandı
anlaşılmaktadır
##OR
Kaş
Ric
sik
Tekir
##ning
Tuğ
eğr
Stock
haberler
desteğini
##gazi
haps
beslenir
doğrusal
evrensel
##DF
sans
gelin
Çetin
Maliye
##agen
Kuz
kompoz
durumun
etmesini
##cuk
CN
takdirde
##KP
##ıh
##hid
1880
kırık
ibaret
Dog
mutlu
büyüme
alırlar
Bot
##arktik
hekim
duygusal
finansal
İstatistik
tık
hayır
çekimi
açıklan
oluşturmuştur
sön
Ders
Chelsea
ec
Köln
çalgı
##melerin
güneydoğu
verdikleri
elektromanyetik
##29
##IT
##ıdır
Tig
hedefi
öncelik
Hir
bakanı
dönerek
öğrendi
gelişimi
sürdürmüştür
##earch
kopy
uzanır
mevkiinde
##odot
##worth
Otom
##ilyalı
Çiçek
Ruslar
dinsel
günleri
sembolü
##apt
Bell
yaşama
Teknoloji
kaynaklanan
Gra
yor
##iyorlardı
1902
Town
tura
şerit
Hakları
Sibirya
berabere
yıllardan
okula
maçlar
Antakya
yayılan
devrimci
Lük
sahada
nehri
dinamik
Lah
ret
Şem
##oksit
Kurum
ağacı
Giz
adalet
Zeki
that
Sinem
mesel
Office
okulun
girişimi
birimleri
Daw
Kitabı
Arsenal
okyanus
bulunabilir
oz
orduları
##oss
Hâ
gram
fakir
İnönü
menz
mezh
Death
bilen
oranla
##ildikten
vizyona
##ehan
##uydu
##ülte
becer
tahıl
grubunu
orkestra
sistemde
Milletvekili
##dol
Çoğun
Radikal
çocuğun
##ıtı
March
teori
Gl
Yum
Mario
maddes
Madalyası
yüksektir
pe
Lost
Divan
oyuncuların
DC
Deut
turu
adada
elendi
DJ
kapak
direnç
Ardahan
Mimarlık
muharebe
karikatür
suretiyle
Girl
YouT
geçmişte
seviyesinde
##ülüğ
App
çıplak
Columbia
Profesör
##ril
##onto
Otto
salg
##sızlık
yapıp
##eceğine
boşalt
karşılaşmasında
Libya
korsan
##ental
##medik
3000
Gabri
##suzluk
vasıtasıyla
Ital
deneme
konuları
yapıları
yapılabilir
Efes
##anlığa
adanın
örgütü
sayılar
sekreter
1886
What
Yüksel
ibadet
anlatım
gündeme
propaganda
Ow
SK
ispat
##tionary
Claudi
Electr
etkinliği
profesörü
yaygınlaş
Diş
Rose
hâkim
kaybı
özdeş
Bilgisayar
##izan
360
tef
Whit
marş
düzeni
çoğunu
liberal
Ertuğrul
görüşmeler
##87
##yat
şehirleri
sonuçlanan
Rh
##ides
##sell
167
Morris
sayısal
önemini
yönetimine
127
Zor
trop
Salonu
sulama
çekilmiş
Pho
Uygur
cezasına
İler
Bür
Muk
formayı
şehrine
bölümüne
vatandaşları
Akk
Sık
ihraç
dönüşür
Çankırı
Vladimir
Asıl
günün
yazmış
##ografisi
yapacak
Boğaziçi
hayvanların
##ordon
şüphe
tanımı
çalışt
alanının
amp
##imiçi
vücud
America
Publish
ordusuna
verileri
##çam
SD
##ín
Tv
Dre
vade
rolünde
bölgeden
##yosu
Eyy
##ileriyle
##ranç
##usuz
Gri
gun
boyn
porn
##artman
##linik
eşde
##ettepe
Techn
düzgün
kupayı
şehirler
hareketli
##ego
Poe
1903
İslami
anlatılır
eklenmiştir
tamamladıktan
##şin
eur
##cunun
olanı
bırakır
tanımlan
seslendirdi
Ut
kocası
##edeniyet
##odik
With
salın
kayıtları
bölümünden
##33
Standart
##stil
drama
nefret
Gümüşhane
koalisyon
##orta
Bow
kaynaklı
Aksu
Franz
İlçede
muhtemel
##erick
icat
Ülkede
Lag
yaşay
almıştı
isminde
söyleyerek
##ğuna
His
vas
##leşen
Jacob
ailesine
tarımsal
anlamıyla
##UR
44
ru
Hiç
1885
kalması
düzenleme
oluşturulmuş
##oln
Ara
1870
İstik
verici
Üyeliği
çalışmalarının
Face
NASA
türler
Frankfurt
başlaması
plaz
sergi
Oyunda
defter
##ipe
Odası
misyon
kurarak
desteğiyle
Fak
Fon
Laborat
Anderson
##cio
##evî
ikiz
duruş
iTunes
YouTube
dokuzuncu
##avv
##ekk
##isy
TC
Benzer
Anthony
değişimi
kıyılarında
Ted
Shar
üyelerinden
##vili
sadık
##tandard
havada
sorgul
hanedan
konular
görevlerini
Noel
golü
##osunun
İşleri
yarışmanın
endüstriyel
##ebir
Höyük
İsmet
Orkestrası
##aux
##niz
##etta
vezir
kıyasla
kullanıma
modelleri
##wich
döng
Resim
femin
Roc
Toy
ilçenin
stabilize
##âb
##box
UN
##kırı
##ımsı
##rence
##dükleri
kamuoy
başlanan
##zy
##uer
##ilaf
nah
Akın
taç
çim
Doug
sunmaktadır
Kül
Cena
##ularak
tıpkı
sy
Babil
anayasa
olimpiyat
Hell
İtti
düzeyi
Floransa
tasarlanan
##umuz
Geniş
odası
çarptır
eserlerini
##TS
##lif
##utt
Sty
was
çatı
##ayınca
azdır
Koruma
topraklarını
topraklarının
##ape
##edel
çıkma
Charlot
gösterim
araştırmaları
##press
Astr
klib
Heart
Enerji
tahmini
yetişen
belirlenir
Ross
Roger
Hamilton
maçlarda
yaratıcı
sanatçılar
##ıb
Are
1901
Brun
turk
yayla
mimarlık
zamandan
milyondan
liderliğinde
Glen
çorbası
##mektedirler
programlama
sonuçlarına
##agram
##larlar
Sümer
yazıt
Island
fındık
ilgisi
ekipman
Down
Eyüp
Adolf
Yemen
ilçeye
temeli
sayfası
Şehzade
maçlarında
oluşturuldu
##dara
Fort
Basın
Piyade
aldıkları
##ıd
##riği
Rag
atar
sini
##edildi
Meryem
devred
pak
##adını
Beni
##üsünün
ısrar
Bayezid
etkiley
inceleme
üretildi
##onca
Pur
##mayla
almayı
kadroya
yaptılar
Almanyası
##uba
##bach
rob
Teor
Award
rekorunu
oluşuyordu
yüksekliğinde
##şir
MP
##pres
Jew
Reis
Said
##cıları
Tümeni
kapısı
bağımlı
tavsiye
Tekirdağ
oyununda
savaştan
teknolojisi
##aye
Ya
##rett
duyg
traf
France
yoluna
yarattı
kitaplar
##ds
117
horm
sevk
First
damar
gününde
Default
tanınmıştır
##dağı
ayakk
İbranice
namaz
sürece
birliklerinin
##aster
edebi
kilisesi
benzerlik
ülkesinin
saldırıları
##Le
Gec
gözet
fizikçi
##31
This
kalarak
güneybatı
Aca
Mach
sultan
tedavisi
anki
şefi
yüzölçümü
Süt
##tendo
anal
British
gizlice
öğrencilerin
çıkarılmıştır
belge
hamam
##asyonun
edebiyatı
hayatında
kurtarmak
Avusturyalı
##öğüt
Ryan
alak
Kadir
Sefer
izledi
patlam
##oşa
ısıt
kurşun
sahnede
kişiliği
Christopher
##iyaz
126
145
Eug
Benj
Lefk
otor
Kazak
Sınır
ithal
İzmit
Farklı
sayısız
Protestan
çekimleri
kapasitesi
oynadıktan
##usen
##ümin
Dip
şap
ahlak
Herodot
romantik
görüldüğü
merkezleri
hazırlanmış
SP
arch
sendrom
iğ
Civ
##altına
yatay
Valisi
örtüsü
bakınız
Bri
Mot
Pac
Bayrak
pahalı
istikrar
##ılmasından
kuzeybatı
yetiştiric
##uvaz
Nich
olgu
##entbol
büyüt
Kulüpler
görevler
korunması
yaptığını
##IC
##ount
Deli
kade
Porto
yöneten
Californ
herkesin
fabrikası
başlangıcı
Sit
Alev
atıf
##eksüel
Terak
izler
##leyecek
gözden
##laştırma
Japonca
muhafaz
metropol
Four
kubb
Media
firma
##abas
##mark
Deb
Hug
egz
çekiş
üzeri
tersine
Böylelikle
##not
##andum
duyuruldu
##outh
Back
sound
Pak
lam
1800
İdman
geliştirmek
Aust
Çağdaş
kütlesi
takiben
##EM
##anıyor
menaj
güneye
sevdiği
Çalışma
##nica
Nus
örg
Lady
hadis
isimdir
Harekâtı
bağlanır
koşulları
yaralandı
kayda
aradan
##lediğini
Mezopot
Virgini
kuşatma
belirten
##oyd
denge
Siyasi
prensip
İttifak
kaplıdır
yöntemleri
karakterler
üretilmiştir
başa
uzmanı
güreşçi
stratej
temelini
##esco
Emp
1876
Yörük
Kürtçe
olunca
almasına
mahalleden
değişikliği
ydü
Linc
kampany
seslendirdiği
##uğu
##çer
AM
TD
##achus
##üldüğü
sahib
Sekreter
söylediği
turnuvanın
##beyi
##fiye
Ton
göğüs
hediye
bununla
kiralandı
başkanlığına
##oros
Juni
Lise
##semburg
planlanan
IC
düğüm
içecek
tablet
evrenin
sinemaya
uzakta
çember
muhafaza
Hacettepe
Lüksemburg
##jyon
##atosu
Alice
bağlandı
##esans
##ımlar
benzet
lerden
review
araçlar
yazılır
Sport
yolda
zorla
Giovan
gergin
binanın
üniversitede
Ts
135
##azine
##ireti
Ajansı
ameliyat
sıcaklığı
Geliş
fasul
yeğeni
içeriği
##mis
##ente
##phia
durumunu
##urn
cas
1895
iniş
Köprü
birçoğu
duyduğu
##ilmesinde
##eke
Karar
sığır
##anıyordu
Kuruluş
ayrılıp
##oe
Wy
sc
##satı
Uru
boks
İnşaat
olmaktan
##bit
##cesi
keman
##hendisi
ağabeyi
işletme
tapınak
birlikler
##dev
##fen
##uela
mic
Mekke
hitap
felsefi
##ildiğinde
sertifik
##ader
##ansız
Sudan
azınlık
##ely
##echt
simet
geçmeden
nör
1897
Fair
kaçak
kalesi
teşkilat
yıldızlar
##sten
Muş
yalı
Famil
listelen
şirketleri
Sarık
İkili
Patrick
tümüyle
kurdular
çağrıldı
şarkıların
AD
oğul
ulaşmak
yerinin
İsveçli
Veg
burs
##roskop
katil
İstih
Bayburt
##çay
eks
##retti
vali
##acının
##ahattin
Deresi
California
##haz
Tang
günden
rezerv
Çekoslovakya
##SS
Prag
##alyalı
Ovası
River
sunar
ettirdi
Benjamin
depolama
kesinlikle
##işt
Rek
##ensör
balığı
Balkanlar
kuzeydoğu
içe
bıçak
kolej
tüccar
tanrısı
##OM
##ürn
Boh
##aktif
itiraf
Lincoln
Pul
kırk
pref
Bruce
##sterdam
köyünün
saz
1934
Arif
Kolombiya
edilmesini
yayınlamıştır
##livan
##uston
türev
nihayet
anlayışı
Şanlıurfa
€
##iyev
Paz
Belg
Hükûmet
Letonya
hurriyet
tems
deyişle
veriler
Yardımcı
gösterilebilir
##dis
ut
1904
##dırlar
kurut
renkte
ettikten
yaşarlar
##ote
##oviç
##stad
Arts
Uzak
##ğundan
kaçan
boşluk
santral
şunları
sevgilisi
##dez
##uble
##ciğer
sını
Budiz
Jason
Kimya
##gy
##ğim
##distan
Karac
Aleksi
merkeze
katılarak
tv
##avan
##etts
##tıraş
Tayy
Hatun
arttı
seçti
Bektaş
Yerleşim
eleştiri
##iha
gr
108
lif
tetik
##elerdir
Turkey
tarıma
##lanmıştı
toprağa
##here
1899
José
Kenan
Yurdu
ilçede
çevrel
kuralları
serisinde
Mezopotamya
Ök
##eğinde
kışın
satır
olaydan
Amsterdam
Araştırmaları
Apr
Row
Erdem
Football
Katedral
imzalamıştır
##vent
tuğ
##ettin
kesint
üstlen
girmesi
Institute
evlenmiştir
##gas
##ror
po
##ness
350
Tug
bot
düet
kutu
##ektrik
Galip
Pekin
perde
kuramı
örümcek
söylenmektedir
##izma
evin
##rekare
Düzce
Tunce
Steven
kalmayı
inanılır
imparatoru
##eşme
Jür
##salar
Önem
aracın
süvari
yansım
Savaşın
##ılmasında
Bakanlar
Nintendo
bakımdan
Çor
Gust
kast
duran
İskan
şifrel
gemileri
Polonyalı
elemeleri
64
##ebildi
artar
üçgen
Virginia
mücadelesi
##teş
McG
Marcus
konserler
##OL
ög
##dorf
bizim
kaçtı
portr
kromozom
##ober
##osta
##abilme
çıkışlı
prodüksiyon
##oa
##gart
##wart
gev
monarş
Toronto
statüsü
Encyclopedia
##tına
Pale
cebir
türün
mezhep
pirinç
sanılmaktadır
##şı
##tegral
Serie
adaya
konsan
şikayet
Evi
##ılmak
Ayşe
Gerek
Sound
Produc
ihanet
kaynaklara
##kon
##oka
ani
##cular
Blue
Renk
trib
Babasının
turnuvası
yüzyıllarda
′
##hone
Öztürk
Padişah
büyüyen
belediyesi
##ee
cont
pros
Chart
motif
##itasyon
ydiler
site
ihlal
yapısal
sağladığı
tap
tra
##tures
klor
Bekir
Dünyada
hükümetinin
##iny
Sta
all
dinî
Kayser
Antalyaspor
aldığını
Geri
çalışmalara
##ves
aff
Şimdi
Review
Politik
Uruguay
zirveye
Hakkında
birincil
##ms
ardı
suda
yıla
sürgüne
Bis
##ogram
bitti
nesne
girişi
antlaşma
yorumlar
##KE
##eley
Run
##ştiği
mekân
Halife
koltuk
Lefkoşa
Listesi
basılan
edilmesine
tarihçiler
taşınmıştır
AG
##alth
##yazı
Lum
Nef
Kulesi
takımla
Sadrazam
##AD
##AY
##iko
##çası
rit
Tanr
nehr
Çince
Ürdün
çanak
##amayacak
açılmış
Massachus
konularında
faaliyetlerini
##bus
##ár
##reat
136
Rud
##deres
Dükü
gölü
amaçla
başaran
satılan
olmadığından
##kob
FK
##iğit
Arp
doz
Eskiden
geliyor
ticareti
defnedildi
##asu
##edon
Erol
Road
##edilen
Child
hamur
##ulation
karışım
giderken
Mada
Hemen
Kağan
geçit
farklılıklar
##zig
os
##dört
heyec
kurma
kayalık
albümünden
sağlanmaktadır
loj
##ingrad
Tibet
yasası
etmesine
##yid
##riye
lib
muz
paz
Kongo
enzim
kalem
fikrini
yetenekli
İstasyonu
##lyn
##uli
köpe
basıl
tılar
türünün
tarafına
denizaltı
grupların
##cim
June
havuz
yayınlanmaya
sıralamasında
Ful
süz
##eysel
kuşu
anket
tütün
helikopter
Yardımcılığı
Massachusetts
##boy
##este
Tepe
Çatal
Bilecik
yakaladı
gelişmesi
yah
ölmüş
çıkışı
sayısında
noktasında
sürü
yayını
kişilere
kilisenin
##şek
hiz
Şar
1898
Luci
etmez
çekil
##adelphia
Göktürk
dünyayı
yenilerek
tanımlanmıştır
hik
sıv
Wall
albümden
rastgele
##hu
##dle
Kin
Lap
##ansal
##lediler
gecesi
Russell
bulunmak
yapısına
##abilmiştir
tanıtıldı
##onc
uf
Seg
##saray
basamak
harekât
##asyonları
##diklerini
zarf
şehit
mahallesinde
##lari
Ind
##teşem
##abiliyor
yüzyıllar
##ogan
Mam
duv
kavg
kahve
yarıç
Kırklar
ihracat
geçirildi
göstererek
Tag
nez
##ilmeleri
uzaktan
ülkelere
temsilciler
##atom
##imine
Gine
Shan
folk
kuşak
başlarlar
kasabasında
yaşadıkları
##dön
##edan
##lanıp
Cuma
##amazan
görel
Kurucu
Cenevre
Karasal
sün
wiki
İşte
aslan
İhsan
filmdir
yapısını
Parlamento
askerlerin
talim
bölümler
büyüklüğü
karşılamak
yayımladığı
##kie
duydu
kumaş
yapıyor
Coğrafya
örnekler
##viş
##back
Lind
vakıf
ışığı
Museum
tüketim
vi
##azıt
beton
bulaş
##anlığını
kısımları
zamanların
##reti
Born
polar
kombin
noktasına
üyeliğine
##ebileceğini
##irit
Cop
##adışı
Hels
seçen
Terakki
hipotez
koruyucu
kuvvetler
üretimine
pub
Lyon
merm
Vakıf
verecek
askerlik
yönünden
34
##turk
pal
Çan
Vezir
burun
rüzgâr
Göztepe
Mücadele
Ped
zaf
Çöl
##ohbet
kodu
vekil
Şerif
Tayland
##amayacağını
bitirdikten
##aklık
Kans
Mold
Yemek
Senato
sisteme
devrinde
karakterleri
##tv
##acın
##miyor
yönü
topçu
Sultanı
Vincent
kışları
Almanlar
moleküler
##ahit
Ayv
İht
Philadelphia
Kuy
Amaz
Barajı
Yasası
Akhisar
kaliteli
çocukluk
etkileyen
işlemleri
sorumluluk
##ium
Vis
hapse
Beyler
gitmiştir
##ıydı
Ata
##lamayı
Erg
Çiz
##delik
filtr
Ziraat
işareti
##iliğinden
gerektirir
İngilizler
görevlendirildi
ha
##emon
Ost
Fall
Tank
Walt
Zafer
cenaze
iyileş
İttihat
belirlendi
##ettiş
Kate
analizi
Lawrence
Vat
Arşiv
karışımı
ülkesine
ortada
Kaymakam
kültürünün
##mb
##iga
olacaktı
birincilik
##93
##ımda
##eveyn
entegre
zararlı
öncülük
iktidara
saltanat
Brezilyalı
gönderdiği
Başbakanlık
yükseklikte
va
##aros
Muz
zem
dalı
edilmişti
İlişkiler
Ankaragücü
##ML
Abdur
Marsh
açısı
itiraz
geçirir
Şirketin
hükümetin
##get
suya
müzaker
tarihini
düşünülür
sinde
şahıs
Malezya
yağışlı
yazarları
Nag
##liyor
Work
##arınca
##ograph
Çavuş
lakabı
Alı
Kun
sindir
savundu
yenildi
key
Stra
Öykü
##ciliği
Peters
satıldı
çıkaran
ürettiği
Demiryolu
##kz
##oca
##sir
101
bağı
çaba
yolun
Gordon
kuzeni
savunu
##88
##kapı
end
##leyip
uyandır
yarıştı
çikolata
karşılaşmada
##vay
soluk
kalkan
zorluk
Giovanni
sn
##arik
nem
Komp
Türb
Petrol
artması
Augustus
##PG
Sv
##otel
süp
yang
##larken
bitim
##cht
##espe
world
yılan
çağrı
Tevfik
çömlek
komisyon
ailesiyle
##én
##sey
116
Mür
##ıcılar
komed
sayısına
söyleyen
beraberlik
121
##alist
Sekiz
Cannes
Serdar
görüşü
düşündü
İşletme
Ona
1860
öyküsü
oluşumu
bulunmayan
şehirlerde
geliştirilmesi
kurucularından
##lia
##beri
##vador
Alay
cüml
##oyunlu
Tümen
##lerimiz
giydiği
##td
##osit
##stat
Ağaç
asil
lere
##alarca
hazin
mayın
tedbir
##operatif
şarkılarını
##IM
Cep
##ışına
Surv
platin
sahası
##egel
##iten
Magn
kült
Sarah
açılır
Kolordu
fırsatı
Anayasası
##rob
##eşal
##ther
Rön
Vef
şem
Ronald
google
##müşlerdir
Charlotte
##atch
Gas
Lav
##azesi
atmış
kuşlar
Dönemin
bağları
Slovenya
yerlerinde
Now
##ionale
Benim
işbir
kurumsal
turistik
engellemek
Duy
müd
##eğini
##gıtay
Zeynep
amcası
kadını
birleşti
yollarını
##ON
harfi
İznik
aykırı
masraf
parçacı
birincisi
hücreleri
kendileri
##kett
Penn
üreme
Bernard
##rus
FM
Kob
##ences
sülal
nadiren
alıyordu
birleşerek
bitirmiştir
##alia
Old
aşağ
Gazze
nazar
Battle
seçkin
yazılımı
##cay
öf
##ışla
Niğ
işç
Medres
kompleks
üretilmiş
##izme
Adını
##ıldıktan
algılan
Programı
kullanma
##İD
Kamer
Academ
okuyucu
sahipleri
sözlerini
Avustralyalı
karakteristik
##hl
##mı
##tre
##incisi
Burak
##tana
reg
VIII
enstit
cesaret
canlandırmıştır
##anti
Gon
##savar
İlhan
Jordan
##olojinin
##ery
##rir
##feld
Yam
ert
##owski
Marx
oraya
Warner
İktisat
Venezuela
kahramanı
Kızılderil
•
##reb
rüy
Aviv
Sait
formu
şeref
Bayern
baştan
patlama
diplomat
suları
güvenliği
kendinden
Üniversitesinde
##üdü
##ranı
Enver
Yakup
doçent
Geliştir
ayaklanma
TO
##allı
ABC
yoğ
##eğinin
Felsefe
başlatılan
görmektedir
esnek
mülte
kamyon
taktik
yerlere
topraklar
Dictionary
kullanıcıların
84
##agon
##imsel
Lang
Kayıt
konul
adamın
batıya
online
ölçekli
danışmanı
##rof
payı
yapılarak
hareketinin
##enne
oynat
##espeare
Aleksios
Yargıtay
sezonuna
##aton
##uary
Lid
Doğru
testi
##DP
##îr
ES
teb
tey
acil
dedek
gerçekte
egemenliği
kelimesinden
##elia
##itus
##ımıza
giys
prov
kesme
Bitlis
sürücü
Atlantik
üretilir
yapılandır
Cra
Dak
Kör
ünü
1893
Mobile
tahliye
Mav
Yuk
şen
Onlar
Körfez
simgesi
aralığında
kazandılar
ayrıldıktan
Güz
Pel
tepkim
tutmak
##mu
##opya
söyl
Yenik
düşmanı
Mühendislik
nik
Cola
Yaprak
gençler
ikincil
değişmez
yoğunluk
##91
URL
##ürler
lehç
##menler
Halkın
oturum
kitabını
##ée
Serv
##dörtgen
Gökhan
rehber
Karabağ
verirler
kurucuları
Bük
Kep
Mesel
oynar
yolla
Kennedy
yapmakta
uygulanır
Abdülhamid
programını
seslendirme
TH
Fab
##ahmet
dekor
dikey
yerin
gösterimi
olduğunun
düzenlenmiş
performansını
üçte
##outube
şiiri
olmamak
geçirmiş
sahasında
ayrılmaktadır
##III
##brek
##lude
##âhil
Book
Varş
Well
graf
pröm
##rahman
Valent
galaks
işlevi
##mamalıdır
üretiminde
##bour
kusur
uyarlanan
bulundukları
##icus
Kıp
Teh
Kazı
şeyh
çukur
geçmek
hareketin
Tiyatroları
Nav
tarzda
tahttan
##dıklarını
##XT
##istir
Buck
geçip
peynir
merdiven
##last
##ğdır
##ınan
yemin
bulunduğunu
direktörlük
so
ال
##organ
oluşu
Ferdin
oluyor
görüntül
sıralama
karşılaşır
anılmaktadır
Py
##face
Juv
bayr
tekerlek
dakikalık
Shakespeare
##IR
Şef
##dinav
TÜRK
Bingöl
momentum
faaliyete
##ırt
üm
lara
leri
adası
Ludwig
kanseri
kararlı
çevrimiçi
beraberinde
Jun
üvey
düşünü
girmeyi
ölümcül
çıkmasına
##ûn
##round
##kardeş
Şeref
hissed
azından
çıkarmak
başlarına
Elektronik
kullanırlar
##igns
Çak
İçin
##lispor
Davis
duyul
Johann
gündüz
üretir
Menderes
Ermeniler
##ırda
nic
merak
puanı
##otu
##inaj
##yüzü
Gan
ucu
Vikip
kazası
tarihî
felaket
terminal
maddelerin
##tia
##rome
out
##enberg
##amaması
işkence
motorlu
Elem
##ektörü
Styles
kuzeye
bulduğu
tarikat
Teşkilatı
meşhurdur
Zürih
anarş
daire
hükum
seçil
sıfat
Müziği
##lamasına
Twitter
çiftlik
##aziz
##lake
##tici
ren
##ecisi
Düğün
amino
ekledi
tahsis
endüstri
Performan
yarışmayı
paylaştığı
doktorasını
##EK
##fri
##ataş
ödeme
köyüne
Varşova
ayrılık
Öğretim
yıldızın
##imon
Band
Heykel
uyarınca
bölgelere
çekmektedir
RA
##odor
dolan
Baltık
seramik
şirketler
takımların
##FF
##non
UK
##achel
Engel
Tarık
verit
##ışıklık
patlak
sipariş
yayılmış
Vo
##uhaf
akan
alım
kafa
kurs
apple
çizim
sağlayacak
Lov
Sek
Yeh
ras
çalı
hiyer
yaşat
çoğal
taklit
##94
##ange
##ozan
##side
##ineer
##isleri
kalite
genişliği
hastanede
Ti
##osen
rec
tac
##takım
##asyona
güzerg
mezarlı
Fotoğraf
denizden
##rd
##pos
Nadir
aileler
Sekreteri
kütüphane
programda
içeriyordu
oynanmıştır
##rica
Sahne
sunan
cismin
hatları
oğlunun
geçirerek
##urch
Amy
alk
sağlığı
tartışmalar
##dil
Flam
Gogh
karac
Ramazan
eğitime
katılımıyla
öğretmenlik
tü
duyulan
##aplı
##https
Sher
Ulaş
katkısı
köşesinde
İskandinav
oluştururlar
Gul
çür
Iğdır
Burdur
yürütülen
kırdı
lehine
döndükten
##24
Nu
Pre
sıç
eğil
ları
Liber
hukuku
Houston
kızları
silahlar
medeniyet
ine
Brand
limanı
geminin
Franklin
bürokrat
kullanmış
##eşe
##âde
Mig
örtü
sonbah
geleneği
wikipedia
##unch
##arbon
Lock
bağım
heyet
sunduğu
kaldılar
grubundan
programına
##ales
##ative
Çinli
##mayacak
sürdüğü
ölümünün
##kırım
1881
dikt
pamuk
dizayn
adından
şarkıya
kazanılan
kelimesinin
Om
##hret
##rary
Dek
bük
haş
##ıştay
Anim
April
daima
oturan
Jandarma
sanatsal
ailesinden
popülasyon
bombardıman
Leo
Pom
mün
iade
köklü
Tayvan
Stephan
birleşik
Ele
Get
iskan
Matthe
ayıran
akciğer
mühendisi
ülkelerden
AT
137
##arius
1882
Bomb
Class
Toros
Özgürlük
devletler
##kt
##sian
Wol
İvan
müddet
Emniyet
hakimiyeti
röportajda
kullanılmak
##laz
Kıy
Mim
müziğe
Yayınevi
getirilmiş
Fuat
Lion
Clark
Engin
Summer
albüme
dükkân
tablos
tazmin
karayol
yitirdi
Devrimci
yapısında
olabilecek
referandum
Kızılderili
##andal
bize
Miami
edilip
Kırıkkale
belirlenmiş
çalışmasını
##ondo
Dans
Pres
Konsey
iPhone
aşamada
ileride
kazanmak
dallarında
parlamento
##öğr
vary
Burhan
yarımada
Manastırı
nedenlerle
138
Sac
sürg
Kelly
Family
giymiş
istenen
Universal
dahilinde
felsefesi
##ogen
Söy
##üksel
Klip
Johnny
Yalçın
pageId
yükseklik
çalışmalarda
Ja
##ohen
##utin
Ivan
stan
arazisi
kasabası
Çarşamba
başlamadan
teknolojik
##eber
##iyad
##berto
##dinde
evlat
metro
Potter
eserlerinde
genişliğinde
##addin
Bavy
band
Şair
mantar
müslüm
Nijerya
başarılar
Filipinler
karakterin
tanınmaktadır
##umi
##emit
##layer
okut
tavır
Çoban
Meksik
##liliğini
eserini
dairesel
##jör
Over
Week
coun
Danış
Jimmy
Bavyera
Sezonun
Çoğunlukla
tamamlayarak
##yesi
doy
Ejder
Commun
hocası
Aksaray
bahseder
derginin
gözaltına
##eo
##ju
resep
seferi
Uluslar
tarafsız
##IL
##dor
Fis
Uçak
proton
taşıyıcı
enstrüman
devletinin
##üya
AN
Feb
Avşar
Davut
hediy
ayları
Ortaçağ
belirleyen
tarihlerde
##bes
##eria
Pad
Howard
Yıllık
##landırma
dışarıdan
##iks
Wer
kaş
Diego
Eyyub
Taraf
yazım
imkânı
Moldova
restore
Research
bağlamda
telefonu
##öp
##İH
##cik
##ones
Zara
Alevi
İleri
Hristiy
patates
şartları
##ware
Him
Yur
ağrı
##ecekti
Nükle
erdir
tamamlanmıştır
##elim
##foni
Zeytin
ağırlığında
##ennet
##ikalı
bayan
##üminyum
köyler
sohbet
Margaret
ötesinde
sekreteri
Eskişehirspor
Riz
duyan
Oliver
##elektrik
eşitlik
çevrede
integral
donanması
düzenlenir
özelliklere
##hou
Ümit
Efsan
addır
Sözlüğü
meclisi
olamadı
satarak
verildiği
Müslümanlar
enz
seks
Doğum
Japan
vakit
Viking
oylama
Yukarıda
anlaşmaya
##LER
Pon
dere
Homer
masal
İdare
konumuna
organizasyonu
##burgh
Pont
Test
banka
yüzme
iktidarı
müzikleri
programının
##hos
1889
Tenn
alev
Çevr
##adılar
Claude
silindir
içerisine
##bas
##esis
##eten
Bron
Page
mask
Tayyip
hâline
kralın
Beyoğlu
yolunun
ayakkabı
##iff
##avüz
Arg
fah
From
##talama
Moore
döngü
girip
koruyan
yaşamına
##kut
158
Stu
##affer
Store
dilin
görme
kabart
vampir
mimarisi
sunucusu
kendisiyle
bölümlerinde
Gey
Home
dalda
##usundan
kongre
mutfak
yoksun
English
Yeniden
etkisiz
gelmişti
çeşitleri
##Hz
##İK
##civ
Sz
Ian
Zag
Atom
Baby
Mari
Roth
tarl
Köylü
Marksist
tamamını
Isa
Reh
Squ
nan
fiil
kıta
##iminde
Abhaz
tünel
Finalde
noktaya
göstermiş
yayınları
##rix
Şi
##ınıp
1865
Isra
omurg
are
1892
Call
ısır
##atıyla
Wayne
açılması
babasını
kaybetmiş
olasılığı
kullanıcının
##lum
##ptom
Aut
CIA
Cir
Rüz
eri
##track
Drak
Last
anak
Sebas
dâhil
metab
heykeltıraş
##priz
##aland
##light
##osuna
##üsüne
##enleri
Maxim
orduya
Nitekim
seçilir
Bölgenin
istihdam
prefektör
tesisleri
teknikleri
##vo
##ady
##urs
##bell
##tiva
Emmy
kadrosu
ulaşmış
yenilgi
metrelik
ayrılması
kullanıcılar
Stad
##alığın
Hamdi
Medine
yasama
efsanevi
##iva
##gain
Perry
bölüme
ortamı
yılını
yazları
artmıştır
##emix
zul
Herak
Terim
dostu
##cıların
bırakıp
tabloda
şeklini
dayanıklı
car
Mann
Mora
Brook
Ligde
kopar
mühim
belirler
takımlarında
öldürülmüştür
##ère
##miye
##içeği
Lisa
sürt
Kerim
kanlı
Arkadaş
Channel
Zamanla
ödüller
buçuk
çapraz
Başlıca
Douglas
Telekom
eşdeğer
işlemci
Ferdinand
##ook
##adin
Pin
André
oksit
##rutiyet
soyadı
Trablus
Magazine
Tarihsel
dönüşmüştür
kaydedilmiştir
##göl
##stra
##ities
donanma
komşusu
koymuştur
yöntemler
Cos
Zim
Kiev
yakında
üretmek
Haçlılar
ortamında
çalışmalarıyla
##üşü
Jud
Pit
##amadan
Forum
Internet
Slovakya
GB
##eron
1888
Dergi
Andrea
taşıdı
fabrika
toplumda
volkanik
Stockholm
gelmesiyle
geliştirildi
##MP
##tih
Gam
Oran
düşt
nüfuz
Toplan
solunum
çıkarır
Vikipedi
işlevsel
köylüler
kaldıktan
atılmıştır
birbiriyle
##api
rot
Edition
yetkili
yörünge
gönderir
yerinden
öldürmek
esinlenerek
Fla
eti
Java
özen
Ortad
sergiledi
bulunurlar
hareketini
Fet
Tru
##herine
Brüksel
kimliği
Vilayeti
olanları
ordusunda
Büyükelçisi
##och
fık
1867
Çakır
Beyliği
polimer
edecektir
üniversitesi
##usta
prom
adeta
bütçe
Volkan
etiket
akışkan
muhafız
European
resimleri
desteklemek
##esih
##wick
Gib
Term
Yahya
kredi
nefes
yenen
Tarsus
uçağın
##ns
Levent
HP
fı
##ciye
##ophy
Hom
Kimi
akışı
koltu
dayanık
süreyle
Herhangi
önemlisi
##enix
unu
Thor
Niğde
anlar
dönme
giyim
Rolling
tutulan
yaşamın
renkleri
##mız
Paş
Peri
kost
höyük
Şeytan
bilmektedir
gelenekleri
##rose
Dür
##çının
1894
Gerç
Mete
zevk
Maden
radyol
alacağı
ermiştir
Statistic
hayvanları
çalışırlar
##ught
Hüc
bana
okuy
İyon
##cessed
##eğiyle
hesab
kavga
Tepesi
konsept
tekstil
gereksinim
eserlerinin
küp
İnc
Luke
düzlük
istila
uzayda
anlamlı
Bib
gücünün
##landığını
birtakım
kitabının
anlatmaktadır
##fon
##itor
Hugo
Tren
ilah
inin
##ordusu
Düzen
ejder
Gözlem
kıyısı
patron
gelince
göründü
kısmına
sevilen
maddeleri
istemiştir
seviyesinden
Jar
Keç
##ection
şartı
macera
##iliyordu
noktaları
bireylerin
##asın
148
Buc
hic
##rojen
##yacak
Hugh
##ampire
seride
yargıl
Kırşehir
erkeklerin
yıldızların
##AK
##ense
##liya
118
tet
şok
bomba
Çınar
unutul
uyarlaması
##otop
##çeri
hafız
himay
manev
metot
yaşandı
taşıdığı
Önceleri
##İN
##tica
Nez
Etiy
Kane
Punk
fırın
nitel
Guardi
yönetimini
eteklerinde
muc
Inde
koku
Budape
patent
Mahalle
toplamı
Üzerine
ağaçları
piskopos
Bö
##king
Aur
huk
kızın
yunus
Fikret
başlan
kinden
İnsanlar
geometrik
kazandırdı
Kayserispor
çevrilmiştir
##isten
##ötesi
Sahn
Dance
batır
şeytan
##ûl
##vator
Games
##ılmasının
yapıların
dikdörtgen
##bro
##ustik
yelken
Araplar
sonucuna
değiştirerek
##eds
##urus
Dum
müc
1887
Coca
Sert
maaş
only
Abdul
Hindu
Medya
Karayip
isimlerle
yazmaktadır
##İT
IŞ
Yüc
Spar
kıvr
show
##mazlar
about
saygın
altından
gelirler
reddeder
Wrestling
istiyordu
##gate
103
##ories
1200
Ball
Mast
arda
cüce
yatır
##iyetini
Histor
harekat
kadroda
Budapeşte
Pra
Çer
Mali
Yang
Orton
center
##ends
##rari
Sakson
alındığında
köylerinden
##ads
##gül
##sine
Onu
sic
çiğ
KKTC
Parç
##ilmeli
dinin
planlı
Universe
barındırır
sistematik
ate
meşe
Studios
hastalığın
##pin
Km
##alis
##mece
raf
efekt
ithaf
Cermen
takviye
makinesi
söylenen
türemiştir
Pu
##otos
Mess
Ters
eşya
nemli
Müsteş
Willow
hayali
çıkmak
Central
olmayıp
uyd
çor
Ress
Turu
tech
tezi
branş
Bartın
komplo
çekmek
gelişti
Jonathan
dramatik
kapatıldı
liderleri
yüzeyinde
faaliyetlerine
##house
##namesi
Hekim
evler
kayaç
komit
Sözlük
maçtan
ılıman
adasında
toplanır
eserlerin
##sor
##view
Haş
doc
Adil
yaşı
##tember
##ıntısı
Jerry
Titan
satışı
sömürg
çeviri
Metropol
gönderme
karaciğer
dillerinde
Yu
##ashi
##atra
##azin
##burn
##ific
1848
Aman
Müze
gidiş
mizah
Justin
Gabriel
kalenin
amaçlayan
lat
1850
1871
Jeri
Dursun
teşebb
dağıtımı
keşfedildi
romanından
##imsi
##âlet
faş
yeti
yönden
##odinamik
Samsung
çıkarma
İdaresi
hakimdir
değiştirme
Abdurrahman
Milletvekilliği
##FL
##lock
##onim
##real
102
elli
Tatlı
cezaev
yoldan
Studies
şarkıda
##çıl
jan
Bonn
fosil
sının
##onların
Tahran
esnada
meclise
Facebook
bitkiler
GP
Üz
##dale
tuv
##ction
cover
çözül
Katliam
okulunda
destekler
##via
##aily
LGB
emin
##abilim
taşıt
Sancak
Alexand
Digital
etmesiyle
büyüklüğünde
Cab
Zek
çabuk
tecavüz
Singapur
zihinsel
anlatılmaktadır
##ibal
Ayı
Bac
Geb
##kadir
1891
Soph
tersi
Şeker
sansür
Saldırı
İstihbarat
##icisi
Öyle
vahşi
gücüne
ortağı
Sancağı
Çukurova
sınırlarında
yönetmenliğinde
##SD
##RNA
Tex
Rumen
domuz
##olojide
yetmez
Demirel
konuştu
Fernando
İktisadi
geçtikten
İlerleyen
##vice
Inf
imaj
yazıp
lezzet
Rönesans
benimsen
malzemeler
ilişkilerini
üretilmektedir
##ây
##bine
Sung
Carlo
Üyesi
şidde
sinagog
Karanlık
destekli
fantastik
çalışarak
##dî
##uter
Hud
##yonun
tümü
yağm
##oların
biber
Donald
Lizbon
Taksim
önerdi
temelli
cihazlar
Mith
Zeus
##amalar
Julia
operatör
Ecz
rem
Dalı
##dığında
memuru
Valiliği
koşullar
##jo
##apa
##ülf
şan
IŞİD
Lomb
grev
ışını
Göster
inşası
uğramış
üstünlük
enerjinin
kararıyla
başbakanlık
##kâr
##ühr
Oz
tw
deb
serin
madenc
hâlinde
videosu
yaratık
toplantısında
ödüllendirildi
Disc
Leop
kozm
uyku
yağı
İnce
Cemil
Konuş
meşru
Cooper
Varlık
January
fasulye
gazetec
doğrulan
sağlamış
yıllığına
futbolcusu
##EP
Dave
Celtic
olanağı
Hastalık
dünyasına
şirketine
##çık
AL
BC
Ub
##ives
##lının
Queen
basım
lardan
asistan
aşaması
taraflı
başarıya
September
derecesini
kontrolünü
yaşlarında
belirlenmesi
yardımcılığı
##attan
Blan
Dean
Faruk
Junior
Juvent
tasavv
##xus
##inik
Bog
##erius
iletim
yerleşt
şansını
gerçekçi
büyüklükte
şekillendir
IM
##reddin
Giriş
Lucas
ihtim
yüzölç
ebeveyn
kentinin
varsayım
##ipt
##ists
sih
Şeb
##estij
halı
kabl
norm
Pamuk
Prince
konulu
paketi
platformu
kolaylıkla
olmamıştır
##kit
##ürt
peri
##elenen
Spike
enlem
kireç
tabir
Wright
tutulur
antrenman
Moh
Müt
Saç
1863
Gior
zira
##atları
Sofya
Story
bahçe
sivri
##include
yerdir
emriyle
toplayan
Yahudileri
##aco
##esin
##ilet
Yor
usta
Dublin
açısal
fırtın
zehirli
kaybeder
##abel
##nalı
##matik
Bros
Main
Cihan
hiper
Series
yüzünde
güçlerini
çalışıyor
Milliyetçi
kompozisyon
##ben
##ots
Lac
Books
koruy
Golden
kabile
binalar
eserlerinden
işini
Kuşatması
sezonundan
kurulmasına
yerleşmişlerdir
July
##eliler
##telekt
iplik
düşmesi
yöresel
alındığı
yaşından
şiirleri
uygulanması
Konstantinos
etmektedirler
Fut
Tob
Hazır
lazer
doğuya
##lanırken
öncülüğ
##leyebilir
dinleyic
işlerini
öldürülmesi
isimlerinden
##ogo
##vers
##iders
elma
kuyu
popü
resm
Belde
heyke
Helsin
isabet
gerektiren
olmamasına
yurtdışında
Ral
##onder
Proje
Tommy
anında
produc
yörede
filmiyle
yazarlığı
anlaşmazlık
yönetiminin
Lüt
Pert
Pink
flor
Boliv
kartı
liter
##anların
Church
boyutu
mezheb
Bunlara
Okyanus
dergilerde
saldırılar
Kıt
NXT
gölg
Color
kurmaya
konsantr
ürünlerin
performansıyla
##än
##ubay
çığ
Ernst
Monte
Yener
pembe
People
Triple
köyden
##luğundan
bireyin
##ığı
##ırnak
Elen
Petro
modeli
##demli
##uduğu
Karşı
Binası
doları
karakterlerin
##ced
MV
fac
Luis
Earth
Etkin
kongr
madal
türde
düşmüş
kulesi
Ferrari
devlete
Ortadoğu
bozukluk
kumandan
eksikliği
zıt
Trav
bira
Vatan
##lamanın
oynama
Mareşal
muhabir
oynamak
yayılım
Moğolistan
balıkçılık
günlerinde
yürütmüştür
##poz
Iron
beni
ster
##varyum
saniy
İncil
manevi
nazaran
getirilir
görüntülen
egemenliğine
mevz
bağlar
klinik
sendik
dostluk
sürpriz
değerler
diktatör
hükûmeti
##azlar
Avcı
tutuldu
Kürdistan
düşüncesi
psikoloji
olasılıkla
##HA
GN
Hig
##parta
bütç
Dimit
align
zorun
Batılı
Galile
sefere
Jericho
fırlatma
öncesine
şekillerde
kaydetmiştir
##IV
meg
1883
Alem
ısın
Yayla
Tapınak
Bisiklet
geçimini
yemekler
devletleri
Denizlispor
##dom
Ret
Suz
Moon
Oğlu
Adams
nakled
hakkına
tercüme
yarışan
Sonradan
edilecek
planları
kızkardeş
sözleşmesini
CP
tedarik
durumdan
kimsenin
Demokrasi
Türkistan
muhtarlık
hikâyesini
tim
Andy
Chem
Eğit
Salon
Sıcak
modül
Bildir
Budizm
Kuveyt
şöhret
girişti
Yayıncılık
döndüğünde
programlar
sağlanması
Müş
iri
LGBT
şifr
Daily
garip
##lanmaya
##lıların
havaya
köyüdür
Astronom
töreninde
formatında
deplasmanda
##ahh
br
##ıyla
Psy
Evan
imam
levh
beğeni
beslenme
Antarktik
##adil
Int
##ıştan
Umut
imzalandı
##rep
SV
Va
Shane
Başrol
piyasa
bakanlık
pasaportu
yakalandı
gazetesinin
##issa
lüks
Melek
Union
dönük
ardında
Arkeoloji
oynayarak
oyuncularından
OD
##eyip
CEO
Inv
##lüğün
FIBA
Intel
evcil
Carter
Manuel
atanan
manken
Buradan
milletvekil
fren
pilotu
kadınlara
yarışmacı
özgürlüğü
##ebus
casus
tavuk
Master
göçebe
Phoenix
kamusal
Yazarlar
çevresel
kullanımına
Cumhuriyetçi
Büy
Sag
Sex
hacmi
kuyru
proto
dönmüş
ruhsal
tanıttı
elemelerinde
Gaziantepspor
##ivan
##okim
dua
İTÜ
İneg
##latıcı
##üpiter
Water
kabin
sürül
yağlı
Empire
böbrek
metraj
programın
Özbekistan
##maç
##risi
sök
Çıl
Şap
##elson
##gulan
##gören
uyuş
##yalılar
Marino
yakındır
yıllarca
##ivi
##şet
Exp
gelece
kentte
tahsil
Kontrol
işleyen
başlarda
bildirir
##abilirsiniz
başlatıldı
görüntüleri
##rif
##yaz
karg
##ampton
##enkron
arist
isyanı
Academy
kumanda
Özdemir
Senatosu
gu
oc
##anta
mav
Mant
havay
mezarı
##formation
kazandıkları
##ats
##atay
##düle
Eki
satı
Pepsi
Kıpçak
Memluk
suçlam
yüzeyi
yöneldi
bireyler
milliyetçi
elektriksel
##girt
Tet
Gary
Billy
harita
sodyum
Isparta
Nikolay
Bilimsel
oluyordu
reseptör
yapmıştı
Kardeşler
evlilikten
##cha
hor
##ebeli
##erkül
Xbox
##lerince
Kanuni
Stefan
kaptanı
kontrolünde
##nut
##ovo
##upik
ilin
yoktur
onlarla
merkezde
ortaokul
görüşleri
##oven
ayda
##iyoruz
Rachel
Tasarım
Turkish
atletizm
giderler
problemi
transferi
##cın
##iyal
##estir
Bour
gran
müte
Magic
çalar
Marcel
Morgan
İnegöl
konuşul
PA
Ther
ateşi
ilkel
sever
Basket
Ressam
taşımak
uzunluk
durumlar
sınırlarını
##emat
Dul
arom
##bourne
ender
kader
etmedi
yarıda
denklemi
filmlerin
verdiğini
desteklenen
yetiştiriciliği
##pel
##ietz
##ginin
Heat
ekme
##mezler
Görün
Hamza
##larınca
titreş
gizemli
Savaştan
başlanmış
kurumları
düzenleyen
gönderilir
kaydedilen
##dım
##lunun
Tebr
kaba
tabur
Kopenh
kanunu
hücreler
sınırına
uçakları
türlerinin
eleştirmenler
##esc
fr
fav
pers
Musul
Phone
Senar
rövan
tescil
Başkent
##amayacağı
edeceğini
böylelikle
söylenebilir
özelliklerine
##ilia
##stone
Bask
Dick
Manç
etap
özür
##hanesi
Fatma
tehdi
##melerde
servet
Jüpiter
November
##ias
Ax
##ohut
ysa
Ohio
Sean
Seyyid
gürült
çevirdi
çoğunluk
yayımlanmış
araştırmacılar
##aver
Etr
Reb
atma
sunuc
Reform
Afrikalı
kayıtlarında
zamanlarında
Dut
Olu
##delen
Cris
telif
Single
skorla
bakteri
satranç
bilgilere
geliyordu
merkezinden
nedenlerden
askerlerinin
gerçekleştiren
##afi
##kay
Dy
Mov
Islam
Katar
halter
Kitabın
modeller
odasında
dünyasının
Zey
##anmış
##metik
Chal
yükü
Bilge
##emediği
eserde
uğrayan
Kopenhag
dönemden
birbirini
etkilenen
çevreleyen
çözünürlük
##com
##ress
Buh
hil
##itörü
Tark
sars
##inianus
görmeye
##TR
##sol
##ğım
##alye
Jes
##attle
Fant
Karol
Mahkem
Liberal
kararını
arkasından
tanımlayan
kullandıkları
Human
çifti
güçler
oynanır
vermeyi
birleşme
mülkiyet
öldürülen
almaktaydı
görevlerde
Pok
Oktay
günah
##alizmin
Kültürel
çabaları
demokrasi
görelilik
kardeşler
patlayıcı
sunmuştur
kuruluşundan
##gey
Lie
##acion
##ennem
yend
##lenmeye
Julius
Harbiye
bilgiye
hasılat
December
ailesini
devletlerin
##carı
##üğünü
kağı
Nehir
Yıllar
Holland
##telektüel
inceleyen
belirterek
havalimanı
sistemlerinin
yürütmektedir
##78
my
450
750
Ltd
Esas
izni
gitmiş
kazanç
potans
çıkarı
##iliğinin
basıncı
edilmekte
güçlerinin
rahatsızlık
sistemlerinde
##OC
£
Rho
Heavy
korkunç
müziğin
sorunun
toplayarak
##git
##jin
##star
##under
1875
Endül
Loren
Apollo
çözümü
zinciri
kurtarma
anlaşılır
bıraktığı
özelliğine
Fac
Lok
McM
yuk
##melere
ayrıc
##asyonel
Public
Reigns
öğrenme
Selçuklu
etmeleri
gerisinde
uyarlanmıştır
üniversitenin
yaptırılmıştır
##zak
##avir
Ciz
Tap
Til
##ource
vadi
Metro
İzzet
Silver
yıldön
mutlaka
Albümden
kütleçek
edebiyatının
##auf
SM
ök
Fur
gazı
ipek
Başta
Molla
pilav
##ileceği
Kentin
saatte
temsilc
uğraşan
derinlik
istenilen
Federasyon
Hristiyanlık
##şen
##arif
##baba
Beg
USA
sof
ını
##icial
5000
##iyotik
Güreş
kayın
Çamlı
Çubuk
şifre
Raymond
kadarki
##ledikleri
edilmeye
olmamakla
açıklaması
##ruz
##acına
Kill
Like
sulu
Ligue
Sivil
minim
Global
diyalog
##esa
##wan
Rac
Zira
##rettin
ödüle
Manhat
Sidney
girmek
kaleyi
Georgia
Nükleer
emniyet
büyükbaş
geldiler
Kolordusu
##mid
##illo
##onia
112
Clem
Nero
bilet
yürüm
çaldı
Sitesi
Sports
ihtiva
Indiana
Ortalama
kaynağıdır
sebz
##iyorsa
bonser
hamile
Barbara
Prenses
kolları
liginde
bilginin
SE
##roit
imt
October
şimdiye
Juventus
kalmıştı
çocuklara
Cha
Doğa
kort
##antısı
teması
emekliye
Peygamber
Meşrutiyet
bağışıklık
süreliğine
##nos
##uch
fl
##cüsü
1868
Frig
acım
Josef
Tamam
mukav
gömüldü
##lanmasına
topraklarda
yerlerinden
karşılaştığı
Cle
mız
##okulu
Ozan
füze
Santi
takas
##ladığını
ertelen
rütbesi
kurallar
parametr
microsoft
birbirlerini
PM
##ature
##ıknat
1873
Düny
Pant
teki
unda
efsane
Wrestle
eklenir
yerçekimi
edildiğini
çeşitlilik
##axy
##esar
Ayas
Edin
Lanc
beta
kedi
Üret
Kredi
Matthew
düşünen
##acağından
bırakmak
demokras
Manhattan
temelinde
olabilirler
sınırlandır
yapılmasını
1840
Prote
aslen
kruvaz
dünyaca
gözleri
vokalist
olmaksızın
##kir
##dans
##linois
Album
Kabil
artışı
evleri
Radyosu
inşaatı
değerini
içerdiği
soykırım
kültüründe
##rî
##roz
Adi
Oysa
##unları
sonda
##uttgart
Rollins
##IP
EC
##akir
Köse
Leip
Mini
Stüd
Usta
Akşam
Olymp
klavy
Tebriz
dansçı
militan
##edo
kub
Cham
Free
Lamb
Boris
evden
uydur
Şükrü
Fındık
oturdu
Endülüs
devreye
tarafın
yapımına
Yarışmada
gitaristi
göstergesi
Bizanslılar
oyunlarında
##cle
##sah
ca
##crip
tema
Drama
Askerî
Budist
Eminem
Muhtar
toplar
temsilcileri
Dra
Hes
Nis
Shaw
Şevket
halkına
yükselir
Stuttgart
bölgesini
ihtiyacını
bölgelerinden
##alif
##oyol
##üfer
##abını
##aftiz
##indan
Phys
comp
teşh
Febru
Langu
Nişanı
inancı
Atlanta
kızıdır
müziğini
destekledi
AV
##otek
ATP
Ere
##uştan
Sonic
Stein
Taner
Bodrum
kalmak
sözler
dilinin
yürüten
takımından
getirilmesi
aşan
tutk
saati
duvarları
girişinde
pazarlama
kullanımını
##US
##unya
inci
plaj
##iyanet
About
edince
halife
Toplamda
Abdülaziz
##lüğünün
Ernest
subayı
oyuncak
anlattığı
74
##ural
McD
punk
Karaç
kaçar
büyüğü
Havaalanı
müziklerini
yarışmasına
Neg
akr
omuz
Dicle
Yağmur
okuluna
Kırklare
Aleksandr
yerleşimi
şifreleme
kategoride
Osmanlıların
##dag
##çin
##lana
Fey
Hok
##leyiş
Robb
Blood
Şişli
Bayramı
kentine
çiftler
cinsinden
desteklem
bulunduran
endüstrisi
kaydedildi
futbolculuk
Nem
lek
bedel
kitle
rakım
Amazon
Viktor
onuncu
şartlar
şehrini
kilometr
Katedrali
ilgilenen
kaybettiği
Danimarkalı
başladığında
##pol
##lica
Cher
muam
##League
Ekrem
düzel
kablo
##ologlar
Habsburg
bağlanan
dahildir
sağlanan
Edge
Ürün
balin
infaz
bulmuş
koloni
Etiyopya
Moğollar
azaltmak
kalesini
oluşturma
imzalayarak
ihtiyaçlarını
##rice
Hub
mum
çamur
Angola
Dallas
Sasani
market
mağara
ateşkes
dönemini
toplandı
##amamaktadır
saldırısına
##ruf
##atus
220
More
Terc
sürüc
topar
##amaları
Mesela
Planck
ulaşıl
standar
toplamak
Bağımsızlık
karakterdir
kapsamaktadır
##ng
Swe
gag
Arka
Stal
tayf
Paulo
refah
##ilvanya
Boşnak
davası
sürmüş
dizileri
hattının
izleyici
alüminyum
etkinlikler
İskenderiye
geliştirdiği
##evit
mide
Ladin
Sürey
İlyas
##ıknatıs
yelpaz
caminin
kentsel
akımının
kardeşleri
kaybederek
beklenmedik
##emy
##ights
##ikten
bitiş
aniden
alfabesi
kaldırılması
kaynaklarında
Rel
##övalye
Baron
Ocağı
tekil
çadır
çarpan
##ological
ikisinin
##arm
##edef
Wis
fan
##Mania
##osman
Benz
Nord
atık
kısmi
ritim
Irmağı
civarı
saniyede
öğrenimi
seçilerek
tanıştığı
Fransızlar
parçacıklar
##ako
SR
Çöz
sevgi
Derviş
fazlası
köylerde
anlatılan
federasyon
Selçuklular
ft
Acı
1879
Tart
yayıncı
Broadway
bulunmaz
idaresinde
soruşturma
kuruluşları
ülkelerinin
##sm
Š
##bos
##kası
Duk
Kok
Lot
trav
İkiz
Kazım
Uzman
rapçi
çapta
hukuki
prestij
yararlı
tanımladı
sanatçıların
##şık
##idel
Esen
Grim
Susan
uçuşu
Advent
Dragon
karaya
üyelik
karşılay
kullanış
##ов
##acy
##oit
##play
##raham
##ronun
##öğren
Nort
Erciy
##lemeler
türüne
Beşinci
görünce
iktisat
Ayaklanması
matematikçi
Suç
Ölü
##ekkür
Hoff
Sosy
##eğince
Girls
keşiş
kurar
##ılırken
Hüsrev
kriter
mecbur
telaff
romanın
Danıştay
artırmak
malzemeleri
milletvekilliği
##aps
Piet
Sezen
anime
books
kiraz
seven
##mingham
tesisi
Taarruz
##db
##rekar
odun
yöre
Asyalı
inanan
sesleri
bağırsak
katılması
görüşlerini
adlandırıldı
parçacıkların
##akt
##asy
##tha
##enci
Ayn
Guide
diller
pencere
Marshall
sakinleri
Kanalizasyon
belirtmektedir
##col
##ario
1835
Beck
Zaten
##mamıştı
Surviv
sigara
gruplara
ülkelerine
ağr
fizy
Söğüt
yüzüne
Şırnak
February
hiyerarş
zarfında
eleştirel
##evo
Imp
Viz
Yir
bör
Veri
Darwin
Geçici
Minnes
destan
ustası
estetik
gereğince
kıtasında
Petersburg
kuvvetlerini
##ilin
sep
Maya
ayet
##akende
Edgar
deleg
Çayır
Studio
termal
##abiliriz
anlattı
bulamadı
yapıyordu
seviyesine
entelektüel
##riyat
Boys
asal
Tekin
tutun
antrop
tablosu
yöneticileri
##ries
##imizde
##lasyon
Hamid
Sankt
gayrim
Seattle
content
gitmeye
##anlığında
açıklayan
kişiliğini
değiştirmiştir
##imb
##yam
Baf
##örler
Soul
Dönüş
Touch
evvel
Mevcut
Leipzig
##55
##ved
##dice
##ülis
Faik
yönelt
tarihin
onlardan
çevirisi
##egal
Joy
adr
Wild
Lumia
Strate
Yenice
fakülte
komedyen
yayınlar
Minnesota
geçirilen
##PA
##liyö
##oluk
Höy
til
1830
1884
Rain
Özer
Bahar
eşleş
koyar
derhal
olamaz
Bilinen
anlamak
elemanı
numarada
etkisinde
Birmingham
##cul
##nit
sez
Fire
Rest
kron
##troduc
Giray
iştir
Yelken
meşgul
Demirci
Vampire
Yarışma
ülkesini
hizmetler
görüntüler
kardeşinin
özelliklerinden
##yye
##inli
##onso
Hul
Lip
Syn
akl
arm
##lılığını
kulüpte
maliyeti
Demirspor
getirerek
Antarktika
EuroLeague
tamamlanan
geliştirmiştir
##uta
##iyar
Git
Hob
lav
##erisi
elle
soyu
Mason
anten
öneme
farkına
taşınır
Otomobil
ediliyor
oranları
##abiliyordu
havacılık
çıktıktan
Yarışmanın
WrestleMania
##sayı
##eğmen
##iminin
Austr
Gelib
sorar
Ticari
Century
hakaret
kaymakam
televizyonda
tanımlanabilir
##cid
##hen
##arin
##nett
Age
kek
taze
Women
elbis
isted
varan
evinin
##ebiliriz
anılmaya
farkında
ilerleme
Fabrikası
Sivasspor
hastaneye
etkinlikleri
~
##omorf
metni
simgel
tabaka
maçının
koruması
örnektir
bilgilerin
IX
Sha
reç
##enkul
##ensis
##esign
##leden
örne
dönmek
gündem
onarım
##ildiğini
çoğunun
Barbaros
Tapınağı
sebepten
öğretmenliği
##erid
Leb
Sih
aşı
Hero
Know
İlin
heter
imkanı
beklent
demiryol
Publishing
basılmıştır
değişmektedir
Sans
püskürt
Karakter
Philippe
yaşlarda
tarihçisi
başlattığı
filmlerinin
sınırlarına
##lid
##iano
Gag
Nep
kın
Plak
Poly
mesl
Mayer
tasarlandı
çoğunluğunu
Fig
Ahit
indi
körf
Köpek
Sabri
beklem
derleme
Değirmen
güzergah
prototip
İstiklal
köylerden
hastalıkları
##ibu
Arı
Lil
dub
##asyum
Joan
sahaya
köyünden
isimlerin
senaryosu
Hayvancılık
politikaları
##mag
##atre
122
ISO
seg
Dawn
Leyla
bilir
panel
vurdu
Süryan
ölünce
##ıntıları
gemiler
ilçeleri
##malarından
Havacılık
karakteriyle
Ust
burj
ilde
seyr
götürür
kurallarına
değiştirilmiş
kendiliğinden
##44
##ores
##melik
Akıl
Bina
Gang
kala
Spart
kayak
Kaplan
Şövaly
akustik
doktoru
taşları
mezarlık
##rio
TS
##akâr
Arc
Tez
Tul
Copa
Gamb
Gökçe
matris
alanını
yaratmak
değerinde
katkıları
sm
##vana
MHP
bkz
Çim
##ührer
Gizli
Geçidi
lıklar
Siyaset
birlikt
koyduğu
cihazları
defalarca
belirtildi
davranışları
##fil
Yo
##tice
stad
Hawai
azled
cadde
zorlu
askere
okuyan
Senfoni
Serinin
Stanley
cerrahi
hayatın
medrese
yayıldı
Jennifer
bölgedir
doi
yin
üçü
Akça
Dere
brand
Evliya
imalat
şiirler
Pictures
gelenler
okullarda
##ás
##kaz
##phy
##val
Ll
hok
İlh
1872
Josh
Dubai
Lynch
farkl
irade
çöküş
##elenmiş
ferman
hormon
silahı
Bazıları
arkadaşlarının
##nâ
##boğ
##ector
##isyeni
Awards
Limanı
semptom
başarıyı
getirmiş
kişileri
şekilleri
bildirildi
birleşmesi
##ić
##tie
Lé
Za
##vanın
Vest
Songs
##ılaştır
Hayatı
Slayer
tutsak
Papalık
sömürge
Osmaniye
vermişti
tamamlanmış
sağlanmıştır
##şa
ag
Agr
Ebû
Hatt
##ildişi
Albümü
Kapısı
duyarlı
kısımda
mensubu
çıkarlar
ellerinde
yayılmıştır
CF
##ülin
aki
##enson
##ılığa
adli
gene
içki
Güler
Never
uzaya
Volume
isimle
müzesi
Yunanlar
acımasız
şehirden
literatür
##iferansiyel
bölgelerine
merkezlerinden
##UN
109
Haç
Aşık
dist
##elerek
Cross
Harold
dünyası
toplumu
Claudius
bilimler
eserinin
savaşlar
sanatları
yetkilileri
istemektedir
görünmektedir
α
##linin
Ariz
Gıda
öteki
konsey
dağınık
domates
düştüğü
finanse
Illinois
ihtimali
statüsüne
yerleştirilmiş
nm
##tane
Cit
Fev
enj
müb
Kiss
Take
kisi
##yıldız
Burun
Harun
Spring
yaratan
işlemler
##cini
##tico
Loc
##orlar
Ajax
Ereğ
Salt
Flash
##acılığı
bırakan
tanışır
engebeli
vermekte
alanların
kayıtlara
seferleri
öp
Merc
işit
##imetre
Alanı
Owens
karma
laciv
çalan
Bükreş
depres
geçişi
rejimi
yürütme
gelmekte
katedral
kazanması
##adüf
##cade
##onne
Ore
##losuz
1861
Borus
kabar
Austin
kaydır
Guardian
görüşler
temsilci
bağlanmış
gönderilmiştir
##şu
##cell
##hana
##less
Dat
##dinal
Fame
Prim
mevs
söylent
almasını
karşılandı
##udak
Pow
app
Konak
Tahir
camii
Patrik
Renault
aşağıya
cemiyet
dağları
çalmaya
kanıtlar
kültürünü
oyunlarda
teklifini
etkilerini
##nis
Üsk
##pektif
Rodos
komik
metaf
boynuz
Hanlığı
archive
filmini
Division
Evrensel
feminist
erkeklerde
öğrencilere
edebiyatında
##BB
we
Poz
##siyum
Boks
Germ
Urfa
##cilere
Bürosu
gayret
Hükûmeti
ayrılmak
liderlik
Belçikalı
çekirdeği
Müslümanların
imparatorluğun
##yp
##aday
Cli
Denn
Erik
fran
Miras
##layacak
gundem
##ietzsche
yaşıyor
Türkmenistan
##esk
##yali
240
Lab
fetih
talebi
kararla
müşteri
saatlerinde
##eçh
##iley
##iper
##iver
##ttaş
lah
Elli
sade
ajans
dönüp
dilini
voltaj
##lemeleri
türlerin
Anlaşması
göndererek
seslendirmiştir
##laç
##uil
Köş
cor
ked
Fren
Eleme
gözle
papaz
Sardin
kışkır
dönmesi
Gelibolu
müziğinin
danışmanlık
##oga
##ınt
Nad
Ziy
sus
##elius
bini
star
nohut
somut
klavye
Norveçli
olaylara
paylaştı
yakasında
EM
##akan
##ality
tram
##luluğu
Maçın
Merce
##itlerin
Olağan
dedesi
nötron
sırası
Üretim
atanmış
kalmaya
çıkacak
##lanmasını
aleyhine
müslüman
ormanları
göstermeye
faaliyetler
kuvvetlerine
##RA
##hay
Tao
kuk
Bert
Prov
Yüce
ofis
##çilere
Bella
Sedat
beslen
itibar
Detroit
aramaya
esinlen
ölümsüz
Rusların
geçirdiler
mevsiminde
değiştirmek
##cor
Das
Şav
Mezun
monte
noktal
bulmaya
çağrılan
Princeton
Turnuvası
kaldırılmıştır
Jin
nas
Kalan
Kavak
Sahil
açlık
ilhak
radar
usulü
vatan
yalıt
Graham
senatör
sermaye
belgeler
mahalleleri
##kurt
##udur
##ument
Yoğun
nihai
yörük
madeni
Türbesi
Yazılım
işçiler
ölümüyle
yöresinde
##és
##rez
Fazıl
süvar
Sparta
odaklı
çözmek
Eğitimi
servisi
Business
yerleşme
tasarımcısı
##hoş
##dışı
Ves
##oğlan
Cruz
Shin
##olları
statü
sunum
Günlük
Küresel
okuldan
projenin
İsrailli
##57
##MEN
Cl
##ilmi
hol
Clin
##apınar
Yücel
dular
mermi
muhas
başını
albümle
sloganı
kalitesi
gerekiyordu
onlyinclude
profesyonelliğe
##koz
##sav
##illy
Ober
##ımızın
Georg
eşsiz
Franco
Mozart
çekilmesi
×
##baa
Syl
São
##thers
kule
liği
Money
bürün
##ization
kaptır
emrinde
katında
metreye
tarayıcı
Eh
##ices
##loud
Zig
alb
Gener
istemiş
Konyaspor
oluşturulur
##hib
Hus
Two
1866
pomp
##ladılar
Amiral
Deutsch
bilgiyi
Sardinya
hatırlat
gazetenin
projeleri
katılımını
Ağı
haç
tom
##zaman
kilo
##ımları
Bizim
atlama
etrafı
lejyon
türden
çatısı
orkestr
Bakırköy
edilemez
terimdir
alanlarının
gösterirler
yaşanmıştır
##div
üne
Dort
Hakim
Stark
izole
##meyecek
Israel
Kanalı
Sezonu
##anlığının
geceleri
lacivert
sağlandı
bozukluğu
##iji
##zad
Gin
Jovi
##esifik
Kontu
paraz
inanış
##iskoposu
Abraham
Danışman
kurumlar
savaşları
oluşturmuş
Cumhuriyetin
##pson
1869
Jess
ODTÜ
iPad
##manuel
Lozan
aşama
sürek
hatalı
coğrafy
sektörü
yerleşk
Öğrenci
dışarıya
hizmetine
##nd
##eus
##opp
aşkı
kanad
Santos
cihazı
sesini
sözlük
Mercedes
üstlenen
gösteriyor
örneklerinden
bede
ömrü
##ilmeden
Sendik
##elopment
Ortaköy
dayandır
doğrultu
başlayınca
milyonlarca
oluşmaktaydı
Büyükelçiliği
başrollerinde
DE
##olan
Fay
Neb
Nig
##zburg
Şehr
##acılar
Ayhan
uzlaş
Herkes
dönüşü
uzunlukta
yapılmakta
çalışmaların
kâr
lir
Rang
foton
##memekle
Spears
götürdü
geleceği
indirgen
sağlayarak
Zah
Pors
##uluğun
Hamam
ayağı
Arizona
savaşan
Yalnızca
articles
eyaletine
##LU
##urk
HT
dig
##ensus
Kuru
veli
Messi
delil
riski
Domini
heyecan
temelleri
kadınlarda
evliliğinden
##ARD
##alo
##head
##inom
MKE
maf
##acher
Barry
Mitch
soğan
sürat
izleri
oğlunu
rövanş
üyeler
başarır
izlenen
resimler
uygarlık
uğramıştır
ceh
kot
##rasya
##tekin
Emma
Zinc
fres
ılık
Aston
Kenya
azalır
tarımı
hastane
telgraf
ayrıcalık
##AA
##ien
Klar
Nasır
kiler
Nelson
fenomen
formülü
kurtuluş
piyanist
içlerinde
benzemektedir
bilgisayarlar
##yaj
##elal
Hut
PDF
Çey
##ierra
Kadı
Mirza
yatan
##lamıştı
Beckett
sandalye
yapısının
##gus
##hun
##krip
Fol
neş
##ianus
keçi
Selen
islam
verip
Necdet
Prensi
üretti
Population
hastalıklar
yetenekleri
##üzün
Coş
Syd
##biyen
##enter
##islav
##kanın
hard
lamb
Katal
Refah
haliyle
seçimler
görüntüsü
cephesinde
problemleri
NO
Zap
##ansta
Merk
parad
Barsel
sınıfta
bataklık
niteliği
elemanları
##onic
Koş
Mex
dog
##adiye
Karah
Üsküp
Gündüz
kırmız
tarafa
tercüm
Sürekli
dergide
yaklaşımı
listelerde
soundtrack
kapatılmıştır
##cra
Fro
Kla
beb
jet
##ebolu
##sinde
damg
view
kürek
Bugüne
Collec
Korkut
Nilüfer
banliyö
Thompson
Nietzsche
Sonuçları
perakende
Aralarında
yapılmasına
##uve
Yav
gezi
sark
##aliman
kente
stili
uzayı
Secret
İsyanı
dağıldı
turuncu
bilimleri
taraftarı
şehirlere
karıştırıl
yönetmiştir
##GA
##lû
##ekir
##ines
##ardak
Anat
ağzı
erit
hâle
Henüz
Talib
##ılırlar
arkaya
eşinin
kaçmak
ürünün
sırayla
Santiago
adaylığı
müsabakaları
dib
Erkan
elmas
##ilmemiş
Nation
Parker
oyların
senkron
toprağı
Johannes
Neolitik
sendromu
çevirmen
sertifika
belediyenin
##ilo
##dıra
##olos
Dob
ata
fit
##burnu
Anto
temp
açmış
##abilece
Kurmay
izotop
Georges
tahtına
yetiştirilen
olabilmektedir
μ
##etty
##iniz
##list
Kamil
İsyan
tavsiy
Senegal
Artistik
tazminat
##fur
##yah
##aden
##egen
Seul
##nastik
Belir
duvarı
grupla
ilkesi
Hermann
Project
örgütün
haberdar
gözlerini
belirtilir
ortalarına
başlamasıyla
söylemektedir
DN
Gav
bag
kuşk
Dayan
Efend
sorgu
kesimi
Topkapı
değişti
sandaly
yıkıldı
çekilmek
etkilemiştir
##jet
Rat
##istry
Kapı
beyan
kuark
hidrol
törenle
çoğunda
çıkarken
Catherine
##aht
##sie
113
##lands
Nihat
Rodri
kubbe
yanından
Barselona
Konferans
olmalarına
incelenmesi
Pist
China
Pedro
silik
Hiçbir
Keskin
orantı
otobiy
amaçlar
eklenen
isyancı
tarzını
engeller
küçükbaş
yüzölçüm
bulunarak
hareketle
ayrılırlar
##ña
##ais
MB
##etli
Tün
arg
##lando
adap
Hızlı
ırmak
Somali
hızını
konuma
Sabancı
Sonuçta
hazırlanmıştır
ME
##lant
Sut
Ural
atıl
##lasını
Basra
Resmî
Telev
robot
tabii
köpeği
reaktör
sanatının
teşkilatı
yaşamının
başlangıcında
##ures
##ştır
sop
Şans
Braun
Cerrah
kabine
master
sınıfa
strateji
##py
##wald
##encia
Gana
Gemi
kürk
##elerce
gener
ihmal
bestesi
çevrildi
belirtmek
savaşında
üretiminin
altyapısına
bağlantıları
##ija
##ırg
##ablo
aksi
lenf
solu
boşal
kalkış
menajer
türünden
Kasımpaşa
sınıfında
dakikasında
##anto
Ment
Kozan
##liyordu
tanıma
##lamasını
bileşeni
çıkışını
restorasyon
çalışmalarından
##uku
##avun
##ethe
çıl
güce
Glenn
fethed
mektub
listeye
dönüşümü
sembolik
yaklaşan
başarıları
Wa
ded
yon
##uşağı
ajan
Halit
Oblas
dizil
işlen
metod
##anlılar
##stituto
okunur
Maxwell
imtiyaz
konuldu
öğrenen
Kendisine
Kuzeybatı
etkileyici
##naz
##rul
##idor
Rid
##osfer
Fron
Slam
##aşehir
Sünni
hikay
watch
Şehit
dolara
salgın
girmeye
veriyor
Partinin
muhteşem
verilerek
Britannica
değişiklikleri
##BI
##zaj
Nâ
##olon
##uver
over
Madde
sonun
Galaxy
kronik
haberleri
sınıfının
yapabilir
##Bİ
Ib
##guna
##sını
Kağ
Pos
Tıb
Vatik
Econom
kostüm
Andreas
engelli
gerçeği
unvanına
açıklamak
takımıdır
yerlerine
DP
cı
İp
fiş
##osyon
Burg
Trib
Danny
Harbi
Hilmi
işine
nisan
sanki
İspir
##ülislam
atıfta
hoşnut
ligden
Ambrose
Stewart
Version
yarayan
Eserleri
evliliği
ilişkiye
sergiler
şiddetle
Yüksekoku
kültürüne
malzemesi
silahları
turnuvayı
öldürülür
İşbirliği
öncülüğünde
birliklerini
gerçekleştirmek
##abad
##hani
konv
##çılığı
Sadık
Siyon
olaya
##ılığını
Nikola
gömülü
insana
Endüstr
alakalı
konuyla
çekerek
çekmeye
arıcılık
partiler
öldüğünü
Portekizce
##iza
TM
##ikan
Sug
sch
öte
##arslan
Ergin
##cılığın
Erivan
Founda
doğada
parayı
Bolivya
herkese
imkânsız
Savaşında
çıktığında
aralıklarla
##fo
atf
##abanı
Neil
Pass
##inceye
##elispor
kıymet
İçinde
buluştu
makineli
gezegenin
katılacak
yıllarını
hareketler
Çol
iPod
ruhu
bazlı
tuhaf
##eleştir
Indian
solist
Vatikan
görünümü
onurlandır
TR
##ceye
Ing
See
deh
##ouard
Eren
asır
moza
sapt
andır
melek
Milyon
Toyota
alınıp
anlama
harika
plazma
resmed
Dünyası
Telefon
Istituto
statisti
çalışanı
tedavisinde
##düm
Nö
##inos
133
Hüm
muaf
##eliğin
Eddie
Hardy
jener
kapit
sürtün
kontrat
oluşması
paylaşım
yerlerden
değişmiştir
takımlarının
##76
##eves
##itin
##lack
##mine
##tier
##elsen
##eston
##çinin
sevg
Griff
Manag
antis
oturt
##eneğini
##ference
Mektup
yürüdü
Lombard
baharat
yetkisi
noktadan
tepkiler
yükselme
iddiaları
mekanizması
yönetmenlik
kaynaklarının
birbirlerinden
Şii
Cass
Vegas
Gustav
Mahkeme
kurtuldu
başrollerini
etkilenmiştir
##tid
##adam
##ikos
##ünik
hek
Alli
Kalp
bale
Anıtı
Tipik
ayına
dansı
##lamasında
Ermenice
kampanya
simetrik
Frederick
açıklanan
karakterinin
yürütülmektedir
##aph
123
yuz
gözü
Harez
Lloyd
bucak
Harper
Kızılır
Dortmund
Nevşehir
restoran
astronomi
topladığı
Türkmenleri
çalışıyordu
değerlendirme
##75
##nü
##gua
Zamb
staj
kırıl
tankı
Diplom
seçmek
Avrasya
Nicholas
yansıtan
ziyarete
modelinin
##nov
Cün
##stadt
Boyu
Fuarı
Hisar
ismin
izleme
vücudun
havaalan
konumunu
çevrilmiş
yaptırılan
kuruluşunun
##âk
##emey
##ersh
##stal
##tium
Box
Set
Tit
##fried
Grön
modi
Mesih
belle
harman
kaplar
sabiti
sezona
Lehistan
Rizespor
kararlar
isteğiyle
kullanıyor
artmaktadır
Ice
Line
karn
Hikây
melod
Social
yeryüz
stüdyol
parçanın
gerekirse
Yahudilere
vermişlerdir
Ci
Aer
Yed
artı
görüşe
Western
alanlara
deneyimi
Samanyolu
sürecinin
mensupları
111
1785
Cook
Cour
Kıyı
Derin
Hattı
##ilirler
Beyrut
Depart
fiilen
konuyu
kıskan
Seyahat
kaçmaya
İskenderun
bileşenleri
##büs
##ocol
##uran
Mum
pre
##ische
Sara
Nusay
Report
dağlar
Değişik
yapıdır
Bayanlar
Muzaffer
Sanatları
bitirerek
kanalları
karakterize
Cu
Aqu
##mıyor
Break
Güçlü
idrar
ateşli
beyler
Orlando
geçirip
değirmen
dillerde
##diklerinde
kalmaktadır
sözcüğünden
ürünlerinin
albümlerinde
istatistiksel
##eve
CS
##anya
##ogue
##trik
##eleme
Maçı
yıkım
Şubesi
Sevilla
metabol
tablolar
savunması
gelişimini
sistemlerin
yararlanarak
##afe
##cit
Fiz
Veh
Maarif
Darbesi
Takımın
Robinson
jeolojik
kadınları
kavramını
uyguladığı
Araştırmalar
taraftarları
Fun
Sis
Zam
##işimi
Pros
Belli
bater
doğar
Atabas
Yaylası
ilçedir
yarısını
olanların
unsurları
Portekizli
düzenlemesi
##OH
##owa
Bea
Tre
##elesi
laik
Diren
Volks
çeyre
##oleague
Dijital
sürecek
Endüstri
dikkatli
makaleler
saldırıda
tanksavar
anılmıştır
##är
##éd
Á
##uld
##core
##ects
Fle
Kıl
Kın
Whe
Again
Marco
cesur
İklim
##amazlar
Dinamo
Tanzim
boyları
##ilecektir
finalden
kompleksi
kalıntılar
##diy
CNN
Ring
##eyting
akraba
kozmik
dışarıda
eyaletin
Sebastian
hesaplama
gösterileri
##zin
##ânî
Ji
Fed
##danın
##lonun
Kötü
Sina
##enince
daimi
Pontus
heyeti
Nicolas
elenmiştir
kavramının
tanımlanmış
##ibar
##ique
oyu
Head
Jung
korur
##iyetine
yüzeye
evlenmiş
Pınarbaşı
##DS
##ops
güt
##ganın
Wars
filosu
hektar
zaferi
savunur
işgaline
yapacağı
kazasında
motorları
nazionale
edilmesiyle
şehirlerinde
mg
##erty
##oncé
bet
put
Dist
Meri
##ınacak
Yarat
##atörler
binada
hidrok
manzar
tabanı
tahkim
##emeyecek
Altında
karıştı
ulaştığı
yaşamaktaydı
oluşturulması
Konfederasyonu
##ûr
##emal
##işer
Vin
vic
Kron
##lıyordu
taştan
##amayınca
Theatre
Yüzbaşı
binaları
keşfetti
Jefferson
bestecisi
−
##kif
NTV
mul
##alize
##ating
barb
ilav
öğüt
Hafız
sular
ölüme
ekrana
lastik
şövaly
Beyoncé
Roberto
ilaçlar
dilbilim
tabakası
tiyatros
statüsünde
tanımlamıştır
##wen
##esif
##lers
Saz
Lake
Pens
ekol
glik
öbür
Daire
Kemer
tümen
boyutta
soyadını
telaffuz
yıllarına
antlaşması
bölümlerde
statistica
Temsilciler
##oko
##pus
##ades
Jose
Kelt
muhab
Platon
Server
Zengin
olurdu
otonom
kazanma
onlarca
ekibinin
Cumartesi
hareketine
çocuklarının
##YP
Ris
cap
ecz
##emann
1600
Cont
limit
öncüsü
bahçesi
şovunda
kayıtlar
sınıfına
Kırgızistan
pg
yut
##irlik
time
çapı
##ground
Mesut
Yaşlı
sında
yazarak
tasarruf
kasabadır
potansiyeli
##üg
ömr
Deri
Gray
Yılı
Harit
varisi
Brothers
çıkarmış
gazetecilik
şarkılarının
##bre
##igo
##kien
##lülük
1828
Kamb
Mend
işin
şarj
##dullah
Isaac
dilek
motos
nöbet
vitam
Gökada
Timber
Walker
apartman
spesifik
görülmeye
Abdülhamit
Kızılırmak
gelişmekte
parçaların
çarptırıldı
##top
##udy
Dj
Dos
##ening
##ebilme
durdu
Cevdet
States
profil
teşhis
##cılığına
peşinde
taşınan
bölünmüş
oynarken
ödülleri
ailelerin
fikirleri
yıldızları
değişikliğe
##GP
##eno
##arly
Saw
Sed
bro
hür
Afro
Bahr
Alper
Başak
Nancy
Rocky
Şafak
Miguel
##alararası
dedektif
kuramsal
birleştiren
##urlu
230
Cob
##amalı
##lines
##şembe
Bana
kayd
üssü
şeye
emper
çoğul
Collins
Onların
arazide
minimum
turkiye
Akademik
Borussia
ilişkiyi
sınırını
taşınabilir
Çalışmaları
diferansiyel
geliştirmeye
##otip
Boe
dor
görk
kore
koşu
##apolis
##imizin
##lemeyi
Mazda
çifte
Comics
kalanı
##ebildiği
diyagram
gözlemci
bittikten
durumları
##ternasyonal
Arjantinli
edildikten
isimlerini
kullanması
motosiklet
toplulukları
##ekin
##lusu
##oğul
##enekon
Grant
Karam
seçme
Queens
Kuantum
kinetik
tüyleri
korumaya
istikamet
isimlerden
araştırmaya
kuvvetlerin
##afat
##hang
Rav
ita
##evher
Nehr
Okan
torp
bozkır
durgun
evlendir
personeli
gösteriler
gelişmesine
Şampiyonasında
##aku
##aşüt
Suy
Vor
dul
güd
Beth
Food
elçi
Beykoz
Yakası
lisansı
desteklen
parçasını
Beylerbeyi
ilişkisini
türetilmiştir
##rot
Nab
gas
##leşir
Dion
Clara
##lemenin
Mekteb
Sokağı
yabani
Kültürü
biyoloji
tropikal
değiştirir
kısımlarında
##ei
##aydı
##isto
##ults
atı
##tadir
1700
Biga
manga
Çıkış
İshak
Georgi
boyuna
evrende
sayının
##abilmekte
arkasına
kimliğini
evliliğini
MA
SU
Dod
Çeç
##azzam
##deksi
##medir
Komn
Snow
Namık
kafat
Ereğli
atılır
katsay
üretime
Kontluğu
metrajlı
standard
şarkısına
kaynaklardan
##GM
##bağ
##riz
##wer
CH
104
Eks
Kus
Khan
hükm
ilke
##ememiş
Chron
kesiş
nokia
yanıl
şahit
##desinde
Defter
karara
maymun
olmalı
kalacak
kiralan
Anabilim
nezdinde
verirken
##nev
Kot
Wag
Çap
vuru
Manav
gölet
yapış
##acional
Jewish
arayan
haklar
kabaca
takvim
Uygulama
geçtikçe
söylemek
##mayacağını
Yenişehir
yakınlığı
yayınlandığı
kaynaklarından
##PN
##inko
Peh
çil
##laşır
##tific
Hend
pank
poli
efend
genom
Özkan
Hawaii
rassal
okullar
olmanın
parçaya
Abdülmec
masaüstü
Wikipedia
kaldırmak
mücadeleye
sürdürdüğü
kapasitesine
##LI
##aköy
##cial
Von
you
1839
1862
Koyu
Rous
atlı
Bebek
antib
Basile
doğası
hafıza
mektubu
şampiyonluğa
Zi
##ayev
Gom
Low
Pla
dif
yığ
Sahra
story
Nathan
körfez
rektör
Masters
dondurma
tamamlamış
##OK
Ju
##avat
##gins
##iman
AFC
Lep
##atepe
Bach
Cole
past
ilkbah
##lemesine
Maurice
kopyası
Bizanslı
Katliamı
halkları
saldırır
IBM
yır
gluk
Değer
Halif
durak
geyik
nehrin
seçmen
vücudu
Library
alamadı
denetimi
sürecini
İstasyon
teorisinin
MD
##ards
##laşa
GPS
Hos
Kov
syn
uns
##entin
Jama
aziz
rele
skan
yenik
Ecevit
kaydol
Yazları
bitişik
denizde
kaçmayı
nehrinin
biçimleri
madalyası
belediyedir
##aser
##ifon
##lard
Ple
küf
pus
##ledge
Aslı
Oset
Word
medy
ünit
Ingil
Larry
remix
buyruk
günler
Ceneviz
genişleme
kullanımda
kesimlerinde
##luca
##tali
Çeş
##tural
##uthor
1856
##lético
hacim
pasif
canavar
evlenir
dışından
adlarıyla
çevresine
bahçesinde
canlandıran
##âd
##İR
##roy
##üda
##ches
##olet
##oria
##site
Eis
Rok
şut
##minin
Glas
Horn
İdil
gayri
Zimbab
sabahı
temalı
dökülür
teoremi
Komisyon
lisansını
##upe
akar
ayin
After
Allan
Duvar
Kaide
Çıkar
Sierra
deneyler
kurtulan
psikiyat
Kullanıcı
antrenörü
yaptırdığı
uzanmaktadır
satılmaktadır
##ozu
##amit
##atar
##âtın
Kli
Anak
##mazlık
Maraş
çeşme
Antlaş
Hukuku
editörü
fırtına
sadakat
azalması
bekleyen
inanılan
çıktılar
Foundation
bitkilerin
toprakların
yanlışlıkla
etkinliğinde
##fel
Rı
ss
##mana
uyk
ahal
##gresif
Bobby
Speci
first
Atilla
Birbir
Ceyhan
Xander
alıntı
Herakle
etmekle
Günümüze
Platform
normalde
yapılmaya
azalmıştır
bölgelerin
##söz
##tren
NBC
cat
Şal
Soft
zeki
Hande
Bangla
okumak
tesadüf
Salvador
formunda
rakibini
Başkanlık
Seçmeleri
kampanyası
mürettebat
##ayak
USB
Uni
Beden
şaman
Hikâye
Person
Turner
sesler
Vilayet
tuttuğu
Atlético
Brooklyn
kuzeyden
anlaşıldı
tamamıyla
varlığına
hazırlandı
sayımlarına
##ibr
##ceae
##lett
Iran
Oslo
dörd
Tugay
dedik
##iyorlar
Cemaat
yorumu
Janeiro
Ordular
ikisini
alabilir
##dıklarında
edebilmek
sahneleri
sözleriyle
kayıtlarına
##EG
Clev
Alanya
Lakers
##iyetinde
adaları
filmden
çıkmıştı
Yahudilik
gelişmeye
hazırlayan
albümlerini
gösterilmiş
şarkılardan
yerleştirilen
özelliklerinin
##entz
##vesi
Sco
aşın
erer
Bulan
Nexus
divan
gönül
harab
güçlük
hoşlan
##izasyonu
Ödülünü
anlamını
Ergenekon
yürüttüğü
Euroleague
kullanmayı
hakimiyetine
versiyonunda
yetiştirilir
##arek
Fos
Peç
Haft
Bruno
macId
parkı
Goethe
köylere
şekline
kurtarır
rastlanan
üretimini
kesintisiz
keşfedilen
ilişkilerin
kurulmasını
##bot
##aron
zik
Batum
Yüzük
bahar
yığın
ekseni
vaftiz
yatılı
ölçümü
ömürlü
Chamber
Milliye
aralığı
cephede
oranına
üretici
Paraguay
binasının
festivali
öldürmeye
parçacığın
dizilerinde
##ugg
##ible
Gub
##madık
##ilince
##usuyla
Cafer
Haliç
Kings
Party
Santr
Veter
ateşe
sözde
gözler
dikkati
garanti
hukukçu
yasaları
geçirmeye
hastalığa
gruplarının
versiyonları
##nez
Iv
##auer
##ilde
##stır
Acc
Lik
MVP
blu
geb
1859
Feli
Fres
arzu
##başkan
Aires
Derek
elden
forum
Höyüğü
##istlerin
Service
youtube
katılımı
teşebbüs
öldükten
boyutları
farklılaş
yazıldığı
firmasının
kısaltması
##ifi
##emya
##ölye
##aydın
##emekte
Oklah
##diğinde
Falcon
Öğrenc
Cenazesi
Stanford
kablosuz
kaplayan
kazananı
mevcuttu
makamında
Technology
kooperatif
sanatçıları
##asta
##tius
Zaz
olg
Bitk
Sına
mete
Every
Olympi
tribün
Herbert
Kitapta
gazetede
kitabıdır
çıkarmaya
sistemlerde
##WV
##nie
##aria
##gang
Tef
fal
tev
çır
Siir
seti
Şube
##castle
Eşref
balina
havanın
istendi
medyada
çerçeve
Tanzimat
üçüncüsü
bünyesine
yöntemiyle
##inir
280
GSY
Çiğ
##işsel
Merz
alaş
##abinde
Basit
Laura
çayır
Buenos
Heyeti
Knight
Torino
Mülkiye
Portakal
aileleri
organları
seçimlere
değiştiren
sebeplerden
mahallesinin
sezonlarında
##ümen
##imize
Alab
Guat
Jüri
akla
koro
Wyatt
karad
Rumlar
Schwar
İtilaf
hentbol
onuruna
çıkmayı
boyundan
dereceye
yaşamakta
Statistical
BA
##ceti
Pis
coş
##seler
Esad
Komit
Kuman
Topçu
Kapalı
korkut
depolan
mesleki
tanıyan
Alternatif
ortalamaları
gerçekleştiği
##lumb
Raj
non
Hubb
müsa
Texas
manif
Galata
çarpım
ölmesi
##alıların
dağılmış
mekaniği
Adapazarı
düşünerek
verilerin
bilgilendir
fotoğrafları
##200
##cah
##oux
##uff
Hi
Zo
ız
##more
Kurş
down
ilim
ölçe
Basım
Gönül
Terör
Mahall
endişe
kapağı
folklor
havadan
Çankaya
Andronik
Müfettiş
egemenlik
kelimeler
seçmiştir
Almanların
makineleri
imparatorun
koleksiyonu
dergilerinde
##cat
##alay
McK
gole
Ofisi
Sokak
harap
Galileo
geçmişe
giymeye
madalyanın
çıkarılması
uygulanabilir
##lee
##ğiz
SG
##mese
##news
Eşi
Raf
kirli
Boeing
akımın
sensör
atılmış
güvence
düşündüğü
şirketini
sıralaması
yaratıcısı
##pot
ro
##aladı
Curt
Feri
Vefa
wind
rakımı
çiftin
rolleri
hanedanı
şarkısında
birliklerine
##cc
##escu
##taşı
int
lob
Crit
memel
sinin
##lebilir
yazmak
Country
olsalar
sonuncu
Berkeley
akvaryum
düzenler
oyununun
tasavvuf
öğrenmek
transkrip
yapmasını
Sözleşmesi
düşünceleri
kuruluşunda
birleşmesiyle
rastlanmaktadır
##İL
##oji
##eviç
##yang
Aus
RAM
Unut
Year
safh
örgü
Damat
Evrim
golcü
minar
Üstün
azalma
eğilimi
seferde
Başarılı
Protokol
etkiledi
yollarla
Leningrad
Peterburg
gelmesini
bulunmadığı
kaynakların
kullanılacak
arkadaşlarıyla
Pt
550
##skaya
##üzyon
4000
##ılırsa
Görüş
Kerem
husus
sıkış
çalma
alışıl
geliri
renkler
babasına
başarmış
girdiler
dalgaları
yarışmaları
##uza
CM
Nut
Ran
bus
müş
##ülüğü
Durum
title
türkü
Athlet
Geçmiş
adalar
kaleye
çevrim
Dimitri
ayından
##melerinde
kökünden
##igi
Cru
Edu
##encer
Want
ekim
klas
ödem
##cıoğlu
Düşük
melez
uğrar
Özcan
Tevrat
Warren
devasa
garniz
yazdır
denilir
gitmesi
hayalet
Akkoyunlu
Oyuncular
etkisinin
olaylardan
yapılırken
yazarların
yeteneğini
bestelediği
sci
##iyete
Frit
Yale
işte
kimin
tuttur
##leşmiştir
Oklahoma
Andronikos
köylerinde
##uşa
##uarı
Feh
Lop
Pam
##abilm
##amond
##ğiniz
dışa
Cephe
Garden
Murphy
Tarkan
bürokr
Muhafaz
izlediği
Simpsonlar
##oro
TB
##ahon
##anos
Doç
rüş
##ution
zann
keşfi
kaplan
İlkoku
Sarıyer
evlenen
iskelet
nakliye
birimler
krallığı
verilmişti
Justinianus
Kocaelispor
getirilerek
##nas
210
Göy
Kod
Rib
Tuf
akş
##osent
Scar
Bahçe
Galya
Mehdi
çekme
Kasaba
dediği
Karakeç
almadan
görüşme
katsayı
temsili
bitkisel
kalsiyum
Ölümünden
konumlandır
##ər
##gue
##kıl
IN
##agel
132
TCD
ars
##ading
##rolar
kalb
##caları
Orion
nahiy
kadına
sonuca
Tolkien
Şarkısı
Standard
romanları
sporcular
sürümleri
taşınması
yaşandığı
denmektedir
yazarlarından
Bh
##amız
##ippi
119
Sti
Was
##wagen
küre
pant
sine
Şems
##hausen
Denis
Sever
durur
##ılmakta
Castro
Raporu
havası
Diyanet
haberini
Osmanlıca
maçlarına
zamanının
çalışmayı
##eba
##ğun
##ouri
Alg
teğ
çöp
Baha
Toul
adla
Hotel
Matba
atlat
##ildiler
##ilmeyen
fethet
katled
klipte
kızını
yorgun
Roberts
emretti
polinom
Klarceti
Survivor
görüşünü
kulübüne
sorumlusu
sahnesinde
dağılımının
##ival
##varı
çan
##ender
##ovski
Nürn
ahla
evre
Özal
çayı
koyan
tuğla
Bullet
Harezm
feshed
garant
kavuştu
odasına
örgütlen
ordusuyla
kullanımının
##şid
İy
yiy
back
erim
mart
Bitki
Polat
Strat
doktr
elini
heavy
sordu
Safevi
kartal
mimarı
ayırmak
biçimli
bırakmış
sahneler
arazileri
kraliçesi
##atin
##icks
gan
##gions
##hassa
Avni
Gene
Mecl
Nest
morf
sant
İlde
##ekleri
Nizam
montaj
katalog
sürecine
öğretime
Newcastle
arttırmak
gençlerin
karşımıza
ortaklaşa
kaçınılmaz
Yos
##dukça
Havz
kehan
Marsil
Donanma
Tiberius
bağlılık
projeler
hücrelerin
tutmaktadır
tartışmalara
##asso
##idze
Ced
Ges
nüs
Trac
maks
otop
##ometre
Baskı
Randy
Eczacı
tertip
dalıdır
mutfağı
##melerinin
kasabada
sürgünde
gösterisi
##ganda
##urity
Siri
Devam
Devri
GSYİH
Siirt
Şaban
##icileri
açarak
açılışı
yıkılmış
ışınları
adamlarının
bağlantılıdır
bırakılmıştır
fonksiyonları
karşılaşmasına
##HC
##iyo
##tap
##aran
##olin
Log
Kras
Canlı
Hatip
Kuran
gölün
seçer
vesil
##ometrik
Arnold
Bremen
Weekly
kanıtı
Koordin
çizgisi
havayolu
kilogram
makalesi
tanıtımı
temizlik
nedenleri
tehlikesi
teorisini
kuruluşlar
kullanıcıları
##ways
Lug
Mick
yöne
Venüs
İşler
Mevlev
orduyu
Çerkez
Bangladeş
geldikleri
bilinmemekle
direktörlüğünü
##bs
##lağı
Alam
TCDD
Manis
Güncel
devret
kurulur
annesini
çiftinin
yaratılan
bilinmekte
##edd
ST
Süv
##tario
1857
Nice
Utah
spin
Kongr
Tacik
Whedon
siyasî
tatmin
yönüne
##asyonunu
Apollon
##troduction
Cleveland
eleştirmeni
##izz
##alın
153
Sri
maz
##yayla
pres
Leeds
gücün
##a
##e
##i
##n
##r
##l
##ı
##d
##k
##t
##s
##m
##u
##o
##y
##b
##ü
##ş
##.
##v
##g
##z
##h
##c
##,
##p
##ç
##ğ
##ö
##'
##f
##1
##A
##0
##B
##"
##2
##S
##K
##M
##T
##9
##D
##-
##E
##H
##P
##G
##C
##İ
##)
##(
##8
##3
##5
##F
##4
##7
##6
##R
##O
##Y
##L
##N
##w
##/
##I
##’
##j
##:
##V
##J
##Ş
##U
##W
##Ç
##Ö
##;
##â
##Ü
##x
##Z
##î
##%
##“
##”
##_
##X
##é
##–
##q
##=
##[
##]
##&
##?
##Q
##û
##á
##!
##+
##‘
##|
##ó
##í
##ä
##°
##а
##ć
##è
##ō
##ا
##>
##о
##и
##$
##`
##<
##ə
##е
##š
###
##р
##Â
##н
##—
##ā
##α
##ë
##É
##ل
##ñ
##ú
##́
##*
##с
##л
##ã
##ر
##в
##č
##к
##»
##ê
##«
##ū
##т
##ο
##ø
##Ğ
##ن
##م
##à
##ي
##و
##ł
##ς
##′
##ρ
##−
##€
##ب
##ν
##د
##μ
##ი
##×
##ι
##ô
##å
##у
##λ
##ა
##ß
##•
##τ
##ī
##д
##æ
##س
##м
##ž
##ă
##£
##ε
##σ
##π
##Š
##г
##~
##й
##β
##ș
##κ
##ت
##я
##ы
##γ
##ه
##С
##ی
##Á
##ع
##А
##ē
##б
##→
##п
##ʿ
##ე
##η
##ч
##ح
##„
##^
##ق
##ń
##ա
##ة
##ï
##Č
##δ
##ს
##υ
##ί
##θ
##з
##}
##ò
##י
##ω
##ج
##ά
##ь
##რ
##ό
##К
##х
##ش
##Р
##·
##ð
##ė
##М
##ف
##Ž
##φ
##ו
##{
##ك
##ý
##Å
##ო
##®
##В
##ز
##О
##ì
##ლ
##ц
##Î
##Б
##ː
##@
##Г
##П
##Δ
##‚
##⁄
##Т
##ő
##Н
##ნ
##э
##ר
##Đ
##И
##خ
##\
##ה
##ś
##ն
##ш
##ţ
##ě
##έ
##ù
##±
##Д
##đ
##მ
##א
##ვ
##ր
##أ
##ę
##ל
##õ
##ˈ
##ή
##₺
##ύ
##Ō
##ř
##מ
##ط
##ص
##Ø
##თ
##ბ
##Κ
##ב
##ո
##Σ
##Ə
##َ
##ש
##χ
##ḥ
##ζ
##ж
##ى
##Π
##ת
##ъ
##ġ
##ン
##‟
##ک
##ե
##ხ
##ー
##ą
##Е
##Α
##غ
##უ
##Л
##დ
##Æ
##Ł
##Ω
##ț
##ד
##Λ
##ի
##კ
##Ó
##ʼ
##У
##ּ
##ŏ
##ा
##ŋ
##і
##्
##・
##Μ
##З
##Х
##ւ
##र
##ტ
##გ
##ż
