[PAD]
[unused0]
[unused1]
[unused2]
[unused3]
[unused4]
[unused5]
[unused6]
[unused7]
[unused8]
[unused9]
[unused10]
[unused11]
[unused12]
[unused13]
[unused14]
[unused15]
[unused16]
[unused17]
[unused18]
[unused19]
[unused20]
[unused21]
[unused22]
[unused23]
[unused24]
[unused25]
[unused26]
[unused27]
[unused28]
[unused29]
[unused30]
[unused31]
[unused32]
[unused33]
[unused34]
[unused35]
[unused36]
[unused37]
[unused38]
[unused39]
[unused40]
[unused41]
[unused42]
[unused43]
[unused44]
[unused45]
[unused46]
[unused47]
[unused48]
[unused49]
[unused50]
[unused51]
[unused52]
[unused53]
[unused54]
[unused55]
[unused56]
[unused57]
[unused58]
[unused59]
[unused60]
[unused61]
[unused62]
[unused63]
[unused64]
[unused65]
[unused66]
[unused67]
[unused68]
[unused69]
[unused70]
[unused71]
[unused72]
[unused73]
[unused74]
[unused75]
[unused76]
[unused77]
[unused78]
[unused79]
[unused80]
[unused81]
[unused82]
[unused83]
[unused84]
[unused85]
[unused86]
[unused87]
[unused88]
[unused89]
[unused90]
[unused91]
[unused92]
[unused93]
[unused94]
[unused95]
[unused96]
[unused97]
[unused98]
[unused99]
[UNK]
[CLS]
[SEP]
[MASK]
ا
ب
م
د
##ان
و
ک
##ای
##ست
##ار
در
.
##ین
ت
ش
س
ن
ر
،
به
##ده
##ال
آ
از
##ند
##ور
می
##ود
ه
پ
##ام
##های
است
با
##یر
ف
ج
که
بر
خ
##یک
##اد
این
##لی
را
گ
ع
##رد
##اه
##ات
##ون
ق
۱
##سی
##اب
ح
ز
##ری
##یا
##شت
##ها
##وی
آن
(
)
یک
##ول
##یت
##اری
##وان
##فت
هم
سال
##یل
##انی
##رو
##از
##تر
##ید
##است
##وم
چ
##یم
ان
##اس
##هر
شد
رو
شده
##خت
دار
"
او
بود
۲
##رک
##ایی
##اده
##ستان
##زی
تو
##را
##مان
برای
ص
من
##نگ
کرد
فر
میش
##گاه
ط
ل
:
##گر
ام
ایر
مو
مح
-
##یز
آم
##بی
یا
##لا
خود
سر
اس
شهر
##تی
کار
قر
##یش
مت
##فر
دارد
میک
تا
##له
ایران
مع
##اشت
##اند
۱۹
دی
میشود
۱۳
##اش
مس
نام
##ههای
##ادی
##اق
دو
«
جم
»
##بر
نم
##نی
ای
/
وی
##اخت
##وت
گر
##اک
ی
##قی
۲۰
ال
##ورد
قرار
##انه
نو
##اره
##می
کر
##گی
مر
بی
شدهاست
مد
##وری
##نده
بو
غ
##الی
ار
##دهاست
کش
مج
نیز
##خش
##شک
داشت
دست
پس
##دی
##اع
ده
##وز
باز
دان
کن
##عه
فیل
##مین
عن
روست
##شگاه
مق
##توان
##قه
##شم
##عد
##وب
واق
##عیت
##مد
نق
##امه
##اح
##کن
##فی
,
بخش
توس
##جه
##ریک
##بت
عنوان
هر
##وس
##ونی
واقع
##گیر
نظ
مرک
فیلم
دور
##شن
میتوان
##فته
##نین
بازی
۳
##وه
##امی
##زار
##an
تر
##ارد
استف
عم
##شد
اش
همچ
استفاده
ساخت
##er
انت
##بان
آنها
اص
کم
میب
نفر
سی
مش
؛
میکند
##اپ
##اط
##بال
پر
جه
##یه
##جود
آمریک
تح
##وند
##اف
##الات
##ورت
آل
پای
دیگر
کشور
پیش
اع
##وار
##اص
##رب
##زر
بین
##in
داد
##or
توسط
##رکت
##ترین
##وش
هست
##گان
##on
یکی
ژ
شم
شهرستان
جمعیت
##عی
جن
اول
استان
##که
##تاب
اد
میباش
بن
##رف
##شته
##در
##امل
مه
##ازی
عل
مرد
اف
##به
اج
نش
بسی
همچنین
۴
##اریخ
##هایی
شک
بزر
۵
##اخ
تن
##ایش
اما
تاریخ
کل
۲۰۱
روی
خو
##گرد
ات
پی
##سه
##نج
میباشد
روز
کتاب
شرکت
اه
زیر
##نامه
وجود
##خص
##من
آمریکا
زی
بودهاست
1
##دا
میل
##مانی
##مت
##تش
۲۰۰
##گذ
مورد
##مو
انج
خان
##ارت
منط
انگ
صورت
##ar
شر
##لو
گرو
مان
##شی
##اسی
آب
فوت
دریا
بار
هستند
هن
ملی
A
2
گرفت
روستا
اند
##هنگ
اح
##ئی
بد
##en
##ایت
##ره
##ینی
عب
مرکز
حال
تأ
S
بزرگ
##زه
سط
زبان
ساز
میر
C
##اید
چه
سپ
##es
سه
تم
نی
چند
کو
تیم
جنگ
فوتبال
##لس
زمان
##ابع
نس
##اج
۱۳۸
هو
زمین
فع
جای
بیشت
کرده
تص
سطح
۶
##۰۰
منطقه
##کت
##اهی
بعد
دانشگاه
کند
باشد
بال
متر
برخ
##سان
اق
زند
##ti
متح
##رات
##دار
ض
گرد
##کان
##کی
میده
داده
گروه
##al
##لید
##دید
##مه
##نند
##ادر
مص
##تم
شن
لی
نخ
میلادی
فعال
حد
شود
انجام
کیل
##مل
##لام
##اتی
ور
##بو
M
##زد
##ثر
##قل
حس
راه
##لف
##رین
ست
اط
نقش
٫
##حی
P
##سته
سو
۷
##فه
تب
دوم
دارای
##کر
ترک
۸
##ونه
T
##ابل
##یکی
رس
##نه
آز
##سید
بل
##چه
هی
##نان
##هاست
##گیری
##ندی
میکنند
##شماری
شاه
##او
دول
##ابر
–
محمد
گذ
##لیل
##رم
اشاره
ایالات
تق
متحده
##ed
##دان
علی
مط
۱۸
۹
ث
##هران
دهستان
##خان
سرشماری
فار
نظر
##کس
مجمو
##ویس
فران
##ائ
بیشتر
##طور
سن
##he
کیلوم
دوره
میان
شه
##ودی
ارت
بوده
نیر
آر
آمار
تولید
انگلی
##ومی
تهران
c
ند
##ستم
##خاب
##گری
بودند
شی
مانند
خط
پرو
شب
f
زاده
تع
##ربی
##ستر
##بار
چهار
طول
گل
باشگاه
اهل
##ژه
##دهای
٬
مخت
بسیار
##غی
تج
##ضی
ماه
قب
معم
سیا
نخست
t
اولین
میشوند
B
_
##کو
اصلی
برگ
روستایی
سل
حم
مردم
##برد
##کار
انتخاب
داشته
##la
فعالیت
D
##is
ذ
توابع
میدهد
انگلیسی
##ic
##لوی
w
##عات
همر
سب
مست
جام
مث
آغ
##ازه
شور
##جی
غیر
مرکزی
دارند
اب
##اساس
##کتر
خواه
##شار
##اور
فرود
بیم
براساس
##سر
##ایل
##ht
یافت
شامل
حک
جهان
نشان
برخی
##طه
20
##ضو
سازمان
ولی
رفت
جز
##فا
موسی
##عت
میکرد
##om
جان
p
آغاز
قط
۱۳۸۵
##مای
همان
##گو
دن
R
مل
I
فرهنگ
بع
زندگی
کیلومتر
همراه
s
مار
##الت
۱۹۹
۱۲
##ایر
##ضا
o
##آب
##وق
##ینه
مخ
##قات
پار
##دم
دولت
##این
##غییر
ایج
##ویی
نزد
تغییر
منتش
بالات
##یده
کردهاست
دلیل
نمای
تنها
کردند
منتشر
۱۳۹
##ما
کلی
اگر
قل
تشک
شکل
پیر
بسیاری
شان
گرفته
ایجاد
##یمی
کردن
##سازی
اسل
##ریق
رسید
نمود
اخت
##جر
##باره
سیستم
نه
##جا
جمله
##شتی
ساخته
##امبر
##با
##ستی
E
اثر
اطلا
تشکیل
##یره
توان
خار
##یشه
##ینگ
حدود
ارو
تعد
##اخته
شدن
بهطور
##at
##ندگان
شخص
ری
##ژی
##صل
شدند
##خانه
هنر
##le
##it
همین
##دو
##ئیس
میشد
روش
۱۰
##وئ
بیش
جمه
افز
سنگ
ایرانی
جدید
آث
برد
##صد
پرد
بالاتر
کوچ
##بع
توجه
باید
##یری
فرودگاه
##re
##فاع
خوان
##فق
حض
همه
##آباد
وق
تک
دل
##خو
اک
موسیقی
مجموعه
F
ظ
نخستین
##انت
اسلامی
سری
##ابی
##tp
##داد
اسپ
جهانی
گفت
##یاز
میلی
##بری
L
##ومت
##نت
##اض
##http
##ولا
فرو
برنامه
H
مین
پنج
##ورش
##صی
مختلف
مساب
##شناسی
##احت
N
صف
##رائ
جو
نیست
نوع
هنگ
##اگ
آثار
جمهوری
اخ
حق
##خانوار
میتواند
سین
of
میگیر
##as
مهم
##نا
##ریان
کام
رود
##پی
میز
##راف
۱۵
مساحت
مدیر
تلوی
قد
علا
G
##دام
تلویزی
دوران
##ران
##گز
##رسی
##ضای
##سیس
سف
##وهای
##ia
##بود
طب
کان
##یند
##رح
##لاح
اساس
تحت
##داری
##نش
##لب
دید
##وک
فرد
##tion
حضور
##یدا
پایان
افر
برابر
۱۹۸
##المل
نسبت
مم
اقت
داست
آموز
##ولی
خانو
کنند
ایت
##سم
##وبی
W
##ایج
اروپ
صن
نگ
کس
گفته
باع
میآ
اینکه
##وید
سپس
باعث
##ونت
سوم
ابت
کارگرد
ته
##انیا
کوه
##ویه
خی
##et
وز
جنوب
فرمان
##راحی
رئیس
عمل
مک
وارد
##ندان
قان
for
زیادی
های
##نام
تمام
گو
##شاه
##and
داخ
پدر
##نو
شمال
http
شناخته
کی
##اعی
##ذیر
فارسی
بینالمل
##الیا
شیر
سالهای
پل
##دین
پاد
مدر
فل
دانش
##mu
هد
d
رنگ
##ol
ورز
ادامه
##اشی
نویس
۱۱
آسی
ریا
طی
##یکن
آلب
##جمه
##ou
##زب
سیاسی
جایزه
##صر
هند
قدر
فرانسه
##وست
خانواده
۱۹۷
##ستانی
اقتص
##وانی
میدان
##دها
هیچ
داستان
تعداد
اعلام
قابل
نور
##روف
ترکی
موفق
شع
##ri
##کننده
##لق
##پر
##تری
##گذاری
##صیل
یون
۱۷
##یدی
##کل
##خه
ممکن
##تا
گستر
کمک
##صول
##دن
آخ
##el
افزایش
##ing
قهر
##اران
خر
ره
##قیق
قس
مغ
آذ
##باط
##دال
##ابت
ما
۱۶
فرا
بینالمللی
یاد
کود
محل
##یتی
وا
مرگ
چون
گی
##سیم
معمولا
یع
طبی
خاص
غربی
شرو
دریافت
##تور
##انس
مؤ
سوی
آلمان
دیگری
=
درباره
دخ
گردید
نتی
##تق
##دیل
##il
مسک
زمانی
امرو
جهت
انتق
##سد
تأسیس
۱۹۶
طراحی
محصول
خواهد
##واره
هزار
مسئ
قسمت
افت
۱۴
رشته
تبدیل
a
موجود
ول
##ریه
شروع
نیاز
##لاف
##حه
سید
##ولد
خانه
انتشار
آلبوم
##راک
پیدا
بالا
نمایش
طریق
مسکونی
##مر
سمت
افراد
مجلس
##رای
چاپ
##mula
نتیجه
دری
##سل
##ir
نوشته
بدون
انسان
فرز
میگیرد
##اله
##ثیر
مذ
طرف
بریت
کاه
مب
گون
آورد
اطلاعات
##کاری
حکومت
یعنی
لو
b
بنی
زن
تلویزیونی
##ریف
##ch
formula
قرن
انقل
مشه
n
##ویت
عبارت
ارتباط
آور
##سون
قبل
##مز
مربع
##سو
درآ
دین
مشت
چشم
مدت
اجتم
صد
رق
##زشک
بازیکن
##جم
نیم
درگذ
##ra
فی
شهری
فق
مربو
تخ
توسعه
##زا
ارد
آزاد
ناح
##ro
فصل
مناط
تاب
شدهاند
حزب
کنار
جنوبی
J
بهترین
نوشت
the
شرقی
هفت
صح
عضو
مواد
##ولو
##گردد
باش
قانون
بازیگر
شبکه
بان
دهه
##شکل
##سن
آهنگ
m
جریان
بیماری
آنجا
##بانی
زمینه
in
وسی
سلط
پسر
پرداخت
##اسب
مطال
کری
کوچک
معر
مشخص
علمی
کاهش
##رائه
عر
برگزار
ارائه
تف
عمومی
O
مای
خبر
آمد
مربوط
##صو
۰
تور
ارتفاع
##ندگی
نزدیک
قدرت
شکست
اروپا
کا
آمریکایی
ژاپ
##هن
دنیا
##us
زنان
منظ
ژان
جل
مکان
تحصیل
مناطق
##تن
##تل
##اطر
##راق
ساب
خد
ناحیه
ژوئ
میلیون
##تو
کوت
راب
##ew
الکتر
##کنون
خورش
مرت
دختر
اجتماعی
201
نیروهای
امپ
##فاوت
نظامی
##لیه
3
##ندر
##غان
تاریخی
حمله
ww
##بیر
علوم
بنا
مسابقات
کارگردانی
خصو
پزشک
روسی
پژ
##طی
۲۵
##سال
##ایه
##اسان
##چی
##ساز
##شهای
##میت
چنین
com
موضو
##نامههای
عبدال
##ent
رای
عملی
حتی
کرمان
کنتر
میگ
موج
حالت
##اپیم
##اعت
پایه
میرود
خاک
www
انقلاب
##۰۰۰
جشن
پاس
دستگاه
۱۹۵
معروف
عه
درجه
ادبی
الم
##قر
مسل
##اکن
##کرد
##id
بازار
تأثیر
مجموع
گزار
نیروی
شمالی
برج
##میم
ارتش
##am
۱۹۴
19
شورای
ویژه
بیر
حاض
and
پلی
اسک
The
احمد
##اسم
پوش
##پرد
هنگام
##خوان
##وزه
##وریه
داشتهاست
##دهم
ثبت
سرد
200
سام
اندازه
ساختمان
##اصله
ایتالیا
تهیه
کشورهای
##نای
##سوی
##لند
##سین
ماده
۱۳۵
مادر
##ابه
بودن
کال
##اصر
##یار
##داشت
حاضر
##زمین
##اتر
اجرا
درصد
وب
هدف
حل
حقوق
کنترل
##بندی
##رید
حسین
پژوه
همچون
روستای
##ظه
کامل
بررسی
جوان
##وله
هواپیم
دکتر
برادر
ویر
##سا
کسب
مقام
##وف
گونه
حرکت
##قیم
تش
موق
##تیب
غرب
طبیعی
احتم
مدل
نف
##دود
اور
##رژی
امکان
۳۰
مال
مالی
۱۳۷
فرهنگی
V
باند
طرح
دام
سبک
فلس
تقسیم
بیان
##زارت
خارج
باشند
##بل
مرح
وزارت
امپرات
تلا
روزنامه
ویژ
ارز
##وا
برنامههای
حی
##بات
##رافی
K
ابر
##خی
سیاست
آی
اتح
رسمی
اغ
انرژی
منت
محی
شو
بح
بریتانیا
##مایی
جامعه
تصو
U
##بور
آنان
مها
نرم
اسلام
##جو
##هم
بازگ
سایر
##سیون
##ers
ندارد
'
آس
ها
واح
دهد
##ik
پن
##پل
##گانی
اعضای
آموزش
##ریز
شخصیت
آخرین
##غول
نسخه
میدهند
مشکل
سخ
نویسنده
%
انگل
##سک
ازدو
صفحه
##الب
ازدواج
شماره
##انگ
ابتدا
سرعت
۱۹۳
مهر
استاد
آذرب
##تون
علاوه
مقابل
اشت
تی
##ویش
لب
خودرو
مشغول
بنابر
##علی
دنبال
##ip
بخشی
##em
##زاده
آذربایج
داشتند
اصفه
تئ
##دری
چندین
شاخ
معرفی
نگه
نفت
همکاری
##ورک
فرای
چین
##اشته
حرف
مثال
افغان
دیده
روح
شرای
شوند
##ur
##ادل
بزرگترین
فرزند
مدرسه
##گار
##واع
میگردد
پذیر
##ههایی
بدن
مدیریت
سیم
کمی
سفر
قلعه
##وریت
]
سیاه
برنده
۲۱
ساعت
[
قم
مهند
##وسی
ایل
##os
پایین
میزان
عراق
##ابد
خاطر
ترجمه
##ابان
فقط
روسیه
شرق
ترتیب
یه
##وده
ایالت
موضوع
منابع
انتخابات
فاصله
هج
وس
##ئت
##الله
گزارش
##op
ژاپن
##شر
اقتصادی
غذ
اسم
##الدین
لیگ
درخت
انگلستان
بلو
بهره
دستور
عد
ریاست
جد
علت
عهده
کشته
##ژن
احتمال
تیر
میآید
کردهاند
مثل
استر
گیر
مسیر
میرسد
میکردند
۲۴
۲۲
##جد
##مود
##لیت
##خته
##سوب
##ادا
هشت
##ارهای
موتور
کشاور
اقدام
امام
ایست
مشهور
اغلب
باغ
جا
..
...
حسن
4
##گران
##edia
سک
امن
خانوار
هز
تصمیم
پخش
##اظ
برخورد
##شده
عق
کشتی
محلی
##ad
جلو
##اصل
وزیر
مسی
درگذشت
توانست
رشد
##ag
##ation
عرض
##ارستان
مرحله
گذشته
##نر
##ویان
٪
##شکده
داخلی
##گذار
۱۹۲
بازیهای
##ریب
##ec
خون
##دهی
سخت
هنری
##اها
##راج
##ازم
مف
وسیله
##وزی
##ایع
دادن
##بط
انجمن
##جام
آتش
##وپ
##خواه
جدا
اولیه
مور
مهمترین
فروش
عرب
سرزمین
آق
واک
معنی
##باز
##گونه
هوا
##سانی
انتقال
رابطه
گرم
همسر
آمده
بازگشت
۱۳۶
لح
گیاه
نر
آف
داخل
هوایی
۲۳
حوزه
محدود
انواع
پیشر
نهای
آذربایجان
محیط
پزشکی
دسته
اجرای
##ter
مخال
کشت
مصرف
##نز
وض
مذه
بعضی
متولد
حمایت
ویژگی
##اوی
##امت
##فاق
فارس
شرایط
کوتاه
آزم
##یکه
##وران
نج
##اکی
##un
حالی
تصویر
متن
فهر
جمع
منظور
ظاه
##راح
اصفهان
سالگی
##بته
عملیات
افغانستان
##بد
البته
##وع
کاربر
تعریف
کاربرد
عربی
رخ
##ce
ابو
مسجد
پادشاه
جغ
روم
##پرداز
موارد
قهرمانی
##ig
چر
##ess
پشت
جی
طبق
ترکیب
نمونه
علیه
##بین
تقری
هنرپ
اتفاق
##مند
رادی
وقتی
بنابراین
بانک
محسوب
##بیه
بلند
مقدار
فض
اکت
امیر
##th
##دمات
##نوان
جنب
کمتر
##لر
##لال
مؤس
##ایان
چی
سفید
##ul
درمان
واژه
کد
کور
زیرا
فشار
عو
##دیگر
تل
سع
سق
تلاش
الی
۲۸
##ev
شعر
درون
مبار
گیل
امور
کلاس
میگوید
شیمی
سریال
مول
مید
##گن
درآمد
میتوانند
ترانه
خارجی
##مایه
اطراف
مشاه
فرانسوی
هنرپیشه
##مرب
##وط
5
شش
##فتر
مهاجر
آزادی
##انو
##عتی
##مربع
جزیره
نظریه
قهرمان
۱۹۱
یو
پاک
##um
کشاورزی
##ئین
گسترش
معماری
##اهم
په
میباشند
مصر
زیاد
امت
سده
میرزا
گاز
هیئت
تعی
اداره
##شهر
##آن
##ربه
حف
۲۷
تعیین
اینتر
موجب
دانشکده
##افزار
##مال
دفاع
۲۰۱۰
چهارم
##شمار
شهرهای
##یاس
روان
##برداری
مدار
استاند
تکن
فهرست
سران
کات
ماهی
##شاهی
ادبیات
عالی
##لیم
رمان
ماش
##غال
or
۲۶
فیز
۱۳۴
باب
دوباره
بست
خیابان
##احب
##od
##منی
0
هنوز
In
حو
نبرد
##یدن
مسابقه
فیلمها
اض
##خار
##ظیم
آش
رسی
امروزه
##iv
دومین
مقد
حمل
##خواست
##ائل
چرا
##نس
واحد
ماند
باستان
فعالیتهای
له
سور
سلول
پیوست
مشترک
خواست
##اخر
##داران
##زمان
g
شرح
نیک
نقطه
##کا
سپت
جشنواره
خورشیدی
کیلومترمربع
دفتر
سنت
منص
خدمات
##نوی
خراسان
نص
مارس
تاکنون
شیخ
ساله
سرمایه
##مع
سابق
وال
##مب
بهع
شوروی
اصط
یافته
نامیده
##im
رض
##جان
نظام
##ist
نوعی
پروت
فیلمی
##پیک
##رت
قدیم
##کش
##ریش
اقتصاد
متفاوت
بور
مراسم
##زاری
سپتامبر
نیمه
تقریبا
سینما
هنرم
##og
رت
خدا
متع
مجله
کانادا
##انا
&
##یس
##گانه
اکتبر
ایم
##یکس
راست
وقت
نبود
هنگامی
بدست
عش
ضد
نیوی
دس
بسته
رهبر
ساختار
13
یکدیگر
شاع
تدری
##تقد
##ویل
##ot
منجر
پو
آبی
پا
نامهای
##نگی
آرام
##الیایی
پیشنه
عمر
##گرفت
الگ
سان
کاری
مقا
زیست
##انیان
۲۰۱۱
##میر
بعدها
اث
گرفتهاست
##ac
مناسب
خلی
##اسر
ساده
نقل
مرز
##رز
اوت
دبیر
تلف
ژانویه
آفریق
تس
##روم
##ریم
سپاه
۵۰
مأ
نداشت
وح
پول
علم
##ut
اختص
کشف
نیویورک
کسی
##نیا
قتل
اجازه
۱۰۰
فرایند
مستقیم
تمامی
حاک
استقل
پروژه
;
شخصی
قدیمی
##وال
عض
h
##برت
مدال
فضای
موقعیت
##افه
استقلال
نهایت
زندان
مدتی
گوش
نت
معنای
رودخانه
مسلمان
پاسخ
یهودی
دادند
دلار
هجری
خوش
##ولوژی
##سای
جنسی
کیلومتری
دولتی
جغرافی
آوریل
نا
عامل
۲۹
فرست
##ow
کالی
مسئله
لند
بهشمار
##ews
پارک
الکترون
##خصو
##آوری
دریایی
امر
ماد
طبقه
##انیایی
سایت
آلمانی
حذ
اله
##چار
بهعنوان
##هها
ترکیه
نوامبر
اختیار
ماشین
8
حاصل
##گین
واکنش
مهندسی
سبز
شناس
کره
##ظت
سبب
نزدیکی
##ریت
رقابت
نمی
##منستان
##واز
اواخر
دسامبر
پیچ
نمیت
بعدی
ژوئن
ژوئیه
۲۰۱۲
##ابط
روشن
جذ
امپراتوری
متری
اسپانیا
سیل
دقیق
##یتر
اصل
بلکه
زبانهای
وضعیت
گرفتن
St
رتبه
l
##پذیر
مأم
##سیل
گوناگ
##ناوری
۱۳۳
سرانجام
##اهیم
دا
بگیر
خدمت
نمیش
نمیتوان
##گاهی
ذکر
نماینده
مطرح
رز
حر
##لز
صنعت
رهبری
پادشاهی
مشاهده
فت
پیروزی
شمار
نقاشی
گاهی
گذر
خصوص
##ay
خرد
خرو
نب
تجاری
تاج
خواننده
داری
حفظ
##st
علاقه
فراهم
##دهاند
زم
خصوصی
ورود
##ikip
ایتالیایی
مستقل
بتوان
فیلمهای
##ikipedia
؟
لازم
##ber
پیک
دوست
۴۰
سرخ
عدم
##بن
org
تار
خشک
ir
##ian
مختل
تان
بالای
فوریه
##لین
زنده
ابن
اطلاع
اعد
برتر
##قان
فناوری
اساسی
محله
۲۰۰۸
باقی
بیشتری
##خصوص
مشابه
v
رفته
مز
ناب
قیم
موزه
عبارتند
گن
قاب
صنعتی
کودکان
پیشنهاد
##وین
##یشان
##طان
تحقی
آباد
##دههای
گروهی
##tic
جع
##لم
##ran
##ماند
##ex
نرمافزار
##قت
کارگردان
فرم
پرواز
6
بنیان
حاج
همزمان
بیت
جاده
##شناس
خور
آزمایش
اعتر
بزرگی
اصلاح
ویل
سانت
##ژاد
##گل
محصولات
ثابت
قز
##رائیل
##گون
تأمین
لندن
روابط
وزن
دانشج
##oc
##یکا
ماز
##مار
۱۳۹۵
۲۰۰۹
توصی
لات
##ریزی
۰۰۰
واب
کاملا
خواهر
ابتد
##په
متعد
رساند
##اریس
تای
##نتی
حساب
ابزار
پشتی
گذاشت
المپیک
ارمنی
پیا
##لهای
آنکه
اشک
##ارات
اتحادی
مبت
بافت
طلا
##ینو
خورد
اصطلاح
سم
##اهای
اوایل
سنتی
تشخی
##آم
توم
شبیه
بس
##هی
میی
میداد
تئاتر
رک
##رس
هفته
۱۳۲
هار
##بک
وظ
۲۰۱۴
##زیک
!
+
مذهبی
##انده
دع
##ئو
تعدادی
اضافه
آشن
معا
اسرائیل
اتاق
قطع
##اجه
##الد
باور
ارمنستان
بیرون
کمپ
##گاههای
اخیر
##فس
گشت
مؤسسه
آک
میلاد
دنی
سلطان
معتقد
##ine
تری
پان
رشت
پژوهش
مطالعه
عباس
میگو
تال
عرضه
کارهای
کالیفر
رد
رئیسجمه
ایز
عث
اهمیت
زیب
##یسی
##فع
تحقیقات
صاحب
استخ
##زدهم
محمود
فلسفه
دم
جایگز
##ایز
انتشارات
##ov
لحاظ
بیست
زنج
جر
۲۰۱۳
ریاضی
##ity
۲۰۰۶
##وج
آسیا
موس
##ینده
دیوار
قوان
##اما
سود
##شین
خطر
فوق
۳۱
برده
##افت
##رایی
نیرو
طور
طل
##ارا
روشهای
اسف
##تهای
شیمیایی
##ته
عص
چار
جلوگیری
تشخیص
مجد
۳۵
سرو
مفه
##آور
ساک
تلویزیون
##یدان
##نهای
دقی
?
توصیف
باشگاههایی
اکنون
فول
ذخ
حاف
مقاومت
پال
۲۰۱۶
کالیفرنیا
عصر
بومی
خل
شهرت
##زاد
جنبش
هزینه
##ونا
پاریس
خلق
##اتا
رده
تفاوت
پوشش
##سپ
##اکنون
میگویند
##الح
کوم
گسترده
##چر
پیام
ستاره
مخالف
اختصاص
سرباز
نقاط
##ab
سیر
هماکنون
##بیت
ملا
اتحادیه
##غذ
میپرداز
10
گری
موفقیت
صاد
##قهای
##نظ
##ary
تبریز
۲۰۰۷
جست
مردان
شدت
##فای
خوبی
##رکز
گاه
##انهای
صدا
درست
##زن
توزی
##ونگ
خویش
En
آمدهاست
جایی
برجسته
##ارش
داشتن
متوس
تحقیق
سراسر
اختلاف
حرفهای
توانایی
##لح
گروههای
۱۹۰
جغرافیایی
تخت
زد
لغ
محک
واقعی
آسیب
امنیت
متو
خورشید
ایشان
صنایع
کنگ
سوریه
رأ
##صه
میگیرند
صرف
پیم
قاج
مختلفی
قمری
رسان
مراک
عملکرد
توزیع
##ard
##ستگی
##مات
قوانین
##سب
هید
احس
en
اتم
نامه
ورودی
##وشی
##یترین
دچار
##یته
اعت
برق
منتقل
اپ
برز
درو
معت
۲۰۱۵
رادیو
حکم
9
رضا
##پور
وید
مهاجرت
پست
انسانی
##رضا
##امین
گور
کتابخانه
عمده
پایگاه
خاند
پرت
##ونده
##شه
جلد
تحصیلات
ریشه
پلیس
ظرف
##تخت
چیزی
##قب
Y
ارشد
عدد
##ادث
کیف
یز
ظاهر
##کتری
کرمانشاه
دستی
تنظیم
قلم
##شنامه
ویلی
ارزش
۶۰
فن
خلا
##وذ
گراف
منح
میگذ
آنچه
##غیر
7
Ch
ادع
نظیر
ورزشگاه
رئیسجمهور
##قیه
تابع
نسل
##ینا
منبع
عبور
خاصی
رفتار
لباس
درخواست
توپ
استرالیا
لر
بهمن
مسئول
ماج
بیمارستان
ساح
تحلیل
##طر
##ویز
نهایی
بنیاد
##برگ
##بینی
نار
الگوریت
##عود
نگهداری
قیمت
##شیر
سوئ
خیلی
رسیدن
##ap
محب
درگذشته
پایتخت
بلوچ
شدید
اکثر
دسترسی
##ادهای
##لات
##رده
دادگاه
شما
پاپ
##قیان
to
مشکلات
ویژگیهای
سریع
بند
فرار
خوز
۲۰۰۰
ورزشی
ساس
مییابد
بخشهای
re
مهدی
ترا
قابلیت
##کشی
کتابهای
قالب
بازدید
##عب
##انیه
فتح
وار
اتحاد
کامپی
گیلان
محاف
باد
پهلوی
نمیک
۳۲
ماس
##اهد
گز
۲۰۰۵
##اء
مطالعات
##سیر
وین
##وای
شاعر
شهرد
دریای
استاندارد
##الم
on
لاتین
بحث
لشک
##روز
نشد
پیشرفت
اسب
آموزشی
مبارزه
کارشناسی
همچنان
ران
برخوردار
دقیقه
خوزستان
##مینی
##شید
امروز
عکس
رم
##ak
مقای
تأی
مدرن
##الهای
##ادگی
آینده
نح
سیستمهای
تخص
ناپ
دشم
متعلق
##ion
قطعه
۲۰۱۷
ویت
##پا
مالک
##ep
ایستگاه
قبیل
سابقه
##زده
صحنه
دره
ساکن
حذف
##وگ
##ارف
آلی
همانند
تغییرات
دانشم
##یشن
##شکار
مقاله
##ناد
##ld
هدایت
##اقل
##ژیک
##eb
احساس
پیوند
اعمال
خاندان
چهر
تأیید
میبرد
##بیل
سخن
جرم
دشت
دیر
##est
نفوذ
##جز
ملل
سازی
##مون
آخر
صدای
معادل
هل
لای
کنید
پنجم
##ورتی
##ont
مون
##نویس
دهند
خام
فرمانده
مرتبط
ذخیره
تجربه
محبوب
جذب
عثمانی
پت
شناسایی
وابسته
چک
پرداز
ناشی
ولایت
بشر
تازه
همیشه
پشتیبانی
کف
مقایسه
حج
دانست
عشق
اروپایی
جایگزین
جیم
مفهوم
قادر
ضر
##ub
قض
دارو
بندر
اصول
##افر
نامزد
رون
##گزاری
##مدی
سد
میانه
##قرار
کاپ
##موک
نواز
##احی
عرو
تدریس
کریست
سیستان
وبگاه
##ختی
اعتراض
یونانی
ابراهیم
##ویب
شیوه
چنان
بکار
##وتر
متصل
کلمه
##گردان
##ساند
حاکم
۴۵
##ورا
نهاد
##زل
طولانی
شیراز
حیوان
متحد
An
دود
رایج
گوناگون
ون
روایت
نموده
##ولیت
هوای
پدید
قرآن
بهتر
دهنده
##سف
ar
فردی
خوانده
##اتور
شرکتهای
##گرم
##وما
مسائل
۳۶
k
ویلیام
الکتریکی
تصویب
##الع
فد
سینمایی
##اندازی
صلح
##ندران
جایگاه
مقدس
شا
فیزیک
|
باستانی
##غل
بهداشت
بازیگران
مخصوص
نشر
مسیحی
بیشترین
زا
سالها
نیا
گران
پیاده
کسانی
##روند
۱۳۱
##اچ
کاخ
آد
آت
رسیده
خوب
فرض
بزرگتر
عوامل
##راسیون
انتظ
امتیاز
اهالی
سرک
##ائی
خلیج
کت
ماک
۱۸۹
بهبود
##av
https
۲۰۰۴
همگانی
##oun
دائ
پوست
پور
میکن
پناه
##دارند
توضی
قصد
استع
کنونی
تبلی
عبدالله
نگاه
دموک
قوی
##all
۸۰
بودهاند
پیشین
روحانی
رح
گذشت
##ادو
##انههای
یکم
ویکی
جامع
بلوچستان
روستاهای
چپ
زرد
زیبا
گردش
##سکی
قاجار
مسافر
##غن
نها
##گرایی
##جایی
کافی
فنی
نمایندگان
تیمهای
عربستان
##باری
مقر
برزیل
دریاچه
جدول
اگرچه
دیوان
##ارتی
مازندران
##فرو
خس
حفا
بخ
تابستان
##ظم
سلام
لا
تز
حداقل
درگیری
قرارداد
معمول
قرمز
۳۳
راک
دینی
##ort
ملک
##ومه
نات
سای
نوج
اهد
درام
قانونی
نمیشود
سلس
فارغ
کمیته
لایه
شناخت
میلیارد
مشرو
نوری
##وارد
میپردازد
##ثی
مارک
احتمالا
##ندهای
شبه
##امون
فری
مجبور
##cy
مهمی
دادهاست
##گا
##cl
##کوه
مسیح
عقب
##بیسی
بیمار
گذاشته
درگاه
کلیسای
ریز
نشده
افتاد
نتایج
دمای
آذر
میشدند
مری
گیت
کودک
نادر
اشع
۲۰۱۸
تبلیغ
##شنبه
فضا
مدرک
##شتر
Un
کشیده
##باه
Ar
##نویسی
فضایی
پرورش
اسکار
دوستان
سلی
توضیح
##رود
میخ
گرفتند
##اشن
قی
آماده
جور
شبک
چیز
هواپیما
خرید
##زیه
مات
اعتق
##تیک
##ادار
دنیای
موشک
##لیف
مشهد
خبرگزاری
معاصر
##افق
نصب
de
##کور
امپراتور
گونهای
متغیر
##هام
اقیان
واس
بای
تنگ
r
##وسف
شار
بش
۷۰
۹۰
##نجی
پدی
فین
سوخت
اخلا
حقیق
وظی
افرادی
سکونت
مکت
کیلو
مثلا
تجارت
گردد
کارخانه
Al
ایفای
کاب
خال
۱۳۰
جبه
اجرایی
سلسله
##حسین
کیفیت
##میل
مربی
عاش
دعوت
طبیعت
آه
##وتا
سومین
##ئون
##ct
##لیپ
نمون
میخواه
والی
محاس
اتص
میدانند
بق
اسپانیایی
##ستند
##00
##حال
آورده
##نشین
الف
هنرمند
آمریکای
سعی
نواحی
جدیدی
ضمن
دای
کاش
دیدار
##اندن
ناصر
گیاهان
##شان
میرا
مشاور
##ok
چشمه
سقوط
پاکستان
##کام
کردستان
تجه
مستند
آقای
اسید
محق
##افع
##ماید
واژ
متوسط
لهستان
شل
فیلمنامه
##تس
##ill
سرویس
##آورد
کهن
محکوم
مراکز
##ستون
##اشد
۲۰۰۳
##ولین
صفر
خرم
##اوا
لین
تجهیز
فرماندهی
ضبط
##دل
ضرب
محاسبه
کنیم
بازداشت
##ارک
سهام
نماید
##مهای
چاه
##سکو
وظیفه
مغز
برگزاری
سرطان
شهرها
استی
تمد
خرداد
دستگیر
رقص
غل
##our
قطر
علیر
##ریس
محور
شیعه
محدو
آپ
##حیح
تام
##اژ
بز
چوب
خطی
دواز
عمد
بهار
همواره
مواجه
نوشتن
زمینی
##ویسد
دانشجویان
زده
حقیقت
بید
غذایی
فلز
##نگار
میساز
مسلمانان
رمز
پیمان
##وتی
۱۸۸
۲۰۰۲
جیمز
برداشت
بازسازی
##چند
رأی
##زیده
199
مایکل
بروز
۱۳۹۰
##age
##ادت
بیل
روند
نماد
چینی
۳۴
سلطنت
هیدرو
آهن
شکار
خاور
رفتن
##ارکت
##ud
##باب
##کید
شهرک
تپه
##انهها
کمونی
ششم
##ge
آبان
اعتقاد
میداند
شهرداری
نامگذاری
##فل
##گرفته
نظری
##کران
##۵۰
##یدند
صورتی
##ابق
##میه
نجات
شاخه
شهید
بگیرد
امید
بازر
##ant
جزئی
ناگ
خری
##عم
گیرد
##اعیل
ظرفیت
دف
کننده
مونت
صحبت
عناصر
آفریقا
##زای
یونان
ورزش
انح
متم
##خیر
روس
حلقه
ایده
معاون
اعدام
##riev
دبیرستان
شاید
مارت
##سلط
افتخار
خات
مؤثر
نظارت
##اویر
ژاپنی
آند
نیش
گنج
##آمد
جنگی
خواب
الله
ژن
##rieved
##رهای
آسف
تون
شهریور
پروتئین
جنس
ایرانیان
عک
بیبیسی
##کری
اسکات
کلاسیک
کامپیوتر
اسفند
##if
دیگران
عین
کرو
جبهه
۱۹۹۰
۳۷
فراوانی
تکر
سلولهای
ندارند
کشورها
مینماید
استودی
عضویت
قبلی
Pr
اظه
خش
حافظه
##رام
دیوید
اختر
بغ
درد
سند
کمپانی
اینترنت
##اشا
اندازهگیری
حجم
سوسی
سوز
##ینز
یخ
مکانی
جزو
اسماعیل
هلند
زمستان
##اکس
##وردی
##qu
تخریب
آنت
هسته
Ret
لذ
هنرهای
سامانه
استخوان
میکرو
نمایشگاه
ریچ
نای
کربن
##برو
هرچند
جوانان
##ell
مشارکت
##ورو
صب
##htm
ستون
##ستری
اکس
نان
کاست
ادی
دما
مخالفت
هستهای
قطعات
##سانس
همدان
محدوده
کشوری
فراوان
منصوب
##ذیری
##ویچ
اهداف
Mar
حفاظت
قطب
یهودیان
ویکیپ
هفتم
نویسندگان
میراث
متوجه
میزبان
st
ناخ
۳۸
سوئد
اتریش
##حصیل
سار
حدی
معل
تگز
نقشه
متعددی
مسکن
الع
مانده
افس
منفی
مینویسد
پرچ
مرداد
news
##اسیون
12
مجموعهای
##آهنگ
##cc
منتق
##تمند
ارسال
##شو
بنام
##۲۰
فیزیکی
##بهشت
##کول
تگزاس
سیاستمد
##حات
سنگین
حیات
کدام
بده
واش
11
درک
کارل
فرستاد
##اضی
فلور
آشنا
پیرامون
چال
##لاین
منش
دامنه
عمدتا
خطوط
##ah
فکر
بخار
معاد
##صت
اردی
آسفالت
تصاد
مجاز
تفسیر
##اندر
##ory
سلاح
##بورگ
ممن
نیستند
امروزی
سلطنتی
سرم
اتوم
میرفت
یاتا
رابرت
زیبایی
##ولف
داو
۲۰۰۱
ارک
تصرف
##وچ
مینام
قلب
Retrieved
اردیبهشت
بمب
فیلیپ
##ate
##لان
##پس
زخ
کنسر
تجهیزات
##غه
ph
##فرد
دب
بالایی
پراک
رومی
انگلیس
فرزندان
##لوب
دیدگاه
فرمانرو
اطلاعاتی
سرمایهگذاری
یزد
باقیم
رام
##ابری
X
لقب
ردی
##یمتر
۱۸۷
##ish
##بول
ـ
ثرو
گال
اقیانوس
خاط
##کته
تولد
اشتباه
اکث
e
نژاد
##جیت
##جع
ویک
برنامهریزی
ترکیبی
خلاف
wikipedia
as
##cycl
بیا
خمینی
##پوش
تیره
کومونه
سینمای
##ایق
الح
گم
ظه
##بند
کوش
##اتیک
##لاک
##cyclop
فارغالت
هاش
فلسط
##نوعی
تأکید
مقدم
عف
زمینلر
##عهده
تجزیه
##بخش
آکاد
سنج
غذا
##ائو
لرستان
قه
##روی
Wikipedia
Pro
ماری
اینجا
آیین
هنرمندان
میگرفت
##قیب
اتصال
##گاری
نشست
مناس
##لیو
کوب
کوچکتر
حادث
صادر
صند
۱۸۶
امنیتی
فدراسیون
##ئه
اندیس
##یان
کودکی
جراحی
دربار
18
نکرد
##ord
##اپور
جنگل
کتابی
دانسته
استرات
##ph
تکنیک
انتقاد
##وح
۱۹۸۰
htm
راح
فرید
گویش
##امپ
هواگرد
فعلی
آمدن
۵۰۰
##ie
درمانی
خیر
فیر
حاوی
۴۸
##بس
##وام
خواهند
ارزی
متق
مقامات
کاربران
نسخ
بتواند
رکورد
برمی
برگزیده
جزایر
دوچر
طر
۲۰۱۹
##وسته
طراح
مثبت
بطور
پیشبینی
هور
گونههای
آواز
الدین
بازیک
##کنندگان
نقد
دارا
ابتدای
درس
آیت
نقره
دسترس
کوههای
راهن
##رار
##عیف
##ang
قسم
##مولی
گرایش
اسناد
نرخ
سعید
جانشین
##ویم
##وردین
الق
اعتم
##نرانی
بنای
نتوان
فلزی
پیچیده
میآورد
دموکرات
سخنرانی
عنصر
منطقهای
کابل
آهنگساز
تماس
سرپر
اشغال
##شناسان
##فورد
##ختیاری
##جوی
##ماه
##داث
##پار
پری
ابتدایی
لوله
##صورت
محمدرضا
دروازه
##جار
##sh
میروند
پرنده
##اطیسی
بت
راهی
هندی
تصاویر
جمعآوری
لیست
ویدئ
برقرار
رضوی
خروجی
سانتیمتر
قزوین
آیا
ژانر
Encyclop
پارسی
##آمیز
نشریه
هوش
احداث
بهرهبرداری
مسلح
هندو
گام
مقیاس
##غم
وف
زمینلرزه
تابستانی
دوربین
اچ
دوچرخه
شاهد
۴۲
لوک
هیل
پرست
دیجیت
##گرا
##گه
تکنولوژی
##ردی
##دوین
تهدید
##ob
زدن
دیپل
مکتب
هواپیمایی
۴۴
چرخ
یافتهاست
الکت
فدر
مذهب
بختیاری
##ru
زر
آوردن
ناز
اقامت
قوم
بیستم
##نگاری
سوار
##طفی
مراج
یافتن
##غام
مایک
##tit
ارتباطات
تخصصی
>
۱۹۷۰
پارل
قلمرو
غلام
مایع
بالغ
ابوال
شیرین
استق
دون
مرغ
اشعار
ساحل
تض
قن
فروردین
مراح
توافق
##ضه
##وتو
۴۱
صلی
نسبتا
##زم
حیوانات
ك
##تاح
معد
بری
پیامبر
پرس
۳۹
کول
##گیل
امضا
گردشگری
مقط
کلیسا
سالن
پرتاب
##زام
##ریح
کنگره
اعتماد
قص
##مح
زرت
لشکر
##ایف
##ستا
قبول
##ment
فاز
ثمر
شورش
افتتاح
قبر
اثبات
سیتی
Com
شاخص
۱۹۹۸
##یزه
بقیه
۵۵
۱۳۸۸
آسمان
متخص
قربانی
هرگز
##خر
اوج
##ینگتن
##اهر
تمرکز
خارجه
درخش
مض
معمولی
j
##عید
##لوک
مخفی
مجدد
مسئولیت
یابد
##متر
ادعا
نخو
متف
کلیه
عام
شبکههای
کلید
تقویت
نوجوان
شمسی
۱۹۹۹
وک
فرمول
شاهزاده
برعهده
تکرار
بنگ
پرونده
کانال
حادثه
##ینت
گند
ساختن
ذرات
ابی
۴۷
پدیده
##man
۴۳
پنه
عاشق
آرا
سگ
مغول
مراحل
Z
زنی
اظهار
##امن
مأموریت
##یلد
##برند
فارغالتحصیل
رست
نویسندگی
متخصص
رژ
همج
سیگن
پیوسته
مستقر
##فرین
آفت
##ss
تروری
جورج
توجهی
جدی
##ree
سوسیالی
##شمند
میخوان
##ولت
مکزیک
##راب
##مایشگاه
##ts
##ain
حرک
تکآهنگ
##ich
اکبر
گوشت
آشکار
x
سالانه
تخم
بندی
##طبی
خبری
خانم
جوایز
راهاندازی
رایانه
##وقی
فایل
هماه
آبادی
خواند
هشتم
نخستوز
بک
##ff
دندان
خن
مظ
تربیت
##جین
حداک
فو
دانشگاهی
بام
##وانه
نک
آمو
تألیف
##ولیک
درگیر
میکنیم
دلایل
بغداد
نمایشنامه
##ib
آزمایشگاه
خالی
خسرو
وای
##ry
صبح
##ناک
میسازد
۱۳۵۷
ریچارد
##التی
غیره
##ure
واشینگتن
##زان
الکس
##eg
عمی
اینگونه
##اوتی
دانشمندان
جزء
نیشاب
کامپ
مبتنی
گیاهی
##ors
روغن
جلب
علیا
عصبی
انتهای
##وره
ظهور
۳۰۰
اتهام
کلمب
پایانی
بیک
۶۵
##ژانت
##لت
گش
هرمز
##ivers
عقی
ارزیابی
دز
ویند
دادهاند
دراز
چهره
##هان
بعدا
امکانات
##مپ
##صار
متعدد
##az
##ence
تغذ
گردیده
نقاش
سعودی
اختلال
بازیکنان
انف
لاک
##لیس
انتظار
اکسی
سیاستمدار
۵۷
آنج
میانگین
##صاب
صدر
دشمن
##ئوس
##ve
احتر
رها
حداکثر
##یلی
خانگی
۴۶
مخاط
##ith
ثانیه
بیماران
##ook
##ork
انیم
جعفر
۵۱
۱۹۶۰
شغل
15
اداری
میافت
مبل
عرف
زندانی
۶۴
آری
ناو
زلز
خواندن
##بازی
عهد
کاس
##اصره
ایوان
حملات
ارتق
بورس
محتو
##اقی
آو
##یمن
۷۵
دیدن
داشتهاند
نگر
رسیدهاست
قسمتی
##ear
کلا
تلفن
رژیم
کمدی
مقالات
مغن
کارت
۱۹۹۶
##اردی
اعداد
مشک
تد
##دست
##ایای
ملاقات
##وفی
مذاک
لس
دهم
داستانهای
##ورهای
مقطع
کمیسیون
فرام
طلایی
دگر
سنگی
۱۳۹۲
رشتههای
هویت
آرژانت
##نفر
حرارت
تدوین
پژوهشی
آکادمی
پذیرفت
پرچم
##زیم
صادق
ذهن
نرو
درختان
اندکی
##عهد
تمدن
##ینههای
۱۹۹۷
##وقف
دادههای
غار
ساسانی
محاصره
ind
##کاران
دورههای
لبنان
محدودیت
##لاس
سربازان
روزهای
شای
کنس
##آهن
##ورند
همس
##uc
وقوع
##مج
##ust
نیو
هواپیمای
شف
ادوارد
##پن
متوقف
نهم
خودکشی
پات
سازمانهای
##رون
ستار
برن
php
گفتگو
شخصیتهای
۱۹۹۲
th
فرانک
سیب
مجمع
##ast
دال
Q
y
مجموعههای
ابع
خروج
پذیرش
دارایی
پهن
میوه
تغذیه
نمیکند
بازنش
اقدامات
افسر
گرچه
راد
##ونز
سفلی
کنفر
##olog
فولاد
برگشت
۵۲
فدرال
مطبو
##io
##دادی
آید
جوانی
معدنی
##rom
حاجی
والیبال
استانهای
نبو
برسد
نیوز
وسایل
آزمون
زمینهای
غر
شهرو
زلزله
رویداد
اوقات
باکتری
تکمیل
##یرو
مبتلا
html
تهیهکننده
سپرده
موسیق
##کهای
کالج
خشونت
کاغذ
عادی
مسعود
کیلوگرم
##se
انسانها
##ies
اندیشه
##ولیس
##up
خواص
مدارس
عموما
خاطرات
تئوری
##یاء
cont
فرستاده
زود
قله
صفوی
سختی
منتقدان
اعتبار
##فری
##ational
اردو
مردی
New
تصور
الهام
##ایات
ویروس
صحیح
دوازده
##کلی
هال
بیماریهای
##لع
is
14
بریتانیایی
۵۴
نوازنده
Am
کمونیست
۱۹۹۴
##طیل
برلین
هتل
شج
نداشته
Sh
آدم
وان
نمودند
خز
واقعیت
کوهستانی
چهل
پیشرفته
##ice
قره
##ایفه
طال
چش
شیعی
بردن
کوتاهی
##افی
کوچکی
نمیتواند
Th
پرداخته
##ica
جمعی
جفت
نفتی
قدیمیترین
پرده
بازیگری
معتبر
##art
##طوب
۴۹
ابد
##ارن
##ختری
مایل
شری
گنبد
<
آسیای
برخلاف
۵۳
زاد
by
جنگهای
##orld
۱۹۹۱
وجه
##دیای
مجددا
پایدار
ویندوز
یوسف
##ابله
##ccess
طایفه
مولکول
##ونیک
##وئل
متشکل
کارنامه
ایفا
##ly
##لاند
نصر
##ازهای
##اشیه
دقت
کاربردی
محسن
بهینه
##قف
برنز
۱۳۹۶
نشانه
##عامل
##ember
اید
میخواهد
##امیان
مصنوعی
##دهنده
کنفرانس
پذیرفته
تحریک
کاز
##طن
ملت
اتمام
فینال
نحوه
گیرنده
ملکه
مصاح
##استیک
الکترونیکی
۱۳۸۹
خداوند
محاسب
##تیو
سؤ
مخلو
قاره
۱۹۹۵
al
##چههای
جمعه
##ایم
##ond
مطابق
گستردهای
##ci
میآیند
شباه
سلامت
آرامگاه
##پت
ابعاد
راس
ساکنان
##غر
##یب
خم
مگ
مرور
سیز
مقابله
حید
سقف
##وایی
بازمی
بحران
##ویسی
سالی
آرژانتین
فس
##راسی
گره
متهم
حین
بچه
الجز
مقاد
##ey
دستگاههای
ایمنی
منع
ارکستر
##اطع
نازی
حقوقی
Sp
سا
طوری
پید
سلو
عرصه
کریم
قاضی
##ویق
جس
واسطه
بم
سلیمان
جلوی
16
نشدهاست
##پو
##تاژ
معرو
میگرد
کلمبیا
##یتا
سطوح
##سوف
مام
سینه
ایرلند
گرفتهاند
مردمان
ویکیپدیای
دانشگاههای
انع
الهی
یکسان
مارتین
مالیات
مصاحبه
ریاضیات
هکت
چگونه
محمدعلی
نع
باقیمانده
آژ
جاس
امین
فیلمبرداری
حاشیه
پورت
##جات
##طرف
fa
##رکان
##انگیز
کنون
نکته
پیتر
ماجرا
Univers
اطلاق
کنندگان
۵۶
ادغام
روبرو
محو
۱۹۹۳
##tern
ضعیف
طبقهبندی
بابل
نگارش
مغناطیسی
ریش
##فش
نیت
داور
مانع
۹۶
راهآهن
۱۳۹۳
تمایل
نباید
##سند
مفید
رهبران
قسمتهای
تقد
عمق
داریوش
دانمار
کاروان
##rib
##یافت
##خانههای
بیگ
بهرام
##یکو
۱۳۹۱
##end
۵۸
##ount
گاو
مراق
قدمت
##پذیری
خریداری
رنج
مبنی
عباسی
##راتی
##ann
بیز
دیجیتال
مصد
۶۱
عمیق
امامزاده
گود
معرض
بارها
۱۳۹۴
##شاد
##صیلی
منطق
##eh
##ینژاد
آگاهی
استقبال
انقلابی
اکثریت
نیشابور
نوشتههای
فاط
پردازش
ایکس
##خوانی
۱۲۹
سالم
جاب
##کین
گلی
خودروهای
کمال
خلیفه
ارتباطی
۹۵
ویدئویی
##تای
برادران
فور
حمید
تحول
استاندار
۸۵
هری
واگذار
##بای
کلاه
کانون
طیف
درآورد
سرا
##فال
##الدوله
فقه
کاند
نمایندگی
گرین
کارگران
مردمی
پیروز
##کسی
##ودن
نوین
پائ
۱۸۴
رویک
سوئیس
بودجه
جستجو
لغت
نیل
Encyclopedia
مختص
##سهای
نیروگاه
##زنی
17
انب
بهکار
##قلی
##ug
دوی
محقق
وست
معین
برود
نوار
ژنر
مجوز
اشکال
##جستان
تالار
مقادیر
##چوب
ترو
##جای
تمرین
ناک
ردیف
جرج
##گفت
دادهها
##کم
عقیده
سوپر
مسکو
مهارت
همانطور
متون
متفاوتی
##ساخت
فیلمهایی
بوت
قهرمانان
##چشم
هان
index
پارلمان
اندر
##ical
ممنوع
اختراع
ژنت
وضع
پنهان
تظ
مدنی
جلال
##کها
کوان
##وزف
قش
مینه
الکترونیک
نابود
شیشه
##ینوی
چهارمین
صعود
کارآ
۱۲۸
تخمین
##کسون
بخاطر
جین
نفوس
##سنی
جبر
جستجوی
##oh
##ستانه
##دادهای
بوی
##اتل
۸۸
139
##یاط
*
بیه
همگی
۱۹۸۹
روزانه
##ابند
نماز
##iz
نکر
اخلاقی
##۱۳
شاگردان
دانشنامه
##صیه
اعط
مالکیت
نمایند
پروژ
ناش
طرفداران
هخ
جسم
تبعید
بلژیک
آسیایی
۶۲
جلسه
نوزدهم
آفریقای
معبد
بول
##انسیل
اهدا
برگرفته
میافتد
بالاترین
سرکوب
محافظت
اقوام
##ccessed
قبلا
خدای
کشید
رواج
میدادند
توصیه
آست
خوار
##قدر
##ton
زهر
زاویه
ضربه
عدهای
کنت
مصطفی
۶۳
##امد
##زاس
حفر
باران
##ubl
روانی
اینترنتی
دختران
مهندس
##ee
عظیم
برنامهنویسی
بنیانگذار
Iran
##ایتی
##ect
دیل
##وریان
منزل
۱۳۸۷
لار
سانتی
تصادفی
میانی
گوی
دیو
برا
##ial
مرتب
۵۹
i
بستگی
امو
برون
آفتاب
گویند
۴۰۰
موزیک
نخستوزیر
دیک
۱۳۹۷
##بلا
۱۵۰
آشنایی
بزرگان
رستم
تجدید
##کیو
رج
میشن
گوناگونی
نامی
##ens
##NA
قائ
چای
داستانی
##عف
##نیه
الا
آموخت
افزوده
خانوادگی
عط
خاورمی
##ورده
تست
سهم
متأ
سیاره
واحدهای
استح
##امنشی
ed
##کوس
نمونههای
اتمی
شرط
حوز
نگار
آنتونی
آقا
Is
راحتی
##ذر
##اعد
۶۶
علائ
آبهای
اینها
متمرکز
قلبی
هخامنشی
برآورد
گلستان
سیگنال
اکران
pro
مبنای
میکشد
۹۱
##احمد
وسط
##طلب
##الیز
فلسطین
۱۸۵
۱۹۸۸
خواجه
سفارت
هاو
نخواهد
شام
سفیر
علامت
##iew
##les
wik
فره
تحویل
pp
مؤلف
حافظ
##امع
جواب
198
سازنده
افتاده
تجربی
۹۷
##ورن
فیروز
شریف
مجه
بتن
استخراج
##گوست
##میان
دارویی
##جن
##فترین
عکاسی
برند
ستاد
پرندگان
##ين
پنجاه
تماشا
سوره
##لیان
کمتری
##جیب
ژنرال
لیسانس
##اهرات
اواس
مدافع
##باس
تصویری
##پای
گردن
مأمور
سردار
۷۴
چارلز
University
۶۷
مدلهای
##نظر
##یرا
حمام
مبارز
همراهی
##ric
اخذ
جاذ
بلا
شکن
خواهرخوان
درآم
فروند
فیلسوف
##مینان
سپاهی
لن
پرا
گرگ
عیسی
گذراند
ارومیه
##سرا
لذا
مرو
رابط
خاورمیانه
ولتاژ
گیتار
۷۲
Press
عوض
۱۳۸۶
حقی
توماس
2009
دنباله
موسوم
معدن
هکتار
کمرب
تپ
میبرند
##ایا
رقم
نوک
۱۹۵۰
میگفت
##شا
##line
محلول
پد
وسیع
##گویی
مذکور
حالیکه
رع
##ight
بروج
##اکو
آنتی
سون
جانب
کردی
بهصورت
بیرونی
خودکار
##ern
احترام
##ئن
مدعی
ایلینوی
زمینههای
۶۸
##لیدی
##زبور
تکامل
مرتضی
an
کاتولیک
##گام
لیک
حومه
##وود
کاربردهای
غیرق
قیام
مواف
توی
رسما
۱۹۸۶
زنجان
##لیلی
مجارستان
##کتور
##تز
##نوشت
ترور
امتداد
at
خواستار
##رانی
اهواز
صلاح
هاشمی
بازرگانی
مجازی
##یدگی
هیت
##اقد
##گراد
##پرداخت
نهایتا
استد
##سمه
حبی
اسکاتلند
وص
۱۸۰
##پول
رادیویی
گچ
##آر
چندان
بص
وام
مخاب
چرخش
مایکرو
##طل
رئ
گندم
##ition
همجنس
حوادث
بارد
قول
امان
۱۳۸۳
فرهنگستان
##ایتد
اطمینان
پرسپ
یادگیری
آدر
معلم
##گوی
Con
موقت
بوشهر
##وو
کین
علیرضا
بدی
##ومتی
زبانی
2008
پراکنده
##ودگی
##ونها
هرک
ویرایش
##انداز
کنسول
فرصت
رؤ
کیم
۹۲
۹۸
ضخ
اندام
##یتو
چندی
هول
قار
میلیمتر
##تین
سطحی
##مندان
جانوران
پروتکل
داروهای
##te
اندیش
میگذارد
بدنه
لز
دیز
دکترای
##per
##گیلویه
##ore
انداخت
حرارتی
مواردی
احمدینژاد
روانشناسی
کمبود
وحشی
استوار
روزی
نروژ
۱۲۰
دیسک
کهگیلویه
قضایی
##البا
توده
سایه
##سافت
استن
مؤسس
شباهت
پارام
آنلاین
آسان
ارس
##نامهای
حش
۷۳
اردبیل
ترکیبات
ظاهری
##منت
۹۳
##سرای
زیستی
کوهستان
بویر
سؤال
##زایی
چنگ
قرون
دژ
##کنان
وقایع
##اوز
حذفی
مجسمه
##زیز
موسوی
۸۶
امواج
##الا
استخدام
۱۸۳
پین
۱۳۸۴
روزگار
شهروندان
قدرتمند
##ys
آلوم
جدایی
تحقیقاتی
بینالملل
##ایست
خوردن
##خدا
قفق
دایره
خشم
##راقی
خانههای
##ودر
Re
کیه
استدلال
یکپار
یونایتد
غز
آگاه
Ed
انگشت
میآمد
اتومبیل
یهود
##چستر
کروم
۱۹۸۴
سیاستهای
زوج
تاجیک
##شدن
ترس
ناس
مقصد
آمی
۷۶
اکسیژن
رساله
کناره
سوء
پرویز
وسعت
##دیه
رسانی
##چشمه
##گونگی
شیرازی
##سار
##ونزی
تعادل
تعطیل
حوالی
ذه
تنی
فاقد
نامز
صندوق
جانبی
جکسون
مشروطه
میخورد
ین
تعلق
حسینی
رن
##خوار
داغ
لنگ
انجامید
گرجستان
پیروان
غیرقابل
فشر
تدریج
علائم
مکانیکی
کرسی
یاری
معیار
مترو
##پایه
قدم
متال
شیعیان
سرزمینهای
عموم
پارس
خودروی
wiki
عفونت
اکسید
زیبای
##الیسم
رسانههای
دفن
پستان
موری
2011
فلوریدا
ورزشکار
تشویق
la
بهطوریکه
جک
تسلیم
##امله
غالبا
داریم
Ap
رنگی
اخبار
۷۸
حقیقی
##ath
##ost
فرک
کشتار
فلسفی
##صاری
##فور
مزار
تند
دانشمند
Free
صلیبی
مدیره
نباشد
مرزهای
قضیه
چگونگی
##بره
۸۷
الن
سرمربی
##ite
۷۱
انق
ساحلی
##برز
دانشجو
##اعده
ضروری
مشتری
مطلوب
##اکا
موافقت
##بههای
##سلطنه
ایندی
بپرداز
تراک
کتی
وظایف
۸۹
۹۹
پژوهشهای
عالم
فردوسی
پیادهسازی
##سوتا
کبک
بزرگر
موضوعات
شلیک
##امیک
طاق
محیطی
نجف
##رنگ
مکانیک
##اته
##سام
سیک
بیمه
پیشتر
مراقبت
ch
نمو
2012
##زرگ
۷۷
قبیله
بسکت
گذاری
نمک
دربر
گوشه
صفحات
##اشناسی
اعظم
شاهنش
۹۴
باره
##حان
##اجی
کانت
منصور
استراتژی
اصلاحات
اسی
قصر
مینهسوتا
اعراب
اواسط
۱۹۸۲
دفاعی
عوار
کوانت
قنات
درونی
سرور
محوطه
تنهایی
##ضل
صحن
##ide
ترش
فشرده
##زاب
غیرم
تبلیغات
##یلا
##آی
چوبی
مخالفان
مغزی
میزند
خالص
گوگل
حروف
سرده
کارکنان
اطلس
بدهد
فروشگاه
##ضان
بنز
وکیل
##داول
##وندی
جامد
مترجم
مورخ
زرتشتی
تفک
معلوم
مبلغ
۸۴
##چهای
زنگ
هرمزگان
اولی
مجازات
بخشهایی
جوش
بهشت
اخراج
تولیدی
معروفترین
شوهر
اتوب
۱۹۸۷
مرزی
اوکر
شگفت
شاعران
فرکانس
پرسپولیس
موسیقیدان
نایب
الت
مصوب
هرات
##افزاری
برداری
ویکتور
ابزارهای
هزینههای
##ue
وسیعی
21
نوبل
گمان
اثرات
ریاض
باشگاههای
بازمیگردد
ترجی
رسمیت
علیرغم
ویژهای
آنگاه
دکتری
نسخههای
ترد
امارات
##انگی
مسیحیت
نظم
ایلام
##ong
##دت
کالا
معادله
##عل
مدرس
کاوش
##ستهای
۸۳
۱۹۷۹
##خاص
آبر
برگز
##اهیر
رول
ماب
عقل
آژانس
چم
کارگر
##نشینی
اساط
الگو
##ظر
ناشن
جمهور
مهمان
فیلمنامهنویس
##ستها
##گذاران
شواهد
##ind
آبشار
دانمارک
مجری
رسیدند
اندونزی
۶۹
##گرای
میخواند
موض
2010
Ph
بزرگراه
##ردگی
یافتند
مجهز
انفجار
بسکتبال
##ادها
ناظ
ارا
شعبه
##خل
قالی
نانو
##اسری
##املی
کوک
تحمل
أ
جاری
##ai
هف
نشری
پسران
زین
مرات
سلولی
25
هندوستان
##سور
##استه
سح
استادان
لم
اون
فکری
##20
جماهیر
پایی
پوشیده
انتقام
ساختمانی
میخواست
tit
##ver
تها
بینی
دستیابی
##قد
میماند
##یای
یار
مرتبه
هوشمند
##مجمو
مرجع
آلن
الجزایر
کلان
دهان
##فون
##نوع
##یدهاست
پیدایش
سنگهای
##aw
##اوری
۱۹۸۵
چگ
##وتری
##ادات
سنی
بلاف
مطلق
##۱۹
##uk
تکیه
۸۲
—
دستگیری
کلر
حرفه
منحصر
جواد
زنجیر
دش
هیر
مخلوط
جداگانه
تفنگ
##باران
گارد
مایکروسافت
برنج
نیازمند
ساختمانهای
هادی
بستر
دیم
بویراحمد
هالی
##بایی
جمشید
میلان
##آبادی
تنوع
دهی
##کولی
##ive
##یاک
##سیا
ویس
مهار
##ribut
محمدی
##own
نسبی
کلمات
##اریان
چرخه
مدیران
ساق
روزنامهنگار
بیس
الکترو
تحصیلی
چن
قفقاز
تولیدکننده
##ازن
##port
2007
بازیها
##زو
معامله
##مندی
شاپور
##فیه
آیتالله
ساسانیان
الکساندر
رفع
بازتاب
احزاب
عدالت
۷۹
##نجان
استانبول
کتب
ابداع
سوراخ
استعد
عوارض
title
محتوای
سرچشمه
##ژیکی
تحریم
مجتم
۱۹۷۴
آگوست
اسطور
پنجمین
سرپرستی
جعبه
برساند
بازیگرانی
##گس
نگهبان
واقعه
زیارت
رف
پرتغال
اخلاق
کمربند
رنگهای
دخالت
##ail
سکونتگاه
تیت
”
غنی
اود
کشتن
##یما
شایع
accessed
حلق
اردشیر
راز
تسلط
##راط
شاد
برتری
پرفرو
خلبان
۱۹۶۸
تجاوز
سلجو
جوامع
صوتی
مفاهیم
بلغ
آنزیم
عملیاتی
متداول
کبیر
##پذیرد
شکلی
سول
دوستی
اصفهانی
سیما
فون
استث
۱۹۲۰
مهاجم
هاف
۱۹۷۶
مطالب
مریم
ظاهرا
میپرداخت
منظم
بتوانند
##لیا
##گور
شاهنامه
۱۹۸۳
محم
تلفظ
##ویج
زرین
تزریق
مجتمع
22
##ati
سکه
کون
سازمانی
##اتو
سوس
لغو
##ood
قاسم
رسانه
هزاره
##ile
شیب
##۱۰
تایل
مقدماتی
اشتراک
آنجلس
جنگنده
محبوبیت
##ass
حبس
کمان
دختری
یونی
##ردن
شطر
وحدت
معاونت
منطقی
کوی
شتاب
##سوم
آوردند
کامی
تعقیب
##باشد
فیلتر
##سایت
۱۹۷۵
##اباد
تنش
##ology
جادو
لحظه
سینا
هواد
حکومتی
کرم
قومی
فال
۱۹۳۰
همسایه
°
##ck
##لاط
نشود
فرانسیس
زمینشناسی
اجباری
یوتی
چنانکه
##سواری
کارایی
فرمانروایی
شمشیر
استادی
شکلگیری
##ومن
from
۱۹۸۱
۱۹۷۳
طرحهای
اذ
ائت
رب
پیکر
“
##orm
##عباس
ضعف
فای
اعضا
تول
ناد
۱۹۷۲
un
پیت
##na
توکیو
##اختی
##صلی
۱۹۴۵
همینطور
##آل
##پزشک
حز
##سیری
لئون
##ack
خزر
طلب
##10
۱۳۹۸
شیلی
سراسری
سواح
بلافاصله
##وفر
De
موز
هیدروژن
##raph
##راحت
بره
پتر
موجودات
23
راههای
##کنندگی
اندازی
میدانست
تومان
زای
همت
آلودگی
##یهای
۱۸۲
آثاری
تعمیر
فهم
میشدهاست
شدهبود
استحکام
پادشاهان
##ire
ضریب
دشوار
ردهبندی
مشهورترین
قطار
##گذارند
artic
انبار
اشتغال
##کوپ
باخ
یورو
زیرزمین
نتوانست
ماندهاست
منتهی
##شع
##ach
ذوب
شکنجه
رویکرد
old
سرود
##ult
##ne
##العمل
تیل
ضلع
برکن
کتیبه
برو
مکمل
افشار
گوت
لیبر
##گرو
زخمی
مناسبی
ریو
گار
2013
رونق
۱۹۶۹
##ash
##ایزی
هزاران
##آمو
مسیحیان
جالب
اسکندر
وات
توری
نوروز
ازای
۱۹۶۷
##out
بازاری
طنز
خوشن
شبانه
تظاهرات
خراب
۱۹۷۸
کاربری
انیمیشن
نهض
تندی
مجید
ساو
##نون
بهدست
گرما
هام
حساس
فراز
صالح
جوی
پیانو
زیرمجمو
شیم
مباح
##ینهای
مقدمه
##وزن
نژ
بدر
تاک
علمیه
##istory
ناصرالدین
نوزاد
۱۳۸۰
فریدون
میدانی
اوراق
##ریر
##شاری
دبی
محض
ویدئو
اژ
صدور
نمیده
##شق
چارچوب
##وکا
فنلاند
##اوم
Par
سواحل
بایر
اختصاصی
##ign
۱۲۷
طباط
رعایت
24
##erm
پیروی
مرده
آزار
ساری
مصالح
ماهواره
فرش
ناه
میرسید
آیه
##گرایان
افسان
##پز
تحق
حرکات
##والی
شطرنج
بگیرند
contribut
کشیدن
نابودی
نفس
شنبه
ابری
ترانههای
برف
رفتند
##وگرافی
بهائی
متمای
##قراری
##دیا
sh
News
Comp
روزه
ملاح
فرایندهای
درج
پرتو
اجزای
دیپلمات
ادعای
contributors
##ism
##مانند
معن
##کنه
ترین
معمار
تلاشهای
آنجایی
محاک
دقیقا
موتورهای
بعنوان
سازهای
پروژههای
ویرجین
بگذ
Count
بناهای
خدایان
واج
##لسی
روشی
۱۹۷۱
محققان
##ومر
شکسته
پردازنده
راستای
همد
مراجعه
انز
میتوانست
بگ
جزئیات
سرت
فاطمه
اجتماع
اعم
لور
سمی
هماهنگی
##son
حاکمیت
سرنوشت
IS
##قانونی
دایر
اسمیت
بهداشتی
##یران
دوک
نوجوانان
۱۹۶۴
غالب
##ختن
آستانه
##فیق
جلس
کیت
ستارگان
راهنمایی
##وههای
##لد
خطرناک
خورده
بازگرد
##ft
کینگ
میگذرد
ادب
دک
پروفس
مقداری
۸۱
تاریخچه
کانی
##خانهای
استودیو
##گهای
محد
ایالتی
بزرگسال
##سنگ
##lin
اسلحه
اشخاص
نقشهای
پولی
نمودهاست
هواداران
وع
##فرینی
۱۹۷۷
زره
تلقی
ویران
ماریا
اپل
گیری
دروغ
##رسانی
حامل
سمف
##pe
آمدند
هیپ
توانسته
لوئیس
نمایشی
آنرا
#
خنک
جوایزی
روحالله
آجر
گلوله
تسخیر
موازی
زندگین
هرگونه
27
۶۰۰
علاقهمند
مادرید
##الملک
نفره
۱۹۴۰
هیتلر
سازماندهی
##جیه
##ریا
##زبان
اعزام
رقابتهای
مي
##بهای
۱۰۰۰
منچستر
یونسکو
##ایلی
زاه
خلاصه
یکپارچه
بازرگان
##الین
خلافت
دائمی
هیچگاه
کویت
غیرقانونی
زادگاه
##نها
نز
یمن
الگوی
گرا
مینمود
یحی
میرساند
پتانسیل
تفکر
نهضت
تجمع
استقرار
چمن
وصل
افسانه
فجر
2014
پارامتر
بلوک
ترجیح
جانور
نداشتند
ارج
آلیاژ
یازدهم
بلک
oldid
مند
کلیدی
پژوهشگران
محرک
یازده
رایانهای
اثری
ایزد
ایمان
##نم
##گوش
رسیدگی
ذهنی
ماتریس
##land
##لاو
World
##انها
Tim
دستهبندی
##ساله
افکار
متمایز
پروفسور
آذربایجانی
##ویو
رسم
انتخاباتی
خطاب
اراضی
جری
##خانی
باری
صوفی
معکوس
پروانه
اوکراین
دانه
##جمله
مطبوعات
##بدی
پمپ
##ربزرگ
پنجره
کهکش
رفتهاست
##ram
##ارو
ریک
##میلی
دهخدا
نیازهای
مشتق
جذاب
شارل
عراقی
##مید
پیشگیری
صرفا
##یلند
دلف
تعلیم
##رق
##ارها
##امیه
نوی
موقع
باریک
خاصیت
مجاور
اعتراضات
##ضافی
##دهایی
سپری
##ans
le
##کره
بخصوص
والدین
بازنشسته
ریخته
عظ
معنا
کاندید
حوزههای
محاسبات
واپ
تراکم
کابینه
رسانهها
اضافی
مینمای
فاض
مشتریان
ممت
##اسازی
۱۹۴۸
شاخههای
بالاخ
تات
زرا
شنی
فاک
هفتاد
پاییز
##وانیا
پایینتر
سوسیالیستی
##ابانی
30
پیگیری
معنوی
##مرد
##جویی
##BC
عز
برقراری
میگردند
ولس
##خواهی
مقبره
ایام
چربی
سناتور
فقیه
نگرانی
سپه
هشد
آهنگهای
##lam
قند
اشیاء
Intern
حرم
York
شاگرد
مشخصات
خصوصیات
رسول
چراغ
فلزات
تفکیک
ژنتیکی
سیستمعامل
شکر
تقلید
قبایل
Ad
ناپل
فرهاد
##اقع
##جانی
مجاه
ژر
توقف
همای
اتوبوس
##ظی
##iss
##واری
##گونی
آرکان
شفاف
قائم
##سنگی
اساطیر
اکتش
عقاید
##یتبار
##لای
ابراز
26
۱۳۸۲
##ase
ایس
ارشاد
شورشی
##ویژه
آدام
مناسبت
وبسایت
دیرین
خوانندگان
##12
منف
جیر
ثروت
گرمی
بدل
آرتور
##ober
حدیث
##اسمی
البرز
تهیهکنندگی
##اگا
رقیب
ارتفاعات
مزر
197
تیپ
##چین
شرک
مادی
خاکستری
فساد
پرداختند
گفتهاست
۲۵۰
احمدی
##میک
منافع
##ورف
قوه
##tim
##بورد
مکر
مونی
تاز
##ایشگاه
مکانهای
ژرف
قزاق
آلومینی
کرک
تعامل
’
شیطان
منتقد
کارشناسان
طبر
گازی
شصت
عمارت
دورهای
آرکانزاس
ازبک
تیمی
کلین
##rit
رایگان
ولز
##ction
##یله
تث
138
آمیز
منشأ
ماجرای
اسد
تلفات
دیپلم
افزود
##ةال
۱۹۶۲
خواهان
##13
هلندی
فرماندار
مالزی
یحیی
##نگاران
##سلی
پاش
اسلو
میکر
ماهیت
خرمآباد
توانستند
پترو
احتمالی
پایداری
فیبر
نیمی
##ونیا
بادی
web
گناه
باستانشناسی
هوی
کوشش
غذای
انبوه
استعفا
تأثیرگذار
Te
Col
بهویژه
##ستن
28
حساسی
شیش
II
اندک
۱۳۷۸
##وتن
میبایست
شهرستانهای
مدارک
##ron
سپاهیان
##اهره
##روژن
الد
سازه
گربه
اکو
تخیلی
پنسیل
مثلث
زندانیان
جنبه
پیرو
۱۹۶۳
صرب
معادن
یادداشت
اراک
همکاران
قلی
مباحث
بیابان
ایندیانا
نوشتهاست
کوانتومی
ex
##فران
ارم
##یکاگو
کمون
مخدر
کوهی
صدها
گردیدهاست
##زون
تبار
بماند
شکایت
شناختی
پزشکان
##ضاع
رطوب
وایت
تخلیه
شیکاگو
پیوستن
یکبار
##شهری
تشی
وحشت
سهر
نامید
کمترین
۱۹۶۶
##ارم
وه
۱۲۶
ویتنام
آلاب
اورش
برپا
Sy
بخت
بلندی
بیانی
کیهان
کرج
۱۳۸۱
##لاق
احت
دفع
فرعی
##مانه
سانس
ویرجینیا
مینو
کامپیوتری
۱۲۵
Ex
ثروتمند
مادری
پره
with
شاهر
نبر
رزمی
دشمنان
ارمنیان
##اسپ
جنگلی
گرگان
تاجیکستان
سوپ
حریف
آوردهاست
نهادهای
ذیل
بوم
کیش
جمعیتی
ساختاری
مخزن
اموال
County
شرکتها
خواسته
##ولن
آدرس
جنگلهای
جسد
آنات
لیور
متنا
دموکراتیک
##ادور
متحرک
نمایان
##ومیت
اسکن
آرم
بردند
واژههای
آفرین
اوضاع
##مره
asp
مفصل
آماری
درستی
##رائی
##وزان
امکانپذیر
##au
آئ
قضا
لط
##ابن
##اسه
##سیان
۸۰۰
ریسک
ویتامین
مرکب
کریس
نهاده
کاراک
پرک
##ابتی
##شایی
تایمز
اروپای
##شترین
عجیب
تاریک
سکنه
طلای
ائتلاف
مقررات
تصمیمگیری
۱۷۹
کاپی
اسامی
تطبی
لهجه
گردآوری
جغرافیای
خانوادهای
##الو
خامنهای
رویدادهای
##شها
2015
پنسیلوانیا
درح
##ations
سامان
محاکمه
الیز
دوش
آریز
روایات
میبیند
تسه
میری
صادرات
##oy
دوچرخهسواری
##ons
تراف
تحسین
عارف
امریک
##ینها
تقاض
اورشلیم
فتو
هرم
##اهو
رفس
استیون
رقابتها
قهوهای
نرمافزاری
کرا
باخت
منوچ
شرایطی
##سنجی
ملقب
دهانه
سرپرست
۱۹۶۵
براون
طباطبایی
##پیم
##قاسم
گیم
##گرهای
##نیف
برش
گلهای
درخشان
##الها
تران
شورا
همایش
درمی
ولسوالی
بارسل
گورستان
محف
2006
ببین
شاهنشاهی
##گوئه
دولتهای
##ورها
قاچ
تقویم
منوچهر
پهل
##ous
جنین
مختصات
آلاباما
آندر
پژوهشگر
قاعده
##فسی
اوب
اردن
انس
نسب
اعطا
دائم
دانشآمو
##hem
توالی
بساز
نوجوانی
عال
۱۳۵۸
۱۹۵۶
مخصوصا
اریک
کندی
خلاق
تیمور
فوقالع
مستقیما
ریت
یان
لام
Le
نقض
شین
##اتوری
خشکی
اضطر
فراتر
دانستهاند
مراکش
مجاهدین
تیراندازی
##نتو
دستورالعمل
مصری
الته
شاهی
دارال
سفارش
لویی
##بالله
نقشی
روشنف
##امید
کوار
آشور
فرقه
گوار
رطوبت
شانزدهم
سلطه
۱۹۶۱
شاهین
نمیکنند
قراردادی
##حق
مولکولی
سیت
##چیان
شمس
میشی
۱۹۵۸
##AN
##کردن
نوه
حیدر
اردوگاه
آفریقایی
پوسته
کوروش
##عهای
##وزوم
کیک
درب
الکل
متنوع
بط
محت
نائ
کاظم
مینمایند
پایهگذاری
مداوم
هماهنگ
##ina
##وهان
میت
بدنی
##انای
##خاری
تورم
##eric
##بردار
Car
چهرههای
##اندا
مجزا
سادگی
ایروان
بشک
نخل
خودداری
ساع
موسس
تحریر
امضای
خوی
ماساچ
##فتی
##ومند
قطعی
نبوده
فاکتور
جابجایی
مزرعه
مبد
گرافیک
##رگ
##50
سمن
اختل
##pl
جهاد
تبادل
پاسداران
##وات
حیاط
مصدق
##محمد
بحرین
مذاکرات
یعق
آرایش
طرز
هشدار
برچ
دهک
برگرد
گردان
##لندی
آمل
تفری
ابوالح
۱۶۰
کاشی
عمودی
پانزده
دستیار
جمال
حضرت
اقلیت
دیوارهای
ماساچوست
بیانیه
قوای
##بوک
قهوه
آرای
##ris
##غالی
ریم
بردار
شاهان
##fer
پیچیدگی
##ace
مکعب
مانی
شماری
اسماعی
کارکرد
عبدالرح
آگ
مصاحب
Ge
رش
##ll
##غلی
رئال
وسطی
ادیان
چگالی
راننده
##پیوند
حکیم
میبین
آریزونا
ییل
۱۱۰
جناح
##ock
لول
مرا
کاک
ترویج
##َّ
قاچاق
فان
نشریات
کنی
شعار
هرچه
خاتمی
##ادن
Ind
خلال
لبه
کاشان
دوازدهم
##rad
##ودو
رزم
زور
معتر
نرمافزارهای
مساوی
29
بالاخره
##مخت
##لاحی
لیزر
آلوده
۱۸۱
He
##ound
داگ
لذت
فعالان
##بون
##راض
میشیگان
فاضل
مناظ
et
میه
جانش
سندر
##ومتر
##جمعیت
##هانی
##گیرد
تضمین
اختصار
استانداردهای
##روپ
قطبی
اقلیم
##rid
حفاری
خوراکی
##سوار
##گزار
پارچه
##خیز
بیلی
پلاس
##وسا
جنایت
تعهد
سولف
هواپیماهای
##فیلد
##پاشی
##جویان
مونیخ
لوئی
نمید
مذاکره
##ورز
##ونهای
بوسی
آهنگسازی
صفویه
تقاضای
##زهای
##شناختی
داوری
دامداری
دانشجویی
گرجی
##لاوی
نکرده
زیرزمینی
واکنشهای
دانشجوی
بازاریابی
##rans
فرن
##ستد
مستع
دیواره
نواخت
احساسات
عملا
نمیر
۱۳۷۹
رضایت
اعتراف
On
تقسیمبندی
سانتیگراد
##news
طوف
کورت
##مانده
استون
ملتهای
نمودار
بنیانگذاری
ایرج
۱۳۷۶
انفر
دامن
کوهن
بنیادی
id
۱۳۶۰
مهد
سازد
##ردو
فردا
##خد
##ame
توط
فتحعلی
##ourn
هیچک
آکس
کاو
حالا
بیض
شوش
صخ
حوض
حکمت
غو
کوچه
متوسطه
##خا
##پال
شنا
فرماندهان
نحوی
##ere
تکه
##آورده
کلام
انداز
sp
Jan
مطلب
ابتلا
غیرنظ
##ئینی
معص
لیبی
میآورند
مینی
گواه
رسوب
طرفدار
بازارهای
کنف
پیشگام
##ress
زنجیره
اختلالات
دموکراسی
##گرمی
وج
Vol
ژاک
متروی
##گرام
انفرادی
لیورپول
##عاتی
خونی
ناشر
عهدهدار
روبه
بروجرد
ایدئ
##ظمی
ناگهانی
میپردازند
ید
هندسه
عمان
Gu
جون
عصب
علامه
فانت
سازگار
ششمین
الیزابت
اسن
##یتهای
۱۹۳۹
##ID
Sch
دخترش
ضخامت
ماهیچه
سیال
۱۳۵۰
wh
صی
انگیز
##ohn
پله
##une
##رویی
##ملک
اسیر
سج
##اورت
فرس
دنده
میدارد
تصحیح
چنانچه
##باع
##gh
کپی
ستایش
برانگی
##ars
کوبا
##ograph
یاران
##اندو
عبری
علمای
مدتها
تروریستی
مبدل
##چال
نفع
بوسیله
##تها
Ab
مدی
زه
الک
۱۳۷۰
لوازم
Wh
روده
بات
فورد
۱۳۷۵
منحنی
ماژ
وود
نقص
سخنگ
بیزانس
جنبههای
باقر
۱۹۵۴
ریاضیدان
وابستگی
هوان
بلغارستان
نود
دوری
زندگینامه
he
اعل
مراد
۱۹۴۱
ارزان
مشخصی
رستوران
جایگزینی
##وآ
##پزی
##وجود
۱۴۰
مگر
۱۹۴۷
##بیان
نازک
سرب
سیمای
تکنیکهای
##نهار
خانوادههای
##old
##ئور
فقر
حامی
ترکان
مهاجران
اکشن
باکو
دادگ
بخواه
مابین
مقاوم
جورجیا
بزرگسالان
اینچ
سرشناس
تولیدات
##یتسه
فضاهای
میزی
حرکتی
##ودور
سات
غلظت
فرنگی
##روس
##یلو
##رداد
حسب
یور
2016
سیزده
میشده
دوب
هجوم
معتدل
کامپایل
نشانههای
##ier
##ولان
آنا
ثبات
کتابها
##طهای
##گرافی
۱۹۵۷
داع
رگ
اخیرا
متوالی
لینو
۱۹۵۹
##الس
##ومان
##orn
چسب
عزیز
آیر
براد
تقسیمات
بلور
تونس
انتخابی
بون
رومانی
اصالت
سدههای
ابوالحسن
راند
##ae
چالش
آبادان
##سوس
##ایری
رودبار
مجاورت
۱۹۴۶
مأموران
مکه
چارت
سادات
کاناد
لهستانی
عثمان
ماندن
چندانی
##اردو
فعل
##let
##مدت
روسها
قدس
سهگانه
مشرق
##int
مخرو
نیازی
آرت
فلسطینی
درهم
##iti
سعد
گوسف
چشماند
لف
باتری
بالینی
استعداد
میپذیرد
دادگستری
##لینگ
شکم
صوم
صندلی
دزد
۷۰۰
آینه
##پزشکی
باله
آرامش
الیاف
بلندترین
جونز
##iel
الب
لاله
##گشت
توت
منتخ
دیدنی
حساسیت
##انیوم
ارگان
درآمده
محافظه
بپردازد
ابوالقاسم
هستیم
بابا
انگور
پیشروی
کارگاه
مارش
املاک
Jul
اپرا
هایی
گذار
گزارشهای
##one
فریب
افزون
سرتاسر
پیشینه
##ford
خاتمه
ارباب
تسهیل
##yn
Publ
داروی
تزی
تنیس
جوزف
دمشق
تثبیت
##aj
ناق
##بستگی
جغراف
صلاحیت
موب
خودمخت
##16
محروم
تخصص
##ئول
گلوب
اشراف
حالتی
##جینی
شکاف
عموی
هشتاد
خواهرخوانده
##amp
##are
##تایی
May
سرنگ
##ale
شناور
گفتار
کارولین
##کال
cod
تقی
کویر
##ولوژیکی
##وها
آلفا
آلومینیوم
عده
##فان
##سالی
عاشقانه
##طاف
##enti
مدینه
کودتای
اوی
دهها
برگزید
سبزی
۱۹۵۲
پرش
##ابهای
تونی
۱۹۵۳
##شای
تقدیر
زرتشت
پلیمر
Dec
طرفی
سروده
زبانها
کمکهای
عبد
جانی
زاگر
۱۹۴۹
تقریبی
##ادش
منق
آیات
سوئی
مهاج
ویسکان
مراتب
محافظ
##وارههای
تحلیلی
سردبیر
مسئولان
تنگه
نظرات
استناد
عامه
قواع
خصوصا
##بریج
صاف
افقی
##پوست
بارز
خیالی
مستعم
##ics
##ome
Man
هاست
مواقع
##ذه
##iet
کارمند
##ates
اسپر
طوای
میزوری
شعری
روانه
فسف
برداشته
رتبهبندی
##ins
Nov
۱۹۵۵
لینوکس
طبرستان
تله
عددی
تاثیر
مسافت
##ings
##گراف
##انورد
قاتل
۱۳۷۷
جلسات
##SA
میفر
فیلیپین
##الوگ
##ادگان
ویسکانسین
ونز
طرفین
مرطوب
نوسان
بهشتی
تزئین
یادبود
یانگ
شهردار
افتخاری
١
ac
فقیر
ببرد
۱۹۱۸
کنستان
کوچکترین
هالیوود
##af
گویا
ترامپ
##ماری
##هرانی
نقاشیهای
۱۹۳۶
آزمایشهای
ساختارهای
سیزدهم
دانشگاهها
##احتی
لایههای
دهلی
مزبور
##یافته
ناخال
میشناس
انتظامی
میزبانی
اختلافات
ختم
درسی
داوران
it
افسران
جمهوریخواه
حصار
##ارتمان
کانادایی
##17
z
##بتی
##وانا
##ution
غارت
تاریکی
##to
History
میرسند
##سایی
سواد
ترسیم
ناص
ارگ
۱۹۴۴
پلیاست
##هایو
کالاهای
Har
##اخان
داک
##وندهای
ریه
res
برقی
ساند
عازم
مزایای
همایون
##وئید
عید
مراجع
تایلند
داوطلب
نمیشوند
طلاق
تکثیر
همسای
جاد
دشتی
تهاجم
خاموش
منسوب
فروپاشی
فضل
خاکی
آلبرت
احکام
ترافیک
صفح
مرکزیت
##ual
هورمون
روشنایی
بهم
فیزی
متناسب
بازیابی
##30
##کب
Min
آبیاری
International
##ساب
##دالله
##نمایی
زهرا
رمضان
مناطقی
هفتمین
لاس
لوب
بازماند
تصنیف
۱۷۸
روحی
رکاب
غی
۱۷۷
##ces
سخنان
عمران
تابلو
خیانت
ابریشم
فوقالعاده
مصاد
برترین
co
##رکشی
ترانس
مشروط
ساکنین
##ley
آداب
عرفان
پردیس
داعش
پیست
قاهره
##دون
سوئدی
نفی
کلاسهای
Sc
محص
الکتروم
تیز
##ولوژیک
انعطاف
توربین
ناوگان
رأس
عادل
هندسی
نامزدی
تفریحی
##erv
توقی
مرسوم
آغازین
تبریزی
##یشی
##مراه
زخم
داوود
جهش
طاهر
##وانسیون
زاهدان
شعاع
شبیهسازی
گس
اسرائی
عقبنشینی
آرسن
رایان
نوآوری
راهنمای
##وارهای
##شنام
لامپ
جعفری
سمفونی
سامانههای
نصفال
ویرجینی
##14
##۳۰
##oph
##اسکا
کلم
کیا
استیو
خودرویی
##لک
##فول
لود
هوشنگ
زیستگاه
##rou
دارم
##وکی
ربات
غذاهای
##سوزی
هات
تانک
نهنگ
فراخوان
جامعهشناسی
##۱۲
##ساوی
گواهی
##عکس
کاترین
الز
غول
جابه
پویا
متأسف
##یع
خمیر
هستی
ونیز
آتن
میدانستند
محکم
گشته
خوراک
##وسیله
تصادف
جبران
##اریه
##anton
بولی
##شیمی
آرامی
چشمگیری
ارن
عروس
تبلیغاتی
##مق
##الیه
تأسیسات
تأخیر
هافبک
##خور
زغال
طبقات
مجلات
ماهنامه
تغییراتی
##pt
بهنام
کشتیهای
کنوانسیون
تعلی
ممنو
پهنای
گریخت
بایستی
##باق
John
موسسه
بیتی
ترکمن
طوایف
فروخته
ذره
لوس
سارا
شهاب
پارت
تمایز
شکستن
اوهایو
برابری
استراحت
جانسون
اصیل
سپرد
##19
خرس
راجر
نمودن
##پیچ
بیانگر
کرت
بنت
ویکیپدیا
us
تندیس
تذ
دوز
مرحوم
##ویض
فخر
مفهومی
جانشینی
میگفتند
Res
رصد
سنا
قوچ
۱۲۴
غلبه
شخصیتی
کشورهایی
##هزار
بارش
عروسی
مرتفع
چهارده
لوح
توجیه
طالبان
نصفالنهار
قایق
بقایای
پلیاستیشن
##باد
اوست
##res
مود
پرسش
گیرند
اکتشاف
نمیدهد
##وئلا
کشی
پلان
رساندن
صرفه
سرهنگ
##60
##اوین
خشن
##ournal
تروریسم
بابک
گرمایی
##ادله
سیف
دروس
زودی
حامیان
سفال
بازبینی
دهههای
##یتون
سدیم
طبری
آرایه
گرمسیری
ارتقاء
مسافران
Feb
خبرنگار
رانندگی
##earch
استانی
ناشناخته
الس
اپر
گروهها
##مک
##ووا
اورت
راجع
واپسین
اسرائیلی
استیل
##18
##تیس
##پشت
##ark
خرده
شیوههای
ویرجینیای
بوئ
2005
##ersian
درحال
##ستیک
##اییها
تونل
منحص
۱۹۱۹
ناچار
متفق
میشل
۱۹۵۱
شناسی
برهم
رحیم
نبودند
کسر
کاشت
ازبکستان
##ستمی
page
۱۳۷۲
آلبر
فرضیه
اتفاقات
مظفر
کمیک
##جمهوری
انجیل
article
باشیم
ماههای
آنالیز
##فن
##لانی
هاپ
کوین
۱۹۴۳
کای
کنم
زدند
پوند
نیکول
aspx
پودر
##گیرنده
کشتیگیر
سنجش
جت
ثان
لنین
پیراه
الفبای
واژگان
متأسفانه
هاروارد
پند
۱۳۵۹
آلفرد
شهروند
##oll
##دیس
ریخت
آرمان
اعصاب
Cent
ترسن
##الن
##اهه
Eng
لری
حکایت
اتفاقی
ازجمله
اولویت
تأثیرات
##طانی
واض
رازی
۱۹۳۳
انگیزه
موسسات
خطا
قواعد
##ایند
بادام
دوشنبه
همانجا
موافق
نمیتوانند
##وتیک
اسکل
نعمت
کاراکتر
##طح
Cl
آرد
##15
##اشاه
لوت
بانوان
فراموش
فضاپیم
پرتغالی
طن
امی
روبر
##tics
آئین
سلامتی
الماس
لک
خانهها
کارگری
یکشنبه
آکسفورد
ندر
شریک
کیسه
کریستین
مرمت
آج
##ited
۱۳۶۸
##64
قربانیان
جنج
ناگهان
سمنان
##ix
یعقوب
مقدونی
نمونهای
میکنم
کلسیم
گرایی
عسل
هدیه
##ox
نواختن
تبر
هاید
iran
مقیم
##ندها
Gre
ریس
مقالهای
##und
##ship
جسمی
ماور
رفتاری
##isc
چهارمحال
mu
گفتند
شهریار
##اطه
be
مبدأ
نگاشت
زیرمجموعه
تعبیر
عشایر
تالاب
مسیری
منتخب
تحولات
ارزشمند
معادلات
برمیگردد
سرس
موضع
لرد
چهارشنبه
فه
کردم
زیستشناسی
ریاستجمهوری
##حاق
Be
زار
قائل
مجرو
رسانهای
فلات
میتر
نفری
گلدن
##ril
##uro
بسط
تقا
هیچیک
گذاشتن
##OS
As
اقتباس
بهینهسازی
##df
100
سوگ
ورق
مخابرات
##حد
##کوف
لاری
نجفی
##پین
کوس
##یترانه
##قانی
تلس
حائ
خنثی
فراری
نامدار
##ward
یکنو
گردو
زمستانی
گرافیکی
##eth
هرز
صلیب
توقیف
##ارید
##فاده
Pre
اسکی
##lation
رابین
حسابداری
غیرنظامی
مدیترانه
##ille
Sci
اصغر
شانس
پلاستیک
##ax
##موند
تقاضا
##چو
##فتگی
۱۹۴۲
##ازان
گست
ماندگار
آلبومهای
##چن
موش
##صدی
ab
ژرفای
##ویا
##orth
حبیب
PD
رفتارهای
##ردام
برگهای
ویکتوریا
##واس
##ریشی
نشانگر
جاذبههای
دیا
کنش
بازه
زبانشناسی
##۶۰
##enn
##آید
وطن
شجاع
دهکده
ترسناک
ویلیامز
ماشینهای
مخف
توطئه
افتخارات
##انتو
توه
یزدی
نادرست
بهد
۱۷۰
شکوه
##IS
##حسن
##کینگ
آشتی
خلیل
اعتصاب
یوتیسی
بارداری
یگان
التهاب
واگ
والتر
رمزنگاری
آزمایشی
مسیرهای
تقدیم
گاهشماری
##stem
تفر
##iction
net
2017
بارت
March
نگاشته
میگذارند
##شام
دمک
۱۳۵۶
مهره
رمانی
پهلوان
زمانهای
لرز
مغرب
۱۳۷۳
نقلیه
مشاوره
##78
بلی
دائر
سنند
معاه
فرانس
وفات
آنتونیو
##lat
##ودا
مدیرعامل
##ooks
##اندی
غرق
کبد
##اسانی
##ank
منج
##اسلام
ارتقا
بحرانی
مشابهی
دانشآموخته
For
لنز
۱۹۳۸
##ium
اوم
##ویتسه
##ick
##مکن
##angu
هانس
اسارت
##اریو
قارچ
بیلبورد
قطعنامه
صفی
حوضه
گرمای
ایک
تاون
شدیدی
مطم
یورش
۱۳۷۱
انقراض
دگرگونی
##جهای
شیرینی
شادی
۱۳۵۴
جاسوسی
سالیانه
##lect
Rep
اسات
سعدی
باشید
متقابل
سلاحهای
codice
باغهای
صم
Aug
کمیت
یم
##پرسی
رفاه
تازگی
##عال
##بق
۱۹۳۷
مسافربری
کنارهگیری
##نبرگ
بهخ
خاش
خوردگی
منظومه
چو
نداد
۱۹۳۵
ونزوئلا
##uary
##فهای
July
فرق
اشرف
راحت
۱۹۲۹
میتوانید
استراتژیک
##انیت
عایق
پسری
میتوانیم
##اسیم
مقت
منه
لاهی
هستم
انصاری
سالگرد
سرگرمی
هنرستان
لحظ
سکوت
##AS
گلد
برنامهها
Mus
کهنه
۱۹۱۷
تنفسی
دوستانه
اطلاعرسانی
ئی
زح
قرق
پدری
اصرار
شاخهای
روستاها
گردشگران
پیل
۱۳۷۴
بایرن
کرهای
بوسنی
شراب
قزاقستان
##act
آنتن
مداخ
بلوار
سلولها
برآورده
میس
نحو
افرا
نکند
موریس
برکنار
##ئوپ
##نما
قوس
لان
##سانند
بشری
مناز
حیاتی
خیریه
نگرفت
سپاهان
تشکیلات
بنیانگذاران
فات
##شتین
کوز
نژادی
##انید
بروس
۱۳۶۹
سزار
برچسب
مهران
صربستان
##فار
آنی
نوش
خاوری
زائ
La
کمکی
پانزدهم
##پایی
فرشته
غلامحسین
وضو
##متری
Fran
محمدحسین
##ارب
تمیز
گریز
هفدهم
رمانتیک
روحانیون
##ثه
جیمی
آسیاب
گفتهاند
۱۲۲
بابت
احاطه
بگذارد
2004
تماش
قضاوت
Gl
##کینز
مسم
کشیش
کنفد
۱۹۳۴
دادستان
##رال
Pol
میزد
زاگرس
لغتنامه
آرز
آلت
درگیریهای
عس
##لیمی
بکر
ربی
قرص
دکترا
نگاهی
استعمار
##ake
##erican
##یاری
نکن
##فروشی
سیگار
گزارشی
دیدگاههای
##اپی
##باغ
بهر
سوری
جداسازی
تبعی
اسپرین
دوگانه
ناپدید
بارسلونا
##۱۸
طعم
سنندج
##اشند
شال
##نجانی
بیگانه
۱۰۵
حاکی
رایت
کروز
سازند
بیشینه
چهاردهم
بهوسیله
محر
چاق
کودتا
۱۲۳
نادی
۱۳۴۰
سبکهای
ذخیرهسازی
##بالی
DNA
۱۹۳۲
دبلیو
راهبرد
بهرهگیری
##lo
زیان
برآمد
صومعه
فیلمساز
پارا
فیزیکدان
اکر
نمیکرد
پیراهن
كه
June
Times
کپ
بهادار
پدربزرگ
##tive
ورد
بمباران
پیشنهادی
دونالد
بندرعباس
ایستگاههای
رین
نما
مربوطه
کارآفرین
الکترومغن
##بلی
معده
کوره
حدودی
میسازند
گذراندن
انتخابیه
انست
آتشفش
آمدهاند
##کات
آکو
رحم
بزند
##40
##amb
##استین
میزنند
خونریزی
Oct
لانگ
پاره
حشرات
##ple
افسردگی
##chn
پلت
تناس
ظریف
بهتری
همکار
۰۰
تحقق
دستهای
فاکس
ملحق
۱۳۶۲
طوفان
کرانه
فرمانروای
##عام
##انسی
عقد
آندره
سانتا
کربلا
جوز
خدم
پاشا
نیوجر
گزینه
تازهای
گشتاور
لشکرکشی
کنفدراسیون
ابه
تنک
##یزاده
##ER
##۴۰
آرش
آشوری
اکثرا
داماد
دبستان
گازهای
استودیویی
پرفروشترین
##rig
##یشگی
##ruary
حدودا
##پرس
سرقت
کتیب
وو
ممتاز
Sep
اسکند
متفقین
##کند
Rev
آتل
وحش
بروک
نامح
زیرساخت
##ater
موت
کمین
۱۳۶۷
۱۹۲۱
لایحه
##iam
Air
تاس
بقعه
کاشانی
ود
قصه
هاشم
گشود
بانکی
مشتمل
محرم
بیروت
مغلوب
##۱۵
##las
##روب
And
##معارف
سبزوار
##جمی
##عان
فصلی
جنایی
February
##کلین
فاج
زنجیرهای
##قوه
تشد
کرب
##مرانی
بصری
۱۳۵۳
اجسام
##آنج
##ئید
##form
##انند
کجا
خواهیم
سحر
انزلی
ضرورت
عکاس
نظامیان
فرخ
یوش
کریک
عضلات
##امیکی
وعده
بیاورد
خیابانی
قید
جاوا
نشانی
تهرانی
مزارع
رونمایی
لباسهای
بب
زید
۱۰۹
برهان
واقعا
نوادگان
##ساری
##لسون
شیل
ترشح
رسوم
مربیگری
Canton
##وجه
Ag
##نگری
##گذشت
دلخواه
تنفس
تیلور
پوستی
اسفندی
##خورد
Gen
خیال
ریشههای
درحالی
ساختمانها
##AR
خوزه
##پردازی
pdf
نوبت
بستری
Soc
##زبورگ
گروگان
##ise
عقاب
اماکن
بیاید
کارها
سازگاری
هیچکدام
##فشان
زام
ارنست
بانکداری
ژنو
کیر
خیابانهای
ویز
##اهیمی
منحل
##ینگتون
دستان
دلاری
روشها
ابزاری
##ert
##ement
سراب
رومیان
مولکولهای
##رها
##ated
۱۱۸
دانههای
##ارض
بوش
تشدید
سیلیک
فردریک
##فسکی
فیش
حفره
تصفیه
خوانندگی
محاسباتی
پالایشگاه
پخت
طولان
سخنگوی
{
##ject
##السلطنه
Se
##کانی
im
##ance
گله
۱۰۲
شتر
هاین
پیاپی
خواهرخواندههای
راستا
نیوجرسی
##۱۶
ارجاع
نمیدان
اقبال
آسمانی
مبارزات
##igh
بکشد
مکرر
امامی
بنگاه
سازمانها
صص
۱۵۲
##اپذیر
دزفول
پدیدار
کرواسی
ناپلئون
همبستگی
##اقب
استونی
عبارتی
##امو
رباط
##زادگان
تلسکوپ
کمبریج
##نایی
##پتون
متاب
پیشه
معارف
IP
ناظر
آموزان
صحت
قریب
پویان
عبدالع
##70
پش
دزدی
##ild
##اجد
##چیز
تعویض
ویلسون
آتشسوزی
مشکلاتی
##بها
یر
لطف
اجزا
مستعار
سنگاپور
##ثری
جاند
جونی
۱۳۵۵
معاهده
##ثیری
مخفف
رید
خاست
##سمی
آرک
بودم
سویی
##23
##بیا
رویه
خوارزم
اهر
تصدی
زمره
ندرت
##ادیم
۱۹۱۴
رضاشاه
ساختند
##وخ
##استیکی
تشریح
##بعدی
کاف
وادار
ماجراهای
اینک
۱۵۰۰
رهایی
کهکشان
January
##یو
##بست
##وریا
تلخ
شیء
پلنگ
مجروح
حکمرانی
حول
عاط
۱۰۸
مییابند
کریستال
پستانداران
CO
الگوریتمهای
شرف
##لسازی
کنده
شریعت
برپایه
مخاطبان
بدو
تدار
موضوعی
افسانهای
##طالب
At
ادیب
نمیشد
فیلمسازی
۱۳۲۰
یادگار
مصاحبهای
ارث
تبعیض
الان
ناهم
August
##ES
##row
##مام
مستم
##ومک
##وندا
۱۱۵
ادرار
سلجوقی
##ةالمعارف
##att
##بورن
مزد
ویدی
زنبور
مخاطب
مارشال
هرکدام
##گردی
گسل
یوگس
فراگیری
##ata
کارولینای
کوری
منتظر
Or
مفت
۱۰۳
۱۰۷
اساسا
##فیف
##مور
##بیری
##دنده
arch
American
##ery
con
نین
پاتر
##ames
خلف
مشا
جیرفت
عناوین
q
##ائیل
سیاوش
آناتولی
فش
دهیم
واضح
El
انار
بسیج
دوام
۱۳۶۵
شمرده
ظهر
امری
مولی
پیشرو
نوازندگی
##ages
پرین
کراس
هیجان
هیچگونه
##وکو
سنای
عظیمی
نوشید
شناسان
خودمختار
محدودیتهای
حدس
نزدیکترین
قشر
کمر
اسقف
##پیوندد
عاملی
فوقانی
##اهام
##میزی
اصطلاحات
فرمانداری
قابلیتهای
##24
##کلا
علل
ساقه
شعله
اجاره
میریزد
##کوب
سنین
افزودن
پرستاری
##وون
##view
##انیم
لیتر
##AC
شغلی
تجویز
گا
آذری
کارلوس
کارمندان
غم
Arm
تعبیه
شنیدن
ي
##اتین
Sec
۱۹۲۴
کروموزوم
##اکبر
##کبیر
##uss
چراکه
بارندگی
نمیباشد
Co
چل
۱۹۳۱
شیشهای
گوسفند
##فورت
اجتن
۱۳۵۲
مسدود
کمپین
قبرستان
##رسمی
صاح
مارول
خودروسازی
قوام
گوشی
##پوستان
پائین
برایان
##شکن
##پند
##https
بانی
شانزده
عضلانی
##دشت
زع
مزیت
هریک
داگلاس
سلیمانی
صحنههای
نمونههایی
##امان
جلوه
رشید
چارلی
مردگان
بازنشستگی
##EC
خیز
درختی
نشسته
##بولی
گلو
۱۹۲۸
##پذیرفت
هشتمین
همدیگر
موشکهای
##وسن
۱۱۹
تکلم
نقدی
April
سیدنی
##صب
Me
am
جنی
انکار
سفرهای
میکروسکو
##lan
مقص
۱۷۵
ثانویه
گه
۱۰۴
تردید
عکسهای
قاجاریه
##سبز
##زادی
دلا
قلع
منز
زنانه
فناوریهای
##مزد
##پان
uk
##ولار
ابوم
وزیران
##اسو
##یاسدی
۱۳۳۲
انحراف
دبیرکل
ویراست
##der
##هره
شست
##ندگانی
احسان
برخاست
ساموئل
هوم
راسته
مبانی
باختری
گرفتار
تورن
بخوان
شهادت
National
u
##ایشی
فرص
راوی
هارت
هرود
۱۹۲۵
استار
خویشا
درویش
شنیده
اعتباری
بهاء
تساوی
##اتان
پروس
گالری
داروها
فراگیر
ایستاده
##اهری
آهک
دوق
وبلا
رادار
سلمان
یافتهاند
##online
غیررسمی
پژو
یال
##راتور
ماسه
هجدهم
بودایی
خراسانی
##IC
##ذیب
Ac
آتشکده
جغرافیا
##رغ
آوی
فرح
جراح
راکت
سیار
محیطهای
میشناسند
بهبه
تاجر
گزین
##sc
صدی
مساجد
##80
##توس
لید
تاکت
پیاز
اشکانی
##AM
فرآ
بدهی
تخته
آتشفشان
فستی
هردو
کریمی
کارشناس
آتشفشانی
روزنامهنگاری
##ET
بنگل
فورت
##90
بخشید
تزیین
##خون
##اوات
نصرت
اسطوره
موبایل
سیستمها
مسئولین
##یشده
Med
اوس
فراه
رسانید
پرجمعیت
کشاورزان
##lay
پشته
جنسیت
روزمره
##حمد
لیز
متناوب
##ایس
##tical
نیوزیلند
پاب
فاصل
رضایی
مبادله
منتقدین
تفاوتهای
##اسل
علما
##تیپ
##سیو
دومی
میله
تاتی
راین
سپید
۱۹۲۲
۱۹۲۷
Islam
بهوجود
بررسیهای
برنامهای
##ink
اسرار
هیچکس
عمدهای
الگوهای
سلجوقیان
##outh
بهه
هوس
۱۰۶
##اریهای
دهستانی
هخامنشیان
کشم
پنبه
world
بانوی
ویا
آفرینش
رفسنجانی
Bi
باه
میاند
دیانای
##دات
کاد
اشعه
نیکی
Journal
چس
##بوتی
موم
بابی
نیافت
##lim
هاب
2003
حلال
بروند
Qu
بتا
##سانان
مطلع
منشی
مولانا
##اغ
##سری
196
ایسنا
خانهای
اراده
عرفانی
کلرادو
}
ضای
۱۳۶۴
بدهند
جاذبه
نوشیدنی
۱۱۲
۱۳۴۲
سیمان
امتحان
مازندر
##۱۷
لوم
علوی
برعکس
بازیافت
مخابراتی
##air
##ald
##نات
اتل
گرام
میپوش
نادیده
کشاورز
۱۱۷
واتر
##org
خشت
فرضی
خزانه
فواصل
ویولن
بینایی
آزمایشگاهی
##مونی
برت
اسحاق
##الان
کله
ابوب
۱۳۴۷
تهویه
رنسانس
امیرکبیر
##25
##als
##وتوپ
قفل
چشمانداز
##ren
Ass
داب
فیفا
##ئل
سرای
میسر
اصلیترین
do
اين
باس
باک
وند
آنقدر
بچهها
##ilm
بکش
فاجعه
پایینی
استالین
فستیوال
فضانورد
غلط
فلو
۳۵۰
وضوح
محتوی
بهدلیل
##غد
۰۵
غزه
بالقوه
نقطهای
علیاکبر
مازندرانی
##red
یوک
صخره
##سالار
نظریات
گواهین
انتقادی
ترکمنستان
قمر
زیرین
درحالیکه
##هری
شوک
##ولهای
سریعتر
##ext
##فیع
##پیش
50
۰۴
des
خالد
##یمه
حب
غد
مریخ
حالات
طراحان
رجال
لیلی
۱۹۲۳
خسارت
دیویس
تورنتو
دانشآم
##دول
۱۷۶
##شتاین
عامی
اسکان
ابتکار
ارزشهای
متغیرهای
##ral
غزل
Sept
نورد
صحرایی
##یص
۳۶۰
بیژن
مسلم
۱۳۵۱
منشور
مهرداد
تعلیق
نگران
صفت
تسلی
مزمن
پاول
۱۹۰۰
ماجراج
رپ
فیس
آشپزی
دستاور
یوگسلاوی
##تقی
##گرها
Dav
تربت
غریب
شایسته
مورخان
تصویربرداری
۳۰۰۰
فمینی
موی
بستن
دوبله
October
##any
##بودی
جاز
۱۳۶۱
ناسیون
##خس
##کریم
باق
نامن
نشاندهنده
##ota
##روت
نصف
بشکه
زاوی
۱۳۴۸
بیماریها
میگرفتند
روزنامههای
##خاذ
No
ضمیم
چادر
رادیک
##ملی
##جنگ
۰۸
۱۳۴۹
بزرگداشت
##لیوس
دنیل
نامش
قدرتهای
هاد
40
گینه
December
تابعی
مسایل
فانتزی
##الف
بوکس
امیدوار
۱۵۷
معانی
بوئینگ
روایتی
سرنشین
##ذی
##زیکو
##سلان
آلبانی
پراکندگی
##itt
کبو
##طبیعی
بشود
رابطهای
##me
##ari
وقف
حفاظ
معدود
احتیا
کریستی
یکنواخت
##AT
##استر
کرون
شکلهای
میدهیم
همشهری
هیدروک
##que
۰۹
Int
گوگ
مصرفی
ژنتیک
ap
فلا
ذخایر
2018
احیا
اتخاذ
کوئین
مرج
۱۵۵
بازمانده
##rict
##ther
اوین
آسانی
مطمئن
دوچرخهسوار
##اضع
##کیل
نرمال
ابوبکر
##ictionary
ro
پوشاک
##استفاده
رسانده
ایرلاین
##زش
##تیم
والت
۱۹۱۲
آمادگی
خاستگاه
پیشرفتهای
##۱۴
##ani
Em
هون
بیات
خدمه
قریه
##وکار
بیچ
فیض
۱۱۴
مکات
ناسا
تابعه
دهندگان
00
ببر
وزیری
##ife
##افعی
سائ
سمر
صوت
پشم
زیستم
شاهرخ
##سکا
##شکاری
##یاکسید
زمانه
خطای
اساتید
San
تراز
سنتر
۱۳۴۶
##شب
روت
نثر
۱۵۹
جزیر
دیکت
غواص
تقاطع
نهمین
##nes
##گرایانه
بومیان
دهید
اجتناب
ممنوعیت
##اقض
لیلا
نصیر
##فین
US
##کیان
##گروه
فوری
مستوفی
##ano
##ung
Ox
ماگ
طالب
کارد
۱۹۲۶
بهروز
بهخاطر
##erg
##لاوه
##لن
##گاس
اقد
نوتر
۱۳۳۰
ساواک
دارنده
اصلا
راسل
دشمنی
نیومک
اسباب
زودتر
پرداختهاست
##مری
Dist
مشاغل
چشمان
مشاهیر
متخصصان
مدلسازی
دائرةالمعارف
۰۶
بلخ
سکس
وحید
استخر
گذران
اعلامیه
شناختهشده
##able
##وینی
شیوع
۱۳۶۳
احوال
دانیل
پیوستند
##co
##ara
ارسط
صدام
دیابت
برجستهترین
ارمغان
فریاد
میمون
میچ
انتز
مضمون
میبخش
##ئود
##غیب
##کنش
##احاف
All
پوت
منظر
ابهام
مداخله
##میده
محلات
گذاشتند
نیومکزیکو
انط
شمارش
قو
موضعی
##ابک
موهای
دمکرات
اقیانوسی
قور
##سلطان
مایه
شورشیان
بازرسی
۰۳
اوک
حسی
انتگر
خداحاف
سختافزار
تماشاگران
##ونو
توهین
پرهیز
##باسی
مسلط
میهن
نورث
۱۳۶۶
انحلال
حاکمان
تواناییهای
معینی
زایمان
علاء
فلکی
قلمد
اندازهای
##ble
##اکم
دقیقی
معرفت
ناپذیر
اسلامآباد
حاد
سونی
پراگ
تطبیق
پرون
مشخصه
محمدتقی
AC
زیم
شوم
##توانی
ظروف
رویال
زرتشتیان
انگلیسیها
۰۷
##وانگ
##پورت
۱۵۸
##دادها
احیای
افلاط
##طیلی
رکن
نیج
رشتهای
غلامرضا
##رض
##قا
##راطوری
مارکس
پایههای
##دره
##onom
پود
پلاک
مختار
آرسنال
##حیطی
واسط
گویی
اوستا
سازههای
گلوک
دهمین
شوشتر
داراییهای
کوخ
اورگن
بخارا
کارآمد
ولف
ساوت
سکته
جماعت
سفرنامه
محبوبترین
##ریل
##لود
گد
Ins
ماهر
یکصد
سودان
تیرماه
کنتاکی
اندیشههای
##افل
##ترن
##صری
یی
راف
رینگ
غلات
موادی
پارلمانی
سکو
خوشه
سردشت
مهندسان
تولیدکنندگان
##مول
##ارشی
آنگ
بهانه
چشمگیر
فرستنده
##الث
##هایت
صریح
September
قرا
شونده
کاندیدای
امپراطوری
عبدالحسین
gov
2002
۱۹۱۵
غن
مجت
ریزی
##وریو
۱۶۸
تضعیف
فراور
ولیعهد
November
دپ
علف
برطرف
خوشنویسی
تیغ
کرن
ذوال
کمکم
شناسه
Im
بیننده
##inc
غض
Bar
زابل
لوسی
ملاحظ
کبوتر
##جب
##ents
##ئیان
صید
قرائ
شرکتی
ضمیمه
آنهایی
میکرده
سریالهای
زیستمحیطی
۰۲
BBC
Per
لزوم
اسپرانتو
میخواهند
تداخ
ماکس
وزنه
انقبا
تلفنی
خلع
روزها
خبرنگاران
بازماندگان
##The
2000
##وکل
درای
پخته
ترابری
سالیان
پنجشنبه
##شند
##فرم
نط
##تیان
##فعال
روب
پنیر
معامل
وفادار
اقتصاددان
##tiv
##قهر
کفش
یورک
انتها
دولتها
سربازی
دیپلماتیک
##نظام
##اندند
Stud
حجاب
ریال
##گانیسم
زیبات
بوستون
طهم
بصره
تخصیص
میدید
پورنو
کازرون
اشکانیان
##ازد
بته
تفت
دوپ
نست
مجته
تایوان
سیلندر
شبکهای
برداشتن
##11
##کاس
راضی
محتوا
شعرهای
ناخالص
شهرسازی
حسینآباد
##28
##ym
Tur
۱۶۷
کوهها
ورزشهای
نمره
هیدر
کلار
۱۳۴۵
ابوالف
Publish
انحصاری
##راع
##وهی
ذاتی
نوشتهشده
پتروشیمی
##سیه
##قند
جهر
Arch
نساجی
مهرماه
موجودی
##oo
##atch
##ield
راج
آهنی
شانه
اسیدهای
۱۴۹
آوری
اعتی
##حید
دیت
مواز
ترمیم
راهپیم
##ماس
سرآ
دایی
##29
الهه
فروشی
##erb
##اسد
حشره
آتلانت
##دای
##رسان
حتم
بلوغ
زبال
مناق
صاحبان
منصب
پویانمایی
Pe
الخ
عمود
داراب
پذیری
هرودوت
آزادگان
##سیلی
۹۰۰
دیار
فهرستی
عضوی
بنزین
مهاباد
نیتروژن
کردهبود
##جامد
حجت
حامد
منیز
##ington
خاتون
خستگی
پناهندگان
گیتاشناسی
وخ
Town
عروسک
پاتریک
بافتهای
##53
نوازندگان
درشت
اپرای
لاهیجان
##ير
مستح
دیرینگی
۱۶۵
تایم
##شدت
##ویک
##یرت
حات
حلب
حزبی
وصیت
بازده
علایم
زیباترین
کریستوفر
تط
۱۶۴
چریک
بیدار
پاهای
گردهم
موزیکال
کوئ
گفتن
کمد
گورد
کرمانی
##اورد
عزت
سروش
مالیاتی
##ode
۱۱۳
##سوا
خیام
طرحی
کلارک
گمشده
سایتهای
سواری
ماموریت
ایرلاینز
##IT
۱۳۴۱
تکمیلی
دیوانه
بهدن
زیتون
ایرلندی
ایالتهای
##وسازی
تشیع
زان
ملخ
Will
مختلط
سرزمینی
هت
##ستین
سانسور
##غانی
یاس
داین
پرتر
صادقی
یوهان
خبرگان
دماوند
سکههای
پرفروش
بهزاد
سیمون
نبودهاست
##OR
##anc
سراغ
بیسیم
نمودهاند
آیز
پلا
نرسی
گوهر
لیبرال
متنوعی
Bl
##اطیس
فنون
تصاحب
دهقان
نرساند
##وئیه
الر
برم
مکس
بیند
بالاتری
فراوردههای
##duc
##اهب
نصی
جاود
مسطح
سرسبز
##ower
تواند
سلطانی
##ke
##۱۱
اعطای
جونیور
تراکتور
مشروطیت
##اکان
##پایان
کلود
زمانیکه
##TP
##لها
##کسیون
باورهای
گویشهای
##26
##وازی
##بندان
Mich
۱۶۳
ایمیل
شدگان
##موز
##inal
##شکاران
نسخهای
میکردهاست
##پات
##غیان
الص
کلن
سنتز
الدوله
نیجریه
میخوانند
##ana
معای
ولادیم
##mun
##عون
طع
فام
جریانهای
دستاوردهای
op
منعکس
لع
اسکو
میساخت
نوشتار
بازگشتی
##ritann
مشاهدات
##ler
##یلن
##وتای
نکات
مکانیسم
جف
عزل
مسو
نظریههای
نمایشنام
##ادین
War
عار
نورت
##اقت
##بیده
##ودشت
باردار
آوردهاند
کمونیستی
یونانیان
میتوانستند
##برا
تجربیات
استرالیایی
##irst
مقاطع
گلپای
روبهرو
شکارچی
اظهارات
ورزشکاران
##ene
پکن
یام
۱۷۳
##خال
بروکس
ضربات
##برانگیز
گواهینامه
##پرستی
فریدریش
منحصربه
برانگیخت
آورند
گشایش
Op
کج
##طلبان
گوست
##sp
##رافت
هارد
اندرو
غیرممکن
هوانوردی
عی
تهی
کپس
ترجم
محفظه
میانداز
مرتبسازی
وت
##uman
تبی
۴خانوار
سازندگان
CM
طولی
موان
نیام
امضاء
فرایندی
وسیلهای
الأ
##ondon
گلها
جعبهدنده
هواشناسی
Fl
##آمده
الج
ایمن
تضاد
سیستمی
##ritannica
##اداری
جنرال
اصطلاحی
##ta
##آنجلس
لیکن
کبود
##اریا
۱۵۶
۱۶۲
حمزه
ایدههای
##54
تنه
خند
گنو
میلر
واردات
یادآور
برگردان
حیث
رئی
۱۹۰۵
بسازد
جنازه
میمیر
Oxford
اعتیاد
نیرومند
دیجیتالی
##فتد
Cont
اندروید
کنستانتین
لوی
ایسل
Ne
##وزیت
عتی
غری
پاز
گوجه
##سالاری
##ication
##دهندگان
قتلعام
ایزوتوپ
دستگاهها
##اول
##گود
باج
سعادت
مینوشت
بنگلادش
##ضار
چوپ
طوسی
##ection
باغات
##اصد
te
##ونتوس
اتاب
ترقی
تناسب
##ography
مصرفکننده
لق
##طنیه
نهر
##iation
##وردهای
سیمرغ
مجتبی
##IN
##ner
سرگ
وری
سینگ
اروگوئه
ایرانشهر
##59
##اروس
لژی
۱۷۴
نرسید
کامیک
پیشگامان
##IA
##سفر
۱۱۶
##اییان
نگرش
دفاتر
واکسن
شریعتی
##الک
عماد
فرمت
محوری
ماهیان
نظرسنجی
رایانههای
##اتیو
سکان
مبارک
مسافرت
اتهامات
مسلحانه
هفده
مخفیانه
سرویسهای
##ومو
ra
اتر
نجیب
نخستوزیری
آلیس
شکوف
مشرف
کوفه
مغازه
ملایر
##چای
Af
##وریس
آلات
خداب
رحمت
یگانه
##eng
##کیم
الش
دند
بستک
حماسی
شهرام
پسوند
خدماتی
مادهای
انسانهای
up
##ومتری
سالار
الهیات
بیضایی
نهاوند
حالتهای
نقشههای
جلگه
ویله
نمایی
مهارتهای
##نوس
31
باهم
۱۹۰۸
اسپین
مواضع
انقباض
بالگرد
پناهگاه
##نب
##ume
آلپ
لاش
مبه
ریور
سنگها
بگیرید
##ma
##بیگ
##lass
##obal
##سترن
حمد
عفو
جرمی
اسرای
سرشار
میبردند
اسفندیار
##چک
##بخشی
##سیسی
کوپ
پنالتی
بینهایت
حزبالله
##کون
چغ
##النهر
بوند
قسطن
گوید
روباه
هاوایی
##ویگ
دشو
مسج
اندی
حریم
۱۹۱۰
رنگها
فردین
کارهایی
دروازهبان
##یدر
آرن
ژنوم
نبودن
گفتگوی
اتاقهای
بیانیهای
پدیدههای
##سنت
##یکوپ
تراش
ساوه
صداپ
یابی
امیری
دویست
منفرد
هموار
##ination
نیروها
عبدالرحمن
کتابخانههای
مقرر
خودروها
##زیر
##شدگان
زانو
جانوری
مارکسی
وزارتخانه
ad
لفظ
ارام
ارسطو
منیزیم
نامههای
##roup
ذات
مصوبه
رئیسجمهوری
خف
گان
بتمن
جوهر
سهراب
سوزان
##anguage
اوباما
تعطیلات
مروارید
معماران
طناب
اعلان
دویچه
اقتدار
جنبشهای
##27
نقوش
۱۳۳۷
اقلید
بدترین
تلگراف
انداخته
##زدایی
دیسی
بولیوی
فرانکلین
##جت
دعا
حتما
خرگوش
مولوی
##بعی
فرهنگهای
##BA
##aul
چرب
۱۷۲
شارژ
استودیوی
##شاخ
عینی
کاسته
Mod
بجای
استوارت
اصطلاحا
اختیارات
راو
طلو
کدهای
جهانگیر
ابوالفضل
##یلت
sc
خت
Cal
رقابتی
نامناسب
پناهنده
اشیا
##دارنده
ماکرو
اتریشی
سادهتر
مردانه
موفقترین
##ute
Det
صحرای
قلمداد
قسطنطنیه
Ep
وصف
بافی
بانو
ناقص
بچههای
فایلهای
##قام
ایی
کارن
آستین
اجراهای
الکتریک
نپذیرفت
ولادیمیر
ِ
##کسلو
تنسی
لیتوانی
ماهیگیری
منحصربهفرد
##ON
##000
۱۹۱۱
میدانهای
##بانو
comp
کیان
معیارهای
شگفتانگیز
زیگ
2001
جویی
سمیر
سیکل
نامو
سوابق
مطهری
مکتوب
##ادیان
منتظ
۱۳۴۳
##اهنگ
##داده
انص
##انیای
عاطفی
پاداش
معنایی
مستعمره
##موت
##ماهی
تعا
۱۶۹
۱۲۰۰
شاملو
زدهاست
##فره
خاطره
مختصر
انتصاب
پشتیبان
##38
اشباع
نمایشهای
##MA
##زین
برپایی
بوستان
پتاسیم
لسآنجلس
پلاستیکی
##اتس
گلن
محدودی
سرداران
##dia
حن
باف
##اشتند
تشریف
رنگین
خرمشهر
۵خانوار
عبدالعزیز
Mag
that
شنید
غیرع
حیوانی
متمایل
نشانهای
##58
##قین
رنو
سیام
باختر
تدریجی
توپخانه
ناتوانی
Mc
##فیقی
کادر
یزدگرد
Bul
##erman
London
تابعیت
##رزی
##رکی
##کوک
##rop
It
۱۴۵
چیره
مته
##ridge
چلسی
کامیکس
نارسایی
##ool
اوز
سپر
دربند
تپههای
سنگینی
فوتسال
فولادی
فرانسیسکو
##ازون
##مالک
Bri
لیو
۱۳۰۰
۱۹۱۳
بشمار
دیوارها
نوشتهاند
ایدئولوژی
قای
ملودی
##39
##ویدی
تلم
کروی
کردها
بدنبال
عبدالکریم
##ied
##انوس
رانده
نمادین
گرینویچ
مطبوعاتی
ماجراجویی
##باکس
چنار
مثنوی
نداشتن
اسماعیلی
بهکارگیری
##ave
تشن
متقاعد
استعفای
##ki
##ینگن
Mon
##تیوپی
۱۳۳۶
۲۵۰۰
##پیر
بیجار
جابجا
مونتر
##we
are
پنجه
درهای
اتیوپی
چشمههای
بمبگذاری
##ky
##oog
۱۶۶
کوپر
کریسم
##BN
##روه
##ائلی
طبع
پاور
##oss
صبا
معاش
میپر
مغولان
نسلکشی
فعالیتها
لاز
فسفات
گرانش
مورگان
نوزادان
##سیته
چاک
احضار
اسدالله
Township
زاک
چتر
سفری
فاضلاب
##شنال
۱۵۴
زرهی
آستان
تومور
انتگرال
رمانهای
چارتهای
اضطراب
آبانبار
الکترومغناطیسی
اسمی
فاتح
مجسم
مشکوک
##دولتی
فزای
روحیه
ملوان
میلیونها
##ئا
##ذب
##ولای
الو
آشوب
فقدان
سرامیک
فیروزآباد
تقل
##آمیزی
ارتقای
par
تویوتا
شخصیتها
##یتس
قف
##ادری
باغی
صغیر
صفات
پانک
ارسلان
خاکستر
ناشناس
یونیکس
معترضان
##البی
##باقر
سندی
هرگاه
اقلیمی
موفقیتهای
۱۳۳۵
۱۳۴۴
تعمیم
استیاس
تزئینی
سوسیال
مقامهای
##ائیه
##خسرو
هیم
##قول
##وزا
##وسه
qu
##آفرینی
مذاهب
چکسلو
کالای
میانجی
کریسمس
رجو
صحرا
##الیستی
دانشی
میگذر
ببینید
قزوینی
محلهای
کارگزار
##مینا
آنچ
پوز
کولی
۱۳۳۹
فرسایش
کامرون
##کاک
##eral
پام
سلیم
قشلاق
مونتانا
رایجترین
هنگامیکه
فرانکفورت
فک
##جاری
##جههای
##رههای
حباب
شرعی
عبادت
بیکاری
تهاجمی
نمادهای
##AP
##ئوم
##بیلی
Trans
رخداد
مایعات
##مس
بفر
عضله
میاف
نجوم
گراد
انجمنهای
بپردازند
پروتئینهای
انشع
قبرس
مقدمات
نیکشهر
عامیانه
عزی
عزاد
بامداد
شاهکار
##بلیو
##مهدی
۱۵۳
سکوی
فصول
۱۳۲۴
اژدها
شبهجز
لژیون
نگاری
اتلتیک
##ضر
پرنس
ژورن
شیروان
فصلنامه
مدیریتی
##rab
##شاء
معج
مونته
##olution
بکارگیری
پارامترهای
##ریفی
متنی
بهرهوری
ستارهای
خداحافظی
روشنفکران
قانونگذاری
##أت
##يد
اگز
ریتم
سرگذشت
محلههای
چکسلواکی
##oot
بذر
آجری
سیلی
فرشت
##الههای
ببرند
هارون
بختیار
##alth
بجز
آراء
۲۰۲۰
آدولف
یخچال
ناموفق
پادگان
ستونهای
آویز
اپیز
سحابی
مشکلی
ارامنه
رودهای
دیاکسید
قسمتهایی
##for
ممل
یوز
کیفی
نقرهای
گزارشها
پروازهای
پروتستان
برهنه
افراطی
خشمگین
گذرگاه
پاکسازی
پنی
آخوند
ادوار
زیردری
##ular
##نمای
لاپ
##جانبه
رکود
الملک
دراین
اسپورت
جادویی
یوونتوس
فاش
ساعات
فردوس
کاپور
ماندند
فروشنده
راهپیمایی
##راش
Des
عطر
۱۳۲۵
آمیزش
افزار
برسند
پیران
جشنوارههای
سیاستمداران
##34
##ays
اری
ولیکن
یوتیوب
ابراهیمی
دیه
ناخو
۱۳۲۹
گابری
صفویان
همدانی
میگردید
##وژ
Mic
Char
قطره
پروان
یاخته
نوکل
هلال
گورک
تفلیس
همگان
نازیها
##نیک
##یاست
pol
پرسن
ناصری
آلیاژهای
پایاننامه
آموزشهای
دامنههای
نداشتهاست
ذی
تورین
روشنی
District
آرو
##کبوتی
کوشک
مستمر
السلطنه
شهروندی
افسانههای
##ینس
عوام
غبار
برجای
تحمیل
گرایشهای
Mo
ویلهلم
##بخت
شدیدا
##فیس
bl
no
رآ
ناکام
پیکان
##ze
Az
رشتهکوه
##صف
##ham
##ville
بیرج
##مانهای
مهمتر
نارنجی
##رن
##لیوم
قبال
نوبه
ورشو
محصور
archive
##عودی
زئوس
سامی
اعتقادات
##تان
137
یاق
بنفش
جواهر
رکوردز
Cor
##کلن
##بوده
آتی
##ision
دنیس
تنکابن
تکاملی
انداختن
##بارا
##زیستی
انوش
North
آستارا
##ریکس
الط
##گرفتن
ببیند
باشگاهی
آمادهسازی
We
##ریکو
منقر
امارت
دلایلی
گونهها
ماف
آزادیبخش
##ندو
36
##بودن
##فاعی
تنب
عروق
قلمر
انجیر
پروتون
##li
##mer
تایپ
عادت
دیزنی
CD
se
زو
مختر
اینطور
تدا
قمی
۱۴۸
جبری
مصور
مفسر
سرمای
سیبری
فوران
برکناری
اتوماتیک
##شور
##مها
الل
خالق
الکترونی
##سیت
##وژن
Val
was
ذرت
ایدز
۱۳۲۸
سواره
منقرض
تماشای
بههمراه
وفاداری
ضل
آلبومی
مییافت
Project
بازجویی
ماهوارهای
##57
##مانت
روغ
سوق
هجر
نداده
##ino
##امز
ائ
ایند
تحرک
مقصود
پروین
ساختهاست
غیردولتی
پیوندهای
##ترا
##لاغ
##aint
##oogle
لیند
##سلیمان
الحاق
تبیین
تکذیب
بروجردی
##ural
##سپیر
بنده
تبخیر
گردند
ملاحظه
##خط
خسر
دیفر
ناراحتی
##AD
AS
خنج
قشق
سبکی
ترمین
publ
آگهی
فرور
فریم
مثبتی
##گاوا
عاق
دوبل
کاریک
شوالیه
شکستگی
تمرینات
معاملات
##خوش
##فرما
خرج
تمدید
درباری
دقیقهای
صلیبیون
##وبا
##وآمد
لوئ
درخشش
پارتی
بتهوون
دربرگیرنده
##ورگ
ev
لطی
خرما
محتر
ردیابی
شبهجزیره
##sy
##ict
##باف
IC
##یزیک
لنف
خودی
دریچه
متعهد
هفتهنامه
##ختند
هریس
گسسته
پارهای
یهودیت
##urg
##صرف
لانه
بنایی
جمجمه
محراب
ممسنی
کارون
دیواری
حاجیآباد
##مهر
##اریست
اصابت
بهجای
01
رویار
مستطیل
پیشبرد
محمدباقر
##راز
##لاع
##یاف
##شانی
##یازی
گرای
ارزشی
Tex
چنگیز
##وجهی
##یروس
ترم
داود
علنی
آهسته
بوکان
قیمتی
آفرینی
##تاون
تیغه
مرسد
پیچی
بریده
شفاهی
معاویه
یادآوری
##ædia
۱۹۱۶
مجلسی
مصادف
متراکم
میداشت
ترانهای
کانالهای
##پرو
ایلی
افتادن
دانلود
ناحیهای
##56
##راه
سارد
غافل
پینک
تحقیر
تدارک
ریگان
مکانیزم
دیفرانسیل
Dictionary
إ
34
##iety
استری
تلفیق
هاک
پستی
مداری
نامعل
اتصالات
یافتههای
##di
ارغ
##پروری
ارمن
ضخیم
نسبیت
یابند
بانکها
برنارد
حسینیه
جنگافزار
کتابهایی
##ختر
##berg
##یدنت
گات
۲۰۲
نشین
ادراک
مدارهای
سیگنالهای
عملیاتهای
طولانیترین
##ظف
##فیل
دلی
سوت
بودا
کروبی
AP
##inary
##ستقیم
الکلی
لزوما
Online
دگرگون
سیرجان
کالاها
راهبردی
##آنی
##راغ
##ناز
Bla
Pet
لاه
Euro
طلوع
ژوزف
اشترا
اصولا
Edition
آسیبهای
اوپ
میث
دلیلی
پروازش
باکتریها
##ka
##وراس
not
بلوط
ضلعی
مصلح
۱۳۳۸
David
دستکم
احتیاج
مراسمی
محرمانه
##omen
##امتی
مرع
وارث
کافه
تداخل
شاعری
مسئولی
افلاطون
بارگذاری
پایگاههای
##ury
مچ
چاپی
خونین
زراعت
بانکهای
عنکبوتی
Ev
محرو
نپال
شدهای
متأثر
واژهای
PM
انی
بهت
خسته
معلق
جیسون
سامور
قوچان
تناسلی
نکردهاست
##36
##اگون
قیر
ابوس
رساندند
حص
سس
##ادان
##زیست
##وبین
لاو
وبلاگ
Science
آپارتمان
##oft
##گاد
new
۴۵۰
موشکی
یکسال
بردهاست
##کارا
منگ
افشا
هفتگی
آموخته
تصمیمات
##خود
##شویی
پرز
۱۴۷
فیلد
مارکوس
##الحی
۱۴۲
خمین
کاپیت
تطبیقی
برندگان
##نگام
Her
فلج
ریزش
معرف
هجده
##شدهاست
ایراد
دستمزد
مونتاژ
غیرفعال
۲۲۰
غروب
لیون
مذاب
پرکار
گیرندههای
قح
یت
ریگ
1999
سرما
واری
شافعی
بهرهمند
فوتبالی
نوشتاری
Br
متکی
گرند
ابرقهر
تأثیری
میبخشد
نقاشان
دق
سایز
لوکس
برکلی
برجهای
جنسیتی
articles
بستهبندی
ترانهسرا
جاه
منو
ورشک
وقفه
ارواح
شوگون
بمانند
نبردهای
ولت
نویسان
نیمکره
جلوههای
لولههای
کلینتون
همانگونه
##TM
CP
کیو
۱۸۹۰
کارخان
فشارهای
نزدیکتر
##فیر
##وئن
07
عیل
##یلتون
بواس
مخرب
مطاب
##کردهای
تداوم
##ibr
##ودین
ایذه
فرات
جادوگر
##غت
ایو
آمست
۱۳۲۷
سوگند
بیهوشی
گروههایی
##روک
##lish
مطل
آبزی
آرزو
پیری
کوفی
نمادی
استثنا
همیشگی
آموزگار
انتزاعی
علیآباد
##اکت
اوگ
South
همجوار
خشکسالی
نفرت
۱۹۰۷
آهنگی
اجداد
بازپس
کمیاب
اتمهای
ثانی
کاغذی
گنجایش
##86
اهم
نده
آدمی
قرقیز
موانع
اقتباسی
##its
##لیک
##اریف
Web
ارب
لینک
نبردی
نجومی
آلاسکا
آهنگسازان
Av
اخوان
دستکاری
شیمیدان
##مرز
##ital
ورا
بستههای
دستگاهی
پیامهای
کهنترین
##idd
Rec
هلن
عنبر
موظف
یکای
۵۰۰۰
خطرات
مملکت
پرسنل
فرانسوا
همراهان
##خم
##سینی
Pal
افق
اسدی
قدری
##کنندههای
دایرهای
پترزبورگ
##ott
UN
##سپار
قوت
۱۰۱
Encyclopædia
الغ
ضعی
کلاین
تورینگ
جوانترین
دانمارکی
##kh
##ks
##ael
گول
##سبورگ
آشپز
تقریب
مأمون
مراغه
منفجر
انتهایی
همجنسگرایان
##قدس
##چینی
ستم
آیند
##ference
میانرود
##de
##ally
##فیعی
۱۴۶
رجوع
عدسی
فاشی
درصدی
##21
##ED
##رع
##نگر
تجرب
۱۹۰۶
کاظمی
رویارویی
نمیتوانست
##ساران
آرشی
میفه
امینی
ترکمان
رصدخانه
همهپرسی
تاریخنگار
##BS
۱۹۰۴
ایرنا
دزدان
مرسدس
معترض
ملایم
دودویی
فرزندی
کارائی
اضطراری
ناتو
آدامز
تطابق
##RI
##هال
##روزی
بیح
لاج
پاری
Inter
پروسه
بریتیش
خلاقیت
کامیون
خیابانها
خص
##ارهها
ایدهآل
سامسون
میهمان
التحصیل
صامت
نیوتن
هامبورگ
##ures
##دیده
دبلی
آمیخته
قارهای
واگذاری
##ows
میلیمتری
میکردهاند
##ابا
##سلر
سفت
مورت
##ization
تکآهنگی
محکومیت
آزادسازی
موسیقایی
##بابک
##ights
شخصا
یونگ
حلقوی
نکردند
پلاسما
تکان
جبال
اسیدی
حیدری
مناظر
انحصار
ماشینی
نشدهاند
##ull
##سیوس
برکه
جوجه
کسری
بابلی
ترغیب
فراخوانی
##37
اجلاس
پانصد
اقدامی
پایانه
داستانها
روزنامهها
##آبی
##چگی
##وهانس
West
پرسید
کردیم
پائولو
انستیتو
اینشتین
فرستادن
##err
##esh
##umb
me
##پرست
نوح
هاگ
##ربندی
برزی
آنتون
نهادند
توضیحات
فیلسوفان
شدم
شواه
مایر
نایت
۱۳۳۴
Rober
مواجهه
پنهانی
شرکتکننده
رودخانههای
My
تالی
فیشر
مشورت
مصارف
مجموعا
##گم
Sm
شبی
ISBN
ریوی
سنگر
جاهای
آلمانیها
مسجدسلیمان
بحر
بالی
مولد
تاسیس
درواز
عارضه
زنجانی
زندگانی
سردبیری
سادهترین
ناخواسته
بعث
عاج
جعلی
نیما
پاست
اطاعت
سهامی
شهربابک
کارتهای
##ese
##اکر
##سلم
##ورس
بجن
منی
ترمز
ایلات
مدفون
واحدی
آریایی
درگرفت
ویژگیها
آموزشگاه
##فروش
##وریک
##وسان
اشن
ریل
پوی
37
##اهند
فلش
برشم
تراژ
اردوی
مطابقت
پارسیان
##جک
فیت
مصاف
مخازن
امریکا
لینکلن
تزئینات
##emp
##ros
اورژ
مغان
کاوه
ربوده
اسکناس
رادیکال
میفرستد
قرارگیری
میکروسکوپ
##bc
##لوم
##erson
مبهم
تقارن
کاتال
نقدهای
نوسازی
اساسنامه
##لیز
زب
##ople
حائز
جنیفر
منهتن
ضایعات
دندانهای
60
col
##ature
باشک
نامط
کپسول
آموختن
زعفران
شواهدی
گرمایش
شکوفایی
##وظ
##یدو
بعلت
قنده
Techn
رباعی
مادها
محافل
میامی
##ett
##ose
##ورث
زحمت
مشای
نیزه
سیلوا
سیمین
لاکپشت
مرورگر
غیرمستقیم
##نیها
واد
##اندین
تصوف
مارگار
ویرانی
کامپایلر
##ya
##برن
##ابهار
آیووا
الزام
سنسور
System
داروسازی
کاروانسرا
٢
لیپ
سوخته
شجاعت
درآورده
روحانیت
##IM
PC
Tr
مخروطی
دستههای
میرفتند
شایعترین
موفقیتآمیز
اجم
هما
اسفر
ژرمن
زراعی
تیتانیوم
نامزدهای
##غرب
برآ
##گشایی
شرطی
مستر
حماسه
مقاصد
راهکار
محمدحسن
یل
پرسی
کبدی
State
ریشتر
بازرگانان
مجل
ایسلند
شنوایی
ترب
کاج
شیری
اینرو
نوزده
یاقوت
دشواری
ناپاید
لمس
تراشه
خدابنده
میپرداختند
اذیت
لوپز
میچر
ژولی
نروژی
قلمروی
پورنوگرافی
نازل
۱۹۰۹
استکه
سبزیجات
##یکها
جاک
کران
۱۳۳۳
تناقض
مهربان
##وتها
قرائت
بخشیدن
دانستن
منتظری
چابهار
زیردریایی
Britannica
کاروانسرای
##وطی
02
##الیم
##باشی
پون
فقهی
استرس
گوگرد
دات
کانتی
جشنهای
گرانشی
پژوهشگاه
##ove
##وفه
قرض
اوری
Texas
علیزاده
عهدنامه
##زمی
##اریم
بعضا
نابر
trans
گذارد
آنالوگ
09
##علیق
int
بینظ
دانی
مدخل
پوستر
اتمسفر
جود
##ابدین
سنجی
توران
##وزد
Ec
##استی
لکه
##سیستم
Page
انعق
آنچنان
متقارن
آکادمیک
چندگانه
##وشو
##برده
194
بیضی
کرای
کنگو
امامت
بگوید
میکنید
##فو
##ارج
##یکت
06
خاد
نوت
پنت
بران
بلوم
کنیا
سابقا
مخترع
##دارد
##وزین
##گوین
چان
تابل
استرو
مفصلی
نامشخص
میپیوندد
دوربینهای
##گذر
AF
##وبری
۱۴۴
رودی
سوزن
نیکل
تشییع
صفحهای
پیوندی
اوستایی
میبینیم
##urn
##ouse
تصاو
پرور
تفریح
انعکاس
ابیطالب
مراقبتهای
08
##etail
##ملهای
مالت
منسو
05
##ویدن
حرام
پیشت
##فورمات
بشریت
ساختگی
William
۶خانوار
اورانیوم
حبیبالله
##ئر
##یرز
35
Kh
##evel
##اووس
Ser
فرج
آفری
کالبد
##duction
الکتری
##سرخ
##امهای
رومن
زمام
احادی
ارقام
طهماسب
##یج
##هید
Mac
##ینیان
اهلی
جوار
##nesota
برگها
هوندا
ماوراء
ویدئوی
کارخانههای
##CP
##پسون
##یایی
نبی
اهری
حماس
United
علاقهمندان
##IP
جاج
تخلف
پهلو
۱۳۲۶
تورات
خرابی
تعاریف
مؤسسات
نمایشنامهنویس
ترنس
والد
فاطمی
تئودور
امتیازات
##fic
Reg
صهی
بورد
محفل
گلوکز
بخواهد
عواملی
کارتون
مترمربع
##رفی
نئ
ریب
نامنظ
موجودیت
پیامدهای
کارخانجات
##ژو
03
##غربی
صدایی
مشهود
تغییری
تصاویری
آمریکاییها
تالش
مرمر
وارده
کارلو
کاملی
داروین
##led
By
لیل
مصو
گای
طاهری
حکمران
مسائلی
رفتوآمد
درم
##خورده
اسکای
اسپارت
توریستی
میرحسین
سرمایهداری
##ria
##زیو
##ستو
فوک
##مودین
بقای
نشدند
عبارات
ارمنیها
بهائیان
نصرالله
اندازههای
32
تاد
۲۴۰
پسته
صمیمی
۷خانوار
Minnesota
##نگان
برح
بافته
توفیق
جنبشی
کارتر
موتورز
دهستانهای
##نینگ
تخل
قاطع
کاسه
سانحه
شاهنشاه
##of
غدد
معط
جریمه
سرگرم
آمازون
انشعاب
دورانی
گوینده
یکسانی
اسراییل
##ret
Ca
##اترا
نوا
##ونیسم
توکو
استکهلم
Net
جیل
رغم
2019
خشای
ریلی
مینا
۱۹۰۳
حضورش
Bullet
##تار
عود
واز
بازگو
بیفتد
تعدیل
قرارگاه
لئو
مفر
ژرژ
ابلاغ
##یزم
Can
جایز
رایش
شکسپیر
برسانند
میمانند
##ring
##arg
38
all
خوک
رؤیا
لارنس
نیایش
Instit
شاهرود
شبستان
کشتیها
گرسنگی
انگشتان
ریختهگری
##سیتی
##پسند
تاکسی
$
##ژنی
اي
Sal
بایت
بعدتر
سرتیپ
فشاری
انتقادات
ثور
جیک
##istor
view
مجالس
دشتهای
سنتهای
کانزاس
رمزگذاری
##ازند
del
قشون
چقدر
گرده
کمینه
##ications
کارائیب
^
دریک
شابک
مرتکب
##eph
##ude
##ابین
رجب
سطر
معی
واع
##یرانی
ملکی
##گونهای
رودری
احساسی
بنیادین
کتیبههای
##جنس
##ناس
مائ
۱۴۳
##iness
زهره
واجد
۱۹۰۱
منطبق
کوخرد
متناظر
هلیکوپ
مغولستان
##غاز
##ورم
دوس
اسپه
لاین
اصولی
Global
شیوهای
آمستردام
پروتئینها
##AL
##hel
##حاب
##کنی
86
##وتون
آلو
Rich
گریه
تنبیه
مهمات
دستوری
ورامین
مسابقهای
ربع
Camb
پریش
مگاوات
ستارههای
گیتاریست
برنامههایی
##مدان
##یکان
بوک
سوف
هراک
##گرفتگی
نزدیکان
نستعلیق
##els
##زند
##روفی
بزن
جولی
گریگ
ماهور
مجرای
مرعشی
چیزهای
Off
Phil
مارکو
حسنآباد
رفسنجان
استخوانی
فرمانروایان
##uth
SS
شاپ
تانز
رییس
سویا
محضر
یاخت
جنگها
نوبون
پوششی
برزیلی
مهمانی
میدانیم
کمونیسم
Bulletin
خویشاوند
گردهمایی
##ظور
##سرعت
##مدار
##چهها
سئول
اجزاء
کابین
گوستاو
##گوس
ادای
۱۳۳۱
درجات
مجاری
نشستن
بهبودی
سودمند
میسیسی
نوروزی
رماننویس
##ینک
##باتی
اوبر
متخل
یوتا
جنجال
گزینش
دبلیود
متناهی
بازگردد
بگذارند
خواهران
04
##bert
سرل
بدیع
تیموری
میانجامد
##سترول
عرضی
میرز
بمبئی
شایان
منازل
سرطانی
سریلان
معلمان
##وقت
##ننده
جملات
فروخت
رولینگ
آشوریان
ترانزیست
نقی
حسگر
صدمه
آکورد
بازوی
سایپا
قندهار
لاستیک
مطالبی
کوتوله
نوبوناگا
##nd
##جرد
Gr
Met
Armen
احتراق
عاشورا
بیولوژیکی
کامپیوترهای
##ثار
##آلات
##زنان
قیاس
هاوس
کارا
سهولت
نمایه
میخائیل
محمدآباد
##بیح
##نوج
80
##لوید
آملی
امرای
اهدای
تعطیلی
مطالعاتی
میسیسیپی
موقعیتهای
لگ
اتو
بگو
سقز
نجم
سردر
ممان
books
خوانی
سرسخت
پیکسل
بواسطه
معروفی
گنجینه
##rac
IR
۰۱
خانی
سومی
سهمیه
کلاته
راهنما
Iranian
##ینگز
جزی
دوزی
هواف
اشیای
کشمیر
کشنده
استنلی
درگیریها
استخوانهای
دانشآموزان
##TS
##بافی
راگ
بلوز
سینت
آرزوی
فرانتس
##جل
##بختی
گئور
یوری
##ibrary
اسکندریه
##yp
##حت
##فتن
##پاد
امب
۲۳۰
ماسک
صدراع
چالوس
گمینا
پروازی
اندرسون
پنگ
بهای
ژاند
دلفان
آقایان
سرنگون
تاجگذاری
بریتانیای
##ih
##ets
##آگاه
##اسون
##یاگو
آبش
آین
تمس
قزل
کیس
سوان
میبند
انتقالی
نادرشاه
##EN
##ada
Bo
ag
تگ
##book
راش
آلکس
المپ
##یکننده
پالای
باروری
فیسبوک
پوشانده
کنسرتهای
##فنون
یوس
قفسه
لالی
یزید
قشقایی
الکترونها
##MS
##اسا
##rael
##مینگ
edu
لائ
گسیل
رحیمی
اعتدال
مسمومیت
سوسیالیسم
##اژه
##شایر
بیام
سیدی
سیصد
فسفر
نوادا
میروید
گوردون
عباسیان
Bu
##ادند
متض
هود
زیرک
معصوم
سانتوس
سوالات
شانگهای
میآمدند
اسکاتلندی
##سیسم
جمعا
میتس
حقایق
قدرتی
##ative
لطفی
اعضاء
غواصی
استارک
لشکریان
همسایگی
گفتههای
##بران
رسد
فوم
##خصوصی
لبنی
امیلی
شلوار
ترمودین
فضلالله
Accessed
آموزههای
##لاقی
جفر
##icent
سونگ
فریت
معاف
سیسیل
گابریل
مقدونیه
احمدآباد
##ینوس
آشی
لرزه
##نویسان
هرمان
سراوان
پیشانی
##اندیناوی
دستورهای
##ade
##راژ
رند
##سالگی
##بیوتیک
کامران
اسلواکی
متابولی
33
##لافی
##لیون
جلدی
نایل
۱۸۰۰
آپولو
استادیوم
##ذری
##oman
Inc
##وندای
هاکی
اسکری
مؤثری
محترم
مینامیدند
DB
اگ
اودا
ژیمن
قرقیزستان
##چنگ
زهی
زندگ
مدول
گوزن
بویژه
تحقیقی
سیارات
اسکاندیناوی
##حدی
چرم
##یروان
Comm
فاین
حلقههای
نمیداند
الکتریسیته
##تیست
##دران
بهمع
عمرو
۱۸۹۶
تریپل
ناهنج
رافائل
پرتوهای
##IV
44
##اگاس
##جواد
##شرقی
حکمی
غیبت
مساعد
نادری
پیامی
طالقانی
بازگشایی
دیکتاتوری
##تمام
آبریز
انصار
بخشها
بهایی
دلالت
bi
جنت
تهوع
۴۰۰۰
سیارک
دماهای
شجریان
کاراته
فراموشی
نظامهای
قراردادهای
##ena
##ole
وم
۲۷۰
انیمه
روزاف
قرآنی
نخاعی
هرکول
کارول
جواهرات
ارمنیتبار
بیمارستانی
##بیک
39
ID
۲۱۰
ماریو
مربیان
لت
##ator
صدف
##الیای
تلاشی
میپند
ادارات
کوتاهتر
استفادهکننده
##زیس
##زونی
sur
خراج
دانا
ضیاء
کورد
جلالی
مصادره
ناراحت
46
Sa
pe
##illa
ژول
معال
اسکلت
زباله
تحتانی
جسمانی
میکرون
کردهای
میخورند
گردیدند
خوانساری
##ونته
sci
آلای
خنده
##خوانده
فرصتی
فرعون
Europe
اپیزود
سهبعدی
مرحلهای
##ساد
مکن
نکنند
پژوهشکده
##بلاغ
vol
لوز
پیز
East
موصل
شعبان
فلوید
بروکسل
##liminary
بیابانی
جاناتان
سرنگونی
فلورانس
##جیان
##ندری
هنج
وزر
یوزف
دورود
قربان
اطلاعی
صداهای
میکشند
اکوادور
عباسآباد
هلیکوپتر
دانشکدههای
tim
حسنی
تماما
چرخشی
بگیریم
جنگلها
دستخوش
ناتوان
دخترانه
دادگاههای
##بز
##باخ
صنفی
آریان
سیروس
مانوئل
##ote
##کریت
ظلم
فلف
جهنم
عنکب
اسهال
محسوس
الیگود
بالهای
مهاجمان
##formation
میاندازد
##راء
AD
##سپاری
موجی
گلیم
تلمبه
اینکار
تماشاگر
##يم
##۸۰
##یتها
تصریح
استفان
جدیدترین
دنبالهدار
شاهزادگان
##ering
انتر
نیکلاس
عملکردی
سریلانکا
شلو
وبا
گلف
##ality
بیبی
کششی
قصیده
پاسکال
پایهای
استانها
##22
\
داش
۲۶۰
##istan
خانق
زرند
قیصر
راستی
پیغام
فصلهای
میکشید
سازوکار
فراگرفت
محرومیت
##پیچی
##مونیک
کمبو
متحمل
Determ
اشعاری
بلورین
مریلند
نامنظم
قالبهای
پیشگویی
کاتالیز
##lex
##ونتو
شرم
عذر
نوم
کیپ
آمون
جهات
بدیهی
فرمهای
فیروزه
پوشیدن
##omb
def
خازن
نزول
Assoc
اندوه
شکاری
مشترکی
پیشنها
روشهایی
خاق
##اختند
بیعت
تجار
زوال
معجزه
منعقد
محققین
جانداران
سامورایی
##جوان
##حصیلی
1997
City
Hill
مسلس
استوایی
نمایشگر
تانزانیا
Cambridge
##ثال
شوری
پالس
وکالت
کلامی
آهنگها
اینترن
دینامیک
پذیرایی
کلیساهای
توافقنامه
Mw
##gram
##وشیما
توحید
شهرکی
پیکربندی
##اتری
##انان
ویلا
۱۳۱۴
عربها
مادام
بارانی
بینظیر
سمرقند
امتیازی
عزاداری
نمیدهند
پروندههای
##شکر
di
Cap
بنه
جاش
عتیق
محتم
نواب
سرعتی
غیرانت
مهندسین
چیزهایی
اندامهای
Preliminary
##za
##منه
عذ
جبل
هوگو
میانرودان
گنگ
ییلاق
مناظره
ناتمام
موقعیتی
دامپروری
##عا
##کوت
88
کع
##وسکی
Tra
##ونیان
مینش
##جملهای
وارنر
کیفری
نیلوفر
داوطلبانه
SP
ادر
دخیل
ترکها
تریلر
شهدای
لوکزام
##ستات
مشی
طرفه
تحکیم
بالکان
تاکتیک
گنجانده
مادربزرگ
##ama
##urd
##ماد
##نیس
##iver
احراز
استات
معطوف
کمرنگ
گزاره
##usiness
دیداری
حسینعلی
سیستانی
نیروگاههای
##فتری
مبح
##ویسان
##ولههای
اجبار
اینست
بنادر
احادیث
باربارا
خواستند
نامیدند
ارگانیسم
سقط
موف
نخب
ورم
##گاران
1998
تایید
سرودن
عنایت
رشتهها
شمیران
الیگودرز
بازگشتند
##ush
Po
کب
PDE
هوشی
عمرانی
توکوگاوا
ملاحظهای
##ومری
ارضی
هانی
وایل
##ulture
##گانهای
معصومه
persian
تسلیحات
همیلتون
Er
ایزدان
مساحتی
اخترشناسی
##پرت
per
زال
##ident
Mont
۱۳۱۶
عملگر
گلبول
سیلیکون
متخصصین
غیرطبیعی
فروشگاههای
##دریج
Mor
ضرر
رانش
عبید
about
رؤسای
بیستون
content
بازنگری
فیزیولوژی
##fl
##arm
top
شمش
کائ
##ضایتی
درصدد
طالقان
Persian
بردهاند
##گلی
ج۱
##work
##ایکس
قشم
مجر
امیل
ثالث
جرای
منار
خواهی
مشتاق
بسزایی
دایناس
دیرباز
بطوریکه
فرشتگان
خواستههای
۱۱۱
۱۹۰۲
Volume
تکراری
انوشیروان
غیا
تانگ
عزیم
مصون
وجوه
بارون
مناره
نارنج
اعتراضی
نمیگیرد
پدیدآور
دپارتمان
فردیناند
##راد
CS
اشم
تاخت
قحطی
کلات
آندری
دارید
دوقلو
نفرین
چشمهای
استانداری
هنرمندانی
pr
##زاید
بیخ
طبس
اهور
تایر
نویز
اسپرم
کنسرو
##lection
ناگزیر
صورتهای
پروتئینی
##emb
##لزم
48
##ادلف
آوار
توهم
شاتل
پابر
تجلیل
ناساز
وسترن
بردگان
نوشتهها
برادرزاده
دبلیودبلیو
##طار
##ارند
ایش
Arab
گاما
۱۸۸۰
داران
دینار
روبرت
گراند
فارسیزبان
##rim
##صاد
##ضاح
بطن
حلی
سلف
وبر
##سیسکو
باطل
جونگ
۱۳۲۳
فولکل
کشتگان
##yl
85
##rist
تین
داس
Paul
کاسی
تجسمی
بحثهای
اسلوونی
محتویات
##وئه
##ونیه
تکو
چیر
جلیل
سرخس
مقامی
نویسی
وجودی
شفافیت
مستلزم
اشارهای
داکوتای
گذاشتهاست
انسانشناسی
غیرانتفاعی
##reat
ایا
تقوی
نیکو
دایمی
فروغی
پرطرف
تلفیقی
جلالالدین
Determination
##جله
##خیم
##توجه
گوم
حسام
مائو
کیار
۱۸۹۵
گیلاس
Robert
مستحکم
اورژانس
افتتاحیه
##نف
##گارد
آشک
##لاطین
اصحاب
سرپوش
قرنها
مرغوب
بجنورد
انفجاری
87
Li
##نشان
عظمت
محبت
مشکی
واکر
##گردانی
Award
برمید
رهسپار
تنظیمات
پیادهنظام
##پنها
##یزان
نئو
بدتر
مکال
ونکو
اینان
تیمها
سقراط
مستعد
نشینی
نورمن
انصراف
رویدادها
نیشابوری
غف
##خشان
##ستول
##وشیمی
نصیب
هیلز
دربرد
متوفی
##ِّ
##الر
Je
خج
##adem
##خالی
کسبو
بستان
بادهای
مدافعان
نمایانگر
##طیر
##کرده
متی
اجته
نارا
هجرت
آیلند
تسمیه
پارکر
کمدین
رآکتور
میمیرد
بازگشته
بازخوانی
CH
تبع
عزیمت
اپراتور
##CC
##سکری
تزار
محدث
روزبه
لوکاس
نوکلئ
کابلی
اینحال
تکنیکی
##جیبی
##ویژن
Dep
لوئیز
بلاروس
دریاها
##نتز
##ency
##ince
##دختر
دغد
عمو
##اراتی
ملات
لشکری
کریمه
توییتر
دامغان
فیلیپس
آزادانه
حاصلخیز
خوارزمی
##موس
af
ساپ
نزاع
پاپی
منتسب
میگری
صدراعظم
نارضایتی
کارگردانان
##میس
##پلی
III
غده
مزه
##اکیان
یوفا
Elect
آمیزی
توربو
شبهای
هندبال
Epicent
جنگجویان
پاسخگویی
##ane
##inn
##گال
CN
طری
عجم
خفاش
لایت
مراتع
انعقاد
رونالد
ماهیها
۸خانوار
اسپرینگز
برجستهای
سینماهای
Epicenters
##اسیا
##المن
لنگر
##evelop
فیلادلف
ماداگاس
جابهجایی
دبلیودبلیوئی
Hol
نوب
غشای
قاعد
نافر
گیتی
طریقت
مهدوی
گردنه
نیاکان
##۸۶
##ump
##وتس
##وتین
ایه
##امیدنی
براین
ستوده
ژنهای
قطعاتی
نیرویی
پرستار
زمانبندی
bbc
صدد
##ونیست
ارتع
غزنوی
کشمکش
تراژدی
قضائیه
مرگبار
برگردانده
##ony
##شتن
لال
##عههای
خفیف
مورو
نخود
##موتوره
مجتهد
گوارش
آسانتر
کیخسرو
تکموتوره
لاریجانی
jp
کچ
فلاس
واکن
تبعیت
رجایی
صالحی
منظره
رایگیری
خانوادهها
##جیو
##عصر
##هرا
هک
##ابها
سرز
براز
سمبل
فیات
کورین
کیوان
جادهای
خوردند
ماهانه
نوشیدن
مشاوران
نقشآفرینی
سهل
ناام
یتیم
قاسمی
کشتند
تعالیم
گناباد
بهاءالله
کامپوزیت
تعیینکننده
Sup
ناف
Russ
هانا
بهبهان
باقیمان
میخواستند
##رفه
نگذ
جزیی
ضمنا
ایزدی
مادران
غیرعادی
سانسکریت
۱۰خانوار
سخنرانیهای
##96
##درصد
##نانی
ret
ویو
پرخ
پوپ
امتن
براک
تجسم
##ration
بلوری
پیکره
استوان
روبروی
سامسونگ
روانشناس
##ini
Su
##قلعه
فلک
سرپل
هراس
معابد
حکومتهای
##فرض
##قیمت
صدق
مشم
سامر
نشدن
الموت
نخبگان
لوکزامبورگ
ماداگاسکار
Kar
شعب
فلفل
نوید
پهنه
چشمی
حجازی
طرحها
سلاطین
میبینند
همکاریهای
##شتری
##ional
انتح
جیرو
زیرب
نهان
##ناپذیر
رامین
متراد
کلیوی
امتناع
ویروسی
یادشده
یونهای
سمفونیک
دارالفنون
##کف
Ob
۷۵۰
##اندرا
نائین
شهرکرد
شیطانی
ابزارها
##ashington
فیلادلفیا
سوءاستفاده
انعطافپذیری
##ling
##اصری
شات
قری
مسن
مکز
مؤمن
هیوندای
آشامیدنی
فرایندها
##pro
##نتس
شق
mod
نشت
ختنه
براند
مطبوع
مارپیچ
ونکوور
کسبوکار
##خند
##ارین
##فیان
هلو
##باشند
اسپن
جنون
حکام
پاها
۱۳۱۸
inter
بسامد
میگشت
میگوی
درآمدی
تحریمهای
معتبرترین
کارگاههای
##ux
##che
45
90
##بساط
##ولون
##ینیو
شول
##ونیوم
جامی
سمین
Human
لودویگ
سوادکوه
##ریو
##ووی
##ژان
IB
##ختگی
Art
فیلی
مجرد
۱۳۱۳
تابلوی
کربنات
گوشهای
انتاریو
بهدنبال
تلفنهای
پرطرفدار
رساندهاست
##آرامی
تقابل
عمیقی
بعلاوه
معناست
کیهانی
جادههای
باکتریهای
##DP
47
ص۲
فند
المل
نعمتالله
نمایشگاههای
##AA
آلا
انبساط
رزیدنت
محمودی
دانستند
هاینریش
استنفورد
عفونتهای
پاکستانی
##باش
##وگو
آسم
شوی
کید
##ities
تایت
جفری
آمینه
امپری
وضعیتی
بایگانی
نیوزلند
کلسترول
man
صفا
لیر
##نهایت
##وفسکی
تواف
جاسوس
رودسر
ناچیز
آویزان
عبدالح
القاعده
رفتهاند
##jan
دیگ
وحی
##خواری
##گاریت
لغات
دوتایی
مرودشت
مظفرالدین
آنتیبیوتیک
##35
Si
##پیشین
هربرت
هیوست
نوسنگی
##باح
##وبیل
شرب
بلشو
گریس
گلاب
##انوردی
غیرمع
گراهام
الکترود
زاویهای
مطلوبیت
70
زناش
عشقی
پانت
##خانهها
بلوچی
طغیان
لیزری
نامعلوم
رسیدهاند
میگذراند
##ola
فئود
چانگ
آوازی
ایلخانی
##OL
##ein
##تیه
##ball
ربیع
کاشته
بردسیر
بازنویسی
##ائین
##right
یاهو
اطفال
دمایی
تعاونی
فرانکو
##wood
##جمان
##دانه
شفا
شوت
##azine
بربر
نیسان
جنوبگان
هرزگوین
sup
بکن
سوب
گیگ
بخواند
تیرهای
میوههای
میخواندند
##ven
Kn
Pl
سالو
برحسب
کلانشهر
۹خانوار
##ats
##era
##leg
##یتور
پلو
##جامین
برشی
وادی
ایلامی
مکزیکی
ولایات
تبت
۱۲۱
وانگ
آتشبس
کلرید
گاردین
امل
مضر
تشنج
گزید
##رافیان
بوداپ
سردرد
بلندتر
خریدار
عشایری
ابومسلم
فضاپیما
گچساران
رودخانهها
AR
Rad
جلف
حجر
درا
پوم
حاشی
شوخی
مزای
ساعته
گرههای
##98
روسپی
عاقبت
میناب
درازای
ممانعت
نباشند
پیشفرض
English
Michael
نخواهند
زیارتگاه
دانستهاست
##دوله
rec
یخچ
ظهیر
قطعا
وزنی
کامبو
خانقاه
فرامرز
نیاورد
هاوارد
اختیاری
تورنمنت
##میش
##ولها
۳۲۰
فسیل
۱۸۷۰
نکردن
آشفتگی
ییلاقی
جزیرهای
Sw
##ازها
مبحث
پسین
Georg
بیگان
سوختگی
سکولار
مقدمهای
همسایگان
پیچیدهتر
##چرز
حشم
خیره
آرشیو
بناها
مفاصل
گنبدی
یونیور
روزافزون
ملخپیشین
##قع
##الدو
واجب
۱۳۰۴
۱۸۹۷
رسالت
عروقی
نژادهای
##ودار
ولو
پرتق
مایلی
##ulation
متقاضی
##ائن
##فلد
مژ
##ولیکی
۱۳۱۲
##نندگان
قدمتی
نماند
سامانی
اسفراین
رهن
باکس
کاکا
باقری
ثابتی
خدایی
سفینه
استریت
بردارد
سوئیسی
پرداختهاند
##حم
Wal
مستق
Black
جرایم
پنجاب
امامان
میلیگرم
چندجملهای
##FA
##یزد
##ions
##پهای
Mart
ساین
مارچ
بزنند
عفونی
کهریز
رسوبات
مشهوری
الاسلام
بوداپست
درآمدند
هواپیماها
##rip
High
Life
خروس
سفره
طلبان
مناقشه
نمیآید
مجموعهها
تأثیرگذاری
مصرفکنندگان
##tis
doc
ذوق
بشار
جامه
خلاص
مزاح
تشبیه
دیگرش
رضاخان
نماهنگ
پاراژن
بازگرداند
##vel
##ریع
##زینه
رسل
هدر
آریا
جیوه
استوا
Report
بسازند
ترمینال
جوشکاری
شاخصهای
##ائب
##فلو
Up
es
یغ
متد
بلان
کسروی
منصوری
اردبیلی
پارکینگ
##DA
##صن
pg
Don
رنه
سپیده
کالین
پابرجا
مهاجرین
##97
##yd
##پژ
##پوس
چا
Mil
هیج
۲۴۵
۶۵۰
##ences
##واندو
استب
سلوک
آشفته
سرخرگ
بلژیکی
سختافزاری
نظریهپرداز
پاراژنزهای
##EE
##يت
##mad
ماخ
لوتر
ناحی
تیتراژ
گستردگی
Ang
Ber
CMT
air
شون
هوک
داوید
بیداری
موازات
مدرسهای
نتیجهگیری
مأموریتهای
##لون
Ro
mol
باط
بفت
صبر
##دانان
##واروپ
براف
عقرب
آبگرم
امداد
مارسی
معتمد
سومالی
عنکبوت
تسهیلات
##موث
MS
##ابعی
اتمها
دلفین
آشکارا
Society
آیینهای
روزگاری
میدارند
کاوشهای
موضوعاتی
##ژیت
توف
رال
شمع
کست
گالی
۱۸۶۰
##ندههای
جاوید
دالاس
خسارات
هوادار
استفراغ
سانفران
نامبرده
همخوانی
دراماتیک
##اقعی
##سلام
سرن
وله
##ویسند
اذعان
رسوایی
متعارف
history
فارغالتحصیلی
##اموس
##لیتی
بیب
هرج
جناب
الیاس
تندرو
شکلات
بارهای
تربیتی
هارولد
##تپه
AM
fl
مصط
دالی
۱۳۱۰
۱۸۹۹
رستاخ
ماهها
صخرهای
صوفیان
Research
استعماری
Fe
##اکسی
##چاله
Fre
تسن
قفس
افشین
شمسال
منظوم
میریز
سولفات
زناشویی
هارمونی
همجنسگرا
##LA
##ha
##ابون
##اهان
جار
خلأ
فرمی
کشیدند
بینالنهر
##ثق
تبه
##iddle
تقلب
خردسال
استثنایی
IM
سغ
##کنار
انض
قرم
ویش
##شمندی
اکست
حیطه
نائل
##راسیاب
اسکیت
اعماق
اندیم
زنانی
مابقی
ماژور
آزمایشها
سیاهپوست
نگهبانان
##ij
##چا
##سیک
##غرل
Mark
بلاک
دیگو
۱۳۲۲
تعویق
سیلور
میجنگ
باشکوه
ردههای
ژورنال
شایستگی
ناآرامی
چهارچوب
گلپایگان
##ef
sy
ژی
سائو
شیره
حسابر
جنجالی
برخاسته
ژیمناستیک
##rag
Def
##osoph
##اخانه
فلام
متان
پسند
خلخال
راگبی
متولی
خوشحال
قطعهای
اتلتیکو
مصدومیت
language
اطرافیان
فتحعلیشاه
بازگرداندن
##47
##67
You
باین
تایی
زوری
منحرف
مینور
مترادف
یخبندان
زبانشناس
نقشهبرداری
یادداشتهای
##ehr
##ترز
WW
موه
##زیانا
تردد
گمرک
مرموز
دریافتی
هزینهها
مسئولیتهای
همجنسگرایی
ترانسفورمات
##اعه
##اسبی
##پلکس
هیک
##تولید
۱۸۹۸
استنت
کولین
سریانی
طوریکه
بنجامین
ناسیونال
##دور
##پون
##ware
##نهام
شاک
۲۵۶
بوته
گانه
باراک
گرامی
اجتهاد
اردلان
کنترلی
نگهداشت
سانفرانسیسکو
##يل
##دیو
##زیت
##کاره
اجر
تسو
لاب
##گیرند
بدین
لورن
۱۳۲۱
برتون
خلفای
خواهم
گلزنی
آرنولد
جاستین
Richard
روزنامهنگاران
##CO
##خشی
۲۲۵
Post
اویل
ایول
تامی
رحمان
مسابق
مسلسل
درمیان
انسولین
دستاورد
قویترین
احتمالات
باقیماند
##yan
لج
##نفره
doi
چکی
باشی
قانع
متیل
رؤیای
کارزار
پناهندگی
##ker
##آرا
##ضلی
##ison
چید
طایف
زدایی
شریان
ناوبری
اندیمشک
کارآگاه
زیرساختهای
##۹۰
##ردان
##ینسون
باسو
بروم
شیلد
قباد
محفوظ
دانهها
امانوئل
##فتح
ایزو
قرعه
##تینمنت
##ستهاند
سوئیچ
فامیل
حیدریه
Institute
##ms
##اسکو
##خواب
مدف
یوت
نینت
##ینگهام
آبراه
نوکیا
پیکار
##وزیسیون
طبقاتی
پشتکوه
پدیدهای
نامیدهاند
##شیده
reg
سبد
##وارتز
Lake
زینب
فرمود
نگاره
همسران
استثنای
جایگاهی
مینمودند
کریستالی
##اینی
جات
شامپ
Books
James
اعیان
دستها
عجیبی
شهرهایی
موزههای
سانتیاگو
##قاب
##ماء
az
##ines
##اکتیو
تعجب
شکمی
سواران
نتواند
استبداد
مقالاتی
##لنگ
اره
بویه
شهدا
پاسار
فتوحات
واکنشی
پذیرای
استیضاح
دمکراتیک
##مث
##نک
##ike
ژو
هلا
یخی
Part
Prov
ایمی
پداف
کناری
ایرباس
Islamic
ایرانیها
فضاپیمای
##عو
##over
##ئیسم
##ولوس
Ann
آلک
تاق
مدح
city
المن
##خواهان
رفاهی
شایعه
شوالی
آنکارا
بخشیده
جنایات
متحدان
کانونی
مستندات
ویروسها
##بید
##پولی
جعل
برین
صدیق
ندان
فرگشت
مصلحت
آماتور
انطباق
لگاریت
مشتقات
خوشنویسان
نتوانستند
##کست
Law
گاد
##ابایت
دیدند
روغنی
نصیری
گارسیا
سالنهای
##اپو
قذ
دکل
قات
تذکر
فاسد
ملوک
اشتیا
تحریف
جوادی
امیران
گیلانی
اقداماتی
فیلمبردار
##aster
زکری
آبسنگ
تپهای
مانور
مثابه
ستونها
میادین
اشتراکی
نمیخواه
یکپارچگی
اسطورههای
sm
##انگه
Bas
Mal
۲۰۶
انور
کعبه
۱۸۸۹
سهشنبه
شارلوت
واژهها
استوانه
لارستان
کوهنورد
بینالنهرین
##ساعت
Pri
Vir
Thom
براه
آوازه
ضربان
مرادی
نلسون
##الاسلام
جذابیت
صداپیشه
‘
##زلی
##amil
##vers
سیری
بودیم
حائری
فنجان
Econom
اتاقها
ترکهای
نیامده
حمیدرضا
کلیدهای
##ارق
بیو
آیرس
متیو
غریبه
Center
اصالتا
قیمتها
انتحاری
متغیرها
هیوستون
##حون
pre
ازب
بیکر
تروم
تندر
پروپ
۱۳۱۷
ادویه
باغها
غیرمج
منشعب
هولوکا
چاههای
شهرستانی
سیاستگذاری
##ناکی
بنف
دیتر
شبها
مبتل
معشو
اتباع
حوزوی
دولتش
همسری
پاسخی
detail
جابهجا
عناصری
موناکو
نگرفته
##48
##por
Bro
عطا
لون
۳۳۰
##ments
Turk
قصبه
جوانه
شیفته
کوشید
دبیرخانه
موسیقیدانان
##ca
##حر
##اصب
##سلاو
##سیوم
همو
۲۰۴
Cons
آوای
اوپن
سراز
غیاث
کرام
بهمئی
بوجود
زینتی
سیالات
مرزبان
استعمال
##تک
×
##vard
##وارا
ادو
برک
قوا
1996
اموی
طلاب
چاقو
تنباکو
دقیقتر
شهریاری
##iter
##وهید
گمن
حواس
درود
مدام
ملیت
دماغه
راجرز
رونویسی
فراهانی
ویراستار
خورشیدگرفتگی
##خوبی
##دوست
##موده
##نشده
##یتری
طرق
عیب
چرچ
کما
۲۸۰
Prof
الام
خطبه
دیلم
##سترانگ
##کوفسکی
##گردهای
صوفیه
عنصری
مدیون
پوینت
اشرافی
دابلیو
رومیها
##SM
##دکس
##غری
##ears
##فراز
لاگ
خیار
فازی
ماین
پوزه
لحظات
ادموند
دادهای
ناامید
کاوشگر
رستاخیز
فزاینده
خنککننده
۱۱خانوار
ابرقهرمان
##33
شبح
اوان
کینه
##گیرانه
فلاسفه
مضامین
اکتشافی
سپهسالار
فرستادند
##by
##وساز
رخت
پرم
اسبق
واین
۱۸۸۸
فروید
قویتر
مدفوع
بیاورند
ژاندارم
پیامبران
محافظهکار
##یف
##ero
Of
سرگی
نیای
کوزه
مؤسسان
نسلهای
فراکسیون
پردازندههای
##ius
مرض
هاي
۵۵۰
##امزدا
بروی
دانگ
کلاغ
آفرید
ناتنی
نشوند
بیدرنگ
جدیدتر
چهارگانه
کاریکاتور
##rest
##ونین
آهو
خاچ
وول
##سترون
Port
بورن
دیبا
مملو
پلات
۱۳۰۷
مخروط
حلقهها
رحمانی
سیدعلی
کوهدشت
مردمانی
افراسیاب
سهامداران
##مرغ
هائ
##سرایی
ترمو
مارین
بازدهی
کامبوج
آزادیهای
محمدجواد
##ois
##خره
##سنج
##ects
How
گاس
۱۴۱
المع
فونت
آهنرب
دیلمی
قرنیه
بغدادی
معشوقه
چناران
ویژگیهایی
RNA
برفی
دردن
سکنی
۱۶۰۰
زوریخ
مقوله
##مندیهای
States
چهرهای
آشتیانی
کرانههای
مردمشناسی
##99
##۷۰
OS
##نواز
##پناه
تیک
فعلا
مشیر
##اکننده
اجرام
تذکره
گوشههای
مبتلایان
آرمسترانگ
پایینترین
##پد
ولد
##ومینگ
بتنی
بوهم
پیرس
نفرات
پیشکس
نمیرسد
پلتفرم
صفحههای
میرسانند
اهورامزدا
##ارتو
حبیبی
مانگا
ناهید
برآمده
قوانینی
درمانگاه
##۲۰۰
EP
##اصغر
هرد
سنقر
فروغ
سال۱۳
سنتور
لئونارد
##fo
##لاج
پرل
بکند
عایش
ارتشی
والنت
گشتند
اسپنسر
نخجوان
میکروبی
##لور
##ross
##ابلا
##کوبی
Mat
کلو
تناو
##آنلاین
ابوعلی
باربری
تلاشها
لبنانی
کماکان
الجزیره
رودخانهای
##ird
##لوف
##پری
##تیبی
بقا
ناج
##نوازی
غازی
لیدی
مهیا
مظنون
ملبورن
آبادانی
تألیفات
سرمایهگذاران
##چان
DC
##یمان
mag
##ility
Sant
تویس
دارن
روکش
فرنگ
افسری
نامحدود
##آو
##eek
##شوی
##فرا
ثلا
##لبانی
توبه
نسیم
آیفون
اتابک
رویان
اقلیتهای
هیدروکرب
##رماه
بوگ
گیب
تاند
سرحد
طغرل
ادگار
اولاد
بیطرف
تدبیر
سرانه
معقول
احمدشاه
غیرمجاز
یازدهمین
##oug
fr
گیج
cent
دکمه
فتنه
بهاری
رضوان
درههای
راحتتر
نینتندو
افسانهها
محصولاتی
پرینستون
##ارشا
Pat
بطری
بلخی
میوز
نیوک
تفاهم
توکلی
نامهها
پاناما
بارسلون
روشنفکر
اقیانوسیه
روانپزشکی
نمایشنامههای
•
##قیقه
دوغ
شرع
نرد
مظهر
وگاس
کلهر
ایوبی
سعیدی
نامها
همسان
مورخین
چرخهای
پیشکسوت
سرخپوستان
##ype
ent
##وموتی
سوژه
قروه
##وندگان
تنسور
کیمیا
گزیده
مرکبات
میشویم
نیمروز
اکسباکس
بهبهانی
##۳۲
##ves
##فیک
صل
وکل
##بازان
دیزل
گرانت
استایل
حفاظتی
میداده
پیکچرز
کانتری
قبیلهای
گزینههای
فاکتورهای
طعمه
جلویی
راهرو
فرآیند
چهارراه
کارگزاران
کوتاهترین
##ense
مسؤ
##erica
##اریاب
خلاء
طلبی
هرتز
ارکان
بیساب
تصدیق
محتمل
فرهنگها
ناخالصی
نوارهای
پرداختن
کنسولگری
نگهدارنده
##vi
##ئیل
##لوس
##وشد
##ابرد
##کسین
شفت
طلس
ورن
کاتی
بندری
ایستاد
موجهای
بیوگرافی
مستعمرات
پیادهروی
برخورداری
##صور
نغ
##سیمی
##نیهای
King
تازی
هانت
جفرسون
پلیمری
کاردانی
پم
##وکسی
sub
Book
عطار
اجساد
اسکور
اینتل
خاکهای
قاعدگی
قتلهای
گفتمان
آزمایشگاههای
##EM
##irect
##محمدی
الرح
بافر
یونس
۱۳۱۵
اتلاف
استارت
بوندسلی
رنگآمیزی
کشتیرانی
##sw
##cess
##سکین
##ردانی
آهکی
اسمک
برخط
مجار
مفاد
۱۸۹۳
المان
دولتم
نهفته
واتیک
ابوسعید
##عش
##هل
##ضلعی
end
صور
مولر
کلیس
کورش
Chris
رامسر
مارسل
مثالی
Israel
ارتدکس
بالتیک
سرلشکر
ماکسیم
پستهای
##FC
##آلو
##تیوی
##ource
##بودند
ابدی
ایان
بشدت
شبان
فانی
قزلب
مزین
امانت
مونرو
گیلکی
استنباط
تمدنهای
شیشههای
درن
مدد
یاب
Pres
آقام
مازی
ایستا
فهمید
پلهای
تکواندو
چالشهای
گستردهتر
Washington
##rug
صرع
##ماتیک
بناب
شنود
واعظ
گلزن
۱۸۹۲
لوبیا
مادون
مستندی
اتفاقاتی
##ues
Tw
زبر
عرق
منس
هین
بودی
رینز
قضات
دورتر
زاهدی
ناخود
پابکم
گفتنی
مخصوصی
ترجمههای
##32
##رخ
##ارتا
##واند
افتد
مؤلفه
مخارج
گاندی
العربی
ستارهها
مخالفین
##68
##سها
GP
فسا
هاس
Phys
بازو
دوبر
سرکه
مرشد
کوبی
۱۸۸۶
سلماس
صراحت
فولکس
پلاسم
کتابت
Review
افشاری
نرسیده
گردشگر
وایومینگ
کوهنوردی
##شوق
Bel
دلو
رقی
فلی
۲۰۵
حجاز
۱۸۹۴
قذافی
هانری
گازها
متعاقب
گوارشی
نوسانات
واتیکان
استحکامات
##be
##کوی
57
Ma
##یکول
Gra
یوم
آتشن
آناه
خونآ
لستر
##ardian
Saint
اندلس
تکلیف
حسابی
تیموریان
درف
show
صوری
مجرم
وفور
اعتقادی
دورانهای
رخدادهای
##وسو
درز
دمی
دیس
صمد
فدا
##urity
##تمندی
استه
ترام
خاله
عینک
غشاء
وارن
بردگی
بیابد
هویدا
سخنران
موتوری
اسپرینگ
تابلوهای
پاسارگاد
##44
##55
##ارز
##ysis
##قدرت
gen
آنه
بسر
رات
کفر
##نوشته
بیگن
تفرش
سانی
افشای
پایتون
##واروپایی
نانومتر
نتیجهای
استوانهای
##orge
##اقلی
آدل
رجی
مرند
۱۳۱۹
تجارب
دیماه
سایوز
عایشه
منجمد
موردی
ارتعاش
نواخته
گفتاری
نامطلوب
خریداران
دولتآبادی
##da
هیو
Pers
آزادر
برونو
عسکری
مرجان
احتیاط
درخشانی
پنجرههای
##نع
##ube
##uct
##ویر
##ruct
##تیوس
one
قاش
##ختگان
القا
برگه
بیوت
دربی
مینگ
۱۸۵۰
تریاک
درازا
افغانی
تعهدات
سفارشی
بیشماری
رمزگشایی
##چون
##یاد
CC
وث
##اتسو
ارل
##کتهای
آرون
سیسی
شربت
##افتاده
میترا
مستقلی
میزدند
اینصورت
رابینسون
متابولیسم
ستارهشناسی
##لث
##چف
##کاب
pl
جالبی
کربنی
کوزوو
آنتوان
ولایتی
برجستگی
شهربانی
دنبالهای
دروازههای
##rew
جکی
##یکاری
Music
کیوتو
اصطکاک
ببینند
Company
تعمیرات
ابط
تهم
زشت
##ating
دکور
وردی
چاله
باروک
جنگید
زامبی
مبلغی
کنکور
متعادل
تراکتورسازی
##اوب
##اوو
Ear
بله
##ادران
Park
بگوی
شوید
میخی
نرگس
والن
گفتم
ساترا
جریانی
روبرتو
میاندو
میفهمد
خشایارشا
##سس
##زور
Do
PS
##طوری
Aust
دلتا
ضمنی
گوان
دوگان
پدران
آلبرتا
امریکن
خواهید
مخلوطی
آشپزخانه
##RS
##bi
##aily
##کندی
Ver
گزی
##ولینی
film
اتان
دیود
زوای
صفرا
لعاب
واگن
چطور
گماشت
تشخیصی
تفاوتی
ریموند
فارابی
کاسپین
دربردار
روانشناختی
##asc
##جره
##پتو
IN
##ives
##tish
Aer
۲۰۹
##ental
جردن
لطیف
موتس
میکس
نیچه
۱۴۰۰
Green
نهادی
پلیسی
تاکستان
خاکسپاری
##ائر
##اقبا
دنا
List
تکانه
اشتیاق
رقصنده
سریالی
کرتاسه
شرکتهایی
غیرمعمول
##تکه
##کوئ
##گرن
AN
##المت
دیدم
صافی
مرخص
۱۳۱۱
حضوری
عکسها
مبادل
چهارد
آدریان
آرارات
نداریم
نمایید
گلخانهای
علاءالدین
برنامهنویس
Il
kh
##روپی
##هرنگ
##وسیان
شیوا
مدور
مرتض
ژنها
معشوق
چشمها
کاران
کومار
سرازیر
ناراضی
آتلانتا
##roduction
نابرابری
##ope
TV
بچ
##راجی
۲۰۳
بیگم
دیال
رانی
سوخو
طویل
##یشناسی
حاتمی
رودان
زنگنه
هاردی
گستره
بازیکنی
افتادهاست
##ago
##ئان
IT
##فرید
حیرت
رویا
الیوت
بخاری
توانا
میریزند
مادرزادی
##ضم
##عر
##مم
##آموز
بهن
مجذ
۲۰۷
##ازاکی
جاسک
سغدی
الوند
فروهر
مشمول
هامون
دیویدی
میوهها
فرصتهای
فرناندو
پیوستگی
کلیسایی
ترکیبهای
توپولوژی
ساختهاند
۱۲خانوار
##ger
##اتن
der
کلیک
دایان
مهتاب
پررنگ
قزلباش
میگذشت
ناشران
تشریفات
شاعرانه
مبارزان
یاختههای
Na
تجم
ساد
##ledge
##زمینه
بنگال
سریعا
شرلوک
هممرز
گرامر
گنجشک
German
کلینیک
سازندگی
قدردانی
نمونهها
عنبرآباد
##لولی
۲۳۵
1994
ماهه
۱۸۸۵
توالت
فرآین
مازاد
پورتو
ادراری
پلدختر
میخواهیم
Association
##خطی
فا
##سوده
##طرفه
فرگ
هرو
ودر
##ینسکی
تشکل
زنگی
داشتم
نشاند
لایهای
شوراهای
میگوییم
ورشکستگی
روستاییان
##uri
##ودان
##وفیل
dis
آوا
اپی
##اترین
افکن
قمار
هیست
۱۳۰۸
۱۸۷۱
##ission
موقتی
آذرماه
زمینها
سرواژه
Studies
اینچنین
##لول
##atic
##تیکر
sch
چکش
ازآن
افول
لنگه
ماست
ماکو
مندر
نمین
کونی
سرگئی
ویدیو
Health
آنارشی
تامسون
لحظهای
پرتقال
تحریریه
متعاقبا
نبراسکا
پروستات
دانشسرای
درمیآورد
قدرتمندترین
بغل
الشی
۱۳۰۵
آسایش
تقطیر
دردسر
ریختن
برگردد
اساطیری
تمایلات
گفتگویی
ساماندهی
عذرخواهی
ثروتمندترین
##OC
ne
ژنی
Serv
سراج
میتوک
خوانین
مکانها
تودههای
لئوناردو
پروتکلهای
##وقه
##گیت
##uter
##ایدر
##ویتس
غنا
دورد
گوات
۱۳۰۹
گشوده
بستگان
رانندگان
تکنولوژیهای
##تع
##قاق
du
ضح
##کاوی
Ben
تکت
آغوش
استال
مشایخ
مغولی
مقتدر
##formula
##ological
ماشینها
EC
حت
##ream
Red
مکی
##مداری
##گردند
رمزی
کلوپ
۱۸۸۷
اهریمن
ترتیبی
سادهای
فولکلور
موتسارت
میانمار
داوطلبان
پایهگذار
۱۳خانوار
برانگیخته
##bo
##عدی
دلس
طاع
تجلی
رئوس
##رکننده
تابوت
سیامک
غضروف
گوانگ
جاندار
پیچیدهای
گلبولهای
##iy
##osh
قق
##بسته
گوس
Poli
لغزش
بداند
رودکی
فقرات
توانند
ناکامی
پیشران
ترانهها
محمدخان
آندرتیکر
انقلابیون
نخستینبار
##ults
##انلو
##طرفی
Sur
لوید
هرمی
اجماع
سگهای
اینبار
منظوره
شکارچیان
دستورالعملهای
##ior
Bra
بیث
زمز
گنب
##istry
بلاد
فومن
کاشف
مدلها
همبند
زاینده
ماهیهای
##اطق
##شنی
##گیز
اعز
عرص
##فرهنگ
فراس
مسند
ادریس
بکشند
تالیف
رقبای
منزله
چیرگی
تنشهای
ادعاهای
جفتگیری
علیاصغر
ایرانیکا
عثمانیها
میاندوآب
یونانیها
اپوزیسیون
##mp
##sch
##عبی
##وفا
gu
ژئ
##وبات
لاد
##ردهای
اردک
براق
بیرم
دیلی
۱۳۰۶
استین
الفبا
بافتی
مینیم
گلابی
system
پاسخهای
محمودآباد
نرمافزارها
##ba
##خری
##اگرد
##هرود
داف
۲۱۳
بورگ
درگز
عصاره
مکاتب
لواسان
مینامد
آلمانها
غلامعلی
قلعههای
آزمونهای
درباریان
دیپلماسی
گرانقیمت
۲۰خانوار
مجسمهسازی
ني
##field
Mill
بانه
برکت
سوشی
مسجدی
مغایر
یکمین
انسداد
عالمان
علویان
وینسنت
سباستین
سرگردان
کمبوجیه
ایستادگی
##واژه
##وریم
##ولات
لحن
over
احمق
التو
بدوی
جرقه
خاتم
ملزم
نیوه
گلشن
بهشدت
زندیه
قبولی
هیولا
اهتمام
پارکهای
برادرانش
درآوردند
ناپایدار
فعالیتهایی
##ضرب
##کای
##هرمز
Sim
Sol
تتر
جند
کثی
بوئن
تنگی
جدای
راور
سهمی
لغوی
مبال
۱۸۴۸
کوچکتری
کتابداری
گیاهشناسی
##اگن
##اسیر
آوان
رزرو
رویت
نگری
۱۸۶۷
جمادی
مجنون
توپهای
عصبانی
قلعهای
مازیار
جامعهای
نشانهها
ساختهشده
عمدهترین
نورالدین
ماهیچههای
##ians
##tian
ترن
آبخو
باشم
صمیم
المپی
سمیرم
منصرف
کاریز
گمانه
اوساکا
اژدهای
فرخزاد
چاپخانه
سریعترین
سیاهچاله
##uf
##ien
##اپر
HT
cl
##itor
##کلند
فید
مفق
راکی
قدیس
ندار
گنجه
۱۲۹۹
بعداز
راهها
بندهای
واتسون
section
تزیینات
سامانیان
##off
##عین
##aper
##raft
##sych
##تیوم
min
بجا
نری
##مانیا
غرور
هپات
گانگ
معلول
اسپهبد
انیمیش
بنویسد
بهخصوص
نظارتی
آبراهام
آزادراه
بروکلین
مناسبات
چسبندگی
گوشتخوار
دندانپزشکی
##oz
##ظهر
ob
##انتا
##press
مدلی
یقین
۱۸۶۸
رسوبی
کاردین
پژوهشها
پاراگوئه
##سوز
لژ
Mer
ننگ
chem
حواشی
ققنوس
مجامع
مدرنی
مسموم
گوشتی
۱۰۰۰۰
Engine
برگشته
خلبانی
کلانتر
گزارشگر
شمارههای
##يه
##رتز
##لوا
##پاس
AA
##رینگ
گائ
مغذی
تناوب
هولمز
گوتیک
##artment
فرآوری
سیارهای
طرفداری
میگیریم
درآمدهاست
فرانسویها
##طره
84
##ason
تفا
##ister
1395
داعی
سوسن
کیتی
الیور
رئیسه
هستید
پرورد
گچبری
مدیرکل
##۲۵
##طلبی
##نژاد
out
میج
وثی
۲۰۸
##الیان
الاه
تکاب
لیمو
تسریع
تلمود
ممالک
نانسی
کیانی
مریدان
گرفتگی
استرآباد
زاویههای
مکانهایی
اینترنشنال
##ould
##دستی
اوه
توأ
شاو
طرد
آمین
فلاح
مناف
هاله
آپارت
بخورد
عبادی
فسیلی
ماتری
ماهان
کپنها
America
edition
تعلیمات
کنسروات
آتلانتیک
##rol
##پرده
##کوپی
##ولوشن
منگنز
مجمعال
نایبال
پرندهای
انرژیهای
مجسمههای
مولکولها
گویشوران
فروشندگان
باستانشناس
سرمایهگذار
##iles
##تیسم
met
sec
زری
ساف
Time
list
برمه
بیوه
مهیج
first
دفعات
فانوس
دردناک
قصههای
مرکوری
میافزاید
کاتالونیا
##پره
Jo
##سفون
log
1995
رالف
رفیع
عقلی
متاف
منزوی
زردآلو
علاقهای
مشروعیت
یونیورسال
##31
##ارث
بذ
##ومین
یکه
##اوران
##پلاسم
نرها
##ستهاست
Peter
امثال
توفان
مطلبی
چیزها
آلبرتو
اهمیتی
Harvard
ارگانیک
استقامت
درآوردن
ژاپنیها
مارکسیسم
بوندسلیگا
##حل
##خانو
##فتند
چاش
آبوه
ترشی
زایی
مافی
بازرس
تناوبی
خطاهای
متمادی
Library
خلبانان
دادگاهی
پیشنویس
##قرم
64
شفق
##زمانی
fars
آرتس
الیس
تختی
وجهی
First
ربانی
میفرو
وزرای
پذیرد
وایکینگ
گذرانده
اسطورهای
برگرداند
صلاحالدین
هندواروپایی
##II
##gan
55
Ha
000
his
دیپ
اشتب
رواق
ضحاک
احیاء
دانته
مقارن
اشتباهات
نکردهاند
##ule
##ites
##ستاق
bdi
عدل
cons
احتس
قبله
قلاب
منصف
کاتب
گریم
۱۸۷۸
شعرای
انباشت
بفرستد
جهتگیری
حسابرسی
صورتیکه
مقالههای
خشونتآمیز
ترانزیستور
sl
Dem
##ئیدها
تظاه
حجمی
داون
زینت
آمیگا
اتیلن
بیرنگ
حواری
سوختن
متریک
برومند
لردگان
یدالله
خونآشام
کاندیدا
سلیمانیه
خویشاوندی
##EG
##OM
##اطی
##site
##آمدی
تکی
غلی
پاف
Open
تشکر
حشمت
لوکا
پورش
چریکی
انتساب
توصیفی
تکههای
موومان
سوزاندن
سرپوشیده
Publishing
##نزو
HD
we
##نیان
Aut
خلو
##سازان
تیوی
کوله
گدار
بالاد
چمران
قلیایی
لاکهید
ولیعصر
فاصلهای
پرکاربرد
الکترولیت
استفادههای
کنسرواتوار
##پلر
49
ISO
۲۳۸
دبیری
رگهای
هیبری
##پیوندند
معاینه
باغداری
شورشهای
لامپهای
تویسرکان
سیستماتیک
سیستمعاملهای
##ula
su
##جمند
soc
الوار
تقلیل
تلاقی
رومئو
احتساب
تابناک
زیمباب
عنوانی
میکروف
نیکلای
خواندند
چالدران
شرکتکنندگان
##69
##کد
عت
لئ
##ومون
بطل
هکر
##شتهای
بیسم
کیمی
۱۸۸۱
آمینو
تخمیر
سرزنش
مردانی
فیبرهای
اقامتگاه
مشخصههای
دوستداران
لوئیزیانا
##TA
##قفی
##یدها
Dis
تره
قدی
ویم
ادین
تیری
عیار
مایا
قطعیت
مصریان
بینندگان
رکوردهای
##87
##اندز
##ونلو
190
انه
##ومالی
طیفی
عبدی
مشعل
##alysis
اتاقی
اقلام
تخفیف
رنگار
ستوان
آلومین
زیرشاخ
تانکهای
کوهپایه
گوشیهای
جنگندههای
نشانههایی
##itz
##گوت
var
شتا
##اهمیت
##بانوی
ببخش
بیضوی
محسنی
بدانیم
غارهای
دهقانان
زیانآور
مهرههای
کربوهید
درمانهای
##ico
##use
##خوس
##اکیه
فائ
کاگ
##ensus
##erbai
تعصب
پیان
کرنش
۱۸۸۲
۶۰۰۰
آهنین
مقدسی
غیرمنت
عادلانه
فراخواند
نگارخانه
کمونیستها
اردوگاههای
##yle
Ah
##شاند
See
آپا
شیک
سعود
فورا
Group
عبوری
وارون
شوشتری
قسمتها
زیمبابوه
کتابخانهها
##lag
##پید
54
To
##تشده
شتم
هلس
۲۲۴
دیجی
چاقی
تشابه
سپهبد
شگفتی
فرانچ
موفقی
اندیکا
خزندگان
پذیرفتن
پارچههای
شهرستانها
میتوکندری
##arn
هذ
##دقیقه
استو
قیچی
مدیت
نمکی
کربل
افندی
اکبری
جانبه
غزالی
سایتها
نگاران
بخواهیم
آییننامه
گفتگوهای
پیروزیهای
الکترونهای
##iana
##موزی
its
مدیا
کیفر
۱۳۰۳
تزاری
توازن
فرزاد
گلدان
بیطرفی
مسعودی
نیکولاس
##ps
ec
##ستاد
چله
isna
باتی
بیضا
خادم
رزین
روبن
مجلد
ویلن
کلوب
آفریده
درصورت
پایبند
بیگانگان
ناحیههای
##tt
##دس
##raw
##ایک
##جور
##بیای
##چیزی
##ینیا
عری
لگن
##الاول
orig
پشتو
پیاچ
کبری
کوسه
اپلیک
بطلمی
تامین
سفالی
پرهای
زخمیان
شبکهها
کدگذاری
دریاچههای
عبدالحمید
وزنهبرداری
##۳۵
##رکه
##مونت
فیث
۲۵۵
##tions
this
سینی
محال
فلیکس
آرایشی
لنفوسی
مادهها
اعترافات
پذیرفتند
فیلمسازان
گزارشهایی
استعدادهای
اسماعیلیان
بازداشتگاه
دربردارنده
##۸۷
wwe
شوق
صخر
اندو
روال
علفی
کوثر
فوربز
بادگیر
بپذیرد
تعریفی
دیوارههای
اندیشمندان
##enc
NP
Mun
ریج
کبی
##استان
Gold
عمار
۱۸۷۳
##فتهاند
تبرئه
وکلای
اورتون
ایلخان
قطبهای
پیشوند
اسدآباد
آشکارساز
۱۵خانوار
##ثور
ES
ژل
##ehran
##آگاهی
pres
دجله
رفیق
غلاف
متمم
یکتا
بریدن
حکاکی
قدامی
لتونی
گئورگ
انستیت
متنهای
جایزهای
##رج
##صره
Mu
##ادرت
##سیدن
##انتری
##کتریک
دهنو
اشاعه
سلیقه
الزامی
خوشهای
میکردم
افتادند
سوختهای
خاندانهای
انعطافپذیر
##AF
##TC
##یمت
##باغه
##ریکه
##وشان
بهس
##گواری
##یکیان
بفرو
لاور
مهری
نقاب
القاب
تعزیه
خسروی
فارست
ویستا
یوسفی
اعزامی
میکوشد
هیرمند
چیدمان
آوازهای
ارزانتر
تهیهکنندگان
##يي
##och
##نیت
پک
##ئوسن
ثلث
نیس
ابرو
عذاب
ندهد
ولید
فراغت
##عبدالله
بپیوندد
امکاناتی
تفاوتهایی
##ادلی
##افری
##افکن
##ومیر
978
بوز
زاب
فاح
##وندها
بریک
رقیق
شهره
پوری
پناهی
گرهها
سیاهکل
شهبازی
معالجه
پدافند
بارگیری
رأیگیری
غیرمنتظ
کلیساها
تجربههای
اروپاییان
##LS
##قط
##vir
43
##atis
##ایران
Hand
جدال
سانگ
۱۳۰۲
##همپتون
درسال
راندن
لیتری
کاووس
دیوانی
نوشتند
انباشته
توانمند
چراغهای
##so
##شنا
em
نن
##بریا
##اریکا
##وپاتی
بیشه
خشتی
لئوپ
کمپر
کونگ
یولی
۱۸۸۴
۱۸۹۱
هافمن
پرتوی
##unction
اشخاصی
سرآغاز
گامهای
خودگردان
میآوردند
خویشاوندان
درخواستهای
کز
بلع
آنژی
وریدی
پلکان
اکسپرس
لنگرود
چهارصد
سرامیکی
بازدیدکنندگان
##سیها
##شکنی
##منین
##کستر
ازد
آتنا
ازدی
القر
بخشش
مومی
کباب
گیشه
بوریس
ساعتی
هستههای
گورکانی
آنزیمهای
##انژ
توج
مقن
##اسیان
1990
Chap
Wind
بمیر
لرزش
مانه
گراز
انگار
تعالی
گروید
بدخشان
مبادرت
فراورده
هنرمندی
دادستانی
فرودگاههای
##med
##پاش
##یزی
Go
##الیک
##ومار
##مردان
##نتینو
ترنر
میکل
کاذب
##قلیخان
باهوش
دالان
فردای
قابوس
نیستم
تودهای
رامهرمز
##way
##روش
##ones
Bre
گلس
time
ایوب
خلوت
پدرو
طاعون
فرکان
منسوخ
ناخوش
کلوین
ملکشاه
بریستول
طراحیهای
بازگردانده
##ارزش
##الام
مگس
۴۲۰
جودو
رشوه
کورن
آنفلو
ابریش
اولیو
بدلیل
بهنظر
متفکر
google
دانیال
ذوالفق
شناختن
مریوان
نمیرود
آناتومی
قورباغه
امیرآباد
سوارکاری
##evelopment
##elle
##خونی
##روئن
##ورون
رگر
سلب
##ابیان
##خدایی
##هنگام
بلیط
عمدی
هورن
۱۸۷۶
خالقی
بوئنوس
رالینز
مراجعت
مرتضوی
ژنراتور
رایانهها
سرمربیگری
##gy
##ān
##گنج
##اختر
توب
آبجو
ائمه
شیار
خرچنگ
سوران
گمنام
مالکان
هرساله
اسکریپت
لوکوموتی
##ask
##گانگ
Adv
##وردگی
بورژ
خبره
زبیر
شاغل
نفیس
Calif
آیینی
اوائل
دونده
مقرون
شاهدخت
عقلانی
میرزای
##اظم
ضو
##اویا
##مالا
جمل
غسل
معز
ونت
سگها
شویم
شیلا
مضاع
مطیع
##روتئین
اینچی
فوتون
والاس
ایرویز
بیتالم
سپردند
منفجره
هوافضا
Charles
بازیباز
بهمنظور
دیدهاست
مهمانان
پیرانشهر
گذاشتهاند
لش
##ange
##اتها
##ساید
Tal
یوح
شاسی
Histor
سایمون
عبدالق
پلاتین
روشنگری
دریانورد
عملکردهای
ژاندارمری
##ora
تاپ
دسی
هرا
##انیها
خداد
خطری
رابر
قضای
لاند
##وتراپی
بوئین
متضاد
کاردی
School
دوشیزه
کتیبهای
عبدالبها
شبانهروزی
فضانوردان
##جری
##کشن
زل
##نتال
Dan
ass
آرگ
عمه
چیت
برجام
شفیعی
مامور
معایب
وثیقه
گودال
آشیانه
برادری
لبههای
پردازی
چینیها
کهنسال
قدیمیتر
ماندهاند
##app
##ظبی
##نجر
av
##آلود
عاص
دوزخ
سیتو
پروف
اسلاو
اسکله
فینیکس
تیروئید
درختهای
فیروزکوه
خواندهاند
##شرق
##ever
##ords
##ویلی
الشع
دیست
رقمی
فلوت
فوجی
مقصر
۱۱۰۰
نیامد
پیرنیا
پیستون
التهابی
برهمکنش
بنیامین
فرکانسی
کرایسلر
گشتهاست
آسیبپذیر
روحانیان
نویسندهای
##ras
##بوم
##غلو
PA
پپ
car
۲۱۲
Chem
ذهاب
مرئی
نمان
گذشتن
روزولت
پیمایش
آنومالی
بیتوجهی
حسابهای
حقوقدان
برگزیدند
شناسنامه
نمیکردند
##RC
##اتون
##مکعب
ref
اپت
آمبر
بیگی
تاری
خواج
##گلوبین
میکوش
##agement
چسبیده
گریگوری
درآمدهای
کریستینا
۲۱خانوار
##ivil
##لوبی
##ومرث
اسعد
دیری
ریچل
سکون
هرکس
فرابن
ابوظبی
استیشن
خوشبخت
دوقطبی
شایعات
حیدرآباد
باکتریایی
Department
عبدالرحمان
tw
##برگر
##محله
One
جثه
هاج
۱۵۱
اماس
تریل
ویسک
تعارض
عواقب
متصرف
نوشهر
هاروی
تومانی
دروغین
کریستن
مبادلات
موتورها
نگارگری
تیرانداز
میپوشاند
اسماعیلیه
بیمارستانهای
##VD
##یکر
##ider
##تیکت
med
سوک
پیج
##ornia
۱۷۰۰
۱۸۸۳
مافوق
پولیت
تفکرات
تهماسب
رقصهای
کشتزار
دامپزشکی
کمیتههای
۱۴خانوار
١٣
Rel
جلی
کتک
بفتا
ستیز
قریش
مکار
تایرا
سالروز
متنباز
مهرگان
ژانیرو
همگرایی
والدینش
گوگوریو
محمدمهدی
الگوریتمی
خواهرزاده
داستانهایی
##ias
##زدن
##ابیش
##ائولو
تخلص
جرگه
جودی
سوفی
سپاس
محدب
مذکر
سوربن
ماونت
##دالدوله
بدانند
تورهای
دادرسی
اختصاری
سرعتهای
پیشرانه
دانشآموز
ناخودآگاه
##51
##جید
##وبو
فح
##ader
##یلها
شگر
طیب
##رانند
Film
روسو
ساکس
طوطی
هیأت
پاند
۱۸۷۹
حسادت
المللی
تیسفون
اردستان
تاکتیکی
حرکتهای
پوششهای
امیرحسین
اکوسیستم
روشنفکری
مجمعالجز
کیارستمی
بیتالمقدس
##يش
##den
##ely
##روع
##ties
##مردی
##ویسم
غاز
آران
امگا
آسانس
بیران
دونور
شبکیه
مناصب
اعلامی
شکلدهی
متهمان
بهعلاوه
دوازدهمین
ناصرالدینشاه
##ray
##ازا
##وبل
Vo
##پوشی
بنک
۳۶۵
رسته
سافت
کاله
گنجی
یاسر
زمینهها
کنسولهای
گیاهخوار
ایرانشناسی
##گول
##یتز
58
SM
ــ
آصف
پرآب
خانات
سکاها
ماژول
نمیشن
نورون
حلقهای
قضاییه
آگاهانه
صادراتی
فرابنفش
بیمارانی
تفنگداران
##اسف
##ایو
##سبون
لیت
کثر
۱۶۱
Camp
poli
آمان
باتل
بریز
بینش
رشدی
زیدی
تسلیت
سوفیا
مربعی
مفقود
موعود
نیریز
پارسا
باغملک
تعاملی
تفسیری
نمانده
میخواهم
نگهبانی
تحلیلهای
نمیدانند
عبدالبهاء
الگوریتمها
##kin
##sic
##خوف
ج۲
##ازول
##سفید
Eth
Hel
نون
۲۵۳
۲۷۵
عکسی
نطنز
پیغم
sport
اتاقک
تایلر
جداول
جولیا
روایی
سختتر
پوشان
آنگونه
اشعارش
اینستا
دیالوگ
اوگاندا
نامحسوس
نامزدها
امپراتریس
##LC
##gin
##ائیک
Pop
##سلمین
اغتش
جانگ
شغال
قاشق
مصمم
هروی
count
مورفی
نفیسی
سلسیوس
قرنهای
مبارکه
کلاسها
##52
##ila
##tig
##فوی
go
##جعفر
##وهری
Cas
rad
الث
هضم
##ticle
Rock
تملک
تیان
همگن
کمری
خلیلی
رسانا
شیراک
واندر
Academ
Social
خصوصیت
میپرسد
iranica
رنگارنگ
رویکردی
پروژهای
##EL
##bor
##com
##گره
DA
##یدین
انو
اکل
جیپ
فوج
پوئ
##گیران
واسی
River
فعالی
منبعی
نقاطی
حمایتی
صحنهای
میلانی
رسالهای
رودریگز
مهرآباد
پهلوانی
اکتشافات
زندانهای
طولانیتر
باستانشناسان
##iff
طه
دهل
متب
شجره
قرضه
لیسه
اورست
منسجم
موریت
نامتن
همگام
محوریت
میراند
بزرگتری
بیوشیمی
ساعتهای
کارتونی
آبادیهای
بردهداری
اصولگرایان
##فیت
gl
یس
##یاسو
Top
تمر
شنگ
مکل
تمبر
دعای
مثانه
مروان
پاپوآ
report
مونترال
میافتند
پروژهها
عبدالملک
گلپایگانی
##tif
##آلی
مفع
۲۱۴
##ublic
blog
تراب
شلوغ
عجای
وراث
۱۸۶۵
##نشینان
سنگفر
شبهنظ
ناکار
ندارم
کالری
گلبرگ
George
تجارتی
کنتیکت
عزتالله
اقیانوسها
بازپسگیری
Technology
کربوهیدرات
##Cl
##۹۵
##pos
دد
هژ
##ster
##حانی
##رایب
She
ایب
خاز
فاع
۲۱۵
##انیده
هایت
##گرداند
بهشهر
آفتابی
فرهادی
مغولها
الزامات
فنلاندی
بهارستان
۱۶خانوار
۲۳خانوار
کشتهشدگان
##اوت
Pla
وهم
##ندهها
1993
Star
اجاق
رویس
سرفه
شیفت
نبات
وینی
##ential
درآید
سومری
نواری
Middle
بافتها
حبوبات
نهادها
همخوان
بیزانسی
روایتهای
California
##ژین
el
تت
##سویل
##ومات
IBM
بفه
بریج
بنظر
ثلاث
عاری
علام
##میلیون
سکهها
العاده
استنتاج
دولتآباد
##ئال
آفر
##آفرین
آراگ
بخشد
فشنگ
پونت
پرخاش
گذرنامه
پروردگار
کارآفرینی
تقویتکننده
Information
اتومبیلرانی
α
##اکل
##نته
##گوا
MA
##مارد
##وئیل
تبلت
خلفی
میآم
گریف
گولد
Princ
دهانی
سائوپ
قرمزی
لوییس
لیسبون
Georgia
افغانها
بیسابقه
عاملهای
##RNA
##oon
##بوت
42
##اکار
##پلین
Tor
bet
رضی
Cast
dist
بگری
جابر
شیدا
چینگ
امرار
جلوتر
امویان
Airport
اجتماعات
انداختند
##ices
##یابد
##epend
ابهر
اپید
دامی
دروی
House
کوچولو
ائتلافی
نتوانسته
فراخوانده
##OP
##ived
##نتون
##هروی
۳۱۰
##آوازه
##اکاری
From
book
ایگل
راشد
غزنی
اشمیت
سونات
ضربال
عقیلی
غفاری
مونتگ
##ucation
جوانتر
شیبانی
کوئینز
سیتروئن
کمپرسور
مؤلفههای
مارکسیست
عبدالرحیم
##IL
PR
آلم
ایگ
قوش
لکی
site
ناخن
پالت
پیشی
گروپ
۱۸۷۵
باغچه
مشروب
پرافت
شهرزاد
محصولی
پهناور
کوارتز
General
جادوگری
دبیرستانی
##حاد
##امال
##ولوگ
ندا
گلش
##وئیدی
روبی
۱۸۶۳
آتشین
اقامه
جسیکا
سازها
مرزها
ملتها
اوربیت
مزایده
تعاملات
جانشینان
خودمختاری
زمستانهای
##zz
##tra
##الیت
چرک
۲۱۸
Land
##تمندان
آوایی
نویسه
ژولیت
برادوی
عروسکی
منابعی
Iranica
اسکندری
تامپسون
خلاقانه
سیدمحمد
کوانتوم
##۴۵
##osa
TH
##ابیر
##فلزی
##لتون
mon
چاو
گرن
1991
اتکا
ساکت
فندق
ملان
منبر
روتور
سوزنی
سینوس
صدیقی
ظرافت
بامیان
پنجرهها
اوکراینی
ترمودینامیک
iranicaonline
##US
##شمی
وط
##رژیک
##وتید
Del
WWE
und
بتی
نکش
چوک
کدو
۳۷۰
##استار
تخیل
لاشه
کثرت
گروس
##زرسانی
##پوریشن
آیینه
بهادر
مانکن
آقاخان
آنگولا
القایی
دردهای
دزدیده
کودکانی
اتحادیههای
##وبه
##rian
##بوری
tab
۲۲۶
##ستیزی
البل
جاوی
رندی
گوری
##بیاسدی
غربال
لیندا
هانتر
Island
تمامیت
رکابزن
فایلها
پسرانش
قیمتهای
عبدالرضا
استانداردها
##ls
##ries
##ارود
God
ser
ایچ
چام
کفت
##اریوم
توأم
جلفا
غلیظ
کافر
۱۸۷۷
##میلادی
دهلیز
بهدنیا
توافقی
فروسرخ
مرجانی
مسالمت
Network
ریکاردو
قائمشهر
لهجههای
دیکتاتور
دریانوردی
نمایشگاهی
##نیوم
PDF
قال
##umber
ارثی
راهب
معطر
چگال
کثیف
باسیل
نابین
واشنگ
Google
انجماد
زوایای
کیومرث
گهواره
Azerbai
بلورهای
رستگاری
##apan
##ینگی
Lou
زهک
##ronic
##uthor
##وبیشی
شاند
لوری
منکر
کلاب
استیک
توتون
سنگال
ضوابط
فقهای
مشارک
پاراد
گرافی
Martin
ارتکاب
همبازی
بهمعنای
مقاومتی
ترانهسرای
زیرمجموعههای
##انیک
Bal
سیه
۲۱۷
۲۹۰
##icine
irna
غیاب
which
ارایه
فریزر
مشهدی
نیابت
Christ
کوهرنگ
ترکستان
دندانها
عبیدالله
واژهنامه
##اژی
##رمو
##سانا
##فاوی
فنر
۹۶۴
##ترینگ
stud
فرون
کرات
۱۸۳۰
Modern
تلگرام
لاتینی
ابریشمی
برندهای
کشتهشدن
بلندپایه
سرودههای
retrieved
ریاضیدانان
##66
·
##ازو
##icip
آیک
اوا
##آرایی
##ادوکس
1989
اکدی
طلسم
لزنر
همتا
##رانهای
شازند
میبود
بیندازد
صندوقهای
ماهیچهای
انگیزههای
##ita
##نار
##ولز
IV
##هاوس
##گوار
Lab
افش
جزر
کوآ
ساتر
لیتل
مقعد
بزودی
فدایی
متخلص
اسبهای
فاریاب
پیرمرد
آمارهای
بازارها
برآمدگی
صخرههای
قالیباف
مسئلهای
گرایانه
میتسوبیشی
استراتژیهای
زیرمجموعهای
توسعهدهندگان
الکترومغناطیس
##94
##ura
##روض
##ette
##الشع
has
tra
ربط
کلد
What
سنجر
محوط
ورنر
کتبی
کرنل
آلبال
اسپیر
منقار
همپوش
ضربهای
ممنوعه
کمودور
میگذاشت
ارزشمندی
تئوریهای
##ür
PH
طوس
##ازاده
احمر
دائما
دفتری
عجایب
غازان
غیرمت
فلاند
Columb
بلندای
رادیوی
قارچها
گریخته
ماتریکس
بیمارستانها
MP
##روبی
##شاسپ
Cur
بعید
تئود
خوشی
غنای
نرفت
نگرد
سیاتل
طاهره
کلاهک
##دادهایی
بابکان
توپولف
هیلاری
British
نشانگان
گویندگی
مارکسیستی
##صال
##وزو
##ault
##ists
Mad
eng
جسی
name
بسوی
متجا
آخرال
غذاها
میثاق
ندیده
واگنر
Commun
آراسته
بگذاری
جادهها
دیلمان
زدهاند
پیشوای
بهتدریج
پسانداز
پرافتخار
سائوپائولو
##ida
##گای
68
##ergy
اوق
بوه
وسو
متکل
مزدا
نبوی
نشاط
pages
شروان
طریقه
پادتن
ارجمند
بیشمار
کمابیش
بلوکهای
فارنهایت
فراماسون
بازدارنده
افغانستانی
##ابو
گج
##ئونگ
Bay
رله
سست
۴۸۰
اثرب
اشتر
هراز
Guide
ادوات
عالیه
معلمی
المپیاد
خدمتکار
پارادوکس
پدیدآورد
بحثبرانگیز
##ams
##oth
##بوس
##سنه
##جمعی
Sun
رپر
سیگ
۲۱۶
Love
زوده
سجاد
میرک
هایک
والا
یوشی
##گاهرتز
Women
فواید
لیستی
آرانای
شاهدان
نیکارا
گیلبرت
جزیرههای
پرجمعیتترین
##ii
##erd
##صدر
sa
ص۳
##ایدی
USA
صحی
نهج
اکرم
برآن
شرور
شلاق
قطری
ناطق
کوپا
افراط
ایثار
مدرکی
کنراد
##ootball
دکترین
کالینز
گرایان
publish
آناهیتا
مترمکعب
ناامیدی
یگانهای
توانبخشی
اقتصاددانان
ئ
##عهدی
##مراد
Die
Wil
هلی
تلخی
سازش
لینچ
نامر
ورژن
آلکسی
بشناس
کفایت
بمبهای
درسهای
دفترچه
##العابدین
تدوینگر
مثالهای
مستقیمی
نقاشیها
سرنشینان
انتشاراتی
##ato
##html
##ible
##اتیس
Act
Day
رژه
واو
حرمت
میخو
گریت
##درمانی
تظاهر
طاووس
عزیزی
مانوی
مقننه
مینوی
نیمکت
کاستل
رهگیری
زندگیش
ابوطالب
دستورات
کرمانشاهی
##atal
##اهما
##ورود
۲۴۳
اولا
داند
سوسک
هانو
اشتوت
ضرایب
هارپر
پلانک
Thomas
آغازگر
دیتروی
گواتمالا
ابزارهایی
تکآهنگهای
فرکانسهای
میانجیگری
کورپوریشن
##ough
##چوان
##گلان
خیل
۳۴۰
فرهی
لاهه
ارابه
کابوس
کوارک
آویخته
انطاکیه
برانگیز
تحلیلگر
Business
رویکردهای
اینستاگرام
Cy
##لئان
تود
چیل
۲۶۲
##error
1393
بشیر
سدان
ورلد
افسون
رئیسی
شعاعی
مالیه
مشروع
کریکت
دنیایی
سیمهای
میبندد
هیچکاک
##کیلومتری
ارغوانی
بازخورد
مالاریا
نابجایی
ساختههای
عبدالعلی
تاریخنگاری
##ads
##نور
##نیای
بیف
پپت
##itect
##اندرو
1992
ببند
درامر
رشیدی
کربوک
امپرسی
تفاسیر
شیردهی
میچرخد
هپاتیت
نیوکاسل
هوشیاری
تشریفاتی
رکورددار
ورودیهای
کاربردها
##95
کژ
Che
Jos
برس
بوس
تلآ
خرا
۳۸۰
##aking
##تاریخ
قوسی
وولف
باتلر
دنیاست
سایبری
فرمانی
یعقوبی
ارتفاعی
خواندهاست
آلومینیومی
fe
##ضایی
شید
گچی
۲۴۲
##کریپت
ابون
خلوص
کلمن
۱۸۶۱
آپاچی
افعال
تدفین
رامبل
سنگنب
مصدوم
چغندر
##eration
تیگران
فرزانه
نابینا
همهچیز
اینباره
کلانتری
جهانگیری
کریستیان
۲۲خانوار
کتابفروشی
##جیر
##انتس
##جهان
آنز
خدی
یات
حجره
ضربی
لیام
لیگا
اسکیز
امنای
سروان
مالکی
تئاتری
تلآویو
سمتهای
گناهان
سیاستها
جداگانهای
انترتینمنت
باقیماندهاست
##urs
41
##ونگا
Leg
طاه
اودی
سپهر
##داسیون
Found
ضعیفی
آسمانخ
انضباط
میکروم
پسرانه
کالیبر
رگرسیون
امریکایی
فرهنگسرای
هیدرولیکی
##elf
##فوس
##inem
bas
توئ
هدی
چرد
۲۸۵
1390
آبها
جواز
خلقت
روزن
سایش
۱۸۶۴
تمسخر
ساسان
صدمات
کلاوس
کوارت
اغتشاش
شکننده
مکالمه
افزایشی
تدارکات
جریانات
هاپکینز
استرلینگ
بهگونهای
شمسالدین
عکسالعمل
قراردارد
میکرونزی
##77
##TR
##دلی
Hy
##ذرات
##میمی
ham
شکی
کنک
##ethod
spec
خویی
رولز
زاید
مولف
ورون
گیمز
استور
دورتم
شریفی
شهیدی
نفوذی
نوازی
دوبلین
محموله
سبزواری
بلندیهای
میزیستند
آسیبپذیری
استخوانها
شوالیههای
زینالعابدین
##موف
##دوکس
خطه
مؤن
نهی
۸۵۰
##viron
##تونین
حراج
۱۳۰۱
۱۸۶۹
آذرخش
بیهقی
Spring
پارالم
کاسترو
کمانچه
اوراسیا
پافشاری
گرینلند
کنسرسیوم
Philosoph
خواستگاری
عبدالقادر
کاستاریکا
##ua
##ala
##رفت
##mann
##ourt
##اگاوا
##ملیتی
تهدی
کنجک
##andard
سکانس
مثلثی
راستین
لکههای
مسلمین
خوابگاه
مانیتور
چندملیتی
##til
##شود
##صدا
##ella
##وباک
Nor
att
##زمینی
##فرمای
هشام
پاوه
پلوت
Great
تبریک
حاصله
شکافت
مضاعف
مظفری
کبیسه
آهنگری
اتوبان
استونه
زخمهای
هریسون
گذاران
آکوستیک
باتیستا
آتشنشانی
##ava
##ونس
kn
HIV
بکت
سرف
هگل
back
تیتر
ثریا
جهتی
زاهد
۱۸۴۰
بوتان
متروک
محبوس
مزدیس
میهنی
پشتون
انبوهی
باورها
تزیینی
سالاری
سوپرمن
مأمورین
حمایتهای
تروریستها
توربینهای
نمایشنامهای
##lah
گت
##المع
Bos
syn
##زایمر
ابوح
ببری
طیفس
میرب
ورقه
group
اربیل
تبلور
تراست
ضایعه
سکوهای
فریمان
اسفندماه
میساختند
##IR
##پنج
دث
Hen
قیا
هگز
چاد
۲۶۵
##aedia
جوین
گلاس
الرضا
زودرس
کنایه
Awards
گرانیت
science
سرورهای
فمینیسم
مغناطیس
پشتوانه
اشتوتگار
مسیریابی
نمیخواست
بازیکنانی
##ody
لد
##ient
##ween
##ونتی
مکک
وزش
۳۲۵
Prot
ایتی
بارو
دلیر
سیرک
علاق
مبنا
پاسی
چاره
۱۸۶۶
اسبها
اودین
باباج
حلهای
نابغه
نمیگذ
پورشه
کلارا
الاهلی
منجمله
پاستور
فخرالدین
آرژانتینی
۱۳۸۵جمعیت
ماهوارههای
##db
##aker
##ghan
##غهای
Rob
ورک
وکی
##ather
##اواتی
آرنا
العد
رالی
مستغ
کسان
گوگن
story
سوییس
فیثاغ
محاور
نمیکن
هایپر
شادگان
شالوده
صداوسی
جاویدان
گرافهای
استادیار
عالیترین
قلمروهای
مینویسند
۱۷خانوار
اسباببازی
نصیرالدین
ترانسفورماتور
##OT
##دد
##حله
ca
##اسکی
Les
Sil
who
۱۷۱
۲۲۲
Asia
بایز
ضمیر
۱۲۹۰
۱۸۶۲
بالها
صحابه
فضیلت
مصباح
people
اردکان
جووانی
خانمها
موروثی
گماشته
لولهکشی
گیاهانی
اختراعات
مجسمهساز
کارخانهها
##TV
##ذین
##روج
##igan
##غامی
Mem
TCP
خیا
فاو
برنت
خندق
صباح
لفظی
موها
اعمالی
باینری
بیایند
رنگرزی
نخورده
پوستان
نظریهای
هندوانه
واشنگتن
تصویرسازی
##ona
##اکه
##دگی
##ورین
خفه
مرم
##گردها
Alex
اولد
رقاص
شنای
متفر
مواقعی
نیوهمپ
زیربنای
##van
EM
##کتیک
قیس
ماق
##اکورا
##وایان
Hall
prof
بلیت
لوین
ملود
نخاع
کریگ
مرضیه
##aterial
ازدیاد
بهرامی
نامرئی
اشکالات
→
##akh
##isch
##هرست
Sum
خرب
خیبر
هومر
گذرا
##ونیستی
تابشی
جوراب
گمراه
جویبار
دیافرا
لولهای
results
کلکسیون
گریختند
ماندگاری
پیامرسان
مجمعالجزایر
##UR
##ty
μ
##EEE
##ipp
##وشا
52
Ti
##ounc
##بیآی
Tom
۲۲۷
##واریا
تأمل
تروت
خواف
بااین
زبانه
##خانواده
خویشتن
محمدبن
مختصری
هفتهای
آلزایمر
مترجمان
بعدازظهر
دورتموند
مشترکالمن
پارالمپیک
##rey
Us
po
Alb
Ter
dec
آدی
##شونده
##قرانی
With
استپ
بویی
سرخه
شوال
فامی
کلیر
آلفون
نینوا
آرمانی
انسجام
دینامو
کارتاژ
حمدالله
محدودیتها
تابستانهای
میکروسکوپی
کتابخانهای
##واژ
SC
##وبند
##وویچ
Roy
هوف
##times
have
سربی
وخیم
Power
رائول
سابقش
مجذوب
سیاهرگ
واحدها
رئالیسم
یوروویژن
56
59
بشن
۲۷۴
##ument
##وریکو
توانی
online
استادش
بلندمدت
شعارهای
مینشیند
زودهنگام
داستاننویسی
51
##idae
لپت
منن
هرت
۲۳۲
##تقارن
1988
only
دریم
مؤنث
بداهه
تنگات
نشنال
پابلو
بگوییم
قرهباغ
پیکاسو
تاتنهام
سرودهای
میدیدند
کوهستانهای
اسپانیاییها
مشترکالمنافع
##امر
##شکا
OF
زک
##rown
##ston
##وکین
سنه
لکن
##ایاتی
تفرج
خردم
سینم
their
آذوقه
لوران
مفیدی
کامبر
گویای
تالکین
جملهای
هدفهای
گرمسار
خوشبختی
محمدشاه
ابوالفتح
بزرگسالی
##آپ
##چیا
##برون
غور
##انیست
##وریسم
فقها
قامت
Smith
تسکین
تمجید
صفایی
هلیوم
دانشور
شامگاه
مدالها
تحریمها
شدهترین
مشارکتی
انستیتوی
تلاشهایی
فمینیستی
میناموتو
محدودیتهایی
Introduction
67
Out
##اندار
Work
حداد
خارش
خاقان
صدارت
امتیوی
جلسهای
سؤالات
مدیسون
بطلمیوس
European
Republic
هیدرولیک
۲۴خانوار
زندگینامهای
##ript
##حالی
##stein
زایش
سهیل
عابد
پلیت
ژئوم
##هنگاری
اغراق
بستند
تعمید
دوسال
زکریا
مارتا
Design
بیاسدی
نیوتون
خوشنویس
راندمان
کاکاوند
Language
نصرتآباد
۲۵خانوار
عکسبرداری
##ye
##بوی
##یشا
##زدگی
##وردن
آرب
یشت
##گرسیو
Kurd
سهیم
غوطه
مادل
مقبر
ناپی
هیون
##اسلامی
باخبر
گوران
People
کیبورد
ارتشهای
تراشیده
دشتستان
هفتگانه
##ids
##ثیه
##منظ
##tice
##دادن
بزه
فست
قاع
میا
##ابادی
آرین
شوقی
لابی
لیما
نینا
کرمی
India
تداعی
مراقب
نیافته
پویایی
گیبسون
واریانس
farsnews
استونهنج
ویرایشگر
جامعهشناس
لوکوموتیو
نویسندگانی
##۴۸
##هنر
Ta
##tist
##عموی
تمی
وشم
کنه
لیکس
میلز
پاین
کثیر
Enter
تنبور
سجادی
محرکه
##آوردهای
سرگیجه
متروکه
بررسیها
قرارگرفت
نگارههای
رادیولوژی
غیرمنتظره
تشکیلدهنده
##گت
##TML
##mar
##سوج
Dr
عج
هه
120
جگر
##ماندی
سیاح
غزلی
هدفی
کاتد
##رکاران
دانان
فیلترهای
جغرافیدان
پورتوریکو
##OD
##ape
##min
Cr
##lear
##دینگ
##نیوز
Mov
##ازمان
اسبی
براي
خنجر
طوال
تفصیل
روبات
میابد
کینگز
ادیسون
اسیران
افبیآی
تمایلی
##ا
##ی
##ر
##ن
##د
##و
##ه
##م
##ت
##ب
##س
##ل
##ک
##ش
##ز
##ف
##گ
##.
##ع
##خ
##ق
##ج
##،
##پ
##آ
##ح
##ط
##ص
##۱
##چ
##e
##۰
##a
##(
##)
##i
##۲
##o
##r
##n
##t
##غ
##۳
##۹
##ض
##ٔ
##s
##"
##۵
##۸
##l
##ذ
##ث
##ئ
##ژ
##ظ
##:
##۴
##-
##۶
##۷
##c
##h
##d
##u
##m
##«
##»
##/
##p
##1
##g
##w
##ً
##0
##f
##,
##2
##y
##؛
##A
##أ
##S
##C
##b
##ِ
##P
##M
##k
##T
##v
##I
##D
##9
##3
##B
##R
##٫
##E
##–
##8
##N
##4
##5
##٬
##L
##_
##F
##6
##7
##َ
##H
##G
##O
##W
##ُ
##ؤ
##ء
##ي
##ّ
##x
##V
##=
##z
##J
##U
##K
##'
##%
##]
##[
##ة
##j
##٪
##&
##Y
##;
##ـ
##؟
##q
##!
##+
##X
##?
##ْ
##ك
##|
##ۀ
##Q
##Z
##>
##é
##<
##*
##°
##—
##”
##“
##١
###
##’
##ā
##ى
##ü
##ə
##×
##إ
##{
##á
##ı
##٢
##٠
##}
##٣
##í
##ö
##а
##æ
##٩
##α
##š
##−
##ó
##ä
##и
##è
##о
##$
##^
##\
##٨
##ī
##е
##ç
##ٌ
##н
##μ
##ٴ
##р
##‘
##â
##•
##٧
##ο
##י
##→
##ա
##ρ
##ş
##λ
##с
##β
##ς
##ε
##ٰ
##т
##à
##σ
##ν
##·
##٦
##٥
##ō
##в
##θ
##л
##ו
##π
##к
##›
##~
##▪
##ٍ
##′
##‹
##ι
##ˈ
##٤
##τ
##ē
##ה
##γ
##ğ
##ñ
##ã
##č
##Ø
##δ
##ר
##ê
##ū
##¬
##É
##İ
##@
##Δ
##у
##±
##ێ
##ú
##ր
##א
##κ
##Ā
##ω
##←
##д
##≤
##ל
##м
##ն
##מ
##́
##φ
##∈
##η
##ב
##ł
##ש
##ո
##ा
##ø
##Š
##î
##Ə
##®
##й
##ۆ
##Ş
##≥
##ô
##ە
##ի
