[PAD]
[unused0]
[unused1]
[unused2]
[unused3]
[unused4]
[unused5]
[unused6]
[unused7]
[unused8]
[unused9]
[unused10]
[unused11]
[unused12]
[unused13]
[unused14]
[unused15]
[unused16]
[unused17]
[unused18]
[unused19]
[unused20]
[unused21]
[unused22]
[unused23]
[unused24]
[unused25]
[unused26]
[unused27]
[unused28]
[unused29]
[unused30]
[unused31]
[unused32]
[unused33]
[unused34]
[unused35]
[unused36]
[unused37]
[unused38]
[unused39]
[unused40]
[unused41]
[unused42]
[unused43]
[unused44]
[unused45]
[unused46]
[unused47]
[unused48]
[unused49]
[unused50]
[unused51]
[unused52]
[unused53]
[unused54]
[unused55]
[unused56]
[unused57]
[unused58]
[unused59]
[unused60]
[unused61]
[unused62]
[unused63]
[unused64]
[unused65]
[unused66]
[unused67]
[unused68]
[unused69]
[unused70]
[unused71]
[unused72]
[unused73]
[unused74]
[unused75]
[unused76]
[unused77]
[unused78]
[unused79]
[unused80]
[unused81]
[unused82]
[unused83]
[unused84]
[unused85]
[unused86]
[unused87]
[unused88]
[unused89]
[unused90]
[unused91]
[unused92]
[unused93]
[unused94]
[unused95]
[unused96]
[unused97]
[unused98]
[unused99]
[UNK]
[CLS]
[SEP]
[MASK]
d
i
di
l
##on
a
s
c
##er
p
,
##en
##to
##ta
##re
il
##ri
##ti
##ra
.
in
e
##te
la
##li
##an
##un
m
##le
"
##ro
f
##in
'
##ss
##ion
##ia
##or
##ol
##he
un
##ca
g
##om
con
v
##ar
##io
I
##zion
da
##es
1
n
S
##qu
t
##os
C
su
##ci
le
per
##do
L
##men
##is
A
##co
##va
che
ri
##ma
##et
o
##la
##zione
##ce
M
##di
qu
si
P
com
è
an
##no
##za
2
##tu
##era
ca
##mp
##ono
b
##tto
##na
se
)
(
##ch
##us
##el
G
B
##ter
##ni
##da
##pp
##gg
pro
D
una
##lo
-
##ano
19
re
T
##che
ma
R
##ve
##mi
##si
##al
##ere
##de
##tra
F
##vi
In
al
##fi
##mente
##gli
##ran
lo
##tà
##bi
##ale
sta
##se
po
##mo
20
pre
gli
##ui
pi
##eri
##olo
##po
##ssi
tra
##vo
##cia
pri
##tta
La
##sso
##tro
par
##bb
##tti
vi
E
Il
##ten
N
pa
de
##ru
V
##ver
##ne
fu
do
##ione
:
##con
##ina
##pa
##tre
##tri
u
h
##so
te
##zza
##ga
##tan
##ola
##ente
##sp
so
##ine
fa
##mb
##sa
ra
non
##me
##tori
ci
come
##il
##enti
##ali
du
##ero
ar
##mento
##sti
sp
H
##ani
##ene
##ssa
##ando
##zioni
U
##cc
più
##chi
##gu
sono
##ff
suo
##go
Ma
gi
##pi
O
##ria
ha
ad
##hi
anche
##zz
##ven
cos
##one
##ino
##ini
for
ques
##sse
##enza
mo
201
##uo
##gi
##ur
##zia
##oni
me
ven
200
##ul
##ggi
##uto
##ggio
##tali
comp
##tura
Ca
##rio
##um
##sta
;
sua
ed
parte
##ona
imp
li
##tato
ba
##ana
inter
na
J
sc
es
3
ter
tu
era
##cce
fi
due
pu
##du
##tore
Le
##glia
cui
av
##ren
##zi
quel
no
col
Pa
##fica
##lu
W
##gna
prima
cor
##endo
mi
app
anni
ne
##ge
##per
##ato
##ese
##man
##uni
##ord
##tte
18
to
##enta
##osi
K
##dia
##tica
##etto
An
pres
##rono
co
##gno
##glio
ess
##lica
##vis
##and
##esi
##gra
dis
gen
stato
ti
parti
Re
4
vol
##ba
##etti
##res
dopo
##tare
ste
##ffi
Q
prop
##vano
##cu
##ad
##are
inf
va
at
San
secon
ro
##mpo
5
##zio
##pe
gio
##bili
##dio
ta
Al
ver
##tru
essere
ris
chi
##osto
199
mon
nuo
men
spe
##cca
Qu
##bile
##ze
##anti
Con
##ette
mol
Si
por
##zo
##00
##ista
ini
op
fe
succe
##gni
##ioni
##ing
##gui
##tel
/
##gn
##ome
##menti
viene
##ron
##colo
loro
##bo
##via
##ante
can
##mbre
##ppo
pubb
tro
am
Da
dove
##vol
##ck
reg
##rante
##etta
en
6
##ena
##lmente
gra
##bbe
fra
contro
##th
Se
##anno
##esti
poi
##erie
##ica
##uta
or
##cen
##une
##tt
Di
alc
Gi
ul
##ed
fil
Na
ele
##sione
venne
us
##que
##oltre
##erra
car
##rig
##dente
gran
Ro
##uro
questo
Ba
##cola
ave
primo
##cio
Mar
Sa
uno
##esa
##ura
##der
acc
Ar
ric
##tico
##tter
##rea
tras
X
##gia
##zionale
##tante
esp
##nci
er
##rie
##lla
camp
Do
##ber
gu
sa
##gione
##ton
cit
mentre
Ch
##zzo
##cco
##pre
Vi
pers
##vamente
fin
7
dire
forma
198
8
indi
##tati
cir
##for
##van
Fran
##ssione
##età
mar
anno
Pi
##chia
ch
Itali
##ard
ulti
##onda
diven
##tor
Uni
tre
##oma
edi
##tr
sotto
stori
##tale
cen
fo
segui
##cci
conf
##ché
quale
Su
##tili
solo
##ccia
17
##sto
##iste
##ello
num
film
##gio
##tin
fino
maggio
Com
uni
princi
città
itali
Co
Per
qua
##titu
##mma
15
mor
stu
##cato
##usa
##inis
##versi
lavo
Mi
##elli
sos
tor
stata
altri
cons
##mon
##dere
quali
opera
##ttu
9
Ri
gior
ru
Li
197
pun
##cora
stesso
De
sia
pubblica
ass
aff
suoi
##quad
##cri
lun
ese
##tion
nome
##anto
ac
##ggia
cla
Ra
mus
##lia
gru
successi
serie
secondo
##ttura
##tò
Me
##tivo
disp
semp
sca
##gono
##gh
rapp
quando
##ggiun
Lo
man
Mon
quin
16
Italia
##as
##esco
seguito
durante
##tten
bi
atti
##mina
au
aveva
hanno
Un
##osta
##esta
lu
tempo
chia
scri
##pri
##tiva
Car
So
fami
##tanti
stagione
orig
##dre
giu
squad
mili
È
erano
ser
utili
vin
##ie
poli
trova
molto
196
##vin
ve
##rato
of
questa
##mato
stra
ag
##llo
sco
via
##ttore
##cor
fine
##ane
Z
##use
##bre
194
furono
secolo
10
volta
##col
comple
##tiche
Ha
##eme
##mer
Po
##etro
##isce
cer
12
##osa
Fi
##glie
inizia
deci
##les
##zzato
##tolo
##pra
Mo
##gre
The
##ha
cri
##denti
Dopo
genera
arti
spa
##fa
abb
reali
Ne
##isi
lib
ten
Du
##anza
Ci
##ciale
##uti
alb
risp
seconda
##erva
quella
Gio
quindi
is
##tata
##ella
può
##ppa
così
##arti
gruppo
##ula
14
##omina
consi
super
rip
##trib
##almente
##omo
II
pop
alcuni
Lu
Pro
0
##ll
##ose
org
Y
##lio
##gen
##lin
sopra
##fe
perio
To
auto
guerra
ancora
##cie
ga
go
Bo
##elo
inc
##anta
grande
cal
classi
tutti
quello
##tua
##rica
vita
cara
sette
##cchi
acqu
des
##torio
##omen
diff
famiglia
##feri
##ciali
impor
##osizione
195
##ttro
aver
circa
produ
##tano
##all
##mm
Tra
##vità
Te
parteci
altre
svi
otto
entra
##dera
##sci
vo
13
sempre
##zie
11
fran
##tamente
##ionato
##razione
passa
##fer
sue
caratter
Ga
##iore
scon
’
##st
colle
arri
##gue
##colare
casa
conc
presso
z
##dica
otten
##pen
##lli
abi
nuovo
193
k
##tando
posto
insi
fatto
esemp
rappres
##omi
##tici
##poli
##ghe
album
contra
sal
##esto
##orto
def
oltre
periodo
siste
cre
term
stru
##lus
fonda
##tello
questi
##ppe
dice
conte
##fo
##oso
squadra
raggiun
uffi
terri
senza
##ris
os
##tere
svilu
##cch
tutto
Cor
Roma
##zzazione
verso
##eria
##den
far
Jo
sol
già
Fa
prog
##ts
##tazione
ogni
pen
causa
possi
Pre
##est
contin
##stitu
princip
comune
##bilità
capi
191
and
##tera
192
loca
servi
tutta
attra
##ture
No
però
stati
tratta
##ostra
##ati
Gu
chiesa
insieme
modo
diver
##pu
##ele
##tar
##rico
Ber
prece
musica
quattro
popola
ord
##arono
##000
interno
##ond
fer
cin
quanto
the
ambi
conos
proprio
##vece
##II
costitu
form
organi
risul
##zzata
En
##gua
Ni
##ell
##onna
##zzi
storia
eff
titolo
nove
altro
ing
##val
mondo
line
Mil
bra
##sioni
compa
gioca
comuni
invece
##etri
##tero
##des
##isten
##rende
franc
morte
fun
##trice
##naio
##tivi
##atti
Ja
lui
gover
legg
##orma
settembre
##inistra
»
##qui
sin
##trui
«
Am
##dotto
##erci
##cano
Chi
primi
sor
##rata
##cono
##scia
tele
##ggior
sud
##mata
incon
##ty
Tu
##tanto
##son
lin
apri
persona
giugno
presenta
attraver
campionato
appar
##mpi
##tari
sti
##gon
##rare
##tive
pubbli
finale
ins
##iso
numero
##ea
##denza
dov
##anda
##enze
%
gennaio
ben
Ta
tec
sistema
##eno
Ti
rela
##ho
luglio
Pri
##cietà
##ghi
Bi
##inale
segu
Fu
Giovan
inoltre
mani
tri
ottobre
##una
##tanza
dicembre
defini
##ure
##lle
##cità
##ume
Or
##vere
ultimo
alcune
##urope
Val
##diale
Col
particolare
##unque
base
##zionali
conse
Par
cul
Bar
medi
Gli
attività
poss
centro
all
##dato
avven
w
marzo
##ede
rin
fre
##cente
##be
##isti
##entale
corso
successo
##ccu
Go
agosto
##ologi
_
##teria
Stati
pia
##lare
asse
novembre
bo
##sia
##uri
molti
nuova
vari
liv
proce
Gran
##truzione
##lora
aprile
numer
##ke
specie
–
##trale
considera
Ver
padre
##nero
ami
sci
caso
figlio
infatti
ani
##rale
generale
qual
##ger
mis
lungo
##ustri
##ort
set
svol
memb
pos
bu
##cò
##elle
ricon
provin
presi
pe
##orta
formula
##cendo
esempio
##bbra
##ph
gia
##torno
##fia
##met
000
rice
##ry
italiano
25
vic
##uzione
##terna
diversi
raga
##rebbe
##stica
nazionale
partecipa
##labo
”
rappresenta
Non
soli
Ho
##cro
##uogo
termine
##dd
pubblicato
2010
Giovanni
##ari
30
##ill
perché
classifica
ov
lega
##lità
##ble
##bbraio
colo
Ger
eserci
sen
Man
“
Ru
spesso
##tario
carri
febbraio
vengono
rius
possono
opp
##ardo
dip
costrui
##pera
grazie
inizio
##vole
ingle
territorio
##eter
##cra
Maria
##cchia
##ir
punto
fon
prote
ex
atta
archi
##coli
den
continu
##poca
##olare
sare
società
porta
oggi
ruolo
##eo
##grafi
##telli
interna
tutte
ucci
val
2011
pes
attu
##sc
Universi
studio
anti
##dono
tradi
picc
2009
sede
##ka
##land
mod
inse
2008
##iori
##bu
vitto
versione
mondiale
##ccio
New
2012
##tribui
tale
##uno
##ito
##dendo
massi
stessa
##ang
##mana
sce
##vato
##ssion
sing
interpre
rima
off
##deo
lavoro
##lice
differ
##visione
##rà
Ale
francese
##smo
miglio
##visi
epoca
ricer
produzione
fuo
occu
##cesi
##ostante
tecni
##omb
##am
Milano
Ad
2013
##ssocia
san
Uniti
Fo
volte
progra
##isto
diri
conten
##bbero
2007
campo
##hn
##mia
poco
inca
##teri
##ute
##omento
##dici
##ppia
##ttutto
##pubb
##ttera
##vata
profe
natura
gui
intere
attraverso
poten
ann
ep
##stin
Durante
carriera
##ppi
Gra
ultima
Cas
soprattutto
cas
oss
quasi
linea
##rin
dif
visi
giorno
diverse
2014
condi
##gine
21
ai
##lato
sconfi
inten
Euro
italiana
ide
divenne
XV
affi
##roni
nord
maggior
24
##dotta
situa
##lina
para
##ire
Una
Bu
principale
For
ricor
ebbe
##ssero
appro
corpo
##mbi
ora
maggiore
lettera
tipo
##mio
aper
##lub
##ste
Ameri
##tino
Secon
##cita
regis
mai
ori
partire
##line
camb
conta
2006
giorna
rispetto
edifi
nomina
2015
##este
Francia
edizione
##zzare
bri
opere
##mane
##ly
livello
Cos
scu
##forma
##lie
uomo
##vento
nu
sostitu
europe
##bra
##ug
##par
assi
Franc
Ste
as
asp
Sta
batta
##omini
occa
##bilmente
##data
econ
posizione
canz
zona
22
##tana
##mano
mas
##ttan
##pol
##enda
##zzati
lingua
crea
##cina
allora
mari
propri
##dini
luogo
##gere
tur
190
amm
##gne
Gia
##cer
##ziona
grandi
##ei
altra
##ologia
reli
genere
età
##sh
momento
##fon
##ki
tuttavia
alle
##ann
##len
forte
##gnato
governo
##bito
istitu
##lari
vennero
dim
23
Questo
ind
propria
##ionale
lascia
##anca
##mani
amp
##vani
nece
progetto
collabo
##edi
servizio
##ers
presenza
inglese
cine
Th
##cchio
riti
##dine
##bur
anima
##anco
##gioni
##tagon
Santa
##uncia
km
##rino
studi
piano
##cre
docu
bre
Ka
Serie
fron
strada
##lino
presente
queste
cinque
stan
2005
avrebbe
grado
diretto
##ffici
2016
evi
inizi
##vista
state
Carlo
metà
giorni
##lan
##lazzo
Sal
area
apparten
cro
roman
quest
sarebbe
##ssioni
Is
min
isola
fosse
scel
rigu
##eti
capo
proble
##cenza
acqua
struttura
Fer
provincia
##rati
##ismo
paese
##rano
acce
limi
##gato
##arda
rec
John
ospi
##ork
vesco
conqu
presenti
deri
mer
Es
Sch
##nato
riconos
##cere
##mar
##pubblica
signi
##toria
##mpa
##ccol
metri
atto
Anton
im
Ge
programma
res
ni
frequ
##vane
bor
##spon
##onia
commer
##cle
precedente
ricerca
giun
Questa
persone
cultura
##more
setti
proba
##ccon
simi
##vie
##alla
quelle
gioco
meno
Europa
Cri
conserva
uso
##missione
Be
descri
testi
punti
aggiun
materia
Can
compi
Wil
pag
indica
origina
##venti
disco
##usi
video
##vare
giovane
origine
Gre
##usto
Sp
significa
esi
tipi
Cen
##au
person
mostra
madre
inci
picco
2017
rivol
##cando
possibile
fece
registra
protagon
temp
om
##usti
2000
Bri
##sce
comba
testa
26
##car
##neo
##onne
autori
importante
richi
costruzione
moglie
28
Ter
2004
##ustria
Stato
ferro
caratteri
##tuni
successivo
27
vittoria
&
terzo
##wa
Spa
Tor
dimen
resta
##corso
giovani
##vio
pra
avere
citta
otti
Camp
##ziale
Francesco
episo
singolo
##tuniten
sf
note
popolazione
promo
bamb
##III
velo
##stico
Bra
Coppa
##ko
spos
statuniten
dichia
##uso
##mes
##tretto
##moni
posi
##ardi
intro
##stra
tar
Vene
##vero
##ler
Tri
tedes
veni
amministra
presidente
ries
##rone
diretta
##spi
##ld
##atro
battaglia
civi
##sero
ciò
identi
##cana
##pali
on
##mica
##ley
figu
##eni
##istenza
tran
segna
prodotto
valo
Imp
##mania
##dati
occupa
Mad
Secondo
cele
pla
archite
caratteris
figlia
ce
centrale
##deva
##omin
successivamente
sosten
##can
quelli
quar
equi
Pu
##cento
##bri
avevano
conosci
informa
occasione
##chio
uomini
Università
raccon
imma
##erma
lei
terra
##dare
gara
militare
##versa
##tanni
And
riferi
data
##trò
ordine
tenta
##cì
##entato
##onte
sub
modi
Repubblica
accor
prime
tito
abitanti
oro
abband
unico
sei
##tono
Monte
189
politica
mesi
pass
ameri
femm
Rom
##veni
Ser
varie
2018
lan
pote
meri
gre
cura
stile
torna
##min
spi
sov
ogg
unità
gesti
arte
dedica
bene
##dotti
ricev
III
intera
##enn
et
televisi
conce
Cla
ufficiale
##ster
dato
dio
stazione
libera
esercito
sviluppo
##od
##ut
##dice
trasferi
186
meta
ali
molte
XI
Dis
##zze
dan
##media
29
fare
##vid
pare
##tate
comunque
##rendere
2003
alto
##erto
pubblico
partecip
milioni
favo
libro
principali
##ssimo
##duzione
squadre
America
fratello
numerosi
Chiesa
manten
Anche
##mite
corri
##tivamente
rif
cava
Cha
Ven
supp
eli
##ja
lavori
Germania
unica
bar
collega
##ya
Regno
##tone
egli
##lata
##ttori
Giuse
comin
inte
Mor
##lici
basa
##ico
##up
##gis
raccol
##cher
##altà
formazione
##eva
2001
stabili
Pe
Mari
Pari
edificio
subito
regione
Rober
ritorno
##grafia
Tutta
Come
##cos
Quando
donna
188
Fed
##tendo
importanti
associa
##ficazione
31
##tito
Giu
##zzate
britanni
Pietro
deve
distin
Vol
mano
ritro
mino
aere
##mbra
Ju
Je
movi
##cha
fir
paro
Giuseppe
fase
##mera
sito
compre
arma
Cal
##dro
El
##etra
##ttri
totale
Bor
cres
trasp
##ciò
influ
fuori
##unto
realtà
figli
nota
##messo
scuola
sola
desti
Sh
infer
Cro
media
##ft
segre
moder
##iscono
osserva
Gen
villa
50
Tuttavia
##meno
it
##orti
esperi
legge
ere
deter
Nazionale
denomina
atten
##terra
esc
Antonio
2002
##rando
##tina
He
##vò
ab
##ise
##urre
##monio
##osti
100
##teriore
##dita
cambia
fiume
avvi
##fico
##ita
##cazione
capa
esa
teo
##mico
cli
occi
##gare
Lond
##ong
Ol
##vel
tru
necessa
cap
autore
##sco
fal
Nor
lunghe
impie
##cin
peri
Lui
processo
##voli
##duto
##ner
Paolo
storico
proprie
sar
effetti
cerca
brano
##ssivamente
avuto
azi
##tz
fronte
quad
ecce
membri
antica
patri
##ompa
##cani
##tego
noti
attuale
##cip
canzone
Parigi
foto
##mentale
comun
Inoltre
quo
##ssia
dia
187
tramite
##dina
Stu
controllo
calcio
tren
consegu
breve
vista
desi
chiamato
##gresso
##dale
veri
noto
quarti
##rità
coin
Napoli
club
York
##tional
est
Ben
Hi
##illa
impe
##mai
internazionale
##gata
probabilmente
seguente
pp
ir
##viso
##ree
forze
fam
effet
riesce
Har
norma
##anzia
riconosci
##und
sicu
trasfer
##vendo
superiore
Men
distru
rico
band
rive
ban
superfi
religio
##ici
varia
qualche
torneo
eletto
##ficato
piccolo
competi
forza
##vati
posse
proveni
preci
##ata
tanto
nominato
vescovo
Comp
##tuato
cio
minis
##rò
##las
##ssu
scoper
protagonista
navi
1999
dep
##gazione
##ssima
##ment
locale
mona
pochi
musicale
Char
##ccade
##entemente
##duta
manif
originale
Tre
potere
dedi
svilupp
dise
##mette
##pote
speciali
debu
##wn
caccia
semi
alta
partita
parla
ge
proprietà
2019
##onimo
Va
indipen
terza
##tus
40
Gior
Aless
estre
##dri
##qua
diritto
Super
##sole
collo
##tribuito
##tezza
dimostra
ultimi
Er
##oli
Bro
scritto
semplice
##uole
##by
carica
romanzo
Luigi
##ens
femmini
statunitense
scena
inseri
Dio
pilo
rete
##grafica
agg
Ed
ore
##estro
lar
partite
XX
personaggio
##umi
ripre
castello
infine
##entina
ecc
matri
Oli
confer
##estival
luce
poiché
ripor
Nuo
modello
##tur
##50
maschi
##ms
##clo
##eratore
##anna
##enzia
##ranea
##dentale
##ward
gruppi
qui
espre
impre
##ustra
##mentare
##wi
catego
##nia
##mba
resi
##fiche
##mbe
som
##ud
arci
scene
Pal
speci
##oste
decide
nuovi
incontra
locali
papa
##armente
piazza
##gica
ur
##cche
pratica
assieme
campa
gol
dol
vicino
decora
essa
##erà
utilizzato
motore
numerose
1998
##ok
detta
coper
##omia
membro
Parti
passato
lasci
Prima
sogg
Interna
nuovamente
##ania
##tal
Fe
mezzo
##mmi
Geor
spetta
##cialmente
##enna
cioè
##vera
contempo
##lusi
nonostante
Af
##eci
poter
##cque
applica
##vono
##dino
ono
Fra
##ttere
guida
ferrovia
ted
iniziò
##erazione
personaggi
##cla
##onato
corre
##vesti
capp
dipin
Sono
sepa
stre
Wa
##ps
confron
##vvi
spazio
##vanti
tedesco
sarà
Alessand
massima
##sca
vinto
usci
Lea
IV
dimensioni
atte
vet
1997
##resta
##coltà
##cli
##tture
##gini
Venezia
mese
impi
lato
tempi
prese
##gliere
ispi
comprende
riman
pur
spor
intito
catto
riusci
ordina
classe
##glior
##zzando
rifi
##SA
##onica
=
invi
##state
rapi
##gnia
##pole
piccola
##ranno
ved
rica
##ulti
##posto
##centra
##gge
lon
mm
##tes
##taria
ovest
colore
gro
faccia
Alc
Muse
assol
tal
truppe
ambito
problemi
direttore
##ardia
retro
##gan
Edi
Bre
##blio
esten
riten
##rente
senti
dra
demo
comando
donne
##dy
amici
##uore
ada
forni
Torino
Sco
##renze
##pia
scar
compon
##allo
##onti
affron
convin
piu
1996
cond
ovvero
met
##ionati
comunità
Fil
detto
esegui
nuove
chiama
trib
##stro
mare
184
##vor
##ker
ener
esso
simb
cu
corte
##tiene
##rezza
ormai
##usione
cinemato
elementi
profession
turno
Miche
Terra
palazzo
vis
regola
Nord
Consi
colpi
##ppio
simile
velocità
dati
##ranti
Firenze
inver
sinistra
completamente
disponi
lavora
diocesi
!
Londra
##reno
contratto
##turo
ness
movimento
elimina
senso
potre
lunga
rimase
mala
entrambi
funzione
##orre
##voca
##liano
##tuale
ester
ricos
##onn
##ght
azienda
##ans
Mer
seguenti
visto
valore
fini
##trin
italiani
ren
##alle
##ces
Fili
incontro
gare
diventa
At
radio
Yo
principe
##risti
voce
##bbene
artisti
iscri
##ppon
Sant
##udi
intra
favore
##im
Spagna
##int
pari
amore
ritor
casi
nazionali
coinvol
ragazza
1994
Mol
sembra
inva
##menta
inizialmente
mini
respon
trovano
rimane
##vidu
allena
disputa
scopo
località
1995
memo
direzione
Tom
possibilità
spagn
Vin
Gui
Pla
##din
##monia
parro
League
determina
##bal
rile
##nata
essendo
considerato
superficie
essi
]
##eso
1990
##ensi
##rate
amico
cantante
cosi
riferimento
miglior
lunghezza
##tch
##bina
185
Era
testo
meda
giornali
##vate
##ssore
##ghil
##ttosto
faci
##mici
##eta
Sar
cm
##yo
individu
nave
##ghilterra
1992
reti
continua
morì
composto
presti
Inghilterra
decise
prepa
##lico
Alber
Spe
estate
realizzato
chiamata
meto
intorno
risultato
destra
rapporto
cosa
##dito
##mò
[
azione
##lazione
basso
##dità
responsa
messa
##cal
riuscì
Inter
##mità
##messa
##uma
As
piuttosto
preve
##alità
##tted
ottenere
Stra
appena
orientale
##erico
##istica
mercato
Gro
##ggiato
##isa
caratteristiche
quanti
figura
occidentale
termina
filoso
Lin
nar
universi
principalmente
Mc
sore
60
##vale
misura
capitale
femminile
j
##ordina
spie
##anze
situazione
Lib
schi
##zzò
economi
nor
##riamente
regno
giocatore
##var
Premio
rep
##grafico
antico
##visa
monta
mecc
rispetti
ria
Fin
##vando
Ve
##dam
blo
conquista
##ys
Bal
manifesta
##ung
##20
relazione
sale
##nò
Za
condu
##camente
##istente
1993
rea
##entra
##bbia
Mu
estra
Nonostante
ang
##unta
##scita
anali
scienti
suddi
invia
finanzia
assa
attacco
##zialmente
bianco
cristi
notte
liber
##ettato
condizioni
psi
sera
##cino
181
##ction
episodio
##ins
dipen
Succe
rivista
##dizione
tempera
##lini
##ling
merid
elezioni
##gina
mura
teatro
contrib
abba
porto
capacità
facendo
onda
##tenza
influenza
idea
##erre
territori
Willia
accompa
dovuto
matrimonio
prende
Bel
##ot
?
paesi
partito
##rno
##matica
1991
Ag
prodotti
situato
acquis
imperatore
sovra
##eld
raggiungere
##cord
##gendo
ufficiali
Wi
ottenne
cel
App
raffi
gua
particol
IS
##gico
##bar
appare
##toni
##cy
183
oli
portato
giappon
almeno
##ttempo
##com
pal
sé
complesso
Unione
Marco
forti
stella
cosidd
risulta
frattempo
vede
divisione
nucle
elettri
mal
##como
annuncia
nonché
aiuto
raffigu
successivi
Rai
Fre
##orld
obi
comincia
Partito
viol
qualità
##cale
##fici
piccoli
##berg
lancia
##raggio
##teca
sociali
macch
##rus
coppia
sino
##durre
Colle
Ang
fis
scom
candi
marito
critica
rappresen
##samente
180
Ange
Anna
presta
##ramente
##colari
arg
##ves
##cata
##itori
Dani
permette
Sud
Gal
sociale
ero
##ball
categoria
risultati
sviluppa
tardi
prose
tradizione
personale
quarto
Festival
mina
##mis
conquis
fan
tratto
collaborazione
pron
deriva
abbia
vinci
successiva
##erti
vero
tecnica
##tani
venti
Successivamente
forse
##ficata
veniva
premio
##art
arriva
supera
batter
presto
sconfitta
oppure
Mal
Sici
settore
formato
##oren
Hu
cia
pol
Geno
##vers
dispu
##id
##ted
Pia
direttamente
posta
David
Questi
Sil
##yn
comand
##ws
armi
equipa
##ther
risal
45
fede
recu
Gar
Bea
ara
romana
##ssato
##mando
volon
usato
Wal
##mpia
mono
Enrico
179
scelta
difesa
cattura
Ex
##volo
insta
corto
##tazioni
Eli
##centi
Bla
distanza
esord
Madonna
ottenuto
risol
viaggio
##fano
forme
materiale
interesse
Pol
resto
tema
Minis
piani
Grande
##ndo
Andrea
##onale
ripro
Qui
spin
Bolo
Fri
compagnia
emi
pensa
signo
##cati
##ent
##mos
Oltre
uscita
##erato
oggetto
documen
maggiori
80
##volta
##enne
militari
Presi
integra
organizzazione
##detto
##bio
campagna
inferiore
Emi
francesi
Consiglio
regista
studia
certo
dieci
afferma
anzi
Ele
##ffa
industri
aspetto
accesso
diffi
1989
politico
composta
##ettivo
##ppone
evol
35
Conte
Giorgio
immedia
meglio
precedenti
eventi
##tentri
##bil
##lis
Br
##die
zone
reale
spiri
##teriori
##ham
esperienza
##cs
differenza
frazione
be
cinema
permet
fru
Ce
governa
##ney
commi
Palazzo
##goli
##litto
tour
Associa
mos
civile
+
Os
##bita
pressi
fabb
Villa
auton
##creto
Her
Tur
raccolta
##ccademia
##dis
Impero
comporta
##ende
televisiva
We
informazioni
Cre
##ant
Tro
##inali
massa
appa
##stiche
accordo
##cura
##old
##rire
##del
##lievo
32
Au
conto
ponte
##esimo
Cu
costru
sele
costruito
terre
##ssico
feri
trovare
Genera
ado
##gante
siano
sopravvi
##gente
prov
##gento
vive
##we
##trici
##ggere
Ara
##gnò
prova
##talo
inclu
concentra
##ttato
piane
Ori
inau
Hen
##gnata
Che
Mario
particolarmente
stagioni
##ulla
migliori
##sile
preval
percorso
##cole
sfi
indo
Bologna
Cana
ciasc
affer
Lan
inda
ingresso
##hia
arrivo
Comi
Lou
sig
conosciuto
ambiente
presenze
tedesca
animali
diffici
Sha
inaugu
##miche
##zzano
umani
situata
Ini
energia
##pie
##ting
1980
vera
Don
##usta
giocatori
attacca
His
circon
Sci
episodi
monu
Gru
##tidi
né
1988
malatti
fuoco
anch
potrebbe
nascita
fanno
corrispon
##tena
fanta
ho
##onico
fen
Club
incarico
War
##rina
scopre
troppo
dunque
##ilan
Casa
##diali
##cchie
tali
naturale
portò
basi
70
Paul
##shi
problema
Alessandro
##mone
aree
500
maglia
Europe
bambini
##ide
sche
##rid
polizia
preso
titolare
VI
##ct
##mble
Dra
meridionale
1987
catted
costituito
vince
sequ
36
90
##mare
##tile
ww
brani
www
sepol
Jean
##fre
mu
sopp
##ttamente
sorella
record
sezione
tea
este
pubblicata
comunale
##cali
pianta
##fatti
##ficare
davanti
##any
piccole
medio
##pro
cambio
33
adotta
latino
affres
fondata
esclusi
dina
tecn
Alb
ottiene
linee
romano
##alo
importanza
##ionali
settentri
##vocato
migliore
urb
Tour
realizzazione
illus
Gian
##entino
torre
Vo
pietra
##don
soldati
Ab
##vali
libri
diritti
passaggio
Africa
evento
doppia
##etropoli
##ford
futuro
##terio
promozione
Istitu
prof
composi
domin
arche
dedicato
artista
##uale
Porto
neo
dietro
Mentre
Sy
caus
##mentali
oggetti
##dova
dom
Ges
popolare
Rich
valle
riserva
##lib
Castel
canzoni
##ceva
cellu
1986
von
##bia
##onare
##terà
fratelli
lotta
##ue
##ua
##rov
acca
profon
Bur
esemplari
##ologico
attorno
sugg
Tale
divi
##nova
antichi
quell
partecipato
esecu
dedicata
disa
World
##grafiche
minore
riguarda
moto
stessi
trasforma
##cella
##rl
##monte
Ph
##rali
##mber
poteva
Micha
campione
Vitto
capitano
Cons
acque
confronti
missione
passò
##bbli
difficoltà
##ille
minuti
inna
previs
rosso
scul
servizi
##bor
Ferra
Giappone
argento
##ggiare
controlla
vanta
vinse
##rebbero
##mpe
motori
##vision
1985
1984
Museo
##lati
##ciano
##ude
nacque
Giochi
##ccor
##té
perse
Ces
Mos
Star
##gie
Austra
Robert
latera
Aug
bron
dare
distrib
##stero
##care
autorità
fenomen
sali
comandante
Poli
aria
girone
duca
posti
traccia
##gati
##istono
aggre
pelli
epi
modelli
Filippo
Via
lati
medaglia
##ved
Accademia
##blioteca
entrò
ospe
##sk
##gano
intero
vali
impa
trasfor
##ón
pubblicazione
tentativo
maniera
Genova
##mme
##rì
Bern
interro
testimoni
facciata
titoli
vicen
avanza
teoria
onore
esser
Los
##ood
Hol
Saint
sistemi
##enato
cappella
massimo
Film
utilizzo
Bene
volo
##it
##esia
##ssimi
sosp
##ony
pilota
Record
potenza
canale
aiu
Sicilia
##ermo
chiese
Otto
ucciso
parole
##ader
sala
ricevuto
stampa
Min
Sin
FI
competizione
dipl
fisi
##dite
campionati
visita
rispettivamente
chitar
doppio
dirig
soltanto
##verso
imb
generalmente
##eth
sicurezza
flo
XIX
carattere
pan
Cali
##omici
investi
alterna
vitti
##ks
##boli
aero
simili
andata
ced
##fra
secoli
concor
182
memoria
##fri
##erta
##duti
Air
racco
pren
University
##tory
giro
1983
conver
##vile
nas
##raneo
Ris
vice
vuole
George
versioni
##lar
organizza
##ziali
Teatro
fondo
quartiere
nero
provenienti
##omica
attore
attraversa
compren
creato
William
1943
creare
1982
1970
Pan
circ
##gnano
complessi
ragazzo
moda
Storia
##ddis
diventare
insegna
##dard
rapporti
scor
resti
ministro
appartenente
gestione
##ento
##my
##tù
bordo
emer
battu
34
##mann
speciale
riguard
Santi
Cristo
Peter
allenatore
##rar
popolo
proto
contiene
motivo
##gin
famiglie
case
Alcuni
##mentari
giusti
esiste
usa
1979
##dimento
imperia
rifu
##trali
##mati
##bin
parrocchia
effetto
Flo
Cin
bio
fonti
terreno
##onata
Roy
Vir
peso
Bru
corsa
div
giudi
##ence
adatta
acquisi
scritta
collabora
tecnico
raff
obbli
ufficialmente
tornare
1976
genitori
James
sebbene
Ko
attualmente
1981
Alex
nomi
doveva
notevole
altezza
XVI
diede
##gy
##stia
1975
decen
sinda
raggiunge
##los
scompar
utilizzata
##ranza
Ki
Presidente
idro
Franco
sfru
##gar
Jack
impianto
##gegn
elett
##chestra
appari
progre
pie
##tun
consul
vecchio
presentato
##dor
confine
partecipazione
europeo
##mor
buona
apertura
combatti
qualifica
##cus
austria
##zionato
villaggio
Federico
biso
Bos
costa
Bill
Spi
##BN
##gate
##zzera
aperto
codice
##gole
Unito
esterno
costruita
raggiunto
##luso
morto
##tuali
##ettare
maschile
federa
lista
##ttiva
##bus
retroce
legno
piedi
Due
ol
tedeschi
necessi
italiane
atle
dor
altare
acco
##esca
edifici
##ometri
contemporanea
Loren
1945
1978
colori
arco
politiche
Michael
##rini
##artimento
Champ
conflitto
quantità
colonna
ritra
dollari
discu
andare
parco
Guerra
volume
##omas
pace
conoscenza
##ng
Istituto
trasmissione
Por
pian
##FA
##siasi
Medi
meccani
##enso
Semp
cur
ucce
avversa
##veri
fol
greco
Qua
ipote
USA
##genza
Ke
Egli
recente
Under
passare
Archi
omonimo
##nea
Para
evitare
intervento
muni
strani
otta
Svi
Italiana
giapponese
y
##tanta
Nuova
aereo
##gion
definitivamente
strutture
riprese
##risto
settimana
Cer
fatti
avviene
cann
blu
38
fasci
##forme
settentrionale
accetta
Ur
aggi
1972
##ré
necessario
##uli
arresta
Cara
speri
cortomet
chiede
quotidi
vene
##osito
ISBN
1968
rivela
##mentazione
##spe
Paesi
qualsiasi
agri
appo
stava
prendere
nato
##gnati
##net
venivano
rende
##NA
Pra
##burgo
lago
##gani
##tuto
insedia
##bbi
conseguenza
##ttivo
mone
##ciatore
det
lavorare
spon
##lesia
palla
ossia
##pore
##ux
##mula
regioni
nasce
creazione
immagine
card
contatto
##ros
compagni
1974
Santo
bian
##end
reci
progetti
1977
effettua
Win
Valle
vesti
##ssina
costretto
##tamento
commerciali
Patri
circos
proi
##dotte
Charles
rifle
regionale
National
Capi
aggior
##udo
cilin
##tio
1944
Austria
Company
##tanze
Russia
glo
##tern
fossero
intitolato
##damento
##ziano
grave
storici
Rad
sposta
portare
parola
segno
##elmo
##bella
assun
giocato
conclu
coda
Roberto
male
iniziato
ampia
178
monte
Award
##rescia
##dae
museo
gas
1973
Luca
imm
fianco
37
Cir
ran
##mobili
esistenza
##ttp
##vola
elettroni
europea
##ggiata
valori
crisi
operazioni
##how
150
scrisse
svolge
batte
Quin
##celli
##nale
richiesta
##umin
Giacomo
tracce
Musi
entrambe
progetta
##cial
##mocra
falli
bomb
partecipò
consa
Inf
Lega
origini
destina
giornata
avvenuta
##bato
Viene
##entali
Fla
Richard
estrema
geo
Cle
sensi
Nicola
##riche
britannico
##ficio
etiche
ammi
##belli
##simo
1969
##10
Michele
strumenti
##liana
campi
Gruppo
ricorda
prove
##rendo
1967
##eb
Champion
##dar
metropoli
attenzione
Mona
bos
Records
sarebbero
danni
guada
Camera
avendo
culto
schia
##vesco
componenti
macchina
##nio
Franci
riforma
scrittore
##rere
Cina
sap
der
Batti
costi
strate
soff
Opera
##glione
vir
team
analisi
Comune
qualc
edu
ingegn
1971
farma
##gro
Società
##sson
Gugli
##ssili
##pato
costituita
Ul
sostituito
utilizza
##mine
commerciale
Mus
Palermo
1960
bambino
vide
bru
ghia
fondato
risale
costo
Stan
diploma
prigioni
supporto
##burg
trasporto
giocare
attivo
##onima
##zzur
sessu
culturale
numeri
##tella
dec
Arti
##ssuto
trono
ospedale
letteratura
incidente
Marina
venendo
XVIII
bal
Atl
incor
operazione
Alberto
amministrazione
##sen
chil
contea
##sità
entrare
##forte
occhi
durata
flu
Vincen
università
##anis
##teo
nega
richia
rock
ber
interpretato
##uter
standard
settimane
sovie
realizzata
##olfo
omici
On
ap
isole
##cqu
Leon
termin
Stefano
1940
ebra
##porto
digi
soppre
##tis
##luse
entro
famoso
bronzo
avrebbero
Sempre
fiori
minori
sposò
incro
trasferì
messo
Cup
abitato
Gesù
storica
possa
attribui
##ware
funzioni
trattato
Domen
Gri
festa
monastero
Thomas
addi
My
pensi
cortometraggio
##zionario
naturali
materiali
discen
##uth
##ceo
International
sedi
euro
nego
Capo
##mbo
consiste
Martin
giar
cattolica
edizioni
177
All
Dar
ricevette
Lomb
ciclo
architettura
superiori
difficile
Ali
##mbia
Australia
consecu
ruo
rifer
pittore
fatta
Berlino
attrice
##mini
obiettivo
Jose
elen
##dra
differenti
perf
Ordine
maestro
cattedrale
uscì
avesse
##mora
fond
##cerdo
med
sangue
ade
considerata
motivi
associazione
composizione
finali
mette
##ctor
regina
dramma
stadio
##urea
##ple
articolo
bassa
##trato
ultime
##yl
quarta
##ville
dotato
Van
Canada
42
##vanta
Pop
vedere
ragazzi
scoperta
denominazione
##rismo
cittadini
spagnolo
gravi
Provin
regi
dà
Poi
file
##rista
carb
Sto
inven
Pie
##renti
##telle
##tene
libero
##the
88
##yer
profi
##wer
pianeta
decreto
fines
Mondo
tecniche
indipendente
multi
pubblici
semif
##30
fisica
narra
Corpo
Ros
1966
inglesi
documenti
Tos
vei
##mere
Scu
termini
diale
##ttor
libertà
even
top
Centro
disponibile
internazionali
Grazie
ina
fuggi
##ffica
Cesare
##su
malattia
americano
spo
44
VII
medico
##ttò
vie
piante
tela
##cate
micro
architetto
nasc
pertanto
assegnato
Egi
##uoghi
39
debutto
sposa
rientra
livelli
##ky
Queste
rapida
trovava
##tava
occup
Lorenzo
Sca
scelto
calci
##reni
##CA
ipotesi
##ae
buon
frequenta
sess
legis
##ges
##gnare
Ass
Bon
impo
Guglielmo
disposi
economica
sviluppato
Dia
metodo
costruire
Ogni
ger
celebre
Frank
avanti
##uel
##cini
Dan
riceve
1964
XII
nipote
sole
##olf
scher
discip
##canti
reso
##canza
professore
##ccar
##ington
##dali
consenti
soggetto
punte
pazi
##olari
##ormente
solamente
##isco
##gore
azioni
europei
musici
##fera
##bora
##stici
XIII
scontro
costante
mate
48
Princi
vettura
distribuzione
sorge
cinqu
Let
1965
##lusione
devono
Uno
prosp
##gnando
nos
##ologica
moderna
Ama
Cristi
tradizionale
##duce
##dal
##zanti
verrà
distribuito
##cho
Chia
tornò
consiglio
Cala
Studi
##bli
sceneggia
Max
riporta
costrin
41
carro
resistenza
Venne
##otball
vittorie
##soli
fum
Bol
##ttanta
Califor
animale
espan
dipinto
##rona
temperatura
installa
cardinale
97
Ciò
##truttura
TV
##genti
##evale
eredi
analo
Campionato
perman
sacerdo
ipo
scala
##je
##ast
CD
fondazione
##ciuto
responsabile
centri
capol
arcivesco
economia
##ash
pelle
interamente
distretto
Asia
Gover
domina
utilizzati
sper
percor
rivel
##AT
California
mediante
##uito
City
figure
##lusa
Sam
dovette
Eu
pale
##cane
1942
Divisione
##cero
disposizione
##erri
leader
ritorna
perso
##ttà
##cell
segue
##tudine
##han
XVII
singoli
ama
beni
strumento
##bria
vivere
cora
immediatamente
##redi
esse
Svizzera
divis
enor
statua
cose
Pas
alcun
colla
poche
Brasile
allon
1941
##nica
ottenendo
uscito
Ann
She
protezione
bel
iniziale
videogio
##dette
Red
1963
##dico
oland
incontri
lingue
verde
rila
##istenti
minaccia
1939
Pio
You
decisione
##dute
tratti
##tagna
conosciuta
##dier
confi
##way
lasciò
definito
copie
passo
##unità
##geli
##iti
ala
lasciare
clima
vincendo
##nità
luoghi
##rolo
##bba
contribu
combina
chied
semplicemente
bina
paralle
recupera
Die
##sori
##unale
simbolo
fia
romani
individ
vecchia
veli
ritrova
##muo
interess
Altri
lettere
vege
1961
cuore
##lamento
visione
coloni
##60
Kar
capoluogo
Rosa
prevalentemente
scuole
##ttle
aci
appre
generi
compito
celeb
immagini
Vittorio
##tions
##gimento
Caro
Sol
Music
cittadina
Pala
improv
##bert
mole
statunitensi
India
prodotta
imperiale
partecipare
forn
Democra
partenza
##iche
1962
##iono
Angelo
etichetta
Corte
proposta
possesso
pala
Signo
laurea
Giro
##vazione
nulla
lasciando
ricostrui
##mbur
##ccato
uten
olimpi
Cra
Olimpia
Papa
caduta
43
concerto
##bbio
Arg
lasciato
anne
ponti
fonte
##sion
Fal
Mauri
##mante
##dò
##nei
necessità
47
##40
##late
Ban
particolari
posteriore
Eri
esordio
##ttrice
miglia
pressione
pezzi
##zer
inga
rischio
esce
Ana
##prire
West
manifestazione
St
legato
amb
1950
carta
trasferisce
Indi
soluzione
300
colpo
stelle
fabbrica
corrente
soggetti
firma
diventato
##phi
sorta
Res
American
##devano
##astanza
prestito
contrario
Associazione
sbar
##tania
##utazione
passe
75
lì
stri
racconta
##stein
Black
filosofia
Isa
##ller
manu
##detti
##ras
##rima
##gene
umi
documento
##fficiente
spettacolo
Royal
Blu
appunto
##teriormente
Quest
sfrutta
aposto
Fonda
##entò
##vina
##grado
effica
abbastanza
dando
fuga
##ye
Stre
ascol
regime
Mili
sfor
Salva
ebre
umano
##tuna
##denze
giallo
##cante
avvenne
svolta
aiuta
Città
corrisp
incari
XIV
napole
trenta
regia
quinto
continuò
americana
esor
maggioranza
confe
Radio
Fon
avvia
reda
spagnola
00
##cciaio
erro
za
vanno
ossi
##degna
basato
##gamento
morti
##gliato
poteri
##ku
##volmente
##ist
elabo
##istico
entrata
##erita
settanta
1948
effettu
##liare
omonima
deciso
risor
utilizzare
##pran
posizioni
ripa
elemento
##illi
Pres
diffusione
nobili
Sara
King
##geno
chilometri
competizioni
Ai
coltiva
leggi
garanti
##omeo
Smi
musicali
Phi
incen
marina
##lano
caratteristica
Sve
conci
Nove
bianca
ebbero
##ggimento
cielo
ottanta
fid
realizza
##12
Angeles
talvolta
##stante
strade
fortemente
esclusivamente
##ji
successive
Infatti
dele
test
##ls
rivolta
dichiarato
1958
##lum
sessanta
oper
Messico
caratterizzato
##turi
dista
Così
chiaro
sesto
vole
##matico
trovato
economico
vicina
politici
computer
poe
giuri
raggiunse
rie
accusa
andò
##viste
SS
Ferdin
55
##erona
concetto
Mel
1946
##tantino
notizia
Mac
protagonisti
vivo
camera
organo
aumento
Leo
usata
Tele
scoperto
danne
permesso
Attu
ceri
##ologie
colonia
##stre
studenti
bol
canti
riguardo
##fr
nata
Nato
solito
Ty
1956
É
Padova
scio
carico
Bran
##cke
##BC
##arca
##lui
diventando
64
nemico
esti
##gale
##mise
Tar
nera
sinte
ritiro
mantenere
play
collegio
##stron
certa
giochi
Whi
175
cavallo
##pla
Open
matti
varietà
dominio
indipendenza
feste
Internazionale
##tum
##zano
commercio
significato
Solo
leggenda
Sardegna
##missioni
muo
combattimento
##ary
Ministero
##coni
voti
deten
##tha
##nate
##ddo
piena
##ring
riuni
Dire
mondiali
condizione
Spor
cinese
##wood
1959
assoluta
Bul
##alleria
Del
storie
scritti
##ggeri
concorso
Scho
antici
solle
concerti
produttore
spedizione
|
appartenenti
##tologia
annunciato
VIII
##dicesi
ulteriore
don
espon
arrivò
Cap
##ald
principio
##dori
##ghese
compet
Tran
##xi
aus
Glo
##vra
##án
ospita
##fero
corona
##metri
vantaggio
risposta
Porta
Egitto
Clau
49
Louis
##ggiore
quota
1938
Esp
rinven
Des
52
##zzar
crescita
##rittura
disegno
uccidere
volontà
##date
Vienna
##moto
cominciò
solitamente
##varono
inserito
tenuto
van
porte
aggiunta
rimasto
espressione
##ugh
tempio
potente
##ander
ricord
prestigio
britannica
##ds
legisla
piloti
ricerche
comunicazione
##ish
distribui
##lom
##tic
##gici
Pon
Attualmente
##razioni
modalità
##ologici
##cello
Compa
evoluzione
presa
profonda
UE
fenomeno
##utore
piatta
custo
marche
Battista
400
cambi
##landese
reper
estin
Bretagna
cavali
bandi
1947
portata
65
##tuario
accol
Domenico
pad
ricoper
sur
umana
armata
rifiu
flotta
##meri
sconfitto
##nie
1957
orchestra
##ciata
identità
##anismo
##vy
##sali
##bel
##destra
prefer
Far
##ziato
corsi
##IA
##cht
osta
##tec
convento
stanza
alti
reca
soste
conferma
que
fidanza
##grafo
Scri
ecclesia
pure
eccezione
Ya
certi
##mentato
1936
aperta
riun
1914
compagno
Batta
Barba
mezzi
##ggiamento
##evo
##dì
Commissione
##nali
Pin
uccelli
racconto
post
costre
##80
##sch
Ren
##ssibile
Christi
realizzare
vincere
ove
Press
Liber
comme
inn
trattamento
precedenza
alp
del
atmos
Parma
IX
°
Costantino
##utica
alcuna
mancanza
industriale
##endere
ragione
consider
part
fascia
##jo
##lon
enti
r
addirittura
##tini
ufficio
160
mira
artigli
mandato
din
transi
##gle
assenza
Tol
Scuola
laterali
##ule
Rol
Matte
ampio
statale
Joseph
presentano
rilievo
Torre
##mbro
##vest
sacri
vendita
dimin
programmi
##toriale
Croce
Mod
scop
##dge
compar
##utati
fram
46
1955
fondamentale
classica
aerei
esecuzione
segretario
completa
Giulio
arcivescovo
liqui
Vis
Ze
pellicola
Bassi
Sotto
anteriore
##ssime
antiche
##kin
Romano
Pur
Alle
belli
dena
arrivare
pubblicò
##pubbli
accade
industria
##riano
nucleo
possiede
pieno
##ée
restaura
Mark
Grecia
trasmessa
condotto
punta
##riere
esibi
sopran
rappresentato
artico
pesante
AT
##dolo
veloce
montagna
questione
##nis
coordina
scrive
Napole
##rena
1954
trascor
contenuto
interpretazione
colonne
Castello
impero
diverso
1953
##cel
reazione
##zionamento
traffi
##ttoni
pas
sottop
Shi
rosa
Seconda
United
tribù
##ett
relazioni
Rock
Ala
gigante
##gliano
greca
##unti
##ult
Più
diffuso
sovrano
insegn
##19
tuttora
##hr
opport
linguaggio
portando
registrato
Tren
semb
orto
ugu
##pito
##rich
finalmente
pagina
soddis
capitolo
Basi
generali
spia
poeta
confini
impresa
##ban
affa
scrivere
consu
Vincenzo
mettere
##bate
originariamente
nemici
http
Parte
compreso
gene
##sore
teatrale
conne
##unio
americani
impedi
##VD
##mitero
##gas
civili
terres
omicidio
##istere
utilizzando
premi
volumi
176
Ferro
statu
conven
preferi
##pero
temi
Anti
potuto
restauro
condanna
metropolitana
chiave
##sche
1930
identifica
annun
##ite
studiosi
faceva
##mmina
##ore
comportamento
governatore
Savo
totali
##omenti
sigla
##ssare
elettro
##esima
##usura
Oggi
##unn
1952
belle
previsto
Poco
pensiero
Uffi
##ense
attesta
1920
perciò
##lando
accanto
Les
Gil
##archi
infort
lunghi
web
perdita
##vante
Nu
Sette
sostegno
##rito
indiri
1949
1918
collezione
potevano
170
Asse
affrontare
Ron
attacchi
stesse
dolo
Federazione
normale
corrispond
espri
Mary
##gallo
##king
televisione
canta
facilmente
##umere
salute
sindaco
Av
congi
US
acquista
partecipanti
inedi
trasferito
1937
coni
affreschi
prestazioni
##ttica
notizie
sla
Sand
##ssario
principi
##ES
Dip
##dire
Mis
sonora
sto
##messe
tenuta
1951
laure
##dameri
rilascia
attrib
sport
Jos
agi
riscon
##mori
##bol
primavera
##ance
comi
banda
russo
##ologo
ferroviaria
##unt
pista
borgo
##coltura
estende
prevede
##terraneo
estero
Italiano
cana
##talmente
##tipo
##iamo
specialmente
ordini
Verona
pio
Hel
##pprima
legger
cercare
privata
domen
censi
##mus
ripet
##giche
vincitore
calo
giovanili
##cul
1929
verità
dona
##ffer
Blo
##nico
##vimento
##reale
Tutti
##phy
disponibili
##mblea
vinta
deca
popolazioni
##erale
##uda
caratterizzata
cinquanta
religione
1935
usare
Vergine
relativamente
##lievi
prosegui
Ross
dura
##uzioni
ruoli
psicolo
citato
##well
##gnoli
##bro
democra
porti
dotata
trans
traspor
attiva
##ttico
equa
rifor
inviato
Smith
Ora
Love
##angelo
provoca
nobile
fasi
santi
televisivo
diffusa
rinno
fior
modifica
Provincia
##ssivo
Henry
assedio
pubblicati
lavorato
originario
##rur
promosso
##rlanda
51
Temp
pola
visibile
convo
conosce
##sio
giornalista
##ER
1919
croce
ristruttura
Jon
odier
terro
enorme
assass
rifiuta
rimo
riconoscimento
Arte
telef
##AS
naz
regolare
##deri
1928
Mur
abilità
pericol
##diocesi
radica
##cone
##liari
1927
stili
Infine
istituto
patria
Servi
riva
colonn
avvenuto
commissione
Umb
Civi
vescovi
indicare
interessa
automobili
deli
Bari
Conf
biblioteca
Parlamento
rendere
religioso
Alto
agente
grig
disputato
amicizia
riguardanti
x
cug
circuito
acquistato
lancio
Ferdinando
classico
traffico
costituisce
spalle
secondi
53
precedentemente
##ftware
CV
larga
Cul
##relli
##ctu
vul
formare
##detta
trovò
54
iniziarono
denaro
vittime
el
medievale
##mal
suolo
##tia
##rocco
resa
##AR
Elisa
##pale
fondatore
cellule
estremamente
sved
Den
cron
Toscana
##rom
azzur
interni
labora
##ennale
##dore
dodici
##gs
##iro
##side
##gitti
##win
##urus
leggermente
56
##erata
accus
##idi
Wash
Medio
quaran
Molti
equipaggio
DVD
Massimo
1912
##gona
Comitato
apre
innova
nessuno
introduzione
merito
Lei
1915
##mburgo
##ttendo
residenza
personalità
ille
incre
show
Alcune
formata
##omba
1933
magni
ambienti
120
foglie
banca
##mond
assunse
Argentina
##clope
giri
##dde
messi
##bell
rossa
illustra
filo
Altre
Fino
addestra
demoli
##tol
rapidamente
definizione
pittura
##rama
parete
ebrei
produrre
proveniente
Polonia
paesa
##mettere
costu
letto
raccoglie
##mila
combattere
Ari
organizzato
disse
occupazione
##vide
coro
articoli
##anese
novanta
##chino
##uele
carte
art
School
dispone
1934
svolto
Sebbene
##tona
Costitu
##ettò
danno
disciplina
##occu
Fur
##ssuti
bizanti
Paese
##ate
originaria
lontano
vicende
immagina
espansione
##logia
seguire
dipinti
catalo
nascon
Morì
soprann
componente
Rei
contenente
Grand
cannoni
Gon
Ac
coloro
##BA
##inità
Aqui
autun
##gando
Washington
##lun
Reg
1913
Marche
1917
idee
##pio
1924
desider
Pisa
aspetti
canto
medicina
irre
Sei
Soci
Inizialmente
Football
157
##quisi
##dimenti
affari
174
largo
##inna
ogn
stemma
##dano
ricca
##olato
cibo
Nuovo
marchio
ulteriori
kg
riportato
##chen
olio
vicin
amiche
tecnologia
les
##CI
##gori
avver
cicli
match
Ottocento
Andre
dovuta
fla
zio
##zionalmente
##ttanti
##nando
recenti
fanteria
cerimonia
intitolata
ordin
##ssiva
Sala
##pevole
##guardo
conservato
navata
artistica
distingu
##messi
assunto
scrittura
##let
Cur
Ponte
albero
abbi
##ttando
sostan
pareti
realizzati
spar
basata
plu
evidente
chiusura
europee
Napoleone
nessun
fuggire
artistico
metal
Teo
precipi
tesi
relativa
generazione
Madrid
Bus
apposi
taglia
Op
##gher
Monaco
##erati
dapprima
emo
girato
##viera
1926
152
sapere
Primo
provinciale
diversa
Belgio
Senato
egi
portale
sepp
invasione
dinastia
Division
tiro
movimenti
Brescia
fusione
Irlanda
impiego
##allen
##erisce
indicato
##omet
modifiche
Sole
elevata
armate
Bruno
offre
contesto
compresa
spirito
lingu
giustizia
resp
##ser
Isra
arre
57
##terina
Park
##sy
##ety
Bir
##lana
##11
dipartimento
parlare
Pierre
esistono
subi
orienta
Studio
##vorò
denominata
bombarda
marmo
compare
Capp
verifica
orizz
legata
Piazza
Nova
salvare
##osità
Hor
eviden
ster
catena
chiuso
punteggio
trasferimento
traduzione
ricostruzione
satelli
olandese
giunse
alte
poesia
Aca
##dt
fortuna
austra
culturali
Savoia
proprietario
dar
Eman
##ust
igno
specifica
##gby
##titudine
istituzione
misterio
Rio
##estri
elettrica
uo
fecero
aumen
segreto
mise
159
##isola
##venza
rina
extra
##china
ribelli
tipico
##try
Ran
##derà
##ficò
commedia
##unda
##crizione
58
passando
consac
Ern
dro
Svezia
##doro
##field
procla
carcere
sel
periodi
##core
##ffe
aeroporto
unione
inverno
Martino
Sor
1931
##ost
Auto
##basti
##ür
intelle
descritto
ato
comanda
afri
esplo
##gnate
##ettero
allesti
##ceano
##gers
Costa
Tal
##zionata
Ep
Essa
stabil
##mbio
tera
cl
regole
arcidiocesi
attacc
divisa
Pier
##erito
fumetti
CO
cra
ambienta
legati
promuo
semifinale
quadro
Paci
##gò
romanzi
##bale
rivoluzione
riferisce
guerri
62
1923
basilica
famosa
santo
##onendo
##rum
##ttente
ricco
abbazia
notare
sorpre
colp
abbandon
qualcosa
Squad
Entra
Lee
collina
##sma
battuto
allun
iniziativa
maggiormente
attori
Joh
corpi
UEFA
angolo
opin
sena
Guido
allo
applicazione
1932
Jan
tappa
##gger
##mendo
conti
cittadino
ambas
neu
funzion
rinuncia
Tha
Hill
avveni
quadri
173
Ani
Leone
66
Matteo
scientifico
Ir
##vine
subì
Occi
assor
recen
##giani
##sì
ritiene
##reste
gri
Zo
gironi
##torie
cosiddetta
creata
preoccu
chiu
voto
pezzo
censimento
cosiddetto
core
spiega
premia
ripresa
##riato
##mona
limite
##bini
Hall
rit
##IS
quei
provve
ammira
##cker
condan
dimensione
##15
sposato
chitarra
##grafie
ricche
originali
Francisco
giardino
tiene
personali
##guerra
risorse
elettorale
Rossi
somma
frutto
sì
bas
ditta
consente
##fondo
interventi
162
capace
##gal
##ny
completo
bisogno
ispirato
emis
##vello
Tru
solare
giornale
##ramento
affidata
##gregazione
##ettore
scomparsa
sotti
monumento
cimitero
##ira
propone
suici
rista
##miglia
treni
##urt
innamo
passeggeri
##ek
##golare
rispon
Benedetto
racconti
viaggi
##sura
fama
stretto
vicenda
1922
##kh
1925
ulteriormente
##gari
##tualmente
Alpi
##13
##rado
Emilia
marcia
##14
##OS
Oscar
Intanto
##dentali
regionali
decenni
pesca
cru
##uali
rese
800
vale
##artiene
moderni
156
##uch
Art
Tomma
intelli
85
Tex
estremità
Simon
tradizionali
Ess
Pale
assoluto
colpito
estratto
distruzione
College
impiegato
assume
saranno
inde
Sport
patrimonio
Sti
olimpici
##ciatori
limitata
riba
religiosa
Alta
##ppie
Massa
1911
1921
celebra
Piemonte
Eserci
ja
pole
sfida
vuo
anime
poté
pronuncia
campani
by
##ficando
provo
Claudio
lumin
##ttive
Phili
destinato
164
Io
chiamati
##gramma
Siena
quinta
Pen
99
tomba
sottoline
assai
colonnello
quegli
riuscendo
250
opposizione
169
Calcio
Campionati
##logo
##op
Mala
##vino
##ons
Portogallo
##ith
finché
nazioni
##bul
Play
straordina
Ferrari
concluse
puni
sportivo
milan
Land
costituzione
esercizio
registrazione
##evi
Jaco
quotidiano
Chica
##feo
province
vers
moderno
RA
##ars
alberi
ante
##ters
tenere
artiglieria
prevedeva
profondità
cast
##diti
##ciato
##aller
giovanile
tip
##ettivi
##grafici
software
definita
gem
London
collegamento
id
##tain
sconos
avvicina
167
videogioco
##16
br
Gold
155
infanzia
arrivando
##ulo
perde
chirur
scientifica
Casti
63
usati
leggera
riconosciuto
configu
Fia
viaggia
Mediterraneo
ramo
processi
nessuna
France
##terni
sessuale
Atlanti
foresta
corrispondenza
##lam
Institu
Chicago
son
Novecento
Regione
parente
##cto
contenuti
rivolu
Caterina
Biblioteca
##guì
##rest
##cenze
magis
59
restitu
##TA
172
definitiva
metalli
Lord
capito
##liani
Alfre
##gel
Cy
##rane
occhio
600
Sebasti
##dovi
##prio
Berga
erede
vento
descrive
##colato
158
##get
fuci
##ía
##mmy
brasi
##critto
pericolo
prigionieri
Borgo
legame
simboli
##genze
muto
##versale
##busti
elevato
Som
##gibile
##alto
dialetto
denominato
guerre
Area
—
Campo
163
Lombardia
1916
Bona
##ologiche
Vita
canad
diam
Governo
semina
##bole
candidato
presentata
botte
matematica
editore
##vese
149
venduto
th
marca
preda
consegui
sici
sepolto
autunno
Gh
##cona
##por
Fort
sani
##onio
brevi
Que
##18
acido
##gheria
organizzata
cera
ipoti
conduce
intervista
vertica
destro
guardia
esterna
disc
##at
Ray
sva
##pedini
condotta
impegno
##enziale
pse
aziende
assistente
##fonso
scola
##gor
165
Calabria
avvocato
repubbli
viola
introdotto
regg
One
missioni
##ulta
braccio
qualificazione
Oriente
comunemente
Sc
##giano
aiutare
disegni
72
Ponti
Cine
possibili
##ensiva
pru
elenco
67
##celle
successione
##17
##ski
Mosca
fossili
singolare
Rod
Riccar
##clopedia
Formula
popolari
offerta
Ten
responsabilità
Già
decisi
specifico
##kes
impianti
sostituzione
estensione
Slo
é
suono
abbandonato
parrocchiale
##ranei
Salvatore
Congresso
##fil
##urs
amplia
arrestato
153
cinematografica
bacino
ceduto
##uca
meteo
compositore
scienzia
##vet
Scozia
##nal
168
coste
inferiori
sinis
fondò
frequenza
intenzione
##opera
muore
nazione
copertura
##anzi
Monti
scienze
95
High
ragg
##ditore
Green
prezio
occasioni
svolse
continui
utilizzate
Edward
Veneto
arbi
episco
soccor
##board
riescono
##mie
fisico
propul
giudice
Armata
viva
##trona
1910
Joe
trasmesso
vittima
dopoguerra
insu
allar
##mate
sba
##putato
portarono
rein
diametro
studente
he
##eronautica
166
gamma
prede
##ken
125
##MS
Johann
##ced
Pom
batteria
uscire
Ligu
rivesti
vetture
##gru
definis
##CO
universo
carne
metodi
festival
Esercito
Dol
Margh
tute
potesse
Cava
##geni
ner
##ganti
##glianza
arres
svedese
Champions
navale
slo
##tran
mio
Parco
lavorò
fondi
Catania
condannato
##blo
accen
Principe
crista
Lazio
gradu
divenuto
incluso
interpreta
Daniel
Maggiore
Lon
svizz
voci
Orig
77
##mas
richiede
manos
inno
imposta
ciascuno
fissa
realizzate
elezione
volto
##inato
Sovie
ciascuna
Generale
House
sospen
interven
Virgin
illum
voleva
pagine
prezzo
critiche
tenente
68
##zu
digitale
##ciare
consigliere
1000
##ribal
Quattro
tenne
interessi
risalente
Mare
##rre
pom
Michel
anda
passione
Palla
fri
confermato
Bell
tardo
conclude
femmine
Esso
dovrebbe
domenica
radia
amma
risali
##vre
minimo
Mai
Raffa
ragioni
essenzia
Elisab
puntata
##viene
rigi
tan
dentro
improvvisa
indu
Tommaso
croci
coinci
privile
studiare
sequenza
##gnor
76
selezione
##uts
stazioni
ferito
dischi
eva
##nati
##gliari
Ada
design
ridotto
Emanuele
rimanere
##rac
Musica
determin
Ministro
giunge
bandiera
rap
Walter
fornire
composti
diviso
Sera
irri
terreni
##mil
Bio
Jer
brill
riduzione
artifi
distur
##ère
mente
fili
87
decennio
prete
Cavali
Bis
##ttone
appoggio
torrente
130
cima
garan
avan
firmato
modu
cristiani
dichiara
78
North
sceneggiatura
avanzata
Sergio
intellettu
Alfonso
conoscere
Ku
russa
attesa
appartiene
Cinque
spazi
vicini
affianca
##rand
Giusti
Hy
##remo
##tria
segnale
##RA
Leonardo
aumentare
educazione
##cur
propor
amministrativa
##batti
##berto
##red
Var
##lleria
astron
##work
tappe
Ox
Gol
asia
##ffo
indis
storiche
gente
bianchi
Cia
pens
giapponesi
ampli
General
##anchi
##bano
salva
stanno
Manto
utile
testimonia
##ckey
abbandonare
##ration
istruzione
cono
copia
##mondo
Bernard
##tire
famosi
Sovietica
distrutto
##giana
Tutto
##inger
spet
Challen
schermo
cristiana
EP
##andi
bilan
fedeli
Barcell
torri
Edo
Ungheria
##osessu
assicu
##quie
##ccare
Figlio
insegui
centi
critico
miliardi
risi
Corriere
Barcellona
##orth
bella
privato
##tron
perce
successore
Battaglia
##ennio
tasti
vasta
errore
avventura
considerati
##ettamente
Riccardo
individui
##eries
##ensis
progettato
alleati
cancella
trasformazione
allontana
Brown
scia
conseguente
rappresentante
74
insediamento
Gua
esposizione
scienza
deposi
produce
##ficazioni
iper
##ssò
##cipa
sacerdote
corni
campanile
dedicò
religiosi
Real
##voro
contributo
##ombo
principessa
corrispondente
esempi
154
84
Sul
Sun
Lar
##ep
##ttare
noi
##ggiati
trion
interne
##sis
Sali
usando
dichiarò
mobili
ricordare
Est
raggiungendo
Dy
Norman
continuare
Are
proposito
preparazione
ragazze
fortezza
Mondiale
sinistro
musicisti
chimica
siti
##archia
73
147
insegnante
##bot
zo
##ltà
##til
anten
compro
aerea
consoli
violenza
Ji
penisola
69
pesanti
autonomia
semplici
statue
##tane
mand
campagne
macchine
##vente
scontri
pazienti
##etna
insegnamento
avversario
pisto
tetto
##ht
Ken
geno
variante
##quali
comprendeva
##ominato
cop
##cine
cercando
discografica
Trieste
natale
introdu
muro
seguendo
cilindri
Cass
##terno
classificata
adi
ubi
Margherita
Diven
recita
Mont
propa
tedesche
istituito
piattaforma
tron
superare
console
alleanza
##chel
##hen
PS
morale
sve
denti
contava
solista
Piero
seguì
dolce
vino
Romani
##osla
##wan
impren
Lun
##pper
treno
agenti
presbi
##onici
##ticamente
attuali
melo
chiusa
Awards
##ttino
rappresentanti
Carl
circonda
##ison
##than
compor
amante
sfo
##cera
aspetta
relativi
riprende
rifugio
equival
terremoto
serata
coa
indagini
McC
##tman
##cimento
leggere
cambiare
##ettiva
Premi
anello
minera
##ducia
signore
Miss
date
Museum
Lago
Messina
##iale
##licato
Reggio
santuario
subentra
permettere
Cres
Der
96
tipica
pul
##etre
##olarmente
prigione
rappresentata
##ranio
staff
danza
cavalli
##gior
maschio
procedu
riviste
Colo
qualificazioni
Mas
##sser
attre
documentario
sfu
Street
occidentali
82
hi
Modena
guidato
##metro
Distribuito
##specie
rimasta
fattori
differenze
1908
Ped
##terie
Grego
economiche
categorie
rami
schiavi
amica
ghiaccio
portano
differenzia
emisfero
Scott
Agos
nutri
##male
variabile
riuscirono
inti
magne
eseguito
religiose
##tas
vica
scultore
##renza
##tteri
#
virtù
sesso
notevolmente
##cito
##gazz
scozz
canali
sfondo
stranieri
bocca
Juan
include
Apol
meccanica
contrasto
Ful
rettan
##aldo
##ggendo
definitivo
Augusto
diviene
sciol
Vic
finestre
formazioni
intende
isp
##pressione
copertina
pano
##usale
merci
92
testimonianza
intento
rifugia
veicoli
Tan
acquisto
##fan
ton
adoles
Israele
Force
effettuare
##tation
ritar
morta
dicendo
##raneamente
##xel
Franç
##anismi
razza
comunica
Jane
agricoltura
laboratorio
Isola
ospite
rinfor
parzialmente
Clar
ridu
legitti
selva
af
Baviera
deputato
Ade
blocco
##ttra
##cing
riuscito
##inea
accum
desiderio
##asci
andato
##dando
##ugosla
terrestre
##udica
privati
iscrizione
necessaria
raggru
pensare
sostiene
diventata
##iona
Geo
Oro
coinvolto
##hu
ispirazione
Cel
Dal
Ly
Sho
79
##osamente
##pediniere
##illo
##organi
Luna
licenza
relative
##marca
##ruzione
inserita
larghe
rappresentano
vio
Bergamo
Arri
dolore
Natale
pianoforte
##ceae
Nazioni
Bow
##ild
##tatore
soci
raggio
gradi
##conti
Corea
##sieme
masch
Matt
imped
Suo
Sea
risto
monete
##anesimo
partiti
Mondiali
centrali
diagn
soggior
misure
latina
avvicin
istituzioni
Ted
acciaio
face
dimostrato
Mike
##lian
intrapre
Tali
##ason
Rocca
io
infe
1909
Chris
pref
Han
Sir
##lea
versi
passi
probabile
incom
tradu
vivono
divenendo
##colata
##fran
May
osse
federale
140
cata
Gab
facile
ausi
nomin
dottri
Confer
##fu
Digi
##thur
DC
dirige
##kov
##ssimità
Disney
giocò
##minare
Bamb
Society
zu
cogn
potenti
tranne
prossimità
rien
##gone
equilib
marchese
Gas
imprese
casalin
classificazione
##bis
##sor
tensione
##cky
curva
ghi
indietro
##tler
soldi
respin
commissario
consigli
apparizione
vigore
descrizione
compresi
completato
86
Dun
tanti
legale
api
cento
##pus
Ugo
Marie
1900
98
professionista
Cli
##imento
imbar
Gali
##har
##pon
esperienze
Atti
Cami
facoltà
Paris
annuale
finisce
abbandona
attua
flusso
tennis
suona
praticamente
Maurizio
velivolo
classici
Fondazione
##rd
venire
realizzò
messaggio
totalmente
coppie
occ
tavola
iniziata
Ry
##dovico
##vamento
Basilica
Comics
locomo
sotter
affidato
Costantinopoli
arro
Promo
dovevano
##leste
##tente
intrap
guidata
mitra
recupero
perdere
prevista
limiti
discorso
impatto
89
cambiamento
incendio
Compagnia
##daf
adulti
Micro
morire
calcistica
notevoli
fronti
mettendo
osservazione
##gri
scoppio
##inché
##pide
decorazione
procura
orbita
Williams
Alessandria
##gom
Media
sportiva
indipendenti
allu
giudizio
##tté
##bone
raffor
stabilì
##ttivi
Cru
Laura
##ssionato
gala
foreste
pasto
orientali
##orn
spese
tentativi
Master
Bad
##ellate
##ology
##licità
informazione
ader
campioni
Lis
Jones
dell
Regina
##ders
White
fallimento
bambina
vissuto
ira
##chester
Fried
trattava
relativo
South
mana
strin
raffigurante
britannici
conclusione
pesce
feudo
decidono
##tish
Ferrara
Bob
##ficano
orizzon
perdite
ridurre
online
Agostino
cucina
Coun
normalmente
Times
profilo
Steve
inaugurato
Profe
Gregorio
pubblicazioni
oscu
##canestro
##ttps
proposto
spagnoli
bul
##gob
UN
##dosso
muta
##ministra
studiato
atleti
legate
Militare
industriali
sufficiente
voluto
##edono
entità
debole
##sey
##gnazione
Num
History
pena
entrato
riven
Nar
stabilito
Vati
critici
##viamo
corse
##MA
Song
Dante
conquistato
elettronica
##ziani
Tony
talen
magnitudine
##ings
impon
soddisfa
lanci
musul
chitarrista
##cena
omosessu
##zar
Edoardo
pubbliche
##stri
##sato
spaziale
##heim
Rin
##ssile
atmosfera
Mani
##cti
grigio
Mantova
lettura
approfon
##reggio
ridotta
giocando
divinità
Pet
scoprire
Colu
Enter
##arch
##lettanti
austriaco
##lei
##mu
risco
Gianni
editrice
Hal
efficace
Marino
facente
scambio
petro
##mph
Sede
##els
##worth
Quindi
affian
mattina
spettacoli
##ors
##lamo
priva
##cene
##andola
##ão
##dicesimo
Sacro
Elisabetta
Association
##ns
fur
Evan
sorte
tabella
esame
veste
assumere
##PA
convocato
progettazione
##bona
fermata
Ford
Tutte
potrebbero
cambiamenti
mia
medesimo
radiof
disputata
110
suppor
##IC
##alia
Big
##tività
rango
fondamentali
Sur
from
Trento
minuto
Diego
ped
##zionati
strettamente
fiumi
cover
centina
lavorazione
rendendo
93
##rosa
Gard
mes
esilio
coppa
Steph
##usalemme
83
disper
franco
zampe
lavoratori
net
##liche
Zel
Duca
Gerusalemme
Romania
ebraica
deputati
Comun
recuperare
espul
Island
costituiscono
Banca
uccide
##ath
$
##landia
diretti
Book
santa
eliminazione
affida
José
autonoma
migliaia
cause
esemplare
permise
adia
preli
Mara
classificate
##FC
##rida
Norve
Centrale
Aus
pis
Dipartimento
conquistare
Life
uova
ingegnere
conservazione
finire
live
esplos
umanità
costruiti
It
vedi
dovrà
##grazione
Sel
##ccani
##yd
Fabri
Raven
Danimarca
##ssor
##zare
rimasero
impegnato
affinché
pone
##talità
domanda
manifestazioni
rimanendo
British
canadese
cada
coali
##fal
arresto
galleria
aristo
ordinato
fascista
inta
diventò
repubblica
organizzazioni
Saler
incorpo
##nes
Fron
##tilità
Championshi
Cultura
sostanze
##TV
chiuse
##fice
Camb
Reggimento
##pt
##ciuta
fenomeni
Fir
##anche
poste
##cea
schema
Giulia
soffi
prototipo
##clip
Live
milanese
definisce
##forman
sorpresa
prendendo
spettatori
##minale
ritirò
##ggiò
trama
##esie
##due
affronta
tracciato
fiducia
978
rasse
##ccata
sostenere
Sia
cosci
nozze
1860
sviluppare
##hel
capelli
##fficienza
frase
##vezza
Segre
salvo
segni
seria
difenso
cilind
prepara
##schi
abbandono
dibatti
settimo
Clo
##gus
##genito
femminili
Conserva
##orum
Ind
Garibal
individuale
rappresentare
sottos
incentra
mantenendo
##rae
calciatore
Prin
##ombi
##ggero
cane
sommer
portoghese
##ror
##tismo
##iller
tornei
Umberto
##dda
refer
tornato
considerazione
trasferir
sinto
vecchi
malattie
sacra
risalgono
spada
triang
Ave
Wood
##glioni
sacche
Elena
aboli
abita
Eugen
ideale
##dafrica
Sass
alber
##colazione
paura
capire
cugino
sostenuto
##bon
tif
svaria
avia
ruote
devo
attravers
uffici
Oxford
148
crona
circolare
##tui
adottato
Net
percen
divor
coopera
##mmet
Bay
effettuato
##zzetta
nostro
##parto
##right
Poiché
##trop
##oniche
attribuito
persi
immi
riforni
Carta
professione
Sanremo
##ois
##dazione
concre
debutta
Norvegia
tonn
##mobile
occupato
##voluzione
##erire
approccio
Sky
barba
ovvia
formano
Aldo
##peri
Peru
Verso
Canale
chiude
esistenti
Cagliari
##ttenti
dimissioni
Trib
oma
fornisce
sostituire
coraggio
##ziò
Hans
grafica
ob
voler
vapore
nottu
Offi
femmina
Atene
stima
obbliga
genti
istru
battendo
imper
Signore
panchina
##cula
##verà
Time
richieste
Imperatore
Costituzione
##ppare
##ciando
residenti
Insieme
candida
##ffre
##volu
momenti
centinaia
lenta
1905
sviluppata
cere
raggi
145
##troni
divise
Gae
sottra
sostanza
nucleare
##gian
##biltà
prolun
deva
determinato
##disse
confronto
slalom
##roso
##lismo
saggio
cercò
raccolte
assistenza
rito
##tipi
retrocessione
Alice
cavalleria
esistente
1906
Stazione
##eranno
eseguire
##unica
professionale
ATP
accedere
frequenti
interva
cari
##endario
veicolo
grosso
allievo
risolvere
parlamentare
Ye
##gliata
costruite
##ualmente
Editore
1907
Nin
ricordato
esseri
##duca
Jour
##ellini
seguita
popoli
##mazione
pesci
esponenti
Team
‘
##cks
sogno
insetti
sottospecie
ampie
Thea
schiera
700
montagne
##day
contrapp
divennero
letteralmente
giornate
decorazioni
Spar
Ear
boschi
ospiti
##SS
rimangono
Inizia
Guardia
migliorare
Classi
Boe
alfa
##ctures
piede
Teresa
##MI
monaci
##foro
##tarie
star
strati
SA
rimpia
richiesto
accompagnato
##tm
Zi
##ssori
ricevere
Bia
visibili
##ming
obiettivi
##ranto
##ches
Esistono
civiltà
infortunio
abate
compone
lire
mori
ritenuto
musicista
pagamento
ospitare
operativo
controllare
desidera
perdendo
addestramento
Medioevo
144
invernali
torn
ritratto
cattolico
alternativa
Jackson
##misti
proteggere
presidenza
perfe
avrà
##leo
privo
arru
quaranta
##sket
vasto
quattor
mercanti
##lane
Rena
##plo
sconfitte
abbond
Garibaldi
riscontra
##tsu
CA
Commi
retti
studiò
Turchia
Long
settiman
##fare
##port
eseguita
Proprio
cinematografico
Ame
facili
##itore
ricoperto
Jacqu
ripe
ligne
adattamento
citata
segnato
with
socio
Billboard
visse
##beth
segnando
##torpediniere
und
appren
creando
UR
neri
mangia
##formance
ordinò
piemonte
bersa
lomb
separa
undici
Day
Bartol
suddiviso
##mita
decre
Penn
Pavia
guardi
recentemente
diffuse
presentò
##torica
ricordo
Lor
Essi
motiva
Reale
stag
podio
ripri
inquad
fr
scorta
Quar
costitui
comitato
##ssol
Pubb
celebri
##hl
eroe
luci
Archivio
Series
ritrovati
##rangia
States
persino
profondo
##tho
##mena
cup
Medici
utenti
razz
pittori
televisive
mantenne
effettivamente
medie
scorre
esterni
ricordano
##zine
gravemente
teorie
ges
##istiche
status
##anne
scritte
94
vetro
Gabri
Fox
Robin
bellezza
ungher
##erte
respi
archivio
stabile
##mino
speranza
##ssen
Furono
settori
##istan
musiche
illumina
##OR
scuro
gla
aran
fatte
Olimpiadi
Harry
rifiutò
##nese
Pis
qualunque
conser
Karl
manga
Organi
##geva
singola
vendite
Vicenza
##piano
Carlos
hard
Group
##ttorato
Contin
incaricato
associazioni
sicuramente
orbi
condotti
affresco
##gola
discussione
tipicamente
##wo
Scar
Texas
##én
esordito
##ggiano
peggio
..
...
Night
Picc
sostituita
porzione
##sie
##ssano
##biti
consen
nostra
destinata
##ju
motoci
eretta
potenziale
ognuno
situazioni
temperature
##ggono
familiari
East
Holly
##zoni
denuncia
Hea
figlie
##vier
Arthur
popolarità
##ditori
##cons
ballo
##shire
##ettando
spirituale
##ttuto
applicazioni
##IM
permettendo
##ques
liberazione
norme
Fior
rotta
vini
##parte
risca
stradale
accompagna
Card
##inte
Natura
aggiudica
raggruppa
Wes
##fio
suonare
PC
Arn
altitudine
##rami
licen
franchi
fila
Ludovico
economici
opinione
partendo
##ffra
##namento
Anni
Maestro
combusti
Blue
dotati
accettare
eliminato
vincitori
out
binari
nonno
produzioni
Top
##rison
Edizioni
testimonianze
##ridge
radici
ascen
distrutta
tecnici
##entini
signora
defin
##sale
vetta
infini
vicinanze
fondatori
##ggiamenti
reggimento
##resciallo
Nick
##gma
##enni
posteriori
erba
onde
Hanno
gener
istituita
là
##thi
Bambino
##ziana
Jim
precisamente
odierna
##lé
Fan
Sociali
architett
##lizia
##trono
Fiat
condivi
Pacifico
Virginia
Gala
associato
produttori
varianti
ampiamente
differente
Orchestra
##cei
gusto
medaglie
##uiti
irlandese
rispar
rinasci
##cchino
##cione
scegliere
limitato
probabilità
jazz
Gaetano
pelleg
supple
garantire
afflu
aggiunto
gal
Sacra
scavi
##ning
catturato
corrisponde
iniziano
##ssari
manuten
portati
Doug
Assemblea
assicura
##La
cognome
sezioni
paziente
Pru
Phil
cambiato
Ancora
preghi
##geria
Arci
ferma
tipici
Jacques
dipendenti
Sus
sesta
ricom
insigni
affermato
##tton
##ccini
espl
debuttato
127
asc
seg
Lucio
pianura
laterale
tonnellate
Sing
Law
##collo
pseud
##ggiando
equilibrio
videoclip
indossa
destino
Aragona
collaborato
Gonza
pin
News
Monda
includono
occupata
Mira
dubbio
##pet
GP
toponimo
##pis
dover
permettono
abside
scultura
##trà
puntate
##rana
##drome
Fol
Gor
stim
##manti
Simone
chio
Pictures
arca
tentò
giunto
Christian
raramente
eso
zero
Lew
Ander
dispositivo
crimina
Dizionario
##dom
rega
sente
dettagli
distruggere
superato
cattolici
##ensa
bon
##stare
giura
terminò
cavaliere
conservata
bis
##presi
esib
fuso
altera
continente
146
##litti
interc
##gliare
##ameri
allontan
Gla
tradizioni
guarda
convinto
##ole
ancor
Felice
##bino
meccanismo
##bola
Collegio
Bartolomeo
crescente
fantasci
##pola
Comunità
densità
valutazione
soluzioni
paci
chiedere
belga
##veg
##war
modera
##bour
NA
litur
##fficienti
Brian
supre
##bury
##fini
accusato
CE
giunta
Agn
manca
Colomb
Thi
biblio
##lone
##stem
pann
aggiudi
##pino
eccell
129
red
Davis
Livor
audio
Belle
eventuali
argomento
##ggiante
scol
somi
05
Bren
aggiornate
Lucia
imba
900
serve
stamp
persa
Chroni
##ben
Center
trazione
tende
##hat
Acc
compagnie
collezion
difendere
##ray
##osauri
armato
ritirar
camm
Contea
arrivato
parlamento
uccisi
salvezza
svizzero
Mr
individuo
introdotta
Bianca
giuris
petto
Como
##ogle
letteraria
pubblicate
##back
brillante
DNA
liquido
questioni
reparti
##lesco
Rose
senatore
temporale
Isole
cupola
##yne
dottor
Corporation
##mand
1848
immer
norveg
##bitat
Med
AS
##ande
##rici
Liga
centra
mito
ricchi
Bernardo
promuovere
##letta
trovavano
##mir
Epi
dedicar
##goni
Soli
Abba
##bs
consumo
rall
reperti
distingue
coalizione
ari
##stone
matura
sicuro
Plan
scarsa
##mpica
silen
finestra
sessione
##bach
##critti
avventure
Ulti
Fanta
crede
Christo
avversari
##24
Ovest
soccorso
##cum
Rocco
annata
Acade
vedova
105
Fle
versante
Adi
qualcuno
conobbe
##formi
Mia
##ziata
Gene
litri
Dr
inclusa
Reno
lanciato
Bet
pagare
##pti
ana
convoca
Game
tranqu
polizio
proprietari
sentenza
143
Len
liceo
Johnson
saga
inchi
Albert
##gnar
Rossa
aristocra
autostra
bran
pilas
tagli
Wolf
BBC
ingaggiato
Testa
permanente
arrivano
##vori
Monu
Livorno
Nan
ossa
accredi
classificato
Mada
pareggio
##guardia
intanto
Data
dimentica
ava
04
##venzione
##liga
rimasti
135
##fisso
##revia
tutela
##ral
Avi
accel
accura
##onder
arricchi
fattore
nobiltà
##cta
##ggiate
##zzarono
##stina
Adam
Bron
eredità
##pha
uccider
##ganda
##cion
tutt
roccia
Meta
paio
Alexander
##bare
poesie
More
costel
nascosto
##dero
botani
rivelato
##bby
##eschi
1904
turi
riparti
Institute
discesa
Paper
farmaci
Marti
riorgani
trasferita
opportunità
##vana
128
André
tropi
Hun
Libro
##iano
onori
nem
##letto
dece
sintesi
rivale
Wei
cifra
configurazione
##ingere
Unità
recensioni
Milan
specifiche
definire
61
Will
Vittoria
ende
Vecchio
Aga
preoccupa
##beri
abbiano
Luciano
frutti
metallo
##gliamento
pietre
##lò
Giuliano
scanda
nostri
conseguenze
##ttante
Zu
Henri
Musso
assassina
usate
Ves
strato
Econ
compiere
presero
##evano
arabo
##tusia
adegua
##ín
Kra
Challenger
Hein
Eric
necessari
tessuto
specialità
Regio
aumenta
esigenze
bassi
fle
Aero
Scienze
docente
abitazione
##dan
aspi
frammenti
andando
essenzialmente
09
##ssista
inaugurata
Gabrie
provviso
disastro
##dea
bolla
##andra
##cciano
esplora
cambiò
sembrano
Hei
abbrevia
modificato
tradotto
Marvel
manutenzione
causato
ferroviario
osser
##bine
rifa
07
armati
François
Tok
braccia
Galleria
conge
Spri
recò
profondamente
##erio
consuma
consecutive
elico
Ira
suffra
ES
curi
fotografia
inviò
ripreso
##LA
minima
impossibile
distre
2020
velivoli
06
##ylor
Zelanda
htm
##della
scudetto
separazione
vescovile
##guendo
Tras
Eliza
cranio
teologia
precisione
accaduto
decisero
positivo
corti
farmaco
##estia
Bun
##ister
##zzazioni
conosciuti
Tun
Sche
britanniche
ottenuti
##gliendo
normali
milita
##rdo
1861
Nacque
Rus
gom
paesaggio
Boston
iniziare
svolgere
##trus
##ometro
geomet
habitat
prodotte
cavalieri
colleghi
##mont
medici
sviluppò
dida
indagine
tribunale
Conci
raccogliere
apparentemente
##cuo
##rna
##ficati
comunista
familiare
##less
Renato
entusia
mostrato
##ON
##ppola
occupò
catalogo
##mens
##utili
##etz
assalto
Girl
Roger
Young
pistola
urbano
ottavo
Aquila
stabilire
tv
##marono
##zionalità
Statistiche
##dows
Adria
Visconti
Mura
continuo
Vietna
##ssiona
ricop
115
##tutto
##uf
08
Internet
Band
carrozz
conclusa
programmazione
Kir
Grea
assegnata
impera
disputò
riprodu
stretta
prosegue
ritratti
DI
creò
##tenente
sormon
ospitato
Tito
psico
moneta
Lady
Clemente
FA
Contro
Sum
Ambro
##her
Abru
Romagna
anziché
calore
incora
spara
cinesi
modella
private
Set
##tudini
favori
##tea
##pensa
contribuito
villaggi
##dur
##ving
Perugia
descritta
##centesco
supersti
##erve
segnò
duo
reclu
fedele
rivelò
attaccare
universale
benché
detti
HD
vite
Hitler
##spru
tasso
Regia
stavano
impedire
barone
turisti
apparato
mostrano
appartamento
##pren
assegnati
rotazione
approfi
Settecento
vendica
registrare
determinare
costretta
Luci
Otta
soppresso
Reich
margine
Comple
##ddi
mille
freddo
*
##zina
rigore
##versario
capitali
consegna
esplosione
roves
offi
Sudafrica
Space
inser
inclusi
possano
accoppia
concluso
calendario
Duomo
virus
##pin
Agen
##uela
rocce
amichevole
somministra
##iner
rossi
accordi
##letti
imprig
Vietnam
Ness
Stori
dimos
reparto
##ness
Roman
Volley
cannone
compiti
predece
meteorolo
letterario
##pace
scambia
##tì
deserto
sorelle
à
potrà
semifinali
##belle
##centesca
##rine
Ash
vertici
Aff
Tech
requisi
##stanti
isla
stabilimento
esplici
chiamate
1870
State
1902
Lie
feriti
dottrina
diresse
##ña
collana
considerare
##ttedrale
Publi
larghezza
cie
uccello
concesso
Gusta
lezioni
##lite
##tabile
Verdi
rugby
##torni
neuro
vuoto
render
##ccati
##denziale
ritornò
turismo
##petto
opposto
campana
Democratico
attribu
Piacenza
##tral
Mauro
##osizioni
##sini
partecipando
Rosso
organizzare
Tr
manti
Novara
dispositivi
Nero
delimi
risve
sponsor
clo
segreti
portiere
##ombra
Imperia
possedeva
comprese
gialla
monumentale
##quis
##tonia
##minato
quindici
territoriale
cristalli
Barbara
criminale
ripren
boss
Cantone
celeste
performance
monti
impul
viaggiatori
##vise
valuta
impiegati
##kins
ciascun
Ball
enzi
utente
Olimpiade
telaio
Girolamo
incarichi
concessione
##thy
battuta
##ombe
compiuto
##lor
03
sonda
curato
nazista
contadini
stip
SP
##lani
##lyn
##cipio
navigazione
regolarmente
##eve
negozio
bisogna
congiun
Popolare
##uria
Pho
galle
Carolina
divisioni
composizioni
elettrico
##set
difensi
terminata
##dé
percentuale
peral
Gine
cattedra
innal
pomeri
contatti
risoluzione
conquistò
frequentato
funzionamento
collocato
sciogli
soldato
riportata
##ding
israe
Fabio
Salerno
Ceci
battaglie
peraltro
Friedrich
abitati
versa
Comuni
novità
##talia
chiaramente
Wol
nemmeno
felice
costretti
##EN
rottura
##ricato
##allone
##dicesima
medesima
eliminare
##ET
02
Laur
Ore
affaccia
Juven
##velli
dette
arrangia
ritirata
##hard
Ever
Vill
giudizia
##andro
Produ
Leopol
1500
volle
Friuli
coscienza
Camer
costruzioni
##urch
volere
Aure
doppi
esclu
PD
Dona
mill
Mussolini
ebraico
niente
##BS
susci
sentimenti
##zona
109
riferimenti
esattamente
romane
matrice
Taylor
avvento
orolo
gestire
fres
valu
cala
incur
organismo
russi
trofeo
pecu
Padre
dipende
##sprudenza
Trattato
##Il
Video
bensì
dorsale
classifiche
decisamente
##ttero
teso
Essendo
Movimento
predi
Sen
bus
incontrò
Cambridge
omo
##omenta
simula
Gioca
##uss
Wo
trattati
anniversario
flui
appartenenza
trage
cortile
Ono
##estra
spinta
presentazione
verti
Pino
dimostrare
Mino
##yle
signori
Cho
bigli
##volto
suon
mappa
decorato
##gonale
anteriori
umane
interme
Vaticano
germani
artificiale
discendenti
esordisce
##vania
Anne
##aux
##FL
Molte
ruota
binario
greci
Contempo
##ulto
Stone
Univers
destinati
Dom
scrittori
##borò
ple
chiesto
attribuita
cade
vendetta
##deria
episcopale
##gos
##chine
capoli
Hollywood
Sla
bruno
sperimentale
##stato
Lewis
##ccom
01
morf
AN
##llen
Hot
permanenza
Rapp
Alan
approvazione
##gazine
Marcello
##ficate
consultato
riconosciuta
##lago
chiara
##mul
agrico
comparsa
buoni
Isabella
##faccia
esperimenti
auten
119
cariche
ka
evan
sfuggi
tavole
dichiarazione
annunciò
##vetta
giardini
scozzese
##omor
##teno
Good
##erebbe
Marin
##ziati
precisa
Francesca
Marsi
Navy
Mondadori
wa
Mag
##zionare
##ès
lavorando
1903
##erare
Filipp
117
Pana
apostolico
Sfor
magia
##lation
venga
proseguire
finì
omaggio
vigi
silenzio
trasformato
##uer
##nici
Eugenio
Giovanna
81
##mpere
##ssata
consor
rovina
uguale
entrando
##giò
bir
##dinanza
nominò
bianche
vegetazione
montu
tombe
capisce
anfi
Gabriele
abitazioni
animazione
##RI
##onimi
alfabe
troviamo
interessato
conferenza
##tetto
fedel
atteggiamento
intensità
aprire
ottimo
passaggi
dea
infras
sostanzialmente
arra
Steven
##dinali
##viano
moni
Pesca
cadde
ammiraglio
Aven
ente
Sportiva
##dad
Ham
rettangolare
raccolti
assiste
esperti
Sassonia
taglio
##pes
##lins
ideali
##view
Este
persegui
118
patto
##mentata
vicine
Franz
scelte
sovrapp
ovviamente
Lucca
oratorio
##rei
aprì
droga
Journal
tecnologie
insediamenti
##zato
manuale
Port
Alba
variazioni
tendenza
Puglia
aviazione
##istito
##med
71
penet
ascesa
sul
frazioni
diparti
approssima
##ficia
divenuta
##zon
Malta
dicio
professionisti
Im
conservati
Cile
Sopra
repertorio
##ziare
1901
colonie
Comunista
##dol
federazione
##LI
his
Emilio
##ün
Tec
Ginevra
terminato
##stino
ortodo
registrazioni
##riglia
Legge
austriaca
Rivoluzione
incomin
atterra
teatrali
##ssando
affonda
134
abbiamo
iniziali
Giord
Inc
##parti
proposte
##bes
Victor
partì
##tainment
Columbia
126
##ube
##dium
dici
##http
##wen
##ssar
veloci
propose
atletica
##denziali
milione
Amm
Ach
dri
##yoff
Serra
Golden
##ange
##pare
##steri
agenzia
costumi
Wilson
vincitrice
132
Unite
pose
Cinema
amministratore
##arni
costellazione
##inio
139
Mori
allievi
moderne
interessante
##verse
proietti
divide
dedicati
bro
Trans
incontrano
salto
##entando
verte
certamente
terapia
coniu
futura
collegato
Yu
ligu
Niccol
errori
##pher
affermò
##DA
scaten
##sima
Tai
##SI
mezza
Ufficio
##pta
magazz
trovar
risalire
appositamente
Las
##amento
##gil
##udale
concentrazione
Ath
##cché
bit
fos
durò
scudo
passati
appaiono
consenso
ritornare
##ttanto
indice
riuscire
ministero
https
ducato
vedono
sacro
settimanale
##omer
##ets
##citi
##ennis
Treviso
prostitu
##presidente
Inno
risalenti
Apollo
cadere
133
comprendere
conflu
affermando
##lix
Sk
los
##ventù
##enos
##ssette
scende
roccio
cha
Magno
##zzini
accettò
partner
declino
Volume
cappelle
Show
antichità
eventuale
salita
Niccolò
imple
Florida
##zen
##guay
racchi
geni
cassa
dottore
Allen
Confed
Daniele
trasmissioni
imi
osservare
137
marti
proie
realizzando
Anth
areale
Juventus
deposito
Hamil
Adriano
americane
Stampa
azzurro
pubblicare
agon
calib
effettuata
riprendere
rischi
vor
##ssica
Road
Elizabeth
aggiunge
domesti
inclina
138
banche
Brigata
Lion
mammi
pallavolo
socialista
Chiara
prigioniero
122
##dney
Moto
derivato
ambasciatore
##giorno
anato
annul
##andre
Apri
##pto
missili
Tokyo
##ig
caro
partecipano
formati
monumenti
Oh
106
##pati
combattimenti
##ttari
ottenuta
##pita
##spor
ecclesiastica
##iness
Aposto
rinnova
##loni
raccom
fidanzata
##bos
##formazione
finito
dibattito
##vey
cervello
completata
gel
manifes
sintomi
##pan
acu
##onali
operare
sottoposto
Little
videogiochi
Sofia
astrona
Nel
##binieri
##dent
Cann
Galli
trasferta
verticale
seminario
Union
pesi
talento
legami
By
bombardamento
##bla
Scala
Deci
##vanza
cospi
valida
##hip
##enny
##grati
salvar
##mpati
angeli
settima
adozione
risultano
sh
attivi
##venire
equivalente
107
vent
firmò
Meri
##erdì
Vla
Ero
Stadio
indicata
alimentazione
Superco
Ecce
conve
XXI
colpa
##tle
altern
Bella
Mé
##camp
Davide
strategia
##pani
asso
positiva
convincere
Boni
offensiva
combinazione
pallacanestro
giudica
##pal
Galles
carbonio
Aeronautica
facevano
bosco
metter
parziale
scopri
appunta
operato
filosofo
##esel
separati
Universal
##rossa
sponta
Guardi
Debu
sforzi
calcolo
mantiene
##row
abbandonata
##ally
##tratto
emana
rilasciato
##rosi
1898
tipologia
Kh
tene
malva
sottile
##craina
##istici
142
leggero
##landesi
91
Lettera
Elec
fornito
considerate
GT
Ret
raffred
##rca
##vvero
1866
1890
Partecip
espresso
Domini
conna
automatica
Hamilton
particelle
##istema
AC
AM
Mana
ambientato
Può
##ficenza
Ancona
mobile
serp
geografica
##EC
##olata
Free
##ucci
maritti
123
miniserie
##diano
svolte
completare
intre
accuse
Cappella
spiaggia
Nicol
antrop
costituzionale
##chus
##guono
maestri
##rough
cittadinanza
ribatte
immobili
discre
##ceri
Vare
avessero
conquistando
Rima
Google
##ghesi
Carra
Stella
passata
inchiesta
poveri
riconosce
##ssibili
manager
autonomo
energe
archeologici
Magn
Deuts
tranvia
pressoché
difen
anziano
ossigeno
Qual
mitologia
codi
##ppure
Episo
emittente
##ssie
ombra
Entertainment
danese
ottima
##bali
Gord
##ceani
##ladel
conia
logo
##gol
formalmente
112
Esord
##inamento
##dalena
vampi
##lito
Jona
formale
riconoscere
Enci
Sua
accer
massiccio
traguardo
carre
presentava
##zy
accolto
clienti
##graph
Broad
baller
defunto
Brun
canna
commerci
Cattedrale
parrocchie
assemblea
regolamento
continentale
##pata
pronto
colorazione
ricchezza
Juni
sculture
comprendente
Imma
##ellino
indicano
giurisdizione
Desi
Bruce
pratiche
difese
luna
postu
##ssone
Arts
suddivisa
esperto
continuità
##mea
aiutar
##cee
##book
Catto
esteso
moltep
personalmente
##ori
basse
sorve
barocco
Dragon
navate
##bai
funera
pseudonimo
AR
rame
Spesso
sostenitori
##mmo
Molto
penale
Ei
caldo
risiede
volontari
impar
contribuì
integ
Finlandia
##smi
Bibbia
##xelles
corrispondenti
##wick
Mir
colpevole
converti
Charlie
Maj
intensi
collocata
utilizzano
##ternita
cristiano
##rop
approvato
Origina
cominciarono
##landesti
cresciuto
scoprono
ST
proteine
porre
Ah
presentare
playoff
Historia
sorgente
guidati
tessuti
114
alimentare
##low
136
significativo
##pite
calda
Ay
##iler
##bru
coperto
##chin
##gena
Nik
presumi
##tese
mitraglia
cella
Mora
##ongono
maschili
interpretata
##ettata
candidati
Fos
ultra
libre
BM
Eva
Corrado
autobio
scontra
preliminare
Dark
Apple
sovietica
##soft
contribui
##DS
ricorso
contemporanei
medica
Stephen
venduti
visuali
Home
##zel
concorrenti
##cherà
clan
becco
ville
Taranto
##ctions
Catalo
panorama
Edu
sant
##rarono
prospettiva
primato
##mbri
incu
Ravenna
Bruxelles
concezione
dorso
Oceano
seppur
Colonia
cemento
##dibile
Pasqu
tol
1859
cardia
scen
Windows
##eral
bur
124
acquisizione
Dif
Meda
avvio
prendono
##tele
age
##matici
Up
##errato
compagna
Romeo
sabato
variabili
Ans
Ner
ritmo
##racusa
acus
stare
##vard
mattino
Monza
estesa
##urrezione
##plica
##riana
Francis
consapevole
nerv
spettro
trovando
chies
##tenne
died
##kan
Oss
unisce
ricogni
sovietico
consentire
102
latte
satellite
##duci
squali
##sei
testata
diventano
##bica
Power
congregazione
1895
commission
ungherese
musical
favorevole
ottimi
Siracusa
portar
aer
sconfiggere
Stor
Europeo
##minata
##inta
##graphi
retta
bilancio
##ccano
difensore
Strada
##IL
locomotive
rendono
##garo
Mina
aventi
apparve
condurre
batterista
Championship
Georgia
orecchie
esecutivo
##kar
necessarie
espressa
unì
gestito
River
ottava
Douglas
arrivarono
Pedro
dimostrò
carrozzeria
zucch
Ker
1880
marchi
manovra
quartieri
iniziative
Fis
##ciati
Type
afro
##ugoslavia
considere
equazione
Annun
Best
scioglimento
##star
svin
Tornato
collaborare
##fore
##ream
bomba
bizantino
dominante
##fonia
Beat
box
acci
Forza
digni
Asburgo
fumetto
European
pred
evidenza
##disce
##feld
negozi
scienziati
##fere
complessiva
perfettamente
specifici
influenzato
responsabili
Ami
appassion
raggiunta
cani
ministri
113
Gun
cuo
conoscenze
impron
Fabrizio
ful
intensa
mantenuto
identificato
Enzo
Piano
##ominale
altrimenti
108
Arma
Out
1896
neve
Aires
amo
##dari
longi
clandesti
dipendente
tredici
orientamento
##now
capitoli
##ttività
##diso
Mali
Cristina
scopi
##zò
composte
amministrativo
implica
##fasci
esito
Wer
##tarono
Campania
Rou
##viglia
valido
incontrare
Occidente
rappresentanza
##trio
Kan
##pelago
##uit
Academy
Buenos
liste
sindrome
abbandonò
Russ
sfera
rinchi
##gane
Hard
esprime
discendente
incremento
##etu
103
116
rifiuto
##vil
1889
idra
criteri
concesse
preghiera
mosse
associata
parallelo
##vì
coperta
Alfred
calibro
conversione
Dor
baro
scoprì
parenti
##guin
##erei
Moder
Berna
presbiterio
grotte
##tide
NBA
criminali
##trico
Manu
Church
correnti
assassino
Amster
scoperte
caratterizza
##cesimo
##cuzione
pavimento
ambientali
brev
globale
accettato
pitto
saggi
possedimenti
##utamente
esposto
convince
televisivi
Old
contenere
redazione
eretto
conseguito
Theatre
##risce
segnali
negativo
interprete
##cipro
alleato
molta
pilastri
concilio
approvata
##Ma
Boy
Corona
##ssati
mera
imponente
credere
svolgono
Atlantico
Tempio
cercano
liti
##mista
Emma
sugger
apparteneva
riproduzione
Metropoli
logica
up
rivolto
Patrick
Studios
chiedendo
Sebastiano
inglo
##bl
##liera
appello
uniforme
circolazione
##lanti
vocale
perduto
##neamente
##sica
collegata
eri
farà
fermare
frequentare
segua
Prix
##pina
riempi
##tenti
Gonzaga
archeologico
##tola
procedura
apice
subisce
presumibilmente
##ind
##trum
Terri
ritrovato
Lyn
invernale
Vesco
misce
Abra
Luis
eson
##hy
progettata
distante
armamento
IN
vocali
avvenimenti
Thom
##fic
Miller
competenza
dicia
distretti
color
parentesi
##ullo
##ettori
104
Abb
dotate
scelse
##vini
iner
anziani
##meo
350
mostre
Abruzzo
##ssive
estremo
reazioni
bici
eseguiti
decine
Prussia
##cciato
epide
seguono
vendere
Kong
Laure
tentato
Promozione
##gnola
recipro
grandezza
improvvisamente
peli
veda
Amsterdam
Enciclopedia
zi
educa
condusse
pubblicità
destinazione
##EL
stro
operai
Monta
suddivisione
remi
Ducato
##minazione
cliente
scal
indire
rileva
##ssibilità
lis
integrale
##ziamento
##tos
##stle
sommità
padrone
frequentemente
##down
##inese
complessa
rad
rapper
##rondisse
davvero
##FI
##cciare
Contra
##gnolo
trasformata
armoni
Creta
##famiglia
##ttuta
1899
abbra
##podi
First
tipiche
cominciato
sorti
capola
##mero
lineare
##chessa
Infer
austriaci
panni
##rondissement
LP
Cher
Alfredo
##vella
sedici
piemontese
pomeriggio
Muni
Aosta
consistente
1897
Arena
raccolto
##teranno
Disco
scompa
Male
assorbi
centimetri
AP
Pisto
##istoire
difficili
rimb
Conti
grotta
protesta
##giata
Europei
##ttata
Genti
segreta
acquistò
affermazione
prati
prender
fascismo
God
regolari
##wig
Ivan
raggiungono
inediti
Zan
soffer
Prog
liberare
Antar
inciso
formando
benedetti
Howard
emergenza
##ef
##ffè
Croci
##née
##oper
urbani
colline
creature
MA
sopravvissuti
seggi
piatto
##BI
suicidio
italo
austro
##uminio
##onto
asi
Alfa
vulcani
norvegese
Entrambi
apparso
acquisito
esterne
coinvolti
prees
temporaneamente
##onese
Fro
fisso
argomenti
##base
Hon
Amministra
##vona
matu
pattu
sceno
inqu
buone
Concilio
sessuali
disputate
##borg
stipula
appartengono
parteciparono
distribuita
cena
decimo
Bour
soggiorno
Dre
parlamentari
##valle
costantemente
##polo
oceani
##lao
piro
Adige
cadavere
effettuate
##prima
affas
Kell
hor
Ita
divisi
fidanzato
##hara
mosa
causando
##contin
Merce
palazzi
nudo
ambientale
##ak
datato
riscal
##cket
Canton
tradimento
velocemente
Rina
Latina
elimin
intellettuali
Cfr
FIFA
Valen
Attra
anglo
censura
1882
comprendono
Racing
ricostruita
delegato
Silver
laureò
pastorale
malgrado
frequente
gesto
basati
Campi
Congregazione
registrata
ridi
Bolzano
cammino
efficacia
iri
Batman
mostro
dialogo
sho
Antio
gestita
yo
intratten
militante
##mel
infor
idrogeno
tragedia
unicamente
confra
dimora
continuato
##cari
autobus
vertice
contengono
corro
Samuel
Ese
diedero
##tty
ricordi
scomparso
XXX
dintorni
Iraq
Luisa
vestito
Juli
Pompe
Subito
riunione
##uk
Haw
parità
collezioni
##done
##zzoli
Women
necro
##dizioni
ingegneria
##sciu
Siria
andava
marrone
organismi
Fred
Popolo
verranno
oceano
##GC
seno
maschera
revisione
rinascimentale
osci
##troppo
attraversato
esperimento
sati
Motor
risponde
sovietici
itin
Ernesto
bombe
##gorit
usano
simmet
completamento
mercati
Gazzetta
IU
vel
cali
Varese
potenze
attentato
pioggia
##zan
bestia
disposti
cilindrata
##estre
salvata
##ör
IM
1800
getta
Jugoslavia
Paola
studioso
##onora
Rosario
scarica
Croa
Fonte
dottorato
olandesi
##ssere
soffitto
imperiali
endo
tesoro
Setti
duro
cantiere
cantautore
ella
##gibili
Manchester
##rava
Billy
individua
motocicli
inasp
Augusta
IT
Gino
sposare
digitali
Golfo
espor
##ranee
unici
##tective
eliminata
##ttina
Nata
##ttoli
Supercoppa
atterraggio
processione
##cidi
Cinquecento
Regionale
accumula
complica
Spring
Marocco
scappare
pieve
costume
osservazioni
##zzina
Supre
Prato
scambi
prossimo
succedette
circostante
##ghts
riass
rapido
riuscita
vicepresidente
ammon
Concer
assemb
Victoria
##kistan
Uomo
commen
Satur
##gali
Ton
1893
##alth
Fontana
##teni
lentamente
affiancato
meridionali
gino
migra
premiato
Marsh
allen
convi
Raffaele
Sale
##posizione
Maddalena
costituire
##rian
Perù
grano
Colombia
Gori
clero
dieta
promessa
caratterizzati
cresce
Central
Reali
radar
unir
Sarah
giungere
new
palco
sacerdoti
ghiacciaio
ispirata
Chu
##osero
indiano
##br
guarni
quotidiana
robot
stabilità
Gordon
Ferrovie
Microsoft
miglioramento
fune
tournée
##into
##phia
MTV
voli
##Db
##mira
Lungo
##garia
navali
Comando
1894
Shar
##endum
magistra
suggerisce
continuarono
sempli
radicale
Dev
frances
Mah
brasiliano
##evali
batterie
sposar
effettuati
##olle
Vito
Agri
blocchi
ristorante
##vieto
frontale
onora
Croazia
depressione
teore
culture
##polis
Brin
Founda
football
cellulare
ampliamento
##inter
distinti
trasporti
##dos
##scio
Libertà
circostanze
fantascienza
##uco
Liguria
##lova
Wel
nati
ordinario
Science
##race
1892
richied
##simi
bobina
chiudere
discipline
prussi
under
##osaurus
Olimpi
internet
##zzante
collegamenti
patrio
polacco
>
eroi
1885
algorit
fabbricato
1891
##riera
recar
dioces
servita
Son
Assi
Praga
infil
##ferica
Indiana
bombardi
MI
##geo
stagionale
html
rigo
metro
norman
##tegoria
##thers
Cremona
cornice
riserve
crescere
cardinali
considerando
Eccell
individuare
ripeti
##onazione
Borbone
Legen
uccise
Socialista
Messa
Queen
clinica
Rica
rari
Anderson
estrazione
delib
##mettendo
rientrare
allevamento
Lud
Ober
liberi
tifosi
System
Fernando
sforzo
esplosi
fanci
obbligo
Iran
dedicate
misterioso
Pes
tratte
contributi
##inismo
psichia
jo
dirigente
ricercatori
##és
Stri
telesco
mostrare
soprannome
Bang
elevate
##ostini
attaccato
##uman
ves
##amente
Bianco
conoscono
Campa
Dina
impegna
veramente
interpretare
glu
CP
##onic
brigata
##psi
##light
##stata
Comunque
Hil
schele
serbato
incarica
spessore
sportive
tematiche
Forte
disputare
##ça
crollo
restano
riportare
Spirito
##ominata
##zzatore
gradualmente
yard
##trutture
incluse
divenire
##uniores
catturare
suoni
Achille
rilevante
riportati
documentazione
##cciolo
frontiera
transizione
##ssan
##reali
colli
muso
riposo
frequentò
fotografie
##pica
singole
violenta
##bata
gratu
sbarco
definiti
tenendo
##dem
##pidi
Clark
permetteva
##bbre
cantanti
eletti
##ondere
Facoltà
stesura
invitato
##zone
Bara
battaglione
creati
venisse
parametri
##ccò
1867
##ily
##lay
cfr
incrociatore
lapide
neocla
Cassa
concer
ettari
fisiche
apparire
##sburgo
teatri
ostilità
circondato
##sport
1888
edito
predis
fedeltà
##CN
ioni
cinta
1884
collegati
influenze
determinata
macchia
cosiddetti
Acqua
genovese
Magi
##ronimo
registri
conduzione
##haus
##ternità
borsa
nativi
salire
pianeti
rinvenuti
Cele
scale
ades
decidere
caratteristico
##chini
Forma
folla
imprenditore
gioi
trovarono
Foundation
integrazione
##ulli
Wilhel
##In
Vas
Conc
dovute
##EA
ginna
##pool
Mun
ingi
legali
##US
bea
decisioni
assu
bombardamenti
##dget
confina
parroco
alluminio
##gara
posa
conca
Silvio
sequel
tosc
Spezia
parlato
Oly
rurale
aeree
Renault
collaboratore
##sivo
esteri
rovine
sposata
Alleanza
baia
Base
##ago
divina
##Tube
cita
australiano
editoriale
##lah
##ción
ingre
polvere
Ins
Kim
Hong
Diocesi
realmente
abiti
nere
##gnole
Moro
protetta
circolo
##vič
LA
sparti
andarono
1871
Castro
insoli
distinte
##gamente
rintra
rientro
creatura
raccomanda
ferite
Tir
##cional
patolo
operatore
circoscrizione
iso
canonico
proven
spicca
Codice
sovrani
riservato
musi
##das
##fazione
specializzata
compati
vecchie
giornalisti
##dele
##als
tris
Cole
Dick
batti
Filippine
finanziaria
frutta
invita
Seicento
##fen
Afri
conservate
##df
crebbe
conflitti
cantata
##reau
Mercedes
uccidendo
immaginario
alter
anteprima
Asti
##unnel
partigiani
##tim
Fun
carbu
Mostra
##xa
Gale
sch
complessivo
confermata
Metal
mentale
replica
dilettanti
Fen
YouTube
##tary
devia
candidatura
preten
Vive
albergo
gay
##omico
Eccellenza
scientifiche
Dub
tronco
scendere
immediato
Segretario
propulsore
##geri
##zata
striscia
Oliver
ottica
##gha
certe
##bbie
Albania
proseguì
individuali
##mund
nono
Warner
attuazione
bonus
##Station
diminu
##anesi
cancro
##franco
lungom
universitario
decisivo
##utico
##feria
avente
##ory
pagg
bottega
scacchi
servito
Comunale
Bonaparte
Dion
spostamento
##cua
lasciar
orizzontale
##skij
tori
avvis
trovata
linguistica
tavolo
Massimi
Rese
tabell
debuttò
CI
annovera
Corne
impone
Ple
##matiche
manoscritto
compaiono
##TI
prele
penali
insignito
sospensione
Diana
separate
Tim
Colombo
Aristo
venerdì
investiga
##sky
Verde
pacche
offerto
Fami
quattordici
inaugurazione
dormi
diffusi
longob
pellicole
##ön
lontana
assumendo
ritardo
Š
acronimo
adottata
##fani
Numer
scalo
tendono
Pasquale
molteplici
strategica
ritorn
##vette
esordì
predica
legislatura
alba
rinunciare
PlayStation
1881
Pace
Andrew
comandi
disposte
##phe
social
urbana
terrestri
rimar
Basket
innamorato
##ddistin
Vengono
architettoni
##osimo
impu
tante
Arm
##brica
##ciate
##ccordo
##cis
##lotto
##tré
Lecce
adatto
parallela
nodi
avviato
vendute
scafo
giusto
Britanni
##tics
confor
ognuna
residente
poema
##fora
pane
##NU
##ATO
##press
vela
##cessione
arroton
governi
Comprende
##fis
Hand
ceramica
assassinio
Sound
tetra
sostengono
##foni
##minati
Brook
apparizioni
tenuti
##olazione
predecessore
Games
adegu
Esse
govern
veter
Ea
##toriali
laureato
contraddistin
indirizzo
previsti
Tribunale
appuntamento
##blica
Terme
ecci
sentiero
operativa
##sas
##vora
Igna
Rand
sinteti
Gand
##OC
rocca
Rodolfo
Ucraina
altresì
provare
##sil
musulmani
manda
scheda
stanze
##rist
Arc
Fire
scandalo
Madre
college
##fatto
Lamb
Light
suggesti
manoscritti
##ED
arcipelago
##pò
sabbia
cercato
emissione
pne
Rete
soppressa
ela
1863
barca
trovati
circostanti
##ttiche
massimi
ospedali
primaria
periferia
Categoria
##alti
Schi
memori
silu
estinzione
estivo
sostenne
ideato
secondaria
##tche
Hotel
registi
sconfitti
vittori
descrivere
Berlin
modificata
FC
Rugby
gatto
invito
##ctus
##lita
Shan
doti
##mara
orna
Kevin
gambe
pioni
elegante
sponsori
identificare
tira
Act
ibri
vegetali
diagnos
nomination
Mans
ottavi
##sea
March
offrire
##sus
finita
##lì
1865
unito
benzina
giudici
portava
adiacente
messe
Colonna
contessa
##zuela
1887
mammiferi
##wei
##anny
pontefice
riteneva
sottostante
Á
sfuggire
automobile
quadrati
##naro
edificata
giurisprudenza
##witz
bande
carni
scoppia
Leopoldo
riconfer
dovuti
folk
gira
icono
riforme
##sili
intelligenza
Udine
guardie
sportivi
rivendica
##kel
##roba
Vel
##cciando
andamento
1862
Cavaliere
##zionate
gravità
connessione
distinzione
##visti
##cedonia
contrastare
##doni
Plu
tortura
agire
inuti
aqui
concorrenza
##zioso
installazione
AI
##tereo
turco
visibilità
storicamente
##guo
domini
pannelli
vorrebbe
variazione
##stal
##stano
macro
Manuel
Cuba
Miami
abile
terminale
Guy
crociera
solenne
favorire
sorre
AG
Fel
canne
sensa
mosche
molecole
necessariamente
cus
1886
verdi
NFL
futuri
rivali
dirigenti
##nera
Dead
##signor
eccetto
soppressione
Beni
depor
Giustizia
##cinto
Pali
comm
minerali
congresso
Down
leva
##ership
Gr
Inde
##ettura
aiutato
Lé
liberali
scienziato
dettaglio
superando
##miano
invenzione
scato
agricola
possiamo
coltivazione
giuria
svariati
gioventù
registro
##curi
esisteva
Ebbe
sape
budd
colui
vasce
separata
referendum
Vice
##fono
vasi
##cinato
aperte
riconoscimenti
##rese
Fuo
Manfre
ref
Nasce
intesa
Toronto
colloca
chiunque
dovettero
unita
salvato
ricevendo
fontana
collaboratori
gon
patrono
fusoliera
##fun
Rea
Dato
cure
Cuore
sottoma
organico
professor
##oman
Aeroporto
rappresentati
turbo
##EG
esposti
rischia
pontificio
immin
accogli
essenziale
##psia
##quista
rosse
riprop
Italiani
vicinanza
##ik
Noti
Pelle
controllata
Donna
tabellone
1878
sostenendo
pinna
razze
tentare
riaper
restanti
biografia
impiegata
##annoni
esponente
##ev
Amb
Pos
Resta
affilia
##ments
animata
##therine
limitro
Ein
Sher
costiera
maresciallo
##lisse
misto
IL
accres
automatico
Brad
nominata
Pea
ricostruito
gola
Cross
risultò
##fino
Death
Claude
conclus
##uire
formò
riedi
Grandi
valli
##zionari
fredda
castelli
mattoni
venduta
convoglio
tener
server
tum
organizzati
voca
schier
cantare
laghi
violino
concetti
##torietà
trasporta
dono
RAI
Army
prezzi
##ells
##ssetta
leone
Caccia
Superiore
##thern
organizzò
alpino
Gabriel
Sim
##verna
falso
vario
Rappres
3000
##ccando
Pescara
Charlo
Partecipò
caduti
Anthony
percorsi
superfici
asta
Angeli
ritenuta
##NI
##dow
potessero
Vinci
ordinamento
anticipo
colpisce
sviluppati
##unciò
cellula
colpire
Pian
spalla
archivi
cronaca
depositi
##mazia
Quella
tipologie
splen
##dorf
Europea
sfruttare
Sou
nutre
rivolte
Orientale
arena
Georges
assolutamente
##coln
previste
compleanno
abili
Post
topo
horror
ammesso
diventerà
##guel
Spin
Angel
tenute
primogenito
FS
##cologia
entrati
intraprendere
visitatori
intellettuale
Sicu
intenso
richiama
##ska
101
Web
punk
Guinea
entrarono
pirami
calciatori
##rlo
##para
fianchi
instaura
scolastico
attivamente
sopravvivere
##cken
##rez
orale
saltare
eserciti
proviene
circondario
Zuri
squa
Jacopo
Trentino
innamora
liberale
sconosciuto
Lincoln
monaco
Uru
restare
seguirono
intraprese
significativa
Ak
aperti
Anto
Pietra
autrice
preciso
bassista
distinguere
Eng
##gruppo
Norma
inviati
identificazione
Bou
Pechino
efficienza
funzionari
Cop
Ian
stor
timp
piace
Rimini
fisici
esposta
fortificazioni
acquistare
consecutivi
liberamente
##bana
Note
dissi
##ggianti
occupar
##tson
##erate
Senza
spareggio
contenenti
##pido
Ghe
Lang
cano
dissol
##ac
Thor
istituti
Tel
Ram
incol
errone
nido
aeronautica
##iali
fiore
frati
Difesa
Johnny
registrati
finanziario
##entì
affetto
perduta
Memo
Crea
violento
SI
sottili
monarchia
Jr
##lore
mul
gotico
meccanico
1815
chiamare
cavità
vedeva
##fato
giunti
Spos
proli
disponibilità
coloniale
alimentari
##hou
Rice
astro
Assunta
specchio
##ingendo
costituiti
porterà
rispondere
ros
dislo
preferito
apprezzato
##vić
##inata
Amedeo
chiari
##put
viale
sorgeva
proteste
architettonico
##cordia
nonna
Nostra
vicario
esal
Ruggero
sostituendo
Mid
ribellione
##bula
articola
##än
Industri
PA
Livio
##coslova
##ologicamente
##rey
ripie
classiche
Serbia
carburante
dirigere
munizioni
##varo
distanze
interru
Elio
sguardo
ph
##mistizio
generazioni
Armen
maturità
ritrovamento
ale
Coppe
balla
altrettanto
lieve
Adriatico
Town
##gana
rob
pover
Polo
##damerica
spiegare
Mul
impegnata
turca
Ral
sentire
epo
altari
Bundes
##Le
##fort
aro
1883
Beach
tarda
giocata
##isca
inseriti
Panzer
Pesa
divul
##vecchia
strisce
Magazine
Ettore
Ufficiale
provocando
##lascio
aggra
killer
disegna
osservata
simpati
Castiglia
Ghi
antagon
lito
##gement
canoni
##sticamente
Research
sis
Ospe
costruì
Kla
##osimi
Visi
Tempo
definì
giunsero
Esiste
memorie
occorre
Cresciuto
scrittrice
continuando
##cquero
Lucas
prema
pensione
Tul
##ffredo
peste
sten
contribuendo
alla
testimone
allestimento
##tativo
##xon
Ercole
##rad
##wski
operatori
procedere
##denta
capaci
##visto
paga
orologio
suffragane
comunicazioni
##mmatica
Beatrice
iniziando
scrivendo
stabilisce
vere
Liver
##yes
nuoto
automobilistica
touch
viveva
##glo
##cenzo
Andy
uman
sceglie
psicologia
##annel
Proba
celebrare
particolar
terzi
narrazione
radiazione
##tts
Santiago
##liane
corrido
indicati
assegnazione
impulso
impegnati
tin
##zzoni
incredi
Pertanto
Conservatorio
significativi
elevati
Ferrovia
fibre
pausa
propaganda
##ustin
avvel
##vesi
Ritor
##lier
Bry
perdono
elaborazione
Fame
Tin
dir
copri
lettore
Medaglia
catturati
fren
ripu
##box
nidi
##gla
Raimondo
procedimento
##disi
##grammi
famose
videro
sorgenti
alline
prossima
Dario
riferito
applicata
dominazione
##ddy
Az
Gallo
Ricer
aggiunse
Vincent
##zzatori
##viale
Audi
codici
radice
odio
costrinse
intervallo
##PS
inevi
Philip
Direttore
Lusse
descrisse
trascorse
Squadriglia
scientifici
ritirato
##head
Operazione
recitazione
Squ
nau
comportamenti
Album
indiani
allenamento
fasce
##ject
Petro
Angela
datata
inviare
liberar
esibizione
rispettivi
firmata
discografico
Divenne
vivevano
rimuo
aggiunte
##rol
comunali
sconfisse
modificare
Pl
esauri
leggeri
ridotte
riguardante
comunisti
ricostruire
selezionato
Kei
coer
cedere
sonorità
##diche
Abbazia
volante
consentito
raro
cittadine
testamento
##ssio
guidò
Sydney
accede
Simp
lava
Commer
industrie
istruzioni
##polino
Morgan
Ottone
astero
Bianchi
bolo
Intro
apostolica
trasportare
##TC
##oney
promossa
##iora
contenuta
##losa
usi
derivati
conduttore
fucile
omicidi
Lussemburgo
Bil
ze
1876
Venezuela
##riva
cam
teste
##ix
##niche
hotel
grossa
reliquie
Scor
altamente
##teche
mossa
##mura
imbarca
impression
Olanda
citati
##graphy
abito
australe
installato
produsse
##Ar
Chap
catene
Margare
rassegna
fondare
##hol
Nintendo
Fl
superstiti
Prince
sponda
Indo
fiamme
montato
##ordan
Jimmy
Premier
corretta
quartier
collaborò
1850
recitato
Iron
escur
suggeri
patriarca
architetti
##reria
invisi
consisteva
##tine
##craft
Marc
etrus
modulo
carbone
battezzati
corta
disputando
privilegi
trascorso
1814
adulto
Lettere
Sforza
notorietà
##erici
Etio
grani
diagnosi
associati
funzionalità
causata
corruzione
interpreti
collocazione
rota
regni
rilascio
##filo
Histori
Cattolica
promosse
cresta
Signora
colpita
crimine
servire
assistere
Cari
Marte
bagno
##dei
##elop
assente
sopravvivenza
Kle
##mouth
carto
scuderia
##rola
grigia
protestante
##range
elettrici
##eder
catali
uccisione
##trica
decorata
lavorava
svizzera
Cavalieri
nazionalità
causò
notato
materie
Michelangelo
##tropi
catal
turchi
trasmessi
supplementari
nastro
##trazione
derivata
##wai
##rah
infermi
mistero
ricopre
indicazioni
Beau
##ery
##gilio
##rotta
atleta
Fiore
Pochi
chimico
grossi
##sionalmente
##OM
comico
scarso
sfruttamento
situati
##pienza
##lusconi
Iniziò
tunnel
assegna
inviata
Resistenza
CN
sec
Rico
Camillo
giungendo
estiva
##onate
##zzanti
negativa
aggiungendo
##lisi
##ssel
##diché
scan
##cchini
annesso
domande
finlandese
mercena
territoriali
##tenario
incinta
liberato
medioevo
1830
Four
Moon
Libia
pendici
aula
muri
##gliati
Torna
Bulgaria
Rispetto
espresse
regio
Pietroburgo
Cry
correre
1873
##xy
1864
Swi
##gnese
Line
occor
preis
vogli
aggiungere
##villa
cammina
raffiguranti
Qa
##onati
masse
##brale
festi
attaccante
##ceni
ces
riflessione
mantenimento
##lov
##onesi
perpet
contare
natali
1872
conversa
narrativa
requisiti
eu
Corso
monito
olimpico
sensibilità
##fin
parig
libretto
pressioni
assedia
calcola
franchigia
Conferenza
intona
preserva
ricognizione
Pé
##anico
membrana
poca
disturbi
cavo
Torneo
Histoire
Hell
gravid
Wilhelm
Distretto
confessa
##nd
insa
traspar
raddo
Lau
##ezione
##colarità
angelo
Cristiano
esprimere
ritengono
straordinaria
ponendo
1849
Fern
nazisti
##kers
Elia
riservata
iscrizioni
Spen
tamb
Great
disce
adesso
coordinate
HMS
vestiti
ace
Mann
##celliere
riportate
Intorno
fondamenta
Occidentale
prestazione
Sé
##magne
girare
##plice
##ghetti
dialo
annuncio
accompagnata
Dri
Sau
Zurigo
Eleonora
benefici
illuminazione
##VI
cerchio
##damericano
conosciute
impostazione
cristianesimo
signor
miti
conclusi
pubblicamente
Martini
viventi
mostri
teorema
banchi
povertà
##LE
die
Ryan
##bati
apparente
Stro
ringra
guidare
##golari
Dylan
svolti
diciassette
Osserva
preceduto
Lione
muove
contemporaneo
interpretazioni
1875
confed
parlano
migliora
conteneva
interessanti
Giove
solido
Network
riscatto
##Pa
1868
Sele
fattura
poeti
grazia
gestisce
sentimento
trent
doppietta
finanziari
dita
Beatles
AA
##pota
Capri
concessa
##uneo
Dave
margini
autostrada
Water
spostato
Rail
Savona
1877
terribile
Prote
Sparta
polo
##dendolo
stavolta
tono
restaurato
Romana
amministrative
Ia
Kni
##illes
fantasma
Aqu
rispose
visitare
riguardano
Fitz
scelti
Presenta
rare
Pieve
Gau
Stanley
arrivata
doppiato
coinvolgimento
##lero
cedette
evidenti
continuano
##film
Dino
tram
cantato
incrocio
##cture
Jason
Appenn
provocò
disposto
plastica
continuamente
artistiche
universitari
##isia
falsa
vogliono
202
##anova
Casale
budget
enormi
##pini
Sos
##visión
Later
boni
##DI
Santuario
1879
segnare
bersaglio
dubbi
opposta
##vari
Benevento
Buon
Hart
disposizioni
Lore
lune
##osauro
voglia
informatica
End
atomi
##allerie
Gianca
##dicamente
finanziarie
intu
uccisa
##pea
Benché
##erald
##niano
##plano
##saurus
alcoli
inseguimento
Pir
sina
debito
risultava
##tosi
1797
alluv
gamba
passano
curata
Ency
annessione
soprannominato
caffè
eseguite
sepoltura
naturalmente
straordinario
##run
Sony
Petra
##bea
##jan
##lazioni
libere
Orlando
offerte
analogo
dirette
indicazione
1869
##glieri
pesantemente
Originariamente
Nino
ines
statali
conferito
polemiche
##mark
araba
combatté
##rer
##ttono
Mega
credito
anarchi
sospeso
vincente
Kö
Arturo
Comin
svolgimento
riper
raffigura
vola
Honda
zia
fero
Legione
rilievi
Servizio
Č
miniere
##rero
Sie
##unato
Storie
pneuma
Decreto
aggiunti
Heart
Famiglia
##dida
##crate
down
Regis
guerrieri
anelli
duello
sterline
Umbria
nuclei
concomi
ferrovie
Dep
##diamo
Assa
Comm
Lisbona
corazzata
360
bara
diso
salone
iscritto
destinate
Berlusconi
interfaccia
significative
MS
##tista
##under
Navi
Russell
diario
seguiti
databile
sembrava
volontaria
strage
ricoprì
tratten
nettamente
uniti
interazione
Capu
infia
Christopher
Classe
##jam
Fronte
Franchi
stretti
##ful
##minio
Giar
staffetta
armistizio
precipitazioni
Erano
Libra
distribu
Probabilmente
Quad
orario
giuridico
agonistica
elementare
susse
molecola
ottennero
sottoposta
intervenire
aprono
ambientazione
##dola
incar
osservato
##liato
quotidiani
Maggio
Abi
Boys
parassi
##arcato
veder
ferita
ligure
cadenza
Bernardino
Bosco
azzurra
consentono
Etiopia
Informa
diminuzione
##bourne
crimini
McG
minia
messaggi
assunzione
Ré
Vul
drago
ribal
Publish
abbigliamento
aerodina
asiatico
detective
sosta
Valerio
trio
juniores
##boni
puro
Conta
potendo
Hul
idrau
minor
Nicolò
uniche
lungometra
avanguardia
##pez
##cinque
Lorena
##dit
Forlì
Pubblica
Ap
Nich
Piccolo
telefono
Of
URL
Anno
ciclismo
Massimiliano
DS
##zando
casta
colpì
Episodi
autorizzazione
##piti
##dienza
Grant
##hua
##fonda
confusione
##ellano
indagare
compongono
##mper
Over
dovesse
perfetto
delegazione
Jes
##mida
perven
restaurata
##mene
NATO
Andro
riele
finendo
ispettore
intermedia
##falo
Venere
Sistema
lettori
schierato
annualmente
progressivo
disin
distacco
##yon
Zero
Giancarlo
Attraverso
##uston
##gner
##mala
alfabeto
ottomano
rilevanti
Sloven
sfa
celebrazione
##bolo
1874
diga
mass
##uld
##maco
Lisa
Carter
donazione
Oce
volontario
servì
Blan
spinge
diverti
Ambrogio
Giovani
grafico
ugualmente
concorrente
od
Din
delitto
##iser
Who
##metter
##ylvania
designato
quote
aerona
seduta
Rick
unani
consta
primarie
##cas
Gy
Autori
perfino
indiana
dicianno
intenzioni
piatti
lanciare
##buri
suonato
##ettive
Junior
Esordisce
collegate
##RE
Bowl
Moore
riportano
mix
Nera
quadrata
rappresentate
##lem
##bico
golfo
Borgogna
corretto
prefetto
celebrato
improvviso
piattaforme
tornata
millennio
napoletano
statuto
##bet
Mezzo
Michi
illustri
incidenti
##zionaria
variano
occupare
##brati
Atto
Ambi
Jordan
Service
Jeff
##ground
rimor
tumore
longitu
Superman
Kara
##ronica
Belli
Dalla
Final
declina
sfruttando
etero
alternative
cooperazione
##talin
parere
Diri
pastore
stimato
Copa
over
sven
lotte
preco
cabina
casalinga
descritti
##pistre
Montana
offensi
mafio
conferenze
##grato
attrezza
Terza
dimostrazione
Aveva
afroameri
smal
Field
Christ
seguaci
tempesta
incontrato
procuratore
Vladi
botti
impose
##CC
##cosa
sogni
sorpren
##vita
infra
rappresentava
##wald
rial
##dimens
fugge
##quo
##ceno
Miguel
eco
##andina
remix
Arezzo
meccanismi
##ghetto
reato
seggio
##OL
Em
Anima
intui
Invece
zucchero
puri
compie
vivi
andar
Harrison
ritrovano
soddisfare
verificare
sy
restri
##ual
##entin
parallele
##bie
Goffredo
argentino
attribuiti
inserimento
##fisi
assassinato
##tsch
Wild
albo
pavi
cratere
adesione
comprensione
vena
Retrie
Amburgo
Navar
subire
Organizzazione
rema
entrano
basta
introduce
doppiaggio
Kon
##zzino
profu
Rolling
anticipa
discreto
lanciata
poliziotto
Tas
dolci
spinto
preparare
##ride
Phy
sacre
turni
acquistata
siamo
introdusse
Francoforte
entrate
geometria
1840
Quello
dotazione
ricostitu
caratterizzate
interroga
risparmia
##lock
Barry
mediter
commemora
##ental
##inaudi
##scimento
persero
Domin
División
integrato
pericoloso
back
camere
mensile
Treccani
Rh
visti
enci
risultando
##mismo
inedito
assistito
favorevoli
##gnone
nemiche
Ospedale
suddivisi
accademico
gravidanza
Quali
morbi
Matthe
lanciò
Hos
Riva
Common
dignità
##ccer
enzima
agricolo
separato
competenze
NASA
distribuiti
Sito
poetica
divorzio
drammatico
raggiunsero
incrociatori
##lopi
Passa
esordi
Nizza
addio
omogene
ginocchio
Ecc
rifiutato
Penns
discri
##rence
lond
Campioni
provenienza
stabilimenti
lupo
##tionale
trilogia
##TS
CS
##ssuta
pienamente
legislativo
##house
Conn
cede
largamente
Vil
Justi
##cannoni
primario
game
fermar
monasteri
##Hz
Py
##gile
##guna
Alli
terz
Fiume
contes
chiudendo
professionali
Berg
venuto
voluta
Nicolas
tes
Conce
Matil
causare
funzionale
CC
appella
##omani
Face
focali
feudale
infiamma
news
Circa
stampe
Psi
neanche
prigion
gemella
Basso
utilizzò
metod
Einaudi
montaggio
guadagnare
musei
insegnare
siciliano
##GB
Eas
Nico
rimaste
Capitano
attraversare
Brindisi
fiorentino
ine
Appar
decima
rapina
ricovera
contratta
imminente
##reak
perfetta
##ties
elo
eletta
reddito
sultano
bin
volare
pensato
incisione
Bl
danneggiato
##dafri
Broadway
certezza
##chy
##wart
##kespe
agra
Parker
Sinda
lento
Liverpool
datazione
prigionia
erroneamente
Ippo
arabi
cripta
##nier
Rain
immen
Cooper
Nelson
Cis
dinamica
consecutiva
Pers
resid
Sembra
nacquero
democrazia
Kenne
##alli
##ás
Atta
contratti
##estern
##uve
Sai
distinse
##quia
estro
protetto
Pola
Democratica
spinse
##terebbe
secondario
##mpire
serra
sloven
assetto
contrada
costituì
Pontificio
Retrieved
allungato
##bello
inibi
incante
##enga
autovet
arrivati
iscritti
valutare
Sui
tubi
muover
##volution
Pul
peda
Channel
Frederi
consegnato
##dela
Altro
Manufa
finora
sensibili
Donald
demolizione
##giato
guard
##andante
variare
##pendi
osso
protocollo
Pennsylvania
petrolio
##ttici
##miti
##ppen
Corn
mettono
esclusiva
ostacoli
reggente
##retti
##tonio
##mpton
Passo
polacca
portico
fattoria
metaboli
menzionato
Buda
Venti
Heinrich
menzione
combatte
##teau
volti
Miglior
basti
contribuisce
ingran
Sub
Mille
copre
falsi
iscrisse
rinnovato
##ub
##cet
Chan
##seo
##sseto
ferra
Asp
Lake
Proce
Jonathan
talmente
sostituiti
compositori
England
piacere
bizantina
##mers
Maurice
##gava
##tole
Dur
tomus
marine
##ez
##gire
##ssin
Pere
quadrato
guarnigione
attrazione
circondata
##ddle
Jun
rara
incirca
##mmin
Bas
Rho
##lease
Bonifa
##bani
Angiò
##dez
##liti
Jor
Bach
Tera
stadi
sospetta
passarono
raggiungibile
##etts
##enice
elli
padri
Roland
ripres
rivalità
##cenne
1600
##lly
##golo
chiamò
medievali
espone
tensioni
diplomatico
Arca
Liceo
August
platino
##fila
fratel
immigrati
misteriosa
sviluppate
##very
amato
certificato
strumentale
Avia
Linea
fiscale
rifiuti
apprezza
##pul
Kid
decisiva
edificato
Testi
fauna
Cannes
fasc
Colorado
viso
##ppy
##scono
visite
raggiungimento
Glen
Congo
Stadium
bari
piana
sequenze
tonalità
scoperti
tornando
##fle
##enico
legna
osservatore
depre
Raggiun
##canze
Quo
propriamente
Espa
mesti
Sebastian
Fiorentina
prodi
Polizia
Moz
into
presied
Marsiglia
dipendenze
McL
rettore
restò
secco
Georg
appen
positivi
Conference
##ssivi
idone
Frances
portaerei
regn
hockey
seta
Federa
incisioni
elettronico
Sw
Us
apo
Levi
tubo
##camera
Agenzia
Dilettanti
Jacob
##UR
##corsi
attin
ricono
##meni
assum
angoli
Work
Nobel
mostrando
##ttin
##tores
suba
buono
busto
grosse
##umerevoli
##ah
Kre
Pelleg
affidò
adottare
trattare
dipendenza
Ok
##stol
bla
rallenta
##pli
Dream
piazzamento
##ckle
corde
Immacolata
dichiarata
trattative
##DE
##ssino
##ilandia
##moder
pasta
paraca
enn
montana
trionfo
evangeli
sovranità
Rinascimento
##top
consulente
riuscirà
reputazione
Marine
spaven
Your
spot
profonde
accademia
##poti
ino
Basile
Monica
valvole
continue
rilevanza
combustibile
presidenziali
amata
valor
disturbo
interrotta
Off
spre
Partecipa
esposte
Bank
milli
isolamento
pdf
nodo
Lombardo
##cir
assist
mantello
classificati
##fficientemente
aral
Lavoro
minimi
sodali
sottofamiglia
##ggiava
interviste
Giordano
Sinistra
fazione
resistere
laser
verosimi
dose
coreo
derby
madri
fatica
1806
abusi
esegue
Baby
terrori
superero
Fair
altopiano
compilation
##fati
##stati
Fish
Salom
pozzo
Libera
##cerà
##ccino
Hugo
suore
favorito
nucleari
Bei
Eug
##destà
IUCN
Shin
balle
socie
veneziano
etim
Castelli
Innocenzo
Detro
strano
Vedi
Cosimo
Theo
Yama
fall
Kelly
ambientata
##gliate
edilizia
##cts
##cester
ombre
##emi
scru
Terre
friul
termo
sensibile
Convenzione
avvol
preca
Gallia
Detroit
magazzino
##taru
Sper
Kin
##fili
##eller
Sene
macchie
##litz
emble
connazionale
divieto
mancano
periodico
traman
itinera
Margaret
##arte
riscuo
vettore
##ESCO
##ferrato
rabbia
soglia
##tures
Terzo
botanico
Valentino
devozione
##ttenne
Cairo
Russo
Massachus
influen
paesaggi
Marshall
concludere
Frequ
Ima
estese
##mide
##sula
assoluti
incursioni
##terale
intri
vasca
deboli
Qualche
##gence
simbole
municipio
condotte
siciliana
Cristoforo
Met
elettorali
Alleati
direttiva
berlina
vendicar
Antartide
comunicare
nin
##dentemente
secondarie
nebul
donato
definite
transetto
rus
##burgh
esistere
comunicato
apertamente
eccezionale
infrastrutture
prosa
Sociale
Testamento
investimenti
Scia
Genealo
home
Stalin
Alessio
Algeria
situate
sacrificio
sli
Filoso
Malgrado
generato
mel
##onanza
annunciata
##ap
##gram
##wich
##terapia
esonerato
##urce
scappa
Carrara
accoglie
abitudini
infezione
##uge
parche
uguali
gallerie
posizionato
Arche
oscilla
Topolino
armatura
paragona
evidenzia
Massachusetts
##tenze
##ida
##nik
##monica
track
##cendolo
gloria
Pun
Syl
rid
##quanto
Canti
aiuti
coprire
vantaggi
Tes
fermo
percu
Hockey
trailer
particolarità
pasti
triangolare
Nacional
##mentazioni
vicariato
determinazione
irra
nona
unin
Studiò
Repubbli
##elettri
estratti
1857
Adela
costruttori
Vari
sman
templi
trasferiti
Mars
##cturing
costituite
##prin
coe
stereo
brasiliana
conquistata
Mass
cifre
##eu
##vismo
debiti
artigian
Fabb
Memori
penulti
interrotto
Merid
Tennis
Citta
##teriale
##xt
Macedonia
Thailandia
##stadt
momenta
roton
mangiare
Bros
Indon
uscite
sno
formali
Johannes
spostata
costringendo
we
deline
pastori
Confederazione
automaticamente
Peri
rimbal
commesso
##coscen
sommergibile
Zona
Matti
cessa
collegi
diocesano
insegnato
##tres
lasciano
laboratori
prege
operativi
cape
Anato
Child
delica
ventre
Trapani
Charlotte
distinguono
##AF
Fece
restauri
possiedono
complessità
Congre
imposto
difensiva
##ice
##pest
serale
capolinea
minoranza
pellegrina
interpretando
##BM
##velle
abitata
450
pura
nomen
Biagio
dialetti
##ène
Fas
campane
riutili
applicato
disputati
Def
toni
Persi
demone
storio
Amy
Guida
reggi
tocca
Kennedy
positive
matematico
##illy
fame
sfuma
Graham
hop
Torri
bello
basate
SO
pinne
alquanto
trasmettere
animato
Universo
##uver
Morte
militato
arancione
difensivo
Reli
chiavi
marinai
cessione
trasformare
ampi
care
Rosen
##mpato
ispira
Ernst
lenti
segnalare
Battaglione
##ded
##zzaro
prec
Adams
estinto
##quet
##inghi
Ligure
inserite
Australian
biennio
estetica
seppelli
avi
greche
##nu
accogliere
brevemente
##omato
buio
remo
Arizona
antifasci
settentrionali
Bull
imbo
moti
world
interessata
privi
Atlanta
contrasti
prevalenza
##RC
Palestina
##ales
##trone
Mono
Saba
Stuart
Blood
Claire
Nikola
Eddie
##liarità
Trinità
avvenire
insegnanti
scarico
attribuzione
amministrazioni
##luo
Has
##éné
Vau
book
manto
Germani
introdotte
epidemia
##ibi
BMW
##masco
arbitro
##arco
##olano
Crona
Jazz
camion
netto
spostò
collettivo
dichiarando
curare
cattivo
interse
cominciano
##okie
magico
straniera
innumerevoli
Hur
dispa
evolu
Antico
picchia
disar
pregi
Manufacturing
##boy
tenore
seconde
provocato
Sig
##cismo
##inati
##latura
promul
batteri
riflette
##cannoniere
Cecilia
Uruguay
##ram
##dian
cromos
ricade
##andole
approp
Herbert
Benjam
consacrata
tasse
Gray
malato
contenute
##TO
carrello
cronache
##mic
Back
offrì
classificando
lusso
UNESCO
indoor
rientrò
originari
convenzione
rivoluzionario
##ño
Montal
naufra
ritira
##tury
##versia
presu
ragion
provinciali
squ
viti
Primavera
##yan
Techn
##puta
##ciana
Giornale
provengono
##thlon
biancon
odierno
Valencia
sottoposti
esplorazione
##conten
##keting
Claudia
Normandia
aggiungono
ip
##rinto
plan
Volta
luminosità
Liberazione
##pico
round
documentari
##ccoli
democratico
palcoscen
touchdown
##fel
Circ
svariate
##far
##gran
pall
Carmine
Slovenia
segmento
religioni
concentramento
Story
Trevi
occasionalmente
panta
1853
strana
miscela
Wh
##aren
##liazione
network
rimozione
dovrebbero
Gilbert
accorge
Psy
tess
Walker
qualora
predomin
ortodossa
straniere
spiegazione
aggiornamento
vani
aperture
MP
##iores
rati
conflui
vegetale
esplicitamente
favor
pensò
costringe
##rossi
Arco
occupava
avvicinar
procedure
procede
effettiva
accessibile
Arsen
Assisi
##lav
Hay
igi
##glish
Flash
create
oscuro
bestiame
drammatica
##ziosi
rimon
oriente
##bama
##dana
agricole
generare
sospetto
##pire
decisa
diciotto
sostituì
##dir
Vera
##mentati
##gerà
vendette
turistica
sceneggiatore
##upé
Kate
Mini
como
Cipro
effettivo
quer
##damente
Donato
isolato
lasciata
##lise
1799
Figh
Arabi
##zionista
umidità
moltiplica
Adda
Sandro
Virgilio
rimanenti
##Re
Fly
Jerry
rinvenuto
##leno
##pora
contemp
appassionati
##melo
Commo
testate
1809
##misero
Social
crosta
rilevato
Hep
##savia
Litu
Gloria
completò
necropoli
##burn
Khan
Mart
Supp
mezz
guari
decina
Governa
fallito
Schwar
apparsa
Fratelli
inserire
Islam
netta
Armenia
Ig
rumore
bassori
neppure
terminare
##fago
naviga
albanese
assicurare
rappresentò
Battle
Pear
prio
suss
riconquis
punizione
##ccioli
potenzia
Jersey
##crizioni
avvista
nasconde
Indie
fotogra
straniero
prestigioso
##siva
1855
sonno
Gö
confermò
Ceca
Singa
logis
Ludwig
Spider
tramon
trionf
Franca
possedere
condannati
Arnold
Scotti
portate
negativi
Abd
amanti
Special
presentati
##binetto
turistico
IP
1816
##critta
citazione
australiana
##lava
furto
esercitare
tr
##veland
confin
giganti
conseguì
costiere
corda
disord
bellico
riuniti
chiostro
parecchi
frequenze
kW
Sports
Western
indossare
AD
flash
muraria
radiale
interfer
richiamo
##kon
Fall
fumo
##cerato
conno
feuda
##visioni
dichiarazioni
mancata
##reo
rio
lampa
Diction
##HL
750
##tempo
malin
lesioni
Evangeli
consentendo
Rientra
immediata
##usci
vitale
occupano
DJ
Budd
alge
vulnera
sconfiggendo
teme
##endolo
##olitico
papale
minerale
eventualmente
ego
gar
Versa
rurali
vascello
##bera
giusta
teorica
Indonesia
aggregato
presentando
proiezione
partecipazioni
##doto
##cido
Emer
Fasci
esibizioni
##gun
##oru
sicura
sospetti
includeva
##antes
Varsavia
registrate
1200
papi
q
Antoni
sostenuta
cum
Raffaello
criticato
suffraganea
attraversando
etc
Wright
Provenza
##olò
##curio
rilan
arcate
##ettatore
##conto
Janeiro
attendere
Pesaro
protra
gemelli
Paradiso
Shu
##cciai
chiesetta
organizzate
trin
blues
Foggia
Appennino
giudicato
consacrazione
1805
riduce
custodia
##An
##uil
appor
transa
##load
insegnò
rispettive
correttamente
animo
concomitanza
##chie
uovo
##gliese
##dettero
difender
preparato
##ach
##meli
##cerone
distribuite
##vas
Ere
attaccò
ammirare
ampliato
commemo
nicchia
spaziali
acquisita
1856
nano
escluso
determinate
appassionato
##fro
##ener
brig
Secre
Sonic
miracol
Model
eccessiva
magnetico
determinante
1798
battute
Benjamin
incomple
prematura
##bn
Orsini
fornita
spagnole
giuridica
numerazione
Ohio
Renzo
acquisì
Shakespe
##ric
##bero
##campista
cantieri
Ö
Llo
mali
massacro
frammento
suddivise
##ont
##vore
Kur
##mberg
##tavano
mitolo
Books
salma
vaso
espressioni
Vie
air
##untain
numerosa
superficiale
specializzato
western
richiamato
determinati
Costan
chiare
cristallo
##ganza
denta
Aurelio
##ences
Intel
citare
ristre
Singapore
##rite
##ttee
ivi
Tommy
fazioni
Xa
Aman
genio
##ttini
dava
Vennero
convogli
portoghesi
##lines
##cletta
mac
##idale
Luke
Pistoia
fantasia
##strato
rivolge
interpretò
Kun
##lastro
recitare
satelliti
##haw
Doria
riconci
vedendo
svolsero
producono
insor
##ticità
contee
chiamava
##rore
##uble
terape
infanti
tornano
inserisce
partono
Tole
Flavio
##ological
Houston
Campbell
ricoprire
verticali
medioevale
accoglienza
Trini
sparare
Campagna
africana
poterono
##anni
##ondò
Neo
This
Capitan
Lodi
##gnarono
##resa
sof
inso
Palma
vigilia
sospensioni
apprendimento
##lag
birra
fusto
cintura
ridosso
esclusione
riscaldamento
mg
##play
add
ocu
ubria
Centre
radicali
stellare
Monferrato
##ppato
accampa
caserma
respira
concreti
Eis
Ticino
epoche
molecolare
Dru
assomi
sconosci
sormontato
##fismo
Docu
Mediaset
galassia
monarchi
concludendo
asciu
Gorizia
gioielli
##rit
##ines
Rodri
Sezione
centinaio
Profession
napoletana
Kor
Harris
morali
incerta
ridotti
affrontano
sufficienti
##erea
1854
sensori
commedie
combattuto
Shakespeare
Cruz
##colore
Grosseto
Blues
inatti
recuper
proprietaria
##cil
Cour
Neri
Mes
hip
##cesis
##gnani
raggiunti
Amici
Monumenta
sconosciuta
giovanissimo
Box
##andese
conferi
Bonifacio
rime
Vercelli
indiffer
capitelli
##veste
Elli
missile
infli
mafia
Fiandre
dipinta
rivelare
220
Canta
porno
##rose
gesta
fluido
Tunisia
leggende
sosteneva
elettriche
Draft
illegitti
prefettura
meteorologica
Lia
sita
tropicale
proiettili
minacce
trampo
figurano
firmando
irlandesi
occupando
Cuneo
Italy
acidi
flora
triste
letterarie
documentata
1839
Buck
padi
Philippe
ricostru
ABC
Tria
##rimento
Laureato
##guaglianza
sinc
Prese
disponeva
##ador
free
Punta
cameri
Harvard
##sper
telecom
sostituisce
##monie
##cipalità
Antoine
SN
##ssee
prevenire
##MP
##dona
riso
simbo
riconduci
Bé
##diana
##guez
##corre
##dil
Age
Kal
1858
orfano
annessa
gomma
congre
econom
petroli
Santissima
efficiente
finanziamento
Presso
piombo
Vangelo
considerano
considerar
Julia
tossi
granata
federali
ricoperta
ristabili
Serge
genetica
Samp
##cciata
sound
Stewart
elicottero
##cz
Twi
##ining
firmare
Lawrence
diversamente
schiena
gerarchi
sodalizio
UFC
andati
dirama
registrò
##ile
##ghen
osservatori
Doro
##natura
Bobby
mista
onorario
mappe
stampo
Budapest
algoritmo
coinvolta
proporzionale
collaborazioni
##yu
##ticato
ecolo
muscoli
fisicamente
riconosciute
##ssido
Bassa
appli
funziona
fucili
##lopiù
vass
sodio
Archite
battere
Sapienza
Historica
monsignor
trasmette
Fede
time
vano
signoria
Pr
ISO
foce
Irene
pianista
statistiche
Hero
Newton
raffigurato
Rap
##lenco
##ecesis
ricordata
Ecu
Costrui
##conte
1852
pseudo
utilità
ottengono
##IN
##VA
##ert
vasti
giù
caduto
Gary
Glas
##tualità
Raymond
Stoccol
facilità
##ttuale
Sereni
fissato
Siviglia
Productions
Gaio
Gioa
##tennio
impos
imbarcazioni
AL
effi
pirati
Leonard
Stoccolma
attestato
Bundesliga
capolavoro
##berna
Borro
Comba
XXIII
rimosso
barriera
##tuoso
scavo
restando
Cleveland
produttrice
repubblicano
Danny
URSS
Sierra
1851
lievi
Vescovo
Aristotele
obbe
mancato
Entrambe
compagine
Beck
##thal
##ziario
Carne
demoni
perlopiù
tropicali
azo
Guer
Orle
smar
##entine
caval
calcare
##donia
##tuata
disegnato
razionali
innamorata
naso
Pasqua
Catherine
ricavato
Bin
Atle
anom
eman
Azzur
adolescente
subentrando
guerriero
pubblicita
richiedono
##bane
##uste
serpente
processore
gang
Rovere
Express
fiction
tastiera
##quio
Rag
Buca
Diversi
ausilio
##rella
Head
Biblio
Urbino
emerge
Tripoli
##metti
Afgh
Aleks
Sassari
nervoso
periferi
##hal
1846
rispetta
martire
tennero
##linio
comma
boreale
scatola
cogni
##unicazioni
consacrato
somiglianza
€
radi
edili
vetri
Libano
Digimon
imposse
entusiasmo
repressione
##bbo
TG
##brio
mago
Vall
Forze
Arrondissement
proteina
ristampa
normativa
costituiva
1847
meravi
peni
comporre
morirono
transito
Rita
coppe
indeboli
Conse
County
anglosa
ampliata
fotografo
cosiddette
##RO
ki
feudi
lunedì
strategico
Last
goal
Allora
retto
##sin
##mili
##waii
Get
coadi
Castle
Labora
spicco
armonia
##unes
pel
Acce
furi
Kings
rigido
monoposto
danneggiata
1820
cavi
##hai
##tric
##ckers
Sesto
sarco
olimpica
esibir
recano
appunti
fantasy
##mun
##rish
##terali
Amore
Biennale
##asi
Chiese
telescopio
##cide
##polare
Desti
arbitra
ranking
spoglie
prezioso
provocare
viaggiare
##cimenti
opzione
sviluppi
sostenitore
##25
penta
rinforzi
##vour
##perta
compensa
Mazz
##cipale
celle
##tecnico
aquila
riportò
abbreviato
abolizione
##erità
Visse
##ssionari
indispensa
provvisorio
rinnovamento
degra
tattica
apparecchia
hit
##rabile
motto
giocate
Democrazia
introdotti
incoronazione
alco
##Gi
Fé
Minn
tassa
Corsica
supremo
avanzato
circuiti
radiofonica
Boeing
Patria
bolognese
comandanti
Boli
spesa
corridoio
ritenendo
##bec
##vul
##cciò
##mari
inteso
Giovane
IC
Fara
terminando
##patia
##ssoni
Giann
borghe
latini
dila
bombardieri
interpretati
##cki
CT
##riata
fermato
consorte
toller
Cicerone
funerale
abbondante
unga
ellen
sanguin
##eré
Mei
##rosso
policro
trasformò
Clin
arbo
rione
mostrò
stimata
individuato
prestigiosa
Amministrazione
##pho
Susan
Ascoli
rubrica
derivazione
##baldo
pon
trauma
miniera
##stie
pelo
astra
invol
Carmen
introdurre
percezione
##lot
Sma
vas
salì
Clara
sperimentali
Feli
Poggio
tributo
africani
fitti
opinioni
Et
Meli
sentito
convinse
progresso
compressione
riconosciuti
##zzetto
spera
Longob
casata
cerchi
Storico
distrutti
ospitò
commento
prototipi
##llon
Chel
Soul
##ttaggio
Orleans
riducendo
grammatica
Carabinieri
Adven
Walla
unite
annulla
detenuti
consiglieri
elettromagne
René
Review
estivi
##posi
Bosnia
scarse
scenario
supporta
borghesia
anticamente
Ener
prestato
consiglia
muscolare
Bello
Annales
Cristiana
Programma
scartamento
Zen
##eriffo
Jules
Metro
spostar
Dance
foglia
preventi
innovazione
FBI
Appena
affatto
brus
##colano
Seattle
biennale
ripetutamente
Dublino
Costanza
celebrazioni
Mozart
indicate
viceversa
1810
invisibile
riconquista
Wen
Hanna
esatta
Debutta
Robinson
protette
considerevole
##trerà
##ettoni
sbo
List
fina
foglio
##teneo
Roth
That
vinile
##idae
Ria
crociata
titolari
Slam
eliminati
irregolare
dovere
Armando
fabbriche
Ob
##pson
indomani
Arcangelo
preferisce
Quattrocento
##ttolo
serbatoio
aumentando
funzionare
Quasi
season
Edition
##tland
Kurt
Mons
Moran
impad
lacri
Spencer
redatto
baseball
##olas
Cosenza
ricetta
emozioni
affermare
111
zin
##ronico
pollici
infinito
aziendale
rifornimenti
Lux
##inista
nominati
aggiudicò
incentrata
imprigionato
<
duri
Agostini
Bond
Salone
fornendo
corazzate
fornitura
Tolosa
agisce
battesimo
trasformando
##ppiamo
duramente
sistemazione
Pina
Winter
progressiva
UF
##dora
240
Wayne
prole
Lind
Arabia
remake
##rint
Magis
svanta
strutturale
##sty
ispe
urban
Summer
##kir
##wal
reati
etnica
comandata
concepito
ferroviarie
##allery
secondari
controllato
##osia
##pori
1700
sobb
plasma
spettatore
mitragliatrici
##The
Cesa
padroni
trappola
architettonica
##rs
##lori
Arno
arrestati
##ME
##ssy
ebreo
Bureau
Giunta
incisa
formate
Kil
duomo
Jessica
conservare
CON
bib
mamma
tuber
demolita
attribuisce
sottolineare
##tatori
cessò
funge
organ
Esteri
saputo
intendeva
Schmi
alieni
chimici
argentina
patologia
Cus
immor
spunto
artistici
Dottore
English
impegni
precoce
vinsero
generico
##cinio
elef
Adolf
riabili
olo
Calli
Earth
rituale
africano
cing
atter
facenti
polemica
##Bo
##toso
volevano
complesse
Valley
business
##ffen
avval
##anistan
stabilendo
credeva
ingredi
vivente
arrestare
Soccer
Scienti
duchessa
massiccia
sopravvissuto
##cciar
Proto
##democra
legislazione
##rerà
Tiber
##cultura
aggiorna
convertito
Esposizione
##utata
##vetti
lirica
neonato
##tesi
##zamento
animati
compose
sudafri
triangolo
##ggì
absi
riusciti
Chuck
acquisire
coinvolge
consecutivo
dance
Anasta
Ricci
Matilde
inutili
neonata
salvataggio
interruzione
ininter
Annibale
Meno
nascono
vacanza
raffreddamento
##mono
bevan
##sionale
sosteni
torinese
Afghanistan
insegnamenti
Multi
alare
Ignazio
apporto
Thé
tuo
Antonino
Progetto
Wür
Lituania
tendenze
pellegrini
##inò
##fone
Athle
allontanar
##perto
Lancia
##diera
Olimpico
Festa
Grammy
Annuncia
terroristi
##thor
Case
pota
derivano
occupati
piazzale
risposte
##grana
attivazione
Baden
Genoa
pallone
convinzione
##lante
distor
muratura
manifesto
compromesso
compì
Affari
Marcel
interessati
Cima
nottur
preziosi
soggetta
##tant
##genesi
##mettono
Hermann
##unte
##hoven
1831
Main
##ratura
Silva
operò
contingente
##menda
Walt
orgo
diesel
Filosofia
predatori
##maggio
SE
prefi
equazioni
attribuite
bere
eseguì
##lotti
Magic
eccen
##pazione
Sicilie
Philadel
evitando
##zin
Nie
zar
##fisica
ovunque
dopodiché
##bout
Dres
orme
crema
imposte
vu
ascoltare
##amo
rece
curve
parlando
subordina
##HS
##rod
Marx
presentar
riconobbe
fiorentina
Poly
raccontare
lungometraggio
Hop
sblo
Auton
What
##chetti
Vegas
romanico
condivide
Boo
deco
scudi
master
statistica
Châ
piste
##gura
Code
esami
fogli
stante
alleate
gioia
pompa
Austin
Torres
offrono
esibisce
##nos
##leri
##ssau
azz
Ecco
marx
Fondo
bordi
Dallas
marino
Vladimir
documentato
stabilmente
##publi
##ulare
Italo
##olar
dialoghi
Jar
##versie
calabre
Adelaide
intrapreso
##hop
##sari
##vies
stabilita
ricordiamo
##roe
marini
sapore
presunta
##IV
##morra
marce
sardo
analoga
definendo
sorveglianza
Azi
##lands
Indipen
parodia
recuperato
identificata
Lex
McD
fara
borghese
preesistente
Haro
Guide
rinnovata
universitaria
##lude
ritrovata
sanitaria
##rera
viceré
ricomin
timpano
erezione
ampiezza
frattura
antar
mondi
ubicato
scadenza
pacchetto
dimostrano
Century
##lit
Care
Utili
verbo
Wonder
descritte
discendenza
edificazione
cori
malati
cognato
incentrato
##puter
Garden
Italian
##ses
##ping
##tham
##toli
Lane
Medicina
felicità
trasferire
Peo
Continu
##tech
Chio
aggan
funebre
violenti
Linda
##ghai
rei
Taiwan
martiri
derivate
sinonimo
Philadelphia
##pte
Federale
apposito
MG
Pel
veneto
dinosauri
derivare
##gascar
strette
creatore
controlli
Gianfranco
##rat
ascolto
barocca
provato
impedisce
rinascita
Alas
distrusse
elementari
protestanti
pubblicando
Toni
scusa
parchi
Library
Matthew
ritrovare
dimostrando
5000
oppone
delibera
esigenza
prospetto
##ruzz
accla
Rachel
classificò
##non
SC
##estione
Lascia
jugosla
Madagascar
##uita
1812
angio
ravvi
consentì
giuramento
Cree
Year
operaio
Antiochia
derivanti
##vich
Catal
soppor
##mondiale
presunto
Nes
Terry
##rot
##densa
letterari
combustione
lasciarono
##hei
Dista
strega
altrove
##fraternita
vocazione
Ky
TT
##siano
mandi
interi
Michigan
governato
Pablo
Lipsia
Pacific
infiltra
affiancata
##upe
Ricor
nascosta
qualificate
Rud
IMDb
Scrip
##vinezza
Flotta
combattuta
Sina
Wall
aerop
Libero
livrea
antenati
iniezione
##dura
##piani
stand
allego
iscrive
Neil
##trinse
Bocca
agricoli
sessioni
ritrovamenti
convenzionale
Dura
Sean
Sever
arteria
servono
funzionario
Rob
##terne
scheletro
Ralph
civico
cinematografici
Bed
##dante
baga
infa
frasi
##anz
##pone
##vada
Bush
larve
lavorano
veneziana
Inte
sperimentazione
Fini
pran
distacca
hardware
intelligente
PCI
Benn
degen
oscura
Justice
tornarono
Missi
risar
Anversa
##dessa
Maca
donò
fiera
includere
matrimoni
risonanza
Governatore
##aldi
##gang
Run
##camere
marmore
miracolo
Comandante
Alon
cerebrale
spirituali
precur
##sac
##lista
dorato
Thompson
rimp
allor
omosessuali
##isio
Bom
1841
insiste
londinese
Ghia
affinità
costruttore
Meso
taba
Campione
centrocampista
Dro
Jay
Cora
embri
ingenti
are
1837
Bucarest
brevetto
rispettare
impossibilità
irro
rubare
ammette
applicare
Grace
##veniente
Project
##td
Kie
Rip
##olate
cresciuta
Annunziata
traduzioni
##lese
Pare
scura
Gennaro
palcoscenico
Tenne
Orazio
consegue
fascisti
scozzesi
occidente
##landa
infi
##arde
Pete
Denis
decol
aliena
Mariano
cic
esposi
panora
Basilicata
##anica
russe
serio
Hawaii
cartone
parlata
##rosamente
chirurgia
ghe
1845
Bres
Tipo
rele
paleo
##deburgo
maglie
venuta
appellativo
##oke
Philli
ingegneri
Pompeo
convincer
OS
concen
fascio
discutere
cominciare
Ospi
Orange
percorre
arrampica
Eurovision
##gard
Hud
sorse
Urbano
sapeva
##centeschi
biologica
Publishing
trampolino
##varese
Helen
Lugano
riferir
chimiche
direzioni
Svilu
trava
coincide
considerava
##35
##gigante
totalità
messicano
allenato
travesti
ammissione
eccellente
ipotizzato
guadagnando
##becca
Joan
evoca
lance
distinto
praticare
violazione
Spo
##ccome
loco
riga
Conos
Delta
Nicole
reperi
limitare
testimoniano
gode
Conne
Schia
stress
programmato
VV
seri
Greco
sobbor
Assieme
accettata
casti
Rizzoli
Benz
attive
nemica
prestò
cilindro
##ashi
Joa
fone
franch
Principato
carabinieri
##rè
Bai
foro
sussi
Viter
buddh
Domenica
investito
How
scure
Cesena
ripubb
dovranno
entroterra
##lena
##riti
berga
##mmad
##enzie
Clan
diur
cocco
Bridge
Aja
cugina
scoppi
ricorrente
##oshi
Nota
##calcio
estremi
ricorre
##rance
Hiro
##estica
Adolfo
##pevoli
polmoni
alve
##genita
offrendo
proporre
unitamente
##cron
fanti
decapi
avviata
Atlantic
riferiscono
Clu
##cinqu
##randa
1821
richiedere
consistenza
Two
Cale
##ttezza
Hunter
marketing
mercenari
rivelando
confluenza
conservatori
bres
menti
righe
residenziale
Stru
imperatrice
conformazione
EN
UK
divino
Cartagine
benessere
imperatori
Ny
Boemia
affetti
Salvador
sceriffo
Kai
muse
##europe
Giudi
incapa
suggerito
osservatorio
Pau
Altra
pluri
tragi
Costanzo
nascente
sostanziale
blocca
mosaico
sviluppano
prive
Quinto
croato
Shanghai
attrezzature
acuto
muscolo
##time
Mat
griglia
omosessualità
Lì
##zzolo
Casal
targa
Nathan
virtuale
##Al
Danu
##gazioni
espulso
scherma
##ssola
##verde
coun
Lloyd
Squadra
dipartimentali
##LC
sim
regu
etica
trovate
manufatti
trasformazioni
##22
##dus
##lai
See
1838
Miles
principato
1836
Pakistan
manovre
pitture
Tana
Office
1818
povera
disegnata
##ween
Bui
From
asiatici
Way
razzo
assorbimento
##ccarda
domeni
incise
bancono
rendimento
##arto
Sli
##esota
cantone
istituì
complice
elaborato
accelerazione
##ggie
assimi
ideata
rubato
Economia
combinata
pelliccia
investimento
##nerà
##onde
##sting
Stefan
adibito
Standard
canonica
Minnesota
1844
Illino
scalina
tastiere
aggiornata
direttrice
inquinamento
##sha
1808
Rein
aeromo
nicchie
espulsione
##sala
##mentò
pronta
aspettare
altrettanti
omosessuale
Sola
accord
Imperiale
consapevolezza
##ffy
##pital
Greci
epite
secca
##ficante
passate
congiura
torretta
emissioni
##tah
##vice
Vio
lac
##verio
capienza
##nez
CH
##dromo
##tanbul
marmi
caratteristici
##cía
##donti
##omiti
1832
Curi
missiona
Tus
UCI
cartoni
consuetu
Direzione
##meria
Fren
penti
crolla
povero
serial
Teodoro
coniugi
Television
Melo
Carro
inutile
mandati
##pistrello
avanzare
spedizioni
Mand
Lista
peccato
##web
mara
spora
spiriti
filosofi
essenziali
##nee
IA
##lendo
1300
edita
##mentando
sk
##ries
Acqu
Plinio
misero
Filadel
accento
detiene
criterio
demolito
cerimonie
competere
sostituto
conservatore
##ils
ligneo
reinter
detenuto
spiegato
aggu
omolo
Maritti
limitate
##tchell
Seg
timore
Farnese
indigeni
diventati
RC
Galla
accolta
##darietà
Engine
Guerre
bracci
##està
conservano
Forum
##ML
Lima
pesa
ripi
Spole
serviva
Segue
McLaren
basando
Illinois
arrabbia
mediamente
trasformar
Ina
rimarrà
ispirati
socialisti
tranquilla
Aar
Murray
resero
schemi
imparare
combattenti
propulsione
repubblicana
##anie
Rama
Drago
##ggiarono
Command
catastro
prevenzione
sopravvive
calde
vende
ricorrere
Ing
##pelli
Court
Manha
cercava
eredita
consegnare
TC
nun
Design
preferì
1835
elica
Ecclesia
Franklin
##70
##quez
Kent
##cibile
aderì
Digital
ospitava
##fond
##scina
melodia
biologia
polacchi
adiacenti
imprenditori
##ara
Stein
avviò
piogge
1796
debba
sciopero
retrocesse
assur
incisi
pregio
Fondata
Editrice
sofistica
elettronici
##tienne
colto
Queens
meriti
visitò
Circolo
Galileo
contrari
rilevare
Alma
Balti
opposi
sepolta
impronta
##ttrici
dominato
rifacimento
strutturali
##ferma
##garono
Treni
estera
consensi
1842
mortale
cosicché
giovinezza
##osio
Britan
database
##cchetta
Contest
islamica
illustrazioni
Rieti
forniti
sergente
faro
##doglio
Barone
polare
##unni
aristocrazia
Luce
##quattro
Modern
Silvia
oramai
reinterpre
sottolinea
Empire
##eros
##tical
Sain
lead
##vedere
inade
segmenti
rifornimento
##usero
fecon
sella
sinago
lezione
cappello
astronomia
Colla
sonore
Gallery
lombardo
affluente
Longobardi
sensazione
veneta
Considera
IG
schede
Borromeo
Purtroppo
Part
##anali
barra
sfide
Morris
febbre
invano
affascin
##giun
Semina
validità
alternativo
solida
AB
Magni
Masters
Deutsche
semplicità
Wor
##fonica
solleci
Nazionali
collegare
scoprendo
Nilo
Evans
amare
Persia
Accanto
capsula
stampato
artificiali
aspettative
municipalità
diavolo
vampiro
estendeva
meccaniche
battaglioni
Sarà
Ellio
Mitchell
allungata
contrasse
##ffin
Navarra
incendi
##cue
##entesimo
uninominale
fortificazione
230
Berk
Lecco
Greg
antia
vigil
rielabo
##kt
##gliera
##zation
##enaghen
##umacher
visitato
##rai
##fali
Illus
Platone
Castiglione
geografiche
Casta
palestin
Beet
Inse
Legion
Copenaghen
##enix
vivace
elettori
trascina
affrontato
colleziona
MV
##gues
Nancy
tartaru
##ssetto
rieletto
sovietiche
trasportato
##curo
CIA
##cciati
Lenin
Leoni
supervisione
##OP
##file
##fite
Larry
María
Holmes
ONU
Timo
pene
corna
Serena
aprendo
colombi
Istanbul
Manhattan
Tron
Staff
robusto
Memorial
finalità
pescatori
Schumacher
##Li
Atal
Dame
Cam
Globe
piazzando
interrompere
plane
trattò
casuale
tragica
motivazioni
##gny
nativo
oppose
primitivo
festeggiare
finanziamenti
slan
Abate
Coast
Britannia
demografica
osservabile
##lez
Fabi
##ssamento
pensava
esercizi
primitiva
rifugiati
superiorità
Cape
archeologia
vedo
Louise
Hepworth
pianificazione
##ssante
carti
fallì
pugna
eccesso
campanaria
orizzontali
rivestimento
##lig
##rys
Amé
Kol
##erica
1793
info
Regola
teorico
ubicata
280
XXV
##zzava
Woman
recla
solari
Primera
segretamente
fabbricazione
##anus
##dibili
##gretario
accidenta
svincolato
confraternita
Pica
dile
controversie
open
Rimase
nascere
##dimensionale
##rani
adottò
gravita
postale
realismo
assegnate
interviene
evidenziato
Wy
1789
Ville
Eduardo
urbanis
perimetro
ricompensa
rivoluzionari
MC
Zeus
Pallacanestro
Joy
Mio
Stran
##100
cosmo
fegato
difatti
promette
comandato
Championships
##fei
Sudan
##mension
abruzz
preside
atmosferi
drammatur
Had
Neu
Ultra
vetra
magica
ribell
Cecoslova
Edimburgo
##90
CR
Scip
Slova
##usic
210
Ado
Sacramento
Bart
Cosa
Sani
##zionismo
freni
German
Melbourne
IR
##bran
lunare
difetto
pattina
poliziotti
Generalmente
##pel
##iato
Rafa
blog
pali
secre
sedere
malvagio
Eo
Gustavo
prefazione
conversazione
dedicando
utilizzava
Mk
ceneri
Veronica
peculiarità
##ctive
parto
##rigione
Rivista
successe
inventato
##kha
Cretaceo
protettore
##TE
RS
Gara
##darono
sacco
compli
orizzonte
##lias
Cano
copy
Bayer
##poni
modesta
nomencla
Swe
addo
appi
dirigenza
diffondere
facilitare
cattiva
diplomatica
cave
Vince
mercante
dirigendo
Cé
##lius
sessi
lignea
sconvol
pericolosa
Senna
proibi
tesori
meccanici
##sten
Cola
Family
beneficenza
Lenn
sciolto
stabilirono
##ggy
##riati
vuol
conson
arretra
duemila
festività
ecclesiastici
##thia
##town
1833
lama
incendia
##beria
China
Catanza
Nigeria
genealo
ribelle
avanzate
nascondere
commissioni
##zzetti
##olan
avvenuti
borb
Garda
Marta
seppe
grasso
Spoleto
##py
##86
Bian
Grey
Giura
Point
senatori
cancelliere
pattuglia
anticipato
recensione
##key
st
##zetti
innes
barche
presie
McK
Auro
podestà
incapace
spiccano
Inferno
rendeva
napoleonica
##engo
Isp
bob
pagato
pedago
Simpson
editori
##scano
votato
aumentato
meso
gomme
Vecchia
geometri
decadenza
rinvenuta
Peti
dure
Fiori
Libri
Trasp
Civile
culmin
formaggio
difficilmente
CG
Clay
Catta
lontani
download
1843
June
monache
reliquia
proclamato
##gala
Atlé
Danubio
##ghieri
deceduto
celebrata
##Ca
end
irach
polari
cantoni
cacciatori
Cl
1817
attaccata
pittorica
##doli
Brab
oste
redi
Alaska
posizionata
Bes
tengono
riunisce
rinvenute
Presidenza
GA
##niana
##ppino
avveniva
##kota
litu
##är
##gora
##tula
Impor
frate
Fausto
Challenge
biglietto
##mbledon
nipoti
adeguata
associate
##gow
Stur
Roche
élite
trascu
Capitolo
identificati
Tw
##sani
##berti
alimenti
difensori
rappresentativa
Ella
##granti
perenne
cardiaco
ripristi
Dioecesis
puramente
designazione
Dela
Collins
addetti
Castella
collegava
battezzato
neutrali
Ente
Riserva
biglietti
trascorre
compimento
ricevettero
Encyclopedia
autobiografia
stop
Catalogna
##zionò
Appa
##ziando
Atalanta
tenutosi
stipulato
##inal
voi
1834
Isaac
viste
Warren
succede
proiezioni
provvedimento
festeggiamenti
##eng
##hof
Kno
Titan
compiuti
schiavitù
ʿ
Sis
fossa
##mentate
limita
impegnò
tradotta
##ways
Ultima
Dalmazia
promuove
contenitore
##alie
Exp
##deaux
riunioni
##23
##lich
##ttar
##erium
##raggi
organica
dittatura
Annie
progettò
rimuovere
##ffrey
##orden
Colli
Segna
bonifica
cristiane
innovazioni
istituzionale
politicamente
Assia
andro
Harold
Atlético
infiores
insurrezione
equipaggiamento
Dee
Cath
Moni
Human
connessi
spostare
Catanzaro
##ssed
Poss
Week
orso
Potenza
rafforzare
##tamenti
Madame
sottoscri
consentiva
Mü
##dence
Banda
Turner
ambiti
controll
respinto
Monastero
##ontolo
##vocati
basket
produttivo
Grana
Incon
disoccu
##main
opus
illegale
Scriptores
undicesimo
adolescenza
proporzioni
Regi
Board
marziali
persiano
combattendo
epa
##riller
pronti
Procura
donazioni
sopraggiun
Capua
popol
Global
Gentile
canonici
scolastica
cronologico
##kee
##cosi
CBS
trae
Jenni
Istria
patologie
×
Bapti
integrante
antagonista
Sue
##sauri
Banco
Beata
Cento
Medie
Lingua
People
collettiva
Nina
##ttorio
Ecuador
coperte
milanesi
finiscono
preferenze
architettonici
caos
corazza
derivante
Versailles
trasferirono
##ducci
odia
forniscono
Magna
chiusi
Riforma
Gel
Classic
paterna
discorsi
Dictionary
##osco
##rier
rabb
dente
Numerosi
galassie
filosofico
accreditato
ecclesiastico
Gasp
##vaggio
rivisi
fronteggiare
##fori
##goma
Ida
Sasso
etnia
Kansas
accons
scorso
cerchia
magistrato
vincitrici
prettamente
##phone
Page
arren
Wimbledon
deposizione
radiofonico
cd
Wis
##dores
##tarco
Toma
solidi
Thunder
confuso
rivelazione
Six
Orlé
ripete
Scrisse
1801
1807
loggia
svedesi
luminosa
elicotteri
##esio
Gul
Guada
calca
anonimo
##kai
##fatta
Movie
procu
##tendenza
Caserta
abbatti
identico
##vedì
Baker
Viterbo
compenso
esplodere
sconfigge
Sex
Dove
dimise
manipola
impiegate
Anci
##zerbai
steri
ammasso
aderisce
casalinghe
distinguer
##ete
cy
Ltd
Nov
Parro
raccolse
##glier
erra
decom
inonda
resiste
##rium
##voce
Hin
ate
Bomb
Sino
scese
aragon
toscana
acustica
pacifica
discussioni
##ush
Perry
occhia
##licesimo
mentali
simulta
##mmer
semia
adopera
approda
pneumatici
puls
pranzo
concord
beneficio
Cat
Dece
Lucy
Fleet
Estonia
lineari
metallica
Square
decorati
bibliografia
immigrazione
##inate
grandio
domestico
##chaft
##pping
##ranze
ausilia
effettuò
contraddi
ideologia
privilegio
Cecoslovacchia
##ay
gh
Sora
subirono
unificazione
capocannoniere
##say
##ioli
##phie
architra
##dua
Ras
1792
Appro
psichi
montuosa
notturna
pericolosi
mediterranea
Cristianesimo
##reg
Aggior
Cavour
##zionisti
splendo
influenti
neoclassico
##iolo
##tell
USS
Edgar
rical
Civita
Legenda
pregiudi
linguaggi
giornalismo
sotterraneo
Om
urbane
innanzi
circostanza
promozionale
650
Orléans
agricol
progettista
##uz
Emily
Steel
andrà
atrio
Council
##tuitamente
potenziali
UA
Pag
Zara
obbi
Risor
penna
Alonso
motivazione
##chan
Inn
interessò
1825
equatore
equipaggi
##Ro
##stic
##ppina
adulta
carichi
supergigante
##ionon
##cchetti
##galmente
bloccare
commenti
previsione
riportando
Jere
Seni
commo
terrore
basamento
diversità
legittimo
riparazione
##vro
Abu
Pasca
oliva
rotte
##tment
Sena
cime
##ssippi
April
Sposò
dispre
annuali
capanna
Settentri
##mercato
Antichi
difetti
Technology
Quer
Commodore
collaborando
automobilistico
##cristi
Elenco
Prende
geografico
Linux
casse
Consor
guardare
accessori
##omito
Fonti
Aquile
continuazione
##bete
buro
collocati
contribuire
##uci
##uovo
Dean
##tranno
Mazza
tasson
ron
##cotta
dialetta
sussegui
resoconto
incredibile
pellegrinaggio
umo
##coteca
patro
Alo
Otti
adolescenti
Stars
adotti
Statuto
termica
Barbarossa
impressione
##bir
##dith
Rome
Velo
##hammad
Palio
lucer
Finale
uscendo
collinare
Meridionale
dito
prua
Demet
Paperino
emergere
coinvolte
diminuire
reggimenti
##urò
agro
azoto
Basilea
intermedio
urbanistica
CL
reggenza
Strasburgo
cacciatore
Lupo
criti
##ciplina
misurare
pensieri
fondarono
##curò
fibra
toscano
incomincia
fratellastro
potenzialmente
DD
Jen
Cook
##vention
restante
Filadelfia
spostamenti
sviluppando
##vorio
Business
Jennifer
problematiche
##lind
Bowie
angli
Ricerca
culmine
bloccato
amministrativi
sha
Scan
iberi
allarme
##ey
LC
Rey
dote
bizzar
neutro
validi
profondi
Gioacchino
##ostro
Tara
coupé
ricevono
solidarietà
dicono
sonoro
spiagge
contesta
centenario
onorificenza
##nesi
poppa
Watson
##tensione
intendere
negoziati
intercetta
piazzamenti
Legnano
Armstron
microsco
##zard
Whe
Urbe
##taggio
Barbi
Montene
altrettante
convocazione
##test
abbelli
condann
cadaveri
efficaci
##ismi
121
Aci
aller
Medica
emigra
##mberga
Party
tributa
attirare
invitati
recettori
##cense
aiutò
##eli
Ligue
Muore
teneva
ricopri
assessore
qualificar
Mississippi
sit
##cconi
Giun
Pink
##dovest
concept
chiamano
subacque
parametro
simbolica
##pici
giungono
stradali
praticato
##ulu
##anzio
acuta
rosson
Fortuna
evidentemente
Never
carrozze
potranno
Noto
Xbox
trai
folle
Middle
Marchese
formarono
nipp
Marzo
duchi
inden
Rudolf
placca
rimpiazzato
oppre
Crocifisso
1811
vaga
valse
calces
condiviso
proiettile
##pur
Dere
Lost
forno
lente
offri
##versali
future
istante
Avellino
solitudine
TA
##vone
Tad
Equi
León
Misso
gialli
inclinazione
unirono
martirio
Pontificia
rilasciata
##cava
##vario
Erik
Gamb
fuggì
Second
costanti
##chs
##idea
##quin
pap
socialismo
sostituite
Metropolitan
##bei
##ots
##ères
##mbedue
Symph
Azione
Wagner
Concerto
notturno
Mess
##colati
balletto
ritenuti
antologia
eliminando
##ggiar
prem
Brothers
Cimitero
ereditato
magazzini
##ennes
Cane
Somalia
risultare
accompagnati
α
##conia
Amanda
riconfermato
provvedimenti
Gin
emesso
fiamma
inganno
canadesi
riscontro
Serenissima
ricercatore
you
##rerie
Balle
incarna
##stolo
Vuel
Sigis
vinti
Ingegn
Toledo
Nessuno
CPU
apprende
ingegner
producendo
ovale
Chieti
assali
avvelena
Tennessee
aumentata
Tho
Santissimo
Xi
somigli
differenziale
Dé
##leto
roma
Carla
sedia
Phoenix
mestiere
attaccarono
##campo
Nori
Vivi
Whit
Boris
Valli
intima
##ericordia
cartelli
terrazza
razionale
funzionali
##irò
##mile
##ingen
Elsa
sasso
Matera
Chelsea
sentieri
promotore
##carlo
Viola
zombi
sedili
Caraibi
dividono
filogene
scoprirà
brillanti
##zana
260
##riate
Galea
Bolivia
Bristol
ammoder
compiuta
gerarchia
Teso
ottime
telefilm
tentarono
Sad
calz
##ingham
Martina
farmace
Basti
ondata
Carmelo
schieramento
citate
Saverio
Tirreno
avviare
avvengono
##oul
##roli
Dog
Montré
confis
zoo
##grafe
Johan
Pozzo
Friend
##zzanotte
finanze
##tual
Von
##tribù
##mental
Glasgow
apposita
GS
az
##uoto
Troia
Severo
lasciati
romantico
obbligatoria
Mün
1813
fortun
##zionando
risolto
artigiani
municipale
distruggendo
lateralmente
Lara
Lock
##clette
Fritz
sembi
fascino
corrispondono
##MC
suppone
designer
infezioni
cis
Nash
usur
##ginale
Tiziano
##45
bion
degrado
Airlines
insufficienza
##umani
Dyna
Hara
Ragusa
escono
biblioteche
##mmia
Pont
Piave
beati
cometa
usciti
cercarono
Scon
evange
rapito
parag
visioni
##tite
tiri
sinta
usava
Murphy
Montréal
sopraele
Britannica
menzionata
morfologia
sottotenente
##isiana
Montenegro
Stock
guidate
tramonto
Churchill
paes
delta
tromb
riparo
sparse
isolata
abitudine
rettiline
antistante
##born
##pano
usò
ottenute
prestare
##gili
seme
disporre
mobilità
Kiev
Keith
Place
##borough
scarpe
tregua
##bad
##arne
coadiu
smenti
für
##zzola
1794
ingen
calice
lastre
Alessandra
##dee
Gan
Lucre
Indepen
fissata
pretese
citazioni
coordinamento
##storo
Vista
Hospital
comprare
espressi
indicava
ingaggio
opportuna
proponendo
##elling
vulcano
rapimento
##uan
Nun
lana
manifa
Azerbai
anziana
Armstrong
positivamente
##ár
Tang
fari
Hills
Vasco
Justin
sangui
freccia
torrenti
infortuni
##llina
Coro
palio
ducati
rivelano
seriamente
##EM
##minari
diceva
militanti
progressi
controversia
##lesi
##viato
Owen
Daily
Vuelta
avranno
convocati
##36
1803
uscente
detenzione
dipartimenti
Kenya
flauto
specchi
gratuito
porzioni
cambiando
colonizzazione
##FS
ko
##rett
Eni
1828
Santos
causati
Principessa
intrattenimento
alza
cubi
Agata
Fiera
fitta
essenza
vengano
rimbalzi
permisero
##giane
1824
Hugh
Side
##vvigion
alleata
burocra
occuparono
##iononostante
prevedevano
episto
piazze
accidentalmente
##PI
##oldo
##rell
Beth
atro
rilu
ammessa
colpiti
calcestru
affermazioni
equipaggiato
infrastruttura
##ides
mons
icona
laici
spari
opportuno
##crea
Interno
Gé
Wolfgang
cronometro
##chte
##zzone
Virtus
alleva
assunta
mediche
ritenne
richiese
astronave
garantisce
1400
Vica
sinodo
pensando
ininterro
Rappresenta
##fs
beta
fluo
rigen
abitacolo
cellulari
integrata
alimentato
reclusione
Sava
fornì
Bellini
bottino
spirale
abbattuto
governare
Grotta
volanti
Caroline
iP
neozel
Possono
garanzia
setta
subur
Olympi
Bordeaux
distrutte
Osservatorio
##ril
##vic
NO
reag
asser
fermò
pugno
arredi
duetto
Wallace
sospesa
##giati
pana
##bbiamo
conchi
rimpro
Nicholas
ostaggio
attestata
redattore
##maro
Rani
Cliff
##urazione
dinanzi
segnala
ballerina
Esta
lord
asilo
Bobbio
mandare
Gis
##https
Hunt
scre
Massi
orbitale
metallico
sindacali
Architettura
##mous
Maxi
incer
##tandola
credono
affrontò
tagliare
Stoccarda
copyright
ambasciata
presieduto
clandestina
##manno
Cris
##utiche
Liegi
addome
alpini
intervis
delu
##cutore
abuso
Scipione
gratuitamente
##zuki
##fried
nubi
avuta
visuale
condensa
vs
sir
##nista
muti
Jorge
Dresda
corteccia
purtroppo
finanziare
illustrato
##anu
##cles
##resco
Ming
École
superò
dorsali
motomondiale
sma
false
agenzie
rituali
esclusivo
esposizioni
commissionato
Zei
##ziosa
conn
alcol
Secret
attraversata
Hé
##mount
repre
Teramo
sponde
Vittore
andavano
##colarmente
##Da
odore
Hudson
Southern
Dati
Jake
chip
Berto
cartu
aggiunsero
denominati
missionari
##yama
NBC
##viali
##ompati
Prose
semicir
lombarda
fortificato
incontrarono
##ronia
Forse
ragni
ordinazione
parallelamente
##lucci
Terni
vacante
curiosità
Gigi
mega
trapi
gotica
sapendo
stucchi
romantica
sentimentale
##tage
sprint
biologico
##mour
##sorio
Veni
Manzoni
eccezioni
EC
SG
##trea
diss
Borsa
esistevano
##26
mila
sapi
mandò
bandito
itinerario
Amp
Core
freno
defici
Medieval
consorzio
piemontesi
radiazioni
accampamento
Rev
Avenue
sottose
attaccati
RCA
Sna
Hannover
terraferma
approvvigion
##olla
##ctory
##ostal
Vane
##uccini
Seven
Floren
idrovol
Ultimate
adattato
riparare
sotterranei
accoppiamento
Qualificazioni
##NO
##rpe
##tita
Fru
##inare
radun
Agnese
Fantasy
sappiamo
Seminario
accorpato
complotto
satellitare
##inti
Raga
monarca
invasioni
dé
Tea
##chten
Regg
suffi
contadino
trascorrere
suggeriscono
DA
Ced
Paro
##ortate
Tullio
rinunciò
mercantile
##enici
##berger
benes
adatti
alpina
carenza
Ble
fio
Pitts
##ttesimo
lateri
##ttamento
terracotta
Buona
Capra
operano
rettili
dispetto
istituzionali
##ccari
##fania
Paso
addor
Consul
Viareggio
asteroide
ristretto
##ires
Obi
acquistati
Luft
Japan
Panama
negative
pendenza
ceramiche
facendolo
mantenuta
1829
Dennis
Gregor
legioni
Collection
condottiero
presidenziale
Here
Hope
Ernest
Annunzio
veneziani
attribuire
eccellenza
rivoluzionaria
Gib
Ghost
Benito
Missouri
decorate
marittimo
sembianze
moltissimi
##hausen
verni
riacqu
##omercato
fiammin
ipotizza
Pippo
facol
Lavora
Shadow
prevedono
Inca
lode
subendo
unanime
rinominata
repubblicani
Kru
ceduta
cereali
passava
linguistico
##fus
##nar
Masa
Lotus
Sanse
radioatti
abbondanza
guarigione
##kor
Gustav
##jon
Eco
dann
##ducato
tribuna
avvenimento
Anda
Vara
filone
grassi
risied
trascrizione
##wing
Fore
Betty
parali
fotografica
##cut
eccessivo
##Cfr
##eting
eleva
alieno
predisp
tragitto
Municipio
processori
autovettura
##tosa
Hear
Touri
stucco
piscina
Ferdinand
nobiliare
ricongiun
##kos
##été
ladro
Marcus
milizie
Belgrado
svolgeva
conferisce
hea
##thing
1822
Ruth
coma
side
García
civica
##nel
##inone
serbo
Rangers
involon
desideri
Salisburgo
apparecchiature
funi
Chart
ripos
filosofica
pietà
elevazione
squalifica
miglioramenti
gine
Estre
Notte
##gliando
Astron
Roberts
affitto
esisten
inventore
scalinata
Wu
##ption
Mere
##anello
domici
identica
scissione
##27
Ivano
Major
funghi
contesti
riflessi
##ury
Reed
Salomone
splendore
distintivo
##rí
##bber
##luca
##pine
##user
concet
obsole
Cameron
assegnò
periodici
riprender
##ssini
Gher
Creek
silla
eterna
Porsche
angolare
influenzata
##oti
Gott
ecos
scetti
ammesse
release
monumentali
buco
euca
salu
Lennon
rimaneva
collocate
presentate
##mol
rose
Speciali
Deep
Lato
##mingham
Molise
Collabo
Islanda
vietato
apprezzata
radicalmente
Flu
Cata
##guardi
bacio
moduli
##miraglio
peggiore
espressamente
Dir
Scal
dipinse
quadran
pericoli
progettati
totalizzato
sommergibili
Annunciazione
Octo
Shaw
bala
strategie
cancellato
campionessa
prolungamento
##mese
Betti
Dottor
regular
scoppiò
tamburo
##ettel
ucra
sincroni
##xo
tria
diser
Picture
isolati
temporaneo
##hed
SU
cami
miste
inquie
dittatore
innovativo
##orno
131
320
Ferru
chitarre
##LS
Lamp
Annali
amichevoli
##omon
1827
piene
Palace
approvò
libreria
##i
##a
##e
##o
##n
##t
##r
##l
##s
##c
##d
##u
##p
##m
##g
##v
##,
##f
##z
##.
##h
##b
##"
##'
##1
##I
##0
##S
##C
##q
##A
##L
##2
##9
##M
##P
##è
##à
##B
##G
##)
##(
##D
##T
##R
##-
##F
##8
##y
##5
##3
##ò
##4
##6
##k
##7
##E
##V
##N
##:
##H
##O
##ù
##U
##w
##;
##J
##ì
##é
##W
##K
##x
##Q
##X
##/
##j
##Z
##È
##Y
##’
##»
##«
##%
##_
##–
##”
##“
##&
##á
##°
##ü
##ó
##í
##ö
##=
##!
##]
##[
##?
##+
##ä
##ç
##č
##ñ
##ā
##É
##ō
##|
##š
##ë
##ú
##â
##ć
##—
##ã
###
##ī
##$
##ă
##‘
##ô
##α
##ø
##ū
##æ
##*
##ê
##ß
##ž
##×
##ο
##>
##ș
##Š
##Á
##ł
##ʿ
##Č
##ς
##å
##î
##ν
##μ
##Ö
##ρ
##€
##ï
##ι
##а
##<
##τ
##ı
##ε
##−
##λ
##о
##β
##ş
##σ
##и
##е
##π
##ț
##κ
##•
##†
##н
##р
##ń
##γ
##Ž
##û
##ḥ
##·
##£
##ý
##ð
##η
