[PAD]
[unused0]
[unused1]
[unused2]
[unused3]
[unused4]
[unused5]
[unused6]
[unused7]
[unused8]
[unused9]
[unused10]
[unused11]
[unused12]
[unused13]
[unused14]
[unused15]
[unused16]
[unused17]
[unused18]
[unused19]
[unused20]
[unused21]
[unused22]
[unused23]
[unused24]
[unused25]
[unused26]
[unused27]
[unused28]
[unused29]
[unused30]
[unused31]
[unused32]
[unused33]
[unused34]
[unused35]
[unused36]
[unused37]
[unused38]
[unused39]
[unused40]
[unused41]
[unused42]
[unused43]
[unused44]
[unused45]
[unused46]
[unused47]
[unused48]
[unused49]
[unused50]
[unused51]
[unused52]
[unused53]
[unused54]
[unused55]
[unused56]
[unused57]
[unused58]
[unused59]
[unused60]
[unused61]
[unused62]
[unused63]
[unused64]
[unused65]
[unused66]
[unused67]
[unused68]
[unused69]
[unused70]
[unused71]
[unused72]
[unused73]
[unused74]
[unused75]
[unused76]
[unused77]
[unused78]
[unused79]
[unused80]
[unused81]
[unused82]
[unused83]
[unused84]
[unused85]
[unused86]
[unused87]
[unused88]
[unused89]
[unused90]
[unused91]
[unused92]
[unused93]
[unused94]
[unused95]
[unused96]
[unused97]
[unused98]
[unused99]
[UNK]
[CLS]
[SEP]
[MASK]
p
s
.
v
##ov
,
a
n
##st
##en
##ch
##ra
o
##ie
##ro
z
k
##re
##to
##la
d
##sk
m
##ne
na
##li
##je
po
##an
##om
##ri
##ho
##te
##le
b
##ia
##lo
je
##in
##ko
1
sa
P
t
ro
##al
##vo
)
(
##rá
##ku
S
##ých
"
##ti
ob
##ci
##va
bo
##on
##er
V
##ej
pre
##ck
##ni
##mi
M
##ar
do
##no
2
N
-
##né
##ce
##na
kto
##de
za
##or
##ta
h
##sti
f
A
č
B
vy
##ka
u
##tu
##et
##ed
T
19
##ou
K
##jú
##as
##il
##ru
##po
ne
##ob
pr
D
20
##ad
š
##me
de
##kov
##ný
roku
I
##nej
st
##lov
ktor
od
##sta
Po
C
##ran
##ád
##ého
##ky
J
O
R
ž
vý
##ova
vo
pri
##ná
##teľ
H
L
##ší
##ak
##rov
##za
sú
re
##ny
##men
pod
ú
ako
##ve
##lu
##du
##ní
##bo
ná
##da
##zi
##pe
##ovan
##mu
roz
##lá
##ja
i
Na
zá
to
##uje
##sť
naj
##se
##tá
##ca
Z
##ým
F
te
aj
##len
200
##be
##di
##vi
bol
e
##voj
ma
##vy
g
G
E
##ol
##up
##ensk
pro
ve
:
ale
##mo
##sky
##kla
##ud
##nu
##ený
##pi
##ádza
##ska
mo
##ných
##gi
pred
##at
ho
in
##rí
##ma
##ty
##ur
##vateľ
##es
In
oby
##chádza
##úz
##hu
##sto
##cie
se
##skej
sta
##ba
spo
##ľa
prí
##ly
##pu
##už
##ranc
##rie
obyvateľ
##ká
že
jed
má
##rancúz
##tov
kon
##nom
##šie
##od
##stup
##by
##tion
me
sp
##tí
##bu
##ného
/
##lovensk
##raz
##vá
##ry
obyvateľov
##lož
##ál
ka
##qu
##line
##sko
##cia
##em
##dy
ch
##sa
francúz
ktorá
##si
j
poč
##enie
3
vz
##ím
ce
on
##it
–
##rom
bod
##ené
##zna
U
vš
##rod
##že
online
c
é
ktoré
ktorý
##nú
bola
##tom
##klad
##ťa
jeho
l
le
201
##cov
nie
##sle
##ke
##ha
##ená
##júci
##ani
##ale
alebo
##ec
##ča
##tú
##nov
##lav
ko
##ver
##kom
##van
Ma
zo
##he
##rad
##kon
##nosti
##sku
##či
nachádza
18
##my
svoj
pra
##tick
Do
##iny
##ným
dru
tak
Č
##čia
##red
##sob
##is
la
W
4
##raf
prv
Š
##nosť
med
5
##vyš
“
##ín
„
##el
##oval
so
##ár
##us
##ent
##ina
##ria
##ré
veľ
##rch
mie
nov
##čas
##ži
boli
##stav
##kt
##pa
Je
Naj
##ský
##pra
ži
##pad
##enia
##ist
až
199
##sled
si
2009
sto
voj
čas
##ul
##zá
##00
##un
##ali
sy
##lí
##vä
##am
##raj
ča
##hy
bolo
##kou
##nou
obce
##vod
##ter
Slovensk
pô
Ne
##ši
by
##óne
nap
et
6
##sla
##ová
##rick
ra
##ení
r
obec
##ok
##gu
##ská
krá
##par
sku
##ského
regi
##dob
##fi
au
prie
##des
##tor
##iná
##koch
##niž
##lohu
##ske
##rej
##nd
##iež
kom
##ňa
##os
li
##ste
##tvo
des
##ovej
##ili
##ovať
##bra
##ské
##ich
##stvo
##zem
však
##čí
##omi
##bli
##ložený
]
[
##hra
ď
##bec
##ujú
##vyšší
##rg
##eď
ja
obci
francúzsky
##stupné
##que
druh
zob
8
medzi
##tional
sk
7
ich
##iac
##ég
##loč
##anie
##ôr
##ckej
vývoj
##mer
##tisti
##pula
tu
prá
##con
##ými
##lom
##ier
##vet
##nych
rozlohu
už
##dujúci
použ
##val
##tions
zobraz
##ques
##čet
##mente
##stitu
##ng
depar
##och
##asle
regióne
Dostupné
##vr
Najvyšší
##ských
Institu
di
##ales
graf
najniž
kde
##see
Obec
nad
##ber
##skom
lég
Popula
francúzska
departe
statisti
položený
najnižší
ok
Insee
statistique
Institut
##ových
departemente
##conomi
national
##tudes
études
Populations
économi
légales
économiques
Nasle
počtu
##tív
čo
##um
##ing
Počet
storo
ju
##cké
hlav
##res
##por
##strov
##št
rokoch
##riad
##ciu
men
##án
jedno
jej
##vie
spoloč
zobrazuje
Sa
Nasledujúci
9
skup
##ové
##mie
##vom
##ís
##stva
pov
štá
ľ
17
St
##ze
ak
be
##den
##ších
##ut
al
##skôr
##pis
##hod
##lád
rokov
súčas
Ch
poz
198
slovensk
##vu
##znam
ex
##ard
##ón
št
##ví
##zy
##ovali
##stá
##last
ci
##ovi
##ene
##im
ďal
tiež
hra
##cii
##bi
Ka
##cu
vys
Bo
##tok
zí
##ník
##rati
##bor
mu
##uró
mal
náz
##cký
##roj
15
##and
##spe
##tia
194
keď
Al
kraj
##té
tvo
Mar
##má
##cho
vzni
##for
##ový
ved
##die
##ovala
##sad
vä
##ovaný
##nes
Ro
Pa
mno
##lia
##toč
##ania
len
##lú
územ
org
dom
lo
##lne
spolu
dô
197
##com
##voje
##ge
všet
die
16
Pre
viac
##inu
##íva
Od
##ckých
##sia
##koľ
196
Ko
op
pat
Le
časti
pla
10
če
Mo
##rát
##ách
podľa
##vý
##ľad
##ených
či
Mi
##žd
12
##álne
for
mô
##lad
##žia
svoje
tom
jú
Ž
##stí
oko
##šte
Ve
Ja
##les
##kto
;
mož
ško
##ved
živo
storočia
##ované
##sté
##ir
##stú
##ana
neskôr
##cou
##ub
rov
Za
##lie
##chod
*
pa
ľud
##cky
zd
ru
##ovanie
##ek
##čš
cel
##ané
proti
##zo
obla
##znač
člen
##tie
fil
zná
##ga
##tvor
zna
Pod
Li
svet
veľk
stre
##uróp
##zd
aby
##eni
preto
Me
tr
##vali
##cí
vlast
sve
pot
pok
##stat
##nie
0
##ľov
Vy
##ilo
Jo
##ala
tej
obdob
##skeho
bez
no
##ckého
##ento
##rob
Brati
##nič
14
##vé
poli
rá
pe
hud
13
Če
##rm
počas
##ením
vrch
albu
##hor
ty
##žne
vlád
##logi
Se
byť
bud
Zá
##poj
195
##sy
fe
stra
##merick
organi
##cká
##man
##lej
##ovo
La
##stvá
##ied
niekoľ
of
##pre
vých
národ
ni
Re
Bratisla
##sah
Vo
11
##zmu
##mov
Pri
##nými
Pra
##čné
##id
časť
vyd
##óg
mi
##spo
stal
##ôsob
##niver
##ára
##aný
##rem
The
193
par
##anu
met
##edy
hod
##ron
mesta
##ven
##roch
Ná
To
systé
##ží
##tý
##hol
zača
##lekt
veľmi
##lé
sever
rie
os
Ba
hrá
##še
##ším
##ýva
rod
##íd
An
##tky
##äť
##zu
##ove
##mä
##las
II
##jstrov
pôvod
##ovaná
##vil
pôsob
##th
##hľad
Jeho
##kých
##cií
##sp
##000
##ôz
##rán
##do
##aná
##isto
##rany
pá
fun
tri
##rál
##tin
potom
##teri
lie
ur
dl
Lo
##ádz
##tku
Be
##rač
##stred
##ct
tra
tejto
##lan
muž
min
##konč
Ha
Pr
w
##dia
môže
##ťaž
##del
podob
##pas
význam
%
##níkov
rôz
bi
##aní
##zná
##šia
##zí
spoj
tre
Med
oblasti
prvý
Au
##prí
##stie
žia
##áva
vi
##su
##čne
označ
ta
najmä
an
De
##gra
##rne
auto
##kej
rí
Te
kul
##ša
ktorej
arch
##ite
##sel
##šet
##rak
##čka
##ine
dva
stred
##čom
##lep
základ
##anov
elekt
##cha
##go
Ju
##čast
##ciou
##pl
##pte
en
Pe
ba
iba
##tka
##chy
obja
miest
Y
boj
##prav
##ruk
Ho
192
založ
##vis
##gy
slov
##hnu
samo
##stal
dvo
##ráv
používa
získa
Slovensku
americk
ví
klu
štú
##júce
Ú
##čný
spôsob
##tou
##krát
##hli
##graf
Ar
fa
##tt
##óri
##itu
Kon
##SA
##če
Fran
star
##rou
skupiny
mesto
Veľ
##bal
##pov
##mr
##pon
##ťaz
##stu
##tli
##cé
ver
##ant
neme
##zv
##skych
vrá
och
hor
##ového
ktorých
každ
##daj
##rit
000
##lez
##ig
##ena
##inou
Ru
zač
##ply
##ril
vyh
##mbra
191
kráľov
asi
bu
##ríklad
##losti
tur
niekoľko
##bri
##nym
pria
##so
sklad
napr
kultú
##nil
##klada
cent
##zie
funk
Európ
jazy
toho
pos
získ
väčš
niek
##ieto
výš
##der
zmen
vod
ešte
Ra
##mor
##ďa
##jek
rých
západ
##bru
##któ
##niverzi
##lex
Ob
##son
##rat
##lovi
##lán
##ťou
naz
ktorí
##tej
kri
okolo
nep
Vý
východ
osob
##rd
##reb
využ
janu
postav
ned
septe
dosta
##iet
##dla
zápas
stá
##tne
##kol
mar
napríklad
pomo
##uni
##co
my
Pro
†
prev
##nice
##šiel
hudob
##jstrovstvá
začia
##ziná
##ngli
##šej
tzv
##mien
svojej
##ónov
##zinárod
##mom
stav
##tra
sveta
októ
##py
##kaz
sez
##diel
##alej
postup
##ari
##ža
##stúp
man
##gen
cez
##int
sme
úspe
posled
##ciál
Par
nebo
##tívne
najvä
30
sil
##nica
Kr
mest
##ĺž
kan
mali
##chu
##naj
##miest
##bs
##ovania
##tud
##che
##áto
čin
##ren
km
##ovaž
pam
##šlo
##mí
##lym
##hrad
at
tech
##ster
##ovalo
spra
##fa
majú
dvoj
So
##tro
He
##publi
##há
urč
ku
##vou
##žstvo
riad
rovna
Sta
ov
vojny
dece
dob
augu
##skou
##cko
meste
Vi
Podľa
tele
tým
rozhod
##čnej
novem
spe
##stri
##hto
##rel
##stavi
tvor
dve
'
nej
du
##via
##ologi
##žu
##kým
##iť
ktorého
##skú
miesto
##hov
aprí
pie
##cen
By
##ským
cie
USA
25
##níka
he
##eda
Počas
získal
jeden
svojho
tohto
##ovaní
##delen
histo
ktorú
rok
##zen
prav
manže
##xi
pribli
Má
Bol
mala
##dár
násled
kedy
pracov
##bie
dvoch
šty
teda
začal
##čov
smr
lieta
##zer
pres
the
často
##rove
##nejšie
štát
ume
##iek
juž
pu
Da
vyš
titu
##hla
##anskej
##ory
##bou
ani
Pred
republi
pričom
Neme
štúdi
##tol
##kú
##ros
##ment
tých
Mon
tomto
##kami
arm
##ám
území
##júcich
##šti
Di
komp
Lu
##nik
Ď
##pade
mili
##mon
##čných
Bu
##ila
Ca
nich
##cka
##ckom
_
##sil
Saint
tomu
##sty
##tické
##pla
febru
da
pretože
##čin
pís
považ
vied
##bur
im
##oru
súčasnosti
exist
približne
dosia
##mati
##slu
##jí
poľ
##ovateľ
vyda
21
gene
ľa
2006
stani
##stov
ostrov
svoju
archite
##dr
##zia
##til
##roveň
prof
armád
##láš
far
##chov
##cej
víťaz
mnoh
cir
umiest
##ďaka
čase
##ilozo
##mož
Sú
##šiu
Ak
druhej
voľ
2010
hvie
##ité
predstav
vojensk
období
všetkých
##stra
dá
##bud
krí
síd
##ková
##stáva
Tu
produ
##ire
ope
pokrač
##ik
Du
##ried
univerzi
2008
Francúz
##ral
##čky
zlož
##ďar
ge
cha
##ym
najväč
##au
ďalšie
##fe
##gne
inter
##meri
výro
Co
##losť
##iec
##lin
##iteľ
ň
##peč
##plyv
##ké
ven
##stro
##rb
##iaľ
prob
##chop
Spoj
##art
prostred
obsah
##ovom
ktorom
vte
Ľ
##ívan
lete
plo
Tento
progra
##ord
##líz
##klo
sprá
tento
polovi
názov
##alian
Slov
##ini
výraz
##cku
##var
##ten
##štruk
kla
##teg
##spodár
22
##stve
uli
syn
dlh
##rú
Bratislave
##dov
strany
gré
lá
##pá
##ína
##skup
Ga
špe
hlavne
slu
Ok
##ruš
##lympi
prírod
komuni
Jed
##per
Keď
##rav
##tvá
cen
##nosťou
##ttp
24
##tuje
##roz
2007
ťaž
##iach
Spo
##plo
##ciach
##riek
##ces
mes
prezi
##kova
rad
kvali
Kar
patrí
týchto
##ton
seve
New
2011
Slovenska
svojich
súčasťou
ded
##šli
spoločnosti
zame
názvom
##nost
známy
Ge
manžel
##zmus
##ckým
slú
##yzi
##ýval
##ró
album
všetky
##fer
##vid
##ckú
##tné
##neho
##podob
storočí
##eniu
##lobo
##stre
##rili
##risti
Ako
blíz
zvä
190
vnú
mlad
Cha
tím
fut
2012
skú
lite
X
##ôli
##cami
Medzi
Mich
ar
##konom
##fiká
infor
zach
##aniel
23
##stol
##hom
cis
##kali
vá
##hral
##inách
##ňuje
ide
##zuje
##účast
Majstrovstvá
pohy
nepo
2005
organizá
##cke
mieste
##ér
hodno
dnes
##pen
viacer
##ckou
##leži
##inan
##ond
##ovýchod
##land
konc
##íta
rám
##vôli
##neš
##klade
filozo
verej
iné
želez
##bez
vysok
##vin
Ber
##liš
##ktoré
Česko
podpor
##éri
and
##med
##tr
skupina
##tál
Eu
krát
##níct
##oviet
##šetkým
vytvo
súťa
##iel
##toch
##ovšetkým
Ni
čer
Ta
počet
odo
##ciálne
hokej
nedo
najlep
##met
##tolí
nasle
ze
##hi
ľudí
angli
ďalších
medzinárod
##vodu
vzťa
služ
problé
pochádza
##kul
moto
vyhlá
##prá
##šieho
politick
##západ
priest
mužov
možné
##depodob
##čná
Hor
##ľú
klub
drá
##stom
obchod
doby
##ovú
##tým
##ológ
##ys
Bratislava
##ľom
formu
bá
##nika
zvo
život
profes
predovšetkým
##cy
##lár
##dá
prípad
film
svetovej
tla
2014
štvr
##dlo
charak
##stúpi
poh
okrem
Mal
=
##matick
Ameri
možno
##kovej
čia
##óny
Pet
rámci
diva
##ísal
##wa
##ív
##láv
2013
##enej
kni
50
##lou
##vät
tex
mon
##pro
##mber
##vanie
ry
##túry
##ráž
rím
Joh
##min
Zo
##iu
And
Tak
##zn
##rec
##jom
##pol
prvej
uved
niektor
ostat
##stiev
##čaj
##aných
##lil
##hrá
začala
odbor
##ler
##ký
’
##ln
Ex
##rin
smrti
troch
##šou
abs
sna
##kladateľ
26
##rese
##tes
jedin
iných
##žil
##iela
tý
##oto
2004
väč
života
Ze
##stúpil
##bre
okres
##niť
zm
kre
##vrd
začiatku
titul
##pom
su
##ógi
prete
##hou
stu
28
##skutoč
80
bude
pan
Okrem
tieto
člov
##pli
27
politi
dostal
olympi
Mu
##meň
##obe
pozor
takmer
##tvára
##kové
##mok
svete
smerom
Gu
Fa
##čného
otvor
##ác
##dol
znamen
vlády
##cel
moder
##rácie
##šom
býval
##tár
dis
189
http
Bystri
##ír
mája
dneš
umož
##kli
per
nábo
dĺž
zahra
pamia
historick
pal
septembra
oh
fyzi
##vádza
vďaka
schop
##ári
systém
##sať
les
stala
##ovaných
nes
##paniel
ten
Bri
##ner
##rácia
Koši
##ovou
##út
zároveň
vede
slovenský
Kom
Bar
ww
vyso
##mot
môžu
www
##sen
Európy
repre
rozší
##op
Jej
##radí
júna
umiestn
pravdepodob
##čku
publi
##znamen
októbra
európ
##grafi
##lon
techni
##úd
rôznych
##ami
##zal
sí
juh
Nie
opäť
januára
##ang
##níkom
jednotli
skutoč
##SS
obraz
##nymi
sed
kvôli
dcé
##nili
##our
##zov
2000
kr
##eného
vzdia
##osti
zi
televí
##óna
##mes
##sahu
##ôvod
No
uskutoč
žiad
##úto
##tiež
Roz
def
##šov
júla
Ku
100
##kár
umen
##ted
preds
rast
Tat
poho
vr
obe
architek
##ruž
výsku
zúčast
strane
##ností
vzdialen
##čiť
turnaj
materi
prvé
Q
hy
krajiny
Ďal
štud
Poľ
sym
2003
pôsobil
##ónu
republiky
výške
povrch
##níci
ďalej
Com
2001
Ri
##ejšie
Per
##any
##oni
ad
neho
##tane
Tur
zom
spis
##íc
##telia
polo
Prí
nád
##iro
##jed
ener
##slav
prevádz
##rna
zb
územie
2015
29
chrá
marca
2002
##tivi
augusta
miesta
Gré
##vých
pomocou
niektorých
##kosti
##pust
dej
##obec
posla
kateg
spoločnosť
##ovým
dre
základe
spom
špor
##vať
##rila
##iace
brit
von
kráľa
##koniec
začali
Vz
##vš
##liteľ
nevy
San
Nor
##ranu
hľad
novembra
úspeš
Hlav
podmien
##kona
roky
##ino
objav
apríla
pomen
Á
hist
##strá
decembra
##hat
Char
pomer
strán
samostat
##akú
##aním
Ce
##obil
absol
##žen
sva
##ary
výsled
##anom
##nia
Wil
konci
##opis
##ras
##ff
##dé
##tím
zla
diela
kor
Pla
##šími
##órii
Su
##ovin
Si
koz
finan
pop
##čie
##sne
##fé
##vajú
Ján
dobe
postupne
juho
Táto
vše
množstvo
výstav
olympij
ha
31
klasi
územia
##stavy
##osť
##ris
ní
kar
##konomi
##pt
##ert
sv
##lit
We
okrese
60
Py
ofi
mus
40
najvyš
školy
Euró
preva
188
Alex
##riť
##vili
členov
##inále
zvyš
Slovenskej
##nici
než
metrov
jedna
zah
pev
##esť
Val
spevá
##nému
žien
##19
Man
com
vytvor
druž
##stvom
##ji
budú
hrad
nové
Nachádza
##dent
maj
##ft
##núť
Ti
používan
##cich
vrátane
náv
##ruh
dokon
bra
##rum
následne
vla
potreb
čís
teplo
##gh
##kvi
mimo
malo
##ah
premen
zem
preja
Af
veľké
ukonč
sing
sezóne
ot
##jem
Tieto
popu
kol
##top
Loire
počíta
prac
##rok
187
posky
vysky
členom
##liny
##tec
##jíma
Neskôr
patria
2016
##ada
##star
##órie
##noho
pôvodne
##ister
##pusti
Go
##žit
ňom
zh
##lenie
kó
priemy
##tiaľ
##bí
účin
situ
fir
##toval
##tkom
formula
staro
##jekt
##ývan
Národ
meno
obyvateľstva
zariad
prípade
Car
##bezpeč
úp
##pravy
stále
##tnu
##nila
##čian
projek
##ers
##rodil
zmlu
·
cho
##rol
obdobia
požia
budov
##pr
vyrá
plá
roka
potok
sie
práv
štyri
&
por
##rus
##rovi
hviez
nezá
##kový
bie
ri
druhý
##cion
priebe
##aleko
čím
toto
##poved
člán
predstavi
##tla
##dine
##kovi
det
umele
Bi
ves
1998
tran
Martin
##mal
slovenskej
##rn
##bieha
ktorým
pia
##voja
##ovaním
provin
nazýva
kráľ
Rakú
##pln
III
##orov
vzdu
##roni
Sy
vojne
##feren
##ley
##ski
roč
nachádzajú
At
##slov
hla
##jad
tan
ori
dod
cy
##lok
##rié
Fe
##lina
ekonomi
zvý
štý
##enom
hu
##50
##riá
Joze
dlho
##čila
pl
##lený
ply
prvýkrát
vzde
troj
##túra
##deľ
##arilo
nadmor
dr
nez
##kovo
albumu
##har
rôzne
skon
ban
##str
smer
päť
Kri
##zb
##úze
Krá
##ld
##én
Rob
##ciali
Vla
##káza
Parí
##uč
##tiš
str
štátu
obsad
##óm
vesmí
využíva
##čína
pápe
Bre
##tali
kostol
##ot
fakul
oblasť
##ziu
kú
##čili
186
mode
práce
##tný
Já
##bav
niektoré
Dol
trie
pravdepodobne
vie
organiz
kape
##omet
##koná
##mb
##skor
dra
##kev
úlo
časopis
spá
severo
neu
##zii
známe
Rad
##pozí
Yor
domá
vybud
Slovensko
##čiar
reb
tvorí
oce
##tán
##skym
strie
šta
Por
1999
informá
Lond
Pan
##ki
##rab
##kro
bit
všeobec
Talian
prin
pravi
##ph
##bil
##ts
##hľadom
##omo
##hlas
##ieb
##rilo
1990
podp
Sch
mnohých
foto
vyhlás
februára
nasledu
##tef
kresť
práve
dňa
jedným
Qu
Európe
jad
objek
zdroj
reali
minu
plat
##roma
typu
preziden
vtedy
dia
70
##zor
##berá
proces
##kmi
prija
##ždy
Sever
Bel
##rali
##álny
bre
taktiež
čier
##razi
skonč
vytvára
aka
##bus
##nejších
tvoria
nakoniec
Ži
autom
Va
leží
Star
priamo
Nap
En
rozdiel
prítok
doku
mnoho
Aj
##ger
jednej
Stred
Banskej
štruk
pozo
##šť
##lobod
šk
##tel
##20
dy
##dem
##let
##pat
poš
fede
184
futbal
?
##eny
Ľud
##rich
mate
otá
sur
Mari
svojom
Pi
##slovensk
##čnú
##ňov
došlo
##mbri
Con
obsahuje
Pat
##stava
##vania
té
tis
##kových
plané
reprezen
SR
dôsled
Uhor
##dila
kata
ist
jedného
býva
vyjad
Čer
soviet
kosto
##ória
náj
##teľom
tam
litera
##lín
##bili
deň
##seň
##kach
##ujúce
Pôvod
##rid
produk
maje
kole
90
resp
slúži
##kraj
člove
biskup
zmy
2017
viacerých
podarilo
vl
lí
Hu
hospodár
úse
Maďar
##sluš
navr
Os
polovici
správ
##ore
##novu
rieky
dokonca
##znám
##át
##tickej
uza
##stroj
množ
##ode
kry
Ban
kapi
For
##ležito
##pel
##chi
##ju
okraj
##ticky
pás
##ano
rebrí
výrob
##šenie
pohyb
Nit
##tých
sla
karié
1945
druhov
Fer
sub
Cel
##sťah
úto
situá
##ór
##itý
##mos
prístup
priebehu
tí
Alexand
##eným
1992
hlas
cest
vô
Har
úrad
menej
komplex
##ať
Or
##stran
##bách
##tnej
Cent
##zky
zv
##cent
hmot
##vky
Pu
1997
gu
##tický
##nami
veliteľ
cirkev
##mou
nepria
bun
niekedy
jednodu
1995
##emi
##ovor
Prvý
ovplyv
fak
##pes
čí
cesta
va
Mesto
##knu
stroj
nasled
ochrany
družstvo
menom
Hen
vedú
vznikla
zvy
##kup
maďar
##štev
prebieha
stup
nadmorskej
absolv
Ke
1993
symbo
1991
##kladá
kriti
##kách
ním
vozi
rezer
##kál
mas
##sau
náro
Min
##fek
oblast
1996
návr
spisovateľ
pracoval
##ône
##nilo
rozdelen
charakteri
##chádz
osad
##tich
##ety
hrách
##torom
armády
Praha
česko
nezávis
##rár
##dili
veľký
hry
získala
##ling
psy
##uja
kultúr
Gre
nový
1994
napriek
múze
Ich
##véd
štvor
systému
tva
defin
filozof
väz
predsed
##ill
##tina
Toto
širo
##níc
##nec
##teľov
ští
vzniku
športov
automobil
Tom
##hal
vody
zdra
Bur
lu
##lovej
Ci
prísluš
##tujú
##tálne
##stan
vývoja
##álnej
prevažne
##aniu
1989
##had
##tus
stave
##tických
otec
Dom
nav
začína
##tal
##prac
Medzinárod
Bla
##kého
nemo
##význam
##diť
Ste
##cep
##vaná
autor
Rh
miliónov
2018
rovnako
železnič
##chani
dôle
domov
##sahuje
pozem
povo
Lip
##liť
##bale
uda
Peter
kniž
Preto
pobre
##boru
štátov
skôr
tro
##ckými
konštruk
##ľu
jas
predtým
revo
predpo
lokali
mestá
##vej
##gie
IS
##čo
##vala
plán
vide
vedie
riaditeľ
##časti
pren
vykoná
pozí
uvádza
+
hne
##vosť
výkon
úplne
Františ
##čajne
##und
Cor
odmie
##čným
nech
uči
##ona
Potom
Vä
##rek
##vaj
##ita
##tín
Prie
kontro
##dlá
##sem
dní
zod
vysiela
##orf
niekoľkých
sko
prote
##kle
Her
Juž
##tora
##ville
neza
##los
zabezpeč
##siah
##skými
veľko
vplyv
##sok
hviezd
obnov
Angli
sé
##sten
##prv
##peri
##koval
klubu
John
chrán
pripoj
vstup
rýchlo
##terna
stro
##nenie
zatiaľ
zomrel
My
nik
bás
svät
vnútor
neskor
štu
prvých
majstrovstvá
##júca
##vor
##used
##klady
minulosti
##nutie
##ymná
Spi
Štef
##réné
##čen
rýchlosť
pomerne
##však
práva
##ľach
Mat
##zbroj
##álnych
##rénées
Pyrénées
ľah
uspo
term
Už
sláv
##nejší
ovlád
niž
raz
talian
túto
udr
Alpes
znamená
##pé
posád
kňa
##tiť
vždy
Ver
##álna
odpor
tvrd
jaz
##ovcov
##zra
väčšinou
odi
sch
vysoko
seba
diel
jednotky
##žensk
brá
##ple
juhovýchod
##nok
tré
##ion
hovor
Ter
strá
rodiny
##vila
##tre
tá
##prava
Vých
##medz
##moch
Hau
Napriek
Roku
zahranič
##štitú
znovu
##níctvom
Univer
##desia
##nutia
vrchol
##uj
Pas
Lan
Mes
Bystrici
zaznamen
##bú
##ujíma
spoluprá
vymen
am
##júceho
parla
##štru
Prahe
gra
šesť
dal
##nohospodár
cisár
##ňou
ky
##sh
Rí
reak
Th
Tri
zmien
Ph
##rálne
##rami
##vaný
##kod
umel
##cích
dielo
vznikol
vydavateľ
dokonč
metó
svojou
Kan
##mokra
prechádza
##jeli
závis
##kán
epi
kláš
##tického
##ému
##tedy
##org
nahrad
##tná
##hlo
turisti
rozšír
príro
zaobe
najv
den
##gá
##tami
veľa
##vre
chemi
diaľ
dokumen
Gi
##nii
celej
moc
##boj
Všet
##nené
kandi
prak
##lili
##cien
##ló
stalo
##mand
pápež
priemer
##kré
cesty
or
vtedaj
Bal
Jozef
najstar
##aly
kli
dodnes
##nicu
musí
údaj
##ák
činnosti
##nol
##láde
indi
Gra
zamest
škola
##ovek
##pravu
predchádza
mechani
##mil
rock
##ňujú
Londý
Ed
##ica
leti
blízkosti
##rand
##stia
Dňa
Tra
vychádza
Ang
##enú
podobne
Západ
##stried
cieľom
##iska
Ide
##vek
trans
chod
rozvoj
slovenských
##rik
Tre
elektrick
cenu
židov
ple
Afri
Ky
##nejším
##dal
##raní
táto
rake
typi
##šla
##istra
##ped
##katolí
sused
syna
rezervá
##zácie
##sic
cestu
kresťan
človeka
Arg
##nel
majstrov
prvým
tradi
materiá
##vanjeli
prezident
##kového
##čil
poľnohospodár
##cifi
finále
súvis
##ič
nem
televíz
každý
číslo
Ča
##ciách
škole
here
jaze
neď
##žad
##koj
##tri
častí
nielen
Rich
nor
tabu
##stické
nikdy
##ward
er
lode
##hne
nom
##ňoch
##ong
vrátil
##ňu
para
Flo
##uper
##čnom
nábožensk
##ísa
ang
kra
americký
185
podie
mať
##we
poduja
Ivan
##teľa
peda
prvá
deti
##sis
##krom
let
183
##enými
##ŕňa
koncer
náme
##nan
konca
Mas
Vied
veku
##ík
univerzite
1944
##júcim
vra
ľad
úspech
##pine
Bola
voja
nahra
tisíc
##niež
sám
Vá
ďalší
oddelen
filozofi
Japon
aktivi
založil
pi
zarad
nebol
##čer
##lová
##lácie
celý
okolí
##stickej
##jedno
seriá
sociál
úlohu
##ilu
činnosť
##sch
vystup
##stave
hlavné
Väčš
fá
séri
##teli
meda
mesia
právo
cirkvi
ríše
nástup
mestom
Jan
##enou
Východ
##tická
vybav
Sto
Španiel
IV
Ten
##led
##vodov
##činy
súd
prvého
##ovanej
stretnu
##mun
##tych
##čenie
##pracov
Voj
rady
Spojených
##šta
uh
##som
mohol
lin
pravo
neo
##šlien
katolí
výskum
##lené
osem
##anú
##sket
rodu
štand
anti
súťaže
spoločensk
druhy
Ben
odvod
Košice
##port
oboch
loď
##strál
Men
##net
Ser
funkcie
mil
##kázal
##fikov
poto
##pri
##čel
##tvar
Nová
##torov
##ora
proce
##mpa
##vel
filme
mod
hlavným
##lus
##vádz
hru
opa
##10
gó
svä
##zácia
##koľvek
španiel
bom
stali
obdobie
##níku
##vot
zví
##šiť
pilo
gymná
35
##mán
##iera
##vola
##kaj
##chádzal
32
nahrá
kone
priemysel
poku
##úš
##ním
##ulhar
##čina
Prvá
latin
spája
Wa
zad
##lové
nema
ponú
štyroch
nimi
ocen
potre
kultúry
##her
##tívny
šľach
pamä
slovenského
pies
nazývan
jednoduch
označenie
##dio
odliš
##odi
Miku
juhu
##omen
##lik
napísal
Ty
##ony
##nová
##vajčiar
##pal
##plat
výni
##júcej
Násled
porov
500
zruš
desia
Rom
##tácie
##jal
##oun
zvu
rozp
doprav
Svoj
zap
1968
##fikácia
##iacero
juhozápad
severnej
triedy
rozsiah
##stoj
Nem
Št
sídli
##ous
fi
Univerzi
##imi
sedem
Spolu
tímov
dostala
budovy
žije
rakú
##enu
keďže
oficiálne
##rovej
Vladi
priestor
##skí
##žíva
Universi
najvýznam
##častejšie
##žis
Súčas
##stvu
Lot
Zem
hier
vhod
bež
muse
##itie
verzia
scé
skupine
pol
prvom
Tren
Stu
program
##speš
VI
nových
napo
##tový
uhor
akadé
##xim
väčšina
prostredníctvom
##verej
##lis
severozápad
##rneho
ed
##čan
žensk
ly
##reň
pomoc
bojov
voči
úrov
##stáv
inštitú
prírodná
vyhra
ťa
obsahu
založená
jednu
##igh
žl
180
debu
postavi
##mentu
škol
cca
hral
##riz
námor
vydal
dôsledku
##xu
skladby
1980
existen
##vané
##álneho
##18
hlad
kniež
nového
bohat
##BN
zväz
premi
proto
mohli
apli
##úr
##rejme
##sion
ľu
Vysok
lekár
viacero
vyrába
Bie
znič
kamen
prirod
účasti
hl
##štan
##éra
vply
myšlien
##tová
##ckych
##sov
stanice
matemati
rodi
##strova
##aru
##špi
##alo
##tili
krajine
ozná
zvie
##túru
##vok
##ranie
##burg
Mil
nepre
zriad
svojim
zodpoved
##viť
##mosfé
vyrob
Hy
Ale
Win
##vosti
študoval
poradí
zas
krajín
##denti
##valo
vet
súkrom
##tovej
É
##zant
čiasto
##tové
najprv
##naja
zosta
##dav
preteká
Sln
dosiahnu
##ří
##ip
prostried
##viedol
povst
strednej
##kal
##tic
zbier
##ung
vyhral
filmu
Ad
##čkou
##kam
##žal
Hel
níz
súbor
neú
##čania
##gal
Spoloč
prítom
36
priprav
typ
Bud
režis
elektri
Mora
182
Rhône
##óriu
názvy
##end
As
Prvé
##gres
Každ
ústav
opusti
Trna
##stich
tradí
Nemecku
ISBN
Kali
výrazne
##nies
gró
konf
##tis
južnej
##vát
možnosť
Mc
##rová
we
Arch
Egy
1939
Mer
list
strana
##zív
zákon
olympijských
##rea
Vil
synov
sezóny
##dak
celom
##mar
príbe
evanjeli
služby
Normand
zahŕňa
rak
najvyšší
##víja
##zent
šie
##tila
##ít
##sunu
minister
##wn
skúš
##ies
33
Bro
ods
Stre
chce
hoci
##SSR
SN
brat
##ografi
Soviet
##tine
##skému
##form
2019
usad
##gin
Air
York
spôsobom
Narodil
##paci
Ľudov
usporiad
Jána
známa
marec
##lenia
Mosk
dobre
kostola
vtá
jednotlivých
##tát
január
začalo
pí
motor
severovýchod
##80
##ovia
##poč
chy
používajú
##cim
El
##leb
Bra
stredi
##hre
##ovacie
podni
##pion
nos
Graf
lebo
singel
vláda
spod
##čiek
##olf
##mami
##vov
ohroz
vznik
eu
kil
!
##tudoval
##ser
hudby
máj
desať
priateľ
Wor
Wal
tvar
prípadne
Normandia
predstavuje
Lou
druhom
poved
zmysle
##ovaného
spol
lep
gita
súťaž
##ľah
Haute
filmov
krátko
##zoval
You
##covia
Pres
vedením
hlavného
##vým
##kuje
staveb
Pou
hovo
som
vzá
fron
najd
sily
vydala
##chá
##ógii
##ľade
okresu
národné
zní
atmosfé
dosiahol
skladateľ
1969
model
her
diví
kal
Základ
odišiel
písom
pôvodu
Micha
##žin
rela
##bá
prezidenta
Am
Han
japon
##važ
priberá
venoval
začiatkom
##lý
##rách
kov
Žid
Zoznam
stí
komb
##ciá
##ves
##zované
dol
##ckeho
záko
tečie
profesion
1988
py
medi
iného
##roval
##níctva
Michal
nebolo
nev
Bru
sne
koncom
##rista
Hol
prek
##rt
hrd
hovorí
Zla
najviac
hľadiska
Jose
náklad
1948
Fil
##čilo
Kat
basket
formá
Cy
Zeme
festi
krajinách
pali
##ógie
##rag
vidie
červen
##hlá
vrcho
bezpeč
##lový
rebríčku
reži
nasledujúci
Pav
neob
nále
##zni
vyv
štúdium
sig
Niektoré
1986
princí
##tré
Hra
hre
##ropo
vari
školu
august
##lená
##žili
##ológie
kva
konta
vrchov
Čier
apríl
redak
##ice
##inár
1987
##ľúb
dňoch
##hoch
univerzity
Liptov
viedol
zakladateľ
avšak
45
dov
revolú
1984
inf
osíd
neďaleko
zástup
čast
príležito
Svä
generá
severe
Bou
jasky
Ai
Rím
##cená
september
##čine
Následne
uprav
##ktoni
##tori
boha
Veľkej
peri
##teľné
hráč
Žili
University
svätého
dvom
jazyk
spoločne
##zda
Karo
1970
celkom
##40
##tkou
skupín
##ču
Let
pohľad
##zij
##lových
##väz
občian
##nený
##udob
Svet
demokra
označuje
##vú
povrchu
sek
##ček
obrov
##NA
##spie
##aného
Midi
Pie
##cal
##oro
Nové
##nova
štúdia
použi
##vyše
Ukraj
času
##rovo
##lub
##roti
Fre
##renia
emi
október
Čí
Lad
rozlo
západnej
##tinen
trať
konkré
lú
##skoro
teles
##zó
Posled
pozostáva
##can
1985
##ovaniu
február
pokračuje
##og
##duk
mesiac
prú
zne
vôbec
rozhodol
##ws
##mus
177
##kovať
##lých
jún
Col
týžd
##12
malé
##ťazi
sebe
zásob
vytvoril
Uni
metal
##édi
##zaj
NA
##plom
##chode
Can
mor
vyše
kým
postavený
poch
##metom
Všetky
##razí
ke
ulica
projekt
pár
obmedz
son
##berg
experi
najznám
kategórii
##nos
Atlan
súh
orgá
##arov
##enského
##níkmi
združ
MS
lat
umenia
kilomet
FI
##arch
Len
Československ
Dru
Česku
december
rekon
zápasy
##vaní
##ach
pas
bron
##tiny
celého
##lek
použí
##opak
podpo
kozmi
ostatných
pom
generál
objavil
Che
Rec
centrál
##mene
musel
organizuje
##ôb
are
takže
##tiu
##stický
zhroma
poslan
##ise
ľudia
novej
dôvodu
##zovať
budova
##ps
Vďaka
##inami
podobe
##kani
Anto
só
##tého
potrebné
##vuje
tretí
Dr
križ
kapaci
november
dyna
základnej
##itých
odohra
##voľ
mys
nosi
šír
síce
čín
##tm
pozri
vzťah
výsky
##ctva
mm
zaujíma
stavby
cz
otáz
Sou
drev
Met
mestskej
Že
pru
via
rokmi
##pie
##bami
dôležit
Zvo
plu
vonkaj
##ury
##rana
On
##níky
kotli
##bard
funkciu
##bum
súčasť
##kácie
získali
##áš
##lian
Les
bas
nasad
Sal
presťah
verzie
svojimi
##eru
Apol
Druh
kríž
júl
##dex
šam
prvú
arci
technol
##túre
knihy
správy
##ujem
##ĺb
robo
##vár
1938
##miesto
Keďže
Fili
kus
odbo
##rast
zlú
zaved
##ôže
val
##gue
##žie
##chodu
178
##nal
astro
37
srd
Ji
vybra
dochádza
pad
##árov
##tovi
Pôvodne
##árne
skupinu
anal
neboli
go
divadel
##renie
##loch
179
nemá
potvrd
##15
vzdelá
##into
##unk
Van
Vol
##oc
##ceho
##člen
polovice
zab
Cala
mine
východnej
1967
##rian
ktorou
##znamu
1979
##ógiu
ste
týmto
oficiál
vul
divá
doho
energie
##ela
##kop
stíha
živočí
východe
##tva
úra
Francúzsko
panov
voľbách
priesto
del
zre
programu
##enne
nádr
Rud
zvýš
##kor
##tory
1982
##dle
##biť
##bera
slne
1972
hokeji
vyskytuje
##tiek
prácu
Cla
##tových
39
najčastejšie
gala
skal
1983
##kajú
hviezdy
Skup
svojím
##šu
Até
1960
toku
##isie
Var
slovenská
moci
admin
zaja
hyd
1975
##ciami
34
1973
Hoci
štátnej
najlepšie
národného
Hal
štadi
##éf
Jedno
##HL
kolo
problémy
##ham
záuj
1976
jednou
##ložené
##bež
##vatelia
##gan
piesne
##ľaj
Ab
##desiatych
38
narod
vzájom
##kry
stanov
kandidá
tímu
brehu
poraz
pôsobí
jazyka
cm
gróf
štandard
nástroj
ostrove
Fi
##dom
Kor
síl
dvoma
##čení
ligy
##ôl
centrum
podporu
Willi
Márie
sprac
nah
bývalý
strati
##tera
1918
##álnu
blo
ostrova
form
##bert
##enes
Prá
inšpi
##ruje
jednom
##riedka
##tívnej
obyčaj
informácie
výtvar
spoločen
maxim
##dali
300
##lila
prostredia
##tiž
detí
##30
Album
účast
narodil
##demi
##covi
posledných
Rov
##ES
späť
veľkých
##of
kraji
sociali
stanica
1974
1981
založený
prvky
vydaný
prírody
veľkej
umožňuje
kru
Francúzsku
sied
žiadne
Bolo
trest
Ruž
disci
##ŕt
##zne
ga
1978
refor
rovnom
raketop
##dape
Spiš
odohral
##skov
##sťou
poru
Veľký
##pres
získať
nová
povin
##ya
počítač
##haj
Väčšina
°
##ux
##tos
sem
ceste
Nemecko
ulici
histórii
pozd
miestach
##ktorí
1971
človek
dostali
duchov
##io
##čkov
Paríži
pripom
##16
##ťah
turné
##stranný
##náš
skončil
Ly
nebola
lietadiel
Francúzska
##hranič
1964
zjedno
čiastočne
1942
presad
##duje
##pracoval
##kými
Arm
svahu
Švéd
matka
##skokatolí
150
Gal
##záciu
vzác
##ble
Lin
najmen
##tácia
kapln
máji
prechod
jednotka
zvyčajne
x
Euro
mä
##zemie
William
Dob
##tívna
Spar
najväčš
##lii
Čas
##chom
Ger
septembri
##lácia
##oveku
František
##lh
otvo
##lome
##lec
##rate
totiž
Lotrin
ca
Nad
príliš
skončení
##risto
mora
##ktor
pamiatka
##ont
Die
Indi
pahor
##mení
Kol
zbra
42
Karol
Vyš
Nord
stáča
podcel
absolvoval
hlavný
##áda
##zrael
zvolený
série
najväčšie
maľ
##the
Cam
spomína
Calais
Pá
##čnou
strom
Austrá
##vat
##inov
vyššie
predmet
##kó
##vka
cud
žil
organizácie
inten
autorom
taj
vyp
uzavre
##stického
elektroni
kráľovstvo
##vere
Arden
##zom
##stli
januári
##ks
stor
##dam
Burg
Dnes
##lami
##ície
zariadenia
1977
##ávajú
1940
marci
družstvá
oba
jar
1950
Open
Charen
krátky
prišiel
mikro
##ády
##bezpe
##ile
##násob
Podob
##meňa
##rania
ZSSR
##gogi
##lum
koncep
##zdob
zákona
##tách
odhad
##ney
##bali
pohá
skladba
vyšiel
##SR
výrobu
##stúpili
Í
aktu
fotograf
##bel
skutočnosti
##ère
1941
Britá
bal
Paul
niečo
zho
Argen
##lení
Juho
##stická
Mod
mana
romá
zápase
tov
stojí
##vra
opis
##pia
flo
interpre
##níh
Slová
World
97
##Dr
izo
novo
prístav
##čiatku
armáda
##ery
štátoch
vysvet
fakulte
mesiacov
##škol
fung
magne
##žnej
zara
Názov
kated
skúsen
htm
Il
##ban
ST
hmo
učiteľ
vyšet
##kiaľ
1943
##tizá
##pti
Ázie
##11
##ult
hlavnej
post
čele
literár
Švajčiar
##hynu
1946
Gene
hodín
soch
##orfologi
##nená
tela
červ
Mad
zmeny
##zín
pó
pieseň
cisára
málo
zani
postavená
hradu
##tur
##kazuje
ol
Richard
lietadla
##nenia
obrá
otca
##číta
pale
obo
arche
oblastiach
##ins
západe
sídlom
##wer
##lanie
Br
##rové
David
bronz
##ležitej
Record
##fo
##wo
##ced
Exist
##60
##júcom
členovia
##kan
žup
poly
tie
Bystrica
veľkú
##arb
atď
zlep
Ví
##vol
zväčš
jazykov
prúd
spre
priestoru
vyuč
##rý
##plí
zelen
slobod
##cvi
istom
mnohé
##zin
okraji
Minister
novembri
##stických
Brit
kníh
Centre
októbri
významné
##roje
Najvä
##atív
zeme
##ake
##óni
##spoň
##čanov
##rig
predaj
Pal
prebe
Ďalej
##ška
##ógia
slobo
Nemecka
SA
##enta
obcí
War
lod
súčasne
dedič
histori
rastlín
##mali
úseku
oproti
##tového
rozhlas
celé
špecifi
##čín
modu
Mor
##prostred
rádu
koncent
ktorými
projektu
Ameriky
decembri
Budape
boji
dobu
##čak
baro
rieš
čiže
##ath
mláde
Kra
zoznam
vojakov
75
Rod
teórie
Akvi
hneď
dieťa
##ardia
##ash
všetko
stranu
Mag
časťou
hranice
uz
##raná
aspoň
á
Spojené
presved
ser
Napo
Ry
##vidla
Augu
sled
určené
##tných
ženy
##mena
Zvolen
##tugal
##táciu
hlavných
ďaleko
nejak
ležia
1963
1965
hlbo
vzniklo
##čenia
Bas
kop
palá
##leg
poškod
Akvitán
Don
Pik
považovaný
##ruba
môžeme
populár
zvíťazi
oblú
##roslav
Ki
Lotrinsko
úz
##túr
##hliad
nedosta
##rých
maliar
koncert
ab
##prave
meta
radi
bitke
Košiciach
##tum
kontinen
##americk
Dub
získalo
##tného
rekonštruk
seku
parku
##mera
1966
špeciál
##nech
##istri
chla
##ajú
##tkov
buď
chá
Robert
kur
amerických
Geor
nomin
odov
forme
##rop
ktorému
##lice
##riál
Ven
hnie
dospe
pohybu
stú
##ujúci
pokú
štúdiu
##lica
dar
park
spekt
vojnov
##arda
slá
##ens
chor
vojská
využívan
sieť
00
##nejšia
Bulhar
nábožen
priesku
vzdialenosti
web
ňou
##intorí
celkovo
Juraj
Dô
ture
nasledov
##pan
identi
výstup
podsta
zrejme
Slovenská
##rýva
Akvitánsko
zriedka
administra
##háj
druhá
##tón
mul
##zan
##vode
##ily
soft
záujem
turnaja
##tke
vznikli
Cal
vzniká
materiál
Cho
Pop
obvy
##lip
##noch
##ďalej
tabuľ
existuje
vrchu
hosti
nemoc
hro
Chor
rozmer
##mii
##ovými
čist
Štefan
##ER
disku
založené
Fo
kance
tvorby
ochranu
##lášt
##ograf
##čít
interne
##ľal
júni
operá
profesor
nastúpil
blízko
nu
##sláv
##niny
nemecký
##rových
##17
kyse
##éru
Film
súťaži
také
napokon
pahorka
namiesto
##lášť
uni
čias
Petra
dôstoj
ší
pohoria
55
rezervácia
##ell
##13
zahrani
sebou
##oby
##koľko
##14
ostatné
druhého
vyvin
rodine
arab
kapely
##iem
Rakúsko
##ag
Sam
zmie
Burgund
Až
Pikardia
mier
grafi
minim
český
vzduchu
##stron
UK
polí
firmy
##rela
Skupina
ďalšími
47
minút
rieka
##hodno
zách
družstiev
##žité
bodov
jednotiek
##ome
##naní
manaž
region
##čeb
druhu
48
Cô
Zom
nasledujúcich
##chni
##lárov
inžin
Ško
integ
podmienky
kilometrov
##ýš
výbor
rímskokatolí
ryb
inými
potoka
FC
mag
prez
choro
zran
Kalifor
najväčší
Ori
1919
##rka
osôb
ochran
Mont
albume
výko
posti
centrom
##novi
ove
##diteľ
doká
efek
1949
údol
vojna
Ír
##dsia
trh
##zovaný
Banská
##kálne
Bor
##biskup
##iss
##tívnych
Slovenského
up
Rus
##cs
##stupe
kys
auguste
robot
šampion
##ret
Ange
bombard
zápasov
preda
##góg
navštev
čeľade
tru
##TA
##lík
počia
Kráľov
rú
##finále
##nutí
Holand
##ille
##rog
##zname
prenos
44
##ford
oceá
rozpad
zmluvu
vlastné
pripomína
literatúry
##nín
##enesan
mestách
jediný
študen
Im
Tá
Kle
Isla
##ológia
americkej
diplom
zachy
lietadlo
tú
##orom
most
centra
vystúp
Sp
##deľuje
##liv
ag
obľúb
scená
hviezda
zdravot
chrb
sami
konku
Územie
zbor
väčšinu
##deň
koru
kanad
Es
februári
##pise
##rické
letu
##ring
román
##níctvo
uplat
štáty
Význam
1962
súvislosti
okru
##omorfologi
##skymi
Dolná
Champa
##ght
##lách
Začia
partne
dostatoč
rovnomen
apo
1958
1959
Ďalšie
Sing
##rálneho
federácia
##ýba
Ana
##ingu
Tým
Thom
tvorbe
kam
tma
Veľká
dcéra
Vladimí
používať
nemeckých
naci
hrani
slova
sia
##mentál
porad
##nož
##ôležitej
##štá
sved
dlhodob
52
nato
piatich
architektúry
##jav
ska
Mala
vlaj
##mia
výroby
mimoriad
poskyt
nájsť
sprie
##CO
##kar
Lie
tajom
Inter
zúčastnil
1947
zisti
apríli
celo
považuje
agen
najväčším
sest
sam
Interna
Los
husto
nemu
prid
Music
príbu
Ros
teraz
##pozícii
##wi
pomá
1920
##ře
lieč
slúžil
##oli
novú
ner
##ženil
extra
pacien
nič
trón
štáte
Kostol
Ag
vápen
##ence
cyk
skra
zastup
cintorí
65
##sili
úče
európskych
##sal
net
zim
1953
špeciali
43
OS
400
Sla
gréckej
stĺ
analý
Titu
rozh
návrh
##dou
##sli
naopak
provincie
##kord
pokračoval
kameň
veľká
reprezent
##ube
chrám
##štal
práca
festival
víťazstvo
##ovu
Konštan
Rock
##čke
poj
##zou
CD
súhve
vid
##tmi
##stala
##slava
nesp
##žila
France
ti
žán
pest
obcou
konzer
pristá
lov
us
##ávať
Ham
Champagne
##gar
podnik
spravidla
švéd
kmeň
najznámej
##FA
##cus
##han
Is
##kladu
##rii
štar
svojmu
inte
Prešov
farby
Dan
Mária
šir
hudobný
prakticky
Ap
posledný
##illa
##cionali
Burgundsko
##ovho
pozna
##delne
opev
ochor
Argentí
kráľovstva
##tan
Južnej
uvoľ
spojenie
prevza
Oko
príklad
##rať
##ls
##ston
##zdia
finá
kňaz
Sklad
výnim
navyše
národnej
Records
slovenské
špi
##chová
domin
UN
##štie
Vzni
digi
napä
raketoplá
celú
City
dlhé
navš
##ture
Anti
mole
arcibiskup
##čat
katastrál
Org
naďalej
##razili
chcel
mytol
disciplí
##ex
##žiť
Black
inve
vlastnosti
##dli
Yorku
zastav
skupinou
##až
nut
dopln
Sed
filozofie
##ola
##tívy
Gro
najvyššej
##mit
kategórie
prichádza
64
##stami
1961
nesú
praž
##gn
malý
kozmon
##rche
nena
týka
rozde
pozná
úspešne
čísla
##cro
propa
sm
politických
Boli
super
##novej
úrovni
predchod
##plýva
astron
##meno
Tex
pracovať
1956
Dia
##voz
zlom
pomal
Kraj
doz
##rodila
index
doliny
zhromažd
Dou
Marne
rodin
potrav
práci
vzhľadom
Ot
kô
1952
##stanov
##kovú
##peň
júli
defini
ini
##ovaným
##ady
Fín
zásad
##BA
byzant
nemeckej
Rumun
schvá
##úšťa
dlhý
domu
##bliž
sídlo
križova
hrať
Stani
Viedni
zasad
vzťahu
charakter
hnutia
vesmír
pravidel
Horná
ukáza
##ratislav
##bet
takto
konferen
##chý
##ind
voda
stáva
Kó
##álnym
Award
##dsať
logi
únie
##júcimi
##maticky
Pen
poby
##saurus
Mie
spojené
##miu
##isia
Bill
nariad
postavenie
##ès
uzn
Soju
menšie
##uk
##xid
##ácia
herec
oblastí
lietadlá
Ond
Ladis
legen
požiada
prepoj
Mikuláš
severne
architektoni
##omu
Prov
í
All
hlá
##stával
Slnka
štvrť
takisto
##one
metra
dostup
ozbroj
##lova
##ľuje
##organi
Dunaj
oveľa
vyznač
##fón
##ovci
Tour
patril
##ádu
Hou
##čnými
kali
opat
vykon
Park
hum
kľú
##way
##vice
Ferd
chlad
Koncom
Amerike
##hé
Kal
pozdĺž
##merom
renesan
##ark
hm
##jazd
##zujú
##ňoval
dnešnej
##xe
##bia
##moc
Spe
pole
af
##spek
telo
Kvali
##ges
##kovou
ceny
##KO
pozi
preklad
##gor
nepri
##drž
##štau
##anovi
kúpe
ťažko
stavu
Želez
presne
pobreží
ô
Fu
1957
##kované
vojsk
zapoj
znova
##gram
der
om
výber
kro
##fu
týž
orien
Najväč
##lada
##tika
signá
49
##lius
Hit
Jaku
noci
južne
zmienka
##ľava
dovo
teore
vojvod
Vie
Ježi
kusov
autori
doslov
hráčov
kombiná
pedagóg
##ase
1951
štýl
stavba
Európskej
vypu
zväzu
##príklad
vedom
hĺb
Johan
vyžad
viaceré
vydá
dosahuje
medzinárodných
##cer
Tr
US
fraz
prirodz
160
článkov
”
##tiku
spojen
Sk
##ning
##čený
##stúpila
Srb
kat
kres
##gua
rozdie
angl
Ardenne
##usania
majiteľ
príbuz
##lovom
1955
oslobod
poriad
test
tvorili
vplyvom
##ňom
vzor
Židov
symboli
##hel
musia
ôs
##vého
radu
striebor
##mé
úpl
štátne
motorov
zdrojov
mŕt
##stúpiť
Histo
Napríklad
popula
prvkov
návštev
dnešného
Sim
##lením
Predmetom
Mexi
objavili
zahraničných
##mich
##ovacích
rozši
uvedené
##itého
Pavol
kontra
veľkosti
##zácii
Nový
dvor
energi
##ith
Vác
mierne
značne
použitie
##ziou
verejnosti
veža
James
ukončil
##gon
120
fareb
mater
Poľsku
sústavy
##OS
tvr
zat
zmluvy
##tiky
žilo
off
dráhy
látky
rozprá
kvalifiká
##ícia
br
formy
hodnoty
Taliansku
##ned
##nuté
##ómov
Tran
urči
dejín
iný
46
Lit
Som
Tar
skladieb
##dge
##sie
##yer
Jean
ulice
##náša
##íny
##není
Ves
##íka
umení
väčšie
predsedom
Kro
urob
##rický
Gar
##nskej
Titul
voleb
rekord
##tek
minú
dĺžku
materiálu
##ätí
##tickú
hrali
Aby
##cis
spoluprac
##court
##matické
stredo
Londýne
obvykle
vesmíru
##af
##ťom
Andre
prvou
stanici
##pta
Brazí
slab
Stra
##šila
mra
zastúp
##zií
##kovia
slovo
veľkým
podstat
preh
rade
vojenskej
##get
##ovanú
Michael
ustanov
starostli
významných
##ori
##ácie
druhé
prototy
##formá
grécky
##gia
dôvodov
##väť
##vách
stia
oženil
jednotlivé
dočas
zhruba
##sed
##exist
rada
sloven
významný
##hnutý
kniha
psych
nepriateľ
eta
##stroje
pedagogi
##lod
54
##iaci
Hrá
dopravy
dizaj
geomorfologi
hudbu
##ye
HC
##rovoľ
diev
hrob
Stredo
Ele
Preš
##ovací
##time
##teľný
176
cieľ
československ
Leží
##rekven
museli
odovzd
sochár
podobné
##lieha
hmotnosť
##menty
svia
1954
zákaz
obrany
základné
##gypt
##mann
Jura
International
preni
knieža
vystav
podieľa
##pera
prameň
republika
dvaná
##vskej
##pka
manželky
##70
vzduš
staršie
časopisu
regu
krídla
tem
pora
vyvola
spolupráci
##jedná
##kovom
vysla
##júcu
Ríme
175
osa
zviera
dynastie
umiestnené
##zili
ter
dráhu
elektro
podcelku
skončila
CH
rád
pojem
53
Franche
##káz
Sil
názvu
americká
trá
predseda
tal
smere
jedine
prípadoch
##gov
pú
##darilo
južnom
obyvatelia
Alb
##90
58
vedy
obvin
základných
##ide
##ovič
útok
vytvorili
Bratislavy
Red
útoč
nezná
##ónom
Vin
interi
vzťahy
bratislav
Pom
fon
##tenie
všetci
##use
treba
alterna
presunu
##asa
##mest
##šine
fos
trval
letisko
##hnuté
Côte
##ologické
najväčších
##ôt
##zovaná
mohla
zvlášt
Pausania
gal
vlastnú
škôl
Zomrel
rádi
zráž
malých
autorov
tretie
problém
mú
Belgi
komer
vzdialenosť
##spech
Comté
vytvoriť
Alexander
smrť
spie
##nop
budúc
spoločnosťou
povod
kráľom
podujatia
ľuď
##tácii
##čianskej
Chorvát
Uhorska
konflik
poschod
Dá
Fal
play
##nian
dohod
##xy
hli
ran
článku
živote
Poh
podd
mena
##pil
bub
dvakrát
zverej
##lem
kariéru
kont
nahráv
dolárov
konkrétne
médi
video
Apollo
Bon
pou
skrát
pokry
amerického
##dae
pes
zist
vydaná
komuniká
hosť
Univerzity
##iam
Rim
poé
##daje
Seine
##cyklo
závere
Slovenský
##http
Pon
udalosti
nemeckého
##ue
gen
spevák
východnom
podzem
reli
strede
kariéry
múzeum
##ľko
lodí
Olympi
režisér
dôležité
##iat
vola
Paríž
Hod
##anúši
Aka
Výsled
Pin
gravi
seriálu
aso
rádio
národov
##tívneho
planéty
ústi
patrili
systémom
Študoval
špeciálne
##lava
Ing
##ársky
##žiach
1930
hranicu
##tosť
##nové
vyra
Rusku
divadla
vyskytujú
hi
Super
autobus
prác
kg
ká
vládu
prešiel
výsledky
##níma
Dis
útoku
patrila
gymnáziu
##žď
Pôsob
okruhu
##érie
Kla
reštau
##rup
##mier
Rous
drob
účas
existujú
Ture
Frank
##cher
teré
zostal
Zároveň
1936
umenie
hudobných
html
kancelá
Vzhľadom
##lák
tane
siaha
Blu
manželkou
Bos
Maj
##strán
Štia
##poveda
Ruska
parlament
##nus
##šili
skladá
predĺž
organizácia
##tex
Štiav
operač
rodina
Nov
##sila
dote
obra
siete
vidieť
Tam
##stali
prim
postavy
##BC
##žať
Zd
NHL
Komenského
##RA
##seud
posádky
ľavo
popis
posil
##ložil
Poly
fol
zamestnan
##mani
##tice
svetového
##ero
Mno
##kovým
Filozo
neustá
podnika
##násť
##érov
##board
magi
nadob
##CA
##niu
170
Far
##enskej
##vlád
##vad
Cu
##balová
Kated
záhra
dosiahla
VII
##skemu
najlepších
Des
##ológiu
Pavla
informa
SS
napad
cestou
ele
kvalifikácia
výroba
stabili
poskytuje
##vidu
piesní
pravidelne
kaná
starovek
relatívne
AT
Zu
Elekt
platí
##tho
##niesol
deväť
populácie
##toku
dni
spor
##enos
##žné
##II
##itia
kolek
600
vydanie
##lého
možnosti
všeobecne
##chyb
Víťaz
bunky
dĺžka
lepšie
##ôd
Den
objavila
##aľ
85
##ield
Filip
prevádzky
veľkosť
katastrálnom
##itou
prejav
milióna
Mac
vyhľad
Jozefa
potreby
##leho
##mina
spočí
##ód
##inom
meria
Taktiež
##stor
Tiež
poráž
posledné
##žite
##selle
divadlo
##lánok
Poľska
chudob
##tnú
odsúd
##zovali
Rovna
##richa
Homo
##kať
Ac
##teká
ciest
hrebe
posta
najdôležitej
akademi
##ses
##špe
sprievod
##wal
ponu
Manche
##čík
dáv
rezi
povstania
##obo
obran
motora
divízie
očak
účel
politické
išlo
Stan
vysokej
##álnom
chrámu
Krát
##stiach
zasia
##pev
##níckej
rieke
každej
57
sty
Kana
ľahko
distri
##oš
Grand
Rusko
úradu
slovan
##dilo
prijal
Začiatkom
Pov
uskutočnil
##HF
##rica
##ker
##nor
Edu
##aklada
zľava
dostáva
priestore
##ien
dokáza
vyplýva
nak
y
##sey
Organi
populari
Budapešti
##nových
1935
neut
Och
##ísané
sním
pripra
1937
popri
tvaru
stretnutí
##ovce
skoro
nás
Panny
momen
novým
fanúši
##mentov
synom
vnútro
77
95
zru
parlamentu
##riu
Kni
firma
vstúpil
Scho
stredovek
basketbale
##lyn
Pru
##gatív
Každý
Európska
založili
prezidentom
SM
poten
##cím
podla
prišli
prostredí
##mená
popred
používal
as
nižšie
##gé
Žilina
##mej
Dra
Mau
Prav
tábo
rozvíja
##vec
West
##how
typy
hlasov
boja
##tickým
manželka
používali
##pred
nemal
podrob
UT
stredoveku
##ätov
Spa
auton
Karpat
jazyku
Angeles
##25
##hráva
udelen
politik
zápasoch
chvo
norm
zostáva
##rist
pomáha
##káž
King
použiť
Alž
kola
Patrí
Severnej
Petr
neexist
dispozícii
##šťa
##ctvo
oku
obet
porazil
Autor
západnom
mý
trhu
vodi
končí
Nór
1933
Vrch
schopnosť
misi
Berlí
nápis
dobrovoľ
##áv
##ísk
Wh
Ora
##nikov
epizó
orient
softvé
frekven
##dium
##ánska
oddie
##kovanie
multi
kapitá
Hlavným
medailu
##ráciu
Pale
bak
stupeň
##aty
##cto
##old
protest
##fy
##jas
Ní
May
hmy
1929
##vaním
##ísaný
istý
študentov
pomenovaná
šťa
mani
vyšla
výšky
termín
##rám
hádz
Gala
Fat
##romad
##činou
1923
##óz
##ans
git
výcvi
##lania
akadémie
vojska
##rey
legi
obje
##nologi
moleku
každoro
##stin
Del
Mní
var
Prin
hypo
informácií
nasledujúcom
Ešte
lige
prispe
Vod
tych
dopad
teória
vojenské
##éria
disk
isla
Andrej
##rárne
##tosti
dodá
zahynu
##xa
Langu
hrala
orche
George
vysoká
hran
výboru
zemi
kláštor
kvalifi
moderni
##anta
potra
Ť
výskumu
##22
##kra
##burgu
1921
krajin
##šil
56
Anna
jazd
pohár
rýchlosti
##aným
Mark
svetlo
pozostat
##odu
##rón
Kam
sedi
Bá
##árom
Pier
okam
vulkani
nahradil
Pausanias
strate
pä
##rická
##kovaný
spomín
veľkého
##poľ
cit
##zol
klube
##mín
divákov
##vič
##ujúca
nemecké
##lt
taký
správu
inžinier
tor
systémov
súčasnej
TV
semi
Zápas
plynu
Em
liga
vyráb
malá
motory
údajne
extrali
väčší
histórie
dosiahnuť
##nanie
trate
druhým
##alu
##koho
##opol
Jas
##ňovať
##sillon
osvet
štart
Top
Peri
poslednej
bohy
chví
##maj
Ružom
obvod
hard
koloni
##ères
##enský
intenzív
##ĺňa
##nali
sti
Skladba
fakulty
uvedený
##mila
pohlav
svetla
postaviť
volej
významným
##don
Tro
apliká
holand
jediným
##strom
pover
slúžia
prednáš
##isti
##čené
hudobné
##lostí
Langued
areá
útva
vnútri
českého
##volá
##ňami
celá
dokto
tepel
zavra
vyhlásil
Roussillon
##cept
Obla
doslova
##cedón
podmienok
##gr
130
vyho
charakte
používané
##ric
cí
ľudu
mládež
sociálne
##jde
ňu
Hist
brata
umelcov
definitívne
##mere
1932
Languedoc
problémov
prvo
súvi
severnom
##hodou
plochy
Podobne
zariadenie
##rový
Dej
Bibli
konali
pôvodnej
pôsobenia
##ľud
pôdy
rizi
účely
##24
inak
vrchy
články
kozmonau
##lho
Ani
Bohu
biely
kontak
šampioná
##pozi
##stný
neod
generácie
##DS
##žná
##logy
Cie
neúspeš
##ction
##rických
Postup
opätov
vyvinu
##ight
Pays
osady
priez
rozlí
českej
návrate
čoskoro
Sh
##stné
Mlad
##stavba
Windo
štýle
správa
##zon
##spôsob
konal
predsedu
##atý
bla
roľ
utr
komé
slo
##stein
text
Kvôli
##dala
stál
##stane
architekt
jednotliv
##zar
##líka
Ved
Ľub
veže
##lar
##zri
Oby
##nejšou
##ristov
dosah
názor
rozli
seriál
##niku
Pau
cena
vojnu
Ul
členmi
##32
##órií
mohu
veci
spočiatku
prírodných
Hon
Neu
Roy
klen
dostať
istého
českých
pásmo
tvorbu
majetku
národných
moz
systémy
##IS
##MA
##tle
Rá
mení
Anton
centre
povedal
Diva
výnimkou
##toky
správe
Taliansko
tou
Žia
Fede
Pria
anglicky
predstaviteľ
##kin
Dor
zníž
kraja
tréne
politiky
##što
ud
kory
##reš
pove
albumov
teplota
Op
chlo
##stúpilo
podstate
pôvodného
DV
vysoké
##dať
úč
dediny
ponúka
sen
1922
Jes
geomet
slávnost
vyznamen
##35
##iaca
1934
ulož
štúdií
aktívne
##tiv
##zium
##ísaná
individu
##rio
##ývali
stať
požad
Moselle
pracuje
Slovenské
výsledkom
##nomi
Katar
##hlav
aktivity
vysokoškol
88
Zemi
ukon
kráľovstve
gól
Niek
sprava
uverej
katedrá
majstrovstvách
rozpo
##rovanie
##caj
##stiky
kard
Afriky
##IA
##dú
##adu
##ovy
174
navrhol
##gny
SP
Ur
postava
ISS
neve
udrž
porovnaní
zni
ročný
Rudolf
Tatier
Vladimír
##kám
1928
dcéry
najlepší
1924
##nickej
##rant
Zim
horo
dostalo
Portugal
objektov
NASA
vecí
diele
prijíma
používaný
umiestnenie
záznam
Samo
obklo
podpísal
800
zra
poci
pilot
pamiatky
##chou
##pará
úsek
##lejšie
##dar
##plá
NR
Štát
Konali
zamera
Billboard
Wo
##ročný
Sc
dvaja
extré
novín
stoja
výšku
podiel
viedla
najmenej
obyvateľstvo
##pky
##ňovali
múzea
účasť
modelu
ročník
krajina
kvet
hudba
vyrov
prirodzen
stretá
vojsko
podieľal
Medzinárodná
Sen
Tor
rakety
Windows
vlastný
##TO
ih
##érom
1925
študent
Bratislav
Que
Charles
Používa
Poitou
funkcii
politickej
##cť
##kove
úlohy
pravid
ostrovy
##yd
##hľadu
klav
egypt
tokom
zlúčen
##26
učeb
korun
odkiaľ
schopný
nút
##ashing
devia
civili
súhlas
nepodarilo
##nt
##zé
sud
stretol
ukončení
závislosti
vylú
použité
##farb
##ísali
66
vyz
##nicou
stavbu
kontrolu
sval
noviny
policaj
Ľudovít
##kos
forma
preruš
majstrovstiev
najvyššie
príležitosti
##zmom
Epi
##vodli
Stav
kaštie
národná
rôznymi
##mku
palác
rozho
osobit
strojov
##jsť
nemôže
pohorí
riešenie
##OP
##mund
Eli
##ietna
##ísala
proble
##oslovensk
Konštantí
##nár
Er
Rád
hydro
licen
pravosláv
##ovede
okolit
odstrán
priezvi
operácie
vlastným
##pus
Práve
nesie
milión
SD
mand
samosp
##rip
doma
more
osoby
##jka
Zná
dino
##tívnym
pomoci
článok
##zeň
##cová
Považ
##mlad
futbalový
##heim
##ther
iným
vysoký
hmotnosti
##chodom
tero
masív
vedenie
Charentes
##celo
##mont
kotliny
##bila
##nach
Bez
civil
Štú
##ročia
Jack
hlavy
spev
Karola
počtom
spolupracoval
##nau
tlač
knihe
krátkom
opustil
zostav
##ínu
##mach
##ronne
ústred
dovtedy
##ESCO
dosť
uzná
Svoje
##lena
Lud
vrst
##krajin
okol
##ovýchode
##boli
určený
##lieva
centrálnej
##fede
Františka
Î
Sco
##júspeš
Rakúsku
Maritime
..
59
...
Habs
viedlo
Francis
skončilo
##fil
ši
erup
pyra
koniec
##jev
##jov
Nobe
polož
doprava
Gil
kultúra
##činu
Cir
sčít
séria
údaje
ostrovov
har
##covej
Uhorsku
známych
96
Jú
dome
Aires
skratka
Cas
Tie
venuje
služieb
Chica
vodou
##ujúcich
pápeža
výnimo
geologi
hovoria
##row
##kola
##vody
ben
ude
osla
vyhrala
prieskum
prispôsob
historických
aké
##západe
Buenos
hlavnom
zaraď
provincii
##kri
##liu
##cový
Hom
don
UNESCO
zariadení
##éry
##lera
tréner
vedľaj
Čo
náh
##rácii
Maďarsku
##fal
jem
krvi
Auver
sochy
##ild
##ciám
##žiar
##lárne
Ladislav
##gs
##ľub
hádza
písomná
##rez
Rol
1927
##rované
1914
sená
pripad
postavil
mytológii
postavené
##enstvo
Milan
básnik
menších
existencie
krv
Mest
objekt
##liez
##rátor
Nitra
miestom
##ót
Gab
spad
zozname
nezávislosť
##illy
nám
##órium
zahr
pochádzajú
##pos
##vku
asociá
Národnej
##duš
Île
##láciu
inštal
úroveň
ďalším
partizá
riaditeľom
RA
kost
územím
##bov
Ríma
prehra
negatív
Hrad
##ration
Bretón
##lesa
Saône
miere
snažil
Rovnako
turnaji
dedičstva
Prvým
London
Martina
Tatrách
raketoplánu
##lieb
##loru
rastú
stroje
miestnych
##leso
##tára
ríša
železničná
Hro
nená
Spoločnosť
##tna
žena
Publi
západne
zniž
Červ
tábor
okolia
príbeh
zahraničí
Rie
##nených
voľby
vylep
##nícke
podne
krátke
výstavba
Ľudovíta
##iki
mní
##rickej
anglič
udržia
Americk
ukrajin
Nakoniec
Talianska
Sojuz
vydali
Oblasť
vyhlásené
##edi
ruš
##vodaj
techniky
dokázal
Auvergne
šiestich
predpoklad
Tele
prostredie
##treb
##losvet
Okolo
Washing
##cin
##čko
84
##téri
množstva
##vale
ocho
obhaj
##gna
Boh
varian
zdroje
pohybuje
Bená
kles
prená
Ol
kód
peňa
historické
##ount
fas
ruko
Prahy
povied
fotografi
##inte
medicí
právom
hranici
kniežat
##mili
##ún
99
155
odv
Člen
žele
zabezpe
obid
##tologi
jazera
status
hranica
svetel
Az
168
odohrali
##inand
Mars
východne
##loži
prezen
pritom
metropo
##ckému
deta
##viedli
hodnotu
pozornosť
štruktúry
čoho
patri
vlastne
06
##lomou
##dami
##zájom
1917
Ústav
obsahujú
##roid
Bob
delo
Druhý
pseud
herečka
nevyhnu
bývalého
##AR
Tan
dcéru
tlaku
vzdelanie
05
náu
##cieho
##ínskej
Tatran
zvierat
vozidiel
záslu
bulhar
74
Cen
hroz
hráčom
spotre
vynika
Ferdinand
medzinárodné
Lam
arg
fran
##21
Adam
##rovaný
Morav
##stem
##borat
##tívnu
kompli
výzdob
zmenil
referen
výstavby
budúcnosti
##wood
Štá
Poli
rozliš
Japonsku
stránke
68
horú
stov
pokus
bar
##kovaná
##hen
##čna
##tené
výbu
Nemci
študovať
##zdy
Lom
Tomáš
typov
Island
Poľsko
Kub
autora
niektorí
cestov
prelome
publici
mori
štít
##tickom
stran
najskôr
##37
Det
Kre
Zat
bibli
Dy
obrazov
##nis
##tani
klad
žiado
##tený
Kry
Pala
motív
kapela
každom
Thomas
##27
##rizon
ploš
dielom
univer
Garonne
situácia
##voch
Eure
látok
hádzanej
miestnej
objavuje
francúzskeho
##coch
##nách
Dre
Para
tráv
Novej
našli
Poprad
budove
##lúžil
##ánsky
Brno
##lených
dreva
psycho
##onu
##volu
Jup
SNP
trvá
Jeden
filmy
zachrá
vedeckých
##hách
##liar
Často
úlohou
ohranič
Filozofi
revolúcie
Prírod
Obsahuje
##loš
Alf
otcom
nájd
druhú
nesta
##kladajú
okolie
##ance
##bier
##rina
##stne
##viezd
dĺžky
misie
Súčasťou
Červen
prenasle
chýba
násil
hromad
najbliž
250
Pana
počesť
co
výmen
ťažké
Veľkého
dostupné
jeseň
linky
nechal
41
##very
penia
časom
##raž
67
MH
##tica
1910
1926
Daniel
teploty
väčšine
Anglicku
klá
##enské
##vätený
Vysokých
nebezpeč
##ast
leká
miery
strávil
##bin
1931
zloč
výrobe
hudobnej
##gén
mí
muzi
Veľké
starších
##kujú
##pája
##zovala
vláde
Avšak
nález
pokiaľ
viedli
mladých
National
##love
hodiny
Fla
znak
zameria
86
##vilo
oper
súdu
zoskup
častiach
zaznamenal
110
##európ
Pretože
rýchlosťou
napá
dôvod
žiadny
vysokých
##wor
data
Press
zabrá
United
anglický
Pramení
záležito
76
ré
##zach
ref
poklad
Jer
nim
##nania
Bern
Leon
##kazujú
##stý
##sche
Jac
Samu
výška
francúzskej
Dar
lín
ústavu
zly
##stná
##lového
dôkaz
strel
pokles
sprevádz
mieru
pohon
nálezy
Ďalším
britskej
##hon
##anli
spä
prud
Malej
Mikulá
nástroje
stabil
vyvinut
164
##ťazil
Josef
Pam
School
dokáže
##tuľ
mohlo
novinár
pôvodných
Ala
aku
záli
potvr
ME
##áciu
delí
otvorená
vlastnej
postavili
producent
Bit
Der
kerami
tomuto
Niekedy
konkuren
##sek
frazé
jazde
vnútra
stanovi
Mé
osud
Micro
##zme
kvan
poľa
druži
neprí
dĺžkou
subjek
Majstrovstvách
##hl
##atin
##cové
Síd
Grécku
dynami
verzii
neustále
van
metódy
##asu
obháj
komplexu
vek
preu
Izrael
energe
režimu
rastlin
rozlohe
Šu
hit
ché
dat
armá
dlhá
duše
Kanade
hodnota
priemyslu
##dij
##nior
príj
##kovala
hnutie
ročníku
##hody
Fin
ton
Prof
##stiera
grécko
##clo
##rónov
Grécka
veľkom
údajov
hlavnou
Bretónsko
##lio
##nícky
snaží
Celkovo
lokality
prístroj
##čal
##ardy
každého
prestav
pamiatok
Mit
roman
rovno
menovaný
vytvorenie
##tz
mosli
revolu
národný
stretnutia
##nin
##rim
##kazy
Václav
strelil
Love
Europe
presta
viditeľ
rastliny
štatisti
##eli
pôd
##teľná
Prešove
biskupa
filmoch
##mel
##mis
tia
potla
predpis
používateľ
##gol
51
bubení
zbraní
Najstar
odpad
##nder
Ofi
##enská
tune
##viedla
pravej
procesu
vytvárajú
kW
em
Tem
zvyšok
seriáli
prestúpil
glo
akcie
kompon
diploma
##žnú
Vl
##láda
navrh
rokom
armáde
##mky
odmietol
##tte
##xem
osobnosti
tlak
žijú
modernej
spravodaj
́
bož
doli
tohoto
zaoberá
chlap
jazero
zaobera
##matických
historik
publikoval
domy
origin
obchodu
výkonom
Spojenom
vyhlásená
63
še
zase
hornej
izrael
najmlad
objekty
ocenenie
Kur
##gresív
Afrike
Najlep
prospech
štúdiový
##nutím
behu
bran
mená
utie
vznikajú
Jana
dolina
American
Smi
voz
pane
##slá
Kráľ
podobný
##ppe
con
Išlo
dôchod
vyvíja
##hoľ
##isť
##pát
98
tesne
Paríža
EÚ
##šeobec
odvet
kultúrne
podujatie
pravostranný
Nitre
Varša
silne
pôvodný
každoročne
##blí
156
Tou
##kovali
166
Jos
##lácii
vode
nemož
tradície
jednoducho
##hn
##jak
Pol
tax
##hodné
##álnou
Londýn
Hip
dát
váž
hlavnú
diferen
majetok
udalosť
##ckí
##enka
rek
stupňa
##ínov
šéf
zbie
futbali
prispie
polostrov
##ýb
vlh
##štali
hrub
rolu
kláštora
Krátko
##čmi
Oba
Niektorí
využívajú
##lies
##ónie
Ali
aký
rovnaký
ľudovej
prenasled
cvi
Malá
sexu
##muni
##celok
plyn
schopnosti
##EN
##zai
##veri
štr
1848
naznač
poško
preteky
stredisko
##cea
##liž
##oma
tvare
postáv
vrchole
spaľ
jadro
laborat
##MS
##ómu
##timi
##ňovanie
najdlh
##23
ír
gólov
Napole
extrém
##mys
978
##túrou
štád
oblie
vlieva
vrstvy
problémom
vojenských
##ýn
##lumb
eko
##cových
Petro
jednak
veľkou
Té
##tari
##veru
##vieb
Klub
Druhá
mesiace
taliansky
kultúrnych
##vami
##ničná
##ujeme
Novom
galax
stavieb
minimálne
Provence
zbrane
##nek
##lini
##loha
upo
Šta
stráž
##stickým
vzťahov
KS
##lade
Rou
Novo
podvoz
##sona
srb
vodu
prekva
celosvet
##piť
Kysu
ciele
rozum
Zápasy
Zúčast
Barcelo
##luč
poist
vozidla
##stv
##fekt
Cou
čísel
prevzal
redaktor
##cht
fre
##stnej
strieda
literatúre
##ovec
hmoty
reťaz
geografi
bezpečnost
##Sc
Mol
čomu
##záciou
konfede
osi
pozície
pôvodné
zdrojom
##encov
1900
isté
##ráciou
Louis
Vtedy
Priemer
zvíťazil
sá
1912
Rober
kanál
trolej
rozsahu
reprezenta
##ři
87
##moni
##robiť
Čech
##sahujú
##OV
kópi
##nosťami
tretej
verziu
najúspeš
Tal
tes
##poveď
Rakúska
rovnaké
strategi
##28
140
inej
##ovanom
Georg
palube
nedostat
umiestnený
##čená
ana
##ánskej
zväčša
žiarenia
##rávne
tými
Gréci
klubom
skúsenosti
##over
Vili
píše
tera
##strele
nakrú
pozíciu
lokalite
Atén
regiónu
##phy
##pati
obmed
Sý
##dlom
komi
##non
##tore
##videl
Cham
Levo
takz
angaž
považované
04
Tich
vojak
čisto
nemajú
vojenského
##fá
otro
August
Pl
pohára
výsledok
##rmi
aré
cykli
zboru
konštrukcie
ev
165
##dynami
Cesta
dráha
buniek
dvadsia
ľavostranný
odpo
povýš
socha
periodi
federácie
sle
minist
krú
níž
lodi
symbol
##EC
portré
tímy
Hlavné
takých
navzájom
pochovaný
rozsiahle
demon
nadvä
štvrtý
Lú
Jeru
Medzinárodnej
##hr
##pež
##rika
spl
ekon
https
veria
obsadil
##rado
Krí
mete
##rálnej
spolku
69
##gent
inteli
svad
sérii
##žný
##ardi
Lau
rúk
texty
Škoda
obyčajne
##tilo
steny
Predpo
výstavbu
##šky
Ša
pen
koní
vedľa
sezónu
zaklada
##36
Bet
##nické
hornín
vládol
vydaní
##adi
DNA
oči
uží
plav
##pozície
straty
nazývajú
##OR
##jan
##log
##low
este
návšte
##hyb
08
##tici
154
700
Hot
Trenčín
##ns
##tným
##coval
Auto
Comp
##ánskeho
##kát
väčšiny
mimoriadne
##deli
Tvo
Sprá
nápad
zmieš
zastre
vedenia
živ
ihri
národa
##div
tep
bole
mesa
dejinách
priestory
diecé
Pierre
predoš
kostole
predstavujú
##zdi
rakov
##nických
vojaci
výškou
fyzikál
vydavateľstvo
ČR
oxid
trati
Ostrov
##fel
##iru
EP
samov
tvorba
prepust
dv
pľú
ruskej
Slovákov
okamžite
rockovej
##ket
##žou
1000
mŕtvy
Cieľom
Zatiaľ
odvola
plocha
závisí
živočíchov
##bro
##ons
##ries
Bod
DVD
##hanie
žili
Henrich
otvorený
##cz
Sv
##vard
##ander
folk
vládnu
ministra
Cre
##ľahli
Túto
vlastných
ruský
sonda
sústre
dopravu
navštív
oznámil
#
##úva
##enky
Tru
ríši
upra
záchran
##38
##ters
##enstva
hraníc
doteraz
##pec
##óza
##verné
pancie
podmienkach
##inál
##ísať
She
dop
speváčka
lès
plod
##kovalo
boku
Lieta
hlavná
zápis
MP
Cez
invá
dĺžke
##rei
89
##stka
ryt
formou
odtiaľ
majster
premiéru
##29
##júc
Kul
##znamy
podo
záhrad
námestí
švajčiar
považovaná
##égi
##dalo
159
ovo
##hnutá
##noval
vyná
adres
bohov
menší
zakáz
##níckych
Trnave
stanicu
pomenovanie
07
##panie
1913
kruh
veli
úzko
78
Lí
Chal
Krem
predme
majstra
Obe
prinú
zamie
krajinu
Jaroslav
zastával
Alexandra
uk
Art
Tes
zmenu
motorom
americké
Ais
komple
trvalo
vhodné
železničnej
##aux
##rib
zú
cer
Colle
natoč
Olomou
sústred
významu
spôsobuje
##chen
rímskej
systéme
##váž
fakt
hmlov
večer
Vancou
pohľadu
profesorom
Sovietskeho
##ars
##íne
Aca
zrú
nebu
jedená
podobu
Vznik
číslom
##cki
##gom
Pho
dých
homo
mobil
Pôsobil
atmosféry
##34
##poli
##ovanými
Slovan
Mel
Troj
telesa
začiatok
Wi
125
Vas
##raním
Jeruza
rozhodla
ada
zmene
veliteľa
zdob
peniaze
skutočne
##TV
##stém
dopl
##vosťou
pravom
venovať
es
oxi
##teľne
orbi
ochra
praxi
návrhu
##poru
##skij
##stent
##dených
##raných
Monte
nájde
následok
##lovo
##stok
Hun
##vysla
dáva
súbo
torpé
umiestnená
##uhol
House
počte
vytvorené
##baj
nas
##berta
oblo
násob
Ďalší
HK
##nina
oble
Osman
pokoj
pribud
príspe
rodičia
slovenskom
kap
sklo
uvaž
zdravo
divadle
skladbu
priamy
rovnakom
##sin
##iers
hory
sila
výskyt
HD
Ostra
patrilo
viacerými
reč
Tech
galaxi
##gio
##ózy
Gru
lig
úva
mini
##pravou
Komuni
nadvia
obrazu
Majstrov
##cle
##ráža
Stal
baní
Moder
spust
##phi
OSN
odha
reag
ázij
Tatra
zasta
premie
schopné
situáciu
mestských
presťahoval
##odo
Kel
san
##skách
uvádz
vyslov
funkcia
mnohými
##kum
Hur
##ktora
dala
stvár
##ujúceho
dcérou
podpred
týždňov
##mysel
dali
Est
##hrade
##obraz
pova
neroz
Edward
vytvorený
##ôch
##čkami
rozo
sprí
Fakul
vyrie
paláca
oltár
Miroslav
nazývaný
##LA
Ara
hore
štátom
materiálov
ber
##jskej
analy
automaticky
##byt
##tech
Cer
Cup
tok
poko
exped
dejiny
hádzan
slúžili
vykonáva
##tive
Bat
body
pobo
priazni
Prvýkrát
##itú
fo
bur
krás
nízky
komisie
spravodli
rímskokatolícky
##39
Ró
Tí
Časť
bežne
##rického
dostane
##ai
##rz
##ffe
##inám
Leopol
vrátiť
Ple
imp
pomô
sťah
bratom
videok
publiká
použitím
CO
##lovú
tvá
nespo
##zú
koná
##níctve
basgi
osada
Vietna
##stru
koal
Moskve
volieb
jazykom
stranách
súťažiach
##rer
plne
areál
Českej
starých
Národného
archeologi
##ôraz
drž
zhor
asisten
rozpust
preklade
##lým
Cher
drži
textu
zlato
užívateľ
Ši
mlie
##ovacej
rozhodli
DJ
látka
pokro
silné
vedúci
producen
nasledujúce
Dé
##tone
Song
prip
použitý
označujú
rekla
sprav
surov
fyziky
Žiline
energiu
gitarista
##tik
09
STS
dedi
výlu
Ázii
Space
britský
kapacitou
niekoľkokrát
##iami
##matický
zaviedol
##win
##dela
Piešť
1908
##lumbia
musela
predstaviteľov
CHKO
vydáva
Berlíne
správne
##gre
cirk
odšt
dobré
pamät
určená
##klá
##lych
stru
Maria
okoli
Krista
použil
##wy
##poch
##teho
Muse
priam
textov
autonóm
##tíva
1905
odol
##jo
Jiří
Môže
##rálnych
križia
letectva
##mum
##mana
bet
##viesť
##čením
emig
ročne
Abs
akti
##eniach
Trans
Jedným
ostatnými
vytvorila
##lene
prvok
prírode
problemati
Španielsku
boh
čre
prekro
vzduch
rozdelené
AS
Ron
Fried
digitál
zomrela
konzerva
##pád
sob
Veľko
zámku
otázky
príkaz
ďalšej
##ěj
##lat
167
Pia
Bran
dvoji
Česka
bývalej
horniny
hokejový
odvodený
priezvisko
spoločností
01
Ká
High
line
občianskej
It
čita
##komuni
##dek
##fur
Beat
austrál
pevnosť
spočíva
##tain
One
Gran
vlák
prepad
vydané
náklady
uviedol
celkovej
charakteru
##nutý
hal
iní
##liach
banky
katal
občas
Juhoslá
Charente
Club
Karpát
nakoľko
výstavbe
univerzita
Še
##ness
Ned
Oise
výsad
##skytuje
prepis
súvisia
sul
##cyklopé
##pila
##entov
##techni
obvode
interak
predpokladá
Lea
Svoju
sondy
oceánu
paliva
vládou
flor
reliéf
##pp
fu
##kyňa
Tis
stála
občanov
posádka
zoznamu
##car
##čok
##tými
Sha
domáce
Postupne
bliž
orgán
ovláda
vykona
Anglicka
zúčastnilo
##bon
sr
Jon
teku
sekun
zhotov
slobody
135
Kos
##strie
dráhe
##ómie
##rálny
Group
nádrže
Archite
rozvoja
Bul
Akadé
tenis
chránené
##anou
konz
nemali
finálovom
há
Škó
Pozn
lesy
udeľ
Tatry
stúpa
vysokú
##OH
##líc
##zvu
##cest
##vedom
zámer
vodných
ľudských
zabezpečuje
##pto
ph
map
jazyky
obklop
##kazu
##kúnd
Váhom
odporú
poslednom
Boj
úlohe
končat
študij
Santa
pretr
kráľovi
semifinále
##MU
##SD
Dal
Sym
dub
žen
Brez
Vyso
hráči
opust
sedlo
dôleži
vylepš
Max
znaky
gréckeho
zodpovedá
##pha
##ings
##rest
sou
drevo
syste
Street
priblí
gravita
siedmich
dostatočne
##renej
dôraz
priekop
Austrálii
nachádzajúci
##rúb
##vez
##lovu
Mur
pap
konala
##stika
starší
objektu
##množ
Mus
Jedna
vrtuľ
jediná
týžden
##égé
bru
ute
Plan
sama
knihu
pamäť
##fikácie
odchode
vozidlá
spravuje
americkom
rozhodnutie
uskutočnili
##pole
##níčka
1906
Gram
Číne
dvomi
minul
zmena
druhou
horizon
generála
Smo
prep
Slovenskom
skutočnosť
##esa
sfé
##entín
Rima
kľúč
soci
poruš
Byzant
albumy
depart
našiel
platfor
##rac
Chrám
zápal
##šin
##itým
##matickej
paramet
víťazom
Sá
##dujú
157
Pit
Brne
svie
istej
touto
doline
sústava
spoločné
povstanie
cestujúcich
##lers
##pela
MiG
Ret
Adol
Slav
Scien
prúdu
scény
vydania
cien
blízky
person
##nostiach
Karpaty
Vysokej
veľvysla
pomenované
##pul
ČSR
##lovať
vážne
štýlu
mužstvo
matematiky
mäk
úvod
Kamen
Awards
bazili
preslá
prišla
pacientov
zastupiteľ
##aki
scho
##ológii
odbore
podcelok
##UDr
ša
Hos
##ovice
chro
doda
##produk
bitky
súlade
navštívil
boho
silu
##čnosti
každá
titulu
tvorený
upravené
základom
sociálnych
##sud
##bach
128
nit
##niesla
Budova
nebude
pyramí
##lám
hôr
zdo
Mary
zotr
zámok
##nen
Cit
alkoho
sekund
tvorené
situácie
uprostred
##gas
##lor
Sun
Viac
##stvách
Nováči
pozostatky
##šan
##itej
158
Nového
vojenský
pracovala
životného
európskeho
požiadavky
##tnom
mlá
##hovor
súhvezd
obsadili
štruktúra
##kot
zdr
##ovanou
celok
pásma
##mentálne
slovník
katastro
štadióne
##ínska
Izra
Matej
Eduard
úspechy
vojenskú
využitie
vymenovaný
prostriedky
medzinárodnej
##nde
1911
Ázij
Pozri
sklada
väčšej
##ovacieho
väčších
ďalšieho
jednoznač
##rine
vyú
mnohí
viesť
nastal
pomaly
##jne
Big
spi
##lados
letov
predá
stavbe
variant
štátnych
umiestnil
vlastného
##dž
Edi
pľúc
seni
slovensky
Of
SAV
##visle
1907
Veľmi
využi
Kronika
Zaujíma
skla
zime
##stickú
pramen
smrťou
##CH
##počet
##točné
lety
riek
vyze
mestská
Mate
písmo
žiakov
podriad
stránky
zastavi
otvorené
politiku
najväčšia
zu
Ram
tich
upev
zdvi
##xembur
údolí
skladbe
##počíta
Henry
samoz
uvedom
ďalšiu
posledného
Zé
Muž
##znáva
Alsa
zmes
##vaných
matky
kombin
##prestiera
##žilo
tés
##knutý
Most
zvýšenie
79
##komo
##táciou
danej
##skových
väčšiu
chorvát
Hellados
zodpoveda
technológi
##ché
modi
##égésis
objem
severu
vývoji
Periégésis
##tole
búr
##pedia
ruského
typické
debutoval
##uť
##sea
##war
Rok
Son
Pavel
nominá
vrátila
požiadav
spolupracov
##beh
##gro
##ovoľ
Dôvod
nepra
nutné
staré
zdôraz
podniku
udalostí
##enica
náčel
očaká
ľavej
bratov
kultúrneho
tisí
piaty
zabud
dispon
metóda
Martine
kyseliny
dokončená
##rij
##silo
##viac
Hud
##držia
udáva
voľne
pokrýva
skrátene
##ýr
##vská
##denej
číta
oslav
primá
začne
Vlajka
guverné
nadobud
rodičov
Španielska
##DR
dievča
##atér
Blo
krat
Číny
vyhlásený
pomenovaný
##IV
149
dut
spon
Najprv
protiv
mesiacoch
anglického
pahorkatina
Dva
kine
bývajú
##rín
Sm
##haus
ATP
ilu
Sicí
župy
rumun
vrstva
knižnica
filozofia
samostatné
##kel
##pho
Slovin
úspešný
odvodené
perz
kampa
inicia
kotlina
Existuje
turistov
niekoľkými
62
##natý
mané
##ciálna
citli
vyšších
kryštali
považujú
Španielsko
prostriedkov
##krov
Urb
gréckokatolí
##tám
##rieť
##cient
skúma
Moravy
financ
169
Hus
Vel
##tizmu
pozad
Gabrie
minerá
častíc
##oba
##taj
72
##kone
bio
Green
Slnko
Tepli
písal
vytvá
konštru
miestne
postavu
zbierky
druhýkrát
Hum
Lor
Coun
zanech
zachoval
##proti
boje
futsal
tankov
odborných
Bé
Asi
tvori
zlepš
námestie
##stel
##tinu
##vero
##horie
##kovič
oboj
povola
sekúnd
chodník
pokračovala
reme
Flori
prekon
vplyvu
ľudské
pokračovať
##ně
UE
##ranž
Rue
eli
Orav
spách
vzdeláva
pil
usil
##bridge
treťom
vyjadr
myšlienky
Sky
Malé
Rhin
Harry
hudbe
tímom
Najznám
orgánov
jedincov
okolitých
podporuje
##bol
##tela
antro
premá
funkcií
zaradené
##hlič
##test
hes
zbo
##sledy
celku
poháň
hornom
vtákov
Microso
##avy
náš
##razil
poro
Grécko
knižnice
reprezentuje
##AN
kras
výpoč
zložky
širšom
verejnosť
Železničná
##ána
##vinu
zub
##field
##mologi
vytvorená
##cial
Tró
##mentom
Briti
zachovali
delostrele
označovaný
##uže
##mato
Bard
Joseph
zaberá
pobrežia
predmetom
##zde
##tran
##čnému
Frid
stĺp
domác
srdca
##pozícia
prešla
vybavené
Boha
Škót
Najvyš
preved
prekladateľ
Ari
priemerom
##IN
považovať
##wis
##raft
Kež
Sol
1915
Hein
Aisne
stavi
prihlá
účelom
pozorovateľ
uskutočnila
##rasta
##stone
1904
nepou
klubov
obývan
programov
##sexu
vodo
armádou
zostala
Ox
kot
##ínsky
Malý
Motor
jasné
tried
Ondrej
teleso
Nitrian
zostali
Maďarska
pracovník
##vád
##áka
##ieha
Cle
Tré
hus
ráz
##gnosti
##ostrov
Sainte
armádu
značky
široké
zaradený
prebiehala
komunikácie
Nu
124
127
Joe
kos
Somme
Juraja
dvadsať
projektov
neskorších
03
##cker
##ánov
Špe
##tárov
návrat
pozícii
stromov
nedostatok
Kau
Tit
Mali
System
týmito
umožňujú
množstvom
##ios
bat
##opise
dajú
Žije
pripis
európskej
##íme
Play
komen
využiť
tvorená
svetových
##king
tat
pecho
prízna
mig
frag
atrak
argentín
sprístup
národnosti
109
zme
##etras
##štiny
brig
Marie
farbu
malej
školách
##eno
##znal
ísť
vodné
##nostiam
modely
princíp
##lud
##siu
##lieta
dohody
prijatý
nadväzuje
##služ
jezu
Jedin
kapitu
uložené
prehliad
Liptovský
##tas
##kopy
##lilo
##nícka
slová
stadi
rukopis
zákonom
Existujú
bezprostred
Švajčiarsku
cuk
skr
Roman
VŠ
und
##lovou
List
robí
##níkoch
##nejšieho
Macedón
##ško
Fir
Ker
žal
##ranné
##siela
Karel
rytie
profesora
##výš
##tári
##raziť
Chu
1916
Váhu
prís
##iz
##nitú
##oved
##ňovala
Johna
dolnom
niekto
vesmíre
slnečnej
najväčšou
§
gr
nór
##ovému
vyvolá
Všeobec
znamenalo
##bín
Nico
##zident
kňaza
College
hudobného
##tero
Glo
zak
Skali
prezý
Navyše
prišlo
Príklad
zvíťazilo
##likt
vice
botani
pôdory
sestra
väčšia
zúčastnili
##ôž
##fia
Dán
polohy
vojnou
Apollodo
akadémii
produkcie
starostlivosti
##view
##grafie
Byzan
Samot
teóriu
dosiahli
prevádzke
prítomnosti
##zdu
61
##isár
KSČ
Azur
cica
obaja
Hlavný
Masary
Ústred
Osob
olej
poslu
Techni
hodnot
urobil
nadvlád
samostatne
##lovým
sezóna
vzdela
nemohol
chránených
##mec
Un
Rož
Pomo
úpätí
východného
kontinentál
##kne
PC
##chus
Sul
Meno
fáze
fázy
tvrdí
hrával
kaplnka
Británii
cintoríne
##col
##úšť
bel
##štine
Cour
natá
exter
osoba
označením
žu
Baby
Múze
infek
psychi
Christi
mestské
##nejšiu
Jakub
Pápež
nádrž
kedysi
zložil
demonšt
súhvezdí
trojuhol
podnikateľ
##šk
##niek
Dod
rastie
astronau
najvyšším
##nať
##wan
##pali
Praž
vyprac
ľudskej
školstva
Trnava
začlen
štátny
formálne
premiest
ľudského
gymnázium
##ľou
Ré
jav
##rálna
leto
škvr
Royal
Viedeň
posledná
GP
Hé
##dyho
##stej
##íciu
Line
lond
kryštá
súboru
vyhľadá
výzbroj
zamestnancov
##gó
×
Sie
Alžbe
kópií
zozná
nástrojov
AC
##čnosť
##razila
Popri
opere
vojen
dedine
Alsasko
Ministerstva
AM
ost
motý
kosti
navštevoval
iz
##tura
Net
Pos
člena
##strálne
monarch
použitia
spoluprácu
##neu
##nový
##ritu
##anými
Egypta
časopise
##wit
Lá
##irtu
##rity
bojoch
jednot
konven
spojená
pozemnom
programe
predmetov
##ovie
frontu
starého
stránka
obchodné
olympijské
##socia
North
Pokiaľ
cieľov
Petržal
prípravy
olympijský
94
134
##lines
jadra
priestorov
##tíve
Châ
##nením
##turgi
Teré
básne
klavír
uvedená
pamiatku
republike
zriedkavo
politického
um
portá
prítomnosť
technológie
105
Bene
Vide
náre
poste
urých
partner
východu
Maďarsko
Spočiatku
architekta
vybudovaná
##áša
FA
##mond
Kým
Ria
##anoch
Regi
choroby
futbale
výlučne
mužských
##ose
Up
##busy
Ray
tró
urb
1909
Franc
prázd
starý
nastav
zmluva
Atlanti
modelov
ročníka
Př
Nea
ľavom
kvality
odmieta
početné
zmenila
##31
##cor
##well
1903
vypad
kontakt
dokument
riaditeľa
Kalifornia
##ctie
##nický
##niciach
databá
plochu
zvyšky
väzenia
rímskeho
##diu
##tyš
Gö
##keho
Fon
výpravy
poriadku
úspechom
postúpili
sovietskych
##íž
##lot
145
Ama
Sar
vraj
zdie
pridal
Napoleon
strednom
##živ
##lana
eur
Sara
brid
##ložená
##niesli
Stará
vyboj
kontex
Letných
všetkým
Štefana
obyčajný
##tovú
Wolf
prežil
sprevádza
veliteľom
Ir
##zali
Blan
synte
príjem
zdanli
zákonov
pôsobila
##GC
##dor
##zli
##onym
Oli
##archi
Dana
nerv
šach
pokúš
##fikovali
historicky
Gor
zhod
prácou
skúšob
rezervácie
##ball
daň
iko
sli
##hnutie
##stných
výhrad
dinosau
konštan
spojenia
rozhodnutia
SE
##čany
údo
##skopi
Chart
obslu
základy
Trenčian
zaoberal
sociálnej
Konštantíno
##ür
##cta
##ňach
Jad
Pek
doba
veget
energia
automobilov
vs
##dorf
##naté
##regi
orto
slad
Berlín
ploche
Projekt
úspechu
nachádzala
všeobecnosti
##rice
Ken
##hradu
##skoby
Gali
astronomi
poslancov
Kli
Res
Mess
Pink
muži
viaz
názory
pokúsil
objavujú
príkladom
vystupuje
##stla
Vnú
ode
##iacej
zvuk
Proti
sestry
týždeň
štátneho
##čik
##othe
Plu
Zuz
kup
pád
##obili
argu
zrka
Metal
obráz
zaúto
teórii
neskoro
##hnuť
sln
prírodné
bezpečnosti
##aker
ľub
neďale
stroja
znakom
domácich
politika
najvyššiu
IP
volá
Šari
Absol
silný
telef
ukončená
##ben
##isa
##tak
oz
Zna
top
##skami
milo
gener
známym
jaskyne
prináša
filmovej
samovraž
>
Sau
##hrady
1898
Smith
islam
obranu
susedí
určité
##df
##day
##zínsko
korču
nepat
magnitú
##gene
flu
##rodej
Antoni
navští
zastáv
televíznych
##ün
##aníc
pln
poveda
trochu
nemecky
panstva
hokejovej
televízie
##cks
##gni
##lau
MA
##onne
Jane
Leti
##kvival
##ročnej
recep
zrých
častice
pretekoch
nachádzali
Gy
Bad
akú
Phili
náhrad
ženatý
politike
rovnakej
##ix
##ross
##skum
##dením
Meto
matu
Nikola
poslal
spisov
zemetras
##gej
fik
Typi
Turci
celým
##skobyst
amatér
dedina
južného
maďarskej
##plex
##stky
##predu
Vala
holo
kuže
viery
inštru
službu
starej
biologi
procese
Mis
zve
##tovať
akým
Ježiš
farba
každé
Strednej
juhovýchodnej
##qua
Zad
##loval
Blue
Sand
drese
prečo
Aristo
vzhľad
ďalšom
spoľahli
miestneho
##gná
02
české
##sťahoval
Mesiaca
Národný
odchádza
režiséra
samostatný
##roba
##produ
takéto
kalibru
vrátili
opätovne
pevnosti
vyrobených
hr
##ševi
##štol
kúpeľ
tenden
leteckej
Microsoft
Spojeného
oddelenia
##psi
##lici
Bay
Emi
mak
Takto
paríž
Michala
pridelen
ženských
##ínal
##ťami
Karl
libe
zostre
Dôvodom
dramati
prameňa
rozšíril
##kvid
##tovo
##ácii
edi
##menie
oceľ
##kovité
samotný
asistent
portugal
##pola
##rita
glob
muža
múzeu
raket
sídla
účtov
rozsah
výskytom
##ísť
žľa
##rieved
útvar
výkonu
filmový
hudobná
povedať
vrstiev
Mikuláša
potvrdil
najlepším
##sz
##kánu
zde
Hill
lásky
tepla
Výsledkom
účastníkov
##dis
Time
skom
humani
odstrá
Niekoľko
komunika
pokračovali
Sud
Elect
listy
Samuel
priľah
známej
##hovýchod
žiarenie
jednoduché
výbež
komory
ústave
štúdie
obsahom
štruktúru
##omor
##stalo
záväz
predmety
politický
##dre
ul
pôsobenie
katolíckej
šo
Cur
pet
Okres
biela
prele
obieha
podpis
elektró
riadenia
filozofiu
najznámejšie
##pou
##boch
126
Ach
##medzí
témy
hlavu
hrade
karty
sklon
Poznám
foriem
odporu
parale
príprav
##tha
Cro
hip
zav
párov
tkani
videl
Grammy
upozor
vedecké
tretieho
manželstva
šampionátu
##vít
##ánu
##ény
##ónia
vyšlo
obežnú
lý
##ctor
Gem
Life
deko
mesiaca
klasickej
##ET
##ejz
dro
Tibe
denne
nízko
prekáž
podpory
ochorenia
stredného
Bus
Mach
Satu
modr
lyžiar
##cio
##ira
Javo
lesov
chvost
rozvin
gréckych
najvyššia
Filozofickej
##jím
##žných
Live
Savo
##cového
strat
##matická
vlasti
nebezpe
finančné
Hne
1896
ozna
Čile
tunaj
česká
postoj
preskú
región
bojoval
nemecká
stratil
##pin
##ogle
##stil
Arab
Prob
okami
okupá
tromi
junior
najroz
písmen
Bieloru
opustiť
slobodu
odohráva
##ôžu
Ran
Tim
Wit
Podu
nevý
pries
ľuďmi
detail
kandid
peňazí
diaľnice
##ujúcej
cicav
Systém
ďalšia
spodnej
distribú
prevodov
rokovania
##ken
Sur
vzo
Kniha
Mnoho
opera
sfarb
##tickými
Grékov
posunu
označované
##bury
##meho
##korču
##lenej
Každá
hodnosti
porazili
vlastností
konfederácia
##šíc
Sig
##novom
opti
trieda
znakov
cisárov
pretekov
kráľovskej
technologi
navi
##ovacia
používanie
##33
##čník
##strel
Stone
rodín
vytla
podoby
##nav
##vent
Sel
##moder
##hliada
novom
snahe
financií
Ministerstvo
Maxi
euro
meto
vizu
##tizmus
##zovanie
oddeľuje
##gby
Hav
Kas
menš
##andard
delia
vyžia
Bardej
Argentíny
predpoklada
profesionálny
##ald
##árd
##áner
Venu
##tta
fau
mono
Pieseň
likvid
napája
hodnosť
prototyp
##ED
##ota
Lar
masí
show
hmyzu
stará
bližšie
ekvival
mestského
francúzske
##moj
##čať
Nes
dik
##ktoch
ľavi
linka
mosta
fanúšikov
generácia
španielsky
##bes
##pod
##tona
Baj
Rusi
front
lieči
odhal
Stavba
rekrea
funguje
rozlohou
situácii
slovenčine
Cru
Dunaja
prelom
pôsobia
spolupráce
Majstrovstiev
##set
Há
##back
Oce
Uru
Medi
memb
mien
písať
spojený
štadión
skončili
zloženie
medzinárodný
##gani
##prie
heb
Ková
odsú
svätej
##zovaných
predalo
združenie
rozšírenie
juhovýchodne
KD
id
##menné
##nikom
Apple
kalen
hranič
zadnej
slovenským
##náva
##ware
Luž
uži
šan
##ovský
Long
bitka
orgány
##clopedia
Hlavnou
##BS
147
##óriou
Sobo
chiru
mladý
režim
súper
malého
Ďalšou
konania
manažér
základná
##šku
Sec
has
fara
bezpe
štábu
Egypte
Republi
reakcie
víťazov
bojových
finančných
##rodi
Fis
úmr
mozgu
hniezd
zvyšuje
príčinou
verejnej
vystúpil
počítačov
Washington
##nôt
UTC
Bang
Kláš
Vznikla
umelecké
vyjadril
##amerických
Panamerick
fotografie
##dox
##rap
##lína
##žalo
Sab
kabí
nikto
spoluz
zvlášť
albumom
nahráva
##fó
##maľ
##cimi
Indie
Ostat
pohre
stredu
talent
stratov
Apollodoros
Led
upad
Svätý
Jednotli
Najvýznam
protestant
Predpokladá
##nge
Clas
Loir
plánu
aktuali
dnešných
rozdelená
DS
##rovať
mestu
zásah
Ochranné
podstatne
##rgi
##luje
Boe
lac
##istov
##pustil
Košíc
biele
cudzí
hyper
sériu
pesnič
kongres
letiska
astronóm
námestia
vyjadruje
technickej
##ep
##árna
fig
Beau
vlny
##rovaná
konver
románu
súostrov
križovatke
##vey
##tívu
Alo
odkaz
závaž
Obchod
uvádzajú
Bibliothe
vybudovaný
zhromaždenia
##pí
##kre
##kala
Fra
Eury
zaob
Socie
telies
Londýna
manželku
historickej
organizácií
##nál
zba
malia
galaxií
dokončil
odsúdený
riešenia
Kalifornii
##ät
##siť
XV
##anus
noc
##lande
aero
blok
stud
Jupite
hypoté
dvanásť
pravidlá
spracovanie
bodu
napl
Krist
matkou
plynov
Takisto
vyrobené
výsledkov
Out
UEFA
Zvyš
cyklus
gitara
nadväz
zorgani
architektúra
Jen
had
##árska
##álnymi
Festi
bicie
trónu
vyrad
Viliam
Anglicko
Cambridge
technické
dokumentár
##hry
stane
Naopak
staníc
trvala
Napokon
sústave
zavražd
Apo
Bir
Jur
##vados
Milo
Pezin
Týmto
útoky
matematik
Gen
Obja
spro
štítu
Center
časoch
hustota
Kenne
Massa
vymedz
Uhorsko
stavbou
žiadosť
zahraničia
Bibliotheca
Najčastejšie
##gré
Dam
Plo
kaza
sťaž
Moskva
krídel
Prievid
napätie
vtedajšej
štvrťfinále
nasledujúcej
##dra
##more
##svet
Ath
##čková
##balový
oslobo
Company
absolút
manžela
sovietskej
Las
##ensis
##ročné
koši
budhi
užšom
otvára
dielach
dominant
objavené
svetovom
symbolom
ins
čak
koncu
napoj
plány
Mesiac
Viedne
sústav
mŕtvych
opisuje
zvíťazila
obyvateľmi
##rub
Eva
oci
Žig
Chan
Hall
vraž
Stráž
chceli
pohreb
teologi
SK
##lované
druho
dvore
imple
náhod
hlavou
snažili
projekty
samotného
##éz
€
##dan
##nic
Lee
##čanom
1902
Kapi
České
Hviezd
kultúru
medaily
poľskej
červená
rozdeliť
verejných
##íl
##dza
##rius
##sica
1901
kvar
##servat
Sliez
listov
omnoho
potenciál
##cara
##řich
naň
1895
spáj
debut
Ruskej
bratia
kariére
históriu
volejbale
francúzskych
73
##mesa
##pách
ger
##tovom
adap
zauj
Bavor
Exped
trase
dokona
Británie
desiatich
##IT
odp
rap
Wilhel
údolia
všetkými
stratovul
príslušníkov
##zdvi
zbú
Konal
bodom
##níckeho
verejne
Calvados
zameriava
existenciu
presnejšie
Kvalifikácia
##fin
dé
vyk
Staro
Program
klasici
mestami
okrajom
rovnakého
literatúru
##cén
##riou
##reali
Deut
Peru
White
hráča
súrad
hodnôt
použitá
manželom
postihnu
poznamen
vyžaduje
štvorhre
Retrieved
spôsobilo
##OL
##mas
##now
Cat
##niach
lesa
budovu
nemala
prestí
Ružomber
##AS
##radi
Hudob
vyšli
prekona
samozrejme
##rála
##stad
104
Ant
cár
atóm
Floyd
Staré
dušev
prince
prsten
štátmi
intenzi
rozprestiera
##lór
92
##reli
138
##tovým
Egypt
League
rodinou
vykonávať
##mid
Ae
Ľu
Young
natoľko
rovnová
polovicu
pozorovania
severozápadne
##trov
##kovými
ponor
takej
dreven
Associa
vypuknu
##ML
##muje
##učil
pdf
##nická
Celý
Euse
VIII
naši
stri
Steph
sopky
##strihom
zátvor
Christo
pramene
známeho
##zz
##plín
Virg
trpas
vrchoch
opatrenia
##ffa
##ogra
##term
115
vnu
José
zjav
Latin
Vlast
krídlo
predčas
stretli
sčítania
nachádzal
spôsobené
vrchovina
Európskeho
uskutočnilo
historického
71
Hub
##áciou
bioto
fenom
zosil
kaplnky
prítoky
ľadovom
konfliktu
severného
##fika
abe
obk
Hneď
ubyt
žila
##rickom
intra
kraso
línie
Montre
častejšie
hraniciach
vtedajšieho
##tió
NP
Náme
reží
##jedine
rôzno
elektrickej
ES
Hi
##fyzi
Nik
##ľovanie
pobytu
zákony
úpravy
Spišskej
diagnosti
##ratu
Moj
stopy
Rimania
obežnej
prejavuje
##ctu
##sol
900
espe
moni
##grafia
kmene
opráv
signál
zápasu
účinky
čierny
evanjelický
##niou
Jab
##disko
rieku
scéne
seminá
vodnej
Stanley
víťazné
debutový
miliónmi
##vna
SV
##jali
##ství
maga
##rešpon
komor
lokál
traja
hrebeň
jediné
povrchom
##list
NGC
php
obetí
firmou
slúžiť
vyšetr
Letisko
dvojhre
prezent
organiza
významnú
politickú
Skal
##ovskej
sezón
továr
konflikt
vstupuje
umeleckých
##RS
##tož
##kály
##rajú
##živo
##zvlášť
Kolum
##šeň
##ardu
Tok
##ziách
tíme
Javor
titulov
najstarších
manipu
vysokým
správanie
predstavil
Dem
Sin
pek
##lektu
inde
sľub
uzav
Zaobe
narodila
storočie
vznikali
##ła
##tike
XII
1899
hodin
opatr
dlhšie
filmom
membrá
obvodu
zohľad
mládeže
povstal
desiatky
##ade
##štát
BBC
Wood
hrúb
škót
nešťa
odraz
##romagne
kapitán
primárne
železnice
podpredsed
<
##pili
leb
##rovou
recen
mramor
rímsky
stanicou
nahradený
##hnúť
Jim
##níman
NATO
anim
over
páde
Albán
guľom
morom
štvrti
nazývané
nemeckom
##xus
##tína
Nep
Výraz
Slovak
##hí
##lam
Wel
##tedaj
Caes
##matiky
dekla
každú
profil
pôvodom
odohrala
prebehla
kráľovského
fó
##chel
##core
líd
zber
Albert
tretia
Súčasne
remesel
európske
neskoršie
Pravdepodob
nezávislosti
pul
túž
##tárom
Roch
malú
##nejšej
Správa
poézie
hudobník
aplikácie
ostrovoch
##šal
##nutá
Vos
##tivity
South
infra
koord
opery
moderných
skupinách
víťazstve
vybudované
##arí
Are
dáta
Chrán
tamoj
tropi
Kanada
grécke
požiar
prebra
prenes
odpoved
pohorie
nazývaná
rozhodne
priniesol
miestnosti
kvalifikácie
reprezentácie
##sová
##sťan
Sho
##berok
##nedlho
čoraz
percent
vyhotov
Nemeckom
prípadov
vzdelávania
predstaviteľom
##qui
LG
Ral
ríš
zvr
##užíva
##inohrad
skúšky
komisia
Ukrajiny
prírodnej
predstavitelia
najvýznamnejšie
##áž
##bul
##číne
##ckrát
kolí
Astro
atómov
Posledné
Pok
mly
vec
##tanie
vají
##níkovi
belgi
expan
trasa
zapla
štatú
fronte
tábora
krasokorču
82
##matu
dcér
dole
Lučen
kmeňa
živočíš
samospráv
kozmonautov
##UR
hú
##ónou
Ili
Ope
ato
##nástich
Najviac
ocenení
prvkami
tektoni
vysokou
Japonsko
##hm
##žel
Vr
Ada
##stoch
##tkoch
hned
##ktorom
spomi
stupňov
svahoch
funkcion
západného
|
dlhú
##rového
prípravu
teológie
politická
medzinárodného
##yn
##ciam
##šilo
Jam
efekt
obýva
kvapal
posledným
##ID
spolok
programy
vyznačuje
presťahovala
##uli
##vín
##žky
nao
úte
##júcou
##tskej
1870
Ency
##tickou
maľby
rukách
stranou
vedúcim
rastlina
##voda
Šim
Dvoj
Práv
monu
Herak
mince
Hautes
úrovne
riadenie
používala
podporoval
stretnutie
##hip
##óda
129
148
reči
vyzn
synté
uctie
zaprí
modulu
obcami
Podunaj
Frankfur
Japonska
podujatí
požiadal
pristáva
festivale
ozbrojených
organizovala
Mož
Sna
Malo
River
primi
noviná
ochrana
slúžila
trikrát
veľkými
zemepis
Výstavba
##idy
##gorit
##tifiká
obehu
##konštru
jaskyňa
mužskej
nemožno
výhradne
zabezpečiť
##tó
##jou
##kru
##bios
##rien
Ein
Stá
1897
Ville
kolie
určiť
zaťaž
príbehu
spojení
strednú
koncertov
nesprávne
##ac
##gus
Bun
1890
Port
Rých
manu
Domini
Nasled
uhorského
##tén
##čist
##rátov
strý
##turali
kluby
kozmo
Hitler
súčasný
vychová
spoločný
anglickej
dosad
osade
jazier
nekone
obrazy
prestup
verejné
prameňov
Holandsku
Ružomberok
označovaná
##róm
PS
Zb
##mino
##čuje
146
zja
##stine
##tovou
Agen
ateli
pripojil
nacionali
činnosťou
Obyvatelia
Puy
Syn
##chove
úloh
Vývoj
výhľad
zakonč
vyhralo
Columbia
základne
##iv
##bar
is
Sob
##pulár
Rady
Enter
sväty
trium
zaháj
Pacifi
podlož
životné
procesov
naposledy
sprostred
ekonomickej
severozápade
##thur
raj
##lopon
##podla
Limu
komu
Zlatý
nedáv
rešpe
zdola
ôsmich
oblasťou
filmových
najstarší
vykonával
najstaršie
Lé
Mou
Sub
Way
dažď
odde
dedin
sform
Marián
nastáva
nezávisle
pozorovať
spoločenských
##forma
akej
daný
Štvr
Česká
Bridge
inform
letectvo
##NO
##tónov
Road
trak
rozvod
minerál
Ukrajine
rebríčka
vyštudoval
Arte
fanta
heavy
začať
odvtedy
vozidlo
poznania
takýchto
Stanislav
vzdialené
futbalista
##raku
139
Avi
Mul
Syd
Cali
únia
služba
výslov
pomohol
miestami
poschodí
sovietske
##cius
Mos
Sne
pun
##tárne
Colo
hreb
zálož
primár
objedná
korešpon
legendár
rozšírené
hmotnosťou
rozdelenie
návštevníkov
dú
Sku
vin
##riali
nepod
súhrn
##ovského
tabuľky
vynález
pohranič
slovenskú
televízii
severovýchodne
##rs
—
##liat
Slovo
rakiet
vypust
panstvo
britského
čom
Luká
Majú
pätná
##rovania
stráca
odpoveď
Švédsko
chránený
observat
##ram
AP
##oden
with
zóny
Radio
pluku
slávy
virtu
čierno
celková
konzervat
vymenoval
##bun
##uté
##štian
##óriách
Topoľ
morav
ľuďom
Google
záujmu
##ovateľom
Chicago
ruských
Čechách
polovica
vedeckej
osobností
rozšírený
umeleckej
talianskeho
##cil
##zmy
kl
Lev
from
ruky
##ielkov
Bitka
úvahy
##ografia
frazémy
Jednotlivé
##mú
floti
##nejšími
farieb
osobné
nemocnice
Limuzínsko
Univerzite
##cas
##káže
Had
Jar
##tológ
FIFA
Rena
doch
trend
zániku
ukázalo
vnútornej
##plej
nau
##kovce
dané
soli
ulíc
Villa
riadi
výhod
##stickom
potrebu
poverený
trolejbus
náboženské
židovského
##oly
##šín
##rala
dot
vôd
mrav
Simon
detek
karos
vníma
zmier
Amster
ohľadom
uzatvor
kvalifika
prevádzku
pracovníkov
##ds
##kus
Či
vyb
hiera
našej
vyhov
zabil
Palestí
mladosti
počítača
poľského
základný
súčasného
založenia
nominovaný
spoluzaklada
##ON
##áni
##vant
vaj
##bežne
Gold
trom
osman
približ
ukazuje
prístupu
vzácnych
##bid
##dus
##tormi
Hron
plast
uhlič
vodný
jedinou
sedimen
spojene
samostatná
##gel
##lič
alp
kama
tali
úder
hrajú
papie
pleso
povoj
príchode
vojenská
priestoroch
##zel
##ymna
Mak
ohlá
bežné
medail
štyrmi
Celková
Európsky
Festival
uvedených
bezpečnosť
##CD
##enice
##presi
deri
obal
ofen
okup
cyklo
duchu
oceán
písma
ženou
udelil
vyvrch
Habsbur
ekonomiky
dž
##edzi
##rode
zmi
Spor
faši
Johann
Morave
Sparty
Strana
označil
velením
inteligen
považoval
organizátorom
##obu
bul
##range
Carl
ráno
štvo
dnešné
stredne
staroveku
PR
##illes
Katolí
zavraž
kardinál
podlieha
Friedrich
nasleduje
##ure
TA
137
##gener
Hand
advo
dora
port
Zákon
oprav
vracia
reakcia
slovami
vyhrali
zastara
významná
##gg
##erne
##zine
Pad
sad
Spri
brán
obkľú
##kovania
Turnaj
moderné
okresov
telefón
úspešné
bývalých
rozhodlo
Vancouver
náboženských
##lóg
Bož
Maro
demo
skúm
vypá
najnov
západu
Rolling
nemeckým
81
Pel
nohy
raše
Austra
areálu
poprav
zmysel
inštruk
zachytá
časopisov
##ray
##edik
##tala
Aga
imi
##vanej
1880
Clau
Post
##kovský
##nopráv
dátum
zbraň
Afgani
Kanady
aristo
pamäte
prednej
členkou
bohosluž
##leni
ostal
ostro
vyšší
Írska
polohe
spomen
##cyklopédia
dvojnásob
združenia
##rába
Pot
Linu
bejz
veži
radov
bojovať
letisku
neznámy
ľudových
intenzívne
##cú
##ňat
##žar
##wski
EHF
Gri
McC
horn
pôde
Holly
trasy
vzlie
majstrom
staršieho
vrchoviny
Zach
vzbu
Nízky
zábav
preboj
preprac
tradične
pravidiel
##ěk
Haw
Bois
okruh
stret
Hlavná
pochop
napätia
ojedine
pápežom
zbierka
Posledný
vybavený
časopisoch
pahorkatiny
##čú
##odí
##syl
##tit
##para
##deniu
smre
Floren
určuje
Najznámej
144
350
##hrada
##desiat
typom
##logické
prehľad
vyobraz
dôležitým
pochádzal
##TS
BM
##sale
lom
zvon
znázor
Švédsku
ťažkých
##ľaď
gé
##funk
##číka
Jord
##ovacím
##vaného
ozdob
silou
najväčšiu
súčasných
juhovýchode
##áru
##hvie
Ear
##rácií
Blíz
Land
zakú
lietad
rozlíš
pramení
rozpráva
maximálne
severovýchode
##cc
##ias
##uss
##riem
zver
Mnohé
Theod
klesa
rocku
súrod
žánru
Termín
rozpoč
horolez
poruchy
náboženstva
##bla
##krá
##enci
##rite
##ňová
ťah
Rožňa
kroni
vozov
##ografie
bojové
opísal
tvoril
pôsobiť
vzniknu
gymnázia
jednotkou
desaťročia
inštitúcie
##lal
##cuje
##ploš
##riaď
##rovú
##ročná
##vržen
Just
nadš
pamäti
umelec
Institute
polostrova
televíznej
náboženstvo
##ľby
úsil
mysle
Ježiša
britských
##anmi
##zala
Svät
londýn
menšia
ponech
bielkov
teplote
počiatku
pozitívne
dokumentov
Ye
##hoda
Kir
Tay
##razíl
Horn
cháp
##oruhod
Citro
Intel
vírus
Dejiny
mladší
značka
prispel
ľubovoľ
panovníka
revolúcii
cirkevných
koncentrač
technických
91
##ting
Fou
Thu
Veľa
indu
skry
Popra
Savoie
brazíl
kolóni
oddiel
oznámen
rozmery
vyzbroj
zničené
elektrónov
architektúru
##bat
##dum
##ľševi
1849
Bele
Ford
##užívan
závod
Židia
bývalá
kyslíka
Nobelovu
kráľovná
oficiálny
##ziť
##ógu
##ícii
##šová
Old
plyt
Pôvodný
Víťazom
kardiná
počiatoč
západných
židovskej
Kú
##znať
blu
Proto
entom
klesá
menia
verti
vonku
tituly
dvojica
priemysle
infraštruk
momentálne
##orod
Krás
dobr
smeru
stene
rýchle
vzácne
basgita
obyčajná
určitých
pracovali
XX
##zová
114
Vene
Jones
Night
dozve
Írsku
štátna
milióny
spôsobu
výročia
##hei
##seli
Bala
Meur
mláďa
tragi
vzdal
areáli
single
právomo
zástupca
televízny
spisovateľov
##ois
Pé
Bil
isto
odmen
sekven
získava
oznámila
najznámejších
##US
##ss
##dea
ŠK
136
zos
##čanie
##stupuje
takého
konanie
obrovský
obsahoval
generálneho
juhozápadne
##mat
pris
Urugua
určitej
komunity
odhaduje
podporou
##IC
kŕ
##skal
Klu
##encia
Brad
hrdin
urbani
nadstav
pohybli
tridsia
používaná
spoločenské
hospodárstva
##mery
##ročí
##rujú
sak
##enému
Wiki
teho
Giron
Marek
vybral
zálivu
čierna
žiadna
algorit
analýzy
partizán
vytvárať
##cri
##mýš
čr
Aven
Cena
sieti
Michel
piesni
prvkom
tatran
výcvik
uhorský
červeno
významne
##dok
##paľ
##nove
107
havá
strm
##iaceho
Kórej
Charak
stovky
Austrálie
vysvätený
katastrálne
ús
ane
Pont
loži
zmoc
plach
súvisí
žiadnu
tabuľke
Luxembur
populácia
spisovateľa
##ôp
##wel
##éto
ml
##enty
##ovač
##oment
Prix
učil
aréne
bloku
Oscara
Rozhod
cisárom
legisla
porážke
šľachty
hierarch
Pochádzal
jednotkami
##tokom
Meta
##praviť
sedad
Vrchol
nahral
naozaj
ostáva
vyššia
vznika
##vateľstvo
desiatok
dostatok
rozkladá
začínajú
##jn
##tem
##bližne
Model
venti
##logický
domácej
rozdiely
intelektu
konštrukt
##vida
##točne
Labe
Milá
výba
vlaky
Seriál
európsky
bronzovej
##lien
##plav
##gácie
zášti
Giovan
nálezi
vyššej
Slováci
reformá
rozpráv
čarodej
stretáva
Holandsko
celkového
manželstvo
##lig
##jské
##stou
Coo
##netár
##rojuž
Gott
PhDr
najpo
##nického
propag
rodinu
povedom
priemere
základnú
Západných
moderného
##zka
##ches
pruž
slohu
poľský
niekdaj
patriar
Predstav
extrémne
spoločenstva
GB
Fri
váp
Soch
Tarn
tému
Doubs
modul
palub
##enských
Severo
oblohe
čierne
britská
spoluau
vtedajší
experimentál
AG
mó
gru
Libe
nebe
ropy
Ivana
imuni
naruš
dobrod
urobiť
vlastní
národnom
Sovietsky
ministrom
nepriazni
ďalekohľad
##ME
Mir
Sám
blí
##rover
víťa
##láciou
##tívnou
Český
##diteľné
##teľnosť
Július
domnie
tlakom
Spišská
konkrét
stadion
vybudovať
transformá
Pú
##ding
##musí
1891
divo
ČSSR
##ournal
Chemi
kuchy
láska
velil
význame
farnosti
lokalita
##huje
##ňové
God
Sem
Frede
Maxim
vyčer
zauja
riziko
##ovateľov
rozmnož
výrazný
bojovali
Približne
##ii
##lae
##ómy
##fort
Dvo
##nička
Zden
Indii
Water
konfi
kamera
zahral
postavou
Prezident
festivalu
##200
##táž
##vými
Koz
1871
určitý
Meurthe
hovoriť
pracovi
nahrávky
108
Svo
Tel
Vsi
Wat
teh
orig
modlit
služob
harmoni
prenáša
procesy
tentoraz
osídlenie
príslušníci
Československa
láv
krie
ulicou
dolinou
kaštieľ
schopná
východným
neexistuje
vystupoval
Law
ble
dať
Mimo
gréč
zrej
##robila
bazal
štyli
Mongol
verzií
zaradil
čiernej
##tér
##ralo
elip
farár
nedos
synony
aktívny
poslanec
vyrobený
kráľovnej
priemerná
stredných
vnútrozem
Československej
83
##pätí
117
Iné
Sup
Sami
Dolný
Gymná
snaha
Zuzana
Ukrajin
miliárd
univerz
Evanjeli
obrovské
športové
poskytujú
##lií
##sus
##novo
##sková
##topis
1892
ritu
Roger
žáner
##pustili
dobyli
kompil
cintorín
##AC
93
##hová
##niky
Kru
dek
kau
##vaným
fáza
Jersey
prešli
potravy
priesmy
množstve
dokončený
kozmickej
narodenia
historický
prebiehali
##ida
##mlu
mé
##dera
##kopa
mód
úro
Lich
nejaký
ústavy
preprav
distribu
pôvodným
vzájomne
##ňan
SI
pút
opát
Známy
líšia
stena
zlatú
Boeing
daného
kmeňov
zástav
teplotu
Najväčší
##lop
##hard
106
dus
##nutiu
Hlin
Vati
hote
úloha
Nemcov
Steven
archív
lesoch
posvät
Gironde
viackrát
červenej
definície
zakladateľom
##kary
Bom
dres
potá
Pomen
trupu
Caesar
Madrid
apošto
##fikovaný
Nasledu
hviezdo
podpora
východi
História
pacienta
povýšený
Dú
can
##stitú
zapá
mozai
nádej
zmeniť
Posledná
ČS
Ful
Nan
##redak
##ricky
aste
úpad
brána
odkry
##loženie
každým
moslim
aktivít
motormi
kultúrny
pobrežie
rovnakým
vysielanie
technológií
##bit
rýb
sal
Celá
Manu
tunel
bielej
dohodu
Vladimi
reformy
Jeruzale
obzvlášť
základňu
provincia
teroristi
##lite
##viaz
##viek
Tai
exem
Veľkú
tvrdo
zabra
Oproti
samotné
svätých
Karlovej
##kau
##lino
##nopó
1889
krok
nerov
planét
udržať
zostalo
príprave
kontrover
severojuž
administratívne
##ison
Day
Vyd
čel
##basti
dvere
hebrej
stratég
každoden
premiéra
spojením
##rome
CSc
leta
##stavou
Karla
Times
hlave
nevie
ponuku
odlišné
vrcholu
zanikla
začínal
útočník
Habsburg
dlhodobo
história
absolvovaní
architektúre
##yl
Egyp
Sala
brány
štátnu
bubeník
osobných
rôznorod
štruktúr
nasledovné
vydavateľstva
##dogne
ukaz
znie
##eniami
Acade
Pohár
novin
##stickou
Spring
bohyne
súťaží
Autorom
Roberta
dôležitý
krajinou
vnútorné
Barcelona
založenie
rozličných
##ĺň
##loď
##bora
##orav
##ínom
Orne
mäso
vydr
Jánom
fyzik
vyluč
Oxford
pokusy
sútoku
spotreb
staršej
vodného
Dordogne
jazykoch
myslenia
princípe
teológiu
Bulharsku
materiály
##dai
##víj
##gera
##väzn
Mid
Web
Doug
líši
odob
odísť
konalo
presby
sateli
široký
fakultu
##uil
##iech
##lodi
úst
doty
Toron
horna
posto
sníma
terén
koncept
vojnových
##EL
##lp
Uh
##kara
Dlh
Hali
Otec
Čína
##leného
dobrý
konečne
okolností
usporiadanie
Psy
Sva
bro
East
Funk
Hans
zabi
ženu
##kladom
malým
zvuku
úprava
Andreja
Society
merania
záznamy
Giovanni
následky
ukončila
nepravidel
Pravdepodobne
##sit
##beth
fín
##ierov
##árovi
Soli
evid
spln
##ristom
chari
najvý
nákup
spadá
užívan
zrážok
horských
nástupcom
##nius
##tána
doh
žiť
##árske
1894
Anny
Olym
remi
hlavi
zvlád
kapito
osobne
učenie
History
singlom
sviatok
záštitou
zúčastniť
elektrárne
obchodných
cu
##redi
Best
Laur
##chuset
Adolf
kovov
kráte
šport
ukázal
Brazílii
významnou
ekonomické
električky
##seda
##čová
vol
Gard
nasp
Indre
hokeja
sídlia
zmenou
Mníchov
fakulta
rakúsky
produkty
literatúra
Švajčiarsko
elektromagne
Východoslovensk
Gá
bý
Sti
Wri
1869
Najd
inici
zámor
Little
Norman
literá
odštart
výskytu
Prostred
##asy
##mula
##ovka
##fareb
1882
tepl
André
banka
cyklu
nukle
pásme
nemusí
cudzích
daroval
hladiny
dosahujú
literárne
Vyštudoval
pracovných
publicista
##žo
Kö
Beck
Južná
terit
tlači
nepres
prijím
−
Ža
##ckey
##tnou
Rio
sod
1893
Book
Odhad
obdiv
Fínsko
borovi
prídav
tretím
Trenčíne
miliardy
prívržen
zrekonštru
##nas
Gol
##mysle
##neniu
Band
kant
ohni
Momen
Problé
najsil
naspäť
obranc
ortodox
záhrady
skupinami
##bod
tl
101
##žitie
1867
Hore
##mohrad
Isère
akcií
uväzn
galaxie
právnik
potravín
využívať
spolkovej
talianskej
medzinárodnom
##brá
##áde
118
Bed
col
litov
nedeľ
##tálneho
Kežmar
Techno
vodíka
vydalo
protoko
univerzitu
##ieť
SZ
Kré
Sez
dos
##stier
1850
Juan
bohaté
liniek
##kovaných
nemohli
dôležitú
rímskych
zriadená
zátvorke
kráľovský
vychádzal
##ül
##uer
##igan
##less
##rátu
psa
FIBA
Fire
vytr
náboj
týždne
vrchom
zástan
##nostných
usadili
dôchodku
posluchá
zapríčin
registrov
železnica
Bea
Ene
Veli
dele
mlyn
ríšu
County
Venoval
Poznámka
operácia
Argentíne
nachádzalo
##bok
##cyk
##iar
##tio
kel
##ština
otra
aspek
Stredozem
nemocnici
priateľov
##OM
AR
Gun
Sum
##telit
Barto
Profes
Vienne
útvary
##pur
qu
guľ
##štitu
súvr
jasne
Múzeum
dolnej
nechce
otcovi
pohári
mužstva
rozpade
dokumenty
Massachuset
##roc
##tul
##ště
Ody
##stiku
ryby
##enskom
##kázali
Marse
akoby
Čiech
Svätej
Takéto
železa
Science
detstva
reziden
dopravné
nesúhlas
dôležitých
nepriateľa
severovýchodnej
##ríd
Zv
Nav
epo
okr
##bsbur
##penie
1881
anje
vita
Chris
fraze
stáli
Academy
domorod
rekonštrukcia
##ij
Šk
##ľujú
Opa
##rovým
Pojem
obrad
hlboko
nazval
dočasne
poslanca
rozmedzí
človekom
Ó
##ming
Lut
1876
drog
figu
Franç
India
meniť
snahy
rozkaz
tridsať
ženskej
Eusebios
kyselina
juhozápade
Sz
##smer
seg
ohlas
mladého
Pracoval
oddelenie
##ay
##fon
AI
el
##kára
Diaľ
ligu
slabo
##lárnych
ženský
Vznikol
trénera
##matického
dospelých
literárnej
pokračovanie
##bl
##bom
##ika
##osu
##spi
##roja
Fel
Zak
skó
##ložiť
##ňovej
zisk
kríža
zhorš
zbierku
Rumunsku
spôsobil
atmosfére
il
##érii
Fol
USD
wor
krízy
odboru
rozdeľ
##spektíve
vedecký
zahynul
zamestná
priniesla
spoločného
Association
najväčšieho
vydavateľstvom
zóna
nijak
väzby
odráža
snažia
vyrábať
západným
strediska
arcibiskupa
Bow
Has
akt
ali
ona
Divi
kórej
zmesi
Proces
vyzdvi
športu
uznanie
červený
zachovala
zúčastnila
##lohy
Cra
Čís
##viron
##ógiou
Lite
vyko
##vského
modrá
proku
úrady
časté
Preteká
rovnakú
vojvodu
vývojom
homosexu
nahradila
polostrove
považovali
zakladateľa
##jer
ruž
kurz
ohro
novou
polia
sedla
##artoval
##stávali
rovine
apoštol
dôvodom
poznáme
kapacitu
tradičné
občianske
##cit
##nay
Ou
##lesá
Jaro
Meuse
dlhých
stavov
útokom
Olympii
opevnenia
rozdelený
východných
Sw
##rint
##teau
But
##shire
##tneho
Tvorí
zmenš
Citroë
opúšťa
zelená
súborov
novinách
trénerom
##AP
##agu
##typ
Odv
Smr
Ulica
básní
##teľných
pravdi
žiaden
zrušené
činiteľ
Bystrice
produktov
konštrukcia
najvýznamnejším
##hý
##urch
Von
horm
štrb
##ujúcim
koľaj
rehoľ
robiť
zlaté
službe
sčasti
využil
hitpará
legendy
produkt
stolice
zahrala
diaľnica
kandidát
Univerzita
jednoznačne
basketbalová
##AT
##rix
##vera
mandá
popla
pracu
rastu
Marcel
tvoriť
Central
futsale
mestský
znižuje
pracovné
RN
##bore
kas
žur
##sovej
Haut
inci
##ountry
Atlas
Texas
vydať
speváka
svetová
synovia
hodinách
jednotku
koncerty
systémoch
##199
##gno
##vii
Io
##stern
sous
Paris
Mexiku
hodnote
doktorát
spojenec
kultúrnej
nahradené
existovala
hospodárskej
##chať
##cing
111
##lárny
kori
Dušan
pocho
portál
pravda
stotož
šiesty
zníženie
Príkladom
Dž
##meni
##álov
Pak
1860
Gers
Vale
prax
amino
misia
vetvy
Santia
chráme
zločin
Severná
národnú
objavený
zvieratá
Vyskytuje
príchodom
leg
Mani
aten
odohrá
Ďalšia
predaja
prijali
kategórií
zaujímavé
##dig
##rot
BP
##čala
Pob
vre
1886
Héra
Igor
##nového
cieľa
metód
náraz
ruské
kláves
palivo
vyššiu
Národná
zrušená
vzdelávanie
osemdesiatych
IB
##cháj
##ákov
##pelle
naja
danom
styku
konajú
nútený
##ovatelia
Kláštor
nepretr
sústreď
hudobníkov
reprezentant
Wis
1878
kruž
hráva
špirá
Arthur
motívy
nárast
normali
opakova
Budapešť
nahradiť
dokončení
architektov
GT
##rium
hrie
##iladel
Queen
medve
zosad
zaisti
Divadlo
zachová
zložiek
Ďalšími
Narodila
súkromných
##dec
CP
##gine
Zas
geo
zar
##rovom
Miest
oslab
Filipa
hľadať
liečeb
názoru
stavať
následkom
najlepšieho
nachádzajúca
Gr
Ska
Sor
núd
poe
Čad
##točný
deje
dver
##ňované
Produ
Wales
zlata
právne
záujmy
Ferdinan
štúdiách
spojených
správania
Manchester
##lium
##ránu
nek
##kovec
1883
Nech
frak
##inštal
##sticky
ústup
družstva
dôstojník
zachované
##KA
##lix
##vám
ut
šp
##linu
##main
Ain
eva
Erne
veda
Starý
morál
karpat
market
nepred
skupin
zložené
Medzitým
zoznámil
monarchie
komunistickej
##ic
##žka
Abra
Dôle
meló
voli
podoz
vodná
Absolv
dizajn
metalu
muziká
pochyb
svedčí
Svätého
navrhnutý
využívané
výstavbou
Štiavnici
organizáciu
RS
Nas
Ume
##ánske
synd
Force
okien
vzoru
druhmi
Václava
Fridrich
minulého
samosprá
učiteľov
vinohrad
vybavená
priateľom
nachádzajúce
##ate
##bio
##ómiu
Hil
Kop
Ota
Via
##osťou
##pravo
##račer
1500
Miss
##stroja
Nitry
Yonne
kruhu
listu
repor
vedci
inline
Nízkych
dnešnom
povodia
rozhraní
zaslúžil
rozšírená
samovraždu
##vě
##omír
Sko
1888
hora
poze
##matika
Sport
absor
reper
takom
Vnútor
gitaru
nezmen
preven
vodnom
sídlisko
všetkého
deviatich
nezávislé
šampionát
Ferdinanda
Nachádzajú
##cty
##sii
##vit
IC
##antov
##ovská
1884
neak
Explo
Maine
proro
Museum
Vosges
prefek
prenie
tvrdil
organizmu
Momentálne
ministerstva
čl
##tivá
Kim
Sir
1873
Kyje
##rozmer
Sound
Sídli
začat
liturgi
sezónou
velenie
metropolit
Francúzskej
##klon
##morf
##vené
pak
1868
zdroja
účinok
Alžbeta
chrámov
nájdené
sledovať
vnútorných
##nuť
dže
1885
redu
veta
##siahla
##tokhol
Hippo
##anských
ohľadu
Jacques
dodržia
priebeh
vyvrcho
dosiahlo
rozhlasu
transpor
vybavenie
##eja
hé
Slá
lež
##stiam
Mike
Otto
dýcha
expon
osamo
riekou
##fikované
boľševi
základni
sovietsky
verejného
slovenčiny
rus
Přem
padol
reduk
zbera
##edagogi
Gregor
firiem
pomôcť
celkový
zlatých
konferencie
##zým
Mě
##faši
##štia
Kun
##ráreň
pani
##častej
hralo
formát
fyziku
teplom
Aténach
Odvtedy
predáva
vystrie
skladbou
slovensko
##hmi
##tať
##chin
fló
Označ
pasív
rozpä
Wilson
termin
zásluhy
slávnostne
výtvarných
##NS
##ão
##lea
##liek
##íval
Kap
PhD
ren
##itými
##viden
##ónoch
Good
Mira
ujal
Barba
grófa
orgánom
rádioak
stratila
umožnilo
zabrániť
Charakteri
ochranársky
šesťdesiatych
##czy
sup
ustá
Hovor
Slobod
bankov
stúpen
ľudová
bolesti
komplet
kvalita
kresťanstva
sedemdesiatych
##vica
##hania
Fron
krúž
maxi
radí
limit
Takmer
##fikovaná
zamerané
##ční
##hneď
##nera
2020
sekto
vstre
zapis
Sydney
prales
zistil
nájdeme
prevlád
rozvoju
skúseno
typický
European
agentúry
športových
samostatných
spoločenstvá
alb
##logie
##tácií
1872
simu
tren
##fikáciu
kompak
riešiť
víťaza
zvýšil
##stickými
Podhrad
vedecko
zrušený
Katarína
technika
vojskami
strediskom
##čno
##šek
##gami
##ďari
Vila
vním
novými
plukov
široko
radikál
futbalové
elektrický
Atlantiques
severozápadnej
##tkami
Your
fará
obrn
Danie
pobyt
Jednou
ukázali
Spoločne
projekte
pamiatkou
pozorovaní
##hyd
##bergu
Free
Show
pono
trén
Žene
Alber
fondu
miestna
pieskov
žijúcich
nepoužíva
kresťanskej
##tag
Bí
fy
##dezi
##stál
##ériu
dne
##ranov
Real
tvár
vodca
prínos
investí
nevlast
pseudony
rakúskej
##ör
##ceu
##řed
##foni
##lými
glu
sci
##inger
##šskej
Mana
okná
údrž
Krivá
dvora
kúpil
neofi
súčia
Príbeh
datuje
vyhynu
Leopold
miestny
intravil
tradíciu
vyvinutý
vystúpenia
##ow
##sou
End
##novou
Zmlu
góly
keby
pokr
Štrb
##karpat
prepo
štádi
Kazach
senior
Wilhelm
južných
nižších
posiela
nezúčast
šéfredak
asociácia
televízia
##hle
##nit
##bety
119
one
Leho
Smer
brzd
Obdob
Ľudia
pozadí
dvojice
rozhovo
stredná
vyvinul
vystried
špeciálnych
juhovýchodnom
Inc
mix
zdá
##ragon
##rátil
Hora
nezi
sati
##cation
posud
otázku
rôznym
nahrala
ochrane
molekuly
Červenej
najvyšších
španielskej
##ane
##bii
FK
th
##rona
##skop
Dun
Mgr
hoj
neh
vle
##inten
báze
prví
##pustiť
Atény
Možno
korún
pretrvá
Austrália
osídlenia
členských
inštitúcií
prisťahoval
juhozápadnej
medzinárodná
Massachusetts
##yho
##ège
##vita
##ákom
vyt
nede
ruke
konať
námet
Starej
návrhy
papier
prísne
kritiky
rocková
vojskom
Základná
osobnosť
rozmiest
starostlivosť
vydavateľstve
##klu
##zet
##ózu
##part
ske
šká
Corpo
Obaja
dobyl
malom
##ánskych
Moskvy
kameňa
dobytka
futbalu
experiment
postavenia
juhozápadnom
IF
Eng
##inali
stla
tanku
upred
Štart
južným
pochod
Geologi
dominan
križuje
prekoná
svetový
zastáva
Henricha
získanie
Svetového
raketoplán
##álu
Gel
##enách
such
toxi
##covery
oxidu
skaly
##kánskej
kozmodr
kultúre
metaboli
operácií
študenti
obchodnej
povolenie
chemických
disciplíny
##vier
##škod
##eniny
Video
abstra
kapele
budovou
procesor
stratili
politicky
respektíve
svetelných
komunikáciu
##ius
##manu
SSR
Wol
hlb
YouT
mene
vlna
##ovekom
špeku
dosiaľ
rozhov
planéta
satelit
vykonal
Štokhol
nedokonč
odbornej
pohybujú
službách
pôsobením
angličtine
##tei
Cé
##volú
##zové
##stným
##teľmi
Tali
odkú
symet
##kovanej
vedcov
Čierna
štatút
Rímskej
Starého
ležiace
výrazné
zložení
leteckých
podobných
nasledujúceho
HZ
##ffer
##znik
Šaf
Kara
Dielo
Marsu
konzu
voľný
drobné
nížiny
vlajky
Bernard
drevené
dokázali
možností
podieľali
nakladateľ
židovských
vlastníctva
##DA
Ö
Sr
##nine
##polu
##stry
##vrat
Fut
lym
pon
##menta
##téria
##vätej
1861
cover
sekre
Vysoké
kolies
názorov
majetkom
spôsobila
zjednoduš
jednoduchý
populárnej
organizoval
rovnomennej
zabezpečenie
Et
PP
##hali
ark
vďa
##ingen
##ovcom
Lisa
kôry
nedá
punk
trva
ukáž
Komár
stoli
komédi
siedmy
zostup
Metropo
hniezdi
otvoril
dôležitá
poriadok
videokli
vyrábaný
poslancom
viditeľné
hospodársky
MB
##pora
##čkoch
Emil
loďou
obsia
remes
podoba
valcov
##kovského
hostilo
najkraj
oddielu
podobná
biskupov
zakázané
americkým
uprednost
##zať
##konu
Fur
##stimi
##stách
Phil
kore
##tovali
otcov
záver
učenia
Napísal
Ostatné
nazvaný
kontrakt
vystúpení
spravodlivosti
##sac
DC
##hala
iná
Andy
Revú
žlto
Obraz
koreň
Saturn
kladie
muselo
prešlo
##tudovala
investi
majetky
ocenenia
rozšírila
##ôh
##sper
##toli
báb
##dinej
neus
sôch
Rasti
makro
paleon
pričlen
Pochádza
biskupom
priemyselnej
##hus
IX
Pí
##gori
##rodz
##tená
##árny
Dĺž
múd
##centa
##niesť
Napr
Úrad
Armén
Besky
hlava
spojil
tabule
zvýšiť
zásoby
YouTube
vygener
Žigmund
progresív
organizácii
zhromaždenie
parlamentných
##laž
##éni
##ónmi
Boy
gló
Estón
nášho
zaisť
zajat
prebud
reform
reálne
údolie
umožnil
záhrada
Namiesto
poľských
obsahovať
súhvezdia
konferencii
prostriedok
##fos
Oh
##ázij
Def
Jud
Perž
alge
Steve
archí
oblúk
záber
dlhoro
naspie
Veliteľ
doteraj
prijala
založení
Ladislava
Ružomberku
námorníctva
predstavený
##pať
##sií
pp
##cula
Hes
Itá
Rem
uch
##skové
čeľu
##rantov
##search
Cisár
obrat
strely
bieleho
podnikov
negatívne
kancelárie
##jec
##rás
##sio
##ctve
##gora
##ladi
##manom
Aube
##tívnom
ameri
Číslo
Predtým
Veľkosť
kvalitu
prestáv
maďarský
starogré
vzdialená
všeobecné
spoločenstiev
AB
##solu
Sid
Šty
##lovek
##sever
Byst
Hruš
Získ
agre
##rástol
Domin
Linux
lesný
prena
sopka
mierou
usadil
Alžbety
brankár
identifi
infračer
ohrozené
pôsobili
venovala
##194
##mír
##hové
Dve
Gaš
Sad
Tet
Thaj
memo
mešť
##iacich
Herce
pamiat
tovaru
vedená
kontrol
prehral
príbehy
vicepre
Červená
Švédska
nariadil
obidvoch
##OPK
##gard
##iger
##tení
##stale
vrát
##tálnej
sochu
troma
zbroj
Prince
dokážu
našich
uchádza
výchovy
výrobky
provincií
organizmov
##aut
##vres
Bes
Pur
##karyo
1887
Digi
Merc
drží
fond
zisť
Brian
Škola
Malých
server
telesá
vodcov
Journal
Pedagogi
HT
##bilo
##várn
zasa
dokonal
premiér
latinsky
##ráz
##geta
##kánov
##térií
Rada
SMER
Vlád
hria
plno
Light
nezvy
teraj
centrá
dohoda
silami
Ekonomi
hrebeni
Väčšinou
funkciou
označené
svetovou
Bulharska
Zúčastnil
revolúcia
Rat
##skrip
Dôme
Albre
Lotyš
médií
pojmu
paláci
plánov
pojmom
prevaž
polície
krátkych
najvyššou
##mp
##bám
##wald
Rey
Tol
##tálny
1875
Soft
Franz
Tower
tmavo
vysta
Život
invest
odstra
Citroën
Inštitú
listine
výstavy
kapitána
oddelené
vyrábané
založila
postúpilo
prehliada
##akom
##horí
##ľúbil
##ženie
Fung
uľah
##andiná
ľudové
##cykloped
klasické
pretekár
rovnobež
tajomník
Osmanskej
rýchlejšie
##vné
Isa
krem
odlí
póle
močia
zážit
Fínsku
Viktor
andezi
dnešný
nesmie
žijúci
titulom
zemskej
životom
speváčky
kresťanstvo
kolieskových
##duch
##neme
##vanú
Ped
Down
Tony
##stného
Brown
cerem
kvapa
posun
sound
Ľubov
hudbou
pologu
poloha
Turčian
Zaklada
reperto
Piešťany
chemické
vystúpenie
##symet
Jáno
Rail
zába
Place
možný
vetra
Pokrač
raketa
General
vyhodno
turnajov
priniesli
##kas
##iter
téma
Rádio
Vláda
hotel
objas
odľah
Dolina
Master
juhoju
nezach
polohu
reflex
značné
ostatní
možnosťou
prednášal
aerodynami
ekonomických
Sus
inú
vety
Dance
Zdroj
luxus
nejas
nekon
uniká
Davida
Singel
dôkazy
tlačia
Jackson
kniežaťa
postúpil
prepravu
vystupujú
existovali
pripojenie
vnútorného
jednotlivými
##86
##dĺž
Rum
##ovité
##rizmu
##stanú
##ticko
Fore
News
ciev
##tvoril
facto
lodia
spory
derivá
tranzi
##teľnosti
delenie
podstav
nástupca
vyrábala
zobrazenie
spoločenstvo
##lay
##vrh
Iu
##buch
##radox
##tokov
Dion
všim
Tradi
Zámok
bomby
kúpele
vyústi
nástupe
kinemato
divadelných
emb
pán
uzá
##encie
1874
včas
##mentár
osvie
poľov
##matikou
Biskup
pomery
štarte
Belgicko
európska
literárny
využívali
zástupcov
futbalovej
parlamente
Sli
##ínske
Plán
vzal
väzn
zbav
Under
dosky
kavia
Štefá
moment
prudko
sólový
Českom
Partizá
stredné
zbierok
Richarda
regiónov
rozsiahly
rovnomenného
zakladateľov
##olí
##bína
##hlás
emo
výz
##lohou
##ristu
koľa
kože
Arche
dimen
nádvo
zaist
horách
mrakod
vhodný
vlajka
Douglas
najsláv
rozvinu
samotná
ohrozený
poslednú
uskutočniť
##ův
$
##peli
1863
Cenu
Situ
##habili
##zerbaj
Dĺžka
nízke
softvér
poznatky
##br
##pán
SO
##vský
1828
atle
obli
okrú
##nostné
##tišpor
##zovaní
komik
pocit
celých
kapelu
nižšej
Zvolene
lokálne
vodnopó
rytierov
generálny
multišpor
sovietskeho
##sí
##phe
##etov
##ffen
##ridu
##rini
##ving
Cli
Skú
Nick
dalo
fungu
kláve
napln
témou
černo
chcela
libier
Pelopon
galaxia
siahajú
udeľuje
kancelár
prístavu
450
Fly
hym
##zovej
AOPK
sond
##zujúci
##predáva
stvárn
umelci
vyčlen
bežných
absolven
nahrávok
zachovalo
popularitu
##ŕň
##stať
##čene
USS
##lejší
Prvú
Quin
plan
##inácie
Henri
lásku
poisť
sklen
uhlia
Róbert
Sergej
privil
vstupe
proceso
smeruje
kritikov
spôsobili
umiestnila
##bír
vŕ
##feld
##hŕňa
Tau
bale
Finan
Power
príde
jazere
rýchly
Národné
Ardennes
výrobkov
zapísaný
##bad
##iho
##lku
nú
##bice
##ónii
SNR
sní
pôdu
učen
úžit
žiar
##vejšie
Mater
archi
celky
impul
marxi
zaľud
##ňovania
Odtiaľ
zmenili
zničená
aktivita
dostupný
medicíny
rozdeľuje
elektrické
odborníkov
##éta
##knúť
##pson
dab
éry
Audi
Svid
kožu
mozg
otoč
záži
plave
tratí
Schwar
chvíli
domáci
objemu
príčin
väzňov
Gabriel
hudobnú
nedošlo
Lietadlo
softvéru
spomedzi
ť
##šok
iP
##liou
##toru
šik
máme
pyro
Ferra
tanky
Sparta
Walter
výberu
Demokra
plochou
panovník
upravený
videoklip
nasledoval
predchodcu
stredoškol
organizáciou
HS
##pilo
##tomi
##zový
116
Ded
paľ
##ovine
Aigy
Voda
chov
noha
rich
evaku
neúspe
takýto
British
oddiely
singlov
Mníchove
staviteľ
tureckej
zlúčeniny
nasledovne
juhovýchodným
##šík
Kil
Ryb
Aude
Ráko
audi
hrád
mexi
posu
rohu
Žiar
Ander
fotoa
Alfred
Provin
diaman
naplán
zložka
Západné
displej
divízia
rešpekt
rozhodu
interven
kapacita
nezamest
počítače
varianty
spolupracuje
##bek
##tai
EM
##hodu
##liho
ado
klo
pit
vym
rozu
Začína
liečbu
zistiť
centier
pohrebi
zložená
neskorší
obmedzen
krajinami
najlepšiu
vyhlásila
rozhodnuté
Corporation
##EG
##ýza
##tele
Bell
Etió
anté
Indon
Tretí
pavil
šírka
samotnej
učiteľom
vstúpila
Nováčikmi
maximálna
vyhlásenie
šampionáte
##čny
Wy
##oman
Hat
KSS
Zvä
##arthe
##tenia
1877
MUDr
doktor
prijať
Orienta
signálu
Slovanov
aristokra
bojovníkov
Francúzskom
prevádzkuje
Zi
##chaj
##enec
##lone
##ánom
Raj
##jevič
##saury
poza
skor
spiš
tole
nábre
vieru
Online
priame
rameno
interná
športový
prevádzka
zachovanie
hospodárske
mechanizmus
elektrického
pravdepodobné
##öl
OH
##tius
Vtá
Váh
##kyňou
dane
výuč
Meste
Prvou
plôch
Tretia
dopĺňa
America
ekologi
jedinej
nazývali
odlišuje
zatknutý
zástupcom
kandidátov
##róf
Zü
##rici
##zátor
Hnie
uhlí
##radený
Mnohí
dekré
objed
tlače
Mexiko
dodáva
hodinu
kráter
stromy
lesných
Časopis
Slovakia
popisuje
základňa
produkciu
najpredáva
deť
gly
vlá
Dneš
váži
##radené
Verej
Volks
predi
termo
jezuit
svieti
nedosia
pôvodná
severnú
vrchnej
zmenami
najrozší
uhorskej
Christian
vesmírnej
absolvovala
ministerstvo
##FS
KDH
Phy
##arpat
##leniu
##raldi
1830
Výni
krva
Stanica
celkové
dopredu
kolónie
letných
okamihu
výrobou
účinnosť
pripojené
##šo
##ály
IT
kán
##lácií
atol
taká
vzbú
zása
firme
odhod
vežou
škody
stried
teológ
utečen
voľným
Čierny
zmyslov
žurnali
zasahuje
preslávil
tretíkrát
vzdušných
najpopulár
rebríčkoch
##EV
##kur
Tho
##chova
##šiemu
Myja
Scott
hitom
klaví
kultu
zales
odišla
prejsť
katalóg
kláštore
pamätník
pyramídy
dobrodruž
koncepcie
režíroval
ekvivalent
nedostatku
##čím
##ával
Sve
WTA
##press
Anne
Vede
lúky
štie
Boris
dlhej
prúdy
Dodnes
odboja
prevod
Leonard
Zimných
hraničí
meranie
nepokoj
západné
Diaľnica
elektrár
spôsobiť
naznačuje
potrebuje
ovplyvnený
turistických
demokratickej
##num
##bica
##grad
##gues
##rozu
Gon
Evan
dopy
úzky
novov
srdce
Morava
metodi
učiteľa
východo
Čiernej
Základné
najstarším
##jó
##anka
##relo
Ava
hlu
mat
3000
HZDS
iden
inom
kilo
vyba
Polia
##pozíciu
Distri
Neskor
stupni
hrdinov
porovná
písmeno
Discovery
ochorenie
Liptovskom
otvorených
IN
Ard
peča
Denis
oranž
vyvýš
Európa
exteri
germán
Olomouc
Samotný
tretiny
Najlepší
kalendár
prebehlo
zanechal
významného
Him
Kit
MTV
Ťaž
##antom
##tnosť
1879
dátu
ileg
Rieka
Boston
scenár
cestách
diecézy
inscená
najrých
zničili
Williams
dovtedaj
kontroly
prostitú
produkcia
robotníkov
konštrukciu
##nemu
##okra
Nova
Spom
Stef
bode
poži
##rizmus
##árskej
Autom
Helen
bohom
dôjsť
gitar
Hronom
melodi
podnet
spájajú
nespokoj
poznanie
prevláda
vedeckého
geomorfologický
##reo
##sip
##bíja
Ras
Ton
##anské
##národ
##stanu
##sylvá
Kata
news
slep
tank
Lewis
vysťah
##tainment
aminoky
použití
rakúsko
zničený
implemen
kostolom
stavebné
extraligy
##tík
##wig
##önt
Bis
box
##péria
##ujúcu
##ťania
Chel
daná
dedín
náhle
obdĺž
ochot
Christ
kruhov
liečby
sester
zvyšku
zväzok
##cionálne
Singles
napodob
porasty
vodorov
Chorvátsku
Švajčiarska
reprezentácii
##noj
SC
##pory
##ľavo
Vid
zao
##čanmi
Turí
##nieslo
chrbát
vedení
kompati
občania
definuje
dominuje
prevzala
reorgani
finančnej
##utý
Ern
##tkach
Cari
Vyda
Istan
depres
presíd
rytier
výkony
kompres
sekundy
prehralo
torpédob
Bulharsko
celosvetovo
nasledovali
##seľ
Vau
ira
##ource
korene
nižšia
prízem
sedlia
tvarov
Petrovi
Philadel
kultúrno
dôsledkom
pozoruhod
potravinár
príležitosť
multišportového
##gú
##kes
##znej
Fed
Tím
Bron
JUDr
mála
ukry
Trebi
Viano
presu
signa
mobili
pomere
rodnom
plemeno
sleduje
typicky
zvolili
hladinou
opustili
sídliska
basketbal
neúspešne
starovekého
IA
PA
Bry
Dur
cla
kle
šif
##pital
limi
##ňovalo
hmota
suver
výbuš
oblúkom
riešení
zložený
šľachti
abstrakt
hranicou
moderátor
maďarského
##lab
##roy
##čeniu
1866
Argu
Hard
Ligy
Začal
akého
dojem
ročná
vymed
##demokra
Priamo
dialek
naplno
parazi
predsa
sestru
príkrov
verziou
vojvoda
vyhliad
oddelení
osamostat
pozemného
redaktorom
turistická
##hám
##erov
##rané
hna
Toku
prach
vtáky
mandát
prúdov
snemov
zmenám
Človek
hrajúci
obhájil
označená
povstale
vrcholom
spolupráca
stavebných
umeleckého
premenovaná
##kúl
##ôme
##head
##anska
Aktu
Obid
krov
orna
Boule
Liver
Premi
Robin
spada
##tárneho
českom
Renault
Rozloha
esperan
folklór
uzatvára
využitím
zastaviť
Francisco
anglickom
transport
severojužným
##det
##énu
ac
##ádka
hek
##entom
##kácia
##selín
Bach
##lovaný
State
epidé
organ
preru
výhre
##ielania
horský
hrdina
porast
poslane
výcviku
narodení
sezónach
zahŕňajú
špecifické
zástupcovia
##jský
Vis
##landu
výzb
Mount
Vihor
dirig
odchý
Matice
Teória
platne
singlu
Najbliž
choroba
Rumunsko
striebro
držiteľom
kompletne
kozmonaut
korunovaný
zodpovedný
##FC
##nul
Rý
##ater
##bytok
chyb
drah
Zámky
zaned
Manhat
kampaň
najjas
podarí
väčším
útokov
letecké
polícia
priečel
tvorilo
vedomia
červené
mestečku
starosti
stretnúť
výzbroje
zloženia
opakovane
povinnosti
scenárista
skladateľa
dôstojníkov
##syn
##vani
Chi
Hrd
Wer
##hnutí
Aero
okom
spri
obrát
menšej
štýlom
Poľskom
drevený
hostiteľ
jediného
Banskobyst
tradičných
##fej
##peľ
##óze
210
Iba
aká
vče
##covým
##koľaj
##stike
Hart
Kone
atén
obil
##čených
Bukov
chrob
enzým
znaku
povesť
##chádzajú
brehoch
konfigu
osobnej
obsadila
operačný
Oficiálna
orchester
rekonštru
ap
##ňový
Gam
##nodar
##rough
Otta
hrud
jaskyn
pokúša
odborné
antropol
súkromné
panovníkov
severovýchodnom
##Hz
##mrz
##wen
Gir
soľ
##polis
##streľ
1840
Luft
uhol
nepla
pozícií
Jupitera
aktuálne
politickým
zastúpenie
nasledovala
producentom
vysokoškolský
##ama
##óra
##hujú
##ráže
han
zlé
More
Vlta
vežu
Loren
karib
najob
ruchu
ľahké
Štúra
dielne
súvrst
Johnson
obsadilo
zavedenie
Prírodovede
dosiahnutie
kategóriách
##lash
##enosť
##štant
##hviezd
Lucia
ocele
zemou
zloži
Všetci
kompet
osobný
premié
motýľov
porovna
spojili
odmietnu
prezývku
ohrozenia
životopis
##FK
##ial
##tet
##blov
##chad
##zdie
sná
##lerov
##steho
Brod
Stud
ošet
##öntgen
guber
oslov
nemôžu
výchov
korytna
obvodov
zdravie
výrazným
bratislavskej
hospodárskych
##itz
##leň
##ody
##skýň
vyč
##víjal
Arno
Clar
Dlho
Hell
vini
závi
auten
básni
modro
príru
ženské
úspešná
spôsobmi
myšlienku
slovenskí
cestovateľ
pravidelné
prirodzené
československej
##úť
##ely
Ny
##blin
Sat
hop
Arts
Mara
Memo
zami
##rovali
Božie
pevne
spĺňa
Výskum
chorob
farbou
podáva
uchová
Augusta
kontinu
letecká
tvorila
teplotou
občianstvo
vystriedal
komunikácia
záležitosti
vymenovaných
##195
##pló
##sor
Ek
##cénu
##tlak
Giu
##pions
##silia
Krup
Lete
Ober
Side
Zbor
dráh
feud
nezí
oliv
vyna
Broad
Brook
princ
svede
##anského
##lárneho
##zovanej
indexe
##cestoval
Califor
dieťaťa
katolícky
ovplyvňuje
predstavoval
##bis
Sé
Tý
Bau
Ren
##račný
##tiach
Rose
##natých
##tovými
Singa
rezon
užíva
vraca
Avenue
silným
britské
ihrisko
spochyb
potrebný
prejavil
vyvinuté
Členovia
Petržalka
filozofii
končatiny
obsahovala
reprezentoval
Ey
Oľ
##inus
360
Klo
fly
##vaniu
##venej
1865
Jeff
gran
Iraku
Opera
abece
robil
takým
hrdinu
kľúčov
lokomo
mužský
rovina
určitú
utrpel
Deutsch
Funguje
kariéra
rodinných
skúsenosť
deväťdesiatych
##ťo
che
new
##zorom
Alfa
Over
koňa
naru
Brand
Rudol
Sedem
bakal
necel
Church
kyslík
schodi
Frances
svetlom
Čoskoro
nasadené
prechode
rehabili
rozvíjať
skonštru
stránkach
##indu
##ople
##strý
##tors
Zam
##rence
Kras
sché
Colum
Karpa
Združ
neuro
radar
silno
tribú
ulicu
jaskýň
presné
zrejmé
nastala
značnej
označený
pražskej
priehrad
zameraním
severozápadnom
##kr
##sá
WW
##naný
Clo
Nos
##menia
##oslav
##toplu
##ujúcou
Plzeň
Tečie
alian
inšpe
namaľ
skrat
súhla
mostov
ostali
spieva
vlakov
väzení
Izraela
odovzda
porucha
súčasné
usporad
Ukrajina
magistrá
katedrála
zlepšenie
vypracoval
predchádzajúcej
##eng
úž
lyž
##bohat
##ciálny
##ground
kartu
udalo
vedel
celoži
nedeľu
ofenzí
otázka
vstupu
úsilie
kandida
vyučoval
záznamov
Expedície
interiéru
latinského
##IL
##cími
##finá
##čana
Fle
##metal
Druž
step
##kázala
Eliza
Súťaž
nesko
stien
Žilin
Moldav
Petrov
denník
kariet
platin
triumf
družice
kotline
pilotov
vzápätí
konceptu
koncertu
kontexte
zložitej
severných
dvanástich
francúzskom
##rák
##rús
##ýto
##dios
##opat
doj
amfi
Plané
Pozor
akumu
ihneď
zaruč
Brezno
blokov
princa
umelca
vopred
Stredná
impéria
macedón
okolité
zmenilo
Chapelle
kapitali
zahynulo
Podkarpat
spoločnej
dochádzalo
socializmu
turistické
nasledovalo
predchádzajúce
##ych
##čák
##sius
Amb
Get
##terán
Dark
Game
ihli
muní
ústí
##zovalo
diery
ríšou
Miesto
kňazov
masívu
súbory
vyhlas
Beatles
Mercury
rozpadu
správou
Bardejov
internet
jedenásť
problému
Priemerná
minerálov
literárnych
α
##glo
##rád
smú
jari
lexi
ťaži
Obsah
Sokol
paliv
Severné
agresív
prácach
vznikom
Zaoberal
cicavcov
nástupcu
vyrábajú
väčšieho
zapísané
Boulevard
Nováčikom
stanovené
zastúpené
Encyclopedia
##bas
##brad
##selne
Caro
Lang
fosí
príp
výja
##lietad
##ováreň
Korzi
lanov
oboma
##motnosť
Tokuga
koncil
kriedy
Antioch
obciach
znamenal
Najväčšie
súhvezdie
##ici
CA
Sü
##onom
##ryho
##tist
##vkou
lak
rop
Žil
##natej
##nenej
odvy
zvyk
zámo
##lovcov
##metrov
Kosto
tovar
šancu
dohode
prehrá
erupcie
objemom
ponúkol
vytvorí
výskume
Ázijská
električ
nazývame
Vladimíra
podpísali
slnečného
koncertoch
prechádzajú
##run
Om
fot
mark
pách
súpe
Dream
armén
najhor
zaklad
zničil
Stephen
uzavrel
chirurgi
medzivoj
vyjadriť
pripravil
Metropolit
Najstaršie
psychologi
samostatnej
##ovca
##táre
##hrala
Main
Mons
palu
unik
Allen
hľadá
tvrdia
dizajné
kamenné
maliara
uviedla
zelenej
obnovená
ostatným
prekonal
propagan
rozmermi
Severného
nahradili
pripravuje
##pó
##tep
##radu
Kod
Súd
fan
Roma
Text
Vyše
sile
Media
nežia
Francú
Indoné
Ruskom
voľnej
Šafári
živých
##rianskej
dynasti
pastier
spomien
značkou
švédsky
veľkosťou
otvoreného
postavených
kvalifikácii
Kvalifikovali
##ňho
##jazy
##iskom
##steri
##žného
Wien
Účin
##ložili
##maturg
farma
gmina
média
##kovaním
##nografi
Vzniká
chvíľu
folkló
textil
zdieľa
zničiť
pomáhal
človeku
Akadémie
Najdôležitej
##eo
##dii
##váb
##cera
##nell
erb
##piens
##ónová
ento
reví
vedu
##tského
ploch
Sarthe
aglome
piesňou
reality
vykonať
výpravu
Rumunska
konštant
kultúrna
napísané
prevzali
vzniknúť
Jeruzalem
navrhnuté
povedomia
##MP
##entu
##gger
##odob
##pisu
##álie
220
out
róm
##wagen
Hong
vína
##neného
##tation
Fatra
Hrona
Počia
zabiť
dospie
niesla
pohybe
Žiliny
Humenné
bieloru
jasnosť
vybraný
predpoved
vlastnosť
živočíchy
oslobodení
kresťanských
##nad
OK
VS
zr
##book
kĺb
##ality
##stvou
##točná
##vedie
vych
##kladať
##veného
Hotel
Malaj
Markí
faloš
konzo
zadrž
##pravách
habili
malými
mostom
jedinca
odborov
faktorov
soundtra
využitia
rozdelení
automobilu
funkcionali
zodpovednosť
##MB
SDK
ano
##leyho
##taine
##ývaný
Alan
Fort
Magi
naro
pruh
umie
žltá
Posla
nasto
praxe
proje
spria
zlatý
ústia
hardvé
oceáne
štartu
##zerbajdž
filmová
severná
akadémia
nainštal
umelecký
účastník
majiteľom
turistický
pozorovanie
vygenerovaný
obyvateľstvom
##isy
##álom
Hyd
meď
nab
##ments
##novým
##ziden
Fred
Poch
psov
rozt
zopa
##rovaní
##ňujúce
Klasi
Litov
habsbur
štvrtej
vysokého
zameraná
internete
kráľovské
veriacich
vystúpili
zasvätený
zobrazili
všeobecnej
Entertainment
predstaviteľmi
pý
##ader
##idel
##káne
Sek
TMA
fal
gro
##teľnú
1859
Camp
Lock
Mand
chcú
osád
pôda
vzle
Extra
Horné
Kanad
explo
južné
svahy
dosahu
Android
prijatá
spôsoby
štvrtom
oznámené
iniciatívy
rozšírenia
##éna
##ódy
##ciho
##tiva
Vit
drs
Bank
Belo
Maga
Nagy
Pole
mapy
naraz
Hurban
glóbus
##volution
Teplice
zimných
Gymnázium
poznatkov
spôsobujú
Zaujímavosťou
##hú
SL
Ču
Geo
1773
Bona
bruš
##pravil
##ňovaný
našla
nápoj
predp
Gašpar
prachu
snímky
ziskom
tréning
uložený
koncerte
využíval
východné
japonskej
stredisku
vyhlásení
podporovať
LP
##side
Eric
Mona
##berajú
blues
dôjde
turbo
vysad
všade
Cirkev
koruny
mučení
Germain
Väčšinu
budovať
hviezdou
kostolov
moslimov
spotrebi
existovať
obmedzené
Byzantskej
dopravných
kandidoval
prepustený
vyjadrenie
výraznejšie
##RD
##cae
##idi
##uri
##kalo
##ímal
##čali
ISO
ace
váš
blaho
deťmi
králi
ruská
známi
neschop
podniky
čínskej
Research
domáceho
dvojhvie
asociácie
podpísaná
vojenským
rozsiahlej
Komunistickej
##IP
##ceae
##kvet
##orit
##pria
##stiť
Dro
Slu
nen
opo
##držal
odtr
sobáš
Petrom
Přemys
nájazd
vládne
metódou
potreba
zhromaž
napísala
zaraďuje
krátkodob
odstrániť
populárne
víťazstva
starovekom
najvyššieho
##lag
##rbit
Mun
exo
kľu
zlo
##linou
##žiaci
Chlo
kubi
ruku
živé
bavor
známou
zväzom
Liverpo
množiny
modelom
úradník
hovoríme
techniku
vypočíta
Čierneho
zriadenie
automobily
vybudovanie
##bn
##kén
##tav
Guy
Vaj
jes
##eniam
##kovci
##ročnú
##tenej
VŠMU
okra
Hyper
Union
##vateľom
States
tabuľa
výklad
##hospodár
Najväčš
analýza
pracujú
Johannes
Partizán
hniezdia
vyvinula
zavedený
zohľadnia
generovaní
priateľských
##gers
Bio
chu
hel
##anský
##látor
##zívne
Brna
##stávky
##ónovej
Dokon
death
diver
firmu
music
špeci
##stranné
konzul
západo
široká
mláďatá
ovplyvnil
ohrozených
zaznamenané
##lúži
Lake
balí
esej
kódu
reho
snem
Širo
##lárnej
Dolné
grand
silná
snemu
umelo
vyspe
zjazd
zápor
Šariš
##ónskeho
odchod
vníman
postupu
sestrou
udelená
výprava
Štátnej
venovali
Sedmohrad
aplikácií
prírodoved
##stík
##èvre
##ícií
Pál
XIV
eró
mol
ram
Stru
lese
vôle
Eugen
Gmina
Stroj
centi
hĺbky
nekom
Európu
spojiť
výrazu
štvrte
prenosu
publika
časťami
Belgicku
vyznania
zameraný
Najväčším
významnými
##vue
##žine
Gou
Hig
Viš
##lárna
##tlaku
##živel
Inte
brad
Legen
akými
zaves
čreva
chorôb
dôklad
ekonóm
hradby
manife
platiť
radšej
teréne
Berlína
prejavy
rodičmi
otvorili
vlastnou
právomoci
spojencov
astronautov
##akes
##razu
Nel
Pán
hov
zle
##károv
##nícku
##serva
##šovce
moru
výbe
##covité
##tujúce
nízka
pevné
voľné
Pravda
minútu
nevhod
Slovník
rovnice
prejavom
zaradená
zavedená
výnimočne
francúzskym
korešponden
##és
##lak
##tifi
##zion
ČSA
Pozo
##lovali
##ovaciu
chyby
farbe
uznes
vyžar
Patria
bohato
bohyňa
Pôvodná
advokát
detstve
prežíva
uspokoj
vzostup
zdokona
Maximili
grófstva
potrebná
protestan
umeleckým
vysielania
elektrotechni
##már
##omá
##íni
##isen
Perz
Rosa
plný
##jského
##rástla
Reich
Sovie
kopca
mŕtve
ramen
##pustila
prevez
údolím
Strážov
meteoro
pokúšal
príspev
vydaním
vznikať
stíhačky
cirkevnej
vzdialený
Podunajskej
najdôležitejšie
##olu
##érií
##šené
Fau
##klasi
##rickú
Gaga
Liga
Lind
réži
víno
výno
##valoch
Admin
Death
schôd
spoji
vodcu
odišli
straní
vyčerp
Dubnica
Kresťan
konečnom
porodila
členenie
kresťanov
zaoberali
študovala
definovaný
univerzitách
##196
##edia
##leží
##odon
##orie
##siaľ
##deného
čeľaď
Fínska
Kapela
konden
tábore
zaregi
environ
koncilu
sapiens
zaradiť
štúdiom
rozmerov
divadelné
katedrály
California
nominovaná
kniežatstva
##75
##hof
##kien
##olie
##tonu
750
##arktí
##bilné
nevi
povz
##likvid
Biela
bytov
kostí
rovná
Metoda
Výroba
násten
strele
unikát
##ologický
Ostrava
rozloha
sústavu
Aristote
kontakty
vrcholov
Prievidza
antického
kategória
predpisov
priemyselných
##žír
##chmi
##pher
Eug
His
opi
##mskej
1856
Bazi
Glen
naše
Jacob
hliad
postu
sporu
zasah
Landes
eviden
Konstan
básnika
prijaté
vypoved
Námestie
priateľa
entomológ
historici
myšlienka
odvysiela
protifaši
Konštantín
pozostávala
##pard
Vul
Home
Hvie
Ross
donú
ried
Arena
korup
matri
tvary
##tívnymi
Allier
chémie
kamene
koryto
odstup
uhlíka
obranca
priečku
zmienky
Základom
hokejová
filmového
##hro
##vetu
Ark
Mly
RAF
piv
Foto
Zmen
daní
kate
rybo
trój
Stali
jazdy
južnú
zadné
zemia
akcept
patent
zatknu
štyria
Využíva
kameňov
kampane
zapísal
Airlines
Výsledky
kamennej
komunita
archeológ
pomenoval
priemerný
renesancie
vtedajších
architektom
oficiálnych
##TP
Av
##atre
##iden
##vost
##óniu
240
Lod
1862
Kvet
That
úver
Herod
Marka
nádher
stromu
Prístup
dozvedel
severným
Juhovýchod
matematiku
sociálneho
Cyp
Nar
##horia
verš
zimu
##biehal
##inácia
##ktorov
##tiahol
Dúbra
Energ
Kyjev
Liber
rozlú
Mateja
Skladá
gitary
týždni
vraždy
domovom
doprave
florbal
znečist
Hlavnými
medzitým
zrušenie
atmosféru
Chorvátsko
maďarských
niektorými
náboženský
vysvetľuje
protilietad
##ateľ
Kin
Mem
míľ
##leným
##systé
##tnými
Spra
##níčkou
##siness
Great
Lekár
Miloš
Paula
Zeppe
exper
Illino
predal
českým
propagá
spektra
svetovú
výskumy
korunová
maximálnu
rozhovore
disciplíne
domácnosti
##mm
##tlo
##tun
##uka
##dele
##kári
##rach
##ónové
1846
Mezo
Nepo
oživ
ľadu
Hospo
svätý
##ponoval
Galile
horské
liečba
Pôvodné
podpore
postupy
pripája
získané
Michaela
verziách
Vladislav
definícia
kozmodrómu
náboženskej
Medzinárodný
zdravotníctva
##dur
##giu
##hať
##blie
##zané
Hid
Inf
obu
##iller
##obile
rota
župa
cenou
splav
zvaný
Patril
Predsed
Vincent
interna
prestal
prípady
najbohat
kardinála
Michalovce
##RO
##alá
##ets
##raď
##èze
##kosť
152
Lon
faj
Pána
RNDr
plaz
vidí
##ňovaní
Repre
prvot
streľ
varia
vyplá
wrest
Jakuba
skúman
Challen
krátkej
prepojenie
talianskych
španielskeho
spoločenského
socialistickej
##tten
Kniž
rody
línia
mokra
schod
záhad
##skytujú
##zických
nenávi
vedúca
žánrov
##presioni
Jupiter
funkčné
listiny
príchod
stránku
odmietli
príznaky
úspechov
rozhranie
prirodzene
basgitarista
spolupracovať
##äd
##ĺn
##ann
##lát
##oth
##film
##pujú
##rial
Odo
zov
##house
Miro
imig
kóty
ples
poma
Bebra
metre
myslí
obavy
plesa
podal
zisku
##lovečer
Postav
kanoni
prvými
vokály
letecký
pleisto
teóriou
barokový
podvozku
rozsiahla
vzdelania
klasických
##era
##oví
##tar
##zít
##medi
ult
Sama
fili
kuku
Prote
misiu
padlo
Získal
nároky
rímske
Katedre
filmové
plánuje
prestíž
výstave
takéhoto
jednosmer
poskytnúť
predstavy
publikácií
odstránenie
technológia
zahraničnej
##rík
ks
##kaze
230
Bak
Vav
Who
##ávali
Bart
Nori
ling
expló
kríza
##ľúbenej
Basket
Bazili
Benedi
Ludwig
Nórsku
výhody
západnú
hudobným
zastavil
obojživel
nevyhnutné
samostatného
vlastnosťami
archeologické
##blo
##ieu
##busu
##cken
##gnac
Ble
šup
##vanou
##znali
Indu
Jazy
Veda
biat
sobo
Štúr
žiari
kométy
znemož
##formácie
Centrum
hviezdu
dramaturg
fyzikálne
objavovať
striedavo
vonkajšie
cestovného
kombinácii
##ía
Fé
SF
bô
čs
##loni
fin
osu
Ľad
##parát
1831
Kari
javy
ovoc
##tovala
Roche
toľko
noveli
zatvor
zálive
záujmov
Illinois
Slovania
obľúbeným
historická
inteligent
najstaršia
##ms
##ando
##phia
##reja
##work
Fun
idú
##ounda
##térie
Títo
Uher
Derby
Fatry
stavy
Antona
širokú
Sebasti
očakáva
pokryté
počasia
takejto
útvarov
Kežmarku
mestečka
neprítom
dedičstvo
historika
platnosti
entomologi
##ace
##zek
##enát
##lins
##losa
BMW
Kva
Zvy
Bela
Victo
pasto
polom
ročné
stimu
zriaď
##matickú
dolinu
podpís
reklam
vodcom
Súčasná
možných
pechoty
vydávať
dramatik
planétka
spevákom
vyrastal
vzlietol
Oficiálne
disciplín
Spoločnosti
sl
##chal
##chan
##ette
##kyne
Thé
naf
##ctvom
obch
prave
Občian
absolu
Španie
Komplex
pôvodnú
svetové
tvorbou
založiť
zostave
odmietla
Elizabeth
veľvyslan
Juhoslávie
obchodného
telekomuni
Československu
##EP
##dil
##vik
Wü
##zuki
##útne
Jel
Ost
Cana
Marc
stol
Živo
Kapln
Pardu
línii
normy
osobu
polov
tajne
Antonio
Obdobie
poisťov
zapojil
agentúra
dorasten
japonský
nepriamo
námornej
zhromažď
Najvyšším
obdobiach
regionálne
##thy
##biku
##ones
##plne
Neď
Svě
hom
ole
Chry
Mili
Zlaté
hnutí
javov
rodov
šírky
kabíny
nízkej
synovi
##zovaného
Turecku
písmena
románov
sekundu
Konštruk
interval
povstaní
zastávka
nemeckými
používalo
priemyselné
##hem
##nea
TJ
##dius
##ráti
Ima
Sas
##antal
##ktory
##znala
Fyzi
plné
ťahu
##rovala
inová
kyslí
netop
panvy
ragby
tanec
vypoč
Andrew
Iliada
Manžel
záveru
odpočin
symfoni
Brazília
vlastnil
vonkajšej
popredných
##VA
##ele
##ful
##gur
##uth
Mr
Tó
##tiho
##veta
112
asp
Back
Glas
Pilo
neur
repu
##enosti
hydra
vzdať
##ročného
##ínskeho
Vysoká
Výboru
náhrob
ostala
prefer
slovin
spokoj
čínsky
štvrté
molekúl
kultúrnu
presadiť
rozličné
Všeobecne
marketing
nahradená
kozmického
materiálom
poškodenie
nebezpečenstvo
##EM
##hub
##lid
čít
##elekt
Offi
Roth
love
župe
Bánov
Matka
mladí
piesk
pádom
Cyrila
autobi
kritik
žiakom
kostoly
vrstvou
Ľubomír
potomkov
produkoval
predstavila
##vest
Hop
doc
##vanom
Igná
úrod
Delta
Ester
Zlatá
malou
veľmo
krimin
minúty
podobá
poznač
zvýraz
Ľudoví
Štátna
neander
severný
symboly
zlikvid
Kataríny
princípy
dôležitou
novovznik
Absolvoval
Američania
nepriateľov
rekonštrukcii
##sing
Pil
šou
šti
Dráž
Mode
filo
páry
##vajúce
linke
roviny
trestu
ľahšie
štádiu
##matickým
##ologická
Patrick
domácim
obnoviť
posádku
röntgen
vyjedná
zrušení
vychádzajú
regionálnych
##cts
Sí
gi
uš
##tail
##toni
Biele
Stein
napáj
oddeľ
plášť
riadil
dizajnu
kompozi
pôdorys
Zeppelin
budúceho
odvetvia
osobitne
stavebný
ukončené
plánované
republiku
zachovaných
##bka
##zke
mg
##sonom
1815
hala
metro
rovin
Experi
nastup
opiera
určite
vodách
Georges
Architek
poviedok
pôsobiaci
zaznamenaný
##iti
BA
##cast
##naje
Cri
Eko
Jak
Ore
nar
Štu
##rastá
##èvres
kapu
kvad
##rickým
hojne
ustup
Gruzín
Milana
Wikipé
jedova
teórií
Chelsea
porážku
rovnica
zanikol
inštitút
nákladov
rozpadla
určených
prístroje
najznámejším
##dame
##roda
##tium
Aqu
Cry
mer
zmä
##ensko
##tátor
Mada
Rake
Sali
Thor
drum
nere
víru
Kirch
chaty
pridá
prizn
uklad
utiecť
Charlie
Izraeli
mesiaci
piatimi
vodopád
zajatia
posádkou
pozemných
demokracie
existencia
prebiehajú
základného
železničné
##šá
##lic
##nyi
##ław
sc
##drži
##enúť
##talo
Mys
Tha
##rológ
1600
Dead
Slne
##tovaný
Monta
Otvor
Satur
cirku
##tológia
prenáš
rybník
trofej
Floride
denníka
nákladu
obdobím
ocenený
pridali
zaniknu
širokej
Ostrihom
magister
prijatie
zástupcu
akékoľvek
celovečer
rozširuje
vypuknutí
Právnickej
korčuliach
vonkajšieho
##boo
##hna
##sami
Beh
Hlo
Vic
beh
##ovito
##ísalo
1787
Head
Koru
Levi
vodí
##kovaní
##tinent
jadre
južná
lesné
najne
premo
skóre
zväze
##tológie
Materi
korunu
krátku
držiteľ
výškach
hlavnými
nadvlády
ochorení
operácii
arabských
otvorenie
pristátie
znamenala
publikácie
How
Pří
##meter
Bras
Tvor
pána
Côtes
Davis
akých
nehnu
Carlos
Tomáša
Tréner
konšta
udržal
štúdio
františ
nálezov
sprisah
výrobca
finančne
kriticky
presadil
ukončenie
štruktúre
encykloped
predchodca
rozhodujúci
##gos
##nak
##naut
##tach
Shu
Six
##diecé
##ridae
báda
zuby
ôsmy
##lovaná
Matúš
herca
nárok
šošov
Sobota
dnešná
liečbe
ochlad
vplyvy
Rudolfa
nahrali
onedlho
podsvet
príjmov
textoch
právnych
reproduk
vyvinuli
nezávislý
pripojená
projektom
elektráreň
##pamä
Cin
Deň
##verom
Deux
Kríž
Semi
dest
skri
##tivita
dizer
texte
vráti
zavia
zosnu
Nórska
delegá
dozved
obrane
stupne
Dôležit
brigády
paralel
myslenie
poviedky
populárny
prístupné
fotografií
kráľovských
vystupovala
##potá
##riat
McD
fer
kub
lop
##waffe
##ľoval
Data
Osad
Pear
Rain
Soko
What
chuť
sope
##kovice
##krátko
##teľným
dlhší
ducha
mladé
čiast
##lovanie
rozsud
školou
Turecka
farbách
továreň
výbuchu
celkovou
chránená
rozšíriť
týkajúce
Katedrála
priviedol
tisícročia
##dych
est
##cture
##skový
##ľovať
Heart
zdvoj
Viacer
rozptý
svetom
reakcii
utiekol
zastreš
zložkou
Červený
určitého
územiach
digitálne
kontroverz
elektronickej
##far
##kad
##nga
Gó
##cita
##trol
1864
javi
kopi
spán
animá
sveto
útoči
Dánsko
metódu
oltára
vládca
faktory
kazateľ
ukázala
Mikuláši
Neďaleko
dôležito
jadrovej
napísali
obľúbené
teplomil
Karpatoch
Administra
odštartoval
Medzinárodné
pedagogickej
##ön
##are
##šim
##iacu
##tury
LOH
Rub
oli
##chaft
1800
Chri
nesk
odle
viny
##hlásil
##lovými
##svätej
tváre
Veľkou
Vonkaj
Turecko
diaľnič
meštian
zistili
cisárovi
objektom
znalosti
myšlienok
rozšírili
využívaný
##ea
##nem
##zák
CS
##obet
Ins
drô
##tonov
##razilo
##staviť
Strie
južný
žltej
##mokrati
Pakist
Taylor
Všetko
mongol
nádoby
Ústavu
úradov
Pomocou
kapelou
perspek
roztoku
voličov
Družstvo
Rimavská
kanadský
metalovej
televízna
zvíťazili
angličtiny
používania
problémami
podujatiach
##tyl
##óga
Bf
##beat
##lari
##čkom
Fren
Mega
bala
mari
výda
cache
husle
rukou
testy
tibet
mision
##americká
Château
nástupi
podklad
prevrat
relácie
schopní
udelený
hudobnom
1821
Janu
Sláv
drav
uply
##hausen
##praved
##ómovia
celou
Helena
niesol
vedomo
vlákna
rozmach
efektívne
jednotkám
kontrolou
organizmy
rozdielne
dinosaurov
stratovulkán
##cum
sop
Boho
Rafa
juni
pril
Žita
Detro
Podie
oboha
počuť
šírku
týždňa
Pekingu
originá
typická
najvýraz
protokol
ukončený
zlúčenín
katastrof
špeciálny
##klé
##omy
##san
MK
NK
Amy
Lib
spr
##tista
1851
nedô
pneu
Armor
Najmä
Ruská
##árskych
konzum
neobvy
niekde
vpravo
Premier
galérie
kritika
reaguje
voľného
administ
zriadené
potomkovia
rozlíšenie
usporiadané
pravoslávnej
##VP
##féry
##wich
##èche
Pís
Tvr
1200
mrie
vlož
Merkú
Oravy
korek
matku
osobe
rytmi
zubov
úrade
##ľovania
Junior
doklad
podnie
vyhláš
hradieb
nežiadu
priamym
koalície
opustila
jadrových
zachrániť
pozornosti
vybudovali
profesionálne
jo
ÚV
##égia
Hie
Run
lem
##tinou
1852
kora
krku
vybe
##tatran
spevu
česky
Canadi
mnohým
vedené
zrúcan
Ferrari
Nemecké
Svetová
dohodli
použili
ľudstva
obchodná
pôvodnom
spektrum
panovania
prepojené
vyhlásili
oficiálnej
oficiálnym
starovekých
##nyj
Né
##brid
##kins
Slo
1847
kosť
menu
##kument
##losťou
Horný
graná
Marcus
Rodina
lingvi
litrov
prietok
táborov
Francúzi
tvrdenie
Argentína
Maďarskom
antických
prírodného
súostrovia
organizátor
##das
Zh
##fore
##rodu
Dum
háj
1808
Copa
Hráč
Kate
Mare
Rang
empi
klád
kong
úlom
##bourne
##jských
Angel
Teraz
pojmy
radia
súboj
úseky
Dolnom
Hockey
Povrch
Starom
dielov
astronó
flotily
hrebeňa
odvádza
vládcov
Heinrich
prechodu
prieskumu
využívaná
zaútočili
Petrohrade
televíznom
nezávislých
predstavovali
##féra
##zilo
Lis
Lyn
##spodá
##žíval
Sony
alfa
##tokrát
Býval
Teplo
miera
rozbe
Region
Srbsko
cirkví
rodnej
Hérault
Vysiela
epizóde
pomerov
vrcholy
Brazílie
Vihorlat
majetkov
nahrádza
objavená
strelcom
vyrábali
Holandska
desaťročí
povinnosť
pracovného
diferenciál
slovanských
zastupiteľstva
##jme
##bine
##haní
Aus
Cul
##lerom
##lovič
1845
byli
logo
##gramov
Nepom
ťažký
blízke
menšiu
vodiča
vyhnan
##kánskeho
Bajkonu
Krajina
stránok
zostava
aktívnej
kolektív
základným
štandardi
definovaná
hodnotenie
ovplyvnené
štúdiového
nezamestnan
prezidentských
##Tr
##ror
##skie
MHz
NDR
Pes
ima
omy
##chari
Ille
dych
puzd
dozor
lokal
nízku
dekora
nováči
prirov
vitamí
Alberta
farebné
odborný
rozlohy
určitom
verejný
bronzovú
východnú
zásluhou
programom
zdravotné
slovenskými
zabezpečujú
počítačových
predstavenia
##fie
##tea
PD
vd
vis
vti
nezo
nára
schi
zvis
##ávanie
osvoj
učili
zahŕň
Čechy
Helsin
cudzin
zrušil
novodob
príčiny
češtine
dostupná
porazila
presunul
Amsterdam
Luftwaffe
kapitánom
vybudoval
kozmických
výtvarného
##hru
##ign
##lbo
AN
bú
##anna
##bová
sit
##robil
Moun
hlás
##otball
##skovej
Neptú
exemp
liste
nížin
žalúd
Verzia
zdôvod
znížiť
zostať
životu
Nemecká
hviezdi
lokalít
súbežne
Štúdium
François
Považská
Prírodná
fakticky
miestnom
monarchi
národným
procesom
interiéri
poškodený
prístupná
tradičnej
definované
vychádzali
filozofické
kniežatstvo
elektrických
##ink
##rev
##vla
##yne
DP
Uz
##chia
##hone
##ogén
##ways
##čové
Gib
Loď
Tře
lôž
##koles
figú
pala
rudy
etape
##telství
ľudovo
návrhov
vzdušné
okupácie
poskytol
čierneho
dokumentu
nadviazal
historikov
magnetické
civilizácie
odštartovala
##obi
##chta
##táže
##zero
##selina
chápe
hasič
hostí
scénu
##tálnych
Johnom
Philip
naviga
vystre
zrážky
Ondreja
anarchi
bývalým
paradox
pojedná
stvárnil
vnútorný
zvláštne
komunizmu
skúseností
tajomníkom
Slovenských
##OJ
##box
##dad
##gli
Žl
Hla
Luc
Ohi
Žof
1853
Líby
harm
mera
tril
Špor
##tované
Antho
Firma
démon
najvy
osved
pôrod
skrom
textár
značný
Dokonca
hádzaná
snažila
zvýšila
Británia
Santiago
hmlovina
Nobelovej
expedície
priemerne
privilégi
príbuzných
účastníkom
##oi
##pf
##cla
##seus
##čera
Bey
HDP
Hri
##formu
etni
natr
##kázalo
##vajúca
Corse
Obýva
chata
líniu
nádor
Founda
Venezu
tretiu
hladinu
strechy
súčasná
Agentúra
skutočný
prebiehal
režisérom
Technology
automobilka
spracovania
ET
##ente
##inová
##lovho
Bole
Trať
rozd
##gement
##árnych
avant
Doprav
nepoko
piloti
písané
zásahu
štúdiá
Terézia
predkov
baziliky
celkovom
arcidiecé
priehrady
rakúskeho
sovietska
spoločným
účinkoval
##bé
Ř
##tim
fr
##chos
Fen
Lem
USB
lož
##canie
##konal
##tálna
##vskom
akci
barb
plus
zvet
Drážď
Dukla
bodmi
human
karto
mosty
médiá
rušeň
Zvlášt
analóg
námest
obnovu
odstav
sedlom
svalov
vegeta
nemeckú
severné
medicínu
prikázal
reakciou
súťažili
prednášky
začiatkoch
podporovali
vlastníctve
##RC
##mur
##urs
##zam
##cert
Ash
Bot
Leo
Voľ
fia
múr
##hrash
dopo
heli
Cross
Homér
manév
potop
radom
remix
úteku
##kladali
Podrob
Stalin
tiahne
vládcu
účinku
Antonín
Harvard
starogr
sčítaní
Hmotnosť
Národnom
minimali
priechod
rakoviny
finálovej
futsalové
slovanské
podmienkou
prirodzený
vysvetlenie
##ów
##meš
ki
##town
##tské
##zieb
##ľubu
Éli
##munda
Dame
utaj
Biely
etapy
pravé
synch
lekára
nadobú
svadob
terénu
nitrian
prejavu
rozpore
vydával
zistilo
umožnila
kandidáta
zachránil
súrodencov
najvýznamnejší
##lž
##sas
DA
Vrb
XVI
##thers
##worth
1855
1858
beta
open
Drôme
Earth
Podne
obete
ukrad
ultra
žiada
Magdal
Srbsku
prekry
servis
vzorom
medailí
turnaje
vypukla
Hospodár
Starovek
autobusy
natočený
školskom
extralige
päťdesiatych
un
##iner
##rane
Cos
Hru
MHD
Pré
Typ
##árnej
Berg
Guer
Lady
kolá
nápl
vešt
##rátora
Odbor
stálo
zdrav
znení
Ariège
Georgi
Sèvres
stretla
výchovu
stíhacie
vzťahuje
výsledku
najdlhšie
vysvetliť
Australian
bezprostredne
Prírodovedeckej
##uge
##ního
##ride
##tisí
Ará
Dio
Vít
úbo
##liama
##tropi
popo
Ľubo
Hodno
báseň
štíte
žľazy
nejaké
určenie
Američan
polovodi
psychiat
disponuje
leteckého
divadelnej
samostatnú
interpretov
hospodárstvo
olympijského
##gat
##míd
##xie
##hera
##odor
##rieb
103
Eri
Niž
Pis
lad
vln
zbe
##anská
##lovce
##ničky
Sher
líst
vedec
Srbska
obidve
pripev
prápor
Chicagu
Vilaine
ilustrá
nechcel
továrne
dynastia
hokejové
Štandard
Hollywood
pražského
Chorvátska
uplatnenie
presťahovali
komunistického
##jd
##loo
##thi
Iz
##anne
##bout
##víha
Hin
##pustí
##začné
##čiteľ
Soul
XIII
cudz
gama
##o
##a
##e
##n
##i
##r
##t
##s
##v
##l
##k
##d
##u
##m
##p
##c
##h
##j
##z
##á
##b
##.
##y
##,
##ý
##í
##é
##č
##ú
##š
##ž
##1
##g
##0
##f
##ľ
##P
##S
##ť
##2
##9
##)
##(
##"
##V
##M
##N
##A
##-
##B
##ó
##T
##K
##I
##D
##8
##C
##ô
##R
##5
##3
##O
##4
##6
##J
##7
##H
##L
##ň
##F
##E
##ä
##Z
##ď
##x
##G
##:
##w
##U
##/
##q
##–
##W
##Č
##Š
##“
##„
##]
##[
##Ž
##;
##*
##ĺ
##Ú
##Y
##%
##ř
##X
##†
##ě
##'
##Ľ
##ŕ
##Ď
##_
##è
##ü
##Q
##Á
##ö
##=
##’
##·
##&
##°
##?
##+
##É
##!
##Í
##ů
##ł
##ć
##”
##ë
##Ť
##â
##а
##ç
##α
##×
##Î
##о
##́
##и
###
##е
##ő
##−
##ń
##ο
##§
##н
##€
##ñ
##р
##>
##ß
##ς
##ø
##с
##<
##|
##ă
##—
##ι
##ρ
##Ó
##ν
##ã
##т
##λ
##в
##Ö
##л
##к
##ε
##ê
##à
##τ
##ę
##μ
##$
##ś
##å
##ą
##Ř
##σ
##′
##η
##κ
##π
##æ
##γ
##ı
##β
##‘
##ż
##ş
##ί
##д
##я
##~
##Ý
##î
##δ
##м
##ά
##у
##→
##ș
##й
##г
##ð
##±
##ا
##•
##υ
##С
##ā
##Ň
##ό
##י
##Ś
##ь
##ω
##п
##ו
##б
##ğ
##»
##Ż
##⁄
##φ
##ы
##Ü
##ï
##ה
##«
##ō
##Å
##з
##ل
##К
##ύ
##ר
##Ç
##Δ
##Ł
##М
##ر
##@
##ī
##έ
##ė
##œ
##θ
##А
##Б
