[PAD]
[unused0]
[unused1]
[unused2]
[unused3]
[unused4]
[unused5]
[unused6]
[unused7]
[unused8]
[unused9]
[unused10]
[unused11]
[unused12]
[unused13]
[unused14]
[unused15]
[unused16]
[unused17]
[unused18]
[unused19]
[unused20]
[unused21]
[unused22]
[unused23]
[unused24]
[unused25]
[unused26]
[unused27]
[unused28]
[unused29]
[unused30]
[unused31]
[unused32]
[unused33]
[unused34]
[unused35]
[unused36]
[unused37]
[unused38]
[unused39]
[unused40]
[unused41]
[unused42]
[unused43]
[unused44]
[unused45]
[unused46]
[unused47]
[unused48]
[unused49]
[unused50]
[unused51]
[unused52]
[unused53]
[unused54]
[unused55]
[unused56]
[unused57]
[unused58]
[unused59]
[unused60]
[unused61]
[unused62]
[unused63]
[unused64]
[unused65]
[unused66]
[unused67]
[unused68]
[unused69]
[unused70]
[unused71]
[unused72]
[unused73]
[unused74]
[unused75]
[unused76]
[unused77]
[unused78]
[unused79]
[unused80]
[unused81]
[unused82]
[unused83]
[unused84]
[unused85]
[unused86]
[unused87]
[unused88]
[unused89]
[unused90]
[unused91]
[unused92]
[unused93]
[unused94]
[unused95]
[unused96]
[unused97]
[unused98]
[unused99]
[UNK]
[CLS]
[SEP]
[MASK]
##er
##en
s
##de
##an
.
,
o
f
##et
##or
##in
a
##ti
m
i
h
b
##st
d
##ar
##le
og
##ed
v
##ig
##sk
##el
k
p
##on
##om
##re
af
for
##te
1
"
##al
de
ti
en
##ing
##un
S
til
##ne
##ra
##ter
D
##ol
##and
er
##il
t
g
l
##der
at
n
-
##ag
##am
##ere
H
##ud
den
med
##se
##lev
som
##ri
på
##ør
st
2
##av
M
##at
B
A
##lig
blev
##ver
##ske
##den
##is
##es
der
var
##og
F
##ik
##ær
I
K
in
##ste
19
)
(
##ke
det
ud
e
T
##ning
P
##od
##ang
##ur
C
##ler
##år
han
E
L
et
sk
##sen
##tion
##it
##ru
20
om
R
##ende
##ul
op
fra
##det
##ræ
N
##us
be
##dt
G
##as
##ro
##ve
##ge
##ens
##fter
hv
##kke
##erne
##ch
V
##del
##ab
har
J
r
##ds
##ent
##ir
##ist
sam
##ger
ved
##mer
re
##kt
##ation
##id
##ber
##land
al
sp
##li
an
##me
O
##la
un
over
##ks
##um
##for
hav
##hed
##lige
men
##æn
j
ind
##be
18
:
##ov
##op
hvor
efter
##des
##ser
W
U
før
år
sig
200
ikke
Han
##iv
##ut
##und
##ad
##yg
kom
c
##men
##æl
##så
##est
##ic
Den
##os
##ort
##em
##ot
sin
fl
##lem
##rig
##hol
##yn
##eg
kon
201
Det
##else
##iske
##ion
under
##eller
St
##øj
##ien
også
##ord
##ft
##let
##ker
##til
##isk
##ling
'
##pp
havde
kun
##ede
##red
kan
##ok
##ille
mod
3
##avn
of
ar
eller
##yr
##gt
##gen
##dte
##ige
##he
del
and
så
##sp
gen
##øn
##art
##øb
##eret
##lag
##ark
dan
##ale
##00
##øl
##ie
##ene
##ak
##ret
##ran
##ære
##rå
/
##skab
##ring
##ange
##ner
##yt
##rem
##ket
ø
##yd
##iden
##erede
De
##ken
Dan
to
##ss
##ind
##ers
##ød
##ug
##age
første
##ub
##inde
##æg
##ej
–
##tet
##im
man
må
lig
##org
Ch
4
##ster
tid
##tede
beg
da
vær
##eres
En
stor
##bej
##ap
te
##amp
5
##elt
##old
An
##ff
##jer
##elig
##ia
##lan
##ry
##æt
##get
##var
u
##nem
hans
##net
##sti
##ellem
##ven
##sten
##vær
frem
bet
##mp
##ib
by
##ust
##vis
##ten
199
kl
##ningen
17
##sm
##ligt
gr
##je
##dig
sl
##ron
##ob
pr
bl
fik
##ier
sel
In
pro
se
ty
ny
##ce
##ci
mellem
sen
udg
le
##før
##æng
fø
Al
bru
##iti
##elsen
##yl
##mun
##ingen
##ati
##les
##ck
##tal
##rev
bli
fin
##sb
##ater
##eri
##ide
6
##kl
nog
land
Un
##met
##delse
##iver
hun
Danm
##ire
Der
sammen
##ard
andre
end
;
##tig
her
deres
##len
##ly
##tag
##oved
forb
##itet
form
For
være
or
fors
##gte
##ann
hj
høj
##ligere
##havn
##ts
selv
16
7
##nes
8
##uk
##ade
##ast
##ninger
##di
tilb
##gende
kunne
##æv
stør
Sk
##istor
ned
##rede
##gel
fil
197
forsk
gennem
##val
##sl
flere
198
##ant
##af
The
##eb
##uc
##tem
dag
mange
##iller
##if
##øm
##tes
arbej
##ræn
grund
##pr
Jo
ligger
nord
##ån
##fat
##au
dog
##ram
##aj
byg
##kom
##rupp
15
##oliti
##erden
par
##rik
9
##anske
vi
vand
navn
##hold
##elle
##eget
##ow
##up
hoved
##eter
##ass
##landt
alle
senere
Danmark
##raf
Ar
født
##åde
##irke
##isse
##res
##ine
Mar
##tiske
ham
Efter
##ac
##olog
kal
ad
været
nu
eks
Her
##åb
##kring
##ult
skul
##stru
##ets
udv
sit
ken
dansk
##atur
##alt
##son
##øben
denne
bes
##øbenhavn
##andet
sy
begyn
verden
##sh
mere
samt
##ren
##øde
pla
blevet
tidligere
196
##byg
Ro
meget
få
##kon
kamp
##ænd
tre
10
##ay
have
lang
##skri
##rog
vil
områ
skulle
sid
##æk
syd
omkring
##ove
##usik
reg
mo
##ern
##borg
##dere
mest
præ
##ivet
dem
København
194
best
hvil
##jen
uden
Ø
##endes
##of
samme
store
forskel
##irk
tilbage
##eder
##dom
12
bliver
tal
##use
##000
##ager
##hus
##iet
##række
he
off
##olk
##derne
##stem
Th
mil
Le
##ban
Sp
##tik
Re
##yk
inter
##urop
Y
##vin
spille
##erson
danske
##gang
siden
##ys
##ole
##ive
##atte
##dsp
Chri
##undet
##tog
ru
pri
##tte
##merik
##ans
##inist
mind
hol
##lighed
Ne
the
ret
##føl
##kti
##reb
##idt
mens
skal
w
andet
blandt
Fran
##mand
##ess
sine
ven
føl
##øg
sm
##ledes
bed
##els
ra
dette
##ave
politi
##læg
##ræk
##ansk
##uden
##ich
##øre
000
Joh
anden
##all
##ue
##jor
##tid
##per
##ma
##lede
##dre
##by
På
##dende
Sch
11
histor
##ivers
##elser
forskellige
ofte
gang
amerik
Da
##ode
##tisk
nye
##dan
##agt
Hol
##med
##over
##uld
14
##ges
medlem
kont
val
Kom
inden
##stand
findes
##bum
prod
kommun
##rav
##aler
195
##ost
##ell
plan
Fred
far
død
193
##anu
mu
hver
række
##stil
ek
spil
hjem
krig
både
13
US
Nor
##erik
grupp
udvik
hvilket
##arl
ang
##ande
##tere
##berg
br
##rit
##arbej
Kon
##ational
##oden
##yder
##teret
Hun
skrev
person
##alen
0
191
kendt
is
stat
##heder
##our
opr
erne
sø
##ført
##amil
##eren
##sf
##lin
##ald
##ugust
hos
Hans
##uni
igen
##dag
musik
##este
næ
ser
##lø
nogle
maj
slut
øst
192
film
##inger
##cer
god
##iss
im
gik
nor
##ogn
gam
##nede
stil
##arts
##uli
##ou
nær
hele
Z
##mel
kar
des
vest
##anuar
disse
hen
byen
##ore
lev
##ået
##pe
##terne
##vi
ca
##lik
##unkt
##ah
##lagt
kri
ville
##går
##are
tog
##ysk
januar
besk
##anis
sep
##sæt
##igt
søn
”
km
alt
juni
##som
USA
gener
##sted
##ga
##form
##ryk
##io
blive
##hand
##ober
vandt
##ksom
##kn
menne
Kommun
Sam
sidste
Am
##ævn
##oci
træ
##olle
##sker
Ved
##ip
fire
##ægt
største
##ift
##ånd
##vej
##ton
kor
sæ
Nord
##pril
##tember
##ach
ste
##ond
tra
okt
##ktion
##ationer
##ernes
##ørn
vej
##jorde
lav
##entet
først
mindre
##ina
##mber
##ill
##alis
sang
forbin
oktober
##ces
##ationen
##mær
spillede
september
ben
april
##cem
##her
##krig
##ovember
##stian
peri
styr
åb
Se
marts
hvis
##tt
##urg
tv
##ål
fran
New
fod
##nings
Par
##bo
hold
##skabet
##ian
##ultur
##heden
august
side
lø
Be
Ber
##ben
går
hal
##olen
##ition
##ses
arbejde
Te
##ings
komp
Frederik
juli
tr
##che
##lerede
##cember
fri
bef
##styr
mand
stad
190
dk
november
lige
begyndte
##erefter
##fatter
Dette
ans
##uft
##kal
%
bag
Som
kunst
Europ
##enter
derfor
##semp
tyske
2007
##idler
##atter
##ins
##ite
##dens
min
inde
##tige
december
Mo
##ral
189
##erer
Men
større
sær
##ader
sted
forts
Sh
He
##delsen
##th
##kel
186
##taget
kort
##ammer
##oner
##vig
indtil
##ykke
##lo
Med
##ebru
##ium
##man
##lingen
##lands
30
kv
##br
##ktør
##stat
##tigt
fort
org
##ebruar
##iddel
##aget
##irksom
liv
25
sol
natur
##præ
album
Fra
##laget
##off
##jet
##konom
famil
##andt
Christian
##ate
engel
##az
vig
##tidig
rom
klub
##ps
##ilm
Et
Man
##ung
##ision
døde
##ograf
fly
februar
landet
Under
læng
188
ro
oprinde
Gr
##jæl
Univers
##ktiv
##esp
##under
rej
tit
##åede
##gr
Å
2008
eksemp
##linger
##mb
eg
Tysk
##ved
hel
skri
##rad
tilf
fem
##ity
reger
187
##terede
når
skab
met
##skil
##ph
##ører
teg
##rol
##sø
cent
tallet
fodb
##otor
##lad
instru
##arn
##rag
spe
tro
##anden
##ld
##siden
stø
løb
##rid
Hen
##orn
hendes
Ge
El
##ris
lok
stedet
2009
sv
##rug
Ni
sik
Har
##eligt
ban
##ående
2010
2006
##sel
##agen
tysk
fast
##stre
Wil
##hæng
lille
kn
##uder
Or
stadig
forbindelse
##ister
opret
Ste
##telse
##urner
sæson
ma
##oc
prof
##ionen
Stor
##deren
Ma
således
bog
##yen
helt
##æst
inds
Br
##sn
sej
halv
com
bev
vin
##asse
##nen
rig
mor
navnet
##dene
fol
##iel
gange
##ars
##minde
flyt
##ands
spillet
Sel
##pen
##holm
Kommune
##talien
amerikanske
##æld
Is
spiller
&
21
##ator
##rer
gamle
gav
##lade
kommer
noget
Om
mål
##ider
##elige
##tor
Eng
vis
området
##yde
##hund
fle
red
udgivet
John
##uktion
gjorde
##iner
##tu
##hav
##lads
ele
offent
2011
offic
Af
Fl
##sens
parti
##itter
##arks
##året
##jort
##pper
##ym
##holdt
forhold
opg
##åd
lå
bas
##lut
måtte
dire
##sta
syn
Peter
produc
##aft
kil
##skrig
fær
##rum
lande
##jerg
##vet
hjæl
##ffe
Vest
Tyskland
##ration
især
##ong
##øst
ev
##ont
bor
’
økonom
##ons
bri
##ods
2013
185
bedste
århund
2012
består
forl
##par
##træ
sti
Bo
##int
2014
##minist
22
##ærer
sc
2005
##kur
ænd
Denne
Ud
##idenskab
##oks
Øst
##vest
Ind
mar
##følge
24
læ
##mester
##pt
184
##igh
Kirke
lov
stær
speci
mø
La
dom
ingen
Ad
##reg
sven
benyt
sprog
børn
##nu
Syd
tab
kultur
##ivision
hur
##iz
##burg
##ote
##bu
ark
##gede
##dann
##akt
brug
milli
afg
luft
run
##æmp
milit
sn
hånd
Sogn
##kte
egen
Me
##ibe
kong
23
alminde
##ydning
pop
##vel
bruges
stud
##områ
##ationale
##qu
Til
skrevet
res
##bygg
##bert
Pro
Sver
græn
hær
##sat
angreb
##ork
##kende
##ogram
##akter
lin
videre
##fin
##set
##rom
dele
stort
é
profess
##one
ende
##dition
desuden
Frankrig
##rige
Europa
##ativ
fordi
##ologi
kap
##raft
##orden
##idlertid
##præsen
##kter
dermed
##ment
ne
##delt
intern
2015
Land
hus
anv
virksom
bygget
Danmarks
##van
##fly
tred
##værende
fleste
beteg
##mes
plads
##sfor
##uesp
allerede
##ile
##hver
di
organis
##min
##ummer
følgende
afsl
##ønder
##nævn
##ith
Norge
gu
##irken
##na
dyr
##æss
jern
##giv
##vik
##holder
##arbejde
bille
##fl
##yng
vel
##yre
##eneste
små
el
udt
skib
##ringer
stand
får
bil
##ensen
etab
mark
##skaber
##serv
##røm
star
##tern
hand
brugt
soci
rum
Q
##ress
Sc
##yst
##led
Co
Ed
##ath
fjer
##we
2000
VM
dri
års
historie
##sv
fal
Car
midt
2016
28
##førte
forsvar
##uss
ter
ful
æg
##ild
##cent
meter
århundrede
Bl
kirke
26
opn
ord
seks
2004
England
verdens
##agn
##ening
begge
vigtig
27
##vol
eksempel
slag
stem
kampe
køb
nogen
##teg
yder
Fol
Kri
øn
##ai
Rom
##værk
Johan
##øger
##kan
##vede
##ublik
sommer
eneste
##ustri
repræsen
folk
##aver
##ælles
område
1970
Com
eksp
##stra
##yb
100
Pa
mån
Lond
datter
##ta
Fri
on
endnu
##elm
kol
antal
slutningen
tran
##oder
sat
udb
vok
øv
let
ber
start
efterføl
##skole
##ering
Ha
##fra
bred
Fin
Gen
##revet
skuesp
forst
##lere
mag
##ældre
næsten
##las
##sede
ung
##ovjet
##menter
##ford
##vinder
##mann
fandt
amerikansk
bo
Gu
hvad
Sverige
popul
##ørte
mennesker
Ander
##gård
per
gruppe
##useum
belig
samtidig
længere
##stede
Carl
dig
stod
London
ch
væ
hende
set
2017
##ves
befolk
##unst
Des
##unden
indt
##grupp
##ucces
##gaard
godt
kaldes
San
fun
tredje
Kl
##snit
beslut
##lse
29
Ny
medlemmer
Sl
##sc
##film
##vs
Bar
aktiv
Sen
##ius
##stæn
von
##mede
po
Bro
##mon
karri
Ph
Fil
##okra
elekt
ses
bestem
##rab
##delser
##tr
##bane
##åben
50
forfatter
Københavns
##ital
enk
idet
##avne
##esom
general
##vand
imidlertid
fodbold
am
Aar
oper
tæt
183
##ack
Reg
løbet
Er
lands
##mar
##ester
deltag
program
betydning
##att
##adem
gift
Før
##yp
##ejser
kron
At
tradition
ge
##stændig
Con
Dansk
franske
##jerne
derefter
##ash
Pr
##sminist
Mich
succes
##ase
deltog
##ham
norm
tidsp
##brug
##ligvis
Sy
jord
filmen
opst
##sident
2003
##ance
##delen
kaldet
##dede
Po
##ktur
##ze
univers
foret
##erg
giver
græ
dens
##ori
regering
kval
stra
##lerne
##ure
##ful
##anter
mulighed
##leret
##ley
måde
engelsk
top
står
ob
kræ
konge
Andre
X
begyndelsen
##ice
##bar
##iftede
##oven
beliggende
181
nuværende
li
periode
##sby
##enn
##aen
sag
ald
bar
##unds
##abrik
##rup
##inge
Val
##olf
langt
hed
Thom
##anc
indbygg
fremstil
##far
følge
##isten
2001
hjælp
2018
##ppe
##tiv
_
##fær
##kes
Universitet
##ateri
offici
Jac
##bin
verdenskrig
##udt
II
##ørende
Kn
##ission
##sam
##ock
##anger
##sej
kendte
dø
##kendt
##nal
opført
områder
##iens
modstand
##illet
kat
nåede
##ræt
bu
førte
nyt
##ric
aldrig
tilfæl
taget
dræ
du
grad
##svar
und
##ats
##jekt
net
York
##stad
##ragte
konkur
##yttet
2002
samf
##dannelse
##fø
én
##holds
via
året
##løb
prob
gøre
##mens
mester
##klub
##ise
##landske
fuld
Paris
blot
nordlige
tidspunkt
Og
karakter
##rafik
mang
##oen
division
anven
model
##bro
britiske
national
enkelt
##sning
##vor
væk
##chef
motor
40
pol
deb
rolle
ur
lidt
Sa
udgav
?
##rich
1990
##olig
##ations
fået
##uropæ
Disse
Mon
##lej
dage
180
omfat
##osition
##ftet
såkal
millioner
gør
##rop
tekn
øj
sæt
##ritann
##strup
##eld
##kor
priv
skole
National
##jeneste
Ol
##tage
##han
##landet
31
##vil
##ty
Wor
##stitu
vers
##okum
##vist
Selv
##rø
nød
##rådte
administ
##ick
##ighed
##tiden
fransk
tilh
##holdet
ligesom
##rest
tale
Aarhus
Bla
##plan
##rang
##chen
spor
So
instrueret
##spe
haft
relig
lej
##ines
interes
##sy
fortæl
##ha
guld
182
##rej
skyl
hår
krigen
indbyggere
russ
##uth
bandet
##gade
kvinde
tiden
produktion
##ank
virk
foreg
bi
pen
##avnet
We
##ogle
plac
##uri
##sende
##høj
ram
##unde
##ames
viser
##histor
arbejder
##uper
enkel
nummer
beskri
Per
Byen
direkte
aut
##ktor
Storb
##ign
Ben
udkom
##ct
pl
udvikling
bro
##leg
kr
##eth
##ogne
gå
kompon
fundet
##ragt
mon
Kar
##ood
##istiske
fortsatte
sådan
typ
fælles
hurtigt
politiske
Bra
htt
##dtes
##dal
moderne
ww
kvinder
##ane
www
personer
kejser
Rus
langs
indeholder
##ørg
##obb
##bog
##ustral
##eriet
##æd
##ioner
Pri
##øv
handel
Storbritann
##tug
##ylland
ak
medv
Ab
##ael
dels
##tis
italien
engelske
holdt
##fal
##va
fred
leder
Ven
Sm
perioden
##igur
karriere
##opp
Col
##co
bør
##ies
præsident
##rak
Ale
Sal
##rakt
hin
skuespiller
##skede
##sport
ene
Can
folke
komme
Dav
klass
middel
##atet
##handling
Mart
##esti
arkite
betyder
##mark
Siden
baseret
Kr
To
steder
##på
sal
##ibli
sket
hvert
##kra
indg
kontrol
studer
radi
rel
efterfølgende
næv
sydlige
Vej
Je
##irker
sten
udnævn
##atin
svar
##tighed
militær
Hentet
oprindelige
forsø
##ors
unge
1999
roman
Histor
konf
##ll
Karl
##to
flyttede
##deling
##dighed
port
betyde
##føre
##asser
sh
##tale
##dige
støtte
Gre
tur
finde
##angen
mænd
##ologiske
Mal
adskil
##ution
bevar
imp
dokum
Hel
##rene
##lesvig
pass
muligt
afslut
##ometer
##rådet
1980
##urneringen
stammer
anvendes
##jø
startede
em
##ific
fej
tage
result
sidst
FC
##kkede
##ative
herunder
Ser
valgt
fyr
tek
##aw
##skib
Pal
##ose
Sønder
##fe
kæmp
##SB
##sætning
sikker
syv
TV
familie
æld
Bu
træk
Italien
##plads
ly
enkelte
Met
##banen
europæ
Ho
##ugle
Amt
##fon
##oldsp
give
2019
##iteter
manu
##ula
Vil
##ander
tids
179
kommune
##øren
##tende
valg
##irma
uaf
Storbritannien
##sch
##alder
rundt
videnskab
ri
svenske
fores
klubben
##publik
hinanden
bestod
##ytte
lær
##sket
##itar
Hansen
Thomas
##merne
##50
1998
##ids
sing
##ish
##aff
udtryk
##råd
Mc
tru
Senere
grundlagt
»
nr
Cl
igennem
Em
##ånden
Kong
ren
lys
cirk
vundet
Intern
Desuden
##itz
udgave
Danske
valgte
Jør
##sd
hjemme
##gene
indsp
##ænge
yderligere
##øen
##mere
øen
##oler
##eningen
##inget
##ij
Station
fx
##oduc
##sag
lag
udgiv
##aden
Op
«
##tic
Nør
kli
##ight
magt
nok
Jørgen
litter
yng
eget
kø
serien
modtog
z
insp
##brud
primær
gammel
trods
##skov
bek
World
##kerne
##helm
Bri
1960
dæk
##ølv
Nielsen
samarbejde
##mende
særlig
##fic
##mus
vol
ødel
##visning
##ibliote
bel
##kamp
sjæl
ældste
##kv
##æde
jap
ægte
genop
##osof
temp
As
Hal
##ura
##digt
##nende
Over
##rand
Filmen
arbejdede
##hj
borg
gra
indfly
Høj
Bor
slægt
Willi
oprindeligt
lave
##gar
lykke
Ham
##assen
##udover
Berlin
OL
##upp
grav
floden
lavet
altid
optræ
Hoved
professor
viste
Jes
ac
ældre
elev
##reis
##inder
=
effe
##ards
Ra
Paul
Sven
lokale
##tel
Henrik
##ligg
##ix
brød
##gelige
titlen
Nogle
##jord
våben
aner
##væg
mal
##ygdom
samlet
1997
##offer
indenfor
gruppen
finder
typisk
vestlige
Mor
##port
Rich
kilometer
tilfælde
materi
Ul
Lou
1996
dræb
vendte
##arer
værker
Cal
!
erstat
sold
bevæg
Tor
##ott
neder
##arken
Grøn
Oden
skov
vist
##kede
betegn
##rale
##bet
albummet
indflydelse
##sent
##huset
are
Rusland
##døm
starten
system
—
Hvis
gjort
erhver
metal
Cent
##orte
##hen
kraf
prin
Så
##ame
##ytter
##uds
Æ
inkl
erob
borger
kry
##hal
##nas
##pu
Lin
##ament
kommand
såkaldte
##isme
Mad
Frederiks
ab
fys
grøn
Jensen
177
bid
William
##oss
dat
normalt
178
imod
provin
Erik
##amen
Mil
sek
##oldspiller
bedre
romer
##ns
Tr
overtog
kolon
##fører
lod
##ule
Char
##dannet
##ningerne
styrker
vigtigste
##dik
opdag
##øret
Odense
##test
Møl
barn
##da
##reds
fore
nem
University
ide
linje
##aktion
egent
væl
##uel
manuskri
formand
##utter
60
##ana
##cen
lange
Politi
industri
voks
bruger
udvi
forsøg
virksomhed
##kk
500
##stemet
##jendom
flyg
koncer
Michael
##syk
##holdsvis
##rika
Jap
##ica
oprettet
egne
givet
dets
Alex
besæt
råd
fag
titel
##stitution
bræn
Bel
y
##ligste
opt
universitet
##omst
##lemer
Mag
begrav
##dem
lykkedes
##iveau
ep
Jon
##smand
sendt
næste
##ague
mindst
arbejds
hører
rejse
]
Christ
energ
norske
##kaldt
##orth
internationale
ul
th
##redt
##mest
##iker
Lar
grupper
##formen
##unn
Soci
svensk
byer
##ros
um
##irkede
##dele
##ek
svær
hvoraf
Wh
Air
Ger
Mange
uddannelse
eksist
##bold
Aal
oplev
hvordan
##uer
primært
##tiet
stærkt
Vol
Rad
Kunst
1995
Ifølge
udstil
berøm
station
##ierne
rol
fæng
##lagde
##stal
##estival
mæng
familien
pra
##terer
la
Blandt
politisk
profession
1992
enten
Når
otte
sommeren
kra
##efter
Sti
##talte
arter
rød
##amerik
gl
jeg
skiftede
midten
Hv
1994
landets
##hånden
afsk
alli
kampen
byens
ka
ligeledes
holde
uafhæng
West
Phil
##atisk
League
sange
##ymnas
##imod
kunstner
##yer
##useet
omfatter
delstat
formål
bry
funktion
mel
##ærende
gæl
udviklet
sport
##andsyn
##vejen
Alle
##ada
##urnering
##my
akti
kur
##iven
Georg
lever
ko
fisk
nævnes
kaldt
Sim
##ørgsm
bom
City
Li
Beg
Pe
påv
bedst
Ras
Austral
hvorefter
Aalborg
oph
##anien
Jacob
brugte
##lie
|
##elses
undersø
##ace
##eral
resten
mennesk
##talt
##cip
##formation
Hor
øvrige
DR
Tra
samlede
overlev
kontrakt
Mik
##riske
nødven
##ologisk
befolkning
Fo
År
##stit
##ålet
dannet
cm
Cup
hæv
##sprog
Eg
tjeneste
##jylland
Peder
##ringen
##søg
klar
##viser
##ikation
##lic
maler
##cep
debut
politik
##æs
mus
##okus
##ary
##ink
##inen
fyl
Sovjet
Robert
1993
##amb
besø
prø
##ladsen
beh
tæn
fr
##skolen
Martin
##ladt
[
rå
##stø
##øs
bind
##yrk
optaget
støt
##istisk
nat
fortsat
dist
##deles
##ronning
kul
Lu
penge
##valg
##20
##mæss
måneder
Cla
Pet
##ool
eng
adskillige
fulgte
##cher
1800
udsen
##vent
Bal
læg
##ias
fodboldspiller
##bygget
forlod
forfat
Ke
dis
##telsen
##own
gode
Sil
bruge
ungdom
kirken
1991
foran
skete
løber
##ball
##iskop
##grund
##valget
ifølge
##obbelt
Store
##orer
dyb
##mo
##rebet
regel
endte
konkurren
ansat
Don
højt
indle
##orge
##aten
##lende
##sbe
tager
##ja
mask
##ladet
Ba
##øse
##forening
Port
stræk
filosof
Gro
Vib
Hus
slaget
##pro
højere
##nere
bos
##cel
landsby
ansvar
##ykker
finalen
fald
Mus
##holde
##skrift
##neb
lokal
hit
meste
moder
##orp
dvs
navne
størr
##tive
Ta
##alderen
##uelle
##sminister
stam
tropper
oply
mente
østlige
hertug
##stræk
post
##oll
kongen
##ino
fre
iden
##ny
bygge
soldater
Gal
Lang
placeret
tør
Østrig
##ko
##satte
##ås
David
##ney
forekom
##ara
sæsonen
altså
##oy
begræn
80
forh
opnåede
krav
##aven
##ira
hæn
sølv
Fal
##omen
Ver
##æf
##iere
##skilde
forkl
måned
ej
##iment
##slag
bort
##æder
sandsyn
skibe
##ka
alvor
fat
arbejdet
Tom
lu
serie
##vem
anti
tilkn
årene
##bæk
##oft
folket
##ssel
1900
fot
Mer
Ex
besej
ledelse
##album
##liggende
stilling
fokus
ude
disk
artik
##ple
##way
##andid
etableret
opd
psyk
Folket
##kort
##ions
slot
James
led
Rasmus
opfat
pres
højeste
arrang
sangen
1945
Bay
dokument
1950
retning
sluttede
176
##melse
direktør
##risk
europæiske
kraft
Min
såsom
guitar
Gl
##øjt
grundlæg
##sson
x
##havet
holdet
##edition
##syn
fortsæt
35
##spunkt
##iew
##melig
oplø
Niels
færdig
sovjet
##oph
##pital
Wal
##ørs
væsent
no
id
centrale
officielle
venstre
##stitut
latin
sygdom
##lod
Museum
##volution
##serne
War
ankom
bron
Slot
##retning
##yske
bror
vinter
åbnede
##æb
##tager
bygning
##ün
1920
##ales
mis
selvstændig
Folke
Verden
solgt
opkaldt
Byg
Qu
##stein
##amer
boede
alder
##fri
##inal
Slesvig
bøger
bestyr
##urt
Mel
tan
sejr
anlæg
##gelser
kred
overf
1989
Sovjetun
Kina
version
##ugh
problemer
ref
Bru
##aa
Kal
##SBN
ejendom
hens
Gra
ISBN
Japan
##heds
bygninger
Bog
højde
ønskede
Vi
økonomiske
opf
##organis
formula
##ledning
dår
##landsk
prem
##bygning
Rand
Vin
styrke
manuskript
Far
##aner
Ag
defin
anvende
##weiz
stats
August
projekt
vide
http
##itt
##ært
årig
By
##jorden
Ac
Park
offentlige
pan
Viborg
Ak
fortæller
slog
bjerg
ejer
Champ
Lud
fader
##vers
##anen
dav
##aly
mi
##oret
Pol
visse
Jens
følger
Herred
særligt
##orf
70
afholdt
arkitekt
##ala
##givet
##ena
##ifte
centrum
Jose
social
##dent
##unt
Rig
sæl
hovedsag
lejlighed
region
opstod
snart
forg
##esten
chef
##kendte
Super
##ipp
1988
##køb
kro
Spanien
høje
##station
##oduktion
areal
Ung
##alitet
daværende
nordvest
dobbelt
##æm
russiske
skabe
jorden
band
##otel
EU
krist
erkl
1940
nordøst
Go
udnævnt
Hj
Sol
vinde
værk
marked
##atiske
inspir
##beg
##omer
##irket
##ysten
##ifor
##undt
forsøgte
##ward
cirka
Roy
udel
højre
udgør
##ages
vid
lagt
sand
produceret
Plan
kem
ag
begravet
##iger
##ho
##ereg
måske
tri
ting
figur
litteratur
##øder
anvendt
##ding
voksede
##seret
flåde
modsætning
1930
##bl
##skamp
spørgsm
Derudover
kyst
hjer
##ærke
historiske
##jælland
udstyr
##unk
symb
##omin
lærer
omfattende
##atisti
efterhånden
Samtidig
landshold
sydøst
##stof
##område
##lel
afsnit
vind
fjerde
sydvest
interesse
##folk
EM
Ring
George
##tz
32
Di
orig
##pri
##bart
Bern
Roskilde
adgang
##icin
jour
All
teater
rejste
rige
spillere
oftest
virkelig
##lim
##ited
##lader
##årn
##ativt
Ir
##slev
vejen
fung
##fald
næst
us
Stat
trafik
International
##musik
##reformen
Bur
##abel
##ustru
Fær
lignende
##gå
##atal
deltagelse
almindelige
Tri
##arbejdet
udsk
##lov
##oris
##elserne
firma
##staur
kirk
##arter
katol
bolig
90
Andersen
##ony
##punkt
##øres
rock
##rugt
Frank
North
menneske
Sankt
##que
Marie
##lek
##veret
##ografi
sider
udviklede
##ppen
vari
##spil
bebo
##skom
Lig
##aks
##atri
dræbt
faldt
Bre
##iftet
do
##rael
rek
Navnet
kines
##cy
Gar
landbrug
såvel
banen
civ
bal
Osl
##ür
fordel
##tiller
hvilken
Tour
sige
øver
Gud
livet
Sø
vægt
##ante
Stock
##lymp
fler
##øjtn
Også
##gruppe
offentligg
##ari
Bj
Ka
##bund
Pla
Mark
##ya
##løse
sikre
##inden
##bil
ut
Thor
##ugt
##ama
1986
##fang
hvide
privat
Su
tryk
##bjerg
længe
##øjer
stig
selve
Derfor
##fel
##sbyen
ni
##ca
##sil
mør
##sborg
##ukker
Skov
Region
satte
solgte
Tim
ganske
danner
pp
##ords
sem
1973
##anlæg
forbed
grænse
##uren
##hl
##vok
##xic
##æger
italienske
behand
Jan
Nic
finans
besluttede
300
Tran
Ju
45
175
Stift
##cering
##une
nævn
art
##oth
myn
Film
rapp
Poul
Inter
slået
##heim
alene
compu
Union
religi
bestemt
Ze
parl
##vende
event
Rec
skabt
##ømme
1984
sammens
##idst
##værker
inv
sker
temper
overd
Album
##illede
##oer
##umb
hustru
bjer
hjemmes
tidlige
Kj
uddannet
betød
##aer
##ax
##ror
##fred
Rosen
174
Hels
herefter
studerede
Øster
33
##iser
restaur
##staden
mener
##videre
##azz
##taj
##kvens
fand
dram
##øjtnant
Island
huse
ass
##ension
##ical
##tre
Hit
minist
1987
cyk
##vægt
emb
nemlig
On
samfund
Tre
##sninger
Knud
repræsent
kritik
##ano
trom
udbredt
blod
bare
##irg
##liv
Klub
##iblandt
##stant
militære
minutter
angri
##hr
overg
Ter
##ærlighed
Vic
kombin
officielt
##kken
fandtes
intr
##ørt
mødte
stærk
##spor
situ
jernban
##tning
skrive
1979
Kor
me
##orten
møde
Natur
##orien
And
samling
Mellem
identi
##iget
benyttes
gud
tabte
Lau
Do
##cis
##pladsen
nationale
##abil
tegne
il
Holland
beskæf
selvom
udført
36
##inet
type
##spro
##reret
##view
##rat
hurtig
##hu
oversæt
##ærk
økonomisk
sort
gul
1978
overfor
##skud
##arten
værdi
mm
derved
japanske
##skibe
drift
lære
+
##tidens
fabrik
1944
bogen
##ape
Sovjetunionen
Tid
sagde
1972
single
##FA
inf
Amer
##kens
1985
##ters
Lars
føde
sanger
elektron
1982
fløj
##nævnte
Oper
trak
##amerika
dren
##ona
##raget
##stron
indre
portræt
debu
##rettet
##smed
fak
niveau
scor
hvid
miljø
##key
uds
##fabrik
Sn
##stensen
ju
Dag
Gam
Canada
Du
Fer
vansk
runde
##stid
slags
##kar
1968
bemær
problem
##ænger
Mån
Oslo
Fre
##stande
fjen
##stater
tekst
##oster
læge
##ligevel
##ystem
stru
tjen
kendes
størrelse
##øerne
##end
##gården
hentet
##uler
##ilde
Wien
indiv
selskab
henholdsvis
mio
##fte
bud
co
forskning
hum
ekstra
Musik
##ukt
tilg
Ass
ryg
##fulde
Dem
sub
##rin
##egn
##ski
udgang
Anders
forud
funger
Svend
##mag
kommunen
felt
aflø
norsk
##tigheder
##onen
##ington
tildelt
Res
private
##frem
almindelig
##ime
strøm
##rus
Richard
my
udeluk
##rift
##svarende
##iforn
Sand
Ark
dokumentar
Gyl
##ows
forel
udn
stri
##anerne
##områder
Ek
Johannes
##stemer
hund
handler
##kret
baggrund
Bon
Dis
Bet
Spe
##ata
indb
lade
rykke
Slaget
hedder
##slam
Året
lyd
Stockholm
##rigt
Mod
former
##åden
##rien
##alreformen
##væk
blå
##unget
##urder
##tagelse
##reve
Midt
tron
##als
undt
Hendes
##omb
Sammen
United
forhind
proces
Ott
revolution
Maria
debuterede
##tilling
præst
grænser
Louis
##uf
Finland
tilt
Holsten
ub
Lund
matem
##ønt
##ringe
van
Stud
ellers
midler
skrift
romerske
Luft
køre
Red
##delig
1975
##ikere
No
Vester
##viste
##fil
173
1971
int
regeringen
tillige
billeder
journal
##mærksom
1969
tilføj
Hav
##ini
Prin
##æsen
bygger
##kreis
passager
##forsk
Teater
##yttelse
levede
##ola
Jer
##ield
Royal
indv
##området
begynder
My
##øver
##andin
##spiller
opfør
skj
##ølle
skil
##line
##sområ
kende
“
Od
foregår
##kket
##ain
##ateg
1976
##akker
##standen
dannede
##angel
Californ
symbol
siger
##ødt
##sbyg
34
Cor
##kvar
##tidige
transport
havet
##udvik
efteråret
##pan
168
##gående
specielt
biskop
##uen
afvik
fac
##kraft
##teres
Præ
timer
1974
amb
grænsen
publik
Mens
##ppet
166
mid
##dagen
1983
demokra
avis
kryds
##parti
##istan
South
Hver
##ska
møder
##omster
##isen
150
berømte
sammenlig
##nerne
bus
scen
##ront
Jeg
hørte
kolle
1967
prim
fund
##ørelse
##its
skyldes
begiven
Let
ube
as
hovedstad
ændret
forældre
##alje
Kan
kristne
##lav
Århus
Nu
##ome
præget
opmærksom
Fort
døds
##ruppen
Inden
endelig
##otte
invol
desig
hvem
sammenhæng
##fer
Skole
luk
1981
##rere
400
Fried
##ktioner
Allerede
stiftet
##tids
sim
venner
##videnskab
åben
##isterne
##elen
position
##ht
uger
##tajn
1943
atter
fører
37
regist
##unge
##usion
foråret
##ikker
foresl
konflik
ford
##lement
studie
##skl
omgang
##oper
Ele
##jekter
anmel
stopp
føds
##andinav
##ationalt
struktur
##mission
Sør
##delte
1977
netop
##gent
ba
sovjetiske
spørgsmål
foren
has
Larsen
opstil
ris
mistede
Black
ære
##års
You
kommet
##za
optrådte
##aktør
fa
søster
konstru
Først
Ole
Lo
##abeth
energi
point
Cro
pap
ens
##lers
Randers
Charles
##mal
konger
forbundet
hjælpe
forblev
kontakt
børne
##ör
Bag
hy
derimod
##dyr
sendte
inkluder
171
stemme
brand
åbne
##årnet
bereg
Nik
Polen
krigs
styre
##gelse
arab
Pre
inspireret
skolen
Ret
sociale
##bens
##agne
ekspedition
##BC
pris
stop
nogens
masse
##ajor
befolkningen
Anne
##arbejder
klasse
1964
Ko
gennemsnit
##løs
##føres
Mu
King
opgave
spanske
mad
##ae
##strøm
##vogn
kvalific
##zen
38
Frem
##ores
##ærede
Wilhelm
oprør
##rie
Eli
Id
kone
distri
1918
geng
allierede
Frederiksberg
hid
Kamp
##miss
##ury
pre
##ksis
Gust
oven
##digheder
medicin
170
Bes
##styrelsen
sidder
nogensinde
vært
staten
central
materiale
ann
Albummet
##cess
##bygger
##ovedet
hvorfor
Middel
stærke
eksempl
hjemmeside
ir
Nap
Sta
##cht
log
populære
##NA
flyve
Deres
kilder
pos
billed
længde
Vilhelm
Var
Lille
skabte
##po
##ukter
Ren
##mod
Liv
167
##ette
##wood
End
jød
ægteskab
Anna
Schweiz
koncent
##ior
##kast
forsv
Ga
Dom
Søren
vigtige
bestående
##bladet
ét
##laden
farve
varme
Smith
stemmer
republik
introduc
nå
##park
Fyn
##læn
1941
partiet
syge
##person
Australien
Jak
kandid
ex
flag
Fly
Mac
Jern
historien
vækst
##sesse
##iør
kaldte
1966
##ship
flyttet
design
Vejle
bronze
udvidet
skibet
Del
##komst
Pl
røde
75
Kap
nab
##liste
##demokra
mission
Stra
Gi
##ower
##ørne
dronning
søgte
##ago
Grand
computer
Bill
##kendelse
administra
turneringen
gået
punkt
##atch
virksomheder
##former
resul
##enes
##rigade
##urer
gælder
kvalif
Si
##fart
komponist
Im
tak
programmet
stjer
fejl
##æren
##ifter
sikkerhed
##ude
Gran
##oli
sogne
##spoliti
Bus
##huse
hem
##isp
Mont
dagen
##ismen
radio
hvilke
##smæss
##bes
Pan
stykke
tvær
##amling
##skende
arm
købte
orden
##oten
grev
##ams
dengang
##egen
##ull
udelukkende
##vention
bevaret
planter
##vning
##bru
Bil
Kultur
Kort
Win
General
træner
heller
1965
Jean
yngre
##unkter
Music
Kat
resultat
Ap
1942
##aljer
##rel
antallet
Carol
hensyn
##ives
##ibliotek
Coun
97
behandling
##elskab
##veks
##øge
giftede
##ones
live
Krist
Flere
embed
skade
udgangspunkt
domin
Omkring
institution
##æste
Hall
hul
##ægter
kammer
##dsen
##ville
Radio
tegnet
Kongelige
tider
##mænd
Rock
https
##afrika
##taler
Bold
minde
farver
Hos
Rasmussen
ve
##ba
erstattet
##samling
aften
generelt
løs
regn
Selvom
Dog
##ykket
##ændene
can
afgørende
organisation
41
##tille
##tra
vise
hvorved
Lind
anlagt
økonomi
prote
kærlighed
##atret
##berst
##lager
##gangen
##gra
Tro
nomin
Ludvig
fang
hvori
Bi
Mosk
##delingen
IF
behov
kristen
##fik
Mol
87
Græ
delt
gro
angrebet
##fæl
afhæng
optræder
Alexander
##mir
britisk
##ussen
III
Joseph
gymnas
nedlagt
##hv
##urs
pil
##atten
##né
lagde
Atlan
temperatur
Hill
test
1948
tele
græske
østrig
Indtil
##AS
##ming
Arbej
egentlig
##vise
rester
Møller
##kelse
særlige
##por
døm
Amerik
Mün
164
Open
##bry
1935
viden
bygningen
standard
ha
Victor
forstå
heraf
##sbjerg
mig
grundlag
##ump
opnå
Kun
1939
Otto
##værket
##alisme
praksis
Social
##vern
Mexic
Berg
super
Ly
##eblik
Skot
kapit
synes
##slut
betragte
##tter
udviklingen
##foreningen
epis
sandsynligvis
stå
valget
studier
kop
stille
Fe
##orier
##bygningen
##iseret
dennes
kg
umiddel
##asti
religion
Fa
##velse
international
165
beskrevet
Harry
indgik
Helsing
enheder
seneste
##AT
benyttet
Born
##see
positi
historisk
leve
Rh
værd
Off
##ørste
##scar
##ela
ap
##alog
fungerede
1963
##omo
##dsom
Eur
fj
Gri
##begyn
##delige
scorede
Kron
modtaget
1962
##ynd
##atik
172
fæst
sagen
Center
fakt
erfar
##stående
øjeblik
administration
Derefter
oprindelig
serv
##grøn
##giver
42
ant
Området
forhand
adel
fugle
holder
##trent
tilsvarende
##ora
hof
alligevel
##eden
prisen
##iteten
forsy
gent
##æring
Pedersen
##bi
pga
##ement
sorte
betegnelse
Belg
blomster
nærheden
##orm
lege
placering
politiker
uh
##ække
beret
øvrigt
##stav
fængs
traditionelle
##stan
parlament
##alet
betegnelsen
ska
eksempelvis
butik
##ockey
##fuld
##øje
Juli
kateg
knyttet
##leder
observ
##uts
##navne
vandet
##alske
Landkreis
publikum
##industri
##sol
##æge
kunstnere
typer
##ux
Boldklub
tilknyttet
39
Jack
forklar
status
fremstillet
##lund
##okken
ske
show
1700
Los
##arder
##fyr
kroner
regnes
##værks
tilsk
påbegyn
reduc
taler
vik
hovedsageligt
lavede
protest
bevægelse
undervisning
salg
sch
eksemplarer
##ademi
rigs
##irksomhed
av
##bor
Kir
Opr
Lee
Mat
1864
##øbt
Stre
italiensk
Max
tidligt
##rækker
Jakob
hvorfra
##lom
landsbyen
##arm
køn
##rende
overv
Grønland
bon
ank
middelalder
Samme
invas
mesterskab
Friedrich
##splan
museum
sad
##enten
fryg
kommuner
##ox
Sten
Star
tilgæng
WW
nederlag
møn
omtale
48
Central
Christensen
Rid
##vogne
##jon
pe
klart
##dam
aftale
kongelige
##ls
##ita
##aser
##uelt
##ues
skel
##fund
kob
1919
turi
Petersen
betydelig
##yld
indgår
dyn
orke
##itau
##olding
##tek
Skib
169
frugt
##ail
Albert
mængde
##abri
herre
Gennem
##aland
##bøl
44
##vejs
##ican
sund
oprin
initi
##iler
##okal
infanter
##olden
app
##redte
vidt
Records
anses
##antas
##entlig
##geren
muligvis
fængsel
flod
55
##ræts
##ognet
skriver
ed
undersøg
##sberg
udenfor
organ
tot
Lyng
Sangen
rykkede
Ban
skar
Vær
intet
##tedes
dækker
43
betal
populær
##alistiske
##con
##avy
sogn
plante
Champion
elever
rang
1946
græsk
fug
danne
nyere
tegn
si
udenrig
##har
Bir
##ublic
stater
stationen
sør
middelalderen
##yttede
##mi
Jul
satell
beskriver
Israel
frivil
trække
Ken
Indien
##kirke
Udover
panser
byggede
Mi
mur
efterful
##kred
Charl
Simon
ug
##agelse
old
medvirkede
dip
##kedet
Miss
##mund
##skrifter
Wash
ført
korte
liste
##historie
##bare
##angreb
##steder
instruktør
##nebrog
Il
##tryk
Stad
ødelæg
Henry
accep
Gylden
morgen
professionel
Alt
ordet
voldsom
##10
Institut
langsom
Begge
indviet
Cast
##itte
##smænd
landskab
arv
##ætter
flertal
resultater
1961
##gruppen
Anton
Neder
##osa
fordelt
##alp
yd
oberst
nærmest
Folketinget
Oscar
gerne
Johann
##kap
##go
##ye
##seende
fart
##jern
##førelse
fuldstændig
##mene
territ
##manden
Motor
Hein
##lægning
##stræ
Kas
medførte
ønsker
levende
##rage
##mor
##bede
ger
##famil
undgå
##iration
ansatte
halvdel
##ktive
Dannebrog
##igen
##aller
##rerede
stof
information
gran
rollen
bærer
fungerer
origin
ill
tilsyn
##ensborg
Dre
spid
Ri
effekt
Brøn
overvej
stigende
##ads
God
##smedlem
omtrent
kraftig
up
##sburg
1917
##hn
##achsen
programmer
Rol
##hjem
Hu
##leje
Kim
arkæ
Washington
##tiver
##kæmp
grå
Jørgensen
Sw
##eland
Marg
fir
etablerede
##ison
vigtigt
School
dy
##skon
ungdoms
besejrede
åbnet
håndbold
1958
borgerkrig
planer
verdensmester
uge
##bevæg
biograf
strateg
##ffer
Nov
konserv
anledning
naz
1914
Tidligere
Cas
Colle
elementer
egentlige
47
##jekk
artikel
overtaget
##ms
supp
##vid
vurder
##ommer
Russ
160
gengæld
##vo
##pla
betragt
##ygge
##offet
FN
Sund
num
Ty
indført
su
Lib
##kunst
love
skud
præsen
##bud
hu
Ari
##ridge
##landing
Moskva
American
pal
pladsen
Stationen
koncerter
brev
Olsen
udgjorde
##tain
##kning
sætte
##sler
Bol
##væsen
begrænset
##erence
sende
forslag
turnering
##än
kratere
slottet
VI
dr
Mary
årige
Afrika
dokumentarfilm
##ænomen
Est
forening
mik
Nords
omfattede
1938
føre
##instru
Schw
##wards
erhverv
frig
discip
kontin
Ob
religiøse
##side
partier
Rob
nævnt
reaktion
##artner
##alerne
Herefter
##wn
delstaten
ring
##sterne
dre
##är
##formede
endvidere
##obil
600
skøn
straks
High
kryd
##ademiet
klassen
Virg
##ladelse
##ordin
1956
træn
å
Ann
Soph
forven
Cop
Van
##alede
##position
øverste
oprindelse
##cker
faktisk
fotograf
Net
pat
1949
korre
bane
deltage
##ård
##varer
altern
##ios
##nettet
analy
ødelagt
udsp
billede
ph
indspillet
Championship
cykel
153
udp
besøg
klima
##gn
##ligheden
forekommer
##lip
1947
indeholdt
huset
vende
samfunds
Kirken
svært
##illere
46
##ielle
try
udvikle
jo
fjerne
leg
rent
##spar
ledet
##eten
mist
tol
##grupper
##arbejdere
Statisti
konse
ophold
Første
Strand
os
##onst
kaptajn
aktiviteter
Dar
fange
forkort
dyg
Californien
Wind
##uropa
neut
regionen
##tegn
adsk
##erende
personlige
bøl
Green
bekræ
Top
##lagte
kvart
##ction
##sg
Rum
##ygger
Press
imellem
bestyrelse
##oren
##stå
tus
##ftede
##ience
stren
rejser
Sjælland
Fr
borgmester
##ön
##ampe
##center
tilhører
relativt
##orea
##shus
##eredes
udlandet
Ox
Nat
premier
##ahn
enhed
varet
forp
eksper
klubber
Vik
##mos
163
journalist
kører
heriblandt
vinder
##oter
olymp
Ant
##ument
##vard
øer
##ays
femte
fremtræ
civil
800
1936
lukket
1952
islam
kvindelige
##amin
App
kilde
sæd
##sene
1910
web
dann
ender
sjældent
##yllands
Brasil
##produktion
##byen
##able
##veje
Festival
foruden
Kristian
Emil
Kra
1959
stjerne
Sv
fer
Mexico
##illa
prins
Sing
##out
1953
lavere
##orff
##amentet
##press
bad
##kurren
betragtes
Ath
##geles
Lige
Magn
katolske
neg
afhol
prakti
opgaver
##tier
Club
##ike
##onc
Sig
##handler
##sken
Die
##inn
Gö
enhver
##SC
##blad
mass
Lø
atom
semif
Harald
##ænder
afstand
##formet
64
jævn
trådte
Ang
Ru
Kro
##kelig
ramt
##tim
him
Bang
skild
klassiske
Cap
selskabet
1957
rets
virke
glas
kæmpe
$
procent
1870
Dam
Luc
Rod
##alistisk
ta
risik
udtalte
1890
slet
omfang
russisk
interview
65
benyttede
##bour
skær
##ikon
ønske
ån
##skel
indsats
lufthavn
53
54
Bas
Son
Nørre
hæren
It
Klubben
Org
1921
jazz
digter
data
##minister
sæsoner
##tit
teori
Gustav
Sant
Politiken
##ytning
afdeling
myt
00
Rud
kirker
Bornholm
##stronom
Virgin
bragte
nordiske
Tur
52
##rs
olie
SS
##vsti
Sor
blan
kræver
magten
##hug
##sministeriet
##dommen
##cks
bredde
Angeles
Esbjerg
ver
1912
reform
ændringer
##akken
##otter
Sørensen
videnskabelige
##ypten
Ingen
jøder
##ktionen
##ahl
##odi
kysten
vokser
##sul
##hjæl
##fol
umiddelbart
diplom
omd
##åg
knap
almindeligt
##motor
##inske
tvang
Europe
##ida
Republik
##leks
##feldt
Silke
1933
##ep
optag
Ali
1937
jernbane
trakt
havne
Francis
##can
1955
1600
bestemte
krimin
filosofi
1954
herred
artiller
hollandske
Krig
varer
regler
Hum
base
passer
Ca
slå
Form
##skriver
virksomheden
pati
reser
##ingerne
##otten
kalk
##forbin
56
Græken
afsked
væg
Ungarn
##iro
##ous
##gelsen
Andreas
ændrede
overbe
##zer
##bred
##ensiv
pladser
##oger
##bed
koncert
##sey
Got
fjern
##åne
svarer
Venstre
##ois
##orges
studerende
strå
##din
Kh
stift
marker
overflade
##ikken
dest
Belgien
udstyret
selvst
Freder
Bank
##ylde
Jesus
kraftigt
Mur
Ron
##xel
##offic
provinsen
kongens
Bayern
osv
tabt
søen
##telser
Famil
special
##omet
##årig
Hitler
##major
1500
Guld
dyre
nomineret
papir
Fir
##kvarter
opford
##inds
Ør
Love
respe
blade
indhold
Jacks
München
49
##atør
##orter
1906
Christi
dør
Hart
Song
kvin
Saint
##bal
##raph
rid
##chester
tema
Gruppen
Dr
##itch
Street
formentlig
##ics
heste
opmærksomhed
symp
udvide
##ani
##æve
##erium
1880
Bjer
toppen
planlagt
##kræ
##sområde
1908
sty
1916
gennemført
##arch
udmær
kæmpede
120
##fen
Sommer
straff
##aktiv
korps
##isterende
##ware
hidtil
falder
##alsk
##lene
##våben
Vig
##gjort
##prog
udford
klubbens
##oe
jor
Tal
##ife
##irektør
##program
tvunget
Daniel
vold
boks
primære
##rådt
oplysninger
universitetet
##gu
konkurrence
sønner
##struktur
såkaldt
Dal
##ibel
Bun
Leg
ejet
undersk
Jord
County
##stol
Gymnas
Jorden
Skotland
forn
anset
May
individ
Færøerne
undersøgelser
tilp
Kolding
grundlagde
##ogen
River
##well
Både
Jim
løn
brigade
Morten
frit
designet
##emed
1000
autom
årligt
oprettede
##dets
Sar
Oprinde
##lings
##aliseret
canad
premiere
professionelle
Lim
forand
stillede
Rød
Ten
Lands
Blo
besøgte
rekl
##melige
1905
hårdt
blomst
162
måne
befinder
belej
officer
with
##kommende
stjerner
Lü
Jour
1924
skrifter
1901
##ancen
bidrag
Således
##ralt
##skær
Ern
oversat
Irland
foregik
mær
offentlig
from
##feld
Sport
overra
##blik
Camp
##ømmer
##bon
plade
es
##kammer
##kost
engang
linjer
##lets
projektet
tøj
forv
udsat
##run
1848
beskæfti
##hoved
1911
##inerne
##cil
##ennis
France
forsøger
sym
Hvor
Bille
Horsens
##edt
##pet
liber
Tw
UN
1934
rummer
##yskland
Lis
erklærede
Mid
produktionen
bosæt
tyskerne
varier
##fug
seri
##ett
menes
fantas
tilslut
##mæssige
##FC
82
kinesiske
ændre
gård
forretning
##ato
She
kørte
aktive
terror
forholdsvis
##cu
##isering
##ystemet
repræsenteret
##tish
##ws
##ografiske
systemet
##ders
hovedrol
væsentlig
##uther
Grækenland
Alli
tidlig
##ligheder
##dannelsen
##fa
Ros
##stedet
##givning
##ivl
##gers
idé
##shockey
drevet
austral
interess
##demar
##dømmet
fremme
forlade
Asien
##politi
##løjtnant
æ
go
kommerci
udgivelsen
##lap
sports
##elin
afd
Engel
mening
artikler
Silkeborg
51
##sky
spansk
Lov
frihed
##gere
##AF
##bre
talrige
etn
venskab
##rager
Elis
Ford
identific
##aben
1904
slægten
armé
mængder
##delinger
##kår
1922
jagt
##stoffer
##sons
Tit
student
##navnet
Ku
starter
Ram
egenskaber
Nicol
veje
forret
ryt
Kirk
hypp
Group
Norges
so
Que
Adolf
##cl
161
Arn
##otball
##sløb
Post
faste
Napole
spilles
##ædag
assist
fusion
natten
foretog
opdaget
1929
offentliggjort
##yret
##stiden
internationalt
##hard
##iter
##miral
##smann
wrest
pension
anvendelse
##melser
Him
1915
anbe
ydre
jurid
samfundet
##ston
##ausen
##ér
##ronten
##pladser
jødiske
Tru
Bul
##vækst
1913
tyde
ten
White
kriti
##pl
Vand
##olution
Adam
##rykning
handels
hverken
##deret
##kont
hundrede
##pel
satellit
repræsenterede
##otan
daglig
effektiv
##akte
hk
hård
mørke
vinteren
##bach
1928
Real
anså
Fjord
##okke
Dermed
deltager
Ry
##stog
bord
Amager
demonst
##fløj
Mog
tårn
Pop
Grund
betale
##col
##brød
damp
##skibet
nødvendig
princi
rand
ringe
udenlandske
##obel
sagt
##str
ordre
optræden
##riere
##kommand
##allel
Holm
endda
begreb
fjernet
tilhørte
havn
illust
sædvan
pige
IV
Jylland
##meter
omgiv
##ologien
ild
##have
News
talte
Margret
bogstav
lyse
eksempler
anerkendt
komposition
##slin
##ulti
1925
Bent
vanskelig
##asc
kanon
gennembrud
Lyngby
Statens
##ón
##krateret
autoris
##ianske
undersøgelse
##rogram
gaden
bevidst
disciplin
modeller
##zz
##dar
Dj
drev
Angel
perioder
Wolf
presse
tag
spænd
Bandet
##oke
##mask
understø
Flensborg
spidsen
##anere
fænomen
##iat
##ras
Hotel
Søn
Tyrk
tekster
stednavne
##ial
##midt
##uble
##onien
##foren
##vendt
politiet
Feder
indsat
arrest
fortsætte
##lys
1909
foretaget
fremmest
arkitektur
##kul
bebygg
sur
##wa
drøm
varede
Internationale
Råd
##færd
##fjorden
Sophie
##værelse
inklus
qu
##rond
Bod
McC
involveret
58
##udere
begrebet
Yo
søge
##reder
##last
##organisation
Kol
Gram
generalmajor
fuldt
##sig
Times
vores
700
Ernst
Portug
##ota
##agere
tyrk
##ligaen
##mål
##ruk
##lyst
Pic
skot
##enh
##bevar
gade
##inerende
grundlæggende
##irig
stoffer
udgivelse
virkede
##korps
anvendte
##fødte
krævede
##ofte
##ikring
Provsti
How
arg
Steph
##wer
##agten
##ül
##gik
fest
dømt
History
originale
##olin
angiv
Selskab
redaktør
romersk
##ækket
util
fattig
udbrud
Lol
akt
minister
besid
##stri
Bob
tegninger
##ejl
63
myr
##tillinger
købt
debat
talent
UE
##lser
udd
hospital
lukkede
naturlige
##sko
1951
plades
Ib
forlæn
##valgt
Chic
klaver
Nordamerika
trin
Kreis
opfattelse
##stige
##vernør
omtales
støttede
##edia
måder
1850
produkter
Ye
1932
indvand
lyst
##kri
##tm
samle
skoler
myndighed
##ory
##abor
kost
hovedstaden
1923
Røde
tilstand
Big
##asien
Jesper
dækket
Ur
##field
muligheder
sådanne
lyk
skol
trans
##iverse
##ksamen
fremtrædende
1907
firmaet
##kreds
indledende
##etter
smal
Jones
##bus
1860
##tikken
##stilling
152
gem
##verden
Lad
Vor
##runden
metode
##TA
Bogen
mikro
College
afviklet
##ressen
##spillet
##ika
One
forskellig
##lit
Brasilien
manglende
Årets
##hjul
eksisterende
virkeligheden
##sa
sikrede
tilladelse
tj
##ømmet
mindste
##oo
158
Compan
##klar
##klen
##æret
1898
isol
bra
##øbing
East
Mic
##vester
priser
fortsætter
85
rettigheder
##arth
Pen
kanoner
købe
lanc
##serie
Konger
CD
250
##kohol
Best
glob
dannes
inspiration
##navn
156
antag
Edward
Cit
gas
##ædagog
perman
beskrev
UEFA
sne
størstedelen
##steds
situation
Awards
tilstræk
Argent
kandidat
57
##ådet
front
eftersom
Ej
##pris
sli
vice
studiet
gårde
omtalt
beskytte
generation
esk
emner
kræfter
84
skat
##eriode
arrangeret
##ety
læse
##middel
##hm
gar
nøg
##ernen
tidens
flytte
Division
storm
##ask
siges
vælge
Virginia
efterfølger
Hø
##ktar
##fæ
Eksemp
Månens
bandets
Mun
Louise
##prin
Vis
afh
##øller
kære
Sognet
dim
##lægge
##irkende
##okse
Brønd
##aval
Bad
##ædvan
1903
##kers
1927
##ægtede
roller
Tex
1926
udbre
ledende
Ev
##vokat
studen
produkt
Bud
1863
karrieren
frø
1899
##arv
håb
betjen
vedtaget
forbindelser
##irkning
##ania
bekendt
million
Bed
oli
bund
Turneringen
gården
uafhængighed
nov
Tekn
Award
##landene
tilbragte
Sønderborg
nøj
Dig
job
##sættelse
Egypten
Hammer
##kere
##prisen
##forhold
Serien
##dels
##ukke
##ændige
beting
##ynet
Tem
Hvid
Uden
rejst
træer
##eladende
Foreningen
Pat
##retten
Hann
erhvervs
72
Aut
Math
blad
beord
##tillede
udførte
sæn
##blade
øerne
##eringen
Kirkegård
##fess
Scott
Associ
##shøj
Ord
##fisk
##wald
Helsingør
##board
##ology
numre
vul
##splads
dekor
##grunden
##ografisk
##jørn
evne
halvdelen
##usa
Long
drog
Horn
annonc
95
paa
ufor
1896
Folk
minder
afsp
bære
Wales
Heinrich
##isch
fremstilling
##inar
Klo
tom
Nordisk
Kv
afløst
navnlig
Show
Bab
vedr
forbi
klost
resulterede
##ua
##kommun
##bøger
##stall
##mæssigt
opdelt
signal
flygtede
strækker
Dronning
musikken
##win
##kran
stav
Henning
kommende
bass
kender
stoppede
ry
Sav
##førelsen
##nam
66
Prem
##stantin
##rib
opera
titler
##mur
opnået
besættelse
str
61
indledte
##agner
øk
Mester
##løbet
##sekret
Lufthavn
99
Elisabeth
fe
beskyttelse
time
##do
line
evner
åbent
##irksomheden
nødvendigt
1931
Prins
hotel
1902
##ils
CO
##vind
##hederne
##mændene
##missionen
cand
Che
erobrede
##inas
##produc
forval
stabil
##klæ
årlig
##uch
##kirken
kanal
sundhed
konsekvens
88
##iber
Ungdom
skaber
##tallet
Wrest
separ
skifte
##dne
Ing
##aterne
biler
##stemning
dybt
finske
Verdens
##sigt
sign
##keligt
finan
##zy
##ason
##holt
##ikt
##ovre
##landshold
Operation
##aard
##æstet
forstand
##gør
##holdene
##cus
##ørsel
É
parallel
##ksp
##iges
##bas
ligner
##følgende
forholdet
##fru
skik
ejede
##lingske
borgere
##æson
doll
##anten
lede
overgang
Cra
voksne
benytter
##chn
##anda
Art
sikkert
##ograph
scene
##medalje
Journal
klassisk
##tillet
Holly
Kle
rette
##beck
##meste
##edrag
Alfred
##una
##aren
Valdemar
pul
House
##astro
grønne
##bel
78
##dørs
myndigheder
##resse
forfattere
71
Ep
1888
passagerer
##jal
forhindre
FI
Ordet
årets
ukendt
Stru
##økonom
finale
Bygningen
##wig
hjul
levet
undtagelse
°
Flor
##abet
62
##serien
##orit
musiker
Pier
bredt
Arth
mobil
kalder
Imidlertid
kvad
efterfulgt
Stan
ekst
Pi
Len
##byggede
hoveds
Columb
stål
Bergen
Wer
Mølle
Team
miss
mulige
##ned
DM
ærke
Olymp
Leon
Magnus
Peters
fortalte
##parken
##udg
59
rute
opdagede
vender
hjemmebane
##sty
distrikt
Selskabet
##sætte
basis
aktivitet
155
hom
Steen
megen
Forsvar
sidstnævnte
74
Arch
polske
Henri
bombe
delvist
Skolen
organisationer
årsag
68
Ribe
##æle
##tikel
positiv
specifik
dræbte
Jackson
markeds
festival
BBC
##forbund
tilsyneladende
gal
Fire
##stam
nærmere
FA
##liga
Tan
diam
græs
##atorium
dommer
betydeligt
##fort
ør
bur
forløb
initiativ
lader
alkohol
oversættelse
76
##museet
halvt
lægger
midlertidig
##ældende
96
159
fredet
##øjet
ambass
angribe
##ami
##imb
hhv
Drag
Bjørn
køret
opstår
##yldt
1897
Will
Litau
kvalitet
##ET
##hof
157
etablere
Verdenskrig
civile
grader
udover
##talen
tu
flg
sætter
amt
Ce
##otenti
Manchester
1866
##ots
##system
Bos
Ikke
inkluderer
fæl
kerne
tvivl
udpeget
##stedt
gæ
Sher
korn
Parti
overført
interesser
##lelse
Mand
last
##idende
Ober
Company
usædvan
betegner
##istri
orkester
##skiftet
påvirket
93
##elte
##stud
selvm
betegnes
nordøstlige
Nyk
##ørring
Gyldendal
tilhørende
##aku
indspillede
##MS
##cept
##band
bla
##konstru
etabler
forskere
##com
##skij
bøn
hind
stab
tilknytning
vedkommende
##livet
sønnen
instrument
belg
mesterskabet
##iets
##ætte
årlige
1884
Napoleon
Preussen
##rul
##tus
Indi
##dy
1894
krop
stik
beskrives
begivenheder
Kur
Malm
Syds
virker
##DR
##edie
##dskab
atmos
populært
digt
##æden
##oslav
##ætning
Madsen
muslim
1895
kapel
Philip
hellige
##asset
##handel
##tific
##aritet
fiske
##sin
Hede
Night
Tjekk
§
##rim
98
##adal
##ksim
##achel
##essen
øl
htm
neden
it
rev
Ferdin
blanding
##vide
##maler
skulpt
bibliote
autoriserede
##herre
retss
##onym
Dub
Sus
pas
provins
særdeles
hastighed
##urch
Ve
##ulære
Falster
Sachsen
73
##prod
##årne
1892
udgrav
86
1862
hyd
##mond
Hand
Bundes
indspil
årrække
##ulde
Finn
elektrisk
##selskab
Kommunen
Dor
hævdede
Frederic
##ancer
##fugle
måle
##bundet
Lolland
resterende
bank
##partem
kre
tanke
Amster
Blomst
luften
##ificeret
AG
spræn
##forfatter
flest
hovedet
nordvestlige
##udstyr
brede
fanger
##riget
##stens
Køge
fremh
##ER
##awa
##pagn
##rins
opløst
Herning
##ækkede
handling
Band
linjen
retten
bortset
##valgte
sukker
##ilæ
##illes
Næst
delvis
forsvandt
hjalp
gældende
sydøstlige
døden
1872
Stille
##okol
udstilling
spi
##lærer
##udvikling
67
##virksomhed
1885
kroppen
##stod
sejl
fysisk
lighed
sekret
konvention
##range
bånd
##øgt
##kultur
skatte
Tyrkiet
tekniske
##zon
Av
##stød
Kors
Jacobsen
##dorf
##mper
##vare
130
Na
Cre
brænd
eksisterer
kommandoen
Les
1889
konstant
kvalificerede
Ky
##museum
lette
Nørreb
befri
invasion
##bræn
##rust
Association
##handlinger
##urn
##ella
978
grundet
##zin
rund
kontor
preuss
diverse
##tering
brødre
Ker
prædik
modtager
##onden
trommes
AB
##fold
vedlige
1871
digte
østrigske
1883
anim
klare
rekord
olympiske
77
##ugis
magnet
figurer
hektar
arti
Østers
rigtige
##ova
Ki
##nets
Esp
##ordenen
bestyrelsen
forår
fødsels
opløsning
##bogen
slav
##ydningen
Skandinav
1200
modsatte
ophørte
familier
##ksel
Jos
engag
ishockey
##danne
##hi
##denes
medier
##styrke
forårs
Alexand
##uddannelse
endelige
79
154
lån
udseende
##vanc
1879
dominerende
medarbejdere
##tation
Berlingske
##asin
##æver
##reger
prøver
##kontor
mødes
Chicago
gods
bydel
symfon
##atorer
Månen
andel
derpå
bekæmp
##unnel
Football
san
Camb
##gange
øget
prøve
inddelt
Ferdinand
##öl
1882
##pperne
sydvestlige
DSB
fysiske
##ness
##føder
##eremon
Nikol
skader
udføre
malerier
Oxford
Sir
##iction
Theod
##elighed
skaffe
jernbanest
con
øverst
##rikanske
telefon
musikere
Dra
Old
tolv
##ropol
mødtes
##bruget
Speci
1893
Ital
drab
##uck
færø
digit
Norden
japansk
##edy
1891
Hamborg
1875
##parten
Arthur
##fors
1861
kvar
kommando
Mass
Wars
kommunikation
musikalske
gennemførte
Joe
administrative
##lage
##lægt
Bart
vokal
eventyr
forfatteren
##fag
##mil
systemer
berømt
kW
##elli
Fac
##yldte
frie
rødder
overord
producere
overvejende
1865
rigtig
naturen
original
betydelige
##deb
##øds
Sun
##ikeren
92
Slag
nået
bidrog
tilstede
ledere
83
##ffen
##ererer
fulgt
følel
opfin
bakter
##geb
##atre
Kiel
forny
såret
yngste
Jor
lens
vejr
minim
dårligt
##oz
##gerne
kobber
AT
kast
lægge
vælger
Svendborg
##BU
misly
indlem
British
kulturelle
##pon
Ridder
Hånd
##iserede
##skal
Brand
teknisk
definition
##græn
udl
træning
gruppens
hjemsted
kvalifikation
##⁄2
Kejser
broder
indsam
prinsesse
repræsentant
Sur
mun
dirig
følte
##rækning
portugis
meddelte
udlø
Sønderjylland
##atis
Matt
salt
skift
grunde
nægtede
blok
mangel
##baner
diale
sejre
maleri
Ö
##iks
cy
System
bønder
rappor
##ube
ingeniør
statisti
københavn
##dags
steg
dertil
Kloster
##alisering
##cean
##kser
Amsterdam
brud
08
tyn
Brun
##føring
modern
indrettet
Hjem
Model
bryll
gratis
grunden
Videnskab
##iness
enke
Europæ
besætning
##sal
1840
1867
angriber
81
##oritet
ton
Mads
##revne
Amal
barndom
wh
##bergs
##jyske
eksperi
organisationen
##østen
Rigs
park
lettere
føder
##itteratur
regerings
##redes
##tellig
##rettede
Næstved
repræsenterer
Haw
##organ
##ellerup
senest
sejlede
Portugal
hemmelig
##CW
Cat
##ubilæ
brugen
spredt
Glo
Vel
sjet
kontro
#
back
kvalifik
##IS
muse
transpor
##fære
##lsen
Mem
flyet
udsendt
Claus
modellen
flygtning
mesterskaber
05
Ukra
bands
rådighed
besluttet
Oprindeligt
Trond
06
##jær
drives
Es
Law
##illing
værket
Gent
parret
udvalg
Amerika
førende
medvirket
##sbor
##skol
Army
tilbyder
producerede
69
afhængig
sæde
##skrigen
sekund
strand
virkning
kloster
stykker
Socialdemokra
Lyn
sil
varm
opgav
Windows
nærliggende
##skoler
udgaver
Røn
koncentration
##ope
91
Sem
byerne
Kunstak
##oni
##rolle
##odbold
koloni
##arere
##kelsen
versioner
hest
##vere
Gold
##stjeneste
Havn
Texas
institutioner
mund
##elskabet
Christians
##ré
##imer
øje
forkortet
Bør
Line
markedet
forlænget
hovedperson
##rue
##shistor
stamme
##los
##stig
real
hjerte
##rette
pluds
maskin
##yo
ke
vogn
posten
Industri
arabiske
forfatning
metoder
bevarede
##jev
##spektør
benytte
specielle
tå
nødt
Brian
Chris
##esteret
Museet
afslutning
rit
##kysten
bemærk
##uff
Franz
Hospital
voksende
indbygger
milliarder
Hær
Tar
opgør
stoppe
Premier
tem
Hader
##geme
##uere
Brøndby
underlagt
sex
##varende
Edvard
##ume
Organis
##ikop
Information
##agtige
##listen
bragt
foræld
##aut
##lish
##skop
##stadt
##krigen
skyde
kendeteg
Enter
tanker
Williams
selvstændige
07
Kla
Nar
langsomt
varierer
##ævet
Prix
Kongeriget
dokumenter
forfrem
car
indd
kirkens
##row
##æves
Hads
ander
##formand
kvartfin
##enny
Bell
ment
havnen
Eliz
fans
Hertug
##MA
Champions
##usen
bonde
sælge
studere
##svær
hovedsagelig
teknik
henblik
afholdes
##kampen
Life
held
indsk
båd
usik
betydningsf
formid
museet
Cour
Serv
Vejen
producer
##ques
radik
##oj
arve
genet
konflikt
projekter
beskrivelse
##ammen
Avis
fremkom
svarede
efterkom
Hollywood
stationer
09
gennemføre
liter
online
renæss
anvender
Charlotte
Konstantin
##skampe
##tekn
skudt
beslutning
##ender
##ængde
##ité
fo
DNA
##forsvar
formelt
##dh
##aya
##put
turné
troede
begyndt
netværk
Spillet
kampvogne
udbredelse
tor
1849
faderen
##dannelser
offentligt
##akke
Lie
Victoria
##grav
Hvad
ansl
maksim
fodboldklub
##klasse
Argentina
##rist
Skåne
Kongens
IC
we
Borger
eksamen
deltaget
modstander
Bry
Mak
hårde
##tyskland
Lil
gule
israel
fortrins
##melt
Bred
Hard
molek
introduceret
ramte
##illeder
##itten
sent
legen
akadem
##holdning
##udvalget
erstatning
tror
revet
trukket
Sveriges
forbinder
1873
øjne
foreningen
Fyr
smag
driver
IS
##ritz
kommunal
handlinger
##ælv
##roner
##lemmer
##største
funktioner
##ides
1881
##app
inform
sjette
##opg
Borg
##ternes
##aka
##besk
##brudt
##liver
video
naturligt
søer
hvorpå
debutalbum
##zig
##jent
kinesisk
deltagere
##iana
mat
invi
oprettelsen
##bolig
Wood
operation
Midtjylland
##anke
skæb
omgivet
butikker
##egne
##gten
umu
afsluttet
##linge
atlet
##sekretær
hang
disku
kolde
territor
Margrethe
##ente
2020
tværs
##kratere
1887
hovedkvarter
##sættes
Elizabeth
1878
tone
##stykke
multi
kanalen
statsminister
Hot
vare
Endelig
##esen
påg
traditionelt
##log
fyldt
overh
samtlige
##læ
Road
##strakt
guvernør
140
ori
##ødder
absol
skove
ødelag
Arab
besat
lærte
melod
astronom
jule
Mogens
kampene
foredrag
##ologer
aller
tunge
##lah
##umen
mer
starte
##AN
##skap
nærings
Gymnasium
materialer
##án
Main
unds
udtale
##gi
drej
konkl
##givende
Holger
drejer
ær
Karen
public
scenen
element
oplevede
##ustin
gram
bryst
frede
Madrid
nærmeste
løv
1868
Rail
bronz
##enhagen
opholdt
Tysklands
Program
Sof
høre
##værdige
##kø
serier
forlæng
potenti
renover
fængslet
##sid
Hog
Ross
1876
beholdt
anerkendelse
##aster
købmand
Time
forbudt
01
dies
mekan
bringe
##kyst
svig
Result
Tok
kæl
skrå
Disney
skoven
tillæg
kemiske
mandlige
##ique
##anuel
##tikler
repræsentanter
Besøgt
center
advokat
Sydafrika
##øve
Bow
bif
takt
studiealbum
Zealand
##stemmelse
SF
anderledes
byr
##gørelse
900
##spolitik
##mølle
##datter
##ugoslav
Idræts
identitet
foreslog
angiveligt
##athan
##eders
Menne
mennesket
konkurrencen
##OR
##rey
##tlig
normale
kab
##ische
soft
that
schweiz
1874
Jane
##ners
Gren
midter
forladt
semifin
årsager
rør
##kampe
kurs
Patri
Water
Of
##stret
skuespil
Irak
leds
##ateret
##uleret
##ordning
Haderslev
Viet
##ianter
etape
ligaen
ridder
##skrip
Gamle
##ssystem
Stadion
opbevar
##ellen
Eb
##pool
søm
iværks
##ården
overtage
Sin
solo
ændring
Christop
nævnte
komment
##anset
##skriftet
Iran
##sammen
Metal
forsvars
Sid
avanc
bunden
officerer
##pil
##ctor
##lande
1869
Trods
kåret
dårlig
adskiller
##gas
##ulf
##verne
Golf
##SA
##anne
Imp
liga
sammenh
styrmand
elsker
Ray
kortere
##næst
cont
sekunder
03
ekstrem
##hjælp
løse
##dannede
kontra
jernbanen
muligheden
vakte
afgræn
Litauen
Øen
Hell
kompagn
kongelig
́
Blå
etc
dreng
##ystemer
betragtet
historier
##kins
dræbe
færge
##ulær
gren
forlaget
opstillet
##øy
##lunde
##acitet
fungere
Nykøbing
europæisk
##rør
##genhed
oprette
1886
Robin
ramme
planen
##fun
Schmidt
mangler
litterære
##æne
WWE
##itekt
##lerup
##irmaet
Anden
diskuss
udnævntes
begynde
##stalt
organiseret
##low
IA
##ikke
styret
tårnet
støttet
elektriske
##inens
##sbevæg
opvar
Pap
##skraft
##istrikt
##omi
bær
Ligesom
medvirkende
##ici
##aber
##ylor
Foruden
frivillige
##wis
Arm
Mah
##historiske
##cia
AC
sav
##gårds
Stein
vilkår
yderst
henhold
Afg
erobret
##står
meldte
##rejse
##fj
##agtig
##aling
Eric
##umenter
tilbaget
##19
##ava
##dsel
##icil
drikke
indførte
##stads
1877
laver
parken
turner
Sj
tæl
##loven
præg
##fundet
Barcel
genstand
resultatet
Nederlandene
##gren
Aft
Greg
optrådt
Inge
##kelige
tilhæng
##bær
European
##tegr
##ræner
Anti
spise
Romer
parker
loven
teoret
tronen
##smæssige
##BA
##væl
genstande
89
##ause
##rost
##købing
##sområdet
don
1830
praktisk
sj
##adel
##auer
##mærke
Folkeparti
bebyggelse
04
Lem
Axel
delte
forbry
Dy
Out
Bran
##givelse
##lenburg
##sprogram
spredte
premierminister
mæl
kæreste
opførte
Frederiksborg
##hånd
Huset
udsendte
Yder
prom
##jektet
daglige
Sab
plat
matematik
not
##bygge
##rute
hyp
kam
02
IK
tjente
##iki
##gelig
botan
##igheden
##ospital
beskæftiger
Øres
forbund
fortrinsvis
##hire
NAT
##berne
##usalem
Julius
celler
##stro
##historisk
##ky
Mos
Corn
breve
##smål
prak
prot
søger
fiskeri
Eurov
alter
eksisterede
##has
che
Lord
udsm
##festival
ærkeb
##tillingen
tydeligt
##instruktør
anerkendte
Naz
Hele
union
veget
Demokra
landsbyer
##rek
##omfru
strid
Guadal
Holbæk
flygte
hjælper
stillinger
Efterfølgende
Jud
##okset
Penn
avisen
##ough
##astrup
hunde
overlevede
##slen
##tions
Part
udtalt
##edig
uen
Juni
Force
besejret
Må
##udan
din
##elter
Laur
##asinet
##letter
Stand
kortfilm
Maj
Mort
malet
fornem
distribu
placerede
##pol
##bevægelsen
Copenhagen
##chi
Liber
deler
beregnet
Foren
##stykker
1814
permanent
##AC
uk
##drag
ligge
Hadsund
##strækning
fremgang
##akket
##rationer
absolut
##mis
##insk
##orped
cover
##ulation
##roen
Flem
Roger
##ukas
konsul
lo
##keren
Blue
harmon
hævder
medlemmerne
##felt
##horn
opstået
##ria
##ævne
udløb
svag
Landet
listen
forstær
hvortil
Day
Person
smukke
yde
øge
1859
mulig
monark
##ischer
formåede
fremmede
kraftige
vedrørende
##odel
gri
årtier
##smanniske
kamer
##ragende
Johnson
##eds
Als
##berts
medie
malede
oversv
selvmord
Bladet
koordin
kritisk
##ual
ker
frygt
modsat
stadion
Mes
nom
##må
##utt
Eurovision
##prins
Pres
inder
Reger
omkom
sjældne
fanget
##kert
Endvidere
##EN
producerer
Forsk
Young
skyld
##sselskab
afskaff
Frederikshavn
##tigede
redde
felttog
##cke
##yrer
evt
børnene
indtryk
kapital
løsning
##ongol
##ultet
bran
sangskriver
##fan
værdier
Carolina
tidligste
udvidelse
##dæk
Nye
anb
##figur
Jeff
bold
##lænderne
forsvaret
krater
selvstændigt
##fo
##book
##orks
ideer
skilt
broen
##rerende
normal
Barcelona
##sklub
DK
##bræt
##korea
rede
##ording
fastsl
Forening
guitarist
##wan
Jen
kos
lic
ledede
##nene
##somme
##tioner
arbejd
94
bol
NATO
episode
110
Fox
kød
syg
##olleg
tons
##industrien
kir
##serer
flugt
batter
snarere
uafhængigt
##udi
Society
udbredte
nødvendige
derfra
angiver
##shav
##tist
##conom
svarende
Bach
udfor
Historie
##OS
##ima
Nan
oplag
tilbud
##rine
poly
overens
instrumenter
##bror
##dømt
fan
forsynet
mytologi
ansvarlig
strækningen
##zo
##eken
Fem
Fisk
Lange
Stone
vider
ol
##skan
rul
piger
socialdemokra
##indt
##beret
1856
udsigt
briterne
samarbejdet
##ængden
rettet
vokset
teksten
billedet
Christopher
offentligheden
Hem
fulde
Jerusalem
1857
kors
halvøen
tilskuere
Virksomheden
##vad
##olet
sager
Bib
UFC
ejes
##partiet
efterlod
skyldtes
Pak
##ingle
Rumæn
indtog
romanen
ombygget
Ligeledes
125
Pierre
hollandsk
popularitet
Gir
skin
##vandet
manuskrip
##gor
Hei
##akiet
##yrdes
Test
bevare
startet
##cast
Get
bin
Sej
new
##ateriel
kontrovers
##ji
Live
dans
##undtvig
##rangementer
##uba
##yper
Liver
gives
kritiseret
##rod
Plads
liges
Castle
omdøbt
Rolling
indgået
mord
batal
##TV
##ugu
##kker
##ieret
Skive
indgå
Spring
præste
##unes
Føl
Jesu
Church
##ateriale
ansvaret
Gib
mak
1400
##ubilæum
deriblandt
##model
interesseret
Up
##ture
##præst
bilen
sidde
Academ
Cur
besked
bevægelsen
opposition
##kant
skæn
helst
##styrker
Taylor
afspej
##ardo
##cert
##edyr
##sbanen
Volks
deraf
undersøge
##olph
Are
forveks
latinske
##othe
1852
integr
Poulsen
motiver
forgænger
##uppet
køkken
holdning
##gårde
Steve
menneskelige
Lux
Athen
Selve
passe
vidne
Branden
Fredericia
forståelse
Alp
sko
Sjæl
reformer
##orme
##øbet
##ittle
Minist
##afdeling
Francisco
##gej
##alads
lokalt
##ito
Afghan
hellig
markant
Corp
livs
spur
##kanten
forsvare
personlighed
##AR
##ism
##olds
ress
##sproces
personlig
##SCO
##car
##aton
##isted
tung
##mig
Vind
##ommern
service
folkes
rod
##schef
pers
##førtes
##lægger
vises
1855
149
Gil
Sec
##yth
stj
1100
inse
arten
bade
Monte
albums
intellig
lejligheder
##amfund
Europas
landsholdet
Parl
Sorø
forbedre
stiftede
WCW
omdannet
##itation
mellemtiden
afslutningen
##htt
##ibi
##lens
Tob
all
bæl
pav
Cont
Dens
sympt
reserve
flydende
##drup
##tens
spids
betrag
invester
skak
##strand
Great
Wagner
holdes
torped
##bak
##tav
Træ
##dalen
kart
##cklenburg
forsknings
Tu
##umin
vit
##holdelse
hå
dæm
##skilt
tand
udgiver
sed
##raham
Play
plas
##amente
##otiske
drenge
##gre
##ryd
Tids
konver
##ado
Ball
Ofte
##dsiden
forbud
konføder
blandet
##skj
Pra
mæg
1854
pian
Holste
Begrebet
##sbygningen
hovedsæde
indbyrdes
australske
ler
##rerer
mode
skiftet
katastro
##BS
##attle
major
##smanden
tilladt
forinden
navngivet
benævn
##ody
##vat
##EC
MS
Lor
##fjord
grun
amatør
besøgt
hertil
hjørne
forsamling
##ake
##arden
manager
Statistik
##wich
Mau
kog
##årige
strækning
##mid
##usti
konc
##rykket
Skibet
bydelen
øjeblikket
##amme
Rose
smer
Walter
forlag
hænder
##forskning
konservative
Fel
Pil
ilt
sum
Sidst
Santa
Europæiske
afdelinger
bemærkelses
##bran
mia
##ylvan
Guds
vides
Arne
forhandlinger
##kse
##rieved
##mæssig
##enti
Moz
1300
Kent
Helle
plader
##klin
Hau
Forlag
forbrug
Ric
Way
##igan
kant
##værdig
Hvert
helikop
udvikler
##DS
anbef
dybe
skaff
##VD
##vne
drive
Hiller
##konkurren
Leop
##erioden
##canal
spej
aftalen
pludselig
##kin
##ellet
rest
##oderne
Ukraine
partiets
hurtigere
##die
##rier
selskaber
##furt
ner
##alismen
stillingen
##itu
lavt
pave
##aljerne
Caroline
kontinent
##aga
##fris
DDR
Kenn
rammer
modstandere
Svan
hænger
pågældende
##avisen
nation
tilfældet
##mu
##rogen
vilde
bibliotek
canadiske
Guadalcanal
Dun
hard
##ksikon
finsk
fysik
motiv
Kampen
Leip
kreds
afviste
pædagog
værende
foreslået
##abe
Kil
mit
1851
Mike
##faldet
Bladene
Nikolaj
##ni
##hul
##leb
##utsch
simp
AS
kørt
##elling
##kir
UNE
evangel
##afé
##vre
Navy
udtry
godkendt
##ædet
analyse
fattige
undertiden
mødt
##sætter
ophav
jul
gæst
bladet
løbende
sammesteds
offentliggjorde
Ast
Gammel
##inalerne
##30
##ero
Oh
Jag
Olav
kredsløb
Wat
Konge
mysti
indian
rytter
princip
##amo
##opper
romaner
##turnering
regionale
##ki
##lima
fylke
registreret
##aux
Grev
omstændig
##anna
mot
##iansk
1842
Anth
grand
fjendt
fællesskab
128
døg
sættes
Mül
Nobel
planet
bosatte
ressour
##rone
##uten
##isere
Byens
præsiden
teknologi
traktaten
alternativ
##teren
1853
kore
væsen
Rub
Lake
Sprog
151
WWF
##lever
##øllen
##rosoft
betaling
foretage
##stab
Had
##cho
Aa
##stjen
##aftale
polsk
tilhængere
Seb
Web
States
##tivt
VII
dokt
erind
opkøb
Danish
aktivt
kombination
##vang
modtage
Inde
Stig
sender
tiltag
Liverpool
##bord
graf
baner
straf
stået
singlen
##handlingerne
##alj
Hur
Science
dannelse
*
##ther
##ninge
##sbane
indkøb
sejren
studenter
kommission
##ated
##ungen
State
Gott
Kurt
Herman
gæster
humor
slutter
1858
erst
Wilson
Abraham
Hjørring
Microsoft
samtidige
bevægelser
##lok
Mari
forber
marine
opførelsen
Cru
gru
vor
præc
trop
bekym
Federation
anmeldelser
fase
undervis
##uro
gyl
1845
Storm
assistent
EP
Estland
Johanne
##ray
spir
danse
erobre
nordisk
væsentligt
##gs
Reich
split
Ludwig
stillet
regiment
samtidigt
##minal
mine
holdene
Skandinavien
Mars
ekskl
opdager
##bol
værts
Østersøen
arresteret
karakteristiske
##alth
##semb
##vande
##sloven
Brown
statens
begyndelse
Mette
UNESCO
benzin
derudover
Gade
vokse
Syrien
afsluttede
Bis
fjorden
Bibliotek
flygtninge
##bom
##ødet
Nørrebro
##dage
ort
##sfolk
bisp
sati
irske
##division
følelser
ox
##live
Arena
Josef
forsøgt
tilføjet
vild
##klæd
##linje
##ttende
##sbygning
støtter
hovedrollen
forvand
Forenede
##ello
Ener
vilje
##viv
tegl
##istens
##forbindelse
iv
##sters
Gunn
##øgerne
##kredsen
muslimske
uafhængige
##öm
Allé
løbe
ulyk
hvidt
##nie
##itiv
148
Alban
Lewis
minut
Stones
##axe
##gener
Johnny
aftenen
overlevende
##gift
falde
erstattede
##uz
##haven
Ever
Erhver
fremtiden
##II
ungar
Partiet
Sep
Alminde
Mecklenburg
Nyt
1847
##fronten
internet
Kel
Vas
Fælles
udgive
hæm
scener
fremragende
##alin
gif
dvær
bevis
##aliserede
Jyllands
##løber
stol
rival
##ulering
rummet
bjerget
håndværk
Airport
forventes
##alys
##scenter
glem
burde
afgang
skandinav
##åds
raket
granit
myrdet
Wrestling
##anti
pig
##fladen
Elvis
regioner
århundreder
##bek
##ular
Matth
boliger
##sborger
brygger
tyrkiske
##korn
##skin
Sær
sår
##assel
##vider
partner
rapport
diameter
omhandler
##oto
##fugl
villa
modtag
##systemet
Institu
##anes
Trom
Vietnam
dagligt
religiøs
besiddelse
##vn
##akes
##edal
Ekstra
krydser
besøgende
Inn
ere
##skriv
idræts
##ebra
Adel
Moun
helbred
danskere
##ief
##itor
##teborg
sendes
##redaktør
krigens
Møn
##marken
prøvede
Hob
underskrev
##IA
##achim
jødisk
skridt
##okalt
Bost
erklæret
stranden
Holstebro
Ash
Hon
turist
##marks
Bour
nedb
dalen
match
bjerge
længste
singler
##hov
Ges
Dahl
vedtog
fremmed
overfladen
##cyk
Islam
##direktør
##samlingen
software
##ced
Thy
told
bryde
jager
nedsat
alvorligt
billedhug
Az
##lien
IAU
kup
##nummer
gøres
dygtig
Konserv
nummeret
bronzemed
##HF
101
Parret
sygdomme
alvorlige
Sydamerika
##asen
Kristi
rækker
juridisk
Prinsesse
##bat
##vald
fås
##general
kortvar
kristendommen
Has
Tib
Thomsen
Efterhånden
almindelighed
##40
##aet
Ti
møb
repar
dato
næppe
henrettet
elektronisk
##oker
Kos
Mov
Mør
Ris
fødselsdag
Sat
non
Grant
kæmper
kapitel
udarbejde
lib
Side
ørken
##gy
Ned
##dspil
##limer
##untry
medfører
jernbanestation
##nis
nært
##udvalg
rektor
##tainment
overgik
centralt
##rens
##gjorde
greve
reduceret
orgel
vinkel
Florida
udgivelser
##lid
Cy
Islands
komplet
tilgængelige
##artet
ansk
højst
punk
rødt
tennis
Profess
arabisk
eftersp
overalt
uafhængig
naturvidenskab
Au
Mas
Pot
Seri
mindes
fortolk
Jugoslav
##ells
##smet
##krater
åbning
##iliteter
##jyllands
nutidens
Retrieved
provinser
tilsammen
##rac
Fu
bygnings
datidens
Ok
spekt
moleky
##verdenen
Joachim
trækker
##mas
IT
optræde
betegnet
##stillingen
##strå
Pin
Town
ulov
beton
##gav
Ah
kræft
##lint
Cam
Jar
arbejdsp
militært
##skade
Glob
##filmen
miner
spring
##kol
##zant
115
høv
##oseks
Moder
Cambridge
##skes
##vileg
oppe
teen
##haver
Bron
guder
Tønder
forlængelse
##bur
##blem
##færen
Prisen
medens
Service
Scot
##ionens
enige
udform
beskrive
Historien
##kil
##akon
##hjel
die
##brand
##deler
##round
spæn
Filip
##opol
Hag
ruten
Leipzig
syvende
Eu
detaljer
grundlov
beordrede
tidsskrift
##spon
skotske
##somt
Frø
Ide
Doug
germ
styres
tilbød
belgiske
##df
##mat
Hug
tages
dårlige
konkret
korrekt
fars
hits
talt
færre
tjene
budget
ration
##sforhold
Stephen
levetid
Sydslesvig
1815
part
##atoriet
Little
##aret
Sky
##aljen
leje
##vokset
sjælden
patienter
Tony
adfærd
besatte
brændte
Brad
Good
html
bevæger
individer
døtre
##sområder
oplysning
samlinger
##ega
##clop
infl
##search
mestre
Mellemøsten
##oget
Boy
##agnen
Aage
##celler
##posten
trykt
nedslag
##én
Chi
##floden
showet
##familien
beboere
ledelsen
selvstændighed
##sere
Inc
##ppede
Cong
leveret
1846
brun
Nyborg
længst
bestand
ceremon
##omon
hovedkrateret
kvæg
Rumænien
bjergene
fremstilles
##inten
##onsor
Især
Lincol
##ingsvalget
forfremmet
Os
##iteret
Gener
##deløb
Brit
tyder
Kongen
Natura
##aus
Lab
bibel
fremgår
agg
dro
Ency
egyp
##grunds
##vering
mærke
##amester
Jr
Vo
hæ
len
fork
Str
morgenen
divisioner
##IN
##nat
fare
brasil
Hamburg
##21
Ut
##rater
Academy
##itat
Bat
down
optog
inklusive
##kommanderende
##oration
guddom
eksport
forsøge
opbygget
Entertainment
##kong
hyl
ure
tank
march
Jersey
teorier
stigning
undervejs
Cri
Gul
Kam
##klubben
foregående
##rut
##zburg
øens
Elect
føres
afgjort
stående
Afghanistan
##ælt
##astor
terræn
frekvens
indstillet
Tang
herfra
oblast
omkost
Billboard
situationen
københavnske
##ops
invest
medlems
gre
Kanal
Fog
Cher
Pass
Vlad
eksil
Jordens
##stationen
erfaring
igang
konkurs
officiel
Institute
beskyttet
##sor
##åen
Wi
##aria
##ledt
##seud
skifter
Trondheim
konstater
Republikken
Gun
##ureau
Sorte
skønt
Parken
fremstille
hjemlandet
traditionel
Rem
kran
##æsonen
Cross
Business
Rosenkran
Cir
##kommen
Ocean
flade
afvist
fisker
opføre
##egnelsen
##ums
##fran
##vidt
147
Rej
##bunden
##alition
##andidat
Tennes
nyheder
punkter
Nordsjælland
mistet
Venedig
institut
##bourg
sens
mistæn
fjender
##tets
##analy
##stået
nede
##skridt
total
##stjerne
bundet
faldet
slaver
sælges
##rugterne
søskende
sædvanligvis
Nær
att
Friis
fæstning
opfundet
á
##pag
##tika
##work
alm
moh
##dømme
##spektiv
Charlie
##uespiller
temmelig
automatisk
arkæologiske
Vide
arkiv
voksen
##het
Tj
##part
diagn
Bulgar
Dublin
Hannover
næststørste
territorium
##ræb
sving
nævner
profil
vidste
##rafikken
kastede
sky
Prag
##hausen
bosat
Golden
jordsk
##delserne
eksplos
restaurant
uv
##hein
##ople
1844
Vers
##eriets
trommer
Middelhavet
spørgsmålet
søj
tusind
parlamentet
Sax
ånd
##itive
##blemer
endog
##talende
##tigelse
eksperiment
internettet
Vesttyskland
##ert
Bou
##kaldte
plynd
hensigt
udstillet
fremtidige
##cal
##hej
##orld
##værd
Jun
dam
Jonas
krone
tørre
defineret
yn
##tius
##light
slår
Tidende
teatret
demokrati
Ivan
##præsent
sektor
komedie
fortælle
Grønlands
##oma
##tur
emne
departem
musikvide
##DA
##sem
Krog
hval
##smæssigt
Atlanter
##egel
Dres
fødsel
uanset
Beat
gader
Margar
Økonom
##visninger
preussiske
##cs
Wol
Stats
ortod
varianter
Sul
##undborg
sårede
##DF
Wik
Arten
##ronningen
Hillerød
##vø
##ires
##meret
riget
##estående
##rejsende
Richards
påbegyndte
Universitetet
##ili
Ala
##bedet
Stev
dybde
alvorlig
Mr
lit
##right
fyret
værkt
##ression
floder
afsløret
jubilæum
Grundtvig
Rosenkrantz
kunstneriske
Not
Google
krigsf
mindret
##mans
Wes
alf
nav
##bunds
##risme
operationer
kommunistiske
##ype
##uset
NAS
indvi
turister
ja
rem
røg
First
##ællingen
artilleri
overdraget
##kær
##læge
Cath
##midler
skæbne
speciel
##forsamling
forskelle
Run
##runde
##rukket
##spring
dække
##konserv
matemati
##skabs
Marc
Orden
antik
Metropol
##bank
##uppen
Kjær
##anisme
Muham
Techn
Vinter
kritis
vulkan
sekretær
påbegyndt
##aki
ST
Hessen
dagens
positive
overordnede
##back
Jam
placer
udvidede
Frankrigs
See
nul
Fader
##ference
fabrikken
udstrækning
##dant
bryllup
motorer
Jernbane
##ES
##andes
nedsk
Akademi
##kspedition
komponeret
trommeslager
##sban
garn
Formålet
befolknings
##chs
##rummet
vanskeligt
Ill
##sejer
Have
Sigur
eskad
sejle
Contest
Knudsen
Columbia
camp
Theodor
landskabet
lovgivning
flå
Mose
hjør
##sering
##forbundet
menighed
sammenhænge
Hil
løst
målet
Slagelse
praktiske
##amerikanske
konstruktion
Dur
Skt
hor
Müller
tillod
indgang
Tennessee
tilgængelig
##irs
##uge
##ints
##wick
146
aspe
forstærk
hovedrolle
Ton
bygges
forside
udtaget
kolonier
ødelagde
##okes
Fug
fla
Broad
ambassad
##oduktionen
Davis
kalde
##biler
##loder
ledte
solen
vildt
lægges
udveks
dollars
passerer
##sstil
Luxem
himmel
kunnet
guldmedalje
##thers
##marked
Villa
senior
spilleren
##ute
kredse
truede
indiske
install
brødrene
##IC
Tele
##ariske
##førsel
gammelt
pladeselskab
Dertil
filmens
sproget
naturlig
##vit
opgive
##rationen
kendskab
DS
##alls
##grad
##nens
##alist
##stone
formoden
nationer
protestan
DC
fav
##azine
##drift
Marsh
læser
Mot
lad
Chile
Tokyo
advar
##stifter
##ylvania
Thisted
folkeaf
##bjer
##øvede
stemte
##ting
##styret
aviser
##och
Andrew
hjerne
politikere
Ori
pak
huser
risiko
redaktion
##skat
##træk
medb
lyset
valut
endeligt
Kjøbenhavn
eksperimenter
##ih
127
##fader
human
##ahr
##lis
##sfri
Arts
patri
adskilt
##mesterskabet
Bond
målt
Gabri
Meyer
ottende
Æg
Udt
fasc
##inus
##stør
Gord
Floden
Letland
##dri
##pit
Ug
##lege
Squ
##yttes
Molt
kaldtes
sa
##både
Teg
formue
bredere
nogenlunde
personligt
Brandenburg
succesfulde
##gøre
1839
race
besvær
borgen
##holdende
Lincoln
kvadrat
udspring
vinderen
refererer
øvre
svære
ligget
##retninger
##sætninger
bul
dages
gæste
##danmark
Bremen
ægtede
offensiv
folketing
Mind
Grupp
følelse
krise
tendens
virkelige
menneskets
demokratiske
præcis
gentagne
##kat
Fak
Fen
Hed
tav
Grav
gjal
jura
utal
##astiet
europ
forføl
gravid
forstyr
skibene
egenskab
faderens
ekspeditionen
DVD
døbt
uheld
indlemmet
understre
Christoffer
##sex
Rige
Frankfurt
statsborger
out
Bugt
vagt
##hertug
##kørsel
Elekt
filmati
teologi
##head
Inf
##olket
Produc
gjaldt
tunnel
dannelsen
Jugoslavien
SE
##anni
##ånds
Ost
kemi
Boston
Leopold
historiker
##aja
##hel
##jan
135
Skj
1841
ansigt
flåden
udføres
nationalpark
introducerede
123
mix
etage
##karriere
Resultatet
efterkommere
##okk
Spor
##vendte
celle
Nicolai
afhandling
##FL
##nep
##oslov
spar
sult
brugere
målmand
##atz
##desp
145
##ynder
press
Handel
Holdet
udgangen
kontrollen
ræ
##værn
Bli
Nak
##institut
##uet
Dø
##ebyg
##erske
indik
portrætter
arrangementer
Fla
1843
##rikter
Mikkel
omvendt
fris
Gentofte
350
##ævnet
genud
stede
##ricitet
henviser
tegnefilm
udtrykket
Australian
fortælling
præsenteret
nødvendigvis
##råb
##slet
106
afdøde
eksistens
Tyr
pdf
gens
##øderne
tilgang
##alløjtnant
påvirkning
##okl
Mount
Derimod
Simp
skarp
tæller
America
Mission
hemmelige
medvirker
forsvarede
Superligaen
Wo
##odes
138
Ola
##spris
redig
indkomst
kejseren
##hyd
##rids
##steg
##færdig
##ladser
muligg
reklame
##pas
Mit
##äl
##mers
##metal
Dire
Pers
skræ
læste
##elmotor
Econom
##sætningen
Familien
forsyninger
##bout
##ægte
Bull
pleje
etager
hvorimod
nedenfor
Transport
nyop
Baden
Samuel
planten
##fuldt
Kath
Udvik
##folkningen
##inter
idømt
##bygninger
liberale
##slov
Samt
##enteret
##lægningen
betydningsfulde
##cle
##ele
Hy
Hå
Lej
##asjon
##ædrel
1820
Hvide
Roman
litau
Artikel
Hermann
Teatret
forbere
##øya
126
##reber
trag
Tyske
##gl
SP
##jysk
AaB
##srige
præm
Banen
regnet
forvent
spillefilm
##amik
hylde
anklag
Arbejds
##tighederne
Lam
play
##linjen
Korps
tegnede
erstatte
finansielle
##cken
##fast
##gern
aff
enden
‘
##api
##bun
Civ
Benj
kopi
kunde
manden
kostede
##esi
cd
son
##sketball
skuespillere
skuespilleren
ga
hø
dal
mem
Gods
Penns
kombineret
##deri
fremb
afløste
Håndbold
liggende
udstillinger
Oluf
Indre
##officer
##munition
##uropæiske
vikinget
konflikter
etableringen
##rukne
1837
udpe
ihjel
dukkede
113
Fle
Flo
##ægten
Rest
pans
indeb
##attedyr
hurtige
udnytte
hvorvidt
manglede
105
##skove
Korea
tjener
##staterne
##ße
AGF
flad
##skirken
##fyn
##olie
But
Kul
akk
##inding
##staten
suver
##kvarteret
kompleks
Petersborg
##ffel
##ulere
##ækken
Birg
argumenter
geografiske
##itan
##skar
Helm
##oldater
beviser
Nordafrika
grundlaget
##reich
uret
Sebasti
dernæst
komplek
medaljer
forklaring
##nor
arme
diff
##dernes
bebyg
lærde
##familie
##væsenet
lærere
synger
##eselskab
oversvøm
videnskabelig
udf
score
dukker
helhed
slutte
Alliance
islandske
turneringer
##bury
##agter
##forsy
vegne
vælges
Frugterne
##nik
##broen
##delelse
sammensat
SA
Dyb
Uds
rens
##grønne
##meligt
siddende
au
armen
befandt
Historisk
Kalundborg
##egård
##worth
inten
syntes
Nordjylland
##hor
##vst
##ents
##yram
Tiv
##titel
pause
##less
##urist
Nick
genre
Kristus
Blomsterne
Stillehavet
##arup
##misk
skrives
fundament
Stu
Back
Højde
perron
stoppet
arbejdere
##alg
##hou
FF
##yens
104
Alf
Donau
køretøjer
universiteter
sammenhængende
##ivt
##olde
Byr
seg
Alan
Beck
Kevin
bombar
musikalsk
##anon
DBU
hab
Hong
##skifte
Forbund
holsten
blandede
homoseks
##rett
##riks
Stav
ofre
spør
##ælling
hersker
kommercielle
##irtu
##ofon
129
Deb
tun
##rikker
Herre
##ulerede
stærkere
##miske
##stenen
Solen
Michel
fjerns
tildelte
begivenhed
annoncerede
forestillinger
Bø
##ross
Rio
Cirk
Dram
fint
##utsche
##levende
forlader
stemmerne
Ringkøbing
##sek
##ather
1810
November
udarbejdet
##dis
##miljø
Sang
##kester
##ingevær
admiral
anlægget
komponister
formodentlig
##yggen
##skommun
German
busser
kapacitet
##lejr
ATP
aktion
bjergk
Walt
trium
fon
hud
drage
mineral
omgange
ødelægge
Carlsberg
avancerede
##nd
##roy
Dit
bem
##plade
rigt
Queen
pseud
tillader
brændstof
familiens
underskrevet
loy
##stren
1836
grave
simpelt
usikker
yderste
juridiske
klosteret
Gh
118
Sne
Færø
Liga
##geriet
enorm
smalle
Göteborg
opfattes
traditioner
##mit
bist
Bruun
Class
afgørelse
136
hørt
drama
sande
##lutning
Volksw
beskad
Eksempel
##ila
##imir
Wür
bis
1835
Birk
Just
buddh
løfte
tredj
tilbag
operaer
sangene
princippet
##gået
##ights
roer
bakke
højder
meters
undtagen
boet
indrøm
individuelle
##RA
##ledon
##issipp
Nieders
romerne
teorien
kampagne
maskiner
Mesterskabet
##nok
##wen
##chaft
Wimb
munke
racer
##undskab
invader
klasser
Følgende
def
##reres
##shire
##ukket
onde
auton
sikkerheds
##organisationer
##ée
##leren
Rein
turn
synge
Benjamin
byggeriet
Regeringen
ærkebiskop
##dist
##yren
Hør
ing
Christen
afhænger
ledes
Fi
##ttet
Hom
Nav
##ensive
vidner
dyrkede
videreg
por
##lines
##foreninger
tilstrækkelig
HMS
Hab
vejer
opgivet
Johansen
monteret
karakteris
Næ
##cover
##ustit
Kate
Sicil
fyrste
kanaler
slutning
>
##uay
##dium
##rica
##erencer
luther
muslimer
##25
Braun
##centret
licens
angivet
moderen
åbningen
lufthavnen
##ais
ib
##ryds
Gaz
udøv
vore
integ
krige
veter
lokomo
ryggen
variant
Løg
Wis
##færds
Juel
proje
##punktet
##ouri
ræk
Riga
brem
rene
##blomst
elite
vendt
Douglas
vandløb
udvalgte
sammenlignet
##ird
Glas
Canad
Rhinen
Wimbledon
Mississipp
##bers
Burg
Your
Børne
søndag
forsanger
##ifik
1838
##stationer
væsentlige
Hof
1807
##ænding
rekonstru
California
forretnings
naturligvis
##imar
cyl
Børn
##gennem
##klassen
bestil
##tagelsen
episoder
Syn
##ampton
Death
sønder
Encyclop
passende
Corporation
##ejst
lukke
truet
simple
klokken
##æderne
Allan
agent
bølge
deles
konged
Kommand
historikere
satellitkratere
##lejet
jøde
klippe
noteret
Hvidovre
landbrugs
Pennsylvania
##ovs
##ifer
für
skala
Gunnar
stiger
sælger
##bent
Rap
##præget
Stort
##cc
##hem
##eler
Cer
Hjer
typen
hoffet
etniske
færøske
principper
Rac
##elius
##vises
Wild
apote
Holstein
##arne
##sper
key
was
teks
Bruce
halvø
antages
Østerbro
##frastruktur
124
væb
tolk
spred
fætter
filosofiske
indbyggerne
##mad
Vid
Shar
slam
Dream
grene
digitale
##uan
dra
svagt
##vninger
##mperatur
respekt
omstændigheder
##oca
krom
begej
reelt
skuff
kampvogn
generelle
##zone
Bush
hale
lejr
argent
driften
##pot
Gas
##farts
Power
kaval
##anstalt
Kirsten
skiftende
Fro
kas
##vidde
##ævnes
fedt
irsk
almen
begav
palads
##ransport
mønster
inklusiv
ho
Log
Sub
Mach
##ologen
desto
enorme
leverede
Alligevel
sygdommen
##kob
##rød
gn
##wall
Wel
Dist
nabo
Major
beløn
udryd
optagelse
eksisteret
sognepræst
kvalificeret
##box
##him
Flemming
retninger
landbruget
##IF
mej
Kont
kunder
sikret
alliance
##beskyttelse
##24
116
##relse
NASA
Trin
Adams
perfe
udfol
ballet
##speriode
kulturer
motorvej
##ree
1801
forø
isen
##bestyr
##reserv
Doc
Kai
1803
Klaus
Media
##inering
soldat
tømmer
fremtid
skolens
tilbageven
Sag
Sche
voldsomt
voldsomme
##tele
134
139
##rings
byzant
trussel
filminstruktør
##don
##fac
##ibo
1808
1813
Franç
lyder
Barbar
kollega
svenskerne
##ukom
##cient
##mestre
heden
##erencen
##havende
faktor
objekter
maskingevær
##pi
##lins
Mir
1809
driv
sans
Latin
beløb
samarbej
Forfatter
##ON
##no
109
kult
støv
Mikkelsen
afrikanske
Christiania
##ico
Nr
ky
##oxid
poet
prog
Warsz
opvokset
##ulte
nyhed
spræng
statsk
Fischer
Øresund
forbedret
efterfulgte
144
mærk
betingelser
sor
stifter
##inspektør
kendetegnet
kunstnerisk
UC
Tai
cer
had
stopper
Eksempler
besættelsen
137
Vit
##atien
##ested
smule
##sproget
##ualitet
eje
adop
##enburg
Alice
brudt
tilvækst
bekræftet
processer
##du
zo
##fest
##gods
Ein
Lav
ideen
Akadem
samler
lokaler
Anderson
indfødte
israelske
kirkelige
##dsy
##enez
bit
våb
##lægges
Trans
opgra
slesvig
Unionens
oplevelser
forsvarende
##opel
108
Fritz
Hjort
udlev
formel
eventuelt
gennemgik
produceres
##rive
##sund
121
##stjer
Rådhus
bevæge
privileg
vedvarende
Sovjetunionens
hug
##andel
Stil
Posten
##undervisning
hovedparten
##akh
Ts
Lys
##craft
centi
hertu
henret
sunget
Deutsch
ansættelse
##ener
##spræ
##arina
1828
Mitch
relev
sangerinde
##ulu
##ctic
##rets
Grå
Cass
##elsens
tegner
Normand
ejendomme
opretholde
overhovedet
indbyggertal
##bånd
fos
och
Boliv
afsat
sværd
Skander
amp
jyske
opsat
udkæmp
Georgia
placere
generalløjtnant
##græ
fine
nemt
##banken
##bourne
##herred
beboet
Margaret
forenede
##raa
117
##manns
Ting
ledige
forklare
slutrunden
##lee
Wa
vic
##obile
##ellekt
refer
##kop
pa
va
##ways
##ampen
##grene
musk
##mærker
Bjerg
begrun
embede
##tigheden
dateret
skibets
##ips
##værre
brig
##staver
Found
Ulrik
##dspillet
betalte
forsker
neutral
rigtigt
realitet
processen
..
##skyl
...
Emp
hvormed
Northern
underviste
Pub
Trap
laves
rigsd
spilletid
kommunerne
almindeligvis
##xt
##plet
Munk
ubet
produk
##how
##når
ins
##mning
##undne
palæ
Light
attra
famili
forvir
indeholde
Sea
##vands
1834
foss
bestå
##agement
Dresden
Ler
Tag
beund
Østre
Carsten
forplig
præster
forbunds
##mont
##ylon
##styre
Serb
øgede
dynasti
lanceret
udskiftet
Ove
##ental
Dark
flit
omfatte
##lutningen
##præsident
danskerne
col
cykl
slave
tales
kirkes
størst
udvalgt
##smedlemmer
fuldstændigt
##vas
##fæst
##torp
Nel
Søb
##jorte
Mere
synd
Billy
hangar
Forskel
##selskabet
rådgiver
Folketing
ammunition
Eth
##issen
Buck
Manu
Sydney
karakteriseret
##üh
##kets
kel
1812
udby
Online
forstås
hvornår
Astronom
grundlægger
##gat
##ovl
1829
fordele
opgaven
afhandlinger
107
Cha
Face
Gest
Syge
nøje
tjekk
science
faktorer
bue
##ekend
##falds
##rator
Design
brændt
objekt
Helsink
##utz
Rep
##eltet
##ørdag
bakterier
producent
##hai
hon
##dorff
Space
koalition
oberstløjtnant
##acc
##avis
lar
dikt
nark
skød
##ykning
Opera
ferie
skjult
nationalt
arkitekten
forsikring
omgivelser
ressourcer
Niedersachsen
Organisationen
##jo
##rian
Sad
##etten
##ladte
bland
stenen
anbefal
fortalt
Charlotten
Kre
Las
Pav
##fried
##kilde
##rugter
##stallet
Moltke
kemisk
ukendte
markeret
markerede
forholdene
Tek
søg
Cuba
Nash
Serie
Provin
påvirke
dirigent
forløber
Volkswagen
ambassadør
nordligste
##try
##wal
Fj
PC
##inem
Dead
Tall
svøm
##lignende
##skriften
filmene
Pakistan
forvejen
DF
##leres
trav
stæng
Massach
foreløb
Hellerup
forgæves
kommunist
##arat
anne
etap
freds
freden
orienter
henseende
identificere
##fi
April
Olden
baron
glæde
tætte
Kasper
Kennedy
nederste
universet
Fame
Juan
dags
Albre
bagside
##produkter
indebærer
intellekt
##EG
##ielt
bir
cal
hot
oms
##iland
##kender
Point
Lübeck
kritiske
##behandling
##oney
Kru
Varde
hæder
mands
adskilte
kategori
resterne
domineret
brigadegeneral
Pad
Game
tråd
fyrst
Medlem
stiller
efterladt
konfødererede
##øjd
Va
##ares
##blev
Chap
Iron
Ravn
##gaards
håndb
Milano
##tagelser
forskelligt
svage
##byer
Salt
kulmin
Sydkorea
Cli
Nag
##enhed
pokal
Jordan
forhøj
##æsninger
##områderne
gradvist
betydningen
situationer
Kunstakademiet
##ush
##gens
Vog
From
team
##storff
umuligt
osmanniske
„
##oga
##leve
Hay
genv
klin
vente
##rium
##ichte
##havnen
##usetts
##sningen
Grammy
højest
selvbi
antyder
aktuelle
##øer
##freds
##bedste
##kelser
##legnet
onkel
åbner
bolden
violin
tilfred
foreninger
##imet
Køb
Tod
hop
##klædt
##værdi
##spunkter
##yndighed
karakteristisk
##fod
##ido
##halv
Cham
Frej
Jazz
foruds
overskud
vanskeligheder
##teau
##barhed
Frans
svømme
Mortensen
forklarer
Massachusetts
shows
Derved
stammen
omkringliggende
##pede
Lev
sagn
Arsen
lykkes
reglen
##amlingen
Arkitekt
Bibliote
##ely
LP
With
##træden
æstet
Stefan
Vestre
godset
platin
strenge
bygningerne
##cise
143
##burgh
##firma
##mands
##rison
##sfilm
##stekn
kode
black
fragt
lektor
uddelt
Studios
UK
Hir
##rifter
Offic
##skrives
spekul
Fodbold
##ungs
Led
##eting
1831
viet
Tibet
offer
langvar
motoren
Christiansen
amerikanerne
##oul
##stue
##ansas
##hardt
Lokal
ønsket
Hovedstaden
##orps
Rør
##allen
Glen
labor
koncep
vinduer
landevej
erfaringer
Øl
##yndig
##terende
digital
sørgede
datteren
Landsbyen
symptomer
##olo
##pal
Wen
##sendt
fødte
velly
forsin
Englands
materiel
dynastiet
medstifter
##atom
##ringes
Loren
Satur
flyver
tilpas
typiske
erobring
godsejer
borgerlige
centimeter
accepterede
Atlanterhavet
semifinalerne
Rev
Sum
kok
##ralen
Fren
stræ
##plejer
Endnu
##ftræner
##skaberne
##skrivning
udnævnte
Almindelig
begrænsede
##oir
##usk
##ovet
Por
mes
okk
Poly
lide
##lægtet
parter
DJ
Hoff
tættere
landskampe
pin
Tred
hitl
##plader
##iatiske
komplic
omtalte
##ifikation
insekter
beskæftigede
reformationen
skuespillerinde
##DE
##atra
##ving
Fag
gæld
##shoved
##ography
behøver
indenrig
effektivt
tiltrådte
embedsmænd
regeringens
tilbageværende
administrerende
##és
horn
dækkede
Programmet
##IT
Aqu
stej
fiktiv
bataljon
monument
konsekvenser
HK
##uter
Hul
##edral
Catal
regne
romansk
suveræn
Christiansborg
##IV
##pps
##spr
Box
1660
Gene
Mick
ager
Jæger
nyeste
undertryk
overraskende
tidsskriftet
##cio
greb
lyde
trup
Citat
##æstinens
katolsk
##irkninger
behandlet
Fon
Marx
hæng
##strakte
mordet
Patrick
fjenden
medarbejder
Raf
Sydd
##rogade
##komsten
##sformand
hjemmet
Kristensen
##aco
##zirk
##ængere
aflev
detalj
Anthony
Bulgarien
konflikten
arbejdskraft
£
##iley
Fun
##hedens
nedre
##regering
##stillinger
besætningen
Konservative
beslutninger
##atar
##ræer
rac
1816
Stri
afvig
Planten
mængden
ekstremt
beslutter
kejserlige
tilslutning
fortællinger
##arek
##user
##essel
##ugler
afledt
associ
sporet
##ador
##oman
1824
Home
viol
##skoven
haver
Skagen
Torben
tanken
udendørs
Revolution
##ng
dv
tyr
skyt
kugle
Hertil
##udstilling
##møn
afb
1832
##kkedes
Miller
downlo
tilbudt
forsvundet
oprettedes
kær
##bjørn
Gang
lager
ulige
musical
regerende
119
##abase
Beau
mete
Apple
Julie
Rudolf
brænde
østrigsk
Dagbladet
tredjedel
Tjekkoslov
Yderligere
skandinaviske
CS
##aktive
Rog
1806
Hugo
bered
begreber
Skanderborg
##16
##uret
Bah
bop
nedbør
beskriv
tusinde
fremstillede
Clo
rob
Fors
Wall
ernes
Potter
elektricitet
##istol
##ource
anfører
benævnt
rigsdaler
statslige
kristendom
##løst
afl
##renes
Norsk
læder
teleg
perspektiv
organiserede
##wo
##cius
Mest
sene
##version
landing
Christine
September
##act
##bul
##odet
Oct
##melsen
hermed
stoffet
Højskole
##ikale
##yngde
Amts
kaste
nedkæmp
regerede
##nov
##yrd
overgav
Magazine
udformet
oprykning
##idens
Brug
Palle
afbry
ansås
binde
fronten
##årskrigen
Ringsted
kampagnen
BN
##ject
Ske
##skærm
Gret
Howard
barnet
bokser
junior
Jacques
fokuserer
1825
Camer
Fight
ansøg
tænkt
##dsyssel
##ættelse
Austin
Vording
handlede
verdensplan
midlertidigt
Kaj
##lades
##istent
genren
udsagn
udvand
##sret
nære
##lejren
Domin
ordin
##ændelse
##sministeren
Syddanmark
Vordingborg
##nær
McG
løg
##klædte
##uminium
Fransk
##ledningen
radikale
kommandør
##OC
Nil
Rel
Ærø
##grave
neur
##xelles
##aterede
handle
##ollegiet
indebar
##shospital
wrestling
takket
socialt
computere
begravelse
beskæftiget
regeringstid
##brun
lyn
Iver
Pant
mexic
Tradition
beslægtet
Æl
Bind
cher
iagt
ejere
hyppig
depress
Betegnelsen
landsbyerne
##ble
##edyg
golf
high
sinds
##oller
Down
ugen
Skjern
Stanley
oplever
##stemningen
tilpasset
##irksomheder
mislykkedes
##15
##tro
Læ
##ices
##omme
114
1818
apost
##yrelsen
fremad
Nordvest
mindretal
dieselmotor
hovedrollerne
##rent
hip
##junkt
blød
##centre
gehej
bryder
Største
flytter
indføre
franskmændene
##hop
Hop
Giov
YouT
pund
##iderne
indtræ
kalender
##overfladen
##institution
kæ
##prom
##stor
Din
##kterne
trold
##politik
Antonio
Salomon
Jonathan
relation
trafikken
komponerede
##ovo
ges
1833
##hallen
##ttelse
Norde
bytte
omend
Herfra
seriens
##HL
##ilet
regi
skub
Firen
Kinas
koret
##ætningen
presset
adskille
amerikanere
slutspillet
Gj
Free
mølle
##hørende
Avisen
Bruxelles
##aby
122
Anim
Blan
Lanc
bage
Dagen
Thail
museer
##iddelser
Administ
Sicilien
forvaltning
gennemsnitlige
sab
1790
FIFA
Nich
Samsø
forbe
##lementer
normann
tegning
##ures
Glads
Bedste
præcist
##idivision
baserede
konkluder
tegneserie
beliggenhed
elektroniske
interesserede
##neth
Kem
bevæb
radar
Clausen
Franklin
fjernsyn
Luxembourg
cheftræner
organismer
##løshed
##stæder
Human
dedik
patrul
tempel
##onerende
Helsinki
Research
Beij
Aaben
føler
hente
dyrkes
dialekt
##ić
##øgen
Eks
Lun
tøm
Forum
heavy
double
hyppigt
Russiske
indholdet
erhvervede
kandidater
##øe
sydpå
##planter
##ingeniør
tilstrækkeligt
##bag
##ygg
IB
##arvs
Rab
José
spin
Scien
gifte
alderen
hjørnet
laveste
traktat
Deutsche
strategi
kongeriget
##uls
Kyst
##rering
Arnold
oversigt
##afdelingen
diskussion
##13
Dyr
aud
bok
1826
Frue
Græn
Krag
udfl
Series
pattedyr
stammede
sovjetisk
dj
Mul
mek
##hvert
##skred
træde
##sprogede
domstol
##deløbende
skaffede
##turneringen
##orum
##spæn
mose
##ningsm
Viktor
måneders
biologiske
Christianshavn
doc
##kugle
##skere
##virke
##punkter
Marine
##republik
ordenen
negative
##hag
##aker
##smar
1819
Lady
##banesp
Jimmy
enighed
folkeslag
økonomien
Højesteret
##ativer
##lagdes
##dækkende
indskræn
EF
##ilog
Loc
McD
USS
##roman
tyve
Party
turen
##aftalen
Carlos
Udtrykket
ægteskabet
##edo
Pu
Boe
##imentet
Antark
Bridge
##agram
##endel
##alisere
liters
bestemme
##amm
##oti
æk
Dick
pira
Sound
blues
begået
færdigt
indsatte
sammenligning
##vold
rov
##artede
Tower
nordpå
forkert
lederen
bemærket
fæstningen
Konstantinopel
Kid
Dyre
hede
Maxim
##unnelen
temaer
anbragt
efterår
næstformand
##jun
XX
na
Abd
##øring
Rena
rust
Cecil
##itterne
Revent
forfal
løjtnant
belejring
##dle
yt
132
cit
dér
infe
mongol
trængte
##enen
##oldt
Ref
Typ
1795
værste
adresse
afbrudt
##historien
Sebastian
##forsamlingen
endestation
##apir
Tab
##orial
##steori
Malmø
aggress
ethvert
Tjekkiet
markante
spænding
demokratisk
forestilling
##klam
Sak
ent
hære
##ierung
danser
geomet
teologiske
##iem
Tv
##drej
##redet
March
strej
Kvinde
herrer
spirit
Domkirke
førstehold
kategorien
optagelser
gennemgående
infrastruktur
##ju
tæ
##witz
blæ
vogne
Morris
mursten
sponsor
ortodokse
planlagte
uddannelser
portugisiske
##12
##US
##tons
Gor
Hugh
freg
##jektiv
gramm
dialog
tønder
indtægter
Rost
blog
frag
##holmen
##vensen
##kloster
##kontrol
pladen
landene
fremstår
komplekse
kirkegården
schweiziske
##PA
##otisk
gave
##iering
mødet
Amalie
Palæst
##faldende
Bibelen
fastlandet
<
##eliv
Pia
##pleks
##holdes
Child
mærket
Beijing
Antallet
tidsskrifter
##ère
fru
cens
##atoren
oblig
##maskine
rejsen
Bernard
##shistorie
mellemrum
undersiden
##hær
##wart
Pas
Års
##oland
Sort
##linjer
Guard
Lucas
Mauri
polar
udråb
Public
Firmaet
palæstinens
##CA
##dr
##øft
##ione
##pagni
Mang
hævn
Parad
gejst
varem
##slinjer
Fonden
forgren
Landbrug
jævnligt
militæret
##eng
##vey
##iste
##rapp
103
emp
##ørede
Fern
Sara
svin
paven
anført
reddet
beholde
##uma
##tial
##ingham
Guine
Schwar
##klædning
genskab
jordens
skulptur
efterspørg
Små
Tot
##klass
##rytter
Gaden
Resten
stråling
behandles
inkluderet
inspirerede
Vä
##ireg
##kirk
##visor
imøde
lejren
##mesteren
Aud
Fru
bun
Kvin
Shang
Conrad
formet
Alperne
nutiden
Aabenraa
fremskridt
##PS
##bahn
##umpe
Ian
##okker
Evans
##igheder
##stamning
færdige
anklaget
##mate
Act
##domme
1821
Bodil
Color
kaffe
Napoli
ryttere
nationals
opsamling
##hval
##mose
##umer
112
fed
##åndet
Emma
##forsker
French
Hellig
Warner
uddannelsen
Köl
##areal
Delt
##unsten
Keith
årtus
astron
kirurg
levere
medføre
ovenfor
Litteratur
integreret
Clem
toget
pianist
indtrådte
samlingen
##18
##cul
##uki
##råde
bio
Malt
evaku
##periode
betalt
forbru
YouTube
myndighederne
##født
jur
##house
peger
væske
##illedet
Januar
##menterne
bogstaver
tilnavnet
rækkefølge
menneskelig
##tese
Eva
Pon
##niveau
Salzburg
frygtede
annonceret
geografisk
sandsynligt
semifinalen
##fur
BT
nit
##ssund
bokse
##ændenes
Special
arealer
hjernen
personen
kategorier
opvarmning
##illon
1805
Viggo
metro
straffe
spillerne
Vendsyssel
##ible
##kron
##radi
Cob
Row
1789
Flyve
sognet
bassist
Lag
##union
1770
Barn
Ellen
Hogan
broer
uende
Luther
hånden
udmærkede
henvisning
forbindelsen
##akse
##ario
Orig
serb
##oniske
journ
Tennis
huller
styrede
reglerne
kammerherre
##ID
##alier
Cost
male
skru
spær
##somhed
glets
tyngde
Gabriel
drengen
ophævet
kommunik
Melbourne
Kin
aks
Buch
Ohio
##hammer
##markedet
slægter
fakultet
indspille
kommerciel
alternative
##ylder
Otte
Rends
##admiral
skotsk
Firenze
globale
##bevægelse
forbillede
kons
tænke
dollar
sammenlægning
div
Book
Euro
##skelse
Beach
formen
opleve
kongres
omtaler
Giovanni
Gladsaxe
områderne
deltagende
##halt
Leo
antog
belast
fejlag
ændrer
Kenneth
fiction
Vladimir
acceptere
Bernstorff
basketball
kommandant
##nit
##ando
##aktor
##entin
glim
læst
saga
tang
##status
foden
navig
Oliver
Valley
civilis
områdets
udgifter
medicinske
sammensætning
##oge
##phia
Hass
bety
##agende
mandater
opfordrede
Eksempelvis
bebyggelser
##roe
##zau
##post
##råds
spr
##ardin
Fyns
pilot
Marcus
sådant
##regiment
bekæmpe
Philadel
Christina
fødevarer
kommunale
præstation
modificeret
forandringer
nederlandske
repræsentere
##aps
Spi
##stegn
##ækker
tort
##serier
Anlæg
imponerende
##lær
##ryg
##syge
blik
##itiske
##mentet
Aller
dyrket
samles
##steuropa
interne
bønderne
rep
ryd
Bren
tide
##skrive
Klein
hukom
obser
Graham
Marian
antikke
drejede
negativ
uddannede
afstemning
specifikke
strategisk
##phy
##velt
##ffekt
Bram
Tommy
afvand
Indenfor
variation
##ades
##egas
Pel
Ted
bly
Brød
Year
Sigurd
stemning
Us
ern
##itime
##owell
1811
##skirke
tilfl
Gordon
fortid
præsten
floderne
kvalifikations
##ão
##ønik
Hud
kig
Aren
Jung
Kant
Pont
glat
##iserer
##missær
instal
kastet
transm
ændres
Bernhard
bidraget
tvilling
##OL
##uez
MTV
phil
##bestem
Spart
Februar
Stadium
ankommer
prestige
signaler
##reste
velg
Valby
Werner
misfor
alfabet
evolution
afstamning
industrielle
##afe
Gru
##ugten
##gender
##ipedia
Arist
læses
Cuppen
mangfold
restauranter
##hit
Wy
Jup
Kob
Halv
Lande
ansig
fortjen
hidtidige
japanerne
##IK
IM
knæ
Bret
Rant
##møller
##parret
Allen
Network
anlagde
Arbejder
kirkegård
kronprins
administrativt
##iff
##agon
##lich
##åbnet
mørk
##irekte
Heart
##otograf
Ligaen
afslog
anholdt
atletik
sigende
Modellen
bombefly
atmosfære
beskytter
skikkelse
1802
stre
frisk
påvirker
præsidenten
SK
Peru
turne
##smidler
konges
##distrikt
Western
Professor
velhavende
generationer
##oda
Gad
Kval
Mess
jarl
Event
Finan
trone
##akkerne
##enheder
##opgaver
banens
opfattet
vanskelige
Parlamentet
temperaturer
##sfl
##falz
Ged
PET
søgt
##vision
Studen
flanke
galler
Brygger
forelsket
Normandiet
menneskeret
Sex
Venez
rumæn
voldt
propag
##billeder
Mississippi
##sse
##viet
afs
##typer
##uerne
Span
##akespe
Kjeld
Miljø
arvede
korrespon
##ef
mv
Nils
##maleri
André
Erich
Relig
Factor
kredit
##stidende
Railway
kontrollere
Tjekkoslovakiet
håndboldspiller
##lon
BM
##ranter
Veste
himlen
English
Frances
doktorg
fornyet
indledt
Airlines
platform
Færøernes
fattigdom
omsætning
opfordring
##aro
Von
hier
Clark
facel
Global
udfører
François
synspunkt
##ministeriet
underholdning
Rø
##jere
Cæs
##mager
##stans
Sibi
endt
Civil
dværg
Forest
bøgerne
##ordningen
Akademiet
Vesterbro
##stres
1793
Vall
logo
Fabrik
Krigen
befæst
gangen
ordene
ankomst
Nordsøen
opførtes
ungarske
planlagde
deltagerne
forfatterskab
##idan
##nest
giv
Visse
immun
lovede
optage
Ørsted
Testamente
kompositioner
##cific
##ummet
Arag
hent
ivrig
nøgle
strakte
overleve
positivt
inviteret
opførelse
overgangen
133
Dyn
##sfart
That
opsø
afgør
given
impor
Paulus
uddøde
udkast
canadisk
landsdækkende
##dell
##dragt
1827
Women
opnås
udbrød
Arsenal
aluminium
udstillede
konstrueret
##magt
##agnet
##celer
1804
1817
stim
optim
Jomfru
##højskole
##uderende
Shakespe
kavaleri
niveauer
kendetegn
bekræftede
billedhugger
##cha
##icks
##weig
zone
##tikker
soundt
ventede
beboelse
beretning
forventede
sammenlagt
##osh
##sfer
lik
Chop
Hobro
beder
##elskaber
medierne
sidenhen
Sjællands
baggrunden
Philadelphia
Nationalmuseet
modstandsbevæg
jf
Fan
Lod
Pul
Last
Merc
døgn
Anker
Katte
egnet
##ination
Struen
Tivoli
Fredrik
identisk
germanske
usædvanligt
##17
##itj
nar
##sholm
tydelig
stadigvæk
enestående
folkemusik
renæssance
##hew
##play
##amper
##lejer
##skont
Mill
##ologier
Trafik
forstod
hjemland
Bisp
grus
luks
##indien
##byggeri
Instru
bestræb
generob
ekstraordin
samarbejder
##EL
##bye
##små
##illi
Augu
Sarah
inkluderede
##eo
##olas
##spir
##vile
Buk
##rerne
1776
1794
Lenn
Donald
Russell
Thorvald
kommunens
billedkunst
##azar
Ful
Syl
nej
rap
##velop
Norm
Rick
gavn
læger
##egården
##seksamen
Serbien
Theatre
minimum
Albrecht
Muhammed
foretages
opbygning
forårsaget
kritiserede
restaureret
##ED
stk
##ronic
##skiold
Kilde
besejre
Thailand
protester
distriktet
tilstedeværelse
##ssam
##penge
Roose
deleg
Hitlers
aspekter
indendørs
folkeafstemning
##isi
##høje
Suz
##ström
Leif
Riis
dreje
format
reserv
skygge
streng
Command
vå
##itus
##odede
Enkel
Kelly
uover
Norske
gensid
svampe
tænder
Sidstnævnte
##hør
##børn
Edin
What
ukra
##dingen
Wiener
cirkel
færøsk
medalje
storhed
##rækningen
ejendommen
##uto
SC
##itel
##itis
##ysse
##kalde
emig
græk
isot
smuk
##skunst
##spillere
værktøj
afskaffet
medicinsk
Foundation
##ät
##bec
##ego
Få
flys
##værnet
##amenter
##smæssig
udrust
##delelser
forrige
Antarktis
klassific
englænderne
kvartfinalerne
massak
mister
totalt
løsladt
overgået
##orienterede
herredømme
midtbanesp
##gle
##møde
Mann
webs
##atører
##opperne
Stalin
##maskiner
##ily
##ænk
102
##getøj
Rang
##ativet
stram
varmt
##forslag
Bjerre
deling
##sjælland
##14
##gain
Rah
bød
lød
1792
veks
##forsøg
##estolen
##smiddel
Centre
Atlanta
fiktive
korstog
effekter
skildrer
uenighed
embedsmand
højesteret
nederlandsk
##kald
450
Nab
Tol
Odin
Ægte
##ågning
Vincent
olympisk
##uh
##orv
Ey
Rü
##kendes
##studier
action
stærkeste
utilfreds
Politikens
selskabets
traditionen
##kore
##oged
##berger
foræl
##atorisk
Melodi
Queens
banker
infanteri
relationer
informationer
observationer
##ædt
Dol
kaj
##spark
Koch
Lise
lunge
protein
Warszawa
utallige
##programmet
parkering
Kristiania
beskyttede
##lot
Syv
Boys
Wald
##levard
kræve
køber
Gustaf
retter
Enkelte
adelige
Wolfgang
eftermid
fabrikker
DT
##haus
##hren
##okko
kgl
##bende
##agtigt
##rystal
manøv
##stræner
Anhalt
Stedet
aktier
slippe
totale
overvin
fungeret
forsvinder
kortvarigt
Musikkonserv
manuskriptet
Ja
##ognos
1822
Helt
Ragn
##ledere
fælle
omring
Herbert
dramatisk
værdifulde
##chl
##aften
##lejre
##tekst
##verer
coun
##agerne
##riften
Maribo
Novgor
udgives
##sselskabet
landskaber
borgerkrigen
##oms
##onna
##dinge
Eisen
Rønne
##ierungsbe
reference
##war
Ral
##rence
##tivet
Dren
Lost
klan
December
biografi
uafgjort
foretrækker
##øvet
1780
##dinger
Fland
##klubber
Master
mandat
skadet
eleverne
gymnasiet
psykologi
##any
##num
Fjer
sove
Yorks
udgik
##tningen
##ænkning
Nicolas
Roosevelt
afslørede
invasionen
oprettelse
##etz
##sess
##æler
Vild
retur
stige
Filipp
besøge
ombord
tiende
redning
##fabrikken
sølvmedalje
##apo
##tiler
1788
USAs
næse
øjen
##nement
anark
fersk
##iva
gum
##straf
Skønt
opstå
Rachel
kommen
uregel
Kvinder
process
Eftersom
##handlingen
forsyning
landsholds
##boe
##onne
Ach
##arisk
##ident
1799
Fiat
firk
porn
##ground
Hawai
##obbelte
firmaer
elektrom
engageret
underjord
##AM
HT
##iten
Dir
Reb
Kier
Skal
nevø
smed
grafik
##ydninger
årsagen
##iregiment
forklarede
holdninger
middelalderlige
##smu
##mind
##smod
Das
##rande
1772
Mans
Muse
akus
vinger
skønhed
kvalifikationen
OB
##dahl
##fore
##ista
##ukle
This
gids
indh
ritu
stue
##fyldte
Armen
Bonde
pigen
vision
Beatles
##liggender
udbygget
Bornholms
Projektet
ku
##osoph
immig
Jagger
forest
Slottet
koncept
Brothers
legendar
Herudover
Palæstina
hovedværk
indirekte
hospitalet
##orre
Try
pub
midte
##ningens
intens
##kontrakt
##malerier
forlang
mandskab
studeret
##rits
Fab
Tam
Fair
Stør
##agerer
Inger
veksel
udgøres
klubplan
trinbræt
##ík
##lia
Dü
##ævede
knog
Garden
Rødovre
håndtere
rejsende
##forbindelser
bestemmelser
##ück
PS
lam
##umann
glad
##chichte
Murray
stykket
sygehus
vistnok
forsvarer
besiddelser
##auff
WTA
Danne
filos
barneb
Jernban
indtage
købstad
akademiske
forhandlingerne
##dire
##http
##rary
1797
Games
fjord
yngle
Viking
kolleg
regent
skelne
uoffic
Kroatien
Reventlow
kunstneren
installeret
##RK
AD
NFL
##greve
##igten
Fris
Court
afbil
anten
dyrke
Bjarne
Singap
Sports
spiser
separat
##givningen
Kommunes
Robinson
fjendtlige
##ku
akse
##skjold
Jason
båden
##inister
bugten
landes
Marshall
Ruslands
reducere
konkurrencer
kontrolleret
##oun
##cial
Cab
##skort
Dort
flam
anser
enkle
ulykke
##mæg
##hatt
##tiker
kvæl
kæde
overn
Galler
rykket
stedse
Faderen
Spiller
forbræn
kollektiv
medlemskab
##fant
##oment
Bowl
Dave
##stræde
hvile
##achelor
Tårnet
fredag
##spiration
progress
risikoen
indførelsen
##iers
##ping
Guy
##ellow
##rænet
Hvider
country
præcise
gymnastik
forretninger
kav
##tagere
evnen
illeg
skibs
Junior
rådhus
kontorer
værksted
##fond
Cos
Kit
bug
##sting
Brig
##givere
##straße
Sudan
øjnene
##dømmerne
barnebarn
##IL
Ål
##dder
##ries
Pom
Tel
##amisk
##ities
Andy
Sloven
kopier
lørdag
problemet
konference
##obi
Jay
Sup
Aker
##materi
##minton
##stolen
##aktioner
oprøret
udgaven
Standard
imperium
CP
##uard
##ifest
just
##ulykke
##ragelse
##styrken
Balkan
Battle
antrop
Mariager
afslører
##bage
Lex
væv
Symp
slap
##tionen
Commun
Cooper
overvå
udpræget
selvstyre
##aq
##iko
##rar
##amet
Page
bange
pligt
skand
##billede
involv
krydse
Edition
tilføjede
Blomstringen
udgravninger
##nar
##lids
Ran
Tog
##allas
##ariat
Lasse
arist
sviger
midlertid
undersøgt
virkelighed
midtbanespiller
##tj
Zo
##real
##ttem
##ættes
småb
##ophold
Alter
forur
Sherman
klarede
kvindelig
modangreb
##øber
Khan
afgr
##mefter
Detro
filmp
walis
##igennem
##indhold
ordent
stænder
uddeles
undervist
##uddannelsen
regeringer
grundspillet
stridigheder
forelæsninger
##nia
##spo
##uda
##alds
##pass
Ida
##ymfon
Mall
Slov
utrol
fjende
generel
seksuelle
vurdering
##sejr
Gla
air
##arkiv
##ovede
Aven
ladet
bomber
tilhør
urolig
##værelsen
Finlands
dygtighed
jernbaner
kvinderne
parallelt
bevidsthed
foreningens
Kunstakademi
vikingetiden
førstepladsen
koncentrations
##aur
##ete
fing
sørge
finger
oversk
Kirkens
maskine
operaen
##sterreich
Radikale
fastlagt
Rendsborg
##gyl
Cel
gun
mol
you
Aleks
Meget
Metro
ruter
tortur
jøderne
kvarter
krydsede
fremefter
hvorledes
##bestyrelsen
kontrollerede
KF
##gran
##kene
##øden
Bam
Bem
##iteen
##sporet
dagbog
##raktaten
##færdighed
accepteret
venskabskamp
##olis
##sbøl
##sfly
Kær
Toy
los
##kalen
Pern
##værdigt
forful
nedbry
smerte
##angrebet
##ationerne
forårsag
tilføjelse
##organisationen
##gning
##tures
##tyske
fysi
angår
pyram
##mingham
pokalt
navnene
##cts
##sløs
##ysik
Bak
Nür
Tun
##aborg
##sgade
##øster
nylig
Schles
regner
ringen
pansrede
##revolution
Edinburgh
behandler
forveksles
##UM
##jem
##annel
##risen
Sted
mønt
##skning
Moore
impro
vandre
nedrevet
fusionerede
Sop
Base
milj
Niger
parad
klokke
Marokko
kunsten
samtale
valgtes
##non
BK
ye
##ourt
Cyp
##perto
##yldne
Hval
Pave
Shaw
pens
##shuset
Halle
Illin
innov
komed
krystal
overdrog
effektive
hemmelighed
##bæl
##rot
##ydes
##yrede
Spar
anse
kold
##mærket
##riller
Broen
Hills
entre
##produkt
##ståelse
##følgelig
benævnes
efterlig
isoleret
placeres
pladeselskabet
##lé
##mak
opl
##ettet
##okkel
Grim
tibet
Morgen
analog
drømme
gyldne
togene
##kok
##sman
##vens
ski
##lemen
##umber
emnet
grønt
vejret
udskift
Tidsskrift
engagement
folkeskole
Leh
##fløjen
fotos
tynde
Mikael
undtag
tiderne
##anz
##seg
##aves
##svej
##moder
Carib
indven
Harvard
destroy
hverdag
##hastighed
Internet
Mitchell
bidrager
sælgende
Birmingham
forhindrede
vedligeholdelse
##hum
##ffet
Alb
Chr
mos
ædel
##ukasus
jorde
##korpset
##søkonom
dommere
frivillig
kritikere
oplevelse
computerspil
kriminalitet
##itim
hån
Benny
måles
rumfær
værnep
residen
Illinois
fængsels
underord
konsulent
overbevist
Ax
##derup
##uston
span
Heavy
Valen
måler
skære
Ældre
##kanalen
melodi
##medaljer
Libanon
angives
bredden
hjertet
underviser
##digvis
##planen
Helge
båret
marmor
poster
skilsm
##systemer
eksklus
radiost
forreste
kronprin
##ches
##itære
##toner
kræn
##forval
Bolig
vrede
##enterne
##ization
##marskal
##stammer
Altern
unikke
##gørelsen
romanske
romantiske
##ierungsbezirk
##tiks
Dec
##ssted
##sving
bede
hebra
artiklen
forstærket
##zona
##loden
##vilje
1796
##øgelse
stødte
gerning
russerne
##afrikanske
##svirksomhed
chefredaktør
Storbritanniens
##gave
##pren
Set
Sagen
Nelson
protot
##trædelse
ulykken
vestlig
fartøjer
hertugen
symboler
finansieret
##önig
Eti
##neren
Heim
##kteret
Field
world
##søgelser
teknikker
##bard
Hold
Roms
årti
##holdte
Formel
nettet
oplevet
Forlaget
indførelse
##OM
##adi
Tak
##ature
Chem
Fuld
##støtte
##entlige
bringer
synlige
autoritet
egyptiske
Palæ
Rune
stum
Enhed
Håkon
dimit
korsf
##visende
Parker
overen
Roberts
holdets
tildeles
koncernen
##bue
##arte
##onto
##osis
##sbro
ABC
cell
Fabri
virtu
Report
salget
udskilt
føderale
##abon
Ear
##espil
##fælde
##sbyrd
færd
##scorer
Lykke
Silver
herres
prøvet
trænge
magasin
forblive
forældrene
udarbejdede
##asi
##leM
1771
1823
skit
##shæren
tykke
omdrej
forandring
matematiske
protestantiske
##yser
##ænkt
##mouth
##oning
##yttere
Modern
People
fangen
##ikkerhed
antaget
ekspans
involverede
##AL
Ji
ci
##ence
##sner
Esc
1798
kriter
kronen
overfl
opdeles
##skrivelse
kompeten
kulturen
afspejler
fremrykning
temperaturen
##yro
##nord
Diam
esti
##ygning
Hamil
Privat
Council
aftaler
tronføl
betjenes
respektive
diplomatiske
NS
##acht
Fat
##fremt
##indes
Lisa
begik
##ændinge
Colomb
helgen
pastor
Detroit
Columbus
konkrete
markeder
styrtede
hovedkontor
##ebror
##nberg
Eich
Four
Köln
Liss
Vold
elim
Løbet
Odder
Steven
farvel
Stewart
##bure
Att
Bom
Ryan
Søen
Urug
##irland
krops
##slisten
Missouri
kongerige
betragtede
grønlandske
sandsynlighed
##IM
##kr
##kov
##vir
##arin
##ashi
##rict
hæl
Vorp
busk
Bened
Books
Laura
lyser
Alaska
Stuart
gulvet
Klubbens
beboerne
formålet
inddeles
Universal
dramatiske
forekommende
##mars
Kaz
##ktisk
pioner
bidrage
##stendømmet
erkendelse
festivalen
Nationalpark
rug
våg
##varme
##ytten
Dele
Djurs
Kraft
falsk
Antwer
falske
genrer
behovet
tyskere
renoveret
sydligste
midlertidige
hjemmehørende
##hat
##lips
but
Jess
Krab
sigt
##fanter
Homer
Finans
elleve
felter
forhen
scoret
Gerhard
maleren
relativ
toppede
##weg
##okom
Tul
Olaf
arts
café
søvn
Griff
Rundt
tyndt
##ægterne
kurser
forenet
variere
udmærket
##more
Elev
Else
bedt
marx
##ulerer
Tunes
omløb
##økonomi
følges
passede
stormag
WrestleM
handelen
interessant
à
##yse
##ional
##ineret
##ppsala
Baker
hyldest
komprom
passere
borgerne
udkanten
varierende
væsentligste
##acks
##elov
360
dvd
dame
Carlo
Ridge
bedøm
##stykket
Ronald
Storeb
statue
Leksikon
Samtgeme
formelle
rapporter
planlægning
cl
##ilen
##kjær
##usse
Lot
cur
##agers
Kast
råde
idræt
blodet
skjold
personale
##hs
##alte
##ties
Ner
drag
##ktoren
styrer
yngler
Uppsala
branden
vegetation
WrestleMania
##bev
##ache
##gart
##ansen
Head
Trav
skæl
##skerne
##smotor
mønter
anslået
stadigt
##svidenskab
teoretisk
videregående
rec
##havne
##weight
##ødning
China
Grønne
digtet
Lawrence
Novgorod
anerkende
rapporterede
##itær
kår
sus
##tages
1784
Bech
Fall
Hald
Heide
etats
Værket
munder
omstri
skarpt
##iversitet
forbered
planeten
##bere
Rot
char
Fyens
husdyr
korrup
reelle
rækken
##ttemberg
vindere
foretrak
udkommer
tilværelse
Astronomiske
##iza
##uit
##burger
Langs
Perry
aktør
syntet
Holdene
Glostrup
forpligt
##motorvejen
Andersens
helikopter
##asu
##vært
Lok
##korder
Blood
amtmand
pressen
tyrkisk
statistik
##ín
##gne
##pos
##æus
##ergi
søs
Bert
Klit
ikon
ride
orlog
##anlægget
længden
hitliste
Wikipedia
anvendtes
fastholde
strukturer
klassificeret
##lock
Ask
##reben
Bosn
kund
miste
##lægtede
Libyen
skyder
##formance
Dorothe
turisme
##materiale
##tificeret
lancerede
interessen
##onn
142
Apol
Conf
Copa
Stur
kryp
##derede
##sbaner
Micha
##rikansk
##gelserne
retssag
Forbunds
Kaukasus
udtrykte
ombygning
frivilligt
forgængeren
Folketingets
revolutionen
##farve
1791
Moon
##skreds
Walla
##smuseet
period
hjulpet
syndrom
australsk
partikler
##skuespiller
opdagelses
Via
Flyet
okkup
bekost
ordrer
##ktoratet
indtægt
legetøj
differen
Stillehav
betragter
##eda
McM
Stub
afpr
##deligt
bevil
##arkivet
Salmon
Arizona
byggeri
AM
##cykl
Sah
##puter
Fest
firer
forlig
masser
søstre
##leksikon
##retningen
episoden
opdagelse
Romerriget
nazistiske
##gud
##hmen
##rish
Mål
##usser
Isra
smør
##medlem
##fodbold
enevæl
forbød
samledes
Størstedelen
##eton
##osen
##flade
##ådene
##dommer
##ismens
Guide
Jyske
##ardinal
omhand
miljøet
Sibirien
intelligens
udstillingen
##zi
##skur
##tium
Kab
##fælle
##tagen
Bass
Hanne
##aktivitet
diplomat
forbedrede
genopbygget
præsenterede
##ija
##icap
##stur
750
##oping
ball
##ilding
Neden
Schle
stemp
udbet
##spartiet
Bolivia
UNESCOs
farlige
renovering
Metropolitan
Bö
EC
McK
Tøn
Who
ops
##serkl
Whit
Labor
træet
Nation
chance
Kristen
pengene
##velopment
Facebook
Tekniske
frigivet
speciale
islamiske
nordsiden
portugisisk
##sher
Ege
Say
##https
##names
Elle
Brock
Globe
stifte
fritids
opbygge
Mountain
maleriet
midtbane
dronningen
discipliner
understøttelse
−
##oro
AR
##anse
##gate
##idet
bøj
dåb
konst
##sniveau
Staten
triumf
##læggelse
indlagt
stasjon
altertav
fastholdt
udformning
##top
##tysk
åen
##egade
Cape
Hund
sump
Earth
Dennis
Ditlev
Guinea
attent
rygter
Presley
Project
Rodnettet
tilskrives
faciliteter
omkostninger
Mig
Swe
ess
ukl
1750
Kore
Sony
Stol
Sølv
plus
sorg
##herine
##relser
digts
høres
hypote
vandret
organist
forventet
holstenske
matematisk
religioner
##ieu
kla
##leton
##skift
1787
Herz
##plante
##oldspil
Review
Renault
mønstre
løsninger
##amt
##øns
##card
dur
##proces
Eriks
fæste
rumme
beslag
##administ
Britann
elskede
Singapore
hændelser
nedslagsk
udbruddet
##aliseringen
divisionen
##kab
pet
Cart
##andede
König
justi
##usserne
teolog
termin
forelig
indslag
tilbyde
afstanden
suppleret
##eks
MP
##atic
##hoff
##fores
##årene
main
lyden
##edømmet
enstem
flyder
embedet
hentede
kriminelle
skulpturer
efterretning
##ppes
Aur
Mast
##tikere
Venus
nævne
Ninten
Nordre
Wester
Israels
sluttet
bindings
tilhænger
##oon
##atus
Bug
kid
##agens
##arium
##keret
##liber
fladt
##mængden
banken
trænet
forstad
turnerede
Vorpommern
strategiske
systematisk
Gol
##arius
##tisme
1775
Link
skor
##fektur
##usland
buske
spion
toner
Casper
Nakskov
faglige
skatter
##rettigheder
reaktioner
rækkevidde
##45
##mie
BNP
Lit
suc
enzy
forf
endes
faren
klæde
##okolade
Ernest
jurist
kompens
opførsel
kontrakten
Frederikssund
Hr
##rans
##ulpt
Ama
Nam
Neu
omh
##ating
##foner
Orch
udad
Claud
Gården
skarpe
aristokra
molekyler
Hertugdømmet
##ao
##lisk
Fav
isb
lim
##erslev
Reser
Norman
dygtige
Nürnberg
distrikter
sammenbrud
##sministerium
fortsættelse
optagelserne
##td
##sar
AN
##lett
##asiner
haven
Sydøst
afgøre
opslag
Michigan
leksikon
mobiltele
skriftlige
##båd
##isa
##lau
##skøn
Saf
øre
##erens
##inere
##ygter
Haag
euro
koll
##amiske
svæve
sænket
Heiberg
Indones
improvis
motorcyk
Limfjorden
regelmæssigt
##AD
##xi
kj
RAF
##ansvar
##ikerne
Målet
dræber
school
Indiske
leverer
Boulevard
indbygget
Encyclopedia
##alia
##dest
Aff
Fore
##ceptor
##fonden
Getty
brune
frank
ekspor
overlod
Østeuropa
##byr
##osc
Okt
Girl
Conne
##arealer
Square
jomfru
##funktion
##ological
spurgte
Broadway
færdiggjort
##avl
##bell
##rane
His
sind
hverv
opbak
##grænsen
Studio
fædrel
genind
niende
Barbara
Kampene
Italiens
meningen
proteiner
usædvanlig
indvandrere
##ded
##luf
##pad
##ensis
##onder
##osofi
##roget
Vang
magi
Coast
horis
nytte
ophøj
##italien
Panzer
tillid
afsnittet
halvkugle
geologiske
forestiller
matematiker
verdensrang
pu
##cket
æra
Nice
amin
##osteret
Chelse
dybere
påstod
##ssystemet
anklager
antagelig
Nobelprisen
belejringen
selvfølgelig
##ía
##obby
##rick
##olske
Hørs
news
Common
Ordbog
besøger
fredede
Kattegat
Nordiske
etatsråd
organiske
Oprindelig
opsamlings
Helsingborg
synspunkter
##owa
##rud
Maz
##owski
Piet
høst
Chart
Hohen
Story
brint
fleks
Lauren
møllen
##iseringen
Erhvervs
cherokes
flyvning
kriminal
Stavanger
Studenter
etablering
æt
##brev
##hverv
døre
##result
Brahe
dames
sejler
udsted
Antwerpen
kvarteret
arkitekter
krigsskibe
hertugdømmet
forstærkninger
UCI
##anmel
##svæsen
fabri
råder
##schweig
##spørgsm
simpel
smelte
fremført
##skonkurren
defineres
ES
##base
Psy
ion
Havne
Husum
billet
mistan
Holmens
Normalt
Publish
fortolkning
##kors
øde
##celle
##iluft
René
Morgan
birolle
forlyst
udarbej
Nationale
animation
indgangen
specifikt
bebyggelsen
fremstiller
dru
##start
Gard
Made
smit
##pendium
##skibene
Claude
Harris
Italia
Prince
kromos
##amlinger
Manhatt
skyldig
bestemmer
opstillede
vidnesbyrd
koncentreret
##ocra
Aer
Div
lem
Knut
More
imens
rente
##akademi
kurfyr
missil
##atoriske
Moderne
Württemberg
##ui
##elde
##frit
USD
1658
bugt
Sofie
gribe
kanten
våbenh
##rækkende
indtjen
opfyldt
litauiske
behandlingen
Videnskabernes
##but
##kørs
##rell
##kræft
##ppens
Rain
Roll
låne
vels
Elben
music
Andrea
Hjemme
håbede
kræves
fjernes
danmarks
Rosenborg
##inte
eur
frik
##steret
##umentet
byplan
nemmere
Arbejdet
Flandern
dyrkning
reklamer
vestkyst
Louisiana
udenlands
foretrukne
resolution
beretninger
forkortelse
##grim
##type
##anken
##teneg
##veren
##lagede
Bemærk
Library
Singlen
indsigt
ambition
behandle
producenter
strækninger
variationer
##alo
##bad
##sun
##øbte
lun
##ensyn
tour
Noget
points
Philipp
afløser
koncern
udsatte
##ictionary
anmelder
protokol
åndelige
jordskælv
sygeplejer
identificeret
videnskabeligt
Hö
Asm
Pur
##aneren
##fælles
udvæl
##ficeret
Preben
Wright
bæredyg
bekendte
fremover
Churchill
Repræsent
afhængigt
##ulus
føle
Japans
fødeby
##iserende
##melighed
Channel
Udenrig
##forenings
broderen
landgang
fordeling
godkendte
permanente
satellitter
forhenværende
hovedpersonen
##zan
##edom
##ibal
Hin
##annon
##konge
Børge
hævet
kabel
knock
##egnelse
Office
Vesten
##personer
Erhverv
kansler
tallets
genoptog
hoteller
##sprocessen
dominerede
hukommelse
undersøgte
220
Neb
3000
Rung
Maked
nedad
bitter
fyldte
landede
undervisningen
##uras
Six
##stisk
##ulært
Lyon
klit
kniv
##design
##eldorf
##ensiven
Hawaii
udmund
udøver
forøget
forberede
forbedring
invaderede
størrelsen
Braunschweig
oversættelser
Sü
æb
##core
##skræ
Rug
jag
mælk
##arbejd
##castle
##grænse
##smodel
Sever
bager
solid
justit
medreg
steget
Liberal
Samling
Armstron
Birgitte
hænderne
atmosfæren
bosættelse
##iano
##ppel
Viv
Vibe
orien
Hunter
Libert
drager
fastsat
lignede
indtaget
romantisk
forårsagede
dec
Jeppe
colle
Herlev
Titlen
værdien
##assistent
symfonier
Kommissionen
tilbagevendende
##ii
Bac
1783
Clar
fron
barok
hænge
##kraften
master
##kandidat
Augusta
Collins
Engelsk
udlejet
udkæmpet
omgivende
kammermusik
##fos
##oux
Mé
##agan
Now
##rosser
Rhein
##vejende
rigdom
##fikation
Mennesk
auktion
kontrast
overdrev
forekomme
anbefalede
vejledning
Østjylland
##rock
Kay
##ouver
Seks
Tårn
##ellere
##kastet
Camil
Moham
smidt
Bureau
Problem
mekanisk
organisk
##meddelelse
folkelige
Sønderjysk
nederlaget
##eta
##hjer
Llo
June
sned
Linde
bulgar
##bjergene
Venstres
kulturel
Frederikke
modtagelse
sammenstød
territorier
århundredes
hovedbygning
##fre
Gø
Tó
##søen
##ances
Sieg
støj
Front
Idræt
femin
halve
knude
køres
ligeså
sikrer
trilog
Aristote
Kronborg
afvikles
forstander
lovgivende
##produktionen
Dat
lært
##piller
##stadion
biflod
fravær
Bosnien
##erepublik
Ingeborg
genkende
albummets
delstater
grønlandsk
##GB
##reen
Ulf
gli
sup
Fund
pels
tils
##frihed
sides
Sundhed
psykisk
vedblev
Syddansk
nedlagte
højdepunkt
originaltitel
##xen
##yle
MC
##roll
##valu
202
Cav
##delag
##edler
Nort
Valg
Zeit
##rieren
Wayne
##kunsten
rigets
Chelsea
gradvis
Regiment
Systemet
##tereksamen
Frederick
Vesteuropa
Ministeriet
komponenter
krigsfanger
restaurering
Stiftstidende
socialistiske
##rip
Dah
Hov
bræt
skur
Video
##sfrihed
import
middag
indikerer
vicepræsident
tilbagetrækning
Gog
Two
##sevne
Schl
##trafik
Bobby
##komster
Adolph
Kammer
patent
profet
trykke
Nations
nærmede
##forsyning
Albanien
##orienteret
regelmæssige
HF
TD
ink
Bahn
Gert
##regler
Farum
aflej
besad
##sformer
stribe
ordning
opbakning
##iri
##hail
##kond
his
iran
opad
##arerne
##ppelin
ubåde
##hovedet
Holmen
Næsten
nyligt
##vendelse
Aristoteles
##eman
påli
Holst
damer
spejl
udbud
verds
Flight
Nathan
skåret
##bibliote
Highway
påstand
svækket
Shanghai
dødsfald
islandsk
Konkurren
Undervejs
komponisten
##BI
##haw
111
##lagen
##tains
Hind
Slut
eleg
vade
##stabil
Mario
kasse
omdan
##merland
orange
##romerske
komiker
analyser
##sinstitution
statsborgerskab
##ML
##regn
##elier
Anto
poesi
Boeing
helium
insist
skabes
timers
udkommet
overordnet
journalister
##blå
##day
##okee
Løn
mul
page
uhel
##feltet
##ischen
Montg
##teredes
Summer
Denmark
Rantzau
Unionen
hovedby
forlangte
størrelser
Hviderusland
##bod
##enne
##usch
##skyld
1773
1774
Psyk
Stem
pile
moral
Indian
storby
Faaborg
fødslen
kavaler
Dorothea
Manhattan
tjenester
##konkurrence
betragtning
præstationer
##TC
Bot
Ull
tax
ult
Alab
Niss
døbe
hart
##følgen
bande
carbon
Express
fysiker
krydset
intensiv
Gettysburg
handlingen
arrangerede
##ibre
##skik
MMA
Rav
cig
1777
Blues
Dylan
hedde
Gregor
afgift
meteor
Grunden
playoff
##WA
##uga
Sö
##gard
##sset
Cem
Ped
##osaur
1781
Bonn
Bort
Sval
amts
##rejser
impon
destru
anlægge
opfylde
fortælles
udtrykker
Nordirland
##befolkningen
forbrydelser
forudsætning
Ay
##orid
##vejr
Clin
Gary
dete
##genter
folks
hyper
Apollo
Palace
kernen
##perioden
Gibralt
Hansens
Sådanne
keramik
udstedt
interval
tropiske
relateret
registrerede
##nius
næb
mess
this
##folket
Defen
Assens
vinden
beretter
jordbrug
kolonien
udviklings
benzinmotor
beskæftigelse
Naturstyrelsen
##ev
AL
##abelt
Fond
druk
vulk
##harmon
Dagblad
Toronto
##ssystemer
samtiden
felttoget
Stockholms
##bs
##kro
##ogt
##leys
Shad
blåt
##dalene
Arkiv
Kings
Linux
Nieder
Nikola
##spladser
Pacific
##selskaber
antikken
formodes
sydsiden
forslaget
eksperimen
universitets
##ña
##imo
##lar
DN
##jour
##sbet
##tics
Comm
Ples
Soft
##nernes
Diego
Loven
##alister
fremsat
Venezuel
udpegede
materialet
##udstillingen
brasilianske
##UC
OS
sw
##disk
##usta
Hyd
Ward
enge
##rollen
forfl
##indspil
##istenti
Mongol
herved
overle
sympati
beskeden
konstitu
regional
Montgomer
fænomener
slagmarken
byzantinske
##eto
##sdag
asp
psy
##ægede
Gött
##heimer
filmet
ingeni
mærker
trekan
Tilbage
fortræn
rekognos
Tilsvarende
instruerede
##pa
##uru
##otek
##shær
##smag
##ruppe
##ævner
Epis
Rolf
##ansler
##bakken
##denhed
Chang
##inarium
##serende
Freden
godser
Jupiter
##tegnelser
Mathilde
separate
beskadiget
##TS
##cky
ov
zar
##stats
Abel
##slinje
Egern
seere
tempo
Dragon
venter
Svenska
digteren
Kommandør
lillebror
menneskers
##aum
##gin
Øre
##tiget
Buen
Clev
Dance
##Station
bydele
foregå
møller
##sforening
tilfreds
teoretiske
datterselskab
##ants
##ssag
Supp
ling
##sparti
##vandsb
##ældige
Ideen
Løven
undsli
##sendelse
Igennem
Klokken
Nyheder
synonym
planerne
##krigstiden
Alexandra
erhvervet
beslægtede
interessante
CN
##etra
Coc
##papir
##smagt
Ager
##aturer
##lassen
Milan
nomen
Hudson
havets
Centrum
Matthew
katalog
kompagni
omfattet
landkreis
Zü
##oria
##øjte
##eback
##fædre
##ådens
Witt
Aften
Organ
trykte
Clemens
proklam
Årsagen
Cathrine
varieret
velegnet
billigere
musikvideo
rettighederne
##gul
##yge
Abu
ual
djæv
affyr
##firmaet
##skultur
Kierke
adelen
Indepen
Pommern
Hamilton
bevægede
magister
asiatiske
minutters
integration
sammenlignes
##idae
##ftere
##leans
##obbet
1760
Baby
Jarl
Luke
Navn
pend
Absal
Daily
Miami
farvet
møbler
Østrigs
##spolitiske
dødsmetal
eventuelle
testamente
symboliserer
##bla
##tha
Leb
Vad
##muren
Emmy
##cippet
nøjes
porte
Stevns
Taiwan
Turner
skilte
værelse
observeret
opdagelsen
udfordringer
##ali
urt
##anget
Atlas
Fordi
opnår
##færdige
ejeren
orient
##udviklet
Hørsholm
##oa
##ét
##bra
##riv
##temp
##æfte
Krø
flok
term
Lloyd
træne
Holmes
Isabel
kamera
##fældende
Hellige
dateres
##ledninger
allieret
bemærkede
motorvejen
legendariske
nedslagskrater
kontroversielle
Š
##dale
##psis
##rave
keg
uld
##sprin
Diet
Saxo
indså
##analyse
elektro
forhånd
District
argument
noveller
tilsluttede
stationsbygning
##oh
##lle
##tia
Kub
ost
##klatur
Bella
Urban
afsted
kasser
leveres
ualminde
republikanske
##søe
AP
HD
SV
##alli
Dak
##egnet
##højde
##sbour
ving
##arater
##certer
rekre
arving
kæmpet
##baserede
gennemt
opfandt
spørger
##visningen
Samtgemeinde
##ygen
Key
Klø
asf
##desig
##iftes
1763
list
##bugten
vinge
angels
etnisk
forene
væbnede
dialekter
påvirkede
erindringer
sognekommun
##bos
##lex
MG
##iche
Tig
fus
one
træt
vent
##ktorer
##urdere
egnen
##gerning
##ygdomme
analys
lodret
rapper
##folkning
Gestapo
Nordens
balance
sætning
Nørgaard
Pernille
dannedes
betegnede
##uddannelser
indstilling
virksomhedens
##ril
Ot
vo
CBS
fry
##cedes
##itage
1786
sele
##afhæng
Bilen
Kijev
Davids
hærens
kørsel
##ografien
udløste
tilpasse
dimension
folketings
fotografier
##amesterskabet
##acy
##zel
SM
##chau
Did
hef
Høje
##okaler
Ecker
Unter
Vegas
måner
englæn
nyheds
næring
opkøbt
##reservat
Century
Romanen
diagnos
jagerfly
##stjenesten
Armstrong
løvfældende
##ður
alp
##ælvet
1778
Styr
##indede
##ombard
##stream
Eddie
Fugle
##holdenes
favorit
misbrug
monopol
sekundær
##forholdene
dekoreret
luftvåben
redskaber
genoptaget
nedrykning
udenlandsk
bosættelser
##alf
##mek
##edag
##kler
Ans
roy
Fogh
Lene
galt
æren
Malmö
dukke
##æringen
rekrut
byrådet
##ændringer
Australia
topscorer
karakterer
indvandring
##onia
saa
##givne
##immel
##berkul
Beeth
##skolens
Vilnius
guderne
medført
skjulte
ideologi
Mountains
overorden
departement
sammenslutning
##bass
##time
##øjen
fyn
1782
Jere
##trådte
gaver
tungt
virus
Tredje
Winter
opsigt
træder
Hartmann
fjernede
forsøget
markerer
industrien
udtalelser
Amerikanske
grundstoffer
q
##menne
##umper
Rets
gros
hule
opsp
##udgave
Klint
bonus
jæger
##minster
Nummer
fortet
hierark
mekanis
gengivet
oldtiden
definerer
betingelse
PlayStation
bronzekampen
tilgængeligt
•
##ovn
##sje
##rash
##sche
Tus
##shand
Lade
bøde
stro
mixed
##offerne
Observ
Reform
accept
faktum
forsig
Eriksen
begejst
elektri
history
##RO
##ites
##svin
Jin
arch
Pearl
Nintendo
forbindes
mineraler
ovennævnte
arbejdsgiver
IP
vag
##ærker
Ruth
Vill
##berlin
##husene
Etiop
Hagen
beryg
ypper
##brogade
##lysning
Himmel
pistol
anskaff
høvding
kvinden
sendtes
tillade
Mercedes
dobbelte
Newcastle
##instrumenter
Á
Ær
Them
tykk
##shavet
spores
hartkorn
Underground
beskrivelser
samarbejdede
##jn
##asa
##ols
Mis
##pleje
Rapp
aske
##vangel
##ienborg
##ledelse
Herluf
kronet
sekond
##ættelsen
Digital
Salling
arkiver
indførtes
oversatte
elektronik
forskellen
##AB
Tau
cap
uro
Lock
Mors
##jordes
toler
invent
konsol
udefra
##sfjorden
Universit
eksistere
varetager
berømmelse
investeringer
##icus
##smark
##timer
træf
Stutt
tabet
Malays
Roland
almene
legeme
##stenborg
acceler
lidelse
efterfølgeren
##bit
Aja
sov
##skild
##kongen
##sgaard
##ængder
Bevæg
Teleg
geark
stads
##itektur
##okument
affald
andres
dyrene
valuta
betjent
forholds
nedsatte
passerede
nomenklatur
filmatiseret
departementet
intellektuelle
##mpe
##ians
240
tyk
##bered
##ruter
##ticle
1785
Dets
Plat
hero
About
Price
beher
vægge
##arriere
##bredden
højden
magiske
garnison
genvalgt
hotellet
værelser
Præsident
Kristeligt
biblioteket
overvågning
generalsekretær
##air
##iac
Fod
##enden
##murer
##ærket
akut
evig
fond
##selige
Strøm
Erling
dommen
makker
Ejendom
kulstof
Discover
Technology
##imp
Fx
Bio
Meg
hil
##stern
Chan
Greve
idéer
silke
tomme
fulden
##givelsen
siderne
spejder
styring
Fakultet
ligefrem
revolutionære
##gås
##ize
SU
##flik
Sed
cre
Muss
neds
urte
##skilte
huske
##stadens
forvær
udgøre
uddanne
gymnasium
stenalder
ekspansion
Charlottenborg
LO
Tub
##legne
Krim
VIII
påpe
##æssige
Næste
Fremad
Skjold
firkan
symmet
organer
##bestyrelse
forhandle
forstæder
fejlagtigt
Fredensborg
undergrunds
##juk
Wu
##rity
ast
##sfæng
Benz
Abdul
Oklah
dømte
rulle
stemt
##arkitekt
##partment
##sklubben
arealet
spænder
straffesp
##cell
Gel
##kryds
##stuen
Cook
Hunt
mart
Eller
Langt
narko
##ribende
Troels
##ringerne
opererer
resulterer
SønderjyskE
cykelrytter
landområder
aktieselskab
folketællingen
##bio
##bys
Zh
##rack
##ypen
##atory
##estra
##fords
##komne
Bund
munk
stød
##olkede
##søster
døren
mælke
##førende
##stidens
Brandt
Orleans
afholde
akademi
bestilt
forbliver
indbragte
##aktiviteter
oversætter
slægtninge
rapporteret
##VA
Oe
##aris
1740
sank
##priser
Trier
myter
skræm
Edmund
Grenaa
Hallen
Justin
Manuel
Valget
Letbane
dansker
måneden
tekstil
Colorado
Langeland
angelsaks
efternavn
lutherske
demonstration
##grev
##atlas
##overn
##teori
bibe
Snart
baneb
faser
##koncert
afgive
global
##hospital
Maryland
baltiske
overgive
##smuligheder
ministeriet
IN
##nett
##nitz
##synet
cast
##bureau
##rshavn
Munch
Trade
hvede
otter
smukt
Kansas
Lassen
bakker
søjler
##voksende
reperto
indkaldt
leverand
missiler
nordfris
netværket
teologisk
oversættes
privilegier
Folkerepublik
##keri
##ucky
Ane
Ple
Sve
##celæn
##elles
##ields
##sbyer
##småde
##villa
Flag
deci
etik
guer
øger
##axofon
##eloven
forræ
##samfund
Typisk
reklam
stejle
Emanuel
dramati
estiske
figuren
mændene
##medlemmer
Montreal
Tórshavn
udspringer
##cos
##pre
NO
##west
##yton
##nedes
##vinge
Data
krum
mure
huden
Brygge
Ulrich
motion
##sprojekt
fugtige
Politiet
autonome
Middelhav
overlevet
simpelthen
argentinske
manuskripter
transportere
##jud
Rim
hyb
php
1768
Graf
stak
##rekord
tilfal
##ationens
Brigade
skelnes
trusler
trækkes
baseball
##historiker
Kristians
faldskærm
udstation
interviews
positioner
specialiseret
arbejdspladser
##DP
##gow
##ups
BR
##lære
##veri
650
Lap
Luk
Nev
Whe
##rough
Auto
Vanc
##onerne
##yldret
##æstede
##sfabrik
Ringen
kyster
bogtryk
begrænse
sangeren
##programmer
Management
depression
##boy
##lob
##oes
##smo
##cock
##skyt
230
Cyk
Heb
Unge
mors
sære
##resser
##ulture
Pokal
koden
lider
svovl
Sygehus
Ungdoms
patient
besidder
biologisk
Dictionary
Osmanniske
samfundets
##revolutionen
##apti
##atol
Hår
##holms
1682
dæmp
håbet
##boliger
##portræt
Weimar
farlig
spises
sørger
Gottorp
Holberg
Kanalen
Nielsens
persiske
badminton
Middelfart
månekrater
##EM
##upe
##sang
Fed
Ice
hør
Ajax
##ktiver
Eugen
Trump
opmun
Søndre
Zürich
mandag
##flyvning
##kulturen
anstren
storfyr
rotation
udvikles
tusindvis
nyoprettede
##lu
##frø
HB
dæ
##asis
##burn
bay
hist
nåle
købes
##sperson
Angels
farven
støder
ubehag
##isternes
##arvsliste
Simonsen
comeback
straffes
magasinet
missioner
##aba
##star
Pok
Opel
Skin
##forfat
##mængde
##omerne
bladene
metoden
strengt
Struensee
afhængige
velkendte
grevskabet
##RC
##mace
##yers
sød
Kalk
Pitt
Roth
Place
amter
Billed
Minnes
##givelser
parterne
kontakter
##sturneringen
undtagelser
konstitution
Idrætsforening
##bbe
##éen
##cium
##stok
hat
Schul
ansku
Family
Monaco
##ensioner
Kastrup
frugter
tilføje
tingene
betjener
kvælstof
Slovakiet
Stuttgart
##cyl
##lear
Ene
Opp
##steen
bark
##stider
Einar
Parag
Sådan
##skrigene
sektion
Ishockey
psykiske
foreløbig
regionalt
arrangeres
bestemmelse
konkluderede
offentlighed
##imi
##isku
##jser
##sven
XII
##overe
1769
Døds
Ulti
Cæsar
##aktorer
##projekt
Marius
Jensens
faldende
udstedte
succesfuld
Dannebrogsmand
Hi
CIA
##olens
Know
syre
##kredse
Aksel
Thomp
##centrum
##smagten
Sundby
læring
malere
priori
Carlsen
Umiddel
passage
tidsrum
Atlantic
jernalder
Indonesien
Makedonien
opstilling
forberedelse
##bok
##tøj
##skad
##vier
Nob
hæd
##ignal
Audi
##mernes
Hæren
Prest
ydede
Easter
anonym
drabet
kaster
##optræden
Sydvest
flerårig
ritualer
børnehave
udnyttede
forbedringer
##fla
##jas
##ffic
##lier
rad
tar
##joner
Jørn
amtet
stole
##sparken
hjemby
massiv
Indiana
rigeste
brugeren
designer
overvint
##studerende
anmeldelse
fangenskab
kvartfinalen
##owe
Sz
##anas
Dev
Høg
Ltd
##medes
##polen
##ægtet
Björ
Toft
Empire
ekspert
udgivne
ledsaget
ministre
Göttingen
eksperter
Development
##oba
##erin
##etid
ign
1536
stiv
##garden
bæres
##anterne
Sidste
ruiner
årgang
##billedet
ansattes
medvirke
mystiske
rockband
ansvarlige
håndværkere
demonstrationer
##11
CC
##eløb
Cic
Kop
##eline
##gaden
##sagde
##stero
##stigt
Call
Dean
Disk
Bayer
Mozart
siddet
##skillige
fyrster
hundred
sangere
videoer
angående
højskole
tænkning
vindende
hitlisten
kollision
landskamp
vandkraft
Universitets
begivenhederne
##cens
##sbes
Isa
rut
##jæger
##ricks
##korset
##reform
##vinden
Barry
Congo
omegn
##okommun
Harold
Second
lister
forstår
lastbil
tilbageg
fremhæves
hjemkomst
sproglige
anliggender
##main
pod
Bald
Hvem
Felix
Santi
Sofia
Versa
first
##lederen
Chopin
skjule
Jelling
website
Vinderen
herskede
regnskab
##virksomheder
Frederiksen
Udviklingen
##gie
##osp
Fut
Fæl
McL
inc
##stemt
##stine
Bres
##andens
bølger
ordnet
partis
sprang
Susanne
kredsen
tilskud
Southern
beordret
farvande
vurderet
gennemføres
resultaterne
##cin
##lum
FM
PL
##græs
Dum
##iform
##sløse
1765
Dame
Kred
Nina
irak
klip
køns
centr
parag
rytme
##stinget
Engine
report
symfoni
Children
Kentucky
Oklahoma
effekten
sporvogn
##instrument
Scandinav
foredrags
grundstof
Umiddelbart
herregården
##loo
##uca
##stik
##ultz
Lær
##garde
##ryder
nukle
Illust
Willem
huskes
slette
tænker
undgik
##albummet
##levision
fodboldt
regulære
##regeringen
premierløjtnant
Hub
Pun
##røret
##stæng
1766
Prom
mundt
##rateret
Nicola
flyttes
oplyste
##akademiet
##fabrikker
Augustus
telegraf
Olympiske
Oversiden
republikken
sportsgrene
forfatningen
Age
Dow
Ves
##lokke
##edømme
Bruno
glemt
ocean
Secret
aminos
fornuft
sejlads
Tunesien
bombarde
dedikeret
inddeling
Ekspedition
mindesmærke
##bind
##verk
##vert
##spids
Care
Hvil
Shin
##forand
Minde
##pitaler
desper
runder
##modellen
redskab
transfer
Naturpark
produktiv
storebror
ægformede
Lufthavnen
indsamling
parlaments
##hin
##hoe
##alle
##bøll
Fur
Gon
Mej
##ønnen
Herc
flot
Alton
Rejse
Planen
oftere
udfald
hændelse
rednings
sundheds
udøvende
Vancouver
kompromis
menneskene
længdekreds
produktions
##iy
##achs
SAS
Saw
##edede
##draget
bælte
foder
##cession
Symfon
fartøj
regime
tvinge
afviser
plantes
sandhed
ændredes
afgrænset
Uddannelse
genudgivet
indstillede
##ims
##oya
Qa
210
Walk
iron
Titan
fejre
##inental
indisk
kursus
rådede
stilles
Magdalene
forberedte
omdrejning
publiceret
anvendelsen
administrativ
panserdivision
##ekn
##irm
##jav
##ulff
Gis
##hagen
Card
Falk
Pink
Type
Vent
loft
##ciplin
##guitar
Haven
Judas
Movie
blind
udfør
anslås
fylder
belgisk
##sættelsen
Monteneg
fjendens
fokusere
mistanke
Storebælt
konceptet
vellykket
Department
afsluttende
repræsentation
##ulo
##pens
thi
##shjem
Leth
gulv
nøds
vamp
Prote
lukker
##virkning
krigere
køretøj
Spaniens
kritiker
ferskvand
lejligheds
sædvanlige
udsendelse
RA
Nem
Tac
see
Torv
Total
##icismen
##sposten
fordob
Arabien
rummede
##holdnings
Egernfør
fødevare
tilflugt
chokolade
Adskillige
destroyere
arrangement
Nordjyllands
begrænsninger
eftermiddagen
indspilninger
Mesterholdenes
##etta
cup
nik
Sier
grov
saks
##inente
##rutter
Edgar
Stadt
hvælv
tabel
Cirkus
børneb
fugtig
gotisk
kælder
tenden
letvægt
nedgang
styrken
Guardian
Kronprin
Musikken
kvinders
kulminerede
elektromagnet
Neg
Sko
1720
klat
##ysning
Rådet
røver
Carter
Nansen
tilbøj
togsæt
købmænd
##litteratur
##österreich
Nordkorea
medvirken
godkendelse
universitetets
##alk
##bot
##dør
##fet
##ied
##myg
##ious
##rama
##sbog
Kry
##sbrug
1730
Costa
Linje
Piper
remix
##baseret
Ingeni
Stater
return
camping
fortrol
regnede
##problemer
opdeling
##festivalen
Middelalder
suverænitet
sekondløjtnant
##dic
##era
##lam
##achi
##ethe
##snæs
Nim
Yam
drø
Maler
Order
ambul
##randede
##stander
Dagmar
halsen
Særligt
manifest
konservativ
storhedstid
##jin
##cons
##entz
biv
råb
##atest
##igter
##lerer
demo
skån
ster
vacc
Heraf
Linda
##søgelse
##tekster
Marcel
Slægten
rigsråd
Algeriet
kolleger
velfærds
absolutte
behandlede
organisere
kommissionen
##toft
Cand
Like
Torn
##udbrud
Jerry
Nogen
##byggere
##prægede
magter
stands
##branchen
##strømmen
gesandt
kunstig
##bibliotek
##forretning
Henriksen
kulturelt
opfattede
##information
borgerskab
Produktionen
siddepladser
koncentrerede
hertugdømmerne
##rea
##kval
kub
Blod
Mods
Told
Manch
Tiden
udlån
Planet
grønts
Challen
Mathias
bistand
trykket
vurdere
##ordninger
forsiden
overføres
foreligger
begrundelse
betydeligste
specialiserede
##rov
##ælk
##sfil
Læge
Lære
krat
##træder
Irish
gevin
koste
Knight
Laurit
herfor
synder
Wallace
afsløre
massive
stjålet
ulykker
overgreb
midterste
reduktion
Egernførde
Socialistisk
bronzemedalje
##chts
Ent
Øer
1767
1779
Karls
Moses
fjeld
ubebo
affære
samtid
opdater
sekvens
Simpsons
pseudony
##ningsanlæg
herregård
Rå
Aug
Tch
Zar
##ieren
bjæl
##street
Autom
Tiger
##artikler
##vandring
Boldspil
Electric
Nordland
velstand
wrestler
sandheden
skilsmisse
ødelæggelse
andenpladsen
##obar
mut
##irkes
Jenn
##porten
afgik
##ception
##rydende
Fantas
Glasgow
Grundet
Londons
gaderne
habitat
tiltrak
ligevægt
tydelige
velgøren
entrepren
fremsatte
investering
Enhedslisten
##60
##rh
##rain
##ærsk
Bid
Cad
Sud
##prøjt
##årede
Cold
##ricket
Thors
Franco
Linden
Scottish
Thompson
særskilt
udtrykke
mekaniske
Vestjylland
Centralasien
produktioner
KB
##icht
Fast
Ivar
##sminde
udven
##teminde
kriger
luksus
profit
tilmel
fantasy
omdanne
knyttede
Montgomery
undersøger
efterspørgsel
##90
##IG
##asy
##illy
Kli
NBA
##abler
Egon
Hipp
Hood
Nazi
Plut
Rund
Scar
##ebjerg
##edrift
##grunde
Basel
Saudi
##smuseum
Saturn
Struer
oplyst
tilløb
Georges
herredo
klipper
skænket
udtales
##ificerede
Centrale
Colombia
Pictures
bagefter
forsinket
guitaristen
##pej
##æner
kør
##etery
##stole
Høeg
slan
##boende
##konsul
Løkke
##skontor
Helena
Prædik
Country
Oktober
reddede
##vangeliet
reagerer
Oldenburg
Parlament
grænserne
præsidentvalget
##EF
##éd
##uta
Kø
NHL
##prise
##sfuld
Drew
Qing
west
##inther
Afrik
istid
##borough
Julian
bredte
##ssamfund
Alabama
Weekend
opstand
fortaler
katastrofe
##tie
Ig
län
Besk
Bohr
Pris
Race
##busser
##istrup
##parker
katte
sabot
Svensk
munden
mindske
opholds
striber
tungere
Marianne
gehejmer
metaller
bevirkede
##lat
##lus
GT
##lieb
Sla
##igede
##smøde
##uleres
Botan
Nordt
Slots
grove
helte
lidet
spare
Præstø
banden
servic
tilnær
rasende
##styrkerne
strømmen
Henriette
ambassade
verdensom
Stortinget
Gn
Lé
##kurs
##pert
##stet
Asp
##olini
##tider
Fitz
Hamp
pant
Telem
dømme
manip
tårne
Buenos
Caspar
Helene
Warren
indlæg
##anternes
piloter
seksuel
ensartet
##temperatur
Cleveland
patienten
gennemgået
##edi
CV
##frie
Hyl
alg
jet
Rosa
##anstal
##ighter
##svåben
Banks
Guden
hydro
medic
Fisker
Underta
forlovet
gennemsk
##stjenester
Lauenburg
købstæder
udbygning
næstbedste
##lub
##fing
##inth
Gem
##ilian
##ments
1648
Pira
Anmel
Baron
bygden
hviler
Gilbert
Mikhail
prægede
Richmond
kraftigere
kommentarer
Demokratiske
forventninger
##ifs
lom
tap
kaos
##fterne
##oterne
##skader
Kenya
Weser
moske
##indiske
cykler
komité
Raymond
justits
Katedral
afstande
forlænge
rekorden
afsluttes
indledtes
kontinuer
primitive
orienteret
selvejende
udvikledes
##ists
##ømte
##ønike
Skar
##sbanken
Lemvig
fester
identiske
nulevende
eksistenti
instruktion
Augustenborg
debutalbummet
##Hz
##Ph
##cé
##kka
##helt
##umme
Rik
aar
##ægere
Føde
wild
nøgen
pulje
Tromsø
propor
udvist
##fotograf
##kommando
##lingerne
formind
stedfor
Generelt
livsstil
slægtning
standarder
##the
##bech
##lica
Dip
Was
bæn
vas
##farvet
##tegnet
##tårnet
##øjelse
Klima
bevog
nabol
svare
egnede
##retnings
nedlagde
udrustet
egentligt
elektroner
prominente
##bay
##kod
##buen
Gün
dit
ynd
##mødet
Code
hæve
kass
##demars
##dioxid
##outube
##ægning
annon
lyrik
##eringer
##aktionen
Campbell
Harrison
##inisteriet
##lighederne
##sproblemer
indehaver
skildring
statholder
nationalsoci
##hes
##nyt
Sæ
##egov
##gest
##tårn
Lon
hyg
##liske
Marse
Pfalz
Westf
ignor
##alistik
##udgaven
Hender
kilden
våbens
Bergens
Handels
handicap
Gibraltar
Minnesota
opdateret
Baggrunden
udnyttelse
forhandling
straffespark
ekspeditioner
##cti
##iak
##onda
Bøg
klo
pun
Cons
Høst
knob
##manuel
##rænsen
Aires
spont
##ementet
væsner
fantasi
Aleksand
Johnston
geografi
runesten
##betændelse
Slovenien
divisions
grosserer
tropperne
##udviklingen
zu
##busk
##hler
##holz
##jene
##stin
##vator
Aust
Gron
tynd
Honor
##lageren
indust
udslet
museets
indsamle
generaler
bekostning
filosofisk
forbeholdt
usikkerhed
underjordiske
##ST
##kj
##lå
##pul
Gur
Rek
Glee
Neil
kølv
##ilitet
Andet
Føder
tilbe
##edralen
##sforbry
Kalmar
Presse
gravet
##sseldorf
Seattle
forsink
såfremt
##forskningen
helikoptere
homoseksuelle
markedsføring
##dsat
##flet
##tten
Sct
Tip
##affel
##jørne
1759
Loth
Tage
løve
##afsnit
##minder
about
essen
rådet
unger
##videret
detail
flyene
kvante
sprede
ventil
Filmens
Studies
##likationer
##foreningens
flertallet
Forskellige
##rd
##zt
rø
Cool
Emin
depu
heri
##litter
Grande
Living
##spladsen
antager
moderat
optages
åbenbar
Taastrup
ligheder
luftfart
styrelse
talsmand
stilarter
Kerteminde
stabilitet
##hår
bø
##mier
Acc
##bords
##lenes
##steins
##streme
Atlet
Creek
indbe
sæder
værre
##ellerne
Listen
etaper
Bortset
Uruguay
fabriks
fortrin
omdisku
videoen
adelsmand
maksimalt
spændende
Christiane
damesingle
operationen
tidspunktet
##kød
##jsen
Nad
##enson
##nerup
##ottet
Cruz
Oran
spyd
pragt
Juvent
Terror
omkran
sønnes
##sidenten
Cemetery
undervise
andenplads
udlændinge
##VP
##font
##hals
##ippe
##ulle
cub
för
pyn
##court
##sprod
Forg
Juul
gemt
slås
##banens
##titlen
Bakke
byder
nords
udøve
##anernes
##dspunkt
##vindere
Middle
tvangs
vindue
dækning
giftige
senator
Düsseldorf
fokuserede
mexicanske
grundlæggelsen
organisationens
##23
##oi
##uy
XV
##skrav
Pors
rekt
ture
##ctions
##magten
##væggen
##gørende
##kompagn
##løsning
Dybbøl
færger
Santiago
avanceret
kølvandet
underskud
Geschichte
hitlisterne
usædvanlige
##anto
##dtag
##tjen
Haf
vha
##fangst
##vilkår
Veter
troen
Torino
##stødende
Simpson
Thorning
fastland
hydrogen
østsiden
Christmas
korruption
Shakespeare
selvbiografi
forestillingen
##cz
##dra
##buch
Oce
sak
##cerne
##igelse
##ussion
Bryan
kurve
Øerne
Frihed
Schwerin
Skuespiller
undervisnings
##Ar
##grå
##ütt
Kö
od
##tene
##tsch
Gos
Put
Rey
Seh
bab
Tegl
##bruger
##racket
##rettel
leger
Astrid
udlagt
erkende
anseelse
fastslog
korrekte
litterær
slaviske
Øresunds
eksploder
forpligtet
fungerende
undervandsb
##Dan
##fjer
##opot
##shas
Dod
IBM
Tir
##forme
##zonen
Garn
Soul
klim
##husets
##iernes
##semble
Kirch
Lukas
Never
Phoen
Sogne
Sting
guide
jævne
##værnets
Gruppe
censur
##virkende
Teknisk
studium
bachelor
desværre
flyvende
skribent
##arbejderne
Philosoph
biskoppen
forberedt
minoritet
soloalbum
erobringen
Statistiske
##irv
##rap
fi
##born
##lium
Kau
##acher
##itzer
Dani
Pand
drik
plet
##tigste
Elite
Kapel
Schou
alsid
Modsat
Watson
centre
hunnen
Camilla
flådens
indtraf
kardinal
varetage
Christoph
Television
banebrydende
eu
##lans
##osion
Hest
Krak
Spil
ondt
##graden
##ocaust
##strøms
newze
proced
atelier
##samfundet
instruktøren
##jne
##oko
##AFFA
##inda
##rudt
Arg
##dsels
Boris
angst
møbel
roste
##stoffet
Retten
døgnet
legene
ordbog
taktik
##oriteter
stikker
##kilometer
##repræsent
##samlinger
Economic
Politisk
beskyldt
sommerhus
Alexandria
hjemmesiden
beslutningen
bestræbelser
programmerings
##pat
Brü
Due
Shu
gly
Brev
Buff
Jule
Moss
tors
##kompon
##vognen
GAFFA
Måske
Stars
There
Walker
cylind
fejrede
Ægypten
##spændende
Arabiske
betinget
genetisk
skænkede
produktet
Commission
stiftelsen
forfølgelse
overraskelse
##aul
##ønde
Sib
bib
may
##etrin
##ilder
Bing
Sean
Work
oxid
resp
uund
skræn
Witten
bevise
cirkus
livets
teatre
Maurice
Stephan
Teksten
kreativ
præsent
rettede
##hjulstræk
Ultimate
Venezuela
isolerede
Himmerland
soldaterne
Filippinerne
##rez
##lyde
uop
flor
urin
##staben
Danny
Marco
anmod
catal
garan
herom
streg
Bismar
Herved
forøge
myster
##grundlag
Nigeria
sejrede
sværere
##inationer
##rykningen
statsover
tilstande
tilfældigt
våbenhvile
diskussioner
##amas
##ænds
mød
##balle
##cifik
Arkæ
Mira
Spen
unik
lejre
stere
##kestret
Særlig
svoger
Ulfeldt
stabile
##trafikken
bagsiden
springer
Forskning
##shospitalet
blomsterne
##videnskabelige
##lt
##kly
##olsk
Fas
Tør
##parte
Dest
Tanz
fods
sløj
Agger
luftb
Harbor
Ingrid
atomer
gotiske
seminar
lidelser
residens
øgruppen
Assistens
Interview
fotografi
overnatur
vestsiden
doktorgrad
katolikker
##konkurrencen
landstræner
samarbejdsp
endestillede
##dat
##beth
Cow
dus
fia
lat
##delin
##gesen
Sele
fjel
gult
Øvre
##etagen
##olleyb
Justi
Stæng
gemme
groft
lovet
polit
Newton
Sparek
fløjte
fremsk
forfald
smykker
udtrykt
##iorkester
knockout
overtale
tuberkul
##stemperatur
##St
##cki
##iljø
##pige
FCK
##debut
##sgård
Feld
Nass
Utah
##gænger
##opgave
Julia
##iddende
##sdatter
Cypern
Kassel
Kosovo
viking
Karsten
antisem
knytter
##fabrikant
fangerne
splittet
opbevares
Forsvarets
realiteten
middelalderens
##øk
×
AK
Ryg
##istik
##riter
1650
Ebbe
asyl
##judant
##ktorat
##roller
##skomst
baser
konvo
Præste
bolsje
doping
istand
landsb
##kammeret
indtræn
##højskolen
Angrebet
Etiopien
milliard
tilskuer
Trondhjem
versionen
sideløbende
særdeleshed
##ypt
AI
##aise
##kund
##ogue
Cul
Kep
Nes
Omar
Shan
Utre
##ulator
Multi
hævde
spore
ugift
plastik
udviser
##arbejdede
trænings
Rigsdagen
diskuteret
omgivelserne
professionelt
##gtet
##inær
##neys
##ovic
1728
seni
stry
bjørn
##klasser
Borgen
Nørres
Pastor
fangst
graven
husene
østlig
##spunktet
##ætninger
tredjest
ansøgning
grupperne
opdragelse
optrædener
##80
IX
##ancy
##äger
Dim
Jür
##hlens
Fæng
Sunn
Bygge
Frugt
Grind
ligak
##lington
Altona
femten
kortet
påvist
ranger
sydlig
foruren
havneby
Malaysia
befolket
kunstige
opfatter
Valdemars
overtager
reorganis
violinist
forhindrer
grundlæggeren
RS
##gger
Nid
##aleri
##rhein
##råder
##æerne
Damp
Gall
begå
##sbroen
##server
legat
lejet
uskyl
Tobias
passet
Berlins
Masters
Senatet
fiktion
opvækst
##læggelsen
Kunstner
Margrete
Religion
afgrøder
moralske
tusinder
ulovligt
varighed
Djursland
schweizisk
fremstillingen
##AP
##elet
##fekt
Alm
##jords
Brag
Ther
chok
hals
hærs
song
syds
till
##schaft
##holdige
færgen
Tallinn
##producent
Anlægget
julekalen
tankegang
Vestindien
Kunstmuseum
##avi
##flod
##hild
Fig
Ont
Tin
1755
Luis
stok
afstå
stolt
##stattra
bakken
stilen
digtere
klostre
perfekt
Britiske
fortiden
redigeret
Journalist
konferencen
##mån
##esis
##imon
##irer
##dømte
##knude
##liche
##numre
##onisk
1754
Agen
Blek
Haug
Kung
heks
##angere
##brødre
Schack
toilet
konfron
standse
facelift
forbandt
vurderes
Henderson
Publishing
eksplosion
##KO
##veg
CE
Cu
SD
SO
TH
##anet
##barn
##cont
##ishi
##stop
pon
##iatri
##itary
1761
Blom
Frie
Luci
Oliv
Skær
home
##bygges
##ældste
Færge
månen
##esteder
Greifs
Guitar
udland
##tilstand
Clement
Specielt
Valencia
udnyttes
udnyttet
akademiet
genetiske
afskediget
##agi
SL
##bern
550
Oak
kogn
##regning
##sbladet
Alfons
bagved
flaget
gifter
##ringende
Houston
finansi
fiskere
##arbejdning
medbragte
relevante
voldelige
reducerede
dimensioner
##avet
bob
Edge
Lidt
Reyk
Amand
trofæ
eftert
solist
citeret
Rungsted
kreative
melodier
Samtidigt
menigheden
opretholdt
semifinale
genforening
##ee
##fler
##tica
Lum
RNA
cif
##isher
##nette
Aars
Stal
iver
jung
##ithium
##mægtig
##ståede
melde
##sklasse
Barken
bjergt
henter
##smetoder
Leonard
membran
gehejmeråd
kompliceret
lokomotiver
fodboldforbund
##jab
Cub
Loke
Mits
toer
##rundet
Again
Jules
Medie
genåb
kælen
Broder
Comedy
Murphy
bremse
grunds
løfter
Capital
ubetyde
Armenien
Juventus
udgravet
modstands
forlængede
tegneserier
indeholdende
##yon
##glas
gla
jer
møl
##strid
##water
Mare
Reed
Roma
roll
seng
tast
Break
Malta
Warri
bagud
nobel
##kastede
##rediens
##skysten
Orange
cement
hiphop
lysere
skille
Edwards
Rostock
psykiat
Memorial
Tyskerne
afslutte
boksning
frataget
seksuelt
Westfalen
generalgu
måneatlas
udsmykket
detaljeret
Westminster
observation
##bie
##phis
DTU
abs
##chten
##slund
1758
Klin
Radi
Girls
agter
marin
sengo
Korsør
Krabbe
chilen
påstår
##ferencen
grundig
konfisk
monarki
udbrede
Catherine
Cornelius
brændende
wrestlere
##partementet
begyndende
Instituttet
færdigheder
turistattra
Befolkningen
førsteholdet
##70
##ën
##igi
##lies
Num
saf
##skron
##waffe
Here
bomb
brik
lign
reag
##ktions
Rocky
ellip
logik
mørkt
udlej
##entligt
##skydning
Absalon
Centret
Eastern
Phoenix
markere
nedbræn
forfædre
herkomst
neutrale
opholdet
##betegnelse
kvindernes
rådgivning
brasiliansk
ministerium
konstruktionen
##hyl
Gy
##erup
##foss
##muse
bak
##øjede
KFUM
bryg
tåge
##betjen
##hjemme
##nemann
##planer
##smaler
Lunde
Peace
entyd
fylde
kæden
##skrevet
benene
hindre
udkant
Dernæst
radioen
##herskende
##ønderslev
afholder
grevinde
lensmand
forfattet
udnævnelse
understøtter
nordamerikanske
##næs
NT
Lpi
##cture
##ordan
##rigen
##scher
Plin
Schi
##afgift
Final
Freja
absor
##anismen
Bertel
Dallas
hævdet
kvadra
Admiral
Conserv
inskrip
nordlig
artister
Discovery
Seminarium
landevejen
propaganda
Brønderslev
turneringens
gennemsnitlig
##ál
##bey
##uka
##bælt
Hän
pot
##iders
1762
Arve
Frid
Priv
Tand
empi
plej
Falls
iført
lægen
nytår
power
refle
taber
##kaptajn
##e
##r
##n
##t
##a
##i
##s
##d
##l
##o
##g
##m
##k
##f
##v
##u
##b
##h
##p
##.
##,
##å
##y
##ø
##æ
##1
##c
##j
##0
##"
##S
##D
##2
##9
##-
##H
##A
##M
##B
##F
##I
##8
##K
##T
##C
##)
##(
##P
##E
##L
##5
##7
##R
##3
##6
##N
##4
##G
##V
##w
##J
##O
##U
##W
##:
##z
##'
##x
##/
##–
##;
##é
##Y
##Ø
##Z
##ü
##q
##”
##ö
##%
##Å
##ä
##&
##X
##’
##Q
##_
##?
##á
##»
##«
##ó
##=
##Æ
##!
##—
##]
##|
##[
##í
##+
##è
##°
##“
##ð
##ß
##$
##ç
##É
##ë
##⁄
##ú
##Ö
##§
###
##́
##ñ
##š
##ć
##à
##*
##ō
##−
##ā
##ł
##‘
##â
##>
##ô
##„
##£
##ã
##<
##α
##×
##ū
##č
##ī
##о
##а
##ý
##Š
##Á
##•
##ń
##ê
##и
##ž
##е
##ο
##ï
##€
##н
##ا
##·
##î
##ς
##р
##ė
##ş
##ı
##Ü
##с
##μ
##Ó
##ē
##Ä
##õ
##ă
##→
##~
##ρ
##ν
##′
##в
##β
##ι
##τ
##ř
##Č
##т
##Þ
##λ
##ل
##û
##к
##ò
##ε
