[PAD]
[unused0]
[unused1]
[unused2]
[unused3]
[unused4]
[unused5]
[unused6]
[unused7]
[unused8]
[unused9]
[unused10]
[unused11]
[unused12]
[unused13]
[unused14]
[unused15]
[unused16]
[unused17]
[unused18]
[unused19]
[unused20]
[unused21]
[unused22]
[unused23]
[unused24]
[unused25]
[unused26]
[unused27]
[unused28]
[unused29]
[unused30]
[unused31]
[unused32]
[unused33]
[unused34]
[unused35]
[unused36]
[unused37]
[unused38]
[unused39]
[unused40]
[unused41]
[unused42]
[unused43]
[unused44]
[unused45]
[unused46]
[unused47]
[unused48]
[unused49]
[unused50]
[unused51]
[unused52]
[unused53]
[unused54]
[unused55]
[unused56]
[unused57]
[unused58]
[unused59]
[unused60]
[unused61]
[unused62]
[unused63]
[unused64]
[unused65]
[unused66]
[unused67]
[unused68]
[unused69]
[unused70]
[unused71]
[unused72]
[unused73]
[unused74]
[unused75]
[unused76]
[unused77]
[unused78]
[unused79]
[unused80]
[unused81]
[unused82]
[unused83]
[unused84]
[unused85]
[unused86]
[unused87]
[unused88]
[unused89]
[unused90]
[unused91]
[unused92]
[unused93]
[unused94]
[unused95]
[unused96]
[unused97]
[unused98]
[unused99]
[UNK]
[CLS]
[SEP]
[MASK]
##er
##en
s
##de
##an
.
,
o
f
##et
##or
##in
a
##ti
i
m
h
##st
b
##ar
d
##le
og
##ed
v
##sk
##ig
##el
k
##on
p
##om
##re
1
af
"
for
##al
##te
de
ti
en
##ing
##un
S
##ra
til
##ne
##ter
D
##ol
##and
##il
er
t
g
l
-
##der
H
at
##am
n
##ag
##ere
2
##ud
med
den
##ri
##lev
##se
som
på
##ør
##av
M
st
B
##at
A
blev
##lig
19
##den
##ske
##ver
##is
var
F
##es
)
(
##og
K
der
##ik
I
##ær
in
##ste
T
##ke
ud
det
e
P
C
##ning
##ur
##od
han
20
E
##ge
##ler
##år
L
##sen
##it
R
##tion
##ru
et
sk
##ul
fra
##ende
om
N
op
##ræ
##det
##us
G
##dt
be
##as
##ro
##ve
##ens
##ang
##fter
##ch
hv
V
J
##ab
##kke
##erne
har
##del
##ent
r
##ds
##ir
##ist
##ber
sam
##ger
ved
##mer
##kt
18
##land
re
O
##id
##ation
sp
##um
al
##la
##me
##li
j
##ks
an
un
:
##for
over
hav
##lige
##hed
men
##æn
ind
##be
##ov
##op
Han
200
W
U
hvor
efter
201
år
##des
før
##ser
sig
c
##iv
##ut
##ad
##yg
##ic
kom
##und
##est
ikke
##lem
##em
##os
##så
##ot
##æl
Den
##ort
sin
##hol
##men
fl
St
##rig
##eg
kon
##yn
##ion
Det
##iske
##else
##ft
##ien
under
##øj
##ord
##let
3
'
også
man
##isk
##ker
/
##eller
##ling
##til
##red
##avn
##ede
##pp
havde
##ok
##ille
kun
ar
##he
mod
##øb
of
kan
##yr
##gt
del
##øn
##gen
##art
##dte
dan
eller
##sp
and
##ige
##00
gen
##eret
##ie
så
##ark
##ran
##lag
fø
##ale
##ret
##ak
##skab
##ene
##rå
##ner
##ring
##ære
Dan
##ket
##yt
##iden
##rem
ø
##yd
##ug
##ss
##ød
##ers
##ub
De
to
##erede
–
##ind
##ken
første
4
##inde
##age
##org
Ch
se
##im
##æg
5
##ster
##tet
lig
##tede
tid
##jer
17
##amp
An
##old
må
##ap
199
vær
beg
##ia
da
En
te
##bej
##ust
stor
##sti
##eres
##lan
##ff
##sv
##get
##elt
##elig
##ry
##æt
##net
by
##nem
hans
##ven
##sten
##je
##ellem
u
##ib
##sm
kl
##mp
##ten
##øl
bet
frem
##ningen
In
fik
##ron
##ob
##elv
##ier
pr
udg
gr
##ligt
pro
bl
sl
Al
##ac
##mun
##dig
sen
ty
ny
le
6
##iti
mellem
##før
##elsen
##ci
##ati
##vis
##sb
##yl
##vær
##æng
##ingen
##ard
##ej
##rev
##tal
bru
fin
land
##kl
;
##eri
Un
##ater
hun
##ide
##ire
bli
Danm
##ce
##iver
##havn
##met
7
8
sammen
nog
16
##delse
198
##ly
##oved
197
her
Der
form
For
##tag
##itet
##tig
andre
##ann
##len
end
or
##ligere
forb
deres
##ts
##gte
##les
Sk
##mber
##ade
##eb
hj
født
være
##nes
høj
##uc
##iller
##uk
##æv
##istor
##if
##ast
##gende
##aj
selv
9
fil
##ant
##gel
##pr
stør
##ninger
The
tilb
Jo
##di
ned
##af
15
##up
##sl
kunne
##rede
##atter
##ange
flere
vand
gennem
forsk
##val
ligger
##tes
##rik
##oliti
##øm
arbej
##au
##eter
nord
dag
dansk
##ram
##øben
grund
##ån
##øbenhavn
Mar
##kom
par
mange
navn
##ck
##hold
##ræn
##ow
##rupp
byg
196
##ine
##erden
Ar
dog
##ass
hoved
##anske
##irke
senere
Danmark
##landt
vi
##raf
##elle
##sø
Her
##son
været
194
ad
##eget
##olog
##var
alle
##åde
Efter
##res
København
ken
##stru
10
kal
##ult
##isse
nu
##tiske
##ets
sit
##byg
eks
##alt
##åb
samt
ham
##kring
##ove
##vik
##atur
Ro
##sh
##ren
tidligere
##borg
##ay
##rog
##øde
skul
bes
denne
pla
kamp
verden
##andet
sy
tre
12
begyn
##kon
##skri
blevet
mere
best
mest
##ern
##usik
syd
sid
##æk
##ivet
##ænd
præ
##ole
##hus
samme
##of
meget
reg
lang
få
Th
have
Ø
omkring
##000
##vi
områ
Le
Re
##use
vil
##dere
Chri
spille
##eder
##jen
skulle
hvil
tal
##dom
##endes
##irk
##ban
Y
Sp
uden
##inist
mo
dem
w
##ager
##mand
##tog
##række
off
store
##yk
siden
danske
tilbage
forskel
##atte
##olk
he
##urop
##dsp
##tik
bliver
mil
##derne
ste
inter
195
Ne
##stem
the
##ess
##erson
193
##ys
##merik
##gang
Fran
##ive
pri
##undet
11
##enter
##tte
ru
##iet
##vin
##føl
Joh
medlem
hol
andet
blandt
##kti
##ansk
Sch
##by
##ich
politi
ret
død
0
##ave
mind
14
mens
191
bed
##ans
##ue
##anu
##els
000
##heder
##ivers
Hol
##all
sine
Fred
##reb
ra
kommun
føl
skal
##idt
##ledes
192
Kom
val
##med
##dre
anden
træ
##læg
ven
##bum
13
##ma
dette
##erik
##lede
gang
##uld
##per
histor
amerik
##ges
##arl
##ugust
På
##jor
##dende
sm
Hun
##dan
##øre
##tid
Da
##tisk
##ode
##over
##ell
forskellige
prod
##uni
kont
##agt
##elser
##uden
##ost
maj
findes
inden
nye
##berg
ofte
Nor
##aler
##rav
spil
##uli
##stil
far
##stand
række
Kon
hjem
##anuar
US
##our
##arts
både
##oden
ek
##tt
##alen
skrev
Hans
##svar
kendt
hver
plan
hvilket
grupp
##lin
##ational
januar
br
sø
krig
##arbej
udvik
##ande
hos
mu
Z
##yder
##ald
##sf
sep
##ou
erne
ang
##amil
person
juni
søn
film
vandt
stat
is
ser
##ført
##lø
##rit
##dag
opr
##iss
##eren
##ober
##går
musik
##ogn
kar
næ
des
##lighed
igen
##este
nor
##cer
190
##inger
##mel
##pril
slut
god
##ga
gik
øst
##ift
byen
##tember
km
##ore
##entet
##ah
gam
okt
stil
Am
##nede
im
nogle
##ysk
##ek
ca
##elskab
##io
##lagt
##sted
hele
vest
nær
tog
oktober
##ovember
april
##cem
lev
september
##ip
##ået
marts
Kommun
##teret
##fatter
##lik
##ævn
dk
##ate
189
##sæt
disse
hen
Sam
##stian
august
gener
spillede
USA
##igt
alt
##ægt
##che
##unkt
fod
juli
##oci
sæ
kri
##cember
##anis
##pe
##olle
Ved
##ksom
besk
Frederik
”
fire
##som
##form
november
ville
##are
##ånd
sidste
største
Nord
##ina
##hand
##ond
##ørn
##ræk
##ton
##ryk
sang
186
##her
##vej
december
##ach
##tere
blive
##ill
Par
##sker
##urg
peri
menne
Ber
2007
##ebru
tv
188
##ernes
først
kor
##ebruar
##ben
##ktør
##jorde
Se
tra
##terne
fran
##ationer
##krig
##ian
lav
New
##alis
lø
hold
%
mindre
##olen
Be
##ces
##ite
##ationen
ben
##mær
##sat
187
forbin
åb
##att
februar
går
hvis
arbejde
30
##erefter
##ultur
##bo
Som
side
##ål
##alv
komp
25
##ses
Christian
##ition
##heden
Europ
styr
##lerede
##styr
Fra
bef
Mo
fri
##ammer
Sh
##ps
mand
##præ
##lands
##kn
kunst
begyndte
Med
stad
2008
He
##man
tr
##uft
indtil
klub
##ktion
##ader
tyske
##semp
min
##kal
lige
##ral
##ium
##lo
##taget
##esp
bag
fodb
inde
##lingen
sted
Dette
album
Univers
##idler
##br
derfor
##nings
##erer
##kel
##tige
2010
sol
sær
##dens
##irksom
##delsen
Gr
kort
forts
##ograf
Et
Te
##stat
##ung
org
større
Men
2009
engel
##az
##oner
##ykke
kv
døde
Å
##jet
##ilm
##off
##ision
##iddel
famil
El
##ins
##terede
##andt
fort
##åede
##aget
rom
2006
liv
vej
##tigt
natur
sv
##otor
Tysk
##ph
##siden
tit
fem
##jæl
Ni
Under
##konom
vig
Man
##tidig
##laget
2011
ro
fly
Hen
##ity
##th
##rad
##under
landet
oprinde
com
##mb
##orn
læng
##arn
##ings
##ktiv
21
Ste
prof
teg
Ge
skri
##gr
##ld
##skil
eksemp
##lad
rej
##linger
&
##holm
##rid
reger
##rag
Br
tysk
Wil
##ved
sæson
##ører
eg
tallet
185
##yen
hel
##ris
cent
Har
løb
##urner
##rug
##rol
instru
tilf
##oc
2012
2013
2014
met
stud
hendes
##uder
skab
##stre
Or
fors
lok
når
##anden
spillet
ban
##ionen
##agen
Stor
##ars
fol
184
spiller
##iel
gange
bog
##æst
##sn
Land
##ående
Is
stedet
opret
Ma
##deren
Kommune
navnet
tro
##arks
##tor
vin
##asse
##pen
stø
udgivet
mål
Peter
##set
##eligt
lille
##ister
sik
##talien
kn
22
##minde
halv
##mester
forbindelse
parti
##sens
2005
##nen
således
fast
##yttet
sej
inds
##hæng
stadig
##eci
red
forsø
##ym
mor
24
##minist
rig
##dene
##rer
##lads
helt
John
##elige
Eng
##æld
##sta
Fl
dire
##ator
offic
##åd
Om
##uktion
##jerg
##itter
amerikanske
##tu
##ong
bev
Bo
gamle
Af
##holdt
##året
##lade
##iner
kommer
##hund
23
Tyskland
fær
gav
##ment
##yde
##iser
##kur
Vest
##hav
sc
fle
området
bedste
##par
offent
produc
##bygg
##ider
##jort
gjorde
Kirke
noget
2015
##øg
##aft
##ont
##ærer
##rum
kil
##øst
bas
##ons
lå
sti
La
##int
##skrig
##bu
lande
opg
Ud
ev
sven
##ration
##pper
Ad
’
##vet
##burg
især
syn
består
##lut
forhold
profess
Øst
##oks
Ind
forl
måtte
##træ
##iz
bor
##vest
århund
##reg
2016
bri
sprog
##idenskab
mar
##igh
ark
##uesp
økonom
Me
##følge
hjæl
Sver
Sogn
##præsen
læ
##ote
desuden
børn
Syd
dom
hånd
##qu
##bert
ænd
##nu
skrevet
Denne
Pro
ingen
tab
kultur
28
speci
Danmarks
##unde
##ivision
##na
##ork
##pt
##skabet
##sfor
milli
##ationale
##telse
##dann
kong
##vel
stær
Jac
pop
mø
##nævn
lov
26
##ogram
##gede
forfatter
27
##ods
##ensen
Til
milit
##rom
2004
Frankrig
hur
##ibe
é
egen
Fol
res
##yttede
##delt
##fin
græn
datter
bruges
afg
##akt
##områ
luft
VM
kap
##ummer
brug
##ydning
2000
##one
tred
##orden
##ologi
alminde
lin
##ffe
##ønder
intern
##akter
##elm
##æmp
Johan
##ativ
Europa
##ai
videre
##rige
virksom
2017
##ath
ne
hus
plads
##værende
dele
sn
##kte
##kende
kampe
##hver
stort
meter
##dition
dermed
##ands
di
bygget
hær
beteg
Co
##raft
Q
ende
Norge
##yng
##serv
gu
##van
##min
##ith
angreb
følgende
anv
##we
##fly
##idlertid
##gård
##uss
æg
##mes
fordi
Car
##eneste
##skole
allerede
##tern
repræsen
##fl
star
Kri
##ytte
gift
##ening
skuesp
Sc
Ed
##led
jern
##ild
fleste
ord
Bl
##undt
##arbejde
##holder
100
stand
von
afsl
##sc
køb
183
##irken
##gaard
ma
opn
1970
bil
ele
##ress
29
etab
organis
Fri
mark
historie
##agn
##æss
##giv
##yre
midt
udt
dyr
verdens
sommer
seks
soci
fjer
rum
stem
bille
##yst
##ile
års
##rin
##ringer
dri
små
skib
##røm
2018
Com
brugt
forsvar
##førte
##sel
lands
England
amerikansk
Ha
##mann
kirke
Carl
##ustri
ful
begge
århundrede
hand
##unst
Fin
Rom
får
omf
el
fal
Lond
##vol
vigtig
opf
ter
##stra
Ander
181
Ny
on
htt
##ublik
Københavns
karri
_
Sverige
deltog
bo
indbygg
vel
##vede
vok
udgav
fodbold
tran
Kl
let
eneste
ung
yder
Aar
Gen
slag
Gu
nogen
belig
##useum
##adem
slutningen
mån
##ørte
Bar
efterføl
Sl
eksp
dig
2003
øn
folk
am
##ældre
start
område
##teg
2001
antal
London
##cent
Dansk
##ta
San
ber
øv
mag
##yb
Pa
tredje
Ph
##fra
per
endnu
##ius
udb
sat
##sminist
##ovjet
Er
Des
bred
##vand
##oder
##revet
Bro
##okra
##mar
ch
##ford
kol
befolk
po
##ælles
Po
Con
50
##sede
fandt
general
Reg
popul
##lere
##snit
##sident
##grupp
Universitet
kvin
næsten
##iftede
Mich
##avne
##ash
stod
forst
Sen
##mon
##ves
samtidig
180
##ucces
##kter
##ure
ww
kaldes
##bane
##rab
Før
mennesker
www
##film
aktiv
gruppe
##ester
set
fun
indt
##ital
##stede
##chef
##rup
længere
##æsen
##vs
##unden
derefter
ge
2002
##ley
##lse
##abrik
##mede
medlemmer
hvad
hende
godt
##stæn
Hentet
engelsk
mester
At
##las
indbyggere
Fil
##esom
program
##sby
##enn
Kn
##anter
##brug
deltag
X
Andre
Sy
græ
##olf
##ham
##ock
kron
##delser
31
enk
løbet
##aen
Val
li
##tr
beliggende
elekt
182
##ric
ses
filmen
oper
##åben
##jerne
franske
kval
##ase
beslut
Thom
##yp
##ori
idet
##ejser
?
top
##ice
##ats
tæt
##ance
bestem
betydning
##stændig
imidlertid
##anc
univers
succes
##unds
##værk
regering
##ktur
kaldet
jord
hed
##klub
tradition
bar
##stad
##nal
1990
##ise
nuværende
##anger
##delen
II
ob
##leret
dens
##isten
står
konge
periode
begyndelsen
tidsp
foret
opført
##rich
##bar
##ze
norm
##ligvis
##inge
##erg
##lerne
Paris
du
##ræt
##tiv
##sam
2019
deb
Ol
##oven
##aver
opst
##vig
##ission
nåede
##landske
sag
konkur
##strup
stra
Aarhus
motor
Sa
##chen
giver
40
##iens
offici
verdenskrig
administ
York
##far
året
pol
ald
##ytter
guld
model
kræ
##ørende
##bin
##holds
fremstil
##ppe
##eld
und
følge
måde
##fær
We
##skaber
##eth
##mens
##illet
kendte
##øger
##kes
bu
hjælp
langt
##udt
nordlige
##løb
##sej
##bro
én
##ations
grad
skuespiller
##kendt
##ors
dø
##dannelse
##ful
##ragte
##jekt
##rådte
##kan
fransk
##ateri
kat
Mon
karakter
rolle
##han
taget
division
##jeneste
##ha
fuld
##uper
national
##rop
##ty
førte
##oldsp
##rafik
##oen
via
##rø
modstand
aldrig
net
##ick
Byen
ur
nummer
##dede
##ftet
National
##ack
Ben
]
skole
områder
vers
##olig
##vist
tilfæl
Og
##uropæ
enkelt
Wor
dræ
anven
perioden
FC
millioner
##ines
blot
##landet
dage
russ
konf
So
samf
##holdet
Kar
##ank
##gade
1999
karriere
##uth
##osition
##sning
bi
priv
##avnet
udkom
tilh
Pri
##dal
prob
tekn
Bla
##histor
tidspunkt
fået
medv
##uri
britiske
kvinde
gøre
##stitu
##lej
=
OL
væk
Per
lidt
mang
sæt
##plan
##ritann
##vor
udnævn
##ael
##tug
##bog
##høj
Bra
Disse
Ven
ligesom
såkal
179
##ktor
##svig
gør
##ighed
øj
haft
produktion
##leg
valgt
##ct
##tage
##æd
##okum
nyt
tiden
##ific
##ames
1998
##ign
##sy
Selv
##rest
[
##tiden
##ood
##ogne
##rakt
spor
præsident
undersø
##ies
##ales
##ane
##rej
leder
Jør
kompon
kr
arbejder
##råd
arkite
Mart
bandet
1980
Ale
Sm
Ab
##ioner
virk
##SB
##vil
formand
bro
eksempel
relig
nød
Karl
skyl
lej
aut
##kor
##co
##øres
##assen
foreg
krigen
##lesvig
##atin
hår
interes
##ylland
fortæl
Siden
Dav
politiske
instrueret
kommune
kvinder
Hansen
beskri
pl
##va
##eriet
udvikling
TV
plac
Rus
næv
Col
studer
Amt
##satte
Vil
##obb
##ogle
handel
pen
##gar
italien
##ll
betyder
##opp
##ustral
fortsatte
Storb
##dtes
viser
Histor
##esti
mon
To
moderne
Mal
##mark
ram
Kr
indeholder
direkte
##istiske
##inget
personer
##sch
bør
##ibli
enkel
fundet
##aw
Em
sh
Gre
klubben
engelske
ak
udgave
Sønder
##angen
kejser
Je
Hel
##ering
gå
sing
klass
folke
##oldspiller
roman
##igur
Vej
##deling
startede
##urneringen
##fal
##reds
Danske
##to
##ragt
port
flyttede
##sport
typ
radi
##tis
##helm
##elskabet
Storbritann
##rak
sådan
Jørgen
##øv
Can
##plads
sydlige
##rådet
Cl
dels
##atet
hurtigt
##ometer
middel
Ser
holdt
efterfølgende
Ho
langs
baseret
hvert
Met
indg
##50
vundet
ene
##ander
nr
tur
##irker
Pal
syv
##rang
sal
##handling
##ative
Nielsen
##rene
##ij
Italien
##asser
hin
svar
militær
##skede
##kra
##itz
em
result
valg
1960
fælles
modtog
professor
adskil
oprindelige
##på
betyde
æld
##tighed
##mus
insp
Sal
sket
pass
stammer
rel
steder
##ish
1997
—
sten
komme
##svær
fyr
177
afslut
##irma
sidst
grundlagt
##øren
##ologiske
kontrol
svenske
##ution
unge
ly
178
##ørg
Bri
ægte
##banen
##ølv
##ula
familie
tek
mænd
Thomas
dokum
herunder
bevar
##skib
Bor
1996
##sberg
##publik
##fon
##eningen
##inder
tids
serien
anvendes
##jø
Intern
tale
støtte
borg
imp
##itar
##sætning
»
##dighed
finde
Sven
##sd
##dige
hjemme
##aden
bestod
##kkede
træk
##ose
##tic
europæ
##skov
##aff
##ugle
Kong
manu
ri
z
mulighed
##oduc
Mc
arbejdede
##ids
fej
##dannet
universitet
slægt
Høj
##alder
Desuden
lær
muligt
«
Henrik
Oden
sikker
Station
litter
Senere
Nør
tage
World
##merne
valgte
cirk
kæmp
Storbritannien
Ham
##ravet
##ura
uaf
Berlin
indsp
sek
enkelte
##reis
Op
videnskab
Lou
udgiv
are
##gelige
Jensen
samlet
##ight
Hoved
gammel
!
fores
##sket
rundt
yng
##mere
##ibliote
##ards
øen
As
hinanden
give
##brud
ældste
##oler
Paul
udtryk
##øen
igennem
Willi
##ott
##rand
##nas
##æde
Odense
Jes
##gene
##hj
##sek
Ul
##smand
1994
ren
yderligere
Over
1995
##ix
##sag
Tor
##sende
jap
##upp
primær
tru
##ånden
elev
lag
##neb
##kerne
samarbejde
##ænge
provin
eget
##udover
Kunst
oprindeligt
1992
##osof
##mati
Mor
bel
kli
fx
særlig
nok
##visning
floden
vol
fodboldspiller
genop
Bu
offentlig
lys
Cal
##ica
Christ
##tel
Mad
dæk
Erik
Grøn
bek
##port
sjæl
##huset
ældre
kilometer
##menter
##amen
fred
Æ
albummet
vis
optræ
##ame
erhver
Møl
titlen
##mende
##væg
##arer
magt
Rich
##fører
##hen
Lin
gra
trods
temp
##ana
Politi
værker
##oss
skov
Michael
ac
Rusland
##nende
##ns
udvi
lavet
60
ødel
forf
##da
Mil
overtog
##digt
Soci
##iker
svensk
vendte
indfly
skiftede
Char
lave
William
brød
gruppen
lykke
kommand
Cent
Air
##døm
neder
Filmen
##ague
##jord
##ament
##rale
mal
##dem
y
##uel
vestlige
opt
##ata
##kede
##als
Lar
lokale
dist
erstat
##arken
viste
delstat
##test
betegn
altid
indenfor
##offer
profession
University
Mag
##bold
##orte
Jap
##irkede
##ygdom
Alex
aner
Aal
##ule
starten
våben
1993
##pu
inkl
Jacob
##ka
ansat
##ros
prin
finder
Vol
vist
|
Nogle
##uds
##tiet
DR
Ra
500
Jon
Rad
la
borger
Ger
##utter
virksomhed
Ras
system
ab
bid
grøn
http
vigtigste
industri
tilfælde
th
##ymnas
##20
fys
Sti
bind
dræb
typisk
imod
ve
rol
hvoraf
indflydelse
bygning
materi
##isme
Så
barn
sold
##øjt
gjort
oprettet
League
norske
Wh
titel
##holdsvis
kry
1991
sommeren
bevæg
linje
kø
Peder
bestyr
##unn
##oy
Hvis
##bet
debut
råd
Georg
##ace
såkaldte
Bel
##øder
internationale
kraf
lod
##føre
bedre
romer
voks
Cup
##æs
##dele
##dik
176
station
udstil
##jendom
##aktion
kontrakt
Aalborg
byer
##iteter
##gelse
normalt
Tra
koncer
hører
nævnes
manuskri
##useet
afsk
##ampe
lange
Phil
##kaldt
væsen
metal
væl
grav
##formen
##cen
fore
erob
egent
dets
Pr
fag
##estival
sport
##urnering
opdag
Folket
otte
##rika
##omst
##øret
Pe
nem
Li
flyg
Blandt
ep
##ligste
givet
kolon
besæt
Hor
##skolen
sendt
##efter
Ifølge
landets
bræn
##stemet
##orth
arbejds
West
Sim
##uer
arter
familien
bruger
##syk
##alle
##lagde
sange
##stit
ul
##stitution
uddannelse
##yer
##vent
befolkning
primært
ide
##kk
##fic
egne
direktør
År
City
##redt
berøm
Mik
##iveau
##sminister
næste
Martin
Vib
Cla
styrker
byens
eksist
##terer
##cip
##stal
lykkedes
##lemer
tjeneste
ligeledes
kunstner
mindst
rød
politisk
um
rejse
besø
bedst
omfatter
1945
##fe
##æb
mel
1950
akti
pra
##anien
##my
##mest
fisk
midten
svær
##amerik
grupper
mæng
##oph
gl
energ
1900
hvorefter
##ada
maler
forsøg
##ary
August
##ja
folket
Alle
jeg
##ün
Ta
##ierne
Hv
##jylland
Eg
fæng
##lic
sølv
Sil
Gro
samlede
Mange
sæsonen
stærkt
##ærende
ka
oplev
ko
Robert
1989
kaldt
##ladet
##vejen
Austral
##lie
oph
dannet
kampen
Beg
##sson
Pet
effe
##yrk
kur
##amb
##ologisk
##spe
hvordan
##ias
##talte
##tive
finalen
funktion
ungdom
##formation
enten
##cher
Fo
cm
##hånden
##forening
gæl
Rasmus
1800
uafhæng
##sprog
udviklet
optaget
##imod
##bæk
dis
##ikation
Når
Port
##andid
holde
bry
1920
##atisti
##omin
Hus
no
Mus
Ke
##ronning
Sovjet
landsby
opnåede
##iment
konkurren
Don
kra
##stø
##cel
hertug
##ball
hit
Store
##talt
Folke
##own
lever
##ool
##andsyn
##ladsen
##SBN
politik
Tr
øvrige
bom
80
ISBN
##ørgsm
##elve
resten
eng
forlod
##atri
##iven
løber
##ara
##ringen
alli
##obbelt
formål
Niels
##viser
##mo
##ala
udsen
##orer
landshold
mus
x
##album
##iger
overlev
##skrift
##orge
1988
brugte
chef
adskillige
fr
påv
bron
bror
Fal
Lud
fyl
##oll
David
##bygget
årene
##orp
klar
##ko
mennesk
Lang
Mer
##eral
##ålet
fulgte
##skilde
##istisk
endte
hæv
Ver
##okus
##ions
##ørs
##yttes
##øjtn
foran
##cep
##mæss
Slesvig
##æf
##øs
##deles
filosof
prem
Ak
##iskop
Min
bos
fortsat
Ba
##tale
Østrig
35
artik
Gl
indle
Jens
Tom
ifølge
nødven
prø
Stat
##tz
Lu
navne
##ladt
serie
##ny
##ustru
post
lokal
##atten
##stein
måneder
##stitut
##vens
Ex
kul
1930
rå
##way
holdet
stam
Bay
tæn
##ira
##itt
areal
1940
##landsk
##pro
##ney
tilkn
Bal
sangen
fre
gode
beh
##ligheder
dyb
latin
arbejdet
##ky
skete
##oft
moder
##grund
##iere
penge
##riske
læg
højt
scor
begravet
stræk
Viborg
##nere
Super
##melse
Marie
##iew
ej
##lende
højeste
##ykker
mask
dvs
##retning
fader
EM
##æder
støt
ansvar
id
årig
kirken
##øse
regel
##ena
boede
##sbe
østlige
##slag
arkitekt
##vem
fot
##rebet
Byg
måned
solgt
##alderen
##ænger
ude
afholdt
##uelle
bruge
højere
meste
oply
Museum
forh
stilling
Ag
##ink
Fær
tager
##øjtnant
fald
guitar
Far
overf
##ås
sluttede
Rand
##weiz
selskab
etableret
Wal
Ac
placeret
##omen
James
størr
##pital
##aven
Qu
##orf
##stræk
##aa
bygge
##yske
forekom
##ino
Bog
Slot
oplø
1986
slaget
##ledning
iden
##valg
altså
slot
##holde
bøger
alder
udnævnt
##urt
Herred
Vin
175
##liggende
Bru
Japan
##edition
kongen
version
grundlæg
Champ
bort
centrale
##ple
besej
Rig
Ung
Tour
åbnede
opkaldt
##amer
europæiske
By
Pol
tør
##bygning
70
Kina
ledelse
vinter
174
led
32
pres
sandsyn
mente
soldater
Vi
anti
War
selvstændig
næst
##atal
begræn
hustru
skibe
disk
uddannet
lærer
venstre
alvor
sejr
færdig
##vers
opd
officielle
Jose
Stock
##lymp
dokument
psyk
Verden
##telsen
fokus
tropper
##gjort
Sovjetun
##ugh
såsom
Gra
##pri
kred
forkl
##lod
##icin
vinde
##havet
sovjet
1984
kraft
##ür
ejer
Hj
fortsæt
Gal
retning
fat
##irket
lu
##gelser
art
##serne
##anen
Sol
##ward
jour
##volution
##rigin
##fri
##syn
ref
Mel
Kj
https
##tager
teater
væsent
##kort
region
formula
Spanien
sygdom
stats
All
højde
1973
ejendom
##spunkt
anlæg
##aner
##unt
Ka
defin
Park
##melig
90
##givet
##jælland
##ært
nordøst
dav
##ifor
social
bygninger
produceret
##dent
Andersen
litteratur
1987
##skom
ankom
##aly
rek
Poul
##sborg
bjerg
dobbelt
##ho
##organis
Ring
do
##attende
Sø
##station
Bj
slog
Go
##buterede
##ifte
russiske
cirka
##køb
lagt
mis
nordvest
Roskilde
##esten
manuskript
vide
##ningerne
anvende
##ante
##gent
Di
projekt
1978
forg
Roy
problemer
##spor
Stud
centrum
sæl
##ited
Kal
1979
daværende
+
hovedsag
Plan
økonomiske
##alitet
følger
##oduktion
##otel
##ipp
band
særligt
ønskede
1982
dår
udgør
fjerde
##que
Bern
##taj
mi
hens
##ages
##FA
Thor
##ding
1985
##heds
offentlige
##jorden
##hl
Lig
Tri
Derudover
##une
##fel
sydvest
Hal
International
tri
##unk
værk
voksede
inf
kem
Nic
Bre
1972
Rosen
##æm
sydøst
##slev
Su
##ari
##ografi
##risk
##kendte
høje
kines
George
fortæller
visse
afsnit
marked
##stof
krav
EU
Jan
Bur
##inden
historiske
##aten
styrke
45
##gor
højre
1968
##beg
##ony
opstod
##inen
##iftet
##folk
Gar
##bjerg
udel
##atisk
##bund
anvendt
##lov
Stift
##bl
##omer
Sankt
krist
##musik
##ski
snart
Ir
inspir
##smed
firma
##område
rock
studerede
hjer
Album
Ju
Osl
##seret
erkl
Frank
udstyr
kro
##cy
33
Navnet
minist
debuterede
fung
landbrug
solgte
Teater
sand
måske
Hels
Mark
##ærke
spillere
##ereg
cyk
figur
ting
rejste
virkelig
##sil
##hal
##ca
jorden
omfattende
vid
forsøgte
repræsent
modsætning
sem
##sbyen
Skov
##staur
##vok
##æger
skabe
##reformen
Film
##arbejdet
ni
spørgsm
arrang
tan
Tim
Klub
kyst
##kamp
Region
##gruppe
pan
symb
Samtidig
efterhånden
300
##stensen
##ya
##iget
Ze
##rael
deltagelse
##ama
##kelse
single
##årn
Pla
##aks
flåde
hvilken
1944
vind
trafik
##bart
rige
interesse
173
Knud
##xic
us
##abel
banen
##ords
##spil
bolig
Island
##løse
##lader
North
##ødt
ass
fler
1974
Tre
##sigt
hentet
##bil
36
origin
Stockholm
##vide
##ativt
##staden
oftest
##arter
Inter
##oth
privat
##veret
##punkt
##rugt
1971
katol
##lim
##heim
##elserne
almindelige
Rec
##tiller
##fred
##alje
lignende
##ppen
##cering
Tran
Gud
bebo
kirk
civ
##gør
adgang
udviklede
jernban
vejen
vari
On
And
##ör
vægt
udsk
faldt
Lars
parl
##hr
Lau
Mod
sanger
##ænder
##gå
satte
øver
Dag
##orten
Kor
Øster
##spiller
fand
nævn
sider
1975
Også
Do
##ror
sammens
##videre
##fabrik
bal
1983
såvel
##uf
italienske
##end
fordel
ut
emb
dræbt
hvide
##ona
1976
menneske
Året
runde
dram
elem
1969
##tre
##ugt
fabrik
Svend
forbed
##uren
sige
politiker
livet
Vic
huse
fandtes
Fer
danner
##liv
slået
##ano
norsk
##rikt
intr
##alerne
stig
minutter
Maria
kommunen
##reve
##umb
##anlæg
##ukker
Ark
##oer
##ømme
mør
##valget
##irg
##ærk
##illede
##ilde
Ter
restaur
selve
pp
rapp
grænse
herefter
Gyl
forsv
Ott
hjemmes
##ommer
##aktør
tryk
længe
ju
##idst
sikre
1981
Holland
##ape
##ax
tabte
##iblandt
##nævnte
Derfor
##øjer
tegne
Gam
bjer
Natur
overd
event
##rat
##nebrog
co
##azz
##view
1967
religi
skabt
Hit
oversæt
##tajn
##aer
Amer
Union
ganske
Tid
Mellem
behand
alene
##kar
Oslo
aflø
##atemati
##kens
besluttede
##inet
##hu
Johannes
##ters
portræt
Sand
##ørt
Holsten
compu
finans
myn
##key
Musik
angri
tidlige
journal
henholdsvis
Dannebrog
Anders
overg
##cis
##pladsen
Sn
Fre
militære
bestemt
Lund
##ical
Let
mm
Frederiksberg
officielt
læge
mio
bare
udbredt
nationale
1977
drift
beskæf
værd
##tning
nemlig
##sninger
##gården
Bon
34
##stant
##ension
171
Sovjetunionen
##reret
##vende
168
bogen
samling
Skole
Ass
Wien
betød
type
størrelse
sub
##stron
##ærlighed
tillige
temper
kammer
skrive
dren
Præ
Hendes
##otte
1964
Dem
mødte
inv
udført
##iforn
##attede
sker
kritik
fløj
##abil
mener
gud
kombin
##arten
samfund
hurtig
1943
føde
japanske
No
il
##oster
##egn
##vægt
blod
##fald
stærk
##mag
tildelt
benyttes
##raget
Færø
##spro
overfor
trak
lære
fac
United
##kken
gul
Midt
Louis
Oper
møde
##omb
Sammen
sort
##abeth
tjen
Ek
##ime
Ret
1918
ekstra
##tidens
tekst
identi
Res
hedder
van
hvid
##skud
kendes
Richard
##range
##ola
hum
bemær
grænser
økonomisk
##amerika
elektron
Bet
##rift
bud
Canada
##ska
1965
show
##miss
selvom
##stande
forskning
Vilhelm
hal
sagde
Larsen
170
##kreis
1966
Dis
Red
Finland
##ølle
##fil
##rettet
Hav
Ole
##ington
##fte
funger
##stid
situ
forud
##lav
indvi
##onen
derved
indiv
##line
niveau
Vester
##ini
##skibe
indre
miljø
37
My
Du
Fried
præst
almindelig
fak
##ukt
166
Californ
##ønt
tilt
##ystem
felt
##rus
hovedstad
##tagelse
levede
matemati
##uler
administra
Wilhelm
400
slags
##rie
Prin
##fer
afvik
Luft
rykke
Bes
##stater
Randers
##svarende
##ukket
Århus
as
Anna
##tigheder
stru
“
private
##oris
lyd
problem
passager
1941
##tilling
##parti
Inden
##delig
Møller
efteråret
Sør
skrift
studie
##slam
##alreformen
ryg
##ligevel
##isen
##sbyg
Ko
##udvik
dokumentar
##elen
hund
Jer
tilg
vansk
undt
150
blå
my
##rigt
tron
##cht
Od
Cor
##åden
forel
fjen
##områder
##yttelse
38
##ruppen
##unget
avis
indb
udgang
handler
Mån
97
ære
##elvis
strøm
##iør
skil
medicin
baggrund
You
stri
Rid
regeringen
##ae
##its
##berst
midler
##ajor
former
Royal
##pan
##sområ
Grand
##området
##værker
##demokra
##ette
Kan
##bygger
##ain
##viste
Gust
##gående
##ield
##istan
amb
Pl
75
opfør
##urder
##forsk
hørte
##andin
##uen
dannede
Frem
##ato
1948
##stemer
forældre
##ht
1935
køre
lade
##dagen
Polen
romerske
##ome
Nik
Ren
stiftet
ub
vært
ellers
IF
udn
##arbejder
revolution
##skl
##mission
##akker
kandid
Eli
biskop
##ikere
Albummet
172
Anne
Nu
prim
grænsen
træner
##ringe
##anerne
forhind
int
transport
timer
1942
Charles
bygger
anmel
havet
eksempl
Ludvig
Slaget
tilføj
mid
Jeg
##mærksom
point
billeder
søster
optrådte
##bladet
stopp
desig
opstil
demokra
##teres
hvem
skj
atter
South
foråret
proces
partiet
Lo
##kraft
##za
Id
##standen
##BC
scen
##års
##kvar
kende
##øver
ændret
Allerede
##ationalt
Ele
berømte
##10
##omster
siger
##kket
foregår
##tids
Liv
87
Søren
Pre
##tidige
167
Fort
##liste
##angel
symbol
##ior
##bens
##mal
Vejle
begynder
Rasmussen
scorede
Eur
kryds
Mün
Schweiz
##zen
publik
##lser
Hver
Ga
##oper
ægteskab
bus
kolle
stemmer
Fyn
##sesse
1939
ag
1963
uger
Jak
Mens
kvalific
sammenlig
##ront
##jern
præget
##styrelsen
1962
specielt
##delte
Bag
foren
sogne
##usion
nomin
arab
##andinav
##unge
Var
teor
befolkningen
børne
##atret
Statisti
##wood
komponist
ube
stemme
Kongelige
Gi
##ppet
##løs
Bold
##ikker
##klen
##rere
Cro
Lille
Mol
fund
Mu
omgang
Black
nogens
Coun
me
døds
føds
sammenhæng
Middel
kvalif
forblev
fører
endelig
regist
Sta
klasse
begiven
position
gennemsnit
Jern
opmærksom
##aljer
##dam
invol
inkluder
giftede
skyldes
##væk
Music
introduc
turneringen
Jean
møder
spanske
ba
Fly
ann
Mac
orden
##jekter
fa
##fart
##ury
grev
Først
##sg
Carol
has
åben
ex
nogensinde
Bi
##po
sim
sovjetiske
Si
##retær
stop
billed
##än
##ull
kristne
købte
udeluk
foresl
mistede
brand
spørgsmål
pre
ét
Pedersen
Radio
King
Bill
Krist
Social
Bil
Stra
skolen
pap
##agne
Kamp
##park
##dyr
##atch
##isterne
konger
Del
forbundet
##ba
venner
konstru
##ship
kommet
ekspedition
ris
Mont
central
##por
##sol
åbne
Win
struktur
hjemmeside
kate
##sbjerg
ens
konflik
##scar
##skamp
ford
derimod
netop
populære
hid
##akadem
##NA
##cess
##urer
inspireret
Nap
valget
programmet
bereg
dronning
Otto
##mod
##ærede
ir
1864
republik
##ago
End
Græ
##samling
##årnet
hy
Kat
Lind
kone
Kultur
embed
Hall
Deres
hof
1919
staten
kilder
bestående
Open
log
Berg
sociale
energi
lejlighed
##ming
sendte
Bus
Born
##ørne
oven
##iseret
##vogn
##strøm
##ores
pos
42
Tro
syge
styre
Australien
##giver
længde
Kap
mad
pris
Juli
udvidet
1946
jød
masse
design
##ibliotek
Ap
kontakt
##amling
Smith
sidder
##ække
resultat
41
Helsing
flyttet
nab
##sval
##bes
##ower
radio
##digheder
yngre
mesterskab
røde
stærke
Rock
Gran
hvorfor
vækst
oberst
skabte
##eland
##ksis
##komst
vigtige
Pan
##vning
kg
##isp
flyve
169
Joseph
##egen
Adam
Petersen
tegnet
Kir
##né
Off
##ismen
kaldte
Christensen
##enti
##spoliti
historien
Im
koncent
##kast
##huse
opgave
materiale
Hos
Alexander
##urs
ky
##ukter
Mosk
Boldklub
164
gået
##ovedet
##person
General
1961
farve
III
1958
døm
punkt
Center
165
nedlagt
##atiske
Arbej
##rien
virksomheder
39
##ones
live
##bru
mission
##enes
oprør
Charl
##uts
##mir
britisk
##æge
gymnas
##æste
##laden
dengang
##ykket
tider
nå
##former
flag
søgte
##øge
##skende
##ude
48
hvilke
##gra
Kort
##smedlem
##asti
krigs
gælder
##delingen
##ægter
##smæss
##leder
varme
resul
østrig
##ussen
computer
ha
Omkring
##vern
##ön
græske
allierede
##mænd
professionel
ph
udelukkende
Fa
##30
Ly
borgmester
Folketinget
##hn
bevaret
tak
hem
##ives
##ifter
adel
dagen
Star
##videnskab
skibet
Victor
hjælpe
antallet
sikkerhed
##lund
##lers
heraf
##fæl
##dsen
##AT
dennes
tvær
erstattet
##kendelse
minde
##fulde
delt
Mexic
eksemplarer
##rigade
##är
##oli
anlagt
Tek
kommuner
tilknyttet
##afrika
##AS
##itte
Flere
##navne
Akadem
55
super
1947
sad
standard
Jørgensen
Kron
prisen
stykke
##slet
##veks
planter
44
Jul
føle
can
##fik
fejl
administration
##bi
##nerne
##olding
Friedrich
arm
Dog
Soph
gro
sch
##lager
Fe
aften
##bygningen
hvori
farver
optræder
##vention
1956
organisation
1914
skade
institution
domin
##ora
Kun
geng
hvorved
fungerede
##ørste
Atlan
test
pil
Lyng
Landkreis
indgik
Derefter
##unkter
placering
##stan
##ockey
1917
lege
behandling
student
1949
##itiv
regn
Rh
Los
økonomi
1936
græsk
heller
medvirkede
##ump
##ux
##søg
1938
modtaget
butik
##stav
1921
##gangen
hensyn
##tille
udgangspunkt
ap
##grøn
Jakob
studier
international
##velse
##omo
Skot
Indtil
##løjtnant
Max
hul
##tter
egentlig
##æren
Hill
##ec
mig
Belg
generelt
italiensk
##taler
præsen
##ail
##ændene
beskrevet
epis
##bøl
Oscar
##okal
kongelige
##bor
##gn
##orm
Gri
prote
Selvom
##abri
Marg
lagde
vise
tele
Samme
rester
benyttet
bestyrelse
kærlighed
parlament
Albert
##ls
##ela
##fø
av
##arm
##see
##stående
kristen
seneste
efterful
##kred
##jon
historisk
Anton
##eden
##ktioner
##eblik
afgørende
oprindelig
Brøn
bygningen
1910
1912
##sig
1700
Gylden
##bry
enheder
##handlinger
##begyn
premier
##foreningen
Sten
##øbt
Sangen
kaptajn
Dom
Stad
landsbyen
betragte
Gö
Simon
##æring
##vo
##ita
kop
1955
##industri
##lom
fj
##ville
Emil
##slut
sandsynligvis
særlige
dr
##trent
1908
olymp
museum
47
##irksomhed
##ows
kroner
Amerik
udviklingen
ed
##urist
afhæng
umiddel
opnå
øjeblik
nærheden
behov
knyttet
1959
viden
ant
Harry
tilsk
angrebet
##center
forstå
stå
observ
Olsen
betegnelse
##ublic
grundlag
Bir
regnes
blomster
##jekk
instruktør
##ican
1952
herre
temperatur
##itau
##mund
pga
praksis
1953
gent
fæst
##alisme
betegnelsen
old
Området
bevægelse
Hein
1906
Stre
hvorfra
stille
##historie
nat
udf
Opr
religion
undervisning
tilsvarende
vik
lavede
kapit
##fyr
##delige
påbegyn
hovedsageligt
##olden
##achsen
Matt
1957
##mi
øvrigt
Institut
synes
##væl
##øje
håndbold
##ræts
Jack
##ynd
Ban
bon
Records
God
leve
##uelt
forfat
Mi
sagen
fremstillet
##jerner
##iler
status
fugle
delstaten
##iets
Dam
Central
Luc
##splan
1954
ska
sogn
##ensborg
Lee
salg
holder
Gennem
##ues
Sw
serv
udenrig
tot
##alske
Grønland
kunstnere
##geren
trom
1890
flod
46
##arder
Ken
journalist
uh
organ
##dsom
fakt
beret
Cas
reduc
taler
##gjorde
indgår
##har
##okken
oprin
##aland
Skib
##rs
orke
ordet
plante
Alt
##wards
##iteten
##rækker
sorte
nederlag
eksempelvis
##entlig
alligevel
##osa
dip
si
Russ
Motor
middelalder
erfar
løs
##stræ
1901
kob
dyn
Kim
traditionelle
Dre
ske
tidligt
Henry
1924
bronze
Johann
protest
##fund
##skrifter
43
Vær
##handler
rykkede
##ox
fordelt
##tek
##vise
Est
møn
publikum
Kas
ank
køn
1937
##minister
00
##ep
værdi
skriver
160
aftale
forklar
##ognet
sund
ug
##instru
Il
rang
forsy
mængde
1933
fængsel
Champion
typer
1916
##yld
initi
##ms
vandet
betydelig
##alet
Cop
1870
##ye
##agelse
##rende
1911
##manden
rollen
biograf
##aser
##ifin
elever
52
fir
erhverv
##go
app
rigs
##vid
tegn
##kedet
konserv
Kristian
infanter
Nov
##sler
Udover
artikel
##ads
hk
turnering
##kirke
frugt
dækker
populær
indviet
skel
tilgæng
##vejs
Israel
##ssel
##antas
Wash
anses
##gruppen
fang
liste
Sor
##str
##hjem
##ciplin
Nords
middelalderen
Sig
mur
##elses
nyere
Tidligere
stationen
##mor
ungdoms
verdensmester
flertal
landskab
##kap
##alog
Fr
Miss
udgjorde
Neder
muligvis
fryg
Moskva
udenfor
resultater
klart
Cast
byggede
Ann
School
Sund
##steder
##igen
Rum
fug
Schw
up
Begge
num
invas
Sommer
American
##illa
64
##vogne
skar
intet
##alistiske
endvidere
54
Ram
##irektør
##tm
##alp
Indien
afsked
##kunst
beskriver
##fuld
1905
supp
betal
##redte
danne
vidt
##avy
Ty
##bede
##blad
##kurren
Ri
##ikon
Stationen
Top
Lø
Bol
su
##skon
##feldt
##sburg
WW
Mary
cykel
effekt
65
##tryk
ill
##famil
Die
elementer
VI
##ction
Kra
1904
cand
##værket
##tra
ansatte
##spar
##ygger
etablerede
Colle
frivil
russisk
halvdel
56
800
spid
##aller
ger
Washington
korte
Esbjerg
1880
##lægning
arv
omtrent
##ison
Press
##ios
arkæ
Venstre
##rel
##tiver
Van
1925
anledning
Rol
##ridge
##gelsen
Frederiks
Klubben
pat
Song
fotograf
##ón
overtaget
Lib
##enten
morgen
##yllands
Ob
uge
programmer
fange
forening
indspillet
Californien
##artner
Bornholm
nævnt
Harald
hu
600
$
Rob
##smænd
##leje
åbnet
##ays
##byen
##tain
1928
Ath
##orff
##førelse
München
Færøerne
Politiken
##usti
Andreas
omfattede
information
bærer
udsp
##læn
trække
klubber
overvej
Ari
naz
##bevæg
levende
##ici
sør
dy
##wn
å
FN
##mene
Første
stater
territ
regionen
Herefter
1934
##bare
##seende
Rud
Sing
Magn
ført
##ytning
tilsyn
##ftede
##værks
vinder
kvindelige
##din
##ordin
Elis
leg
gran
officer
fungerer
Ant
fart
##xel
Bang
Europe
##con
Vik
ver
Gustav
fuldstændig
pal
##erence
##iration
##eten
besejrede
oprindelse
1913
satell
accep
##inn
##sul
yd
årige
Sørensen
##sky
Lü
##ffer
skud
nærmest
Brasil
voldsom
koncerter
Hu
Ridder
Bun
stof
1929
Ange
personlige
Wind
panser
indført
##ahl
ødelæg
Sjælland
##raph
Net
medførte
##ktive
##ygge
##oren
##cker
49
##shus
bland
##out
pe
gerne
korre
langsom
partier
Ox
pladsen
semifin
stigende
Club
femte
##angreb
Gymnas
##position
##sministeriet
Championship
##vard
Kro
1909
1922
Hum
grå
undgå
##formede
##otten
##ience
Nørre
##uck
Kirken
ønsker
forkort
udp
##ætter
##offet
##amentet
High
vurder
klassen
Rod
##illere
Bayern
kontin
dyg
tol
1848
kvart
provinsen
kraftig
nomineret
Mexico
vigtigt
It
stift
Strand
sæsoner
##orea
gengæld
##kning
brev
##tegn
slottet
##bud
sende
egentlige
##obil
tilhører
Dar
sætte
##ike
hæn
##lek
##lip
prins
forven
##rage
Got
SS
##ennis
##major
borgerkrig
##øbet
Dal
##eredes
øverste
Cap
planer
skøn
ophold
love
religiøse
altern
deltage
forslag
1932
##ahn
web
Green
##skriver
County
Ungarn
betragt
##nst
##alede
Festival
kører
Ingen
klima
Afrika
strateg
##side
tus
Angeles
udlandet
Son
Sophie
digter
forekommer
Bas
Nat
##amin
mik
afdeling
dre
Græken
##ument
kryd
repræsenterede
ring
stjerne
App
begrænset
##ida
1951
heriblandt
Sant
Virg
France
##arbejdere
bekræ
##motor
##erende
indeholdt
os
Silke
1915
rejser
analy
##SC
##onc
##bour
##able
Love
trådte
##ois
civil
##nettet
frig
##ård
føre
dokumentarfilm
huset
ødelagt
try
Bank
jo
ledet
51
Freder
82
##feld
Tur
##emed
samfunds
##lagte
##ænomen
afhol
procent
##iro
##uropa
forp
##pla
enhed
so
akadem
Morten
reaktion
##steds
Ali
fremtræ
selskabet
##odi
islam
straks
billede
fer
Krig
1898
lukket
##ani
##ladelse
##leks
Famil
Horsens
varet
diplom
##sene
##varer
1500
træn
##grupper
prakti
Republik
##ics
##parte
53
Leg
foruden
distrikt
##produktion
klassiske
1907
vende
Ca
faktisk
bøl
aktiviteter
Francis
Guld
skild
Kh
##kæmp
##sken
lufthavn
Sport
##orges
kilde
udvikle
1923
##ligheden
##cks
##årig
slægten
##skel
ender
herred
Kolding
redaktør
Kirkegård
bestyrelsen
UE
rent
øer
adsk
##mos
##oger
mist
stren
##stronom
May
##press
Ør
##ife
##oter
##ulde
1903
Vig
svært
eksper
fjerne
nordiske
##hug
##rerede
Belgien
##alistisk
Ru
imellem
##gu
##oe
##veje
ta
##tier
bad
søen
betragtes
kratere
rid
##stå
##ül
##prog
Hart
##ws
Daniel
##AF
dann
skær
##bed
omd
Org
Dr
##inske
neut
sønner
relativt
bronz
sjældent
him
Margret
Saint
reser
interview
162
##åne
Sv
Selskab
bane
##arch
ramt
120
##rådt
##vsti
Lim
Rød
##bre
jazz
##ksamen
stillede
neg
Gruppen
katolske
opfatt
Jour
jævn
Nicol
minister
virksomheden
lavere
mass
opgaver
Fir
Lige
data
afstand
es
Sar
##sterne
benyttede
1927
##hard
##inds
##chester
virke
indsats
Ron
UEFA
##ligaen
Bjer
sæd
Konger
Årets
enhver
myt
##hv
##hjæl
##program
atom
##fa
1926
Bille
vokser
videnskabelige
1860
udtalte
glas
##formet
##otter
##aben
Mog
klubbens
##ett
##ådet
1600
slet
1899
with
hollandske
##navnet
kirker
##elin
##akken
blan
pladser
##demar
grundlagde
from
ønske
oversat
dat
universitetet
assist
boks
Ö
163
bredde
##atør
##ement
##kelig
omfang
##sey
reform
filosofi
153
1000
base
##herre
bragte
Lyngby
##æve
##ypten
selvst
koncert
repræsenteret
Arn
Fac
olie
udstyret
knap
Virgin
##zer
Tal
##forbin
ån
##bred
##uble
Form
jøder
artiller
havne
svarer
straff
umiddelbart
##dommen
magten
##valgt
##tim
Blo
hæren
passer
##ingerne
osv
udmær
marker
Grækenland
##itch
risik
Statens
almindeligt
##etisk
##cl
Lis
Ang
spansk
konkurrence
professionelle
Ernst
1902
kæmpe
##alsk
krimin
161
ændringer
##øbing
blade
##sområde
1931
offentliggjort
teori
ejet
She
heste
oprettede
Holm
Silkeborg
Mur
##åg
ændrede
stjerner
forretning
Jim
##navn
##delinger
Elisabeth
Ros
Louise
##ofte
##medalje
##fen
UN
1896
kørte
premiere
Tw
artikler
kalk
Jesper
##yskland
årligt
jurid
htm
1850
individ
##ancen
##erium
##riere
kysten
special
sty
autom
##kvarter
Ry
Real
Oprinde
studerende
tabt
mulig
sports
##omet
Jord
bestemte
aktive
##stro
varer
omt
gård
##ktionen
venskab
skrifter
Adolf
tvang
Pop
udvide
##orter
Engel
##ausen
Jacks
kræver
##ikken
seri
57
pati
kraftigt
58
##svis
##ensiv
hidtil
##ér
##ogen
dyre
##dømmet
slå
optag
##ders
Bent
konsek
Christi
Portug
##ylde
undersk
planlagt
formentlig
rekl
Kirk
##shockey
Mid
amt
overv
bidrag
Søn
Jesus
papir
indhold
##can
Wolf
##ædag
tema
Bul
Skotland
85
Norges
Ku
Post
Kreis
kinesiske
primære
opmærksomhed
kongens
hovedrol
##aliseret
toppen
1888
kandidat
Ten
trakt
overbe
regler
designet
sym
##stedet
anset
##lene
Flensborg
foregik
talrige
##ibel
jor
kategor
generalmajor
Group
##isterende
##våben
oprette
væg
##ømmer
gennemført
##gere
##stol
besøg
oplysninger
##tish
beskæfti
disciplin
##miral
opford
udford
Dj
dør
dokumenter
##pet
##last
Angel
Street
##ous
Camp
udgivelsen
demon
##sret
##hoved
besøgte
kæmpede
overflade
##isering
løn
##deret
1897
strå
blomst
såkaldt
canad
##aktiv
terror
##well
austral
##bach
##mentet
##FC
qu
liber
produktionen
##kræ
CD
Både
Hotel
etn
symp
##ografiske
Irland
##otball
River
tilhørte
##bon
##ware
internationalt
undersøgelser
72
mek
mær
Math
##pl
Hitler
forret
Que
1863
tidlig
frit
##ikring
##rond
Bod
Him
falder
Brønd
##stilling
##wer
##blik
sur
##kammer
rummer
go
##midt
##mæssige
Jorden
##forfatter
##ralt
fjern
vold
jernbane
gennembrud
Alli
plade
##gers
##struktur
##landshold
##TA
Tru
Vand
##melige
linjer
##politi
Råd
News
tvunget
tøj
##vernør
Awards
stednavne
drev
projektet
##bus
##obel
deltager
tilp
fusion
roller
korps
færø
##foren
Tyrk
menes
æ
##bef
Tit
##tende
foretog
##ulti
##mål
Gram
##stiden
Således
Grund
Amager
hårdt
Feder
engang
84
gårde
folketing
Kol
befinder
tyrk
##kommende
udenlandske
##sons
overra
virkede
63
Yo
Lov
99
##skær
forand
udsat
tegninger
##zy
##iter
##yret
##otan
Times
tilslut
##kere
Steph
bogstav
##edia
##orien
drevet
IV
95
##inar
##uther
##svalget
158
gaden
Hvor
##skibet
##pladser
##dannelsen
88
Lol
##ystemet
##missionen
Cit
1895
flytte
##frem
##kost
Ford
kommerci
Vor
Bandet
Bud
##lings
##dar
##nam
afd
Asien
væsentlig
undersøgelse
##lap
##onien
White
1884
forv
belej
66
##smann
illust
dim
1894
##givning
1866
anvendelse
##pel
##bevar
##rogram
##itive
brigade
afviklet
fantas
##lets
##ente
1892
varier
Lad
##kommand
daglig
##enh
##olin
Napole
Jylland
ændre
Ib
jagt
##etiske
forlæn
optræden
##fug
bosæt
Hø
systemet
tyskerne
faste
kriti
700
erklærede
##isch
idé
mening
##ras
##brød
##kreds
Ur
ryt
fremme
forlade
karrieren
##ota
##rager
spilles
arrangeret
##edt
komposition
##wa
opdaget
havn
forsøger
DM
nov
1885
bebygg
##asc
##oo
##kont
starter
Nordisk
måne
##olution
forholdsvis
interess
How
##formand
##lys
Tekn
jødiske
##have
1879
##ivl
dømt
##kår
Brasilien
##col
##iges
damp
Dermed
##allel
##rykning
##irig
Ord
ten
vinteren
Internationale
##akte
##inerne
frihed
##holt
##prisen
71
købt
##sa
bra
hypp
##ograph
natten
##ruk
1889
61
ori
arkitektur
##sko
firmaet
mængder
modeller
##fløj
kW
##væsen
mørke
perioder
egenskaber
62
fæl
skot
Heinrich
identific
##mask
Fjord
talte
Bed
##vind
paa
vice
##ianske
Helsingør
##ory
indledende
udd
Best
Bob
omtales
hundrede
152
presse
É
##ika
Jones
Bad
arrest
##ktar
veje
##fat
McC
##lement
hovedstaden
74
##ædagog
##ronten
Award
hård
Henri
##øller
armé
trin
##arth
History
96
Big
rekord
##korps
##stoffer
plades
Mun
##rib
##okke
##pris
Pic
finansi
tekster
##gik
##ston
##wald
pige
##tallet
Argent
1872
bord
udgivelse
administrative
sagt
ydre
##tation
pension
##melser
##givende
##lingske
autoris
understø
##abor
156
##vokat
spidsen
##liga
eksempler
##organisation
ringe
hverken
1893
atlet
talent
foretaget
generation
##wig
78
##slin
##stog
One
1883
gade
rand
59
Chic
Provsti
##ology
Pres
##iverse
Edward
indstil
##aga
##ologien
##hjul
##udere
Røde
Bogen
Henning
anerkendt
##meter
##selskab
tårn
##hm
inklus
76
Vis
1891
Horn
Hann
dommer
besid
priser
lanc
varede
originale
##serie
indsat
fjernet
samfundet
250
forn
wrest
Foreningen
ild
lukkede
978
1875
##kri
##anere
kanon
##shøj
nødvendig
##oke
##ety
##dørs
involveret
##ejl
Nyk
lyse
##kommun
Ing
akt
College
effektiv
Ej
##lyst
begreb
betale
tag
##etter
##board
Prem
Compan
##vendt
engag
spænd
sædvan
ordre
Kommunen
anså
angiv
princi
68
klaver
##cern
##field
Malm
satellit
titler
##ils
08
FI
##reder
tilbragte
skoler
udbrud
efterfølger
endda
##fjorden
kontor
afløst
Sønderborg
myr
drøm
Hvid
86
opdelt
Dor
1882
fest
Uden
fremtrædende
##zo
93
studenter
##inas
trans
Journal
romersk
Aut
Klo
fuldt
lyst
Ungdom
##inerende
##kers
rets
Bundes
Hammer
territor
##aval
Folk
Olymp
fremmest
hospital
Ordet
Parti
mindste
begrebet
Show
bevidst
06
Dig
1871
fortsætte
98
##stige
indvand
fe
Marc
fattig
sikrede
politiet
East
gården
studiet
##fødte
1862
anvendte
vanskelig
grundlæggende
##vækst
1867
##imb
årets
##olens
stoppede
#
77
##vester
##sekretær
##færd
##runden
Ferdin
naturlige
Mic
##deligt
stoffer
##uch
esk
##agten
07
##asien
fænomen
Sus
gem
stav
ejede
finale
søge
Bab
Kle
##ordenen
Alfred
##ania
Pat
Sav
kost
opnået
##ografisk
##stri
##kran
##ørring
finan
vores
omtalt
Gyldendal
##bøger
##telser
Nordamerika
Pen
Holly
##fess
##jørn
##sættelse
Division
tilladelse
##una
måder
09
Valdemar
Pi
handels
##øgt
##vinde
ledende
Art
emner
##irkende
perman
Turneringen
størstedelen
Tex
##ækket
##spillet
Associ
Serien
##ovre
Team
##agner
arg
##eriode
annonc
##irksomheden
##rek
ry
gar
##verden
dekor
Dist
util
Steen
numre
støttede
##hi
##prin
Dronning
Selskabet
efterfulgt
fortsætter
##æret
krævede
produkter
##ason
##beck
repræsentant
erhvervs
Sognet
olympiske
##klar
##serien
Lufthavn
##tikken
67
dækket
Sachsen
##win
##dels
musiker
##museet
1865
Mester
million
##mur
samle
##chn
Ribe
glob
forskellig
##kohol
blad
kære
Eksemp
eksisterende
##hof
##band
lyk
##htt
metode
Tem
##anten
bank
##ændige
tilstand
##ømmet
##landene
dannes
manglende
Ev
##ua
beskrev
Kunstakadem
mikro
inspiration
eftersom
Kongeriget
mesterskaber
##klæ
bandets
##zin
Kur
produkt
myndighed
##jent
gas
##vinder
##ube
159
front
##forbund
polske
##middel
siges
##atorium
##do
Scott
storm
##æson
##icer
Madsen
Che
oli
passagerer
##arv
frø
Bygningen
vedr
antag
opfattelse
05
Bergen
nøg
Leon
udførte
79
Pier
virkeligheden
tidens
Verdens
92
Wer
Syds
sådanne
muligheder
##dets
Arch
købe
##idende
isol
##öl
Jacobsen
vul
##udg
Arth
Flor
kanal
##krateret
##tillinger
##awa
01
sne
ambass
forstand
Prins
Tjekk
##ukke
kvad
rettigheder
##produc
navnlig
Bos
opera
finske
Egypten
AG
##splads
provins
Ferdinand
vælge
bekendt
Peters
forval
Spe
##ynet
Bjørn
##lærer
Long
skifte
rejst
##fru
155
tom
##ædvan
##sterdam
Magnus
Virginia
sidstnævnte
job
Falster
fortrin
kræfter
medvirket
##skampe
undtagelse
##anda
1861
træer
##eringen
Dub
##stall
udbre
##án
afh
Næst
##skiftet
læse
kanoner
##ksp
##oslav
klassisk
##elli
##fisk
##løbet
Wales
157
##værelse
##blade
Fire
klost
scene
Philip
betjen
ør
hoveds
##lægge
##stedt
time
##stam
##ikt
##run
Ep
belg
tilstræk
situation
##edrag
Ober
årlig
forbindelser
uafhængighed
vedtaget
1840
strækker
##bal
##dist
fremstilling
##lsen
pot
biler
debat
##følgende
##mæssigt
nøj
liter
halvdelen
##sløb
sli
Kiel
Amsterdam
73
Cra
1873
##ressen
sundhed
##BU
hhv
1887
beskytte
besættelse
##stantin
it
Stru
bass
øerne
Les
håb
House
minder
##cu
##ilæ
##zon
FA
Socialdemokra
CO
Hede
drog
##irkning
##usa
##essen
##forhold
flygtede
sæn
1881
##stemning
mesterskabet
Litau
kender
Ky
Manchester
bund
separ
Forsvar
nordøstlige
##førelsen
##ova
##ægtede
##lit
##ami
##ned
sønnen
Tan
lens
opgør
benytte
Køge
##fors
Hand
Mølle
arrange
kommende
81
fo
##hederne
musikken
Berlingske
##meste
Drag
##ET
##grunden
indledte
##ER
str
bære
Gent
1878
Will
forbi
Len
skatte
##fort
Skolen
ukendt
resulterede
Jos
##ekter
krop
årrække
##skij
1868
##udvalget
Ker
Stan
##eladende
Mand
line
sign
skik
Besøgt
indbygger
##ektion
##holdene
åbent
beting
aff
##aterne
forfattere
oversættelse
evne
øk
beord
Lolland
##ume
##dorf
flg
69
##aren
Model
overgang
##dne
##ørsel
hjemmebane
##dy
##com
##stud
doll
flest
°
Fi
hektar
signal
udnævntes
03
BBC
opløst
orkester
Månens
festival
pul
komed
udpeget
grønne
##ificeret
##sselskab
spe
1849
Claus
1874
1876
Columb
1886
Ki
Theod
AB
dybt
##iction
##bas
##kontor
Charlotte
Svendborg
Eurov
Night
##mændene
beskyttelse
midlertidig
##bel
##ial
japansk
Frederic
##sætte
levet
rute
voksne
##maler
##parken
91
##pagn
rette
beskrives
##esteret
##udvikling
parallel
02
vokal
Company
gæ
##handel
kalder
basis
borgere
tilhørende
stabil
##cept
Kla
miss
Herning
130
Finn
benytter
fredet
betegner
initiativ
##deb
##ots
gods
evner
##ellerup
Margrethe
##jal
##økonom
kvalificerede
digt
ærke
digte
halvt
positiv
sikkert
##agere
Portugal
afsp
##byggede
Tyrkiet
DSB
Slag
Operation
Esp
##keligt
bredt
83
stab
mobil
erobrede
ingeniør
##æden
##onym
ligner
forholdet
nødvendigt
AT
Mat
diam
##lægt
##museum
Jackson
Indi
myndigheder
skaber
##æver
betydeligt
indspillede
Ye
Mads
inkluderer
Sem
hom
konsekvens
Amal
arti
hjul
Ve
Es
1877
Ital
##usen
delvist
kommunal
##astro
Wrest
##ætning
Nikol
megen
##bundet
mulige
Eurovision
Prix
Alexand
rev
Kors
ufor
Preussen
neden
jernbanest
##elte
##tikel
##aku
Næstved
sammesteds
##geb
##rim
##æle
##kirken
##urn
Hamborg
tekniske
Verdenskrig
con
vender
Champions
##40
angriber
##ité
##fang
stål
hotel
##ugis
##bergs
Hånd
nordvestlige
græs
bibliote
prinsesse
##achel
##stens
Brøndby
Band
etabler
organisationer
##bogen
##livet
##system
alkohol
Sveriges
aktivitet
##jær
##sin
fiske
kapel
lægger
##jev
##ribu
Røn
##gørelse
hellige
Videnskab
##ritz
1869
bombe
Ikke
sydøstlige
##talen
Napoleon
bla
##ubilæ
Camb
Cre
betegnes
opdagede
##olket
Blomst
kinesisk
Imidlertid
2020
##udstyr
pluds
forhindre
Dra
hyd
Brand
##konstru
##MS
##ksim
##mord
##øjet
tilknytning
udover
##vanc
årsag
specifik
last
kvalitet
Gymnasium
instrument
Arthur
ishockey
bold
skulpt
årlige
ophørte
etablere
overført
##yldt
fortalte
Association
IC
##illes
##iness
nærmere
autoriserede
grader
påvirket
civile
##ella
##attet
Avis
##ness
##IS
##atre
lede
##asin
##okse
##skap
##tific
Østers
indspil
##mond
bur
##denes
##tus
Old
##ropol
blanding
##valgte
yngste
##DR
lader
udstilling
bøn
##itekt
Av
gældende
Na
Glo
Ukra
Oxford
posten
##ancer
statisti
usædvan
østrigske
Wars
##umenter
dræbte
back
kvalifik
tolv
senest
##itteratur
##ré
fremh
sætter
Fon
tilsyneladende
modellen
kre
##fugle
Kloster
populært
##rette
sejre
familier
indlem
forskere
resterende
sydvestlige
san
hind
kvalifikation
##mis
##olet
center
##linge
turist
begivenheder
kerne
##rul
##aritet
##ydningen
##uddannelse
vedkommende
##lage
##dskab
Karen
Chicago
##iber
Bart
tvivl
preuss
opløsning
##reger
##sty
##zig
Sur
korn
bydel
Industri
brødre
symfon
diverse
##19
Borger
interesser
##ækkede
muslim
portugis
##adal
ekst
stik
køret
##edy
Sher
måle
meddelte
udvalg
04
linjen
Stein
##ulation
inddelt
Lil
Tar
broder
##ætte
##asset
brænd
opstår
virker
major
deltaget
medier
særdeles
##okol
##urch
Sun
Skandinav
øl
##sal
Bør
døden
grundet
udsendt
delvis
##bræn
sejl
bortset
##stød
hastighed
demonst
Statistik
##nets
##rolle
##stadt
Brun
Speci
brede
diale
hjerte
Sj
enke
##prod
eksisterer
##ræner
fødsels
##ulære
Mass
sæde
hævdede
gruppens
byr
1200
Hertug
anim
Trond
forsvandt
bånd
markeds
##fold
Franz
Nørreb
luften
spi
producer
fodboldklub
angribe
Football
hjalp
Tok
ton
##gange
##fag
##riget
##kultur
##mper
digit
dirig
##årne
sukker
medarbejdere
Hjem
rødder
##stod
udl
Norden
##datter
lighed
##gi
##abet
retten
##mil
gal
retss
Christop
elektrisk
§
##tering
British
Sønderjylland
##pon
##øds
teknisk
Lie
forår
##yo
##nis
##jyske
forfatteren
befri
Stille
trommes
Mak
Havn
salt
derpå
københavn
Premier
Rigs
grunde
##⁄2
Holger
fysisk
hovedet
Hollywood
##listen
##ques
##ender
modtager
spræn
89
##itten
slav
##eremon
lette
kobber
gennemførte
##vare
Mem
atmos
rund
Joe
##lerup
andel
guvernør
Haw
Lyn
Sir
lån
##gerne
##ikeren
##skal
fanger
Stadion
##bruget
##odbold
System
Hospital
##kret
markedet
##sbor
berømt
udgaver
IS
kvar
kroppen
tanke
dominerende
##udi
forlænget
##uere
Law
prædik
handling
Enter
Oprindeligt
repræsenterer
Jor
bidrog
dies
sjet
##ererer
eventyr
##rust
eksamen
##instruktør
Information
##AN
##unnel
Mogens
##kelsen
overvejende
Madrid
endelige
kommandoen
##oj
sex
Museet
øverst
træning
##ffen
##put
hjemsted
konvention
##lish
versioner
figurer
købmand
Cat
1859
Life
konstant
musikalske
wh
##danne
Kejser
malerier
##geme
klare
maleri
modsatte
##uz
##aya
##oni
Axel
definition
140
Gold
afgør
udseende
##shistor
kommunikation
Eb
debutalbum
studiealbum
prøve
##elighed
regerings
tu
forårs
skader
Nykøbing
invasion
Bry
Sof
mole
flyet
Hær
rit
1855
fulgt
serier
##tyskland
##organ
steg
øget
betydelige
Midtjylland
producerede
##aut
Brian
vedlige
Argentina
Frederiksborg
Chris
Hader
dertil
parret
sil
##ope
##enny
drab
mødtes
rigtige
Europæ
magnet
##rikanske
besætning
##yldte
kåret
ke
##rettede
##rækning
##skoler
##rue
kulturelle
##parten
skift
maskin
konkurrencen
mødes
barndom
Skåne
bekæmp
forkortet
producere
1830
kast
etape
musikere
##AR
##illing
Julius
forny
introduceret
##mæng
##pperne
udføre
Williams
statsminister
##næst
telefon
vejr
opfin
ledere
fysiske
##lah
##gøre
##rine
##baner
butikker
##virksomhed
Bell
ridder
frie
såret
rappor
forfrem
##styrke
Månen
##imer
Teg
public
Kongens
schweiz
kvartfin
1857
bryll
Edvard
prøver
##cean
lægge
drives
rigtig
advokat
muse
nået
##største
##stjeneste
liga
respe
byerne
naturen
cy
##østen
##føring
skaffe
Hard
jule
faderen
efterkom
tilstede
##græn
##anuel
##ische
1856
vælger
kommando
##esen
##bolig
##skrigen
##dh
bands
Hot
tyn
real
Texas
bønder
museet
førende
sekund
indsam
hest
indsk
##iana
Vel
1852
online
værket
dårligt
Eliz
##æves
1814
Hads
systemer
brud
park
minim
Barcel
##holdning
##alisering
##kser
føder
spredt
bif
afslutning
##schef
Laur
mund
oplag
##ugoslav
overord
indrettet
Borg
optrådt
selvstændige
bakter
##anne
##redes
gratis
Windows
nærliggende
mun
we
Nar
Hell
blok
misly
##ællingen
premierminister
Gren
Line
eksperi
flygtning
##kysten
opgav
kontro
kloster
SF
grunden
##rist
##revne
##klasse
organisationen
asp
gram
udlø
følte
revet
koncentration
##othe
##iserede
havnen
afholdes
virkning
Cour
##iki
tor
varm
strand
AC
##aard
##ique
##tekn
##mølle
studere
Time
deltagere
arve
nægtede
transpor
##uff
##ævet
Folkeparti
Jane
##rieved
##forsvar
Inge
hemmelig
styrmand
arabiske
##drag
radik
##illeder
israel
Fyr
Main
Amerika
sejlede
##low
sjette
astronom
900
##agtige
Idræts
bevarede
Pra
car
milliarder
##chi
##atorer
bonde
##enhagen
brugen
##si
##ava
##voks
##ni
##aka
##eders
teknik
stykker
besluttet
etc
foræld
stoppe
Victoria
tilbyder
formelt
##oz
Pap
##liver
Just
Wood
lettere
Lem
rådighed
Holbæk
Schmidt
##tellig
ligaen
hovedsagelig
##los
multi
Elizabeth
##row
##sid
stamme
foreningen
hovedperson
institutioner
##insk
##melt
Flem
Juni
Viet
Organis
foredrag
##stads
underlagt
koloni
mandlige
forfatning
Christopher
##skop
Blå
Sin
turné
maksim
gule
Patri
driver
departe
Serv
##brudt
1854
Arab
kendeteg
##fo
mer
oprettelsen
Sorø
Sel
sælge
voksende
beskrivelse
vogn
Poulsen
specielle
##fj
tå
##hånd
Sid
run
Hvad
Historie
skuespil
betydningsf
Iran
##krigen
##olph
##ikop
##ården
video
Of
henblik
Tysklands
##stykke
samtlige
##OR
##ateret
avanc
beholdt
##ask
varierer
held
bragt
landsholdet
##olde
solo
forbinder
Bow
øje
##athan
##præst
##ischer
Vejen
afhængig
projekter
*
##besk
##gten
154
##arere
båd
##ammen
fans
legen
mangel
tillæg
kongelig
##ianter
##jene
Gamle
##skriftet
##ylor
##ardin
skove
renæss
Program
##rey
ansl
skudt
##stig
##irmaet
##lemmer
fiskeri
cont
ment
Johanne
afsluttet
##sters
Army
fængslet
sekunder
##grav
110
Maj
formid
midter
udtale
Haderslev
##ksel
Bladet
scenen
Litauen
opholdt
Ray
metoder
European
offentligt
IK
##ners
Barcelona
##aton
anvender
forlaget
Christians
##bær
##utt
Anden
udbredelse
kanalen
Konstantin
smag
kompagn
##CW
##ulær
ander
hvorpå
##atis
Mah
##cklen
##ellen
søer
ramte
starte
stationer
1851
nødt
##astrup
Metal
konsul
1853
melod
Lor
##runde
original
Sydafrika
omgiv
DNA
##serer
##asinet
##købing
##AC
turner
Endelig
1842
Golf
Disney
dest
##stemmelse
hovedkvarter
##tlig
invi
##historisk
mat
Road
ægtede
svarede
##log
kab
sent
Reger
konflikt
usik
hårde
naturligt
##app
##aster
justi
kirkens
modstander
##pil
##æne
##vidt
Imp
##ampen
Corn
fremkom
opstillet
aller
lærte
meldte
##ulf
omgivet
skyde
tanker
trukket
langsomt
traditionelt
##pool
tone
renover
kæl
1858
færge
##fæ
##dags
forlæng
erstatning
Ross
Robin
Foruden
Out
Bred
repræsentanter
##historiske
sangskriver
́
Zealand
nærmeste
landsbyer
gren
Forening
oplevede
AS
løv
##skriv
html
che
##stalt
absol
##kredsen
##rerende
kampene
netværk
Caroline
Skive
besat
Aft
##roner
avisen
socialdemokra
##acitet
##udvalg
gennemføre
komment
##dannelser
jernbanen
##gårds
beslutning
##gren
##isted
øjne
tværs
##partiet
Result
Demokra
funktioner
Bran
kurs
Huset
á
Part
troede
anerkendelse
##rost
##føres
Irak
##retten
##strakt
##ospital
begyndt
operation
94
Mort
Rumæn
Spillet
stadion
##wis
##sværk
Blue
##ji
##cia
##opg
##tikler
ær
Gir
Greg
##ording
Dy
##sammen
##tit
uk
##auer
Mos
tror
##kø
ol
##sklub
Stand
bryst
leds
Lange
rør
inform
påg
##aling
skæb
##sættes
Person
nævnte
that
##ordning
litterære
##lunde
Menne
Water
##ubilæum
##cklenburg
DK
Øen
vare
kolde
listen
##ria
##ologer
disku
element
##odel
##skrip
##horn
Eric
soft
drejer
ødelag
orienter
##df
##wan
##dsel
##kyst
Sab
drej
kemiske
angiveligt
Anti
##spolitik
Arm
Aa
##uleret
bebyggelse
søm
fyldt
##lande
Forlag
forbudt
mekan
##kins
nom
skrå
konkl
elsker
##festival
Day
tunge
europæisk
Copenhagen
##BA
forladt
handlinger
not
høre
identitet
Aust
vakte
##EN
##ause
greve
##verne
botan
frede
##eds
Roger
normale
##bek
Parl
##fundet
##dannede
Nederlandene
##gori
##omi
##icil
##anke
Afg
umu
medvirkende
##cke
125
##omfru
Hei
iværks
materialer
##drup
årsager
##bevægelsen
Fredericia
##ele
##gas
##inens
Johnson
opbevar
overtage
eksisterede
##adel
##bror
1847
bronzemed
##agtig
##teborg
udløb
##tillede
Fem
tennis
Ligesom
tjente
##ng
kortere
opførte
1845
##jektet
kampvogne
##gens
Minist
Retrieved
##resse
potenti
##sbevæg
udsendte
Young
skoven
assistent
##lok
NAT
ker
lic
##ingle
cover
ombygget
##ima
Nye
##attes
##stret
Fisk
overh
##ssystem
##redaktør
Rail
##ommern
##må
##hjælp
##rejse
##vad
##mærke
Academ
henhold
dårlig
sav
takt
##konkurren
Folketing
officerer
anderledes
din
##tigede
Society
##fun
Må
##ukas
##genhed
bringe
Efterfølgende
Nan
begrav
mennesket
##rute
union
sammenh
Kjøbenhavn
Athen
Trods
afgræn
forhand
mangler
ændring
Naz
styret
foreslog
adskiller
sj
##aber
Lux
##sejer
Arne
Liber
##uay
Hog
bær
##marks
##lementer
betragtet
##ikke
##TV
Live
unds
##igheden
partiets
præg
##spektør
##stykker
piger
##sprogram
indførte
historier
Hiller
##akiet
##anset
##givelse
Taylor
tilskuere
resultatet
Vind
Pierre
bunden
kæreste
hollandsk
elektriske
Lord
##avisen
##hire
##æller
prot
##kratere
##äl
##øy
##hej
Mül
##olleg
planen
##direktør
tilhæng
Frederikshavn
væ
##kert
##spon
##ongol
Hele
spar
delte
polsk
latinske
omkom
##ual
##smål
Jud
##berne
løse
Forsk
kontra
##16
##bræt
##kker
Tids
medie
forløb
skilt
permanent
##OS
##rør
##felt
##ough
ledede
##sområdet
Virksomheden
##car
Foren
Hadsund
daglige
forbund
støttet
##öm
##olds
Føl
##elter
guitarist
Jen
##AP
##udan
##loven
##has
Yder
spise
##urister
##ystemer
fungere
praktisk
Fox
new
Force
##scenter
muligheden
lokalt
ekstrem
beskæftiger
##læ
##prins
parken
vilkår
diskuss
##usalem
Romer
Walter
vedrørende
##tegr
##berts
##korea
##model
parker
tronen
##BS
##eken
##roen
mæl
deler
placerede
udtalt
kam
Mette
begynde
overlevede
Alp
Øres
finsk
##ateriel
##ævne
stiftede
svarende
frivillige
lo
drikke
yderst
anerkendte
##anna
fon
organiseret
##fan
##skan
##står
romanen
Up
Penn
##oritet
opvar
genstand
##varende
tårnet
besejret
Mari
Svan
ramme
hvortil
forgænger
EP
tons
udsm
hunde
##okalt
Leop
Herman
erobret
kir
yde
malet
modern
##rationer
Hem
dræbe
##ragende
benzin
malede
don
loven
Danish
sed
laver
fremgang
veget
smukke
##smæssige
indd
Endvidere
##beret
NATO
Sjæl
afgang
beregnet
##edig
Cath
samarbejdet
prak
kreds
drenge
sekretær
##rone
##tist
Rub
##unker
##kin
##slen
##yrer
Als
##kelige
##furt
Leip
##skraft
ærkeb
##ardo
##ternes
forbry
Hjørring
WWE
flygte
Are
Mes
Ukraine
##ture
halvøen
hovedsæde
##cil
##ibi
afskaff
præste
vokset
tilbaget
Pak
##tions
Jeff
absolut
##skj
##afdeling
opstået
spredte
fremmede
##DS
all
årtier
producerer
##gelig
##rykket
Hur
##ultet
oversv
selvmord
fortrinsvis
##nik
##cert
Has
mia
Gade
##sætter
dreng
skiftet
##kelsesvær
kortfilm
hyp
uen
##bygge
Cont
Kate
Sidst
alter
stillinger
Gil
Islands
genstande
Cur
strid
Ludwig
fornem
##strækning
##ki
##cast
Fel
ligge
distribu
##øve
Volks
broen
batter
Corp
Landet
romaner
udvidelse
##ado
Plads
breve
angiver
ungar
medlemmerne
149
gæst
søger
mytologi
##skar
##akket
dans
pian
albums
børnene
Mecklenburg
##unes
forlag
manuskrip
##ittle
Side
besøgt
koordin
##orks
##skilt
frek
omdøbt
Francisco
selvstændigt
##oten
1400
tydeligt
bin
Gott
svag
Spring
kritisk
mak
bilen
inder
Branden
##shav
Sec
##figur
##strand
kamer
Carolina
##ert
##mas
##nie
##dømt
Helle
Seb
fan
derfra
hævder
##smanniske
formåede
Hy
Oh
Monte
batal
Test
deriblandt
sidde
##ældende
##uespiller
kos
##gårde
State
arten
Gammel
##SCO
mit
øge
Liver
harmon
128
konver
##rod
Contest
Nikolaj
Træ
##ksikon
##materi
Holste
monark
IA
Ok
bran
celler
folkes
modsat
strækningen
##ake
##fris
jul
##ungen
Anth
##industrien
##ody
##uro
1844
##amo
1815
ejes
deraf
flugt
hjælper
##raham
Sprog
efterlod
hellig
forsvaret
Way
Inde
episode
pædagog
sjældne
gri
syg
##undtvig
Konserv
udgiver
konservative
Bib
Wagner
administrativ
indgået
teksten
Get
##orped
1846
Krog
Stone
##arden
##somme
##sbanen
##tillingen
Sep
Bach
Arena
liges
Afghan
##aux
Gib
Play
reserve
##sbygningen
##uba
Rolling
felttog
startet
Jerusalem
ansvarlig
Hob
kød
##lægger
skyld
UFC
sko
opposition
##gej
1100
Rose
amatør
tidligste
##die
##iansk
##utsch
vises
>
plat
fanget
værdier
forsynet
##yth
DV
poly
##alads
Grev
pers
frygt
##EC
##dæk
Tob
skæn
##svæsen
##21
Dens
##smanden
kraftige
anb
Santa
sager
##andidat
udsigt
bydelen
forveks
rod
navngivet
øjeblikket
instrumenter
##MA
kog
##kampe
fulde
håndværk
##bak
Kil
##førtes
##lænderne
løsning
udbredte
kontrovers
##uge
##klin
##dalen
##vokset
Parret
normal
Aage
kapital
forsknings
##åds
evt
bade
Guadal
Europas
popularitet
##ico
##achim
Great
##eselskab
omdannet
indtog
forstær
overens
rul
Spor
##elling
##umin
vider
##forskning
Ast
##tioner
Tu
##ated
##kant
Mør
dæm
dokt
pave
udgrav
singlen
stillingen
Steve
##attle
udfor
##pol
Pin
##amfund
Estland
Vietnam
Ligeledes
Pil
redde
interesseret
##mid
vit
Gunn
Jesu
kammerherre
##afé
##axe
Mike
rede
køkken
Thomsen
fæstning
##uten
Ges
pdf
fysik
tilbud
koncern
##letter
juridisk
##kir
##igan
Kenn
skin
##amente
##ttende
kritiseret
skak
Jyllands
regiment
uafhængigt
##korn
##lens
Mau
rektor
motiver
sum
spur
rettet
snarere
reformer
lejligheder
##ular
uds
grand
arbejd
benævn
integr
undersøge
##mu
1300
kørt
nordisk
nyheder
forinden
kore
personlig
mode
Alban
Nobel
bevare
skyldtes
Kent
kors
##istens
ideer
matematik
rest
bladet
bevægelsen
##akke
##fjord
Dahl
indgå
##itation
##mig
##oto
##ther
##aljen
mord
Byens
ansvaret
##yrdes
fastsl
##oty
manager
tand
##aljerne
Church
australske
forsamling
offentligheden
##nene
##wich
Ever
Selve
gives
nødvendige
##orit
afslutningen
##cho
Ah
##ebra
UNE
Konge
bibliotek
##tens
Olav
nærings
billedet
Moz
kant
##vandet
patienter
kommission
##ebo
##indt
Josef
spids
Skibet
plader
service
afdelinger
##kanten
Castle
Ekstra
hjørne
Joachim
##gs
##edyr
##øerne
kart
vidne
personlighed
Airport
Bladene
helst
##erioden
Az
Had
##uppet
##ylvan
Ball
minut
passe
holdning
##én
pav
##ellet
afspej
##ito
148
##dsiden
arabisk
markant
forståelse
##iks
##ryd
##uller
besked
Kommand
VII
Web
##årige
Vinter
invester
hjemlandet
Reich
bosatte
Bibliotek
##vre
##stifter
offentliggjorde
##HF
dam
States
Sydslesvig
MS
Wilson
Superligaen
Ris
mæg
krater
Europæiske
hovedrollen
##TS
derudover
graf
rytter
##lever
##stjen
tung
strækning
bemærkelsesvær
##ctor
Guds
erind
godkendt
nummeret
##assel
##mæssig
##sproces
Kampen
blandet
pladeselskab
##styrker
regioner
guldmedalje
Sej
Erhver
jernbanestation
nation
sejren
betegnet
menneskelige
##viv
Cy
##orme
singler
selskaber
##ams
Ti
sati
Wat
##oderne
Storm
Abraham
tilladt
forbedre
##rød
101
mot
1841
Molt
Science
##stillingen
##bran
dybe
Friis
Leipzig
hå
##ædet
Bis
##ureau
##otiske
forbud
November
afsluttede
registreret
Hug
veg
hard
Begrebet
##ello
Cru
die
##minal
Elvis
briterne
Nyt
betrag
mellemtiden
##æstet
Spar
Hvert
holdes
Liverpool
Vas
ilt
Bour
Ofte
Stig
Prisen
hertil
Prinsesse
Mov
bol
Adel
Trap
Jag
vides
Østersøen
gæster
forsvare
bæl
Ener
##haver
Bost
Møn
stj
##amester
indkøb
##holdelse
Institu
foreslået
indbyrdes
##vald
##opper
billedhug
Tj
Hag
plas
##filmen
håndb
UNESCO
Alminde
skaff
værende
1839
brygger
forhandlinger
drive
torped
Jugoslav
flydende
regionale
##asen
gyl
Doug
helikop
Federation
anmeldelser
Hon
##turnering
intellig
##bur
FF
##rosoft
Stats
hænder
##vne
Allé
ress
##aftale
anbef
udtry
##sbygning
opførelsen
undertiden
døg
Handel
erstattede
##befal
Lake
indtryk
lavt
ophav
Nyborg
katastro
##itu
##edal
DDR
inse
stået
Gentofte
tilfældet
##vider
smer
aftalen
Holstebro
dvær
##akes
Ash
humor
##semb
##skæl
1843
hits
##faldet
##abe
##sborger
Nordsjælland
##bord
##lima
ner
Seri
erst
analyse
kontinent
UC
##jyllands
##rier
WCW
forbrug
arresteret
iv
##skin
115
Matth
ekskl
opkøb
vilde
løbende
overgik
pågældende
tilhængere
##bom
Kos
tegl
fylke
##elmotor
sender
Partiet
Cambridge
Microsoft
Kjær
løbe
mødt
simp
hurtigere
argumenter
Brown
aktivt
canadiske
alternativ
Str
fattige
Sky
##sfolk
sympt
idræts
evangel
udvikler
underskrev
##II
##zz
spej
Filip
Johnny
##clop
##dage
Thy
##nummer
##alismen
Golden
##forbindelse
fællesskab
Pot
villa
Thisted
modstandere
##læge
Gener
motiv
hænger
afviste
slutter
tyrkiske
##alin
sættes
teknologi
##alth
##untry
##rikter
##tainment
Slagelse
begyndelse
Eu
att
##sbane
Rumænien
afle
Tønder
##ced
told
døtre
##atoriet
oblast
princip
betaling
pludselig
Nær
ort
##posten
Rosenkran
værts
Vo
Jar
vic
Prag
down
Theodor
Tidende
dannelse
kombination
##ray
##anes
Syrien
rammer
konføder
forventes
##ødet
Rem
Müller
brasil
længste
##samlingen
Forenede
Hillerød
overlevende
Skandinavien
##undsp
bisp
vokse
##alys
Navy
Florida
kortvar
##ief
##kil
##vat
##linje
##ninge
##øgerne
Fælles
dygtig
fremragende
##IA
fås
##keren
Lewis
modtage
Nørrebro
undervis
vor
Good
motorer
provinser
##itor
Sær
møb
danse
Billboard
##handlingerne
147
Ency
marine
præsiden
Mas
Tib
##vit
##live
hvidt
mysti
islandske
tidsskrift
##ador
##løber
baner
statens
omstændig
##rac
tem
trop
Sigur
indian
stillet
tilføjet
omhandler
livs
danskere
Jonas
miner
myrdet
fjorden
udtaget
samtidigt
##alj
Ned
##øllen
Trom
Lands
Tokyo
##klubben
bjerget
##12
##deler
Kurt
Kristi
skæbne
syvende
ox
##gift
AaB
gru
##haven
fjendt
planet
Academy
dagligt
Göteborg
godsejer
besøgende
lit
irske
##division
partner
##gy
##vst
Deb
kopi
Business
traktaten
karakteristiske
mine
Jr
##ires
##sloven
##stjerne
uafhængige
Inn
spir
belgiske
Vä
Frø
len
fødselsdag
Moder
Dublin
Cam
##conom
##hausen
holdene
foretage
##hov
lib
Profess
samtidige
1837
drama
straf
internet
Rosenkrantz
##gl
jødisk
##orld
##træk
flygtninge
Boy
helbred
##rerer
##ute
##brand
##canal
##rogen
rival
udgive
##deløb
punk
senior
tiltag
jubilæum
##akon
moh
##præsent
Knudsen
udarbejde
##ES
##lien
Meyer
forber
skandinav
##IN
##anti
Bulgar
boliger
diameter
##ih
##ums
non
##vande
dato
vild
leveret
##aliserede
Inc
Inf
Scot
væsentligt
##ík
fase
##search
Little
##aria
##dorff
bjerge
Guadalcanal
##hein
Cri
##gener
##onsor
Town
ulyk
bekym
##bank
Sat
1810
1820
Tony
leje
Orden
spring
Stephen
ressour
Hil
forsøgt
##cs
##ells
Kam
kræft
Sydamerika
udgivelser
##tav
pig
Islam
scener
sendes
Hamburg
Nicolai
Johansen
landskampe
næststørste
##ulering
religiøs
Institute
muslimske
WWF
##alition
Hessen
Metropol
germ
vilje
##systemet
Letland
##lint
resp
##fronten
erklæret
besiddelse
##ople
##seud
alf
forvand
fremtiden
##15
DBU
##bourg
dalen
Stones
rækker
voksen
redaktion
bevægelser
##reen
Nr
Fog
kup
Broad
fremmed
krydser
Universitetet
Kel
præc
åbning
Hannover
indstillet
##ionens
##konserv
fisker
Entertainment
##ahr
##eriets
aftenen
musikvide
##klæd
146
##light
fork
institut
tilsammen
##jysk
bosat
granit
##skes
1835
Brad
jager
mestre
henrettet
Republikken
elektronisk
århundreder
skat
match
komplet
##gav
##vang
Gun
ere
1836
glem
arkiv
falde
rummet
forlængelse
københavnske
Glob
Elect
følelser
stranden
##ged
IT
Bron
raket
støtter
##svin
Wol
##marken
burde
målmand
Vesttyskland
Fug
##bedet
##limer
Dres
krigens
historiker
ler
##astor
##uppen
Vide
##ega
##opol
1838
beton
optog
Margar
nedsat
##sområder
##vileg
oberstløjtnant
AGF
##artet
##round
Vlad
opdager
trommer
reduceret
naturvidenskab
##hel
##lid
##fran
Ivan
##iliteter
##back
Tang
højst
konkurs
teatret
##fugl
##æsonen
bevis
guder
##undborg
længst
forsvars
##cken
##omon
Ton
rødt
samlinger
##bunds
1807
Tele
nært
##spring
Grant
medens
Leopold
##sere
Kanal
erobre
brændte
ledelsen
Run
##officer
centralt
##vn
##ili
Cir
Arts
Cong
talt
skotske
Wrestling
hovedrolle
parlamentet
127
Sax
mindes
rapport
uafhængig
modtag
Ori
##oseks
Vers
##aus
showet
vedtog
forfremmet
##ße
Lam
hæm
##oration
ambassad
##cus
##oldt
alm
##isere
##skade
stol
teen
##hertug
Baden
Luxem
datidens
software
Historien
##rens
##fladen
ørken
##sforhold
Rej
dro
Moun
##bestyr
Lab
##alist
Juel
europ
ration
skifter
##aki
trykt
fortolk
indiske
##inspektør
##riks
##zburg
##sban
cit
ansk
Charlie
nutidens
stigning
Trondheim
Dun
skridt
##verdenen
afløste
Afghanistan
Wik
Have
eskad
##smæssigt
sygdomme
alvorlige
Wi
Pac
rem
##ægten
gøres
færøske
optræde
Forfatter
tilgængelige
##jan
Ut
##oker
##inten
kvæg
eksil
kapitel
noteret
prøvede
alvorligt
udstillet
##tets
Gul
Not
Chile
First
##undskab
Jersey
##kommanderende
Fen
##azine
egyp
vinkel
levetid
##DF
##cal
##ælt
sår
døbt
gehej
Efterhånden
##bør
part
ruten
##mans
Bou
Halv
bryde
repar
##familien
Service
militært
kristendommen
selvstændighed
fremgår
trækker
Holstein
grundlov
##tur
DS
Mr
gif
næppe
faderens
##forsamling
##teren
##iteret
værdif
næstformand
##chs
Wür
jur
orgel
##het
##desp
##smet
##ting
oppe
kæmper
Frankfurt
foregående
##oget
Ide
Nak
ulov
##floden
##ée
Birg
fars
øens
Sorte
Techn
moleky
komedie
ottende
overalt
officiel
##13
Cross
Mellemøsten
##ður
jura
Davis
Parken
##rugterne
restaurant
hæ
##hjel
Chi
færre
ceremon
##kær
##inus
Hed
Mikkel
opføre
traditionel
##blem
##tius
##work
1803
brun
##skridt
fælle
herfra
profil
##karriere
arbejdsp
sognepræst
##lange
styres
overfladen
##lis
##sem
Pass
##alløjtnant
##oma
##rut
filminstruktør
SP
##rica
1801
##grunds
sjælden
Frankrigs
skuespilleren
medfører
varianter
landskabet
##18
##sor
hyl
Hermann
afgjort
dårlige
eftersp
søskende
1813
bibel
dernæst
stående
##umen
Fader
Jernbane
inklusive
##sfri
sens
Kongen
##rafikken
oplysning
##somt
##ppede
Gabri
fyret
##egnelsen
frekvens
indbyggertal
Wo
Hau
1809
redig
spekt
##general
budget
##kspedition
fabrikken
##FL
Bat
Jam
och
tages
defineret
komponeret
##sbet
ATP
##dømme
Floden
besatte
høv
spæn
enige
krone
kvadrat
beskrive
detaljer
Grønlands
påbegyndte
Jugoslavien
almindelighed
sa
See
Børn
Liga
Ocean
udform
bestand
indlemmet
##zant
Sul
kran
Teatret
##spris
Lincol
invest
sælges
beboere
bjergene
medaljer
Middelhavet
##aja
##uta
au
tilbød
eksport
##mesterskabet
IAU
Ill
Beat
tyder
Boston
Arkitekt
kredsløb
automatisk
145
ure
##færen
Arten
Class
gæste
##skommun
korrekt
##dis
##stab
Alf
Bli
1808
##vering
føres
dybde
mærke
##talende
Natura
Australian
1834
138
##sstil
genud
##stationen
135
Cher
præm
Håndbold
undervejs
fremstilles
##ints
Ola
##stået
hjør
fængs
beskyttet
##bout
Sche
Muham
baron
fødsel
##IC
SE
##part
Mit
play
##institut
preussiske
123
Tyr
##ielle
tank
nævner
stemte
arkæologiske
##steg
Dur
mix
infl
filmati
udvidede
kommunistiske
##grad
##yens
##loder
1828
gader
Moltke
bevæger
individer
##pag
##fære
113
126
Dit
1829
Beck
Især
udgangen
##oduktionen
Byr
##lines
Gord
flade
guddom
Mission
Sebasti
spillefilm
<
##strå
Birk
Mars
Økonom
Ler
Amts
Venedig
opfundet
yn
##uset
score
Bremen
sproget
##right
kemi
##midler
skønt
Flemming
DC
##arup
Helm
adfærd
##åen
106
son
##analy
##kommen
kaldtes
kastede
konkret
Ala
NAS
placer
afhandling
Skt
Mose
bebyg
udspring
Skj
##agnen
sving
Charlotten
camp
Google
floder
vinderen
beordrede
350
sky
##risme
##tigelse
faldet
tusind
##ronningen
##och
##okk
Mot
Udt
##ævnet
march
##ference
skrives
Wes
Grupp
Columbia
erfaring
passerer
Bø
##styret
##assende
Produc
Brandenburg
##anni
##lejet
ortod
Holdet
Samuel
omkost
##delserne
konstater
##vere
105
Rio
##reich
##krater
##rummet
terræn
opbygget
Christoffer
##egel
hor
demokrati
##celler
##spektiv
Andrew
##amerikanske
##irs
Villa
Christen
morgenen
##üh
tørre
Petersborg
overdraget
##tika
Ost
##meret
hjerne
mistet
teorier
Grundtvig
fremstille
internettet
trommeslager
##ić
##nep
##cient
##blemer
igang
vulkan
medvirker
efterkommere
røg
##andes
##oslov
fare
nede
nyop
##bunden
Tennes
positive
Jordens
forsøge
medlems
punkter
##aret
##asjon
1812
##ression
bundet
mindret
##forbundet
turister
Regeringen
divisioner
søj
Dram
emne
slår
Indre
etage
split
Arbejder
kunstneriske
agg
Bruun
antik
##17
##hou
Mind
##kaldte
##marked
##rejsende
Atlanter
‘
Forbund
påbegyndt
##hor
##ops
ja
huser
formue
Richards
sammensat
##ministration
ånd
##rater
Bind
Oluf
forø
overn
patri
Provin
speciel
landevej
cd
##bjer
##gern
nav
bryllup
fjender
statsborger
##ræb
##rids
##ælling
gammelt
brødrene
##drift
##astiet
afvist
filmens
territorium
##okl
##sar
bul
Kath
##sering
introducerede
##rict
bir
fav
out
Marsh
aviser
krigsf
slutte
temmelig
##cle
##ængde
hval
Albre
##danmark
folkeaf
##præsident
fremtidige
##dant
Hør
diagn
dagens
mistæn
turneringer
##kv
##stone
øvre
lektor
Arbejds
holsten
sangene
stemmerne
efterfulgte
spørgsmålet
demokratiske
##du
Benj
Franç
henviser
Historisk
eksperiment
uanset
succesfulde
Hof
nedslag
fortælle
menighed
sædvanligvis
##ross
Dyb
Medlem
slaver
nationer
DVD
Tiv
##biler
##thers
##ylind
Fall
Roman
portrætter
præsenteret
##ånds
Jun
lad
Wimb
freds
##ylvania
etager
##visninger
egenskab
Ringkøbing
##nor
Squ
Dertil
færøsk
##estående
America
afsløret
hovedkrateret
##ledon
Bull
##rukket
agent
ledte
hensigt
refererer
situationen
##no
##wick
def
##ariske
nedsk
dyrkede
alvorlig
garn
endog
human
total
eksplos
Familien
104
136
Fak
luk
nul
Samt
målt
plynd
Wis
læste
tegnede
##fyn
##kol
für
dollars
udstrækning
bis
roer
##bat
##esi
litau
riget
vidste
Douglas
politikere
##ais
118
dække
bygges
Kalundborg
Bugt
Sang
vildt
teologi
operationer
##wen
1832
Løbet
værkt
##sformand
install
sammenhænge
Elekt
Carlsberg
tilgængelig
indgang
Wimbledon
avancerede
konstruktion
Rige
kredse
Ein
fla
Dire
indik
tjekk
sårede
forskelle
Kunstakademiet
129
Mount
kritis
endeligt
##25
##lege
##elius
himmel
##misk
akk
trup
##førsel
kalde
ligget
Transport
medstifter
nationalpark
Flo
Bond
Nick
smal
##anisme
##pit
Wa
##både
##head
##ægte
Rac
Latin
kommandør
praktiske
##sex
Æg
Hong
pak
lærde
målet
##ulerede
Kirsten
atletik
Tennessee
##uet
Cirk
Rein
Riga
##familie
kunnet
opgive
bredere
udtrykket
##deri
løst
Banen
Gunnar
##uropæiske
Christine
overordnede
##24
Fle
Herre
##sketball
gentagne
liberale
ødelagde
##14
Hå
##dium
Uds
læser
solen
naturlig
artilleri
hot
##utsche
regnet
kendskab
protestan
skuespillerinde
##mers
formoden
sangerinde
fris
Klaus
Udvik
##skirken
udveks
adskilt
##mæg
flå
utal
Fritz
Michel
##holdende
##mit
But
##rytter
argent
tillod
truede
Lincoln
lovgivning
kas
##ather
1831
Alan
Pers
Hvide
sejle
fyrste
nedenfor
udstillinger
Skander
##bygninger
Følgende
forstærk
##ila
Au
Dø
ræ
Posten
tæller
opvokset
vanskeligt
eksperimenter
ga
col
Korea
nyhed
vikinget
spilleren
personligt
pokal
flåden
siddende
##udstilling
dannelsen
virkelige
forretnings
##olie
##srige
Your
sult
pseud
##amme
##okes
vagt
Stort
idømt
tjene
fjerns
tunnel
tegnefilm
##ibo
##https
fasc
Tyske
dages
lyset
##levende
lægges
##agter
medb
##klassen
Formålet
kompleks
##amik
ing
Rest
##ricitet
lærere
følelse
offensiv
##søe
pleje
1826
afdøde
Fischer
fortælling
nogenlunde
##cyk
##miske
pause
indkomst
kolonier
##reber
Queen
forføl
##nd
144
Kai
Simp
Ulrik
advar
elite
vejer
synger
Benjamin
ekspeditionen
betydningsfulde
##ulu
Rap
##kørsel
Nieders
forside
Frugterne
##pot
##itan
##ofon
Ric
dal
##øvede
skræ
Warsz
sektor
##svidenskab
139
Glas
race
##enburg
Allan
uheld
borgen
Gh
108
Fla
##broen
##rukne
##kampen
kostede
##lægningen
##bent
##metal
##grønne
Højde
##sætninger
##dri
##titel
##ynder
Grav
##staten
Donau
press
svære
##delelser
admiral
Resultatet
##dle
##pas
mem
##erske
gjal
forbere
Encyclop
generalløjtnant
Stav
Hellerup
annoncerede
##hyd
##uan
Gas
tav
##ested
##ulere
risiko
##folkningen
##ON
##atz
##ree
##råb
##imir
##odes
##sund
109
134
Civ
Hab
gens
svøm
Penns
krise
omgange
forsvarede
##cc
hø
##ebyg
Hvidovre
hemmelige
kapacitet
uv
##skove
1806
1816
stede
##lutning
besvær
gjaldt
Carsten
tendens
Østerbro
brændstof
understre
arrangementer
Walt
##delelse
Derimod
omvendt
Alliance
hvorimod
Nordjylland
German
Volksw
juridiske
skuespillere
##ovs
##dell
skarp
planten
##sætningen
##stør
Ove
trium
ansigt
menneskets
Julie
manden
angivet
Blomsterne
etableringen
##dsy
Stu
Back
Kevin
udføres
klosteret
##ero
##ækken
##vendte
rigsd
arbejdere
##kat
##inter
auton
vælges
erstatte
##arne
##ifik
irsk
oversvøm
##spræ
##egård
##velop
spek
åbningen
##IF
##øya
107
1833
Artikel
Færøernes
individuelle
Braun
Olden
episoder
Christiansen
karakteriseret
##AM
##kul
137
Hir
##arina
##cover
turn
racer
busser
kejseren
##ffel
##ichte
##ladser
hylde
forlader
##kilde
1824
##geriet
##gået
Domin
apote
bakke
celle
licens
skibene
124
Tab
bok
##færdig
##linjen
Major
gravid
##api
##yren
1818
Media
Sicil
buddh
forstyr
flad
jyske
##chaft
##worth
kunde
##xt
Fro
Kaj
##gning
##ørdag
Burg
diff
Børne
kaval
komplek
tilgang
nødvendigvis
administrerende
##rett
seg
Dream
tredj
typen
California
påvirkning
##ouri
præcis
gennemgik
universiteter
##leb
##stue
##stenen
##anstalt
Econom
videnskabelig
##oca
Fj
Køb
armen
Barbar
tjener
hvorvidt
geografiske
##akh
##eler
##ways
##reserv
kunder
moderen
Næ
##dder
##lejr
##issen
Wild
##kester
Online
etniske
eksistens
kombineret
kontrollen
##græ
Løg
Syn
enden
stifter
##tighederne
kommercielle
##værn
Wall
Hjort
meters
Højskole
##foreninger
Ug
Va
Kul
##ernen
phil
ihjel
brugere
blandede
homoseks
undtagen
medarbejder
Konservative
##fast
Wel
gre
Rådhus
slesvig
Nordafrika
Corporation
Cer
variant
Doc
##dspil
udpe
##ography
liggende
##pi
##plade
##mad
##øer
116
##attedyr
##vninger
anklag
embede
fætter
amtmand
afhandlinger
##iatri
##mberg
Clem
##øderne
kanaler
forestillinger
##bol
##nok
##skiold
Deutsch
forsanger
ambassadør
forklaring
##svalg
ballet
##staterne
forvent
Hom
Sne
Beij
Gods
Kont
Christiania
Nav
Upp
Vid
amp
befandt
anlægget
grundlaget
udarbejdet
zo
hab
Trin
uret
Bjerg
statsk
søndag
tilbag
Mir
##allen
##skred
vegne
##inering
karakteris
##zi
suver
dukker
dukkede
hersker
optagelse
lufthavnen
##ido
##raa
April
genre
filmene
hurtige
operaer
Mikkelsen
Lav
tun
##skifte
##æbnede
Solen
##ftræner
smalle
ib
Sag
##shire
boet
##olerne
opgra
Vestre
helhed
tiltrådte
kommunerne
##hai
##anon
##slov
Gaz
Rep
Munk
arme
indeb
sunget
håndboldspiller
##bers
cer
was
Stil
motoren
##kvarteret
##torp
##wall
ræk
##miljø
fremb
Design
Helsink
stoppet
familiens
underviste
finansielle
doc
##ights
Rena
double
sælger
tegner
Kristus
##skabs
højder
klasser
forsyninger
rens
spør
konflikter
por
##fader
##yggen
##oldater
fiktiv
perron
sønder
vandløb
manglede
key
##edral
Serb
fint
inten
bjergk
liters
stopper
komponister
sammenhængende
##less
##meligt
##rikker
Power
reklame
##hem
Tó
##imar
##yram
117
Fame
tønder
forenede
rådgiver
stærkere
musikalsk
ærkebiskop
Mesterskabet
##eor
##ivt
##ents
##ject
beløn
grave
bombar
Dresden
Stillehavet
ho
##irtu
##andel
1819
With
##blomst
Death
veter
landbrugs
eff
##fried
##mager
Korps
lokomo
##ifer
teks
Serie
aktion
Ringsted
kalender
afgørelse
rekonstru
Hoff
udnytte
Højesteret
begivenhed
##jo
Pav
udøv
Østre
Torben
##munition
opgivet
besættelsen
##ush
Os
Vit
rigt
##værd
Sydney
tillader
spilletid
traditioner
„
##kob
Sad
##stren
Juan
##bedste
beviser
muslimer
sikkerheds
grundlægger
Pennsylvania
##utz
dra
pin
##præget
synge
##beskyttelse
##ovl
##ampton
digitale
tildelte
fundament
formodentlig
Sub
bist
svagt
##sproget
udvalgte
indbyggerne
kvalificeret
##fi
##ctic
##tele
Nag
hørt
bestil
##regiment
kampagne
September
Skanderborg
##vidde
pans
##ænding
Lübeck
afledt
luther
syntes
##tagelsen
##leve
eje
Hjer
grene
koalition
køretøjer
DF
HK
1811
1825
lyder
indrøm
##amlingen
Kristensen
sammenlignet
underskrevet
Emp
etap
ofre
slam
##bourne
Beijing
distriktet
filosofiske
##atom
##http
Boe
##ental
##mestre
##ingevær
leverede
##lins
Log
loy
hale
##gennem
Bruce
Amalie
yderste
ansættelse
kunstnerisk
LP
##ekend
Krag
Salt
Syge
adop
deles
hangar
vidner
opfattes
dieselmotor
Pub
Wen
jøde
drage
lukke
driften
klokken
datteren
monteret
slutning
byggeriet
forsvarende
Ske
hud
##forsy
##rator
1790
vore
enorm
krige
udvalgt
##ird
##orps
Rør
onde
##ologen
##ingeniør
##ags
FIFA
integ
##ejst
##zone
##sting
Ting
##issipp
##erencer
Grammy
hoffet
palads
dirigent
Lys
##punktet
Rudolf
simpelt
Anderson
maskiner
##organisationer
##oul
Gj
Fun
1805
Canad
ledes
faktor
Mach
brem
munke
sande
Sovjetunionens
##ungs
Space
Trans
løfte
downlo
forsker
Øl
##ensive
kategori
sølvmedalje
##don
prom
Kasper
ryggen
videreg
Øresund
##stationer
Indenfor
væsentlige
betydningen
##fest
bit
##hardt
##obile
##staver
reelt
sværd
Februar
usikker
##retninger
##box
##etten
##åbnet
Shar
##gaards
indenrig
inklusiv
østrigsk
historikere
Grå
NASA
Frans
Rhinen
antages
kollega
ødelægge
##grave
Dark
Ravn
##banken
Light
almen
godset
lanceret
Kv
##ttet
sel
tales
truet
beskad
famili
romerne
landbruget
##avis
##ensk
##nens
##craft
##ævnes
Bush
Alice
hæder
afhænger
Niedersachsen
##kop
Kid
tolk
Adams
motorvej
bekræftet
forsikring
sor
Tall
##æderne
Dagbladet
princippet
sammenlagt
Las
kult
afsat
tømmer
Mississipp
##how
##ryds
Cha
Arsen
vendt
junior
dynasti
rigsdaler
rene
samler
sikret
teorien
arkitekten
##mont
##vises
platin
##mperatur
##ransport
tilvækst
##ordingborg
eksisteret
befolknings
HMS
Vog
Patrick
forbedret
producent
Hovedstaden
##ener
invader
Sydkorea
##reres
##speriode
markeret
##frastruktur
##aet
##fac
..
...
##manns
nabo
begej
skuff
objekter
##inem
##plet
Kru
had
veks
skala
israelske
Box
palæ
##banesp
konged
soldat
##smedlemmer
tilstrækkelig
##skat
Søb
##styre
farm
fyrst
simple
science
generelle
Volkswagen
##him
##wal
119
Billy
Mitch
spred
herrer
Landsbyen
cheftræner
tilbageven
Vordingborg
##dansk
Found
bølge
stiger
Clausen
skolens
##oir
Rev
Game
##herred
Citat
Milano
Nep
Fren
José
pens
Conrad
Stefan
##skaberne
respekt
Eksempler
skiftende
førstehold
##zirk
143
From
##missær
fremtid
lar
passende
privileg
samarbej
Mortensen
ejendomme
##zau
##øjd
##ireg
##ature
1802
team
Avisen
##bury
##bånd
##færds
begav
produk
selvbi
anfører
##23
##rings
##undne
isen
beboet
##lutningen
principper
##ju
##rive
Kre
##abase
Manu
refer
lokaler
naturligvis
va
##ares
Nel
Pad
Por
##relse
1789
1821
Poly
brig
District
slutrunden
##fod
##lee
##kong
##pede
##jorte
1804
prog
dateret
Bulgarien
##undervisning
##SA
UK
län
lejr
ferie
shows
##skrivning
kendetegnet
##enez
##ulte
Cass
Hugo
flit
##mærker
Kinas
##havende
Modellen
kirkelige
Almindelig
##essel
1795
støv
udryd
##stallet
ledige
afrikanske
##ère
##rets
Cham
krom
sans
forbunds
svenskerne
##olo
##atra
Lej
Norsk
desto
objekt
##fekt
##rian
Cec
hon
##istent
beklæ
Georgia
Lev
Sea
Mere
##elsens
centi
##ukom
##ladte
Home
viet
##træden
mønster
tusinde
alliance
retninger
omstændigheder
Fu
##oged
##stor
Fag
ges
##grene
opsat
Albrecht
markerede
Oct
##shoved
beløb
Fodbold
Pakistan
udskiftet
produceres
##atar
##oman
##ylon
tøm
Gang
driv
Rends
Varde
enorme
formel
kirkes
indtrådte
##ID
##lé
##wo
Din
Tod
Dead
Iver
##jernen
Lokal
Anthony
##sess
hvormed
kulturer
##halt
##ping
mærk
Loren
smule
voldsomt
nationalt
sygdommen
vedvarende
##oga
UCI
##ikale
1827
Gene
Gest
Catal
Palle
svømme
betalte
Alligevel
beskæftigede
##kse
##ides
Hay
##mning
klin
Venst
trussel
##ão
fos
##eltet
##mands
##ualitet
violin
digital
semifinalerne
##ips
##firma
halvø
##komsten
alderen
forgæves
oplevelser
maskingevær
Christiansborg
##iland
1817
fedt
golf
##velopment
##øe
Cli
fine
foss
##lægges
hertu
Viktor
udendørs
dynastiet
tidsskriftet
##skyl
Led
Sum
ent
hop
##sendt
Opera
hovedparten
fuldstændigt
##11
##ovo
##teau
##xelles
voldsomme
almindeligvis
##opel
Raf
Kvin
Tred
##agement
##erencen
byzant
Bibliote
Tjekkiet
gn
##oxid
Tag
1770
##lægtet
##storff
Glads
vente
mineral
bataljon
overhovedet
##oney
##sper
Chap
anne
bokser
foreløb
Astronom
indfødte
klubplan
Aqu
Tai
Jæger
Viggo
ideen
Januar
Kennedy
Massach
ordenen
Landbrug
eventuelt
DJ
hug
Glen
YouT
##tigheden
Akademi
Tv
Jordan
uddelt
##regering
satellitkratere
##aco
PC
##ström
##ellekt
##amenter
forhøj
Kommandør
##ble
##vas
Rant
Boliv
##dsyssel
##nest
114
ins
##skriften
Englands
##RA
##dr
Gret
##kelser
slave
Revent
bevæge
Magazine
##IV
Æl
kgl
bestå
##version
højest
størst
adskilte
kampvogn
kommunist
betingelser
##gat
##hvert
##oller
Women
brudt
fragt
Miller
kemisk
Bruxelles
nordligste
##jek
Sak
åbner
øgede
Jacques
realitet
processer
Programmet
##ures
##junkt
ubet
Malmø
##højskole
indeholde
##bjørn
hitl
Thail
reglen
rigtigt
Helsinki
olympisk
##ely
##olas
Kem
Ellen
Justi
Normand
##områderne
danskerne
korrespon
borgerlige
synd
##usetts
mands
##gørelsen
Antallet
løjtnant
##arat
##blev
onkel
##lignende
##ollegiet
##ifikation
Airlines
forløber
dikt
##rugter
relev
stiller
Northern
monument
domineret
##når
##sang
ern
##ralen
Blan
musk
##dommer
Bodil
Tjekkoslov
Massachusetts
BM
##vold
##burgh
##leres
Nash
fødte
labor
Bedste
brændt
Antonio
fortalt
Luxembourg
forholdene
##hit
Pia
##enhed
##ource
1660
nark
udby
viol
Human
##ministeriet
##EG
##eng
##user
Ærø
Iron
laves
freden
anbefal
præster
nederste
omgivelser
Lod
blog
nemt
##havnen
##ierung
##stæder
Tibet
forplig
landsbyerne
Fern
music
skjult
Forskel
omfatte
henseende
##bul
CS
##ykning
Cecil
Klein
##æsninger
neutral
opgaven
forklare
forvejen
kritiske
kategorien
opretholde
Nil
bue
Buch
attra
svage
##hørende
forvir
Russiske
##tial
1793
Spart
ernes
kugle
arvede
koncep
##tagelser
hvornår
regerende
beskæftiget
##byer
##kond
skød
Harri
beund
##produkter
processen
udstillede
##jeri
mes
Beau
Jazz
ansøg
associ
udkæmp
grundsp
Revolution
£
##spr
SA
##yndig
Brug
tråd
oms
trav
##ttelse
Point
ordin
stæng
##iatiske
Kroati
Organisationen
cykl
##sningen
Arnold
katolsk
regeringens
fortællinger
103
okk
##ansas
Down
##kender
Sound
Carlos
Series
Studios
skibets
ukendte
regerede
##behandling
Bornholms
forskelligt
##acc
##orum
##tedes
Stri
##skreds
##landing
Dannebrogsmand
##uki
fæd
Buck
Cuba
Lost
kode
nøje
glæde
intellekt
##halv
Eva
Endnu
Forum
Howard
forstås
ægteskabet
omkringliggende
##uter
Rel
hip
##falds
##plejer
tætte
udlev
##æstning
kulmin
##deløbende
fjernsyn
resterne
##afdelingen
foreninger
dv
Bram
Frej
Satur
stenen
binding
placere
udnævnte
##stillinger
oprettedes
##alg
##legraf
mexic
henret
##yndighed
Margaret
##gave
##lagdes
omtale
efterladt
Dyr
Hop
Rog
div
##pagni
Sara
##seksamen
##shospital
Rü
Bah
Köl
sagn
##rifter
Scien
##årskrigen
aktuelle
beslægtet
##ism
##neth
Clo
bem
Pant
Aaben
brænde
fordele
tegning
Unionens
faktorer
gradvist
Christianshavn
##act
##ilog
##imet
Hul
##stekn
Research
oprykning
indv
##rogade
##forsker
Litteratur
overraskende
##edo
##hul
Rab
##sfilm
##rshavn
##skoven
Apple
Camer
Party
##mængden
flyver
antyder
indebærer
statslige
ammunition
tidsskrifter
##isi
cal
haver
Skagen
##æstinens
tilfred
Tórshavn
karakteristisk
##hop
##cise
##sven
WTA
fru
påvirke
verdensplan
na
##fuldt
Mest
##atsråd
Maxim
Planten
bakterier
bygningerne
##DE
##møn
Lanc
dags
##imentet
langvar
indendørs
##eo
##umer
##freds
Hobro
dialekt
hjørnet
##ræer
##visor
##legnet
##aby
##ødder
Dick
facel
##skrives
klippe
jordskæl
universet
kvalifikations
##løst
Små
kok
offer
Kvinde
##spunkter
Brygger
benævnt
Sebastian
kommandant
osmanniske
schweiziske
##ín
##amm
##oda
Ts
McG
Emma
ager
cens
##råds
spin
nedre
seriens
strenge
##turneringen
midlertidigt
##nord
1776
Anim
ugen
Anhalt
danser
landing
centimeter
embedsmænd
fremstillede
##nar
Marx
##lejren
Austin
Derved
stammen
Yderligere
ressourcer
identificere
##nov
BT
Fight
dækkede
overskud
Atlanterhavet
reformationen
##IK
##fur
Leo
Nich
omtalte
typiske
behandlet
kejserlige
##ovet
serb
forsin
YouTube
Nordvest
##stemningen
kandidater
situationer
##usk
##ück
##sbro
Eks
1794
bage
svig
##terende
mængden
oversigt
Ey
Loc
##idens
pund
gifte
læder
nyeste
Deutsche
horn
##hammer
##svirksomhed
erhvervede
Lag
McD
tyr
Frue
##ængere
##sprogede
Stanley
semifinalen
Ref
1799
Rost
stej
##uminium
mordet
tættere
accepterede
gæld
genren
handle
##ætningen
erobring
insekter
##yrd
##falz
##renes
mølle
romansk
skandinaviske
vanskeligheder
##ices
1822
##barhed
##plader
lager
velly
##strakte
udsagn
Salomon
umuligt
vinduer
##iregiment
måneders
forklarer
##ving
Kin
kær
Aren
freg
hæng
aflev
Public
bagside
Gladsaxe
begrænsede
komponerede
tilslutning
brigadegeneral
##aker
Delt
Euro
Gaden
ulige
tilbudt
Jonathan
radikale
forsvundet
midtbanesp
##ät
Free
Shang
Bernhard
forvaltning
bop
1797
Giov
Sted
lyde
March
Rønne
lykkes
erfaringer
rac
Parad
tilpas
##stidende
François
##sholm
Book
Otte
stræ
Norde
sørgede
##irkninger
materiel
Læ
##brun
##witz
kel
mose
##otograf
ønsket
undertryk
##bestyrelsen
elektricitet
##ygg
112
##ities
Cost
high
lide
hjemmet
Politikens
Syddanmark
##kets
afb
Års
1788
##ringes
Dagen
rumæn
French
Skjern
bryder
suveræn
Statistiske
portugisiske
tilbageværende
##omme
##ugler
Mang
Nils
Sort
black
Marian
bolden
udvand
tegneserie
besætningen
organiserede
##IT
##OC
##rent
jarl
sene
sinds
##kloster
Potter
December
##sministeren
XX
Lady
effektivt
tredjedel
Betegnelsen
##lich
##post
Gor
aud
rob
greb
Inger
##admiral
Fransk
Tennis
afbrudt
Aabenraa
Vendsyssel
præstation
Mick
##ipedia
Firen
##ændenes
Marcus
##republik
bemærket
Christina
kristendom
##ef
dj
##areal
1792
afbry
binde
##aterede
##politik
##yrelsen
sekond
##shistorie
Udtrykket
##irksomheder
begravelse
amerikanerne
BK
Guard
Jimmy
afvig
dimit
kaste
Cuppen
Hellig
Hertil
beliggenhed
venskabskamp
konfødererede
gennemsnitlige
##itj
Year
Aller
bygnings
##mat
##endel
Græn
indtræ
skotsk
Gabriel
beskriv
doktorg
sponsor
Thorvald
##forsamlingen
##leren
Fors
##ningsm
parter
baserede
omsætning
embedsmand
Parlamentet
regeringstid
##illon
1780
Bren
##stræde
tanken
indebar
komplic
tydelig
Sicilien
Studenter
opsamling
bebyggelser
Maz
fed
lyn
##istol
dyrkes
museer
sporet
##iddelser
Firmaet
Tradition
hovedrollerne
##ebook
##åndet
Kjeld
nedbør
Største
stoffet
Domkirke
Kristiania
perspektiv
##arvs
##atik
##virke
Vall
apost
##aftalen
detalj
fremad
Fredrik
sovjetisk
annonceret
datterselskab
administrativt
##amt
##tro
##uma
##rapp
122
##hedens
##jektiv
Herfra
Warner
kirurg
Bernard
behøver
ekstremt
symptomer
##skuespiller
##HL
Syl
André
hyppig
fjenden
mandater
repræsentere
##iem
##rits
##roman
Danne
regne
afvand
socialt
stammede
konsekvenser
##prom
##radi
##wart
Abd
##ssund
##ændelse
Marine
indføre
begreber
konflikten
arbejdskraft
rep
##klass
##lades
##stegn
Dyre
Fabrik
Gordon
takket
##stamning
efterår
handlede
højesteret
##try
IM
##øgen
##kkedes
modificeret
Aug
Pok
depress
pianist
##ledningen
etatsråd
kvindelig
tilpasset
beslutninger
##agon
Hugh
nære
retur
barnet
hermed
mongol
adresse
udformet
kongeriget
pas
Kval
##enborg
##holmen
Kelly
blues
Fonden
formen
##dækkende
fronten
medalje
fokuserer
Pu
##odet
Dyn
regi
dedik
ejere
forbe
Kenneth
Warszawa
##iering
Maribo
Dorothe
billedhugger
##pleks
Ohio
tyve
##chichte
Morris
Stadium
##edyg
##agram
##skærm
1772
laveste
ungarske
##uls
Cob
##aktive
udmærkede
landsholds
Aud
Row
bio
That
hede
smed
ukra
bytte
omend
Oliver
tempel
skaffede
Melbourne
beslutter
##institution
##house
##orial
##skere
##union
Koch
Malt
tyng
heavy
soundt
relation
computere
kommunens
Tot
##væsenet
Gustaf
mursten
##programmet
wrestling
EF
æk
133
Fru
tænkt
##planter
Schwar
slægter
undersiden
BN
OB
SK
Sö
##mose
##sfer
Fiat
Kyst
blød
##irekte
Beach
bered
Akademiet
ekstraordin
##ario
##uret
Pas
dværg
jurist
##distrikt
##medaljer
flytter
islandsk
markante
inkluderet
franskmændene
##PA
##ily
##vey
##otisk
Fyns
udfl
Special
valgtes
adskille
fæstningen
##itat
##mate
##smar
USS
nev
iagt
Allen
spirit
mindretal
interesserede
Act
Ægte
Lucas
##eksamen
##itterne
Ligaen
forgren
bogstaver
midtbanespiller
##ando
Ida
hør
##enske
Hass
##melsen
vogne
Werner
##onerende
nedkæmp
##US
##oge
IB
ust
##oland
Last
læst
Anker
Color
udfol
astron
præcist
sammenlægning
##boe
##hag
##iste
Lun
sab
##ativer
Lande
ansås
Western
optagelser
##ione
Ian
##ronic
##indien
##itiske
##løshed
radar
uende
overgav
skatter
skulptur
Rendsborg
samlingen
##etz
Gru
saga
##artede
Child
pilot
træde
turen
Napoli
pladen
uddøde
Arsenal
à
##lon
##drej
MTV
1798
skub
destro
ophævet
##overfladen
slutspillet
##klam
Veg
##kugle
Jung
##maleri
hente
ortodokse
teologiske
folketællingen
kæ
journ
trold
Sigurd
mandat
mærket
næring
drengen
hyppigt
fakultet
negative
basketball
##EL
##bye
##cha
##enen
##hren
1796
neur
Event
##historien
pattedyr
belejring
folkeslag
kampagnen
mislykkedes
Musikkonserv
premierløjtnant
Barn
Heart
konkluder
elektroniske
sammensætning
##uez
flys
Tower
Wolfgang
distrikter
forestilling
##és
##apir
Buk
Typ
dér
Lise
##stræner
temaer
Thailand
Reventlow
komplekse
fastlandet
endestation
##lids
Konf
##maskine
Antark
dialog
geomet
ethvert
færdigt
##nær
Sex
Finan
Sarah
##kontrol
##unnelen
sognet
presset
bestemme
afstamning
amerikanere
gennemgående
tilstrækkeligt
Ged
rov
stre
koret
varem
pokalt
trafikken
sammenligning
Us
##ilet
##phia
svin
##ingham
##straße
værste
Bibelen
opførtes
indholdet
planlagte
diskussion
Kant
##linjer
Kilde
strej
sydpå
Bridge
##folkning
domstol
anklaget
demokratisk
nederlandsk
##entin
Copa
##hallen
Schles
##faldende
##ierungsbe
Franklin
Vladimir
##øft
Kob
##greve
Pont
frag
fortjen
ryttere
Philadel
kirkegården
##PS
##abon
Gad
Sop
Spi
##domme
##iserer
##unsten
Flyve
forfal
fiction
oplever
##spæn
##rering
biologiske
##num
Dü
##fond
glets
##periode
ordene
indskræn
strategi
kommunale
##cius
Dol
##møller
Valby
udråb
Bjerre
spræng
anbragt
enighed
købstad
ovenfor
indsatte
palæstinens
forfatterskab
infrastruktur
##eliv
450
Brød
Rick
##fektur
gejst
##punkter
Giovanni
militæret
organismer
##hew
##kirk
Fab
stk
Leif
cher
rust
##akespe
polar
Alperne
lederen
spænding
alternative
nederlandske
Konstantinopel
##ego
##iff
SC
132
Else
##status
##ættelse
lørdag
##mesteren
tilnavnet
deltagende
samarbejder
Nationalmuseet
##ED
##OL
yt
##øber
##okker
##søgte
Dort
forkert
##arte
##ulus
Mul
Tol
1823
What
Clark
##igheder
totale
bassist
bidraget
jævnligt
tæ
##ible
bøj
Luther
Resten
betalt
Firenze
Frederikke
industrielle
Tjekkoslovakiet
Ja
##ækker
##berger
##steori
føler
Factor
Tivoli
dyrket
patrul
engageret
##spo
##syge
Mann
Mill
gave
Tommy
årtus
##alisere
begået
integreret
##bun
jf
##bahn
##weig
Tel
emp
mødet
Palæst
English
normann
Vesterbro
underholdning
##oret
102
NFL
rap
##redet
Span
pira
##vensen
Norske
Frances
Serbien
uddannede
##tons
##yper
Das
knæ
##alier
##skirke
nordpå
trinbræt
Bonde
udgik
##illedet
Formel
forbru
##idivision
kirkegård
forbillede
kategorier
Development
Hö
##etab
##kore
aks
##ørede
hævn
##gender
##serier
levere
canadisk
medicinske
Sidstnævnte
inspirerede
##ional
##ylder
male
##niveau
##centret
dollar
formet
##billeder
bøgerne
##æfte
##arkiv
Bisp
Anlæg
traktat
Shakespe
##sselskabet
afstemning
##akse
Sibi
Keith
Valley
lejren
##sjælland
kongres
Salzburg
indtægter
##tese
blæ
spr
##værdig
Evans
Guine
Renault
fremstår
mellemrum
Tidsskrift
uddannelser
chefredaktør
##nit
##sala
##skort
Rundt
deleg
oblig
anført
fejlag
Theatre
færdige
nutiden
forsvarer
##dahl
##uard
Hud
Audi
Lasse
Network
##viet
##ønik
##minton
Arist
Mauri
hidtidige
uddannelsen
##icks
##osoph
skru
##korder
Ørsted
##klædning
kortvarigt
rækkefølge
##afe
##illi
Guy
spær
##holdes
Erich
Relig
antog
evaku
Graham
##steuropa
aggress
hjernen
Mariager
Sjællands
kommerciel
##kjær
Chop
Slov
tang
##parret
ivrig
##ttemberg
landene
udgaven
##iva
##phy
##rar
Rø
imøde
peger
Professor
fabrikker
kronprins
økonomien
geografisk
##lejer
stum
Games
toget
Melodi
antikke
beholde
##hær
Donald
Jomfru
begrun
jordens
gymnastik
restauranter
##any
##aps
##ades
Helt
Wald
metro
Centre
anlagde
arealer
floderne
platform
##oun
Bret
hære
##skunst
##somhed
##inister
rykket
genskab
præsten
sidenhen
bekræftede
menneskelig
forbindelsen
##ssam
Rah
reddet
Atlanta
strakte
Kommunes
kommunik
spillerne
henvisning
##bec
Pon
Von
##vands
##agende
behandles
indspille
efterspørg
Philadelphia
kvartfinalerne
##ffekt
##ugten
Merc
##retari
opleve
bombefly
overgået
skikkelse
billedkunst
modstandsbevæg
Ted
##penge
Mess
This
coun
endt
Miljø
Global
Morgen
omtaler
prestige
konsulent
opvarmning
Eksempelvis
DT
##gods
bety
blik
hent
##slinjer
Junior
forrige
trængte
ankommer
mangfold
##nia
##jere
##søen
##aborg
##søkonom
huller
hånden
rejsen
interne
styrede
sandsynligt
Få
##haus
Fan
navig
fortid
områdets
områderne
stadigvæk
##osh
##itus
Ach
##tiker
broer
foden
paven
instal
hjemland
indirekte
fremskridt
##AD
Š
##aur
##idan
bly
##owell
##uerne
Arag
Vild
glat
læses
Trafik
transm
##spartiet
Uppsala
reglerne
medicinsk
myndighederne
Wy
Chr
Chem
##ophold
væske
##ination
scoret
negativ
##selskabet
Finlands
Radikale
biografi
frygtede
stråling
sekondløjtnant
Á
##kron
##råde
Ral
##lelse
1771
frisk
nøgle
Instru
ændrer
globale
##fabrikken
Nordsøen
signaler
landsdækkende
glim
mørk
##scorer
galler
konges
medføre
inviteret
##ryg
våb
Ragn
døgn
##tikker
Bened
banens
menneskeret
##lær
##ürn
Zo
Aleks
Halle
##uderende
Ruslands
stemning
##handlingen
imponerende
generationer
##gne
Cel
Suz
lik
##iteen
velg
##nement
Dorothea
hovedværk
reference
##cio
Brit
emig
##inding
hebra
Forest
##luf
##okko
ABC
##yrede
Riis
luks
Civil
pigen
turne
tænke
##matiske
##markedet
personen
aluminium
landskaber
##itime
##sving
news
##skelse
trone
Garden
Master
Rødovre
Bernstorff
Testamente
##gart
##itel
##umpe
##offic
1791
Mans
Odder
filmp
Bjarne
tyngde
Command
Tekniske
fødevarer
germanske
##iten
Cæs
##aktor
##dinge
##sfart
Fjer
Kier
Urug
logo
##ængden
Hvider
fredag
reserv
acceptere
opfordrede
selskabets
##air
##önig
Dir
##scent
ansig
Standard
identisk
ejendommen
forandringer
##kov
##svej
##celer
##ensch
tide
tort
Venez
##enheder
Galler
anholdt
storhed
folkemusik
##ía
##lia
##gain
Jup
##rerne
##spark
mønt
##riften
Hogan
##byggeri
##bevægelse
##ordningen
strategisk
kvalifikationen
##sj
##ál
HT
##velt
Nab
##skrive
Hawai
afslog
kastet
udgives
positivt
##ence
##hval
Kroatien
fungeret
afskaffet
variation
kompositioner
##uh
##lub
##kalen
##reben
Hval
Rang
søgt
##oniske
Visse
##korpset
Ditlev
Stalin
Jernban
civilis
deltagerne
##hør
##orv
mv
##tivet
1750
tilfl
##tningen
format
kredit
##maskiner
Gerhard
drejede
bønderne
opførelse
producenter
##små
##arin
##ucky
##ysse
1784
Dren
Page
Valen
##akkerne
Wiener
barneb
propag
samles
tyrkisk
beboelse
midtbane
Mississippi
konkurrencer
##sfl
PS
Alb
Syv
##skont
Fair
Lenn
Pern
##medlem
obser
action
foruds
sådant
tiende
bekæmpe
stænder
Muhammed
evolution
opfordring
specifikke
vå
Cos
##amper
##rence
1787
##vision
Helge
Katte
hukom
##opgaver
##smidler
Adolph
Antwer
Krigen
Privat
##leksikon
adelige
opfattet
udgifter
folkeskole
velhavende
folkeafstemning
−
##gle
giv
Edin
Stev
gros
##undersø
misfor
skadet
Vincent
studeret
overgangen
##weg
AD
kig
##ident
##umann
Muse
##skjold
køber
Queens
belast
Marshall
tvilling
uafgjort
vanskelige
##cts
##onna
nej
##derup
##ummet
Hald
græk
Veste
##ologier
forhen
herres
Herbert
fornyet
indledt
##sforening
Foundation
inkluderede
ku
Jay
Vorp
hier
##dingen
himlen
Internet
beskytter
ryd
##reste
##forval
Laura
idræt
Mikael
ændres
##OM
##rary
##agnet
##gorod
##stans
##ulykke
Niger
Sloven
Russell
dommere
diplomat
klassific
restaureret
temperaturer
KF
##sejr
##opperne
##studier
barnebarn
beretning
forsyning
##ellow
Fabri
grafik
medierne
kendetegn
##apo
##iko
Ji
Boys
Books
voldt
world
regent
totalt
##spillere
Nicolas
sygehus
Robinson
fattigdom
parkering
usædvanligt
manuskriptet
##orre
Peru
smuk
Fland
sigende
##AL
##UM
##gin
Try
##stemt
stykket
påvirker
præsidenten
##vir
##høje
##onne
##arius
##erens
##oment
Pave
##værnet
Hills
##rækningen
forelsket
gymnasiet
##onn
Bem
Lex
pub
stedse
tænder
besejre
##sterreich
##fant
Cab
PET
bød
Köln
Hanne
opnås
Viking
birolle
##bestyrelse
##war
Bö
##itis
kaj
China
Malmö
Offici
ulykke
Faderen
skildrer
renæssance
##børn
lød
1775
Krab
##atoren
##atører
Bolig
##obbelte
deling
forest
lovede
##aro
Ran
Brig
digts
varmt
Ældre
##alister
streng
enestående
oprettelse
##mt
Bert
Stedet
rådhus
skygge
udkast
ankomst
udlejet
vindere
##liggender
dygtighed
Sup
grus
Paulus
ombord
udbrød
løsladt
niveauer
japanerne
kontrollere
nar
##typer
##tyske
##ytten
Bowl
impor
##ænkning
##malerier
udfører
Cathrine
legendar
atmosfære
planlagde
##ierungsbezirk
##lau
mos
Armen
Enkel
kaffe
##forslag
##smiddel
Balkan
Singap
sviger
uregel
forstod
ventede
overleve
##eda
##uda
##møde
##rande
##tiler
Bech
Skal
zone
##forsøg
Moore
People
Slottet
redning
synspunkt
##ssag
Tak
1777
stim
Fyens
uover
Filipp
ordent
svampe
##kontrakt
underviser
##IL
##ænk
Bin
Hold
Roose
given
##egården
##værdige
Struen
fiktive
koncept
maleren
forventede
konstrueret
##dire
##fore
Kær
Stør
##ranter
egnet
Svensk
gangen
optage
vistnok
Normandiet
kontrolleret
##mind
Bac
Cyp
rug
##aften
##arisk
##bende
Norm
##achelor
massak
Venstres
aspekter
udbygget
baggrunden
interessen
implementer
efterretning
observationer
q
AR
##født
Tam
##annel
##lejre
porn
##sporet
banker
Hitlers
Railway
utallige
undervist
##ali
##mie
Ål
air
you
##getøj
USAs
foræl
lunge
læger
##marskal
minimum
fusionerede
kritiserede
Blomstringen
##ija
##sse
##dragt
immun
Edition
stærkeste
##orienterede
værdifulde
##auff
##magt
##olis
##æbnet
Odin
firk
kæde
optim
##atorisk
##smuseet
Nation
udrust
vinger
Holmens
værktøj
uenighed
infektion
opbygning
protester
forårsaget
AM
Yorks
Gården
psykologi
Württemberg
tilstedeværelse
##oya
##ebel
##sman
Aker
Fris
klan
##levard
##skning
skibs
Commun
country
##uddannelsen
englænderne
middelalderlige
Bam
Tog
1783
stue
##ledere
Heide
beder
Cooper
gensid
Harvard
Marokko
Antarktis
Projektet
forretninger
vikingetiden
##uto
##acht
1774
Vold
##kendes
##smotor
fjord
aktier
Rantzau
Spiller
bestræb
foretages
##hum
##jem
##rot
Toy
##ssted
Andy
Olaf
næse
Globe
Jason
Eftersom
kavaleri
værksted
Meddelelser
##tia
Sü
##smod
##allas
##amisk
gavn
småb
##ativet
##burger
stram
flanke
##ydninger
cykelrytter
verdensrang
pladeselskabet
##okom
##soci
Leh
##odede
Comm
anten
walis
retter
Enkelte
effekter
besiddelser
##ukle
##ysik
Kab
Set
1773
##agtigt
parad
Boeing
bugten
kommen
Augusta
separat
kontorer
bronzemedalje
førstepladsen
##vile
Lok
Tun
Aven
fysi
fersk
Chelse
Udenrig
udgøres
foreningens
hovedkontor
##45
##aq
##sbøl
Shu
gum
Ryan
cirkel
munder
rumfær
foretrækker
##alds
Nürn
akus
mister
generob
protein
skønhed
Herudover
dramatisk
relationer
traditionen
kår
##risen
1781
Elev
Grim
##ågning
Brock
kunstneren
##forbindelser
##ædt
##kald
Nam
##tekst
Broen
Eisen
Neden
dreje
firer
##klubber
udskilt
Brothers
selvstyre
Vorpommern
NS
Mig
Carlo
Enhed
Preben
Rachel
Sports
uddeles
sælgende
hjemmehørende
RC
##real
Dec
Pom
##ebror
Dave
skand
Stockholms
herredømme
##obi
##alli
##bage
##ognos
##dinger
König
Lykke
Forlaget
mandskab
afslørede
utilfreds
##asi
##lot
##onto
##ourt
afl
##jæger
##mingham
besøge
##dømmerne
eftermid
eleverne
konstitu
udpræget
kollektiv
beskyttede
##jav
milj
Illin
Bureau
Klubbens
overdrog
forsvinder
hospitalet
##lle
##nat
##ries
Esc
Kry
Pel
Heim
##iderne
illeg
##smæssig
Battle
melodi
Beatles
klarede
korstog
navnene
toppede
gruppesp
koncernen
Folketingets
udgravninger
informationer
CP
##ifest
##straf
Mall
##fyldte
##stolen
Skønt
##estolen
Modern
installeret
borgerkrigen
Shaw
Symp
##ground
Flyet
entre
Finans
process
underjord
benzinmotor
indførelsen
##kok
ST
##ista
sove
firmaer
overvin
Leksikon
EC
Pul
lam
php
##tures
Colomb
spiser
departement
##adi
Ax
##hatt
manøv
poster
promin
##hat
##site
Ans
Lit
Court
båden
##billede
##forenings
risikoen
akademiske
forhandlingerne
Div
1763
Four
Alter
Schle
Illinois
Roosevelt
##organisationen
Bak
##øster
flyt
just
##tillet
kræve
Murray
Tårnet
slippe
Antwerpen
koncentrations
##rænet
Conf
flam
indh
##riller
Detro
arist
stige
Altern
kopier
bredden
årsagen
Broadway
elektrom
genvalgt
rejsende
Palæstina
Birmingham
medlemskab
##øvet
Kaz
mol
øre
##farts
Base
Hund
Hørs
Palæ
Husum
Sudan
anser
##ization
angives
radiost
tiderne
Glostrup
Sønderjysk
##kalde
##ævede
isot
afbil
yngle
Wester
prøvet
embedet
##revolution
engagement
forstander
portugisisk
##NS
##ovede
##verer
anark
Review
forlang
Forbunds
forveksles
##mars
##pren
360
Saf
øjen
Løven
filos
Ronald
hovedby
progress
infanteri
##smu
##ymfon
Liss
Søen
ritu
##ukasus
enkle
orlog
Kvinder
kvarter
##givningen
frivillig
psykiatri
holdninger
##gran
Ege
Lot
##oping
##toner
hart
knog
##tagere
Benny
Herlev
vision
residen
Regiment
nedrevet
jernbaner
midlertid
tilføjede
forklarede
##ku
##ieu
##ashi
##lock
##itære
Jess
Khan
Roll
anse
slap
##mægtig
Micha
bomber
stasjon
regeringer
##kr
ye
##tionen
dyrke
##stammer
antrop
omring
Nakskov
Birgitte
reducere
##æler
Stur
glad
Kraft
evnen
immig
opstå
##inarium
udarbejdede
klassificeret
Kit
Rune
gids
##agerer
##dalene
australsk
invasionen
dec
Diam
kvæl
##yttere
Guide
Maked
Jagger
opsigt
skelne
værnep
justits
danmarks
Edinburgh
vurdering
##gyl
##atol
Bom
ski
Fest
Herz
skæl
##ischen
##arkivet
Andrea
dagbog
oprøret
Nordiske
kronprin
undersøgt
holstenske
Hertugdømmet
Videnskabernes
##alte
gun
los
Bosn
##givere
Hamil
Salmon
mønter
tilhør
indtage
operaen
##ictionary
sydligste
##kow
MC
Yng
##umber
3000
Eich
hvile
Silver
intens
##rationen
##materiale
Mitchell
Samtgeme
håndtere
virkelighed
##hin
##ches
##øden
Ner
Neu
rec
Link
Blood
##indhold
fødeby
byrådet
Mathilde
forhenværende
##amet
opl
Heavy
damer
pligt
overvå
pastor
præcise
hitliste
parallelt
forgængeren
forelæsninger
##IM
##ña
##oms
##bure
Fat
##yldne
måles
Middle
landes
reelle
regner
skilsm
stifte
vandre
Chelsea
alfabet
benævnes
organist
romanske
konference
##hmen
bug
busk
kons
Sofie
angår
bange
Italia
respek
salget
elim
fing
ruter
tynde
##pendium
elleve
togene
Kirkens
Nürnberg
fjendtlige
bestemmelser
##lar
##book
##tiks
amts
Baker
Carib
tibet
gyldne
##kandidat
udskift
##hastighed
##rish
Who
ædel
##shuset
ladet
måler
Grønne
holdets
magasin
speciale
Wikipedia
behandler
aktieselskab
computerspil
##anz
##bæl
##fol
##non
##seg
##yle
##arly
##ydes
arts
##verede
Jeppe
Reser
midte
ranger
Stewart
forbræn
romantiske
vegetation
Ask
Gla
Girl
char
Holst
Ordbog
Steven
nettet
teolog
vestlig
artiklen
##stendømmet
statistik
##kors
##arium
1760
akse
jorde
nylig
Storeb
klokke
Roberts
hjertet
afslører
problemet
kontrollerede
Charlottenborg
##aves
##kene
Eti
Tøn
##ættes
Moon
Djurs
##fodbold
Nelson
analog
kolleg
marmor
opdrag
oversk
##trædelse
fastlagt
markeder
seksuelle
##udstillingen
Okt
##perto
##uston
Schl
Report
##skrivelse
imperium
##isa
##more
##zona
Fond
Lyon
##fløjen
##offici
Eriks
artic
begik
finger
dramati
##assistent
renoveret
forbedrede
Nationalpark
ci
Fav
##neren
hvæl
##mærket
##planen
Idræt
innov
##ståelse
farvel
kunsten
##færdighed
Hviderus
føderale
russerne
tildeles
kvinderne
teknikker
hemmelighed
##pa
Gø
Zü
##hoff
##usse
Att
but
væv
René
Whit
##agerne
##holdte
Earth
Sever
impro
fjende
urolig
gehejmer
egyptiske
bevidsthed
Storbritanniens
##tj
dvd
Dele
Vibe
span
emnet
##entlige
##igennem
##styrken
krydse
øjnene
generel
anmelder
krydsede
##hs
##iers
dame
##erslev
##irland
Field
forur
##slisten
##gelserne
##ikkerhed
Ingeborg
bidrager
Henriette
Aer
Tul
##eting
Lisa
Reyk
café
Ernest
forful
tortur
Barbara
Presley
stridigheder
Frederikssund
Ce
drag
grønt
Studio
drømme
smerte
##aktioner
maskine
samtale
tronføl
grønlandske
vicepræsident
##cykl
##itær
nit
##moder
1769
Griff
Hohen
Håkon
Jyske
Meget
båret
Herluf
Simonsen
forårsag
isoleret
styrtede
festivalen
##td
##ór
##roe
Asm
ess
##okkel
Kast
pyram
utrol
Stuart
##ateriale
##værelsen
eksklus
opdeles
Lawrence
oplevelse
##bue
##pass
##yser
##kurin
Head
årti
##sgaard
##kanalen
##produkt
Casper
rækken
##angrebet
##lex
##osis
##vært
Hin
Fuld
nevø
##junker
Homer
Labor
Dennis
søstre
##ological
Detroit
straffe
##lu
##sløs
Ama
Løn
Swe
hån
##fælde
Gött
Isra
Nice
Valg
omdrej
unikke
Svenska
musical
kritikere
Aur
Elle
Emmy
afgr
bede
følges
helgen
indven
nedbry
##formance
##systemer
placeres
lancerede
indførelse
Nobelprisen
##acy
Mé
mini
##ineret
Parker
triumf
efterlig
fartøjer
ombygning
kontrakten
Helsingborg
##æus
##mouth
1778
Roms
##ændinge
kronen
opslag
vejret
bronzek
hverdag
Konkurren
hvorledes
accepteret
Encyclopedia
understøttelse
750
Dat
Sony
sørge
meteor
##følgelig
Libanon
Singlen
respektive
matematiske
grundspillet
MP
##fælle
##loden
##mefter
Sagen
ringen
jøderne
dramatiske
vedligeholdelse
##rock
##ktisk
##sbyrd
kold
Camil
Tunes
ulykken
symboler
udmærket
fremefter
opsamlings
##inf
##uit
##yse
##ffet
Fed
Rot
Sah
Clar
cell
##eldorf
##støtte
Lauren
digtet
overfl
tilbyg
##amlinger
inddeles
kompeten
underord
effektive
##uste
##ænkt
220
##teneg
Stol
Chart
##agelser
Claude
Præstø
justit
Sherman
Columbus
betjenes
hertugen
Andersens
autoritet
rapporter
tilføjelse
##bell
Mål
##ettet
##hverv
1786
Knut
euro
marx
skære
genrer
antaget
hartkorn
forældrene
kriminalitet
Stiftstidende
##cet
##xen
##ygter
skit
anslået
##afrikanske
personale
matematisk
forhindrede
##bard
##cell
##roll
søs
##ensis
1782
Anto
Haag
plus
##øgelse
Havne
##stadion
banken
felter
pioner
Project
##iversitet
Kaukasus
leksikon
udkanten
udenlands
##yro
Ped
##cedes
##names
kræn
##rikansk
biflod
kurfyr
rapper
gerning
komiker
teoretisk
Kommissionen
diplomatiske
##elov
His
Say
sus
esti
##rekord
Linde
tykke
vrede
##visende
Værket
kurser
statue
oplevet
synlige
Sibirien
udkommer
Universal
kongerige
modangreb
forekommende
midlertidige
##oon
##puter
1740
Stub
Brahe
Nordre
fangen
kardin
##raktaten
Dagblad
forreste
kulturen
finansieret
##azar
##lett
McK
##agers
##anmel
Bonn
Kore
fotos
forstad
kulstof
turisme
anvendtes
symfonier
##xi
##iano
##start
1785
Mast
page
ekspans
##usch
##skift
1768
June
Lagt
færd
amtet
lyser
##lægtede
bringer
hyldest
certific
Singapore
forandring
protestantiske
HD
Now
ball
tour
stødte
##læggelse
Faaborg
Kristen
handelen
turnerede
##iza
vo
##lips
dur
##fores
Cart
Sølv
sned
Claud
konst
Council
Samling
forenet
Michigan
pansrede
udstillingen
##øns
##enne
##otek
##tysk
##havne
1682
Apol
##digvis
##fonden
virtu
Libert
Publish
byggeri
længden
stormag
Italiens
Novgorod
borgerne
broderen
forstærket
##gate
Gol
hæl
##annon
Klit
smør
Perry
##oldspil
##stykket
jomfru
tyskere
formålet
##historiker
overbevist
##stur
1658
Metro
Stutt
##ægterne
forlig
skjold
##anlægget
Erhverv
Israels
destroy
##ationerne
Missouri
beboerne
matematiker
væsentligste
Hr
##AFFA
Jarl
Zeit
bedøm
##ficeret
##schweig
Rung
##ktoren
##sbaner
GAFFA
Milan
fabri
niende
styrer
relativ
Kronborg
Mercedes
forblive
Rosenborg
##sministerium
##60
##osc
##ppel
Bug
Sek
suc
##onder
Moham
tyndt
udbet
indlagt
kriminal
##skonkurren
afspejler
islamiske
sandsynlighed
##cket
Psy
åen
##ansen
Piet
endes
UNESCOs
komprom
differen
rækkevidde
##card
Supp
ride
tyde
##stinget
Facebook
tilhænger
kammermusik
##anse
##rick
##skur
Langs
fæste
hverv
Office
bulgar
Heiberg
##bere
##rane
##sfly
McM
Pur
cur
våg
##egade
##fremt
Ples
##result
flyder
krystal
passere
pressen
Hørsholm
landskamp
opstillede
discipliner
involverede
##ao
##osen
##ppes
Aff
Cry
Ful
Viv
##ilding
##trafik
korsf
omstri
Kampene
hentede
stadigt
flyvning
betragtede
Via
##spekt
Bass
Benz
Niss
Trav
##piller
##plante
omløb
##ktoratet
Arizona
passede
helikopter
fortsættelse
hertugdømmet
temperaturen
ES
##ulpt
kla
Tårn
lyden
ophøj
husdyr
skarpt
trænet
Engelsk
Holdene
fritids
erkendelse
SønderjyskE
##byr
##ants
##ødning
Rhein
Story
falsk
Alaska
Sydøst
omhand
aftaler
planlægning
##bra
Kay
Orch
arch
sigt
sump
##derede
Elben
dames
forfl
##serende
Japans
branden
kredsen
instruerede
hovedbygning
videregående
##kab
NR
##elde
pet
Fund
koll
bevil
Libyen
trænge
legetøj
Erhvervs
formelle
##motorvejen
generalsekretær
##eks
##leM
##sher
lim
##liber
##asiner
##herine
dømte
okkup
Flight
konsol
korrup
Syddansk
##lay
##skøn
kriter
yngler
prototy
syndrom
variere
Nationale
præsenterede
##top
HB
SV
##acks
##alia
##ocra
##usta
##leton
Børge
##usserne
Staten
sejler
Albanien
planeten
arkitekter
frivilligt
faciliteter
genopbygget
interessant
Braunschweig
Sve
##årene
1766
More
Daily
aktør
høres
##gerning
##okolade
Ninten
byplan
gulvet
syntet
Channel
Letbane
##erepublik
foretrak
konkrete
Rodnettet
grosserer
topscorer
dronningen
gehejmeråd
nazistiske
bebyggelsen
##jud
Dah
Rug
bedt
Wayne
Prince
termin
tallets
afsnittet
suppleret
Ministeriet
##rip
æra
Gard
Made
råde
Conne
træet
blodet
Britann
leverer
forbered
skriftlige
rapporterede
##avl
##emen
##ties
Björ
##ykling
haven
Hjemme
enstem
Bosnien
Hansens
Nations
afløser
bidrage
Shanghai
episoden
Stavanger
forventet
renovering
##asu
##upé
kj
Høg
Herc
##shæren
##weight
attent
points
auktion
behovet
varierende
##day
HF
sw
kav
##anken
##stine
##tages
Venus
bekost
falske
Indones
faglige
forelig
betragter
løsninger
forkortelse
##rell
##ådene
ikon
##akademi
Kammer
Ulrich
Denmark
Philipp
indslag
forpligt
Limfjorden
fremrykning
##brev
ops
1765
##sniveau
school
Bolivia
Stillehav
aristokra
opdagelses
sammenbrud
skulpturer
komponenter
revolutionen
##play
Bio
##rieren
Video
stemp
Lassen
Nathan
period
trilog
Nyheder
indtægt
sætning
WrestleM
ansattes
Repræsent
nordsiden
divisionen
Metropolitan
##bad
##zan
142
##farve
##tagen
##ulerer
klæde
nævne
##arkasse
##arriere
Hawaii
ordrer
skyder
hjulpet
udtrykte
hændelser
tilværelse
##dest
##gard
##spir
fyn
##ances
##ating
##edler
##iluft
Fore
##ansler
##smodel
Norman
vandret
Flandern
frigivet
maleriet
##krigstiden
Magdalene
anerkende
udbruddet
Størstedelen
##atus
Abel
søvn
Egern
Ridge
femin
miste
##umentet
retssag
##aktivitet
##retningen
fastholde
etablering
##Dan
##icap
kryp
##aneren
##fælles
buske
##egnelse
Winter
udarbej
Mountain
interval
Frederick
mobiltele
opdagelse
Romerriget
udformning
WrestleMania
departementet
##haw
sorg
##ansvar
Mario
ekspor
tillid
jordskælv
Christiane
grønlandsk
##tha
##sdag
##tium
Fod
Six
USD
##rosser
Bilen
Dance
##funktion
defineres
hukommelse
strukturer
##bod
##ergi
##flok
Jin
eur
Baby
Cape
Sieg
frik
hæfte
##økonomi
Morgan
forbød
Library
Stuttgart
Universit
##70
##atic
##onia
Two
##varme
afpr
Common
miljøet
##ssystemet
reklamer
Østeuropa
tilskrives
##tti
##rans
kid
##proces
Arkiv
Chang
rumme
spion
chance
magister
noveller
samledes
Boulevard
omkostninger
AL
isb
##keret
##serkl
Walla
Guinea
beslag
masser
Reykjav
farlige
kansler
opbygge
kvarteret
litauiske
##ded
##mme
##værdi
Rain
##tikere
sides
toner
##spørgsm
Zürich
udmund
##fikation
dygtige
overlod
##iseringen
Oprindelig
flyselskab
systematisk
##båd
##gul
##kyl
Sz
##ædre
##øjte
##flade
##jente
iran
besad
Undersø
afstanden
##aliseringen
foretrukne
Astronomiske
##DP
##ii
##ogt
ukl
bugt
##andede
Aften
faren
fladt
opbak
Summer
enevæl
genind
pengene
Kattegat
partikler
religioner
Østjylland
Frederiksen
Hviderusland
optagelserne
##pos
pa
##dale
##rack
døre
låne
reklam
Emanuel
Moderne
Østrigs
anklager
motorcyk
##meddelelse
færdiggjort
##amesterskabet
##pad
##keri
##stop
his
omh
##agens
##iøren
##osofi
##ikerne
##sparti
##stadens
Titlen
skytte
playoff
regelmæssigt
æt
##hail
##lisk
Bot
##eback
##osaur
Clin
skor
##trådte
##firmaet
Harris
patent
elskede
molekyler
indvandrere
komponisten
##ét
##iri
##oro
##idae
##skol
dåb
##amiske
##olkede
##relser
Trier
##italien
##osteret
fysiker
skyldig
hoteller
indgangen
intelligens
##ril
##cial
##grim
Gog
Ulf
Ull
##ismens
Farum
nytte
Wright
sænket
##bjergene
tilbyde
fængsels
opførsel
##stjenesten
fastholdt
lillebror
oversættelser
øde
##roget
Kred
høst
##castle
##kommune
Square
billet
skarpe
Liberal
mønstre
altertav
fremført
Kristeligt
geologiske
musikvideo
resolution
##UC
##oux
##nitz
CBS
Cav
##foner
Vill
Dragon
##sklubben
besøger
spurgte
kriminelle
sygeplejer
fortolkning
strategiske
Ane
Hov
RAF
ion
##øring
Navn
sind
Urban
##arealer
master
Collins
forøget
fredede
sluttet
Langeland
Middelfart
præstationer
##base
##core
##øjen
Did
##design
Atlet
Målet
##puteret
Assens
Nikola
Taiwan
godser
rygter
steget
Indiske
Pommern
Armstron
Louisiana
##AB
##TC
##ui
##eto
##inte
##ælle
Øre
list
##lænder
Organ
bonus
colle
Nieder
bydele
fyldte
Manhatt
Sundhed
meningen
fordeling
forestiller
##48
##ið
##lære
för
##inere
##konge
##sværd
Buen
Gert
Ecker
bager
smelte
Matthew
Slægten
kompens
udkommet
vandkraft
fremstiller
##elier
Hind
Slut
##bakken
Blues
Mongol
togsæt
udsted
##bibliote
antagelig
højdepunkt
usædvanlig
##DC
##kro
Zh
##edom
Rolf
udad
Einar
Family
medreg
påstod
værdien
bekendte
genoptog
proteiner
modtagelse
##ibal
##desig
Soft
Hagen
brune
Gregor
afgøre
opfyldt
indikerer
oversætter
##GB
##rud
SM
1767
vels
råder
orange
simpel
forbedring
regelmæssige
•
##zel
##garden
frank
svæve
godkendte
vidnesbyrd
##obby
BNP
Leb
mul
Lene
Diego
rente
dybere
Katedral
fremover
vestkyst
organiske
reaktioner
variationer
statsborgerskab
##bs
æb
##buch
alp
æst
##delag
##ppens
Mors
this
##folket
##grænse
Coast
Greve
brint
forlyst
afvikles
improvis
halvkugle
indbygget
specifikt
tilbagevendende
##mmer
##øbte
one
##korset
##steret
Front
hedde
kabel
knock
køres
poesi
udvæl
kasser
ordning
Aristote
organisk
Alexandra
identificeret
##god
##sun
##yge
Ple
jag
##ensyn
##udgave
bokse
horis
stads
##skibene
##arkitekt
##atoriske
Indepen
protokol
albummets
animation
Fredensborg
synspunkter
##gud
##upe
##nius
lem
Krim
enzy
mælk
##sfabrik
dræber
missil
timers
Arbejdet
dekoreret
delstater
dialekter
Dictionary
dominerede
nederlaget
##konkurrencen
##fos
Jó
##eman
##leys
##sche
##ceptor
##regler
##rollen
knude
##teredes
Hunter
kanten
Hartmann
nedsatte
Göttingen
romantisk
vejledning
brasilianske
selvfølgelig
Kö
Gary
Salv
Aksel
Hæren
Noget
Samsø
##merland
Indian
Schack
storby
udøver
lignede
landkreis
undervisningen
##yton
240
##steen
Bahn
imens
##rækkende
Susanne
history
Nørgaard
Churchill
##konkurrence
undersøgte
fotografier
##agan
##kræft
1720
Amter
fleks
nedad
tabel
##sværker
##melighed
vedblev
jordbrug
afhængigt
bosættelse
socialistiske
##chau
##eløb
##ibre
Hyd
##tisme
##villa
Atlas
Panzer
Vesten
middag
Toronto
oversatte
##rettigheder
##produktionen
Aristoteles
##gie
##imo
##smag
##tics
##ulff
Llo
##ægtet
##ærker
Besk
Epis
Bobby
##vinding
Holmen
Nummer
orient
##perioden
psykisk
Hamilton
Henriksen
bestemmer
Nordirland
permanente
koncentreret
##bag
Rav
Kijev
Minde
Rådet
afgik
hypote
##fældende
Gibralt
Undervejs
nedslagsk
størrelsen
belejringen
beretninger
restaurering
##oa
IP
tax
##immel
##ments
##stern
ving
Price
Unter
solid
Arkite
Normalt
Pernille
ambition
nedlagte
##oh
Gn
Abu
##ouver
Leth
Lock
Nort
Seks
##aturer
##ppelin
hævet
##grænsen
##vejende
import
Mennesk
Pacific
gesandt
nemmere
digteren
##asa
##atory
##tiget
main
##feltet
seere
Næsten
Gottorp
bæredyg
dyrkning
gengivet
eksperimen
strækninger
##ën
##ious
##type
111
Dak
lun
1759
Ruth
Getty
Montg
Troels
Digital
estiske
indsigt
keramik
indtaget
folkelige
behandlingen
hovedpersonen
##lum
##uga
NC
##iche
##temp
cig
dru
##ulært
Luke
dete
skur
##atalog
mistan
leveres
sendtes
forberede
århundredes
##uras
##celle
##sgade
##stats
##stisk
amin
blåt
##arbejd
##følgen
##lagede
mixed
##indspil
Dagmar
Turner
bitter
##relandet
territorier
Samtgemeinde
AP
OS
Kings
barok
hænge
kasse
håbede
kræves
ligeså
fastsat
katalog
fodboldt
åndelige
##sprocessen
efternavn
##sinstitution
erindringer
løvfældende
filmatiseret
##eta
FM
##fatt
202
Aja
Cem
Ager
magi
gribe
##brogade
Erling
fravær
stribe
##iserende
Eriksen
landede
overdrev
Christmas
anbefalede
##holz
##regn
Nev
Vad
cap
##ruppe
1730
1779
Diet
chil
##kunsten
Isabel
##hospital
##personer
udsatte
##bit
MG
##kørs
##tten
ling
vade
halve
jæger
Nordens
dødsfald
opbakning
lovgivende
forårsagede
##blå
##time
##lagen
##ærket
Plat
klit
kniv
##harmon
Krogh
Miami
Palace
Udgave
møllen
##reservat
Centrum
fjernes
genkende
regional
relateret
krigsskibe
##lob
##smo
AN
##skik
230
Mis
psy
Call
Witt
fron
mart
##ulture
Absal
Apollo
Brandt
Caspar
møller
Express
kontrast
forekomme
Makedonien
stationsbygning
##jser
druk
enge
påli
vulk
Marius
kromos
Tilbage
elektro
gradvis
udstedt
##orienteret
opstilling
arrangerede
efterfølgeren
##ians
##vejr
MMA
##leans
##sevne
##æsner
lært
##konsul
Dylan
Pokal
helte
##sformer
fornuft
Montgomer
erhvervet
originaltitel
##iley
Coc
eleg
opad
Defen
Fremad
Lorent
Problem
Vilnius
behandle
##bos
##jas
##oes
##idet
##skræ
##valu
Krø
##attra
Lade
##frihed
rigdom
Kastrup
Mathias
##forsyning
minutters
testamente
videnskabeligt
##BI
Klø
Kub
##sbour
Nass
Eddie
impon
Nicola
venter
##holdenes
##tegnelser
hænderne
badminton
republikanske
forstærkninger
repræsentation
##bok
Alab
##berlin
sympati
udtales
uoffici
kompagni
mekanisk
hitlisten
andenplads
beslægtede
##sturneringen
Folkerepublik
##iy
##aum
##imi
Key
elv
##hagen
Muss
Psyk
vent
About
egnen
##skolens
Billed
Grenaa
Observ
bisped
sønnes
våbenh
##sendelse
Grunden
synonym
Manhattan
Olympiske
Slovakiet
omgivende
tjenester
ovennævnte
Universitets
LO
##bass
##edag
zar
##skild
Shad
##rejser
##schaft
spejl
udbud
Edmund
Valget
bygden
Bygning
dansker
krydset
Systemet
cherokes
Præsident
grevskabet
handlingen
invaderede
nyoprettede
##éd
##oba
##uru
ost
##stero
##komster
nyligt
rigets
Century
anlægge
sydsiden
teologisk
Vesteuropa
krigsfanger
satellitter
journalister
##ulo
##oria
Meg
fus
gli
##prøjt
Dame
Them
##husene
carbon
filmet
siddet
udtrykker
sammenstød
størrelser
beskæftigelse
##ols
Tig
##ådens
Jørn
opsø
##ktorer
##stider
smidt
sikrer
##vendelse
Nielsens
landgang
samtiden
##spolitiske
Parlament
motorvejen
legendariske
##EM
##bla
Ene
Hunt
Tage
pend
##outube
Munch
##sfrihed
Himmel
spekul
svækket
udgivne
inddeling
tilsluttede
NO
Kop
##heimer
Fugle
aflej
Monaco
Stevns
drager
insist
makker
##ografien
Ejendom
Salling
vindende
asiatiske
Naturstyrelsen
Rim
ual
Clev
ubåde
verds
arving
skåret
trykke
opfylde
formodes
kulturel
rockband
udkæmpet
Tilsvarende
Administration
sammenslutning
##Hz
KB
##icus
Fæd
##usser
Bort
Jere
hyper
##okument
Origin
belgisk
Årsagen
gymnasium
luftvåben
overorden
atmosfæren
justitsråd
universitets
##dj
##hoe
##mek
##ups
Dani
Saxo
Sval
pile
##slinje
Vegas
##ensiven
Tredje
afgift
møbler
skilte
designer
højskole
rekorden
fortælles
##befolkningen
konservativ
registrerede
Lær
##elles
##medes
##obbet
Garn
uhel
##bugten
##ellere
Baron
amter
Helene
Kierke
Reform
analyser
autonome
Armstrong
felttoget
forlangte
genudgivet
samarbejdede
PR
##ultz
Bek
ink
ult
##ævner
1755
Care
bræt
sele
##kastet
Eugen
Klint
træne
##sretten
Malays
Letlands
overordnet
oversættes
udenlandsk
ov
##star
Sed
aar
##veren
Groß
Rapp
##matisk
Alton
Elite
omdan
##hovedet
komité
##romerske
nærmede
tekstil
Venezuel
antikken
dannedes
tropiske
genoptaget
argentinske
kontroversielle
##bys
CC
Wu
Ltd
Luk
##holms
##legat
Ajax
Unge
Walk
mess
Sofia
porte
ydede
Manuel
børneb
##givelsen
fødslen
udpegede
##etta
FCK
Tus
Bomb
Reed
term
havets
trykte
##udviklet
comeback
ualminde
anmeldelse
elektronik
##ize
##main
pod
##ftere
##owski
Ward
##bureau
##inther
##priser
Loven
Place
folks
polit
##ienborg
##ygdomme
##spladser
Clemens
proklam
##fabrikker
beretter
intensiv
separate
transfer
Journalist
Technology
forbrydelser
##mpe
##okee
Gon
fry
Hvem
Høeg
Styr
##berkul
##genter
stemt
Freden
farvet
vinden
##ættelsen
Jupiter
Sygehus
bogtryk
fremsat
besidder
Newcastle
produktiv
herregården
sammenlignes
tilbagetrækning
##toft
##west
uld
##olske
##smark
Cand
Lloyd
etnisk
##kommuner
Unionen
dateres
nordfris
Naturpark
betragtning
integration
##aba
##oti
SU
fi
##aris
næb
Høje
Skin
##arerne
vinge
##skultur
Cirkus
Davids
huskes
Igennem
påstand
##skandidat
##90
##jin
Brü
saa
urte
##certer
##indede
##okommun
Hudson
analys
opkøbt
omfattet
betegnede
definerer
forslaget
##St
CN
Sæ
##tsch
Ryg
##førde
##tains
Disk
Shin
Told
tempo
foregå
Gestapo
Highway
Romanen
opfandt
##akademiet
Montreal
kolonien
udviklings
interessante
##cens
##rity
210
sup
##murer
##overn
##ægede
1758
Fogh
VIII
##stream
Linux
Empire
Linden
destru
forvær
angående
beskeden
dobbelte
planerne
##frit
Dev
Gel
##andør
##egnet
##ittee
djæv
stro
æren
##centre
Movie
first
moral
silke
##Station
hotellet
oldtiden
tilfreds
##stemmelser
billigere
berømmelse
nedrykning
##imp
##rov
##icht
##sent
##sfin
##vier
##papir
##tesse
1754
##jordes
Bayer
##sposten
kørsel
mærker
##visningen
Vinderen
jagerfly
Geschichte
ministeriet
Kunstakademiets
Asp
Ves
see
##abelt
##højde
##itage
##muren
Data
##ældige
bande
rekre
##istenti
Roland
herved
kernen
skabes
##levision
Indiana
Teknisk
Ungdoms
Discover
Oldenburg
indbragte
straffesp
publiceret
andenpladsen
symboliserer
##kj
Kø
Ær
##dsat
##lier
650
Nob
urt
##estra
##sbrug
Sparek
angels
overle
Kanalen
Sådanne
fortræn
##ssystemer
Nintendo
Australia
Kristians
fremhæves
observeret
rettighederne
##rash
Gün
Hår
Ice
Bund
genv
##denhed
##vandsb
##vangel
Strøm
##modellen
rekognos
byzantinske
virksomhedens
##cz
##jö
##boy
##gow
Hi
bay
Dets
##afhæng
##mængde
Basel
Costa
nøjes
ordnet
traged
årgang
Seminarium
menneskers
teoretiske
udspringer
forudsætning
##alo
##dic
hæd
roy
##atest
Card
bøde
syre
##færdige
##stander
helium
valuta
Hellige
Orleans
bevægede
markerer
magasinet
indstilling
##ete
##ütt
##psis
##rium
Norr
aske
Pfalz
##lysning
Monteneg
bevaring
Egernførde
beskadiget
materialet
##uca
##verk
Reb
1761
Graf
Roth
##analyse
##kaptajn
Holmes
motion
runder
##ledninger
varieret
specialiseret
opsamlingsalbum
##pre
##rap
##skad
Chan
Ivar
Scar
##judant
##nernes
Autom
Bruno
Eller
Bemærk
Holberg
forhånd
sandhed
væbnede
garnison
velegnet
fænomener
slagmarken
bestemmelse
##oi
##alf
##bev
##dra
##ovn
##ović
##celæn
##givne
Auto
Skar
støj
##ængsel
Bella
##koncert
Hallen
adelen
cylind
kamera
Klokken
acceler
Ishockey
sekundær
foredrags
indehaver
købstæder
karakterer
##mak
BR
##orid
asf
keg
##iftes
##rough
Bres
##axofon
otter
partis
symmet
##baserede
arkiver
medført
baltiske
forbindes
indførtes
eventuelle
fejlagtigt
opdagelsen
manuskripter
siddepladser
Idrætsforening
##ód
##juk
##bøll
##cock
##disk
cre
##fords
Lære
opsp
##okaler
Fordi
Langt
Oklah
affyr
##portræt
##sparken
Sundby
##menterne
begejst
spænder
uddanne
værelse
##frø
##apti
##burn
Fut
Tub
Whe
hyb
##smagt
cast
Citro
ligak
opnår
Minnes
ejeren
kæmpet
kvinden
misbrug
spørger
missiler
bemærkede
dødsmetal
passerede
##sforeningen
Ay
##jour
##sbog
##ærsk
Lap
1749
flok
hist
##arater
##astern
Beeth
Felix
Ideen
##førende
Kalmar
forene
fulden
hærens
træder
diagnos
guderne
argument
ideologi
Gettysburg
Stortinget
udtalelser
##WA
##erin
##huus
##ielt
##shær
##nedes
Rund
##ebjerg
hjemby
invent
lodret
spores
tilfal
Brigade
allieret
udfordringer
tennisspiller
Hovedbygningen
zu
##græs
##timer
Flag
Læge
Nina
##urdere
remix
ypper
##inental
Laurit
Weimar
nyheds
##optræden
##voksende
anskaff
elektri
##ændringer
##forholdene
indvandring
##rez
Pun
hil
##sprin
Pitt
mors
Bevæg
Etiop
dukke
kronet
##programmer
Lauenburg
medvirken
næstbedste
arrangement
investeringer
##nett
sov
tyk
Prof
kund
##cippet
##skilte
##søster
Pearl
valut
##minster
##skontor
Skjold
global
Colorado
Fakultet
Ingeniør
dimension
forstæder
redskaber
varetager
##uddannelser
industrien
##80
Bül
##umper
Haug
Like
træt
##shavet
nomen
##æringen
Depart
Kansas
Sidste
Willem
legeme
undsli
Carlsen
Challen
hierark
udløste
forskellen
##revolutionen
produktioner
##ML
##bbe
##bio
##iac
##achs
##pleje
##shand
##teori
Kalk
Toft
##jening
Parag
Schul
gaver
Fisker
Jensens
Spaniens
ordfører
sangeren
tilpasse
værelser
Oversiden
hjemkomst
påvirkede
ægformede
PlayStation
biblioteket
indstillede
Bid
Ome
munk
træf
Abdul
beryg
koden
tomme
##bredden
##ledelse
##offerne
Struer
afsted
dommen
udefra
udgøre
Weekend
sektion
siderne
skjulte
storebror
privilegier
undergrunds
Nordjyllands
beskrivelser
##36
##alk
##lam
##cons
##debut
##sbyer
fond
##kongen
Thomp
##ancelli
Nassau
betjent
favorit
##medlemmer
indkaldt
schweizisk
##ims
##chts
##hler
Seh
cup
hef
løg
Falk
bark
##forand
##ysning
Westf
##boliger
Chopin
Illust
Præste
gennemt
måneden
website
fjernede
opererer
##forretning
##DI
##sje
##flet
##pens
Fur
udv
Opel
pels
stød
##onerne
måner
ugift
##ribende
arealet
kritiker
betingelse
Amerikanske
##illy
Sko
ast
##bered
##matik
##skyld
1757
Prom
galt
hule
Santi
Trump
##stidens
##kulturen
Oktober
herredo
spejder
forholds
sporvogn
Provinsen
eksistere
udstation
Osmanniske
arbejdsgiver
præsidentvalget
Fx
##anget
Juul
Kaas
Know
seni
##ricket
##yldret
Agnes
Kerte
Kirch
about
indså
almene
discip
højden
report
##givelser
monopol
slægtninge
bosættelser
kommissionen
GT
##sset
##ktiver
Søndre
accept
Country
Maryland
børnehave
præfektur
soloalbum
Lufthavnen
fungerende
forberedelse
kvartfinalen
tilgængeligt
Jür
McL
Bald
Ulti
##grunde
##resser
Næste
Sådan
huske
omegn
afgive
faktum
firkan
Georges
mineraler
##instrumenter
forbedringer
##cos
##nyt
Lé
##ruter
Trade
tungt
stejle
balance
##kilometer
##repræsent
Assistens
Skuespiller
CV
Gy
Nem
STS
##gaden
1728
bibe
till
##cylind
##klatur
##træder
Karls
beher
mælke
##smuseum
andres
reperto
sangere
Guardian
baseball
flerårig
bronzekampen
intellektuelle
##garde
##ilian
##öping
Snart
baneb
hvede
Ringen
mandag
rekrut
##sprojekt
forsøget
angelsaks
forbliver
nulevende
ekspansion
##anas
Rey
Tac
##komne
Fast
Second
indisk
sprang
##flyvning
##fotograf
##sfjorden
styring
telegraf
##litteratur
Christoph
Committee
regionalt
##aktiviteter
Management
arrangeres
landevejsc
tredjeplads
##89
##gås
Dum
cyl
vag
##balle
##enden
##vinge
1764
Cook
Døds
##eloven
##rænsen
Order
forsig
Sydvest
bestilt
ekspert
høvding
mekanis
overvæl
##fabrikant
Kronprin
persiske
Mountains
overvågning
×
##iej
##ally
##veri
Ent
uro
Vanc
tykk
faser
købes
narko
rulle
smukt
tabet
oplyst
pistol
Atlantic
Scottish
Scandinav
Storebælt
stenalder
Underground
undtagelser
grundstoffer
nedslagskrater
Cle
Torn
sank
##reform
Cæsar
Haven
Marse
Piper
index
##randsen
##sbanken
##sperson
Frihed
kursus
##skrigene
magiske
organer
tilskud
##arvsliste
Ballerup
ligefrem
Indonesien
rapporteret
##zt
##riv
##ław
##asis
##ippe
Rik
Sud
aft
##ields
Drew
Pris
akut
påpe
##søerne
Tiden
toler
Harold
Planet
Sophus
anonym
bakker
afholde
mændene
Electric
kvælstof
ministre
foreløbig
lutherske
depression
revolutionære
##bay
##éen
Cu
dæ
##bech
##pert
Tir
1747
Ahle
Race
Vent
etik
Barry
Heraf
virus
##anterne
Torino
fortet
ordbog
##artikler
figuren
rummede
##hjulstræk
faldende
pseudony
Middelhav
anliggender
##skommissionen
debutalbummet
demonstration
Mesterholdenes
##beth
##busk
##egov
Isa
Kof
Opp
XII
##ønnen
Foss
krum
##isches
##istrup
Nansen
dyrene
Camilla
Uddannelse
Socialistisk
fodboldforbund
Ł
##dør
##lieb
Age
Was
##gøres
deci
spyd
tors
##gjorte
legat
Brygge
henter
Umiddel
hundred
Marianne
facelift
##österreich
positioner
Ekspedition
Produktionen
##VA
PL
##jsen
Yam
dit
##ryder
##mernes
##samfund
##udgaven
Carter
lister
støder
søjler
##ensioner
fugtige
lastbil
tidsrum
tillade
##bibliotek
Oklahoma
interviews
Middelalder
produktions
##auf
biv
##ieren
##sgård
1762
smit
idéer
vægge
Angels
Engine
patient
rigeste
Distrikt
Southern
tilbageg
arbejdspladser
SAS
Pira
hero
nåle
stak
Stadt
forræ
lider
sedan
lukker
Gilbert
metoden
stedfor
Aleksand
effekten
overgive
kollision
opdateret
succesfuld
håndværkere
transportere
##born
##rama
Dip
nik
sød
##iører
##jeren
Tegl
kvik
mure
song
##æstede
Anmel
Irish
Prest
fejre
Marcel
Wedell
lidelse
trækkes
videoer
##ificerede
Nordland
netværket
velkendte
##smuligheder
##DA
Cad
Gis
Hyl
##edede
##isons
1756
Dean
Jenn
irak
##ferens
døren
myter
Emilie
farven
bladene
bagefter
parterne
ændredes
overlevet
resulterer
##ev
##owe
##sbes
Hub
afs
##menne
##shjem
Høst
##guitar
##sminde
Marco
fjeld
Buenos
Franco
Justin
kyster
##anternes
skelnes
Colombia
##studerende
biologisk
herregård
tusindvis
landområder
sportsgrene
##asy
##cin
##loo
##kler
##ovic
##stok
Dim
##prise
Bing
Gift
guer
neds
##nemann
Løkke
parag
##projekt
Kassel
Secret
drabet
fylder
storfyr
symfoni
ulykker
sundheds
##festivalen
##regeringen
forhandle
borgerskab
finansminister
SI
##etti
##uldt
Kli
##nerup
##sides
##slund
##småde
Kung
Ther
bryg
Congo
Schou
ansku
udlån
##kraften
##ringerne
Jelling
##spiration
Kunstner
regnskab
##foreningens
betydeligste
##ied
Nim
##joner
svovl
##icismen
Mozart
Nissen
Typisk
affald
strengt
tilføje
Children
ambassade
dedikeret
missioner
simpelthen
Umiddelbart
tar
##overe
Bohr
##staben
Edgar
There
Thors
Studies
Boldspil
nomenklatur
##RC
Haf
Loth
klip
##anstal
##ighter
Linda
farlig
malere
##billedet
Arabien
letvægt
passage
rigsråd
Kentucky
Philosoph
kontakter
sproglige
afskediget
konstitution
offentlighed
resultaterne
indspilninger
##gre
##owa
##lass
##atrix
##ricks
##sagde
Ebbe
Maler
Titan
Versa
håbet
##byggere
##rateret
læring
##skillige
##sseldorf
Glasgow
Stephan
frugter
adelsmand
julekalen
republikken
##OP
##lä
##rea
pu
##grev
##hild
ISO
##legne
##polen
##raden
1741
Bygge
Føder
Girls
opmun
rytme
ubehag
trusler
rotation
udstedte
Struensee
fangenskab
##administration
##bind
##atlas
##riter
##stæng
##kredse
operas
##branchen
Citroën
kavaler
Politiet
Tunesien
medvirke
særskilt
chokolade
landstræner
##ype
ok
##hjer
CIA
1648
Luis
slan
Aires
Saudi
centr
dømme
sørger
##medaljen
anstren
oplyste
Trondhjem
universitetets
##ól
##øk
##delin
##synet
Cold
Fram
Hest
klat
##ctions
Sparta
etaper
købmænd
Algeriet
Thompson
begrænse
ledsaget
jernalder
Enhedslisten
guldmedaljer
##EF
##bot
jet
Torv
Type
sære
west
##draget
inspe
Altona
Korsør
spises
plantes
senator
##sættelsen
betjener
udvikles
Storkreds
Bundesliga
Television
Vestindien
Udviklingen
mindesmærke
konkluderede
##ás
eu
##itzer
1536
Krak
Oliv
øger
Banks
Grind
##lederen
Juvent
massiv
Campbell
forsiden
herskede
entrepren
behandlede
afsluttende
demonstrationer
Rö
##cium
##isku
Alm
NBA
##skron
Final
annek
##sbladet
Astrid
kaster
return
article
Musikken
ritualer
vurderet
##instrument
faldskærm
ferskvand
udnyttede
Katedralskole
##ár
Ó
##ilje
Dow
##eline
dæmp
blind
##smagten
Fantas
Symfon
legene
priori
##ationens
Uruguay
sejlads
beordret
skribent
straffes
Düsseldorf
ansvarlige
##cki
##itim
kør
væd
##stigt
Vang
##lemann
Danny
Jerry
nukle
Knight
fugtig
konfir
regime
ruiner
teatre
##isternes
redskab
##højskolen
##inationer
psykiske
regulære
Cornelius
Landstinget
begivenhederne
RS
##hals
##inth
##yers
tip
Hvil
Stam
stiv
stole
Helena
bølger
forson
profet
slette
Finalen
Nigeria
camping
grevinde
Ahlefeldt
sekretari
omdrejning
##dat
##serb
Amé
Saw
Zar
##foged
Sier
Boris
Veter
##aktorer
fyrster
farvande
Vancouver
kompromis
konceptet
foreligger
indsamling
brasiliansk
Demokratiske
##kly
Oe
##ancy
##ethe
##sfil
Due
Nes
kub
rut
saf
##klædt
1746
Rosa
Judas
Linje
Tiger
##nordisk
gotisk
samtid
Raymond
fabriks
Kirstine
stumfilm
tænkning
eksperter
##information
##udviklingen
samfundets
instruktion
##cti
##jun
##ælk
Gem
##igten
##årede
krat
Legat
sæder
bombarde
mystiske
overvint
Interview
Nordkorea
slægtning
stiftelsen
investering
Lon
##ignal
Skær
iron
wild
##racket
##ulator
Kapel
huden
mundt
udfør
##randede
Julian
indust
kælder
undgik
tingene
beklædte
afhængige
midterste
Adskillige
Kerteminde
sædvanlige
storhedstid
##ifs
##sop
##the
AK
##foss
Neg
Non
Put
ign
1751
##cession
##pitaler
Ingrid
Terror
detail
synder
Slovenien
Westfalen
reduktion
Montgomery
filosofisk
skilsmisse
Kunstmuseum
anvendelsen
FK
##elag
##ygen
thi
Nazi
Kenya
Nogen
Prote
bæres
glemt
##indiske
Listen
fordob
luksus
tilmel
Valencia
Forskning
afgrænset
månekrater
forfatningen
straffespark
##ønde
inc
##smøde
Qing
##busser
##titlen
##udbrud
Honor
##tekster
##kommando
flyttes
Department
gennemføres
##lus
##osp
IX
##sbank
##stuen
Plut
skån
##litter
Julia
docent
oftere
Grundet
##problemer
Politisk
udøvende
Minnesota
doktorgrad
##sbo
##rain
##umme
Heb
Tin
lom
##spids
flot
Moses
Multi
bælte
Planen
Tromsø
Warren
anslås
tilløb
tænker
Mikhail
forstår
Pictures
manifest
kontinuer
herresingle
Qa
XV
Bøg
rad
##sløse
5000
grov
trag
##porten
Botan
Knuth
Never
lyrik
Dybbøl
grønts
kriger
Augustus
fødevare
kolleger
nedlagde
styrelse
menneskene
##öt
í
rø
##aise
##konf
Kgl
##lokke
##røret
rekt
ster
##tegnet
##æssige
grove
Presse
fartøj
##abilitet
Bergens
Conserv
gehejme
klipper
nedgang
hændelse
lettiske
##partementet
Vestjylland
##hes
##iak
##irv
##achi
##ejen
Tip
Wei
##iform
Damp
demo
##roller
Total
guide
koste
##alistik
##borough
Alfons
veksel
afviser
habitat
divisions
kulturelt
udbygning
kulminerede
sideløbende
Lj
TH
Sct
råb
Øer
Blod
Egon
Emin
July
Pors
toer
##manuel
ocean
herfor
seminar
Schwerin
kvinders
livsstil
Gibraltar
grundstof
udsendelse
Shakespeare
##oko
##ishi
Nad
Sib
##rhein
Fitz
Jule
Schi
Sogne
nabol
ubebo
Broder
doping
nominer
fokusere
opdeling
absolutte
Fig
Rek
##jørne
##vilje
##boende
##minder
##omerne
Lunds
Stars
Krabbe
tilnær
Karsten
Særligt
skænket
talsmand
vellykket
organisere
semifinale
orkesterværker
##tica
Arg
PDF
Hipp
Moss
Manch
Slots
foder
nobel
Gruppe
rådede
skjule
Tallinn
massive
brugeren
forlænge
sønnesøn
##ningsanlæg
gearkasse
damesingle
godkendelse
Centralasien
##lica
NHL
##rider
Feld
gulv
pant
view
Agger
Rejse
Cypern
Alabama
Leonard
opdater
##vangeliet
geografi
fabrikant
forlængede
##47
##ège
##ouch
##irkes
1710
Klin
Pink
nøds
##kompon
Afrik
Grande
Lemvig
##aktionen
##spladsen
Janeiro
kunstig
piloter
Santiago
bachelor
udtrykke
kvindernes
selvbiografi
begrænsninger
koncentrerede
##veg
##ikom
drø
##sfuld
Cons
Cruz
##reland
##rettel
##svåben
Break
depor
##rydende
Tobias
affære
cykler
tilbøj
Berlins
Taastrup
overgreb
tilflugt
##temperatur
Cleveland
mexicanske
elektromagnet
grundlæggelsen
##lak
##næs
##mier
##stik
##æner
Gur
##lerer
Zeus
loft
Lukas
Nordt
##baseret
##gørende
Saturn
Winther
prægede
Simpsons
forberedte
kommunalvalget
specialiserede
##Ph
##zj
##ogs
##tie
##helt
##obar
##etery
##scher
Code
Bryan
istid
##iddende
desper
synlig
##virkende
krigere
skildring
versionen
hertugdømmerne
##ów
##kurs
##onda
Acc
##court
##emann
løve
vamp
##lering
##ussion
nøgen
##ception
##prægede
##værnets
Borgen
aminos
##uddannet
Seattle
fantasy
fortrol
hebraisk
sandheden
##shospitalet
turneringens
vas
##quist
Blom
Gron
Neil
Sele
##parker
##rutter
Højre
Klima
Weser
hydro
Väster
udfald
Maurice
bistand
regnede
stilles
tiltrak
vurdere
Frandsen
gennemsk
knyttede
ansøgning
mekaniske
Eckersberg
##pej
AI
##ikum
121
##cerne
1735
1743
Blek
Bakke
freel
udven
cykell
flyene
atelier
køretøj
omdanne
##prøjtning
Harrison
forsinket
udvikledes
førsteholdet
ekspeditioner
organisationens
##VP
##cé
lat
##acher
##sdorf
Brev
Hend
Shan
Soul
##demars
##smaler
ambul
kadet
proje
pulje
##videret
Comedy
Olesen
Stater
assess
provst
tenden
##vandring
stjålet
styrken
truppen
Centrale
fortaler
velgøren
velstand
bevirkede
guitaristen
##26
##lat
##uka
bæn
1721
Mira
kass
saks
krops
tårne
##ataljon
##sdatter
banden
mistanke
opfattede
Befolkning
gennemgået
begrundelse
suverænitet
Folkemængden
bø
##etra
##icum
##kval
550
Tch
tap
##liche
1753
Føde
Priv
cirkus
Dernæst
Wallace
gaderne
museets
##holdnings
Juventus
forlovet
litterær
Akademisk
Boldklubben
ødelæggelse
##Ar
##uy
##kod
##myg
##esis
##tårn
Cow
Hamp
KFUM
Spen
##afsnit
##farvet
##husets
møbel
halsen
magter
tvinge
moderat
reddede
fjendens
fotografi
indledtes
prominente
statholder
længdekreds
eftermiddagen
##edi
Bær
bjæl
vacc
##andens
Clara
gevin
katte
tilbe
##kompagn
Retten
Volume
##ssamfund
afsløre
anseelse
runesten
forbeholdt
hitlisterne
kommentarer
endestillede
##LS
##era
Rib
##chten
##semin
Glee
Roma
Savo
Tina
Guden
Ligue
Söder
alsid
kæden
nytår
pragt
##enterne
filmpr
udland
udvist
Classic
Schultz
sekvens
##arbejdede
Landsret
skænkede
slaviske
tredjest
tydelige
Publishing
blomsterne
selvejende
orientering
homoseksuelle
hyg
Mits
##fterne
##kterne
##semble
Medie
annon
manip
røver
Guitar
fester
Teksten
trykket
Rungsted
maksimalt
verdensom
Alexandria
undersøger
##hö
##rh
##upt
##anto
Gos
bre
##ønike
Dest
Poké
Zulu
Nordic
fløjte
tømrer
##lingerne
perfekt
strømmen
Rigsdagen
forfattet
overføres
redigeret
slesvigske
panserdivision
##affa
Cub
##bords
Brag
Snow
##tårnet
##ægning
lidet
murer
Hender
Living
Pastor
hviler
udslet
##ællinger
January
seksuel
striber
##ordninger
Falsters
ligevægt
milliard
standarder
Kjøbenhavns
foredragsholder
##lå
Hä
IN
##fing
##skyt
##stin
DTU
##tider
Aars
Ulla
syds
##tigste
##uleres
Lotte
genåb
##voksede
Barken
Walker
bredte
indlæg
##strømmen
Londons
##producent
Lissabon
avanceret
egentligt
fremsatte
grænserne
udnævnelse
æresmedlem
efterspørgsel
##tøj
##tene
Nyg
mut
ynd
##mødet
Oran
##steins
Phoen
kanton
##trafikken
inspektør
orienteret
##sministeriets
nationalsoci
##ømte
Dod
Nac
Num
cub
1748
Font
knob
##street
Andet
##sforbry
Kosovo
disput
##fartøjer
Filmens
fejrede
opholds
##likationer
##stjenester
politiken
primitive
Himmerland
flertallet
kraftigere
RA
##zhou
bib
##kryds
##lenes
##liske
##nette
hang
kølv
nords
##sklasse
hiphop
servic
reagerer
wrestler
identiske
fokuserede
disciplinen
Augustenborg
##izz
##pul
Lö
SO
Tau
##ogter
Hood
Work
##edrift
##øjelse
essen
svare
##hjælper
profit
Rostock
studium
Brønshøj
Guldborg
Djursland
violinist
destroyere
elektroner
udlændinge
##ee
##but
##fek
Ec
##gger
260
Cyk
Eag
Tes
##apest
##üttel
1752
Mørk
fjel
Pedro
Staff
sabot
unger
Watson
centre
femten
Ulfeldt
mindske
opstand
Malaysia
ensartet
Øresunds
##betændelse
afsluttes
##forskningen
professionelt
##hea
##tors
1650
Agen
Arkæ
Forg
Kiss
Slam
ture
##olleyb
##skader
##skerne
Frugt
Hærens
gravet
Masters
Rudolph
formind
udrustet
velfærds
østsiden
##arbejderne
##forsikring
Forsvarets
bekostning
underjordiske
forestillingen
##igi
##ypt
##lyde
##iders
Arbe
hæve
Øvre
##banens
##strøms
Creek
Essen
rådet
spare
stere
##edralen
kvadra
viking
Edwards
Cemetery
Jakobsen
##lighederne
##sproblemer
eksistenti
katastrofe
forfølgelse
Undervisning
od
Fry
bab
##istik
##rigen
##ægere
Frid
Giro
Pand
moske
##lændere
Witten
myster
satire
Juliane
Philippe
metaller
Montenegro
markedsføring
##sha
##erup
##irer
##lion
Emb
Lat
Oce
cif
klo
##gorit
##numre
Arve
Cens
Cool
Gand
Ster
Utre
##etagen
Derby
Flora
Måske
Dallas
Greifs
våbens
Atletik
Simpson
dækning
havneby
optages
rasende
Richmond
kølvandet
minoritet
forhandling
ministerium
forventninger
##27
##grå
##hår
##ajds
##gest
##ænds
Ska
pun
##horst
##igede
##ograd
##olini
##råder
Beth
Frie
kaos
##ældste
Wulff
##dspunkt
##ellerne
##løsning
kilden
kvante
latinsk
tungere
hydrogen
tilskuer
underskud
Commission
Forsamling
guldvinder
##In
FS
Um
##ulle
Sto
ble
hat
##etrin
##gesen
##zonen
Mini
køns
Jules
byder
Ordrup
Særlig
egnede
omdisku
handicap
lokomotiver
Filippinerne
##bie
##hyl
##jse
##pige
##ræde
Akt
Seg
##bølle
Buff
Kend
asyl
plet
tynd
angst
roste
spore
##lageren
Jürgen
Orange
færger
##stødende
Senatet
antager
fantasi
videoen
Margrete
Selskabs
flyvende
hurtigste
Baggrunden
Forskellige
Vá
##opot
mød
sak
##arest
##cture
##isher
##stole
Burn
Gjer
Most
Sean
bilm
flor
hals
##bruger
##oterne
theol
Øerne
Athlet
Theres
gifter
munden
omkran
propor
stjern
svoger
ventil
Generelt
Religion
afstande
download
sommerhus
spændende
nominering
helikoptere
hjemmesiden
instruktøren
undervisnings
##eli
##atum
##inda
##olsk
Fas
pyn
List
Rets
Wang
##ilitet
##ocaust
##opgave
Stads
brutt
##istrikt
Hirsch
gartner
såfremt
##styrkerne
Johnston
Kompagni
Ultimate
Biography
stilarter
korruption
usædvanlige
##muse
bun
##ilder
##ottet
heri
Again
Terry
spont
##anernes
Martha
adelss
cement
censur
boksning
database
stabschef
undervise
##skommission
programmerings
forsvarsspiller
##35
##amas
##asia
##avet
##hall
##walt
Pos
uop
Gall
Here
Tanz
gemt
##atrium
##dioxid
##ktorat
Hertz
Lunde
Malta
Rügen
akvar
værre
##eringer
Bortset
Eastern
forsink
Arabiske
bagsiden
herkomst
afvanding
akademiet
patienten
landevejen
stabilitet
distribution
europamester
##buen
##flod
##skør
##snæs
Lan
Ont
Tør
##forme
##jords
Dies
Jagt
Tolk
drik
sløj
##fangst
##træner
lejet
##rediens
##stoffet
Newton
##sidenten
##ætninger
Universität
banebrydende
€
##iele
##shas
Cul
IBM
Laz
amf
duo
les
##sform
Radi
Bertel
Prædik
solist
sprede
væsner
Houston
Lauritz
citeret
udtrykt
Anlægget
football
indsamle
rednings
generaler
tjekkiske
operationen
LS
##stet
may
Devil
ignor
kælen
streg
radiop
Admiral
Clement
Handels
kreativ
sejrede
residens
varetage
forpligtet
optrædener
##avi
##yon
##bern
##cont
Bai
Zah
zur
1683
1731
Gorm
Stal
duft
slås
##atning
##ræning
##kestret
##klasser
udlagt
Absalon
fiktion
rigsdag
##e
##r
##n
##t
##a
##i
##s
##d
##l
##o
##g
##m
##k
##f
##v
##u
##b
##h
##p
##.
##,
##å
##y
##ø
##æ
##1
##c
##0
##j
##"
##S
##2
##D
##9
##-
##H
##A
##M
##B
##8
##F
##I
##K
##)
##(
##T
##C
##P
##7
##E
##5
##3
##L
##6
##4
##R
##N
##G
##V
##w
##J
##O
##:
##U
##W
##z
##'
##/
##x
##–
##;
##é
##Y
##Ø
##ü
##ö
##Z
##q
##”
##%
##ä
##Å
##&
##X
##’
##Q
##á
##_
##ó
##?
##]
##=
##[
##—
##»
##í
##«
##!
##Æ
##|
##ð
##+
##è
##“
##°
##ß
##$
##ú
##Ö
##ç
##ë
##É
##ā
###
##⁄
##š
##ł
##§
##ć
##ñ
##́
##*
##à
##ō
##−
##>
##а
##â
##о
##<
##ô
##‘
##и
##ī
##ã
##č
##„
##ū
##α
##ý
##е
##£
##н
##ń
##р
##Š
##Á
##×
##ο
##с
##ı
##ž
##ا
##ê
##ς
##•
##в
##т
##к
##ş
##ν
##ē
##ï
##ė
##Ł
##Ó
##л
##î
##ă
##ρ
##€
##μ
##Ü
##ι
##·
##õ
##Þ
##ل
##Ä
##τ
##λ
##ε
##~
##Č
##ź
##→
##Í
##ř
##þ
##′
##Ž
##ر
##π
##β
##σ
##ś
##Ç
##д
##م
##ي
##û
##м
##у
##κ
##ì
##ğ
##ò
##ě
##ن
##ę
##γ
##ņ
##ˈ
##η
##я
##ί
##`
##й
##†
##®
##Î
##י
##ب
##г
##ό
##ω
##}
##و
##ș
##θ
##ə
##ы
##د
##ż
##δ
##б
##п
##ल
##İ
##φ
##ו
##С
##@
##ą
##ч
##υ
##س
##ά
##≈
##ь
##Ś
##{
##ʿ
