[PAD]
[unused0]
[unused1]
[unused2]
[unused3]
[unused4]
[unused5]
[unused6]
[unused7]
[unused8]
[unused9]
[unused10]
[unused11]
[unused12]
[unused13]
[unused14]
[unused15]
[unused16]
[unused17]
[unused18]
[unused19]
[unused20]
[unused21]
[unused22]
[unused23]
[unused24]
[unused25]
[unused26]
[unused27]
[unused28]
[unused29]
[unused30]
[unused31]
[unused32]
[unused33]
[unused34]
[unused35]
[unused36]
[unused37]
[unused38]
[unused39]
[unused40]
[unused41]
[unused42]
[unused43]
[unused44]
[unused45]
[unused46]
[unused47]
[unused48]
[unused49]
[unused50]
[unused51]
[unused52]
[unused53]
[unused54]
[unused55]
[unused56]
[unused57]
[unused58]
[unused59]
[unused60]
[unused61]
[unused62]
[unused63]
[unused64]
[unused65]
[unused66]
[unused67]
[unused68]
[unused69]
[unused70]
[unused71]
[unused72]
[unused73]
[unused74]
[unused75]
[unused76]
[unused77]
[unused78]
[unused79]
[unused80]
[unused81]
[unused82]
[unused83]
[unused84]
[unused85]
[unused86]
[unused87]
[unused88]
[unused89]
[unused90]
[unused91]
[unused92]
[unused93]
[unused94]
[unused95]
[unused96]
[unused97]
[unused98]
[unused99]
[UNK]
[CLS]
[SEP]
[MASK]
.
##in
,
##as
p
##ai
##os
k
s
##ar
##au
m
##ie
##al
##is
##ir
##an
t
v
##ij
##en
d
##us
##er
##io
##at
##am
##ik
1
b
##im
n
##ių
ir
##oj
##ės
g
##ra
##on
##ur
##or
##uo
##iš
##el
##st
##av
##uv
##it
##et
l
##iau
į
r
P
##il
##ap
)
(
–
K
pr
##ėj
##om
19
##ti
##ijos
##ak
##ad
A
j
su
S
##iai
##iet
##id
L
V
##es
iš
"
##iu
##ol
##ok
##oje
š
2
M
T
##tas
##tin
ž
B
##ek
##em
##ink
##ov
##uvo
J
D
##yb
##ia
##ant
##ius
„
buvo
-
pas
“
R
##iaus
ap
##ien
##ta
u
##ed
at
N
##yv
kur
##ei
##ose
20
##ul
##ent
##ūr
##ais
##aug
##ija
I
##ios
##um
##avo
##aik
G
##je
y
##ag
f
##išk
##un
##od
##yk
##and
##ėl
##aus
##ietuv
##ch
##ist
Š
kar
##eik
yra
##og
##aip
##ab
met
##až
##ys
##iam
##ot
nuo
##imo
st
##eg
:
ar
##št
Lietuv
##auk
E
##op
##ėjo
##yt
##iz
##ing
sk
##iv
##ion
##ies
##ig
val
##ijoje
##yn
##dž
##ac
pat
už
##čių
ne
/
mok
##ic
200
##uk
gr
##inių
##inės
##yr
##yje
o
##ym
par
##inink
##ėje
##ut
##iek
per
gyv
##inė
##sk
in
C
c
##enk
F
prie
##inis
##iest
##aud
pl
Lietuvos
##men
##uose
gal
##tr
dal
kal
##irm
##ač
sp
##ui
H
##eis
##rad
vien
##ud
##ūn
##ank
pav
kai
##imas
tr
3
tar
##up
##yg
##aid
##ęs
##var
##ras
a
199
##ub
##ev
vis
##iją
##amas
##end
##ias
tur
18
##ikos
kr
kad
##čio
##ino
##inio
##auj
##iais
##ip
##ėm
e
miest
##to
##tų
##ykl
h
##ang
tik
ra
##ug
##ung
##iki
##sl
201
##iaur
##aul
pag
daug
kom
Pr
##ėn
##ikl
dar
iki
X
sus
An
laik
vad
##aš
##ib
##eng
bū
po
5
O
kaip
##aig
kon
##ba
kit
pirm
U
##orm
Ž
##ro
##ama
##uoj
##idž
##aun
##ojo
##ep
##mon
##iej
##rin
4
kel
##akar
##ers
##ąj
##tos
viet
apie
##yd
or
kl
##ažn
gyven
var
km
##yti
##az
##ez
Vil
##esn
##rit
##tat
##aj
bei
veik
##ain
##ait
##ybės
##ono
ak
##iniai
savo
##yst
sav
##uz
##ial
##00
auk
šal
##imą
##iuose
##lik
##ūk
tarp
##tor
Al
##ijų
##est
sud
šiaur
žem
##oc
įv
##kur
##raš
##eš
tap
##ams
##omis
##ią
##ob
##čius
med
##eb
##iklaus
##int
ats
kaim
##eig
##art
valst
pak
6
198
##elio
##ald
##pr
mokykl
dir
##jų
194
##ult
jo
piet
Viln
ant
##ūros
##ačiau
##iuo
##olog
##ami
prad
197
##ybos
Nuo
taip
kart
teis
##ter
raj
cent
15
##ard
17
##iame
metu
pasaul
##ame
##yl
##eid
vėl
bal
re
##ėd
dr
metų
7
sen
##čia
ter
naud
muz
al
##ina
##ano
##onas
pad
jis
##inti
##usi
##iem
did
##cijos
##eks
dv
8
vid
įs
net
jų
##per
196
pal
;
pra
##itor
vald
##ima
##šk
##oma
Šv
##rind
##aiv
pask
arba
nar
##ec
##ilg
##uos
##itet
##ilm
##ėg
Č
un
pil
##aim
gam
##iui
šv
up
195
te
pap
metais
##gan
##džio
##bo
tapo
Kar
##uol
##anc
rū
St
Mar
##of
##inę
##imų
##elis
sudar
bend
##vir
skir
##inį
##kas
0
##toj
grup
vakar
16
Kr
dėl
##iškai
193
192
##erg
##osios
##irš
##ioj
lietuv
bet
priklaus
kalb
as
##yta
##inas
##žer
##iausiai
9
reg
Gr
pol
##čiai
##ert
##ininkas
##ūs
nes
pastat
##utin
tačiau
sut
XI
##uomen
##omas
ryt
nauj
pus
##ivers
##air
vyk
Eur
##žio
maž
lab
nus
##istor
moksl
##eit
pavad
žmon
prieš
Ar
rink
##amos
ilg
suk
##ėse
ch
to
##ažny
gim
##uod
sal
im
##ail
lyg
##if
W
##ijai
In
šiaurės
vyr
##ytoj
kult
##he
##ian
au
Z
##tai
stat
Pas
min
dain
teritor
##sn
##ymo
tai
gali
##tą
išl
##iant
pagal
jos
vadov
##ans
12
aug
Kaun
##ator
##iečių
10
Po
žaid
##anden
##ėmė
##inius
išs
##oji
istor
komp
##uoti
Bal
##anas
##isk
##entoj
##re
##inkl
##už
##iversitet
pagrind
są
reik
##ėk
##ytas
sl
Iš
##amp
191
darb
##tak
##inėje
##emp
ger
##umo
Vilniaus
Europ
##raf
bažny
kov
##do
##ganiz
karal
gyventoj
##aln
universitet
##ūrė
dalyv
##ež
am
kol
##ional
##tis
##ko
el
##ėsi
##ėjas
##met
č
##imai
form
Į
įst
##rašt
vadin
##iams
Rus
Ch
naudoj
##esp
pasir
kuris
JA
##iausia
žin
br
še
##tar
JAV
##acijos
##ivald
es
Kl
##ting
##aiz
##ūz
##čios
##form
##ern
##asis
##cija
rug
##ijas
turi
##ri
##arp
ežer
aukšt
Lietuvoje
miesto
##iems
##unig
##iav
mėn
##mo
##min
##alų
Didž
##stit
įvair
vanden
##varb
dažn
##čiu
##eno
kūr
savivald
būd
##oz
##asar
bendr
pam
14
stud
dien
##ųjų
tok
##alio
of
baig
##tinės
##osi
##iko
pavadin
didž
valstyb
##amb
vėliau
Lenk
##kl
%
Pirm
##ind
pan
##ieš
##ine
##šč
polit
##umas
Am
##espub
##ekt
pab
##inys
virš
būti
##ieji
dalis
##urg
##ėv
w
kuri
aps
##abar
##arb
##imu
Ap
##sta
vidur
Tai
##iak
##ier
##ancūz
##ry
##ėti
organiz
apsk
##one
##iep
kap
Vok
##istem
gel
##bol
II
##empion
film
##ach
mir
kat
kaln
##ej
lietuvių
tau
region
##atų
13
##tinė
##eka
Y
XV
rajono
##ars
##alv
##ininkų
##ika
##iūn
##ąjung
įr
##iev
##eris
11
'
kurio
kurie
##alo
##iniu
##ort
sistem
##ąją
imper
labai
deš
atst
pradėjo
##entas
##ors
nep
##ėmis
##tyn
sm
ht
##uš
##antis
Pag
ek
karo
##tp
part
##ato
čempion
##ūd
##viet
##atas
##ties
##chn
##iausias
Par
arch
vaik
du
pop
ry
##le
##irž
##lių
##anti
##oti
##yba
mišk
##avimo
##imi
##aikšt
##elb
neb
At
Pal
Br
Vokiet
##omos
tuo
vienas
##mis
##oms
##erb
kunig
įkur
instit
svarb
Jo
ad
##ūra
##ėja
kas
##onų
mot
išv
buv
kurios
##ėjus
lap
kaimas
##umą
##acional
Kauno
ūk
Val
saus
##kų
##aizd
##uoja
##urn
##ium
##uotas
ji
##yko
##imus
##II
kil
##elių
##evi
##nyg
Per
##me
##ines
apskrit
##skir
vasar
Sk
ket
str
medž
##onom
##elės
alb
##yž
##iar
##enc
išk
jau
##so
##iamas
##aist
nei
##iausių
##atv
raš
##tinis
užs
##ikų
prog
##iuje
įk
sv
kalba
##odėl
atlik
##tinių
##ikas
##iama
centras
dvar
ver
##otas
atv
Europos
##ėnų
##iū
##rav
komand
##tau
##elk
##ektr
##ėt
Jis
miestas
##das
##ovas
Ant
pras
kiek
ties
Pl
##intas
##aivad
##000
siek
##man
gyventojų
Dž
##imt
##torius
##inc
skyr
##ich
##unk
žemės
tyr
##acija
190
kultūros
liep
##str
##eiv
vaivad
##ystės
knyg
turėjo
jaun
##alas
##uota
nam
##mas
daugiau
rūš
##etas
dabar
šeim
##inta
pers
vals
##erv
tiek
jį
http
Žem
Respub
žv
kurių
pasaulio
vok
srit
sukur
Daug
##lio
leid
Fr
##inos
##ijo
apl
kartu
jie
##elė
Šiaur
##tuv
Piet
klub
##iž
Tr
krašt
##ezid
aut
##ūkst
šio
įg
Prancūz
The
##iag
##eda
priklausė
Sp
##iojo
Kon
veikl
Lenkijos
et
##ybė
##imui
juos
##džių
prek
##rac
##iniame
saug
chor
##ybę
savivaldybės
##ento
mokykla
##aipsn
##kos
nut
sek
klas
Pet
##omi
apd
##rauk
##aro
##minist
pasiek
techn
##ylink
muzikos
ww
ab
www
lenk
##yno
##virtin
##ros
##eguž
##ord
mat
sur
draug
Taip
25
baigė
##ied
sudaro
##ka
##inimo
tūkst
##aisv
##tal
ang
Rusijos
##pl
##ančių
##arn
##aišk
narys
##iasi
##iter
##ovės
kitų
švent
lt
birž
##ograf
Sen
##ėjų
an
gelež
##anijos
ind
##kt
Vien
viena
##žin
##ytų
##ijus
valstybės
sun
laim
2007
##ėjimo
spec
Vėl
##ienė
Vis
nepr
prof
##eko
##ada
##rų
##iakaln
gen
de
eks
suteik
todėl
nė
geguž
##mog
Ad
apylink
neg
##SR
pabaig
##ymas
progr
XIX
nacional
prov
30
##ėž
El
op
Auk
##ocial
_
liepos
pač
skai
įsik
##eto
##rant
##iniais
dirbo
užd
tol
##utbol
##eln
##inų
##ah
valdž
##ime
##ologijos
##pj
##alis
##iejų
##davo
gyvenviet
kartą
##anų
dail
sąjung
Amer
##ynas
##ingas
##ond
##ąjį
##sp
priv
##uliar
##ly
dirb
##likos
yp
##iką
##įž
2011
čia
visuomen
rugs
##aras
##pt
##ild
Nauj
##ens
##ėst
konc
##rą
##ėlė
Tačiau
##fr
##ovo
##ustr
##iat
##uma
pram
futbol
amž
##obil
##erio
žmonių
papras
paž
mod
##anč
Kal
upės
dalyvavo
laiv
##kv
Šiau
tėv
2008
##uc
ank
##uotoj
galima
įreng
##venk
pris
##usios
##ump
Vid
##pjū
##usių
##las
Vakar
##andžio
ned
gegužės
vaid
##ef
##orto
kop
##aust
birželio
##eistas
eg
grupės
sant
##iūr
asmen
žod
me
administ
##aipėd
##uot
##iumi
##iuomen
elektr
rytus
XX
special
##inėse
atstov
##af
ved
Ind
=
gyveno
plot
2006
##ijung
sūn
ob
paj
##gn
##jer
vietą
susid
##gl
kariuomen
##eidž
vert
Klaipėd
##erl
proc
sos
muziej
sausio
rugsėjo
mėnes
gars
dalyje
z
žmog
##eido
Pan
aplink
metus
189
tarptau
##yz
##auti
pasirod
##radic
##vien
autom
nėra
lauk
Kai
##čiaus
šalies
išr
Mas
2005
##istų
##ki
2009
##imis
be
reng
proje
##ado
rugpjū
##elį
lapk
Už
rad
id
įt
kovo
##iosios
Vėliau
##rak
išt
##ito
##iur
XVII
##auja
lig
##otarp
prasid
paskelb
##ščio
spalio
##iškio
##onijos
##entų
atskir
balandžio
##ulk
teat
sug
fil
kalbos
kt
##trauk
##uodžio
##ost
2010
laikotarp
moter
social
##iaj
fin
Liu
angl
##mės
minist
varž
##oja
##adem
##ytojas
2000
inter
##ininkai
##ena
##čiau
##iog
sien
##ukt
##ast
##džioje
Ital
ekonom
pa
##ipaž
atl
##ana
fak
vakarus
##iami
##vakar
Tar
Mok
##ikoje
##ričio
Šiaurės
##lo
##ūš
Austr
krant
institut
##uok
Pil
taik
stov
the
pri
rib
žurn
##imp
žym
mar
sti
tem
##ong
##ugal
atit
pard
kaimo
##erių
teisės
bažnyčia
nors
vandens
ją
##ėms
dažnai
##ming
##okr
rel
##aitė
įraš
##ininko
22
##iež
Ab
##ybų
##lam
kv
spalv
##antas
profes
geležink
##iavo
##antys
mokyklos
nepriklaus
rugpjūčio
##ikal
##iskir
gruodžio
Be
sum
2004
##und
lapkričio
##iškių
##oliu
##iel
Yra
kurį
Miest
Pav
antr
medžiag
jam
##yse
Ne
jud
Tau
Respublikos
ser
vykd
##itar
2003
##ont
duomen
atsir
universiteto
pietry
pramon
dešimt
##vil
ol
##tinink
##ybių
24
tel
Se
spr
##tinio
Kaz
Or
##damas
##ase
##eveik
21
##tinėje
jog
##insk
##atūr
rajone
186
seniūn
priklauso
er
sez
##naz
sim
sod
##iniuose
įsikūr
rez
Var
rūm
##uoš
##eč
1990
rytuose
pasit
##tina
##icial
cm
##vz
vard
##ate
paminkl
šeimos
art
apdov
pakrant
XII
tarn
##fer
konkur
pietvakar
dainų
prezid
šak
Aug
šios
23
##etą
sul
##irb
tradic
oro
##izmo
##enos
sėk
Le
And
Jap
##gal
paskir
ketur
įmon
vasario
prod
rus
kuriame
men
vaizd
tam
Man
kultūr
##ymą
Maž
teig
dep
##rag
reišk
įtak
##audon
Tur
000
kons
##amų
egz
įsteig
užėmė
akadem
Sal
Tarp
##oro
įvyk
akt
jūr
mil
Kit
futbolo
##eisti
lin
##eral
arm
Antr
##iaud
Vokietijos
pir
Karal
parap
Dr
jung
Pietų
kor
and
ypač
##ingos
penk
##ič
teritorijoje
tiksl
##uon
Pagal
##ystė
greit
##sas
##br
uos
Tuo
1998
taš
oper
##evičius
archit
##sti
2002
##bl
Šiaulių
##iausi
##ill
##ual
obj
Ak
parod
188
studij
daugiausia
##ioji
##din
tarybos
Dėl
kok
lank
pradžioje
sutart
2012
por
ūkio
1992
##ėtų
Gal
Juo
dvi
reikal
##ms
##eta
##log
rung
2001
##aičių
##inga
nuk
nem
automobil
Iki
Rad
mas
dažniausiai
sta
jūros
vieną
vakarų
juod
pareig
vir
populiar
išg
100
Brit
atid
ner
rek
rom
1999
com
##asi
suv
šl
akmen
perd
red
Vilniuje
##iose
grįž
išlik
Tok
##uje
rytų
piliakaln
##ienio
kan
##uoju
##ūna
##avos
1995
laisv
TSR
Vyt
panaš
##ton
##iškas
##itul
beveik
liter
nebuvo
dalį
man
Kin
##iečiai
ml
dėst
Dar
##emokr
Az
##lė
##ūnas
Kaim
1991
grupė
##iun
band
##lit
Jung
gent
##ašė
en
Jon
kunigaikšt
Rom
vietoje
Il
tek
Kur
##tinę
Juoz
##kai
’
##ėjai
inform
ežeras
##amo
gavo
ginkl
En
intak
pvz
pastatyta
Latv
meno
##ovė
skirting
lik
Klaipėdos
pabaigoje
##iantis
?
Pap
##amą
##arė
##ay
didel
Valst
Afr
stot
1997
28
apsaug
##iuos
plat
tvenk
pral
##esnis
27
179
##usio
maist
187
trump
##ikai
relig
prot
ras
Kan
stipr
eksp
Rytų
nor
num
26
##enas
##kup
Vakarų
diev
##ančios
centro
išrink
##žių
##olis
vyriaus
##itų
##oko
##entin
##ilo
##eliai
nustat
vieš
rež
##engv
Jos
ilgio
##eolog
gl
gimnaz
rank
žyd
##res
##ėjimas
is
sąraš
pasaulyje
##oviet
tikr
tip
Pat
pirmą
##iška
gyd
deb
##ysis
kry
kilm
mokyklą
Kol
##lat
Aleks
##ūno
plan
direk
##orius
partijos
##angi
##auskas
kelio
##ae
mon
##iškos
##ke
įstat
##ks
Vilnius
pietus
##oli
##ūm
##okšt
paš
paveik
šiuo
reikš
##ąst
it
##val
##odo
laid
centr
1993
žal
##etr
vyko
Pagrind
##etų
##ėjęs
mokslų
##tus
pasak
pradž
##anto
##inai
atr
50
##ščių
##ančio
vokiečių
##eder
##tijos
##yskup
nel
Prancūzijos
Šal
Kor
##omin
stil
Su
##ektyv
##izijos
##raz
pavel
##ėlių
##aciją
##oną
rud
Alb
laimėjo
įkurta
##ifik
##inimas
paskutin
av
kurią
kair
kurioje
##ane
##sm
##iamos
ežero
Med
kiti
kiekvien
paprastai
nuos
##ytos
##aitis
##umos
apg
Un
##elg
&
Mal
##ūnų
##iuter
darbo
##aliz
1994
gyvena
provin
Ji
galv
##na
Vytau
1996
pasaulinio
pirmasis
mag
Nr
##agog
29
pradė
##erijos
Ol
##žd
##itik
2013
teor
##sko
##istr
##yzdž
šiaurę
upė
proces
##itas
##lyg
Gyv
pajėg
##olo
##atai
##artam
sunk
##olio
##etai
pavadinimas
##se
2014
##intis
##elyje
##ieg
vietos
##iblio
sup
santyk
ok
sudarė
mūš
eil
XIII
bendruomen
Buvo
mokykloje
##ara
aktyv
nepriklausom
##ell
katal
##tiniai
kod
fakult
##ėjos
##ėr
##anoj
Šis
##olas
slėn
40
past
mieste
##anija
##ką
##isl
##akt
visų
##ako
krik
šis
bažnyčios
|
##esni
mln
mirties
##icijos
Uk
įkurtas
administrac
užt
projek
aukščio
skyriaus
##ynų
šių
##ybą
energ
Romos
olimp
rem
pauk
nedid
ko
##oras
##osof
netur
būna
Eg
ilgis
##aidž
įkūrė
##onai
XIV
##dv
##audž
1940
dviejų
##iomis
##erc
pripaž
mokytoj
universitete
dieną
##ht
sukūrė
kryž
Pasaul
##ipl
sąjungos
šach
objek
##iaudies
oficial
vienuol
vieta
Kom
laiko
##arg
visuomenės
kaime
istorijos
aukšč
tinkl
Palenk
1975
kontr
vadinamas
Isp
gyventojai
##muo
##uvos
Kaune
##atą
ag
##ver
##rab
Jonas
respub
žmonės
lengv
##yrė
imperijos
rungtyn
##te
sąlyg
##burg
teritorijos
priskir
##abr
perk
biblio
##lis
leidž
Amerikos
Ši
##ščion
Nors
Palenkės
##engė
kelias
laipsn
gaus
##ne
Šiuo
##inamas
##50
kolon
Sl
ryš
##ark
vadovavo
koply
pusėje
##ykla
prancūz
Nep
Sąjung
##ula
##iacijos
padal
##aukė
##ciją
##tu
##atorius
##ioje
##uojama
Pol
##istat
klaus
Maskv
##skis
##alai
##uojamas
kompoz
kartais
versl
1989
ši
##imais
Ver
Jie
−
fiz
Angl
##eliu
kam
sukil
šok
sporto
##ow
Aleksand
##ojoje
##lank
sub
##omo
miestą
vaikų
mokėsi
##umų
ėmė
papild
##žem
Nem
visą
##avimas
##vo
dok
veikė
būtų
departam
III
apdovanoj
##ukus
Cent
šalių
kated
mokslo
##ivil
##ymų
švies
##iųjų
graf
įvairių
Pak
pavirš
atk
##alp
Nor
##enka
Aukšt
simbol
gimė
##arų
Did
Kat
sudė
mit
apskrityje
geležinkelio
2015
Ežer
Kart
ženk
##jung
amžiaus
telev
##ret
##radarb
salos
ankst
bibliot
ten
straipsn
skr
palaik
##mė
apib
##inėmis
garb
ha
trans
Ir
aud
##ultat
Kel
dinas
1944
##atos
##entai
##lem
redak
filosof
##amai
##ėtoj
##ata
##estiv
tekst
sistema
Te
XVIII
##ingai
##uož
ge
As
Bar
šachm
nugal
atsis
Panev
žuv
sūnus
##virt
peln
negal
žvaig
vidutin
Vidur
int
base
Ed
gyvenvietė
sc
##ąja
bank
formos
##ick
##erm
##ird
##aros
Šil
lenktyn
##iniams
##raukė
##nos
##erž
vaidmen
vil
2016
##ale
Apie
##atūros
##ou
31
laikais
Europoje
laiką
kuo
gyn
##oto
pateik
##ėžio
del
architekt
1945
##yne
##avi
Bl
##vard
metod
##aiš
link
San
##ess
##ininku
dvaro
##uom
veikėjas
184
muzik
##aktar
##iuoj
Vol
##sv
ped
##yvend
priež
gyvenimo
XVI
rezultat
##ja
##angos
tais
persik
##irg
VII
mirė
183
įtrauk
debiu
tvar
1941
funk
institu
kino
spaud
##olės
plotis
##ėjimą
Prie
##raž
atvej
##tė
Er
##atyv
pirmininkas
tris
paveiksl
nuolat
Ur
##iną
vers
##kar
priim
lyd
krikščion
Šved
elem
netoli
##inei
muziejus
##eip
apraš
##uko
komitet
vyskup
##uotos
##iausios
##ingo
naudojamas
Tik
##čiuje
tiesiog
sprend
Juod
aktor
##umb
dėm
karjer
kartus
komis
Vyr
krypt
įvyko
##imuose
Sm
pasiekė
pats
##no
##ation
finans
aikšt
##izmas
Mo
galim
##ados
##daug
atliek
egzist
išleido
lėk
patvirtin
suž
]
pran
rūšių
skul
##izm
didesn
duk
toliau
poz
##aur
mo
##alą
##eista
sr
##alg
mėg
ašt
Kad
pelk
autor
vaivadijoje
Respublik
Ger
ker
fr
##ūg
em
##ust
##yzdžiui
dek
##andid
mm
Mak
jėg
Čia
daktar
raudon
pedagog
[
##orių
šalia
Kunig
Re
Teis
##gi
išleistas
##dino
181
pietų
Str
##itu
1939
vakaruose
##racijos
##aną
spor
sep
##čią
tank
apylinkės
##iškų
režis
##ica
##acijų
šeš
gatv
Paryž
turn
princ
##sich
baz
žmogaus
kitos
##aisiais
##akė
til
tir
maisto
##tine
##iniam
##uosius
vadovas
1920
pasl
plauk
kalv
moterų
##ymu
temper
teka
pasirodė
##20
medic
vadinama
##inal
pos
žinomas
vyksta
##čiais
##eitė
##anos
##akas
##ingi
##inami
##ierius
”
Up
turnyr
##ininkė
bes
prijung
##eist
veikia
##inimą
festiv
plač
šį
įp
kilmės
##inar
##stog
##očio
Air
merg
niek
krašto
valsčiuje
##mečio
rusų
visi
kompiuter
nek
tęs
##anda
nen
##avė
Balstog
##chan
##ijaus
Mon
žaidyn
##tiniuose
inžin
titul
##vok
studijavo
Mat
šil
tvenkinys
konf
vadovauj
##tiz
panaud
paplit
##ienos
medžio
##što
užp
##lad
bals
intakas
Sud
##umu
##ystei
1988
graik
##iško
##ojų
dailės
produk
liko
okup
steb
krante
albumas
60
##inama
vardu
##ravo
užsienio
skaičius
atm
Saul
##iajame
provinc
##laik
##iolog
##omų
kelių
##kus
1950
viso
##išką
Th
1919
brit
Dabar
pločio
valdė
##ims
Kas
respublik
chem
susil
Balstogės
miš
piliakalnis
Bo
##iūl
##ijomis
TSRS
milij
uostas
##ytė
##ene
Svarb
Ram
Austral
##yš
##inant
prasidėjo
Sh
nur
vaivadijos
kariuomenės
dvas
įsig
priemon
##avimą
##ėš
##oblem
pietuose
##tinį
gamtos
sistemos
##anga
bendradarb
180
##iks
surink
Kret
Bend
##ingų
2017
Tel
##po
##yklos
Švent
##iov
##anai
valsčius
istorija
##onos
mal
kalnų
koncert
vienint
##inus
vartoj
##qu
anglų
185
palik
vardas
##bas
led
Kaimas
tren
treč
##oped
der
apaug
##eikia
##ąž
##erk
##ytis
##tį
reform
pin
leg
dalies
##liai
karą
išlaik
labiau
##erik
1980
##old
prem
parkas
##žiai
##rėž
trys
paskirtas
bus
##arch
##evoliu
dokum
Egip
vietov
išm
žvaigžd
##ionas
##rado
Pask
nuž
išrinktas
taur
pietryčius
namų
##iform
##land
Est
##struk
##berg
##ete
##stas
grįžo
anks
kiau
įlank
problem
demokr
valdymo
##uoksn
krauj
Gen
prit
civil
dis
##ygard
##eim
##alus
Gim
išd
šiaurėje
##ausk
eur
būr
sutr
lenkų
Lietuvių
siekia
##ubern
##ampa
##ona
##ario
##iški
psich
her
Pra
paskelbė
##enų
Paul
žiem
žinoma
1970
etn
##ilės
sing
##čiuose
teritorija
Lond
neį
galėjo
Joh
pradžių
Ilg
Mil
Kap
maždaug
##šių
##emat
##ulio
Diev
strukt
kalbų
Italijos
tuomet
Viet
komun
dy
##aliai
eina
išpl
pastatytas
nuspr
telk
komandos
##lav
##tic
inv
Lietuvą
sumaž
Pasaulio
plotas
jei
išn
laikomas
bar
##anijoje
##jo
šie
herb
##ūsų
išskir
##si
##iešk
156
##ėjusi
instituto
##ižym
atidar
ligon
dirig
susir
Dažn
šachmatų
Baltijos
sala
1918
##ašt
ląst
##eič
bl
skers
darbuotoj
veiklą
##entu
gener
LR
anksčiau
sėkming
##nas
##avus
Art
##intos
Niu
komanda
apygard
Jurg
žydų
laikotarpiu
vyst
liaudies
deg
būdu
kos
teatro
##eivių
atitink
smulk
Radvil
rod
savait
Kaip
auga
būdavo
atvir
daina
1985
nužud
##tab
##cijų
Dal
kuriuos
sugr
##andų
augalų
+
##jor
pristat
Ukra
kandid
cer
##antai
vėliav
##ota
Vokietijoje
valstybių
##inam
spalvos
filmas
##ynai
vienu
1960
atsirado
##ero
sluoksn
##uotų
Kunigaikšt
##ėnai
regione
išsk
prekybos
valdžios
##omb
narė
atg
Har
Panevėžio
##idų
pinig
##esnė
1986
35
1987
ur
apr
sveik
##uojami
atliko
karaliaus
Prieš
skait
prancūzų
##tasis
##ystėje
amerik
##ity
perv
žio
Jaun
##engr
##avosi
Ter
sid
mėnesį
pub
##ws
##esnės
##tinas
Didžiosios
##epš
buvęs
kryptimi
182
##uč
##džiai
Prūs
##all
stad
##oris
for
##eic
Stan
##iavimo
Im
##akos
##mę
Afrikos
nemaž
La
Mir
lėktuv
status
pradžios
krit
IS
kitais
atsak
##ąs
intern
pož
##tern
prakt
##jame
mus
visos
balt
reiškia
sem
karalius
Mik
Iz
padid
klubas
imperator
regiono
gil
##alių
##iajai
srityje
Latvijos
##učių
##atūra
aišk
dienų
##ber
##yną
sutartį
Tarptau
##eina
##gar
dėmes
##encijos
1976
Birž
tink
laikų
##skait
asoc
rūšis
Fil
2018
persikėlė
##uj
##ybai
apskrities
veiksm
įsikūręs
##ieč
1949
1982
panaik
fon
sritis
kilo
sand
##eriai
##yboje
##ole
##iad
mažiau
pavaduotoj
provincijos
##aup
Vlad
Arg
paveldo
sak
##istai
##ava
naudojami
##irk
kunigaik
##ančius
pagrindinė
kamp
vyrų
##ph
Rob
kitas
draugijos
sukurtas
varžyb
pralaim
##emon
##avęs
pasižym
##arl
##iro
archeolog
##alės
Min
##ėp
##orn
įd
##tojo
visiškai
apsaugos
Jam
##tarus
80
##icija
Lab
##ybes
susit
pirmoji
projekt
tre
Japon
inic
jai
Žemės
##inėj
Mag
Antrojo
##ojama
##dami
##ėlis
Japonijos
sujung
giminės
skulpt
narių
miškų
##ajų
##ijose
pietvakarius
įkūr
Suv
padar
ugn
htm
atsp
##rai
televizijos
Ben
##oks
varg
##auž
sukel
šeima
slap
##ilio
IV
Braz
kir
viršūn
1972
##ido
išp
Varš
konserv
##ein
soviet
##iausią
Sv
disk
~
transp
sienos
##ojus
Tre
##ūp
##otv
##ris
veiklos
##idas
1979
kodas
##iuk
Pirmasis
##ita
ef
kūno
Didžiojo
##ack
kadangi
pavard
##org
##šo
##utės
ištek
įstaig
##ingą
##iod
ženkl
Kinijos
##esnių
Mot
Nemun
stač
žmona
Kazim
dauguma
##štas
##ietis
Ner
pergal
tada
##tinai
178
##ovų
##istas
##onių
sil
1974
Lietuva
Tėv
Bažny
čempionate
Vengr
1984
žaidž
##tink
##mens
dur
Alg
radijo
Graik
##lor
fot
brol
##alį
keletą
kuriose
##ėlio
##rob
##eišk
Antanas
Sav
##iul
##ojimo
tipo
naudoti
trauk
krepš
suform
stamb
perkel
kompl
pramonė
Sant
priek
##utė
pateko
Jan
liek
rep
palaid
##čioje
žaidė
pasirink
Moksl
##va
literatūros
##uojant
kitą
Juozas
od
Pras
1977
pakrantėje
Lib
##ved
dang
kul
1962
##tino
atn
gubern
iešk
pagam
Būd
didžiausias
Gel
gir
Rusijoje
Net
miestų
Manoma
1973
kalbą
paslaug
senovės
##ystę
##erija
ep
##iausiu
##egor
150
mechan
##skio
1923
Ge
isp
##iąją
Vik
erdv
1983
Didžiajai
##ianti
1954
Dain
##umi
##ieb
##angel
##gd
1938
Marij
tams
##ron
Piliakaln
suteiktas
šalyje
brand
dešimtmet
ses
žied
Port
nariai
Kam
susij
užraš
Nacional
kompozitor
1963
##ith
1948
Baltarus
Bol
##yrus
vais
varikl
##ele
##med
Her
trijų
Ag
##iacija
Vienas
bėg
neiš
##abil
enc
Krist
dydžio
naują
medicinos
##enč
Lap
##ajor
1968
sam
gana
nurod
##obul
##ikloped
Šios
organ
valstybė
°
Atl
Myk
##atu
##arank
princip
technolog
inf
1978
Kiek
Mich
##ulių
##entą
1971
jame
katalikų
Em
direktorius
universitetas
##onu
1946
Prasid
taryba
šalyse
jaunimo
etap
##onus
baltų
antras
##ru
##tiniame
paraš
graikų
##ace
Sus
mel
teisę
dvaras
norm
dol
karalystės
Jų
##evič
##toriaus
##ėta
formula
popiež
vieno
mis
jiems
greitai
##antų
De
gerai
kultūra
Mor
##iuoti
Arm
Niujor
##uch
kapit
Kretingos
1967
##ardo
##ūnai
nacionalinis
##ietimo
##ardas
1965
##entus
70
Sąjungos
užim
##etos
##ign
##omp
Andr
vietų
##ajaus
Seimo
Stat
skirst
##akal
gyvenvietės
36
177
Film
gaun
Gl
išsil
praneš
Liubl
dž
ypat
jok
##ovi
##intų
Kos
##ajame
tautos
šeimoje
būs
lygio
choro
uol
Suom
Gv
2019
ryšk
Reg
Marijos
1981
##aks
pro
pagalb
##ite
Sc
##kot
##omai
##ėliai
Indijos
naudojama
išsiv
##yla
##ytojų
##ytojo
apskritis
taisykl
šią
##raštyje
septyn
##ėju
##pus
1958
viduryje
##iac
Tra
Os
supr
pakeitė
32
Mad
tėvas
##tiniu
1969
Nyd
pov
##ydavo
ugd
pusės
Ro
savarank
Bel
forma
valdžią
##ūt
piliet
koplyčia
Tol
##ymus
##10
##rop
##eicar
patalp
kain
prim
##dė
kilęs
encikloped
Bet
nug
##avičius
1959
1964
##enz
Ist
Sim
##iplom
susiform
susik
Lenkijoje
##vark
revoliu
klubo
kūrinių
Pop
Ven
Miestas
šioje
maš
neš
pės
gentis
nuot
institutas
Bul
mūr
auks
##ėz
užima
pramonės
Aukšč
pasik
Nyderl
upių
sukurta
Ko
pelnė
visas
valdžia
##ock
##vas
mač
partiz
Raudon
##toje
Vilk
sukurti
##tavo
1921
Vytautas
pastar
išor
vaikai
VIII
##eriu
1956
darbą
rūšys
sekret
500
Jul
albumo
##antį
##ydamas
organizacijos
##štis
1961
vedė
bur
##veg
krūm
##ynės
##rus
išaug
Kadangi
Nik
##kap
##ukas
pok
##inėti
Kazimie
Maskvos
##ma
##okas
Dz
reikia
rūp
45
ev
##lės
gamybos
paminklų
##30
LT
Berl
Hen
##ščiai
laikraš
Ut
Jur
jūrų
##ojasi
Vytauto
tampa
##ove
dirbti
Alyt
##http
##yven
uždar
šiuolaik
teik
##evo
Turk
Ryg
žiočių
##ieno
##ymai
susk
Dan
darbų
mol
##ūrų
hid
truk
Soviet
prisijung
##engti
1922
##uik
1947
vasaros
Šveicar
dab
pačiais
Liv
britų
jap
Pasak
1930
parlam
##mą
##arv
##avų
partija
##umoje
namai
atvyk
kuriuose
##irst
fig
1957
##aisant
pradėta
įskait
##uf
##azd
##strum
natūr
##rich
pusias
regionas
##aga
##ilas
keletas
labiausiai
##ons
Jono
pavyzdžiui
indiv
##organiz
priežas
dev
lot
apt
neat
rajonas
akademijos
##iatyv
Marijamp
dyd
sunaik
program
Suval
##mos
Gu
scen
##utis
##ilis
Don
##iuv
1966
sudėting
##inėms
Belg
eksper
bokšt
automobilių
##atus
filmų
gau
prat
tyrimų
##40
Ispanijos
tarpu
Ign
##tininkų
sistemą
statybos
##alyje
steig
Bur
Form
vand
##AB
##ionių
raid
##ėlės
300
##iškės
biblioteka
kitus
veikla
autorius
jas
Met
plokšt
div
kab
##ijoms
pabėg
siej
Brazil
kaul
parašė
saloje
daugiausiai
atš
Meks
##elę
top
Dauguma
Me
koleg
1795
Cl
kurs
!
sn
kurias
vertin
žiūr
##her
Ged
visus
literatūr
rūmų
puol
Eurov
pasitraukė
politinis
Liublino
Sam
##BN
Tautų
modern
mitolog
##ojaus
Istor
siekė
kompleks
##tinius
kuria
##tion
Mus
##ari
stovi
prezidentas
Dir
##onui
kiauš
##ybėje
pabaigos
įver
##enta
##ins
##iono
aštuon
diplom
ISBN
##ikr
Stanisl
išliko
##tinos
spind
##ėdavo
##ingumo
stand
įgijo
##ore
##ūrą
vidurio
Ser
koncer
aš
aukso
sudėt
Ber
##eliais
tvirt
draust
atveju
katedros
##itai
##adas
glob
Žaid
miško
1953
Stud
netr
##ary
pastatė
##olf
Baig
imperija
kita
ans
##la
reikalų
##ėję
pirmąją
##ojos
stotis
1936
darbai
##ėją
sostinė
provincija
##ulės
kapinės
##ando
žurnal
##laid
Vald
Tarybų
Kult
##ėtas
tokių
instrum
tak
##ektas
gyl
i
karjerą
žyg
To
verslo
pareigas
administracinis
nuv
Tais
Papras
Mol
##yc
centrin
išsid
dinast
kep
leido
rašt
užkar
Sir
matemat
##inč
Jei
knygų
ankstyv
Kiekvien
##džius
apsig
kovos
miestai
medžiagų
176
serial
##80
Ček
varp
##otų
##erburg
##raštis
ansamb
1935
##akter
Merg
klim
pert
salų
armijos
albumą
1937
piev
komiteto
##veik
##ente
Konst
##onio
Įst
##šti
##lų
##atė
atsk
skirtas
įsteigta
naf
Pam
Dub
klasės
arab
33
įsiv
##ertė
pozic
##usį
##onis
Kaln
saul
centre
Co
##ėdamas
atiteko
oficialiai
konservator
dainos
Prancūzijoje
##ainių
##andas
1952
minimas
architektūros
darž
kontrol
kapinėse
Sch
lent
įtaką
čempionato
1926
##mok
1933
Prezid
rūmai
kuriuo
sidab
##els
Augus
bendruomenės
Av
demokrat
##šn
dalimi
##onz
Pad
port
pasid
##orl
##ynė
VI
paties
duomenimis
feder
Amerikoje
##aiž
pasteb
Fer
metai
##oriaus
det
##utinis
įgyvend
##ąžuol
tran
Peterburg
hip
joje
##imos
##umai
prisid
##inėjo
##go
##ue
konstruk
90
laikoma
Italijoje
vaidmenį
Azijos
kont
Q
šlait
sezono
##ienų
bang
##ask
##aka
##kest
##iauti
tą
Aut
išvyko
1934
Kop
svarbus
sparn
1951
Bu
Ros
priver
pagrindinis
Argentin
prar
apylinkėse
##otos
paveld
konkurse
##ann
žmogus
##ęst
Of
Rok
Bern
Vinc
ąžuol
toks
UAB
##ieriaus
rinktinės
1925
##tais
Gimė
miškai
pirmąjį
##link
sąrašą
##ga
Vel
prop
Et
Arch
taikos
skat
##raj
rūg
##ikrin
##istro
prasideda
rak
##78
##dama
marš
plačiai
##iakamp
Šie
technikos
kategor
debiutavo
teritoriją
##erį
##alu
neturi
bibliotek
FI
geograf
##manų
John
įstojo
nemažai
profesorius
Kup
##ipr
##ibaig
kleb
##ūdžio
elektros
##eck
Jak
Iv
rest
nusikal
krū
1955
sudeg
##inyje
savivaldybių
##endė
##ymui
statyti
Prūsijos
įž
##ulmon
##aitijos
pasirašė
įrengtas
New
##ančią
teisė
##apo
sin
##are
##eles
žuvo
1928
dienos
##erų
##ienės
veis
įsak
##aitės
kelis
rinkimai
vadinami
##12
profesional
publik
Gir
srities
legend
Muz
Vit
pavadintas
įmonės
išskyrus
institute
##19
##los
Dav
pažym
##yp
Sut
Ek
nag
##tines
1927
LD
est
valdybos
##ce
Šl
amerikiečių
##ational
Norveg
lygos
pasiraš
##eikių
Vyriaus
apibrėž
mig
##ome
##orod
vasarą
1924
orkest
person
##usk
linija
rinkimų
##ikšt
34
##encija
pavadinimu
..
...
Pers
dyk
##iūnų
kompanija
pul
pavasar
motina
susirink
grei
##inamos
naujas
il
Gruz
silp
atnauj
vienos
daktaras
##ork
kuomet
žaidimo
##uman
drėg
bruož
##ova
Maz
vedėjas
kompanijos
pavadinta
##yveno
energijos
kg
##mių
tūkstant
##ient
cerkv
##agos
##elius
##inčių
##ezijos
vyresn
Krantai
paukščių
dinastijos
ret
Aš
europ
pirmųjų
apdovano
##oll
nomin
Sib
Suk
istoriją
##orf
##menų
įpras
##enis
pritaik
čempionatas
##ume
Slov
pasis
gyvenimą
teismo
##zd
##alb
pradėti
temperatūra
##ix
##omą
esantis
##aw
##usav
Pov
tad
medžiagos
##co
invest
šiol
##ūbr
37
branduol
1914
Kaunas
##dirb
žvej
term
pilis
##izacijos
dešimtmetyje
vab
real
ruož
atstat
##utinė
kolek
seminar
švietimo
##nam
Saulės
on
vandenyno
##eso
##reip
bažnyčią
##arm
ph
pačiu
##ice
žaidynėse
1932
##ož
##orld
##ex
##ybinių
Petras
kasmet
herbas
spaust
1929
Trakų
įtvirtin
miestelio
##uob
##ymosi
##13
priz
##eną
Lu
##iena
itin
Suvalkų
plyti
##ler
##ankos
dėstė
Austrijos
nepat
Alytaus
pyl
Kv
Ket
gėr
Šalia
##rut
konfer
studijas
gab
patir
bud
gyvūnų
##akų
anim
Aleksandras
Rud
žan
metal
ugdymo
##okai
##ūras
##andž
##istikos
skyrius
##ES
Tal
elektron
##etikos
domin
##olų
##ienyje
Kėd
##ua
But
daik
konkurs
skiriasi
aptar
Stas
Naujosios
lav
iškov
patar
##ath
##ūrio
atkur
politikos
##imosi
siekiant
Bud
tarpusav
##uit
gelton
juo
skaičių
paminklas
##bar
renk
Frank
html
naudojo
1943
vietas
prezidento
negu
kelion
38
šakn
paliko
org
##inoje
stiliaus
##yro
##toji
##racija
##ikių
atlikti
##ytą
Ob
##ačių
##th
pradėtas
ekonomikos
bajor
aukštis
valsčiaus
Švč
grupę
##įst
vaist
iniciatyv
pieš
##iejus
##ikaln
įvertin
##ide
##imams
Laik
##ali
Jer
varžybose
##eld
Britanijos
##idae
teises
##ėlap
sąs
pavid
##aja
Go
##esti
galutin
įsit
skelb
##ažiav
##ykloje
medžių
period
leidžia
##chem
karas
##ight
Ang
Gam
istorijoje
pietvakarių
mai
##erius
vidurinę
elg
eksped
nul
##uotis
visa
dešin
general
1931
apibūd
spaustuv
##60
##ione
svar
##cijas
Pastar
pj
įskaitant
Izra
##edž
požiūr
##kaln
rašė
žvalg
##anu
rėm
rand
##uog
užsi
Todėl
##inosi
##umun
filme
Biržų
##iud
musulmon
##arai
siau
##eigu
būt
On
įrod
negali
nauja
vanduo
##echn
Ph
Step
nusprendė
kurti
dalyvauja
##zo
Portugal
puš
termin
Rim
Čik
##avusi
papl
dešimtmečio
universitetą
##bus
keram
dolerių
nepriklausomybę
Ryt
konflik
Sem
dviem
nusil
Jame
se
##erta
knyga
##esas
byl
Ties
naudoja
##vyd
##eras
Savo
##evičiaus
gyvenam
užm
1917
organizacija
parapijos
tras
skirt
Nev
iškil
##čiui
##uojamos
fotograf
##imin
padėjo
duomenų
##tot
mik
stor
Ten
nepas
##era
pasiūl
##ybe
įveik
##eologijos
pavaduotojas
arkl
pašal
redaktorius
Viktor
##rod
##yste
tautų
stog
prodius
##endž
susilaukė
Veikia
Hol
bat
Žmon
atsid
Švedijos
pakraštyje
transporto
veiks
##ęsti
cikl
nežin
kuriam
##18
##jį
stab
kartų
įtakos
Liep
Anglijos
knygą
Sil
##akl
165
plok
ketvir
gyventi
Dievo
apgyvend
##ajus
##iauj
Flor
dirba
skirta
##apas
160
##fon
ministerijos
Didžioji
##demokr
Vokietija
##ovę
nup
##ango
rit
atsirad
##etė
##burgo
Skir
šalis
netrukus
spaus
##inu
Egipto
teigia
šaltiniuose
##usius
Franc
šiek
tokie
aplinkos
os
https
vidaus
sudaryta
##iškus
blog
##95
##onto
Kartu
studentų
##ėjaus
taut
apima
praš
apat
duomenys
##lug
##vos
##olių
##sias
##vietė
daugelis
suaug
##mų
Konstan
##upyje
keli
asp
muzika
studijų
dukter
rag
##ologija
kalnas
partn
##70
archyv
dat
Nemuno
Ry
karių
vadinam
kitose
75
Tam
strat
susijus
išleista
##15
žaidimų
##anso
##adien
Pirmą
ordino
##iškiai
##idai
##upio
manoma
mišr
##torių
ekip
Varšuvos
##elo
ąją
atsisakė
pagrindinių
didelis
1942
ark
smark
400
patek
##alos
##omet
konk
vadas
doc
italų
##iol
sugeb
##ikė
skyd
augal
##ho
##uolių
diena
centru
didelę
##erd
##son
ojo
mokes
Piliakalnis
provincijoje
genties
42
rasta
susitik
##ertas
1569
valg
paaišk
##ioms
##merg
Pirmojo
UN
Luk
##engtas
klasik
Isl
lib
Vad
skl
##uotuv
filmo
spar
log
siaur
vargon
##umus
##uodamas
##ge
mažai
tėvo
##aiko
Paryžiuje
##neš
buvusi
vietose
Grup
seniūnija
##hol
##ure
##cion
Sank
unikal
poveik
mūsų
vos
prid
Utenos
visoje
Nepaisant
##uotą
Red
##ajai
įrašų
evangel
##net
1905
senov
##agūbr
šird
##iuoju
Kul
Mart
Grand
pradeda
Serb
gamyba
numat
upę
naujai
vėž
##ogr
##otyr
gitar
padarė
pastatas
Intern
atvyko
##AS
##als
Sok
##iškis
didžiausių
ųjų
##intys
nutar
didžiausia
##ušk
Tarybos
bronz
išsaug
##iškosios
LDK
tobul
##uan
Dažniausiai
galėtų
muziką
##enį
miškas
##prin
##uočių
suteikė
##ao
vic
##ensyv
##aliu
##ėjimų
dvej
pulk
pusę
##atorių
dalyvauti
grand
linijos
##stituc
Univers
##ėlyn
tokios
Nar
##aizdo
Ežero
žemdirb
komisijos
vaivadijai
upelis
apk
paminė
lėš
##iestas
Liudv
Rusija
esanti
##tif
TV
bandė
kariuomenė
##ih
kitok
apaugę
pakraš
He
170
diz
1000
rezerv
sąjunga
Kub
##elėje
auto
##iprieš
griov
Marijampolės
susidar
Centr
lygoje
##AT
Bir
##žemio
akmens
##erto
##aris
AT
apž
##eo
##olė
##engia
pavyz
parduotuv
Kunigaikštystei
dailininkas
##velg
##anka
##11
ES
rytinėje
1915
Dom
cuk
ištr
suraš
##istras
žodžio
Japonijoje
įsikūrusi
##ierių
##CO
##skas
##otving
Telšių
##šv
kranto
fakulteto
Tim
save
baudž
##uro
Nap
visame
didelės
##ejų
programas
vik
daugelio
##ago
rau
##oros
patr
informacijos
163
advok
ed
Rem
mem
Petr
##alifik
##tinėse
Administ
pagrindinės
##FA
teb
##iausio
Dv
abu
kito
Biz
tapti
vyriausybės
gauti
Kultūros
nugalėjo
##arą
pastatyti
Len
liet
draud
protest
atstovai
institutą
dalyk
socialdemokr
Ras
##acijai
##adr
koncent
65
##yvavo
##ešimt
didelė
Pagrindinis
##uel
kuriai
aktyviai
##ėtis
siūl
kvalifik
krepšinio
FC
mės
##les
are
##audoj
Aplink
sezone
Valstybės
knygos
ribojasi
pietinėje
žemėlap
pati
valdov
sėkmingai
puoš
Žal
Ukrainos
nusikalt
55
##aigi
August
žaidėjas
pietryčių
kalbomis
Taurag
darbus
ką
pail
rasti
Miesto
kolektyv
užk
muziejaus
Ukmerg
pastatų
naujų
tal
164
For
##onija
naftos
spindul
šiaurinėje
reit
##irv
Šak
Liaudies
Ats
Prad
kvar
##ybinis
garbei
tikslas
plė
Žemaičių
##ment
Pab
##ininkus
sudarytas
##itr
pajėgų
įsikūrė
valstiečių
##usią
##imtas
Is
pačių
Australijos
sol
akmuo
amžiuje
sportinink
įvar
regul
žemes
##ašk
##astr
##iūnas
##90
Žv
Los
moteris
mokytojas
tų
##rinta
trūk
##25
bul
lauko
bendrovė
įsteigė
varžybos
Ank
##iūlė
##ji
##eiz
##ior
##usis
##iečio
jotving
dukt
spek
laivų
kolūk
grupių
perėjo
##žius
minima
vartot
Ac
Ren
autonom
apylinkė
##avimui
Pavyzdžiui
##ire
policijos
indėnų
atstovas
pagrindinio
##16
Gyven
##pat
##alaik
Tvenk
savan
transl
straipsnių
Ev
Del
galvos
Prasideda
ly
dydį
##ive
prijungta
rinkimuose
##ančiu
##iograf
sąvok
##uorod
masyv
##ojai
##autas
Sankt
teisių
pries
departamento
patenka
LS
Sup
užėm
##eich
esant
popul
perėmė
pavadinimo
orig
šaud
##dos
Will
turting
įsp
kapin
žemių
skersmens
ežerą
tauta
Elektr
pirmen
psl
Pavad
namuose
Sur
tvark
susipaž
versija
rodo
baigėsi
##da
nesėk
metalo
Pirmoji
seniūnijoje
##imti
Vaik
##ravimo
Šiaul
‘
##ušė
ketvirt
Ū
##ovių
plano
##aisti
##mečiu
strateg
Eurovizijos
##uh
Anyk
komerc
##ovos
roko
Gedim
##iojoje
ežerų
Mes
palyd
žemyn
buvusio
##eria
kav
tas
##amat
##iūtė
##ybinės
kada
Til
##ulp
naik
vėliava
smarkiai
Kryž
situ
griež
pirmosios
##ech
##lic
##efekt
##iesiems
bažnyčioje
išb
motyv
##onės
baseinas
##eter
##aniją
sprog
##ieka
tos
##osn
Afrikoje
##92
##uto
##ortas
Sn
ordin
tokia
vardą
apdirb
Ho
Įs
##esnį
ekspon
Mont
ispanų
Sid
kalnuose
pirmieji
artima
krašte
##izmą
##stitu
astr
gausu
##izacija
parengė
naudojamos
##tonas
Henr
pirmuoju
pavadinimą
##ran
##estas
##aič
##uta
ėjo
surengė
spaudos
technologijos
vam
biur
ateit
individ
##inui
Žin
##esl
kryp
susitar
pusė
reak
ministras
##inasi
##aičio
gret
##šte
##entais
##ytojai
savivaldybėje
##ts
120
dėk
Lietuvai
neig
stūk
klaid
Prancūzija
kalend
sugrįž
48
televiz
užtikrin
##17
##gres
taurės
175
diviz
##toriumi
skirtingų
punk
##ovskis
visuo
##dyti
taškų
##avar
pajėgos
Rod
kraš
Azijoje
Mis
1912
nugalėtoj
##ėnas
Kalif
Rumun
##iūrė
##agavo
kalno
##iras
Baltarusijos
So
trenir
įmonė
teatras
apygardos
##ey
fabr
lang
vaizdo
##algir
mūšyje
arb
žud
Darb
##usiųjų
Bendr
pinigų
Laisv
žurnalo
objektas
##tojas
Kartais
olimpinėse
##14
##ura
kaimą
##entė
166
Akmen
karalystė
##ils
44
##iskyrė
pasižymi
ink
Mieste
pradžia
##ytoja
kitaip
Priklaus
vakarinėje
##edant
augalas
įrengta
##amž
Įt
##ulis
Con
vokal
suskirst
meto
Viena
metrų
bio
karui
keturių
Car
analiz
pardav
php
##itą
##eksas
papėd
Teisės
##alt
##ukl
latv
inžinierius
Jas
antrą
efektyv
vadinamos
parapija
bern
nuomon
##anis
maiš
nesut
Marija
armija
vienetas
teritorijas
##jos
programos
##ekas
##ynių
Mod
susti
sutartis
parem
##nės
##ilė
##ini
Kiti
Vasar
Jonavos
Atlanto
pasiprieš
sveikatos
##gr
tarybų
##andos
rungtynes
##ioja
Tor
lem
kūrė
Es
Gint
salą
rekon
##aceae
plotą
gamint
antrasis
akc
parko
##igr
##eliui
palyg
Klaipėdoje
Sol
medžiokl
miestelis
Gard
Mazov
akmenų
SSR
pob
##stant
##ūro
lok
##ininkams
##anz
##tosios
asociacijos
pirmojo
x
kunigaikščio
43
##alog
##ovsk
lietuviams
##vyr
Tib
lit
palaidotas
1863
kinų
ruoš
žiemos
žinias
uždr
intensyv
kelios
pasaulinį
##ega
Šio
Zaras
brolis
archeologijos
atsisak
priž
verg
garso
romėnų
##ojas
puik
tikras
Jau
Viš
sign
pilkap
vyriausybė
laišk
darbas
##lap
IX
Bat
šun
##imties
Pirmieji
turėti
standar
susiformavo
rašytojas
dub
eksperim
bendrovės
dabartinės
Mer
graž
išteka
Af
##otan
##ybei
Kanados
mirus
kraštov
##eidžia
Šim
Mark
mokymo
Kėdainių
pasiekti
važ
svarbiausių
Social
prisijungė
unijos
tvirtin
pagrindu
dėstytojas
Administrac
##ha
##ekl
##98
##ausko
trem
Bulgar
visada
##alistas
didelio
##igub
Petro
dekor
keliu
tiltas
Arab
kaimai
sutrik
laipsnį
##eros
##esnio
pakank
##gas
gar
spektak
##įsta
##osfer
miškuose
įvairios
##džiu
laikomi
irgi
aptik
kalboje
Jungtinių
##ianas
pasiun
Kanad
##iančios
AB
1910
Kij
žemė
Vengrijos
stačiakamp
šias
upelio
Bon
singlas
filosofijos
##AR
Kir
1907
Žied
parke
sukūr
variant
Mc
No
##iečiams
##žv
##iančių
iniciatyva
bent
Napole
nutrauk
pagr
įlankos
tokio
Sovietų
##etu
kūn
##yksta
Maskvoje
šon
Kauk
news
gyvul
atsarg
sudaryti
mak
smeg
osios
mokyklų
rinktinė
##ekų
Jus
laikotarpio
General
174
##aldas
##rabuž
Bizant
##mar
##iuoja
mokytojų
vietinių
Sar
Žyd
##inimui
visai
Ežeras
Ul
##skrit
Marc
##iuz
##oriz
įteka
aptarn
žirg
medžiais
##unksn
dujų
##ančias
eilės
Kazimieras
vienintelis
Georg
žinios
##nai
kup
veikti
Kil
##opol
##yklą
Sof
portr
steng
##ininkystės
nariu
biolog
naujos
##uvoje
keliau
173
Mind
World
gale
įvairūs
Paryžiaus
47
kiet
senosios
Mel
##ūroje
Britų
Švenč
turėtų
Lazd
nakt
korpus
instituc
Aud
galiausiai
##ala
uk
pret
sostine
##final
tarnavo
asis
iškel
dėmesio
aukštyje
##iop
##baig
Jok
##ola
patik
priem
Mergelės
susijung
kairiajame
152
##acijas
įsikūrę
būdingas
apsigyveno
Šventosios
ik
nak
gaminti
neretai
Vais
skirti
gimnazija
Pe
##avimu
##edė
pakl
##adž
##elėmis
didysis
slėnyje
kalnagūbr
##iejaus
diserta
158
abs
dom
kalnai
žodžių
ac
Tom
prisidėjo
##ešk
Rase
eilė
šiame
Sap
39
##acijoje
įmonių
žaisti
Mazovijos
46
medinė
##avas
##ater
Abiejų
pavyko
##gos
Van
pagalba
apdovanotas
##lika
##ininką
pusiau
atlieka
##isto
miške
moterys
##elas
##iego
Mikal
dem
skaid
##ric
prefekt
Visi
pavardė
ugnikaln
cerkvė
titulą
fakultete
##ulos
jėga
##inskas
formų
vardo
iškovojo
##kop
##iaun
Pot
modelis
neturėjo
Paplit
##stat
dalių
#
##iamų
##ruoj
saugumo
medžiaga
mor
##KP
##into
šved
aktorė
projektą
##vės
Auš
1906
##abilit
apsup
klest
politinė
atstovavo
Paprastai
##amus
Bor
Zel
pot
##ercog
skiria
reikšmės
žaidimas
nepav
##abl
kare
partijų
##ajam
žaidžia
##urs
drabuž
##ukų
Od
##etės
Nov
šimt
##rah
pe
##etis
prok
stikl
gan
gais
metams
##endr
rudenį
kitomis
viršutin
##alė
##agoje
pervad
Gud
Vas
##iantys
skamb
genčių
Pir
Šių
Jurgis
geležinkelis
##inskis
Gyvena
Virš
dėka
##iamasi
stačiat
##sid
##tės
viz
Rink
##angas
žmones
susidaro
paviršiaus
##ričių
Pranc
būdinga
52
des
Press
patys
##age
Teka
##ojimas
Gelež
Imper
elementų
laikraščio
##leidž
Prov
Jud
suvok
kiekis
apval
gimnazijos
##auna
Mac
pėd
iz
jūra
supa
retai
##intą
Vieš
arabų
užsak
Šiame
dinastija
kosm
grupei
sidabro
Jėz
Londone
statusą
##raph
Leon
sukilimo
valstijoje
Škot
daugelyje
pakrantės
Plung
Romoje
##ean
##noj
##iano
Veik
intel
##imantas
lavinimo
gimnaziją
##iusi
kamb
programa
##unt
išaugo
##asti
Dvar
pavadino
informacija
##aub
zo
grąž
Didysis
sulaukė
Pel
lag
neap
uost
Vokiečių
Lot
Sep
ligos
Kolumb
pačios
##ovą
##esio
##uokl
dės
pasitrauk
##bin
##ybinė
draugija
##enh
kak
van
##aviet
asmenys
trečias
Fo
duomenis
stūkso
##otis
vidurinės
##andijos
automat
teigė
išsidėst
Vilkav
teorija
šarv
##iamą
Pro
plėš
kunigas
reikalav
Pus
Link
dramos
56
##ESCO
##irko
##orator
didžiojo
##tono
oji
žodis
būdamas
gimnazijoje
##tyje
cit
deput
Op
##umui
##uoto
gav
Barb
prival
chemijos
53
##alius
deiv
UNESCO
padeda
Armėn
garbės
judėjimo
kunigaikštis
Auga
trik
##ipt
FK
gyvūn
Formulės
Paskutin
##iuota
Kaliforn
Įteka
nuosav
Žalgir
58
Bron
Joje
valdyti
kaž
nuotrauk
Kinijoje
Ma
padėt
kraujo
naudojant
##izd
##omu
##ski
lak
privat
įsiverž
Nepr
Senovės
rec
##enčių
Ilgis
Indijoje
pirmininko
1913
vaikams
Ukmergės
socialdemokratų
##rąž
85
svet
##istinės
vyrauja
dešiniajame
įrank
##rap
vaidino
sūnų
Steig
Sudar
apar
plėt
##irdas
SSRS
chorved
dalys
aukštesn
Netr
##usiame
pel
Mokėsi
tarnybos
##sto
##inka
char
emig
vėlyv
##uso
##nis
Maked
Varėn
islam
kelią
pasek
Nyderlandų
geriausių
##ute
##šta
##ektor
Vanden
fantas
##ogen
tot
Bill
kūriniai
persek
##zės
155
Mah
pilies
##echnikos
miestuose
##ade
##imf
aptink
ja
ov
162
Šilutės
Ham
prig
dainą
##aut
##išku
Pa
600
1911
uždav
anti
kareiv
laipsnis
organizacijų
gimin
54
teatre
Jungtinės
kunigaikštystės
skyrė
##oso
##ikliai
iškas
sąsiaur
##žud
Žiem
šviesos
Latvijoje
1900
Nyderland
nac
jotvingiai
Lyg
##aukšt
bendrojo
##icos
priėmė
galutinai
##ęsta
168
1908
##iškumo
Sta
##andien
kuriais
pavaizd
von
##iukas
##iew
##istė
draustinis
##hel
pirmas
ren
##raštį
Lenkija
serijos
Netrukus
aktorius
režisierius
human
miestelyje
Rec
ledo
tikrinta
krikščionių
laiku
Santa
balta
mėnesių
atmosfer
santykius
64
daž
Tauragės
##ish
##uva
Ken
baus
įvard
užbaig
Mykolas
##utas
Chr
centrinėje
teko
geležies
tęsė
##egr
##odž
liud
sustab
rūmuose
netgi
>
privač
Mažosios
Rokiškio
politinių
Jį
Com
##ojant
pik
gaud
##inysis
Feder
telkšo
imp
05
Anykščių
Niujorke
pralaimėjo
##mat
##ytės
##ygl
##amžių
Oficial
įsteigtas
tiesiogiai
##mai
##autuv
##iuž
##engta
trop
Karalystės
valstybę
##okų
##otai
sekretorius
##BA
Balt
Seniūn
dienas
##ėra
##angų
##ėjimu
odos
karinis
##isch
Lik
medienos
##sen
kunigaikštystei
##vai
Pu
uod
tarptautinis
##ny
paruoš
Suomijos
##esta
buvusios
##atr
dug
mokslinių
imperatoriaus
žlug
patiek
##kart
individual
##ance
sank
gerokai
Nepriklaus
vabz
Filip
Katal
pastatai
Ast
klip
maz
greič
kritul
Kūr
Tada
ginč
žemi
virtuv
dalyvių
Bas
Vir
nuod
daktaro
##ekto
##har
mald
##ininkais
##iese
##štar
##augos
Lauk
operos
##dien
alko
1909
hidr
kant
išlikę
##toti
##amies
Zarasų
##usiu
interes
Viduržemio
futbolininkas
Administracinis
mokinių
bok
1904
Trans
projektas
##čias
lau
antra
koord
darbuotojų
##metė
apač
##odamas
Šiauliuose
##ančia
Grig
požym
liuter
ryšius
teorijos
vadinosi
dov
##andin
##ografijos
paskelbtas
##aku
##atoriaus
gul
nagrin
##ford
Mur
singl
mėnesio
##orp
##tifik
spalva
##uojasi
Micha
įsigal
ą
tirp
galios
vež
nerv
laikė
patvirtino
nuostat
##ainiui
drėgn
karinės
Argentinos
moksleivių
##ėjosi
Dalis
greta
skaič
bendra
pakankamai
##tys
programą
sparčiai
153
Tėvas
pareišk
veikloje
pėstininkų
Dis
Lau
bol
nyk
klube
šokių
patyrė
Part
Peru
David
gelsv
##ančiais
Inform
asmens
vyriausias
bomb
sint
dėmesį
vidutinio
Pagrindiniai
##evas
Rib
žmonėms
klausimais
kyš
##insko
muziejuje
imperatorius
##ūnos
plėtr
šiuos
##iavimas
Robert
pranaš
##jam
##jef
kraštas
154
Bab
Raš
fol
##ždžių
plunksn
Fel
suš
žemiau
tyrimai
##yklų
##eralų
##ionis
##uoroda
komed
knygoje
##egal
Sak
Krok
laikyti
mokymosi
Bag
Gar
##idės
##yras
Gro
ving
Estijos
Ex
trup
pasaulį
##DP
Anglijoje
Enc
kreip
evangelikų
dial
konv
Tomas
brang
klasifik
botan
naujo
##eliuose
vest
šalį
##tiniais
sulauk
fl
tyrimo
##ybas
įtrauktas
konsul
vidurinė
Gied
skry
nusip
Tradic
sutink
respublikos
Kn
Tišk
katedra
priimtas
paskelbta
##lov
le
172
siena
kairysis
##utr
krov
ambas
Vidurio
Fin
Kro
dvir
užtv
veid
Mėn
Andre
ištrem
63
##tojų
silpn
kariuomenę
##inties
ląstelės
University
##ibr
nepak
Respublika
derl
##iuočių
super
įm
##oriai
##iškoji
turintis
geriausiai
zon
Įkur
##enciją
tokiu
pavyzdž
akademijoje
Šeš
##icijų
##noz
##laiv
157
Lom
##uodavo
##ybinio
dvare
turto
Tuomet
lengvai
pakr
mūšis
chorui
objekt
Wh
Urb
##oslav
atsiranda
##agv
Panevėž
palikuon
platform
##ijimo
Karo
dvarą
saugo
įrengti
grės
##eidimo
##ese
myl
##ąsias
grupėje
pasiūlė
laborator
Sand
pavyzd
praeit
išlaikė
Biel
Kęst
pamat
##ingumas
hercog
departamentas
katalik
pavasarį
##ukai
Paš
atžv
užaug
piliakalnio
##ical
Hal
Rag
Palaid
Vladim
išvyst
dešinysis
partizanų
##ingu
Tir
Upė
gran
sukėlė
tvarka
Kras
šeimai
nukreip
įvairius
##ėlius
Auks
turin
##uosiuose
atžvilg
##inęs
Vokietiją
Išv
sostą
japonų
sodybos
Kanadoje
VU
aisiais
##menys
Komp
Ignal
chorų
nedaug
stovėjo
valstijos
disertaciją
ul
Sing
Plotas
mitologijoje
##omybės
objektų
keramikos
šaltinis
##auz
sudėtį
autobus
pasibaig
nev
##aulių
mėlyn
perdirb
psicholog
karalių
pakv
Rygos
stabil
regioną
nustatyti
##aikė
Bah
##eksual
leisti
paskutinis
##for
##ėjama
augo
komandoje
##aitas
Australijoje
Varn
tarpusavyje
kovą
reikšming
pakrantėse
##bė
Id
Dažnai
pievos
atvejais
būst
Bažnyčia
Lig
##atino
##pių
Dail
atsil
kalbas
1916
amžius
šn
##ajos
##parn
generolas
dirigentas
tikriausiai
žinomi
milijonų
##ižvelg
didelį
##štų
mano
##orb
62
apgynė
Korėjos
konfeder
##iso
grūd
artim
##li
Lor
lic
not
devyn
niekada
terminas
##aką
san
Bart
tarptautinės
##tol
Ją
Vyk
aplank
gentys
Graikijos
Peterburgo
kin
Lit
sėd
##tinei
Danijos
Raseinių
gaminamas
kaimyn
santuo
festivalyje
##ažu
##angą
##ažas
priet
ilgą
galimybę
statusas
atidaryta
stadionas
##ema
##erijoje
fakultetą
##sch
##etus
kau
##pa
##use
srityse
laikraštis
##ve
Do
##iūros
ilgai
karto
aviacijos
##ryž
##aidė
ministro
asmenų
dizain
salose
Bažnyčios
##inimu
tekstilės
##ten
duob
Vilkaviškio
95
Deb
Zub
duktė
pavald
reikšmę
pakeisti
paslaugų
santykių
##DE
laukai
Mindaug
aer
riz
##isiek
sukelia
užsienyje
Aleksandro
dainas
išsp
##manoma
atras
##iekiasi
##atais
Sin
mand
kaimų
sutar
pakeit
pradinio
Jug
fort
Ankst
namus
kapinių
objekto
original
stipriai
gydytojas
įvairiose
Pastat
kompozitorius
vag
##ivien
Andž
rezid
Dun
Top
##ometr
vyrai
Daugelis
išsiskir
įsitvirtin
##ektų
250
demon
įsigijo
praleido
##par
##autų
##iamojo
##istory
Dalyvavo
##epr
##apras
##ėjimai
esmės
Pagrindinė
augalai
žurnalas
Gil
vyn
šta
kriz
naktį
svarbi
kituose
didžioji
vienintelė
International
##utų
ta
pur
##esnius
kovojo
04
57
jokių
rajon
pavidalo
Merk
##oriumi
nukent
rinkos
vaikus
##akai
premjer
turizmo
projekto
##eco
01
Martin
bajorų
šalys
Antano
viduje
sunkiai
atžvilgiu
##ani
##aktyv
##iciją
##ėjant
žinių
tyrinė
stoties
studijos
šov
paim
Anton
esančio
##ley
09
##odr
##čiojo
##unka
##ku
pager
latvių
Karalystėje
##imal
bendruomenė
##adų
Hel
orb
Šar
Jurbar
komandą
prekyba
savaitę
darbininkų
##mi
##būt
##entui
būgn
fond
mašinų
Londono
išleist
kraštovaiz
Gre
molek
sienų
didžiul
di
įpėd
lotynų
simbolis
než
##eikal
atgal
Mykolo
savininkas
##yme
ginklų
valdovas
karaliumi
čempionatą
##torė
jeigu
Dem
Žyg
##ynuose
kritikų
Aukščiaus
##pres
800
Moz
##istano
##otyros
##atoriai
ląstelių
##amu
##ics
##iku
nuš
kašt
pertrauk
pirmininku
jur
geriau
simboliz
##anus
Abu
Nig
Turi
šventės
##učio
##ybėmis
Molėtų
##94
##vydas
Comp
drus
Kupiškio
##jė
##omus
125
maitin
architektas
Plat
atmin
Augustavo
Istorijos
charakter
##alap
az
apeig
vietomis
##VD
##orio
Mit
##board
##iavos
prak
Širv
skulp
palaikė
proceso
kiekvienas
##uoda
Paj
tyrinėj
mokytoja
koncertavo
norėjo
kuriems
trikamp
Kaime
##ilų
##ėlį
##aukš
pirk
##ingrado
kambar
##isti
Sub
Karolis
pasireišk
##adą
##nių
##ūv
pien
protėv
Centrin
vidurinėje
##ulė
išnyk
##omosios
ministerija
technologijų
##manas
ištis
saugoma
produktų
rekord
pagalbos
It
pakel
dvigub
procesas
Pun
##ėjams
vertybių
žol
smūg
scenar
##ingus
mokytis
produkt
##edo
Bial
Domin
padėti
Karaliau
Nus
ėm
sovietų
##kr
167
dreb
rašy
agent
Kaukaz
##ibų
vadinti
Mažeikių
Du
išdėst
lietuviai
pedagogas
##ney
##vėp
72
Osk
Jokū
laikas
bendras
66
žemę
spaustuvė
##iesti
spalvų
Nuoroda
kritulių
lė
davė
Rytuose
##alk
##eur
##rov
fas
##intuv
Kaiš
pakil
##lyt
LTSR
mūšio
teismas
vyskupas
Dep
draudž
poetas
sąraše
##acinės
batal
pasin
įstatymas
priskirtas
viršininkas
1902
kombin
pabrėž
kryžius
##ilijos
lankė
koordin
sudėtyje
##pos
naš
##imnaz
Išlik
žiemą
atspind
Nag
tema
vadino
Ignalinos
Pradžioje
##rd
##iokl
##ibl
##iumo
Pod
Žmog
žind
kopijų
##uka
Sti
kank
tvir
būdas
šim
##ojamas
antroje
dirbtuv
Jungtinėje
##ilv
07
Ispanijoje
įvairiuose
Autom
##uvių
Nes
susidom
suteikia
##aigos
juoda
Osmanų
##ence
raus
aprib
pripažino
##iukų
galva
nutol
##ere
##rui
dirvo
pavoj
valdant
paviršius
##bul
paver
Pietry
Teritor
Tvenkinio
administracijos
gies
##tajame
Pvz
išsilav
organizavo
06
nu
Rūd
šaka
poils
prarado
Izraelio
pietryčiuose
##iti
gatvės
slėnio
suvien
Meksikos
valstybinės
##odavo
tapat
##erbaidž
abiejų
tamsiai
grupes
prezidentu
##ords
šou
post
Olimp
balsų
##ininkui
##yto
liū
Karp
Vaid
plau
regist
širdies
41
tab
Klub
pavien
akademiją
##roc
##uolė
##kis
##iančio
Drusk
revoliucijos
co
didelių
mineral
išleisti
padaryti
##pras
Vain
Draug
Slovak
atstovauj
kontroliu
poreik
saulės
monarch
paplitusi
bronzos
##imb
rūgšt
pertvark
progimnaz
##96
la
užg
raud
kompan
##auskaitė
##oš
##ologas
dešimtme
##eli
##atui
140
##eiten
##iausius
Kaišiad
##itos
artil
apdovanojimą
##usiems
Sab
1903
##ilių
Jac
mink
išvyk
vienod
partiją
Norvegijos
Didžiausias
##alino
##istol
Kair
ploto
vyras
Didžiausi
gyvenimas
ribų
piram
konstituc
##my
##roje
Plungės
mark
Skuod
##avę
##ycl
##iudž
Lev
apim
##oliese
sąmon
tarptautinių
##aru
talp
atkūr
##kevičius
suimtas
Kazimiero
##izmu
Bil
##eryje
ilius
##ivyskup
sudėtis
įstatymų
nesėkming
##usas
įtaka
Varėnos
vykdyti
Algirdas
sostinės
Šiaurėje
sveta
kūrybos
dienomis
insp
Naujoji
##žb
You
##izuoti
koncertų
priežasčių
vit
kron
asmuo
šakos
specif
premija
veiksn
Pavadinimas
didesnis
##aičiu
pastato
seniūnijos
##ydami
šlap
milžin
habilit
##edik
ryšių
Ep
Žym
##viečių
dainininkė
temperatūr
##indavo
nemok
dideli
miestu
finansų
vienuolynas
fizikos
##tojai
eilėraš
Palaidotas
greičiausiai
##rof
filial
kunigų
##tur
apš
padėj
paskyrė
Rich
klimato
pirmoje
Niujorko
gauna
unikalus
##ico
##ejus
Ker
##uotės
##ėnuose
##uojantis
##uno
978
Stasys
būtent
dievas
##lius
him
priemonių
Brazilijos
##klaid
mobil
atitinka
##97
##ile
nun
##ytoju
skol
##toriai
vietoj
kitiems
pasienio
atidarytas
vidutiniškai
ord
##iklis
praėjus
##ityv
Tyr
##inskio
Šveicarijos
išst
jūrą
poky
žodž
Etiop
keleiv
šaltinių
##ii
pilį
palank
##ternatyv
specialybę
##ake
##emun
Spec
aukščiausias
##esnę
Anks
pietvakariuose
##iurk
##amųjų
rečiau
diplomat
Fryd
siun
##vardis
atrad
kitur
propag
taškus
mokesčių
Billboard
##fi
riba
Aikšt
išgars
02
Išt
Kurš
atsiv
Vilnių
liuteronų
76
Vaš
kasdien
prižiūr
##ėtė
sap
frag
Organiz
viename
tūkstančių
08
74
jaus
kūrinius
##uth
viln
keturis
filmuose
pavardės
egzistuoja
laikotarpis
##anž
##učiai
##elektr
kariai
susivien
##orų
##sis
dekoratyv
viduramžių
th
##anui
išmok
santykiai
Sat
##esanso
##onijoje
Dev
žarn
kerta
klasių
kraštą
negalėjo
popiežiaus
Miš
Rot
vain
koncep
pareigų
teritorijų
##ila
##ambr
interv
pirma
pramog
daugybė
##ėjui
lip
laisvės
pasakoj
čempionu
Vait
nebū
veter
##pas
SS
##avič
Dov
Nob
##aitos
ūkis
##encial
##ąjūdžio
stačiatikių
Kip
##ongol
buit
##adienį
Inter
sūnaus
sezonas
nustatyta
paukščiai
##anės
Laim
laure
Europą
registr
žaidėjų
paminėtas
##tame
Upės
komisija
apdirbimo
Bizantijos
styg
komandų
gaminami
savarankiško
Zig
pig
Black
vertė
##ela
67
##ančiai
Taigi
ištak
išėjo
##inantis
sutiko
atvaizd
automobilis
tūkstantmečio
##iauja
##ida
menk
viešb
jūroje
enciklopedija
##OS
##mes
##mus
##oper
laip
laikotarpį
##ham
##ulys
patį
pakop
tėvai
Sutuok
sistemoje
meč
įspūd
žvaigždės
##šev
68
##endo
Trak
papuoš
seniausių
Kroat
filmą
uosto
atsitik
Lo
keič
serb
reorganiz
socialinių
##93
Pub
Jose
03
GP
karinių
problemų
Mos
nieko
verting
okupacijos
##lauk
##omer
ligų
horiz
Žmona
Italija
##anta
All
austr
greitis
##edas
##ward
kaz
keit
##opuliar
Pakruoj
Sek
Sev
1897
indo
seno
herbo
išrad
atrado
žmonos
##okl
##iškais
Pranas
kultūrą
##omend
deleg
pradinė
mėnesius
##aib
vietovėse
Radviliškio
skal
Vienos
administr
Tokiu
skaičiu
surinko
tu
bel
##acinė
##ininkės
##iškasis
keliai
stilius
Kristaus
meistr
##sa
išš
kuk
Kita
kilusi
kaup
skraid
Sudarytas
##orą
fos
Knyg
juosta
##ivar
Hit
keturi
pirmenybės
Hab
Raj
kritik
Fl
Rug
##irurg
Vest
pieno
##ėjimus
Kalvar
dieninė
apylinkių
##amoji
vadovauja
Baz
Jog
daugelį
Respublikai
130
##ojekt
Čempion
išlaikyti
direktoriaus
##ūž
##štą
arg
##ėdami
Grįž
mąst
mokslas
turnyre
prietais
##ekso
##ulkos
hind
gylio
įvykiai
papildomo
##enoje
##erial
liga
siel
žymiai
tapybos
Hot
lauke
sezoną
taškas
##elbė
##ikus
##iečius
įkvėp
bruožų
plokšč
reklam
susiję
ram
##areig
paslap
intakai
tyrimus
leidimas
##eh
didžiąją
susipažino
bazil
pakar
bakter
natūral
Stanislovas
esančios
<
got
##vario
pian
išvaizd
sąrašas
mokyklose
##otą
##oksl
Laur
Darbo
slavų
leiten
puslap
susisiek
praktiškai
Šį
##iana
##iurl
Saug
##ovskio
Karol
rūmus
##epij
abi
nusi
tikrą
anglies
draudimo
Galiausiai
Pagrindinės
kiem
slid
##ira
##ordž
žuvų
kartos
koledž
Kryžiaus
esk
subj
Polit
vadovė
judėjimas
lygus
padėtį
Įv
##ėjime
būkl
Michael
sistemų
įvairias
įvairiais
Portugalijos
##uras
Įstaigos
valstybinis
##encijoje
panašus
remiantis
lieka
pritar
Gedimino
ženklas
straipsnis
##BC
51
##inkų
biudž
atstovų
mokiniai
Nikol
Airijos
driekiasi
1899
rieb
klasė
albumų
##vid
gerb
žinom
Pasiek
##tininkas
Jugoslav
politinės
##99
##iušk
##ionio
geolog
reguliar
##žos
78
Skr
septin
aus
##leris
Mold
klin
plast
pylimas
##ojęs
Luc
Juos
persp
Albumas
miestus
priimti
arkivyskup
informaciją
##ls
97
##avijos
vykdanti
popiežius
##osp
sinagog
žvejyba
centrinė
prieštar
##any
##enai
ide
nugr
tokius
naujienos
diag
nesus
Vilhel
reikšmė
Juozapas
Vat
Saus
sarg
federacijos
##iškyje
Giedr
koplyt
prekių
Belgijos
##ną
##uolis
Boliv
galia
visiems
nedidelis
##gor
##yra
##ikėl
Rio
Seinų
banko
Jurgio
ansambl
muziejų
##dar
##ony
00
##ilind
##rijos
medalį
užtvenk
Vyriausybės
prab
antik
Kazach
Švenčionių
##iamo
rėmė
##atuose
##espond
##ėjusios
Džordž
autoriaus
##inko
##iauskas
imperijai
pasitaiko
##su
##orc
pai
klaj
susijęs
##eičia
namo
švenčių
##nų
##ifer
motinos
##row
73
šventė
suvažiav
institucija
##agr
138
gėl
##mantas
apkal
Kijevo
žemėje
Ankstyv
##ėtos
##aikos
Mirė
dešim
politiką
susidarė
##ogo
##elia
Han
pažeid
Žemait
kiekvieną
88
##ieti
##bergo
ferm
pašv
Kelmės
kongres
lankėsi
paukštis
sh
##uitų
Sed
##dinti
atsisk
dalyvis
##enti
Paž
vėjo
##mingas
Anksčiau
susideda
Kitas
##iamasis
parodė
įlanka
matematikos
Kot
da
Ark
konkurso
padalinta
sąlygomis
##idr
700
Bog
debes
mokslus
Azerbaidž
Og
1896
kūnas
kulkos
skyrių
magistr
##uria
Sic
lėmė
hipot
musulmonų
žurnalistas
Kunigaikštystės
UE
##ongo
bald
serg
žinynas
Skirting
funkcijas
asociacija
abej
kaval
refer
Šioje
simfon
varžybų
rungtynėse
##aulio
liau
taško
choras
lenktynių
##der
kyla
knygas
kūrinys
Frydrich
fortepij
vadintas
rieš
savivaldybė
Nam
Nat
sūr
slėnis
##ankų
##igo
##ike
86
##fiks
dėž
##ijavo
jėgos
Neries
Ramiojo
koplyčios
pagrindiniai
##alinė
##europ
menų
Vietn
primena
priėm
gynybos
susikūrė
##paž
82
seg
##ėjais
esanč
štabo
centrą
kilomet
##kiem
Išk
neuž
Labai
salas
vandenį
plyn
##uoliai
dievų
paveikslų
##ella
Rev
##ederal
pašto
Paragv
plentas
vienoje
populiarus
##aum
Vals
Lapai
hidro
##za
##iškojo
lotyn
šiose
##eslovas
kildin
vienam
suorganiz
Kaišiadorių
##ement
Vilj
##ektorius
##indamas
bokštas
daugybę
Pon
skaus
Berlyno
Sokulkos
vandeniu
žiniasklaid
Lak
potv
Sapieg
baseinui
Universitet
teritorijose
##oat
84
sukl
Savivald
struktūra
Mick
York
Encycl
pervers
##⁄2
##odas
geb
1901
Siek
Dirbo
alternatyv
nacionalinio
##zi
##ugen
##dešimt
Vladas
tarpuk
humanitar
komitetas
vandenyje
svarbiausi
nacionalinės
sąn
Panaš
Čiurl
rengti
laivyno
##kon
juost
įtraukta
pusiasalio
##mun
Qu
Sum
rot
1890
finale
šaltiniai
##nė
##džiais
paplitęs
##nio
##ekst
##endžia
##ingumą
Adolf
Kaimo
lr
##ikūr
##raus
kanc
##iantas
patog
pirkl
staig
telef
privil
išspaus
sąlygas
čempionas
Bendradarb
parlamento
##uodami
programų
Las
gylis
gyvenime
parduota
demokratų
##kaus
ribos
##inėjimo
Prienų
veikėjų
Jurbarko
religijos
pasižymėjo
Kab
##anojo
masės
paštas
buvę
nauji
įteik
užimti
nub
##olito
juose
memor
tarpe
statūs
patvirtintas
##esto
vel
1898
palei
įeina
##vald
##umose
sulton
sąrašo
redagavo
perkeltas
dailininkų
##isi
##ings
Sas
Juozo
Kalin
požem
dirbami
sąlygos
##rūk
nuop
##izuotas
rašytojų
Ukrainoje
##ulo
Afgan
žiūrovų
pasirodo
varžybas
Toks
astronom
pobūdžio
seniūnas
##fa
##cho
##ietė
Leg
Miun
aprūp
dėlto
sugebėjo
##tim
air
mlrd
Kazys
Kongo
nepal
rūšies
##orai
##raščio
cilind
kolūkio
pozicijoje
politechnikos
Ta
Akt
UEFA
Grupė
grupe
papro
konsult
Sul
##ėjoje
##amžiais
##avičiaus
Joniškio
Išs
##ovėje
Band
atsižvelg
sluoksnis
##ions
Bad
1500
jais
sieną
prekyb
vair
nelaisv
Livonijos
interneto
Pur
firm
dangaus
regionų
požiūriu
##agas
##iauta
vadovu
Gyventoj
žvaigždžių
Lt
Kov
Not
mes
Mars
##istinė
pried
##iškumas
kamuol
Čikagoje
Buv
Hon
Rep
Vys
##varkos
registro
##eod
##šos
Deg
ima
nos
Gars
atrodo
kolonijos
Jun
slėg
dengia
ambasad
##pret
Rub
chorą
zonos
šveln
##esniais
sąveik
išgyven
##acinių
##egistr
Beveik
kalvos
Records
esančių
Ach
jėz
kauk
##icinos
klubą
mažas
rengė
urėd
kamer
vieni
akcijų
gimimo
rašyti
Būdamas
sostinę
energija
##fo
##hi
##pač
96
LK
Hav
kabin
moters
sodyba
Kav
epiz
lyga
vulk
spygl
##iuosius
##andijoje
sumažėjo
priklausomai
meil
medis
Ekonom
Filmas
##cipl
##cijai
sričių
Švedijoje
##ner
reljef
būdingi
išrinkta
aikštelės
##ife
Bob
##tiškai
orient
priklausanti
keliavo
Šiuolaik
77
##osas
Fiz
Got
##auskienė
Palangos
mokyklai
saugomas
sutarties
##lėp
##ori
išvež
##amosios
bendrą
prokur
įkurti
gamyklos
galo
perio
konkre
veikėja
komunistų
##arto
Mač
Užs
soc
pastov
##iuko
dėv
grybų
analog
paslaugas
##ram
atom
trak
Chris
Krašt
paramos
vokiečiai
##šas
Dur
Klim
sport
##ovičius
filmai
sėkmės
kompleksas
Brazilijoje
##udo
49
Lazdijų
skil
##cijoje
Visos
apašt
Pakruojo
treneris
##usias
3000
minė
atrank
##urnal
Graž
Pats
##alinis
##imasis
Sukūrė
žaidėjai
##kio
1895
lygios
##aipsniui
sąjungą
##ze
##oter
Bak
Sach
##oriuje
švedų
Baigęs
laivas
Berlyne
surašymo
respublika
AR
siuž
Gruzijos
privileg
lenktynėse
but
skly
tolim
##iamieji
imperiją
persekioj
Svarbiausi
vadovaujama
Men
apžval
##vių
Ost
##riniai
Indon
aukšto
paskui
dalyviai
papėdėje
##wo
##okio
ried
bangos
sudegė
broliai
##orė
Yo
by
##ambl
neur
sutik
jaunesn
spaudoje
##olit
pie
žais
iškart
industr
krantas
Turkijos
perkelta
perl
asist
politika
vienuolyno
##que
Lis
mom
##sburg
rajonų
pradėtos
pagrindinį
##olos
##ektai
kapinynas
Spr
Penk
limf
tilto
aukštų
dirv
Skuodo
mėnesiais
##andą
Vakaruose
Ivan
mast
vienetų
darbuotojas
98
##ovai
110
Wil
end
Parašė
norint
vadina
egzistavo
Daugiausia
eig
Amaz
turg
šiam
Pirmąjį
##mer
##iškė
##yvių
Ban
##ėtina
Balk
masė
Kitos
Jogail
iškilo
ceremon
dažniau
medžiai
eurų
skur
##ivaizd
Jėzaus
interpret
83
##rakt
koj
tiesų
laikui
savybių
pasinaud
pakeistas
##slo
##ingv
##ited
Išl
duj
šia
##ploat
Bank
Prof
Virg
pasiv
kursus
karalystę
##iok
##odis
main
būrio
vamzd
buvusių
##ise
##šnos
##utinės
aprašė
paplito
technik
Sos
sat
##ansas
mini
dydis
kokybės
nuopeln
išsiverž
##ips
Ot
##ican
step
James
nusiau
išsidės
Tarptautinės
stačiakampio
no
kūd
Kamp
karšt
magnet
Antrasis
pusfinal
87
Om
##omat
Tiesa
stilių
gyvūnai
išsiskyrė
festivalis
atitinkamai
##ulas
##ilank
kvadr
baigęs
išlaid
laivai
korespond
##fin
Charl
fondo
sunku
teras
nepavyko
##rain
lygis
sąlygų
pirmenybėse
##NR
rev
Dang
folkl
įvykd
antroji
antrąją
liekanos
skaitmen
Pirmosios
išpopuliar
##bio
Galv
Vent
##ričiai
valstija
pirmiausia
Gvin
dant
index
krist
Andrius
veiksmų
Respublikoje
##iąja
143
145
Ern
##ations
jungia
nelaim
svarst
variantas
prasidėjus
##oph
vykdė
Serbijos
objektai
##ante
kaun
tinklas
Automobil
elementai
politikas
*
##iab
##ili
Bū
##ynais
Šakių
Karibų
##uką
sfer
##uojanti
didžiu
sidabr
gatvėje
material
socialinės
59
ib
##ariu
priešais
ligoninės
har
Gali
Didžiojoje
##rių
##yvar
Kaš
Prix
verč
front
žvaigždė
priežastis
Ė
##urūz
Star
šauk
##amiest
Techn
formą
namas
Rygoje
##wa
##apė
##opo
VD
Kun
Rič
skyst
Gardino
dabartinio
kraštovaizdžio
CK
Sug
užl
supras
gamykla
##ums
##rito
menas
pusių
dirigavimo
##onė
##urio
apv
##aujant
parapijai
Ferr
##iškumą
Jeigu
Toliau
projektų
rinkinys
Šveicarijoje
##TV
##chas
##ėsti
Ped
##ilgai
##ydama
Apskrit
##arus
##ument
Bosn
Žeim
Algimantas
kunigaikštystė
##edamas
ištir
##evičiūtė
smegenų
chr
##teris
##aikyti
nesug
kariuomenėje
##mui
93
Ib
ATR
Tilž
Baigė
radio
tapęs
Vladisl
maršrut
pripažintas
Mic
drauge
tinklo
tvenkinio
institucijos
##opl
Cr
##over
FIDE
fantast
paveikslas
Aur
1864
Ypač
##ett
##avai
##hing
##iūrų
##ūdim
##ysčių
##alinės
##amasis
armiją
įranga
vidutinis
Koply
##GB
##lar
##ieja
##ytuv
148
ajame
chirurg
keliais
Šilalės
##iga
Raud
pora
kriokl
rekomend
Priklauso
valstybėse
##iajam
pačią
##istinių
fondas
medvil
History
##24
##IS
MC
Vab
susijusi
akademija
##bos
tašk
##itrauk
šautuv
nedidelė
datuojamas
gyvenviečių
vyriausiasis
##df
##ojami
Laiv
Liub
atlas
mikro
šokio
Povilas
žaidynių
užtvenkus
pens
dukterį
pasienyje
bendradarbiavo
##ATO
##aino
Kep
Sig
personaž
vaizduojamas
##auro
dvid
šešt
##acinis
##alinių
vykst
baltos
pac
fara
šakų
kaštel
dainininkas
##zė
##istrų
Tėvynės
stovykl
reformos
rinktinę
skirstomi
neutr
valdo
orlaiv
sureng
##atoriumi
pristatė
US
penkių
gausiai
siejamas
kiekvieno
specializ
vadovauti
federacija
aukščiausia
Hu
Še
išraišk
padėtis
tarpusavio
Britanijoje
##intį
##ynos
apmok
didesnė
keturias
kryžiaus
istorinis
##irą
Raf
faz
iškr
kompon
Latvija
išlaisv
##ininkystė
įrašytas
End
karų
##osiose
laivo
pistol
suteikti
lietuviška
##oju
matyti
ąžuolas
##TA
My
##imok
Aps
Naug
Reich
##ologiją
atskiras
mokslininkų
##timi
epo
##istika
neteko
pajamų
pradžią
ištekėjo
rūpinosi
##ff
##audė
data
test
finalą
įvykių
apaugęs
dirvožem
rezultatas
##iauš
1870
1871
Teod
gautas
daugumą
Juodkaln
poezijos
##aitai
Stad
bankas
plėtros
remiasi
atsistat
atneš
grįžti
rugsėj
##upis
kun
Kalv
priimta
tarsi
patenk
pasiekia
ilgainiui
##utį
korpo
įsakymu
Argentinoje
##akių
##eika
##ulyje
leidykla
lenktynės
##ezg
Buk
rut
Šeim
Palest
generolo
plynaukšt
tv
##opot
Sel
##plauk
Serg
valiu
Julius
garsus
įstaiga
sustiprin
##umbl
Far
bazė
Euroviz
kanalas
nepriklausoma
##ska
##isas
lapų
nuotyk
restor
žemyno
Napoleono
Prasidėjus
##iamai
##istams
##ėjusių
Žiedai
kolonija
##apt
Col
Gul
Kord
blok
vyro
##aičiai
stulp
senųjų
sritys
sąvoka
kukurūz
viršuje
Vo
1831
koal
##ieriai
##uodama
Netoli
Motinos
aukštas
turistų
paviršių
##imil
nav
tun
kepur
įrašė
Buenos
Konstantin
##ya
##iec
##upės
##iniui
1892
lėšų
įdub
liaud
specialiai
svarbiausia
##iukai
Verč
antrop
pergalę
##omojo
Oper
##iamųjų
Irano
Bialos
pirmos
smėlio
absoliu
klimatas
palyginti
##ša
NATO
Jeruz
prasme
univers
vietinės
apdovanojimų
Amst
lizd
##iškoje
aukšti
kardin
kontrak
karjeros
laikinai
suteikta
alk
Čern
sraig
pabėgo
atspalv
artilerijos
gied
Maist
egzam
savivaldos
##idė
##istu
indų
šiai
šeimų
Akadem
minimi
pranešė
režisieriaus
##ytus
Sent
##iūrėti
##tingas
atrod
užsien
struktūr
##zb
##ksem
##stam
##alais
pril
siuv
išsir
kiekį
netik
##yčio
mėsos
Adomas
skaičiaus
##serv
##ember
Chem
Land
Princ
scenos
panaudoti
##IN
##ydis
perž
Parlam
konsol
trunka
Skandin
Sw
pp
Bibl
gelb
imig
Aukštis
pelkėti
Jūr
Lank
fres
imta
chore
neaišk
aukščiau
Kiekvienas
Leid
galbūt
Sun
sužaidė
pilk
temat
Valstijų
didžiausią
##erė
vilk
Vasil
liberal
gyventojus
with
reikėjo
stiprin
sukelti
pasaulis
Edu
##edama
##ijonas
panaši
turinti
Geležink
rezultatai
grav
peiz
atskl
biograf
skulptūros
projektavimo
##utę
We
Cer
1893
1894
įtar
vedęs
##evičienė
##pe
##agys
##enda
##okos
##pend
Jank
plytų
žydai
valsčiui
įstaigos
##olą
pdf
Mokslo
Slovėn
pareng
sausumos
##eiti
Abd
sald
Paulius
kontrolės
Lad
dievo
gruod
kūryb
baland
gamina
laikomos
##22
##ioną
tit
Atst
Gabr
avar
Music
griuv
baleto
užfiks
Centrinės
pašventin
1889
smil
kaltin
pasukus
Konstitu
žymiausių
##eidė
Roz
War
lapai
funkcijos
paskutinį
kompozitorių
##ect
Mišk
dramat
laipsnio
##dan
bo
emoc
magistro
Varšuvoje
problemas
pirmuosius
Gran
Miunch
atitik
lėktuvų
paplūdim
povanden
šiandien
mokslinis
produktai
suprojekt
valstybei
##mu
##ape
##fas
##atės
Tail
padė
olandų
panašūs
paplitę
##che
laš
##audos
##ientų
Burg
Phil
tokį
tėvų
##audavo
neats
ėmėsi
išgelb
linijų
naujus
##fl
##hu
##žo
##odami
išre
vamz
bakal
neteis
nužudė
portug
veiksmas
Dn
##agar
##esnes
fiks
##ithuan
kūrimo
##inarijos
autorių
etnograf
konkursą
do
Som
apėmė
komunik
išvengti
##ingsn
tril
rašto
vaidmenų
žid
1880
Mūsų
brig
pjes
##iečiais
Vašing
mėgėjų
įveikė
daro
Leonas
centrų
rungtynių
Juk
##amojo
##elėse
1867
Neap
sodas
supil
Provin
statyb
išsidėsčius
##ėrė
##isko
##kamp
147
lyt
##ontal
paieš
Henrikas
panašiai
automobilio
##nel
Įr
Varp
mūro
virt
##ske
##ury
##iaug
##idos
Taiv
dist
vadu
Bavar
judes
laidų
plėtoj
visose
dainavo
pretend
Klaipėda
popieriaus
temperatūros
##zas
CD
sau
##iškėse
Kūnas
proga
Mintis
veiksmo
Raudonosios
##antu
##urgo
##esuel
Vene
toje
bolšev
palikti
Didžiąją
Pietuose
paskatino
##91
##dų
AG
Win
bos
vas
Gren
senas
technika
Venecijos
priemonės
frak
from
hindu
pasirinko
##ečių
##jevo
Ved
įjung
teoriją
girinink
įstatymo
##line
##usia
126
##austi
apdor
kūryba
Liuksem
raudona
greičiau
vaivadija
lengvosios
144
##yviai
žand
įrangos
##bals
146
rat
Saks
išlikęs
Japonija
svarbiausias
##ni
Sr
##iantį
##uolio
Norm
įsip
polic
sustipr
vakariniame
eiti
grojo
modifik
zoologijos
palaipsniui
Sie
Turn
veda
herald
baigiasi
išsiskiria
Pac
šventei
klebonas
##ūl
61
##iukš
Int
##ezija
##tuose
tonų
##istane
sausį
public
nesutar
statyba
archyvas
rinktinėje
priskiriama
konferencijos
##ave
##ioti
##ubil
Kud
##etinė
artic
dukra
prekės
tarnau
atsistatyd
Can
##istus
Jabl
Plan
ištik
jautr
parką
nukentėjo
vykusiame
mokslininkai
Ali
daryti
gitara
kontak
teikia
Ferrari
##iologijos
santuokos
##tųjų
Lomžos
Įsikūr
Kristup
Jungtinėse
Neg
pog
##usiais
literatūrą
Kh
##utes
Pok
kvėp
galūn
Egipte
įkurtos
Venesuel
##cio
##enio
Gur
1885
serv
tame
egipt
Viktoras
docentas
urv
##valio
Madr
Komun
roman
žanro
išleid
Radvila
vaivada
Rel
##oliai
Magd
idėja
serija
storio
skersmuo
sukilėlių
One
rūs
Lang
jose
spir
Greta
vulkan
modelio
##emb
car
įtik
Daina
žymus
baltas
Panevėžyje
teisininkas
##unas
žiev
Group
Vincas
sutrump
valdovo
vertikal
Armėnijos
vartojama
skirtingai
##ezė
##rot
##tui
##yšk
Gram
vado
sesuo
Michail
skirtos
žodžiai
pavyzdys
veiksmus
rytiniame
energetikos
hidroelektr
koncentracijos
##ER
pup
delfi
ornam
ekspoz
ekonomika
mokslinės
##ON
Nut
ent
galią
tikrasis
tvirtovė
atletikos
klausimus
sprendimu
tinklalap
studijuoti
tarptautinė
Bendradarbiavo
Gab
NBA
rastas
spektr
##ologinis
pateikė
rugsėjį
indoeurop
##mir
##oni
posė
žvėr
trečd
eksploat
jungiasi
aukštumos
Prek
Filmo
kolegijos
šventykla
##urys
Dob
Pit
balsas
Vienoje
griuvės
##aisykl
elges
karinę
priegl
prateka
seksual
turintys
struktūros
kompozicijos
konservatorijos
##oft
rūk
veng
##iavimą
paaug
paroda
lapkrit
Žalgirio
pėstinink
Prezidento
##eniai
Ford
viol
##entams
restaur
siekiama
Labiausiai
bibliotekos
Ketur
discipl
teisėjas
panaikinta
92
Nas
Komis
turkų
vertės
Akmenės
privalo
##vė
##mont
vaga
aukščiaus
##hem
Li
##omen
Sibiro
Apylink
Muzikos
ieškoti
sugrįžo
užpakal
atlikėjas
suteiktos
##vi
##imet
Daniel
galing
gydymo
Škotijos
Bit
opoz
##etriev
punktas
keleivių
Love
melod
prisit
tokias
Ona
##klaus
Deiv
Krik
kvart
Kandid
rekonstr
studijoje
Valstijose
gubernijos
##IA
##ėno
##ezės
Vac
Salos
suman
turnyro
susitelk
skulptūra
123
pom
džia
Žvaig
Karolio
memorial
naudotas
planetos
architektūr
##IT
##trukt
subr
laisvai
paskirties
##išo
##tiną
##zist
puč
Demokr
juostos
94
Nak
##austa
##uotus
Veis
ruda
pasikeit
išsaugoti
kyl
oje
hier
deguon
epizod
##etrieved
šachmat
mažesnis
rinkimus
nepaisant
Seniūnaitijos
##vora
Ald
Les
##ėjimui
žingsn
atskirų
pajėgas
departamente
##ėlę
JK
##ekos
pagrindas
##elti
Pik
##usioje
apsist
Kęstutis
komandai
nutiestas
##cent
##ipus
ert
Priek
mišku
Džonas
atlasas
##ogas
siekti
Augustas
kelionės
tradicijos
##erno
##tomis
atvirk
Austrija
funkcija
sujungti
šlaituose
priverstas
128
##iklių
kitu
skliau
Antrąjį
##ault
##etui
Vaz
sto
##amoje
##iolik
berž
slėp
pasil
rūpes
Vandens
trumpai
karaliui
##erys
durp
peizaž
Ispanija
vietiniai
studijinis
Žemaitijos
##aitę
##iūlo
##ilija
Smol
Paminkl
rinkoje
teigiama
įtraukti
##eikš
##palv
##ikais
burn
stalo
Kinija
iškilm
randama
Peterburge
##ов
##uar
##ule
God
Gor
Mem
##ėdama
##iųstas
Mikel
##tinėmis
realiz
##iamosios
birželį
##eja
Kem
Kuo
dik
kirt
sėkl
atpaž
Įsteig
bažnyčiai
##eil
##ynus
##ilnoj
Nilo
##bergas
##davosi
ekipa
vėliavos
valstybinė
direktoriumi
##enko
Lip
upe
komiks
svetainė
pakraščiu
##jai
71
Tun
##esniu
įėjo
kaulų
##encijai
ritual
eksport
palivar
tarnybą
Estijoje
įkūrėjas
Liudvikas
Austrijoje
Tiškevičius
institucijų
##zn
##ontas
Alfon
epoch
integr
meilės
vaikas
ideolog
naudojimo
teritorinis
##tam
Ru
##iene
1861
amžių
Baltic
metrop
krantai
##ales
##ieta
##tinų
##omoji
fragm
stieb
tiksliai
Konstantinas
##antą
124
##ienas
Bach
nori
##ongolų
kūrėjų
NK
lob
Žil
##menis
kažk
kūną
alaus
riter
trukmė
šaulių
atskira
išlieka
patekti
Čekijos
kandidatas
Pasiekiamas
Bes
Pin
Por
stiklo
kareivių
Rumunijos
pagaminti
portugalų
vyskupijos
civilizacijos
##uvės
litų
nusk
smėl
Susid
Karūnos
netoliese
pristatytas
Ned
##uvkos
apip
izol
mokė
antrojo
puikiai
tęsiasi
atrankos
galimybė
##ydo
TS
##amer
##tuvo
sekm
diskus
reglam
vartojamas
1886
##austas
laisvę
Maždaug
suklest
Švedija
bažnyčių
nutraukė
perkelti
stiliumi
Steigėjas
simbolizuoja
Ra
##amet
900
Gold
Gust
Park
gimt
invaz
##ezijoje
monetų
##uojančių
Ribojasi
pasikeitė
imperijoje
rekonstruk
##iap
##vis
##niai
Cez
Šią
1884
Trej
rekl
grind
kanalo
suvaid
viešai
titulas
šilumos
konstitu
prielaid
priežast
galimybės
renesanso
panaikintas
atak
apsis
aplenk
harmon
Sirijos
tradicijas
##indž
Vor
Krymo
išspr
Ferdin
kiaušin
kodeksas
geriausiu
pasakojama
priežiūros
valstybinio
##orth
Trump
keleto
pagrob
Sąjunga
lėktuvas
Pietryčių
##red
pu
##ival
eis
##imųjų
maža
rate
trečią
vaisių
žemėse
knygneš
dirbinių
enciklopedinis
##žiov
Berg
grož
spalį
būtina
ordinu
plento
pasipriešinimo
##CA
įkal
nukar
tinka
Tibeto
Svarbus
Robertas
rezultatu
Boleslovas
##gen
##udė
žr
##mann
buve
##iction
atėjo
klubu
Special
ligoninė
##ilai
Gent
kova
##cional
Minta
simpt
atkarp
aukštį
gruodį
pinigus
sukurtos
istorinių
trečiasis
##išak
##ition
##tinka
sent
įtais
koment
paviet
##anch
Mesopot
cukraus
nužudyti
Aukščiausiosios
##omųjų
Stok
Maria
sampr
video
sukaup
įkūrimo
Aikštelė
atlikėja
susitiko
įsipareig
##eva
Tap
##ingoje
##omasis
Lotynų
Rusiją
Italiją
pirmtak
medžiagą
Svarbiausios
XXI
##iųsti
Bost
Kris
Rock
caro
kint
nesk
Civil
tvora
šviet
evoliu
vynuog
esantys
vadinta
kandidatų
Prancūziją
padalintas
Informacijos
populiacijos
Soc
agr
supl
klubų
taigi
kolonij
privertė
Stanislovo
Ą
##ren
Mu
žie
##ijimas
infek
uždeg
Povilo
nacionaliniame
Cap
bit
##avoje
##okrat
1891
Adam
Patr
kilę
lemia
##istinis
susirg
baseino
statinių
susituok
istorikas
šiauriniame
##cel
##ynu
##anių
Bug
Karl
tipų
##iminal
Vatik
juodos
susikūr
priemonė
įrengtos
Vidutinis
##vel
Št
##ated
##opedia
persų
Kalvarijos
##stų
karūn
penkt
##ryp
LL
kūg
Alfr
Proje
##leidžia
įrašyta
pareiškė
versijos
šviesiai
Baltarusijoje
##iver
vyskupo
prasided
##olai
##ryšk
kred
##inanti
aštun
mūrinė
Pakrant
keturios
partijas
Karaliaučiaus
af
Sėk
lat
##iesta
Apol
Prem
lygą
Kaukazo
atskirti
dailininko
##TU
134
Der
Mam
Super
narkot
Švietimo
vietovėje
Bulgarijos
##eps
##rade
dūm
liepą
##antiems
vedėja
gyvenvietę
mažiausiai
pakviestas
Čiurlionio
Nek
suom
Aukso
kovoti
Mėnulio
karininkų
vandenyne
kildinamas
pusiasalyje
ex
Nav
Nic
res
Herc
##evičių
Babil
žiaur
Aušros
patais
William
lyderis
pasidal
American
pradėjus
kilometrų
nuopelnus
paminklai
Lyd
apyt
uostą
antrosios
##oka
##utai
Son
rim
##ology
galakt
intako
##TO
Čer
Meno
feod
imun
rado
Venec
ilgas
tikim
Nobelio
perstat
pateikti
Graikijoje
##čioji
sosto
nedal
netikė
tęsėsi
germanų
žurnale
Habsburg
lapkritį
##ilj
##itęs
##ovui
Sod
##amiesi
##etinės
kovot
ketver
rengia
žmogui
##rastrukt
pastate
##ionų
##iksas
##iūnai
atgim
srovės
savaites
tapytojas
Sovietmečiu
priskiriami
##ukaln
kort
Antar
rudos
Mongol
Naujasis
Meksikoje
festivalio
administracija
##bų
##inimų
figūr
idėjos
apsilank
Šiauliai
priversti
Alex
Leip
Prot
Song
pėds
Čilės
Kranto
deklar
svarbūs
Čikagos
valdymas
provincijų
##23
##žuol
padov
uodeg
glaudž
laidos
pačioje
dokument
santakos
sukilimą
Centrinėje
##27
##akr
##uvas
Cel
nov
und
##andai
Jord
Visų
kard
##ajoras
agres
metro
įtamp
ežerai
Verčiamasi
atstovauja
žū
hum
##oslov
nebe
samd
Eugen
atlyg
pranc
alkohol
liekanų
tikrųjų
standart
Mesopotam
Prezidentas
##ščiu
esą
##aldos
##ester
##čiųjų
staž
##inijos
mirtį
zonoje
##ininkavo
laikrod
geriausią
kultūrinis
Tu
127
##lerio
Cher
Term
pale
invent
pergalės
turizmas
perspektyv
nacionalinė
##lovas
balti
##yklinio
įsitik
##ografija
tarnyba
Konstituc
generalinis
##ats
schem
rašoma
vientis
nežinoma
apsaugoti
99
Fre
con
Prah
krat
nest
start
valdymą
potencial
##ci
##auga
BBC
##radas
Visa
atsik
japon
Bronius
Naujojo
apskaič
žinomos
Čekoslov
teisingumo
Druskininkų
iž
##emas
Bus
Seb
Jean
Marg
Ąžuol
Jablon
šlaite
Panemun
patobul
sumažinti
Paskutinis
##jaus
##ūnus
##ianos
##inusi
1866
drėk
kalif
karinė
aukštos
organizac
straipsnius
įgyvendinti
įsitvirtino
Hip
smail
upelį
likvid
maršal
baseine
valdovų
Kazachst
##erp
##fur
##graf
##ėnus
##šiai
Amb
1883
Vart
versiją
užtikrinti
konstrukcijos
##ernas
##ikinė
svyr
atrib
šiais
##uotojas
nurodo
įstaigų
atskirai
taisykles
infrastrukt
105
Kriš
abst
pikt
keisti
nustatė
savybes
deputatų
##anio
##ėdis
Rap
dvejų
nenut
paprast
pagrindą
kapitonas
užkariavo
Dus
Andų
magn
Švėk
antros
balandį
##iumas
prir
planą
klubai
malūnas
perdavė
didžiųjų
horizontal
##ijui
##ušas
Tat
Žydi
##iaciją
##iautas
Pasvalio
galimybes
Ok
įgal
apsir
aktual
aktorių
Mindaugas
mokytojai
rajonuose
##ón
##eton
Egl
Anot
##ingais
Atlik
žuvis
Taryba
atgaiv
didvyr
lygiag
Čekoslovak
organizuoti
universitetų
##ardų
Kuršių
Lenkiją
nepapras
katedroje
##ple
##tag
Dag
Lim
##apija
##damos
##iuntė
kenk
park
vykdo
Sutuoktinė
##alc
##emo
Garb
Herb
Liter
kaina
Tarpuk
žaidimą
ekspedicijos
uog
1888
Bang
Kast
Romą
##alijos
koloniz
neįpras
naudotis
kraštotyros
##mano
137
DVD
mačą
##ograph
kilmė
Suomijoje
dabartinė
##idge
##tini
Cor
rub
tie
##emont
##čiams
klav
Spaus
suder
##aliuose
dešinę
garant
potvyn
patrauk
apygardoje
lietuviškos
architektūra
kub
##ardis
Stef
gegužę
PS
rif
##ojimą
perduoti
rašytojo
regionuose
tradiciškai
suorganizavo
##uls
##emos
##anoje
Sala
išsik
gamino
serialo
valdovai
Būt
kvap
##iamoji
##ažiavus
didikų
modelį
pusrut
inžiner
vietovė
Mikalojus
netaisykl
##aso
##ebo
##atis
1818
Glob
sužin
Įvair
Švies
gramat
atsidūrė
išteklių
ištremtas
fantastikos
##ott
##ovu
Eu
Ke
Vl
##eckis
grob
Pasir
Tokie
kosti
nacių
šešių
##way
##ensas
Gaus
Pris
Salv
##utinio
islamo
leista
Katalikų
galerija
ilgalaik
rugpjūtį
įsiveržė
darbuotojai
##uotė
##ensko
Vykd
trag
vaidmuo
Įkurtas
leidybos
vietovės
##rantų
akis
turtą
Kongres
padėties
referend
vyresnysis
lygiosiomis
##ačio
##štos
Ass
##iakūn
atvež
vitam
parodos
skyriuje
stadione
##nd
##hen
Tart
##ininke
dvejus
pardavė
pastatą
parodoje
vidurinio
ištekėjusi
Aj
136
Mūš
tūr
siur
##etinių
poros
smuik
vario
atvejų
olimpiad
kiekviena
skiriamas
##TS
##ogl
##ičių
##vest
1860
Rafa
organų
praras
Šlaitai
skiriama
išsidėstęs
krikščionys
##elf
Gra
manė
trib
gyvulių
merginų
veikėjai
aplinkoje
##ulį
##aime
##ield
Bub
Dol
Vers
West
likę
slov
karinio
pagalbą
žurnalą
Sąjūdžio
##lus
##iros
Tak
mete
naujaus
įvairaus
priskiriamas
##aitų
Mian
toli
vyno
Šalč
Arist
išpaž
tenka
##angomis
nusprendžia
##uku
City
rait
trau
Times
galvą
įgalio
Richard
ordinas
sportas
valandų
žaidime
valdžiai
geriausias
##ca
Klas
taurę
##čiausiai
pereina
##MA
##ebr
Vin
##ituan
intr
temp
ojoje
sritį
Naudoj
baroko
numatyta
čempiono
pirmininkė
populiariausių
##arag
##rašė
Alk
kūdik
teatr
skirtą
Bielsko
pačiame
poveikį
rinkinį
Krokuvos
Persijos
Gediminas
135
Kim
1807
Fern
krem
liniją
atskirą
pasakoja
spektakl
Retrieved
Kolumbijos
organizuoja
##iejo
##jeras
išim
sekė
Įmon
Frans
Stamb
kojos
tikro
kurtis
lyguma
Vienint
##ininkyste
religija
laikraštį
paviršiuje
lietuviškai
350
Kok
##ajuje
seka
##kalnio
adres
bando
taryb
truko
##audamas
laikin
Salantų
nuteistas
pavadinimai
##ju
ož
lazd
solo
leistas
koplyčią
poziciją
režisier
Um
##tain
##iebas
1815
Kūno
sniego
sutvark
rungtynės
Kalifornijos
##yčių
Rak
Ugn
Džeim
pelkė
pulko
tikra
##šventin
antrąjį
kultūrų
Gyventojų
problemos
Gyvenvietė
pasireiškia
habilituotas
##itus
##alter
Herm
##uotųjų
išnyko
metodas
studija
įstatymą
##yna
etape
šeimą
Grįžęs
Gabriel
pietiniame
##una
##yga
##atem
Kauną
Reino
Popiež
nesugeb
Pranciškus
prijungtas
automobiliai
##šą
##ange
Maks
suprat
tvarką
priklausom
##own
##ugv
##tyse
133
dvy
Čar
Berž
akių
prapl
George
žvalgė
minučių
šventyklos
tarptautinio
##oth
##audo
##inge
Lat
##lando
1865
ėjęs
##amblio
##izuota
Peter
alkoh
Malaiz
Pavirš
ukrain
Centras
įvardij
##eve
##trop
prūsų
lengva
pasisk
Augusto
judėjimą
reikalavimus
čempionatuose
nepriklausomos
##auš
69
81
##iovė
Anat
##ection
gaben
slenk
brolio
pervež
Laisvės
struktūrą
##ėc
##eriais
federal
Etiopijos
Juodosios
pradedant
vartotojų
##nus
##iauk
Kač
mau
Šum
##ankst
susig
kriter
dešinėje
paveldėjo
religinių
##pin
Žuv
deng
tikrų
Dievas
kautyn
##ye
##gio
##auta
afr
2020
Perk
##ojamos
##entinės
tarybą
palaiko
saugomų
uždaryta
gyvenanti
nuspręsta
gyvenančių
##aido
##aite
115
Spe
Užp
groti
atkurta
nekilnoj
paminėti
##28
##idą
Ana
Mau
Coll
United
ministru
sostinėje
pasauliniam
veterinarijos
Oro
ekr
salė
##ėliais
deivė
švenč
populiari
ekonominės
Tarptautinė
##aila
Des
##oniją
žymi
Antra
kalav
porūš
##ulų
Jup
##yklose
oranž
Klubas
sekund
##antė
Drag
dinam
membr
Juozapo
dideliu
jėzuitų
saugomi
Prancišk
advokatų
krypties
##eth
viską
išaišk
Amsterd
pirmąja
Naujojoje
menininkų
##tle
##uotu
##onais
##tinti
##iesčio
penki
nutarė
pamažu
užpelk
monetos
Martynas
##ck
##ešo
##arių
Čil
Hamb
išvar
gatvių
reiškė
laimėtoj
sinagoga
nominuotas
vadovaujami
##ID
##ger
dz
Roma
Geguž
rinko
skydo
Žagar
pasisek
smulkių
piliečių
organizmo
sunaikino
išver
kiekio
nesėkmingai
##udž
vy
##olėje
##usiam
1874
Carl
antp
trimis
##iausiais
mergina
laidojimo
kW
118
Maj
gov
britai
narius
pailga
seniau
penkias
valstybėje
rašytiniuose
Mig
Rol
##estiž
gaub
Minsko
džiazo
filmus
romaną
sutelk
svorio
politinę
tikėjimo
##atl
Den
1881
Elžb
Stor
tend
tope
zona
trečia
elementas
##pai
##yre
Hels
būta
ledyn
malon
energiją
išsilavinimą
##ct
Rū
Dre
Pek
##ionai
recep
##ančiųjų
Spėjama
klestėjo
kontraktą
piliakalnį
Są
Merc
##avusios
Išvyst
penkis
atlikėjų
centrinės
##alš
##lys
Ox
Hond
senų
Šach
Leido
tankų
Maisto
išreik
juodųjų
elektrinė
pagrindinę
##iūk
1882
durų
kojų
plėšr
išband
kalbama
Aplinkui
spausdin
paleistas
##itz
EP
etmon
kitoms
įvykius
kalėjimo
skulptorius
##ykšt
Ekv
Tan
dėd
##atinės
niekas
iliustr
kuriant
praktik
rajonui
nelaisvę
dainavimo
mokytojavo
##seud
Rūm
vol
##ijuje
Anti
įsim
greičiu
stipend
aikštėje
skirtingas
##hl
##pn
##tv
##iva
##ičės
ekst
užsid
Antark
prarad
atkurti
skatina
rungtyje
sprendimą
##uvka
Ira
epid
baldų
molio
Puerto
##21
##26
##de
##iemen
##vietės
klasic
pagerb
protok
susidūr
kompiuterių
priežasties
Mi
##ervos
bangų
ženklų
būdingos
premijos
viršūnės
kraujagys
Jugoslavijos
##pą
##otn
Pač
fac
proz
jubil
Instit
Charles
savanor
Žmogaus
faktiškai
pripažinti
gyventojams
##egov
Kod
baim
maks
Urugv
Septyn
gyvybės
parapij
National
pakrante
redakcijos
instrumentų
##sė
##eri
##rės
Ug
pū
##ital
##ūdis
Bro
##metis
Mend
vasarį
numeris
suformuota
##IC
Alp
Lag
1812
1830
Play
Tour
dangų
nario
Teismo
Virgin
proced
medinis
skulptūr
olimpinių
visuomenėje
##uss
Tų
Tas
Konc
būrys
ranka
krūmais
Trejybės
pasirinkti
rezultatus
Makedonijos
##EN
Koš
King
skyl
##eiviai
aikštė
idėjas
vadybos
įmanoma
emigravo
rūpesčiu
dokumentų
leidžiasi
pavaduotoju
Rog
1848
1875
Kazlų
paral
grafas
Populiar
partizan
Vincentas
patarėjas
ypatingai
plokščiakaln
universitetuose
Je
Jai
plyš
Mianm
sumok
grįžta
prodiuseris
##rė
##antos
1876
Maur
Naud
alyv
apsak
snieg
##servator
Gvinėjos
didesnės
Elektrėnų
##cų
##rat
kond
Artim
kitoje
gamybai
patelės
įsigyti
ženklai
galimybių
nužudytas
produkcijos
##ets
##stis
Apr
Gaz
##alnio
##aujos
##burge
##ikinės
##iškųjų
##rickas
išsipl
svoris
baltųjų
būstinė
įšventin
ekspedicija
##ube
##aita
Arn
Zen
##adino
tiur
algor
augti
slėnį
šilum
aerodr
rankas
Pavasar
Departam
elektrinės
perdirbimo
##ėdų
bed
Brun
Life
##iuotas
finiš
įvedė
kairėje
dabartinis
##olu
##opas
Rek
FIFA
eros
trim
Lithuan
Marcink
pasiskir
turnyras
Lin
##inėja
1862
##tintas
erdvės
užtais
vertėsi
negalima
pavadinti
Kaul
inst
įdieg
Pauliaus
parodose
pirmąkart
filosofija
dabartinėje
##han
##iša
##uvą
Hug
##iulis
##uotojo
Visas
herbą
ispan
sukon
žmogų
kooper
auginami
pirmajame
Skirtingai
##oku
##šal
##ande
##ščia
Sūd
##galių
1878
foto
gint
sužino
Vladimiras
kunigaikščių
##aman
VDU
mer
##ickis
##ience
1887
mieg
Jūros
raštas
algorit
mokytoju
Krikščion
Pietvakar
pagrindiniu
##ymais
1868
Bagd
Karel
tinklą
daliniai
Archeolog
Aukščiausia
Sa
##iečia
Fort
##itetas
arist
##entinis
seriale
Klimatas
leidžiama
suaugusiųjų
##šl
##ėda
Bars
puod
##ainiai
##burgas
##iančią
kairę
##entifik
juodas
pilnai
prestiž
spręsti
Įsikūręs
koncertus
projektus
taisyklės
vaizduojama
##AF
Bio
Hain
##aliaus
##endrin
dujos
Grammy
Spalio
bendro
prilyg
vadovo
Company
Valdant
stengėsi
##hn
##til
us
May
Rūdos
Krikšt
užgrob
medaliu
romanas
valdoma
Paskelbė
kuriomis
leidinių
savaičių
transform
lietuviškų
##AN
Ašt
News
tuos
primen
ruožtu
skonio
Paryžių
kūrėjas
nugaros
savybės
vaisiai
aikštelė
gamyboje
variklis
Britanija
pulkininkas
Mog
ibn
##irsti
##ėtojo
Radio
patyr
abipus
paramą
dalelių
prekybą
stotelė
Užsienio
autoriai
miestelį
rinktine
##esk
##akoje
paklaus
moterims
pasitelk
pirmąsias
Pj
vak
##atinė
sąsk
turnyrą
apačioje
policija
apdovanojimas
##ск
##low
##iežuv
1800
postą
profil
Benedik
##ingiausių
Albertas
grafikos
Sąjungoje
viršukaln
Vengrijoje
operacijos
sunaikinti
prag
Edvar
skatino
visuose
bakalauro
Daugiausiai
pervadintas
Eurovizijoje
##urt
bil
Žib
##etinis
kovoje
aktyvus
autobusų
dviračių
##zy
sind
Boris
kokia
##inčiųjų
mokytojo
panašios
parašyta
žemaičių
parapijoje
Atr
Det
švar
Parke
gleiv
rankų
Mokykla
truputį
netikėtai
Šiaurinėje
##lig
##port
##zbek
pet
Brius
kūrinį
daugiam
laikosi
interviu
kūryboje
nusiaubė
paminklu
užkariav
skulptūrų
Encyclopedia
##esa
Fab
kėl
rai
Tokia
mažos
iškėlė
lygumos
perduota
padalinys
tvirtovės
apdovanojimus
##ball
##adėjo
##iterp
dėsn
tipas
pasakė
##uliacija
kryptis
lėšomis
studiją
medalius
portugal
mergaičių
Kaliningrado
##uck
##vio
##emin
##ikui
##juos
gro
##iklius
Kilęs
##ekantis
planas
leidimo
poilsio
##rož
##icės
mačo
name
laida
žalsv
##ibaigus
Tautos
mazgas
vicepr
aplinka
laimėti
skyriai
vadovai
laipsnių
##eiš
##aise
Led
##ickas
kalnus
meteor
spausd
įlanką
draugas
miestui
pajūrio
totorių
trečios
Nyderlanduose
priklausantis
##46
irkl
ratų
nenor
Modern
tyrimas
Alfonsas
Zubrickas
##izas
##uros
Jad
jėgų
Sokol
armėnų
auditor
žaidimai
atmosferos
pradininkas
##izg
laz
tib
##presion
Būtent
##ančiomis
raudonos
renkamas
pasibaigus
Piliakalnio
populiarumo
progimnazija
##cin
##jev
##yja
Ann
joms
##alinio
drama
##ininkių
išgaun
rudens
##ictionary
sudarytos
chorvedžiai
Gol
Grin
lauž
Roman
jurid
ryšio
sūnūs
kontor
civiliz
Šiandien
žmonėmis
tradicija
mu
##ikams
Tikr
lygį
Elena
Vadov
priekį
chorams
pakopos
istorinė
lapuočių
sprendimas
##ea
##akis
Vic
5000
darė
kilmę
##istinio
klubui
##uojančios
Mikelandž
kontroliavo
Ec
##epar
##iava
##tose
Metų
Pram
kapų
pailg
būdais
ištakos
nuomone
laimėjęs
vaidmenis
dešimtmetį
Aukščiausias
##pil
Graf
##tačius
##iolikos
##iškomis
Gvatem
esantį
prievar
gaunamas
suprasti
filosofas
naikintuv
valstybes
pripažinimo
##US
##utos
##verb
Tul
sel
svaj
##ybiniai
aiškiai
atskiros
milijonus
##ūmė
##auto
##eikė
##iūra
##jero
##manu
Alž
Hig
tro
##aryje
##intus
piln
greitį
vartai
Žaidimo
meistras
katalikai
pakrančių
palaidoti
sprendimo
sukilimas
##ban
##uzd
pluo
reag
nervų
Paveik
valdas
svarbiu
įveikti
Mokyklos
aplinkinių
seminariją
viršininko
##pų
##ept
##ogle
##urti
aukų
Ignas
būsim
taurė
dekret
nebaig
tikros
suprant
viršūnė
nusipeln
vietovių
Belgijoje
teologijos
##šė
##ažo
##ovei
būdą
ilga
majų
puos
##encijų
klasę
albume
kriminal
surinkti
transport
koplyčioje
musulmonai
spygliuočių
##OR
AS
Lou
Rez
šnek
##ymuose
Human
idėjų
skland
užpuol
##amba
Mėg
mūšį
antsp
siejama
susijusių
kategorijoje
##du
idėją
Stokhol
užpuolė
komedija
revoliuc
Širvintų
##osk
##aldo
Dek
nuf
##aitytė
pasig
ralio
aplankė
berniukų
milijono
##rez
Bh
LF
##menos
##onoje
LSSR
Ptol
aštr
argum
London
fronto
simetr
##ėtvarkos
Hercegov
Senosios
leidinys
supiltas
telkinių
religinės
žemėlapis
lietuvišką
##ozef
1877
džiun
skand
Profes
dalyse
išsisk
restau
renginių
##ęž
##lai
##tero
jach
##oninės
maršk
trasa
virsta
lietaus
ugnikalnis
Inc
LSDP
koks
džiov
Sibirą
ugnies
šviesa
belaisv
kultūrai
geriausio
patalpose
Norvegijoje
tarptautiniame
$
##asta
Aus
Žen
##ocikl
1846
mažų
biuro
įteis
ryšiai
baltymų
neišlik
treneriu
Tit
čiuo
Pagėg
mastu
minim
atmain
albumus
temomis
poveikio
vyriausybę
kariuomenei
##aito
Tad
Zap
##alėje
mont
##uojamų
nelyg
Parkas
tekstų
žinomų
Helsink
visuomenei
administracinių
##iaf
##ūrai
vartų
mongolų
Williams
apygarda
lietuviškas
##iss
Ka
esm
1600
kapel
tiesa
inspek
dizaino
išreišk
modeliai
priešmok
##eib
##ieną
Fac
Zab
viš
Mano
aukl
fund
Karlas
Žmonės
##esniuose
sustabd
atkūrimo
pripažinta
leidiniuose
##ette
##jevas
##timis
Trys
mang
##ikinių
##usieji
keltų
nepasit
Liberalų
krūtinės
valstybe
dvidešimt
padidinti
karininkas
savarankiškai
##aki
##ozės
gird
jauč
plote
##tasparn
atšaka
Adolfas
ginklas
patalpos
Laz
amp
Zimb
##šteinas
Margar
Projek
kelyje
pakilo
salėje
Vysokio
leidimą
procesą
saugoti
žaidėju
principu
neįmanoma
suformavo
##ėto
##ektu
##kino
Mid
##čiose
1879
Pauk
melsv
Būdingi
gamtinių
Frydrichas
filosofiją
vienuolyną
įvairiomis
administravimo
##dą
##įjį
##auda
##ecko
##prov
Lok
##eriui
Beng
raiž
tyrė
arter
minta
polig
Vietos
galimų
raumenų
Dunojaus
pasirašyta
Juz
Tot
##iamus
Tiksl
Festiv
Daugiau
trumpas
funkciją
Kiekviena
karalienė
indoeuropiečių
##ipo
##ocko
Web
##avimų
Real
##apijos
melio
atspar
gravit
##iaisiais
dešinio
uolienų
pagaminta
##izo
##lavo
Maš
aks
##odžių
lygi
##andija
##onimas
antis
Vaikai
jaunių
žaidynės
##ozė
79
Agn
Poc
Čep
1873
Test
Janas
ritul
##tacijos
apsauga
molekul
problema
reiškinys
studentai
Savivaldybės
Ah
##rink
Bis
Tab
horm
karb
serbų
įgavo
Francis
ginklus
nustato
renkami
atminimo
baltieji
sutriušk
pagrindinius
Jem
aid
Antak
##iograph
maldos
parodų
ženklu
Bendras
Filosof
pakarto
pasitik
Lenkijai
legendos
oficialus
##ajo
103
Vyst
##iterio
pasip
krantų
##amiesčio
gyvenama
išlikusi
pakvietė
pritrauk
mokslininkas
humanitarinių
##apis
##imanto
raišk
augimo
formas
uodega
rankraš
divizijos
pastebėjo
##kių
##otu
##esne
##ykas
108
Sez
##ieros
ūkiu
paauk
Zimbab
gamybą
klajok
kūrybą
jaunųjų
palieka
kareiviai
leidžiamas
##tik
##ovus
būdų
##sąjung
Kuršo
Windo
Ptolem
paskelbti
##oke
Has
##iteto
Gamtos
atkreip
okupavus
patikrin
esančiame
Apylinkėse
atsakingas
didžiosios
nepriklausomai
##ulą
##ietės
Kasp
farm
kovų
Kalnų
apard
gamta
##tiniams
daiktų
darbui
diktat
Journal
taisyklių
skirtingos
##taž
##iksl
rož
nust
##inuose
išvad
figūra
pelkės
kamieno
valdyba
vartoti
Medicinos
kolekcija
##EL
##uli
Ik
Dze
LKP
web
##medis
Lind
tenk
##atikos
aplinką
pasiruoš
##mėn
##iūno
Sob
pakab
tokią
Verslo
ilgiau
siaubo
erdvėje
įsiterp
minister
atstatyta
priemiest
raudonąją
mitologijos
##mel
##otus
Hor
Dzūk
Klem
Riet
porn
rusai
įvartį
centrai
viršūnę
asmenims
pareikal
išgarsėjo
viršūnėje
pasirodžius
##IM
##enn
Tą
Max
ban
kib
##inkas
kuro
##šteino
Green
Thomas
premiją
praktika
pilietybę
Pasibaigus
Nacionalinis
106
Jel
mėl
įgū
##izmui
1837
##tiniam
žalia
arklių
neveik
Šalies
Vaisius
kalėjime
Leningrado
##afaz
##aika
Cal
Cas
##ander
##ental
dulk
##acinio
##inimai
aspir
atsig
vergų
##adienio
##iejuose
mokest
Trečiojo
didelius
išsidėstę
pastangomis
literatūroje
sportininkas
##iėmė
##omun
##ubur
gryn
##istais
##uotojų
etapą
Sudano
Įkurta
sukuria
Vietnamo
lėktuvai
##icz
nr
##ojimų
Maik
Romu
atok
chan
Baltr
Progr
Centro
Seimas
Vidaus
demonst
Danijoje
parduoti
atminties
literatūra
##įs
##ildo
inc
Mant
trakt
Motina
svarbu
sveria
Ameriką
article
vykdavo
atlikėjo
ansamblis
rezultatų
pedagoginio
renginiuose
geležinkelių
Jek
##čiumi
1850
Anatol
nepast
vartus
ištrauk
ryškiai
sankryž
palaikai
rūgšties
eilėraščių
gyvenviete
demokratijos
žiniasklaidos
##ilos
##uojam
Bals
##damasis
##ingomis
Micros
vadovų
garsėja
Steponas
racional
šventėse
Albanijos
Spausdino
direktorė
##nag
##sul
Apd
Fol
##ninkų
Hein
Luko
Tarn
eksk
leis
Archit
užvald
priebals
Vilhelmas
ansamblio
animacijos
##lin
Tem
Garg
Stal
ital
nare
##raciją
išryšk
pilyje
audinių
Valentin
nutarimu
turinčių
prasidedantys
##evr
##esos
##lavas
Karn
Kern
keist
kodėl
vėžio
elgesio
grupėmis
šiaurinė
skirtumas
įstatymus
ligoninėje
seminarijoje
kvalifikaciją
priešmokyklinio
89
dor
##edžio
##tinga
##uliai
takas
žmoną
sugalv
atlikta
žodinis
Išvystyta
prancūzai
995
Eng
Lel
Lub
##ytais
##yvena
Pier
jokio
neram
Oxford
mečetė
pamoksl
procesų
lengviau
Karalystė
atstovauti
medžioklės
imperatoriumi
##out
Lv
Eks
sakė
##iusios
Ekvad
pokalb
svarbą
Kuršėnų
atminti
fizinių
patalpų
apaugusi
griežtai
skiriami
ūkininkų
reformatų
Dictionary
pervadinta
provinciją
##ati
##gir
##tro
##eistų
##terio
Plač
gavęs
paraz
Grupės
broliu
dykumos
kulkosv
palaikyti
Baltarusija
##den
Gail
Lizd
Mach
švyt
galioj
kompet
žuvies
##uojantys
Saulius
ginklai
kurioms
veikusi
Remiantis
ekonomiką
medžiagas
viršutinė
91
Ku
nud
##ebuvo
##iusių
Sedl
##ingasis
Freder
sumont
garsėjo
kalbėjo
nariais
stebukl
trasoje
atspindi
išsivyst
naujiena
surengti
svyruoja
tyrinėjo
pavyzdžiai
##bės
##igas
ber
##agnet
Vert
Visag
pelno
vadyb
vykti
##encijas
pabaiga
trumpam
žodžius
fabrikas
užduotis
dio
##antiz
##ainėje
##avimai
akvar
užpild
viešpat
Vidutinė
paskirst
apdovanojimuose
##raft
Kuk
##ščius
1792
pilv
būtin
lėtai
žymių
##ikiečių
stebėti
investic
Pirmajame
panaudojo
pavyzdžiu
sprendimus
žurnalistų
publikavimui
##anė
##agen
##apių
##ektą
Atg
Nuk
##itais
##utsch
Dirb
Ostr
gastr
##iančius
Ukraina
kryžiuo
pietinė
suklestėjo
##AM
##VP
##iaz
Nel
1827
1840
Krak
apyk
įved
##iškąją
Kopenh
nutrūk
žiedai
šlaitas
Kroatijos
viceprezid
parlamentas
##erai
##entinė
##ingųjų
pasod
Europa
dievai
varpinė
krovinių
vingiuota
Slovakijos
gyvenamųjų
##ezo
##ydas
bas
##olyje
arti
##uction
##ravimas
nevien
pratęs
Windows
paveikslą
fakultetas
pagrindines
sportininkai
##dav
##jan
Anc
Dam
##irkos
vyks
Uzbek
Vieną
Christ
Kelias
Publis
atsikr
mision
rinkti
dekretu
kapitalo
pozicijos
sutartimi
Napoleonas
##liu
##ūną
##ujos
Rac
den
žib
Krit
grub
kakl
Holiv
Matul
atkel
ilgos
model
Semiat
laukas
žodžiu
aikštės
griovys
biudžeto
numeriai
paskirta
palikuonys
paskelbimo
##esė
##irų
##oda
##erti
##jerą
Dec
##iršta
##varka
1869
arešt
ident
Choras
jokios
klases
didesnę
muziejai
šiuolaikinės
##onys
##ėles
Num
##ologų
##orpor
1872
Pomp
##entina
Award
Japan
lanko
paėmė
German
Stasio
asimil
sutinka
Oficiali
ateities
nepripaž
suremont
Kristupas
paveikslai
pritvirtin
sraigtasparn
##iln
##oką
##iped
Log
Oke
##ojams
Prod
abėc
ryšį
galas
marių
uoste
virus
##uomenės
juosia
etninės
kūrinio
Airijoje
daugumos
iškrenta
sistemas
trečiojo
veiksmaž
##ušo
##wer
##ovič
##taba
##ūkšn
Ron
##alios
4000
##ysčius
Hamil
kosmos
taškai
tikrai
Naugard
demonstr
pavasario
360
##audas
Jiems
užsiim
atidarė
dukters
kalinių
prognoz
nepakank
vertėjas
##adu
Ju
Gas
Rat
mez
##umais
Time
nuol
##indami
##inimus
Brand
Irena
saviž
tibet
##kauskas
etapas
plieno
salyno
senojo
Nevėžio
klasėje
nupirko
veiklai
įgalioj
registrą
veiksmai
geriausia
susijusios
##AL
##gų
##odz
Cit
MTV
##ystem
Biršt
atsin
žolės
bėgant
šaliai
##iškiuose
mediena
vaidina
funkcijų
pagrindo
serialas
Šalčininkų
nacionalinį
##ér
##nik
##olet
114
drug
kalib
susiž
skirtų
turtas
veislės
Karaliaus
pabėgėlių
paslaugos
##yrų
li
##artas
juda
trej
##oninis
amatų
##džiuose
Žinoma
reformų
šlaitai
Gruodžio
pakeista
susituokė
uždrausta
Semiatičės
atsisakyti
naudojimas
valdytojas
##uri
113
ein
tšk
1794
1859
Teat
Teig
oras
Barsel
mokėti
Minijos
radikal
romėnai
kritikos
požymiai
Studijavo
įstatymai
archeologinių
Tro
##idriek
parad
grįžęs
visais
darbams
druskos
drabužių
lyginant
partijoje
tradicinių
žemdirbyste
žemdirbystės
##uke
Din
##ensis
##omorf
##pilio
1793
amat
Pirmas
epidem
mirtis
teisėt
viskas
gaudavo
veikimo
Antarkti
atsiliep
gyvenantys
tūkstančius
nenutekantis
##tac
##eget
##rinė
Deš
##intai
Lent
danga
priešo
##anauskas
kūrėjai
susidūrė
elementus
patirties
praktikos
Vokietijai
padovanojo
partizanai
pastatytos
socialistų
Paragvajaus
organizaciją
##džia
##rech
Kamb
Long
Kamer
vertę
rankos
sienas
šimtme
atidavė
geometr
teigimu
atvyksta
juostoje
##alija
1842
namą
uolų
įžym
Simon
garsų
kaimu
##uchafaz
neties
tiurkų
misijos
kontrolę
sluoksnio
pagrindine
Šn
vyru
inici
kitam
viršų
mėgsta
poliar
prepar
pogrind
vienkiem
kalnagūbris
С
##ešč
BM
Us
##chen
##oves
Oks
tub
##iūrėta
Viteb
Žodis
Sofija
ekolog
minkšt
sprendž
priemones
principas
reikalavo
dokumentus
seniūnaitijos
##ude
užr
##ordas
Kalb
##astrof
##avusių
išsig
kviet
sūnui
##ytojams
Seniau
maistą
rytinė
akmenys
korpuso
lėktuvo
darbuose
atlikėjai
suvaidino
architekto
skaičiavimo
go
so
##tone
Lav
slop
##istiką
Himal
Sveik
bazės
atsisp
netink
papėdės
Gintaras
domėjosi
pedagogė
sanskrit
atliekama
katastrof
##eba
##irp
##acho
##ebra
##ežis
egl
##eskop
##iskis
show
Žemę
##ientas
kapai
nežym
Norint
iliust
Jaunimo
figūros
išrinko
modelių
proporc
maršalka
mokslinio
vystymosi
europiečių
žemėtvarkos
Nacionalinės
##iaž
##ode
LN
##ekai
##mėms
##ukti
##ynui
Let
Sik
muš
Hans
Konf
Nėra
Perg
įsid
Arabų
Anders
susikl
vertus
geltona
greičio
lygiagre
slidinėjimo
Kalifornijoje
##ote
##evos
DNR
##leist
skon
##odžiai
pseud
kvadrat
turinio
armijoje
priekyje
santykis
panaikinti
##enu
##ską
##asas
kum
Marso
brolį
antkap
aptikta
saugomu
Pietinėje
apskričių
reakcijos
bendruomenių
Ba
Fe
##enės
##ling
Ret
##ongas
Serv
grun
skub
Disney
kuopos
instruk
metodai
verslas
identifik
konkursas
priskirti
išpopuliarėjo
##we
Ste
##aimon
žeme
Siera
aliej
amžin
nuver
briaun
kraštų
numalš
keitėsi
viešoji
motocikl
kiekvienos
##irdo
##edami
fosf
tuoj
ežere
netek
siūlo
susib
##usiuose
Serial
##iography
Trečias
tikėjimą
mirusiųjų
reikalingas
Viduramžiais
μ
##ytu
Blo
Liz
orien
ragan
viršk
išplės
Stiebas
metodus
progres
Ričardas
nedideli
padidėjo
Švėkšnos
istorinės
lenktynes
Koz
1821
##annica
Krašto
Tokios
Burgund
Simonas
draugiją
slapyvar
vandenyną
##nu
##avą
##uop
##auno
pod
Tver
Volu
Energ
mokėjo
subūrė
vengrų
visuma
kalbose
žinduolių
Pasakojama
konfederacijos
##yj
##ynę
Ha
Ig
ru
Nij
##ikiai
Bund
kliū
##etinio
Indija
Išskir
brolių
senoji
smegen
spaudą
sušaud
Radvilos
steigėjų
internete
savanorių
kadencijai
kalendorių
pilkapynas
pavaduotoja
populiacija
kontroliuoti
##di
Wo
gryb
disko
pusbr
čiuož
laivus
Antroji
palengv
smulkūs
regionus
vadinamą
įstatymu
Tvenkinys
Svarbiausia
##ür
##ičo
Res
##nelyg
Kleb
Kipro
Įstat
ekipos
lenkai
Jokūbas
naujasis
pernelyg
raudonas
turėdavo
vartojimo
valstiečiai
Azerbaidžano
##idu
##okšn
het
lūp
##iaišk
##meist
pres
nykšt
trošk
world
šešis
##entinių
kunigu
žalvar
atstumu
dideles
žlugimo
Frankfur
Hainuvkos
bendrovių
Dabartinis
kultūrinių
socialinio
konkursuose
festivaliuose
q
##rįž
##ates
##vent
##yros
##čiam
107
##odžio
Liet
Singap
bendrai
skyrėsi
atrankoje
imperatorių
inžinerijos
##rom
##ution
Gargžd
apjuos
kūrėsi
pagars
Matemat
didesni
stiprus
viešojo
Arabijos
paminėta
vietovar
gamykloje
pašalinti
didžiausios
##dymo
Sad
Sang
Sind
anūk
Suaug
temos
žalios
aliejus
bandymų
negyven
Valsčius
Vengrija
##ps
Chu
Tob
ben
##iauna
neišs
atšauk
kontin
skaitė
sutampa
matavimo
vakarinė
Microsoft
palyginus
pramonėje
pusiasalis
tradicinės
profesoriaus
enciklopedijų
##merk
Pul
eduk
Enter
išmat
kelia
vaiko
ūkyje
Darius
albumu
operac
pievose
daugybės
sėkmingas
nuosavybės
##amv
Šč
##efic
##icas
Sah
kėlė
metr
##angoje
virto
kalbai
raumen
kolegija
pakrantę
sugriovė
žemupyje
Smolensko
civilinės
pavyzdžių
skirtingi
susijungė
Nyderlandai
##ng
##abo
Get
1200
lemp
praž
##iąsias
laukų
figūrų
kryžių
objektu
vyriškos
asmenybės
bendrijos
apskričiai
priešinosi
##abai
ort
##fordo
##ravos
Brah
aktų
perm
vadų
Sport
savot
visur
parink
slapta
suomių
aliejaus
pagamintas
krikščionybės
##šius
Kyb
##inter
dvik
mero
miel
neak
##aluose
gatvė
Joseph
Sibire
mažėja
pelkių
resurs
kelionę
Koplyčia
augalija
magistras
nedidelės
reglament
Tradiciškai
##ecas
##toja
##eikis
##ėmimo
plak
Smith
airių
karai
stogo
pavidalu
prefektūra
##ige
Law
Lop
fen
Chor
##racijų
##riarch
Greit
Jakut
piršt
Suomija
mokymas
hierarch
vaivados
Turkijoje
vaikystės
inžinieriaus
##PI
##off
##ansų
##atom
Ans
##alvis
Club
Mešk
Naum
šild
##opolio
ilgam
neper
įsimyl
svarbių
statybai
vabzdžių
atleistas
susitelkę
atsižvelgiant
##esės
Jaz
##etika
Mand
Onos
narės
Atskir
Birutė
trumpą
mažesnė
Jungtinė
Paplitęs
reklamos
pilietybės
intensyviai
priemonėmis
##SD
##ego
Hid
Pep
Viz
verp
škot
grauž
nepaž
buvusį
didele
Balkanų
Rimantas
patalpas
nutraukti
Mikalojaus
Šveicarija
Pranciškaus
televizijoje
##elų
##ener
##ėliu
Jag
Rač
Sto
##itetą
9955
##medžių
Šiais
Ketvir
subtrop
tokiais
žaidėjo
situacija
sudėtinga
Pastarasis
observator
susirinkimas
##upė
Lew
##austė
##yklės
Vaikų
Visgi
laivą
plant
Liepos
Rajono
gyvavo
pavertė
įsijung
Žaidimas
Upėvardis
tradicijų
sekretoriumi
Ps
##ster
##auzol
Arag
Eliz
Spor
##ėjusio
Kalba
Night
pajūr
giminė
trejus
pusiaus
premjera
Švenčion
keturkamp
reguliuoj
spausdino
statiniai
stengiasi
Zelandijos
dabartinių
jungiantis
įsikūrusios
##aba
##inoz
Žel
Past
Trin
Seneg
drusk
nesul
statė
mintis
sparnų
scenoje
pamatyti
glaudžiai
perdavimo
uždarytas
##ūdį
##irbo
117
ūkį
##idžių
1858
Alta
Kard
Žemė
Žurn
##dintas
Herbo
Juose
ginti
valda
pilkai
Žemėje
Anglija
praeina
gaminama
mokyklas
žaidynes
atstatyti
nusileido
pozicijas
reikalauja
##OP
##žu
##šis
##alit
##prog
##wood
tėvu
maksim
medinių
plaučių
Korėjoje
prancišk
rengiami
režisavo
septynių
pripažįst
pasiskirst
tūkstančiai
Svarbiausias
ūg
##ulti
##ytame
Orig
rašo
duokl
ryšys
didėja
erdvėl
kamien
klipas
tikslų
##iakūniai
atsakom
Liudviko
pasauliet
kryžiuočių
konferencijoje
eš
##elli
##rius
104
Div
##askai
Rank
ilgų
karus
Kasmet
remont
vardai
Siekiant
kompanijų
paskirtis
vertinamas
##opat
lyr
pleč
žino
##iacijų
banga
##vardžio
bokšto
daktarė
dėmesys
prototi
Aleksandr
statybinių
kategorijos
Tarptautinis
##gon
Abi
Fal
oda
Dauk
Juan
garn
korup
mišką
dukart
platin
statybų
atliktas
automobilį
##vyk
##elos
##ones
116
Lud
Rut
jon
jut
Erit
turą
##tation
grūdų
integ
rėmėsi
budizmo
kvartal
Vatikano
paremtas
popierių
paskaitas
fo
Mun
##džios
##usiai
Ilgą
ding
##čiomis
stotį
Graikų
kainos
##tininkai
mašinos
veikėjo
surinkęs
išsivystė
##anj
##alūs
##iekė
##smas
##udas
1832
Slav
marm
neof
skard
##etiniai
Volgos
brūkšn
teikti
įgulos
Arvydas
paveikė
šaudymo
dešimties
padėjėjas
ekonominių
laikraštyje
parduotuvės
kompiuterinių
##ejo
Kob
McL
Sec
Vos
nej
##irkti
Jadv
Venc
Zamb
rato
riki
##anijai
ryžių
Futbol
Kaspar
Maroko
Moterų
išskiria
norėdamas
veikianti
profsąjung
##tę
##apus
450
Roy
amb
beb
kiš
1844
Esant
srovė
##urgijos
Egiptą
Juozap
Potock
Rusios
Tilžės
arbatos
bruožai
didesnį
gelsvai
indėnai
laidoti
medicin
partner
reformą
Paveiksl
poveikis
produktas
##ych
##edis
Kra
Smet
Kubos
vienai
valsčių
objektus
teleskop
kraštuose
tremtinių
šiaurinės
kiaušinius
bendradarbis
##iuku
##mėje
Riv
Stre
galų
trap
štur
Apašt
Stipr
priev
lygiai
maistas
periodo
neseniai
Mokykloje
botanikos
rengiamos
spindulių
paviršiumi
tikinčiųjų
krepšininkas
verslininkas
šiuolaikinių
tūkstantmečiu
maži
pakit
nebūtų
singlą
Angliją
Vasario
kalvoje
nepateko
valandas
kompaniją
stovyklos
Didžiausia
##35
##unc
Oz
##eing
##irus
braz
eroz
##aizdis
Airių
##avietės
arčiau
išstum
dvasios
lankyti
rašytoj
uniform
juodieji
piramidės
skirstoma
pavaizduotas
##idus
poš
1857
įdom
##iolika
##iuotos
dvarų
grafo
##intieji
##izavimo
biliet
svarbų
bombard
tvirtovę
vadovaujant
šiuolaikinio
fail
imit
##ažiavo
Kepur
Saulė
aktas
kavos
žiedų
planus
pietinę
psichiat
advokatas
reorganizuota
##itur
Adr
Jar
##ikinis
Relig
karst
įsakė
pasuka
triukš
##amiestis
Pastaba
įrašyti
parodyti
apskritai
nedidelių
priskirta
seniausias
##MD
##PK
Tw
ore
##enčia
##kūnas
Astr
Open
smur
stal
Apdov
ieško
norveg
sumušė
trasos
nustojo
liberalų
aukštumoje
pritaikyti
vadovaujamas
tėvą
##ombard
puolė
misija
apatinė
Statybos
politinio
sluoksnių
##alę
##olfo
moz
##alaus
##ybėms
muit
įsir
Haris
dukrą
geras
##entasis
Google
Lituan
bėgimo
kovose
paslėp
riebalų
užsiima
Ilgainiui
atlikėjos
surengtas
Rumunijoje
garsiausių
susidomėjo
vaizduojami
pietrytinėje
Ub
##lass
akl
##aloje
mikr
korėj
laidą
tirti
vėliavą
įrodymų
kreipėsi
piliečiai
įsitraukė
kompozitoriaus
SP
Dūk
tyl
Asir
Vand
Veln
turk
turo
Cambr
salės
taškais
Pirmuoju
didesnio
pateikia
sprendimų
debiutinis
turnyruose
Geležinkelio
organizatorius
##yč
##ар
Ni
##iast
##ičiu
##odeg
Alm
mug
1700
Roll
pūsl
svir
Dalia
dalij
meras
trium
sodybų
aptikti
apytiksl
interesų
simboliu
valdomas
esančioje
krūmynais
variantai
priešingai
filologijos
valstybinių
Marijampolėje
nacionalinėje
##sh
##ezę
##uotę
##angai
1820
##inčios
Fried
apskr
dekan
lingv
cukran
deivės
nešioj
prisim
ataskai
gėrimas
spėjama
pastatus
aptinkama
principus
pašalintas
—
Ož
##eren
##izme
##vara
Hill
mato
sukr
kalvų
įmušė
dykuma
formul
Augalas
Bernard
čempionų
Bavarijos
atliekami
##iug
##led
##skr
##amais
##ažind
Dvaro
Nemaž
krūmų
nenus
būdama
liežuv
puosel
graikai
patvenk
##iaujantis
gydytoja
paminklo
Paplitusi
paskutinė
viešosios
Hok
##imasi
Radz
išmet
mačas
raštu
žuvys
ciklas
išmoko
##iavanden
valdovu
įprasta
grąžinti
alkoholio
pedagoginį
apgyvendinta
fotografijos
pietvakarinėje
##cas
Nu
Vš
##elei
##fiur
##iako
1791
nuom
ežeru
nauju
himnas
audinio
matomas
piečiau
remonto
tiesiai
Vaclovas
altorius
ateityje
stovyklą
šventėje
sutvirtin
priešistor
tarpukario
##vin
##audų
##ijęs
Nug
bež
atost
funkc
kalva
žemuma
dalelės
surasti
įskaitoje
Viktorijos
partneriai
##išl
act
##kienė
##amieji
Tadas
auklė
kreiv
neleg
įmonę
##medžiai
karved
mauzol
organai
rekordą
vykdoma
didesnių
periodas
kultūrinio
##mit
##film
##imta
##išas
##sono
Big
##inger
Nint
Post
##enberg
##ančioje
Arūnas
anksto
Pagėgių
išvertė
Gruzdžių
parašyti
steigėjas
įsigalėjo
griuvėsiai
prekybinis
elektronikos
##ašo
##uru
##ipas
##rown
Cop
How
Žuk
1816
Kant
Euraz
posūk
Maskvą
sentikių
Priklausė
##dr
##enė
##utą
##rach
Bek
Put
##ėjuje
Kurį
atod
kine
##istinę
rudas
raidės
seriją
singlų
sugrąž
teismų
titulo
užduot
organas
dalyvauj
išvaizda
merginos
atsiveria
formaliai
visuomenę
finansinių
galerijoje
pasirodymo
##ET
##ūre
Šk
##akio
##arth
Die
Šed
Metr
drąs
plėv
suma
##iškose
##tinėms
Basan
Draust
pagarb
gyvavimo
užtvanka
vykstant
dėstytoja
karalienės
specialistas
##jus
##nug
##olv
Da
Zo
Tiek
##arskas
##ylikos
genoc
svied
autorė
teksto
Čartor
tematika
kvėpavimo
klasikinės
Federacijos
provincijas
įšventintas
##RM
##ille
NAS
##ilius
##uriai
Gaud
##avietė
Vėlyv
kalną
tramv
Kosovo
metalų
rezist
skelbė
pietinis
įsivaizd
atsiskyrė
daugeliui
paaiškėjo
scenarijų
kompiuterio
##muk
Šul
Spar
disl
##eikiai
Aktyv
Apple
Visuo
pagrį
riboj
##iaujant
doktor
keliauja
reikmėms
apylinkes
didžiausi
nusipirko
olimpinės
apdovanojimai
##uld
Džo
##ektus
Laid
Sicil
pažin
piligr
Aristot
diagnoz
medinės
Biblijos
Bosnijos
laureatas
sąsiauris
reikalinga
##oję
ma
Ūk
##valg
Akv
Bos
##ičius
1849
kvan
##iation
Stand
atsit
gimęs
Sedlcų
dalykų
ryžiai
armijai
rūgštis
istorikų
išsiaišk
orkestro
pareigos
pradinės
sudėties
vidutinė
reikalauj
vandenilio
investicijų
Juodkalnijos
valstybinėje
##hor
##egul
##iliai
##ymams
Taut
Filme
nekel
vadai
kanalu
reprez
Darbėnų
Fizikos
abstrak
taikoma
reikalus
Raudonoji
ekonominė
kiekvienam
televizija
viduramžiais
vargonininkas
##azm
##yrą
Hom
Tig
rob
aist
trob
##meistr
duris
šiurk
##inančių
dvarui
filmui
užimta
komiksų
sparnai
taikomas
žvejybos
Cambridge
dabartinę
renginiai
pakraščiuose
Tek
plg
šuk
##onomis
##opolit
besir
metodų
parodo
##zistuoja
perkėlė
siauras
trukmės
užsiėmė
svarbios
kukurūzai
papildomų
kaštelionas
##29
Vr
##onia
##tera
Gun
Kak
##apelk
##ietos
labd
Atėnų
Saudo
kapas
įtemp
##osistem
gavyba
lyties
žemesn
pramogų
Birželio
Gintautas
vertinimo
kalendorius
laboratorijos
##olį
IT
##iauž
Juv
Rab
šūv
##iento
Kotr
##etijos
gelžb
kinta
Boeing
augalo
mergau
nufilm
Alberto
aktoriaus
žvalgybos
pavažiavus
specialistų
##AD
##bridž
##iaukl
##izavo
idėj
topo
##eities
Alpių
mėgst
##icijoje
atrodė
Gegužės
savaime
tekstai
filialas
pažymėti
įsteigti
šiaurinę
Pasaulyje
milijonai
Konstitucijos
psichologijos
•
##dem
Fon
##tinys
##uotai
##yklas
cirk
kava
Šiam
##oninių
balso
pušis
##aitienė
laidot
tėvais
užėmus
Christi
Renault
išilgai
kalboms
pabaigą
junginių
monument
muchafaz
nagrinėj
įvairovė
koncertuose
ai
##adai
sir
##etais
Live
best
mama
mažo
Išsid
Laban
meiluž
Sostinė
lyderių
pergalė
turėjęs
Kartenos
procesai
statinys
vėlyvojo
ų
Vyg
##ijono
NKVD
Rūta
##otball
##acijose
##inimosi
anksti
nemaža
Antonio
Martyno
Pajūrio
laukuose
parapinė
pergalių
naujosios
paveikslus
Valstybinės
##ušti
##ylis
Bau
Lee
Adom
Magn
kanj
skys
Tartu
trejų
Ventos
globos
Artūras
legenda
rytinis
įsidarb
atsiskyr
reitingo
atnaujinta
transliuoj
##tics
bij
biz
##ingio
1855
gumb
##ščiais
Klaus
##istanas
Miestą
lapais
perkėl
užmezg
valdos
liudija
susilpn
nuotykių
Paviršius
produktus
leitenantas
patvirtinta
##34
##šų
##ertu
pašl
Intak
Leipc
rutul
Maskva
Nuolat
baigti
metodą
apšviet
rajonus
stotelės
dominuoja
sustabdyti
Didžiausios
##agą
##metį
bev
##ijumi
verž
##iejose
##roviui
Mėlyn
doktr
tapus
Ordino
kunigo
Žemiau
variklį
šaltinio
Ekonomikos
apibendrin
pertraukos
rezervatas
skirstomos
##ör
Cam
Dor
Ing
##džiui
##ikaul
##sonas
Tomo
difer
katės
##omagnet
Senoji
ginklo
išbuvo
paskat
pilnas
priest
kasinėj
modeliu
naujojo
rengimo
varžėsi
įvestas
tikėjosi
žmonijos
planuojama
gyvenvietes
##intu
Kut
auš
cem
hel
##austo
##odail
##mentas
nemat
pirmo
lygmen
##ybiniais
Jekater
radinių
Karalius
variklio
Čekijoje
sužeistas
skirtingus
dešimtmečius
##ty
##egz
##agan
Arb
Him
Lep
1853
Such
meną
aneks
kaklo
kvapo
##eziečių
Johann
Testam
etninė
spalvą
vykdant
kryžiumi
pietinės
auginamos
išvystyta
sektoriaus
##ikis
Bre
Nad
fer
Kors
Reng
reta
Kosta
bankų
plotai
įrašas
gaunama
naudota
atskirta
eksporto
demokratai
pilietinio
##gu
##ajas
##iety
220
Kuč
estų
šilt
##harmon
##stravo
##uotais
##uotoje
būdai
final
normų
dalinai
veidrod
Eduardas
folkloro
supažind
tvirtina
debiutinį
kandidato
šventyklų
apdovanota
stovykloje
liaudininkų
##ulu
##ėle
##ilus
##acinį
įsis
Dubys
pilka
vaistų
randami
rinkėjų
amerikiet
deguonies
Florencijos
##ipal
##pers
1789
cont
deko
Louis
Pliat
Magdeb
raketų
Pilkalnio
Britannica
moteriškos
vyriausiojo
Skandinavijos
##AZ
##IL
##aco
##ašas
##enso
##vart
##ūrus
##tuvas
Pozn
krūv
Dainų
Kanada
apjung
koefic
sūnumi
įvykdė
sąrašus
Liepojos
keliauti
neoficial
Vladislovas
keliautojas
##án
##ugh
##yle
Šri
1790
Dvas
Rašė
balsv
ciklo
##ancijos
##ovičiaus
ištisai
daugeliu
keliuose
laivynas
visuomenė
Afganistano
##tive
VšĮ
Wat
def
kot
##ystes
1775
Heid
kodo
įsil
##evskis
dantų
import
kalbėti
kompens
aktoriai
mergautinė
rezultatyv
Nacionalinė
gyvenvietėje
##hr
##iot
AL
##aitą
##imer
##oneš
##rina
Suž
##ogrąž
##urgas
Pres
skel
skiau
įgyti
Markas
Turėjo
pylimo
paremta
Nintendo
išskirti
sąjūdžio
išleidimo
perversmo
pasiekiamas
##yšn
Na
Ov
##iuką
Kle
##ietas
##imant
##uolik
1854
1856
##alizmo
##atinis
Stank
makšt
retas
siūlė
Danija
džiaug
vizual
auginti
nuostol
pretenz
prokalb
pasiuntė
##otechnikos
istorinio
atstatytas
egzistavusi
Žemaitijoje
##opė
##ūst
##ista
Mai
žai
Fred
Main
Telk
Vard
fraz
##icijas
Konkur
dislok
dalinių
rizikos
skandin
viršaus
žmogžud
prijungti
##ages
Neb
Rav
##astas
##eckas
##onams
aišku
išžud
mados
giliai
kariavo
statomi
terminą
aukštųjų
geltonos
individų
kurortas
Romualdas
centraliz
narkotikų
nesugebėjo
pasirodymas
konstitucija
##eae
##eff
##udz
bu
būdo
Psich
apgult
Henriko
miškais
tęsinys
Ministrų
vandenyse
nedalyvavo
ambasadorius
dokumentuose
kvalifikacijos
##38
##tel
Ks
##ague
eln
##achar
Jack
rąst
sekl
Adomo
Irako
Kapit
lapus
mikros
miškus
##inėjimas
rankose
Grenland
didmeistr
socialinė
turinčios
diplomatas
gubernijai
tautosakos
##agu
##ekė
nat
Sidn
puse
užkl
##angelo
##emplio
##engimo
##uotame
nykst
rango
seimo
taiką
vėjas
girios
ištyrė
aukštyn
bendros
kapitul
atsinauj
vadinasi
išleistos
##IK
##une
gv
##anko
##upių
Dab
tęst
##iškame
dugno
Petraš
Punsko
kovėsi
sutuok
tapyba
Evangel
Mokslas
džiungl
parduod
vystėsi
ankstesn
šventųjų
muzikinio
operacija
Žygimantas
rezidencija
suvažiavime
Respublikinis
##agų
##ogų
##tein
ribą
##eistos
Antan
linij
sėklų
žvilg
Aldona
Saloje
kalcio
streik
šviesą
baigtas
gydytojo
klausimas
Prezidiumo
cukranendr
konfliktas
pasaulinis
##bc
##emą
Ein
Mill
Rand
Sard
našl
Velso
gvard
linksn
Vyrauja
vaikais
tikėtina
žodžiais
atsispind
dešiniojo
profesionalus
##AP
##etę
##arat
##orde
Inf
Lil
Meg
Ref
##dinta
Grab
šiog
Leono
poeto
vynas
Milano
kanalą
kokios
įvesta
##ainiuose
tekstas
Kristina
oficiali
įvarčius
dokumentai
gitaristas
pastarasis
pasitraukti
##UR
##ectr
##ėlęs
Hum
rab
##ertus
##iečiu
Hind
Indo
kokį
Eritr
Kated
anime
##ieriumi
Bresto
Kordil
stogas
verslą
nutarta
Sokoluvo
iškastas
kelionių
keramika
mišriojo
regionai
organizme
neakivaizd
reguliariai
ukrainiečių
gu
##evsk
Cat
Dok
PAR
vės
##inkai
gand
ūkiui
pasmerk
vandenų
Kongreso
radiniai
rankomis
variklių
įregistr
programoje
žaidimuose
krikščionybę
М
##aria
Had
tig
gerą
kūnų
užtr
Dakar
Natūr
veget
ūkiai
##ančiose
Estija
depres
dvasia
Gentyje
Mindaugo
išorinis
kolekcijos
geografijos
respublikinės
kunigaikštystę
##mei
##ukd
Įg
##inda
##ogot
##orig
Piz
##oninė
##uonos
Pand
liej
nuož
Alias
Morav
Stone
žemas
Europe
būklės
neprit
nutapė
repres
paprašė
Prancūzų
auginama
urėdijos
atsitrauk
nukariavo
įvertinti
bažnyčiose
laisvalaik
archeologinė
demokratinės
##45
##48
##avės
##ivyl
Muh
Out
Vei
Anth
Birm
Proc
Tadž
##avimus
atgab
gerkl
imtyn
nusak
##ojantis
įrangą
Andžele
Senasis
vystosi
Šeimoje
projekte
sistemai
egzemplio
Parlamento
apibūdinti
jaunikliai
papildomas
paplitusios
##aps
ąjį
1845
Nord
Višn
##ančiam
##onuoja
North
Pavard
atlaid
lrytas
raidos
saugos
slėniu
Žmogus
chromos
vaisius
Partijos
pirmojoje
vartojami
kavalerijos
ė
##200
##nit
lub
1785
gras
turb
vakc
štab
Kojos
tęsti
uostų
eskadr
iškyla
Stepono
Turkija
Vitebsko
kairiojo
patraukė
##oki
AC
ro
##iang
Bod
##ultūr
##undas
kert
prūs
nesant
nuorod
etninių
galimas
prieglob
tikslais
Biography
agentūros
dešinieji
gyvenamos
plunksnos
įrenginių
karalystei
##MS
##esc
##alon
##ežer
##ienę
##izės
##nost
##paud
##undo
Jor
Kuz
Tes
lop
##antės
##nicos
##omais
Pilv
cech
tušč
žygį
Pilyp
neišv
opera
renka
užter
Šalis
abitur
kelius
maistu
Amazonės
Paminklo
Visagino
sidabrin
užtvankos
draudžiama
nepasitenk
paaiškinti
nacionalinę
bibliotekoje
nekeliamieji
pasauliniame
##75
##ux
##yo
##žal
##aitį
##ešas
Lac
##akmen
##eriją
Deja
srau
Debiu
Spalv
kovai
medal
negyv
veido
##ėjimais
uostai
užsiėm
atskiri
Žvaigžd
senovėje
vakarinę
Žemupyje
Nikolajus
ekosistem
muzikantas
pristatyta
viršininku
Zelandijoje
konstrukcija
##FC
##jak
Dim
Gyd
LRT
oks
##https
Balč
Eksp
kapo
##ėlėmis
Uralo
kvieč
nafta
savęs
##ormeist
auksas
rodyti
sektor
nusižud
singlai
veislių
kaimuose
mediniai
procentų
rašytoja
Sicilijos
žaidžiantis
##cha
##inn
##olę
##onč
##uki
##ėdas
Gav
iet
##apiai
##chron
1839
1843
Gryb
Kazl
reich
liepsn
salyne
sukilo
Žiemos
herojus
konkursų
interesus
panaudota
aukštupyje
susisiekimo
##ism
##oru
##yth
Tė
ISO
Rig
šer
šum
##odoks
dėmė
alium
tiltą
##ančiame
##eliškių
##iformes
autent
Branden
aukštai
įkūrėjų
įtampos
objektyv
įlankoje
chormeist
paskutinę
perduotas
tarptautiniuose
##onte
bek
##verių
Char
jėgą
Stovi
tašką
tranz
šunys
Mažoji
origin
pamato
pulkas
vienij
įrengė
kapines
periodu
perteik
Senovėje
nereikal
tautinių
šventėms
Habsburgų
Vladimiro
antrojoje
palaikymo
nuotraukos
karalystėje
##ifas
BVP
Dak
Prat
TSKP
Irane
##finalio
Garbės
Rugpjū
frankų
patrio
pažįst
priima
Rietavo
gaminių
pokario
sričiai
susprog
vaizdas
išsilaip
pasitaik
skaityti
supapras
vadovybė
prisijungti
konstituciją
moteriškosios
##bių
##irt
##tit
##emia
##achas
##feros
Asoc
slav
##ymasis
vyravo
arenoje
bendraau
suformul
Žalgiris
šiaurinis
Islandijos
mitologija
skirtingose
##KS
##ques
##vydo
Off
Kirk
Valk
prav
Šiai
Chrys
Išėjo
sindr
tūrio
Galima
Suvalk
judėti
komend
gavybos
stambūs
tikslus
Šimkaus
kairieji
kontekst
susigrąž
patriarch
sujungtas
vakarinis
populiarūs
Provincijos
parduotuvių
##enių
Atk
Esp
Lam
Meč
Pic
1814
Kirg
pogr
porą
rudi
oksid
Indiją
gaisro
naudot
plaukų
Sapiega
nuostab
Terminas
formuotis
Įsteigtas
##etes
##terp
Rum
Steb
##uotojai
Didelė
Maltos
baigta
juostų
krizės
stočių
ritulio
randamas
Valsčiaus
paveikslo
protėviai
elektroninės
##36
OS
##akus
##elle
##iste
Kum
##ident
morf
prip
##alioje
##iančiu
Monkų
lenta
##ikaulio
pašauk
atogrąž
nariams
pabėgti
##ininkuose
Edvardas
paieškos
savaitės
sudegino
ženkliai
Entertain
dirbiniai
orkestrui
fragmentai
išsivysčius
priskiriamos
gyvulininkyste
##rif
##rint
240
lim
įsk
ūkių
krosn
paskl
teise
##aliomis
Kiniją
draugų
turint
##avičiūtė
kryptys
kunigai
Aplinkos
išgyveno
padaryta
sertifik
Netoliese
akmenimis
Slovėnijos
pateikiami
civilizacija
suprojektavo
##sc
##eme
##has
##len
##ojui
##ėmus
Old
kro
##eziją
Game
Kort
Srit
danų
nėšt
sodų
Šird
žali
##tacija
dumbl
Daugėl
Senojo
biomed
molius
Rusijai
agresyv
koledže
karališk
parduotas
Vakarinėje
atsiradimo
produkcija
kontroliuoja
savivaldybes
##ee
##gą
##adė
##nie
Skl
##ojusi
##ybose
Hall
pilvo
##Station
Salvad
paliau
vedėju
šimtus
Science
pinigai
kolonijų
teigiamų
vaidmens
olimpinis
vaikystėje
atvirkščiai
prefektūros
tyrinėjimai
svarbiausios
tarptautinėse
##chi
##inj
##mach
rok
Samo
lipd
maro
Krasn
album
dioks
jėgas
taika
grožio
išsivad
laidoje
pajamos
prabang
dominavo
korpusas
metropol
skaičiav
Daugelyje
botaninis
erdvėlaiv
palydovas
parašytas
Provincija
PlayStation
gyventojais
Tarptautinio
##EC
Ga
##ėtojų
##ancija
##engtos
Povil
išsam
optim
pabūk
Brolis
priešų
Teismas
galvijų
mišinys
karinius
ministrų
sudarymo
Kordiljer
gaminamos
praeities
Bulgarijoje
nacionalinių
##ają
##ojės
##ėdos
Kau
Pos
##atrio
##iklio
##iness
1806
Kitą
page
takt
entuz
kampe
kulto
nepag
turės
kultas
likusi
įrašai
pravard
Teigiama
mažesnės
tapdamas
didžiuoju
operacijų
tautodail
##arui
Kaj
Pio
1835
Lich
Mans
Ypat
afrik
duonos
nesunk
pačiam
teatrą
gamtoje
padidėja
susilauk
chorvedys
panaikino
Saksonijos
teisingumas
##ezd
##iub
##ory
##abas
##nast
##olyg
##ąžin
Flo
Nin
Puš
##lines
Russ
Sain
saks
kursą
žvejų
Šalyje
žaliav
intelig
European
Justinas
paleisti
Michailas
seniausia
asistentas
technologija
Portugalijoje
##kut
##ryz
##tras
Ard
Hil
lrs
##atros
##prend
##stein
##varas
Chos
Salų
Tang
drož
mažą
##ravimą
Jaros
besiv
jomis
Tokijo
garsas
##omuosius
Valstyb
konfisk
Birštono
Kazimier
analizės
brigados
darželis
daržovių
lygumoje
pamaldos
pasiekęs
realybės
Lithuania
medvilnės
redaktorė
reikalams
pusfinalyje
skirtingais
Entertainment
##aiva
##iklį
Sit
Vyd
##egist
baud
Čing
šeši
Gener
metaf
užsim
valdų
Pakaln
Broliai
trečiąją
savybėmis
Grigaliaus
panaudotas
atsistatydino
##irn
##tiv
##hard
##iuri
syk
##ienis
Camp
Trip
Viso
gynė
taps
unik
Atsir
iššūk
pagon
gyvenęs
sukurtų
Žagarės
žodynas
agentūra
likusios
požiūris
vaizduoja
biologijos
##yklė
##ynes
101
##rinės
Varž
##džiams
Baudž
nebus
pamėg
relik
Biblio
kompak
laidas
nusist
pageid
įvesti
Deutsch
įtraukė
Ispaniją
esančius
saugomos
Ramiajame
pareigūnų
reikalavimų
Konstitucija
##by
##roz
Bot
LKL
Pae
ame
tet
išeiv
iškal
nendr
romanų
sieros
tankis
tinklų
granito
masyvas
Voluinės
atsirasti
politikai
kandidatai
Indonezijos
MW
Pen
karp
mėsa
aukos
randa
vykęs
##avimosi
išauga
prieig
Sebasti
laikėsi
mažesni
pažeidž
Encyclop
Regionas
Viljamas
paversti
privačių
reakcija
gamintojų
naudojasi
Teritorija
Teritorijos
tarptautinį
korespondentas
##odė
Ly
Sz
##eito
##garų
Rož
##atorė
##cinės
Tams
terp
Bajor
Parko
daikt
elito
prisk
rinką
turas
žygio
##ančioms
mokslą
skruzd
Tiražas
apklaus
Kepurėlė
tradiciją
Venesuelos
plaukeliais
straipsnyje
##RU
##hal
##hat
##iff
AN
##štus
Išg
mad
sve
##sberg
Burb
kirm
žodį
##onuose
##esnysis
Kitais
lentos
tabako
garsesni
simbolių
trečioji
Seniūnijos
pareigūnai
įvertintas
vyriausybei
##nt
##bis
##dai
##pur
Vyž
apm
##kaitė
##ytoje
6000
Ball
sako
sodo
Įraš
##richas
proto
sodai
ėjimų
##erkulio
kaimus
paimti
vyrauj
išstūmė
senasis
motyvais
tautybės
vandenys
įvykdyti
deputatas
įsteigtos
aukščiausią
departamentui
temperatūroje
##inux
##olui
Kid
Ple
Lamb
Vaiš
Švyt
griau
kiaul
tipai
žlugo
Mozamb
grėsmę
išnaud
išorės
karius
krantą
Adrijos
aktorės
analizė
darbais
naujoji
stotyje
elementais
platformos
ugnikalnio
gyvenamieji
revoliucija
##76
##jaun
##ulai
750
Gus
Ins
svy
##ėjusį
Mack
ratą
Ežerą
blizg
##iuojant
Jokūbo
negaus
žanras
ekspans
konkret
grafystė
pokyčiai
Dabartinė
koplytėlė
tibetiečių
##ces
##oman
ryž
1847
Pern
Rain
eilę
žvyn
Herak
Media
romėn
teism
##atorija
Dainos
buvusią
mokinys
suprato
##onomistas
Džeimsas
Sacharos
gubernija
mechanizm
egiptiečių
vokalistas
geležinkelį
straipsniai
automatiškai
##ianą
##ioch
##kvež
Zav
##okštė
Eglė
Mint
būrį
įamž
Polin
barok
chlor
Naujas
baltar
padaug
staiga
sunyko
veislė
ženklą
Armijos
Sąjungą
atsimin
prieina
sunkvež
tiekimo
Rytinėje
geltonas
lietuvos
religiją
projektai
skaičiumi
##oduk
##atūrą
Bull
Gaid
Giov
Luis
bamb
bazę
metė
veln
erdvė
išilg
Papild
šaknis
Mažojoje
antruoju
bomboneš
karaliai
keičiasi
partijai
Leonardas
stebėjimo
Vyriausybė
atsisakyta
##irto
##omir
##ąmon
Agr
Ati
buh
heg
new
Jang
Pran
apyv
bene
prik
stim
##ariato
##mingai
##utinių
Aurel
lygiu
rūdos
##menimis
atnešė
kazokų
žarnos
##emonijos
atrasti
nakties
Žaidime
Labanoro
baudžiam
klubuose
primityv
serijoje
bolševikų
buvusioje
kiekvienoje
##džiū
##ejas
##usti
##wski
hig
##odama
##porto
1796
1836
Bell
Gand
Kail
milt
simp
##uolius
jaunų
spaudž
vaizdą
jungtis
medalių
siuvimo
virtual
Norvegija
gyvenimui
įtrauktos
Nacionalinėje
##arst
##iatl
##olls
Day
Etn
##arius
Senk
Klubo
Tolim
besik
raštų
Albert
gretim
Nigerio
pažiūrų
teisėjų
trumpos
užbaigė
Būdingas
direktor
užrašyti
##alizacijos
bataliono
protektor
teatruose
atliekamas
priežastys
pritaikytas
regioniniame
komunikacijos
##xt
##ipe
##esys
Kent
berb
šunų
##otechn
Bohem
etapo
prizą
svarų
vesti
##tininko
Dailės
Nijolė
anarch
dažnas
jaunas
lankst
Neapolio
apimties
atstumas
dirigentė
išsilaikė
sunaikinta
jaunesnysis
##ML
##hib
##ser
##−19
Ful
orą
##rajam
##ymąsi
1797
1852
Simp
Tanz
Taur
cenz
dvyn
fone
gvar
kirv
##mundas
##eriuose
Island
Ivanas
aukšta
german
bokštai
esančią
nutolęs
##uliacijos
Chrysler
kalnakas
sumažėja
Kanarskas
grandinės
nominuota
Krikštytojo
laikotarpyje
tarptautinėje
##elą
Pis
##aunas
Prim
retų
sakr
čekų
šviež
##valifik
Global
atmetė
tikrus
Vasaros
neolito
režimas
įvyksta
paskirti
rūpintis
tarnauti
tautinės
Čempionų
sovietmečiu
##por
rop
##encij
##tingų
1823
Jušk
Vaga
dryž
snap
šaun
##ebrajų
Romas
kilti
ribas
tiria
Įpras
Albumo
Lenino
dvylik
Alytuje
bandoma
gydymas
kitokių
neišliko
plaukimo
išlikusių
mokesčius
sutinkami
Australija
Moldavijos
aukštosios
vargonininkavo
##box
mg
##elno
LFF
Saf
tuš
##field
Rugs
Visą
bunk
tiki
šalt
##omunik
Mario
dieno
nebel
nesud
spart
##šteliai
anglių
neogot
seserį
platino
pradinę
rausvai
viršija
Teodoras
nutolusi
valsčiai
Trečiasis
angliškai
apskaitos
medžiokle
principai
svetainėje
įvertinimų
kalnagūbrio
##idz
##žas
Ja
MA
Oc
##augo
##ello
faš
##uolės
vamp
##gubern
##intais
Filad
masto
raida
Žanas
Pabalt
mongol
rytinę
kadaise
maistui
uodegos
Kembridž
naujienų
stovykla
vidutinių
įstaigose
Škotijoje
kategorija
regioninio
##bu
##adus
##illa
Rūš
ven
šūk
##anidų
##plant
Irak
nuost
tūris
##aliniai
##ėliuose
Libano
suplan
įvykio
Motiejus
dainuoti
pasistat
Antrajame
gyvenamas
pavieniai
batalionas
specialios
ketvirtasis
biomedicinos
konstrukcijų
žurnalistikos
##lį
##ytę
##edes
##iaul
##urta
Cos
Fox
Honk
Svet
benz
##vyriaus
austrų
žiedas
fabriko
panašių
pavardę
ekonomistas
eksperiment
programinės
##ivos
##lino
gud
##imąsi
Euro
kalk
Lukas
meilę
visam
šiaud
##esearch
Benjam
mažoji
sklaid
Stalino
Viešpat
kariniai
pergales
vienetai
formavosi
kolekciją
pastarojo
atnaujinti
kūriniuose
savininkai
trumpalaik
##šio
##aren
##upys
Dvi
Tut
Drak
Kotas
Frankų
Išteka
teatrų
Taivano
neleido
nurodoma
operatyv
priėmimo
šiauriau
prieplauk
sistemose
vietinius
Oficialiai
pusiausvyr
sekmadienį
žinomiausių
laikotarpiui
##PS
##rig
##nauj
##odai
##ople
trą
##entės
##ienei
##rimin
1655
##ikinio
bylos
kokio
nusit
posėd
Kultūr
Medžio
estrad
gėrimų
parama
Belgija
išleidž
vietinė
žymimas
Feliksas
laikinas
techniką
Komisijos
Nemunėlio
komplekso
pateikiama
pristatyti
Filosofijos
kompozicijų
lenktynininkas
É
##ifo
##aužė
##ionu
##kson
Hat
vai
##atams
##strem
1841
Bras
Kino
aval
ėjimo
vidurį
galioja
steigti
taikyti
atsikėlė
koncertą
priverst
sociolog
tinkamai
čempionė
pagrindus
rezultatą
bendradarbiauja
##ик
##ymp
FIA
Hes
##manto
##press
1824
Beat
prel
Džono
groja
gynyb
pagim
seser
žaizd
Gelton
nulėmė
##karčiais
Ašmenos
Radvilų
Vakarus
daiktus
vykdomi
trenerio
Viktorija
išsaugojo
junginiai
sportininkų
Florencijoje
rekonstrukcijos
##lą
##są
KGB
##nikas
##ėlyje
Luiz
Show
Trib
Linux
Sukil
genet
siunč
##intojas
sergan
Krasnoj
Roberto
kūriniu
puolimą
Kudirkos
fiziolog
konsolid
pastangų
piešinių
tarybinio
kampanijos
nustatytas
tradicinis
nugalėtojas
valstybėmis
Universiteto
##ora
Oh
kė
##esis
pip
##estos
1780
Sunk
##ektual
##iuzikl
Sakal
Tokug
nutap
tikru
apiplė
išraiž
Džordžas
procesus
žaidimus
Jeruzalės
išsiųstas
##PG
##kūn
įn
##istą
Dže
Ele
cha
Burn
Chod
Kovo
Milo
šaul
##šiuose
Bator
Dream
Sparn
Sūnus
dinoz
paval
ratas
##izaciją
##utinėje
daroma
grindž
išplat
klaviš
krikšt
svetim
atvykęs
draugai
lygmens
požiūrį
vartoja
galvijai
komandas
nepatenk
prisipaž
vaidinti
Miuncheno
traukinių
Sutuoktinis
apytiksliai
kompozicija
visuomeninių
##bai
Dm
##andu
##cher
##iebo
##well
Loz
Ses
Karm
Mald
##iškumu
##medžio
Aušra
Lengv
darbe
duoda
kaulo
##advario
##amąsias
##entinio
##inantys
Paežer
aukšte
devint
gydyti
naudos
normos
##uotosios
Atstovų
Japoniją
apsuptas
tremties
čempione
Rugpjūčio
dinastiją
koncertas
apaugusios
bendrosios
studentams
suformuotas
##wn
##yte
##idar
Mič
Tong
išgr
krizė
urban
Sausio
kanaun
medinę
mandato
objektą
apaštalų
kalintas
leidėjas
pasidavė
tvenkinį
atsakinga
Vašingtono
gyventojas
vienuolyne
##OM
##ед
##ojū
##anni
##chid
Alo
maf
tep
##ščiui
1809
2500
esąs
Atvir
Kolno
dugne
teror
Romėnų
Vasarą
kryptį
mašina
patelė
savimi
tapusi
Praėjus
artimas
girioje
komplik
valandą
Filadelf
Merkinės
atkurtas
funkcion
naudojosi
aptarnauja
Automobilis
##ilį
##urių
Gyn
Kis
Lyn
son
##eidus
1801
Bran
##arties
Vieni
White
kainų
palūk
gynyba
planet
režimo
šventę
##tingumas
gintaro
ispanai
medalis
nelabai
sukūręs
nepasteb
prisimin
skrandžio
vakarinės
prefektūroje
programavimo
##VA
##gam
##alui
Nub
Gdan
Rusų
galių
kelti
Gyveno
aukštą
riešut
storis
##ešimties
##finalyje
Pavardę
išplito
bendrovę
išrinkti
moksleiv
nugalėti
pranešta
Bolivijos
Olandijos
Vidmantas
kultūroje
leidinius
pavadintą
Antakalnio
choreograf
natūraliai
papildomai
tarptautinę
tinklalapis
##eal
##amin
##enkė
##koje
Cic
Duk
Gaj
##igraf
1808
1810
Marš
Pant
Pens
Ring
perp
slep
suir
##odinam
Assoc
Smilg
parkų
druska
ruožas
Sofijos
buities
meistrų
pasitur
stambių
Dramblio
nusifilm
supranta
visuomet
apibūdina
dideliais
ekonominę
kalnuotas
pornograf
prisitaik
Tarpukariu
valstybinį
vienuoliai
čempionatų
Žvaigždžių
statistikos
suskirstyta
bendradarbiauti
##unų
##ikso
##ontą
##urai
Moc
Tip
hol
##atoje
##ijimą
##iusio
Lapk
drob
ture
Veikė
lapuo
plauš
rumun
##iastieb
Elizab
Saturn
apyvar
galime
rotušė
ąžuolo
įvykis
gimnast
atskirus
centrinę
kelerius
uždraudė
valstijų
Eugenijus
apsistojo
apskritys
migracijos
##eska
##inor
Fut
suf
##arsko
##iasis
##inamų
Radž
boks
tapė
##indama
Emanu
Final
Trama
Šiose
žirgų
Regina
Sudaro
Čilėje
susided
banginių
daržovės
nenaudoj
santuoka
sodyboje
vaikščio
varikliu
Argentina
Pakrantės
pučiamųjų
įvairiems
politikoje
fortepijono
atstovaujamoji
ū
##fel
##ific
Než
pyk
veš
Buch
##ikuose
juodi
##iūnaitė
asambl
citrin
duetas
firmos
neform
plėtra
stotys
traged
##avičienė
Amerika
diplomą
kriaukl
spaudai
statuso
šonuose
skatinti
apardytas
atlikdavo
Magdeburgo
laikraščių
valstybėms
angliavanden
##lu
##ear
##asak
##cess
Bok
Nab
##iskart
ruože
Kelion
Kuomet
Maurit
sėklos
teismą
##ologinių
Parengė
giminai
statybą
informac
pasisakė
sujungta
imigrantų
ketvirtas
užregistr
Publishing
paskutinio
žaidžiamas
Konstantino
bendruomenę
išsidėsčiusi
IN
Edo
Lut
Raz
Via
hem
1825
Miel
What
apšv
land
lerv
vidų
Great
išsip
kainą
sąmok
Senato
akmenį
daliai
kitame
budistų
karjera
penkios
junginys
muziejui
naujuoju
plaukioj
pradėjęs
nustatoma
sektorius
ankstesnių
##opr
##azės
Jol
ful
1772
išpr
##esniam
Henry
konstr
matoma
pakyla
rajoną
įspūdį
šalims
##ietiškos
dėmėmis
išplėtė
lentelė
marškin
patinai
tikrais
pilkapių
tikimybė
atskleidė
filharmon
keliolika
Augustinas
palivarkas
parduotuvė
pirmaisiais
Šventoriaus
Piliakalniai
ministerijoje
respublikinei
##lan
##rec
Kost
Kram
akys
gard
ilgi
inov
pere
##tingai
##uotose
Linas
litrų
telkš
Kristi
tankus
šlovės
Libijos
Serbija
kraujas
Graikija
lietuvis
priemies
veiksnių
apsigyven
paprastas
susitrauk
sutinkama
vabzdžiais
Nacionalinio
##65
##zno
##iūrą
##uolį
##yzel
Gin
Mek
šam
##epirm
Ever
Košc
byla
deda
dieg
gruz
Antal
Dmitr
kuror
puošn
greitk
Panamos
dekanas
nuolatos
Prūsijoje
antrajame
biblioteką
tuometinis
Steigiamojo
pavaizduoti
konsultantas
##ežė
##yrai
Ton
Vai
alj
##iakas
##imetr
##uktyv
Bald
Bert
Peri
Taik
Šauk
Šešt
Brown
azoto
##eisdavo
bausmė
etikos
keičia
moneta
polink
šešias
Intakai
krikšto
migravo
atsargos
pajėgoms
tuberkulio
patvirtinti
rungtyniavo
##uves
Šap
Šer
##ibrėž
##idžio
1822
Jūrų
Narb
pojū
##etuose
##ytojus
Lisab
System
liturg
įėjimo
ieškojo
motyvai
okupavo
sunkumų
lentelės
rūpinasi
Jupiterio
konflikto
organizmų
kompanijai
nuolatinis
čempionais
atnaujintas
seminarijos
automobilius
archeologinius
##ahu
##esą
##urų
##ven
Bay
Fas
Jov
Lem
Šir
1834
apys
migr
chron
##alizmas
##iskiria
Histor
Prahos
regbio
lyderiu
planeta
rajonai
seniūno
panašaus
variantų
aptinkami
padengtas
Bač
Hop
Ric
Vag
smu
##antus
Mair
Viev
leuk
nesp
sveč
Čarl
##agistr
##akrist
##usiose
Brian
Kaulo
kovas
orbit
renov
žiedo
Taikos
aprašo
arbata
atkūrė
sulaik
susisk
Urbonas
geltoni
tekstus
koloniją
Naugarduko
leitenanto
medicinoje
transportas
kraujagyslių
kunigaikščiai
##és
##jas
##išos
Fot
Hun
Nac
šuo
##oklas
Dotn
Manč
akto
peri
ryto
##ėliams
Baran
persk
plati
savit
smilk
##oniniai
Victor
paliek
teisme
apsaugą
nykštuk
šventes
kontoros
sėklomis
orkestras
pavieniui
reiškinių
padalijimo
pasisekimo
reiškiančio
specialistai
##anš
SI
##izna
##ėvos
Šok
šit
##overs
##utėje
Gior
Good
Gord
Rasa
Sarg
Virb
##ingose
Marin
Tytuv
klano
pagyr
stogu
žydus
Laikin
augimą
augmen
elgesį
gyvenę
vyrams
įtampa
Dubysos
princas
šaknies
aristokr
nenorėjo
pasikart
reabilit
užkariau
vamzdžio
vykdomas
šalininkai
aptarnavimo
universitetai
##iob
Bra
##ailos
Brad
Rein
Verd
parą
##ingumu
##metyje
Aziją
Metal
Santj
gyvyb
matyt
meilė
pačia
##enkamas
akcent
kanalų
lygumų
priešk
vainik
Federal
Keletas
atsilik
užvaldė
virtuvė
Daugelio
Izraelis
Kolonija
prijungė
susitinka
intelektual
pertvarkyta
konferencija
If
qu
##ovic
ded
dif
don
ged
##menas
Anos
Izab
grot
nukr
vyrą
Vyčio
bėgti
polin
tomas
Voldem
nurodė
paskyr
recenz
romano
spauda
##ančiuose
America
Spaudos
asmenis
keliose
muzikai
sezonui
vidinės
Kęstučio
aštuonių
pagerinti
aukščiausios
technologijas
FM
##erty
##ilda
Cir
##ovsko
Visk
anot
sode
Heart
Lewis
ekran
Žiemą
dirbęs
miršta
perneš
Ancient
saugojo
kapitono
muzikoje
tikslams
Žymiausi
Brazilija
laimėjusi
parengtas
valdžioje
ekonomiškai
taikomosios
##onso
Bow
eid
##iavęs
##liais
##oniai
##ytoją
1829
East
Ilin
apyr
porų
beždž
imtas
Afriką
Philip
plisti
McLaren
dominik
papildė
įrankių
aukštuma
draugais
nepalank
protėvių
telkinys
palaidota
vienuolių
Jablonskis
menininkas
ekspozicija
kontroliuoj
##app
##enb
##rey
##ostė
ero
barb
opon
varl
##ulture
##ėtojas
Chart
South
arena
datos
kurso
mašin
Snapas
apsiau
palmių
pažang
vėžiag
dalykas
persikr
tankiai
Dainavos
Panevėžys
dirbtuvės
lankytojų
pasirodęs
Valstiečių
ceremonija
karininkai
instrumentas
##zu
EB
FA
žm
##apės
##ogos
##uris
230
Gad
Gom
Tet
1803
neor
##ologai
Karlo
Muham
išdal
ovali
redag
Electr
Išlikę
improv
niekuo
Jadvyga
content
kredito
Aktyviai
nereikia
skrydžių
įsijungė
Šventojo
popierius
Žygimanto
architektų
Portugalija
protestantų
kunigaikščiu
nepriklausomą
hidroelektrinė
Ca
Bed
Kuv
Tos
Vėž
žav
1783
1819
Sver
prev
rytą
sumą
Dniep
Nugal
Rasta
išdav
lyvių
prost
rinka
##islovas
Termin
klebon
priart
šaknys
epochos
fizikas
pertekl
ženklus
paprasta
parkuose
Institute
centrinis
kolekcion
Valstybinė
perstatyta
regioninis
mineralinių
pareikalavo
##OK
##iup
##ujų
IR
##snis
##yčia
Još
aib
dil
##emija
Tras
mėgo
skar
nesik
padeg
serij
šaknų
##iacijai
Awards
Islamo
Korėja
Telkšo
burnos
karinį
menkai
užaugo
Mirties
Pirmąją
kryžiai
miuzikl
nutrūko
savižud
suveren
nusistov
prieskon
surašymą
virtuvės
Izraelyje
Mokslinių
kultūrinį
poreikius
Benediktas
pareigūnas
parlamente
susitarimą
automobiliu
generalinio
nepriklausomas
##nes
##ree
##ubo
HE
##artų
##heim
##ėtus
Naf
##aizdį
1764
Sund
Wolf
Achem
Detro
Sidab
atmet
nebet
nukel
Spears
Sporto
stipri
tiražu
dėstyti
galimai
akivaizd
aprašyti
debiutas
Krokuvoje
nutarimas
Teisingumo
baltarusių
mechanikos
pašventinta
LNK
ižd
lūž
##arais
##inčio
##virbl
1648
Slėn
##anuose
##ikšnos
House
Lenkų
Plauk
dingo
gyvas
kruop
senos
tolyg
Šanch
skaidr
smilta
šimtai
Rugsėjo
akcijos
arealas
gyvūnus
kosmoso
kursuose
nuomonės
regionui
Šiaurinė
vykdomojo
portugalai
Prancūzijai
korporacijos
##iąs
##ager
##akės
##ansą
##iamu
111
Kio
Ruk
##perim
dirg
drak
stum
Karak
aidas
darbu
suded
įgars
Corpor
Edward
Teksas
aptiko
impuls
karbon
kokybę
nosies
puldin
slėgio
įžengė
kainavo
nuolaid
krioklys
mažesnių
specialų
trūkumas
Palangoje
socialinę
Priešingai
ankstyvojo
dinastijai
reguliuoja
olimpiadoje
konservatoriją
##ots
Ėm
##obos
##čiat
Tum
mun
ult
žąs
##ivaiz
Nept
Rašy
akim
garo
begal
##uotomis
anatom
juostą
ordiną
turinį
upeliu
Neretai
Polocko
planetų
seserys
statula
įrodyti
Didžiųjų
klausimą
sukonstr
##ikšnosparn
Imperijos
Kompanija
frakcijos
platforma
Nikolajaus
kariuomene
vyriausiuoju
elektromagnet
##ool
##tes
##ergo
##otės
Žid
##eitis
##mėmis
Ingr
Kolo
mono
Atlas
Gerai
Juzef
Krauj
Vaizd
nebeg
plito
įgyja
Nustat
Vyskup
albanų
pavojų
rajonu
valdęs
važiuo
Šaulių
##ingosios
briauna
daiktai
likimas
plačiau
tvarkos
užimtas
žurnalų
buhalter
pakeičia
penkerių
aprašymas
atspalvio
aukštesnis
aukštikaln
inspektorius
organizatorių
##TC
Įd
Šp
##metę
dez
1851
Sald
gild
segm
trof
užst
##azijos
Adams
Atgim
Jonui
erdvę
##endamas
##usiomis
Tadžik
islamą
išties
pakait
siaura
ženklo
Mažasis
Society
giesmių
statyta
##amiestyje
Pirmajam
nestabil
pakrantė
nuostolių
redakcijoje
atsitiktinai
profesoriumi
sąjungininkų
##OL
##kė
##adi
##hof
##ilą
##amil
##ures
Aer
Uos
Wii
off
šar
Garl
Trav
plon
Buvęs
bankn
tėvui
magist
mėlyna
pobūdį
##inančios
dalykus
iškilęs
nukrito
pereiti
##iografija
lėktuvus
pagamino
pėsčiųjų
įvertino
dabartinį
rengiamas
sugriauta
geriausios
įrenginiai
Burgundijos
Liuksemburgo
pralaimėjimo
##ра
##isa
##ody
##uba
Įk
##imtį
##šąla
McC
šul
##ocitų
##tingi
1300
Budr
Medž
aukš
bylą
ilgį
view
Apima
Galva
Salom
Valer
viens
prasmę
terasa
Lichten
kodekso
perform
##ologijoje
Giovanni
altoriai
labdaros
sujungus
tautinio
vicepirm
įrankiai
Alexander
aukštupio
klausimai
koncertai
sunkvežim
spausdinti
nusikaltimų
##47
##eif
##erš
Si
##ever
agl
ask
##eikos
##ision
##iverž
##omąją
Ryga
Tiur
Tris
gera
##ojimai
Karas
Pedro
endem
ilgus
raukš
įgula
Nemenč
Simono
Vilius
aborig
pakeič
parėmė
reputa
užauga
dievybė
karines
Redagavo
reitinge
skrydžio
kraštotyr
netiesiog
prekyboje
susiduria
užtikrina
profesinės
vertybinių
Kolumbijoje
Vaisiakūniai
##ст
##eum
##odų
ių
##egas
##esių
##ukdė
Baj
Cur
Way
##cinis
##ickio
##iimti
##ities
Gorb
Liga
Ober
pros
Tekst
Tokio
homos
incid
medit
teikė
kovoja
palaim
trumpa
Prūsija
kalibro
tikslai
turinys
vaizdai
Airlines
Rolandas
suteikiamas
valstybiniame
К
##uda
gn
##isuk
##ylor
Ink
kre
Chel
Namų
brah
matė
Monte
admir
giria
pilių
Fantas
Justin
deltos
platus
detalių
reikšti
turnyrų
vandent
Alfredas
internet
parapiją
Akademijos
dokumentas
pavadinimų
##be
##hur
JT
PR
##ikės
Arc
Tuk
ekv
mum
##iados
##valst
1833
Xbox
mant
##esnėse
##ientai
Seime
dažna
duben
kalio
saviv
##aviečių
##ėjantis
Afrika
Saliam
starto
trukus
apimtis
augimas
norvegų
pademon
priedas
žolinis
nurodymu
ortodoks
Silezijos
bakterijų
Venecijoje
mokslinius
##cinė
##odos
maj
##alams
##idoje
1804
Brig
Priv
##iaceae
Skaud
autob
choru
gėlių
linkę
įsaku
##utiškio
hetitų
sakoma
šumerų
didikas
kelionė
pirmame
žemupio
atogrąžų
mūšiuose
surengta
pusiasalį
siekdamas
simboliai
archeologas
šventoriuje
imperatoriui
##oją
##ław
IP
##edos
##ofiz
##ubas
##ykus
Cre
Das
Buiv
Samu
Vaič
pusd
raug
Anglų
Mirus
Vaist
Young
antro
galės
iliuz
tašku
uolos
##ikėlimo
Rudolf
astero
biuras
dėsnis
finalo
fronte
laikus
skamba
skautų
Anthony
antrame
bausmės
dalykai
gaisras
gyvūnas
pajamas
viduriu
Širdies
padidino
religijų
nebūtinai
priversta
rinkiniai
tradicinė
vadovybės
veiksming
Mickevičius
archeologiniai
Čekoslovakijos
administracinio
##išų
##ugu
Ef
##eism
Saj
Conc
Pils
tekt
Bahre
March
Urban
skonį
susip
sėkmė
##iūnuose
##uotasis
arabai
mažųjų
pošeim
Egiptas
Išleido
pagrįst
parazit
plėtoti
zakrist
bazilika
einantis
portretas
redakcija
tvenkinių
Urugvajaus
dalyvavimą
koncepcija
prijungtos
sugriautas
sutinkamas
aukščiausių
konstitucijos
##EM
А
##urd
asf
juv
##omoje
1838
Maiš
balų
bron
gero
muta
##galiai
Damas
Seimą
kitai
nemir
prosp
žanrų
atgavo
miniat
bajoras
hebrajų
iškrito
vyskupu
Jogailos
gaminiai
teisinės
atnaujino
sujungtos
varikliai
pritaikyta
ugnikalnių
vartojamos
Kazachstano
Priklausomai
##hip
##ibo
##tan
##uomo
JTO
Rup
Sor
Was
Zag
ais
1750
1802
Egid
Ferg
NASA
karn
susp
##istato
##iškąjį
##ojimui
Mandž
ciklą
škotų
##iškuose
Dakaro
testam
##išauskas
aglomer
aplenkė
atliekų
sezonus
Kaspijos
Kolektyv
vienodai
kompleksą
naudojimą
olimpines
atsiradimą
##86
##smo
##ansk
Que
Tin
col
kek
vėd
epit
tund
šern
##omieji
Ginkl
Patag
Strat
duoti
liepa
lėšas
sąnar
inicij
Viename
atitiko
atviras
finišavo
produkto
valiutos
vienetus
Miunchene
Petrašiūnų
kultūrinės
darbininkai
gubernatorius
ūm
Aks
Kelp
Mary
hibr
pump
vikš
durys
prigl
vicek
deform
draugu
nenaud
pilkos
visoms
žemyne
Grajevo
formatu
formulė
regionu
sąmonės
Filipinų
atrastas
laikytis
metodais
tyrimams
atliekant
išreikšti
pardavimo
situaciją
slėniuose
aptinkamas
istoriškai
televiziją
##37
##iut
##onk
##štu
##eksą
Emp
Seg
##yklių
marg
mene
ruon
tėra
##amomis
##džiusi
##ygalos
Johan
Karab
Spart
Trijų
autos
bičiu
raštą
sekso
užuom
##iančias
pablog
priesk
tikrin
Karjerą
albumai
pašlait
detektyv
valandos
išspręsti
kiaušinių
Pastaruoju
kooperatyv
nugalėtoja
sovietinės
spinduliuo
Populiacija
Vienintelis
nacionaliniu
##pu
##pel
##ulg
##rent
Hem
sių
##ankas
Hugo
Niek
Bazil
esama
kačių
liepė
Janina
atvėrė
tikslu
ištikim
Elžbieta
pažinimo
rungtyse
skaičiai
nežinomas
gamintojai
septynmetė
pavadinimus
pedagogikos
##iim
##vag
##van
##ėtą
##agim
##ioko
109
Gut
Pie
Sym
Ves
##aklių
Anim
Ciur
Išor
Pati
javų
moka
pušų
Tinkl
kūnai
lauką
nepil
pasiš
Jūratė
paneig
pilkas
paimtas
vargonų
asmeniui
dievybės
pavyksta
priemaiš
Friedrich
Nigerijos
Panemunės
atminimui
pasibaigė
pasiektas
surengtos
Žemutinės
susijusius
sustiprėjo
žurnaluose
Aukštutinės
girininkijos
gyvenamosios
Mesopotamijos
##nia
GM
122
Leb
čig
##bilis
Krem
Lady
Menų
gest
Mahom
Vinco
fondų
nebuv
nesuk
sperm
užmok
##evičiui
Vabaln
eigoje
einant
herojų
konsek
sąlyga
tekstą
įgauna
Košceln
Paplitę
arkliai
efektas
krantus
perimti
tikroji
pagrindų
prižiūri
atidarymo
sveikatai
dirvonuoja
Ferdinandas
parduodamas
pasinaudojo
suskirstyti
lygiagrečiai
slapyvardžiu
Archeologiniai
##irs
Joe
sąj
Šep
##alinę
##eliar
Blue
Viur
reti
##uotoji
esper
kaita
skiep
šilko
##olution
Danutė
Legend
prekes
history
plėtėsi
bendrija
dirigavo
parapijų
centrinio
apylinkėje
geologijos
konservatyv
svarbiausiu
susiformuoja
×
##ivo
##ūnė
##ragn
##urge
Are
dec
##vilės
Burk
Claud
geros
viksv
vilaj
##antizmo
##inguose
skydas
##ažiavimo
Ciurich
kūrimas
įpareig
Dauguvos
aprašyta
aspirant
išsiuntė
kalėjimą
pagrįsta
verčiasi
Telšiuose
eksponatų
grafystės
pareigose
skirtumai
vadovaujantis
##ides
##orks
##yvos
Mst
She
Reig
Viek
kėbul
sieja
suvar
toler
##racijas
##uliuoja
Kitaip
Magdal
augina
moterį
naujak
neatit
pavarų
rublių
cerkvės
darbdav
minimos
raketos
sritimi
kuriamas
medvilnė
septynis
Baltosios
pareigybę
profesinio
Krasnojarsko
koncentracija
##ėmęs
Užk
ply
##auras
##oskop
Gana
Jano
Trim
Veid
balk
##iamąjį
##olitas
##uliuoj
Jakob
Vieno
elips
garsą
imtis
karta
kokią
nepad
sutap
##aikščio
##ografia
kraują
langai
mažumų
seniai
stiebo
sugeba
tebėra
##amerikos
Albinas
Johanas
amžiais
rytinės
rūgščių
Fernando
futbolas
išsiskyr
reformas
sluoksnį
sukūrimo
vidurkis
Respubliką
aikštelėje
tvenkiniai
panaudojimo
tyrinėtojas
susivienijimo
##EB
##aho
##rik
##zos
VL
##ūnės
##oglif
1828
Hard
José
vaiš
##ijuose
Space
nevyk
Invest
atsako
aštunt
juodai
pačius
slenks
Komanda
fizinio
nuomonę
teorijų
Išsidėst
Sąjungai
Tailande
aparatas
sulaukęs
vokiškai
Humanitar
drabužius
draudimas
klajoklių
##ža
##iom
##vit
##incl
##nica
Barn
Gerv
Hand
Viol
griū
kent
Dalyv
Paulo
kanad
prast
##ančioji
Atnauj
bendru
išeina
kojomis
organus
soduose
Edmundas
Rumunija
augalais
įpėdinis
Pakistano
divizione
muzikantų
treniruot
Bolivijoje
drebėjimas
ekonominio
tradiciniai
Aukštaitijos
Tarptautinių
##ор
##stė
##taš
##ues
Rit
gys
Vaiž
dumb
suol
auksą
lygių
žiurk
Pilies
Street
amatai
dvirat
laukus
nuties
parkai
teoret
Albrech
archive
ištisus
kraštai
nuosmuk
pokyčių
sukurtą
grandinė
politinį
portretų
vestuvių
Renesanso
aliuminio
pastebėti
prižiūrėjo
prodiusavo
technikumą
ginkluotųjų
išspausdino
laikraščiuose
##KA
##ín
##ojė
##tre
##alia
##iela
##varą
102
Gib
Lob
lūš
##ačius
##galos
1660
Jukn
Plut
Sies
##iečiui
žalos
Mokslų
Trojos
pamald
rastos
žinomą
Futbolo
bendrab
grupėse
naująjį
stambus
Altajaus
entuzias
ginklais
ketverių
ligoninę
nurodyta
renginys
galerijos
kritikavo
Karalienės
ankstyvųjų
klasicizmo
abiturientų
pavaizduota
organizavimo
tarptautiniu
##otė
##tyv
LM
##abos
##junk
##taro
##ysta
Fak
Gan
dyg
##aring
##irsta
1773
1817
Cast
Verg
Wild
aktą
bylų
flam
##ėjanti
akies
kampu
kortų
žiuri
France
Marius
kepenų
Rolling
bruožas
knygose
vertino
Sirijoje
auksinis
ribojosi
išvaizdos
įrenginys
Jaunikliai
Malaizijos
apdovanoti
praleidžia
##ylė
hom
sed
##anais
Sint
įtek
##iestos
Chevr
Kiauš
Laura
Režis
sumuš
Budape
aktore
aptver
plėtrą
Studijų
Turkmėn
bendraž
bernard
paruošė
patirtį
nebebuvo
pragyven
tvirtino
Chevrolet
Vidurinės
gelbėjimo
tikėjimas
Egzistuoja
nedaugelio
pranciškonų
##vy
##cus
##kės
650
Gos
Rėk
Čiž
##azine
##ovams
Best
Nort
Stev
Algis
Tokių
aktai
gyvos
telek
ugnis
vardų
Ėmimo
##ologinė
kūrimą
natrio
sausas
dalinys
laivais
pritarė
Gyvenimo
dykumoje
Žeimenos
sąsiaurio
dirvožemio
dailininkai
įš
Bun
žyn
Logo
Odis
Walt
pars
##tojoje
Ežere
Makar
paded
param
Kalėdų
Mėgsta
prigim
##istiškai
Romanas
nuvertė
orbitos
repertu
##adieniais
atidaryti
konfliktų
nesutarimų
nugalėtoju
įsidarbino
automagistr
draustinyje
##33
##66
##uvė
##zer
##entr
##galv
##iškį
##kasi
Che
Kev
Ust
sch
##eckio
##ingių
##tojus
Book
Engl
dubl
neab
nupl
virv
##ytomis
Redak
Skait
išmin
šimtų
Tallat
sielos
slapst
uždarė
##ologinės
Kaukaze
Kretinga
Research
bandymai
parengti
potvynių
Lapkričio
prietaisų
uždavinių
##IV
##ainio
##artis
Hart
Kaps
dygl
##eikšti
##iūrint
laivu
Pierre
Reicho
mokyti
naudai
suimti
Makedon
susirėm
traktat
vardais
šovinių
Klaipėdą
atstovus
didžiulę
likučiai
pajūryje
skliaust
tiksliau
altoriaus
nuotraukų
papildomą
pastačius
paukščius
renginius
Aukštupyje
klestėjimo
žemėlapyje
archeologai
Mickevičiaus
suskirstytos
##ий
##lop
##vež
Gh
LA
Šm
##iąjį
##okus
##unda
##šyro
210
Dod
Zem
##ankai
##istad
1776
Kand
apel
emyr
milž
šonų
Žydr
##uojamą
Scott
Vyras
nerib
nugar
upėje
Šachm
Sidabr
bevard
bokštą
intakų
kartas
##iškojoje
##čiausias
Andželo
meistro
planavo
bandymas
galėdavo
kritikai
miestais
nedidelį
paveikti
variantą
Naujajame
išsiplėtė
simptomai
Corporation
instrumentai
melioracijos
organizacijai
##SA
##TR
##pti
##uga
EL
##iliu
##rųjį
ATP
Luv
bbc
##eljef
1799
1826
Raid
gerų
meru
##ischen
Kovos
Lvovo
ralis
repor
##ercijos
##esnėmis
Sienos
diskut
duoklę
dvarai
gylyje
metodu
Vaisiai
pensiją
platumų
slėptuv
gamtinės
pirkliai
reitingą
religinė
sustabdė
Frydricho
inicijavo
karalyste
kolonijas
specialus
Vašingtone
dailininkė
##ów
##upį
##apar
##ardą
Lėk
amf
riš
##kinas
Kons
Liuc
įkūn
Atvyk
Light
Motor
Pomer
Saint
kovoj
nebūd
remia
skund
##tingumo
svečių
sąvoką
olandai
pavieto
cheminių
modelius
įvairiai
Architekt
bendrovei
pasiūlymą
smulkiais
sukilėliai
savarankiška
##ön
##čas
##avid
Esk
Kūl
Reb
Tic
##biter
##iorit
Lešč
Must
Pelk
Pink
luom
Ariog
Susir
ginčų
tiltų
varto
Šeima
##raščiai
##rinktas
Andrea
bazėje
derybų
valymo
įkvėpė
šiomis
##ydamasis
Dniepro
bulgarų
cilindr
septyni
traukos
užsitik
sužinojo
diskrimin
egzaminus
telkiniai
trikampio
užpelkėję
veiksniai
šventyklą
Palestinos
bakterijos
heraldikos
metropolit
##ėtu
Def
bad
##enkos
##uliac
1782
Adel
Bret
juok
senk
Laima
bankr
eismo
korid
Berlin
laišką
slėgis
Miestai
drėgnas
liaukos
senieji
sujungė
vokalas
pozicija
skaičiui
subręsta
vienerių
Christian
daugumoje
gyvenusių
naudojamų
sutrikimų
pasirodymą
Antarktidos
Imperatorius
bendruomenei
##šys
SR
kn
##aire
##mail
##snių
try
##ojimu
##ompon
1400
Kron
bios
iran
sava
##elinės
Kelio
Medis
nesil
Išliko
linksm
neįgal
priešp
##istiniai
Patelės
atsišak
būtybės
Mercedes
Mianmaro
aptiktas
atiduoti
orkestru
pagyrimu
susikaup
tokiomis
lentelėje
nemokamai
pradinėje
rinktinei
sanskrito
susirinko
Išsidėstęs
aerodromas
autonomiją
parlamentą
reiškiniai
skandinavų
spaustuvės
Dailininkas
Matematikos
daugiametis
iškilmingai
paskutinius
Indonezijoje
metalurgijos
reikalavimai
##DF
##col
##staf
##ural
112
Cho
esti
##intojų
Serie
išras
konst
mainų
munic
##iškieji
Dragon
Mstisl
Pirėnų
Raimon
Teatro
Vileiš
apžiūr
tebuvo
tikslą
tribun
Nemažai
##i
##a
##s
##o
##e
##r
##t
##n
##u
##k
##m
##l
##p
##d
##v
##j
##.
##g
##ė
##,
##y
##b
##ų
##š
##ž
##1
##ą
##c
##į
##0
##9
##č
##ū
##2
##z
##P
##K
##A
##f
##)
##(
##–
##h
##S
##V
##L
##T
##"
##I
##M
##B
##8
##5
##ę
##D
##3
##R
##4
##J
##7
##6
##„
##-
##“
##N
##G
##Š
##E
##:
##C
##/
##F
##X
##w
##H
##O
##U
##Ž
##;
##Č
##W
##Z
##Į
##x
##Y
##%
##'
##_
##=
##−
##’
##?
##&
##q
##|
##é
##]
##[
##”
##°
##+
##~
##а
##о
##Q
##и
##á
##!
##е
##ó
##р
##Ū
##ü
##н
##ö
##ā
##í
##ä
##с
##‘
##к
##ł
##л
##в
###
##т
##>
##Ė
##ō
##ī
##<
##⁄
##×
##д
##*
##м
##Ą
##п
##я
##у
##й
##С
##è
##ē
##ñ
##ç
##ń
##μ
##г
##ь
##ы
##$
##ć
##α
##ú
##à
##ã
##ч
##æ
##ë
##М
##—
##•
##А
##ß
##К
##б
##ц
##ś
##х
##É
##ż
##з
##ο
##ø
##В
##â
##ς
##П
##ρ
##ا
##·
##ι
##Р
##И
##Á
##ν
##λ
##ı
##Б
##õ
##Г
##å
##Н
##`
##ш
##Ö
##Ų
##ņ
##ì
##ô
##»
##τ
##ă
##О
##ð
##€
##ε
##}
##π
##Л
##«
##Т
##→
##′
##́
##σ
##Е
##э
##ж
##Д
##ù
##Э
##ê
##γ
##ý
##ş
##Ш
##ļ
##Ż
##£
##κ
##ل
##β
##्
##і
##ي
##ò
##ر
##±
##ə
##η
##ن
##ː
##国
##ب
##ό
##δ
##ά
##Ł
##ί
##î
##{
##ṣ
##ф
##ा
##Ф
##Ś
##ω
##ğ
##θ
##У
##ъ
##م
##φ
##З
##و
##大
##†
##ï
##̃
##ю
##@
##Ü
##̍
##י
##ź
##υ
##山
##▪
##र
##ě
##א
##道
##ḥ
##Х
##щ
##ṛ
##§
##‰
##ő
##ר
##ṭ
##د
##の
##س
##Ó
##û
##ṇ
##天
##Ч
##Δ
##Я
##ि
##日
##ˈ
##‐
##Í
##ř
##ţ
##ו
##ع
##Å
##代
##ș
##έ
##स
##χ
##ی
##ỹ
##本
##®
