[PAD]
[unused0]
[unused1]
[unused2]
[unused3]
[unused4]
[unused5]
[unused6]
[unused7]
[unused8]
[unused9]
[unused10]
[unused11]
[unused12]
[unused13]
[unused14]
[unused15]
[unused16]
[unused17]
[unused18]
[unused19]
[unused20]
[unused21]
[unused22]
[unused23]
[unused24]
[unused25]
[unused26]
[unused27]
[unused28]
[unused29]
[unused30]
[unused31]
[unused32]
[unused33]
[unused34]
[unused35]
[unused36]
[unused37]
[unused38]
[unused39]
[unused40]
[unused41]
[unused42]
[unused43]
[unused44]
[unused45]
[unused46]
[unused47]
[unused48]
[unused49]
[unused50]
[unused51]
[unused52]
[unused53]
[unused54]
[unused55]
[unused56]
[unused57]
[unused58]
[unused59]
[unused60]
[unused61]
[unused62]
[unused63]
[unused64]
[unused65]
[unused66]
[unused67]
[unused68]
[unused69]
[unused70]
[unused71]
[unused72]
[unused73]
[unused74]
[unused75]
[unused76]
[unused77]
[unused78]
[unused79]
[unused80]
[unused81]
[unused82]
[unused83]
[unused84]
[unused85]
[unused86]
[unused87]
[unused88]
[unused89]
[unused90]
[unused91]
[unused92]
[unused93]
[unused94]
[unused95]
[unused96]
[unused97]
[unused98]
[unused99]
[UNK]
[CLS]
[SEP]
[MASK]
d
l
##es
de
##en
##on
p
,
##an
s
c
##re
.
le
a
##ti
##er
##is
##ou
##in
'
##qu
##ar
##et
##ent
##le
la
##it
les
à
##un
##or
m
##ur
et
##te
##il
f
un
en
L
##om
"
##tion
##al
t
é
-
##est
##el
##ra
1
qu
C
n
##ré
##ri
##us
est
##our
##ant
##ment
##ro
par
S
##ans
##ce
A
v
##ch
##ie
##ont
M
##me
##at
P
##as
##que
##ol
##au
##ve
##ne
(
)
b
une
2
##ation
com
dé
##res
g
##si
B
##ée
E
##se
##ci
dans
re
##té
I
in
##ag
##de
##ut
D
##ai
19
##ais
con
il
##mp
##li
e
se
’
pour
20
R
h
##ran
j
ch
o
pl
T
ré
##ain
F
##oi
##ait
##di
G
sur
Le
##ers
##ul
##os
qui
pro
##ale
##elle
##am
##ère
##ux
r
##ité
##pe
Il
J
##ig
##les
an
H
La
:
que
##vi
##tu
N
##ff
##mi
##ab
##ac
##ot
##vec
##ouv
##ort
son
##ès
su
##pp
##end
##ist
avec
plus
##urs
##ite
##ue
##ic
##ille
##né
di
ar
##ion
##ge
##ques
##aire
ex
En
V
##tre
##mb
##ois
##pr
ét
201
##és
##éri
##st
##and
##ction
##ique
##age
##ine
O
ou
##ui
sont
av
##op
pr
al
sa
U
pré
##ill
##og
##iv
##ors
comm
##ter
##ous
«
»
parti
ent
##uis
Ch
200
##ub
ac
i
pe
Les
##ette
pas
tr
nom
##ces
##ord
##ap
/
##ir
aut
##che
##ons
ce
K
##ad
##aux
##remi
##ert
##oc
été
comp
##ure
##onn
##um
##ard
##ond
tra
W
18
##ien
##ay
##ise
deux
premi
ra
app
for
##ati
##teur
##ence
É
##lle
or
##ées
comme
##bre
ne
##oin
ses
##ier
##ct
entre
##ph
cont
##ér
mar
##im
##ance
##iè
##près
elle
##ru
##oir
##out
mais
Fran
##du
éc
##lé
##tique
##erm
##oire
te
3
##oy
es
Par
##ace
##tin
##sent
An
Mar
déc
De
##alement
##ens
##ing
##rou
cons
##mes
fait
##sion
cl
commun
##od
##par
##he
##ants
##all
ég
as
##cip
##ations
Un
##éd
##rit
##ours
fin
##tt
##iste
199
##oit
##oci
ont
fran
##amp
dis
##ême
À
car
mon
##ib
cette
##aine
##rois
Elle
ob
##ture
gé
##ang
##ubli
##av
imp
au
gran
##ments
##ron
st
##mbre
##aint
inter
##eur
mé
##aires
##id
ser
##lis
##ouve
##ob
sous
##tes
##min
##cu
##mé
##ec
##itu
##ts
ti
##erre
##co
##nes
##çais
Al
##être
exp
##ats
##ong
##tif
4
ép
ab
était
lui
##ales
fil
même
rég
##ate
##ni
y
fut
##ante
né
##éra
##nées
##able
##tions
;
##cien
être
puis
##alis
ad
français
##elles
après
##ussi
##sid
5
##olog
où
In
che
##aient
trav
##insi
##ven
col
lors
##ass
dont
Ar
France
##qui
##endant
leur
am
Je
ann
prin
##th
également
acc
##onne
trois
17
##ouver
198
me
##ég
rec
on
Saint
##ourn
pos
aussi
##oli
géné
##igne
alors
u
##ser
##for
##man
##use
publi
ju
ainsi
autres
jus
situ
nombre
##puis
ter
##tis
cré
év
jou
##orte
##are
diff
##ral
des
##hé
##lè
##uv
ro
##ieu
##iques
je
##des
premier
mil
ma
prop
Ét
##lement
197
ret
équi
rep
der
##titu
grou
Y
##lan
6
uti
##ici
##ères
ans
ass
cou
pers
première
##ov
esp
##agne
sé
sp
sec
Ce
##tement
si
##ose
##cl
##oute
déb
tout
##jet
##stru
##ins
partie
ville
ag
##iss
##alité
##ich
ren
##ième
##riv
##enne
contre
Com
##ia
##ten
éle
hist
##tiv
ph
res
##gl
##aison
##ieurs
sy
eff
##ell
##fin
##ains
années
##ays
ces
Paris
not
St
temp
perm
##ages
##onc
##ris
##vis
##osi
dire
##ari
##ivers
##its
Q
##ak
nation
196
cent
remp
dép
peut
##érie
bas
##ire
##ues
princip
min
att
form
##cul
mus
mat
##ud
%
##az
avant
utilis
ins
##00
##agn
7
##rent
##ode
depuis
##gan
jusqu
emp
##ole
groupe
##vient
off
présent
région
##ern
##tiques
Jean
soci
##ust
##ures
##nement
##ém
trans
grand
aff
##erg
##été
##ign
8
##raph
##ach
conn
fam
##em
16
##une
##cc
plusieurs
commune
##ges
##enti
fr
##ents
##ème
vers
##én
poli
produ
conf
hom
##elon
prof
##ente
mort
##olu
étu
##ampion
Gu
of
man
##éric
gu
Re
w
##tres
très
personn
##lu
##aî
##rie
##cher
##ow
15
cor
Dans
ci
##rib
Z
cour
Cette
##pes
##éré
##ctions
##ités
##els
194
##asse
sou
Ne
##ail
##aille
##ath
##mis
##ade
orig
##vel
##tit
##amment
dépar
##ore
##ies
9
##semb
conc
##if
##ton
fond
##oul
fois
per
ils
nouv
##mée
suiv
année
##opul
##tic
##ble
cin
permet
quat
cap
inté
##uc
avait
pays
##oins
##ah
avoir
ancien
équipe
##ateur
##su
0
195
##ide
long
##dition
##ug
##mand
##ches
##ric
##oh
nouve
##onde
##ét
organ
##anc
mont
sc
##ves
peu
##ver
##omb
##ène
##aines
10
ri
poin
##one
film
##vin
popul
constru
cel
at
sans
notamment
##tive
k
##enn
12
inf
cert
monde
##rière
disp
bien
sep
##ellement
hab
##résent
##ograph
autre
##ête
##aque
Cl
##ites
Qu
193
##tés
##core
temps
saison
famille
##cep
appar
##ép
##ry
dro
##aut
##teurs
Après
##ili
##ler
##antes
##ines
améric
place
##lig
import
Con
The
début
déf
no
vie
##nation
représent
présid
vi
cours
part
##endre
Car
réalis
port
co
Se
##ss
##élé
lieu
sud
tour
quel
suite
im
op
alb
Th
titre
##ps
différ
##rée
##ze
##év
Am
##urant
ouv
servi
nord
ind
Char
Son
champion
##uss
On
##oque
##ix
##ult
##osition
14
##vers
rép
can
##ram
dével
##uses
##ok
œ
##ierre
##tel
##rop
rel
devient
envi
bat
##ann
11
leurs
dom
oc
##land
rapp
char
ni
rés
##emp
13
##istes
##rer
rom
général
Une
enf
##vier
États
mod
club
X
vill
partir
##aul
##form
série
appel
cô
encore
nouveau
indi
faire
##lier
sol
organis
département
gouver
192
vis
album
compos
pri
tous
##dre
arch
ver
quatre
fem
##sement
Lou
sup
##ieux
##ature
##ôle
mis
espè
##omp
univers
##illes
fon
##aill
##ération
rest
ligne
ord
##ourg
##cont
##tier
Eur
##ouvent
li
Sa
##rig
non
Mont
loc
##int
##lise
dev
soit
pendant
191
the
péri
pass
z
inst
dern
##éci
##ke
Pl
Sh
guerre
fa
##eau
française
##rand
environ
##ome
men
##urent
vol
##tient
mal
Me
profes
grande
##rier
_
thé
##oph
##ule
cul
public
site
##ori
##gn
lég
##suite
##ration
siè
##fic
##lin
##illet
id
##fi
offici
##aiss
##cid
##uni
##fois
##adi
##ût
œuv
match
##ret
mo
##vision
moins
pouv
##era
##ienne
préc
Pour
##ros
2010
histoire
##ict
Ph
compr
constitu
##rique
2011
##orti
##rê
habit
##be
spéci
##lo
donc
##iti
celui
##rés
fils
politique
##ope
Unis
cas
dess
##avi
##ital
Bar
dém
##serv
##erie
##ane
internation
située
##rale
II
2012
mai
##itaire
forme
##isme
term
tou
##cteur
Or
##enant
particu
pres
quelques
exemp
##lex
##semble
##ril
##eu
##ras
selon
repr
nouvelle
oct
##yant
inc
##ast
2009
met
##ologie
##aur
rencont
tard
éch
##omm
##erv
##ribu
##dic
liv
##cou
histor
##aï
juin
##olution
##amb
celle
prog
2013
##aise
ouest
dou
Col
##onom
##éb
##lic
##ède
ensuite
2014
##alle
consid
maj
joue
##rait
projet
Pierre
##yn
mes
##ison
fer
##ande
État
territ
##lie
##ative
village
##gu
##rage
##âte
Es
deven
##ae
##entes
rem
##istre
##oot
and
époque
trouve
##ki
dist
##ourd
mondi
eur
comb
##obre
alle
Louis
Jac
ess
##seil
New
dernier
##ame
Can
père
succ
##seur
Pro
##fs
carac
##assi
actu
2008
##join
##nat
sorti
écrit
##pendant
##ché
hui
##art
##sions
gra
ca
##anvier
toute
lib
particip
président
##tembre
don
##rip
2015
deuxième
gr
église
##oût
El
étaient
##èrement
Ge
##ets
ty
septembre
##tant
janvier
journ
##ables
octobre
##ali
##èrent
situé
réf
â
##oth
peti
î
mars
origine
vo
Cor
Joh
étant
##ient
##aît
Lors
déce
##ateurs
juillet
contra
nombreux
reç
##ball
##pl
##atri
télé
##io
##sionn
Ces
Europe
##éné
##lac
étab
Ils
près
mois
2007
syst
##oly
tant
cir
décembre
population
sub
moy
centre
but
##son
roi
##oires
##ange
##lection
th
ayant
société
contin
second
fonction
chez
##ger
##iens
associ
Mich
##ises
nive
ensemble
gouvernement
lang
derni
##ouse
##cup
meille
dét
##iter
tourn
entrepr
##minist
##vembre
##oppe
##uit
nationale
190
angl
##âteau
##ances
avril
int
novembre
camp
##la
##cle
##aume
##tionn
Br
&
cri
face
##tal
milli
##ulté
eau
gar
##ences
plan
##vent
activ
poss
##ys
##opé
2016
##mande
##illi
août
##mission
classe
##orm
lit
tech
aur
rou
doc
chef
##ditions
jeu
souvent
national
##ls
bar
homme
bâ
##atique
##mbres
compte
afin
##lor
prob
artic
Be
2006
jour
##cipe
##jours
Sch
po
##èg
##pect
espèce
Cou
Nord
##cess
prend
carrière
##qué
administ
##port
##aw
durant
##unes
##enc
supp
Is
muni
nature
ww
##oles
réc
##ress
communes
##ôt
recher
##iles
nommé
www
chans
##xe
##seau
##uli
doit
rapport
cinq
##oix
développe
##usion
reste
##ian
##apon
##ense
##ile
élect
##èle
##uel
commer
2017
##ute
##up
##ètres
rue
dés
Ad
##aliste
Pe
As
##aud
tot
##gé
atte
##ik
Mais
provin
chaque
armée
##ork
seul
##yp
habitants
rév
##évrier
base
##reg
189
##quel
Paul
membres
autor
rôle
entra
quar
sera
##ck
##ith
reg
membre
eng
##ice
effec
##gré
–
ref
Rob
février
cad
études
effet
##uvent
##âce
service
exemple
niveau
lar
##ilité
##éc
##èse
John
él
##jourd
dési
Ab
économ
##çois
##ars
##val
Alle
Mal
point
##ttp
Hen
##ennent
décl
parc
Univers
##ière
europé
toujours
premiers
Sud
donn
##auté
25
municip
Charles
Bel
##tent
##uire
##ète
##éti
pra
six
capit
##ony
peuvent
mag
système
ext
insc
##aissance
découv
##ennes
lim
opp
porte
période
retour
2005
##nom
origin
188
##temp
culture
américain
cat
rap
roy
##opp
Grand
scien
##quer
foot
présente
##rieur
sig
187
cal
bâti
hum
troisième
hau
pouvoir
30
objet
obten
He
##ula
dès
cet
rejoin
François
##ax
##ada
anim
droit
##mer
##ly
beau
Mon
=
##cident
##cture
Te
territoire
empl
travers
And
Man
##hi
##isation
voit
##tière
us
gen
jours
##roï
vict
env
œuvre
2018
toutes
cro
caracté
##urg
défin
coup
Roy
prom
##cs
finale
château
coll
ense
2000
nombreuses
Ac
##ape
mondiale
musique
poste
enfants
##igue
21
certains
##ock
##œur
##ox
allemand
pein
##tien
cy
fl
186
rend
##ublique
lequel
##çon
mari
succès
travail
Di
##ina
##oun
Val
24
##rag
##asion
Geor
bou
##ones
##ta
Marie
université
jeune
cant
##ani
école
2004
##rain
fille
quit
##rang
sein
##auv
arriv
class
tête
##ner
Sur
dit
personnes
prix
trou
##nés
grâce
##erb
fais
incl
points
Rép
Guerre
île
##duit
##écu
Af
arrê
##tifs
22
ordre
##til
##urb
inform
rev
fort
maison
championnat
connu
Esp
bi
##coup
caractéris
end
agit
##âtre
Selon
aujourd
##érence
##enir
Cent
##sible
mét
élé
##alif
construction
remporte
##dio
##quelle
elles
##erc
furent
hommes
##yl
reconn
##yd
abord
##ision
résult
program
iss
##erne
demi
##ument
##ka
participe
laquelle
##uf
tex
##lée
##ara
conserv
mouve
##uve
auc
##rin
##to
occup
##vement
vari
article
##érieur
entraî
femme
cath
relig
passe
version
##ront
création
corps
23
art
mot
piè
large
roman
anglais
##vière
##ase
Ex
##oss
développement
sour
rencontre
##ppe
voy
généra
artis
##lique
syn
principale
##xim
étudi
##mon
propri
##ma
raison
##ules
simp
##téroï
##orté
##ds
professionn
is
br
préf
##sence
##ick
##éro
York
déj
indust
plu
âge
##bles
brit
joueur
divers
##magne
##ity
##pi
##illeurs
ital
formula
production
##isse
##oll
Ital
viv
hô
##ana
astéroï
chap
##atoire
##téra
jeunes
Har
##rice
petit
occ
archite
mise
##once
commence
major
dernière
observ
?
##lant
Depuis
Alb
Sal
Ren
num
Si
épis
seu
##der
sal
fac
côté
République
enreg
##yle
ministre
##orie
siège
loi
2002
effectu
sort
##ression
##aye
##usse
ancienne
Est
Inter
proc
développ
dix
techn
province
##ime
date
font
longue
##rét
direction
##ote
##rant
déjà
##ologique
install
2003
##uté
ceux
type
ami
##iné
initi
pol
185
semb
élev
blan
contr
##érique
édition
##part
Allemagne
Angl
route
eu
ve
##agnie
##ovi
Ed
San
éd
travaux
cli
fig
devant
qualif
football
terme
1999
division
##och
Jacques
##rist
Ber
##crip
pris
##osé
##nie
expl
##neur
considéré
indép
##ley
##tie
tu
##cide
particuli
Ste
tradition
combat
Robert
##cte
rapide
formation
ailleurs
##ren
inv
Sp
he
##voir
sign
179
chanson
##ville
én
##leur
mère
##quent
priv
##ographie
##ication
Coupe
command
Alex
obtient
Soci
va
produit
184
##cole
##lace
2001
état
##odes
Ses
plac
parfois
26
littéra
travaill
abb
esti
maî
frère
donne
militaire
const
milieu
##iller
Hist
##estion
Aut
meur
livre
méd
unique
bois
##pond
publié
##iers
mer
beaucoup
colon
##ano
règ
##ting
exist
##ha
##titude
##idé
amé
compéti
Fin
utilisé
fré
nécess
2019
Gar
##men
28
Phili
Ang
##oise
##auche
seulement
##lande
arg
accord
##oration
Mor
##mique
accue
Ou
rivière
##ières
Ben
recherche
conseil
##vant
##andis
##old
communauté
zone
emb
Mi
Canada
auteur
Sec
parmi
1990
##ocra
##uré
27
particulier
##ards
directeur
fra
scène
chemin
du
occasion
réseau
For
ten
Michel
existe
##ition
##respond
##niques
##tivement
Champion
fé
Cependant
née
feu
international
Henri
##can
eux
##annique
##tout
##je
##vo
Mus
Italie
##ost
##da
aurait
stat
jam
Premi
##ysi
intég
accomp
colle
##duc
Lond
mom
183
Plus
différents
##ils
suivante
ém
suc
créé
canton
femmes
##itaires
Comp
liste
##rich
##ende
Jose
1998
##bourg
Bas
bataille
cadre
autom
Ins
##pec
Université
influ
millions
Rou
correspond
élections
langue
Tr
##ible
Avec
Union
surtout
##gne
mesure
sem
##ouverte
phot
équipes
Bl
remplac
##cal
##did
##ènes
##ié
Marc
cé
consac
sélection
##reur
##duction
##igh
##tiers
seconde
petite
pal
haut
tomb
voir
##alités
autour
Conseil
aj
##act
Nouv
retr
Nic
##ames
##èmes
Gran
principalement
##con
##quis
premières
équ
plupart
Tour
cependant
##gique
##ini
mouvement
grands
##estiv
##air
##rite
dérou
bord
Su
administra
##oz
exc
##rir
Cons
marque
américaine
ach
tandis
##difi
puiss
##quant
cher
##by
##tist
victoire
##êque
##atiques
Ag
We
At
cause
##olymp
##ainte
avi
##orth
##tine
Ass
##ip
##ess
##ash
Québ
##ablement
##rid
rejoint
##èque
épouse
classi
##ulaire
table
mor
Che
Emp
olymp
signi
médi
viol
29
cond
##oign
propre
##ustral
##af
genre
##iz
écriv
domaine
Cal
##lles
ciném
anti
##ciens
##jec
demande
##isé
##ception
##na
##att
différentes
##êt
appelé
Gen
là
##000
style
##umi
Québec
aide
##émie
propos
##erts
chois
##eterre
jamais
Bou
##II
Cel
##lit
##aître
cit
réalisé
dispar
gare
prot
Nor
##titut
##less
Parti
britannique
##olique
##gment
##rige
collab
##issement
##dec
commerci
Pal
Min
##alog
##atif
1980
##rim
##estival
Gal
##atives
quartier
##vre
##eld
stru
entreprise
seule
atta
trouv
nouvelles
élu
!
mul
##iteur
Angleterre
reçoit
]
##rict
moment
##tor
log
##ades
##estre
dat
##ald
quand
Joseph
##ardin
manière
##ettes
##mar
précéd
del
sept
##ingt
31
181
œuvres
##quée
Afrique
##sy
lanc
féd
##él
Martin
tent
gauche
##atis
suivant
avaient
donné
adap
possède
expéri
Sc
enseigne
réun
important
espèces
matchs
Jeux
Japon
perd
sau
appro
lance
##ives
##aite
trop
##chi
Bor
Gi
##pons
##ouss
reven
Tra
vale
##yc
journal
##rom
arr
Espagne
finalement
##isl
Ligue
élè
orient
to
Cas
certaines
ap
position
terre
bl
[
action
imm
##http
fab
change
##ham
Cour
établis
historique
##uments
##cier
##berg
music
inscrit
Lib
##red
##inc
consulté
##rages
##éon
moyenne
diffus
Mad
##ône
sens
supérieur
pat
phil
lorsque
dipl
lab
super
##eures
##ibli
##rouve
présence
1970
##mo
lig
Ser
généralement
##endance
vit
professeur
##tice
##temps
##yon
##urée
problè
espagn
navi
##rec
lesqu
##assin
candid
disc
por
dirige
activité
##app
##onneur
respons
Rich
mati
Per
principal
classement
##omme
kil
travaille
##aly
exploit
##uri
crois
Russ
sujet
1997
##gh
commenc
##étique
##mment
aband
lac
seigne
##ographique
fémin
Bro
meurt
##ambre
cela
augment
huit
prév
page
résultats
Londres
Nation
##iver
vingt
##eth
etc
—
##ôme
Fer
scientif
main
Bern
transport
Pet
conse
Rh
opéra
##ks
grandes
##ève
pil
annonce
##vention
Rome
50
groupes
voie
##aude
dirig
ali
Nouvelle
##forme
##alise
compagnie
station
construit
vic
urb
##rées
maint
Alexand
##iment
proté
##érieure
1996
théâtre
pu
retrouve
Lu
##rise
vend
décide
##tives
##20
##arch
médec
##ood
vue
##lam
célè
##aj
180
Co
##ares
ant
Pri
Ainsi
sus
##ions
termine
Li
all
##rat
musée
succes
##rad
composé
##tistes
spect
essenti
##roph
##médi
ban
hé
##otte
##illiam
physi
##icile
Hau
fai
Pays
béné
##ination
##cription
1995
##let
##anne
dessin
Cro
répar
Davi
rapidement
matéri
soi
continu
##inture
meilleur
##leurs
instru
tels
suff
importante
pont
##ager
##pt
comté
..
...
##anie
compétition
##ailles
auprès
val
##ologne
##oie
nous
##aie
vall
saint
ill
##adémie
mi
nég
voyage
Ro
##anté
kilom
programme
##ind
##ld
réguli
indivi
organisation
##tié
##édé
##istère
créée
Thom
Deux
commande
Dé
sortie
méth
départ
##ositions
termin
##ung
Philippe
Ouest
Tur
chi
Cap
##landais
comprend
parois
sais
axe
interp
prendre
III
mètres
William
association
Au
honneur
amb
surf
serait
regrou
##érit
Mag
gal
##dien
ven
services
Franc
Chris
industri
##sez
bâtiment
Comm
Rom
course
entrée
ple
##orts
##ètre
100
peup
##mont
étend
duc
##olue
##cur
voix
droite
ara
##lément
Comme
lut
sing
1994
comte
possible
découvert
troupes
##esse
vidé
intérieur
adop
##ky
remar
##ave
capitale
chaî
transf
Société
##ura
##utes
Belgique
internationale
démocra
films
bel
ceinture
contrôle
Er
##lev
##ensi
iden
##ack
argent
1960
##isc
David
district
##rive
étude
##of
référence
##tienne
accep
celles
1992
pie
catég
##avor
japon
##aci
cinéma
proche
Del
libre
##alisation
Empire
##oe
distin
atteint
moi
##glise
pub
##ary
##ney
énerg
envoy
Gra
##cience
°
##veur
##ates
Gr
éli
façon
Pendant
campagne
épre
sac
activités
orb
patri
comporte
personnage
##rès
fit
Mil
Grande
##we
résid
politiques
cer
villes
multi
##ark
##ël
Mc
##oux
équip
##resse
émission
Christ
trib
ferm
Maur
intérê
Op
assez
##ivi
##nats
##ouverture
pratique
mê
##titul
bless
faisant
##aptis
##ica
tri
altitude
stu
Sainte
##issant
1993
impos
Bret
nouveaux
##ino
École
No
40
##ca
##rog
desc
##yth
prote
chan
appr
semble
intitul
Église
produits
##vie
législ
##semblée
Bien
bon
1991
##fique
Dom
arm
Cet
Nicol
philos
##duire
voi
champ
nor
Aug
##abilité
titres
##chev
##onyme
##net
total
espace
182
##dia
remport
Kar
Ré
signe
déclar
joueurs
demand
forces
modèle
apparten
populaire
éléments
couv
traditionn
sim
Loire
données
texte
vé
##olf
Chine
concern
agri
charge
##fication
##ama
Mos
Centre
##ory
doi
aucun
##ber
contrat
##ene
double
italien
den
chac
##gal
sépar
Beau
évêque
droits
rouge
##gue
publique
Amérique
be
attribu
+
noir
##oré
évolu
générale
André
civ
##térieur
##tait
document
scul
##éan
Durant
ouvrage
Cam
abs
mas
Fi
##bres
vain
nav
propriété
Austral
dessus
économique
##anger
Georges
##car
alli
##inte
178
arrivée
##uy
cheval
##ster
fron
objec
Cert
##key
Mer
devenu
##uisse
##ty
ress
Des
exécu
devenir
Bra
sciences
taille
##nage
##roit
Ver
##oud
fusion
Gre
vra
passage
intro
sit
quitte
russe
Hol
##agé
spor
Institut
affir
##und
##ira
Mac
publie
Sam
astéroïdes
##action
psy
sécur
##istance
historiques
technique
Pas
##eux
##ormais
##tern
personne
savoir
##ed
vites
anciens
Port
employ
Not
centrale
taux
Sim
air
retra
vient
##azine
terrain
favor
Rec
Seconde
##my
mettre
##issent
direc
Thé
enc
artistes
##itement
##acité
étrang
critique
##vint
##termin
##quête
apparaît
##ereur
Bu
Russie
kilomètres
##avant
Bal
source
quatri
##bes
évé
tém
##oyen
Claude
US
##orer
##cons
lorsqu
mission
##ologiques
1989
##aug
Gl
Bretagne
Entre
heures
plut
##ker
attaque
européenne
##ots
institu
cité
quatrième
pièces
##gén
Ke
enregist
orbite
##tm
Vict
##50
Luc
lignes
Wil
##éli
allemande
élection
Thomas
fourn
engage
Pré
siècle
ris
Em
administration
compris
écl
ir
##onnes
télévision
##illon
bande
##çant
principaux
##ott
sold
##ena
parties
Prix
##lon
olympiques
montre
##tian
collection
connue
##nements
Royaume
Mat
salle
##anti
défini
##érer
##ses
latin
##own
Académie
assure
http
derniers
situation
Albert
enti
finan
##ublic
fix
mention
##enu
Wal
somm
##aix
permettant
##ington
établi
##ague
##ael
vois
##iblioth
##oti
affaires
secrét
presse
vallée
##fie
hyp
célèbre
dég
1988
simple
marché
faut
situe
maire
Fl
livres
##este
arrond
##osse
##uelle
FC
sout
plate
numéro
épisode
seigneur
##ides
désormais
abbaye
hyd
Associ
lett
grec
collec
arts
surface
symb
peintre
plutôt
km
Jus
##dique
##lication
##ission
majorité
valeur
officiel
section
record
##iser
chin
inspi
reti
contribu
##ym
##pital
Vill
##résil
march
##ruire
cinqu
##ducation
Wh
améli
##ko
##arde
distribu
défense
##ola
mém
clubs
utilisation
Kh
Elles
Bo
##mat
Pat
##tées
chapelle
##ogne
gl
accès
vidéo
##mond
##gie
élimin
côtés
af
maître
caract
naissance
Guill
##orld
1975
décrit
collè
##ford
Dou
##èles
aliment
aucune
Club
chré
1950
reçu
##tation
manif
Pologne
##lent
Histoire
##dit
##gée
Sar
Éc
représente
mariage
James
recon
propose
Français
outre
Don
qualité
Den
##êtes
##onie
##ça
structure
1986
##sh
radio
Suisse
environnement
proxim
##oue
top
Bos
Flor
buts
issue
prise
jeux
respec
##éral
municipalité
##za
Tor
##raine
##ficie
##ieur
confir
malgré
consé
restaur
Parmi
conv
complè
scén
##oncé
Art
décision
jui
Anne
chaîne
##édération
proximité
reli
catholique
force
hôtel
pén
Richard
volont
##ata
##atur
Ir
##ricité
Lyon
opération
National
Her
##mph
fonctions
reprises
##ester
htm
éditions
tit
nuit
révolution
Mex
mob
astéroïde
personnages
Vi
##alisme
Nicolas
passé
##ider
conditions
##alisé
social
inves
##lég
Dan
ouvert
circons
moitié
Angel
diffic
##unis
Sav
##moins
##die
Cong
##aces
##ourt
circul
canadi
Ju
appelée
sécurité
complex
##oure
##ament
rang
##arc
petits
##ressi
propriét
Fre
enregistre
##ires
réalise
000
##onné
Os
vitesse
##tempor
régions
enseignement
tournoi
décid
Ros
Mo
appare
##dy
vice
##née
presque
condam
extra
arrière
##réal
représentant
philosoph
édifi
Bri
forte
député
ball
1984
##qués
##ativement
santé
##ronique
Terre
statut
occident
##eté
figure
##êche
##ureau
##ario
mode
sh
Dès
certain
##go
longueur
Et
ru
noms
Berlin
##cé
zones
##outes
médaille
franc
utilisée
eut
##matique
individu
##ago
excl
##ttps
##nent
mand
1987
chev
##viennent
reb
lieux
conç
Sy
##gement
##ctes
enfant
XV
mêmes
pap
doivent
Ban
prince
##oile
dra
##aisse
##arité
##cteurs
Ter
influence
bes
empereur
Rév
Sm
Arg
secrétaire
armes
jouer
secteur
dispon
##orp
##itation
Met
concernant
oppos
ingén
chansons
1985
fou
police
##sui
neuf
actuel
moyen
##quence
concep
pou
##riques
##off
pens
Amer
chant
##atrice
fondée
possi
George
Sant
Toul
sovi
terres
##ish
royaume
moteur
##eb
minutes
réser
chasse
pot
passer
classé
lettres
##bilité
réuss
suivi
esc
actuellement
identif
##hic
énergie
probablement
Juli
arrive
commerce
##quet
##dé
actuelle
protection
joué
##ensement
Bul
Van
lie
Bre
loin
##ockey
pièce
psych
##ury
Journ
revue
enfin
pierre
écrivain
##ya
Du
victi
fondé
##moine
haute
question
cherche
artiste
Vol
idée
##ibliothèque
couleur
oblig
analy
##trice
##ault
##erman
##bert
offre
Rég
image
continue
détermin
##bo
##tell
recue
##ga
##duite
Cont
##bor
von
classique
Victor
All
reprend
calcul
mine
##alifor
relations
composée
contempor
Pi
poly
tournée
##antin
##lip
refus
entreprises
intérêt
##idae
espagnol
Nap
1968
1982
détru
##aro
Bernard
acteur
toutefois
gestion
tableau
bo
blanc
##mann
parents
##va
dyn
suit
rent
1945
lyc
##itant
chante
##yr
##uil
dispose
##itée
##roy
Ri
ras
capitaine
Air
usage
faible
Sup
##andes
polon
##itz
Dis
obtenir
choix
Trois
IV
Première
##ova
unité
lo
multip
chargé
professionnel
belge
traité
##oni
Prin
Ali
mécan
concl
diverses
îles
##ji
Uni
##met
Association
##nel
garde
ait
formes
##tisme
##culture
cav
prépar
Australie
##cles
souh
destin
sculp
60
appari
tel
catégorie
1983
##êtres
West
177
Ville
inaug
1940
##tionnaire
donner
véhic
hauteur
Bur
créer
Montréal
utilise
##ski
visite
directement
derrière
Toute
recensement
céré
Arch
##ita
médic
pron
Grou
suivantes
##duis
cab
dén
arrondissement
Internation
##ek
35
partis
militaires
##arn
spectac
##cy
bran
nob
##main
Blan
illust
Guillaume
bâtiments
attein
##aste
##sements
Ham
revient
##ige
cam
##rick
##olume
##itch
ratt
devint
information
##mage
ang
Francis
##uste
riv
##itre
poursui
##agnes
Fré
Seine
stra
Ori
##don
deme
World
##way
pourrait
soutien
1981
constitue
rendre
théorie
Califor
##ibles
Haute
nommée
##matiques
1930
gaz
repro
Bon
crée
##nov
supérieure
desti
tempéra
gros
##nies
Bi
déli
arché
Ob
##ye
concent
physique
pied
ministère
##tième
Conf
##éries
##édie
Révolution
##enue
Por
May
Dani
##outh
32
##tée
saisons
##émique
##entin
##itude
techniques
##rire
trouver
scientifique
langues
festival
Lor
désign
architecte
##ries
1972
##toine
Max
mur
hiver
1979
magazine
##per
vérit
##ieuse
##otes
découverte
##inaison
arrêté
compar
ath
label
1976
##ardi
bre
##ément
##esti
exer
parlement
##azz
33
domin
répond
monuments
Bourg
Brux
Bat
##aissent
frères
cœur
régime
##pare
vu
Mé
exposition
##III
ble
phase
circu
##ège
concours
moderne
##ón
extérieur
##bon
lesquels
autant
dernières
Antoine
Journal
Cat
Vers
##tein
courant
sociale
débuts
Ma
##ésie
problèmes
1977
gagn
seront
single
quelque
épreuve
1974
##fort
1973
construite
auteurs
maxim
##adie
conser
Ég
##ings
soldats
via
Trans
portant
36
##ja
remporté
##agné
peuple
ouverture
Jack
Puis
oise
comment
##crit
##ES
sources
##alisée
gard
1978
Bruxelles
Bour
##chement
alg
liber
eaux
transform
Inde
##rême
industrie
bal
org
##ool
Dieu
frontière
test
##cupe
officiellement
devait
dos
cell
##ocèse
rais
bomb
##iée
sœur
télévis
##rons
##van
Alexandre
enne
monument
##érant
##ER
proven
##rement
puissance
exploitation
essentiellement
Hong
Ann
guit
##endra
##erse
heure
aéri
naturelle
sex
conseiller
##ube
##elli
Gab
quoti
financi
##gin
économie
##odie
##ctures
obtenu
##ett
mâ
promo
Royal
montagne
Alors
##prit
débute
##kh
massi
bour
semaine
déclare
anne
Jo
Maurice
phé
occupe
central
Michael
##do
objets
meilleure
Assemblée
##cer
Anton
mondial
littérature
japonais
45
Bill
Premier
Tim
quant
##éder
sert
let
françaises
Lo
relation
veut
navire
étran
pape
##burg
permis
80
Ray
##run
##ension
ouvrages
##rég
ast
code
gouverneur
côte
faç
##10
War
Dame
1944
##án
norm
entraîneur
front
fonde
court
##chant
recherches
bonne
évolution
Los
permettent
Av
##tex
##AR
spati
existence
utiliser
articles
divis
accus
défaite
orch
décor
direct
diam
évolue
Mas
##érop
Plusieurs
Cath
modi
176
élève
stade
mathé
mach
retraite
##riche
forêt
Malgré
coupe
##ight
bassin
importants
##ugby
Rog
croiss
comptait
##itt
##gg
rejoindre
intitulé
mieux
architecture
importance
sauv
longtemps
##astique
##ulation
##oirs
##uves
##utenant
Championnat
remplacé
##ister
vous
semaines
##ords
orth
##ications
##rs
Mexique
tient
étape
dépend
Div
dispos
1967
impéri
civi
limite
four
Tom
Stu
##abil
ate
retrouv
html
aller
##auss
##osph
Pont
Oli
fle
Alg
##ical
##rales
peinture
pian
nouvel
Guy
prim
hockey
civil
nos
##utés
Né
nécessaire
##onse
théor
lois
connaît
fi
tre
cime
lettre
Notre
Vienne
1971
1920
objectif
##arm
grav
cop
Fond
lic
sang
##ologue
durée
Monde
Champ
indépend
##cule
bron
##ouveau
diss
rive
couleurs
##ictionnaire
Press
voul
##inet
##IS
##édrale
Toutefois
paroisse
journaliste
consomm
##ousse
##anniques
##tig
désig
Californie
commencé
sommet
séries
contient
terr
Mel
européen
critiques
hors
matière
##umière
sites
##aff
Pol
1969
Brun
##tra
##titution
##heim
##ètes
originaire
do
##kin
Ni
##seurs
chacun
inten
##térie
suivants
mic
##ward
manifest
div
parten
discip
principales
train
##ws
palais
contraire
animaux
studio
Const
régulièrement
##orn
projets
édifice
inh
réserv
##uxe
##den
Phil
Festival
formé
éducation
bras
process
doll
caractère
signifie
App
##atifs
##uer
participation
##rup
opposition
##oï
franch
##40
##ll
##ize
##itime
Certains
familles
commandant
Lég
futur
poi
##rance
graph
##onique
réd
Léon
guer
prison
hor
établissement
capacité
Cela
atteindre
circonscription
##endu
Fédération
Henry
##line
##iennes
lutte
faisait
##ater
championnats
indépendance
patrimoine
superficie
Sol
##dou
##rot
Fe
##suit
dénom
##isée
##légu
##ala
Alpes
Laurent
vainque
textes
simil
Marse
##uls
souff
##chn
Moyen
expérience
quin
consult
Radi
##eng
villages
utilisés
pages
éche
Autriche
entièrement
straté
##uk
Enfin
afric
van
royale
romaine
maisons
caractérisée
##iés
écoles
dédi
participé
processus
exempl
##inaire
Az
Leur
chiff
soviétique
##side
Res
##olé
distance
##ègre
Exp
vir
lycée
##ket
chinois
expé
largement
subs
##onte
cr
##oup
syndic
Ap
##AS
parall
##ico
atti
fus
##naire
City
informations
étudiants
concert
Daniel
religieux
fabric
chambre
constitué
actrice
remplace
acquis
##obile
##iale
ici
affaire
##ariste
doute
importantes
continent
##oty
locale
Orient
You
##ores
Out
telles
conduit
aspect
scol
##AC
déroule
##guer
immédi
extrême
réserve
##arque
navires
épisodes
Brésil
cinquième
Camp
by
prati
##RS
protest
arc
décret
responsable
maje
surnom
Commun
1962
locaux
##uclé
Commission
règne
couple
petites
Â
telle
##anterie
nour
##NC
##ling
##30
Î
1964
##bi
##ora
##any
vont
1965
1966
construire
appell
Gau
commission
Sil
apparition
trouvent
anciennes
##ceau
Ath
Hug
Andre
néer
excent
##cia
Peu
relie
dollars
##ilm
##raire
pati
Quel
rock
##dent
collaboration
peint
explique
cimetière
former
70
installe
analyse
compositeur
faveur
principe
vin
mémoire
filles
renfor
amis
paix
enseign
avoc
meilleurs
##eter
élèves
bronze
##ophe
Cô
##ao
##awa
traitement
René
##rém
fondateur
aérop
Ara
Bay
maintenant
juste
Inf
##ouch
provo
##gar
##aune
rét
amour
Go
réalité
élément
1939
##ake
##BC
##ado
##uration
Lorsque
indique
épous
senti
commandement
##umes
Lang
pre
Carl
termes
comité
emploi
lieutenant
difficile
plantes
concur
rien
tombe
##tim
rece
émis
progressi
certaine
famili
##ader
Avant
Nav
parvient
Hu
Parlement
appelle
Marseille
juri
mauv
prisonn
bout
clo
tours
récomp
personnel
Peter
##usement
Ve
Fréd
effic
publiée
##éch
accident
problème
##istant
International
##unal
avent
##ival
phénom
Sous
##arg
note
##han
afflu
paris
mandat
Long
##ctu
permettre
##tiennent
interprét
Pr
##fici
##ft
finit
##fier
faci
##quie
pois
34
cycl
éclip
##zz
maladie
Lin
uniquement
Asie
Brit
Colomb
lesquelles
lumière
##aché
Bert
Vir
bureau
autorités
red
systèmes
hos
##rovi
appli
##log
##orde
##iction
##enz
##tiens
tal
from
regroup
candidat
##dom
négoci
##agu
##ôles
x
38
##uter
moin
types
cathédrale
rur
##pin
armées
##ny
marchand
175
danse
##ican
bate
fru
morte
réparti
37
inclinaison
Vinc
publication
célé
considéra
américains
méthode
fleuve
usine
manque
ouvre
1914
##miques
1963
Bru
##alogue
vente
dur
invent
conflit
victoires
municipal
1958
##paravant
organisé
juge
##œurs
monast
##riel
étudie
##quées
poids
##verse
hôpital
Lé
##entielle
justice
marine
##érée
fau
##orph
diffusée
naturel
disque
Chaque
##hélie
élevé
expression
développé
Off
périhélie
unités
dispute
sorte
##din
nat
Atlan
##fe
Land
##seud
##ources
propriétaire
minim
basse
mascul
##sier
My
Oc
Tout
fonds
morts
absence
##lack
vert
##entine
reconstru
voiture
acte
##quit
jeunesse
Chap
Miss
ciel
civile
##sage
##raient
##orter
##érences
collège
Alf
Frank
Chambre
fondation
crise
Gui
Prov
##ami
dimen
##ancer
plein
régiment
nuclé
participer
devenue
philosophie
##liers
parle
##inique
Mur
effectue
décès
événements
fortement
##mbourg
##anche
bourg
Bé
enquête
##erson
artistique
paru
##rac
diocèse
localité
déten
profonde
véritable
avion
pilote
dite
90
esprit
écriture
voc
renom
appartient
##ray
Py
dériv
vent
douze
républic
parcours
##êts
Conc
Pan
glob
##FA
application
Ven
excentricité
modifi
##érés
désigne
##ographe
résultat
Lim
dimin
officier
Liv
Frédéric
science
local
composition
##deaux
##ennis
récup
Die
perman
##riers
Nouveau
Jan
supplément
bac
suisse
Maison
volume
##ols
##14
dû
Colle
propres
gui
rugby
puisque
remont
assi
##cession
##ilier
Anti
susp
##asi
Toulouse
##texte
Sé
tente
réalisateur
médecine
##endemain
##isant
##diction
écliptique
Chic
pi
décédé
dest
éviter
Algérie
##oleil
liberté
adjoin
##angé
##atoires
Gir
reprise
stand
infanterie
##char
Angeles
euros
soient
parce
accueilli
poursuit
##alistes
##aves
socialiste
opérations
##onner
chanteur
##diens
##tements
XI
##12
basé
ajout
appartenant
parf
##onnée
os
diamètre
Temp
thème
albums
lendemain
Christian
arb
##istique
##irent
##abeth
##oint
laiss
##istan
peine
score
##vey
publics
diffusion
Wash
moyens
rach
Celui
Radio
échange
regroupe
Rev
hon
Âge
travailler
perdu
##ella
connaissance
masse
1956
température
##amme
Cré
pay
chute
Mass
dessous
actions
entou
Étienne
passant
##atre
Sl
Irlande
##érale
Normand
##ics
pression
pouvait
##ona
voies
successi
territori
##venir
pouvant
scientifiques
##sch
altern
cos
CD
##fer
##orb
carte
reine
Aff
journée
##onge
modèles
italienne
risque
##ombre
Maria
hommage
##amin
ajou
##monie
présenté
régional
Musée
1946
trente
##eck
découvre
ferme
##her
Barb
Gren
publiés
Moscou
autorité
##AN
##hip
appré
Portu
Camb
1961
élector
canal
##balle
##olit
Font
domaines
##lève
##als
Tre
profit
féminin
arrêt
Washington
48
aî
##iciens
Bordeaux
idé
1959
1948
##veill
##dies
Château
Méd
pros
##cules
##ota
##anes
relativement
##wood
Simon
contrô
Jér
##gés
José
habitu
##igu
souver
##ato
##pé
laisse
##glom
Gé
pét
voire
expri
jardin
Comité
American
néan
Eug
imag
néanmoins
conception
##iterran
##Le
Gas
coop
##oyer
affront
promotion
dirigé
musul
littéraire
har
1947
##view
inscrip
Quelques
##entiel
##acement
Provence
##isser
procès
partage
mains
assurer
croix
##ariat
nu
1936
concept
##yg
##reux
Gro
Tou
Doc
post
##illy
1942
Lar
affec
##isté
mots
places
Fab
Arts
aura
impli
pêche
complexe
radi
39
##sons
##aure
témoign
renouv
mix
##formé
gagne
vote
Jules
1943
ferrovi
Tex
officielle
##vit
totale
changement
mou
##range
##gra
nobles
Compagnie
expos
glace
##phe
##alu
exemplaires
advers
étranger
##umé
Alain
Quand
##oléon
Que
intègre
Bois
rappro
députés
portes
perform
##lerie
circuit
##mie
Mun
##erine
expli
##60
Petit
Ram
amp
bloc
##telle
##airement
excep
utilisant
sport
desserv
##dd
Pic
##ention
Division
Plan
##geois
communication
##ctor
Cos
ques
aéroport
arabe
législatives
Roger
fant
##las
abbé
Star
professionnelle
Ind
##iège
posséd
résistance
vég
Denis
##zaine
Cra
démar
##vodie
immédiate
conver
Genève
riches
conseill
Let
fréqu
42
##rome
|
empê
Rod
##ultés
##ieuses
##jou
tur
##lind
Arn
##tionnelle
Super
mesures
auparavant
##ronom
descend
choisi
footballe
##ondes
agriculture
Rhône
##eries
biens
avance
quanti
titulaire
##ulture
ouverte
orchestre
1938
rencontres
Isra
cui
voï
sch
1918
Marcel
Ca
##19
Win
##mén
##mation
##agée
##nant
réalisée
médecin
##agog
Ott
réalisation
##ribue
Rés
effets
communiste
500
el
demeure
polonais
fréquent
interpr
brig
##ited
University
échapp
Records
##get
naît
##uscrit
colonel
issu
végét
1941
##aph
plans
compose
proches
réaliser
Égyp
caus
rédi
##utation
exclus
archives
Chicago
implant
documents
##ius
expériment
##ignon
Black
raisons
Berg
ambass
ordres
##iche
avions
identi
Tar
##ernes
##long
ingénieur
océan
##omo
1954
quitter
##mir
##landaise
démission
cardin
fabri
anglaise
Hall
islam
princes
1957
Gér
##aptiste
##ûte
tôt
vainqueur
anc
estimé
monastère
populations
respectivement
baseball
expédition
réé
Croix
##roid
hame
Tous
dram
intéress
Dictionnaire
pauv
électrique
AS
PS
élus
héros
accompagn
Imp
##chen
retourne
originale
Tunis
arme
Red
mouvements
##tionnel
##rence
explo
exten
Allemand
Aub
souhait
1955
distribution
tend
##aga
##15
Fort
Jui
##érité
Sou
façade
portu
Reg
devi
signal
Lac
North
contact
Cre
##80
##tières
endémique
Cin
ray
Suède
bénéfici
poète
##rine
démont
##ographiques
sociétés
Ern
gens
bul
céléb
##aya
##ertes
somme
vivant
##dienne
##auff
Dub
voïvodie
##onnement
##zy
##uff
réussit
patron
##illa
romain
métal
Rock
tué
doub
##lect
endroit
##IN
##ecture
carb
évent
accueille
##dam
procéd
écrite
posi
##manie
final
##comm
séj
évi
##uels
150
équival
consiste
bibliothèque
lire
##olo
VI
riche
Sport
statis
envoyé
considérée
logici
original
pan
traverse
King
Mah
Park
##rien
Hel
##inée
1949
Tok
typ
trains
historien
réfug
Orlé
Liste
Dire
battu
Germ
lancé
##no
cong
agglom
##har
Armée
rac
##iat
actif
Mark
produire
Carol
##hou
##tivité
Bob
44
1953
1952
mass
Stras
producteur
human
siècles
porté
##tissement
##utée
musicale
variété
bass
Auguste
##cop
développer
##ovie
automobile
delà
manuscrit
Sab
Ul
Cant
religion
##euve
bus
organise
League
éditeur
Mic
##ceaux
##oble
piste
##rations
##uch
disponible
##èlement
majeure
territoires
##lises
combats
##rey
Éditions
footballeur
174
dure
Bir
Écosse
47
économiques
##ulte
nul
printemps
##quin
##tir
ressources
rares
initialement
##ida
##lem
images
##11
##jon
climat
essais
extrém
retrouver
##oto
##dium
Arth
fid
péd
Smith
hypoth
urbaine
Dar
notre
missions
acteurs
##ried
faits
Dur
Géné
Baptiste
Ari
condition
##sa
Orléans
##éron
Vall
##nd
intermédi
43
contexte
représentation
matériel
Île
##ridge
Stan
fête
##ipp
1937
diplô
##anges
questions
Cy
##allé
besoin
Bol
##cht
approche
chevaux
Savoie
1933
exception
##oo
spécifique
diplom
vieux
##aliers
instrument
##èce
puisqu
appelés
consacré
##çons
frag
métrop
indépendant
réac
avocat
assassin
Mary
abou
branche
considère
interpré
##autés
annoncé
universitaire
traduit
##iteurs
##yo
acces
Améric
##wn
##CI
vite
##mati
bil
asc
em
locales
Bell
déplace
sauf
##naires
##sen
yeux
feuilles
Ami
avanc
présidence
##seaux
##ophone
rassemb
chemins
différence
versions
croissance
49
héri
Championnats
chœur
murs
inconn
remarqu
##douard
Égypte
représentants
##ît
emprun
associé
cuis
52
##ound
domicile
dév
romans
Han
Cer
Gil
##ragon
cra
reconnaissance
##enses
posses
britanniques
Rol
##isés
Arm
Paci
##AT
secondes
Normandie
##cope
##agers
fen
##èdent
pleine
olympique
nationales
##the
Strasbourg
mit
##achée
Math
faite
##Ar
Dun
tran
1919
Côte
piano
synth
parler
Ib
règles
pseud
1935
Groupe
##urie
Ty
Ur
Disney
Portugal
Barc
chanteuse
toit
Ast
signé
archev
support
repris
absolue
Im
échelle
véhicules
refuse
ambassade
##https
##tur
nomme
Tri
Top
concerts
Tib
167
doctor
simplement
surpr
victimes
moul
noire
élab
##uite
Moh
emplacement
vac
##orité
##omét
présentant
sièges
Muse
rendu
culturel
Music
affirme
vivre
cre
Milan
##édo
plateau
var
Présid
réussi
##ba
pen
Amb
guerres
cycle
enfance
cru
Vincent
présents
Nam
Gold
chevalier
spécialiste
tch
Édouard
scènes
##olie
tiers
##ories
Lis
Sén
recru
##ultan
##mina
##sk
##ology
cartes
##avier
télévisée
forment
##oses
Fern
##lications
##ush
chapitre
46
Patrick
cous
escl
restauration
déte
mène
Jés
oiseaux
##olte
erre
atelier
programmes
##osl
##clam
##ache
Maroc
55
destru
officiers
Ol
fabrication
Lee
apprend
impose
complète
connaître
1951
Catherine
bud
médias
vesti
##tillerie
thèse
##alys
commercial
traduction
diplôme
éto
conserve
##ban
sociales
temple
Eli
reconnu
Alli
lien
Vie
170
marche
espagnole
seuls
1900
##18
exil
volonté
75
##mile
##otype
ordin
réforme
naz
vot
organisée
Adam
##iro
sû
dynas
##olk
##dier
recouv
spectacle
ferroviaire
##13
produis
1929
aménage
##ciation
possibilité
Po
évo
1934
médiév
privil
concerne
##win
austral
##ild
basée
##field
Jeanne
japonaise
bleu
##ciers
prét
loge
##ht
candidats
eth
##aises
fortif
##dici
web
satell
##lections
marqué
Bab
##lymp
##16
établissements
adjoint
Nantes
##letin
rej
Hor
Far
169
déch
spir
valeurs
revanche
##ety
CN
préfecture
tor
humi
##oliques
navig
déplac
1932
ryth
adaptation
Roi
union
##eri
radic
jaune
Madrid
Congrès
estime
travaillé
beaux
rejet
##ume
Napoléon
utilisées
massif
Ev
régionale
gro
sixième
##dus
net
disting
Consulté
Santa
##org
##adel
commen
vaste
établir
##mans
occupation
magn
Dr
Servi
Gall
Pyré
sav
168
datant
inclu
##wan
Fig
##onomie
Sand
fédéral
Juifs
TV
##zi
##agon
##ull
appareil
##rains
##étiques
##illé
64
my
fun
distingue
##17
Wall
Stre
Corée
majeur
niveaux
soir
##ologies
retourn
##BA
##rières
récit
tennis
définitivement
flotte
Théâtre
événement
Ger
belle
Hal
Camer
citoy
ling
résidence
Pyrénées
##rak
tribunal
Ze
Lille
essai
##ho
étage
san
prit
Ant
##ustin
aider
blanche
professionnels
matin
idées
baptis
regard
Gh
progressivement
##tile
suéd
hong
resta
##elin
Hongrie
intégral
inférieur
ence
champions
culte
royal
Marine
connus
##ows
##iger
issus
##IC
##istres
Olymp
identité
exerc
Monte
sujets
génération
forêts
placé
mélan
format
agricole
##hors
féminine
prennent
serbe
Barcelon
étrangères
agglomération
néerlandais
humaine
173
ox
Stra
abrite
automne
Haut
##enait
##EC
baie
##tain
tome
comport
parallèle
hol
Foot
constituée
##ierge
##ouvenir
##25
Boul
Alfred
##lot
Mans
Form
##uler
connaiss
allemands
écrits
Roche
tenu
Grèce
conçu
performance
##jan
prolong
cardinal
coord
Bourgogne
Pé
conférence
##uellement
1910
échec
labor
South
##aies
survi
Internet
##tiste
##estation
étoiles
160
pétro
1928
Tch
##alem
envis
suffis
166
fiction
##iner
ly
##oriz
routes
pp
décidé
Der
convain
rê
séjour
##aka
agent
établit
##ower
Hill
rôles
##pel
##osh
croise
prêtre
##issait
immédiatement
##rass
interprète
chauss
Dam
vision
##olis
##asc
sor
pourtant
pla
##ive
occidentale
Francisco
appellation
Outre
réseaux
##peau
##asser
initiative
rues
Big
##avie
donnant
chefs
##uck
confond
Raymond
##AM
cultiv
##anda
allant
précédente
associations
difficultés
Mod
Pap
augmentation
entier
##qua
United
épreuves
maît
##ía
dél
diman
suivre
1924
Hans
complet
affluent
phare
stations
caval
Israël
arbres
Ancien
##cent
chacune
discours
privé
perfor
quart
##isp
religieuse
écrire
mour
observatoire
voitures
portug
Belle
Arthur
sensi
marins
internationales
évê
##icien
remet
##lés
College
rester
##rai
mathématiques
déclaré
stock
contenant
maîtres
Jim
##conte
finance
statue
nef
prévu
Constantin
1925
dehors
##osa
Ah
Celle
pouvoirs
##rection
québ
érig
Pin
démocratique
##ev
300
Wi
sil
prises
téléph
rappel
donnée
##aliser
##meub
consommation
porter
##sant
##ué
##més
majoritaire
Sk
liaison
micro
##ulaires
québéc
Ho
Dor
##chent
1870
Mes
fleurs
servir
##éles
##apes
##acte
protéger
Marne
sociaux
totalement
Argentine
##iquement
détruit
observations
courses
géographique
##orial
##ulsion
164
enter
##commun
inspiré
émissions
fre
tab
désigné
##endi
##venu
conservé
dessinée
entraîne
Lan
envers
complé
panne
licence
Nations
##ife
mac
##gen
with
##time
succède
##ston
étro
Lorraine
##iance
Jusqu
Jon
Indi
européennes
explor
trafic
PC
vendre
publiques
Var
anth
Luxe
##ms
ench
Aujourd
##ylv
audi
Tourn
Virgin
musiciens
##ava
##zer
consécu
promu
Allemands
Juan
docteur
##otan
myth
cord
##alie
venir
##uth
enregistrement
##blement
##rus
diffusé
quartiers
enregistré
achev
communautés
pouss
correspondant
Kn
Cab
Sun
foss
langage
ennemi
Sau
##formes
coût
chose
accepte
Ball
impériale
1912
musical
##rets
privée
##uge
conne
Barcelone
Télé
Ordre
artillerie
canadien
répert
destiné
circulation
portée
cantons
numérique
163
Mu
européens
courte
tourne
prisonniers
phénomène
Rhin
Rap
##24
##usses
athlè
##ople
1931
##VD
53
onze
65
aire
Archives
Sw
400
extension
Arc
passion
##itent
victime
souverain
profond
EP
##ruis
influenc
avenue
entrer
##lige
sugg
##AF
cabinet
Gérard
réaction
montagnes
administrative
Ki
##terie
règle
situés
invasion
Maj
classes
Ox
défait
quinze
##mber
##ource
##isément
##rutin
##archie
comédie
révèle
##ão
Abd
##NS
juni
##sace
##MS
##dios
##lées
atteign
##éros
1926
quantité
rénov
trône
School
étrangers
prov
sait
Maz
prê
raconte
collabor
Times
dynastie
encou
Atlantique
54
pav
bé
quotidien
neut
lun
##ramme
Tal
arbre
méthodes
cens
orthod
##éen
##omes
inde
Stade
Hô
apport
frapp
disparu
Scien
vais
indic
##AP
magas
Pen
##rieure
Serb
Voir
https
##inage
scrutin
insp
prépare
pointe
##omorph
évalu
soulig
installé
libération
##quoi
propor
réponse
##ila
perte
##ex
Yves
délégu
assemblée
##échal
métro
vrai
respect
#
agence
##oks
laisser
Zé
Région
annonc
spiritu
cérémonie
##haus
##endie
humains
##ür
mig
Lab
##ect
##reurs
1921
comportement
infra
##aki
##manuel
Olivier
Museum
franco
##yde
légèrement
amoure
doctorat
1922
##aret
intervention
##bach
##ultures
##ima
individus
##inger
humain
##hr
##seigne
installer
“
SNC
fonctionnement
race
vendu
moteurs
portent
##mine
##cemment
##ection
oub
marin
##arre
Jésus
judici
##wick
Dav
1927
standard
desservie
déclin
autrich
Ess
##ero
##onome
enceinte
##wards
milit
bru
affich
##quences
Lub
secondaire
Président
subst
inscription
ai
recueil
condamné
personnalités
conséquence
présidentielle
##ery
##éanmoins
lié
Nice
Néanmoins
##ruption
précédent
intelle
Constitution
pratiques
##OS
immeub
planète
##ancy
chron
Mul
représenté
solution
salles
gmina
étoile
archevêque
57
traite
Communauté
##criptions
recom
animation
Norv
commiss
exam
origines
ligue
##fications
##ommes
##chés
aîné
##chée
##arth
1917
Gabriel
165
essay
restent
Louv
AD
##mosph
plante
Green
##uts
défend
##see
Organ
trouvé
##bus
tentative
Ha
comprenant
##hel
##ases
noy
voyageurs
She
##opt
Fou
##enseur
attention
##tellig
ur
Christophe
baron
interd
Châ
religieuses
##vet
amen
magnitude
présentent
oppose
Abb
référ
présenter
Texas
trouvait
modernes
étudier
détail
dirigée
56
##ovan
documentaire
actes
##dal
Boy
##ierres
empire
précise
deviendra
départemental
##rane
Men
Lam
collections
##irs
##unk
septième
sin
Rac
décro
##nelle
##assé
Histor
honor
Eng
régulière
canon
Qui
guitare
châ
ment
Ale
##mances
Ti
##irurg
##cial
Liège
offensi
compil
##rar
repos
définition
1923
scénario
fondament
CS
##ctur
Jacob
##23
##tesse
auraient
désigner
##èche
isol
Ard
notion
##bil
##uelles
angle
modern
complètement
Revue
multiples
intermédiaire
##ardo
##atie
120
propriétés
Palais
animal
mines
Dra
lancer
Alph
suppri
primaire
dynam
Pér
##rez
totalité
Luxembourg
compétitions
intellectu
instruments
Légion
déclen
remplacer
”
avis
sén
compter
souvenir
oncle
attest
profondeur
##romp
##alisés
##rans
Hav
escad
##érite
##kins
Gust
##arte
ski
##nier
##levard
incendie
sembl
basket
51
comé
serv
Open
performances
##aco
solo
##tific
intitulée
grade
##ason
1905
lou
secondaires
##igny
Mars
accompagné
##21
##reau
Antonio
Mou
acqu
incar
AC
tableaux
excell
institut
provinces
cellules
tchèque
démocrate
Év
soup
lecture
remonte
It
Cop
hect
vaisseau
institutions
accompagne
mettant
Certaines
structures
conseillers
Spe
159
atmosph
disposition
nations
spatial
##MP
1911
obs
semi
galerie
Cast
Nov
##TA
##mbl
Nik
constitution
1913
constituent
provenant
##fiques
répand
Eugène
Wat
Karl
autonome
facilement
##lir
157
cach
surveill
interprétation
jazz
Sénat
électronique
Cés
##onale
##cha
flam
assur
Occident
##dor
Culture
transfert
Pét
##ticle
Pa
quoi
Bibliothèque
nucléaire
##uvi
##ophones
exécution
transféré
contro
Ak
##hol
58
##veu
amiral
Dominique
##ermont
nationaux
occupé
églises
sl
##aillon
Haw
tournage
Ry
blessé
##légation
tâ
légende
##umul
généraux
vien
hydro
aile
barrage
Alsace
##27
débit
##ito
rare
équipage
Mons
##agés
pow
alco
##bb
Quatre
##culaire
brû
industriel
tourisme
##uisseau
##inn
ax
capable
édité
maximum
##eta
##mant
Rab
Ru
##minaire
provis
gén
sépare
besoins
classée
immig
##mil
répartis
soutient
centres
##oft
administratif
##èses
##fait
récemment
##ési
poésie
##estres
attaques
extrémité
##pit
ordonn
dens
Nom
coups
exerci
Brig
pierres
Syn
visant
choisit
conduite
accueil
CE
chim
juive
symbole
tax
##ergé
Society
##onnais
ventes
peintures
sortir
Tw
##lage
duo
autrefois
similaire
matern
chronique
##enberg
alig
tempor
##ject
sports
Bud
##tint
Fils
entend
installation
##éry
Jam
##ship
Poli
hameau
Vierge
##venue
active
américaines
destruction
noblesse
##aches
monn
transp
réunion
Tokyo
##auph
##well
trip
Ra
Cur
##ustre
##éraux
Soc
liés
envoie
##26
tendance
##oman
##kov
deviennent
alph
inse
##issi
##gées
Football
mélange
revenir
engagé
Bes
néo
renouvel
disposi
calend
essentiel
##chet
lourd
million
aérienne
##lisabeth
congrès
classiques
##cée
bateau
crimin
dessins
Noël
obser
##ria
UN
canadienne
##usalem
Nat
interne
sportive
princesse
informatique
chirurg
Laur
##CO
Front
Parc
confront
héb
##demment
##ello
vaut
##itan
nourrit
bu
devenant
Coun
aim
Roch
##avantage
appui
journaux
matériaux
Fra
1908
##emark
DVD
##RE
preuve
pense
##ín
AF
banc
powiat
Colombie
##orce
Auv
##IA
ajoute
##tz
Rio
Venise
##gi
introduit
orientale
CO
office
facil
contenu
terminé
mos
obtenus
dirigeants
représentent
##quette
apparaissent
Reich
linguis
annex
laissant
##28
Kir
aqu
mys
gagner
##eni
adoles
organisations
menac
Émile
##agent
lancement
##cre
rapports
disparition
Gard
situées
Brown
Grâce
White
1906
Moul
VII
##ortés
fich
mu
milliards
##diques
Patri
quasi
##29
##yer
noter
Zélande
formule
156
Field
german
Julien
>
##èques
Danemark
##quiert
ère
horiz
ON
##zième
Metz
technologie
environs
renommée
Turquie
donnent
merc
Déc
Rep
Mol
*
gamme
sélectionné
85
Kur
édi
couverture
proposition
utilisent
liens
prieur
Fam
gratu
##hard
cercle
métrage
Prof
machine
new
transports
##illage
##rité
dépos
Company
59
maritime
##obi
Ans
symp
volumes
Sing
interdit
##résor
##wa
Hé
Marguer
fédération
relative
ailes
disponibles
limites
culturelle
##lène
reprendre
dimanche
Mai
invité
populaires
Uk
gris
##iées
postes
cm
élevée
63
Fried
urban
mairie
Tro
2020
mille
How
##fiant
hypothèse
##akh
Emmanuel
chercheurs
réflex
Situ
##mét
Play
History
Pra
php
More
marquis
Louise
prénom
gall
Orch
##èvement
Caroline
sys
Prince
##ricoles
Scott
Oise
Chamb
débat
Pacifique
XX
visible
nécessaires
desser
##ator
##atin
tradu
téles
employé
flor
coopération
Conserv
écran
réduit
bio
##ientôt
Joe
thèmes
montée
##ela
##tille
##édée
##adis
canons
construits
py
Norvège
##uz
Comté
##La
##acre
affron
##onciation
budget
choses
##ériques
expositions
jusque
traces
prenant
agricoles
##aisons
effectuer
99
##alition
flan
##stra
attra
consacre
41
liée
botan
##anga
Isab
parole
Mid
remplacement
##tish
Bus
pieds
paroles
##earch
amén
tir
Steph
##ardins
internationaux
##ua
68
Hab
##bonne
##ification
Herm
Florence
améliorer
émig
Hou
Made
Iv
étapes
départements
clocher
IS
uni
##hen
forter
Cri
relais
##cière
Site
milliers
Affaires
tun
provisoire
avantage
##ménage
##lim
##orée
brésil
##ycl
soix
##oung
##tiles
davantage
satis
##dence
faculté
aventure
succession
uk
Boston
155
terrains
Sin
menée
##ices
Ernest
Lud
accent
drapeau
changements
escal
papier
gardien
Ret
##ôts
successeur
colonie
remis
entretien
##una
##lec
ign
1907
empris
Dj
réel
soumis
pose
Ministère
souhaite
##heure
abond
1793
cavalerie
compagn
surmont
Hy
alliance
##Site
##ergne
plaine
67
menace
abandon
##df
leader
recevoir
##mise
espaces
##organ
Six
Will
dot
High
##érin
##ologues
huitième
diver
huile
##rairement
catégories
##quipe
Munich
##fense
Lamb
Finalement
##ttes
rédaction
##tte
grecque
fournit
Jones
Nancy
appréci
inscrits
##dez
##èler
chrétienne
Cav
1904
und
meilleures
##veux
Cameroun
ha
faute
Anth
participent
UA
répartition
Matt
évoque
Hil
cart
Bad
Bosnie
précip
##itations
Charl
Force
parlementaire
##loie
attend
Marguerite
##osc
Gilles
##ensis
Figaro
limitée
sab
signific
tuer
envah
Rose
Sir
proch
artif
AR
Jane
intégré
##mid
rétab
Edward
Fal
départementales
industrielle
appren
Germain
banque
antique
mécanique
femelle
Jérusalem
couvent
1901
##iant
boî
tram
##ographies
##fices
risques
étudié
Peti
gre
##oule
traditionnelle
##22
Dal
intérêts
##ipel
crit
aménagement
proposé
Walter
caractéristique
élevage
consacrée
machines
hautes
mété
effectué
mâle
##ventions
troupe
158
Renaissance
préparation
##uir
gla
musicien
Libération
réduire
66
mut
News
Wood
cycliste
Serbie
véhicule
##illot
ES
pâ
agré
Ly
tub
McC
albédo
chiffre
Merc
Mik
compt
Expl
brigade
sportif
95
auto
##agement
Hon
##rices
##rimés
propriétaires
ruisseau
heb
Iran
César
rejoign
##tils
bandes
poissons
puisse
##onal
Kam
véri
responsabilité
logements
##ismes
lour
fleur
##loy
##ouge
pensée
conférences
##sile
Pu
##érir
Sul
paraît
Service
calc
Oxford
impact
couvre
##ep
##insule
tenue
présentée
seraient
##lési
##oué
Code
viennent
historiens
accueillir
précisément
verre
évac
Cub
Finlande
calendrier
directe
SS
plant
saut
Tan
1860
##obe
Rennes
God
moines
oiseau
##ador
Popul
destinée
conserver
maintenir
devrait
Vau
Hum
particulière
##téph
##éten
Mém
possession
versant
rédac
opin
représenter
pel
neur
Homme
secret
attendre
##agnies
installations
XIII
repose
longues
objectifs
Soph
##quemment
successivement
Chi
Ay
adh
acide
suici
caf
Sciences
inférieure
##rophée
Manuel
couronne
##tics
comprendre
nar
1890
accro
poèmes
Ceci
défendre
##rophe
1880
morceaux
côtes
Sac
##tures
centaines
Séb
innov
##dinand
##olfe
Ken
##ief
faibles
portrait
Mau
Galles
fera
francs
contrairement
04
Street
jur
##pellier
consul
##ogle
Rel
catholiques
bases
maréchal
fédérale
venant
##domad
##bat
gri
égalité
indépendante
accueill
Fondation
ecc
polonaise
mauvais
Contrairement
77
mens
##ffe
##anctu
description
##acts
subit
##zo
##ink
mises
distingu
##ied
##rague
Fr
recommand
boulevard
dig
Vl
mobil
Ferdinand
départementale
sœurs
cultures
Island
tire
autoroute
73
om
citoyens
densité
Ker
principes
74
##raux
Rouge
âgé
incorp
relève
pilotes
astronom
Bach
Acc
1909
préfet
##cio
##viron
##igueur
Penn
laboratoire
nomination
##étences
puits
laissé
prolon
dimension
hydrog
internet
Poly
duché
##pective
Hun
due
traversée
1915
fruits
hérit
Sans
finales
seigneurie
##ean
Jud
##roits
Montpellier
1848
campagnes
##till
électricité
hal
##oln
##hal
Tam
Bak
quator
quarante
##lia
Eric
organisme
chrétiens
flu
souter
pourquoi
130
pur
tue
chinoise
remporter
Ép
Lot
Rouen
da
vigueur
##CA
personnalité
blancs
provient
Jackson
##zan
hebdomad
##rète
##atures
design
intellig
russes
##onto
Méditerran
Fland
clip
discipline
dange
reçut
Beno
calculer
célèbres
mourut
transformation
Voi
##intes
peuples
Leg
rouges
ott
magné
compagnies
Livre
décis
réputation
##inal
Cass
vide
conservateur
monte
##jo
publications
##idi
méri
criti
##teau
SNCF
Tibet
spécialisée
vécu
universités
01
##téri
Leon
Salon
Poi
Wind
impri
##vé
##ddh
Tours
##ilibre
##mier
qualifie
engagement
Congo
ouvriers
énor
1903
amateur
##ître
introduction
Hub
produite
scénariste
compétences
justif
attribué
violence
153
crist
empêcher
apprentis
##tue
##nia
Film
URS
chor
jouent
07
Vin
encad
exerce
arrêter
automatique
Do
outils
##érieurs
Frances
Mand
Bow
Grenoble
##GC
frais
chargée
procure
Tak
isra
But
déterminer
prêt
Research
cur
spr
Survey
Chal
employés
##astiques
baisse
cinquante
Anna
soutenu
125
Cher
changer
##oma
Mot
Fernand
scolaire
conscience
Las
rempla
Ric
##oigne
choc
écart
##ouri
complément
photographie
Ross
communal
Féli
impression
pédagog
##RA
goth
masculin
##gues
fondateurs
poursuivre
relev
##itte
bibli
Versailles
##ansion
partisans
télescope
découvrir
démon
récompens
équivalent
Chili
assemb
illustre
maîtrise
filiale
aux
##arer
citer
appareils
URSS
1902
##ivement
disques
marié
allemandes
basque
soleil
peau
augmenter
go
bientôt
anciennement
09
particul
##Voir
Tunisie
croy
##ns
vestiges
Oh
marquée
provoque
##erence
fores
##lité
capital
##cus
Herz
Roumanie
commencent
ton
69
##ily
Gon
##oncer
##cité
Alger
##ums
##anth
Pre
fréquemment
milieux
assistant
##ât
Love
municipale
1830
Méditerranée
dan
bri
plat
adapté
az
Williams
inond
Afric
liées
affiche
scand
03
##rol
Philipp
##rob
##cycl
œil
##xic
##ropri
##ultes
##iliers
admis
veille
connues
immob
varie
##éma
hi
Laval
suédois
Auvergne
London
Gare
Aix
Kal
fisc
tardi
Trib
Cup
natur
amitié
Hit
juridique
Duc
mam
brill
quad
##rateur
##ourne
conseils
##DA
dramatique
musulman
analys
##auré
##MA
##drome
supplémentaires
artifici
république
bro
exac
Bran
plais
foi
1916
laté
entière
accessible
agents
88
formations
Ts
Castel
révolutionnaire
##rov
we
pdf
revenu
abandonné
##court
##ingen
Banque
##olutions
défenseur
##énie
rappelle
##PS
154
algéri
seigneurs
froid
chauff
égyp
Toronto
##lines
Gener
Bonn
##nis
##ancé
aper
réalisés
pin
Linc
suivent
05
commém
notes
##ties
retard
limité
Pers
décident
<
neveu
Ont
lum
##ops
alphab
##ènement
annuelle
##aid
Nar
##athan
municipales
universitaires
Saône
##DF
##esp
soli
appu
##ulf
##odore
06
clair
FI
attent
passagers
naturelles
responsables
conservation
abrit
stratégie
communi
dédiée
manifestations
reliant
Anglais
##Les
Net
##adies
forteresse
vertic
conquête
76
##tia
rois
organismes
##rik
rup
Bau
écoss
concurrent
élite
08
##formation
frontières
Ye
##ristian
pure
mettent
difficulté
Kaz
Sig
box
nage
adversaire
Bulletin
positions
pauvre
##OR
Lie
Vic
fixe
Serge
Dre
##quier
admi
poème
infrar
ecclési
##yste
franchise
##appe
##prême
##olet
approxim
applications
##ough
concentration
Att
##térieure
##feld
disputé
78
institution
juifs
Kat
caractères
sax
goût
métier
Naples
##film
montré
treize
Techn
##aris
péninsule
Lincoln
Lag
##allen
commis
vivent
paysage
Blanc
judiciaire
##ken
Cle
Cond
présentation
##gné
bilan
inéd
Vil
convention
##ouche
##ör
pèler
éclai
confiance
Thier
roche
mén
Johann
84
##enci
##cence
One
morceau
batterie
00
dizaine
##ulé
97
vape
salari
Samuel
Lorsqu
colonnes
sculpteur
##vres
##ômes
cylind
adopté
93
mini
1871
jouant
pér
Ky
##dité
##erait
pertes
Vend
bombarde
mentionn
Environ
lanceur
efforts
##enus
Cir
exclusivement
ral
mess
travailleurs
Giovan
tués
Vel
bouddh
##resser
nette
logiciel
séparation
tenir
sculpture
commença
hectares
Hay
confirme
danger
Ukraine
Spr
##elier
##ete
évoluant
ennemis
Kong
partiellement
urg
coalition
##ial
délim
##iga
##dae
BBC
Mike
ministres
poule
##illons
Aquit
volcan
champs
Bruno
mixte
Magn
gren
Auc
Stéph
acquisition
##ufs
confl
catalogue
Awards
tenant
simples
##astien
##ün
pollu
Dup
##itter
colline
Même
Gouver
réglement
##gent
Sel
##ouvoir
parent
guitariste
##ju
investis
conséquent
##sterdam
##lège
géomét
Corse
erreur
##oton
Nob
##lish
Kon
brut
UE
1898
remise
formant
édit
relégu
Péri
accéder
échapper
##onds
Très
effond
87
coh
ber
montrent
observation
86
##agas
orgue
québécois
Soleil
portail
Alexander
irré
paroissi
##enh
blessés
Victoria
dimensions
Stock
Johan
Carlos
concer
sty
connait
Ec
##leine
définit
maladies
pon
Amsterdam
théologie
##NA
96
Mét
contemporaine
pé
Corp
1889
émet
photos
Jeff
exercice
Canadi
Nationale
collectif
prévoit
ul
Mis
battant
##lica
conduis
Toutes
libéral
intervient
Ron
##ement
##adé
puissant
1896
anthrop
moindre
##orge
##eller
inspe
infrastru
interview
contemporain
##nam
sculpt
##hu
autel
composés
##vité
sanctu
montant
gares
Face
##licité
Pascal
fenêtres
Lew
chamb
##pent
##aceae
endomm
extrêmement
Cli
sauver
terror
commerciale
Dol
infrarouge
##ims
cesse
spéciale
mél
avenir
largeur
normale
##row
##osité
aval
concurrence
procédé
Vars
soins
représentations
##ovine
faux
couche
Tru
possèdent
expansion
##yb
queue
découp
Gaz
Vis
sable
chantier
collabore
Nous
ther
##enez
régionales
##tible
figures
##ashi
fouilles
fame
révolte
parfaite
tox
Aquitaine
##hl
Syrie
Vit
House
traditionnel
Young
Live
établie
##pie
intention
han
inspire
##ista
retire
Encycl
Enf
Lord
défaites
suffrages
latine
podium
ressemb
##anais
Benoît
Maine
cancer
##ombe
Rub
Web
Johnson
interromp
réélu
Roland
client
jardins
alliés
Tay
affecté
##isses
attaquant
Prague
##lieue
privilég
urbain
##quité
##ignées
violon
destination
##king
Ach
1789
Mort
Pres
médailles
Ensuite
Giovanni
sainte
Rav
1895
soutenir
##rase
##ön
qualification
métropolit
bra
Bureau
couvert
pouvaient
divin
circon
##abe
##ureaux
98
habitat
financière
entraînement
Fel
diminu
secours
émerg
systé
tropic
##chester
##med
Rid
Herb
##oke
vul
##ressionn
147
retrait
Ci
RT
##erte
expériences
sols
79
républicain
Déb
Mach
##çu
cinémat
fermet
quitté
effectif
Observ
adresse
donna
pop
grave
revenus
Tony
prétend
bor
Brian
troubles
##rotte
inauguré
Canal
chale
réunit
présentes
natale
diplômé
monop
humaines
annuel
##tiné
##gny
herb
clé
##ilé
wall
jet
pion
##relle
##Jean
renv
répondre
fréquence
Floride
imposer
étages
signature
Steve
différent
Science
fournir
réduction
exig
libéré
académie
##gs
Pot
Rot
sauve
##ingue
America
Institu
##jamin
argu
autonomie
ML
genres
bénéficie
Dum
Office
cousin
Inc
Sébastien
époux
Pou
Provin
fortes
minimum
rapporte
terrestre
Trin
divisé
organiser
1867
évêques
##lisme
légend
retrouvent
Félix
mener
param
Clermont
Afin
Fred
Défense
exécutif
hongrois
ic
éti
##ymn
Ble
1897
lancée
actifs
placée
##isées
1850
lign
luxe
devaient
visiteurs
seize
tac
soirée
Fir
Père
##ów
peintres
bourgeois
amph
##rasse
pous
##cides
exéc
##érations
pa
développée
domes
conjoin
apprentissage
Group
##yt
biais
##aillé
archipel
histoires
contribue
Loi
Prog
mentionné
Saxe
financement
favorable
présidente
dénomination
AP
1899
Team
abat
vapeur
rele
inclut
voisins
aéro
Enter
Capit
##opold
chaud
British
Bâ
ateliers
SC
##êtements
salon
enterré
clients
Thierry
149
conséquences
##sé
Calais
statistiques
soixante
XIV
##cienne
douce
héritier
##oste
Ba
révé
remarquable
sénateur
Varsovie
Lion
déménage
##stan
intercommun
ib
140
Ontario
##até
vise
Point
suivie
championne
bris
banlieue
coé
talent
rall
sph
retrouvé
Luis
musulmans
Garonne
metal
rentre
Hôtel
spectateurs
Roman
1885
junior
visage
noirs
Fontaine
tourné
équilibre
échanges
83
##istent
Collège
abandonne
hebdomadaire
triang
jury
rattachée
##mas
équipements
##gel
propag
continuer
portugais
##medi
débar
Schw
vendus
mené
efficace
##RC
procédure
funéra
embar
pic
##étaire
écar
##aria
corp
reconstruction
turb
Blue
maximale
Hard
dieu
Rue
inverse
rarement
divisions
alcool
déclaration
Ivan
adj
sév
Corn
vas
ulté
athlé
##riss
##ûts
achat
chiffres
Day
périodes
##uvre
Jul
##mberg
diale
rurale
Bag
villa
acquiert
gagné
communaut
meurtre
##çonn
bateaux
CF
Sum
secteurs
Dev
Bertrand
spécifiques
possédait
Basse
##rè
Lev
VIII
existent
vingtaine
1893
molé
##itimes
rencontrent
annivers
renseigne
connaissances
Infra
adultes
Cu
semblent
surveillance
transmission
Law
##rants
##usanne
resté
alimentation
##lation
coule
fermeture
tracé
capture
solaire
incluant
Ko
##board
##meur
Int
##quait
Virginie
##alisées
journalistes
orientation
Rem
décomp
Général
comptes
formée
bureaux
Bah
irlandais
therm
photo
interf
participants
##agi
coéqui
##akistan
artisan
extrait
Explorer
##éens
##ated
Express
Séné
##raits
commissaire
ethn
Hein
89
suprême
étudiant
contribué
installée
##veau
##zantin
décède
spécialisé
appartenait
Marg
Mess
dispositif
August
Temple
##aïque
peupl
charges
nécessité
##anna
Docteur
sélections
Loc
Rad
##agan
fasc
inclus
négociations
##rum
##ignes
##OC
##unn
exter
transition
##uan
1790
prédé
Friedrich
Kim
##ulier
##uvième
limit
Jou
hém
Ash
décrite
ambassadeur
##etti
plaque
nau
voisine
domination
##wig
Aur
##arin
chercher
AT
mm
condu
naturels
East
##BS
##IT
##geant
libres
##mel
insectes
report
apporte
obligatoire
fir
##olphe
##yme
Jer
veuve
Harry
fréquente
expose
Alliance
centaine
bonnes
vins
norme
message
110
matches
Conn
espoir
compét
##vég
spécial
##OM
uns
classés
carbone
Brest
intéresse
prévue
coureur
spectacles
Coll
norvég
By
Fac
##tume
écrivains
Racing
blog
pseudonyme
satisf
Étu
Convention
maillot
classification
Wolf
lev
##onymie
##omorphes
##ij
blessure
##hist
##jection
voient
##éenne
Avi
associée
##com
rythme
offensive
agissait
Mouve
productions
chaînes
Organisation
94
élarg
export
cités
##ank
##shire
solide
Françoise
sent
rédacteur
Fu
vieille
Géor
unies
gothique
##gation
##hétique
météor
archéologique
expliquer
demander
Rail
remplacée
recons
restes
##olle
lait
Rivière
##ON
fall
apost
##adelph
##onymes
impossible
Rud
brun
ruines
alent
occuper
différente
déchets
précision
Moselle
surnommé
araignées
Gand
longs
épais
degré
satellite
##reb
##ynam
Géorgie
arrête
##oug
##mettre
##onnées
accélé
Blo
plage
exemples
financier
nourriture
DE
Real
River
facteurs
ponts
colonne
attaquer
contraint
##bas
dédié
dirigeant
architectur
##agnos
reconnue
##ocation
tribu
examen
##olith
possibles
spatiale
rub
Colu
doct
##igan
##lat
Esc
$
augmente
intégrer
quatorze
Orig
1892
estimée
Mam
##ennies
adress
penser
abré
signifiant
carré
éro
cass
montrer
##ilien
recours
quai
capac
##ium
Xavier
Reims
gross
##aign
Oct
Greg
Wide
élue
##urité
Philadelph
Parall
1876
Cambridge
territoriale
##aigne
##ulée
solid
décennies
autorisation
##bie
pourraient
##inson
##etteur
indig
passent
critères
constructeur
correspondance
##bel
##onna
voulait
aviation
##po
rect
##astre
dépôt
chance
symph
##fa
frappe
Chapelle
##toral
Athènes
cuisine
vou
##fié
fermé
oblige
demandé
##çait
athlète
Benjamin
neuvième
voyages
vêtements
modifications
toile
approuv
numéros
anniversaire
##cts
Had
##serie
Guinée
allait
Gilbert
arrivent
##mad
charbon
branches
clan
Pad
##roise
observant
Actu
colonies
ved
1878
débarque
##onnier
familiale
Cru
Hamb
##cesseur
Center
promouvoir
Sen
1894
vign
considérés
potentiel
atmosphère
opposé
Lau
Game
rig
maroc
##rante
Mak
Gene
##ibilité
aient
##lèvement
Cau
##quêtes
civils
##oris
72
conflits
enrich
##rison
Earth
ajouter
Isabelle
proclam
Ped
Conservatoire
##ulent
provinci
##ièvre
##ressions
##zig
##house
littéraires
liné
##formée
habituellement
Cad
##oa
acier
faites
Madeleine
quotidienne
méridi
associés
assass
personnelle
café
##over
éb
Diego
tron
estim
magist
Lausanne
épar
##ylvanie
dégrad
aspects
importe
62
1881
doté
majeures
Ok
##tification
maintien
poursuite
##AL
‘
fortune
monnaie
##nière
dévo
Din
tap
1888
paysages
chaussée
##ody
virtu
Na
Mouvement
Membre
##ISE
Équipe
suppos
publicité
littéralement
Page
partout
Pie
rendent
capacités
Quant
ge
Bun
Parallèlement
Moun
états
garçon
Formule
coureurs
Bac
ouvrir
##ovo
zo
chien
Cité
rupture
détruite
Magazine
Prusse
réalisées
éte
primi
##amed
amie
##isembl
capt
Vladi
périph
##pa
voisin
relief
intérieure
Herzég
##osex
midi
logique
Herzégovine
##avière
##aissant
##oges
##cile
##oivent
Mario
enchaî
rassemble
Wilhel
restaurant
Sophie
fermée
put
##rivant
Charente
##ailli
suffisamment
##fond
studios
ordinateur
aigu
tunis
philosophe
Dist
remportant
So
##veurs
équipé
##partement
servant
déplacement
destinés
contest
complexes
noble
motifs
ta
##work
1886
Alphonse
Award
fêtes
Institute
127
anglo
préserv
Britanniques
chimie
Avignon
sexe
supérieures
partenariat
1863
##rel
##lissement
Som
missionn
1891
constructions
1840
catast
tonnes
Charlotte
retourner
technologies
Ceux
##hem
seules
up
sections
attaché
ramen
##unt
Cinq
normes
âme
trait
découvertes
##zu
Bang
##tillon
prêtres
cf
future
outil
qualifié
nécessite
Chau
Tele
##thi
sortant
revues
mauvaise
universelle
creus
payer
Blanche
asp
arist
tenter
méc
fres
distinction
##urrection
##vières
##cel
facteur
Trav
mâles
représentée
aventures
tib
600
Gou
Élisabeth
décoration
Ford
Columb
chasseurs
assassinat
rob
Prom
électriques
Caen
mexic
changé
##nt
arabes
##uites
Opéra
##oises
hiér
##aton
1792
instruction
touristique
Mali
Acade
##acher
Cheval
ov
trésor
Sor
fur
garn
Chez
##gre
conflu
déliv
##issements
folk
Ku
er
SP
fuite
détec
##ilique
efficacité
génie
Syd
diagnos
optique
Boh
difficiles
Mill
Marian
oubli
chrétien
Naz
hauts
compli
sen
##tilis
##tige
##quide
téléfilm
perdre
Tel
hés
##agen
Pit
##owski
camps
règlement
galax
grotte
Ier
tis
Bavière
rede
boule
variable
##ids
reconnaît
Éric
fal
Sports
1887
Bass
atter
conclu
insuff
Life
portraits
Garde
sombre
##EN
cyc
rose
cub
Indust
étang
##agées
##ignan
Champagne
câ
##noc
##chage
##yst
##odique
noyau
échan
légère
Augustin
1884
##ouc
##ther
affili
instar
Hugo
Vos
Nu
##erst
far
fidèles
tension
élevait
distances
amoureux
moulin
manche
Id
quarts
virus
chimique
homosex
marques
To
Gor
médecins
Bataille
ST
Volume
Clément
durable
##tina
##orith
1882
stratégique
retirer
figurent
##chon
##chées
officiels
électeurs
supplémentaire
##uma
Pier
##urch
Gib
Infrared
vraiment
descendants
liquide
doublé
pne
ingénieurs
Sénégal
Kent
tirs
christian
réduite
##gon
Ga
réorgan
##angers
Iss
##ixe
##ilton
Fau
manœ
pauvres
##ingham
##ersbourg
résolution
Tu
800
israéli
Song
identique
SI
##zaines
Lewis
Jérôme
##eron
Med
électorale
majoritairement
sprint
endroits
particuliers
Deb
##ronn
cry
##siers
##ticul
séance
##urn
Anvers
##cho
Davis
touche
lauré
vérité
##oudre
##ovaquie
épiscop
WISE
Laz
Agence
dossier
##ands
courts
sanctuaire
Niger
venus
compilation
fro
laï
parisienne
choisir
inspiration
conven
marchés
##iev
précis
Baud
contemporains
##ropole
vocation
Cah
##zabeth
##asa
chanc
##EL
Sib
Sn
entame
Bet
confie
##tivités
registre
##adt
Chan
cardi
billet
dépasse
traditions
Pérou
02
##ander
index
entreten
117
##hai
linguistique
119
synthèse
138
municipalités
##cie
Holly
Syste
immeuble
WW
prieuré
##dar
SA
tunnel
appuy
cible
Georg
génétique
aime
récompense
céra
250
fonctionn
Constantinople
Public
réflexion
Dix
Ayant
instant
existait
##sia
chaleur
129
##rable
hydra
embouch
##nik
rh
agrand
pourra
##endo
##dicap
détails
esclaves
lu
Kos
##atus
##itions
manip
opinion
##aus
aust
musiques
##ović
Franz
combatt
nombres
##utt
pert
1875
sacri
générales
sel
nommés
vraisembl
play
Moz
rêve
vicom
Romains
##bury
dor
##EP
Ent
##atine
Alice
réside
Pau
so
neige
148
Four
partenaire
Pass
Squ
monter
occidental
135
spe
simultan
tiré
producteurs
clairement
anime
résist
news
finances
##rest
susc
interprété
Gri
Euro
quan
Stephen
progrès
Grég
bourse
prés
manuscrits
marqu
mobile
Place
Justice
1883
modifié
marchandises
137
Liber
incap
physiques
africain
Post
égard
rav
1815
Bart
apparence
combin
racont
##ports
blo
##attle
flux
évaluation
##ompe
tribus
profession
##FI
Taylor
Américains
bataillon
Riv
##union
Rapp
passa
remarquer
répertoire
surprise
Roc
méditerran
109
samedi
reproduction
visibles
##dan
subi
utilisateurs
amont
##igné
##érées
pétrole
##elly
surviv
marie
sacré
Europé
escalier
héritage
communistes
fe
catal
étendue
amende
##mor
##vard
panneaux
privés
arriver
##ïn
1868
cents
paysans
Fiat
réfugiés
##acht
Alan
Google
surv
accords
affronter
##cies
récep
embouchure
##roir
Ny
attribue
##enny
##sive
évidence
rencontrer
Pétersbourg
##orro
sentiment
##glas
Intérieur
Chin
Town
décida
constante
##ennie
récits
récur
##etta
fins
Porte
##aou
##liques
61
pes
accusé
éponyme
délégation
Zh
Wilson
##êne
culmin
Band
conclut
March
femelles
restera
##alth
##tins
hôte
Carlo
intégration
issues
Windows
##INE
usines
cordes
garder
échecs
culturelles
défensi
Dép
germ
Hauts
récol
nationalité
##TV
##uela
venu
##ocie
Navy
Fay
athlétisme
Salv
adhé
State
rencontré
145
Nick
masculine
Pav
créés
préparer
réin
écou
clandes
USA
sûr
Jeunes
culturels
patients
Kan
Hom
##optères
Hitler
équipement
##tibles
lacs
pousse
1877
Madame
phases
##mble
bret
algorith
programmation
définie
Ep
Jord
exige
Rest
combattre
débats
##ness
146
##illard
apparaître
éth
Renault
Sep
assaut
qualités
particularité
Aud
commencer
115
soldat
caméra
évolué
chau
trace
tournois
##sim
curé
rééd
adulte
financières
obtint
##loge
Cham
Puy
pair
dizaines
statistique
Way
distinguer
initial
paroisses
Cit
Lyn
démissionne
##ersey
démocratie
##aïs
##erge
financiers
Angers
Christoph
DC
implique
134
##ineux
courants
Championship
amateurs
triom
1861
Mari
détruire
Serg
##oper
asi
bin
mol
dict
entouré
circonst
béton
comprenait
##diff
figur
trophée
diversité
IN
Ji
circulaire
has
peur
##ansas
lignée
Pékin
##ussions
##uaire
128
infir
baptisé
opus
héroï
1862
##enay
Classi
##cade
Stéphane
inhumé
tourner
##bs
signes
tramway
Irak
Espagn
##oro
Mir
Buen
battre
Sui
tiss
ave
boîte
affect
aristocra
Hi
syndicat
##oxe
option
colons
remportent
racc
prosp
##ologiste
Gustave
administrateur
TF
offrir
##len
1866
verte
Elizabeth
disparaît
éduc
Monaco
IX
différences
q
rectang
adversaires
précé
Œ
path
rivières
forcé
forts
##asp
Johnny
Statis
Pel
révél
précédemment
XVI
##iales
Chev
précédents
1874
initiale
comprennent
##ordon
##usions
professeurs
Fox
Armand
achète
occupée
##oid
jette
arbit
Sydney
##atom
Central
Litt
astron
cellule
mineures
reference
restant
##zen
urgence
rangs
##opa
blessures
Jun
héli
systématique
Voy
123
desservi
manifestation
##aïd
Jersey
1872
compens
pôle
##sibles
Andrew
##ualité
mentionne
##aun
construites
amélioration
##AD
1864
Agri
roul
Brad
navigation
sk
barre
CC
paci
compositions
##ref
Syl
minute
inventaire
régionaux
référend
##mpe
proposer
commandes
écologique
bap
indépendants
1865
Fall
congré
succéd
italiens
abandonner
suscep
tournant
Département
Buc
##raphe
popularité
travaillant
affrontent
encl
permanente
Constru
recense
horizont
éliminatoires
CI
tirer
##roniques
provenance
##dement
tests
créant
cuivre
Act
égal
magasin
Sub
candidature
##fice
poisson
publier
apparait
##œud
Jeune
prisonnier
Cannes
alé
modes
facile
nettement
Trip
débuté
empêche
crat
vague
espoirs
pharm
réception
transmis
dynamique
similaires
##occup
##swick
##dule
##orel
émo
##wald
guide
tibét
Claire
transformé
##chy
musées
tentatives
##calauré
diriger
##iana
pistes
Lav
Chab
Gram
##ênes
gram
éloi
config
ore
viande
boul
Él
désert
Hélène
industriels
itiné
africaine
Petite
participa
118
controvers
Cyr
réelle
dépit
Tré
Voici
locomo
Hos
Sorb
balle
terminant
regroupant
Venez
Ini
récupérer
Hart
Orchestre
paie
crime
Donald
solutions
Test
Beaux
Profes
explic
modification
Wilhelm
handicap
décisions
étrangère
1879
protoc
##mn
géographie
archéologiques
Turin
##érales
incomp
Vik
##onien
Poin
1800
##omen
alentours
##MC
beauté
remplaçant
francophone
##ouk
évacu
eurent
matières
Française
fini
partenaires
Philadelphie
Mig
Gros
photographe
Jos
fidèle
Fant
armén
fans
Catalog
installés
Commune
prononciation
##estes
Mong
annon
marais
Population
RC
##mages
bons
perturb
impressionn
Rouss
##igi
##ender
Maritime
districts
##èvre
Sept
Hollande
##onction
dates
perpé
##ardie
léger
1873
##linois
électro
humanité
##aib
Mem
##ple
Dijon
aid
rotation
Sicile
considérable
Dak
Thér
##ey
illég
cyril
##aillée
##rigue
Lune
divisée
Buff
privées
##In
trent
General
kg
##enstein
Gaston
##An
##sif
live
exposé
agir
accepter
opposant
contribution
##ET
Sid
##jug
œufs
dits
##etz
##ular
traités
Non
##etnam
1814
sculptures
##rah
##chesse
Bible
144
##mens
##calauréat
islamique
ran
probable
×
remarque
##phal
marbre
sucre
quelle
perspective
soud
Penns
Réunion
LN
Brunswick
##tica
Douglas
profite
1801
centi
Bil
redé
amélior
##ED
Clar
Amiens
confirmé
garnison
##xi
Hot
consacrer
124
1869
symbol
séminaire
##eff
organisés
Dém
Poitiers
militants
Rand
Sie
nœud
##rami
##techn
##dice
92
subdi
anarch
appelées
remportée
##wer
renforcer
##oker
hand
encourage
Sus
accorde
Time
singles
##èvres
Lucien
suites
Od
Sah
##cidents
Didier
Antiquité
cyrillique
##holm
engager
Piet
déroulent
##ignons
##omon
##forts
##olition
refuge
Has
influencé
biographie
couches
##ted
Lut
juif
113
simpli
Pop
fan
##aumes
fief
Orange
compatri
RD
vertu
profil
##ouille
exprime
arrivé
métiers
105
quas
Corps
pluie
Vallée
##tise
##formément
Oscar
individuel
investissement
intégrée
114
sté
Dauph
voile
policier
pratiquement
##orf
réserves
ordonnance
participant
##ilde
Pales
Toujours
Cord
descente
entreprend
mariée
Log
morph
Freder
disput
communale
##tumes
Lettres
manches
##agh
Somme
##rairie
têtes
Kl
rural
baroque
##mbour
maçonn
entendre
Kra
Zur
démis
Kle
fic
her
adopte
Ing
##acle
réellement
Main
cadet
épousé
##umer
byzantin
garçons
évène
repê
Elect
assiste
organisées
##itôt
Brand
chambres
##rose
Khan
parcour
orthodoxe
architectes
publiées
71
ceci
péné
1000
mourir
préd
lente
pavillon
terminer
écurie
NBA
Sév
aran
racines
##etts
gaul
rand
Barth
##veloppe
##ency
explosion
##illo
##illiers
Seigne
##gas
##arts
107
139
lé
Leurs
grandi
Flandre
Anthony
Flam
##zon
Color
Á
marty
plong
##lière
Human
Maxim
volontaires
##rue
##itanie
Maître
##acha
modeste
##rente
Aster
##actions
Hugues
manifeste
Rib
potenti
pianiste
Bog
contrôler
précédentes
##zona
136
Bourbon
##iness
échoue
rebaptis
australien
Porto
lourds
tro
variétés
envoyer
motif
médiévale
Aus
mystérie
RS
Fri
##Ch
tâche
assuré
##col
vols
Aires
Tournoi
monts
blind
renommé
malade
1851
épousa
Chemin
paras
réputé
##liga
Yam
révélé
rebelles
traits
décer
Tab
listes
##gor
133
fruit
accède
statues
##olic
amène
défaut
définir
assist
inaugurée
germanique
Tig
##attan
navale
Ost
Début
##anny
##worth
combus
Francesco
Old
Camille
Hamilton
Villa
##arl
ritu
évènements
Jap
ult
Tit
ram
##cient
passages
126
tournées
##ben
utile
jugement
Sarah
brièvement
##orum
Série
attitude
interdiction
suis
Tol
rénovation
symbolique
profondément
##ghan
Wol
Hambourg
approvision
##pre
batteur
##erme
Vladimir
##âteaux
##éomorphes
toponyme
##owe
flot
Jes
jum
##achus
##mbert
##ussitôt
82
morale
basilique
enseignant
##antaine
passée
Léopold
mineurs
dissolution
##duits
Major
richesse
obst
Good
emmen
harmon
##mund
Valence
entraine
néerlandaise
##tus
dessinateur
golfe
venait
spécialistes
##fères
##raham
Stef
achet
clergé
Hipp
Vieux
collectivités
Tai
gré
Pil
trentaine
1855
Héra
ordonne
générique
##bl
Jr
gymn
Arizona
Socorro
dispositions
aranéomorphes
abus
ache
Mathieu
onde
Dick
soviétiques
##mit
chrom
dérivé
Mart
Eu
jés
minor
alimentaire
##aïa
Kab
infin
Gouvernement
firent
blanches
UCI
##esses
Nag
##arel
sommets
procureur
décennie
deg
suicide
Dim
épr
garan
Buenos
obé
psychi
Lat
##ançon
dixième
Indon
assassiné
Roll
Costa
caractérise
DS
143
##heureusement
enregistrements
Midi
conqu
81
##niers
Aussi
écossais
constituer
ordinaire
##oupe
##alley
Lomb
inscrite
1859
Anjou
ner
##rette
LINE
aver
Toulon
##oient
Well
##erger
##ramment
quasiment
cla
âgée
policiers
Road
dispers
vag
Mohamed
Sorbonne
particules
consultée
##ortées
breton
emploie
causes
satellites
##oney
Glob
tromp
patrou
directrice
##réh
##isent
Entertain
conservée
impulsion
maternelle
vues
##veille
NGC
##eneuve
spécialement
véné
manoir
qualifier
permit
##mentation
absent
##ül
désir
rayon
Thérèse
##alo
comportant
Cuba
invités
##nels
Adri
personnels
transforme
Gonz
Show
LINEAR
impérial
références
1794
Tang
acheter
assimil
musicales
Sky
##étition
phénomènes
##régation
créateur
##aster
aéron
couramment
106
Bry
PD
##onnet
adoption
immense
##ez
##ctrice
sauvage
antérieur
##right
reconstitu
##ilée
géré
chimiques
##phy
Bulgar
logiciels
réclam
##oum
##osaur
ascension
##meurs
détient
##trait
servent
salariés
Franche
médicale
graphique
températures
DJ
Gaulle
Hollywood
traditionnels
plaques
##ás
##aso
##via
out
##chéc
rabb
entrées
vec
ouvrier
dame
ordonné
pira
permettait
##EF
lan
calcaire
magasins
Beaucoup
##aders
motiv
Massachus
##bal
##bar
GT
dépass
retenu
vété
prêté
Hubert
color
##chécosl
parisien
##miers
Manchester
tort
Meuse
placés
investi
Shang
impéra
Anderson
prototype
Massachusetts
Dét
Résistance
OS
miss
essence
circuits
Simp
ondes
##ogène
Pub
Lake
perç
Manche
refusé
civilisation
##ovis
##enaire
commerciales
##RI
##oda
Magdal
##mus
perdent
Laf
##charge
faune
##achement
faciliter
combattants
China
Coc
lutter
##odor
larges
éclate
esthétique
plomb
domine
Entertainment
commandé
Concours
voûte
##yne
##elson
baccalauréat
##pier
Initi
christianisme
gallo
##dun
Marin
##fiée
Spor
Catalogne
Dord
Yan
##roc
dut
artistiques
##ouf
signer
fabrique
##ved
coc
Monsieur
##MI
##âtres
reconnaître
Johannes
centrales
##ervé
antenne
##US
##âts
échappe
addition
marchands
ukrain
foyer
grandit
Series
abri
Venezuela
Lap
Youg
inspecteur
ensemb
ligues
variations
##oshi
##orique
##agascar
belles
vacances
Alexis
dépendant
##ductions
##elé
Bank
Vern
parcs
inconnue
palé
phon
intens
originaires
Aj
dames
prête
##fection
Corporation
108
guér
logement
##chard
acheté
gouvern
routier
cyclisme
notables
Haï
##ènent
Rach
territoriales
gend
camar
convo
chaire
effort
##book
##enzo
Canton
iv
##inations
liqu
1791
attire
##sey
universel
Kevin
Up
comprom
ot
préal
Administ
##heur
Isa
##olithique
##ativité
##ancée
##idité
Challen
##rats
Lem
##cevoir
conféd
moine
103
Our
élimination
infrastructures
##aisseaux
Indonésie
cerc
†
1795
stric
Pakistan
apporter
Spir
Broad
hélic
Ferr
fosse
achève
zéro
témoigne
botanique
apostolique
##atch
##mètres
inqui
charte
archéologie
réformes
##ning
MLB
chapite
témoignage
##asy
##sson
Pomp
##aments
parfaitement
cite
##ragons
dress
continuent
pourv
aud
doctrine
égale
holotype
démarche
##acé
##visions
States
##umée
Stone
Troy
116
observer
vendredi
recueilli
menées
produisent
générations
apparu
rattaché
francophones
##ME
traversé
progression
turc
rendant
Zo
##burgh
Gol
flè
##del
électoral
convi
Edmond
##auration
devoir
édifices
Éducation
ciné
apprendre
content
##zel
Ohio
sportifs
##wen
bis
mathémati
##gers
perpétu
##ahn
##eneur
##raille
Liban
Romain
##atar
commerciaux
psychologie
##pos
graves
atteinte
ensembles
vaisseaux
##onnés
Pedro
ombre
appartement
dieux
Confédération
##ochton
biologique
restre
réform
relatif
Fem
Bulgarie
1858
##his
mécanisme
Nature
génér
Lublin
##andre
1856
venue
reçoivent
typique
ts
tél
trajet
fontaine
TER
Grégoire
traditionnelles
habitant
parviennent
suppression
Action
1852
##îmes
week
cheveux
##itées
construis
juridiction
utilisateur
Dés
1857
évoluer
##contre
récente
symét
repouss
##akes
descendant
##euse
réussite
Noire
humides
Ele
Illinois
Christine
circonstances
Ridge
Recher
Lit
Lady
comprise
gouvernements
Are
assurée
1854
théories
Howard
Article
paraître
##bec
indien
Harvard
alpin
Billboard
liturg
théorème
appuie
Yougosl
##érapie
Little
CH
foule
référendum
apparitions
pist
##omé
##aron
##bilités
Annales
jugé
plateforme
Church
Miller
Isère
Pon
##oko
Geoff
Stand
Aragon
majeurs
disputer
Free
##rophes
pul
Mann
##abilités
##rais
exercer
surfaces
Sz
XII
Carn
##ovitch
précipitations
##erner
gérer
emplois
##amine
##oques
Cé
Command
Dig
témoin
Madagascar
##mper
##ouin
##belli
avancée
##ío
éloign
extraord
##mun
na
##rimin
##titudes
aérien
##oria
Pourtant
Dem
propositions
récl
Vosges
vidéos
exprimés
culminant
revendi
##otage
Britannique
modifier
hu
Bonne
bouche
records
résoudre
##garde
explosi
photographies
coff
récip
communs
énorme
##émont
##taire
##chan
Rey
officielles
##lait
préoccup
##raf
##deur
Aux
étal
amphib
pomp
phrase
collines
1849
coûte
ports
indice
renforce
##amo
Viv
##had
##stein
prai
communautaire
##isch
grève
Abraham
ecclésiastique
91
##intendo
brevet
apparent
instance
ADN
robe
##FC
épau
roues
éman
Louvre
remettre
Troisième
Là
##asie
ben
##ese
##opédie
press
fenêtre
Bec
iran
destinées
##aparte
saints
CA
campus
hyb
conçue
PP
##ued
tenté
volant
marquant
tube
tempête
sexuelle
qualifiés
recens
luc
Academy
LNH
coûts
squ
Ten
mammi
Second
actuels
rapides
##ione
##agner
Otto
dégâts
incident
##istiques
##opie
Uru
inconnu
##etto
Ain
Great
concile
décroche
##oba
Agn
Hur
show
matériau
médical
remplacés
##ride
1846
##guay
NAS
Sem
genti
permanent
##tentri
rentrer
progress
##alyse
##uvres
##athlon
##kar
##alogie
##EE
bos
Nintendo
démonst
éventuellement
Santé
accepté
Yougoslavie
##tar
seuil
insuffis
##ultats
attente
commémor
ponc
##acc
voû
géant
Besançon
CP
##ends
Clark
##èges
Baz
Shi
Croatie
suggère
Boulogne
##ouer
Olympique
##autique
##zac
##èves
bleue
##atrices
emporte
autochton
Da
finir
dommages
##aisie
revers
tomber
métropolitaine
socialistes
Juni
immun
##lien
ours
protéines
engl
fonder
stratég
104
littoral
##tionnelles
monarchie
armé
disant
thermique
autobi
Pennsylvanie
##oche
absolu
passes
identifier
Tin
lès
##neurs
retiré
Eure
Zurich
Stanley
imprim
Soul
Villeneuve
décoré
invention
##vens
positif
recettes
délégué
conduire
exactement
chat
Traité
##rano
audience
fib
nov
##rables
##sbourg
##FL
cog
sis
della
join
##oniques
##RT
Call
##yan
attribuée
aériennes
puissante
séquence
vainqueurs
Len
##marès
plaf
fonctionne
copie
##tionnels
comparaison
Occ
##mées
Bord
Hautes
Fa
voulu
comptant
Dave
fine
sultan
créées
désignation
São
schéma
##ortun
enlev
protégé
##rys
##ygène
connex
Lambert
hospital
noires
##orisation
AM
délib
habite
Bonaparte
réparties
Gam
comtes
Morgan
Gö
applique
envisage
Ran
observe
it
Cœur
adolesc
argentin
Near
autrichien
##oku
Atlant
courtes
synagog
batailles
Dall
Arane
ajouté
étroite
vents
##lore
inex
##ovision
##iler
aussitôt
corruption
##ika
Missouri
scolaires
rappe
##server
croire
vallées
moyennes
coloniale
semblable
brésilien
assistance
contiennent
écrites
communément
incarne
##cés
localités
##hire
ronde
assurance
End
Neu
massacre
essor
indisp
experts
Heinrich
Dipl
##ataire
comtesse
transformer
adaptée
##kan
##champ
Guide
clinique
Ivoire
Source
Faculté
envoyés
limiter
Cob
équipée
fonctionnaires
Raw
##ographes
aig
Vich
congrégation
##gro
Forces
##aba
drame
fossiles
dépression
enregistrer
Bruce
chargés
occupent
Zi
Pok
téléphone
Vé
##gate
bag
Reine
mythologie
Bains
Territ
doig
pain
portait
##ièmes
Route
décal
terminée
##ïs
Labor
preuves
##quets
épaisseur
blocs
Jimmy
Micros
vedette
intelligence
##fre
cerveau
transpar
certif
UMP
##bout
constat
éliminer
ion
hété
Power
cadres
stable
attesté
Francfort
##abi
devenus
Beat
préfère
observé
Dordogne
alphabet
collègues
##hén
traiter
Mend
festivals
parach
dictionnaire
équation
conservés
##anim
Sang
torp
bruit
ponctu
prononcé
antérieure
Amaz
daté
mira
stim
Giuse
fameux
colonisation
##aker
tirage
variante
##ological
agricul
souris
psychan
renvers
combinaison
tentent
Stockholm
opérateur
coi
régulier
considèrent
sensible
métropole
##grade
suspension
Caléd
continentale
##sp
déploy
chercheur
sommes
cardiaque
inscriptions
Cologne
placer
Bond
antis
orange
primaires
froide
##rod
confort
mémoires
appeler
Roth
hall
sédi
déplacer
érigé
Atlanta
résulte
##ilia
##inés
##adium
préside
Wild
élevés
Fiche
Magdalena
définitive
nucléaires
crâ
gang
Indes
lecteur
Chevalier
variantes
soc
dominic
doyen
inhab
##dir
lundi
Columbia
possédant
bordure
1853
Robin
##érance
rives
##rade
Justin
faisaient
qualifications
##tiennes
stockage
influences
espion
internes
dign
paroissiale
##aman
Boc
1845
hipp
préfe
ravit
belges
augmenté
remonter
##oya
##ual
##oport
Vent
mena
naturellement
affaib
entité
souligne
Suz
sép
##oka
##léch
Ign
Mexico
triple
radical
disposent
##rienne
actualité
alternative
ONU
favoriser
##pper
Hass
##ciennes
##atra
Pant
trio
compati
Vati
duchesse
Mémoires
Sak
crimes
obligation
##uise
##sière
Îles
considérer
supérieurs
Philippines
Ut
Psy
surpl
montrant
##angent
##ataires
Adolphe
dangereux
compétence
Armé
feux
archidi
graines
talents
Empereur
scandale
immeubles
##chers
associe
engagée
Province
variables
soin
trouvant
marqués
##ogue
carn
rédige
perfection
CG
##ados
##illac
##onnant
collecte
##ohn
démographique
##DE
Miami
##isations
éliminé
administratives
##TS
Rai
réservé
##illée
Isaac
##ways
allong
concession
Jonathan
Guer
roum
Leip
théorique
##mix
##ysique
Commer
volontaire
Brook
convaincre
##uki
##chel
Jay
##tinent
situations
Š
croit
colomb
répression
Kre
1831
anticip
##orient
Ka
phosph
AG
Taï
Offici
parlementaires
Clé
Fleur
##lématique
##omi
##cius
rejoignent
coin
Mondi
stabil
ed
Ober
organe
##ís
danois
orientales
remarquables
IG
Chac
épée
crédit
partielle
reconstruit
Us
rébelli
classées
Gordon
notori
Giuseppe
guère
compagnon
animé
poign
arrêtés
##ritz
Christopher
Fut
athlètes
##lio
##pool
##wich
bec
gère
mineur
##estations
notoriété
##stes
##ombres
##ogie
séné
achevé
décors
##orio
peuplée
Colorado
entour
Navarre
Limoges
secrets
McG
##lands
Hand
##chette
menant
Alt
##teaux
##alogues
compagnons
plas
oriental
Exposition
##eton
Pos
##ias
musicaux
##kel
Raf
télés
##onia
Lisbonne
##uée
attentat
impliqué
réservoir
1837
Palestine
##tip
##fran
Lyc
##rielle
Allen
dérive
##technique
##lain
##avage
buteur
star
arbitre
diffuse
##lez
##inium
aidé
cède
Water
##ogo
Ferrari
##ally
lis
accompagnée
Ot
Yv
Située
fourni
Kr
1812
pasteur
extraction
##eno
##lay
Rapha
tensions
1820
appelait
cod
unif
##inus
indiquent
1847
Santi
inauguration
inég
réag
lion
extérieure
##TT
interrog
Bron
partant
Lanc
patern
intervenir
Jar
articul
gel
##quettes
datent
actuelles
##riens
Viêt
diversi
exprimer
fortifications
récentes
exécuté
fixé
heur
sympt
protégée
interprétée
MS
##ESCO
rédigé
ouvertes
faill
Michigan
Jen
chars
dents
entraîner
##tico
Charlie
courage
##ppi
Diff
##bourne
bords
##duisant
Golden
Actuellement
##amer
##enda
roches
illustré
Ill
ça
##rolog
UEFA
##armerie
familial
linéaire
##dale
##Article
libérer
compositeurs
marquer
terrestres
Kor
baies
Belgrade
##än
humour
végétation
revi
Space
éclat
transe
Brie
identification
RN
Feu
travaillent
flui
dessert
patient
##othé
nés
mons
##roduction
redécoup
##reuse
hausse
##tide
Bomb
##erbaïd
Court
Franco
capables
##illés
##apest
Asteroid
commandée
##erbaïdjan
espagnols
##dis
##culaires
##är
riz
tari
ultime
implantation
basses
confes
Leipzig
effectifs
Kath
##rectement
intensité
ottoman
feuillet
élaboration
##rate
Ministre
chancelier
##urier
jouée
rendez
décerné
loy
Bâle
##endrait
Deuxième
##ror
Ful
trah
piliers
##hn
Uruguay
##lète
Nou
Sat
amené
convoi
grosse
entourée
Wur
aperç
interro
##ueil
Raoul
prussi
joueuse
écrivit
Fun
avère
##ku
coopéra
configuration
##émin
Lind
démén
voisines
##sig
1842
anonyme
contraintes
Raj
Ryan
rayons
finaliste
##mètre
loisirs
prière
liaisons
hel
Kenne
dites
Conférence
##senal
Hond
clés
maintient
Sylv
organes
Hend
garanti
Beach
Hop
Lig
confusion
effectuée
##uro
syndicats
més
manuf
Arménie
malades
##gy
rendit
appartiennent
diplomatique
##hib
##housi
Islam
entraîné
activement
Grands
sympath
proprement
Dark
cumul
feuille
Hell
Nich
fuir
EC
adoptée
artisans
din
confiée
humide
réactions
##prise
gov
Scot
##refour
Fle
correspondent
PL
emport
survivants
Étab
aub
abandonnée
og
##assent
inspirée
##acées
Vert
ressort
##En
Budapest
composées
municipaux
représentés
habitations
Ges
Boris
dotée
gardes
##iement
Barbara
théât
alum
symboles
##utri
Neuf
ressemble
Dy
externe
localement
tribun
##cas
héré
proph
Châtel
1836
1832
1835
mammifères
foc
1806
divorce
suffixe
Vichy
session
coéquipier
##mentaire
District
militant
Dod
colère
métallique
orph
présentés
Marco
habitation
##fl
pun
êtres
témoignages
erreurs
républicaine
FM
Kol
vouloir
handball
Aig
Marsh
offrant
traverser
Louvain
souvenirs
Tah
##réhension
manne
Ouv
Sad
##entier
##No
indienne
Équ
Arist
Tarn
identifié
##stadt
étym
cérémon
prévention
Tod
abst
Ferrand
##eto
Mr
##ring
coréen
##EM
Massi
avons
adopter
autorisé
certainement
Pay
##idation
notable
##elot
arrestation
enseignants
BM
nap
Sark
##andro
séparés
pollution
1839
vitesses
Méri
Princip
##limard
Who
organique
Arnaud
##ictionary
opportun
##térieurs
dialogue
spéciales
attraction
manga
Kansas
Microsoft
vê
Valen
protestante
##TC
##ography
missiles
##uen
700
##élect
Vas
bic
meub
Ernst
tronçon
multipli
##enues
##usk
parrain
1844
punk
Dublin
stabilité
Bén
vendue
massac
ancêtre
acquérir
##cin
Base
moto
entendu
cinquant
débarquement
invite
Natur
déser
UNESCO
acquit
séd
1838
Rick
Insee
aveug
disciplines
ol
sond
##iane
Thor
humor
##érape
sollic
préhist
redécoupage
Théodore
Gallimard
allié
choisie
Ludwig
contrats
##ights
##geoise
bailli
publia
soutenue
urbanisme
propagande
##neau
##inthe
hameaux
##rone
quittent
Chant
absorb
##avy
Rain
Conne
indiqué
hydrogène
considérées
serment
##lesse
CNRS
pend
joint
##aline
Hervé
transformée
##bul
requ
Vatican
##elt
##auts
allé
occupant
Cot
Situé
##breu
##rash
##round
Havre
rendus
spons
intense
simultanément
##ivern
vole
anneau
polémique
blé
##owa
##divers
Philip
##ralement
MP
Jazz
Suite
veulent
subsiste
rapproche
possibilités
##itres
atom
Feder
##nf
soign
présidents
enregistrée
constitutionnel
##DS
##ilie
brou
Lucas
chape
dénommé
##ohen
Thi
Litu
féod
perdue
races
sportives
protestants
degrés
##quille
Ahmed
Presse
érigée
syndrome
puissances
insurrection
dir
sauvet
barb
##achés
##olles
Mast
acous
Moulin
Hermann
accompag
##hon
Ange
Noir
remporta
puissants
poursuivi
continuité
néc
Anim
Quint
délic
découpage
phyl
tâches
munitions
##ango
Hels
Cr
repar
principauté
flanc
adapter
imposant
##oines
1843
Hugh
glis
plonge
sauvages
fragments
##aing
Joy
##ibliothèques
##roi
Saison
turque
Quentin
reprennent
vass
démissionn
consist
extraits
touristes
occitan
communications
##vue
##box
Ais
##illant
pyrami
provoquer
##mia
indé
achevée
bâton
quête
margin
réh
globale
rez
Night
##raphique
armement
tissu
battent
##octur
chorég
Gun
pauvreté
Jura
##azines
Secrét
1810
Eg
chanter
dénonce
enferm
##ree
affluents
exploration
Atlas
pente
##olas
aboutit
décrire
toponymie
##ozy
boy
Symph
ste
véc
réapp
##oté
expuls
châteaux
messe
courbe
Russell
Diam
##tilles
réunis
Japonais
appliquer
##ctée
centr
détenu
RP
dal
emm
##aft
##ouz
##rong
Part
Nîmes
lecteurs
proposent
retrans
1834
##quants
Internationale
ard
Autre
Fernando
uniforme
vif
Burg
Gray
Ya
##head
poètes
proposée
effectivement
entré
auxili
Calédonie
résidences
##venant
enthousi
fichiers
Eurovision
##uta
gouv
industries
Tot
vraie
mondiaux
conversion
##aver
##érone
mobilier
protagon
Sart
mesurer
Seigneur
environn
##ask
##iew
##aku
Pur
Sard
régi
Queens
##ophile
Vendée
Observatoire
WWE
pales
canaux
##érents
biologie
rébellion
##dication
##cra
Roh
révol
##acles
##keting
Paulo
briques
moments
journées
styles
paiement
##more
Esprit
habitude
tiennent
composent
##aze
##obil
Kin
Charle
gloire
utilité
affronte
déroulée
longe
Famille
proportion
##atel
Eff
1841
Aucun
chlor
Common
IC
dioc
hasard
planètes
transept
##SA
Prim
Comics
oxygène
##enb
##ercy
memb
Moore
acides
engagés
préserver
##kina
Hir
##ratif
cache
##oua
Walt
présidé
vicomte
##asso
Bras
Shin
Satur
Miguel
cylindres
##otique
##téries
éclairage
##oura
éme
Berne
Trente
assisté
synagogue
##ssis
Kun
##encer
bonus
confié
bassiste
banques
métrages
FF
romane
##Arch
access
ancêtres
prédécesseur
##équ
jal
Chen
paire
##GV
FA
Civ
Berry
spéciaux
Ō
dil
suspend
Ensemble
molécules
respecter
Mare
épuis
forestière
##lus
opti
##obiles
##onnage
Billy
impro
consol
Ler
éval
retenue
réalisations
##tigieux
AN
Jak
##voie
Nan
Quar
Thaï
prolongement
prolonge
idéal
Beauv
révision
conjointement
ultérieure
Rangers
##outs
pontific
##isa
##oub
##gard
Bey
##mblement
prononce
ja
Gy
Grant
Syndic
##lets
Soud
élég
##rètement
pèlerinage
Neuve
Wang
band
flore
Gironde
enj
perp
Master
##mies
Games
intérim
Bré
Hann
empre
Direction
hiérarchie
manager
immigration
installent
législation
souveraineté
mill
témoins
touché
analyses
proviennent
logo
Minnes
joua
inver
Arabie
Indian
amical
First
module
magazines
##onso
atteignent
##émon
citoyen
dépenses
composants
##uries
annexe
décédée
romains
dominant
Houston
Vid
##rieurs
Studio
cris
##ussion
dauph
Araneae
Rous
alter
antic
renvoy
Queen
obtenue
milliard
gam
##rissage
Women
évènement
Fres
jud
futurs
##hor
Leb
Vanc
Abdel
datée
AFP
ampleur
IP
##adier
1833
Nelson
sonore
##rett
##assement
mensuel
planches
évoluait
compatriote
nazis
Renaud
sorties
appropri
réunions
Singap
obtention
Vo
signée
palmarès
##non
métaux
tribune
appris
atteignant
chô
boute
##ignant
timbres
récurrent
AL
##bell
los
Cole
##illeur
Loiret
restée
##aval
##pitaux
##érien
assister
Pâ
collég
Enfant
supplé
vig
Best
Cross
tombes
##ére
##aily
capturé
Andrea
normand
parfait
prononc
##eli
Nak
grandeur
libéraux
Jason
intégralité
##anus
Fid
timbre
gise
Rugby
secrète
raff
servit
escadre
vivants
Gamb
attirer
septentri
Calv
rames
Finances
encontre
crain
évangé
Minnesota
signification
Malte
Sher
Media
parution
rayonnement
##dits
Libre
fermes
devra
toiles
individuelle
##bin
##tég
vélo
Rig
Meur
##dict
##ña
pare
bombardement
bibliothèques
Ian
##effici
rival
perc
sortent
classements
australienne
animateur
salaire
Whit
Glas
fiche
##piration
démocrates
gagnant
protocole
Castille
législature
Temps
mosquée
diminution
Fur
Herbert
##atu
##ateau
couverte
chantiers
##Ph
##fn
Down
chevaliers
##ueux
juges
solde
romaines
éditeurs
empare
variation
tril
Occitanie
attribution
Nobel
Ottawa
déesse
##urin
Comte
conte
disparaître
##Fiche
Clau
Fren
Jour
corre
légers
Station
Espagnols
##NI
Seul
##dire
Pent
##izième
gras
##duites
##ár
proli
sénat
formés
france
Kennedy
magnétique
##zé
lin
XVIII
##athon
dons
##enance
Montb
sociologie
##cale
##ural
Mira
pattes
produites
##mba
##hausen
authen
déposé
partent
suédoise
relégation
##kes
renonce
autrichienne
Ng
Ves
suspendu
indiquant
normalement
##eurs
constituant
PK
##utilis
racine
équipés
galeries
châssis
Nath
bnf
prestigieux
bombe
mathématique
Franck
##geance
##GA
##Notice
##vation
Vancouver
amoureuse
Work
##orpions
suffit
Sovi
Japan
abside
courante
maîtresse
nouvellement
jamb
##aska
innovation
commentaires
##ogée
Julie
Matthe
relégué
travées
sélectionnés
##aillons
relatives
##mal
##nac
##ude
##çants
Grim
survie
contacts
républicains
tén
modifiée
arra
##raphie
adapt
précur
€
##ams
##rible
désin
poche
dépôts
prévoy
Publish
##tical
##var
Chron
Yann
écras
poudre
bulletin
hop
Rein
céréb
argile
Stein
Té
##urer
votes
Libert
divise
poser
produisant
##cières
relier
##uies
quais
Afghan
autorise
puissent
##opedia
manger
Mission
cratère
Steven
métaph
promet
rabbin
auront
global
obligé
évêché
énergétique
séparé
##cesseurs
constate
africains
Pes
Fore
incont
incline
financer
Fil
grille
##wart
persécu
fusionne
Kom
##rides
unes
chapiteaux
##jus
INS
hébreu
Bologne
sentiments
Valentin
comptent
avantages
terminent
Toy
logis
attaqué
##èbre
##ierra
##oriale
Sebas
législative
Apple
persu
Dos
1813
Liver
cah
firme
impôts
lourde
bassins
concepts
désignée
étern
##chin
Marvel
connut
coeffici
existant
répertori
découverts
Mitch
développés
québécoise
Jup
Indre
sèche
Cry
succédé
chen
musulmane
favorables
##lever
##Archives
##aig
##ław
surn
parue
licenci
élevées
disputée
extraordinaire
##orre
##utelle
tombeau
##aurer
Frib
Nad
Line
Musique
indispens
##arie
Lun
Emma
agran
chômage
mobiles
##LA
cristall
géométrie
Présent
carburant
irlandaise
##meaux
Tomm
luth
Nikol
radar
sortes
collective
Landes
indigènes
numériques
##ophy
##veland
médiéval
##arz
dic
##anoine
##eneurs
Adrien
continué
aéronautique
Ey
acadé
Champs
méridionale
Urb
nett
encycl
normal
catastrophe
Ral
##isseur
convers
##édoine
Angoul
boucle
maritimes
jac
enverg
provoqué
Collection
reconstruite
##chez
##erto
##eting
##ôture
##aps
cle
axes
incon
Philli
Cris
Seuls
remix
Shanghai
Boe
contes
entrent
Santiago
hongroise
transporter
éru
créent
légiti
Thaïlande
Bot
##irant
Alliés
promul
reprenant
intellectuels
##lyn
CR
Slov
impôt
##entielles
Alexandrie
hym
fresques
hydrauli
juniors
##ather
##rèrent
From
parlent
##raud
##redi
Ris
Match
Sarkozy
coupable
vœ
1825
Adolf
Lituanie
nationaliste
##avre
##conque
##aré
##day
amor
##uscule
tutelle
pharmac
fantastique
effectués
électroniques
slov
ballon
algorithme
maçonnerie
bol
cross
incluent
accompagner
##umières
chants
partagé
##ng
##tilité
clavi
discrimin
Mit
Andy
Thib
##otypes
exposée
rentrée
##lies
Poz
ignor
résumé
Bod
Deuts
préli
astronome
Brab
audio
recev
traversant
##achi
saur
repas
Network
diagnostic
Châte
Gênes
convient
Dictionary
fonctionnaire
##pice
##prits
gravure
optimis
Shar
bouc
lune
incert
##ikh
##ania
Fair
appliquée
fondations
recrutement
##PA
Kap
##arios
##alisant
promen
exemplaire
European
##witz
Aisne
voler
envergure
restaurants
démonstration
Heures
annoncée
##oen
quinzaine
sulf
##relles
Light
ottom
mécaniques
périodique
##uin
##ablo
##oster
Spring
hôtels
##mois
acad
suisses
Of
##ergy
##chait
étendre
dépasser
explication
Bis
Loir
hard
##Station
UC
Hain
info
sons
Forum
industrielles
##gr
mad
irrégu
Frères
Angoulême
##ébé
##arche
arrêts
alimentaires
Vén
Java
fabriqué
céramique
posth
Abbaye
chiens
détruis
Poul
spécialisés
compréhension
##esta
galaxie
ajoutent
aluminium
##kine
##rivent
##idés
##elberg
Forêt
récolte
téléspect
##oon
bét
Fonds
Cercle
participations
ministé
##rô
##phém
##ousin
ABC
Lep
créa
fichier
Afghanistan
élire
volley
silence
##elet
Nommé
emprisonné
Bres
Tome
norvégien
plaisir
attribués
berg
extin
façades
faillite
interface
distinctes
Ligne
nommer
marti
carrés
##atz
##tiss
Domin
Devant
prochaine
portugaise
##last
Berger
Archite
matrice
Ség
Sara
##borg
mang
Directeur
amphibiens
contrainte
Aqu
##elage
Arte
drogue
Hamp
effectuées
##éna
poétique
bénéficier
County
exceptionnelle
Coul
halte
magni
parts
essaie
Islande
vitraux
SM
##opath
##aza
Shaw
accordé
individuelles
Kelly
escar
noctur
##olin
Spar
##aru
##uriel
1809
##aos
AI
##cker
monté
Vig
coul
Caraï
##wo
##cif
vigne
détruits
kilomètre
##DI
##orc
##teries
María
détroit
##nien
Clin
Occidentale
Oak
##arium
marge
System
Daw
Hud
urbains
Dragon
##bé
##icz
tissus
Serv
##inki
faud
médicaments
Kit
Pod
claire
Fribourg
Cooper
positive
##atsu
##oser
provinciale
mout
offert
documentaires
Note
Trinité
copies
détenus
improvis
Hyd
abrégé
climatique
##akov
écos
étendu
Tag
##ierie
1803
Benn
offrent
##gare
serp
subir
Salvador
sélectionneur
FR
Alberto
concentre
cinquantaine
##onienne
condamnés
Ark
OT
##Fran
##iano
##lane
Wes
vaud
Éthi
Tchécosl
chapelles
renouvellement
##rh
relan
Études
Robinson
baptisée
développent
Anat
inac
quarantaine
Chef
dépens
##owell
Fitz
##enheim
Stadium
éteint
concurrents
##brer
##orien
1808
cessé
retrouvés
##dorf
##gart
1824
chanteurs
##ilt
Reyn
anatom
souffre
plastique
connaissent
sati
recul
##étrique
##cz
délai
##fus
##oyers
Comment
détention
apparemment
FN
##ocal
panneau
tropicale
conjug
consécutive
##yss
##estra
romantique
ens
##ducteurs
douleur
mythe
##aillement
##érindiens
relâ
books
ménages
Louisiane
Om
##trer
ouverts
##otti
##atisme
##nellement
Ö
Fili
assurant
Tong
Monts
voter
éloig
certific
Cleveland
possessions
##anson
Sche
mitraille
testament
provincial
Haye
Quin
cuirass
Liverpool
##led
Studios
Barry
ultra
##écurité
Seattle
terminus
##tera
Détroit
adhésion
mér
gravement
brève
vulné
montage
témoignent
Dro
demanda
Pros
##debourg
Cardin
apprécié
biodivers
finissent
ampli
chass
lauréat
Ton
Rochelle
Vand
tuber
PlayStation
##bot
ornement
spirituel
Home
tubes
perception
##dictions
blues
codes
clôture
segment
traitements
exclu
Bowl
Arnold
personnelles
1816
doux
Europa
encoura
imaginaire
préface
restauré
##back
matri
Sof
Nigeria
roumain
successives
##aldo
##icie
Dec
Syst
Jordan
Indiana
forfait
parvenir
##encl
##imes
Médic
distribué
biographique
##eler
Det
##urance
arrange
dominante
##ahl
constructeurs
•
Indien
qualifiée
Publi
urbaines
presti
bénédic
qualifiées
##oiries
atterrissage
identiques
Mut
dies
noces
Village
hôpitaux
mécanismes
collaborateurs
légion
##ilib
Buck
citad
émergence
Fish
##bro
##chim
accuse
épouser
diplomate
effondrement
Fro
Galerie
Duf
permettra
Éd
##astes
Ever
détaill
servait
laissent
temporaire
Caire
religions
calme
##vinrent
rectangulaire
##venus
##arctique
commerces
##rammes
taxe
Ext
##ctive
##onnie
Nouvel
obtiennent
##omet
##vide
Namur
discussion
##dad
##opes
##isseurs
entités
PR
naval
messages
enseigner
##ân
Bris
Arles
Carte
aînée
dette
Azerbaïdjan
##cell
Dau
Taïwan
Ax
##ousie
reconnus
##oing
Sound
illustrations
Pitts
chevet
déploie
parlant
Malaisie
bactéries
partagent
Sex
1804
Mississi
confluence
immobilier
Jin
1827
Bess
Kiev
NASA
préco
palestin
exigences
##optère
##utique
##ogen
##eston
##chauff
sérieux
Singapour
Def
Janeiro
billets
rebonds
chapitres
roue
plume
Franklin
AB
Prot
Stars
donnés
##lave
Wrest
reliques
désignant
##feu
XIX
lever
constell
alp
Western
autonom
enquêtes
géologique
SO
Kas
##viève
##ancourt
esclavage
101
##olais
Wiki
##olat
##ressent
Helsinki
entraînant
Bh
posée
oli
alias
##alom
##odon
coupl
Gustav
notice
Martine
trouvés
inscrivant
dol
verts
interse
rivalité
##anz
kar
##islas
glac
##sibilité
Wu
Dep
##inant
##velines
German
comtés
##Cl
parlé
confirmée
parallèlement
Gary
##énaire
Suzanne
conclusion
locomotives
##asme
Celles
plafond
1821
Poit
reman
barrages
obtenant
##chos
##inae
##chron
créations
jouait
quelqu
confier
voulant
partager
occidentaux
##ièce
sanction
##GB
rachète
dénommée
##aldi
Aim
dfn
Edgar
poussée
diminuer
##UR
Hyp
Kid
Raphaël
1829
Rost
##âtel
1802
Book
Dion
réconc
qualific
##ontan
Étoile
##obus
éthique
symphonique
Gay
oxyd
exper
passés
conformément
sauvetage
entrepreneur
grecs
Bohême
bref
apogée
recruté
registres
limitrophe
1807
1828
diverg
proposant
Wy
Pacific
gravures
substitu
##rd
harmonie
arrondissements
##linaire
contributions
HMS
##ammed
préfector
philosophique
##Il
GP
##nois
##ignac
Bundes
civiles
Américain
domestique
##urés
tét
Just
réguliers
chroniques
Imm
Nicole
##ulations
##LE
Kurt
désesp
attentats
##éda
##tini
Found
lourdes
situent
##fra
Tob
Dead
pentes
Antilles
miner
missionnaires
Bug
Isle
tabac
Oliver
battue
quitta
##iliation
##tionnellement
Iz
Table
séparée
##cis
coiff
particulières
nez
Burkina
algérien
collaboré
ordinateurs
émin
censure
fê
paramètres
##ët
wh
##oulée
Stuart
esprits
##mos
pluies
quantités
Colin
maîtris
contenir
Fire
Pris
coque
group
transmet
##aiser
##cheur
##ctorat
Priv
Sens
temples
académique
##ints
chêne
Murray
Églises
bombardements
renseignement
accum
sphère
affirmant
##pte
file
autochtones
fonctionner
MC
Cook
réunir
species
vél
avocats
hit
Must
leaders
automobiles
mathématicien
las
Siège
Aucune
mentionnée
téléspectateurs
##écule
gain
conservées
##mouth
##aisses
scrip
détour
##ineuse
consultable
Yu
Chyp
précieux
originales
connec
convainc
##cast
##aristes
Russes
attribuer
Harris
demandant
agriculteurs
conservateurs
~
Beth
count
##illages
Forest
vastes
régiments
échantill
exécuter
législatif
##wal
Bush
réservée
Mississippi
##35
##oga
Faso
##lisation
console
##atisation
##IX
##leton
##valle
FIFA
demandes
confondre
complot
vicaire
##arisation
##td
refroid
supprimé
Tchécoslovaquie
Jupiter
Séville
accidents
##lén
Yang
pisc
##timore
##geot
Lef
debout
exhaus
expert
mun
##ovic
Books
inondations
SD
épid
Mitter
balles
Pey
##achim
citée
Compos
plainte
géographiques
##raste
gast
métall
agressi
pédagogique
##omie
Over
arcades
cérémonies
Malheureusement
##osp
##erve
Lal
Lach
##onnent
Margaret
discussions
1798
Goth
Merce
##issante
rachat
Macédoine
compléter
dresse
bapt
Carter
Copenh
horreur
intéressant
Ibn
##orium
fluvi
incendi
minorité
you
fonte
investissements
Ta
visites
pratiquer
##BI
##mic
inscrire
##zin
Jardin
##tum
master
Nouvelles
ros
##reaux
Tall
indemn
1811
cend
recr
##onf
coïn
##ifrance
déport
travée
apparente
##istol
##oxyde
bière
Review
trouvaient
##mers
##ordi
##ottes
Blues
gènes
abstra
Couronne
disposer
intrigue
##rosse
charp
adhère
intime
résidents
conducteur
Jeunesse
séparées
disposant
##encier
vivait
optim
apporté
##aca
osc
Troyes
enseigné
bombardi
Initialement
Administration
Chel
prochain
autrement
##45
Global
intégrale
accessibles
Rém
##erton
Marti
remplis
Tribunal
Baltimore
Patrimoine
rapprocher
Salomon
déplacements
Him
Hers
graveur
résistant
prestation
##aïl
Eis
##aland
impératrice
armés
Disc
sûre
attendant
Edu
Carth
Léonard
Geneviève
marketing
1799
Vass
gout
livret
gallica
responsabilités
##ism
900
dérivés
traî
Mohammed
spécifiquement
##FR
concernent
##ulu
Beck
Guyane
LA
WTA
myst
revê
homonyme
Asc
Pietro
mesurent
avènement
##ocène
magie
devise
estimations
##Tube
ange
nationalistes
##pez
crête
angles
chirurgie
originaux
partition
Inst
icon
Grecs
acquise
##nez
##ware
Ord
1826
vern
comics
séparer
récompensé
##viers
Dess
innoc
Marcus
continua
##enton
Arriv
tronc
racheté
enregistrés
##odge
Spéci
conservatoire
Eth
saga
foncé
biodiversité
Lazare
chanoine
légendes
poul
mannequin
##tino
globalement
##nith
##pson
##tissant
Langued
cast
Adams
catholic
##89
##bu
Lionel
hivern
symptômes
antérieures
##sky
##apolis
Crois
Presses
comique
approuvé
Martinique
Professeur
temporairement
Mond
gène
##kerque
archi
##inaires
##onnière
posthume
complexité
##kt
##nau
1500
agences
critiqué
consacrés
bonheur
envoyée
composant
départementaux
Mall
Sauv
vieill
pourcent
Lui
Pois
consom
comédien
##gang
renseignements
protégés
solidarité
controverse
##ergie
1214
Joan
##oureux
##usz
hyg
Catal
Project
##anium
naiss
Roberto
latérales
coupes
portion
mélo
joués
pneum
Tennes
Audi
marines
Chartres
hauteurs
LE
Chem
mondiales
regroupement
exploité
##lav
Wo
psychiat
##Cf
coordination
PI
défic
Panama
attiré
décisive
##fried
##lante
##wealth
Unter
variés
grès
##reuses
Gaule
prestigie
existé
interdite
réalisant
destroy
gravité
transférée
condamnation
##olt
PA
Loup
clin
Beaumont
wallonne
carrefour
lâ
Spi
Azur
communiqué
Kai
allég
Royale
Gob
Bull
nauf
##lières
Austin
substance
traductions
##ingo
Dog
entrepris
1822
peloton
théolog
celtique
##leg
##annel
grég
Cornel
ballet
provoquant
##36
élan
Boliv
écoute
aménagé
ouvrière
inventeur
juridiques
##taient
Luigi
sacrée
priorité
##ocy
neutre
rendue
##hof
Haïti
étrange
renoncer
Languedoc
strictement
##ails
1817
Report
extinction
##amba
Prop
##hyd
Dres
##veiller
Tennessee
nécessairement
duel
##ratoire
vaincu
appartenance
occidentales
technologique
doubles
Ardennes
gramm
Chypre
dépour
parking
séances
ajoutant
améliore
Bié
Baie
Parker
associées
comportent
pensent
Copenhague
télévisées
mong
bulle
flèche
rappeur
profiter
sm
##ablan
##diennes
Poitou
Montagne
intercep
regroupés
##sica
Ist
ibn
##onais
roule
YouTube
épidémie
##dière
catalan
céréales
invitation
italiennes
publiquement
##ilo
##aïsme
##tines
1818
Nant
électri
Challenge
##communications
fût
##isson
coupé
spontan
repêchage
Mitterrand
vib
##opper
demandent
##HS
##arme
sié
déter
techni
apparue
dessiné
statuts
écosyst
##nelles
géorg
dénomb
vérifier
ingénierie
Melbourne
astronomique
sexuel
antiques
Canadiens
Zone
Kings
plages
projec
attache
diminue
fraction
reconver
##veloppement
Commonwealth
##ffer
trouble
croissante
Cruz
Mous
défi
nazi
faces
camion
Pittsburgh
1819
pêcheurs
appellent
armoiries
##gow
stre
##alière
royaumes
##itage
prouv
abouti
couples
Scar
Autom
Avenue
Réseau
opposer
sonde
Business
Lawrence
carrières
ges
Hesse
Gue
Ming
voté
##vez
usages
périmètre
##èbres
Police
##ould
350
Iron
Mayenne
exposés
remontent
astronomie
Mén
Mold
inhib
chronologique
ye
##roscop
Direct
archidiocèse
Jur
Rapport
inventé
déterminé
reconnaiss
climatiques
Fis
##peaux
agrément
##GE
##erd
Mikh
dues
moral
plats
toucher
triomphe
##cil
Syndicat
funéraire
bouddhisme
désacc
documentation
Sic
trag
intéressé
Oran
Amand
Jerry
barème
brésilienne
##dés
emparer
accumul
serveur
##rish
lant
Daily
##éth
Swe
##aitre
peste
Warner
cercles
Finistère
fabriquer
domestiques
1796
Apol
soie
fausse
visiter
chasseur
matériels
interaction
significative
Manh
##70
##olyte
séqu
livré
sponsor
violences
opérateurs
RA
##mane
##pectre
caisse
marx
1823
remarqué
##apo
Opp
Vaud
pent
Testament
##bis
##ailly
ambition
argument
introduite
##rira
##èches
surmonté
caractérisé
##alla
rond
fixée
Marshall
##nip
##yll
sentier
compromis
successifs
##rêté
gab
admet
Caraïbes
entretient
##GM
##tio
Ple
##clerc
lyonnais
##téb
Ted
##aguay
trim
costume
missile
Ras
Evans
signaux
violent
##quisition
Got
mètre
Conrad
invers
combiné
placées
évaluer
Champions
attaquent
##BM
seni
stage
Voyage
##auer
Dream
fromage
fabricant
Lad
Tas
déclara
Nev
##phine
Longue
##assa
##issa
porn
Marianne
vignoble
pit
1797
Contre
restri
vagues
Républic
rappeler
pâte
##TI
##br
gig
##other
##raires
With
##active
suppose
Équateur
##ibus
jaunes
obus
Square
travailla
##ads
Ate
Card
Schne
glaci
hyper
##onneurs
recteur
rémun
oublier
jonction
Recherche
annuellement
Č
##kir
BC
précon
##ako
##rap
courrier
Éthiopie
HC
##jeux
câble
prior
fréquentation
cors
réparation
##ourir
survécu
spé
Valley
récent
entrant
Élections
##lons
cade
infec
codice
camarades
##rix
sortis
bénéfice
Passion
##ourner
Barbe
menés
Metal
rachet
récents
appuyant
Métropole
locu
mandats
##aty
disposait
rendement
Information
##EA
Mb
atomes
traject
Dob
Stewart
fallait
##mière
arcs
votre
Frederick
annoncent
Xi
considérant
##rateurs
juives
country
audiovis
spirituelle
Rin
Allier
examin
japonaises
Coch
hind
basés
délégués
Rosa
vive
jeudi
Norman
ailier
émer
ouvrent
implication
consécutives
vint
Wagner
##ppes
Glor
Avent
Meyer
levée
Maxime
couvrir
pratiqué
Résultats
finlandais
Kou
wid
##aries
assis
Dallas
exercé
grosses
graphe
librement
soulèvement
enseignements
autoc
animée
suspect
accordée
##monde
posé
Amour
tombé
##érienne
Wright
Copa
Verdun
Lorient
Centrale
embarque
##PN
couvrant
natation
cavaliers
croisement
##ctif
Chelem
intervalle
Army
salut
célébrer
Elisabeth
##St
Cog
cép
##idélité
Junior
prouver
Care
cuir
fati
estiv
Étant
Auxerre
franchir
Agriculture
Lens
Laura
over
vamp
nulle
arrêtée
passées
ressenti
##oui
diffuser
défenseurs
alté
détri
##onnaise
métalliques
##ën
prud
Agnès
Prote
Simone
Rousseau
maturité
bourgeoisie
Aul
hospit
repli
nièce
suffrage
ISO
NFL
Honoré
indiquer
légendaire
Say
hip
##orges
##piers
Julia
Pseud
évacuation
Lh
Wit
##opée
1805
##amorph
French
gue
aliments
prestations
Josh
Sony
assiég
Og
ec
##uters
épic
dialecte
artificielle
Préf
Plant
geste
purement
résistants
##alia
360
adolescents
##uto
Cay
poit
souci
lentement
projection
Cours
charts
dissous
légumes
transit
exceptionnel
modernisation
Ferre
squel
##tisation
maintenu
sanitaire
noté
##achées
nutri
trous
bétail
##abre
##opol
##ampes
Midd
hypothèses
##ampa
mante
éphém
reconst
Campbell
dominé
Pul
wil
enqu
Émil
##odrome
coton
prairies
dépendance
##wi
Fen
évang
##odi
Pict
remor
radios
dramatur
souterrain
architectural
##émi
##tén
diffusés
dissoute
##öl
fav
unis
taill
Run
##velop
pant
fonda
carros
réplique
traction
accusation
##acture
parallèles
##OL
solides
proposés
crâne
prime
Biélor
##hed
boxe
abatt
spécialité
obligations
récompenses
##bois
Lisa
##alogique
allusion
##oki
Turcs
carrée
réhabil
cinéaste
déroulant
opposants
élémentaire
lith
corde
cirque
grottes
constamment
Dési
Mack
##enburg
Athle
Francs
recouvert
interventions
##FF
Hat
Trou
Mozart
solitaire
excellence
strict
##mur
Zag
draft
boutique
libertés
polytechnique
SK
##avar
Droit
viole
engend
restitu
randonnée
Verne
polym
Thompson
résister
management
ark
##ermann
##mistice
accorder
SN
venger
Lév
fat
##arest
##ulant
vecteur
Nash
viti
nœuds
##duisent
marier
##aks
fu
Ors
Dunkerque
scolarité
probabilité
##struction
susceptibles
Marche
frappé
molécule
contribuer
##ayer
##rock
réels
Graham
Cahiers
Mercedes
asiatique
accusations
##rasser
Consid
spécimens
Horn
déci
protéine
endommagé
##gué
Saï
##stone
Baker
Chira
cofond
Simpson
sensibilité
##lag
##rary
##onder
Party
Guadel
conform
plongée
tactique
incur
confis
Peugeot
assurent
##rö
exacte
Encyclopedia
missionnaire
prolongation
##olia
Cec
brev
Morris
presby
constitués
##écile
renvoie
relevant
intellectuelle
June
Yvelines
costumes
##olée
gau
lot
Matth
Stutt
##étaires
restait
modé
##icité
##ogènes
budg
réédité
collègue
favorise
transmettre
Fan
##cluse
Story
austro
scénarios
##iko
##elieu
dépe
Stefan
déclarant
coordonnées
diplomatiques
##esque
Death
Chinois
Masters
massive
prolongée
##nais
dissim
posséder
qualifient
##OP
##ommés
Bade
##atiale
Pablo
réuni
##ériorité
obstacles
Biographie
Vénus
Devenu
Sierra
incapable
##alt
Pall
##akespe
Régime
légitime
Seg
Bourges
conçoit
réglementation
Médicis
rumeurs
électrom
semblables
Nil
imposé
##ussie
restru
##ynamique
onzième
pension
plateaux
acoustique
localisation
automatiquement
féc
voûtes
papiers
révéler
Cort
tamb
conces
triangle
tribunaux
OTAN
Roub
land
voyant
plaines
Commerce
MI
Back
Type
Walker
cycles
supporte
illustration
##othe
Cic
commerçants
intermédiaires
vignes
Via
back
mobilité
itinéraire
champignons
McK
réfléch
Naci
ambiti
Joachim
découvrent
##Re
##DP
##oïde
lép
##stanbul
sommeil
Picardie
annexion
occupait
##uiss
##enson
ignore
incons
FL
zé
Lour
collis
##oca
##erth
céder
Évang
UK
Pape
tante
entrep
Estonie
##iète
##orelle
Duv
Chat
maires
relatifs
Brou
Roux
Libye
créatures
##pend
Saul
relié
##visible
mérite
textile
synonyme
##nab
Crist
Glasgow
essayer
ramener
Cf
1780
moulins
pleinement
détachement
touristiques
##aim
##bur
##elo
##tude
hex
enfuit
taches
signale
psychologique
##fon
##ranch
Cinc
Linux
##émiques
souverains
planification
##ensus
Créé
Supp
alerte
extérieurs
réorganisation
Rah
arros
natal
Econom
Beauvais
végétaux
##azar
##ross
USS
##clair
Arena
Creek
marron
chapeau
##ML
Gru
Nog
##instein
Hospital
desserte
routière
postérieur
fondamentale
Suc
Exemp
fondent
##vor
##arma
##ctic
Sue
restaurée
Rat
conçus
Standard
bretonne
exploiter
comparable
##eline
Grig
âgés
Griff
Kenya
Broadway
Parisien
manœuvre
##aven
Périg
Patrice
clavier
remparts
disputent
travaillait
archiv
basées
Dü
Box
gorge
Restauration
Sag
recond
Guadeloupe
Secrétaire
échantillon
##üh
##ste
##opro
Emb
nit
##arius
nazie
spécul
prévenir
Bai
bénév
Sporting
barrière
pensionn
héritière
##48
##fur
Bit
Hach
Mang
compagne
##veil
Aude
avancées
roumaine
Fron
mous
légale
effectuent
##AA
Béné
##ochine
Klein
thérape
humidité
loup
érosion
comportements
tonne
prémat
époques
aérodrome
##èze
##insk
Bourd
Alaska
dépose
magique
Fly
##orption
miroir
batteries
détection
##TE
thr
héroïne
##hiz
Fé
##chou
##rail
Laff
Mère
##regon
stylis
traduire
Baron
vieil
Kosovo
partisan
##lah
##tha
Cycl
##umin
hôtes
Bolivie
platine
téléchar
instructions
##oïdes
ruine
extrémités
commercialisé
##tues
##utsch
séquences
impliquant
##46
##iscip
##érait
Béarn
Dakar
fusil
verbe
prendra
Bucarest
affrontement
bordée
colonial
##oye
Tes
Tul
causé
distincts
préalable
trouva
GR
Mant
maïs
extérieures
##hin
Inv
##itable
width
Pointe
sensibles
combattant
présentées
consultation
##œuf
offres
exposées
gendarmerie
##amas
ducs
relate
##fes
##osoph
##tices
revint
slalom
menaces
##chal
Amis
habil
grains
surnommée
Condé
Sibérie
démontré
tropicales
constellation
Rie
gly
dors
Africa
reliée
algérienne
##amén
tables
avancé
contrôlée
##ić
Ques
égide
succéder
étroitement
leg
Colon
##icilement
interpréter
interactions
##acés
##ablanca
Record
croate
autorisés
imprimerie
##elée
Harm
donnait
exister
Alab
##lèvent
##ominal
monétaire
chirurgien
##ouard
Wayne
hymne
libérale
réutilis
Stuttgart
##xt
##quez
Bard
Wars
fixer
Amédée
Soudan
élévation
##alice
Morbi
##pan
Gw
Whe
lob
orthodox
croissant
##nait
##aissé
Océan
haine
irrig
Montre
Matthew
étiquette
Chang
arbor
drain
télég
corrig
Harrison
désastre
Nas
composer
##fo
##ding
Laure
Schmid
privilèges
rocher
##ayes
dense
faubourg
RTL
für
nordique
dessinées
ès
Rim
livra
Pokémon
Princes
difficilement
rapprochement
intercommunale
Sap
toul
##estern
##uchâtel
contreforts
exploitations
Publishing
Lic
##itudes
complété
grandement
Alc
Beatles
Européens
##uman
##üller
##itar
Neil
fréquenté
##iefs
Sax
ventre
Environnement
##rui
Paix
agro
##ernant
douzaine
profondes
sauvegarde
journalisme
fri
Brabant
popular
ralenti
Brooklyn
cu
Term
Oregon
précoce
opposent
devraient
tellement
laboratoires
##ady
Soit
tsar
chanté
fragment
pyramide
accession
féminines
##90
##tone
Jung
baptême
##deau
gir
Erik
indices
préféré
inhabitu
répandue
Pun
##illis
Bout
free
sinon
##erville
rapporté
Indochine
raid
caché
Secret
estiment
administratifs
EN
dî
Ltd
centimètres
Valenciennes
Muss
Ramb
stéré
Trésor
express
exploitée
composantes
##nay
Urs
Moss
bombes
Périgord
##nale
hérite
retrouvée
##down
##nésie
Hoff
##minaires
Stevens
adolescence
##low
##oter
sévère
escadron
impré
plates
vieilles
espagnoles
##rio
Aï
##ichi
Sea
##enaient
lav
aque
dragon
masque
provenç
procédures
##38
##inski
anglic
croiseur
substances
afro
aggra
Rochefort
##pu
Theatre
violonc
mortalité
Nie
Lire
Sidi
##oudite
Slovaquie
héritiers
##rama
Tad
démontre
survivre
Habsbourg
glu
Perp
Extrême
dispens
rurales
prestige
permanence
##boy
kh
lor
Sarthe
ajoutée
converg
protestant
##37
##ticien
fusée
jambes
spectre
luxembour
électrons
##ely
wallon
##tigation
définitif
progressive
fis
fibres
dessine
convaincu
##lau
IR
##rure
Kenn
Titan
Comédie
immédiat
102
Fame
cogni
députée
mariages
violente
intersection
réalisateurs
réappar
cloche
planif
égyptien
appartements
Key
##orteur
lancées
##agnac
caric
Modern
résu
Tandis
Shakespe
trilogie
pig
##alier
##ouement
##ift
##aren
cosm
orchest
soumise
résident
bataillons
monst
volet
##usc
aborde
meeting
Richelieu
détriment
##kee
collèges
excellent
##isi
##isph
##asses
##ogéné
Vietnam
dragons
Foundation
NO
pomme
Danube
poitrine
##itat
inu
##Pierre
Apoll
Trophée
ration
Istanbul
typiquement
##rell
##orian
Medic
pénit
espérant
##opot
Morbihan
anglaises
idéologie
reviennent
réunissant
Ars
##ellan
Marion
favori
unanim
choisis
douzième
entourage
##olini
divor
flamb
amener
coutume
##enclature
fiscalité
##alli
##vance
Mount
maquis
bulgare
BD
Lob
berb
incarc
rétablir
##aha
##atic
Now
Hern
##ticule
décap
empois
anneaux
employée
réédition
##athe
écho
Formé
bâtie
prêts
ambiance
##ird
tuy
##table
chal
asile
vende
abords
démontrer
africaines
expéditions
joie
Annie
heureux
Dauphiné
Blu
Palé
intr
horlog
réamén
vos
Muni
##zantine
Studies
côtière
Manhattan
́
Mâ
cau
embau
Kazakh
tribut
Liu
##risme
ménage
Nos
Damas
##queline
royales
Shakespeare
ps
##ctus
Liz
Sign
violents
orthographe
gratuitement
##omar
##illem
Mines
Confront
monastères
seg
##térité
Argent
poules
lucratif
##Mich
Este
Marx
gardé
Cécile
Système
serpent
descendance
tric
tapis
contenus
dramaturge
##esté
##ouff
Rudolf
Mazovie
##uster
Nass
Sund
forum
connexion
dépendait
indépendantes
Luke
Pira
jambe
pause
##gger
##jean
entiers
accompagnés
HD
Née
Fait
arcade
blason
calcaires
##iscons
Rafael
répons
donnera
sénateurs
préfectoral
Loth
rési
##omètre
Gross
Hudson
##lantique
audition
patriarche
déclenchement
ultérieurement
##ingrad
CM
rhé
som
chair
affection
patrouille
##lov
##amar
Ana
##ische
##cticut
enquê
meubles
refusent
véritablement
##iva
Pia
concré
orientée
Connecticut
##ucky
##ardian
Bobby
Sécession
Juste
isolé
proie
Boeing
trahison
ga
Nau
Sut
Hérault
appliqué
candidate
supprimer
##icus
lancent
Sardaigne
maintenance
##ción
##écrit
Yosh
Conse
Mathe
enjeux
étroit
##dimbourg
pourcentage
Près
Caf
Aristote
déclarée
##kon
##ographié
atomique
Tommy
Chirac
intensi
varient
dossiers
éol
Freud
jugée
négatif
méditerranéen
Kob
12148
Jours
##endront
Bourse
éditée
Monument
##véni
Jorge
captur
Leclerc
Vivi
##assique
foyers
flamand
néglige
fusionné
CFA
rot
##itier
stip
dégradation
développées
##atte
##meau
Hainaut
Mayence
assises
historiquement
IM
Élu
##oling
Vice
Natural
concernés
organisent
obscur
##illers
ATP
paires
##jar
Gers
crues
reliefs
Économie
bénéficient
fraî
sauvé
metteur
papillon
pionnier
herbe
##ogramme
consistant
Tac
genou
panor
Christi
vietnam
consommateurs
golf
métab
accrois
Vu
bib
##inale
Proc
Essonne
Casablanca
Turner
bénéfices
Encyclopédie
Sri
pseudo
défavor
dépassé
rappelant
Abou
Clair
congé
##quaient
Notice
orienté
pénal
arriva
traitant
infection
fréquences
commissions
##ii
empar
rebaptisé
##Déc
##inent
ensuit
serpents
accompagnement
Tém
##ocide
Yonne
légal
enzy
tirant
Alabama
installa
BR
##rérie
Your
supporters
Coast
coréenne
ravitaillement
Eb
indo
pairs
##pectives
restaurer
Bed
Child
##tissent
masses
disciples
véritables
âgées
indire
Tribune
autobus
##uda
Map
##ièrent
Crimée
Calvados
disciple
gardiens
récupère
##lers
##oven
Malo
##aïques
Paolo
##aillard
Warren
Hôpital
##oza
Plé
##andra
##illère
équations
Meh
rus
pond
traum
uranium
Productions
continentales
Lus
aus
Élys
imprimé
régulières
##times
##bation
exces
intes
occur
relevé
jésuites
dépassant
territorial
##thers
Moon
Eddie
Phoen
tenait
arrivant
Charlemagne
##ondo
CIA
adjac
réchauff
alternance
##hir
indon
sages
élever
##ño
##ctori
Chronique
pê
prédic
répandu
désignés
##ido
##roix
##rieved
Réforme
filière
tardive
##adia
Dru
Mire
Fille
insurg
archive
Mitchell
Universal
chrétiennes
##Un
Bér
Bruges
adaptés
indispensable
Abe
Kay
##urgie
Plut
Vegas
indonési
Développement
##atem
refusa
notaire
Mulhouse
Biélorussie
ori
favoris
##othérapie
suffisante
##rime
Gaul
##antine
##osphère
Saints
marocain
regroupées
aménagements
##iade
Seule
cacher
pionniers
##hy
##aques
##temberg
cherchent
tendances
##mou
éléph
précédant
certificat
groupement
chroniqueur
vs
Age
Pons
mutation
##tionnaires
hélicoptère
erm
maréc
##75
abdom
Territoire
spécialisées
##cen
##ellow
Channel
procédés
terminal
##SC
##ount
fug
##harmon
caserne
franchit
##gio
Garc
polyn
conservant
volontairement
brique
chanoines
dispositifs
##UC
##beek
Dir
Aube
alsa
##aisser
Gazette
recueils
parisiens
##bet
motor
Wallonie
réacteur
honoraire
##34
procl
##ieusement
##oral
die
Girl
entam
pastor
ouvrant
collaborateur
##IL
Aven
Shah
procéder
dictature
Ek
lumin
patronyme
quelconque
Boys
allée
pommes
##tels
Lov
surp
communiquer
Tech
Lycée
souhaitait
judiciaires
##pol
##clar
##ering
fibre
##viation
certifié
fabriqués
composante
##ios
gh
Zhang
abattu
##istances
Past
blesse
Maryland
##iki
SE
orné
réponses
régulation
##èlent
enfuir
affirment
féministe
proposées
McD
##ollet
piét
dédic
Biz
piv
Tosc
harc
Achille
Liberté
horizon
supervis
tibétain
tunisien
##burn
##entr
Giuli
Alberta
renouveau
mobilisation
##sea
##ronyme
habité
ornith
standards
Oslo
##vaux
ONG
parlée
porche
kilométrique
Magh
Vilaine
##formations
assemblage
ecclésiastiques
##ettre
préférence
##Al
##ophon
Heart
contraste
hollandais
Ralph
genus
habitats
mexicain
fédérales
physicien
indépendan
##iac
##iders
##innati
opère
vécut
cantonal
Hippolyte
mauvaises
Week
aube
plai
##anique
Design
##IP
##mons
##obie
##pris
bpt
Mine
Wehr
Nathan
comportait
##rille
Gasp
Lock
bale
Arras
##osaurus
piscine
affirmer
défensif
##uret
Etat
assemblées
##uru
Tau
tol
##parti
sarc
dissid
percée
monnaies
catholicisme
##chets
anec
##quement
Reuters
mystérieux
##mark
##itale
##jectif
figurant
supports
enchaîne
varier
##leb
##covie
1788
Gian
Marl
Wend
trouvée
Jacqueline
##beau
tar
siég
remplir
aléatoire
embry
Social
commençant
explorateur
Gó
Pac
Gris
Harold
galaxies
implanté
négocier
IF
##acée
Tav
euro
##Source
décisif
garantir
publient
recouvre
Cincinnati
développant
##rault
tomes
réfère
##ulés
Harvey
Piémont
GN
OC
Terry
supporter
introduire
rassembler
##zio
chinoises
Technology
expressions
MA
Sho
Aless
##sertion
Wolfgang
vivaient
1775
débou
##enaires
pirates
porteur
##39
iso
Bleu
Fritz
ferrée
botaniste
directeurs
aum
##cidae
##illette
horloge
indépendamment
##héon
Agen
amant
envoya
Nikolaï
rejette
##apa
##etteurs
repous
latitude
prospérité
Sauveur
enterre
exportation
##bad
aires
partagée
##raï
NR
##orat
Leonard
héberge
perdant
captivité
lux
##énique
respi
pousser
aperçoit
Bin
Kil
ina
sic
amin
brux
Côtes
transcription
infrastructure
Anders
solaires
installées
poursuivent
IGN
Montg
struct
canadiens
Oz
##isti
cesser
lond
Fourn
pénét
oblast
##Hist
Guad
Heid
##abulaire
history
pompiers
appartenu
brasserie
cellulaire
graphiques
##iges
Rica
pans
exprim
berceau
indiens
##othy
Lex
enn
lex
1787
latéral
croisade
Amérindiens
##gler
##etter
confluent
##igo
échou
##aisance
cintre
chances
tranche
magistrat
##mbe
Innoc
Montmor
armistice
approbation
reconstruire
invo
jeter
conforme
fidélité
démolition
##rn
IA
Fat
Kad
Giorg
pilier
tragique
Row
##ating
Winter
répété
Phoenix
mercredi
abolition
##dig
Ps
Num
Blois
Josef
Parme
solenn
spectateur
publicitaire
Andal
descendre
passionné
Lén
##rètes
orale
García
Capital
utilisait
syll
Indiens
défenses
##fia
méthod
opinions
revendique
trajectoire
##ugu
Cul
cote
Marty
Dresde
diesel
pontif
CL
##joux
1784
arran
world
Constance
évidemment
McL
pom
livrée
poussé
Lorenzo
bombard
retable
Sécurité
terrible
##arina
##lando
comparé
évolutions
Danny
incul
initié
sécher
pochette
évoquant
verticale
médiatique
##PC
##aduc
##levé
##omption
Breton
mènent
dauphin
byzantine
##rines
Lamp
antiqu
guerriers
concentrer
fréquentes
dop
Kate
lent
confid
doigts
exploite
##lématiques
supprimée
##essa
##orne
1783
appels
restés
Wurtemberg
Mél
Double
Durand
toiture
confection
bur
##illent
Smack
inflam
jouées
Mémoire
##rium
Girard
Slovénie
détermine
correctement
Lois
biologiques
interruption
rassemblement
Sai
dam
redéc
vétérin
attestée
terrasse
Sont
bits
plumes
##olérance
dirigés
réputée
protégées
naturaliste
SG
Bath
défunt
protège
Queensland
propulsion
confrontation
##dea
##light
Somm
slog
##ribution
Deutsche
quantique
gouvernementale
##road
##leroi
Cohen
Séoul
jadis
##vidence
définies
chauffage
périphérie
tunisienne
Brandebourg
Dh
Amé
Wel
crue
aides
asiatiques
thématiques
hisp
libér
##ections
revendic
familiales
##enko
##imar
##vere
Staline
bosnien
Châtillon
unanimité
Rw
##tueux
mondes
Édition
donation
##teure
Elli
Voie
calculs
télévisé
##oscorpions
sexuelles
correction
Gest
chutes
donjon
cloches
marches
imposent
Nig
bob
##keley
Perrin
incluse
vaincre
marquées
Perpignan
112
Rus
See
##change
affirm
manuel
that
cendres
opposés
capturer
California
PN
##dote
cig
malé
Arabes
wilaya
dévoile
rappelé
naufrage
##65
##TP
Oth
guid
paysan
##ouis
dog
Charte
étudia
légitim
nourrir
potable
célébration
SV
##tère
sop
nich
Holmes
lap
dôme
renforts
représentait
protagonistes
##rén
##entre
révis
##ropolit
Newton
arrivés
médaillé
écologie
enregistrées
##lock
##ensions
Gauche
assain
nettoy
résume
affirmé
##azi
Hob
##ciale
démarre
financé
essentielle
##laus
Kaw
Quimper
casting
citation
emblématique
Sox
cib
Médec
tantôt
brillant
Gn
Bald
Clara
excès
Honneur
1770
Dôme
entoure
Airlines
hydroélect
Cand
diffère
transformations
Head
emblè
Lettre
Italiens
arménien
##urst
ARN
napoléon
Charleroi
estimation
intérieurs
nig
Utah
Silva
carbon
prédom
dérivée
ny
##alin
##case
apô
ouver
danseuse
négative
énergies
Ł
Cie
Pis
lag
Omar
frégate
##velopment
pèlerins
médicament
Giac
Chambéry
confirmer
orthodrom
##ech
##érent
Prév
libert
indication
commentaire
##ruck
Créée
suivis
décalage
brillante
médicales
romancier
##rek
ut
Én
220
Dat
Proche
retomb
alternatif
déclarations
menacé
déroulé
continental
ouvertement
Haz
suscite
Laurence
miti
déposée
gaulois
##esa
##idd
Grey
mers
##idou
##icale
Doubs
hémisph
investit
envoi
parag
redes
Basket
Bridge
Pâques
Nathalie
thématique
##adox
##azzo
are
dignité
Cow
Auto
##arités
gradu
Rolling
Diplô
mardi
applic
néglig
sensibil
##ulus
Héb
Kirk
Final
manières
Cai
théâtres
##cuit
##ilio
Get
gérée
mœurs
Silver
divine
Guil
Collins
##icks
##rial
Réf
gratuit
décisives
##DR
Mün
pire
passait
entourant
ji
##homme
Century
déplacé
concevoir
constituées
Lü
##èdre
##niste
##ández
peinte
comités
ethnique
exclusion
Dut
avois
##aillant
##ularité
phares
royaux
Mountain
Régiment
Liga
Rico
Gallery
Montmar
devance
manteau
joueuses
renaissance
##ïev
LC
plur
écoule
Roubaix
consent
jésuite
Services
conservent
##cott
Belge
mineure
Nacional
##iji
##ampe
##bour
##mingham
occupés
##encé
##kers
Cann
lame
Sacré
culmine
lanterne
originel
##fle
##éum
Divers
Espace
hésite
intégrés
judaïsme
pressions
travailliste
##ynth
Leo
Mog
Tomb
tombent
flamande
Édimbourg
nécessitant
##kas
Train
Arsenal
massifs
Neuchâtel
autorisée
croyances
décrivant
Statistiques
Verts
Spirou
transc
utiles
invitée
Kentucky
clientèle
remontant
représentées
TS
Moreau
##The
pluvi
précédé
réclame
##oms
Wis
Élé
camb
rejeté
externes
informatiques
##fiés
Diane
stades
Library
prétexte
##nil
équilib
##oinette
Annecy
Fayard
effective
étudiante
Fol
Reb
haies
incen
épaule
aveugle
inférieures
##êve
##chot
tranches
Management
Pt
##atti
##bule
Gav
##niche
Chré
Salz
Carac
Noirs
111
Hold
Lenn
Pors
Golfe
Keith
latéra
prévus
English
soumettre
précurseur
##arly
##avia
Nuit
Volks
durent
Railway
horaire
tragédie
bruxell
directive
BN
nid
tam
##uisseaux
préparé
occasions
collégiale
fas
##eland
Comb
##rigues
occupa
notation
##49
##tonie
Kris
Orne
héréd
Julius
colonn
Capitaine
narrateur
recueille
dépl
réci
##raines
##terdam
démoli
Birmingham
1750
Qing
Chasse
isolée
écrans
alliées
sonores
volcanique
##ght
##fred
dei
brise
perdus
explorer
forestier
aquatiques
traducteur
##olière
##agny
##agua
##tista
numér
fermer
suivit
Moldavie
espionnage
échantillons
Sofia
épidé
dépendent
##dem
Count
milles
propul
lunaire
Concernant
logistique
valu
##outi
Das
##otion
Serie
reprit
fiscale
antennes
Léo
Two
couper
réalisa
emporter
exécutés
limitrophes
##zes
##into
##ming
##ônes
audit
folie
socio
Cracovie
surmontée
Kazakhstan
Maximilien
##ocl
##war
##zar
##rirent
Trist
emmène
Geoffroy
auxiliaire
existantes
tabl
##aisant
Toscane
termina
enchères
oreilles
sam
directions
bât
Tchad
taxes
Nassau
notions
drapeaux
répétition
cot
irak
pneus
répéti
préservation
Hem
Ici
Lug
édifié
justifier
##cat
Hawaï
dettes
Electric
spécific
combustion
Rivi
Mikhaïl
cloître
escorte
prostitu
seigneuri
conduisent
dys
rail
Salle
redout
Sebastian
##aqu
doré
ving
perdit
prévues
Océ
Lloy
ambigu
procède
variées
ferroviaires
α
##anos
Dag
Ling
Allan
Hills
indiff
##aïde
Nem
lama
pères
Batman
stress
pensait
étymologie
NS
quatu
résolu
relégués
susceptible
Soir
##ocalyp
décider
Juliette
sessions
centenaire
inclure
bénéficié
protecteur
canadiennes
##ègue
anges
échangé
Rotterdam
##IF
##amie
Ring
Voix
faudra
tenues
gagnent
Monuments
attribuées
intéresser
rechercher
stratégiques
complémentaire
##vić
Aer
1760
flex
pict
##onniers
pluriel
voisinage
Chav
Viol
Larry
pilotage
##ishi
Meg
People
attractions
##ithé
bâtis
##alisent
leçons
sachant
réaliste
conventions
sensiblement
##usa
##rico
Rut
TGV
amer
isot
##onçant
coulé
peindre
israélien
hydraulique
EH
ade
Balk
bébé
repart
Ardèche
Bristol
radioac
Mathilde
déportés
Kō
Carr
Sean
open
strat
##antisme
histori
lyrique
météorologiques
##ska
##yph
corré
joign
parvint
reporter
RDA
azote
Sèvres
banquier
observée
alimenter
arguments
Roussillon
reproduire
formellement
##ongo
Cout
Vari
allu
Perse
Vingt
##odiques
rituel
Antoinette
archéologue
réparations
signalisation
Issu
Berkeley
librairie
Més
curi
bailliage
##ffes
##olph
1778
##erbourg
hérité
régler
facilité
intégrant
##ffi
##atory
Dance
##ouville
débuta
Aleks
disent
reliés
économiste
TC
##anoï
##tidae
Rhodes
cahier
victor
Andreas
cousine
Victoire
##ych
##acter
##tigny
Engl
Werner
Hilaire
minière
consultant
##tination
créateurs
##cap
Most
paroi
récipro
Meurthe
établies
organiste
Gerv
cave
##ellent
bleus
##iani
Foss
disait
interprétations
Summer
supposé
Stanislas
Transport
comédienne
RAT
Case
Chrys
instantan
##bri
sw
évid
##heureux
cibles
médicaux
}
##timent
Marais
expertise
##sis
céli
Nombre
croisée
résultant
préliminaire
gas
Aaron
Qatar
##borough
lycées
contreb
migration
récupération
##jin
##unier
Luci
célibat
réalisme
##velt
souffle
vendues
contrôlé
pharmacie
refroidissement
AA
ENS
vies
##qualif
mécont
Émilie
##jections
torture
océanique
décoratifs
progressif
anthropologie
##obert
Huit
desqu
ratif
stars
blanch
engagements
##iff
Mille
infini
monopole
Australian
AV
Bib
haï
fasse
flûte
inhum
centrée
Matthieu
segments
fréquents
ruisseaux
succédant
##bons
##hardt
##anaise
attrib
Portland
##rí
##rian
Gott
Susan
pompe
avancer
monstre
Voltaire
déterminée
détermination
Magnus
Sylvain
conduisant
Vog
Vor
Mats
case
fret
##ampton
Archi
Chacun
Julian
##fig
Ille
soul
trés
##versement
grecques
abondance
fabricants
##pen
##roe
SH
##inth
##seeb
##insky
León
##lèrent
Hardy
perce
tueur
Castro
espère
délimitation
Bio
Did
##rough
ornée
minéraux
##iley
##ançant
##rances
gérant
plaint
typiques
écrivaine
Lieutenant
initiatives
rite
saoudite
distinguent
expérimental
Eau
fui
Héro
Citro
bâtir
insurgés
radicale
livraison
identifiés
renouvelée
subsistent
Ches
##ppo
Tat
##caire
muse
Municip
fortifiée
soutenant
autobiographie
##66
##zzo
##usson
accusés
soigner
Unterseeb
##kos
PDG
Lloyd
modifie
tirés
##ternité
Lettonie
##nard
Bibli
Douai
Jourd
##François
évoqué
minimale
##jihad
##dirent
juriste
##Distances
comédies
Unterseeboot
opéras
thèses
Autrich
adaptations
terroristes
##BF
##IM
Wer
paï
modéré
Sug
##ernier
verra
Projet
archevê
auteure
camions
Holstein
citadelle
confronté
progressiste
revendications
##euf
Rémy
réint
Bj
Memorial
Cart
Clem
Démocra
Facebook
lumineux
successeurs
affrontements
provisoirement
##47
##arra
Wei
book
##treuse
##issaire
ottomane
grammaire
injection
##oso
sug
Hors
diab
fines
Angelo
##OU
Rhe
##views
Gour
##chwitz
tenus
Engine
glacier
éventuelle
recommandations
##aute
##ergue
Vide
##lessis
Miles
casse
occul
rêves
danses
Limousin
nocturne
Historical
commandeur
individuels
##bio
Cao
Garden
survenue
##not
MTV
1600
canc
pacte
Doctor
Grenade
mélodie
converti
Transports
Plat
Fondée
menacée
éphémère
MV
##jord
Pom
Vous
Cassi
Neuilly
meurtres
##ïse
Dong
Dubois
Belfort
annuelles
orthodromiques
1785
chaine
étangs
décorée
contribuent
améliorations
##entiels
Marius
extermin
souhaitent
##eria
Hin
toi
tremp
valoir
dominée
défendu
parcourt
publicitaires
##EG
##IV
##asu
##amoto
Turb
##lahoma
Platon
dépourv
rochers
mystique
##lots
pôles
patrie
reproche
scission
accomplir
explicitement
##pro
Dah
##omans
taure
##oncourt
##isconsin
Florent
étroites
mexicaine
intellectuel
##itas
##iène
Lec
bad
tourb
litres
exprimé
desquels
établissant
450
Craig
##feuille
oreille
synchron
##ück
CBS
Plou
héber
Invent
ressource
##lv
##user
Yah
##ursus
##tièmes
cristal
réunies
reproduit
socialisme
hospitalier
spectaculaire
##nera
Hul
Last
Rhén
Müller
Paraguay
continents
criminel
forcément
révélation
##GP
##acy
Trump
légales
Polonais
philosophes
investisseurs
##éline
buste
lenti
##oureuse
exhaustive
##cass
Oce
Véné
amérin
éclaire
Oklahoma
Auparavant
Apr
promesse
teneur
croyance
expérimentale
##aum
AJ
##mitt
abe
rouv
Artois
Pasteur
efficaces
actionnaires
personnellement
cabine
milice
oriente
navigateur
permettrait
Ward
Baltique
expulsion
Mits
accou
polyval
rocheux
ouvertures
##anou
##atson
Boot
Blaise
livrer
inédits
prirent
##rope
Abel
Bamb
Lévy
collision
coéquipiers
fournissent
technologiques
##gia
##sex
##orés
##signe
Coran
Maritimes
instances
renforcement
hydrographique
##dine
Dynam
avoue
tester
proposa
réussir
##yles
##accio
Actes
sergent
Document
engagées
localisé
présidée
Wisconsin
argentine
artisanat
1776
Berth
inters
gymnastique
##tube
fossé
Marina
Strauss
implantée
pratiquant
##very
town
calci
Travail
illustrateur
##ESS
##pres
##épin
##atéri
##ensen
Soft
##éennes
éruption
Cloud
absor
##otiques
déficit
Cambodge
prévision
Confrontations
##LM
céd
fonctionnalités
mesur
opérationnelle
##Bi
Médi
Perry
édifiée
##ilh
Was
Cine
échoué
sensation
considérait
Zen
Albanie
reconnues
##55
rétro
titré
dévast
nuages
parcou
produc
Citroën
Guardian
Rivières
tourelle
impliqués
initiales
prédateurs
Antarctique
soutiennent
§
Æ
Gabon
garantie
gigantes
pratiquée
complémentaires
Ruth
cherchant
faiblesse
modalités
##point
véni
Rossi
signent
##loc
##nań
##tium
Hog
Dean
##ométrie
##ainement
Bayonne
location
porteurs
millénaire
Tuc
joy
##ouvant
Osaka
##jonction
##alon
Gué
PDF
##elins
##oplas
énig
Ghana
raids
Triple
restruct
détruites
absorption
Norm
camer
Vaucluse
Construit
excellente
fondamental
Luf
succéda
prétendant
##abase
##ragan
Grass
annulé
Brothers
vocabulaire
intégralement
photographique
##yes
Globe
honorif
hiérarch
##imon
tat
##macht
##nette
diamant
émeutes
##mag
##érable
Maire
Poznań
Roberts
Schmidt
joindre
membrane
surplomb
organisateur
##haw
##ovre
##nifer
##strong
Occup
djihad
appuyer
Meilleur
##chs
bancs
##enbourg
Family
Olympia
Pauline
marquent
redevient
originellement
##pus
bén
##ètent
Motor
roses
##minster
##osaures
Ronald
chaude
croisés
évoluent
fédérations
Nova
Motte
Rwanda
parfum
Council
Birmanie
modifiant
multiplication
##oriques
rubrique
##gem
nan
radioph
##cum
1700
Copp
soph
ogives
organiques
égyptienne
Drag
postérieure
##33
Tō
sculpté
coutumes
policière
Cathédrale
moléculaire
émancip
Schneider
Río
Relig
boxeur
envisagé
pourront
trésorier
##odé
Gov
Lucie
Santos
futures
couronné
Bros
Carp
Pelle
monoc
éliminée
atmosphérique
Gan
bov
Kant
Race
Rois
ions
Claud
fameuse
anarchiste
anom
puni
Babyl
régent
inachev
retrace
stratégies
##iez
Caz
crypt
chasser
décentr
versants
magnifique
##uny
##arro
##olite
rencontra
plastiques
RATP
fièvre
mixtes
Pictures
apprécie
Montmartre
Mys
Blake
boire
rallye
bit
Here
enfer
défilé
départs
savants
facultés
{
Hut
Lah
##tella
Rams
diplômée
inaugure
inspirés
existants
Asi
débris
African
Richmond
condamne
##lett
funérailles
Bam
viaduc
planche
désaccord
épiscopal
présentait
triangulaire
##uira
##uten
crème
minerai
##ße
Brag
bain
piège
relat
hormis
Jamaïque
reportage
terrorisme
122
##oundé
Gis
alla
coqu
marée
célébré
voyager
criminelle
réunissent
##cot
##zza
Mob
Lass
Indép
##rologie
##onnements
Programme
BS
##litz
##enneté
India
senior
Alexandra
Catalogue
dimanches
norvégienne
Lions
##atemala
Mickey
rétros
capturés
violoniste
##XT
##usée
What
gallois
Villiers
patrimon
remontée
##beck
Sán
Acte
Verg
##oniens
encre
Angola
cursus
rempli
Hachette
estimant
pétition
È
pag
1782
courbes
navette
raccour
Mongolie
FS
240
1763
##atricul
transvers
##86
##affe
##asia
##aurus
Garcia
accélération
enthousiasme
sn
Micha
savant
Atlantic
séparent
commandés
Eva
Kill
Ther
lamp
Solid
##athèque
fiscal
otages
Clinton
Machine
Ç
##play
Épin
Films
Yuan
refuser
Flandres
Harmattan
abondante
traversent
déportation
##dile
Derb
Genti
Magic
nuage
Ló
Scand
coach
Grandes
élaboré
surveiller
septentrionale
##loo
SU
Réc
remb
inatt
Sergue
cister
éclair
horaires
approfond
marocaine
##uku
cadette
déclarer
pénétrer
expliquant
hélicoptères
Aérop
##resseur
Peters
formats
accroître
contemporaines
Tir
That
Cinqu
représ
cavalier
Armstrong
##LC
##rika
Gend
îlot
Opera
##ethoven
opposée
visuelle
Guatemala
propagation
##rahim
##CAA
##umb
airs
sacre
obstacle
Wehrmacht
##pal
Kane
cure
##illées
Schum
laser
Classic
fantôme
Wrestling
suffisant
##éph
##cidence
Digital
Italien
hostile
##IR
##éo
##pon
Drôme
Muham
Sarre
tenta
fluide
alimenté
toxiques
commencèrent
humoristique
Led
ellip
détéri
propuls
Rhénanie
##outch
aquare
inflig
divinité
opérationnel
##awi
##adou
Juillet
chromos
occurrence
insiste
Railroad
bancaire
##érif
1200
Halle
attén
corne
sûreté
Bouches
chaussures
one
##quera
Under
globe
Chauss
jouera
intestin
puissantes
Ouz
Rachel
##onnières
décline
Virginia
poils
essaye
promis
options
empreinte
promenade
réalisent
plantations
##auf
TN
##chio
erg
salons
Établie
affranch
constant
mythique
accessoires
##DH
Moy
##oline
pertin
exh
Sorti
##quèrent
foulée
virage
conclure
BMW
emprunte
clandestin
coefficient
Loy
##ident
lave
robot
bijoux
désord
Villers
fragile
déclenche
##gueux
roulant
résidant
Historique
observateurs
##roll
vel
Take
Battle
sortira
Opération
secrétariat
psychanalyse
##oncent
flash
médioc
Argentin
totalise
obsc
Hassan
casque
retourna
Industrie
singulier
Va
##onald
incorporé
conclusions
gravitation
##éle
Tet
foli
Impact
partit
fresque
Brigitte
comparée
Beethoven
Retrieved
Fondé
Groen
croisière
monoplace
rebaptisée
MN
Sois
Alpha
Micro
visité
autonomes
##far
##uba
##lich
scep
##ricket
##tinental
Auschwitz
spin
Consul
conséc
implément
prussienne
##zzi
##orps
Drey
Stru
This
luttes
Caucase
condens
##race
Cha
##oides
Bryan
fluctu
google
tombée
Saintes
enlever
positives
urbanisation
1786
Bent
Mist
Néer
INSEE
déchi
Crédit
annulée
esclave
marathon
métamorph
inondation
Wa
asy
##enger
Gasc
âges
socle
Mercure
paradis
sénégal
exercices
électorales
##asis
Amy
Edo
##sionnel
##tenberg
poursuiv
NBC
crédité
##ando
verb
diminué
voyageur
émetteur
organisateurs
##jette
laine
Alonso
Viktor
soupçon
israélienne
extrê
farine
mortes
définis
nerveux
parachu
couverts
révèlent
desservant
##jn
##Com
Kot
Lima
##issance
essayé
Boucher
ajoutés
emprisonnement
##ál
Dies
Hoch
esqu
##veyron
Bresse
##moiselle
Yaoundé
animale
structur
étendant
##jas
##ulées
1777
Dimit
Pérez
grise
rigue
##ophonie
Arachn
trompe
homolog
disqualif
concernées
mû
spi
Aust
line
envie
serre
charme
décoll
recette
western
transférés
représailles
##BO
##Jac
##bey
Eag
voil
écoul
sombres
huitièmes
OM
##ommun
##utent
Ferry
Section
ukrainien
##arez
Alp
faim
décol
courir
confère
##west
troph
Schles
dirigea
chimiste
escalade
merveille
renforcée
tan
clim
offic
rattra
##ologistes
multitude
recouverte
Lys
arom
Spider
Dragons
génocide
supposer
primitive
décorations
Und
##umage
éché
Valois
diplômes
Déj
Nép
ail
##cieux
dose
tige
vives
aisément
dénombre
##cades
Fact
Notes
Psych
Weber
##claration
convoqué
immigrants
visibilité
CV
##pecte
Xbox
payé
Roose
bordé
Parfois
engendre
estuaire
treizième
terroriste
consécutifs
##ryth
##olens
##water
Autres
embran
renvoyé
subdivis
Gin
dus
Prou
Watson
naître
square
licencié
fondamentaux
##guez
##avent
nuls
Décret
hybride
mystère
réacteurs
bif
1774
chou
Matin
balis
Online
décharge
##idon
anéan
vectori
Jennifer
renforcé
confédération
##e
##a
##s
##n
##i
##t
##r
##l
##o
##u
##d
##c
##p
##m
##é
##,
##v
##g
##.
##f
##h
##b
##'
##q
##à
##1
##L
##"
##è
##y
##-
##C
##0
##x
##S
##2
##A
##9
##M
##P
##j
##I
##E
##(
##)
##B
##D
##k
##R
##8
##T
##F
##’
##G
##3
##5
##7
##4
##6
##z
##N
##H
##ê
##J
##:
##w
##V
##O
##U
##«
##»
##ç
##K
##/
##W
##ô
##É
##â
##î
##À
##;
##ù
##ï
##Y
##œ
##Q
##%
##û
##Z
##X
##_
##&
##á
##–
##=
##ü
##°
##í
##ó
##ë
##?
##ö
##!
##]
##[
##—
##ō
##ä
##+
##ć
##Î
##Â
##š
##ñ
##ł
##|
##ú
##č
##ā
##ã
##ū
###
##“
##”
##>
##*
##æ
##<
##ø
##ń
##ă
##а
##ß
##о
##$
##×
##‘
##и
##Œ
##α
##Á
##å
##ž
##ș
##е
##†
##н
##р
##ı
##Š
##€
##ř
##ț
##ī
##ˈ
##Ö
##Ō
##ò
##ý
##ا
##с
##ś
##•
##в
##ş
##~
##́
##к
##ο
##ě
##Č
##ę
##т
##ɔ
##л
##ð
##È
##Ł
##ː
##ν
##ل
##ς
##μ
##ρ
##Ç
##}
##ğ
##Æ
##β
##§
##ɛ
##ι
##{
##λ
##Ž
##ì
##τ
##Ó
##ε
##д
##ą
##`
##\
##→
##σ
##ż
##ر
##‰
##Å
##ő
##у
##ي
##Đ
##ÿ
##م
##£
##π
##κ
##đ
##ن
##γ
##м
##Ś
##−
##Ê
##@
##й
##ē
##י
##و
##Ü
##Ż
##ź
##я
##′
##õ
##г
##͡
##δ
##ň
##ب
##η
##·
##ω
##ו
##п
##د
##ʻ
##İ
##φ
##ь
##С
##ė
##ч
##„
##υ
##ḥ
##б
##ə
##θ
##Ú
##ό
##ɨ
##ʿ
##ר
##ί
##ы
##Ô
##Ø
##ά
##⁄
##з
