[PAD]
[unused0]
[unused1]
[unused2]
[unused3]
[unused4]
[unused5]
[unused6]
[unused7]
[unused8]
[unused9]
[unused10]
[unused11]
[unused12]
[unused13]
[unused14]
[unused15]
[unused16]
[unused17]
[unused18]
[unused19]
[unused20]
[unused21]
[unused22]
[unused23]
[unused24]
[unused25]
[unused26]
[unused27]
[unused28]
[unused29]
[unused30]
[unused31]
[unused32]
[unused33]
[unused34]
[unused35]
[unused36]
[unused37]
[unused38]
[unused39]
[unused40]
[unused41]
[unused42]
[unused43]
[unused44]
[unused45]
[unused46]
[unused47]
[unused48]
[unused49]
[unused50]
[unused51]
[unused52]
[unused53]
[unused54]
[unused55]
[unused56]
[unused57]
[unused58]
[unused59]
[unused60]
[unused61]
[unused62]
[unused63]
[unused64]
[unused65]
[unused66]
[unused67]
[unused68]
[unused69]
[unused70]
[unused71]
[unused72]
[unused73]
[unused74]
[unused75]
[unused76]
[unused77]
[unused78]
[unused79]
[unused80]
[unused81]
[unused82]
[unused83]
[unused84]
[unused85]
[unused86]
[unused87]
[unused88]
[unused89]
[unused90]
[unused91]
[unused92]
[unused93]
[unused94]
[unused95]
[unused96]
[unused97]
[unused98]
[unused99]
[UNK]
[CLS]
[SEP]
[MASK]
क
स
ह
म
प
##्र
के
।
है
##ें
##ार
ज
,
व
##या
अ
में
ब
##र्
न
द
##ों
##ता
र
ल
##ान
##िक
##्य
प्र
की
उ
औ
ग
का
और
से
इ
भ
ए
##ने
त
##्त
को
आ
##ित
##िया
श
##्व
##ना
कर
पर
य
##न्
##ाल
इस
वि
थ
एक
-
हैं
हो
##िय
##स्
"
##िल
सं
च
.
)
(
जा
##क्
##ाम
##ती
1
##ते
##िए
##ड़
##हा
सम
स्
ने
कि
##ति
फ
##के
##वा
##त्र
##ाज
##ंग
किया
##से
##ला
भी
सा
##्या
लिए
##री
2
##ष्
##का
##ोग
##था
यह
ख
##नी
##ुर
था
##ेश
##ाद
अप
##ास
##क्ष
अन
नि
##्म
##ही
##कार
##ले
जि
##ूप
##रा
हु
गया
##ां
जो
##द्
##सी
##कर
ड
ट
##ली
##ूर्
##सा
##ारा
रूप
##ंद
अध
##कि
##ल्
कार
##की
जाता
या
दे
##्री
वर्
राज
20
भार
##ियों
##क्त
##द्ध
##ाय
##न्ह
ही
द्व
उन
##ार्
उस
उप
ले
##ीन
##ष्ट
##ंड
##हीं
19
ध
##मा
##्ष
साथ
मु
:
करने
'
कु
##ओं
##त्
##म्
##ाव
##ाने
##वि
पह
विश
स्थ
नहीं
##स्त
##ाह
द्वारा
तथा
थे
##िर
##ाइ
##ाग
जिस
##त्त
##्रे
सक
##िन
##ंत
##ज़
##में
/
उन्ह
अनु
##दी
बाद
१
घ
तक
##टी
##रे
स्व
अधिक
##ात
छ
##ाप
रह
##िव
थी
वाल
##स्ट
लग
##्च
अपने
ई
पूर्
मह
वे
##ब्
मान
सि
दो
निर्
भारत
होता
क्ष
नाम
##ृत
जी
##ेल
सु
इन
दिया
##योग
##मी
वर्ष
हि
##ानी
वह
##देश
##टर
##an
##ाई
##ंध
##न्द
##ोज
##ारी
##भी
पु
पूर्व
##िश
##्ञ
200
##िका
##ूर
जै
##in
##वं
मिल
कुछ
हुआ
##ेत्र
व्य
##ोंने
साम
##र्म
बह
##ेर
##ढ़
सी
##ूल
प्रति
##क्र
##जी
मा
##्ल
विक
##ंत्र
##धार
##ुत
क्षेत्र
##नों
##दि
##टे
बी
इसके
##न्न
रा
##ौर
##िस
पा
##ोल
##er
##्स
तो
ऐ
##खा
##मान
जब
सब
ऑ
ओ
##रण
बना
##वी
क्र
मे
##बर
२
##िला
करते
##र्श
##कों
##on
समय
##िंग
एवं
हुए
कई
अन्य
##चार
उन्होंने
##स्थ
##ज्ञ
मै
होती
कार्य
##्यू
विश्व
##वत
##ाष
##िल्म
##ंप
##ड़ी
##िप
लोग
3
##र्थ
स्थित
201
कारण
प्रकार
ब्र
कह
##ोर
##्ड
##जा
प्रा
##ar
##निक
##तीय
##ाप्त
##दा
##गर
बन
##सार
कम
दू
##ंच
##िये
##्रीय
उनके
##ाना
उत्त
##न्म
##फ़
अंत
होने
गु
##बंध
##ड़ा
पुर
सर
##ोक
##ीय
##ेट
##भाव
##हाँ
##es
राज्य
ग्र
##सि
सकता
##or
करता
अव
तर
सबसे
##ेष
##क्ति
अपनी
जन
वाले
उत्
जाती
पू
कै
##िम
अम
बार
यु
फ़
जन्म
किसी
##ोप
##ध्य
अभ
##िण
##वे
संग
##al
राष्ट
t
##at
##हर
पहले
मुख
##लय
##ुल
##िख
##यु
शुर
जैसे
##प्र
##द्य
गए
##च्च
विभ
गई
चु
भारतीय
##िट
5
##किन
##करण
##ाषा
कहा
##en
बहुत
S
देश
##ड़े
##्यों
##ंक
संस्
A
प्रद
हुई
ईसा
##नि
आदि
##गा
##स्ता
लेकिन
दी
##माण
प्राप्त
भू
##पूर्
]
होते
##र्ष
##श्च
[
अल
##को
##कृत
दु
भाग
बे
##वन
##त्य
##मु
##्ट
पी
उसके
शाम
##हित
ऊ
##त्व
सर्
##िक्ष
व्या
##थाप
##हां
##िता
बै
उन्हें
##क्स
छो
##ाली
c
##he
१९
संवत
4
##00
निक
ता
##ोध
##बी
सू
शामिल
आधार
##ून
C
I
##ास्त
दूस
रहे
##ीत
##चना
##ख्या
##धान
##ियन
##ित्र
##क्षा
##ियम
स्थान
विशेष
ये
स्ट
##ंज
भाषा
बि
##ये
उत्प
फिल्म
##ण्ड
रे
##ic
मुख्य
##यी
काम
तरह
वै
रहा
सभी
जाने
टी
##शन
##्यालय
##is
##रिक
उपयोग
##्रा
P
##ोर्
उनकी
##िन्न
अनुसार
##तिक
##त्म
बा
##पुर
बीच
##ज्ञान
लिया
s
##ुद
२०
इसका
;
##धि
परिव
##ष्ठ
इसे
##ब्द
##मुख
##ोट
पर्
पै
मन
उसे
##यन
दक्ष
##ील
##यर
स्थाप
##it
उत्तर
##पर
पद
##ंस
करना
रख
प्रयोग
अंग
आर
9
##च्
##श्य
h
##हार
##पूर्ण
महा
मार्
कोई
हम
सरकार
##च्छ
199
जिसमें
##वाद
##ेम
18
%
दक्षिण
जु
##ेन
##भा
##काल
##ोन
जिन
प्रभाव
##ांत
##टा
जाते
##क्रम
ला
##om
M
हाल
प्रमुख
p
##वर्
अमेर
o
##वल
##चीन
##ंब
चाह
स्प
देख
बढ़
स्त
##काश
6
लोगों
##हास
पश्च
##वर
सकते
प्राचीन
##ोम
दोनों
##ैंड
मूल
##युक्त
परि
##क्ट
T
कॉ
##सिद्ध
##भग
##जन
##प्त
दौर
ओर
शब्द
डि
##न्त
धर्म
चल
##गी
निर्माण
तीन
##धिक
दिन
मौ
शहर
##ंह
आप
लिये
प्रश
अग
लगभग
##तिहास
यहाँ
##णा
##गे
संबंध
श्री
##डी
##ed
##ूह
ना
शुरू
##िले
##क्षण
झ
मंद
मो
##ंट
##स्था
उद
बु
इसी
8
अलग
विकास
##ँच
प्रसिद्ध
##ाला
##द्यालय
##र्ग
राष्ट्रीय
भूम
##म्प
अस
वाली
ज़
##as
7
##et
फिर
##ार्थ
B
##थम
अब
##ैन
नी
सद
सह
##र्त
##लों
##ेद
शिक्ष
व्यव
w
आम
स्क
आव
सम्
##ion
##ृति
of
अध्य
अंतर
अला
मंदिर
दौरान
माना
करती
महत्व
##पी
जीवन
##ारों
##्वी
##फी
मध्य
##फल
##िल्
पृ
##म्ब
##ताओं
##धा
केवल
##एं
##तर
##्रो
लोक
वी
##णी
कंप
##िकी
हर
प्रदेश
##्वर
##ॉल
##ोष
##निया
क्यों
पास
अपना
पहु
##ारे
##ंद्र
##त्रा
जिसे
व्यक्ति
##एँ
##ेशन
ली
मी
##ंभ
R
अलावा
सो
दृ
प्रकाश
##ल्प
##ाया
the
निय
##्रम
कभी
##and
##ॉर्
##र्शन
साल
##ाँ
0
##व्य
##स्प
आई
##ियाँ
विभिन्न
राजा
##ंख
गो
अंग्रे
हे
अर्थ
##ियो
काल
##र्स
|
##ैल
D
जल
##ाइन
##दान
व्याप
अर्
##ेक
इसमें
##ुम
##el
सम्म
कहते
हा
क्योंकि
सिद्ध
जान
वा
##वान
५
जाना
##्ला
शास
##ियर
##स्तान
##ुष
बद
इसकी
##न्द्र
##ांश
पार
ठ
उनका
##ंश
कला
तब
##ुक
##श्यक
##म्म
रही
##तः
##्ले
खेल
आज
बात
in
ht
लेख
##ग्र
##बाद
##विद्यालय
##रों
युद्ध
##ur
##यास
राम
##वाह
E
##ष्ण
विष
##हित्य
f
उच्च
##्यु
सेवा
ती
हालां
अने
कृ
हालांकि
आवश्यक
कप
गण
सिंह
##चे
##वरी
आय
सर्व
उत्पाद
साहित्य
टे
10
##ोजन
वृ
योग
फ़िल्म
##स्थान
##द्योग
खिला
##ेंट
यू
H
प्रत्य
##दे
b
राष्ट्र
यहां
समझ
G
विर
##स्य
N
लिख
शिक्षा
किए
जग
##तु
m
॰
रो
महिला
संख्या
शुरु
##त्या
लि
पार्
संघ
उसकी
दूसरे
अर
गयी
अनेक
##il
अति
##ान्त
आध
##am
##ोजना
वर्षों
##ol
##ूद
इतिहास
प्रदान
बड़े
सामान
बाह
##जे
##ing
विश्वविद्यालय
पड़
ट्र
नदी
##ामी
हिंद
पहली
विद
##कृति
ज्ञ
d
चौ
##मे
पुन
198
समूह
##्यान
न्यू
##वीं
##ची
हिस्
##टन
##ुओं
महत्वपूर्ण
विचार
##मार
##वास
’
श्र
##ाले
चार
टीम
##मित
##सर
##ियां
रोग
##र्क
##एस
फ्र
##टक
शु
जबकि
##ोस
जिसके
##हाय
पत्र
इन्ह
##चित
L
##ल्ड
##टना
दर
##tp
अमेरिका
‘
##us
डी
नामक
अन्त
ऑफ
##ॉन
सन्
सै
##ुप
##ुट
वर्ण
प्रथम
##लि
समुद
लगा
दूर
15
##ित्व
तौर
समाज
पिता
श्रे
##िल्ली
##नाव
सहाय
सुर
बता
ढ
कल
##ra
चाहिए
प्रण
##ष्ट्रीय
##ल्स
जिसका
वर्त
##धी
नगर
३
देव
आस
##तंत्र
रचना
डे
माध्य
##स्थित
स्थापित
##्न
सकती
##चल
संगीत
##ष्टि
##लो
संप
रंग
##म्बर
संयुक्त
गै
##ूम
##ल्ले
उपल
##यों
समान
धार
दश
##ूत
##ंतु
देने
मि
##चा
जाए
माध्यम
##त्ति
वाला
##डर
##कारी
##शी
उसने
सेना
a
प्रार
गति
वर्तमान
सामान्य
अथ
अध्ययन
भग
उपलब्
पे
##न्दी
##ent
तै
बच्च
##म्भ
बनाया
भर
कुल
चित्र
ऐसे
वस्त
##दार
यूर
भूमिका
पुस्त
एस
वास्त
स्थापना
इं
12
बारे
अधिकांश
##स्कार
बड़ी
ऐसा
अभि
197
##ांस
जे
##ंथ
##di
##न्स
and
देता
17
गां
दिल्ली
२०१
जिन्ह
##डा
##सं
अच्छ
##re
क्रिक
पि
रखा
विज्ञान
##ठन
com
कोश
##le
##र्भ
##र्ट
##og
कवि
परिवार
इसल
शक
W
=
F
बनाने
फै
http
##प्
शै
##त्मक
नव
उद्
##रो
दिख
बड़ा
हिन्दी
##क्रिया
उपलब्ध
##न्ध
अधिकार
##वादी
वो
इस्त
n
##un
राजनी
यदि
कान
२००
काफी
जहां
##र्द
ज्या
##त्ता
सफल
##शिया
उसका
जिले
वर्ग
पुरस्कार
अथवा
##ाहरण
##बा
##वेश
##ंबर
##तम
##वार
ख़
घर
##िज
प्रत्येक
बाल
रू
जिससे
##ुग
##मेंट
शा
करके
चिक
##कृतिक
उदाहरण
बो
##000
##जर
दर्श
##इट
##भव
##ंदर
##ro
स्थिति
##कल
शी
यूरोप
स्तर
सदस्य
##यं
##हन
मृत
##ch
गये
संर
लेकर
जीव
देशों
क्रिकेट
एम
विस्त
##चाल
इंड
पूर्ण
डॉ
कंपनी
नाग
पृथ
##बल
न्या
पानी
दुनिया
##ंत्री
##तान
प्रो
##मन
जारी
##ेज
16
किये
##लैंड
##ाजिक
चि
मानव
हाथ
11
परी
शरी
पाकि
196
##ul
##द्र
माम
निर्देश
##्यता
परिण
घोष
सामाजिक
स्वतंत्र
पुत्र
##पाल
तह
सौ
मैच
##ीप
##सन
क्ल
केंद्र
##द्धि
##ेमाल
त्र
##तों
इस्तेमाल
छोटे
##र्य
इसलिए
ची
परिवर्त
##ation
थीं
##सित
रहता
##तन
##ग्री
ब्रिट
निम्
ऋ
गुर
भाव
##ri
##आत
वाय
पता
##लाई
संग्र
##ास्त्र
पं
पां
लड़
छोड़
##ार्ड
##ानों
प्रक्रिया
सार
##ूट
७
किल
मिश
चे
##ुनिक
दि
अप्र
आगे
##कट
In
चिकित
क्षेत्रों
गुण
##यार
इससे
पहुंच
##वरण
तुल
शता
एन
रेल
पश्चिम
##डियो
##ोर्ट
नियम
##ब्दी
##कर्
##न्तु
##नीय
##जूद
##ाज्य
निम्न
जहाँ
##गल
स्कूल
आधुनिक
विधान
##िष्ट
##कालीन
पत्
ब्रिटिश
होगा
आधारित
शरीर
##००
U
##iv
प्रणाली
J
परिणाम
K
##ालय
##ंखला
खे
शासन
मार
##तक
पहला
##रिक्त
बाहर
नियंत्र
बच
–
स्वी
##श्व
कार्यक्रम
होकर
भगवान
14
शिव
इनके
##ल्लेख
सीमा
अतिरिक्त
##सू
व्यापार
एल
ज्ञान
##्रेस
हिन्द
##ut
##गत
नौ
चुनाव
अफ
पक्ष
##पति
उल्लेख
मिला
##आई
##धन
##ज्ञानिक
रॉ
सभा
ऑफ़
##विक
रहते
##टेड
मत
विद्य
पूरी
195
##ct
देते
१८
##सल
४
मार्ग
2007
वित
##नाथ
##स्या
जगह
O
ध्यान
स्वयं
प्रकाशित
##मीटर
_
##ाता
##ट्ट
##चन
बने
वन
विकसित
##डे
मृत्यु
शक्ति
##ादी
उत्पन्न
सम्मान
प्राय
माल
मॉ
मद
विभाग
शताब्दी
##लेज
व्यक्त
प्रदर्श
अं
##id
##पन
चला
बाज
पाकिस्तान
##ृंखला
##ाण
पंच
आद
जिनमें
##षण
2008
योजना
पेश
एंड
13
##ंगा
गाँ
अत्य
##मता
समर्थ
बदल
##st
##र्न
##क्षित
##पा
सित
##म्स
##शा
विषय
स्वा
प्रदर्शन
भिन्न
##धिकार
बल
##ायक
##इड
सिद्धांत
##विध
##ag
##रूप
प्रधान
##कर्ष
##ात्म
##र्जा
##प्रिय
ऊपर
##क्सर
एशिया
इंज
##स्क
मात्रा
जून
गिर
देखा
##वाई
किलो
##ितीय
आया
##जों
तैयार
##िली
##ज़ी
##बे
##र्षि
प्रयास
##ोने
प्रबंध
एड
##ेंस
पृथ्वी
नए
पहुँच
##ड़ों
l
खु
संस्करण
ww
घटना
उठ
अमेरिकी
www
2009
गीत
##र्ण
संस्कृत
पौ
पुल
उसी
संस्थान
ऐसी
दूसरी
प्रचल
##रिया
##ात्मक
##ोह
आर्थ
जनवरी
अक्सर
पदार्थ
सप्त
लाग
##ोर्ड
##ोजित
क्रिया
पर्या
शुरुआत
आने
##िद
प्रारंभ
जर्म
##चर
##ist
बंग
अंग्रेजी
लोकप्रिय
बिना
##ad
##बन्ध
खिलाफ
दशक
पुरुष
पूरा
युग
इंग
194
मैं
##षि
##तना
##साय
तुलना
मार्च
क्रम
रि
फल
##शील
हिस्सा
उत्पादन
##स्टर
ब्ल
##्ब
बॉ
दिस
रहने
तीस
##िमी
पाल
नीचे
##्टी
##धारण
पुस्तक
##em
होना
##्सा
श्रेणी
##ष्म
रिक
इंटर
पार्टी
तु
सहायता
लाभ
##लिया
##त्री
g
खोज
##तिम
##ूबर
##हरा
आत्म
प्रस्त
##ers
संग्रह
वंश
उत्तरी
000
लगे
IS
मई
प्रदर्शित
##im
धी
विरोध
बौ
हिंदी
छा
विप
##ल्ल
##फ्ट
##ाइट
वहाँ
यही
##पि
जर
दा
व्यवस्था
##र्गत
नई
कर्म
##ॉर्ड
६
दृष्टि
?
अगस्त
जीत
लिखा
शे
विध
आग
##श्म
##धानी
ग्रंथ
##क्रमण
##टेन
चै
पाया
चीन
उद्देश
किलोमीटर
##ाइड
पुराने
##ह्म
लेने
##ाउ
द्वीप
##चान
##ांति
पूर्वी
##क़
ऑस्ट
The
मज
लाल
##ानीय
निकल
पश्चिमी
##ेस
इनमें
महान
##ोलन
##र्च
गाँव
वाप
जाप
मिलता
समस्या
अक्ट
25
##्मिक
सके
!
बनी
##तिहासिक
##रल
आर्थिक
##िशा
V
अप्रैल
माता
समा
पद्ध
गांव
लौ
बस
स्थानीय
अक्टूबर
विज
अंतिम
##गु
पहा
विदेश
प्रवेश
##िक्स
अभी
##न्यास
##ोड
##um
##th
##टल
ताप
अनुस
ग्रह
##एम
साम्र
आवश्यकता
तकनी
पांच
शि
##विधा
द्र
##्यो
स्पष्ट
प्रचलित
जुलाई
##गढ़
2006
आकार
हास
रहती
यात्रा
नै
यून
उम
विशिष्ट
बर्
उद्योग
संगठन
क़
प्रभावित
कॉलेज
शीर्ष
बंद
भौ
##ंडल
सप्तर्षि
ज्यादा
भूमि
अधार
##भर
##ce
दर्शन
श्रृंखला
##शल
रु
इस्ल
ब्रह्म
अभिने
##बद्ध
ते
पूरे
##डल
प्रत
एक्स
##ew
##िको
##ायर
डिज
##BN
रोम
आरम्भ
आते
समाप्त
धन
राजनीतिक
##्राष्ट्रीय
कठ
दल
लंब
ति
कथा
30
चर
ISBN
साम्राज्य
पढ़
कौ
##ोब
##ay
तरी
राजधानी
वर्णन
सदी
##नेट
##ग्रह
इंग्ल
धार्मिक
पृष्ठ
##ाइल
वैज्ञानिक
##कीय
ऐतिहासिक
##ब्ल
##स्व
हों
##सम
##ंगल
रक्त
कहानी
सुविधा
करें
पो
अन्तर
इनका
संबंधित
##द्द
##रवरी
##शास्त्र
##बादी
जनसं
##वेद
##सभा
विस्तार
स्म
गि
इला
##ir
##ाक
##कारों
##op
शैली
परिवर्तन
सुन
चिकित्सा
ग्री
हेतु
सहित
दौ
धारा
##र्ज
##स्ल
महार
देवी
##ुन
पड़ा
##ैक
बैठ
८
##र्प
##ॉट
##वाल
##ess
पाठ
क्षमता
प्रसार
प्रशास
दिए
अक्ष
पद्धति
मिली
लै
दूरी
अह
##िस्ट
सात
सां
संस्कृति
द्वितीय
तेल
##ियोग
जय
खुद
व्यवहार
पर्य
प्रस
##ृह
उद्देश्य
2010
##78
##देव
बौद्ध
पीछ
##ig
बैंक
आन
मदद
लाख
अर्था
##ia
प्रस्तुत
##्रिया
##र्ड
##गम
दूसरा
##स्वर
##त्रों
संचाल
मनुष
193
आबादी
व्यापक
बिल
पर्वत
विभाज
रखने
##बाज
##षद
जनसंख्या
to
माइ
लाइ
बहु
दिखाई
मीटर
बेह
##वासी
नर
##्वज
सुरक्षा
वृद्धि
##ांक
विवाह
##इन
सन
सूची
निर
##ष्य
भाई
##एल
##चार्य
##रि
प्रती
##डिया
##स्म
केन्द्र
नियंत्रण
अध्यक्ष
आता
एयर
तहत
बनाए
मिश्र
प्रेम
जिला
सत
##्रेलिया
##फा
इन्हें
सामने
##ev
इन्होंने
कमी
बोल
निकट
टाइ
##ताल
किमी
अरब
विल
बांग
##नो
प्रतिनि
तम
दिव
रोक
पहचान
स्टेशन
##ठी
मही
##ड्ड
सूर्
बज
जाति
##ब्र
आयु
क्या
प्रतिश
##मति
समुदाय
परीक्षण
तत्व
##ज़र
##िकल
##ीर
बताया
९
विधि
##स्थ्य
कांग
वज
बच्चों
बांग्ला
##राष्ट्रीय
स्थल
##तौर
आयोजित
री
##पु
दिशा
पुलिस
स्वीकार
घोषणा
लॉ
##सत
निश्च
##वक
किंतु
इनकी
जिन्हें
प्राकृतिक
##स्वरूप
समर्थन
खान
पिछ
सुधार
माँ
##ज़ा
for
सिर
##िखित
धीरे
चू
ओल
##लेक्ट
वस्तु
##वें
ऊर्जा
प्रेर
घा
किस
##ल्ब
##जात
शादी
संस्था
##वृ
गा
करे
शाह
हिन्दू
उपन्यास
स्वास्थ्य
##मो
##वाले
##भाषा
विद्व
पैदा
अफ्री
जानकारी
निर्मित
फुट
##od
##वंश
अगर
दुर्
करी
##ंपरा
##गो
विक्रम
निर्ण
##कृ
##ot
मंत्र
प्रतिशत
संके
विशाल
तत्
देती
महिलाओं
उपकरण
प्रशिक्ष
चरण
दिनों
लगता
##शनल
##os
ऑस्ट्रेलिया
कृष्ण
##ृत्व
मूर्
छोटी
मल
वित्त
कम्प
सहयोग
##पात
##तियों
अंतर्राष्ट्रीय
मनो
21
गणना
क्व
जिसने
दक्षिणी
##क्टर
अद
फी
समी
192
सूर्य
कार्ब
##आर
##मर
##ुक्त
##मंत्री
##भार
न्याया
आलो
अभिन
राष्ट्रपति
पड़ता
बर
लेखक
##्राम
डाल
पश
शो
संत
##ेंद
अनुसंध
##एन
परंपरा
2005
उम्र
##मार्
कोल
##धे
नम
##ृत्य
##ग्
##्यार
निर्वा
##ter
##धिकारिक
ट्रे
अंक
##ेंडर
##िनी
हज
साइ
अवधि
वापस
##लू
संभ
दिल
मर
मौजूद
नेत
##क्ष्य
आकर्ष
कानून
ग्राम
भीतर
संभाव
आंद
आधिकारिक
रिप
##ांड
एच
##राज
संरचना
##शि
##लाह
पीछे
##ियोजना
अपे
नेतृत्व
वेब
ब्रि
r
सफलता
नेट
##वै
1992
रेलवे
अनुसंधान
प्रौ
परियोजना
याद
##पे
##पाद
##कर्ता
इन्
शिक
गुरु
शोध
अंतर्गत
##िकाओं
अवस्था
वजह
सूचना
परंतु
खा
##ुद्ध
##ity
##सीसी
पंजा
राजस्थान
आश
e
प्रतियोग
##ेप
संस
इलेक्ट
वायु
##दाय
##ॉक
इंग्लैंड
स्वतंत्रता
जनता
स्रो
##िक्
निष्
भाष
१९९
आरंभ
शाखा
जोड़
जिन्होंने
बल्
हार
##राव
##ंकि
सम्बन्ध
##हरी
##ेश्वर
24
जैसा
मश
प्रतिक
अंतरराष्ट्रीय
करो
कैल
गैर
तंत्र
मिलियन
पुनः
तट
विमान
बाव
अनुमान
##रात
हासिल
##्ज
v
##राब
##्यूटर
मुस्ल
सड़
##लिखित
बढ़ा
गाय
##्रिय
खो
काव्य
प्ले
आमतौर
सार्वज
##चि
लीग
सरकारी
जिसकी
##ीक
##स्ताव
रेखा
##dia
22
दिखा
महाराज
पक
वाह
##ंका
##ak
##नर
##ड़ियों
##भाष
मुस्लिम
##ीद
कहला
इस्लाम
कुमार
प्रमाण
नृत्य
कांग्रेस
##ंटी
##श्रे
अनुभव
भे
सहायक
##सों
समुद्र
१५
##चित्र
##ूँ
##िति
लो
##ार्ट
ऊँच
ग्रे
सार्वजनिक
जम
##खी
##न्दर
सामूह
##द्रा
##ख़
वहां
सामूहिक
अच्छी
प्रस्ताव
##स्कृतिक
अंग्रेज़ी
&
रै
कविता
वास्तविक
कृषि
यौ
उससे
१०
978
मना
उपस्थित
ताकि
नागरिक
शक्त
##ंबई
लु
मनुष्य
१७
साह
डिग्री
ब्राह
चीनी
##कु
##ub
गर्
##ापन
खंड
चाल
चक्र
htm
जैसी
सैनिक
##79
मंत्री
सांस्कृतिक
##पास
##णों
देखने
##थर
नाटक
उनमें
विश्वास
लक्षण
रिकॉर्ड
निवास
##्वे
दस
23
योगदान
टै
फॉ
अभिनय
अभिया
##ानि
मिट
अत
बल्कि
##फे
प्रबंधन
आठ
स्ना
प्रौद्योग
किन्तु
राय
191
ठीक
##ूरत
पत्नी
मिलती
न्याय
अध्या
##ल्ट
परन्तु
निम्नलिखित
##क्सी
100
बिहार
जाएगा
##प्ता
टेस्ट
राज्यों
##ab
##श्वर
मन्द
##ow
शब्दों
##सिक
##ci
##मत
चलता
##गोल
पाए
ऊंच
2011
##दय
सर्वश्रे
ब्राह्म
##ov
भौतिक
##भाग
आइ
##िनियम
##त्त्व
निजी
##रित
##est
##ियल
कहीं
##न्थ
किन
पूजा
विजय
मॉडल
मान्यता
यूरोपीय
अग्र
संबंधी
प्रका
धात
आंदोलन
उत्तरा
##ap
आए
##वेयर
झील
सर्वश्रेष्ठ
अली
##टों
अपेक्षा
2016
सें
ड्र
अश
मुक्त
खरी
लगी
##ब्ब
गौ
संद
जापान
##ॉप
भावना
इंडिया
कट
गुज
##ंख्य
संय
दर्शाता
एज
चुके
##सिंह
##क्ष्म
##धारित
मूल्य
##ang
सीमित
##गण
or
नीति
कर्
उपा
अनुमति
भोजन
लागू
सॉ
इलेक्ट्र
2004
##ंदन
##ताब
युवा
50
रक्षा
26
निर्णय
खिलाड़ी
विद्यालय
##ंकर
मध
जॉन
राजनीति
##ुड
##हम्म
पाँच
##खंड
प्रकृति
आसपास
बाजार
बंगाल
स्वरूप
तमिल
निर्भर
लगाया
प्रतियोगिता
##ंसा
सामग्री
तरफ
##ष्क
##art
##न्ट
१२
मू
ब्रिटेन
##चक
सक्रिय
मन्दिर
##ाज़
वार्
##्लेषण
जैन
##स्यों
##न्या
संघर्ष
औसत
##क्षर
##ett
कोशिश
प्रकाशन
##ज़न
फे
##सागर
2012
रिली
निश्चित
##क्ता
##िवार
हिम
स्थानों
##ंपिक
2018
##हम्मद
निर्मा
Ch
नया
उपचार
मजब
k
भाषाओं
##ानु
बां
##मैन
संकेत
##ठा
##रेट
##ुरा
##ादा
ध्व
##वर्ती
##यण
##ht
अस्त
निर्धारित
इका
बनाई
टेली
##घा
अपरा
मानते
बच्चे
2014
मांग
संवि
व्याख्या
प्रचार
##ेटा
मुंबई
St
गल
निकाल
##टिल
वास्तव
सही
इत्या
संपाद
सैन
विविध
हाइड
विक्र
##क्षेप
सागर
लिप
फ्रांस
उपरो
बावजूद
+
स्टे
उपरोक्त
रात
भागों
सदस्यों
सत्य
##गार
मानकर
##लीय
नेटवर्
पाय
होगी
मात्र
st
##ल्फ
##शाला
नियुक्त
१६
अनुवाद
चुका
##्वीप
समिति
अफ्रीका
##ष्ट्र
सितंबर
##ूरी
बांग्लादेश
मामले
जूल
##नु
प्रौद्योगिकी
प्राथम
##ल्पना
दृष्ट
संदर्भ
हिस्से
उड़
साधारण
अधिनियम
गोल
फिल्मों
##रीत
##ॉलर
प्रतिनिध
नाट
हवाई
##दर
##त्तर
क्लब
##डो
##न्ना
व्याव
सर्वा
चले
फ्ल
प्राथमिक
##बार
##नियों
साध
कश्म
##ेय
##र्फ
2000
लेते
राव
छोटा
सम्मानित
##रीय
आक्रमण
डा
##द्वीप
संश
2015
गेंद
टूर्
उसमें
इत्यादि
शासक
फार
विपरीत
डिजाइन
थो
वीं
2017
गांधी
देना
कैलेंडर
मिन
##नामेंट
प्रयुक्त
29
##ष्णु
2013
तल
जर्मनी
##ार्क
##ॉम
##ph
फरवरी
##एफ
28
##भीर
मील
##वस्था
ज्ञात
टूर्नामेंट
##धर
अर्ज
कले
दृश्य
##ूब
गू
मिस
2003
जीता
प्रशिक्षण
##av
महारा
##क्शन
दिसम्बर
परिस
##बि
लिखी
##खन
विज्ञ
करीब
##नाइ
कार्यों
पस
अका
स्रोत
वीर
मिले
स्वामी
##यल
27
रुप
##ट्र
प्यार
परिषद
##िकोण
प्रान्त
महीने
अच्छा
##यान
विद्युत
##क्षम
अतः
१९८
वेद
ओलंपिक
मुद्रा
मसी
अस्प
चम
गंगा
प्रारंभिक
##all
विस्तृत
##ंडी
आर्
आयोजन
इंजीन
बनने
दै
##फ्त
प्ल
##ुआ
छह
नेता
ग्ल
करोड़
अधिकारी
गं
##20
निकाले
##्रु
इच्छ
भारी
नेपाल
सिल
जल्
##केट
##ोरी
##स्ति
##ल्बम
प्रोट
##साइ
अंड
सच
##ंतर
रस
परमाण
जहा
रिपोर्ट
##शिप
रास
##र्व
##कता
नवम्बर
निभ
मुख्यालय
सेंट
##र्मा
यद्य
भवि
##्वा
th
करा
##रोध
उत्स
एफ
##विज्ञान
आती
##ातर
बैंड
यद्यपि
##दम
सारे
सड़क
डॉलर
##ातार
मानक
मामलों
विदेशी
दवा
प्रय
मसीह
सिस्ट
रन
विधानसभा
पेट
किंग
भविष्य
##कुम
##ियुग
190
लौट
सरल
##ल्क
##टिक
##मल
re
५७
पत्रिका
५८
७८
मां
##ah
कथ
##ell
##बॉल
पंजाब
##कुल
विन
अनुर
संभव
##दास
पालन
घं
##ारायण
हत्या
लगातार
लक्ष्य
अत्यंत
आदेश
##द्व
एकल
##ाजी
##व्र
दब
मिलकर
2002
योग्य
संविधान
##नाम
हॉ
##िड
ऑन
विशेषता
प्रतिष्ठ
##ारोह
कलियुग
हिंदू
पव
##उस
##ical
##मार्ग
खेलों
##वों
इल
जुड़े
##िरा
रखते
on
सक्षम
##ंजन
40
११
डाय
अल्प
##ियत
##ेंज
सफ
खास
पिछले
जिनके
##ण्डर
##ac
इत
2001
हमारे
##पल
##ेदार
##वाया
##ट्
सम्रा
रण
मेल
फूल
न्यायालय
लेता
बिक
##ary
चर्
घोषित
##ुत्
##बू
##फ़ी
शेष
पर्याप्त
##ट्स
##न्त्र
मिलते
गैस
अभिनेता
##क्ल
तर्क
##ेशा
चंद्र
रूस
अमरी
चुन
जर्मन
१९७
##चय
##ेंगे
दिसंबर
##०००
##ग़
सर्वो
##ok
बदला
बोली
तरीके
विक्रमी
विवाद
##घु
कंप्यूटर
##ish
बरा
मिट्टी
अगले
महासागर
ग्रन्थ
जूलियन
प्रे
विश्लेषण
##दातर
परीक्षा
पर्यावरण
गठन
नेटवर्क
##टिन
गंभीर
व्
व्यक्तियों
आलोचना
सर्वाधिक
अधिकतर
अंदर
वर
व्यवसाय
कोड
प्रांत
##ogg
प्रतिक्रिया
पवित्र
अवसर
घट
विभाजित
##्प
पत्थर
##भू
अभियान
वीडियो
मरा
##मात्र
##वंबर
नवंबर
औद्योग
तीर्थ
##प्ताह
अहम
##्यास
सिर्फ
579
##ine
##्क
##ंघ
##त्न
ईर
अक
##ोग्राम
तार
##यात
##ॉर्क
##ec
सभ
##भु
पंचाग
”
##ियस
अधीन
##oggett
##Doggett
##्ता
अधारित
कलेण्डर
##स्फ
बोर्ड
##ill
##ूनी
१४
उन्होने
रानी
सुपर
##ंजी
जाये
लंदन
##ंपरिक
##उट
##ोषण
भवन
##्रेड
माप
मौत
##oun
समाचार
अज
##कान
##ज्ञा
विद्रो
बिज
##up
कार्यालय
##ress
घरे
पारंपरिक
असम
सुंदर
Un
गर्म
##ant
अत्यधिक
विष्णु
बजाय
कश्मीर
##ूं
उम्म
प्रतिनिधित्व
31
टू
हमेशा
##स्वी
कना
स्टी
जाय
##सान
##थे
पट
एल्बम
“
##क्षक
पसंद
##ber
##्टर
राजन
निवेश
##ढ़ी
##गन
##िश्च
इमार
##ारण
छात्र
##लाइन
अफ़
निर्माता
इसने
##थी
सूत्र
काउ
संगठ
ग़
किनारे
चरित्र
महल
बुद्ध
इट
हवा
आरोप
गुप्त
टीवी
मैदान
समारोह
##वाली
मीडिया
##थि
हल
##त्कार
##ाद्य
अम्
दान
ग्राह
##वाब
हरा
निर्वाचन
१९६
जिनका
चुकी
संभावना
हृ
ब्राह्मण
तापमान
##णु
इंजन
जंग
##ेलन
वहीं
##ep
परम
वॉ
##स्ती
चैन
अर्थात्
##लब
परमाणु
##ews
वित्तीय
तेज
प्री
संसद
इंजीनियर
##ेंड
##िकों
मित्र
रेडियो
##गति
पदक
An
##सील
भेज
उल्लेखनीय
##ात्
औद्योगिक
चुना
जोख
##ory
चाहते
सैन्य
पाई
##ाउन
##भूम
##गाह
##सीय
$
जित
as
सॉफ्ट
शारी
html
युक्त
संपर्क
लेखन
रेख
प्रकट
##ाइनल
व्यक्तिगत
स्वर
सत्ता
उत
सामना
बीज
##दियों
चारों
नार
स्था
समझौ
अंश
अपराध
घरेलू
##हरे
अल्
नष्ट
अख
ईसाई
सतह
सलाह
##50
जांच
परिस्थित
जिम्म
संरक्षण
गतिविध
आवा
उर्द
ग्रहण
गृह
वही
अस्तित्व
भेद
आत
क्ला
लम्ब
आदर्श
कव
##कल्प
सुरक्षित
परिणामस्वरूप
उम्मीद
शीत
जोखिम
##ik
१३
हस्ता
चलने
बराबर
इतना
दावा
खरीद
तकनीक
मस्
आचार्य
वस्तुओं
फैस
गणित
विद्या
पार्क
अंतरिक्ष
किले
आँ
शांति
भा
साब
##ate
मुसल
विषयों
फिल
##वाला
धातु
हमला
सम्मिल
##झे
महत्त्व
##षिक
##माने
बेहतर
##फर
विवरण
प्रजात
##दमी
शुद्ध
शारीरिक
ग्रामी
लिखे
सितम्बर
ज्यादातर
मशीन
तीसरे
चढ़
वाता
##प्रदाय
##ज्ज
पश्चात
प्रधानमंत्री
क्रमश
##धारा
उर्दू
तथ
अकादमी
केंद
लागत
##वां
हस्त
##बर्ग
गे
मैन
ज्यो
पुराण
द्वार
१९४
##ुरी
अर्थात
##रीब
प्राण
##दिक
स्थिर
##मारी
प्रसाद
लंबे
सुख
महाराष्ट्र
##स्थाप
इच्छा
उन्
संसा
##ख्यात
१९५
##ह्न
##स्तानी
चन्द्र
मात
सिस्टम
मास
##ायनिक
##शाली
##age
##चारिक
##if
तहसील
##साइड
एकमात्र
चर्च
सिद्धान्त
तीव्र
##ापुर
##ीकरण
सूक्ष्म
दृष्टिकोण
कब्
2019
संचालित
शहरों
is
जीन
राशि
लड़ाई
कलाकार
न्यूय
##रस
पुनर्
स्नातक
##our
शास्त
##ायद
अवश
सम्मिलित
India
गोप
नियमित
प्रेरित
श्रम
तुम
परिप
कार्बन
##डम
##िकन
##स्को
##ित्त
##शय
##िरी
नाइट
जिसमे
स्वर्ण
प्रशासन
##ard
रोज
मिलने
किर
घंटे
पति
##ब्ल्यू
वर्गी
आये
##एच
कैसे
##ंबी
ईश्वर
##कारात्मक
##ud
##जीव
##्यूर
लगाने
जुड़ा
वातावरण
##ain
##जाति
शेयर
समर्प
मुसलमान
माह
##िना
जनरल
बिंद
##ive
लाइन
1990
उनसे
उचित
गर्भ
वृक्ष
रासायनिक
उन्न
पत्त
##खों
##भूमि
एक्
चार्
वेस्ट
बाँ
मैक
भुग
Y
जेल
##्यूट
##ूर्ण
जटिल
##पूर्वक
घाटी
कनाडा
##उंड
##लम
##वुड
विचारों
##ect
##ast
संस्थाप
घु
भ्र
आंत
प्रतीक
##ित्य
श्रील
तत्कालीन
##टो
ज्योति
##िटी
फैल
संशोध
##न्व
##त्सा
चयन
काली
सीधे
आयोग
गूगल
कोशिका
तेजी
यौग
पुरुषों
सॉफ्टवेयर
##्रोजन
पहल
ग्रामीण
आख
आयर
विद्रोह
##ip
##लिंग
j
पहाड़ी
##qu
आनंद
दास
##डु
##जिद
अड्ड
सम्राट
##कर्ताओं
दोष
##ेंद्र
चिकित्स
##किंग
कृत
पकड़
संचार
##लेट
अनुक
गुजरात
##ग्न
भक्त
संचालन
##ामा
प्रोग्राम
##वेदन
सम्मेलन
नो
जमा
मौसम
शास्त्र
पशु
##त्स
##oc
केंद्रीय
##व्यवस्था
अच्छे
पेर
देखते
श्रीलंका
हथ
##घर
##ेंच
मस्जिद
189
चलते
##ेड
कहान
फैला
नियंत्रित
##नान
##eb
खेला
देखें
सप्ताह
##ord
हृदय
चर्चा
प्रेस
कंपनियों
जुड़
शीर्षक
##ैर
##िवेश
०
##ियनशिप
##लाल
बहा
##वीय
##नेस
लक
इकाई
तकनीकी
##ायी
##दर्श
मेड
विवे
कपूर
##ld
मछ
नही
##भूत
दबाव
अनुया
##ry
हटा
शर्मा
कोरिया
##वृत्ति
निर्देशक
##खण्ड
##स्तिष्क
##शाह
##र्सि
दिखाया
माने
##ंगे
1999
गहरा
मानसिक
##करी
बंध
बाग
देवता
सत्र
पैर
प्रारम्भ
##त्मा
रोमन
##सेन
छात्रों
अमी
किताब
बेटे
प्रायः
संसार
प्रगति
##क्य
माइक्र
##सेना
सम्प
घटनाओं
फुटबॉल
क्रांति
हल्
प्रत्यक्ष
##बर्ट
##भारत
पॉ
विरुद्ध
सेवाओं
मंच
पाने
संक्रमण
ढंग
रोड
हाई
निभाई
##प्ट
##साइट
काट
पश्चात्
##पो
##चारी
##स्त्र
भुगतान
चा
##ंडा
रज
##ध्या
org
स्पेन
##सायिक
ध्रु
##कला
नील
188
प्रि
##क्षेत्र
अस्पताल
अभिनेत्री
जीवित
##िटल
##म्परा
रखता
अनुकूल
स्ट्र
विद्वानों
उपयुक्त
तुर
समूहों
उपभ
##भाषित
##शे
विशेषज्ञ
हजार
विकल्प
##ans
##ान्
एथ
तृ
वाण
भेजा
ज्व
दार्
##ind
कैर
फ़रवरी
केरल
सोव
##ंसर
समझा
परम्परा
##तल
निभा
वर्णित
उपाधि
##नगर
स्टार
राह
सिक्
##वरों
छोड़कर
##ivers
विभाजन
सृ
शायद
मुझे
हमें
##पद
२५
##ric
सन्द
तिर
कार्ड
समस्त
टेलीवि
विरोधी
व्यावसायिक
अधिकारियों
##णिक
अम्ल
##ment
##ंकन
##ांकन
मुख्यतः
इंटरनेट
पद्म
##वती
##संख्य
##वर्ष
दर्ज
परिसर
ताल
मतलब
वर्षा
प्रोत्सा
##क्ष्
लिपि
फ्रां
आत्मा
बिक्री
रिलीज़
##गरी
सल
मिनट
त्व
अरबी
वर्ल्ड
चतु
लंबी
॥
पाठ्य
##नाइटेड
60
जापानी
मस्तिष्क
अभिव
नेशनल
फाइनल
औष
con
सिटी
##ug
##कृष्ण
##निर्
##ly
##िथ
##ंदा
सिने
लघु
##रत
बेटी
करेगा
राजवंश
यूनिव
गतिविधियों
##rom
##पचारिक
सोवियत
##स्पति
निगम
कराया
मनोर
समीक्षा
क्षेत्रीय
न्यूयॉर्क
##बंधित
##्रेट
पदार्थों
मोटर
##ंता
शिकार
##ंगी
संग्रहालय
मानना
##िब
##सु
वालों
सूर
##रम
##िज्य
ऋण
डेटा
पोल
दोस्त
पत
कुर
विकेट
##ल्ला
##ियाई
##ैण्ड
उठा
उदय
##पूर्ति
बल्ले
डेवि
##ook
##ायत
अर्थव्यवस्था
##सायन
##ष्कार
##out
वैदिक
उद्यान
X
उनको
##यू
गेम
##ांतिक
तारा
वार
हित
##रीन
गोर
बहन
कल्पना
कैंसर
एशियाई
##सूस
अधि
वाणिज्य
##ort
प्रशासनिक
##िश्चित
##ताप
सम्पूर्ण
##ith
##दरा
आकाश
भु
अंग्रेजों
##ासन
समस्याओं
पैमाने
उपस्थिति
नारायण
##ंव
##खे
##ies
हट
तिब्ब
form
गठ
##धारणा
उत्पत्ति
मंत्रालय
1998
ज़िले
राजकुम
मुहम्मद
35
##बाजी
आसानी
##णि
##हीन
नवीन
प्रभावी
कहना
नैतिक
मजबूत
1980
संपत्ति
दर्द
समर्पित
त्या
बाहरी
##ियार
तुर्
आर्ट
##ear
दिये
कठिन
कक्षा
##कृष्ट
खेती
चट्ट
दुर्ग
सन्दर्भ
राजमार्ग
खूब
विज्ञापन
रूसी
##गणना
जीवा
संभवत
##िमि
सुना
##क्व
##क्का
बिजली
##ण्य
पर्यटन
पात्र
वार्षिक
पॉल
चैनल
##ष्प
अभ्यास
कारणों
##अर
चैंप
80
गी
##वत्ता
सर्वोच्च
परिवर्तित
##स्पर्
कल्या
यंत्र
##धों
गढ़
चली
मौल
रखी
परिभाषित
दूध
पुरानी
अवधारणा
##ाये
##ॉनिक
अनुप्र
पुराना
##ula
अंततः
##ha
##pl
लिंग
##ासी
निर्देशित
तय
ऋषि
ar
##श्विक
##राम
##olog
निदेश
आउट
खाद्य
ध्वनि
जमीन
घूम
##ubl
प्ला
नियमों
##ौती
##क्क
पूछ
डाला
मूर्ति
##लाब
स्त्री
गुणवत्ता
##न्ड
कैथ
एक्सप
##लर
मंज
मातृ
##क्साइड
जाकर
हाउस
प्रतिस्पर्
रिया
मैचों
बेल
रसायन
प्रवाह
##ुण
संस्थापक
आन्द
##क्षी
##लाइ
सुल्
वें
आतंक
खत
बजे
०००
उल
##झा
सर्वे
##ंदी
##ोलॉ
सर्वप्र
अय
काशी
जानी
पेशे
विलय
शंकर
मांस
बुद्धि
##orld
तभी
##दर्शन
##ंडित
महाभारत
##र्घ
गाने
फैसला
अनिवार
बेच
१९३
जरूरत
प्रतिमा
##ib
आंक
##राय
कॉम
रिश
परिभाषा
मेरे
कहलाता
##ंत्रिक
ईरान
185
सेट
धो
##ष्टा
Com
##द्दीन
दिवस
##ian
प्राप्ति
ट्व
अना
ऊंचाई
जनगणना
जू
अभिव्य
परिक
कर्ना
प्रश्न
##कोश
##ण्डल
##दूर
आकर
##हे
पत्रकार
कित
हाइ
केन्द
संपूर्ण
आपको
बाय
आंतरिक
देकर
##esh
##पूर्व
जलवा
##सेस
##ोग्रा
साधन
en
##70
##etri
गौर
विजे
द्रव्य
घो
तप
सीख
Univers
खी
##हारी
नुक
श्रद्ध
चोट
सिंध
टीमों
##har
अमर
शेर
डिज़
इटली
काला
ट्रेन
स्थायी
##eved
वैश्विक
केंद्रित
##संख्यक
##ठे
समुद्री
##ोसिए
सिंग
बनाये
##त्ती
इमारत
टुक
निश
तत्वों
##ust
pp
मिशन
##30
सोच
by
##अल
##ॉय
##वर्ड
ज़र
निर्देशन
जॉर्
##ानिस्तान
साबित
##शनिक
##ॉस
प्रसारण
सोल
द्रव
##र्जी
सजा
रोगी
##वैज्ञानिक
##काता
जोर
अवि
##क्ष्मी
बढ़ती
##etrieved
व्यक्तित्व
फॉर
ब्रे
##ौल
समझने
होटल
जेम्स
बीमारी
तोड़
##र्सिटी
दार्शनिक
दौरा
हालाँ
##hy
En
बिंदु
लिमि
हालाँकि
सप
##पेक्ष
अके
धारण
आकर्षित
##ोक्ता
32
##ैतिक
१९२
लखन
तीसरी
यो
सौर
उपग्रह
##जू
मेर
##मेर
सोम
स्थानांत
साहित्यिक
किरदार
सभ्यता
लिमिटेड
आवि
किश
समृ
संधि
##जु
##वीर
हस्ताक्षर
##काब
सुब
यज्ञ
तीनों
##्रीम
##तया
पल
तला
—
जॉर्ज
अध्याय
##आती
पड़े
नंबर
बाज़
चाहता
आन्दोलन
##ड़ित
##स्टी
मोब
मंगल
सिक
लकड़ी
##िशाली
स्कॉट
उपन
##ेंसी
1996
##eg
उपयोगी
दाय
अनिवार्य
कोशिकाओं
##पक
इंद
उड़ान
प्रथा
केन्द्रीय
##पट
परिवहन
लाया
गवर्
फ़्र
महसूस
सिनेमा
टो
महाराजा
##लीवुड
पेड़
जाल
मिश्रण
वाहन
बचपन
कोलकाता
1997
म्यू
##ोर्स
लेना
रोकने
##ational
इंडियन
90
University
##िलों
मंडल
समानता
अग्
आईसीसी
कल्याण
##टि
##यम
स्मृति
अन्तर्गत
##पादन
सर्वप्रथम
##िप्त
बढ़ाने
घन
सेल
##ure
al
लाने
महत्त्वपूर्ण
##10
रेखांश
##सो
500
ग्रंथों
शक्तिशाली
बसा
अमरीका
चूंकि
##भुत
एंटी
रास्त
नुकसान
गईं
टिप
##ूक
रेड
स्मार
##राइ
यानि
साइट
वितरण
##्यूब
बढ़ावा
मस
मंग
सैनिकों
इंजीनियरिंग
स्वाम
हैदरा
कौशल
Press
जिनकी
जलवायु
शुक्र
होंगे
##हान
##दृ
कोर
##वाहिक
मिस्र
लिखित
पर्व
बुला
पड़ती
सौंप
उपकरणों
फीट
कर्नाटक
हरिया
अनुपात
चैम्प
विलियम
##ावली
क्षति
व्यास
निवासी
कदम
##िखर
स्टू
##िकता
दीवार
लेन
सुझ
मिलाकर
इलाज
जल्द
उत्पादों
दस्ता
##डन
कमा
जैव
बंदर
क्षेत्रफल
मुगल
हाथों
##चु
##ुख
उद्य
##हवीं
Ar
##त्रि
त्याग
शराब
सचिव
##चरण
व्र
त्रि
##ens
वेबसाइट
अवत
एकत्र
एसोसिए
सुल्तान
Al
शाही
निरंतर
क्रिस्ट
##ैश
बू
माध
लोह
राजप
बनाता
##ार्थी
https
बाबा
आर्य
हिमालय
##स्टन
मुश
गुजर
अवार्ड
एव
मिथ
पुस्तकाल
36
पौधों
तुर्की
गोल्ड
##ics
an
##ेक्ट
अभाव
मेज
बनता
पुष्टि
२४
##स्कर
चुने
ठोस
हैदराबाद
पाप
बीमा
प्रतिरोध
Retrieved
##ावर
घाट
भ्रम
२१
मुक
कण
सारी
अधिकतम
टाइम्स
##ॉड
हिल
ज़्या
संदेश
राजाओं
कार्यक्रमों
##ुति
##raph
##वृत्त
उपाय
करेंगे
एंज
सांस
##्रीट
##ूस
आध्या
##han
२२
##ोलिक
##परी
वय
३०
कन्न
##ेदारी
लिखने
formula
मुख्यमंत्री
लगती
अब्द
यूनाइटेड
##राज्य
गलत
पंडित
##लभ
बृह
आदमी
तुरंत
साक्षा
##बो
##90
अर्ध
दौरे
मनाया
मोबाइल
इर
सफेद
आपूर्ति
देवताओं
उत्कृष्ट
##दल
पाद
कानूनी
de
##ge
##यक
पटना
पोर्ट
बनाते
प्रीम
जोड़ा
फलस्वरूप
##ष्मा
बचा
##स्टिक
आध्यात्म
##ँग
बनाकर
##िल्प
प्रतिभा
45
धर
##घटना
##बोध
##संग
70
एप
##र्तन
पक्षी
ग्रीष्म
##ैट
##कलन
##युद्ध
इतनी
लखनऊ
अन्दर
##दु
बदलाव
##पुरी
नयी
फोट
##मि
##dian
हूँ
##ोत्तर
तथ्य
पाठ्यक्रम
##12
##ence
शिश
news
लव
ब्लैक
##घ्र
पथ
तुम्
##चारियों
यूनिवर्सिटी
##तीत
सदा
##िस्तान
स्टेड
##णे
उद्ध
पराज
वैसे
जयपुर
औपचारिक
कम्पनी
विद्वान
दैनिक
नज
अकबर
लेती
अर्जुन
##नन
नये
समाधान
उपनि
अपेक्षाकृत
##कालिक
तृतीय
अमेरिकन
अफग
##ंकिंग
रूपों
डेविड
##र्नल
रखना
##धिकारी
मानी
हमले
भक्ति
गिरफ्त
खाने
ष
प्रतीत
##ey
##ूष
##स्फोट
##माला
हद
##र्ती
##ंटर
1970
##दुर
सेन
इलेक्ट्रॉनिक
कुशल
हाइड्रोजन
मृ
निच
##्ली
रवि
वाद
कठोर
साथी
##ाउंड
अर्थशास्त्र
##ंशिक
खोल
त्वचा
186
जंगल
##40
ड्राइ
##end
##ेंटी
परिस्थितियों
इंच
मेरी
##स्ट्र
आश्रम
ऑक्सी
##त्रियों
##फोर्ड
असफल
##च्छेद
तरंग
छि
बढ
काले
मक
चलती
भोज
##ous
नोट
कर्मचारियों
चिह्न
अशोक
हुये
ख़ान
##नाश
संकट
टीका
निदेशक
यात्री
प्रेरणा
गुफा
स्टेडियम
##ide
२३
बिग
लाह
##धीश
संबद्ध
##जल
करवाया
##खिक
##भाल
##गोलिक
अनुप
##ोंग
विजेता
यहीं
##मती
II
##सूत्र
बालक
पहुंचा
इस्लामी
सच्च
किला
As
##शीलता
कराने
##दाता
1995
जवाब
सेंटर
फ्रेंच
धूम
अस्थ
##ाइम
##ालियों
परिचय
लंबाई
अट
विधायक
रुपये
रास्ते
व्युत्
परा
अदाल
कक्ष
##ेन्द्र
टेलीविजन
##ff
मुकाब
भौगोलिक
##ठार
ध्रुव
नदियों
बनाना
शृंखला
समीप
नामित
सुन्दर
प्रोटीन
00
Con
विस्फोट
##णन
डिजिटल
इज
यानी
##ांतर
सिख
सामान्यतः
##पत
तीसरा
##ob
##ath
कोर्ट
##हल
##फिक
टा
##र्जन
##र्वेद
संबंधों
संस्कार
##कत
शौ
नेप
संह
निधन
y
##ex
जहाज
पढ़ाई
##ासत
नेहर
ट्रांस
##इस
ग्रीन
जातियों
खर्च
##िने
##िनो
##imes
देखकर
##्ती
डर
##खर
##िणी
खिलाड़ियों
##इयों
मध्यम
हिस्सों
मोह
कैम
कैरियर
पुस्तकों
सर्वेक्षण
##िमा
तनाव
संक्ष
फा
खुला
स्वत
प्रताप
सिद्धांतों
सुझाव
प्रशंसा
1994
गायक
ब्रह्मा
सश
इस्
चाव
मानचित्र
##रीज
संगठनों
##aj
ऊँचाई
उल्ल
बुनिया
तिथि
सकें
बंगाली
##ड़िया
##्त्र
सेक
ऊपरी
मोहम्मद
33
मोर
अश्व
##राह
ed
श्व
रखे
कहता
बांध
##नक
गुणों
अहमद
गोली
बॉक्स
स्वर्ग
दुर्घटना
निर्धारण
जिम्मेदार
##िताब
रॉक
वास
##ern
काग
यथा
प्रजातियों
##हाबाद
जम्म
शत्र
लगते
स्वामित्व
प्रतिनिधि
जीतने
मोट
##गुप्त
टिप्प
##ोरा
##्मा
गणराज्य
दस्तावे
कलाकारों
पीढ़ी
अनुप्रयोग
लक्ष्मी
एक्सप्रेस
साक्षात्कार
##orn
##वारों
##भेद
##ल्य
विफल
मंदिरों
##ैम
बढ़ने
ब्रांड
टिक
पौधे
1993
चाहे
##नात्मक
##80
##पत्र
शुरूआत
चेन्न
भंड
ऑनलाइन
किरण
दीर्घ
#
##ult
गिल
फ़िल्मों
##ोनिया
व्याकरण
##गमन
जला
जम्मू
१९१
##ograph
गुल
शिखर
पोस्ट
डब्ल्यू
२६
##भूति
सका
##नेशनल
प्रवर्
पहन
पौरा
शुल्क
धारणा
##फार
##ान्ति
बहुम
दें
मारे
##स्की
सूरज
मिश्रित
यथ
##तियाँ
शीघ्र
निकाला
##भि
##दीय
टेल
बैठक
ऑफिस
रोगों
##साद
##ैंक
कमज
मुला
##िवी
प्रतिष्ठित
##लेस
इसील
ग्रुप
प्रार्थ
महाविद्यालय
at
##ount
##uc
पीड़ित
श्रेष्ठ
प्रसारित
व्यापारिक
शैल
मराठी
मालिक
पौराणिक
##rit
sp
खण्ड
निष्कर्ष
##ायल
##रांत
##जिक
यूनानी
ज्योतिष
धारावाहिक
आजकल
स्टूडियो
उच्चारण
सुनिश्चित
##मय
खींच
##iz
तू
हरियाणा
ऍ
##सिड
##र्या
1960
पुस्तकालय
wh
वाइ
हार्
२०११
श्रेय
अनुरूप
##ीकृत
बोध
न्यून
पारित
##लीन
##विधि
भट्ट
उभ
पुर्त
अंध
आनु
लेखकों
प्रत्या
##गंज
योग्यता
##व्या
रिस
बदले
अधिकारों
##दिन
##िट्
##न्दु
##ुद्र
फोन
प्रार्थना
187
मुर
##15
बारह
चैम्पियनशिप
कारक
डिप
काफ़ी
##लोक
##्लो
शहरी
1991
##ृत्ति
अभिक
##म्बई
##ोलॉजी
नौकरी
विचारधारा
आपके
अवशेष
वर्मा
##घात
##tern
##ost
##िकीय
हिन्दु
Publ
सीता
लोकसभा
आध्यात्मिक
बाज़ार
शिल
कड़ी
##ल्पनिक
जल्दी
चित्रण
कौन
pro
कलक
##म्बी
##ून्य
##्यांकन
##ड्स
##ंकार
##त्रिम
अग्नि
काल्पनिक
कुश
जगत
दशा
आहार
मेला
राजनैतिक
##http
पांड
वारा
सुबह
कर्मचारी
##विद
प्लेट
स्थानांतरित
खनि
फु
दर्जा
स्तंभ
इलाकों
महात्मा
माइकल
आकर्षण
क्रमशः
##पान
##ायण
##शास्त
पुर्तग
देखी
प्रयोगशाला
##rad
##स्पर
सीट
वृत्त
संहिता
अफ़्री
##कश
कीमत
मेजब
बाकी
##ass
##वेल
टूट
खाड़ी
तथापि
प्रोफे
नमू
नायक
कन्या
चेन्नई
##ुरु
वस
खेलने
बंदरगाह
यश
बाइ
पहाड़
from
समझौते
आविष्कार
बुनियादी
तिल
सफ़
सकारात्मक
##घाटन
##टकों
##ल्टी
सहज
गरीब
प्राव
समीकरण
##वत्
अवश्य
##बु
झु
art
##स्वती
अनुबंध
त्रिप
मुक्ति
जड़
ठाक
नास
सारा
समन्व
##नीति
हॉल
फ़ार
संप्रदाय
२०१०
संपादक
प्रतिस्पर्धा
नजर
मंड
बीस
कृत्रिम
Pl
खुल
डाइ
रहस्य
##युग
संवाद
##ोव
लड़की
##पों
##बिल
बनाती
मुश्क
##वादियों
प्रीमियर
##ैया
पुरात
वर्गीकरण
इम
हजारों
रोगियों
##जनन
गवर्नर
##हाल
बम
कप्
समु
प्रोफेसर
ऋतु
तरल
स्मारक
##cl
मगर
यौगिक
##ूदी
Ap
##बीसी
बुल
अज्ञ
यौन
##जो
##ran
दर्शकों
इंटरनेशनल
##्रोल
पेशेवर
संभावित
फ्रांसीसी
निरा
रचनाओं
एसोसिएशन
पूंजी
स्थलों
सज
नज़र
उपनिषद
न्यूजी
##ial
भीम
राजपूत
Sh
##षा
##िपी
शासकों
इसको
जीवों
संक्षिप्त
##हि
##ore
व्युत्प
##ations
महाद्वीप
एट
२७
बेस
स्तन
कपड़े
देखभाल
बेहद
##िरण
वक्त
निदान
रिलीज
स्कोर
##ong
##वाहित
##लिन
स्टेट
विख्यात
मठ
हेन
साक्षर
आंध
खत्म
मोहन
नेहरू
रचित
रुचि
प्रारूप
##कियों
प्रयत्न
##जनक
##काव्य
कप्तान
##uk
मछली
संसाधन
सरस्वती
शान
करनी
क्यू
ठाकुर
उपनिवेश
डेन
शास्त्रीय
रेश
समकालीन
##ण्ट
##ोज़
कोय
खेले
परेश
##तायात
खराब
ब्लू
बचाने
##ंगिक
ब्रज
हास्य
##िज़
यथार्थ
न्यायाधीश
##aw
ch
##ction
जुड़ी
रॉबर्ट
##ुलन
आपने
ईस्ट
कैलि
##11
श्वे
##स्थल
तारे
जीते
सालों
##फ्
##ेंग
वस्त्र
##ोजी
भय
२८
करियर
75
रिच
##निर्माण
संस्थाओं
Z
##ड्डी
इरा
ग्व
##णियों
किसान
थोड़ा
##ोर्निया
संयोजन
##सूर
##प्राप्त
इलाहाबाद
मूल्यांकन
##ॉर्म
देर
World
##ार्ज
बिता
चिंता
पर्यटक
Q
वेग
आवाज
रहना
##जीत
##क्कर
विपणन
न्यूजीलैंड
यातायात
प्रक्षेप
##ice
नाय
##ai
##सेंस
अपनाया
उपयोगकर्ता
##ामान
रॉयल
x
Th
शून्य
विविधता
सिंगापुर
प्रतिबंध
##्रीन
कोण
स्नान
कलकत्ता
डिज़ाइन
##कन
कबी
##pt
ex
किस्म
शिक्षण
तेलुग
शल्य
##वट
दुब
उद्यम
किंगडम
डॉक्टर
चिकित्सक
मुसलमानों
##जरी
##ोनेशिया
##दन
परत
सिव
1989
डाटा
इंद्र
शर्त
यहूदी
पित
लोगो
##man
चो
##ग्राम
चलाने
##ाइयों
##िंगटन
##istory
प्रोत्साहित
हाथी
पुत्री
शुरुआती
पुणे
२००९
ज़्यादा
कब्जा
मुश्किल
विशेषकर
कर्ण
छाया
राधा
##ग्रहण
हनु
##क्षिक
भाषाएँ
34
##प्रदेश
##ग्रा
आशा
ओवर
भाँ
आगरा
शिष्य
संस्थानों
रामायण
##लक
##फ़ा
पिक
डिवी
सोने
चाहिये
##ism
##ंधन
चां
टेक्
समृद्ध
Ge
इन्द्र
##त्तीस
##लेन
##वाना
पूर
गुना
प्रशंस
गिरफ्तार
##उथ
सब्
अदालत
उत्सव
देखे
मौजू
छाप
फाइ
इन्हीं
प्रभावशाली
##वाही
जुल
मौलिक
वाराण
मौजूदा
वैज्ञानिकों
##विन
बुर
भूत
रेस
भव्य
निर्यात
एलि
गेट
फसल
अक्षर
कवियों
झा
##हूर
हमारी
##81
##धारी
पुस्तकें
क्रांतिक
हान
##रिष्ठ
गार्ड
प्राणी
##ूली
आयरलैंड
##वाड़
अग्रणी
दंड
##ology
ख्या
यादव
सेवन
मौखिक
स्त्र
बल्लेबाज
##ज़े
नवा
गौरव
जनस
पड़ी
##स्ट्री
हनुमान
राजस्व
वास्तु
औषध
जोकि
पंजी
कार्यरत
धम
दरवा
खड़े
चेतना
सुविधाओं
##ेत
##बरा
##ोना
un
भूक
खड़ा
बाह्य
रेट
नेताओं
##ॉग
गंग
परस्पर
##91
##ोरिया
हिंदु
##बाल
इण्ड
बताते
##ाणु
कस्
नाट्य
##ग्व
Mar
शरण
व्रत
वरिष्ठ
विरासत
##डि
##धरी
साव
जातीय
वाराणसी
लक्षणों
चमक
##ताबिक
with
कर्त
कार्र
बीमार
लैटिन
##षद्
300
वजन
विद्यमान
प्रवृत्ति
वाणिज्यिक
धरती
चंद
लाहौर
मनोविज्ञान
ग्रीष्मकालीन
झू
मुताबिक
प्रयासों
be
वस्तुत
संशोधन
##हो
अद्व
##ie
वर्गों
स्वाद
रम
1950
शिक्षक
कैथोलिक
##वानी
रिश्त
##चालन
##वारी
उन्म
##्रेन
ग्राहक
पर्यटकों
##फोन
##रेन
अभिले
नामों
पराजित
राजकुमार
##ारक
इतने
संज्ञा
बाई
प्रजनन
अत्या
37
आवास
छत्तीस
42
उन्नत
परंपरागत
##रु
38
कारख
चुनौती
बहादुर
चार्ल्स
प्रक्रियाओं
52
##edia
हरे
दरबार
चिंत
भागीद
##az
इसीलिए
##गां
फ्री
शत्रु
मान्य
अभिव्यक्ति
##ich
थाई
जिलों
##ace
गीतों
जौ
प्रतिद्व
##फो
##लन
शुक्ल
उद्घाटन
##ru
बताता
^
co
समाव
आंध्र
मनोरंजन
पाता
मशहूर
संपन्न
ग्राहकों
##िवे
नहर
Gu
##रीज़
पाण्ड
पाकिस्तानी
##ail
वां
##धानिक
मारने
##ैक्ट
नमक
##क्राम
##निस्ट
साक्षरता
कारा
तारों
२००८
डिस्क
##ेशिया
अनुश
संभवतः
मेह
##्टन
डाक
सिं
गहराई
##cy
##ामु
##धित
##ार्ध
जाग
##ग्रस्त
खिताब
##ash
उतर
यमु
##दर्शी
दौड़
शक्तियों
##60
विला
उच्चतम
Sp
१९०
##ंकी
##िच
##काय
##हाई
कमाई
अर्जित
नीत
वान
मार्क
चित्रित
जानवरों
लू
क्रिस
कहानियों
##ब्स
##शाही
जितना
##नाक
##ायन
नाथ
बेर
पीटर
अज्ञात
नु
खाते
२०१४
आंशिक
उपज
1947
कम्यु
बिलियन
आंख
पराम
स्वच्छ
वनस्पति
सेवाएं
सम्बन्धित
टॉ
अंडर
खुले
##एनए
Pro
दूसरों
पन
पाइ
##भाविक
संगम
कमजोर
##नाडु
रहीं
सटी
वैकल्प
लंबा
पेरिस
##मीन
आगमन
##स्थापित
यूएस
पशुओं
प्रिय
लाइसेंस
##ड्र
संयंत्र
>
48
अणु
ग्रेट
शासनकाल
छिप
हूं
अक्षांश
चिप
प्रव
निकाय
##वश
##iss
ढा
अमीर
हार्ड
वैकल्पिक
केश
कमल
राइ
कार्यकारी
##साई
##हारिक
हानि
दिवसीय
##तरी
##देह
##न्धी
पोषण
अत्यन्त
मनोवैज्ञानिक
##धीन
विय
पंजाबी
मैथ
चौधरी
जानते
इसलिये
महीनों
मेडिकल
##न्ग
##न्दा
##दारी
बचने
शिल्प
भाँति
तरीकों
सम्बंधित
##त्तम
भरा
घरों
##ere
Am
1988
ईंधन
चावल
##जि
इंट
पतन
##वासियों
##ite
##ुसार
##वर्धन
संग्राम
##ैव
##ंकों
1987
दोनो
सीज़न
५०
गोवि
निहित
55
मजबूर
बॉलीवुड
उपभोक्ता
##वाणी
##ख्त
##ावन
##चीत
##ब्लिक
उसको
कृति
द्वि
जंगली
मादा
लम्बी
भौतिकी
US
##सूरत
एका
बजा
तस्वी
तिब्बत
बाघ
लोकप्रियता
मथ
हुस
ग्रीक
फारसी
टन
##ुक्ति
आर्क
##स्वामी
इस्पात
##बाई
मुद्
##िप्ट
इलाके
##बेर
कं
फ्रे
महाम
प्रशांत
##ौज
##चिक
1984
मारा
एकीकृत
##द्दी
##्राव
मुह
Comp
जैक
सहयोगी
चलकर
विंड
काउंटी
कार्रवाई
हस्तक्षेप
##वाँ
लल
सोन
करवा
घटक
सांख्य
##दो
उदार
बदलने
बातचीत
##ach
##ूषण
1986
खगोल
स्वतन्त्र
##ee
२९
नक्
मोन
पाते
##38
##विस
it
लगने
व्यापारी
##प्प
वापसी
##udi
##कोट
आश्र
एण्ड
मानवीय
प्रणालियों
जाया
रखती
शिवा
आयुर्वेद
कवर
##शक्ति
डाउन
बैट
चौथा
पंचायत
नागरिकों
स्थितियों
##per
पारी
अफ्रीकी
आज़
बचाव
artic
##शु
जोड़ने
पहुंचने
हिट
##ध्यक्ष
चलाया
न्यूज़
भीड़
परामर्श
हाइड्रो
घास
##cc
चुंब
मंगोल
वायुम
संदर्भित
##याम
हेम
घायल
नजदी
अस्था
तमिलनाडु
मनुष्यों
##यिक
कही
मेट
साफ
##बिया
राग
सुल
नल
कल्प
गणेश
बोलने
भर्ती
संघीय
##जय
##ron
ऑल
घे
डोम
लड़ा
रूपांत
##टीय
##्यौ
he
##बंधन
शिशु
अवतार
पीठ
अमृत
##दू
##ition
स्वभाव
दाब
कार्यकाल
##ग्ध
आपस
सेमी
##पालिका
दुर्लभ
निकलने
रास्ता
##ond
##फोर्निया
किसानों
ph
डेम
फें
##पोर्ट
मुद्द
##जान
##पुट
बग
डबल
गद्य
पदों
बाधा
मधुम
दवाओं
प्रजाति
##चुर
##गरीय
आसान
वायरस
ऑस्ट्रेलियाई
##ूण
ईस
180
ट्रै
घनत्व
जाएगी
##वेन
##ोबार
आश्च
जनपद
अंतर्
दम
किशोर
वाक्य
पक्षियों
छत्तीसगढ़
##कथा
छवि
पटक
कम्प्यूटर
##तो
##िनल
अखिल
ग्रा
मेले
ज़िला
फार्म
##ूड
##चकों
माउ
शुभ
तारी
नवाब
कार्ट
सरदार
##ोषित
पैसे
रीति
अड्डे
अफगानिस्तान
##ember
लक्ष्म
दाव
पंख
##िशन
स्टॉक
उष्ण
दृढ़
लाइव
समझौता
आवश्यकताओं
Is
अड्डा
व्यावहारिक
##गीर
##याल
65
##ुकला
अवय
बसे
वन्य
##म्बा
जाँच
सुग
टिप्पणी
प्रसन्न
##प्स
us
##ज़ार
कंट
खुश
कहने
बहती
पार्श्व
##यें
##क्षणिक
आकर्षक
न्यूनतम
##ver
##ोपी
सवाल
बढ़ता
हिंसा
##र्पण
##हारे
गरम
ढां
##परेशन
जैविक
संवेदन
निष
गुर्
सबूत
आजादी
##यत
वंशज
तरीका
महादेव
मुम्बई
स्क्रीन
भागीदारी
अल्पसंख्यक
##जीवन
150
उन्हीं
गोद
पहच
मार्शल
रोजगार
##ue
ट्रॉ
मद्र
खुर
खड़ी
खतरा
बनते
गर्मी
जनजाति
स्वाभाविक
##िंट
कुत्त
रिचर्ड
हथियार
उत्तराधिकारी
##न्दन
टाइम
निवासियों
##ood
कोलंब
गोपाल
बढ़ते
##ography
संरक्षित
##oh
##दूत
##ामिन
चौथे
पाये
अस्वी
जॉ
##धनों
विकार
स्मिथ
##ork
##ोरो
फर
छुट
मैक्स
आश्चर्य
##तार
शती
शूट
कॉर्प
इतिहासकार
##्ज़
खनिज
तालाब
मुद्दों
##यो
##ुस
##any
राज्यपाल
नाव
मेरा
२००७
प्रस्तावित
गंध
##बोर्ड
समग्र
##ौली
##रेखा
मुकद
हुईं
64
##ामान्य
उत्तम
असर
पुष्प
शास्त्री
उत्तराखण्ड
अवै
झार
1985
गतिविधि
##म्मत
असा
उत्सा
हुसैन
शिलाले
इब्
पेशकश
##14
पारि
##ंत्रित
##hi
99
मग
मैंने
##िग
धु
खाना
२०१३
वास्तुकला
आकृति
पढ़ने
ईस्वी
निकलती
ट्वेंटी
44
##कस
उभर
एयरलाइ
पहुँचा
##बेथ
##ated
##पश्च
चरम
१००
यमुना
निर्वाचित
बर्फ
स्का
माध्यमिक
##ानुसार
सांसद
##les
बुक
यान
आदिवासी
##act
टर्म
बारी
श्या
चिन्ह
सोसाइ
##ंडर
नद
184
अंग्रेज
एकता
गीता
छोड़ने
##बन
##हाइट
वनडे
विनाश
##त्प
पड़ने
एजेंसी
कार्यान
बट
ऊँचा
##ेह
##orm
##विल
अगली
सोसाइटी
##18
##ोपाल
घिरा
चार्ट
##वेट
शर
##कार्ब
1971
अकेले
रियासत
##16
##नीत
##लेख
घात
पूर्ति
कार्बनिक
द्रव्यमान
##रेख
पट्ट
सौंद
जिनसे
##डोर
##थान
pl
##चंद्र
##19
जवा
निकालने
राष्ट्रों
##ile
उज
आधे
##oci
##फ्र
##हत्या
शैक्षिक
विट
संसदीय
दायित्व
##रक
हरि
उद्योगों
##ॉक्स
थॉम
भरत
गहरी
अनुरोध
i
##श्र
नक
रोल
विक्ट
##कड़ों
शांत
मुद्र
हेनरी
चुनावों
दीप
मेन
प्रावधान
छोर
कुंड
हिमा
ट्रैक
डिवीजन
##किल
##ख्य
डच
खूबसूरत
47
बलि
स्वस्थ
प्रदेशों
अन्तर्राष्ट्रीय
बनती
वर्गीकृत
##पथ
शंक
कमरे
##ार्थियों
कार्यान्व
85
बेट
गाँधी
##महा
sh
नाभ
##िंग्स
##ack
खर
दाह
माया
व्यंजन
चित्रों
##चंद
ra
गोरख
मद्रास
नकारात्मक
##ोरेशन
पटकथा
छः
##रेली
संतान
नाटकों
मास्टर
##32
##ight
खिल
##सेल
##प्ति
खबर
विकिरण
नियुक्ति
##पेश
परिवारों
##कम
राजी
तंत्रिका
तैय
भूल
कच्च
ग्वाल
आरंभिक
हेल
##मार्क
पार्व
1973
Corn
बिल्
चरणों
लम्बे
##दंड
मौका
श्वेत
##रावट
1972
सेवान
व्यवस्थित
##बै
सौंदर्य
New
ज्वाल
ई०
मनु
नौसेना
जमी
मोटे
बहुमत
39
##ंक्शन
सम्ब
जायेगा
प्रतिद्वंद
##साब
मॉड
अमरीकी
ऑक्सीजन
सेवानिव
वध
##ल्सन
जोध
बातों
भारती
स्ट्रीट
कू
कोच
नाक
##दाबाद
चौथी
नक्ष
बार्
चुम्ब
पृष्ठभूमि
##नांक
आखिरी
इंडोनेशिया
बेटा
२०१६
कैलिफोर्निया
##बरी
##व्यों
अम्ब
स्कूलों
##of
होनी
२०१२
प्राणियों
होम
मेघ
भाषण
उपदेश
##िनि
इंस
इज़
शुष्क
छूट
नरेश
साझा
##याग
ऑप
##ोत्स
1952
अंकित
मजदूर
बादशाह
गिरावट
स्रोतों
##ेव
अष्ट
नामकरण
श्रीकृष्ण
##ेनिस
सत्या
##ानक
भरी
##istan
सहारा
बुलाया
गौतम
लोहे
##ंगों
##क्चर
चीज
##ांकित
1930
उग
अद्
खतर
वयस्क
प्रतिष्ठा
##ोसी
46
टु
रेग
चालक
साहब
सिंच
हराया
संशोधित
उज्ज
प्रबल
क्षत्र
स्पोर्ट
##ड्
##निष्ठ
साधना
##काने
##जियम
अंज
निपट
वैष्ण
##्द
हिर
अनुसू
जरूरी
स्वाय
सीरिया
संसाधनों
le
##स्ते
निगर
रत्न
##क्रामक
थोड़ी
Cornell
अनुमानित
##ागत
चाँ
स्नात
##केल
सृष्टि
प्रबन्ध
##िफ
##समूह
##्यूम
ओपन
##दिष्ट
रोमां
महर्षि
ab
माँग
भूमध्य
समन्वय
400
कोट
जोड़ी
सीखने
सम्प्रदाय
##्रमा
कायम
##क्ताओं
यात्रियों
##नाई
नॉ
आखिर
उपास
आलोचकों
##ैड
##्तिक
चक
##ford
माय
हाव
बिन्दु
##दीप
सैम
कालेज
##मिक
##चालित
अनुयाई
एडवर्ड
##नीस
असली
सिविल
निगरानी
##बुल
##ंसिल
##ल्ली
रिव
अधिग्रहण
विशेषताओं
आह
##द्धा
ख़ु
##हराया
भूगोल
##सेज
नंद
1967
बन्द
छंद
वकी
अचान
मिसाइ
ट्रॉफी
नोब
##क्रिय
आईटी
##सरों
मज़
जोधपुर
दर्शाया
छत
##स्सी
अचानक
##son
इनसे
मलया
उन्हे
कथाओं
प्रतिर
श्रेणियों
##ज़ों
लहर
खोला
##ann
बातें
*
43
56
सटीक
##ँव
##ताव
जेन
##yst
##क्के
कां
वसा
1948
1962
##्रल
ब्या
रखकर
##शिंगटन
बजट
प्रभ
Ed
##बारी
टाइप
निरी
२००६
गुरू
निचले
अस्थायी
सलाहकार
##्तन
दत्त
ऊष्मा
##हद
रुक
सती
दुकान
स्पर्श
##न्च
इब्न
मैरी
रथ
was
कोष
अंगों
मथुरा
आनुवंश
ह्र
##भावना
महाकाव्य
सूचीबद्ध
##णुओं
रॉय
होली
जानने
उत्तेज
बनवाया
##25
माई
२०१५
##शास्त्री
विश्वविद्यालयों
पायी
उठाया
मार्क्स
##डियम
स्कॉटलैंड
मुनि
निरूप
संपादन
खि
##ृत्त
आराम
समुदायों
##इंग
रिज
संयोग
##डब्ल्यू
##यां
##कारा
भंग
परिक्रमा
जागर
एक्शन
मूल्यों
##amm
##गोर
are
दाम
1982
प्रभु
मूलतः
##ae
##ely
##मिति
##नियां
विधा
दशकों
तैयारी
##्वल
नारी
सिंड
पुनःप्राप्त
##ोई
##मेल
##मोहन
##्रोम
##ान्तिक
माइक्रो
##केश
##रिस
Cent
नौकर
मैने
अफ़्रीका
##्ये
आना
वेल्स
दीवारों
उत्सर्जन
##पुराण
कथित
ब्लॉक
गर्मियों
##ंघन
जर्नल
व्यंग
कारकों
##ोरम
मधु
सहमत
##जार
##न्नी
लीला
भूकंप
ग्वालियर
##ict
1956
फाउंड
लिखते
संपादित
तलाश
कूट
वैध
स्ल
कार्यकर्ता
##र्ति
##धिकरण
विनिम
##ooks
अपर
हेर
ईरानी
गुजरा
मलेशिया
रिकार्ड
##कात
##सनीय
1977
संकल्प
भूमिकाओं
##टेज
81
##म्बे
gov
समेत
अद्भुत
शीतकालीन
प्रजा
लक्ष्मण
सापेक्ष
##ोवर
पच
फर्
कागज
मानस
सर्वर
सेल्स
##लाइट
##वर्ग
बेन
##ध्याय
एथली
नेत्र
फिलिप
असामान्य
1983
डु
गाड़ी
##ोग्राफी
विधियों
विद्यार्थी
फो
##पुरा
आस्ट
मतभेद
गेंदबाज
##बम
##्मी
साहिब
गठबंधन
प्रदूषण
नींव
##हासन
##ियंस
बाढ़
संगठित
##कां
४०
##ांसी
गयीं
बाबू
##ंचल
##किक
##याँ
At
फेफ
##35
##गांव
##कोत्तर
कार्ल
राजने
##ृंग
श्ल
सैद्ध
##पू
##हस
ज़ि
भाज
संकलन
कों
क्रोध
निबंध
उत्तरदाय
प्रतिदिन
पहाड़ियों
प्रायद्वीप
##outh
वोट
##udies
हिसाब
क्रांतिकारी
##ोसा
जानवर
उपरांत
निश्चय
भरे
ड्यू
असमर्थ
विभक्त
औस
कथन
त्यो
बहस
साँ
उपर्
सहमति
इंस्टी
आरा
एल्
##कीर्ण
पहुंचे
सीमाओं
मांसपेश
नाश
एजेंट
हिमाचल
##ign
##नाल
बिर
##con
##राई
##सिस
आल
पें
मुख्यत
संगीतकार
आत्महत्या
उक्त
दर्शा
रंगों
स्पाइ
प्रमाणित
केन्द्रित
##95
##फ़े
##ंटों
जादू
लगाए
गुज़र
शानदार
स्वायत्त
##BC
##ोली
01
1979
आपात
परिश
सार्व
##बीन
##मेन
##ेषण
कने
लुई
निकला
अनुसरण
##डिंग
बहि
सफलतापूर्वक
1975
##स्थापन
आनन्द
आवृत्ति
टि
काठ
पत्रकारिता
##पेट
##मां
##ान्तर
चेहरे
त्रुट
दुश्म
नोबेल
त्योहार
सम्बन्धी
##ंडे
##कट्
##स्तर
कहे
गों
निम
पॉप
समाप्ति
परिणामों
उपनाम
##AS
##eral
गेह
##नल
##ase
1978
नामांकन
Pr
##वाने
पेय
एसिड
##क्षकों
##सेट
84
ऑट
गैल
1000
##वैधानिक
प्रिंस
##भौ
##ral
दृश
सुनी
##स्थिति
कोह
देन
क्वाली
तस्वीर
द्वीपों
##गंगा
पृथक्
95
##देवी
##्विन
नाल
लॉस
##पादित
1976
##ोसॉ
वाम
पेंट
##ंत्रिकी
प्रचलन
पारिवार
पुरातत्व
##राइल
शिर
ट्रस्ट
##ros
कब्र
##चन्द्र
जवाहर
रिसर्च
संतुलन
नीतियों
that
एकड़
क्रे
##ब्रे
बाँध
माला
सल्फ
अपमान
ताराम
साम्य
##ata
##ादर
१८९
##ोत्सव
जातक
क्लास
मासिक
पंक्ति
पार्वती
##बुक
##स्पद
स्पी
दुर्गा
पारिवारिक
##जीवी
##िल्स
फंड
संल
हरी
गहरे
उन्नति
विभागों
स्वीकृति
उपर
उतार
मोर्
मूत्र
अनुच्छेद
##ari
54
इश
##land
शही
रचनाएँ
फाउंडेशन
##75
##मंड
शनि
अटला
विद्युत्
वेश
अन्न
रूढ़
मैसूर
बिल्कुल
व्युत्पन्न
स्नातकोत्तर
04
आभ
##धर्म
इताल
पठार
अनुक्रम
उपर्युक्त
आपकी
बोलते
अन्तिम
प्रशिक्षित
नाप
औसतन
गोवा
चित्त
प्रवि
जंगलों
मेजबानी
##भूषण
कीट
दलों
पिंड
सूचित
विवेचन
पत्रिकाओं
##षेक
उर्
चाय
इकट्
उतना
पटेल
वार्ता
यांत्रिक
##und
हू
पूँ
आचार
फ्लोर
##yn
##शनी
##ितु
कब
एन्
खून
##प्रभु
समर्थक
उल्लंघन
##नेल
Ox
इनकार
प्रतिवर्ष
आयी
शतक
हर्
देशी
संभाल
मलयालम
शैक्षणिक
##24
##att
##िबंध
##कू
##फन
##eri
अल्ब
पीने
जिब्र
लाखों
कानपुर
मोदी
चाहती
मानने
कहलाते
तत्त्व
बीबीसी
##छा
##hys
1965
गायन
स्पेक्ट
##शो
##क्की
ग्ला
पीछा
खेलते
शेख
अवैध
ऋग्व
रहें
तुर्क
राणा
पब्लिक
श्रीमती
ऑव
सैल
गाया
देगा
वर्षीय
##ुलर
गार
##चेस्टर
Indian
परियोजनाओं
##ैत
##प्पा
##श्री
भोपाल
मुकाबले
चैंपियनशिप
##पंथ
##्वार
पैरा
निशान
सफ़ेद
फ्रैंक
पहुँचने
##ोटा
कुमा
मापन
घोड़े
तपस्या
तिब्बती
टिकट
मानकों
भावनाओं
##ैली
Ex
##मंडल
ताज
पितृ
इंदिरा
08
##वर्त
इतालवी
शाखाओं
क्रियाओं
##36
74
स्वदेश
##थल
##हरण
1981
गठित
निषे
गुरुत
ख्याति
रचनात्मक
Ab
लैंड
हॉकी
तत्काल
राष्ट्रम
समाजवादी
अवध
टाटा
सिफार
फ़ारसी
##महाद्वीप
इंस्टीट
##जिंग
##ायें
थॉमस
बलों
पृथ्वीराज
##्ग
फेर
अब्दुल
सिंचाई
स्तरीय
सिंहासन
विमानक्षेत्र
##मोर
इक
फि
1957
सीधा
मण्डल
Ro
भले
##वाड़ा
क्रेड
विहार
भ्रष्टा
Ph
आँख
परेशान
सड़कों
##ert
05
##दानिक
अन्व
तुलसी
मतदान
रणनीति
मध्यप्रदेश
विक्टोरिया
##मूल
51
##स्तु
बुरी
कविताओं
##ina
##ुणा
49
टोक
एक्ट
औषधि
जोड़े
##39
वेतन
प्रकरण
महावीर
गज
##ोनें
बिट
लें
भाषाई
रात्रि
आयात
इकाइयों
##AT
##ैस
##int
परे
कहलाती
राजकीय
कारोबार
##मिल
एलबम
वकील
ग्यार
न्यूर
ऑपरेशन
आमंत्रित
भ्रष्टाचार
##न्य
##ound
कंक
श्लोक
##िवि
##ेटर
##ड़ाई
मातृभाषा
##च्य
दुर
विघ
तिरु
शिला
##ana
##चाप
##बान
##ष्णा
समक्ष
प्रबंधक
##erm
नाइ
हंस
फूलों
राहुल
ऋग्वेद
उम्मीदवार
प्रोत्साहन
##iew
58
##ंदगी
Vol
वचन
साझ
1920
फैशन
दिव्य
सर्विस
ग्रन्थों
मैग
व्यय
प्रोज
बैंकों
क्वालीफ
तकनीकों
नैदानिक
पात्रों
महिलाएं
##बिन
Re
##्नों
##्यून
जनक
##लेक्स
शहीद
पड़ोसी
क्रेडिट
##df
जावा
पृथक
वर्ज
डालने
भाजपा
वैद्य
ड्राइव
##ire
02
##र्सी
गहन
जरूर
लेखा
अभिलेख
पुराणों
सिफारिश
07
1969
जोशी
पत्थ
आधा
गिरजा
वेदों
Publish
##ण्
चौक
जंक्शन
History
लड़कियों
खज
##लांग
चिन
जिब्राल
जिम्मेदारी
##34
##लिस्ट
अतीत
भिक्ष
भारतीयों
##दाद
##िएटर
अपन
खार
कहती
संदेह
बहुसंख्यक
##ठों
##ोनी
चट
हितों
Oxford
##तियां
##हम
##ोद
##ors
##ोधी
अधिव
एपिस
मक्का
धाम
निज
लिय
मानता
स्क्र
##स्स
##ाकू
59
बोस
१८८
प्रां
निकलता
लम्बाई
काउंसिल
##ंबित
सदन
##लियों
फ्ला
अपवाद
लॉर्ड
##राष्ट्र
निकटतम
बौद्धिक
प्रभावों
प्लास्टिक
विश्वयुद्ध
##गुण
##छित
वक्र
जगहों
समावेश
स्वागत
##ica
कन
अंट
मोड़
रहेगा
धर्मों
प्रवाहित
माइक्रोसॉ
##ou
##ome
##ोजक
पढ
##दायक
लौह
कार्
क्रू
बनायी
हटाने
##ाईट
##anet
##्यूल
चौहान
एकत्रित
डू
##िप्र
##ार्कट
गिनी
२००५
धूम्र
शिवाजी
##ऊँ
Cl
झर
ऑर्
##ग्रंथ
1974
एस्ट
सुप्र
अद्वितीय
संवैधानिक
##दारों
##ियर्स
निर्माताओं
जेर
नती
हड़
बनार
२०००
प्रोड
मिसाइल
विनियम
शब्दावली
##मस
अजय
##ब्दिक
पैदल
नेपाली
व्हाइट
बैंकिंग
महारानी
टक
##ंटिक
##ल्टा
दीन
बिन
आईएस
कणों
पीपी
लड़ने
सरकारों
जिब्राल्टर
##ces
##भ्र
रंगम
सोना
पट्टी
बढ़ाया
बैक
लक्ष
अंतराल
यौगिकों
##ज़ो
##ाजील
टॉम
वाहनों
पिट
##त्विक
आईपी
##्नी
पारिस्थित
##तू
##चिका
१८५
खतरे
गोला
फैले
सर्प
##22
खुदाई
निर्दिष्ट
##ions
##मन्त
wik
बढ़ी
तीव्रता
##शायर
cont
अवरोध
उपनिषदों
##ater
##क्टी
##ांख्य
जीवनी
अवसरों
मानवता
उपयोगकर्ताओं
केस
छिद्र
जिनमे
भ्रूण
चतुर्थ
प्राइ
अनुयायी
भिन्नता
##eng
##िपल
##ates
रघु
उग्र
पावर
आवाज़
##पूर
गले
गाना
पूछा
बस्ती
योद्धा
##ोश
##amb
cl
##वादा
सूच
किरा
रहित
तात्प
लगाकर
विनिमय
उपमहाद्वीप
##31
##पक्ष
अनुष्ठ
स्तरों
सैकड़ों
##ame
##प्न
दुस
निल
अंडे
पीएच
पुरी
शिलालेख
रूपांतरण
06
एनिम
ज़मीन
अध्यक्षता
##las
साउथ
हैरी
२०१७
अनेकों
मुलाकात
पेज
बुध
क्ले
देहर
मोक्ष
##erv
##मिन
66
भव
##हाइड
मनी
इनको
मन्त्र
ब्राजील
उद्देश्यों
तटीय
दादा
रहकर
सीरीज
##ंभव
##पीठ
##ांट
छप
इलाक़
बारिश
तत्पश्च
78
##ादून
मीन
परिचित
##ark
##oll
बैठे
नक्षत्र
कम्युनिस्ट
##मक
##ोधन
ताइ
रद्द
नगरों
प्रतिबि
##रेज
##नायक
##र्मन
1968
तमाम
सदैव
राक्ष
##मिया
दिलच
असाधारण
स्त्रियों
##सिल
##ोर्न
भोग
हेड
पेट्रोल
तात्पर्य
साहित्यकार
##आन
##तला
##शेष
##ागो
मण
दांत
नर्त
टेक्न
मौर्य
गुजराती
जातियाँ
धूम्रपान
हाइड्रोकार्ब
##णक
41
खाली
लौटने
##टान
##ावत
##किया
अपील
खाता
समझी
धातुओं
पक्षों
विटामिन
##श्
आश्व
उठाने
देहरादून
pr
##सिया
गर्भा
परिषद्
रैंकिंग
अंटार्कट
##amp
##one
##लपुर
ख़ास
चालू
तलवार
भेजने
रंगमंच
कलात्मक
##किट
मुग़
##दरलैंड
इस्ती
गोत्र
पड़ते
बदलकर
सेकंड
पत्रों
जनसांख्य
प्राधिकरण
##ages
एंट
##बोधित
जाएँ
रिकॉर्डिंग
##ज़ल
##विया
pdf
टेक
बड़
कबीर
छत्र
सृजन
ग्रहों
सेल्सियस
##तें
##चरित
नस्ल
##व्यापी
आग्रह
स्मरण
शूटिंग
##उन
##विंग
बला
औरंग
कॉमे
जीती
मेक्स
चुंबकीय
दृश्यों
##ंती
##हिर
सिड
स्फ
अनंत
अनाज
लाइफ
मामला
हमारा
बिलकुल
यूनियन
कार्तिक
अस्वीकार
##der
##बली
बोर
फेंक
ब्रेक
##ॉर्ट
##फील्ड
ईसवी
ऊंची
आस्था
श्याम
निकटता
रिट
मेट्रो
सम्पन्न
##ya
##ुए
##ागर
३१
int
##चिकित
##ech
हंग
1964
जरिए
ह्यू
२००४
आवेदन
रुद्र
जीवाश्म
खाँ
मर्
दिला
ध्वज
भंडार
झारखंड
संलग्न
मार्टिन
##stit
##िनाई
##ूनों
इराक
चन्द
##पनिवेश
आज्ञा
६०
पैट
कष्ट
देहा
इमारतों
पत्थरों
सदस्यता
##rans
##यनों
##ुप्त
सोनी
##वो
<
एर
कस
२००१
##ountry
परिपथ
स्पेस
वितरित
##िक्र
##फॉर्म
हल्के
नागपुर
कर्तव्य
##गिर
##िवर
##indi
##लेक्
##ोसिस
res
पवन
##ूर्ति
फैली
एपिसोड
कठिनाई
76
ऊँचे
शासित
गढ़वाल
औपनिवेश
चंद्रमा
त्रिकोण
##74
##umb
##किम
##ोषक
वेन
##गोलीय
शिवि
##क्रमित
पिछली
साक्ष्य
भाप
##ट्रिक
क्रोम
परिकल्पना
##ins
पूज
पोप
ऑक्स
नगरी
समतल
तारामंडल
##als
##rav
सुप
बनकर
पैरों
##घाट
उड़ी
एड्स
अमीरात
पेटेंट
निष्क्रिय
96
##केशन
घातक
चोटी
सिरे
प्राम
शिकायत
पूर्वोत्तर
##ज्
##लोड
दमन
सिम
पाठक
विनो
तारीख
वैष्णव
सूत्रों
अनाव
कन्नड़
सुविधाएं
विश्वसनीय
##ugh
देह
कोटि
फर्म
अभयार
ब्याज
स्पोर्ट्स
##म्पिक
बेल्
##निर
72
On
गिरा
थिएटर
उपलब्धि
शाब्दिक
उपयोगिता
##लै
##वात
श्रो
बर्मा
उन्नीस
जीवाणु
नीदरलैंड
सेनाओं
प्रयोगों
राजनीतिज्ञ
##रू
##ेलो
##ालों
##्रिज
ऊतक
एप्
भेंट
सोसाय
##ोक्ताओं
वियतना
##नात
सीजन
##ानिया
पहुँचे
Company
क्षत्रिय
सिंड्रोम
##हत
##ank
दण्ड
पहलू
कोरियाई
##एव
##ादे
ऋष
##ोड़ा
Sar
बाण
##ystem
##भुत्व
ऊँची
##मन्त्री
पहलुओं
करनेवाले
bl
##port
रजत
क़ान
व्यंज
गांवों
व्यवसा
##जनों
तेर
##ष्कृत
संजय
##िबंधीय
लेखों
उद्धृत
साधनों
इन्होने
##िओ
##ंसक
##सेफ
53
##ॉर्डन
बाध्य
##रब
##कीन
##ोला
asp
कॉल
आपसी
बयान
अपितु
पुर्तगाली
##थन
03
अदा
अबू
बें
हसन
चैंपियन
सोसायटी
स्वयंसे
##du
##गीत
##थेन
##roup
टेनिस
अन्यथा
##igh
##रीबी
##्लेष
ताकत
प्रभुत्व
##angu
##्रता
शिया
इंदौर
एक्सच
टुकड़े
मार्केट
##ाजा
गिन
##ँकि
##च्छा
हरिद
फ्रेम
पकड़ने
09
##न्तर
600
छेद
1857
ब्ले
मराठा
खतरनाक
तेलुगु
##नै
##ताई
68
३५
##पादक
पाक
सकल
लॉन्च
प्रसंग
तुलनात्मक
##यद
ऐंड
कल्
माधव
सीरीज़
##ma
बैल
1940
इन्फ
चिंतन
स्क्व
जूनियर
बृहस्पति
आइस
थ्र
##ement
प्रज
पाउंड
भाइयों
राजनेता
शिवलिंग
सर्जरी
क्रिस्टल
राजकुमारी
88
##रेटर
रोज़
खासकर
देखता
सोडियम
श्रद्धाल
मदन
करार
लगाना
##fer
##rid
62
##फिया
दंत
##िवेदी
##बेस
टाउन
पायल
कामया
तथ्यों
57
स्वप्न
कोलंबिया
निरीक्षण
भि
##टर्स
##तकों
##ायिक
हॉट
खगोलीय
विक्रे
सर्दियों
##ावि
86
##ामुखी
समाय
कैम्प
बच्चन
वाष्प
योजनाओं
##खार
1966
ग्लो
सांप
२००३
गणतंत्र
अभयारण्य
सैद्धांतिक
##ET
जाट
##earch
असुर
आवेश
दोषी
सशक्त
गणितीय
पंजीकृत
सार्वभौ
##वेग
120
आशी
##ोध्या
गौरी
एंटीब
तुम्ह
दिखने
पूर्वज
सशस्त्र
परिस्थिति
माइक्रोसॉफ्ट
##संघ
##आईटी
फाय
मत्
सतत
चोरी
२०१८
बेचने
आंकड़ों
##रन
##काव
गोरखपुर
फिट
मों
##ेशनों
कहकर
थिये
शाहज
स्की
कॉमेडी
दिखाने
व्यस्त
अध्ययनों
साई
##िनेंट
क्री
शस्त्र
व्यंग्य
प्रसिद्धि
ro
##कर्म
एनी
घाव
आयाम
तरफ़
नाना
जितनी
##ल्थ
कैप
##च्छिक
कॉन्
एकीकरण
##हू
`
इंस्ट
प्रामाण
##इल
छे
Pol
बचे
लिंक
करेगी
परिमाण
प्रचुर
मुद्दे
हिन्दुस्तान
##ैं
##क्टे
##ानंद
घुस
दलित
सरलता
व्यायाम
सकी
हर्ष
देखना
साइंस
##्यात्मक
##ree
लूट
विधेय
प्रवास
अहमदाबाद
##ुश
##प्रति
पिक्च
लुप्त
वोल्ट
तालिका
सदियों
अयोध्या
##ड़न
##सीन
ओम
##ुदेव
##ुराम
मीर
1961
अन्ना
चट्टान
##प्टर
महम
शिम
सहन
स्ने
कृष्णा
संक्षेप
##ढ़े
लिट
##तावनी
त्यौ
राजीव
##धक
##ब्लू
नवी
आपका
क्रॉस
वाद्य
समाधि
हार्म
##मुखी
##ोरेट
ऐल्
खेत
##stitut
भ्रमण
उड़ीसा
##rig
##स्ड
फलों
मेरठ
निकले
प्रेमी
चेतावनी
आनुवंशिक
##ँह
साज
सराह
साथियों
छू
गिट
##india
शोषण
माउंट
पहाड़ों
अभिक्रिया
ब्राह्मणों
##ासा
##दृश्य
गाथा
बनाम
पहचाना
De
id
धूप
नर्म
औपनिवेशिक
##नपुर
1963
आर्म
##राचार्य
क्रान्तिक
इतिहासकारों
##ys
##ैनिक
ind
सहस
9780
धोखा
रेंज
ललित
न्यायिक
Or
##संस्
चौद
दाख
बाप
आश्रय
नाटकीय
पूर्वा
अटलांटिक
im
##काशी
करण
रूढ़ि
रोशनी
कृतियों
संस्करणों
##ेडकर
पीले
मरने
संकल
बनावट
चित्रकला
इंस्टीट्यूट
##कक्ष
##ियारों
बैटरी
el
##सलों
कैद
मल्
आचरण
बच्चा
##तानुसार
##रेन्द्र
अधिकृत
त्यौहार
अनुसूचित
##26
##ादि
##शियन
##स्का
वाज
यूनान
पारस्प
प्रांतीय
##ोरस
##ance
ढूं
ब्ला
गद्दी
बढ़कर
Planet
दर्शनीय
##ियोप
घड़ी
रिवा
कितना
ट्रेड
##पित
गर
कंस
लवण
थोड़े
##ward
##ष्ठा
##िकारक
सुनकर
श्रीराम
हिंदुस्तानी
जेट
लोहा
डीएनए
##तांत्रिक
##ym
##डीज
##स्के
कूद
ट्यू
वाणी
##NA
##ांज
##ोपण
##तरीन
##न्हा
250
जिम
फिन
सिग
पहना
##ारियों
अक्षय
समापन
असह
दुः
घुमा
मेजर
चूँकि
स्वीकृत
प्रख्यात
##ॉर
मय
वॉल
Phys
साधु
ब्रॉड
यॉर्क
कीर्ति
ग्रस्त
संकेतों
विकासशील
##ternational
##ket
##िएट
Bi
##form
टूर
कारों
कोयला
चौड़ाई
दीक्षा
विदेशों
कहानियाँ
उत्तराखंड
1954
##दाताओं
गुप्ता
##़ी
खाद
नैन
शार
लाइट
ग्लोबल
थियेटर
National
द्वीपसमूह
##orth
अहि
खली
कांस
रुपए
सीधी
##प्रकाश
लगाते
सम्भव
अपराधी
##मै
##इंट
Ad
सऊ
##श्यप
युग्म
सुदूर
बेहतरीन
व्यापारियों
##फिल
##ॉर्न
##ोत्त
1945
रावण
हांग
उत्तराधिकार
षड
##ूल्य
१८७
बुंद
साउंड
गिरजाघर
77
##गुरु
##वंशी
जस्ट
डेवल
पाती
भुजा
मधुर
कुण्ड
पंद्र
व्यतीत
##कटिबंधीय
प्राकृत
गोस्वामी
कार्यान्वयन
##98
##ोटिक
भाग्य
##ात्य
##ेटिक
अंब
कमान
पढ़ा
जन्मे
ढांचे
प्राद
उत्साह
अक्षरों
मुकाबला
##पुरम
चोप
रोह
सुस
विवादा
पारस्परिक
##ण्व
98
१८६
जरिये
सिन्ध
सेनापति
प्रोजेक्ट
बल्लेबाजी
ज्वालामुखी
संस्कृतियों
##une
##फान
##वाय
##स्से
Mic
फ़ी
मार्गदर्शन
##ons
##कोण
##ौरी
बिश
नौका
पद्य
भांति
बिहारी
फिल्में
##बेल
ऐल
Ind
उपे
लाई
##श्वास
अतएव
चीज़
जिसको
विज्ञाप
##cycl
मुंह
लेबल
एक्सचेंज
प्रतिबंधित
ओड
छुप
बंदी
स्टील
अनुदान
##37
##oog
तद
##ख़्त
५००
खुशी
मेगा
मुफ्त
सुनने
article
स्मार्ट
पुरस्कारों
##अप
##कोप
ऑटो
चाइ
मुज
लिन
अल्लाह
बैक्टी
विधेयक
प्रोटोक
विवादास्पद
##ars
पला
रोब
महास
अतिथि
लड़के
Res
केन
फॉर्म
बनारस
विलयन
अभिगमन
##वंत
तेज़
बर्लिन
बीकाने
वस्तुतः
लोकतंत्र
##17
##ines
मिड
दुबई
नॉर्
रोशन
##रात्रि
तिहाई
उत्पादक
प्रवृत्त
परिवर्तनों
67
कैन
इसपर
यूके
कर्नल
ग्रैंड
परिचालन
##eth
##ings
##यंकर
असी
मिमी
खरीदने
##ited
परश
##धियों
कैला
दिमा
राहत
सुनाई
उत्पादित
क्रिकेटर
##ोमा
##कांग
##ब्बे
विस
होल
प्रतिपादन
रौ
1949
घंटा
अपहरण
अवस्थित
सम्पर्क
चट्टानों
प्रस्तुति
##फेस
##नाइट
गुड़
गानों
शिकागो
country
उपन्यासों
##रां
##शियम
आंग
कौर
पूल
1946
मालवा
##hed
डीवी
india
आवासी
कितनी
मध्या
उपासना
##चक्र
ढाल
जगत्
निषेध
प्रयोजन
जनसांख्यिकी
##वण
##म्य
##वली
##ीदा
uk
बँ
जन्
मरी
पुनर
ग्यारह
मंजूरी
टर्मिनल
चुम्बकीय
##ual
##गित
##टका
##ृंगार
आवरण
इर्द
क्षण
प्रास
मल्टी
मुग़ल
सामुद
निभाया
विषाणु
स्तम्भ
##तिया
चिर
टॉप
काटने
वृद्ध
अनुकरण
प्रतिकूल
##ग़ानिस्तान
##दिव
##र्मी
##ल्हा
##िल्ल
गलती
रिंग
गुलाब
चक्कर
भयंकर
अलंकार
इकट्ठा
पुराता
दीक्षित
##ंचित
मीना
##ohn
##हीत
##ण्डा
##न्नाथ
1955
विवेक
प्रयाग
संक्रमित
प्रजातियां
##डू
##नम
##ther
टर्
एकाद
चाचा
फेडर
मोती
रूचि
उष्मा
उदयपुर
सेंट्रल
##ave
##rib
##डों
##पोल
##ourn
कंध
बास
मुग
अल्म
संतु
फ्लैश
रेटिंग
इण्डिया
पर्वतीय
श्रद्धा
##plet
दाल
फोर
##oogle
##पुत्र
स्पे
हमने
२००२
##िवर्तन
अंकों
अनुमो
##िपि
कीं
गुड
नली
##नीकरण
भेजे
अवलोक
उपहार
पाश्च
रेस्त
आवासीय
प्रतिद्वंद्वी
प्रतियोगिताओं
पठ
३२
##स्पी
डिक
पिर
##शिष्ट
नमूने
पसंदीदा
मेक्सिको
##AN
°
##ीरी
##ैनी
मक्
ईमान
द्रो
नीले
गिर्द
आतंकवादी
निवार
ब्राउन
##hem
##िडा
##angl
##नामा
##फ़्त
ठंडा
नित्य
मालूम
बीकानेर
विलुप्त
सर्वोत्तम
##टित
##ज़िक
##टीवी
176
इंक
एंग
कांच
धनुष
आदित्य
##kar
##िज्म
##स्मान
भूषण
वनों
हार्ट
पेड़ों
##द्दा
पेन
##ल्लाह
कोने
पैसा
बेंज
दुसरे
सुगंध
शैलियों
हानिकारक
सामुदायिक
##श्त
82
##ंगनी
फलन
बॉय
##्यूरो
वसंत
##cyclop
परिवेश
मुँह
लेंस
##ड़ियाँ
##म्परिक
प्राथमिकता
##दों
##शाक
Af
##शेखर
छठी
खुली
सोचा
श्वसन
इंग्लैण्ड
##ani
##सुर
भैर
समझते
मुकदमा
रक्तचाप
एसी
##कर्षण
##वर्तन
आर्द
सीटों
पर्वतमाला
##हेल
##ीर्ण
भील
##conom
##नागरी
धीमी
बर्न
गरीबी
बेस्ट
क्रान्ति
हथियारों
स्वतन्त्रता
##ौड़
##िपुर
दां
बहने
बैठा
नैतिकता
परशुराम
नामांकित
बेल्जियम
वायुमंडल
वाशिंगटन
##थाम
##क्सन
१९९०
स्पेनिश
##ise
94
##बीआई
160
फेस
मैग्
##शर
##जेब
##ागा
##वालों
सऊदी
आलोचक
कमीशन
पार्ट
##ऑक्साइड
ओलम्पिक
महोत्सव
स्वचालित
नाइट्रोजन
178
धरो
लाए
##िल्ला
गिटार
बताती
##थित
अंद
ज़ी
धनी
एंटर
त्वर
फ़िर
आक्सी
ऑपरेट
प्रभाग
##ax
##शंस
He
Sc
४५
Col
अवर
##िमंडल
फ़िल
हालत
प्रकाशक
##are
##ारू
##ोंस
##ाजनक
खाल
##ज्जित
जगन्नाथ
शिक्षित
साझेदारी
ऑस्ट्रिया
रेगिस्तान
##ंजक
##ेला
Bl
##्रिक
III
दबा
सोशल
घूमने
संवत्
सुभाष
सौंपा
कांस्य
दक्षता
ब्यूरो
भक्तों
##बारा
विम
अव्य
त्रिभु
स्वदेशी
प्रक्षेपण
##धिर
पान
नींद
पेपर
अवसाद
लाइब्रे
अनुप्रयोगों
##लु
##ंघम
##बूत
##able
##कांत
Eng
डाली
##प्रसाद
कुत्ते
तेलुगू
पैटर्न
स्टैंड
सुप्रसिद्ध
##ढा
##टेल
##राइट
##िश्र
अनू
फोटो
सवार
एंड्र
महमूद
हमलों
मत्स्य
अनिश्चित
##ts
##reat
php
अंगू
यूनिक
स्कैन
हड्डी
जहाजों
स्वीडन
सामान्यत
डो
##गिरी
##टिंग
Lon
धान
अवकाश
सल्तन
आर्कटिक
उत्तरार्ध
परीक्षणों
पारम्परिक
##ID
##करार
rel
एम्
काँ
दर्
##मांसा
सिंधु
स्वरुप
##ery
##्यूप
मले
1951
comp
डांस
धरोहर
रिश्ते
दोस्तों
संबोधित
##ढ़ा
उपजा
बीसवीं
टेलीविज़न
##दानी
##फ़्ट
सेतु
##नेस्को
##क्तियों
राजदूत
भारतवर्ष
प्रगतिशील
##्रह
रिल
##बिनेट
तैनात
रंगीन
##क्या
##र्दन
दुख
रूम
ढाका
सिया
हफ्त
दर्शक
चोपड़ा
आतंकवाद
कश्मीरी
इस्लामिक
नगरपालिका
##ान्स
##ाराम
1959
कृपा
बंगल
कट्टर
ट्यूब
कंपनियां
##र्ध
घेर
वाई
ऑटोम
फील्ड
मरम्मत
चलचित्र
##कै
##मीर
##ोपा
८०
##संचार
ड्रम
यूनिट
Lonely
बिजनेस
##ms
•
##eop
##ंगत
##ेरी
दाँ
धूल
सेव
दोहरा
ब्राउ
सिक्किम
अखबार
अनुष्ठान
##ुली
me
असंत
पूँजी
समकक्ष
महाराणा
Geography
प्रधानमन्त्री
विद्यार्थियों
ap
शाल
संक
##ज़िला
##नियाँ
क्रो
कथानक
खारिज
थाईलैंड
मुखर्जी
प्रदर्शनी
संवेदनशील
सीई
##यंत्र
इम्प
मलिक
योनि
सुरंग
आंकड़े
मूलभूत
सिकंदर
द्विवेदी
प्रतिरूप
##ंठ
##ंटो
##ड़क
87
काय
##लैण्ड
मेयर
स्तूप
##कृतियों
अत्याचार
कार्यवाही
ब्रह्मांड
##ियरी
अभिय
मधुमेह
सेनानी
कारखाने
गर्भाशय
Publishing
##ग्स
##ents
##गामी
आदान
इमाम
आँखों
भीतरी
लम्बा
पर्याय
सल्तनत
साप्ताह
स्थापत्य
##वाट
##शेर
Sci
पाग
##टेस्ट
##स्कों
अवयव
ऊंचा
घटित
वकाल
कितने
पुनर्ज
देवनागरी
##ake
##ंटा
फाल
सना
##ित्री
नाते
बांस
DV
##ोजनों
आघात
क्ली
गर्भाव
वियतनाम
हॉलीवुड
##fo
##now
ad
##पंथी
##ल्फ़
इधर
कृष
केल
मोम
##र्वाद
राइट
प्रोटोकॉल
पूर्ववर्ती
प्रारम्भिक
Man
इमे
एलन
रत्
##भ्रंश
आपदा
आपरा
पूजन
यकृत
गिरने
सिडनी
संज्ञान
स्थिरता
स्टेशनों
##घन
##ेली
##ोदय
##बंदी
##वेदी
सीम
फायर
मकान
लगाई
फसलों
राउंड
हराकर
सम्बद्ध
मध्यकालीन
विशेषज्ञों
स्पेक्ट्रम
##ram
##िदास
केर
डॉन
आत्मक
ख़त्म
भाष्य
कुश्ती
साप्ताहिक
##28
##डेन
##शित
आक
##ुलित
तिव
पाउ
वाट
एजेंस
चांदी
युद्धों
हिंदुओं
##पण
##म्र
##य्य
निधि
वकालत
हज़ार
समुचित
अध्यापन
उपाध्यक्ष
##िसन
##ोलो
##रायल
1953
1958
John
बढ़े
सूजन
नजदीक
नॉर्थ
पुरूष
अनुभूति
आक्रामक
गणितज्ञ
विद्यालयों
कच
##inal
##ापति
खपत
मगध
ज्ये
डोमेन
विराज
##ब्दियों
प्रतिबद्ध
##कूट
##चिव
Soci
नासा
बादल
सफाई
सिलस
खन्ना
बहुधा
स्प्र
आपराधिक
तीर्थया
##arl
##ातु
##गाँव
##गिरि
चंप
##वाड़ी
उतनी
भावी
युवाओं
इलेक्ट्रॉन
प्रोग्रामिंग
##न्ता
##वेली
कंब
परमा
भाषी
सकने
विकृत
इस्तीफा
z
##न्ने
800
खनन
दोप
नज़
उर्जा
दिखता
अस्थिर
दरवाजे
संरक्षक
गर्भावस्था
##ild
##टने
तोप
वैन
##मान्य
1936
संकु
औरंगजेब
परिपक्व
तुम्हारे
प्रतिभाग
##मेय
##र्षण
बताने
दुबारा
संख्याओं
हांगकांग
अंटार्कटिका
##शंकर
तैर
##कुमार
भूटान
नदियाँ
##ox
##फु
##जारी
##रेपी
अंतः
पतली
प्या
##ादित्य
उजागर
घूर्ण
उज्जैन
भेदभाव
हाइड्रोकार्बन
##27
बजाए
म्यु
स्टोर
स्राव
भूमिगत
विज्ञापनों
सेवानिवृत्त
97
##ेश्व
अँग
रतन
##ार्टर
चीजों
प्रोफ
फ़ाइल
स्विच
पुत्रों
समाजशास्त्र
web
पोट
##ोलनों
बहुल
बोले
भण्ड
सैंड
##विद्या
चढ़ाई
दुर्भ
दुश्मन
विन्यास
ऑक्सफोर्ड
Ag
Wh
सदृ
कपास
भरने
रनों
जमींद
तिवारी
रोकथाम
##ime
69
##evel
##वाहन
##ूकता
##ंगलोर
गुलाम
टेक्स
विकिपी
राजशाही
##ays
ठे
अनि
गोक
##ानन्द
##ोराइड
आजाद
एस्प
बनना
कच्चे
स्टोन
समर्थित
उन्होनें
प्रतिस्थापित
##isc
##शिला
चेक
##adesh
पाली
सैयद
लन्दन
सूचका
##त्तियों
दोबारा
मशीनों
प्रवासी
श्रमिकों
##है
##ife
##tar
##डेड
##सीड
##ॉयड
७०
मणि
शोर
##्यूशन
नियत
वाटर
##radesh
Atlas
इंगित
कॉम्प
पीड़ा
लेफ्ट
नजदीकी
विफलता
एथलीटों
कानूनों
ईसापूर्व
बैक्टीरिया
विकिपीडिया
##ोत
##ूलन
##व्यव
##ंतुओं
कुरु
पोशाक
आर्ट्स
ठहराया
निष्का
अग्रवाल
पूर्णिमा
##माल
##लीम
##िंटन
बिख
एरिक
पूरक
खोजने
अपनाने
कैबिनेट
एयरलाइंस
चन्द्रमा
विश्वनाथ
##ोवा
इंटेल
घटकों
प्रविष्ट
##29
##pe
##क़ा
##जन्य
निः
पंथ
कोमल
ज्वर
दायर
अस्पष्ट
पर्वतों
Encyclop
आशीर्वाद
पुरातात्विक
et
##जिकल
not
आयन
ठहर
indi
##जीरिया
उपायों
स्वाधीन
मूर्तियों
##वेज
##ाइप
फू
##ally
##line
तीर
मोटी
विषम
फैसले
सेक्स
##angladesh
उष्णकटिबंधीय
##थिल
##लाप
61
##ingh
घिर
रेजि
लेजर
जानता
##ull
##कवि
##धना
अजी
##स्टीन
1942
कोले
गाइड
मल्ल
सपना
पुण्य
सामंत
शान्ति
चित्रकार
##बस
##तुर
पिन
##रेस्ट
समित
हज़र
पैलेस
निभाने
पर्यवे
मिथिला
व्याख्यान
शंकराचार्य
जस
३६
##चयिता
अंडा
कहाँ
गायब
दस्त
बतला
संतोष
जोड़ता
जागरूकता
पाश्चात्य
पड
Inc
##स्कोप
कालीन
संकलित
सिक्के
विश्राम
##ks
##ोआ
##ंगर
do
ढल
एडम
##कार्ड
नर्स
साफ़
असंभव
द्रवि
बिल्ड
अनुशासन
रूपरेखा
दूरसंचार
परंपराओं
पूर्णतया
कॉर्पोरेट
लाइब्रेरी
विस्तारित
वास्तविकता
##फ़र
am
##न्नत
इंत
गोम
आकलन
पशुप
सिखा
##ढ़ियों
जितने
पायलट
रहमान
स्टीव
##म्ब्रिज
छात्रा
हार्डी
वृक्षों
निष्पादन
##AM
##विच
वु
##न्टी
Gen
डूब
साय
कोटा
अजमेर
जोन्स
लिखना
मानदंड
सम्बंध
विद्वान्
##21
##टिया
##यंती
उधर
दाद
शपथ
तलाक
वरुण
वाहक
आंखों
दोपहर
श्रीम
खुलासा
एंजिल्स
शब्दकोश
श्रीनगर
हार्मोन
टेक्नोलॉजी
भविष्यवाणी
International
##33
##षाण
भै
##एक्स
##ेंशन
##ोहित
175
पोषक
बस्त
रिज़
Guide
कमांड
ड्राम
संकाय
इंग्लिश
फ्रांसि
प्रशंसकों
लोकतांत्रिक
##तृ
##ौन
##indu
नान
पिघ
यूट
समर
1900
कारी
लायक
देखरेख
रचयिता
निर्णायक
ॐ
##enn
##ब्ध
##ूर्त
झूठ
डैन
साइड
कश्यप
तेज़ी
चिड़िया
मध्ययुग
प्रमुखतः
##row
##दनी
##मीय
##इंडी
##फीति
ढूंढ
नैनी
विचल
अलेक्
संवेद
हज़रत
संरचनाओं
##bert
##क्कन
##ड़ने
देंगे
सर्किट
दस्तावेज
हरिद्वार
##गढ
WW
sc
शव
##ौकिक
आदर
Comm
अलगाव
बॉम्बे
सिन्हा
Physical
भावनात्मक
##५०
##ali
##िकरण
##ूद्ध
Raj
##फार्म
उद्गम
बालों
##कारियों
##ications
##ular
कालिदास
##कॉ
##भाई
##घरों
चंडी
पचास
रैंक
सन्त
अणुओं
ग्लोब
फैक्ट
भागवत
शिविर
मामूली
मेजबान
हिस्ट्री
##sp
71
रच
##ाइज़
संगत
##उद्दीन
##स्थानी
कैमरा
कोर्स
गिनती
कुमाऊँ
पंद्रह
ब्रह्माण्ड
##AC
##नास
शह
यूक
रवी
सीन
पहलवान
प्रहार
वांछित
चिह्नित
वस्तुएँ
रेस्तरां
वेस्टइंडी
पुनर्निर्माण
##ातों
अनो
टाई
दार
सुदृ
सोलह
आगामी
घंटों
##किस्तान
युक्ति
गेंदबाजी
समानांतर
बख
##िनाइ
##ुल्य
Jul
उदा
फीचर
मेहता
प्राचीनतम
##हाउस
इको
एडी
एकदम
ऑप्ट
केशव
बोला
भरपूर
गुर्जर
बरकरार
शुरूआती
इलेक्ट्रॉनिक्स
##रख
झग
अरुण
क्षम
क्षय
लंका
खरीदा
बांटा
भास्कर
मेवाड़
शर्तों
रेजिमेंट
इलेक्ट्रिक
##्ह
##२०
##itt
##ट्ठ
##ाग्य
Dec
सद्
##ccess
##ण्डित
बसने
सभ्य
मनाने
तन्त्र
सामग्र
सम्भावना
शताब्दियों
##ड़ो
##न्ज़
##वाहा
##स्टा
जुट
शिष
श्वास
##ालन
qu
##ंकृत
##न्सन
आत्मकथा
##ंजर
##फेयर
Jan
घने
पौधा
बंधन
बंबई
सम्भ
अमिता
आर्कि
ब्लॉग
सरोवर
स्पर्
आयुक्त
जॉर्डन
विल्सन
आखिरकार
##eh
ऑर
##ural
##वराज
कूप
नाद
बॉल
समू
१८१
##िकाएँ
अठार
चौड़ी
फोर्ड
अनुयाय
जाएंगे
उत्तीर्ण
प्रांतों
##ton
##टलर
##टेक
लघ
##ative
##जमेंट
बाजी
चतुर्
डेमोक
विमानों
##ier
##ावट
##दर्स
इंडी
निया
पैके
बुरा
रोका
साहस
गतिशील
नवीनतम
प्रामाणिक
##ोफ
##ओसी
९०
May
आवं
लार
इक्व
तेंद
##evelop
पेशवा
नर्मदा
मुखिया
बिलबोर्ड
##मेट
मलय
ऊंचे
ओमान
टैंक
नीला
योगी
अनुचित
उन्नीसवीं
मान्यताओं
##oy
ac
यी
तिलक
दिमाग
हस्तांत
प्रवर्तन
प्रतिरक्षा
63
डब
##eric
अनौ
हल्का
विरूद्ध
##३०
##old
##राग
se
##भक्त
Int
मॉन
कस्बे
उत्प्रे
समृद्धि
##नेर
##ेटी
वेल
केबल
फ्ले
बेगम
फ्रेड
विघटन
न्यूटन
संभाला
ब्रदर्स
दुर्भाग्य
##IS
##af
##ॅक
##काम
##गेट
##रेस
##लेम
##वचन
73
89
up
##ब्वे
170
कुं
पीला
सूरी
खुदरा
पत्ते
गोल्डन
मलेरिया
प्रश्नों
हक
##प्रद
बचत
हज़
##नाल्ड
##क्टेयर
97881
ऊतकों
##कांक्षा
कपड़ों
गोपनीय
नायिका
मैदानों
अपेक्षित
जवाहरलाल
##टू
##एससी
##स्सा
##ोग्ल
179
मिठ
अण्ड
ऑपरेटिंग
बलात्कार
##नेड
##भाज
##ांडर
##रेक्ट
रणनी
South
आयरिश
जनजात
प्रभा
डीवीडी
प्रिंट
रविवार
##ैक्स
आधी
माद
लची
##िपत्य
नामी
फारस
बेचा
युगल
वरन्
कब्जे
शिमला
सराहना
क्लार्क
ज्येष्ठ
लक्ष्यों
संश्लेषण
उर
डेल
##वियों
घेरे
##स्फीति
##टेनमेंट
श्रमिक
##ept
##irst
##कारक
##ड़की
दूत
मेस
रेत
मेहन
सूफी
स्वे
आर्थर
उत्पर
मिलान
सौन्द
क़ानून
भंडारण
एयरपोर्ट
##दै
##iam
##ौदा
##च्चय
##र्गन
##ल्लभ
##िकाल
आसन
पदो
मरु
पंचम
Sarah
उर्वर
निरूपण
अन्वेषण
डेनमार्क
##TS
##se
##मह
##ley
खल
##र्फ़
पहने
बीटा
असमान
कुशलता
जिंदगी
ड्रामा
बुंदेल
आधारभूत
मार्गों
Institut
मांसपेशियों
79
##प्टन
##हसास
News
प्राग
सीटें
स्टेन
उद्धरण
उपजिला
राक्षस
महासचिव
इलेक्ट्रो
प्रतिपादित
##िटर
##क्लि
एना
मदर
हाँ
##िकियों
माहौल
सारणी
सुनील
अवलोकन
कामयाब
##म्बाब्वे
गुरुत्वा
बीमारियों
##ँस
##ung
३४
छठे
झलक
बगल
भाल
##ेनिया
कांट
world
कपड़ा
पुनरा
अर्द्ध
सुन्नी
निर्वाह
पूर्णतः
भोजपुरी
}
तन
चोर
मिर
चम्प
सूखे
छोड़ा
दर्पण
निर्वास
कछ
न्य
पोर्
फ्रै
वादा
सख्त
हीरो
कटौती
गर्दन
नमूना
बिस्म
कुमारी
पत्तियों
##ॅन
£
कद
##ागरण
बगी
मला
वुड
वोल्
डेवलप
वीरता
अध्यापक
प्रस्थान
परम्परागत
राजस्थानी
##AP
##हीर
##ुला
CD
ऐड
##शिल्प
अमीन
आयतन
hindi
एकदिव
सुविध
कठिनाइ
रिजर्व
##न्ज
##ूपी
And
1932
1939
सदृश
##स्टिंग
ख़ुदा
कमांडर
जोड़कर
अपभ्रंश
उत्तरदायी
##केन
##चों
##िवल
##काया
##मापी
आलू
चोल
डेट
लेब
##ियाना
बर्क
अन्या
निंदा
बुखार
अभिन्न
कालांतर
एकदिवसीय
अनुपस्थिति
##76
##्ध
CO
पाण
विरा
सबके
केदार
अभिनीत
##erg
##ool
##शान
एटी
##ंत्रण
1937
दुःख
पागल
१९४७
ग्रीस
आरक्षित
गर्भवती
रूढ़िवादी
##ta
##ब्बी
जनन
डार
भली
लाप
स्टा
एहसास
मानवा
झिल्ली
स्विट्
अधिवेशन
बाजारों
##शक
##ंबा
##तेह
भती
##भक्ति
कराची
वनस्प
समस्याएं
शोधकर्ताओं
##दित
गुट
अद्य
कपिल
डीसी
सुलभ
हुयी
विनोद
विलिय
Applet
रिश्ता
##एफए
धा
उमर
##नुसार
1919
##ुद्दीन
कॉमिक्स
अभियांत्रिकी
##ale
bi
##मोरी
डिस
##निर्म
##ाइटिस
अब्ब
उसपर
बताई
एप्पल
गैसों
टाइगर
बदलते
भागने
समझना
##akistan
सच्चाई
Appleton
DVD
चित
डाई
मोड
##निहित
लेबर
१९९८
##iction
कराता
गेम्स
बाइबिल
टेलीफोन
स्पर्धा
संरचनात्मक
##िअ
##uss
नृ
##ower
##ुकुल
असल
घोट
झेल
शैव
संपी
भूभाग
गार्डन
अल्मोड़ा
##ury
##गान
##देन
##ुअल
Le
all
चाप
बहर
चौदह
ज़ोर
फिलि
बाएं
विंग
उपजाऊ
निराश
प्रसव
पाठकों
सुप्रीम
नरेन्द्र
परिष्कृत
##ावती
भगत
धमकी
भूरे
उत्थान
मुगलों
सावधानी
फ्लोरिडा
##ध्द
##क्यू
##वर्ण
सरा
अल्फ
दुष्
आजीवन
आभूषण
प्रकारों
क्रियान्व
bangladesh
##45
##ope
##आउट
##डान
##महल
##ames
काॅ
लां
##स्थता
घुड़
तम्ब
तराई
##ेश्वरी
बैंगलोर
वेस्टइंडीज
राष्ट्रवादी
##ग्ग
##ोही
##चालक
धड़
शरद
उधार
चश्म
डेली
बनीं
हीरा
चौड़ा
जागीर
##na
##लाद
##ेज़
पैन
##स्राव
##्वर्ड
1924
यहूद
रेशम
ल्यू
प्रमेय
कार्टून
##बीएस
१८४
पॉली
१९९९
##ार्द्ध
किंग्स
विचित्र
##पाट
##वहन
##ुरत
##बिंद
##ाज़ी
खां
दया
फौज
##ature
क्षै
छन्द
सीडी
गेहूँ
ग्राफ
पुष्ट
भित्त
वंचित
विधवा
दिशाओं
परमेश्वर
##ose
##लता
लय
##रखाव
##ियान
ओलि
समलै
अमिताभ
सिर्फ़
विक्रमादित्य
##कोष
##तिज
##ज़ाम
दरभ
##धिष्ठ
page
ग्रै
##र्लिंग
##studies
पण्डित
राजभाषा
मध्याह्न
अभिव्यक्त
##ala
700
Del
##स्पेस
१९८०
इंकार
इनपुट
जिसपर
महानगर
रखरखाव
चमत्कार
राजनयिक
क्लोराइड
कैम्ब्रिज
##ume
##ट्टे
##प्पी
ईंट
इन्द
कराई
##निर्देश
गोविंद
गुज़रती
अनौपचारिक
पर्यावरणीय
countrystudies
##जित
For
चूह
बतौर
मरीज
अकेला
बर्तन
श्राव
गायिका
बलिदान
एयरलाइन
क्षमताओं
विश्वकोश
जनसांख्यिकीक
##iness
टेबल
तूफान
स्नेह
पोलैंड
उपज़िला
सम्पत्ति
##ोत्
130
उपस
टोर
मकर
दीपक
##ournal
खोलने
जिनको
पुजारी
विकलांग
##CA
##लत
ओं
पिया
मानद
ट्राइ
वर्षो
जयसिंह
प्राइम
प्रदाता
यूनेस्को
वायुसेना
उपभोक्ताओं
##DA
##SP
##पेयी
Sch
चलन
फ़ुट
सवाई
हड्ड
फायदा
विजयी
दरभंगा
किताबें
डाउनलोड
नाभिकीय
पूर्वजों
सुसज्जित
पारिस्थितिकी
##ंसी
##संगत
युर
##ियमित
अरुणा
आर्मी
इंसान
एलिज़ा
क्रिसमस
सौन्दर्य
चक्रवर्ती
##urn
##ुर्
मं
##asth
Mus
घटा
तुग
##क्षीय
##ोलियन
अकाल
जोसेफ
परास्त
विमर्श
संप्रभु
निरपेक्ष
##क़ी
##बरे
कैट
टैग
##ारोपण
##िक्शन
इसमे
देरी
रावल
Times
उपभोग
सार्थ
स्टैन
हिंसक
गाँवों
कारावास
लाभदायक
विनिर्माण
##ety
##ौला
##एमएस
##्वान
हजर
जवान
फाइन
फ्यू
विषा
ऑडियो
निर्द
सहारे
##ानुभूति
विलियम्स
हिन्दुओं
मंत्रियों
##ock
सूट
1928
अरवि
राजू
दीवान
स्वतः
टोक्यो
पुनर्ग
प्रसंस्
क्षतिग्रस्त
##ll
##डाई
##िशर
##cess
नसी
सील
1931
1934
किशन
नागर
पाकर
वैसा
गीतकार
##ेब
##ैंट
##ाँसी
##ेटेड
##योग्य
कॉर्
पहनने
प्रसि
वार्ड
शान्त
स्पिन
फ़िल्में
समीक्षकों
संज्ञानात्मक
##जुए
##डीन
##डेट
##ौरा
92
##भद्र
##वर्स
आशय
उनपर
प्रात
नरसिंह
नैनीताल
राष्ट्रमंडल
##ार्ग
हदी
1941
करीबी
ब्रिज
परिदृश्य
##्ने
८८
करन
कमला
कैमर
नारद
##ाधिकार
##िप्राय
कराना
निकलते
विक्रय
ज्यामिति
सिद्धार्थ
##इक
##ara
गह
पैग
##स्मिक
##ोटाइप
cent
अग्न
कॉपी
फीफा
लैंग
जयंती
निकली
बहुता
भगवती
##ियन्त्र
स्टोरी
अनुभवों
ग्राम्य
प्रायोजित
##ix
##फ्रे
Arch
शिरा
सेंटी
##निर्मित
गोविन्द
द्रविड़
व्याप्त
सिद्धान्तों
##दत्त
घोल
राघ
खंडों
रोमान
मैदानी
सम्राट्
##ट्टा
##प्रण
##रचना
new
##िल्टर
कुवै
दावे
बुरे
१९६०
निवारण
जीवनकाल
पंजीकरण
सुधारों
युनाइटेड
सत्याग्रह
अनुयायियों
##धाम
##ीयर
दाग
बान
राश
शाप
सुई
##कानों
फिली
१९९१
##मूर्ति
भवनों
ब्राज़
यंत्रों
रचनाकाल
विद्रोही
केन्द्रों
सांख्यिकी
साधारणतया
##बंद
शन
##माउथ
##िम्म
गाव
पादप
रोचक
रक्षक
रॉकेट
होम्स
सर्वथा
सुंदरता
कोशिकाएं
उदाहरणार्थ
विशेषज्ञता
ओज
##वकों
its
pol
नें
पीस
फीस
1926
कस्बा
##oo
##डीए
##बैक
##दूरी
चुप
भूख
##संहार
इब्र
मण्ड
कुंजी
चीजें
बैठने
त्वरित
प्रणाल
विषाक्त
हेक्टेयर
##सीए
##ांग
fl
शत
##मानी
Rep
अनिल
which
ओडिशा
डालता
द्विप
चर्चित
नारियल
सांद्र
प्रत्यय
प्राइवेट
सुविधाएँ
##sh
##रेल
घी
प्य
१८०
##र्करा
अल्ट
चाली
बाबर
पूछता
उपक्रम
हाइड्र
श्रंखला
दिलचस्पी
व्यंजनों
एजेंसियों
रिकॉर्ड्स
##oss
##बाग
##ाकर
##ोदर
##माना
##म्बल
##र्ता
##ोग्र
BBC
मरण
लीन
गिना
बन्ध
समाह
न्यूज
राजेश
डबल्यू
##चिकित्सा
पुर्तगाल
यूनिवर्स
Institute
इलेक्ट्रान
##BS
##fic
ऐन
३७
उदर
नित
मतों
रिहा
कैलाश
जीर्ण
नवजात
ट्रिपल
वयस्कों
यहूदियों
##rop
##कली
##थिक
##बों
##िप्
Em
##स्मा
Gov
वक़
July
अनुभ
एम्प
गिरि
जलीय
संदि
तार्क
मिर्च
घूर्णन
संतुलित
नागरिकता
##eci
##गणित
##यनगर
##वाहक
बडी
राठ
शॉट
##ravel
ताना
तेरह
जागरण
बंदूक
वरदान
सवारी
साइकिल
सातवीं
म्यूजिक
ब्रजभाषा
गुरुत्वाकर्षण
##II
##परक
##बिट
##बेट
##षित
ऊन
##lish
उगा
वॉन
##ालिया
भैरव
अस्थि
ऐल्को
कलाओं
नास्त
लियोन
विद्यु
संध्या
शाहजहाँ
##बीर
##सिम
##book
##कथित
##क्सप
महि
टर्न
लगीं
books
कोयले
अग्रसर
अमृतसर
स्कूली
अनियमित
प्रचालन
सूचकांक
समर्थकों
एयरलाइन्स
एलिज़ाबेथ
##तिप
##ट्टी
125
ठिक
उड़ा
उदास
पल्ल
बियर
about
दिनांक
सम्पादक
नियन्त्र
नेपोलियन
राजेन्द्र
83
##धारक
भजन
रिम
हॉप
##eople
##र्जित
पीसी
साइन
सिग्न
तोड़ने
फेफड़े
राज्या
रेसिंग
न्यूट्र
युधिष्ठ
शिष्यों
##48
##OS
##au
##ows
##ple
##फ्फर
अमा
३००
1935
##ध्यापक
आशंका
कराते
निकोल
प्रोप
अवयवों
असंख्य
एकादशी
नक्काशी
भूतपूर्व
हार्डवेयर
##ink
##ूला
93
##atch
ढेर
##द्वार
##भिषेक
##क्षमता
##नेश्वर
कमेटी
उस्मान
विराजमान
सार्वभौमिक
क्रान्तिकारी
##गें
७५
##सराय
छीन
मूर
मोल
इनमे
डिवा
महेश
सूरत
##स्ट्रा
इन्टर
चयनित
टैक्स
ट्रां
अवशोषण
दुकानों
मछलियों
पिक्चर्स
वर्णमाला
हार्वर्ड
##हाट
कदा
नूर
वेध
##वस्तु
ढाँच
मेटा
क्रूर
गोरखा
बसाया
रिक्त
छुट्टी
दृढ़ता
निकलकर
मानसून
द्वितीयक
पहुंचाने
शास्त्रों
##65
##ati
##ino
##ril
##कने
##ject
##चन्द
घोर
धरात
सीआई
अंगूर
किरणों
त्रुटि
याचिका
अनुकूलन
तुम्हें
अभिप्राय
आंदोलनों
##ाभ
##यता
शू
३३
##्रमण
1914
1922
क़ब्
भेड़
षड्य
पड़ोस
रोहित
गुर्दे
डेल्टा
प्लेयर
विपक्ष
##शैली
बोन
युन
##दर्शक
1908
ऊर्ध
पराव
रोटी
story
इरादा
एलिजा
पलायन
मैथिली
रेड्डी
सहकारी
फ़्रांस
इंडस्ट्री
##ंदे
##गना
##ृश्य
टरब
##press
भावों
संचरण
##विश्वास
दाहिने
विशुद्ध
लेफ्टिनेंट
##MA
##ick
Pa
ढ़
##यानक
##िसिस
ऑब्
वाक
वात
फ़्ल
सब्ज
डेविस
तेलंग
धर्मा
निमित
##usiness
दूरबीन
अपशिष्ट
उपरान्त
बहुतायत
डेमोक्रे
फ्रांसिस्को
Gl
गान
सोश
##ग्रेड
##मित्र
पुष्
सजीव
१९९६
उद्भव
खेतों
खिलाफ़
बहरहाल
ख़ुद
पाइप
मिर्
मिलन
शोभा
कार्बो
##क्षात्मक
क्षैतिज
गंभीरता
##शास्त्रीय
उल्लिखित
परिपूर्ण
बुंदेलखंड
##EC
##ES
##उड
##ल्ह
##ुका
कॅ
गॉ
घृ
मॉल
सीर
सेठ
सन्न
##वांशिक
ख़िला
डॉक्ट
त्रिश
निजाम
जटिलता
मुद्रण
कहानियां
##ठित
##सात
##िपु
##िण्ड
कवच
डीन
दयाल
सीने
हजरत
काबुल
क्वीन
चेष्टा
केंद्रों
शिक्षकों
##ene
##गिन
##माय
डील
1912
आरती
लौटा
व्ही
##्लेक्स
उत्पी
सनातन
##ार्टमेंट
अफ़्रीकी
उपलब्धता
विक्रेता
विशेषताएं
##rim
यम
##ंजलि
##पुरुष
##ालयों
##िस्टर
1944
Brit
कॉफी
युवक
अरबों
टक्कर
फ्रंट
श्रवण
##ट्रिक्स
निपटने
शिकारी
सीमेंट
सहयोगियों
##49
##we
##्यक
It
ताँ
हें
गुणा
चतुर
खुराक
अलेक्ज
Pradesh
जानेवाले
स्वयंसेवक
हिस्सेदारी
अफ़ग़ानिस्तान
##anc
##गिल
##ोपै
##atic
##स्ला
Har
टोनी
नन्द
बारा
म्या
विन्
अफगान
नागरी
पालतू
बदलती
बद्री
आउटपुट
गारंटी
मेमोरी
अवार्ड्स
##evelopment
युधिष्ठिर
##ुद्व
यंग
##वास्त
वायर
दायरे
स्थाई
निकाली
ब्रायन
कुत्तों
क्लासिक
क्वालीफायर
##TV
q
##गृह
##ज़्
##echn
his
पेल
1873
1918
टेलर
सूचक
जुर्म
डालते
मंजिल
मेहरा
##ccessed
टैक्सी
history
स्वाधीनता
सँ
नमः
##ities
##ution
##स्तीन
aspx
इकाइ
सलमान
दोस्ती
समुच्चय
##ंछ
##emb
ओस
दह
##नांग
##पाही
##ासुर
रिए
शोक
##ालियन
1921
ड्रै
भरोसा
##ानुक्रम
indiat
वाल्मी
Pakistan
##13
##बत
##क्म
Im
##लेखन
##ूद्र
par
कौश
लोप
स्न
##स्कृत
१९५०
कुरान
नाभिक
मापने
विश्लेष
सामग्रियों
##ढी
##ॉफ
##हंस
मजा
रेन
व्ह
##मितीय
फोर्
मंदी
स्या
बरेली
हंगरी
##धारियों
ऋषियों
ध्वस्त
परवर्ती
स्थानांतरण
##ोमन
ag
##त्ते
155
आदम
आलम
अराज
क्रि
पराग
क्षमा
लिस्ट
मुद्दा
उपेक्षा
प्रथाओं
अभियानों
दूरदर्शन
मैनेजमेंट
पेट्रोलियम
##ॉइड
##पालन
110
एस्
कैफ
1929
Asia
उभरा
जंतु
मोनो
लौटे
व्हि
##ाचार्य
पांडे
भयानक
मीनार
##निरपेक्ष
प्रसंस्करण
##ओँ
##aya
Bh
##एफसी
net
खाई
तंज
दिग
१५०
आयरन
दिक्
सीएस
सुलझ
कामों
विषयक
अमरेली
विचारक
शेक्सप
सोमवार
सर्वत्र
परमात्मा
दीर्घकालिक
##बीए
##ोजे
Co
##ल्डर
चेर
होश
##जेक्ट
1917
ज्वार
ड्यूक
सुदृढ़
तथाकथित
मॉडलिंग
प्रवक्ता
दस्तावेजों
##्श
##red
##ग्ल
##ियट
##िलर
##गारी
##यर्स
##सीएल
##स्पे
140
अलं
दहन
बैर
भूप
##स्टोन
अंधे
पाचन
यूरो
रियल
भीष्म
ह्रास
फ़्रां
सैमसंग
ऑक्साइड
गुरुकुल
##arn
##टेट
##डेल
##पोषण
कतर
भुव
लता
##डियों
##ुल्ला
##ोक्ति
पीपल
लीटर
मनोहर
स्पेश
अलौकिक
जबलपुर
चंडीगढ़
निमित्त
उत्तेजित
चट्टग्राम
मैनचेस्टर
Qu
४८
##सेसर
यजु
शीतल
##ार्जुन
टीमें
पदार्
बदलता
संगमर
जायेगी
तार्किक
निरन्तर
श्रद्धालु
प्रतिनिधियों
##23
##नाद
##पुत
108
टिम
लोम
arch
पाना
बनवा
अनुपम
दुर्बल
उन्मूलन
बहुमूल्य
समायोजित
##िआ
##ालो
##्ते
छु
##चुअल
##बियन
des
पंप
सफर
##न्दगी
comm
कतिप
लाला
घुड़स
जर्सी
होस्ट
ताइवान
इज़राइल
कंट्रोल
महेंद्र
पद्धतियों
##टु
Rev
एपी
कोप
दरअ
नकल
पाव
पिच
कैंप
कोर्
चुनी
निपु
भीषण
चाँदी
फाइबर
हवेली
अलीगढ़
सिक्कों
शुक्रवार
##व्
##ीण
##ade
##amil
##लिटी
##ोष्ण
Sur
संब
##लीकरण
1938
चिट्
बेरी
##asthan
China
झीलों
ग्रंथि
पीएचडी
संस्कारों
##डिश
ओब
##ides
टाय
##स्क्र
फतेह
विले
##त्यक्ष
कौटिल
दरअसल
विभेद
देहांत
रायपुर
##ictionary
##lam
##ॉडी
##uary
##uman
##ूषित
##्राह
एवम
तंग
ह्व
##न्ध्र
एलिस
जाएं
रखें
##साइक्ल
दिखाए
पराजय
वक़्त
सब्जी
अनुभवी
पूर्वक
वैशाली
कविताएँ
ग्राउंड
संकीर्ण
स्टेट्स
तेलंगाना
समारोहों
चिकित्सकों
##रथ
##rab
91
घुम
फुल
यहा
सरी
##तावास
##सेक्स
##स्केट
##ेंट्स
ईमेल
क्रय
रेसल
कतिपय
परिधि
आराधना
कब्ज़ा
भगवान्
लड़कों
##73
##aur
##याप
IP
##न्सी
900
शिप
##च्छाद
थर्म
सेवक
बंगला
शुभार
गेंदों
जंतुओं
शेयरों
सिपाही
स्पाइडर
मंत्रिमंडल
##pg
##ode
##जुट
##पदी
##बड़
##ुकी
मेक
गामा
डाले
दरगाह
फॉक्स
महिमा
स्टाफ
पुरातन
शाखाएँ
यूट्यूब
विशेषताएँ
उत्तरदायित्व
##68
##जिन
##ाम्
tw
##ज़ीन
बूट
सूख
गुहा
चुनौ
लेडी
शर्म
कॉमिक
पारसी
अद्यतन
सिन्धु
लाभकारी
संगमरमर
संदिग्ध
एलिजाबेथ
##AR
##मणि
ev
##ष्ठी
घुट
चीफ
##्रेशन
आईबी
लुईस
शाका
ज्यों
##ियोग्रा
मराठों
वृत्ता
ध्रुवीय
संकल्पना
तत्पश्चात
धर्मशास्त्र
##CC
##विता
##सीआई
sup
खिंच
ट्रा
परिम
फाइल
मिया
लाना
हैंड
trans
अनन्त
आठवीं
पित्त
मिलना
संतों
अहिंसा
दिलाने
रेखाओं
वाक्या
शनिवार
मूर्तियां
आस्ट्रेलिया
##ाठी
MS
##टीसी
##तन्य
##निटी
##रीबन
किम
part
अपार
आलेख
गैले
बैडम
सपने
रेलगा
सच्चे
आश्रित
वृत्ति
शर्करा
सातवें
क्षुद्र
मुख्यधारा
##पै
##बूझ
##ोधक
##्जा
##्मन
##टेकर
गंत
दीं
पंज
शॉप
बाला
सीखा
दुष्ट
विकृति
जन्मदिन
सम्पादन
उदाहरणों
चैंपियंस
##उल
##प्ल
##शिव
##ीयू
##्रेल
चिल
१८३
1933
गुला
जीने
दरों
आख्या
निपुण
प्राप
पहुंची
मुक्के
मुजफ्फर
{
ا
##कास
कॉर
डिफ
नॉट
##ridge
##सत्ता
ओल्ड
मूवी
उपवास
कामना
समाहित
कौटिल्य
गोलाकार
दर्शाते
परेशानी
मजदूरों
ब्राज़ील
राष्ट्रवाद
##भे
##ंडन
##रीद
डै
##ital
rev
मसल
##जीवित
अहीर
जैसल
ट्रक
१९९२
क्रीम
गवर्न
Econom
बोलचाल
सेवाएँ
आक्साइड
इमारतें
ख़िलाफ़
विजयनगर
होनेवाले
कार्यकर्ताओं
##ाख
##way
##म्फ
##्तर
Kh
Mo
##ब्रा
Ass
गड़
##धियाँ
एचआई
अभिनव
चालीस
मार्वल
पांचवें
विवादों
रोमांटिक
अप्रत्यक्ष
##sc
##ures
##दीना
चैल
1905
ग़ैर
चूना
एकजुट
औषधीय
डिस्प
लेनिन
हिस्ट
परिसंप
मरीजों
प्रशंसक
त्रिपाठी
फिल्मांकन
उपन्यासकार
##टकर
##पंच
##िसी
बीत
मुझ
मिनी
१९८९
कल्चर
##anguage
##र्याप्त
घटनाएं
विंडोज
संतुष्ट
किलोग्राम
कार्यालयों
##सद
##४०
##eter
##ियोल
##ोगिक
sub
कलम
बंट
##क्तिक
1911
गिरी
ड्रे
बसें
दुर्य
लड़ाकू
सामरिक
##ological
##टके
##भाषी
राध
लाओ
एडिन
माइन
मैक्
आज़ाद
जमाने
अस्त्र
भिक्षु
दूतावास
विलक्षण
विवेकान
यूरोपियन
साम्यवादी
छाव
नोक
##ेक्शन
गवाह
##नारायण
पार्थ
मेहनत
हाइपर
नियोजन
Journal
टुकड़ों
व्यवसायों
हिंदुस्तान
##pr
##ium
##alth
##ासित
Rel
अमे
काच
जोग
बहाल
झुकाव
ताजिक
एक्स्प
ज़रूरी
पड़ेगा
निवेशकों
न्यूज़ील
##राबी
प्रह
##धारकों
कर्ता
काटकर
वक्ता
स्थूल
आकस्मिक
वाजपेयी
अध्यात्म
##72
##ange
##क्को
105
Nov
कोक
चाँद
सांग
कुवैत
ग्रेड
ह्रदय
महत्वा
उपग्रहों
##oft
##pur
##ंधा
##ोटो
४२
##ृप्त
आगम
काद
वर्च
##ोग्लोब
चार्ज
जलप्र
फेस्ट
हिटलर
ज़रूरत
डिप्लो
पत्तों
समाजवाद
##led
हौ
##ंडों
##रियर
Med
औरत
बडे
१८२
##ट्रैक
ब्रु
भेजी
मीरा
रसाय
संकर
##बेरिया
दोहरी
बाधित
संचित
आन्ध्र
सिद्धि
किताबों
परिश्रम
लेखांकन
वन्यजीव
इंजीनियरी
##its
उछ
आदिम
मन्त
ग्रिड
अभिषेक
निराशा
पदार्पण
##पार
Be
ओप
##किंस
##बानी
मृग
खंडन
बिशप
रोबोट
प्रिया
त्रिपुरा
संक्रामक
मध्ययुगीन
उपलब्धियों
धर्मनिरपेक्ष
##ck
##eld
इथ
##लीला
Dav
रूट
तैरा
दानव
हत्य
##ज्ञानी
क्लिक
एचआईवी
चैतन्य
पाणिनि
##uth
##भट्ट
फूट
सोप
चेयर
नकली
माइक
सबको
ग्लास
पुकार
बुन्द
हिल्स
होतीं
अनुभाग
अर्थों
फर्स्ट
मुकदमे
एनिमेटेड
बहिष्कार
बिल्डिंग
विज्ञानी
अपर्याप्त
प्रासंगिक
##IC
₹
##मुक
Br
खस
थल
##ब्बा
col
अगु
गुम
पंक
सिप
##स्केप
गोपी
चयाप
प्लस
भद्र
मापा
फांसी
वापिस
विधाय
टरबाइन
नाटककार
वस्तुएं
दुर्योधन
मूर्तियाँ
कार्यात्मक
##ft
##फना
##ारीय
एलजी
खाया
टकरा
नारा
स्लो
१९७०
१९९५
कठपुत
अर्चना
सालाना
फेफड़ों
बाजीराव
मेगावाट
सोलहवीं
प्रतियोगी
##तिन
##िंगर
##ेंजर
nic
पिप
रबर
सघन
June
Stat
अगला
कलाम
कैल्
स्टो
Polit
inter
खातों
बर्फ़
सहभाग
##सूत्रों
ज़िम्म
टेलिवि
आश्वासन
परमाणुओं
प्रतियां
वाक्यांश
विशिष्टता
महाद्वीपीय
प्रतिस्थापन
##IA
##oz
##uch
##ंजस्य
डेढ़
धमनी
सीईओ
##ulture
धरातल
नाकाम
मानकी
विक्ष
सकेगा
हल्की
अलंकृत
प्रकोप
ब्लूज़
Studies
संवर्धन
अवस्थाओं
रामचंद्र
रेलमार्ग
जनजातियों
प्राध्यापक
##ets
##ext
##हाद
##ouse
##प्रे
##सेवा
##ोस्ट
नरम
मता
योर
##right
प्लै
मुड़
सर्ग
##ipedia
अयस्क
क्षीण
डार्क
ताम्र
वीज़ा
वीर्य
ब्रिगे
मिलाया
समाजों
आक्सीजन
आधिपत्य
##खल
नं
##डीपी
##िसिन
बुश
मुआ
Will
कच्छ
##ेंटीना
कार्प
लद्दा
हफ्ते
क्वांट
जैक्सन
कॉलेजों
गर्भपात
फ्रांसिस
अंतर्निहित
##ंय
##ढे
##ott
##शोथ
ent
उलझ
जिल
2020
उठता
##ोत्तरी
Govern
आरोपों
कैप्टन
जेरिको
भाषावि
अवशोषित
ज़्यादातर
##ओन
##गेल
##साल
इव
##राशि
ध्य
नाच
सरस
सीक
##ांजलि
खेली
वरीय
लगाये
तरंगों
मणिपुर
पृष्ठों
प्रोटेस्ट
##ER
##मनी
##श्न
नग
सग
यूई
रुख
वैल
अपरि
जड़ी
पैनल
महाप
मुना
लैंस
लोधी
##ानुमान
अभिगम
साबुन
विकारों
उपाध्याय
बैडमिंटन
चिकित्सकीय
##१०
##लाने
##ाविद
काइ
धुन
बोझ
लोड
सान
##ुपयोग
1925
चिली
वादी
##यात्रा
सिलिक
##्यूटिंग
मौलाना
वोल्टता
##96
##ूतन
has
pre
उल्
राख
##ोडिया
अंतत
धन्य
पनडु
बिली
रमेश
##ायोटिक
index
फैलाव
##ization
धाराओं
नाइट्र
मिलेगा
लक्षित
हड़ताल
डिज़्नी
प्रतिस्पर्धी
##याव
Ne
##तिकी
नक़
##िवर्त
टॉवर
मच्छ
लाकर
स्के
खुफिया
दाखिला
बिंदुओं
##ुव
##ेता
hy
##arth
##िक्ट
शंख
सिन
##कार्य
##द्वाज
पैतृ
मूलत
##प्रभाव
चूर्ण
बेरोज
मकबरा
निभाते
महासभा
रहेंगे
क्रिप्ट
मूर्तिक
स्वच्छता
Publications
##190
##वित
##ट्ठी
##दस्त
reg
ईथर
तित
दही
लास
शतर
क्वी
ड्रा
एरिया
कंट्री
कार्यो
भित्ति
भ्रष्ट
रोनाल्ड
राष्ट्रमण्डल
##PA
##ुज
##ont
##वारा
##ाद्ध
##्सीय
अपघ
##जातीय
१९९७
अकादम
कप्ता
मानती
स्टेज
करवाने
गुजरती
ड्राइवर
पहचानने
स्थानिक
सामंजस्य
शेक्सपियर
##ॅट
##णीय
##omen
##मतों
fil
वृह
शोथ
साठ
1943
##ावस्था
कन्नड
फोर्स
कन्नौज
जैसलमेर
गृहयुद्ध
प्रोडक्शन
फोटोग्राफी
##ंबल
##वाइ
##म्मा
##लोनी
बीट
##cient
##ensus
Camb
meri
परिच
बाली
रसूल
वेने
March
पैतृक
यूरेन
अद्वैत
मुद्रित
मंगोलिया
मूल्यवान
विस्फोटक
स्क्वायर
कॉर्पोरेशन
तत्पश्चात्
##ट्य
##खाने
##डीज़
##रिटी
Mah
नॉन
गैंग
गोले
##जरलैंड
गेहूं
जिक्र
ध्येय
मॉरिस
अपराधों
पुरोहित
बास्केट
सुगंधित
##दीव
जज
६५
##ears
##पेरा
Art
##तानों
फर्श
स्वय
१९९४
बचाया
होंगी
इंजनों
मधुमक्
Research
प्रेमिका
आस्ट्रिया
##ंवद
##बर्न
रिफ
##देशीय
##निवास
have
जूते
पालि
Singh
ऑर्डर
खंडहर
चेहरा
Volume
प्रतिल
स्पेनी
फेडरेशन
अंग्रेज़ों
##yl
##ंदरी
तान
##ंहिता
Sept
इष्ट
काँग
बालू
१९७१
पन्ना
आरक्षण
इजरायल
लेनदेन
समझाने
तम्बाकू
त्रिभुज
षड्यंत्र
##85
##काई
la
##कावट
##प्रो
##य्यद
यमन
सीए
##कर्मी
झरने
धुरी
साधक
उठाकर
किंवद
फास्फ
क्रमिक
दांतों
डेटाबेस
निरूपित
meridian
विनिर्देश
indiatimes
##por
##नाग
##ाधिक
one
नशी
##inist
##ोनियम
उर्फ
चमकी
हदीस
##ission
##कारिता
April
डालकर
सिग्नल
दर्शाती
मातृवंश
मार्क्सवादी
##ोंट
##ख्ता
##ण्डी
सेम
York
लिबर
Delhi
बहनों
कंक्रीट
निर्भरता
##कीर
##ज्म
##फेर
गेज
जता
लीज
वहन
हुक
##ेरियन
गार्
टोपी
बताए
बायो
elect
ऑस्कर
खलीफा
जलाशय
मदीना
वर्णों
अल्बर्ट
इंजेक्शन
##िं
##que
##हॉल
रीत
##istor
Phil
wiki
द्रौ
मौके
सूअर
१९४८
चलाते
जिज्ञ
जॉनसन
टेम्प
##ulation
परजीवी
फिलीपी
लेखिका
सार्थक
किनारों
रामकृष्ण
यांत्रिकी
वास्तुकार
अर्जेंटीना
##oph
गत
##कांड
##स्तू
एफ़
एली
जोन
पीर
वैश
##मुक्त
अक्त
परोप
सौदा
##यक्तिक
किण्व
घोड़ा
चालुक
लिखकर
स्पीड
गुफाओं
गायत्री
आकाशगंगा
क्वार्टर
प्रधानता
प्रवर्तक
कर्तव्यों
##द्म
##्सन
५२
##स्तक
##्रास
गॉड
चिह
##व्यास
अधिस
दादी
पुरा
बहाव
##ड़ियां
कोस्ट
पादरी
बम्बई
बेसिन
सिंधी
स्पैन
हिप्प
system
क्लबों
समर्पण
वेधशाला
कठिनाइयों
प्रायोगिक
आलोचनात्मक
पग
##यन्त
Aug
कन्
घुल
प्लग
मुहा
समझे
लगाता
हिमाल
##प्रणाली
जरूरतों
टेक्सास
द्रौपदी
डिप्लोमा
वाल्मीकि
दस्तावेज़
वनस्पतियों
##io
##इर
no
##क्ले
Ele
मेग
सहि
कामक
गुंब
चौकी
छेड़
जनित
शेखर
२०१९
##istics
कराती
चैनलों
डाक्टर
सन्देश
सिल्वर
सुनवाई
औषधियों
December
पीढ़ियों
प्रतीक्षा
##so
##६०
##बाह
##wood
##मानस
##वर्ट
##ोर्ग
gen
टेर
१७९
##क्टिव
##खियों
अभिम
ठंडे
पश्त
१०००
##पूर्वी
आह्वान
केन्या
संवेदना
जिम्बाब्वे
##NS
##ुंग
Se
ढी
##क्ला
##बेरी
अटल
एंथ
मुन
छिड़
टाइट
बैनर
हेल्थ
जानबूझ
मालदीव
इक्विटी
नरेंद्र
मित्रों
प्रेमचंद
अलाउद्दीन
पूर्वानुमान
##fl
##ओल
##जै
##arg
अभय
छान
धमा
नाह
पिल
फ़ै
लिथ
Cont
वैभव
##ंगाबाद
वाल्व
अब्बास
भाषाएं
मिलाने
अराजकता
कृतियाँ
ब्रिगेड
अभिलेखों
कारखानों
क्रिस्टो
प्रमुखता
म्यूज़िक
चिकित्सीय
##air
आण
##ract
##ript
##फाइनल
##ीनिया
अलवर
कंधे
नायर
मृदा
फैलने
अपूर्ण
तकरीबन
प्रेरक
यूईएफए
सिगरेट
सेकेंड
स्पार्
प्रशस्त
फिलिप्स
वैचारिक
आपातकालीन
उत्परिवर्तन
मुद्रास्फीति
##ायु
केप
जबर
रां
अनवर
सौदे
क्यूब
बिन्द
रुधिर
दूरस्थ
प्रौढ़
फेसबुक
मिस्टर
लेबनान
क्वांटम
विधियाँ
फोटोग्रा
सहानुभूति
एंटरटेनमेंट
##ka
##मरण
##ेंश
UK
##iter
##ब्रू
##माही
##ायीं
##ुलिन
##्विक
Feb
बिछ
##न्धान
##ियनों
1906
1927
अंचल
कमज़
चांद
छावनी
प्लान
साइबर
बिताया
लिनक्स
वर्तनी
स्टाइल
पितृवंश
बोलियों
प्रेक्षण
महावृत्त
समलैंगिक
##भीत
##ives
##य्या
##ाग्र
आपे
Fran
जगदी
टिका
##िक्षेप
चैत्र
निचली
बैठकर
मर्सि
संपदा
अरस्तू
निशाना
पूर्णत
मास्को
मोर्चा
January
बस्तियों
अपराधियों
प्रान्तों
फिल्मफेयर
डेमोक्रेटिक
##ner
##विग
##विष
##ायंस
350
हैर
##सेट्स
##ासपुर
डालर
दाने
मारी
वर्क
सौते
अफवाह
टकराव
परमार
सहस्र
कैथरीन
पांडुल
पहुँचाने
सोशलिस्ट
प्रदर्शनों
##IN
##ole
##विश
आफ
##फर्ट
Cal
डेर
##तालों
##पुल्स
1916
दाता
भागी
मुर्
Books
लौकिक
प्लांट
व्यर्थ
सितारा
परिप्रे
तुलसीदास
पार्टियों
हस्तांतरण
वृत्तचित्र
##46
##ren
##घोष
##नेश
##बर्
##िन्
५५
##पिंग
##श्रम
div
अज़
आति
नमी
सदर
##र्घ्य
##सिस्ट
आप्र
इस्म
कैंट
चमड़े
प्रता
रूपये
विराट
श्रेण
सिखों
सेक्टर
क़ब्ज़ा
प्रादेश
यूक्रेन
वर्चस्व
वोल्टेज
स्कॉटिश
उत्पीड़न
आश्चर्यजनक
##IT
##्युम
##्यूड
Sal
mov
ढोल
सोर
हैँ
आभास
गर्ल
गर्व
दाँत
पॉटर
यूसु
गैलरी
तुल्य
नज़दी
रवाना
राजनय
विध्व
##duction
महत्ता
Science
नरसंहार
निर्वाण
विपक्षी
हज़ारों
समितियों
##99
AD
अछ
३८
##ists
##टीपी
भाद
मैड
अजीब
थकान
१९९३
कॉर्न
मनाते
एंजाइम
एक्सेस
मित्रता
पुरस्कृत
फेस्टिवल
wikipedia
नाइजीरिया
स्क्रिप्ट
##ne
##पूल
##मयी
##माइ
##िफ़
bh
##cept
असं
एंव
कमर
हीन
##ुलेशन
ठंडी
तालि
पेशी
मसलन
प्रेष
हैमिल
आत्मसम
निष्ठा
लोकगीत
विशेषण
संग्रहित
नेटवर्किंग
##अस
CS
No
##नाथन
##्युद
साद
##ished
दयान
पूरब
ब्लड
भालू
राजक
कवरेज
फोर्ट
हवाला
हुमाय
आज़ादी
गुलाबी
मुलायम
समझाया
सल्फेट
तस्वीरें
स्वर्गीय
September
Encyclopedia
##ोकस
##कोहल
##िफ्ट
raj
आइड
पोत
रियो
आयुर्
संजीव
सेंसर
ड्रैगन
नारंगी
मॉडलों
मन्दिरों
राज्यसभा
हड्डियों
उम्मीदवारों
कार्यान्वित
व्युत्पत्ति
##akh
##ंशी
##जीन
##टाउन
##शासन
Oct
धारक
प्रॉ
हेली
१९७५
१९८५
##वास्तव
##ाजीपुर
जीवंत
सर्दी
स्टाल
##रावस्था
दिखाते
साइटों
स्टीफन
शुक्राणु
पुनर्जीवित
प्रतिष्ठान
राष्ट्रीयता
##हु
##व्यू
dis
edu
तले
दिश
1500
1910
पर्ल
हरित
इलाका
कथाएँ
रहेगी
निकासी
##स्पेक्टर
जिन्होने
चित्रकारी
प्रतिज्ञा
आत्मसमर्पण
##त्थ
##ोमेट
##्योर
टूल
तने
फ़ॉ
हीम
एनाल
चढ़ा
मनोज
संयम
नाराज
बेंगल
रियास
अब्राह
स्तुति
निलंबित
पुनर्जागरण
##FA
##own
El
ऐं
165
ईसी
गाए
ठंड
publ
लाती
वाइन
दिखती
लीड्स
सोर्स
##ंन
##ese
##hel
gl
##ring
##ग्बी
##ूर्व
जुन
फ़र
हला
##19091
##ेरिया
गाते
ग्ले
चलाई
बायर
सिंघ
सूखी
##मात्रा
google
पीपुल्स
बुद्धिमान
अन्तरराष्ट्रीय
##LC
##व्स
एएम
जेफ
अवधी
times
नलिका
नैशनल
प्लूट
मर्या
मेमोर
लड़ते
हटाकर
कुंडली
दरवाजा
अरुणाचल
क्रिश्च
मालिकों
रहस्यमय
युवावस्था
##OR
##ube
एश
शम
##म्बो
##ुमार
met
एबर
बटन
लेप
लैस
##र्मन्
1904
आयोड
करों
ज़रा
रीढ़
लिवर
वज्र
दैत्य
असमिया
जोड़ती
मारिया
एंड्रयू
फिलीपींस
निकटवर्ती
श्रीवास्तव
##OL
##्टा
गन
मॅ
##ावरी
जलस
सिए
##ating
##ग्राफ
##बारों
किन्
कॉमन
छद्म
ठहरा
बगैर
विवश
सलीम
##ricket
क़रीब
जानना
दर्जे
Travel
मॉनमाउथ
एडिनबर्ग
जलप्रपात
पुनर्गठन
बिलासपुर
वॉशिंगटन
अनुसन्धान
प्रयोक्ता
साउंडट्रैक
~
##नेन
ऑड
४१
##बीएन
##विले
गौण
भटक
1923
over
ओलंप
पीली
बहुप
स्वै
हिमन
हिरण
इरादे
बिगड़
##च्छादित
ज़माने
दामोदर
मैत्री
अनुमोदन
गोपनीयता
तीर्थंकर
संगठनात्मक
सांख्यिकीय
स्टैनफोर्ड
प्राप्तकर्ता
##els
##ोबा
चप
##गर्भ
##ासिक
jpg
per
कंड
कुआ
चचे
जोस
हिप
##ional
छाती
भैंस
सज़ा
इंडीज
घूमते
जड़ों
जाहिर
बेड़े
सस्ते
प्रेरण
सीनियर
स्पेशल
English
अवशेषों
व्यवसायी
व्हिस्की
सेमीफाइनल
कार्बोहाइड
परिप्रेक्ष्य
##झी
##oth
##चिन
८६
##वाचक
##ाल्ड
rec
किड
शाक
##नेटिक
कोंक
शरीफ
१९८६
##स्तरीय
first
जीनोम
टूटने
ड्रीम
पहनते
वेंकट
अन्तर्
कनेक्ट
खलनायक
जोड़ों
वार्नर
स्वार्थ
गैलेक्सी
सेवानिवृत्ति
##ंची
##कोड
##नार
##ator
##reen
##च्ची
नस्
पाम
मैट
४००
##ondon
##्रदाय
##्रियल
अमान
जॉनी
प्यू
##स्टर्स
देसाई
पैकेज
लड़का
आवागमन
उन्मुख
कर्मों
पहुँचती
स्ट्रोक
डेवलपमेंट
प्रतिरोधी
प्रतिबिंबित
##समी
##ुरू
AP
ऊँ
९८
##ांडू
अचल
कनि
चेन
नृत
रान
##सैनिक
Book
this
कहां
ताजा
द्यो
पतले
मोशन
रूपी
स्टै
##पोरेशन
उठाते
चाइना
जरुरत
मिठाई
मोटाई
तरंगदै
पतंजलि
लैंगिक
आरम्भिक
इंस्टिट
पशुपालन
श्राद्ध
यजुर्वेद
स्वेच्छा
हैमिल्टन
##42
##86
##जाल
##ाल्
po
##ाबाद
##ावार
शटल
##मिक्स
आन्त
कटाई
पढाई
परवर
##्रीकरण
कुलीन
फ्रॉम
बर्मी
बेल्ट
सजाया
बालाजी
यन्त्र
संस्मरण
सितारों
अनुकूलित
महानगरीय
राज्याभिषेक
प्रतिद्वंद्व
Me
##क्रा
##ताना
##प्ले
##सिटी
##ोत्र
WWE
गौड़
चेतन
मेहर
सोया
##रेक्टर
आरएनए
एक्सट
कैमरे
क्वाल
ढांचा
##ication
Americ
निज़ाम
शेरशाह
आर्किटे
मध्यकाल
उत्कीर्ण
नामीबिया
भारद्वाज
##arb
##lex
##riv
IV
##िलीन
##ेशनल
छाल
सक्
१७७
अनाथ
अभिस
आक्र
घृणा
वादक
एथलीट
गिरोह
जड़ें
वेदान
##चिस्तान
अधिकता
घनिष्ठ
##ोग्लोबिन
हाथियों
##94
##ij
##ूती
La
Mc
##केतु
##दिया
##िनिक
##्वाइ
Web
कड़
क़ी
टेप
सूब
##कात्मक
Hindu
जगदीश
दिलीप
फिरोज
बाँटा
शारदा
नियामक
इंटरफेस
नियोजित
संभालने
गिरफ्तारी
प्रतिबन्ध
Development
##log
##ुमा
##योगी
गेल
जोश
ढाई
फंस
बॉब
लक्
blog
ट्वे
बाहु
##ामित्र
तटस्थ
रेडिय
शतरंज
##भूतियों
भण्डार
लाइनों
सावित्री
छात्रवृत्ति
##डार
##ापे
##ूरा
ओष
कत
##ever
##क़ात
##ज़ोन
##वर्क
115
कुँ
सुक
##विशेष
##स्टार
##ोबाइल
1913
जासू
परित
लटका
सर्च
##स्टाइन
##ोपरांत
कीमतों
क्रूज़
खनिजों
जादूगर
नवीकरण
बोस्टन
सोनिया
प्रचारक
अनावश्यक
डॉक्टरेट
निष्पक्ष
शाकाहारी
भुवनेश्वर
सुविधाजनक
इंस्पेक्टर
प्रवृत्तियों
op
##धातु
app
कंठ
डॉग
ढूँ
पों
शकु
संच
1909
चलाए
टावर
देनी
बेली
मानो
सूडान
ऑपरेटर
दिखाता
मनमोहन
रजिस्ट
कनेक्शन
प्रदत्त
अप्रत्या
नियंत्रक
फ्रेडरिक
न्यूयार्क
आदिवासियों
Ac
##स्फ़
##ोक्त
135
tem
who
एजु
वोल
किशो
गान्
जिया
नाज़
बीएस
##तन्त्र
चौथाई
रग्बी
लार्ड
स्काई
इच्छुक
उच्चतर
ओलिंपिक
प्रोसेस
साधारणत
स्वीडिश
वर्णक्रम
पंक्तियों
विस्थापित
##urg
##जतन
##ैले
BM
नह
६४
##ागार
##ुकता
##्युर
आला
गली
चाण
बडा
रचा
Wind
were
अभिर
क्यो
परिल
बॉडी
सत्त
हैदर
गर्भग
द्वंद
विशाख
System
निभाता
मजदूरी
रोमांस
अक्तूबर
पहुँचते
विनियमन
स्तंभों
गुणसूत्र
प्रबन्धन
प्रोफाइल
समीकरणों
विरोधियों
##एक
##खम
##ौं
##ैंग
##ांडा
एआई
एसि
1915
9781
काँच
रूपक
१९८४
their
कोहली
डब्लू
दत्ता
देखती
प्लेस
म्यां
होल्ड
जिन्ना
जौनपुर
संन्यास
##kh
##सृ
##adi
##फ्ल
##साम
##ोसे
००
##चर्य
##र्थ्य
High
इन्स
मंडी
ख़राब
चलाता
दसवीं
पकड़ा
पाउडर
विराम
सजावट
निवेशक
बढ़ाकर
कप्तानी
किस्मों
जन्मजात
दिलचस्प
द्वारका
रणनीतिक
करनेवाला
अभिनेताओं
अवधारणाओं
चतुर्वेदी
##ापा
##ुदा
##ैका
मच
लड
##चेतन
##ोनेट
जुड
लंग
##काण्ड
##भाग्य
दाएं
संचय
उपनगर
ग्लेश
प्लाज
मकबरे
महानि
लिखीं
लिटिल
सिंगल
इब्राह
नतीजतन
बैटमैन
आपातकाल
जायेंगे
महामारी
यूरेनियम
राजपूतों
चिड़ियाघर
स्टर्लिंग
भूवैज्ञानिक
##दीन
##हीम
##ोगु
##ants
##टेबल
##र्वा
##हारा
अरा
बाब
बॉस
कन्व
बैरी
मिलर
सचिन
सुहा
१९६२
Islam
मिशेल
सर्जन
London
महाकवि
मेघालय
सितारे
मीमांसा
शुद्धता
गतिशीलता
प्रशस्ति
किशोरावस्था
##ोरे
CH
PM
##ज़्म
##टावा
Wil
कुक
गाज
लॉर
Part
अभूत
फेयर
बुजु
१९७२
David
नर्तक
विचलन
स्विस
##ोपीडिया
एबरडीन
दर्शाने
उत्तेजना
स्वीकार्य
विद्रोहियों
फौ
९१
man
कोठ
खोद
डेक
विथ
##ालैंड
बेला
व्यू
शंकु
##पतियों
अंजाम
अथर्व
विधिव
संवेग
August
इलाक़े
चिन्तन
शृंगार
कक्षाओं
पहुँचता
मोटरसाइ
म्यांमार
उपनिवेशों
प्रयोजनों
##oul
##ायड
एब
छठ
##ेशंस
cod
आदत
##ision
##िकेशन
##िलिंग
1907
ओरिए
जनमत
नाईट
सहार
हीरे
thumb
चालित
टैगोर
युरोप
पोर्टल
मुद्राओं
प्रतापगढ़
प्रयोगात्मक
##97
##SA
९९
##स्ना
इसरो
उठाए
औजार
बाँस
मंडप
यादृ
रज्ज
१९५६
किराए
फिलहाल
सुनाया
अकादमिक
गुरुद्व
प्रोसेसर
श्रृंगार
अधिकांशतः
##ML
##वु
##ुअ
##फिन
७२
##itor
##टरों
##स्ले
106
Cor
पंत
पेस
मुठ
हाउ
##विदों
उतने
नानक
मीठे
रेती
क्राइ
मारकर
जस्टिस
नदियां
भाषाओँ
गुरुत्व
डिजाइनर
ऑब्जेक्ट
ट्वेन्टी
सक्रियता
नियन्त्रण
रूपांतरित
अप्रत्याशित
AC
Sw
##फ़ान
##राइड
##ोन्म
166
All
टिन
पाट
सैर
अखंड
अर्ह
बेबी
अंकुर
१९वीं
अधीनस्थ
विवादित
अंडरटेकर
कर्मियों
सिनेमाघरों
##uj
##षी
##बोन
##मंद
##्की
Ut
##ण्टर
##ुपात
बिस
सीप
##प्राय
कुतु
विनय
सींग
##प्रयाग
Trans
अठारह
रत्ना
समझता
एस्टेट
पांडवों
स्पैनिश
विकल्पों
विद्यापीठ
विश्वामित्र
श्रद्धांजलि
##LA
##आइ
##तित
##सिन
छल
३९
४४
##जेशन
##डियन
##देशक
##िंघम
Des
vol
फेम
लेट
वाग
know
कर्क
ग्लू
चर्म
अपनाई
कीटों
##ofindia
##ucation
अग्रिम
कॉलोनी
बंगलौर
मज़बूत
मापदंड
रघुनाथ
सम्मुख
निकायों
पासवर्ड
आधुनिकता
गाड़ियों
दूरदर्शी
पूर्ववत्
शोधकर्ता
##ky
##वद
##डाइ
CE
##स्टे
145
Tur
but
चौर
पैद
लिव
१७८
ईश्व
तंतु
पॉवर
बिज़
कैरोल
घूमती
पत्ती
परिणत
मांगी
सर्वि
सुखोई
स्केट
उदासीन
उद्यमी
गर्ल्स
चयापचय
चार्टर
नॉर्वे
भरतपुर
भूकम्प
महासंघ
तदनुसार
बुजुर्ग
मन्त्री
मुलाक़ात
विचारकों
विस्थापन
अभूतपूर्व
उत्पादकता
क्षुद्रग्रह
##ush
##ार्स
##्रोत
out
उभय
नकद
बीए
रकम
वसू
##कथाओं
पढ़े
मेटल
आणविक
दबाने
स्मृत
खण्डों
पिछड़े
मैनेजर
आन्तरिक
गर्भगृह
रियासतों
जीवविज्ञान
प्रौद्योगिकियों
##cle
##udd
##ude
##थ्य
##दाम
##सनी
##िंक
em
##बाला
##ोसोम
Par
आइं
इमर
केम
तनु
बरस
##ंडलीय
##निक्स
##बैजान
##ेट्टी
ब्यू
अष्टा
आठवें
त्रिज
दोषों
बाघों
शिथिल
साजिश
अन्याय
चिंतित
जानकार
डिवाइस
नवाचार
पालिका
बालकों
सुपरमैन
करनेवाली
आतंकवादियों
##जीर
##ोले
By
##तांत
##हारण
Eur
Reg
mod
गला
मुल
##शिष्ठ
##ियन्स
देवर
मोटा
लग्न
समीर
##थेरेपी
आईओसी
उस्ता
पड़ाव
बुक्स
राकेश
सूक्त
एंग्लो
द्योतक
सूर्या
आदर्शों
गोदावरी
फ़िल्मी
जीवाणुओं
निमंत्रण
परिलक्षित
राष्ट्रभाषा
##ris
##निख
बृ
४३
##icle
##पाती
Mod
Off
dec
##ल्ड्स
Page
अजीत
कड़ा
जन्त
बसों
१९७७
१९८८
##ration
धोखाध
समरूप
सेनान
पहुँची
वेश्या
अब्राहम
सीक्रेट
अब्दुल्ला
भाषाविज्ञान
प्रतिभागियों
##ंटे
##आंग
##परा
##भवन
##न्ती
##माता
कृप
नशे
हता
##ruary
एसयू
खोजा
परदे
आँखें
रस्सी
सप्ता
हटाया
अभिभाव
कठोरता
निकोलस
##ोपाध्याय
जुड़वां
महिलाएँ
सुधारने
##FC
सई
४७
##टिनम
##बैंड
##साचु
##हाना
##ानाथ
अलै
बीर
लेक
##जिस्ट
##श्रुत
1901
आद्य
बेचे
##िपूर्ण
निकास
पिराम
आपत्ति
उदहारण
कैमरून
ग्रेटर
चाणक्य
वरीयता
विधाओं
सौभाग्य
इब्राहिम
मेमोरियल
उत्सर्जित
एंटीबायोटिक
##फाद
##िनस
आब
##एनएस
104
med
जाओ
थीम
नीम
नोड
##्वाधर
आस्त
नग्न
पराशर
पोषित
प्रीत
बलराम
साढ़े
सुशील
अँग्रे
अंगूठी
एलेक्ट
कारीगर
ग्रांड
ज़रिये
प्रदीप
वेदांत
संकुचन
साक्षी
अनुपालन
डार्विन
निकालकर
पाठशाला
सहिष्णु
##formation
American
November
दुरुपयोग
सम्बन्धों
प्रतीकात्मक
##aus
Dr
##ober
NET
कंग
गाल
भड़
5000
क़बी
पारा
लिट्
साँस
चुनने
नम्बर
बिकने
बिल्ली
स्ट्राइ
निर्देशों
मानवाधिकार
##IV
##यड
##एएस
##नें
##पाई
NH
##रोधी
cms
##न्नति
##मानों
काठम
ताड़
पावन
वामन
कबीले
जुलता
दोहरे
पंखों
सिवाय
##olution
##विज्ञानी
बुद्धिम
कैल्शियम
चुनौतियों
मार्केटिंग
पाठ्यक्रमों
हिन्दुस्तानी
प्रतिक्रियाओं
##te
##gan
##ँची
##शों
##नामी
Her
फलत
##भद्रा
##हीनता
dist
कस्ट
क्वा
खिलौ
देगी
रावत
लेनी
हर्ट
Techn
अन्तः
सन्धि
सुरेश
गुजरता
घाटियों
विवाहित
February
धोखाधड़ी
मर्सिडीज
सामर्थ्य
टेलिविज़न
प्रजातियाँ
##92
fe
##imal
##िप्स
Mac
ओएस
जया
पनप
लीड
##ब्रिड
लाये
##िपुत्र
दिखते
मुकुट
कमज़ोर
##anguages
मौजूदगी
जानेवाली
##ऐं
##ोंक
PD
##मेंस
##वर्थ
168
ant
गड्
मौन
सूप
##ोपड़ी
also
आईसी
एमएस
दफना
धारी
पतला
मेज़
मेसो
समता
१९६५
State
अल्फा
##चिकित्स
##ॉक्साइड
जुड़ने
विशेषत
स्थगित
क्रोधित
जालस्थल
प्रशासक
वैद्युत
सिलसिले
महेन्द्र
ऑटोमोबाइल
क्रियाकला
व्यवसायिक
Ev
ال
५३
##ाउंट
धाग
बकर
बलू
मरे
रिय
##eries
चलना
मामा
##संग्रह
कुम्भ
ब्रूस
रिवाज
समूचे
आईपीएल
नमूनों
निकालना
गुड़गांव
पुनर्वास
विजेताओं
मुस्लिमों
क्रिश्चियन
##अन
##यस
##खान
५१
##ency
##ैम्प
##्रोप
sec
आख़
इति
गम्
पिथ
पैक
रीड
हनी
अंकन
कुचल
छिपा
धुंध
लड़े
सूखा
##ब्रह्म
इन्ही
खेलना
दुग्ध
वेगास
कमजोरी
चैलेंज
स्क्वा
अवरुद्ध
समीक्षक
रामचन्द्र
कार्बोहाइड्रेट
##ats
##inn
##बीस
५६
##rist
उठे
उमा
लात
##त्रेय
##नीकृत
##ीरियल
ब्रा
लड़ी
१९८७
घर्षण
घुमाव
जार्ज
जीतकर
पर्सन
सिरों
स्ट्रे
स्वराज
Central
मेडिसिन
वेदान्त
सूचनाओं
आकांक्षा
कार्यशाला
मध्यवर्ती
सांप्रदाय
फ्रैंकफर्ट
##इव
##ठ्
##ied
##ंबे
##टीएस
##सेज़
कूल
जाम
सत्
##िक्षण
घिरे
दशरथ
अपोलो
कांति
कोच्च
चौड़े
जमैका
ब्रैड
सच्चा
अपूर्व
निर्वि
सिखाया
Society
एंटीबॉडी
सेंटीमीटर
स्पष्टीकरण
##ध्व
##स्च
##rain
##ुरूप
##्याल
मसू
##शुल्क
एकेड
चाहा
बंधक
लुइस
वफाद
सुखद
१९३०
North
परतों
फ्रें
सेन्ट
codice
गुवाहा
मिथ्या
रामपुर
वानस्प
William
निक्षेप
ग्लेशियर
अस्पतालों
स्थानान्त
गतिविधियां
चन्द्रगुप्त
साहित्यकारों
##ada
##गाम
##िटन
ओट
ओह
वू
##info
##वासा
##हांत
101
mon
जात
हाय
##भाष्य
कांड
चिंग
तोमर
राजग
हावी
एडवें
एयरबस
पूज्य
भवानी
अनावरण
असंतोष
तुरन्त
पुकारा
अंदरूनी
पहुंचता
रक्तस्राव
न्यायाधीशों
##ंगण
##लील
##वाक
##हेम
##ाहो
अच
हब
##नुमा
Mon
बैग
##िश्रण
1896
आम्ब
कर्ज
गिने
जेने
पूंछ
मगरम
गुम्ब
गेट्स
इथियोप
चार्ली
निपटान
विडियो
गुवाहाटी
चरित्रों
अन्तरिक्ष
फिलिस्तीन
शिलालेखों
इंस्टिट्यूट
न्यूज़ीलैंड
##oid
##ंचन
##रोग
HD
af
नट
##iver
##आरआई
##ामुख
कवक
फिज
##रियों
##विलास
बराब
मैकड
ससुर
स्ला
##न्यासी
उठाना
पाषाण
मांगा
पूछताछ
फ्लाइट
श्रुति
सूबेदार
अध्यायों
यथार्थवादी
सामान्यतया
दक्षिणपूर्वी
##ita
##omb
##यरस
##हरि
##ग्रे
##डीआई
##्लाई
156
लाज
कुंभ
गन्ध
चारो
विंध
सुवि
१९८२
इन्हे
कलिंग
पकाने
मालिश
युगों
यूसुफ
रांची
सर्वस
असफलता
क्यूबा
ट्यूमर
पदार्थो
विवेचना
आर्द्रता
प्रजापति
नागार्जुन
उत्कृष्टता
##43
##unn
##धीर
##बुद
भृ
##भाजन
##ॉल्ट
##ोपुर
##ोरीन
Mad
उज़
एले
जुर
डोर
पदा
लॉक
##संबंध
##ेंसिक
पब्ल
यूपी
लिहा
पेंशन
शिवजी
काव्या
ईसाइयों
मगरमच्छ
वैधानिक
##साचुसेट्स
यादृच्छिक
प्रतिबद्धता
सूक्ष्मदर्शी
आवश्यकतानुसार
##ंबन
Av
वश
##चर्स
##जाने
Mal
Ram
अरु
माग
६००
अनदे
ऋषिक
कपाल
खासी
जौहर
आभासी
आसमान
युनिव
सतर्क
सोचने
अज्ञान
आवंटित
चिन्ता
बढ़ाते
October
ऋणात्मक
गोलार्ध
पाण्डवों
प्रशासित
प्लेटफार्म
कुरुक्षेत्र
##CO
##RS
##ौत
##िकट
IN
ne
४६
Air
बढा
हकी
##नापुर
थ्री
मेनन
एथेंस
तब्दी
नाड़ी
प्रमो
मसाले
मुठभे
रैखिक
साक्ष
कॉमर्स
डिज्नी
मानवों
झारखण्ड
प्रतिफल
रिएक्टर
अनुमोदित
आचार्यों
प्रबंधित
रिपब्लिक
कम्पनियों
अर्थशास्त्री
स्विट्जरलैंड
##sy
##200
Hy
Ma
५४
##जनित
##प्रस
##बड़ी
her
आईं
माओ
शहद
डीजल
बुल्
मर्म
Inter
घराने
जानकी
जुलती
पढ़ते
हजारी
होटेल
आर्द्र
इंतजार
जोड़ते
दिखायी
मिश्रा
Windows
मोरक्को
सुलझाने
केदारनाथ
चित्तौड़
संग्रहीत
संहिताओं
सभ्यताओं
Political
वानस्पतिक
##rak
##ानो
##obal
##खाना
##निकल
आँक
दाई
फलक
बेग
सुष
हाश
१७०
एसएस
कमाल
गोंड
डोना
नैनो
पिशा
बीएम
मादक
महान्
शैवाल
क्लाउड
टोरंटो
फैलाने
बराबरी
शॉपिंग
पिरामिड
कार्यभार
तुम्हारी
निमोनिया
संवेदनशीलता
क्रांतिकारियों
##71
##शस
##९२
##स्लो
##ेंसर
टाप
##ाइनों
##ोत्तम
city
अकार
अमित
दुल्
सीपी
##फ्रेंस
##सागरीय
speci
उत्खन
ऐल्बम
गिरती
नासिक
पसन्द
फास्ट
संक्र
संचालक
समांतर
क्रियाएँ
Cambridge
सौराष्ट्र
साम्राज्यवाद
Si
pg
##क्रो
##डाउन
अंप
महज
##क्स्ट
##फेक्ट
ड्रॉ
दरार
रणजी
अंगुल
एस्टर
मौसमी
सराहा
अदृश्य
उदारता
उस्ताद
कुत्ता
मजबूती
मिलेगी
दीपावली
द्वंद्व
रिज़र्व
वासुदेव
वस्त्रों
दार्शनिकों
विश्वव्यापी
##चेत
##फेल
##साव
##्नर
##नेशन
##िद्र
उलट
एमी
गेर
तंब
लेग
वसु
सेर
हील
##फ़ेयर
##ेंबली
इकोन
गल्फ
चादर
छपाई
फ़ाइ
लीवर
वॉटर
सगाई
उतरने
तख्ता
पकड़े
##ference
अनुराग
पैगंबर
पहुंचते
विरोधाभ
प्रतिहार
राधाकृष्ण
हीमोग्लोबिन
##ॅल
##aut
६१
८५
##lesh
##रीना
आमा
जना
डेड
##ॉर्डर
काया
पेरू
पेशा
हराने
United
आइलैंड
जासूसी
शिशुओं
असमानता
कारखाना
क्रमांक
मैगज़ीन
सचिवालय
national
जटिलताओं
पीड़ितों
हस्तियों
978019091
Dictionary
##ैग
##्ण
आड
जप
##लेटर
##व्रत
अटक
चिं
माघ
हिज
##ering
##ट्रोप
##धिकृत
##बुद्ध
##रावती
##लियाँ
3000
जेरी
टार्
धोखे
बीबी
मदुर
मीठा
लगाव
वसूल
वेल्
ओपेरा
बोल्ट
स्टेम
##मीमांसा
आर्यों
एकेडमी
घोड़ों
डिक्शन
हिम्मत
ऑप्टिकल
कठपुतली
धनात्मक
पहुंचती
पुनरुत्
शुभारंभ
वैयक्तिक
आनुवांशिक
ज्यामितीय
##फू
##इन्
##व्व
##्सी
SO
UN
९५
##ains
##याना
##स्कट
##ालिक
NAS
act
del
उठी
तैल
पलट
हीर
अन्ध
गोबर
डिटे
तेरे
मगही
मैनु
खुलना
गोकुल
दर्जन
बहरीन
बेकार
साड़ी
##मानुसार
Google
काउंटर
घटनाएँ
छवियों
प्राणा
रचनाएं
वशिष्ठ
शाखाएं
रोमांचक
निःशुल्क
पत्तियाँ
बद्रीनाथ
सिस्टम्स
प्रावधानों
बास्केटबॉल
##ईसी
##ूमत
##ोमो
ऑयल
डाॅ
वेर
##तीकरण
प्रम
१९७३
१९७६
एडम्स
कोशों
खानों
रोकता
विलास
सरसों
हैरिस
##कांक्षी
फिल्टर
##पेटाइटिस
प्रक्रम
विशेषतः
##बेकिस्तान
क्रिस्टोफर
न्यायालयों
श्रद्धालुओं
##udy
##नाय
##मोन
##वीण
Fl
##iron
##oday
##छाड़
##र्ज़
sur
पटल
फ़ा
समत
##िक्षा
1800
ईथेन
उभरी
ऐश्व
खोले
बाँट
रिले
सेलि
काण्ड
डायरी
तिरुप
नक्शे
पौत्र
बृहत्
रोकना
पंचांग
बढ़ाना
रिपब्ल
दीवारें
मर्यादा
यूनिकोड
वैवाहिक
प्रीमियम
पत्रकारों
सप्ताहांत
##93
##BA
##omy
##एडा
##ेरो
my
६६
##पीएस
Mag
रोट
##ोलोजी
उपाद
करुण
नागा
पथरी
फर्ग
##ग्रन्थ
छुट्ट
सस्ता
सीनेट
गरीबों
मैथ्यू
विक्टर
सम्मेल
अनुवादक
चक्रवात
छत्रपति
टेक्स्ट
नास्तिक
प्रभाकर
कोशिकाएँ
क्रमबद्ध
निर्णयों
ब्राउज़र
संस्थागत
कार्यक्षमता
क्षतिपूर्ति
##rag
##ret
##बेन
##िंद
we
##यानी
##विद्
Div
अरे
टेट
फ़े
##बॉक्स
##वेस्ट
अफसर
खदान
चिकन
पीतल
रैली
१९८३
क्षार
बलिया
रेस्ट
फिल्मी
लोहिया
विमानन
ट्रान्स
यूनिक्स
विंडोज़
अधिकाधिक
भूमिकाएं
राजतंत्र
शक्तियाँ
बेरोजगारी
कलाकृतियों
चंद्रगुप्त
##MS
##rem
##फली
##हों
८१
##olly
##चेरी
##मिंग
ईयर
कंज
बिम
मोज
##पोलिस
Hand
आलोक
चौरा
जीएस
टीके
बकरी
सुखा
सुमन
क्रिट
गुंबद
मुस्क
यूएसए
लिंकन
अर्पित
कुलपति
गम्भीर
मुहैया
वंशजों
जमींदार
संप्रदायों
##uz
##ईस
##चुरी
##न्को
##मेशन
eng
अखा
गरु
ठुक
बसु
लिं
वॉट
सास
##ियांग
##ोबिया
आमिर
आसवन
पिघल
पूँछ
पेरी
मद्य
साँप
##leshow
##परिवार
कैफीन
दर्रे
मानों
रुपया
लचीला
संगणक
अन्ततः
रामानु
साहसिक
स्वरों
पेंटिंग
सिलसिला
ऑक्सीकरण
जॉर्जिया
डिक्शनरी
सहारनपुर
पश्चिमोत्तर
##ti
##सस
##फरी
##वेर
XX
km
७७
##क्लो
##क्सा
##बहार
##ाप्र
Ast
Kar
Sec
केक
डॉट
लेह
१६०
##ences
##ility
##ूर्वक
कोला
डायल
तटों
ब्रो
यक्ष
सावर
##ल्सियम
##स्तीनी
दस्ते
भतीजे
भयभीत
शिष्ट
आंकड़ा
गुजरने
धनराशि
नीलामी
दोहराया
श्रीमद्
तांत्रिक
छात्रावास
विक्रेताओं
##कौ
##मू
##ibr
##ंगो
##गलस
##िगर
६३
##बाज़
##वादक
काई
सिस
##क्कड़
रेणु
##फ़्तार
north
एशियन
केविन
कदाचित
कल्पित
विजुअल
सीमाएं
काशीपुर
पाण्डेय
साम्राज
Accessed
प्रचारित
मैक्सिको
संन्यासी
ट्रेडमार्क
संगीतकारों
##साइक्लोपीडिया
##डक
##खला
##गोन
##डोस
##मास
खै
##hael
##ंतुक
##चारा
##वेरी
आतं
रुझ
१७६
##ायतों
vill
जब्त
फ़ोन
लाते
शार्
सुर्
##होत्रा
##ोग्रुप
right
जहाज़
दिग्ग
निरोध
कहलाने
कोच्चि
थ्रिलर
प्लेटो
मैग्नी
खरीदारी
डिस्ट्र
भागीदार
मंगलवार
म्यूजियम
कोलेस्ट्र
जीववैज्ञानिक
##44
##SM
##TA
##और
##डस
##पलट
##्हा
My
We
वल
८३
##ृहीत
Sup
जूझ
नाज
##वमेंट
कम्ब
कराए
घेरा
झरना
टेरी
पम्प
फुफ्
बेनो
मैके
वाइस
वृंद
सतीश
साइं
कमाने
दर्रा
बोइंग
वृन्द
एस्पिर
खिड़की
गंतव्य
तब्दील
बीजिंग
माधुरी
युवराज
सांसार
हिरासत
अल्कोहल
कैदियों
रचनाकार
अंग्रेज़
जानबूझकर
पारदर्शी
सांद्रता
हाइब्रिड
होनेवाली
निष्कासित
परीक्षाओं
विनाशकारी
सम्मेलनों
दक्षिणपूर्व
##थु
##ोफ़
ईद
##गाथा
##ज्जा
काक
फेन
1902
आबाद
आसीन
धीमा
नेचर
बांट
मोना
##स्मृति
खतरों
गोल्फ
तत्पर
बहुरा
वियना
साइमन
सिपाह
खिलाडी
चतुर्भ
वर्जित
वाइल्ड
संविदा
स्कन्द
##ैतिहासिक
articleshow
प्रत्यारोपण
बछ
##दर्द
##ाम्ब
118
बची
मंस
शेन
##ories
##कर्मा
##द्रिक
1890
अवां
कड़े
कृषक
डगलस
फ़ैस
बाएँ
भूरा
शाहर
सुधा
१९७४
१९७९
अनन्य
जागृत
बारूद
महलों
राइफल
##ोलॉजिकल
एकाधिक
मनोरोग
इच्छाओं
तालिबान
रिलायंस
डिस्प्ले
मतानुसार
रोमानिया
रिपब्लिकन
##चेन
##जेस
##मेक
##ावी
##िलो
##गोचर
##हिरा
##ीयों
आजम
कंद
संध
१२०
##थियों
##मेन्ट
अतिक
केंट
जमाव
ठेके
पदवी
पीएस
फोरम
बॉयल
भस्म
वज़न
अधिसू
काष्ठ
गुच्छ
ठुकरा
पिण्ड
वैश्य
people
कोलम्ब
गिलगित
गृहस्थ
बाधाओं
गांधीजी
प्लाज्मा
रामेश्वर
स्मारकों
##राष्ट्रपति
पारिस्थितिक
ब्रह्मपुत्र
विशेषाधिकार
##टम
##ule
##agar
##ेट्स
128
##िशिंग
1880
into
name
कुम्
तात्
थियो
दारा
बैले
रेशे
विल्
वीणा
श्ले
##स्वरुप
कीटना
फीसदी
ग्रीवा
अरविन्द
बार्सिल
भागलपुर
लिवरपूल
विशाखाप
आम्बेडकर
त्रिज्या
राजेंद्र
क्वालीफाई
प्राणायाम
साइबेरिया
द्विपक्षीय
तरंगदैर्घ्य
मैसाचुसेट्स
##vi
##ony
##ङ्ग
##लीफ
##ुड़
उध
उब
ओन
##ield
##द्रो
##ब्ला
##मेनि
##ोतरी
गोग
बिच
मूँ
केसर
पोते
बांड
मूसा
##ेशियाई
करौली
ज़रूर
बाल्ट
वल्लभ
शौर्य
##व्यवहार
बिस्तर
content
सुदर्शन
काठमांडू
कॉपीराइट
धर्मशाला
प्रसिद्द
फ्रेंचाइ
यात्राओं
सांसारिक
श्रीनिवास
प्राचीनकाल
बार्सिलोना
##खलन
ऐश
##स्टस
##हानी
##िवंश
##ृष्ठ
##ॉन्स
उखा
सॉल
हां
##राबाद
##स्थली
time
रजनी
विभव
हैपल
##कुमारी
अंशों
कागज़
दिलाई
अवॉर्ड
आतंरिक
पढ़ाया
चालुक्य
महादेवी
संग्रहण
आकाशवाणी
तस्वीरों
शक्तियां
यथार्थवाद
एक्स्प्रेस
हैपलोग्रुप
न्यायपालिका
##RI
##ुब
##उंट
##िंस
Te
gu
##कुंड
##घाती
##ध्रु
##ल्लू
det
अनी
एमए
छोड
जार
पृ०
##चुम्ब
##बोर्न
##भागवत
अज़र
मुल्
सिमर
बजाने
विखंड
ख़िताब
डैनियल
परिधान
बतलाया
विलायक
बिस्मिल
मनोरंजक
मौद्रिक
डायरेक्ट
निष्कासन
उत्प्रेरक
कब्रिस्तान
##क्श
##जना
##ोमे
गम
लह
हन
##ashm
##ross
##लोरी
116
ISO
उषा
बोट
शाय
##खास्त
##द्धार
Shar
उनमे
कंपन
कैथे
डिवि
बदली
वाष्
गरुड़
चुंबक
प्रवीण
मिसौरी
पूर्णता
बटालियन
स्ट्रीम
पद्मश्री
प्रतीकों
रवीन्द्र
प्रविष्टि
खगोलशास्त्र
##app
##ike
##itz
Id
ओक
चढ
##गण्य
##छनीय
##ानगर
##िपति
two
गरि
तिम
पिय
मेथ
रॉस
शेल
हैल
##ental
##म्बली
cons
गांग
टीपू
टीले
दुखी
बाईं
वैली
सलाम
१९२०
१९४०
१९४९
##टरियों
##स्पिटल
##ेंशियल
कच्चा
जासूस
पच्ची
यातना
हाइपो
##कृतियाँ
Robert
पहचाने
रोलिंग
टीकाकरण
लिपियों
सरदारों
चित्रकूट
निर्वासित
वायुमंडलीय
शांतिपूर्ण
प्रतिभाशाली
##RP
##la
##पाठ
##शहर
es
##दयाल
##फ़ेस
##िराज
##ोरिक
किट
पडा
मंथ
रवै
##न्नों
##विद्य
दोगु
मॉरी
कृत्य
आईबीएम
गुस्से
टुकड़ा
टुकड़ी
निभायी
बर्बाद
सारांश
देशांतर
रामचरित
कालान्तर
तुम्हारा
सार्वभौम
ज्वालामुख
बहुराष्ट्रीय
##rip
##्टे
MP
आउ
नस
९६
##site
##मपुर
##ानेक
कोइ
खर्
पठन
वॉर
##जीवों
##ड्रिड
##नैशनल
##म्पसन
##ल्लास
##सेप्ट
Aust
गैरी
जादु
तेरा
न्यु
बसंत
सराय
आंग्ल
उभरते
पकवान
पर्दे
मिसाल
वसूली
कुर्सी
बढ़ाता
बनर्जी
लीबिया
Michael
न्यूक्ल
संतृप्त
सक्सेना
कैल्सियम
नियोक्ता
विनियमित
शेयरधारकों
##हृ
##ipp
##ler
##res
##म्न
##िगन
##बोधन
##ांकी
##ायती
##ावटी
कसौ
high
इंडो
एनएच
कस्त
कोलो
गलिय
टायर
नीलक
लेगा
सीआर
##ेंटाइन
घुटने
चढ़ाव
जानकर
नतीजा
महंगा
सोचते
यादगार
सामयिक
इसीलिये
विवरणों
त्योहारों
स्वैच्छिक
डाइऑक्साइड
सांप्रदायिक
उपराष्ट्रपति
##ane
##फुल
##राश
##ाजत
##ापर
##ूमन
##्ति
##ites
##डोज़
##्वित
आदी
झुक
##सिफिक
east
अय्य
कन्ह
कभार
ट्री
पारस
सिंथ
१९४५
१९५७
##ेदारों
आंत्र
इशारा
खिलजी
खोजों
ढाँचे
पटिया
बुर्ज
रणजीत
रॉबिन
एमआईटी
रेखाएँ
सड़कें
एजुकेशन
क्यूंकि
निकोबार
निर्दोष
प्रांगण
बीजापुर
वायरलेस
सब्जियों
स्टीवर्ट
भट्टाचार्य
शल्यक्रिया
कार्यक्षेत्र
##47
##DP
##़ा
·
##net
##टूर
##िकर
Sa
##rict
##ग्रो
##ेंगी
##ोटीन
Car
Fil
साख
##एशिया
##चित्य
फोकस
मवेश
सिवा
१९६९
Uttar
ओबामा
कुंवर
भेजता
मुकेश
वेल्ल
घोटाले
दुल्हन
पार्टन
संप्रे
हावड़ा
पहुँचकर
वायुयान
समन्वित
जुर्माना
ट्रेनिंग
अलेक्जेंडर
प्रोटोटाइप
##my
##कप
##ैप
##ोथ
४९
##रहित
##साधन
##्लोर
can
इंप
पीप
सूत
##चर्या
##शीर्ष
##िनिया
अधिश
आवेग
लड़क
##स्कटॉप
other
ईंटों
घुसपै
ट्रिब
पंक्त
बीजों
##लेटिक्स
अशुद्ध
एल्गोर
तिरुवन
संबन्ध
सहस्रा
इंटेलिज
चिंताओं
बौद्धों
सीरियाई
##व्यवस्थित
टेलीग्राफ
पुस्तकालयों
दर्शनशास्त्र
##war
##फोल
##संद
##िटक
##ुमन
Act
अख़
कलश
किय
फेल
बेश
वूल
##फ़ेसर
1860
करिश
जलाल
नूतन
##rosoft
चचेरे
चढ़ने
चौबीस
बरसात
बर्बर
बुराई
मूर्ख
मेसोप
शाश्व
सांता
Centre
ऋषिकेश
लिट्टे
छुटकारा
फिनलैंड
शत्रुओं
स्विफ्ट
घुड़सवार
फैक्ट्री
विशालकाय
स्प्रिंग
दायित्वों
प्रतिबिंब
मुजफ्फरपुर
##ॉं
##ird
##ंटल
##ंधर
##हनी
##्वत
AS
Tr
ob
रग
७४
९७
##ंटेन
##ुलकर
##ृष्ट
##्वाक
अशु
ओड़
टाल
भान
1903
orig
west
कुर्
गुणन
चांस
बैंग
शायर
श्लो
सबका
१९४२
##वर्षीय
अश्ली
आपूर्
दावों
द्रुत
बन्दर
विधिक
संभोग
सिम्ब
एलेक्स
पेशावर
मॉरिसन
लद्दाख
असेंबली
मैड्रिड
पनडुब्बी
यूनिवर्सल
##oon
##फ़्
लख
##vent
##क्सि
bet
झड़
पसी
मदि
शशि
सेब
##षिद्ध
##सूरती
1885
Geor
उभरे
गंधक
१९८१
##स्नातक
Afric
उल्टी
परगना
परवाह
मारना
मिल्क
कात्या
निर्धन
पानीपत
पिनांग
एवरेस्ट
एलेक्ट्र
पुस्तिका
प्रतिमान
परम्पराओं
श्रीलंकाई
फ़िल्मफ़ेयर
पुर्तगालियों
##गली
##नाभ
##ापी
##ुगत
बक
##कुलम
Bas
Per
red
कोत
तदन
थोक
बलो
रोप
शीश
##स्में
##ामिया
Char
data
अप्स
झंडा
पहुच
पूना
मुआव
मुज़
वेदा
१९६७
##ection
Group
कीड़े
चिल्ड
जन्मी
न्यास
फैलता
बताये
बेसिक
संहार
स्टेर
अयोग्य
कैपिटल
दरबारी
संचिका
स्टारब
archive
मारवाड़
हिप्पोक
मस्जिदों
मांसपेशी
माध्यमों
स्वादिष्ट
ताजिकिस्तान
पुनरावृत्ति
##गुन
##ञ्च
##भित
##त्तु
##िकार
Rec
बहू
शौक
##irect
Pers
उसमे
खजुर
थ्यो
ध्या
पिंग
विदा
१९६१
१९६३
धक्का
पर्दा
मायने
विचरण
सीढ़ी
हल्दी
##दर्शिता
उर्वरक
क्वींस
घुसपैठ
ज्वाला
शेट्टी
सावधान
तंत्रों
संकुचित
धर्मसूत्र
पोर्टलैंड
बंदरगाहों
शिक्षाविद
वाद्ययंत्र
ॠ
##err
##तरा
##मोह
##ाईन
६२
६७
##ered
##ette
##ंजित
##अमेर
##भूषा
##हीरो
##ॉर्स
bec
pop
रमन
##स्कूल
अवकल
ड्रग
नुकी
प्रक
बूंद
राखी
लांच
संगी
१९६४
अमीनो
कांगो
कॉफ़ी
जोहान
झीलें
त्रास
दवाएं
ललिता
##साहित्य
प्रोफ़
महाप्र
सीबीआई
सेक्शन
मॉड्यूल
मानदंडों
संयंत्रों
मोटरसाइकिल
##ve
##yt
##ेण
##ama
##शूट
##शोर
##हेड
##ारो
##्टो
PA
७३
##पिता
##मूलक
##ीनगर
जहर
धीर
पोर
1894
निशा
पेंस
मुहर
यूनि
सुगम
##वृद्धि
दरिया
फाँसी
बारीक
सीखना
अमूर्त
अम्लीय
निर्मल
पिक्चर
प्रणाम
बालिका
मोटर्स
सावरकर
सिकन्दर
पवित्रता
वेदव्यास
मूर्तिकला
उत्तरार्द्ध
##idd
##पिड
##र्ल
##सनर
##ाकि
फट
##ghan
##फ़िक
##स्वत
360
Pop
आरण
टोप
ताक
वहा
##र्स्ट
##ार्जन
एलेन
कमिश
जश्न
जुडी
१९५४
Asian
Mount
south
अक्षम
जादुई
टर्नर
नायडू
परोसा
बोलता
मुंशी
मोहित
सिगार
अलंकरण
छोड़ना
तिमाही
पिस्टन
बिताने
मनोनीत
रामगढ़
सोमनाथ
हरिश्च
गोलियों
स्तोत्र
##स्क्रिप्ट
अनेकानेक
नाइट्रेट
मिलीमीटर
ऊर्ध्वाधर
वर्जीनिया
स्क्वाड्र
##alk
##iet
##vin
##गुआ
##जेप
##ूमा
##कोटा
##जर्स
##टाइम
##ेंटल
पेड
##ताकार
##त्म्य
##ष्टिक
1870
कशेर
चारा
चूहे
पाटल
सीटी
१९६६
##साधारण
अनगिन
गन्ना
चलाना
झांसी
दूषित
ब्लेड
सस्ती
उत्खनन
प्रीति
सम्भवत
सीमांत
अमोनिया
निषिद्ध
प्रभारी
प्रेसीड
मुठभेड़
वृंदावन
संयोजित
समायोजन
ऐल्कोहॉल
डेस्कटॉप
सिपाहियों
प्रागैतिहासिक
##41
##ंझ
##iff
एं
##्युट
cap
##वीवेट
##स्टेट
इनाम
उभार
चुरा
दोहा
धकेल
लाता
लामा
वैंक
स्पै
१८५७
##नांकित
उड़ने
कमरों
करुणा
कहावत
कारगर
गरिमा
गोमती
नशीली
प्रशा
बाजरा
मसाला
निगमों
अनुसूची
घटनाक्रम
रेलगाड़ी
विधायिका
एथलेटिक्स
प्रोफ़ेसर
रिश्तेदार
इंजीनियरों
उत्तरोत्तर
डब्ल्यूडब्ल्यू
##nd
##ऊं
##भट
लत
##3038
##ruct
##ब्बर
##ब्यू
काफ
तलह
साग
##स्करी
1899
गाये
जाली
डीडी
नकार
मॉनि
सतही
सिल्
सीकर
१९५५
##प्रधान
उल्टा
घेराब
पंचमी
मिलिट
सरीसृ
अनगिनत
एफबीआई
जनवादी
प्रभार
बैठकों
उड़ानों
एनीमेशन
चेयरमैन
विध्वंस
औरंगाबाद
डॉक्टरों
त्रिकोणीय
महानिदेशक
स्टारबक्स
##TC
##रंग
##ामन
##ाहट
##ुता
##ोगे
अघ
##cial
##ounc
##गुइन
##नाशक
##्याग
चूक
थेर
शिन
संव
१६८
##ource
##पल्ली
##ितानी
##ोपैथी
more
ऐक्ट
घोंस
नंदी
नकदी
बर्त
बाड़
बोतल
माफी
##पत्रों
Human
अतिशय
ओवरों
ख्याल
फ्लाई
बिखरे
भारते
सुनते
एक्यूप
किरणें
चमकदार
मुरादा
जबरदस्त
फ़्रेंच
रजिस्टर
वंशावली
एकाधिकार
देशभक्ति
निर्वासन
दृष्टिगोचर
ब्रह्मचारी
क्रियान्वयन
आयुर्विज्ञान
प्रयोगशालाओं
##wn
##ini
##कोन
##णाल
##नित
##नीज
##ावे
##ोकन
BC
८२
##file
##वेज़
##सिंग
top
कोन
ख़़
डोप
दफन
मित
सीओ
हैः
##द्धति
##ाणुओं
उठने
नाडु
पुर्
प्रच
बेकर
रश्म
इण्टर
ग़ज़ल
चिकनी
बदलना
मिथुन
मुस्त
साध्य
सिक्स
क्लोरो
खींचने
ट्विटर
तैराकी
शासकीय
सत्रों
अदालतों
विच्छेद
गवर्नमेंट
मल्होत्रा
आधुनिकीकरण
पर्यवेक्षण
८४
##umar
##रिज़
##ानिक
acc
att
doi
खंभ
छठा
माथ
##ोनियन
call
कुंज
गोर्
चरित
टर्ब
बख्त
यीशु
Colle
किन्न
मर्फी
लेम्ब
हालात
अनजाने
उदात्त
निवेदन
रिव्यू
शाश्वत
इलाक़ों
दर्शनों
पदोन्नत
पैदावार
तर्कसंगत
वेस्टर्न
स्तनधारी
प्रादेशिक
सहिष्णुता
##ss
##ाट
##शीद
IC
sm
बध
##adem
##ंघाई
##ल्हे
def
असु
हाफ
हृद
##घूर्ण
##मंत्र
##ारोहण
इवान
ब्लॉ
साहू
##ुर्भाव
खरीदी
गायों
जुलते
नॉर्म
पोलिश
बगीचे
ब्रां
शील्ड
आख्यान
आत्मनि
कीर्तन
जुटाने
परिवर्
पुनर्म
प्रातः
उत्कर्ष
उपनिषद्
क्षारीय
प्रज्ञा
वेशभूषा
स्टालिन
एस्पिरिन
कम्युनिक
प्रतियों
इथियोपिया
संभावनाओं
उपनिवेशवाद
उत्तरप्रदेश
##td
##elf
##och
##कोस
##वला
##ुपा
##ृता
##ोता
##ोद्
७६
##आरडी
##ाज़ा
Pat
ext
जमु
राउ
##कास्ट
ओवेन
फिजी
मयूर
शिल्
संको
साइक
सीना
१९७८
##र्ष्या
##स्कोपी
नोएडा
वारिस
हरिहर
कनाडाई
बहुवचन
श्वेता
हिब्रू
हीलियम
##ollywood
कुख्यात
क्लाइंट
धन्यवाद
रसायनों
स्टार्ट
जिज्ञासा
नेटस्केप
बिन्दुओं
विश्वासों
×
##शर्
FA
HT
५९
##फ़ोन
102
किक
चिद
जमश
जोड
धवन
निग
यों
सैट
Paul
आमेर
एम्ब
जुटा
तर्ज
परेड
याहू
##स्मानी
अनूठी
उगाया
कोष्ठ
गवाही
ग्रास
प्रलय
शैतान
स्वात
नेल्सन
प्रखंड
भ्रमित
मिशनरी
लाभांश
शाहरुख
किन्हीं
गोवर्धन
मुनियों
इंटरनैशनल
प्रबंधकों
आयुर्वेदिक
timesofindia
##hip
##जेट
अँ
##ateg
##म्मी
##सर्ग
Pal
jag
loc
काश
घनी
चुक
छपी
राई
८००
##ग्रेन
अफ़्
आईएम
झटके
त्रे
मांड
शर्ट
इटावा
खींचा
पढ़ना
बिताए
मक्खन
शंघाई
समझकर
हस्ति
फेंकने
बेनोइट
सीमाएँ
क्लोरीन
पहुंचाया
सुपरहीरो
कीर्तिमान
मुक्केबाजी
प्रादुर्भाव
##ऑन
##anj
##era
##gar
##कॉम
##खले
##यरी
##रेक
##लास
##हिल
##ुखी
##ुवा
##दिता
##पट्ट
##ुत्व
##ेटिव
##्नाव
आइट
चिम
चों
फूड
बीन
शीट
##जैविक
Khan
जूना
सचमु
##टेलाइट
इंजिन
क्षित
मनोरम
हवाओं
तंबाकू
थ्योरी
बुधवार
महानतम
हमलावर
देशभक्त
निर्वात
लाभप्रद
बर्खास्त
संघर्षों
विदेशियों
प्लेटफॉर्म
श्रृंखलाओं
##PM
##ki
##एड
##pos
##जली
##पीए
##बेक
##ैना
sa
छी
##ंजना
##ज़ेन
##वियर
##ोक्ष
450
नीच
फाउ
बाउ
रेव
##uring
अनूप
आवेद
तरुण
बल्ल
महाल
सत्स
स्ली
##प्रस्थ
James
आतंकी
उन्ही
दशाओं
रिहाई
शॉर्ट
१८वीं
उपभाषा
गान्धी
दाहिनी
मॉर्गन
मोर्चे
करोड़ों
जनजातीय
अत्याधिक
##bc
##एट
##वध
##नीर
##ived
एने
जलन
जीभ
तैम
धमन
नीर
बंज
##किन्स
गियर
टुडे
मुखर
सैंट
हिला
##ंतुकों
House
कंकाल
सचमुच
इजराइल
इन्फ्ल
गंगाधर
जागरूक
त्रिशूल
मालाबार
स्पेंसर
language
प्राइमरी
जन्मस्थान
निर्देशांक
##rol
##उदी
##डिय
##सरो
कफ
##ड़कर
Can
War
कैश
घना
जरा
टेड
ताई
१७५
##viron
##यानों
##रावली
Rich
West
अभ्य
खोजी
ग़लत
नाटो
फेलो
बलुआ
बापू
मजाक
रामा
##केश्वर
आवर्त
उतारा
एकांत
करतीं
क्रेन
जमशेद
जरुरी
जातीं
थर्मल
सुमेर
उन्नयन
तृतीयक
दिलाया
पियानो
रामदेव
संकेतक
सॉफ़्ट
अन्यत्र
परावर्त
पैराशूट
मेसोपोट
वेस्टमि
सुश्रुत
ईमानदारी
मैरीलैंड
मध्यस्थता
दुष्प्रभाव
पाटलिपुत्र
##RA
##तह
u
##het
##ंवर
##परि
##ूबी
ठं
७१
##orts
##तत्व
##तिमा
##मोचन
##यामी
##ार्च
##ैटिक
ऐनी
जेड
१७३
##बाज़ी
##ारूढ़
1891
उर्व
बराम
ब्री
सिरा
##प्रवाह
कार्न
बाक़ी
शराबी
समालो
दिव्या
पटियाला
पट्टिका
सिंधिया
सिलेंडर
योद्धाओं
त्रुटियों
प्रतिभागी
वार्तालाप
प्रोटेस्टेंट
##HO
−
##osh
##umm
##गों
sl
६८
##onal
##view
##आरसी
##नेडी
Dep
कलन
जेस
टमा
##च्युत
##्वाजा
1887
most
असीम
क़ुर
काबू
पठान
पीएम
भावा
वृहद
सूती
आग्ने
छंदों
तुमने
पैकेट
पॉइंट
बढ़ाई
लेंगे
संज्ञ
सलामी
indian
उपसर्ग
कैलगरी
गुम्बद
सभापति
स्नायु
हुकूमत
##संख्यकों
बुन्देल
राशियों
इन्टरनेट
ध्वनियों
फिल्माया
ब्राह्मी
महायुद्ध
सत्रहवीं
ग्राफिक्स
सुव्यवस्थित
##oot
##इंड
##हिक
AM
BE
Sm
##चलित
##ण्टे
##दुरी
##म्पर
##ल्सी
Law
ass
had
आटा
कॉन
डॉ०
पंड
##ather
##ंक्चर
अवगत
ख़ाँ
चूने
जैकी
मेडल
##ध्यायी
state
आमाशय
तरीक़
तोड़ा
पापुआ
सच्ची
साहेब
##चित्रों
##स्थानिक
ख़़ुदा
थेरेपी
पॉलिसी
रुकावट
रोमांच
लॉरेंस
शुक्ला
ईर्ष्या
अपरिवर्त
अस्थिरता
उदारवादी
खूबसूरती
प्रायोजक
क्रियाशील
विश्वकर्मा
इण्डोनेशिया
##RC
##bi
##णित
##शतक
उक
##ness
##sych
##गांठ
##स्टल
##ुकूल
##ोचित
PDF
cor
असे
छिल
दुम
हैस
##aking
ख़ली
खाती
सरोज
हरेक
##annica
##्वेस्ट
अनजान
पापों
बजाया
हिमनद
गुणांक
चीज़ों
बढ़ोतरी
मरुस्थल
सदाबहार
Economic
गोलीबारी
ज़िन्दगी
पदोन्नति
प्रायश्च
प्रशिक्षक
डिपार्टमेंट
##हट
##िह
##ंभर
##इया
##ious
##ysis
##स्टो
USA
बैच
##इन्फो
##्लोरर
1895
आंगन
आरेख
गुदा
पाला
बॉबी
मकसद
वल्ल
हम्म
चूहों
बर्मन
बाल्क
बॉण्ड
महंगे
लौटते
संघों
स्पिर
उद्धार
जोरदार
पिकनिक
शक्तिपी
संदेशों
##मेनिस्तान
पहाड़ियाँ
श्रेष्ठता
##be
##शू
##टेस
##बहा
kh
अड
हड
##ingu
##न्दे
##पिंड
##बीटी
##ार्म
##ोट्र
107
Bar
mar
खेर
डेथ
डोग
तुक
Arab
देवा
दैवी
नाभि
माली
इजाजत
ज़रिए
तापीय
तुगलक
बेहोश
याज्ञ
शौचाल
##क्राफ्ट
अभिजात
एमटीवी
कथाकार
ज़िक्र
आनेवाले
उस्मानी
कृत्यों
गुरुवार
ट्रैफिक
युगांडा
प्रणालियां
महाद्वीपों
་
##सास
##्जन
OS
ut
##र्सन
##ाधीन
158
ईएस
चुर
नाख
माज
शकी
सता
हैम
७००
##मान्त
अतुल
इमेज
केली
परास
महीन
खुलने
दाखिल
फेडरल
बैठते
मदिरा
वैधता
##विन्यास
978178
क्योकि
भुजाओं
खजुराहो
दुकानें
प्रेसिड
फोर्ब्स
बारहवीं
##vironment
इंटरफ़ेस
चतुर्भुज
रेखांकित
भारतेन्दु
मुरादाबाद
रिपोर्टों
पूर्णकालिक
##Cl
##ux
##ंर
##ble
##ora
##ote
##ागम
##ावक
AL
Tw
##ड्डा
##ब्रो
##संभव
##िलिन
148
Red
कसम
तना
निख
भगव
सैक
##aplog
##ज़ाख़
एनएस
छिपे
पंकज
मेड़
योजन
टायसन
दिनेश
बर्फी
मुबार
रुझान
विलेय
शूद्र
##ोल्यूशन
अन्वेष
कैलिफ़
प्रपात
महापौर
सोलोमन
हावर्ड
##परिवर्तन
कारागार
निकालते
पेशियों
मध्यस्थ
##aplogroup
business
तख्तापलट
सूर्योदय
प्रतिभूति
मैट्रिक्स
वास्तुशिल्प
तुर्कमेनिस्तान
##ca
##ams
##vey
##भंग
Fe
उथ
##duct
##चनों
##ध्वज
##ूतों
138
टैब
होट
##ंस्टर
##डब्लू
1858
असंग
जनसँ
फ़ॉर
फिला
बपति
राइन
लोदी
सावन
##वर्गीय
##िनेंटल
अंतरा
अस्सी
कराटे
तलहटी
बगदाद
बोलती
लास्ट
स्पॉट
ज्ञाता
निराला
पेंगुइन
बहुमुखी
बीजगणित
रिश्तों
साइप्रस
आच्छादित
घेराबंदी
Microsoft
इंटेलिजेंस
निम्नांकित
हेपेटाइटिस
कोलेस्ट्रॉल
विश्वसनीयता
##lo
##ena
##unj
##फेन
##ोको
HS
##ंगीर
##वाकर
##ॉनों
126
Met
इयर
कुम
बसी
रमा
विड
शॉन
##ledge
काटा
छुपा
डिफ़
मृदु
सदिश
##कारिणी
##ियोजित
अंजलि
आर्यन
आवंटन
काउंट
दंगों
बहाने
बाल्य
सिक्ख
स्केल
अर्हता
चालकों
बमबारी
सुगमता
अखबारों
एडवेंचर
जनसँख्या
मताधिकार
हस्तशिल्प
##ंके
##बनी
##ूति
du
सख
##ग्नि
##ासाह
mag
बग़
सनी
##कलैंड
##ोलिया
Prin
कहें
कैसी
गूढ़
विगत
टमाटर
दांते
प्रखर
सत्रह
##ainment
Afghan
औचित्य
कामकाज
दफनाया
संयोजक
नौसैनिक
बिज़नेस
आइंस्टीन
नवरात्रि
श्रोताओं
सम्राटों
प्रतिरोधक
प्रक्षेपित
सॉफ़्टवेयर
विश्लेषणात्मक
##टीए
##शीत
##ोगी
##्रि
##pect
##र्टी
##स्थि
Mov
val
टोन
लॉग
हाम
२५०
1200
been
उछाल
ज़ेन
दौलत
बढ़त
बाग़
बेची
वंडर
वात्
हेले
१९५२
अंतरण
खंडित
तादाद
निर्म
फॉस्फ
बेटों
महाजन
अरावली
अर्बुद
आरोपित
मियामी
धूमकेतु
फतेहपुर
संतुष्टि
कार्तिकेय
भूविज्ञान
स्त्रियाँ
Government
##med
##नाड
##बूल
##ोबै
Di
PC
te
झी
पण
##arly
##ones
##क्से
##गराज
##जिये
##ामना
##ोपनि
cur
equ
अधी
आटे
एएस
गंड
त्स
बेक
रचे
सईद
1898
आजीव
पढ़ी
बिखर
भृगु
मनोक
लावा
विकी
१९५९
##ibrary
##गारिया
##द्वानी
under
जनसंघ
जन्मा
पिल्ल
बचाता
भट्ठी
वाटसन
सुत्त
सॉसेज
अगुवाई
इलाक़ा
पन्द्र
पिताजी
मतदाता
स्याही
शत्रुता
श्लोकों
आगंतुकों
उत्साहित
स्तनधारियों
तीर्थयात्रियों
##िलन
##ोशी
##ोहन
९४
##गीता
##डोना
##र्भर
109
Ben
str
चूर
नबी
पका
यदु
शूर
##कर्णी
##चिह्न
##धुनिक
##यित्व
##ांतरण
एंडर
एचडी
कैरे
खोने
जलने
ज़ाह
ज़ोन
बिंब
वराह
वाइड
सिलि
सीसी
स्को
स्नो
water
कसौटी
ग़रीब
जाटों
प्रया
प्रेत
ब्लूम
रणवीर
लॉजिक
वेनिस
हारने
##ागास्कर
किराये
खोपड़ी
राठौड़
संभाली
प्रेषित
हड़प्पा
पेशेवरों
वृन्दावन
शरणार्थी
प्रोफ़ाइल
हल्द्वानी
एक्यूपंक्चर
कार्यप्रणाली
##IO
##ke
##ंजा
##ब्ज
##aper
##ियोट
220
अवे
दंप
रैप
वाच
हंट
##भाषिक
1889
Russ
कर्ट
क्यु
जिमी
बीपी
अवतरण
गिल्ड
रीमेक
वायरल
States
अंतरिम
अंधेरे
कार्गो
कैमरों
पिथौरा
मालवीय
इकाइयां
ईमानदार
पांचवीं
रिवाजों
Education
टिप्पणियों
हस्तिनापुर
प्रतियोगियों
##Hz
##ज्ड
धू
##ophy
##ोग्य
इले
कटे
कीच
फाई
फॉल
बूँ
१७२
##टेक्स
##डेल्फ
##पोरेट
##ापत्र
char
उंगल
कैसा
चैपल
नीली
वर्ड
वैसी
सपाट
##्वाडोर
करवाई
गिरता
चश्मे
जुलूस
डालना
तांबे
त्राव
नक्शा
नहरों
नियता
पक्की
ब्रेड
हजारे
अप्सरा
एक्सरे
कर्त्त
गुजरते
नेताजी
पितामह
सीपीयू
अप्रभाव
बांसुरी
वक्तव्य
स्ट्रॉस
अल्ट्रास
मातृभूमि
नाइट्राइट
पुनर्जन्म
अल्पसंख्यकों
प्रतिभूतियों
α
##ोड़
##ords
##सिनी
ref
उंच
जैम
बैन
बॉन
वृष
सटे
##inese
##lands
##यन्ती
##यार्ड
NASA
जताई
शेंग
श्रृ
सीएन
##बहादुर
##मेंट्स
अनूठा
जिनपर
डालती
द्रोण
धड़कन
पट्टे
मच्छर
वर्दी
Christ
अनैतिक
आगंतुक
आदेशों
कस्बों
ताजमहल
इंसुलिन
इमेजिंग
स्केटिंग
व्यवहारिक
प्रस्तावना
स्क्रीनिंग
आत्मविश्वास
##RO
##गू
##ava
##ौजी
di
##ling
##जोड़
##वान्
##वारे
##ेक्स
##्याम
इकल
ज्य
डीप
नफर
नाई
##आयामी
##मण्डल
एक्व
काजल
कैटल
फाल्
रशीद
लपेट
हलके
##िक्षित
उखाड़
कास्त
झाँसी
ट्यूर
पहाडी
पेनिस
मुरली
सीताम
सुचार
##्वेनिया
अहंकार
एयरवेज
ऑस्टिन
ग्रसित
चुम्बक
निशाने
पीटर्स
मजिस्ट
रिटर्न
जहांगीर
काँग्रेस
रहनेवाले
वर्षगांठ
आर्किटेक्चर
##mp
##तरे
##हृत
##िएन
Do
Gr
TV
०२
९२
##ices
##ड़ला
##वाडा
##ितिक
end
मिग
वेट
सला
##ोजकों
pres
अनाम
कैरी
चांग
ढलान
बहार
मद्द
रसोई
लूथर
साम्
निसान
पैसों
बायोम
बार्क
मुझसे
##जनात्मक
Guides
निद्रा
बादलों
मॉस्को
राजकमल
आँकड़ों
कीबोर्ड
ध्वन्या
मेट्रोप
परित्याग
बागेश्वर
समाविष्ट
प्रत्याशी
क्रियान्वित
##SE
##मठ
##eli
##ika
##केत
##दाब
##मिश
##िपा
GE
IB
टच
##ween
##कुशल
##टेक्
##ैर्य
103
चॅक
चौथ
डेप
##क्ष्ण
##वर्धक
##विकास
##िविटी
धाबी
फ़ैल
रसेल
लीडर
१९६८
##ashmir
##वेनिया
group
फ्लैट
मुराद
लेसनर
econom
jagran
एकांकी
एथिलीन
कारगिल
ट्रेलर
तस्करी
पच्चीस
परमहंस
मूत्रा
मैंगनी
मैनुअल
आयताकार
चिह्नों
पैट्रिक
इंडियाना
प्रदाताओं
##bo
##rd
##ele
##बीज
##ॉमी
##aily
##ंकुश
काज
कीन
पैड
लखी
1886
एससी
कॉलम
जुडो
डब्ल
डाया
तबाह
रोजर
वीजा
##ctions
##पद्धति
##मेनिया
अम्मा
किर्ग
कुषाण
गणपति
डेनिस
नैनोट
पिशाच
पोटैश
फसलें
बुनाई
मंडली
वॉल्ट
सपनों
आवृत्त
इसराइल
कार्टू
दलितों
बड़ौदा
बैंगनी
अहमदनगर
द्रव्यों
पूर्णांक
मनोकामना
आनुवंशिकी
पूर्वार्ध
प्रतिजैविक
संख्यात्मक
##bit
##खेत
##जाम
##लाय
##सरत
##ूवर
Mu
ढक
८७
##ogen
##ster
##work
##एलसी
##करों
##गोवि
##न्टन
##लाया
##सूची
##ोमणि
##्युल
मून
येल
##ज्ञों
##टिलीन
##ब्बों
##र्कों
आदिल
उपमा
चबूत
झंडे
टापू
डैनी
थापा
दवाई
मंचन
महिल
##मीडिया
##्वाइंट
after
years
कासिम
कोणीय
खजाने
जलाने
जस्ता
जिंदा
नागौर
नाबाद
महाका
लहरों
सल्फर
स्टॉप
अमूल्य
अम्लों
कायस्थ
मंजिला
सत्संग
सर्वोप
इंगलैंड
क्षितिज
सिलिकॉन
स्ट्रिप
प्रमाणों
विन्डोज़
तात्कालिक
इंडोनेशियाई
मेसोपोटामिया
9780190913038
कैलिफ़ोर्निया
##AD
##चू
##rah
##खने
##धीय
##फलक
ge
जठ
##ibet
##ल्लम
##वाची
##ास्व
करम
कली
घों
चिट
मशी
सरे
##https
##सेल्स
##्रियन
आज़म
एनडी
कैसल
घटती
चंदन
छड़ी
धागे
नंदा
नफरत
पुंज
मालव
##ियाबाद
class
अदिति
कामुक
कुतुब
टिकाऊ
देवों
विष्ण
श्राप
साकार
साहसी
सोचता
स्थला
Histor
census
एनर्जी
कक्षीय
कोल्हा
गायकों
नितांत
सुधारक
डोनाल्ड
महाकल्प
मृत्युद
articles
नौकरियों
बपतिस्मा
रॉबर्ट्स
संस्थाएं
सहभागिता
विरोधाभास
प्रत्यावर्ती
##तून
##लें
##िरल
बघ
##ould
##विदा
##शाखा
##ेंचर
MSN
MTV
Mor
ओझा
गदा
टोय
रेज
१७४
##फोर्म
##सोर्स
##्यूसन
1884
Mart
अभिल
कुटी
मठों
सुले
१९३५
१९५८
##andard
##estern
##वाकिया
अपडेट
पुष्य
बिल्ल
लापता
सत्तर
चटर्जी
डेटिंग
पार्कर
फेरारी
फ्रायड
मॉरीशस
कलेक्टर
क्रीड़ा
पराक्रम
नारीवादी
माइग्रेन
समस्याएँ
प्रेमियों
विभिन्नता
प्रस्तावों
साम्राज्यवादी
##77
##नेई
##्शा
७९
##आईएस
##सियस
##ाज्ञ
144
Ltd
Sol
bas
नरक
फरी
बँग
याम
हमे
१०८
##ानिर्
##िप्रे
view
अनार
अस्व
इयान
जियो
देखो
बर्ड
वक्ष
सम्य
सरहद
हटने
एप्ली
काराक
जावेद
दसवें
नासिर
लिफ्ट
हेगेल
##ricinfo
##ीनारायण
दिखलाई
दुर्गम
परोक्ष
कुशीनगर
धारावाह
फिल्म्स
शीघ्रता
##roduction
आकृतियों
मूत्राशय
समुद्रतल
अल्पकालिक
बुद्धिमत्ता
शरणार्थियों
महत्वाकांक्षी
हाइड्रोकार्बनों
##IM
##१२
@
##alt
##सैट
##हमी
##िसा
##ोगा
गृ
##ंगना
##सूचक
You
air
कूच
देय
मुस
मूक
लाद
श्म
होप
##र्भाव
आयुध
जमान
फर्क
शोधन
सीसा
##ग्राही
##ानियों
खांसी
छोड़ी
नगरीय
पनामा
भट्टी
रिसाव
##ination
Europe
राजमहल
आश्वस्त
बहादुरी
मानसिंह
राज्यकाल
संतोषजनक
प्रक्रियाएं
##RE
##ंशा
##एगा
##लिक
##लित
##्मय
Of
##प्रा
##वांस
##शब्द
##िएशन
##ोर्क
Mil
अमल
बिय
लटक
विव
शील
सरो
##istic
##वर्मन
##ारियो
##ार्टन
East
will
कगार
थाना
पर्ण
फलतः
विशद
सेले
स्कॉ
१९३६
इस्ता
उपासक
सप्तम
##णाचार्य
छोड़ते
जिन्हे
डिप्टी
प्रभात
हरिवंश
##चिकित्सक
आजीविका
प्रवृति
लॉर्ड्स
हरियाली
अपमानजनक
आधारशिला
दुश्मनों
प्रशंसित
स्वच्छंद
rajasthan
ग्रंथियों
नैनोट्यूब
संवाददाता
प्रमाणपत्र
##तट
##ुई
##ुचि
##्रू
so
##ंबुल
124
750
Ber
क्य
खदे
चाक
पाश
लूप
वैट
##ंद्रा
##ण्विक
##वार्ड
अचार
ख़बर
जोकर
मनीष
मैरा
राघव
वानर
##जीविता
##ाग्रता
अकेली
छोड़े
त्वरण
दार्ज
द्वाद
प्रसू
विस्म
##ज़रलैंड
##ियोलॉजी
अशांति
असहयोग
नागराज
पेंसिल
फ़ार्म
मॉनिटर
वाल्टर
सिक्का
जलमार्ग
प्रमाणन
फ़िलिपी
सरकारें
आपूर्तिक
गुणात्मक
परिच्छेद
परीक्षित
ब्रितानी
विकलांगता
स्पाइवेयर
##66
##पर्
##बला
##शाख
##ोपो
हठ
##प्पन
##मेकर
##विजय
##ाइंग
अता
एर्
कटि
केट
कोस
गोड
तिक
थाम
##त्नों
##ाइयाँ
Turk
stat
डिली
बराक
लांग
१९२१
##वर्मन्
##्वीकरण
Tibet
found
घूमता
धमाके
बन्दी
आपरेशन
करेंगी
कावेरी
जस्टिन
निबन्ध
अभिकल्प
कामयाबी
निरंकुश
प्राच्य
लैंडिंग
सिरदर्द
सीमान्त
निदेशालय
पोर्टफोल
फ़्रांसि
मधुमक्खी
माईस्पेस
पुरुषोत्तम
##एर
##खोर
ओत
हँ
##फल्स
##रणीय
##्वेज
How
inc
mil
अवा
उबर
चरक
चौख
भुट
रची
##ग्रीव
##तीर्थ
तेरी
दुरी
भलाई
ममता
रेज़
स्पा
हिरन
१९५३
##केंद्र
##द्रव्य
अधिगम
कॉन्स
चलाये
डायोड
त्यों
दुर्द
पराबै
रेशों
ह्यूम
अंतर्द
क्राउन
मुहाने
रामनगर
लोकपाल
वर्त्त
शौकिया
कॉर्नेल
ग्रेजुए
दयानन्द
वाक्यों
विभूषित
कंबोडिया
पंद्रहवी
महाप्रभु
कॉरपोरेशन
प्रारूपों
धारावाहिकों
##ङ्
##ten
##केर
##ज्य
##तम्
##त्ल
भद
##आईएल
##कीपर
##दिनी
##बूतर
##योजन
##ष्का
sci
थिर
पुट
मिज
वीक
##ताराम
आईडी
उपवि
चीता
चुनि
तपेद
तुग़
दांव
यूनी
राइड
सीरम
##यात्मक
आर्के
किंगफ
देवगन
द्वेष
धनबाद
नोट्स
मिशनर
संवर्
हुक्म
गुस्सा
जीविका
पुष्कर
village
इकाइयाँ
उत्तेजक
किस्में
माउंटेन
मानकीकरण
संदर्भों
नक्षत्रों
फर्ग्यूसन
वित्तपोषण
अंटार्कटिक
लुप्तप्राय
स्वायत्तता
##TE
##ng
##आम
##धु
##ief
##ोंड
NY
तौ
बत
##ज़ीर
##ारित
##ोजेन
inv
mus
एनए
छतर
१५५
##क्सीन
##पात्र
##बियाई
soci
खादी
१९३१
१९५१
Found
Great
River
इमरान
गिद्ध
चिम्प
पाताल
समकोण
हवाले
हिसार
##जीवियों
एंडरसन
दीपिका
रामदास
सिखाने
##डेल्फिया
कमिश्नर
सर्वनाम
भिक्षुओं
मिश्रधातु
व्यवहारों
haplogroup
रिपोर्टिंग
वेस्टमिंस्टर
##TP
##co
##eal
##eek
##lim
##मीड
##रणी
IM
जक
##abad
##oman
##ंकित
##णकोर
##नाइड
##न्धा
##ान्ट
240
Sam
Tel
sch
छड़
फ़ो
##round
##wards
##गार्ड
##ारोही
आयकर
गुज़
जबरन
नारे
पवार
रैंड
Earth
कास्ट
कैप्स
ग्लेन
जाग्र
ट्रेक
नाविक
परिसी
पिस्त
पोर्श
बारबा
बुलंद
वेल्श
सज्जन
report
टोयोटा
डेब्यू
महानदी
मांगने
विधायी
शेंगेन
Chinese
Richard
गाजीपुर
जयप्रकाश
ग्रामीणों
विवेकानंद
चिकित्सालय
दार्जिलिंग
न्यायमूर्ति
प्रभावशीलता
सैद्धान्तिक
अफ़्ग़ानिस्तान
##भ्य
##रूम
##लोग
##शरण
hi
बड
रश
##बेटन
##ाल्ट
114
Cap
der
खैर
चाम
पीय
१५६
##rough
##ाइनरी
##ृष्टि
1882
1897
एप्ल
कैरि
प्रग
बर्ग
माउस
मुंग
यांग
रडार
##प्रचार
##संहिता
आयामी
टिहरी
धब्बे
नवाजा
पदभार
पांडव
पोर्न
भ्राम
सेवार
चतुर्द
डेक्कन
तपेदिक
बढ़िया
बिड़ला
श्रावण
हफ्तों
जूनागढ़
पहुँचाया
Rajasthan
प्रसन्नता
मरणोपरांत
स्टैंडर्ड
अत्याधुनिक
साम्राज्यों
##ps
##छे
##che
##for
##ype
##गोश
##ज़म
EC
Rh
क्
##ansk
##ंचरण
##ल्टर
dif
आंब
कैड
पते
फीड
भुज
हाद
##पृष्ठ
##्वरिन
1893
only
अबुल
दुबे
बीता
यूएन
व्ला
३०००
##ोद्धार
एमबीए
कार्स
क्राय
पहेली
बढ़ना
मुमता
मेरिल
साहनी
सेमिन
##ोर्गिनी
अधिकरण
अश्लील
आयामों
आरण्यक
देवराज
पढ़ाने
पहियों
प्रवचन
प्रीतम
मिर्जा
विखंडन
स्थलीय
हैसियत
उत्साही
नीलगिरी
किंगफिशर
थाईलैण्ड
साम्यवाद
अज़रबैजान
अल्बानिया
युक्तियों
Publishers
गुरुद्वारा
बलूचिस्तान
कार्टूनिस्ट
पोर्टफोलियो
प्रेसीडेंसी
हिप्पोकैम्प
##ih
##कोर
##डित
##ावल
CN
CP
डल
##गुना
112
Eth
झों
पीट
पोख
रुद
शर्
सेफ
##क्शंस
##दाश्त
##ेंड्स
work
एवम्
जामा
बेलन
मिज़
रूपए
समेक
##िपियों
अय्यर
उल्का
केसरी
जयदेव
निचला
प्याज
प्रेय
प्रोग
आकारों
ठिकाने
नर्तकी
मिशिगन
लिविंग
श्रोता
General
आदमियों
जहाँगीर
अठारहवीं
अल्फ्रेड
कांतिमान
नाममात्र
रोचेस्टर
स्पार्टा
कार्बोनेट
न्यूट्रॉन
प्रतिमाओं
बल्लेबाज़
वर्त्तमान
विषाक्तता
##IL
##ras
##uri
##कोल
##लेक
##ूषक
ऑग
##एमएल
##दायी
##फ्यू
##वल्क
##सेवी
कलर
चॉक
ज़ु
यूथ
##eriod
##यरिंग
##वाक्य
1872
Land
एमएम
चाकू
ज़ां
मिथक
रीडर
सचेत
##indust
इराक़
किलों
नमकीन
मार्स
राजसी
लौटकर
##लिस्टिक
Report
अभ्यार
कारणवश
निरस्त
मज़दूर
रिपोर्
विधिवत
अनुग्रह
प्रैक्ट
मानविकी
संगीतमय
अतिक्रमण
आक्रमणों
एकाग्रता
निरंतरता
पोटैशियम
प्रतिशोध
प्रकाशनों
ब्रॉडबैंड
योजनाबद्ध
स्थायित्व
##li
##छी
##rew
##टोन
##संप
##ॉफ़
गढ
##rown
##आईसी
##प्शन
##रेशन
##र्बी
##स्ली
121
अंस
एजे
जुआ
ढका
यरू
हँस
होन
##unjab
##पलिंग
1888
Life
main
उबाल
गढ़ा
झाड़
ट्रू
डाकू
धोने
मंज़
१९३७
##ंतपुरम
अनोखा
कंटेन
क़िले
ठहरने
डेविल
द्वैत
पक्षा
फॉण्ट
बादाम
मांसा
शाहिद
स्टडी
##itation
Spring
तोड़कर
पकड़कर
फुफ्फु
विचलित
सन्यास
सपोर्ट
समान्य
सुंदरी
सेवारत
अण्डमान
इस्माइल
क़ानूनी
गड़बड़ी
पक्षपात
पांचवां
मछलियाँ
माधोपुर
हुमायूँ
क्राइस्ट
मतदाताओं
वूल्वरिन
त्रावणकोर
कोरियोग्रा
अर्थव्यवस्थाओं
##जक
##ेतन
Bo
ईश
##साया
##सारी
##ेंदु
Kal
bbc
est
ज़े
थें
धृत
नवर
लोर
शिख
१३०
१६७
##न्सिल
##वर्मा
##िनिटी
##िल्या
1881
This
fact
अनशन
ऑर्थ
कलाई
कामा
कैदी
गोरी
झुंड
डिस्
फ़ौज
लाओस
वादन
वेंट
स्कि
१९३९
##azette
##प्रमुख
Relig
इराकी
एकरूप
जाड़े
जायें
पक्का
लाभों
वैराग
अंपायर
अश्विन
किग्रा
डायमंड
फिटनेस
अगस्त्य
उपेक्षित
सूत्रपात
स्वरूपों
विज्ञानों
वैश्वीकरण
आत्मनिर्भर
कल्याणकारी
परिसंपत्ति
लेम्बोर्गिनी
##ैद
##yal
##जेन
##मुन
##िएर
##्ना
ऍन
##न्डे
##बाहु
##रेसा
##र्डन
Net
गगन
बेड
वीन
##umber
##बिंदु
##वेल्थ
ओजोन
क्रा
तक्ष
तुंग
दशमल
विंस
विज़
शालि
##बिलिटी
##ायुक्त
Hindi
आईएसओ
आमदनी
इक्की
दशहरा
पूछने
भावुक
मरियम
महंगी
संकोच
हिजरी
##धिकारों
जोड़ना
तानसेन
मधुबनी
मुबारक
सिन्धी
स्टडीज
स्टीवन
स्विंग
हार्ले
परिचायक
प्रिंटर
बर्तनों
रेडियोध
सदस्यीय
ज्ञानपीठ
निष्पादित
मिलीग्राम
वेबसाइटों
गतिविधियाँ
मात्रात्मक
निर्माणाधीन
बांग्लादेशी
फिलाडेल्फिया
##55
##ED
##थेल
##लयन
##्शी
##ivil
##जवान
##टीआई
##नीचर
##ियास
##ूंगा
San
बुन
मक़
##erala
land
आइटम
जेली
दिखे
पनीर
विरल
१९२८
१९४६
##alysis
##क्रिप्
##ब्रिटी
##मास्टर
अनोखी
असत्य
कोट्ट
द्वित
लगेगा
चांसलर
मसालों
शर्तें
सन्तान
अंडाकार
आत्माओं
कदाचित्
डाटाबेस
विश्वभर
सांसदों
आविर्भाव
पृथक्करण
शब्दार्थ
शिक्षाओं
कंप्यूटिंग
##वॉ
##ुओ
##९०
م
##ues
##ute
##बिर
##शलम
##ुपद
##ोमी
au
##arat
##ोज्य
जों
ठेठ
बाथ
बीड
बीम
याक
##लेटिक
##ेशन्स
आएगा
इंटी
जुडा
डेरा
पधार
पुरु
माहा
रेगि
सुशो
हमीर
##नेवाले
##ोजेनिक
power
अख्तर
अपघटन
अहसास
एग्री
परमान
मुंडा
रक्ता
विजया
स्वंय
अंडमान
ग्लूको
दिवंगत
ब्रैंड
विंध्य
समष्टि
उत्सवों
ट्रेनों
रामलीला
अविष्कार
ऐसीटिलीन
मनुस्मृति
सन्दर्भित
फ़्रांसीसी
व्यवस्थाओं
सहस्राब्दी
स्क्वाड्रन
तीर्थयात्रा
##थो
##ओवर
##गुल
##डीह
##तवा
##तिर
##वीन
##होम
ep
##ella
##आरएस
##द्या
##वाती
146
doc
एजी
गंज
जगा
टोट
बिठ
भेष
मैर
हवन
##नाकार
##स्तंभ
##्युलर
Iran
Long
अंधा
अविक
एमबी
घोषण
देओल
धोनी
बीवी
रनवे
विरह
सरयू
१९१९
१९२९
##ंगिकता
ऑडिशन
गौत्र
चोटों
छलांग
तैमूर
मिडिल
विसंग
स्कंद
##कृतियां
किण्वन
दिग्गज
बेसबॉल
सकेंगे
हिरण्य
एजेंटों
किपलिंग
कुण्डली
ख़लीफ़ा
प्रिक्स
प्वाइंट
शिवालिक
ऑस्ट्रेल
हॉस्पिटल
असुरक्षित
गोल्डबर्ग
त्यागपत्र
महासागरों
राजपरिवार
फिलिस्तीनी
विवेकानन्द
नीतिशास्त्र
क्रान्तिकारियों
##bs
##१५
##बाब
##ेरा
र्
##फर्ड
##ोनरी
Mas
करत
जीप
जेक
लेड
हक़
##atest
##ज़ेशन
##ल्डेम
अभिश
एमपी
कतार
गहने
ढूँढ
निगल
पाँव
पारे
मर्द
मस्ट
मिडल
रेगे
समया
Peter
ताँबा
भागीर
वेदना
सज्जा
स्टुअ
स्लैम
खुराना
ग्रैमी
चक्रों
फ़ैसला
मोहिनी
सम्पदा
अग्रदूत
कूटनीति
ड्राफ्ट
वॉल्यूम
अथर्ववेद
क्रोमियम
दिशानिर्
सर्वोपरि
सुन्दरता
स्टेरॉयड
प्रिंसिपल
रक्षात्मक
संप्रभुता
समीक्षाएं
दुर्घटनाओं
निष्कर्षों
प्रणालियाँ
मजिस्ट्रेट
प्रतिद्वंद्विता
##yg
\
##arm
##rum
##ँगा
##ंबू
##आईए
एह
##berg
##डेंट
##ेन्ट
आभा
एबी
टेन
डुब
वाङ
##विहीन
##ोरियन
1892
File
Prak
कीमो
छतरी
थैली
फिशर
बैरल
मुक़
रज़ा
समोआ
सान्
##दृष्टि
##ेनहाइट
गैसें
त्रिन
नगण्य
निषाद
फ़्री
फिंगर
बहराइ
लेखनी
संघटन
स्कार
##ultural
अल्फ़ा
इक्कीस
कार्टर
त्रिवे
नौजवान
पांड्य
बाल्टी
सुनहरे
##कर्मियों
##प्राप्ति
आयोजनों
उपनगरीय
युद्धपो
सर्बिया
अँग्रेजी
आईएसबीएन
फोरेंसिक
बेंजामिन
बुल्गारिया
राष्ट्रकूट
डिस्ट्रिक्ट
दिशानिर्देश
##ोभ
##लीस
##ाईल
Op
##apan
##ible
##ucle
##गर्स
##ज़ेब
##हरान
##िटिक
111
एके
कनक
डोल
बुझ
वलय
##apter
कुली
घाना
ज़मी
मीणा
साईट
सीखी
##ोग्राफ
अभिला
कानों
कुंडल
चंदेल
डोमिन
नेहरु
बताना
मिर्ज
रुक्म
वृक्क
इन्दौर
कैलोरी
गॉर्डन
ढूंढने
तूफ़ान
नालंदा
वाष्पी
सर्पिल
9788170
करिश्मा
ग्राफिक
छत्रसाल
देहान्त
म्यूनिख
वर्चुअल
समतुल्य
तत्त्वों
मुख्यतया
प्रतिकृति
सूर्यास्त
Statistics
क्षत्रियों
##ira
##दशा
##विर
##शास
##ajor
##rish
##त्वा
##न्ति
##र्शी
##ैन्ट
##ोप्स
Ins
pat
डाट
दाऊ
भूर
##erman
##ident
##iving
##ments
##ोरियम
1848
1883
long
than
आईजी
निको
नैना
पेले
बिजन
बेदी
मस्त
रोधी
लगान
संशय
##वेन्यू
घटाने
बाइबल
मरीज़
मुक़ा
यशवंत
रिमोट
लुकास
सिल्क
##anskrit
##न्त्रिक
अधीनता
एलर्जी
मद्देन
रिश्वत
सीरियल
अनुशंसा
तिरुपति
मंत्रों
रेसलिंग
वैराग्य
शिविरों
अधिकारिक
छेड़छाड़
मार्गरेट
अनुपयुक्त
जिन्होनें
डायरेक्टर
पिथौरागढ़
अपार्टमेंट
प्रतिबंधों
कॉम्प्लेक्स
दुर्व्यवहार
##RM
##िष
##pro
##चलर
##फोर
##विम
SC
##ंजीत
##काली
##ण्टी
##मिशन
##ार्द
##ावान
##िन्स
##ूदित
122
कैच
गमन
जॉय
तपो
भगा
मोग
##कोर्ट
##जुएला
##बोरेट
##भाजित
##विधान
##सीएलए
##ांकों
Fall
टेलि
हटकर
##वल्क्य
असंगत
एटीएम
ओलिवर
कीचड़
कुष्ठ
गुटों
दशमलव
नमाज़
बायीं
मिलीं
मैथुन
##agement
Associ
अंधकार
अरविंद
अविश्व
किराया
किशोरी
कुमाऊं
द्वापर
भूगर्भ
अपमानित
अश्विनी
इन्दिरा
धमनियों
बेटियों
दिवालिया
स्टुअर्ट
क्रियाकलापों
##ण्ठ
##सिं
##ॉजी
CM
SW
ऐप
##ries
##चरों
##म्हा
##रबंद
##राहट
rem
जर्
जाइ
नवल
##askar
##वृक्ष
काटे
छापा
जीएम
दोहन
मूंग
संगो
three
अव्यव
पल्लव
बलदेव
राँची
लेआउट
श्रुत
सतहों
इफेक्ट
ऊर्ध्व
खिंचाव
जुड़ाव
विघटित
Kashmir
कल्याणी
योजनाएं
अनुवादित
बारबाडोस
साक्षात्
प्रत्याशा
विज्ञप्ति
इंडस्ट्रीज
इच्छानुसार
ब्रह्मचर्य
द्रोणाचार्य
काव्यशास्त्र
β
##ंसे
##डमी
##रोट
IT
Je
आओ
##cent
##ival
##फ़िश
##फाइड
##बोली
##र्घा
Val
dep
ऋषभ
कटा
डिम
दशम
निप
यूए
वली
##विवाह
##स्खलन
अमाव
जंजी
झुका
पुरे
फिक्
मुसी
लापर
सेने
१९३२
##ington
##ज़्ज़ा
##संख्या
खत्री
छोड़ो
##ा
##क
##र
##्
##े
##ि
##स
##न
##त
##ं
##ी
##म
##ह
##य
##प
##ल
##ो
##व
##द
##ज
##ै
##ग
##ब
##ु
##।
##श
##ट
##,
##अ
##ए
##थ
##भ
##ू
##च
##ड
##ध
##इ
##ष
##उ
##औ
##आ
##ण
##ख
##़
##फ
##ई
##e
##1
##0
##a
##-
##"
##.
##)
##i
##(
##t
##n
##o
##2
##r
##s
##ृ
##9
##ौ
##ॉ
##छ
##l
##ओ
##ँ
##h
##घ
##d
##ठ
##c
##8
##5
##१
##3
##m
##7
##u
##:
##4
##'
##6
##०
##p
##/
##g
##ढ
##२
##y
##ञ
##f
##w
##९
##S
##ऐ
##ऑ
##झ
##A
##b
##I
##C
##५
##८
##v
##ऊ
##७
##ः
##P
##k
##३
##]
##[
##B
##M
##T
##४
##६
##D
##N
##;
##R
##E
##%
##H
##L
##G
##|
##O
##F
##॰
##W
##’
##‘
##x
##U
##V
##=
##K
##J
##ऋ
##j
##–
##_
##ॅ
##z
##?
##!
##&
##q
##X
##Y
##+
##”
##“
##$
##Q
##॥
##°
##ऍ
##—
##Z
##ङ
###
##^
##>
##ا
##*
##ळ
##é
##<
##ل
##`
##•
##م
##ॐ
##ر
##ā
##£
##}
##ن
##ऽ
##α
##{
##−
##₹
##ऱ
##×
##و
##о
##া
##а
##ب
##د
##á
##~
##ي
##и
##ی
##ॊ
##س
##ü
##е
##í
##ॠ
##·
##ö
##н
##β
##ο
##ॆ
##р
##্
##་
##র
##μ
##ع
##π
##с
##@
##ν
##́
##ó
##σ
##ρ
##ς
##ح
##்
##ت
##\
##в
##€
##ī
##л
##ι
##к
##′
##ε
##ة
##ه
##ä
##æ
##τ
##ॄ
##ব
##⁄
##ˈ
##→
##ə
##ː
##т
##λ
##ऩ
##ন
##ō
##γ
##ç
##ऎ
##ি
##ج
##è
##ল
##ম
##ু
##ش
##â
##ق
##দ
##κ
##É
##δ
##д
##ف
##ñ
##್
##്
##у
##خ
##ி
##ū
##ர
##à
##ز
##ক
##ত
##●
##💐
##±
##י
##ک
##ে
##ω
##ί
##ா
##য
##θ
##й
##м
##ہ
##স
##ك
##প
##க
##్
##ী
##φ
##ਾ
##ɪ
##￼
##ರ
##η
##ό
##ά
##ו
##г
##়
##த
##›
##ص
##ర
##ོ
##ـ
##ಾ
##‚
##ч
##ऴ
##ר
##ॿ
##ས
##»
##أ
##হ
##ம
##ה
##§
##ú
##॑
##ு
##ా
##★
##п
##ા
##ར
##я
##॒
##ă
##ɛ
##υ
##ы
##শ
##ē
##ś
##ਰ
##Δ
##ط
##С
##ல
##ര
##ി
##ã
##ാ
##ø
##І
##א
##ക
##်
##Ö
##ı
##х
##ॾ
##ਸ
##ச
##ಿ
##ɑ
##б
##گ
##▪
##َ
##ऒ
##ன
##ು
##®
##ো
##ṭ
##中
##国
##🌹
##ô
##চ
##வ
##ు
##ப
##ག
##ང
##√
##ş
##χ
##ి
