[PAD]
[unused0]
[unused1]
[unused2]
[unused3]
[unused4]
[unused5]
[unused6]
[unused7]
[unused8]
[unused9]
[unused10]
[unused11]
[unused12]
[unused13]
[unused14]
[unused15]
[unused16]
[unused17]
[unused18]
[unused19]
[unused20]
[unused21]
[unused22]
[unused23]
[unused24]
[unused25]
[unused26]
[unused27]
[unused28]
[unused29]
[unused30]
[unused31]
[unused32]
[unused33]
[unused34]
[unused35]
[unused36]
[unused37]
[unused38]
[unused39]
[unused40]
[unused41]
[unused42]
[unused43]
[unused44]
[unused45]
[unused46]
[unused47]
[unused48]
[unused49]
[unused50]
[unused51]
[unused52]
[unused53]
[unused54]
[unused55]
[unused56]
[unused57]
[unused58]
[unused59]
[unused60]
[unused61]
[unused62]
[unused63]
[unused64]
[unused65]
[unused66]
[unused67]
[unused68]
[unused69]
[unused70]
[unused71]
[unused72]
[unused73]
[unused74]
[unused75]
[unused76]
[unused77]
[unused78]
[unused79]
[unused80]
[unused81]
[unused82]
[unused83]
[unused84]
[unused85]
[unused86]
[unused87]
[unused88]
[unused89]
[unused90]
[unused91]
[unused92]
[unused93]
[unused94]
[unused95]
[unused96]
[unused97]
[unused98]
[unused99]
[UNK]
[CLS]
[SEP]
[MASK]
##ու
##ան
##եր
##ար
##ակ
##ին
,
##ում
##այ
հ
##որ
է
##ներ
##ել
մ
##ական
ե
##ութ
##ամ
։
կ
##ությ
##ուն
##ատ
##ավ
##աս
ն
թ
##ով
գ
եւ
տ
1
ա
##են
##աց
-
##ետ
##ած
##ություն
դ
:
Ա
բ
ս
պ
##ից
##ագ
##ոն
որ
##ող
##ալ
##եւ
##ես
##իր
##ների
##ության
##իս
վ
՝
##եղ
են
)
(
.
##ային
թվ
##ահ
Հ
##ազ
թվական
##ման
##եց
##աղ
##առ
2
Մ
##ված
##անի
ան
##րա
##երի
«
»
19
եր
##վել
շ
այ
համ
##ուս
Ս
մի
խ
ար
ք
##վում
##ուր
##ադ
##ները
##այի
##իկ
ը
##ույ
##ոս
##աստ
Բ
Կ
##ավոր
##ապ
առ
նա
հետ
մե
##ոլ
##յան
##աշ
ին
##րան
20
լ
##աք
##աբ
##իտ
##ությունը
##անակ
Ն
իր
##անում
##աջ
##եմ
տար
##անդ
Գ
օ
ըն
էր
ու
##իմ
##ործ
պատ
փ
"
##ազմ
##արդ
##իլ
##ամբ
թվականին
##այն
##եռ
##եկ
չ
զ
##ախ
##տն
Վ
ժ
##րո
Պ
##արի
##արձ
##երը
երկ
Ե
##ոտ
ծ
Դ
Լ
առաջ
##քի
հայ
վեր
##ստ
մաս
##պես
##նակ
##արտ
ավ
##իվ
ստ
համար
##շխ
##րջ
##ուց
ամ
ֆ
թվականի
ի
##յու
##արկ
Ռ
##որդ
##րի
##ոմ
##արգ
##րդ
ձ
##նում
##քում
##աթ
##ափ
##անգ
տեղ
##աղաք
Այ
Ի
ժամ
##այում
##ագր
ուն
##տր
##ելի
201
##իայի
##իչ
##ոց
ներ
կազմ
աշխ
Տ
##բեր
##ադր
կար
##ուլ
##ոխ
##er
ց
այն
գործ
3
##ույն
ժամանակ
ռ
Ֆ
##եպ
200
##քը
##ներին
ճ
գր
նաեւ
քաղաք
##նդ
շրջ
##ությամբ
##ատար
որը
միջ
հար
##անը
##an
##եյ
##ոյ
##իսկ
Ար
18
/
Թ
##ացի
##in
##ոշ
##ագործ
##վեց
Հայ
սկ
##նել
##ներից
##ներում
Ո
##ուտ
Շ
Ք
##ոչ
նախ
##իպ
Եր
հիմ
ապ
##on
##ումը
##անց
##անկ
##աժ
ազ
վրա
մեկ
##նական
##իզ
##եղծ
եղ
##յալ
##եք
էին
##իստ
նրան
կամ
աշխատ
մարդ
ինչ
##ավար
օգ
ընդ
տես
Է
##ոգ
մեջ
Խ
##եզ
##ներով
կող
##ությունների
իսկ
որոն
օր
##ացել
##ar
##or
##յուն
այլ
4
##աշտ
##սկ
Օ
##արհ
ջ
5
##ակի
##պան
##es
##ուկ
նկ
S
##շտ
այդ
##ակում
առաջին
որպես
կողմ
##այր
##աբեր
##ելու
մեծ
հետո
##յուս
խաղ
##աճ
##ոկ
##en
##սի
##իսի
A
հանդ
Ջ
##ոնի
##լի
շար
##անք
տարած
##յուղ
կառ
##ինչ
##կեր
մար
հաս
հավ
րդ
##ոդ
կեն
նրա
##ույթ
##ելով
`
արտ
##եստ
##արան
հայտն
գտն
մոտ
անց
C
##ակեր
##որհ
##աձ
գետ
ստեղծ
##երին
##կայ
##երում
կր
##աստանի
##ալի
##al
Ու
կմ
##at
6
M
199
կազմում
անվ
T
կարող
##00
Ան
նշ
##մբ
բնակ
##իան
##րց
կողմից
հատ
հեռ
պետ
##ակց
##he
##իշ
##տեղ
Չ
ուղ
##ուհ
պահ
##յուր
##աչ
մինչ
##նի
տարբեր
երկր
##իլմ
հր
##արձր
I
սկս
եղել
B
##վող
##ոք
##ինակ
##գային
##եդ
ամեն
Ալ
մրց
##ագույն
##իճ
##ենց
նոր
անգ
ավելի
արդ
##իդ
7
##եգ
Փ
##ic
պատմ
##րոց
էլ
##ոլոր
##ակայն
##ապես
որոնք
P
եկ
պար
մասին
##տրոն
##is
ներկայ
##եխ
դեպ
ունեց
գլ
ոչ
##ությունները
##թաց
Յ
##եթ
բաց
##րապ
կատար
վերջ
որոշ
##եմբ
մինչեւ
փոխ
N
##ոստ
ուս
8
կան
##ություններ
օգտ
կայ
բարձր
##ակարգ
գյուղ
##ինգ
##արակ
##եցին
##անական
Մի
պայ
այս
Զ
նկար
երգ
R
դարձ
##ուշ
##արար
ներկայաց
t
ինչպես
##քն
##զի
##եմբերի
##անձ
##ատր
D
##ինի
աստ
##ողով
##իթ
պաշտ
##it
198
որտեղ
##տի
կապ
9
աղ
երբ
##ենի
գիտ
##ացած
##ացման
շրջան
քանի
##րել
f
օգտագործ
ակ
ֆիլմ
##ողջ
##նտ
##իա
##ներն
արեւ
Այս
թվականներին
##ափոխ
##ապետ
H
երկու
դեմ
197
գլխ
##շակ
##ակը
##եծ
վար
##ոսի
##ոթ
##երից
##րանց
բն
##հան
##վյալ
##եկտ
մասնակ
##ագիր
##երով
##աշրջ
196
ձեւ
##րոպ
նվ
##ակից
##յա
հաղ
դր
L
##ուստ
##յանի
հն
շատ
Նա
սպ
գտնվում
հուն
դար
##դի
որի
##ահման
հիմնական
10
ընթաց
##դամ
զբ
դաս
Ռուս
ջր
##ինը
Այն
##ոզ
15
##որհրդ
հեղ
17
բան
##զբ
##իների
##ճառ
ծն
##պրոց
##վեստ
աշխարհ
##եւոր
ունեն
##յուսիս
Առ
սակայն
##չության
Ամ
##ապատ
##ոփ
##ույց
կառուց
##ակերպ
##ետր
##ոյի
նույն
##ումն
##կական
անգամ
ձեռ
կենտրոն
ով
194
հիմն
##el
արդյուն
##մի
չի
##երեն
գեր
##յանը
p
ունի
հավաք
պատճառ
o
համալ
տվյալ
##ատակ
դեր
##ալիս
##ավառ
0
##ոնը
մահ
F
անհ
դպրոց
##որեն
##երիկ
##րանք
##ed
12
ալ
##անր
##երմ
195
G
խմբ
##նտես
##ion
ընթացքում
##աբար
հայտնի
191
s
##տանի
բաժ
##րկ
Այդ
##as
##il
##այտ
ցուց
թվականից
##ովոր
16
##մամբ
##առն
##ահան
##ոցի
##om
Բր
Ժ
թե
զբաղ
c
համակարգ
##աբան
միայն
Ստ
մշակ
աս
գլխավոր
ավարտ
193
##ագիտ
պայման
մարզ
##ամաս
##երազմ
բոլոր
##ությանը
մասնակց
##re
ընկեր
##ոբ
հետեւ
Ը
##ակայ
E
##իգ
##ուղ
Երեւ
d
192
–
##երն
թագ
W
բազմ
ամբ
##աստանում
##ոնական
իրենց
##ուրս
##ոպ
ճան
տարի
##and
##քան
##ալով
երկար
%
##ունակ
թող
##արանի
Կար
կոչ
##աշխ
անդամ
ենթ
կոմ
սկզբ
սահման
##եբ
##իկական
Ֆրան
##ությունն
մասն
ժողով
##ուգ
##իական
ում
##ol
##et
##այց
##ատես
##կաց
նրանց
Հայաստանի
##ովի
Ավ
##րապետ
##ահանգ
of
##ենտ
11
խորհրդ
##ահատ
փոր
Եվ
##օր
լին
համալս
##us
##un
##եքս
զարգ
նախագ
հաջ
##իոն
##ոսկ
##ունք
հանդիպ
##յութ
##երթ
Բնակ
չէ
##աձայն
##ըն
կազմակերպ
##անտ
անվան
պատերազմ
Երկ
նշանակ
հաղթ
##իվանդ
եկեղ
գետի
##արը
##ոհ
##անրապետ
##ուժ
հաստ
իրավ
##եռն
##որի
ընտանի
կին
14
##կին
որոնց
ապր
հակ
շրջանում
##վի
միջոց
##am
##վա
13
##քին
##եփ
##ur
##ch
##ուծ
##ավել
նպ
ազգային
սովոր
##ոքր
իրական
Հար
##եկան
առաջն
##ul
տեղի
ընդուն
անուն
##նչ
##աճախ
##ությունից
##կան
##իլի
երաժ
ամբողջ
##ետի
մայ
վերջին
հիվանդ
##քով
կառավար
ական
##քս
ուժ
h
ուղղ
կյան
Համ
##ույս
Մեծ
երկրորդ
##րորդ
մարտ
##անձն
թագավոր
կեր
##ակումբ
ինքն
ակումբ
Արեւ
ընտր
արժ
փորձ
ԱՄ
լավ
##բոլ
հաստատ
հաշ
ազդ
##ացավ
##կա
##արին
անձ
##մտ
##ումների
բայց
ծառ
##ասիր
ցանկ
##ավայր
##ing
ազատ
Ծ
##ումբ
բար
մեկը
##նելով
ղ
տեղափոխ
##եի
աշխատանք
the
ԱՄՆ
##ությունում
լեզ
##արավոր
##ուսն
##գի
ից
J
որն
բեր
հաճախ
##վան
հյուսիս
հոգ
##ակալ
քան
պահպան
մտ
##տեմբերի
2010
##տիվ
The
##րաժ
ունեցել
գաղ
պրո
գավառ
##ուդ
համաձայն
տր
Նրա
չափ
in
##ոռ
Իս
գեղ
##ադարձ
Նոր
հեղինակ
##ասխ
Առաջ
##մանը
երաժշտ
ռե
Վեր
##րաստ
ղեկ
##պիսի
ընկ
V
##վեցին
դարի
շարժ
##ասան
##ՍՀ
##վարի
Իր
O
##արում
անկ
պատկեր
##le
պետական
##ացին
##սկի
պատճառով
##որտ
Գր
##ացնում
##վածք
ըստ
##ուրջ
պետք
հարավ
իշխ
չեն
##ac
խաղում
հոր
մարմ
w
Գեր
ավազ
դուրս
կիր
ղեկավար
արվեստ
##ենը
քաղաքական
##ահայտ
շարք
կոն
##ro
##ենք
##իի
##դան
պատրաստ
##եհ
փոքր
##րադ
մասը
##ուբ
##արանում
##ասն
##արիչ
բառ
դեպքում
##բոմ
##նորհ
անցկաց
##աների
##ri
նահանգ
##չությունը
##եշտ
ստեղծագործ
նկատ
աշխատել
##անջ
ուսումն
հնարավոր
##ուրբ
պարտ
##ելյան
##ուհի
##մտյան
թողարկ
հանդիս
##աֆ
##ուտբոլ
մն
##նն
երեք
նրանք
կարգ
##ent
Հանրապետ
##իջ
##անալ
—
մրցանակ
միջեւ
մարդկ
կերպ
տնտես
հազ
##ազոտ
##արանը
հարց
##հանուր
##երկ
ստացել
##ահար
##ույթի
##ատարակ
##եջ
##ացնել
##ատի
190
##աստան
X
##աձեւ
##եմատ
դարձել
օրինակ
##աշխարհ
##ազգային
K
խնդ
##առնում
##աման
երեխ
Ռուսաստանի
##դր
##լին
##տոր
հանդես
##յակ
կայս
##եցնում
ռազմ
տարածք
զգ
##չական
##ապարհ
հայտ
##աթիվ
նպատակ
անվանում
##ուրդ
եկեղեց
##ուցիչ
համարվում
զին
գն
կիրառ
ծնվել
դարձավ
##րեց
##ուզ
հանգ
վերաբեր
տեսակ
##ոլոգ
##000
արտադր
շնորհ
##քեր
'
##ագայում
##լանդ
չոր
##եմբեր
##ագրական
հատկ
ներառ
ափ
##իայում
##ad
զոր
##tt
թթ
նավ
_
իշխան
##թե
Ց
##ացված
մակ
25
##ագետ
հուշ
ֆուտբոլ
հասարակ
տարեկան
Եվրոպ
հեռուստ
##անքի
դեպի
տալիս
բանակ
##արձակ
Մար
##պեր
St
ալբոմ
and
##ղզ
եզ
կն
թանգ
##րիստ
ամուսն
ջրային
հրատարակ
գրական
Ըստ
կոր
##կանում
##եխն
նախագահ
ուշ
Առաջին
ծր
##նայ
##իկայի
սիր
հաշվ
ազդեց
ամերիկ
##st
այլն
տարին
##ենս
##այլ
թատր
##իք
##թեր
փոփ
##ասխան
##ասարդ
առավել
##իբ
հաջող
##քերի
սր
հիշ
նյութ
համայն
##անիշ
30
##ուլտ
##աղկ
ֆրան
##ag
նկարահան
##իտակ
հոս
արձ
ճանապարհ
ռուս
##երտ
##աշխարհային
##ետեւ
##իստական
հայր
Սակայն
##ուխ
2014
պաշտպան
հավաքական
Երեւանի
ակտիվ
##վոր
189
տղ
ուսումնասիր
##ռոմ
միավոր
##թի
##ոջ
##um
##ունե
##ation
##ադեմ
Տար
##ստիտ
##ադրվել
հետազոտ
##ոսը
հեռավոր
##ոֆ
##եական
վիճ
աջ
##ոնդ
Ալեքս
բազմաթիվ
##սը
##em
սեպ
##եսը
for
ժողովրդ
2011
քաղաքի
##ռն
##ույլ
բժ
##ողների
Պատ
ապա
##եսի
գոլ
##ec
##այից
դիմ
իմ
##ստիտուտ
օգոստ
##ածու
##ենդ
##եֆ
Գերման
##անկար
##երիտ
գործող
##ելը
Ազ
##ay
b
մետ
##ամարտ
##երգ
##այական
դերասան
Ճ
միջազգային
##աթի
##ումից
##ադիր
U
ուներ
Ղ
##րաբ
տակ
հիմնականում
աստիճ
##ալական
2008
##վար
##iv
քաղաքում
##ավորված
նման
##ունդ
##արտար
փոփոխ
##ողական
##ջին
##ագիրը
ինստիտուտ
##ումները
##ist
թիմ
##իկի
գալիս
##գր
Կան
դեկտ
m
##ումներ
##ունի
2012
##քերը
սոցի
լայն
հատված
##միր
կարեւոր
հուլ
23
կայսր
հայկական
##վին
ծառայ
մեկն
##անդակ
##ոշոր
21
ընդգ
##ev
աշխարհի
էջ
##ակատ
Աստ
##կար
##ստեղ
մասնակցել
##ut
մատ
##աստեղծ
##երբ
##սիայի
##ia
կիս
##արվեստ
##իսին
մյուս
##id
ձայն
դեղ
մարդկանց
ՀՀ
##ոնում
ընդհանուր
Հով
2013
գործունե
վայր
Աբ
շարունակ
##անային
աճ
##անուն
պատկանում
##նայած
բաժան
լուս
##ացող
ճանաչ
գտնվող
քանակ
բր
խոր
անտ
հարաբեր
պատմության
##ուրգ
##ատվ
հոկ
##աճառ
ո
արագ
հայտարար
Ձ
##անս
ԽՍՀ
##ամատ
ամս
##ռչ
տեղեկ
կապված
խոս
fr
լր
##երիտասարդ
հանդիպում
##նամ
##աբանական
Հյուսիս
ուր
միլի
ճարտար
կուս
##որոշ
##տը
2015
##art
շուրջ
##նաս
##ատոր
իրեն
Գտն
կատարել
աստղ
##րոշ
նախկին
հող
##im
շրջանի
հեր
##ers
Կր
##նային
22
##ֆես
գոյ
ունեցող
24
միաս
##ttp
արք
թույլ
միջոցով
լավագույն
Հայաստանում
ստոր
նվիր
##տնի
պատերազմի
##ir
քնն
ձեւավոր
ակադեմ
հրապ
ռեժ
ավարտել
##ապահ
##ացումը
Հուն
գերման
առանձն
Անդ
համաշխարհային
դեռ
հուշարձ
սկսել
##պանի
##եմի
մակարդ
կրթ
##ահամ
մակեր
##ագրի
##ig
Գտնվում
##ակցության
##ատական
##արժ
երիտասարդ
2009
##անների
ծով
##այթ
188
պարզ
2007
##ետը
##op
կաթ
##os
##ագիտական
##մուտ
զարգացման
նոյ
##ասկ
Անգ
մանկ
##րափ
##ew
հայտնաբեր
թվում
եղբ
##ատնտես
արդեն
##եին
Օր
պր
##վելով
2006
##ot
##ախոս
##ագն
Սուրբ
եկել
##տնում
դիտ
ընդգրկ
Հետ
##երս
##ադի
խմբի
թուր
հատուկ
Մոսկ
##ամանակ
Ալեքսանդ
a
գրանց
Նախ
բուժ
պրոֆես
Սկ
##անավոր
##երական
##անշ
տեխն
կղզ
հին
դառնում
փաստ
##րաք
##բյուր
մեր
արեւել
##արյան
ջերմ
ճարտարապետ
քար
##գն
Քաղաք
խոշոր
##իկը
՛
տուն
Էլ
##տում
նկատմամբ
##եշ
բանաստեղծ
##իման
մարզի
տվյալների
փող
##ժմ
##անոց
որդ
առանց
##ess
Հանրապետության
##ուհետեւ
որպեսզի
դա
ֆիզ
##իծ
մայր
Գետի
##ուպ
##չի
ԽՍՀՄ
արտահայտ
##ոիդ
Բնակչության
##ամի
##ra
խումբ
##ղթ
2016
##ուի
կարելի
##եփական
##ter
##րիգ
Փարի
II
Իտ
ավել
օրգ
##ություններում
##ամարդ
շնորհիվ
In
##քից
խնդիր
##կի
կյանքի
##նելու
187
շին
վտ
=
##րափակ
բնակիչ
n
փետր
չէր
##իսոր
կախ
դաշ
Բար
l
առաջարկ
##ասար
տպ
Պար
##աշրջանում
պահանջ
լեռն
##ավորապես
սար
իս
հաջորդ
Հյուսիսային
##ասի
օգոստոսի
կենս
կարի
##ard
##ություններից
##ահով
տիր
##քների
ատ
##ովին
սեփական
հեռավորության
ավանդ
##իկան
վաճառ
խտ
##րին
##ալը
##քանչ
Աղ
սպիտակ
հրաման
սպան
բնակչության
ախ
Ֆրանսիայի
26
դեկտեմբերի
արվեստի
նույնպես
համալսարանի
##այք
##ացում
##արգման
լուծ
վիր
համապատ
Մարտ
գրավ
##ընթաց
##եմբերին
սն
##ուսի
տեղակայ
միլիոն
մեղ
դիր
ձեռք
արդյունքում
ֆրանսի
դարում
##աքր
ել
##ula
արժան
օգտագործվում
##երան
հաղորդ
հանդիսանում
##ակտ
երեւ
##ակների
##od
դառն
աշ
Ակ
դե
փուլ
մայիսի
28
100
##ալու
միջին
##իկների
Արեւմտյան
ցույց
##ացիայի
հանր
Հռոմ
երաժշտական
պայք
##լիմ
##og
գրել
##րաքանչ
##եւի
Ֆրանսի
27
##ահայ
տարածքում
##րաքանչյուր
գործում
Y
հունվարի
##մատ
##իֆ
;
ակումբի
Ամերիկ
Ջոն
թիվ
կարծ
##ացվում
ոսկ
ձախ
ազգ
##աքին
form
արգ
Թուր
Ման
##ագա
տղամարդ
պաշտոն
մարտի
ծագ
##ինական
ունենում
Բրիտ
արեւմուտ
Ավստ
##http
հազար
##ավազ
##ունակում
սեպտեմբերի
31
##րաժեշտ
##եւս
հետեւանք
##եչ
Հարավ
մեթ
Պր
##հանն
##վելու
Սպ
կատ
էլեկ
000
ճակատ
վեպ
##ow
##քային
Նրանք
formula
պլ
##ov
##եներ
Աշխ
##իներ
աղջ
##այել
հետագայում
թարգման
Մարի
նկարիչ
տն
հուլիսի
օգն
##շավ
##ենտրոն
առեւ
տրամ
##անքը
##ber
ոճ
դրա
նահանգի
]
ռազմական
վնաս
##առանգ
զանգ
2004
##րում
հոդ
##ութային
կառուցված
տարիներին
2005
կես
օպեր
դաշտ
##նող
ապահով
երկարությունը
Իսպանի
միասին
de
##աշար
աստիճան
ցեղ
տարվա
Նիկ
##վեր
կոչվում
Նյու
քաղաքից
##նա
գիտական
ծրագր
##անիզ
##ատիվ
ներկայացնում
բժշ
տվյալներով
պտ
կենդան
թաղ
##ill
##ադատ
որոնցից
ռեժիսոր
[
##եմպ
վերադարձ
իրավունք
Կոմ
##նշ
##ցել
##րիկ
Ապ
եւս
տեղափոխվել
##առակ
հունիսի
բռն
##իները
Պետ
դատ
29
##ացվել
ենթարկ
պալ
Բել
Հիմ
Էդ
Գլ
հոկտեմբերի
##աքս
վաղ
186
##ովը
Երբ
տեղակայված
##իզմի
##աշրջանի
Երեւան
երրորդ
գեղարվեստ
Ռուսաստանում
##այով
##ուրի
Ռո
##ավորման
եկեղեցին
##իկոս
ապրիլի
մարդու
##որը
մետր
թվականը
գործիչ
լինել
անունը
մեթոդ
Բնակչությունը
գաղափ
երկրի
խտությունը
համակարգի
##եմն
50
Արտ
թերթ
##իրի
եղբայր
2017
ժամանակակից
##եթի
##oc
Մոսկվ
գրող
պատմական
v
հատկապես
դրանց
զոհ
անհրաժեշտ
ամրոց
նոյեմբերի
com
Մոն
զինվոր
թուրք
##ացիոն
սկսում
Կառ
հով
պատվ
2002
##ախտ
Հովհանն
##իզմ
2000
##ազան
##լավ
թափ
լեզու
##իլիս
ww
գծ
www
##ույթը
յու
այժմ
Անտ
հրապարակ
չորս
##ացիների
նկարագր
լույս
եվ
ուսան
կանոն
անգլ
գավ
կազմված
##անձին
կոմպ
լինում
Ալեքսանդր
նախարար
մարզում
##աչափ
հետեւյալ
վերադ
Քրիստ
##մար
ժառանգ
լի
անունով
ափին
40
Կոն
հաղթանակ
գոտ
Միջ
##ոլի
անտառ
եթե
##ցի
հանձն
անկախ
լեռ
Վար
նպատակով
վր
##ce
հորիզ
##լոր
Սեւ
##աները
##լը
Եղ
մոդ
##իպտ
Մինչ
##արական
Գյուղ
##ատեղ
ծովի
դժ
ամերիկյան
##պետ
կա
##ավական
ստեղծել
աղբյուր
##ամեն
նախագծ
##աներ
##ian
##անա
##ավորում
##րահ
##այրի
##ունկ
Որ
##ակով
Գետ
##ողության
գնդ
ստեղծվել
##ույր
##աքրք
##իսը
յուրաքանչյուր
Ին
##ացրել
Ֆիլմ
##ինա
եզրափակ
##արեն
ֆիլմի
վերական
2001
մեն
նվազ
հիմնադր
տարր
Արդ
զբաղեց
##եյն
##րաքաղաք
r
հոդված
կարճ
##ակերտ
դրանք
##կրա
տաճ
##ակառ
##կր
փոխանց
##րանից
Վերջին
##ունը
##est
##տավ
ներկայացուցիչ
մշակույթի
##ախմբ
##երոիդ
##գիպտ
շահ
##գը
մտնում
Փարիզ
ժողովրդական
##ասը
##ակները
##ածկ
այնպես
ստիպ
##աբաթ
բեմ
##ինայի
հանրապետ
հավաքականի
հասարակական
դերը
եռ
բնակչությունը
քիչ
ցուցադր
հերոս
նվաճ
##սպ
ընտանիքի
արտաքին
հարթ
Երկրորդ
հարկ
ֆիլմում
առանձին
կրկ
Վր
ներք
գիտությունների
Սան
տնօր
ուղարկ
վերց
տնտեսական
թվականների
Օս
հեղափոխ
ովքեր
ինչը
##իշտ
Կամ
փոխարին
ապրում
համեմատ
զբաղեցնում
քաղաքը
##աբանության
##ություններով
համապատասխան
զուգ
##նության
փետրվարի
բջ
##արմ
##ընդ
##բերտ
սեւ
##իչը
որից
շրջանին
հինգ
##ալիայի
Բացի
##ուլի
Գրիգ
ռես
##րաֆ
խաչ
##ներգ
##ուհին
գյուղի
վերաբերյալ
կենտրոնական
գնահատ
##ատու
Շվ
վարչական
ընկերության
յ
ֆուտբոլիստ
երգը
2003
##աստիճ
նվիրված
սովորել
մանր
կառուցվել
հորիզոնական
ձգ
աչ
##երիալ
Չնայած
Q
##րած
##սում
##ություններին
մետաղ
հոսում
##երեւ
##եժ
ինտ
ստանում
Սա
##ցեն
##ակա
գիր
որոշում
##քները
Ar
Ֆր
Սթ
հետեւանքով
սկսեց
##իլիսոփ
մայրաքաղաք
##նարկ
կանգ
##իկա
Նրանց
to
այստեղ
ռեսուրս
Ընդ
Եվրոպայի
հավասար
##եւէ
գետն
##ավետ
##ավանդ
միջն
##ung
##արն
գում
զանգված
##րախ
##ee
բավական
##ակներ
##միջ
բնորոշ
##անին
քարտ
##թն
կանանց
հաշվով
ներքին
##ոլով
կազմի
Վի
##իտալ
քիմ
որում
փողոց
հյուսիսային
Կլ
Աֆ
հետաքրք
արգել
ավտ
##ազանց
սմ
##արգեւ
մասում
##ատը
որով
##ադրության
Բրիտանի
Կոր
թանգարան
ամիս
Խորհրդ
սկզբին
##ադաշտ
##եթե
Ամեն
##իոնալ
##որհուրդ
##քեն
Էր
հենց
##անն
շաբաթ
մարդահամ
##ասպ
##II
անգլի
##իկները
Վալ
1990
##ագրության
նստ
ավագ
##ովկ
’
աշխատանքի
185
##որմ
անվանումը
##կեղ
Պոլ
Տարած
##ue
##ort
Ջեյ
##իրը
##տրական
##յարդ
հարձակ
Յոր
##ողի
##պիսիք
Վիլ
##ենն
##ացյալ
ֆակ
An
պաշտոնական
##ումով
նվագ
##ագծ
##ie
մեդ
##առատ
##ub
բույս
որոշակի
նկարահանվել
##ագիտության
ծանր
##ումի
կատարում
հան
##ավեր
կոմուն
Նույն
նախատես
դպրոցի
##վեգ
պատասխան
Թուրքի
##սեր
ճնշ
կնոջ
##ap
հերթ
##ճար
խփ
##ազդ
##յուզ
##րոն
##այումս
Լեն
հիման
ֆակուլտ
1999
##երձ
համալսարան
Ներ
##եդեր
Հարավային
##բեջ
եկեղեցու
կնք
բնական
Լոնդ
այնպիսի
Որոշ
եղանակ
##ine
շեն
##դրբեջ
##աղկացած
խորհրդային
կառավարության
տարածված
##ոնին
##անիզմ
անցնում
Հայկական
սեր
##ոլոգիական
ներառում
##ունքը
##ադրի
##ամասը
բարձրագույն
##all
ծավ
ամենամ
ինչպիսիք
##ացիները
աշխատում
Բալ
տան
այնտեղ
##աժամանակ
ցած
նշանակում
##ass
միակ
օրը
վարչ
դիվ
ուրիշ
##նդի
հրաժ
##ավիր
մշակութային
սինգ
Խաղ
Ինչ
##անոթ
ոլոր
հասց
ողջ
֊
թռչ
ֆիլմը
2018
տվել
գրեթե
բաղ
տասն
##մունք
այնուհետեւ
Դաշ
##ավայրը
մեքեն
g
##եմպիոն
##ացու
փիլիսոփ
##ep
սովորաբար
##վելի
աստված
Պեչ
ռեսուրսների
գավառում
արդյունաբեր
մարդահամարի
##ct
խորհուրդ
##րաշ
ֆին
Արմ
##ավազանը
##und
թեր
##ունքի
Կալ
&
արեւելք
բաղկացած
մուտ
##րե
##ուստր
օգտագործում
հասնում
35
##չում
##արիայի
արժանացել
հիշատակ
Դա
գոյություն
Հնդ
ուժեղ
184
քննադատ
##ab
##դը
##ադար
##ոյում
Մալ
արհ
##ահանդ
բազ
կանխ
##ik
խմ
Al
տեղադր
Գրիգոր
աշակերտ
ապրել
Կոլ
##րոպական
##av
##եբյու
Հակ
շրջանակ
##լիմպ
Մակ
շրջանների
էկ
Դվին
կախված
գիշ
##ity
ման
խումբը
##իշկ
Նիկոլ
##ափակ
1992
##ողները
##ուդի
##անալով
դրամ
առաջնորդ
նույնիսկ
երբեմն
ավազանային
##ոսին
##անելի
Խաչ
կառույց
##ուսը
սոցիալական
##ականության
##ետիկ
ամերիկացի
##տար
հրամանատար
գրականության
##th
##ցախ
պահպանվել
ջերմաստիճ
Un
կուսակց
գրանցամատ
##our
##յեկտ
##սել
##ary
դասակարգ
տեւ
բարդ
##ունկց
60
Լյու
##ord
Ազգային
Ch
##ազգ
Միլ
փախ
քաղ
##ենում
սկսած
բնակվում
Ծն
##րիստոն
հսկ
Աս
որեւէ
##ընկեր
քանդակ
կենտրոնը
մոր
Այստեղ
##ատեր
երկրներում
առողջ
on
երգչ
մեխ
e
գրանցամատյանի
հուշարձան
մրցաշ
##իեզ
1980
Հեր
օբ
աստերոիդ
կրկին
գրադ
պրոֆեսոր
կոդ
##ուռ
մահացել
աշխարհում
##if
դպրոցում
դեբյու
##աթեմատ
##ածին
New
իսպան
1915
կարմիր
համայնք
միության
բերել
1970
այգ
##ոնիայի
##անյան
ավազանը
խաղացել
Սեն
արշավ
##լով
անմիջ
Սամ
Հին
վերած
##ou
ալի
գալ
##իաների
մարդիկ
##ացիական
ծածկ
##զոր
հնարավորություն
##ատում
դի
##ուհու
##ոնների
##ak
օդ
Հովհաննես
Վարդ
արժեք
Լե
Արցախ
ռուսական
ձայնագր
##ադրում
##րոյ
##ացիան
հայրը
փրկ
արեւմուտք
գեղարվեստական
##աքար
##լինի
##աժողով
համալսարանում
Qu
թողարկվել
ունեցած
Մոր
կոմպոզ
արեւմտյան
քրիստոն
##եյի
Մաս
##ուտով
183
դոլ
##ուրը
չնայած
ունեցավ
հագ
##առը
##ազարդ
Կապ
##յակի
##իսով
Օգ
##ell
##ամասն
ձեռնարկ
աջակց
արեւելյան
Մայ
##րամ
##աշրջան
Գործ
Ուկրա
Հայաստան
տարածքը
ալբոմը
##ich
ռադի
Վերին
##քերում
##ացան
տիպ
ճյուղ
պարգեւ
##երորդ
Մոսկվայի
Pr
Հայոց
Աստված
1991
ինստիտուտի
Բլ
##ատին
##ակատար
##եկց
երգի
բրիտ
ներկայացված
##ակն
համագործ
Դավ
սպաս
սեռ
տպագր
##եւան
##ուամեն
##մանի
##ասպան
թատրոնի
Շրջ
ջրատնտես
առաջանում
1960
ընտանիքում
##ճի
##բր
##այնիվ
Որպես
վերահ
բացահայտ
դպրոցը
1920
մարմին
Սիր
##ասրահ
մասնակից
նպաստ
Լու
##ստամբ
1998
##արների
##ուամենայնիվ
1994
##տել
տեղամասը
կուսակցության
##ud
ստանալ
ենթա
##end
խանգ
Հայր
պայմանագիր
Եթե
հրաժար
բարձ
հոգեբ
##իզբ
##օրինակ
ֆունկց
ստացավ
##ամուտ
դրությամբ
##ոմի
լեզվ
Ավելի
հակառակ
օգտագործել
##վարին
##վադ
Գերմանիայի
ջրատնտեսային
ֆրանսիական
իմաստ
##իլյ
##ույտ
կայսրության
այցել
էներգ
##bo
Հեն
##եքի
հիմնադիր
գերեզ
Հոլ
գերմանական
##ացնելու
բժշկական
##տեմբերին
##անյութ
կտր
ցածր
արաբ
երկրների
դեռեւս
յուր
բացառ
##որդի
##ակար
##անման
Իտալի
վիլ
Մահ
բացի
##ավարժ
ֆինանս
բանակի
##որա
որին
հետաքրքր
ֆեդեր
##ականների
##որբ
նամ
##եւն
Ադ
քառ
որդին
Իսկ
զբաղվել
32
##լադ
մահվան
##ողը
Կարմիր
1996
##ամենը
##լամ
վարձ
##աբերանը
##բերգ
Սալ
արար
+
##ունից
Պետր
Հետագայում
##տանգ
շինարար
En
թիվը
ներկ
##ինդ
##ier
##եքստ
##ոման
թիմի
Անգլ
Ստեփ
առարկ
##պիսով
##այան
փակ
բնակավայր
արհեստ
երկաթ
##անիկ
##քսի
գրված
գյուղում
ճառ
հարված
##ոկր
տեղը
վերան
Ատ
մնաց
վեց
գործունեության
##ատարած
հարավային
վարկ
Եգիպտ
փորձում
##ռանը
րոպ
1993
1997
##եկն
հրավիր
ընկած
բժիշկ
##ողներ
բլ
տվյալներ
պարբեր
սխ
80
##անկյուն
բառարան
Գետաբերանը
##իտի
կետ
##ավիճ
Օլ
##ացույց
182
արդյունք
առաջնության
գետային
պարունակում
Աշխատ
հոգեւոր
##ոնտ
Վոլ
##ակր
##սկու
##ատիպ
հասել
հանք
##ակիր
##ատուն
##ավարար
անցել
հաղթել
##ելլ
զգալի
խորհրդի
##ect
##ենական
##յանց
եզրափակիչ
մշտ
Mar
ծայր
հեռու
մաթեմատ
տրան
ող
Մատ
ընդամենը
Արեւելյան
դոկ
##ագայթ
Բեն
գործիք
դժվար
ես
Յու
բերում
գործընթաց
##ant
գազ
Էմ
ած
շերտ
##մանյան
վիլայ
զբոս
Միացյալ
պայմանավորված
տառ
##իկներ
##ուկի
արծ
1995
ոչնչ
##ություններն
|
##ստր
Հնդկ
զբաղվում
45
##տանիշ
Կոստ
նախատեսված
Գալ
խիստ
Հաջ
իրադարձ
##ib
ժամանակի
ցուցանիշ
հյուր
հնչ
ապստամբ
Ուր
գահ
##նթ
##լուծ
##ավան
քանակը
եվրոպական
գիտնական
##աստի
ենթաավազանը
##րոմ
ցուցահանդ
եմ
No
Ֆիլ
##ուներ
ավեր
##ինքն
կարողանում
##վեն
վտանգ
սոցիալ
Ճապ
##ավի
արձան
##ատների
պապ
տիտ
##ռչակ
կազմել
##ain
##իչի
Հանդ
##ավայրի
դու
Զբ
կենդ
##ամաք
ուսուց
Խորհրդային
Դանի
36
##ահոլով
Գեղ
հայտնվել
##ուրգի
հզոր
##eb
##ակային
հարուստ
սեն
##ադրությունը
պայմաններում
Ժողով
միաժամանակ
Լեւ
ուղեծ
ծաղ
հիմնադրվել
##ագաթ
շարժման
ստիպված
##բի
տոն
հարակից
##րես
##ահաս
##իպալ
##ույթների
տարիների
##ok
վաստ
70
##ran
33
Մարկ
##տոն
Լուս
գյուղատնտես
եկեղեցի
##ամին
մնում
նշել
##ֆիլմ
##ագրում
Ադրբեջ
քաղաքային
Թագ
##ամասում
##իլին
մղ
ցանց
##ոլդ
##վկ
եզր
սիմ
##տային
համարում
կատարվում
##իգայի
Պատմ
Ներկ
##ամիջ
##թը
64
առանձնահատ
մեկի
անդ
ախտ
Ստեղծ
զույ
##ունիցիպալ
Ինչպես
Վիկ
##ագավառ
քաղց
##իծը
պրոֆեսիոնալ
գործակալ
ձեւով
##նակի
տեղեկատվ
Ավստրի
Կենտրոն
##ենկ
Մինչեւ
մրցանակի
Փոքր
կալ
##ողությունը
##ականի
սկզբում
1989
Անգլի
այնքան
կառավարման
արյուն
անգլերեն
##հատ
Թոմ
հեռուստաս
Մին
բջիջ
##ne
##որս
##եղի
ճշ
##ոլիկ
ճակատամարտ
Կիր
տիեզ
##աստանը
Մարդ
գնում
Դի
երեխաների
իրար
##իմի
մակերեւ
##ոյան
զարդ
1930
##շռ
##րանում
ճառագայթ
պետության
##ղի
##երային
օբյեկտ
1988
ցանկանում
բարձրության
բավականին
##իտոր
##նավոր
դուստր
##ալիֆ
կռ
Quart
ամենամեծ
##ատան
տարեկ
սկսվել
բնագավառ
?
նյարդ
##ելուց
##վարդ
պատկան
##ութի
1918
վերականգն
ուղղված
ներդր
Այնուհետեւ
°
Տվյալ
գերեզման
ձեռագր
դառնալով
Բուլ
##աթթ
re
դադար
վիլայեթի
##ադրել
Սարգ
##ge
ակադեմիայի
մասնակցում
##ատեւ
Դոն
պո
##անով
##ոքս
դրոշ
համատեղ
##ԽՍՀ
Նորվեգ
Սիմ
ոստ
Լա
##նվ
##ակայքում
բնութ
սին
Սովոր
իշխանության
Հայտնի
մարմնի
1950
գեղեց
հավաքածու
աշխատանքները
##ջել
##ովկաս
կարգավիճ
առկա
##ուների
##աղի
պնդ
սկսվում
մտած
Կանադ
##eved
1945
Բայց
ընկերությունը
##ասական
մասնավորապես
##up
##րիդ
արդյունավետ
##վագ
հռոմ
##ip
Ուս
սցեն
##io
Ժամանակ
ընդունվել
Բեռ
անկյուն
ընկնում
##այա
##rieved
##րոք
Չին
արյան
հրե
ալբոմի
երաժշտության
Ոսկ
Quartal
##ավարի
##եոդ
դրս
մրցաշրջանում
##ակին
դասավանդ
Լեհ
վերահսկ
Բրազ
հիմնված
##գամ
Հր
##նձ
##ust
ամբողջական
ծավալ
Երեւանում
Շատ
Արեգ
մանկավարժ
կյանքը
34
##ոտլանդ
գլուխ
ընտրվել
տարածքի
բալ
181
##ադարյան
##ջի
տեսակի
կորց
##արթ
Ծնվել
Աթ
Ret
վառ
ցանկում
շք
Վեն
թեկն
արքայ
թուրքական
Դաշնության
օգտագործվել
գույն
##ափն
Իսպանիայի
##50
սառ
կրում
ծանոթ
հայրենի
բացատր
սերի
տիրապետ
##ադրություն
ասում
##եվ
##մուշ
##իսկոպ
##յուզանդ
մնացած
Պեր
Սկզբ
##ies
##բան
տեղական
Պալ
##20
մոդել
տեսել
դրամատ
##ոլեջ
##վկիան
Չար
Ջեյմ
XI
բուս
##ապարտ
կոտ
օրեն
վատ
ելույթ
Ես
ծննդ
արտադրության
ուժերի
##անները
սկիզբ
##ish
կտավ
ֆուտբոլային
##ածուն
գեներ
Պլ
չեմպիոն
##վածքի
##աբնակ
##դյուս
քույր
քայլ
##նակարգ
ասպ
կանգն
դերասանուհի
##ast
##ավուն
##եցնել
մահից
##դա
դատար
դասական
Անգլիայի
##լիմպիական
շարունակում
մոլ
##եւնույն
հնդ
##ory
##քներ
Ներկայումս
##սոն
##ացիա
Com
##ամյա
##ահատված
մուլտ
աշխատունակ
պրոց
ծաղկ
այսինքն
##իչների
քաշ
մայրը
##տան
արձակ
Հունգ
ներքո
տիտղ
##արկում
հասակում
##եզի
Հակոբ
վաստակ
նշանավոր
Բոր
Լին
ամենա
##ult
Վան
##ովան
կենտրոնում
բաժնի
Օրինակ
պատմությունը
մմ
##ահանում
##եդի
ht
գումար
վերաբերում
##ph
##յում
կայուն
##ելիս
կազմակերպության
##ացրեց
##եյց
XV
պի
քվ
երեխան
Պորտ
##https
Retrieved
բուժման
##ոու
կոմիտ
ոգ
##ստեր
Իսր
ազդեցություն
Զբաղ
Միջին
##այության
գավաթի
աշխատանքը
ժողովուրդ
Արաբ
ՀԽՍՀ
կո
դրսեւոր
իջ
հեռուստատես
դարպ
##ld
ամր
##րոհ
Սար
ասել
Ռոբերտ
##ենցի
90
##ավորական
տարեկանում
հարմար
խաղի
վարժ
##ագրությունը
##պատ
Աշ
Լավ
38
##քանշ
ավտոմ
##ապաշտ
հայտնվում
##որին
վերջնական
գետը
Պի
Ավստր
##վածքների
##ացնելով
ֆիզիկական
Շահ
##նտր
համակարգը
սկզբունք
ժողովրդի
Նահանգ
##ug
Z
շրջանակներում
հայերեն
կոլ
37
##ադրվում
հետագա
##ընկ
գագաթ
##ումբը
Բեր
##ավորվել
##սկին
Գլխ
հասարակության
ջրի
##սին
ենք
Կազմ
անասն
Th
ձմ
շրջապատ
շտ
գոլի
IS
միմ
Արար
խառն
վարդ
հռչակ
##ակառուց
##ini
սուր
##ԱԿ
##ork
համագործակց
##ոնյան
կիրառվում
##ազն
Արեւել
##eg
՞
գաղափար
վախ
Տեր
Լի
Ռի
Եվրոպայում
1940
##ոյին
օգնությամբ
##լեն
Իտալիայի
գերազանց
տվեց
Ախ
կարիերան
քիմիական
Sp
##աու
սկսեցին
##ալդ
##ver
եկավ
##ly
հերթին
հյուս
##ամիջոց
##պտ
տնօրեն
զբաղեցրել
##age
Am
##ինգի
##ատերական
##ամպ
##լայն
ընդունել
քոլեջ
##մա
##որդը
կարդ
##ագրով
պատմում
առաք
ամենահ
##սոնը
##րիխ
մակերեսը
Կատ
առաջնությունում
դոլար
օժ
##արաններ
անբ
տեքստ
ոտ
Ջոր
շուկ
Արգ
##իսական
##անունների
քաղաքացիական
Մտնում
ժամանակահատված
##եգործ
##ասեն
պարունակ
գիրքը
##ivers
չէին
գուն
պաշտպանության
թատրոն
1986
համայնքի
աչքի
պրոդյուս
սյու
հիթ
Մաշտ
##ուրկ
Աշխարհ
##ուկը
նշանակություն
հայոց
տեսչության
խաղաղ
##բուրգ
այսպես
##աններ
վերին
կրոնական
##սեն
բանկ
Ժան
Շիր
միշտ
մակարդակից
իտալ
պատկերված
ֆեդերատիվ
որակ
##ember
կերպար
վարպետ
հեռուստա
մրցույթ
անի
ինֆ
180
##երբակալ
##իֆլ
##աղթ
Հաջորդ
տեսահոլով
ընտանիքը
##արաբ
ինքը
##ամը
կանաչ
##ive
միմյանց
##ոզի
##ment
կինը
փոխարեն
վերադառնում
թշ
##նակից
փոքրիկ
տարբերություն
Մեկ
##ովետ
տեսնում
մասի
տերմ
օրենք
##արեւ
բյուր
Արդյուն
III
Հեռ
##ատուր
մոտավորապես
ինքնավար
Տվյալներն
##ith
ուսուցիչ
գրքի
դեպքերում
##եալ
Տեղ
բաժանում
Ֆրանսիայում
Ունի
նախկինում
##ст
##իլիկ
գործել
##անից
##ացնող
1975
##ացուց
ունենալ
Գեւոր
գավառի
ստեղծման
Պաշտ
հավանական
Հռոմի
##az
##որձ
յոթ
հասկաց
Հիմնական
ճապ
##աթիռ
##արկի
պակ
1987
Երկրի
անցկացրեց
##ՈՒ
դրան
վիճակ
##եցված
գրվել
Վիկտոր
աշխարհագրական
1985
էլեկտրոն
ստեղծված
մոլոր
պահին
շքանշ
շենք
վերլուծ
հաստատվել
կենդանիների
իրավիճ
սահմանափակ
Դր
Bo
##եում
1967
մասնագիտ
Իմ
##րույց
դրական
##եքը
Վլադ
Գար
Իվան
ձկ
##ոսյան
##ովյան
լեզվի
առանձնահատկ
ցուցահանդես
Թուրքիայի
արմատ
2019
կերպով
Սեր
st
##արք
##ասարակ
Հիմն
ուղեւոր
ցանկացած
դոկտոր
##պանում
##իժ
1984
Հեղ
Բնակավայրը
դարերում
Երկու
Թիֆլ
կոչում
Mus
մեդալ
##իթի
դին
հորիզոնականը
առաջացնում
հայտնաբերվել
##նկ
կոնֆ
հավան
հանդեպ
##անթ
կայքում
անվտանգ
##orm
գյուղական
##իկն
500
բաժին
##եւը
ընկալ
Բաք
Դրանից
##վածքը
գաղտնի
Գիտ
Ամերիկայի
Այնուամենայնիվ
##ff
##եյը
նախորդ
պատմություն
Նով
##ոներ
խոստ
Սանտ
օտար
1974
տեղանունների
##ry
փայտ
դեբյուտը
ձերբակալ
##րբ
տաք
չուն
զինվորական
##իստր
տերեւ
օվկիան
1979
կենդանի
##ond
հանց
ապրանք
վերադառն
##ate
հտ
##ուան
ջոկ
##երկր
1965
##իստների
մունիցիպալ
գրում
դես
կրկն
առաջացման
տարբերակը
##ens
1972
ac
չհ
նորից
ծախ
քարտուղ
առկայ
գտնում
##ազատ
բանտ
##ահեղ
լեյ
համալսարանը
հուշարձանների
նախաձ
հիպ
օրոք
էպ
Մարգ
##թան
##եթեւ
հատվածում
Ուկրաինայի
թեկնածու
թատերական
##ախմբի
տարբերվում
լեռնային
թվով
Պեչորա
##ոլիտ
1939
Տր
արտաս
or
օրգանիզմ
##ուչ
##արված
##ազար
Պետերբ
##ագրել
ֆրանսիացի
##ինին
1968
անմիջապես
##ասխանում
##ure
նեղ
բրոն
լուսանկար
թագավորության
1941
կարիեր
##ատրաստ
##ind
գավաթ
տեսքով
##տեմբեր
##ack
Թանգ
##ical
##ինյան
##յակը
անընդ
##դանավ
##32
Տես
##րով
ինչի
Մարիա
թանգարանի
##qu
միջնակարգ
Ագ
տալ
ֆրանս
մամ
թշնամ
համերգ
39
##ont
##ational
դիտարկ
1978
##65
հիդ
##ացուցիչ
թագավորական
##ասեր
բրիտանական
հեշտ
շրջաններում
##աշխատ
մնացել
1956
##որգ
մաշ
##աբի
աշտ
Ֆրանկ
Կայ
Ro
##ոտի
սեռական
1977
Գերմանիայում
լք
42
1971
##վադեպ
փաստաթ
ճանաչում
ավանդական
շարունակել
Ջորջ
նշում
Ասի
##ույսի
##ice
##լիկ
pp
##եկուլ
Կառլ
սա
կոմպոզիտոր
հիվանդության
##իքի
Օսմանյան
առաջացել
մասնավոր
##նախ
Կենտրոնական
ins
անվանակ
1981
##ոսում
1973
Եկեղ
Եղել
խաղացող
##յուլ
Շվեդ
ԳԱ
1982
##կետ
սրբ
փառատ
տեսության
##ագահ
Էստ
հում
Խոր
Ավարտ
##այմ
քանդակագործ
1969
Դեյ
##ռիչ
##տորոշ
հրապար
##10
տեղում
միջոցառ
179
##պիսին
##եռնի
##եմը
լրագր
ISB
գիտության
կլին
համոզ
Univers
##դին
Չեխ
վերջում
Սու
##orld
Մայք
##աբեկ
##ear
##յոն
գույ
##ագրվում
թատրոնում
##III
1966
թռչուն
Մել
պատկերասրահ
եթեր
##ադիտ
տաղ
գրավել
k
այլեւ
հովանավոր
տեր
համախ
##ուլման
կլ
ներառյալ
##իղ
լինի
տրվում
անգլիական
##շի
##մեն
75
##ial
Անջել
ճանապարհորդ
ոսկե
զինված
Լոս
Հավ
տանը
Կոստանդ
Դրա
սարք
սովորական
ծառայել
Մեր
##ռլանդ
48
կգ
Ենթ
Մաշտոցի
ռեակց
Սյուն
պարգեւատր
չար
երիտասարդական
գրքում
չորրորդ
Ֆիլմի
Քաղաքի
##ահեռ
պաշար
աղյուս
կառավարությունը
գոլը
տեղափոխվեց
երաժիշտ
առավելագույն
ժողովածու
44
շվ
պայքար
##եան
դիման
##ույթները
ոստիկան
##րաչ
ուղղությամբ
սեղ
ութ
արծաթ
##ազոր
Յուն
##անյանի
լեգ
##սոնի
տոհ
ճիշտ
##ֆի
##ելին
կոչված
շփ
ուղեկց
օրվա
Գեւորգ
ուսում
որդի
1958
վերադարձել
##ապտ
##իսկոպոս
հարեւան
Էն
1961
htm
տարբերակ
հունական
##աքանակ
##ականորեն
XX
##ոհան
մերձ
բացվել
ընդհան
1963
դառնալ
1919
դերաս
հավել
վերականգ
մուս
##արա
##տես
ամուսնացել
##ստահ
##եւում
տեղափոխվում
##զում
Մաք
1976
պատգամ
Գլխավոր
##աբաժ
հայերի
թաք
Փարիզի
միջնադարյան
խփեց
կեղծ
օդանավ
բող
cass
insee
ազդեցությունը
##ակերգ
դրանից
##լա
##չություն
տարում
Տիգ
Դրանք
##եյթ
1914
##աբաշխ
իտ
հարյուր
նախաձեռն
cassini
վճար
Ձեռ
##man
Bl
##յուտ
թեթեւ
##աջող
Ալի
Դար
##ավորվում
հնագույն
կաթող
##անության
անցկացրել
հեռուստասերիալ
55
բարեկ
ճանապարհին
միաց
##ապոլ
##հար
##ովետական
##իոնի
##իզմը
##մը
##ջախ
1983
վիճակում
##ов
հայտարարեց
##ացական
Ջեյմս
Մրց
##վելը
գով
վարակ
##որն
##ելիք
##թուր
1964
##որտային
զույգ
##ադրան
ամռանը
##տրոնի
ազդեցության
կղզին
##ագրված
կառուցել
օղ
բաժանվում
մարդկային
մշտական
1921
հազվադեպ
մոն
սուլ
ընդդ
տանում
զորքերի
Միխ
##կենտրոն
մեկնել
թուն
գեներալ
##ածո
##եցի
շուտով
##լեր
##իկին
1962
հի
##լն
կողմում
անձնական
##andes
1957
ծառայության
կիսա
կոչվել
##ամտ
Փարիզում
մասամբ
մրցաշար
300
Ֆիլիպ
թեման
ահ
խոն
##ատիր
Վիենն
առեւտ
նետ
##ականությունը
ներկայացրել
##գոր
##կանց
##ստակ
Քանի
Քաղաքը
Pro
իրենից
դիմաց
##ուալ
1946
թագավորի
##ost
##ուսափ
##յաց
մագն
##ածնի
քաղցկեղ
դասախոս
09
97
41
հանձնաժողով
##ապետի
1917
ֆիլմերում
պաշտոնապես
##ict
Բուլղ
##ագրություն
մեզ
##ey
վտակ
ընդլայն
աքս
##ht
Ap
ուսումնական
##սկո
am
առջ
պատրաստված
##ուրույն
150
երազ
սպիտակուց
##այռ
տեխնոլոգ
##ica
des
ժանր
անհայտ
1959
խաղերի
ընդունում
վերակառուց
by
Ուիլյ
մերժ
Վարչական
լս
##tern
ամուս
աշխատանքների
իտալական
Քր
Տարածքը
ֆուտբոլի
հանդիպման
##ՆԹ
##ալից
##ովինց
1947
##ավորումը
հրատարակվել
նորմ
նմուշ
1948
Sh
Press
բնության
թեմ
##կու
##ավորների
իբր
Մաքս
անհատական
Վլադիմ
ստորին
##ովիչ
ընդգրկում
43
Sc
Ռիչ
Բարձր
Դրանց
##եկտր
պրոցես
տեխնիկական
սուրբ
##uc
Սել
##ովսկի
լինելու
վարիչ
1944
շրջանը
##ատեսակ
##խտ
Լիբ
Վաղ
առաջատար
##ex
նշան
գրադարան
ինքնուրույն
զբոսաշրջ
շքերթ
վերջինս
Միր
##գեն
##սթ
##ացիներ
ինք
##ակազմ
Ոսկե
պաշտոնը
ներկայիս
բռ
ստեղծում
խմբեր
գտնվել
##ավարտ
վան
դիվիզ
##ուա
ծագում
Միք
##անքների
դիվան
1937
դաշնային
չունի
Բրիտանիայի
##ոնգ
Այսպիսով
##ավորության
գործերի
Թում
Վրաստանի
##ուել
պատահ
##iz
47
պակաս
##olog
նշանակվել
##մն
հաստատել
մուլտֆիլմ
բացակայ
գաղթ
##իթը
Գրան
քն
1938
##իտը
Խոս
Օսկ
##60
##րաձ
ծխ
##ացոլ
##ра
##ong
##ուք
ռիսկ
##ang
##ուլյ
Ծաղկ
առմամբ
##որթ
##rit
Վիր
html
այսօր
##ուկային
երգչուհի
կատարվել
կատակերգ
հռոմեական
Բոլոր
մոտեց
անասնապահ
կիլ
ազնվ
մակերես
վկայ
անջ
կրտ
ինստիտուտում
Tim
##առային
կարծի
հաշվարկ
##կո
լեհ
Ընդհանուր
լճ
##քերով
##на
##լիի
##ամետ
եպ
հասնել
գործոն
պատկանող
##սան
Համայն
մեծամասն
Գոր
իման
թերակ
##ոռն
Բոլ
##աձգ
Նկար
թր
ստուդի
ինստիտուտը
վաստակավոր
##ence
նյութերի
հայտարարել
##որոգ
##ադրիչ
Մեքս
65
տոկ
1949
մայիսին
##ազի
Hist
Արագ
##յակում
երեխա
լինելով
կայացած
խորհրդանշ
Պահ
անս
սխալ
Ֆիլմը
##եցու
##պագ
Հալ
Ադամ
թղթ
1936
Մայր
Ստեփան
##ապատրաստ
զուգահեռ
երգիչ
С
Իսպանիայում
Բաբ
##իզն
ֆոն
դարպաս
ամբողջությամբ
##փոփ
շնչ
զորքերը
Օդ
ակն
Աֆրիկ
##եգր
ետ
##եւեռ
Լոնդոնի
##80
##ուֆ
ատոմ
ֆինանսական
Բան
##թնոլոր
աճում
##ատիկ
օգտագործման
##խուժ
ձվ
ամսագրի
արտացոլ
Նրան
ակումբը
րոպե
հիվանդանոց
Ատլ
հալ
էլեկտր
անվանել
կրթության
##ենա
##ward
կրճ
ախտորոշ
##ide
##եոն
##իլը
Սպիտակ
ամյա
առեւտր
1955
սինթ
Բեյ
պատճառներով
Ուիլյամ
Վաս
թռիչ
իրավունքների
կից
##կրտ
միտ
##որդին
##ասիրական
##չես
ձի
Համաձայն
տնտեսության
գլխավորությամբ
##ob
պատրաստվում
##աշրջանը
Եվր
##ասկած
այդպես
##ни
##ավորել
##աբուժ
Ավարտել
##տիկ
խաղը
##ապաշտպան
Bill
հստակ
խան
ծովային
կայացել
մանկական
նշեց
հատոր
Սուլ
##որտի
##ասուն
##ադրանք
միեւնույն
##արսկի
Արցախի
քննարկ
համանուն
Սեբ
##իդեր
##անդի
##եկտիվ
y
բժշկ
զոհվել
դեկ
Օբ
Հարություն
ընտանիքին
Անդր
Շվեյց
ածխ
թոշ
սննդ
գերմանացի
Համաշխարհային
կաշ
##եխնիկական
հանդիպել
##ոկի
հատկանիշ
1943
th
Մադրի
ցուցանիշը
Գաբ
թանգարանը
##արման
Ռոստ
հեղինակը
պրոդյուսեր
1942
ունեին
Իտալիայում
Cl
ջերմաստիճանը
անձանց
անշ
ինդ
շենքը
ռոման
ճշգր
սցենար
ինքնաթիռ
z
բանակը
##լերի
բավարար
խանգարում
##որֆ
1954
##բին
պարկ
կառուցվածք
Pl
##ինգը
##ոնիկ
##ագնաց
##ubl
Հատ
Սահման
ուժերը
##form
##վոլ
52
անդրադ
##ոծ
##ոմետր
վեպը
քանդ
Մետ
ներխուժ
գաղութ
La
##երենի
գործած
Երկար
հեն
կոմունա
##ենին
բրոնզ
##ադրամ
նշված
դը
ճամբ
պղ
բույսերի
հանցագործ
##բիլ
##մունքը
ամենաբ
մարդկանցից
Կալիֆ
լուրջ
բնույթ
Գոյ
http
հաց
##ուսաղ
գոլային
ներառված
##ire
տեղեկատվական
##ամշակ
էլեկտրական
Նիկոլայ
անվանակարգ
վերն
##ացմանը
սկզբնական
##ann
i
վեպի
նշվում
##աղորդ
##ոժ
զիջ
մեկնաբան
##ss
##նջ
վանք
Հոկ
ընդգրկված
տեղադրված
##ոկալ
Սերգ
արձագ
ցավ
մարդը
ar
at
Ալբ
թեւ
սինգլը
ոճով
երկաթուղ
արտասահման
կուտ
պնդում
Եվրոպական
համապատասխանում
Ֆրանց
հա
զավ
բով
Ռեյ
1922
##30
կամուրջ
##ինն
դիզ
##board
հավանաբար
##արպ
էֆ
օրենս
արկ
1935
աբ
մագ
##ԿԿ
երկրում
պրեմի
##մահ
լող
պատվիր
##ood
կտ
գեն
Նորվեգիայի
հունվարին
ավարտվել
նախագահի
##օրյա
հաշվի
ձեւավորվել
Դեմ
հավատ
Երուսաղ
##երպ
49
փուլում
##ականը
##ազրույց
լեզուն
1929
##իաները
հանգստ
կաթոլիկ
Գե
Պապ
##ուկների
Ճապոնի
Մոսկվայում
Այլ
ընթ
կրծ
բախ
աշխատանքային
Կի
##րադի
##ինան
փոխանցման
Ավետ
հիմք
##ore
մակարդակի
##տոնի
acc
մարզիչ
##ոնա
##ուպոլ
##արձակում
Պատերազմ
##առլ
թուլ
##ողներին
հեքի
կեսին
University
Առավել
աշտարակ
անում
պայքարի
ուղղակի
##ոցը
##թերց
##անքները
մեկում
Շոտլանդ
Վլադիմիր
##ինք
##վաթ
Մեդ
բարել
Արդյունքում
ռեկ
ռոք
սերմ
Շտ
Քար
##ուարդ
##աճյուղ
ընդունված
մարզադաշտ
Stat
##այնի
երգերի
արաբական
##ск
ժայռ
##աժան
հոլ
երբեք
##բլ
1924
##աբոր
1953
##ահանվել
կոմս
վերջինիս
Վերջինս
խմբագիր
##եմին
հարստ
##one
երկրպագ
մտն
սպառ
Գրված
Ֆեր
1934
##չային
ուրիշներ
##ավր
ph
Ազատ
անիմ
##ակայում
##ker
##իդի
ատամ
ամենահայ
##աշին
und
գրավում
կախարդ
արեւմուտքում
##oll
##ոգրաֆ
պահանջում
ադ
Ձեռագիրը
Մամ
անոթ
դեսպան
##ճան
##ացվեց
##այելի
Սոֆ
##կային
տունը
Կոտ
խնամ
ականների
արեւելքում
հեռանում
46
նկարահանում
լց
բարձրությունը
1923
հանրագիտ
արդար
De
##ամուտը
գրողների
##ics
##ահակ
##աուն
##իկայում
պարսկ
##լե
ակումբում
##լերը
միջավայր
բացասական
##ումներով
Բաղ
World
կղզու
սրահ
You
մոլեկուլ
XIX
փնտր
##քար
մարգ
պատմաբան
Billboard
ֆակուլտետ
երկարությամբ
հանրապետության
!
Սմ
##իսյան
կատարված
##ոնն
##անդարտ
##ասկետ
Կարլ
ներգ
ֆիլմերի
մուսուլման
դատապարտ
##ենադ
Արգենտ
կարծում
Տիր
Հենց
##ողություն
Ադրբեջանի
##անան
##ժեք
##ավարական
ճարտարապետական
Էյ
Նշ
վստահ
պրովինց
##ոնկ
շարքում
ագ
##աշղթ
ունակ
հեծ
օգնում
հունիսին
հեղափոխական
##ազուրկ
54
##աբուծ
ասոցի
իսպանական
գիշեր
թվի
տիպի
##առության
նավահանգ
եգիպտ
էկրան
##ագետների
##BC
##ուշակ
սյուժ
##ասկետբոլ
Ռուսական
մրցաշարում
հասանելի
օդանավակայ
51
գտել
Ստեղծվել
իրականացվում
##ահավ
Մես
բերեց
արտիստ
հանձ
Ռիչարդ
չափազանց
Նոյ
##իաներ
##70
սեպտեմբերին
##ենդի
Ֆին
##ենքի
##ուշի
##ունդը
առաջարկում
##անալու
##ah
գտնել
##աստիարակ
աստերոիդների
միկ
դադարեց
ցուցաբեր
կրթություն
Դվինսկո
Wh
##ալին
Հենրի
ապագա
ֆրանսերեն
##ոքի
գոտում
Հանրապետություն
##ետին
իրավունքի
պատճառը
ստեղծագործական
կիթ
կրճատ
Էդուարդ
Ed
##ատներ
միջավայրի
Դեւ
##եսում
Be
մտել
իշխանությունը
խորհրդանիշ
с
Պորտուգ
Արծ
հոկտեմբերին
##BA
խուսափ
յուրահատ
##ern
ուղիղ
սկսվեց
մնացորդ
##մին
##ոզեֆ
Կուր
##աբույս
Պա
այր
##րտ
լից
Թբիլ
օգոստոսին
##iss
##les
1952
մարմն
հաղթեց
մարմինը
ֆակուլտետը
ed
Սի
ներկայումս
Պրո
Գյուղը
ընդգրկվել
ենթարկվում
и
կատարած
##յուծ
հնչյուն
մահանում
օգնել
##ամաքային
զարգացած
ծրագրի
գյուղատնտեսական
##ոլը
Օգոստ
գերի
լանջ
##իկային
խոնավ
եղեռնի
ներկայացվել
Երիտ
##ագրվել
դիրք
մատուց
Հն
Կին
մթնոլոր
քարտուղար
մազ
Բյուզանդ
##ախաղ
գրի
Կաստ
##արվեստի
Տիգրան
զարգացումը
աստիճանաբար
1928
Rec
Սուր
ենթարկվել
Տարբեր
##ite
Ըն
փոխազդ
##sch
##ոլին
վերջո
երկիր
Ամբ
Ռում
##անյանը
##ադրական
85
##աշարժ
Կովկաս
կրթական
Re
պատգամավոր
##խի
Իզ
Ռուբ
երեւույթ
##ոգեն
##աստիկ
##կայում
եկեղեցական
##ուվ
ղեկավարել
հրատարակել
1951
Միջազգային
մրցաշրջանի
գավառակում
1933
կարգավիճակ
երկրամասում
խոշորագույն
##լեյ
Անհ
##իդերլանդ
##կը
բարբ
թերակղզ
հուլիսին
##ոկրատական
ընթերց
Սթիվ
տեղակալ
##ոնս
բարոյ
այլեւս
ապացուց
##ер
72
Իրանի
Պեչարսկի
ընդարձակ
հետեւում
դասավանդել
al
##ամարտի
աստիճանի
հրապարակում
կենտրոնի
գործակալության
անջատ
ժառանգության
մանկավարժական
##անե
Հոգ
Ժամանակակից
արդյունաբերական
Էջ
որս
պայթ
բիզն
գրասեն
##ru
##ակող
##աժամ
սինգլ
Վրաստանում
53
j
ջանք
հասուն
լատին
1925
Ֆլոր
la
թանգարանում
##կուն
##ավարեւ
##իսում
Պաշտոնական
##ռուց
Լիգ
խմբերի
իրականացնում
ուտ
հիմքում
բովանդակ
##ür
##ons
եղավ
62
Տոլ
քանակությամբ
ազատագրական
York
##ացիներին
գեղեցիկ
178
թողել
բյուրեղ
Պետրոս
մարտին
պատվավոր
օս
կասկած
ալկ
##ամասի
##նեն
##ակետ
բնագավառում
Բելգ
Ֆրիդ
##ագում
##յուռ
դել
մուգ
թողնում
կազմակերպել
##չել
##ts
աֆ
##սափ
##oh
##յոր
համեմատաբար
գին
Շրջանի
մկան
##նուպոլ
հանգեց
ծննդյան
##գար
Բազմ
##անգամ
Թբիլիսի
##նակազմ
անհետ
##իզի
աշխատանքներ
ապրիլին
գեղանկար
ավարտվում
դավ
կոշ
շրջագ
նրանից
առաջինը
ծախս
քայք
Այնտեղ
արդյունքներով
Ռոբ
եղած
դեկտեմբերին
IV
##գա
կյանքում
վճ
որոշել
մակերեւույթ
Զբաղեցնում
Դավիթ
խնդիրների
##սերվ
Ներս
##իվը
Այժմ
կետը
տառապ
Կոմուն
He
մահը
##եեւ
##որշ
##ելական
ավարտելուց
խոսում
հսկայական
պատերազմը
##տված
նյութեր
##ոմին
Երիտասարդ
Ալբոմ
##եպի
##ավոտ
##գրավ
##ճում
##րապնդ
Հուշ
ապար
##oun
գարն
##ոսֆ
##եյս
Յորք
մեկնարկ
Ինդ
ոլորտում
ստանալու
##իպր
74
գրաֆ
##իչները
ուսանողներ
կարգի
Կաթ
1932
##վածքներ
լիգայի
ցեղասպան
առեւտրական
##լան
Դեր
##ադրված
##արանների
նախարարության
##ath
տապ
Արարատ
հատվածը
երեկ
տիեզեր
ծածկված
##ագան
լրիվ
Շուտով
##լո
տրանսպ
##ոլֆ
##աշատ
կրտսեր
ամենաբարձր
տեսակներ
##դեռ
մենք
##արվում
քարոզ
Մոսկվա
Կոստանդնուպոլ
##ալս
հրամ
##վելուց
Սն
բազմազան
քաղաքականության
Բավարի
վիրահատ
##raph
երգեր
ապահովում
##iew
##լու
##իլիայի
տատ
##ամփ
Նման
Ահ
Հունաստանի
համախտանիշ
օլիմպիական
##նիա
ամրոցը
##ժի
դեղին
Մարգար
Սոցի
##ածն
##ակրթ
երկն
##ենտի
ճգն
նեյ
կանայք
հեղափոխության
տպագրվել
նոյեմբերին
##ft
ուսումնասիրել
Պող
տաս
##ction
##եների
##տագործ
ձմեռ
կապի
Մեն
71
##isch
Շար
1000
հայաց
քր
1927
##ակցական
##ումներից
նախնական
##իկյան
ամրապնդ
արբան
կոմիտեի
##արիա
Մարտին
օգնական
ինչպիսին
անդամների
##per
Բիլ
Էրզ
1912
Անդրե
լեռնաշղթ
պահպանվում
##ամյակ
մեխանիզմ
կղ
##անդաղ
դաստիարակ
##կերը
Կիլիկ
##իլիայում
ունենալով
##ace
ՄԱԿ
Իլ
խոտ
1931
Բագր
ամենահայտնի
պայմանագիրը
##եթը
##ապնդ
Նկ
աղք
սրտի
թույլատր
թիմը
Ֆրանս
պատվին
##ագեղ
##ատորի
1926
լաբոր
աշակերտներ
առջեւ
Հռոմեական
##ուստի
անվանվել
res
Դվինա
պահպանել
1905
բաղադրիչ
##անկտ
Երգը
լեռան
իսկական
անգլիացի
Ավստրիայի
մոտենում
##ադաս
Սին
այդպիսի
Հայտն
##ովայի
Յորքի
նահանգում
պաշտպանել
##սից
##ատները
##ղթի
Պարսկ
##եսթ
շղթ
իսլամ
##րաթ
##մայի
թողարկել
##նիկ
##իքս
կորպ
տարիներ
##անցի
Սիլ
այց
ղեկավարությամբ
##իմն
##իտետ
հույ
Ռուսաստան
Ակտիվ
##ach
դահ
Լեոն
ստանալով
##այման
հարավում
##անո
քառակ
##cl
##տեր
Սարգս
120
Բայ
վիճակի
զգաց
մրցաշարի
п
Մերի
##ագի
##րեւ
ստանդարտ
##ick
Ռամ
թոք
Մասն
ժամանակներում
սերիալ
Սովորել
Բրիտանական
ավստ
00
պոլ
##իկլ
ձեւավորման
հասավ
Երրորդ
խաղադաշտ
հեռուստաալի
դափն
տղամարդկանց
աստղադիտ
Վին
վկայում
##ոդի
պրեմիերան
58
##ուրժ
իբրեւ
կապիտ
բարելավ
##չին
ձեռագիր
միանգամ
Par
ներկա
հաղթող
դասընթաց
Խմբ
1910
##son
##անել
տաճար
տարածում
պտղ
Արամ
կիթառ
##ենհ
Վահ
1909
##ոնիա
գիրք
հագուստ
գեղարվեստի
կլիմ
տեսնել
հանրային
ռուսերեն
##խիթ
400
բանից
եղբոր
կիլոմետր
##ight
տաճարի
ծրագիրը
Լեյ
##տին
##կայի
##աթերթ
##ատանը
Հեղինակ
Արք
չկար
##be
##քսիդ
սպանել
##ոլոգիայի
թոշակառ
դարից
##արարական
ստուդ
բանվոր
հավաքածուն
Սանկտ
քաղաքներում
from
նպատակն
լրացուցիչ
հակաս
Ամերիկյան
Լյուդ
կոնսերվ
աշխատակից
##աշեն
Ղազ
ինժ
անցյալ
##ոնային
Մշակ
անդամները
##ըր
խփել
Լեւոն
հեքիաթ
##րիզ
Հաճախ
##լիման
պատերազմից
ֆերմ
59
##ունգ
լճի
##եզրափակ
##12
##րահամ
ընդհ
##ցին
57
Արմեն
լեզվով
հանդիսատես
##40
սալ
ավարտվեց
չկա
Award
Մասնակ
անշարժ
Ph
##աքնն
##ինալ
մասնակցությամբ
ախտանիշ
##ոփառատ
լիգ
սննդի
>
Սկզբում
գաղափարը
##եո
դանդաղ
Ոչ
##հետեւ
առնում
##ոխր
##եկտոր
թատեր
Սեբաստ
##ջեր
##ազրկ
Բարսել
en
Ալֆ
##ախառն
պորտ
բաժինը
ներսում
Col
Կուբ
անվտանգության
Սերբ
բառը
մլն
ներմ
##աբանություն
##յուց
հրաշ
Վիտ
երկիրը
նկարահանված
##ail
##եպտ
##ition
##անիզմի
##ենզ
56
պահեստ
սիրում
մասնաճյուղ
##անկարիչ
փետրվարին
##նան
##րային
##իլդ
տուր
##ւն
Լավագույն
Աֆր
##շակում
Էրզրում
Le
ծեր
նորվեգ
##ՖԱ
փայլ
##ադարձային
ժողովուրդների
խաղարկ
##ican
1913
##ոբելյան
##ալիստական
99
Մադ
մեկնում
##ուլտուր
ծառայում
Յան
77
##ոտր
##աբույ
կրել
Արաբական
Me
շատերը
կարողացել
համակարգում
Is
սիմֆ
в
##կով
անցնել
նվաճել
##աշվ
վավեր
ցուցադրվել
##իսն
չունեն
Աշխարհի
կինոփառատ
Բն
##որդների
##ակցությունը
Վայ
լիճ
ներգրավ
177
Կոլումբ
հարձակում
խախտ
##ուփ
Հնդկաստանի
Հունգարիայի
հարցազրույց
##te
կապույտ
##եսին
##իստը
##կերի
Բժ
հասկան
կհ
##եքեն
սարսափ
անցավ
վերանորոգ
Ֆլ
Խար
##արդյուն
պահպանում
Հել
ինքնակ
անընդհատ
##ակցությամբ
փառ
Ամուսն
Ժողովածու
Մկրտ
հանդիպումը
էլեկտրոնային
եպիսկոպոս
Սք
հրաբ
նյարդային
with
##աթաղ
Սերգեյ
դերասանական
##տա
78
Աստծ
Յունայթ
համալիր
կաթողիկոս
##արդի
հյուսիսում
##ձի
##edia
շվեդ
խաղաց
կլինի
Մահացել
Բրիտանիայում
լատ
աղջկա
օգտագործումը
ոճի
Music
Լոռ
Նիդերլանդ
պող
դարերի
պետությունների
բանաձեւ
##ավարության
Միս
բջջ
սկավառ
մնալ
##ՊՀ
Հիս
բաժանված
##ելսի
Աղբյուր
##սն
վարել
ուզում
63
Record
դերում
իմպ
##ախումբը
##արկվում
##ինների
երեւում
կարիերայի
##րոֆ
##րոյի
Դին
Ռաֆ
Amer
Ավստրալի
քաղաքների
##men
##ատոմ
Տոր
վարչության
սիրահար
համակարգերի
Բրազիլիայում
##ուները
նավատոր
ուռուց
տնային
М
Պտ
վարկած
լրագրող
##եփոխ
Հիշ
բորբ
##ականները
Մա
Մանկ
կորուստ
հասկանում
Հաս
չափս
հյուսիսարեւ
վարչապետ
պատրաստած
##ор
կեղ
Sch
##formation
նախապատրաստ
Ռոդ
գիտելի
տեսությունը
##ակտիվ
Վերջ
հեռարձակ
1900
դարձնում
բեւեռ
ժամանակավոր
##ինակի
##ովս
Լիգայի
Ղր
Մայքլ
որովհետեւ
“
համարել
անբավարար
վերադառնալ
76
դրվագ
թատրոնը
Իսրայելի
##որում
Նավ
հայրեն
is
գյուղը
հանգույց
անաշխատ
Ex
А
##ere
66
php
նկարիչների
##ակներում
խաղերում
կարծիքով
ականներին
##ՆԵ
##ահետ
սերտ
առեւտրային
Ել
կառուցման
վիճակը
##արիայում
մարմինների
ճանաչվել
Ստր
##ատակարար
##իթմ
դիպ
##արժեք
մշակման
արհեստական
##ove
##որան
հողի
միանում
իտալացի
ներմուծ
##րաչափ
ոլորտ
Բոն
##ալյան
##iche
ինձ
Էջմի
մատն
##ապատկեր
##րոջ
մաք
Սինգ
շրջակա
ողբերգ
Չեմպիոն
ընտանիք
հավաքականում
բանակց
1907
1908
Մուս
կնքել
##ock
Դպրոց
մշակույթ
Ամերիկայում
NBA
Աննա
Երեք
Մյուս
ստուգ
ամբողջովին
բացակայում
Հայրենական
67
հրեական
հղի
1916
կենց
##րաշարժ
դաշտի
փաստաթղթ
All
##ախի
ճապոնական
##կյան
կինո
փոխանակ
##ունին
խանութ
##վածքները
ղեկավարում
շենքի
Մատենադ
չափով
##ովային
եղբայրը
##եա
Դել
ձեւակերպ
պահպանման
##իցի
Մերձ
ավարտից
անձնակազմ
##ous
քահան
Հիվանդ
մրցանակը
##թափ
թափանց
##մունքի
յուրահատուկ
քրիստոնեական
շեղ
հետապնդ
արժեքը
զարգանում
էլեկտ
##pt
նկարը
##ենդան
գործնական
##իտվ
ճնշման
սրտ
Միության
##15
Ղարաբ
##եյան
##մայ
160
##նտանի
բուլ
մարտական
քաղաքապետ
Յուրաքանչյուր
##19
անվամբ
Արդեն
##րը
Անտոնի
##նց
անել
##անիայի
ստեղծելու
գրոհ
95
##ayer
##րդական
##ենգ
Dat
դափնեկ
բրիտան
ամբիոնի
կրկնակի
Լոնդոնում
Միայն
Եգիպտոսի
##ավալ
կործ
ճարպ
առումով
69
բարեկամ
լայնորեն
Լիվ
բնույթի
կերպարը
##ome
##ագիծը
անապատ
Հայաստանը
հաջողվում
ձեւը
իդ
##ագիծ
դերակատար
տեսակների
հայտնաբերել
##14
ch
բաշխ
յուղ
El
Բրյուս
սոցիալիստական
արխ
դերի
ձկն
մին
օգնության
##ans
Բոս
##ավճար
Համբ
##ուլում
Լեհաստանի
կոտոր
փորձել
նվազագույն
##եցման
Նապոլ
մակարդակը
որդու
դարձան
սկզբանե
##օգ
տրանս
Լեռն
անդրադարձ
էներգիայի
Կանադայի
վայրերում
մասնակցեց
Դեն
Կիպր
բասկետբոլ
տարածվում
##եպատ
լատիներեն
84
##ապավ
ցանկը
Իռլանդ
պահվում
հարձակվող
Արեգակի
Բուդ
լույսի
##թին
գործառ
Մխիթ
հանրագիտարան
##act
աղջիկ
տաճարը
երկարատեւ
վիպ
##արկման
առաջացած
օրգանական
Կարապետ
Վիեննայի
##ահոս
քարտեզ
վերանվան
##կոն
73
վոկալ
##ալեզ
գալով
Ներքին
դեղամիջոց
թղթի
##cy
##ԱՆ
##եճ
##որգի
դիս
Դոնի
##եգոր
դամբ
##ումային
ընդդեմ
Մոտ
բարեփոխ
նորամուտը
##ors
օպտ
1890
աղքատ
կեսերին
Օլիմպիական
##դեն
##ահյուս
##եկի
Շին
##արային
որոշեց
պարգեւատրվել
առնչ
առեւտրի
##զկ
Քվ
Statist
լեզուների
##րոդ
##elect
պայքարում
Թեր
հորին
##ոռոչ
խողով
Մասնակցել
Դեռ
կաղ
հիմնել
ձգտում
հոգեբանական
Իբ
հարավարեւ
##զը
as
կրակ
խնդիրներ
##րատ
##աքաղաք
##անիա
պտտ
խմբում
##rid
238
ամրոցի
Նար
էքս
հեղուկ
##արգել
##ապահության
մետաղադրամ
##land
սենյակ
վայրում
զանգվածային
##ատարածքային
կոկ
Խաղաղ
երկայն
##աեւ
##երսի
բողոք
Բավարիա
նպաստում
Լո
աթ
թերթի
ուշադրություն
դասակարգման
արմ
Գաբրի
արտադրան
68
##թայի
ուժի
Intern
79
Օտ
հաշտ
ջրանց
##ղոլ
զենք
թեեւ
հարցում
Նախիջ
բացել
ավստրի
ավազանի
սովորում
մասնագիտական
երգերը
տոհմ
Առաք
Ինքն
Մովս
բջիջների
վերադարձավ
hr
1906
արտոն
##16
գեղեցկ
հոլանդ
##որատիվ
Ասիայի
##ալուծ
մաքր
Հիմնադրվել
My
Օսկար
Ֆուտբոլ
Գիր
##ծառ
Ac
War
Վանի
գովազդ
նրանցից
ամիսներին
##րիի
Ուոլ
##րանկար
##ողությամբ
նշանակալի
նպատ
ուղարկում
##երների
դարձր
դաշնամ
ինժեներ
ռադիո
պիես
հավաքել
##ադիմ
Մու
պատիվ
տիտղոսը
Մեղ
շախ
##անդին
Երաժ
կանգնած
արքա
հիշատ
նյութի
##ունտ
Անդրկ
Ֆրանսիա
տեղեկություններ
պատան
History
թվականներ
##13
տրված
Պիր
Լուկ
բարձրությամբ
Պու
բացարձակ
##թեւ
It
համակ
Ad
համեր
կիսաեզրափակ
##ակցում
##ացմամբ
Ընկեր
Ինտ
բակտ
ընտան
կինոյի
զարգացմանը
մասնակցելու
##ina
երկրաբ
##ացության
հիվանդների
հիշատակվում
On
հայտնվեց
Comp
ազատագր
ժամանակաշրջանի
##ատեսիլ
քաղաքն
Հուշարձ
##ավորությունը
դրամատիկական
##եկը
##եյլ
ջուր
Արթուր
բանտարկ
հեռավորությունը
Ֆրիդրիխ
##ստանի
միասնական
Աք
Աստղ
##ադարում
ըմբ
##անկարծ
##ոստային
բյուզանդ
համակարգչային
##ագլ
վայրի
88
անաշխատունակ
կարեւորագույն
##տեն
##եյնը
թեն
գնաց
##արանական
գմբ
Զանգ
արել
ադրբեջ
երեխայի
Վաշ
թագավորը
##գրես
հյուրանոց
պատրաստում
##եւից
դափնեկիր
Չարլ
ՈՒ
Քլ
für
##ամթեր
Կենս
Կաս
փուլի
Ասիայում
##ен
էնդ
գործը
կյանք
Hot
Այսպես
նախագահը
հատկաց
Համալս
Միխայի
օգտակար
ճանապարհով
##ուին
##եման
գնդակ
##իմը
օկ
Էդվարդ
բրոնզե
Կառուց
տիտղոս
աշխարհը
բուսական
տեսանկյուն
վարչատարածքային
1911
So
Gre
պարբերական
##old
խնդրում
ֆիզիկայի
կրթությունը
##յուկ
ամսագր
ձեռագրերի
##oci
Դիմ
փիլիսոփայության
##ings
Նախագահ
##ль
##նին
##վինի
արձանագր
1895
##անտային
հանգամ
1904
ստորաբաժ
ենթադրում
Ռոզ
##անազան
Մակեդ
Ստամբ
##ավրի
##ակցված
##ովա
##վանդ
Թուրք
փողոցի
հրաժարվել
##ուռն
Art
ֆոտ
##ոցում
##ետն
##երտի
##une
82
##քերից
մահացավ
##ափառ
Արա
Վիչ
ընտանեկան
##իչներ
##ograph
Կոնստ
պալատ
գետերն
Gu
նյութական
տիրապետության
##շխան
Դեյվ
սառց
կառուցվածքի
##եղն
խոռոչ
սպեկտր
մրցանակաբաշխ
զրկ
գործի
պալատի
ստորագր
Զին
սաղ
##ենցիալ
երեխաներին
ԼՂ
Սեպ
##բուրգի
Մյուն
##սակ
Մուր
արկած
կառուցվածքը
գրքերի
այցելել
նախըն
##իցս
<
հույս
##ոնները
պատուհ
հայտնագործ
##ner
Con
##անումը
Պետերբուրգ
##tain
Կես
որքան
Ներկայ
փոխազդեց
օգնություն
մաթեմատիկական
Սվ
##ys
Բազ
նշանակության
այնուամենայնիվ
տարել
կենսաբանական
ռմբ
##ախտակ
միախառն
89
##րդեհ
##անքներ
հանգեցնում
հաջողություն
տաղանդ
հիմնադրել
ձայ
##ton
գերակ
որոշվում
##ստի
Էս
Հան
##արշ
կուտակ
սոցիոլոգիական
##öl
##ուրա
Ուլ
Սոլ
հաջողությամբ
##իտների
##18
թիմին
##հել
##ակցել
Տերեւ
շուրջը
ընդունվում
Նաեւ
համբ
Ալբերտ
անհաջող
##եոդոր
վերցնում
թոշակառուներ
##ագայի
Ստորին
օգտագործելով
##միտ
գործադիր
պատասխանատու
et
մարմնավոր
պահպանվող
##ութիւն
մինչդեռ
Times
##ամետրաժ
result
ավարտին
միանգամից
##icht
անձի
an
հղ
##արեզ
##արկը
ամուսնու
լեզուներով
երաժշտությունը
հավատար
տեղահանվել
##ros
լաբորատոր
Ճան
Վարդան
զանազան
Բաց
իմուն
մեկտեղ
Ռայ
կողմնակից
##արխ
նրբ
Թոմաս
##անիկական
իրավական
կուլտուր
##ix
##ՄԿԿ
##բերգի
Սեմ
Ցանկ
դաշնակ
##ահր
Աֆրիկայի
##ance
ազդում
բարեգործ
առաջնային
հավասարակ
ավի
##արակի
կլոր
Սանտա
դնում
Ռոս
ֆոնդ
##արանները
Բեռլինի
հունարեն
արագությամբ
##ալա
միապետ
Էրզրումի
Պետերբուրգի
##յոլ
Մեյ
Բեռլին
##արբ
անկախության
Man
խանգար
ճշգրիտ
կապիտալ
Չեմպիոնների
##ացումն
Արշակ
բնակիչները
առաջնությանը
նրանով
տեղաշարժ
##եայի
##ապար
##ոուն
ընդգծ
Համայնքի
ժամանակների
##րապես
աղջիկը
##ավը
Fort
Տարածված
##անրի
սուբ
միջով
նամակ
պահում
ընդհանր
org
գանձ
հետախ
##ոուի
##անակի
հարցը
##իային
##յոք
Սառ
աշն
միացել
թվաքանակ
”
##րիպ
ամպ
դիտվում
information
խել
մայրց
Մանուկ
գույնի
կտրուկ
ցուցակ
մասնագետ
էմ
բեկ
վիտ
Կոմի
Ավստրալիայի
Միքայել
##ենսի
##վիլ
..
...
Մարմ
փաթ
Ատլանտ
մոտակայքում
Սփ
##ուրտ
##ology
բերդ
##իթլ
86
##ուլը
##ագծի
Լոր
##ազգիների
անցկացնում
##ոճ
##ոնե
Նախկին
##կրետ
տալով
դեպարտ
##ан
##ոմեր
սփ
Dis
Records
թեք
##ins
Աբդ
մշակել
իրականում
##երիալի
##անքով
սպառն
կոչվող
##ien
ներդ
ֆիզի
վայել
հինգերորդ
##ungs
Vol
ռեստ
տասնյակ
պաշտպանական
##17
Կա
##րեցին
Լենինգ
Մանչես
կենցաղ
տարիքում
հանձնարար
Նատ
##ենյան
նախագծի
ուղեծրի
ակտիվները
հնագիտական
##ոմբ
##անքում
մուտք
1880
ժամկետ
տիեզերական
Բեթ
դասի
համառ
վանքի
շոտլանդ
##ism
##ոտը
քվե
Շառլ
Սարգիս
ուղարկել
Թր
##աբանությունը
կոմունիստական
երանգ
հիմքը
##թոն
Car
Jan
##ետային
Յորքում
որոնցում
1896
Ֆրեդ
Հայքի
հոգեկան
##անտին
Անկ
արծաթե
ապացույց
հաստատում
միջոցների
Կյան
շաքար
##վածության
##եստի
1903
մոխր
ստուդիական
հանրապետական
Շամ
նավթ
օժանդակ
վարձավճար
կարմ
Հայտնաբեր
ստացվում
կանոնավոր
գերմաներեն
երաժշտություն
օրին
սինթեզ
էստ
Ռազմ
այգին
պարտադիր
##իսից
Bev
կղզի
ուստի
կողքին
98
##ողներից
փոշ
##ափնյա
կապը
հրամանով
ուսումնասիրում
##ավում
նորմալ
արդյունքները
92
##մարտ
Հանդիպ
հոդվածը
կենտրոնն
Համարվում
Թումանյանի
Էկ
Կախ
Հայկ
ազդեցությամբ
զգացմունք
##յո
##ölker
Էլիզ
շահագործ
Ակտիվության
##իլիա
մտց
պեղ
վերափոխ
առաջարկել
##գին
Երաժշտ
Վիլհել
լիազոր
Ind
Ֆրանսիական
Ռոման
հակամարտ
##վածությունը
##վենց
Rev
Վիչեգ
Սյունիքի
նախաձեռնությամբ
##tes
Արի
երկրաչափ
թթված
##ետա
պես
փոխել
##ավորություն
##own
ժամանակը
##ագիտություն
##ողն
օրս
select
Աբրահամ
Պրեմի
Գյուղի
կարողացավ
չգ
##երկրյա
В
##ope
ծնողները
Սկս
le
Քեր
միջոցներ
պայմանագրի
96
սիրո
Հանդիս
##ապի
հանձնաժողովի
Ստեփանակ
##ագծով
Ռեն
Մուհ
պտուղ
##ամա
Վիչեգդա
Ջո
170
կոմպոզից
բռնությամբ
##անոս
##կում
Bevölker
դիվանագիտական
##ар
##իտա
##լեքս
ֆակուլտետի
թաքն
խաղալ
կողմը
կողմն
##իտր
հեռախոս
կայսերական
##եթում
87
Ապր
ամենը
պետություն
##nal
Կոպ
պոչ
News
Գյում
##իկներով
լարված
օժտված
միլիարդ
Գործազուրկ
քրոջ
##ովկասի
հաղթում
երեխաները
##ash
Երգի
սան
առնելով
Շվեդիայի
վարկանիշ
Գերագույն
անվանակարգում
##ende
##ոններ
բարի
կատարեց
վտանգավոր
##ասին
Հուլ
Արտաշ
ազգանուն
##տո
600
x
Fr
##երիա
##itung
##ուսին
ընկել
Աղբյուրներ
he
Չիկ
Կանտ
##ations
Պաուլ
հարազատ
##ելն
un
##ilm
ստացված
pro
կղզում
Պետական
իրագործ
մունիցիպալիտետ
##աթափ
աճի
Վաշինգ
##ագործական
##ամարտիկ
բոլորը
պատերազմին
##ueil
##տորի
դատական
բնակություն
##էլ
eh
ձեռքբեր
ստեղծվում
##նետ
դետ
խիտ
գլխավորել
##եշնչ
նախագիծը
զգալիորեն
Գոյություն
##ife
զարմ
պոեզ
ինֆորմ
Պան
էս
Love
ուրախ
##ստրուկ
##uth
տեսանկյունից
##ամերձ
դաժան
դահլի
կարծիք
##ոսով
առասպ
հաղթահար
փափ
83
նպաստել
ընթանում
Օկ
փիլիսոփայական
##du
Հետո
թափվելը
fiche
կոնկրետ
##ռան
Tr
##եկտի
Ավագ
##isches
խավար
##ահաղորդ
չինական
տեսական
##իդը
պղնձ
ծրագիր
մտավոր
##3265
Հռոմում
ehess
resultat
175
May
շուտ
accueil
տերմինը
վազ
##ավարիչ
Սովետական
տեսք
թել
##աշարի
կատալ
2383265
իրավաբանական
արտադրությունը
##ագործության
անցկացվում
Եկ
գող
բանջ
ծնողների
տեղադրվել
Go
Դան
հույն
մշակում
պարզապես
##ame
Տոմ
կոդը
##յանների
Ուիլ
##ակարգի
բարբառ
ասպարեզ
Ճապոնիայում
Or
ԴՆԹ
սու
եզրակ
գետերի
դիմանկար
Ռոն
գրառ
լեգենդ
գյուղից
շարժումը
$
Իսրայել
նկարագրում
արտահայտված
հավասարակշռ
ցուցադրվում
##que
Gr
##ֆորմ
փլ
130
ռեզ
քառորդ
ներկայացվում
առավոտ
միջամտ
մշտապես
մատուռ
##վանից
պարսկական
##Վր
П
Հոր
հարցերի
##ալիք
Լիբան
##ացիոնալ
մագնիսական
հեռուստատեսային
##pl
ինքնասպան
կատարելագործ
##րեդ
VI
##ունչ
##ողուն
##եժիսոր
չկարող
Միխայիլ
արվեստը
տվյալները
արտասահմանյան
միկրո
250
##վային
միացավ
գործընկեր
խնդիրները
##ելա
կուսակցությունը
##ign
բեռն
##ալց
գոյության
Հիլ
Քեն
##արանձ
համարյա
Բուլղարիայի
##լենդ
##իմիական
կենտրոնից
պառ
կտոր
##ացումից
առաջինն
Statistik
Ուղ
##եւանի
##յանին
ապակ
Մոլ
մզկ
Յոհան
For
ճաշ
կատարելու
ահաբեկ
##չելի
աշխատող
օպերայի
պարտություն
սպանում
ամուսնացած
նկարահանել
##ամար
կավ
ոչինչ
պահել
սկիզբը
##էջ
##ադա
##անակը
##ild
176
Dec
երկրաշարժ
##ելդ
##իշի
##ли
##ամերիկ
##ase
հպ
Բու
արարող
խնդիրը
Bevölkerungs
Ձմ
թարմ
պրակտ
Խորվաթ
օրենքի
##ամմ
օրգանիզմի
##պանական
##Վրաստանի
Նոբելյան
##յայի
##ոնայի
հրդեհ
թմ
##անոցի
հայտնում
անալ
տարրերի
Սովորաբար
##րոգ
ամուր
ծագման
պարտական
##այուն
##ադրման
Այսօր
հայերը
կծ
համագում
շքանշանով
սցենարիստ
##ինո
Իրան
Sy
1901
երիկ
արքայազն
րոպեին
ճանապարհը
փոփոխություններ
իզ
##ականներ
zum
ստացած
ձեւավորվում
##uk
Te
գիշերը
##ֆեր
հաճ
##ողարկ
համընկ
գործընթացը
##անու
զանգվածը
բարձրանում
շինարարական
•
Միշ
##ախջախ
Եզ
ճեղ
##աղեստ
Stud
Օգտագործ
առավելագույնը
Բրա
Landes
ստեղծվեց
##եղեն
Արսեն
տարեկանից
շարունակվում
##ows
##ադայի
##աձուլ
որտեղից
տարածման
##ուհուն
դրոշմ
արբանյակ
մրցույթում
К
Օգոստոսի
հերթական
լա
##արկեր
գերակշռ
Մատենադարանում
##amt
##այը
##շեւ
Կոմիտ
դիրքում
հայտնել
Կատար
փոփոխությունը
գծով
Պահպան
անմ
ստեղծեց
համարվել
##ae
##նեց
##յուջ
Կղզ
Մագ
##ուսային
Չինաստանի
Մյունխ
դուստրը
միջինում
##11
##reib
Her
##enver
լյարդ
մական
քրիստոնե
ընկերություն
##arbe
##կինի
սպորտային
հրաժարվում
##ՍԿ
##anc
Jul
հարգ
մահացած
##ept
##ohn
##ասս
##տե
##գերի
##արարի
Այդպիսի
Ֆրանցիսկ
տարրական
Դալ
##ածածկ
##սլավ
Enter
պոտ
Սանդ
կնքեց
երկրային
բնակիչների
08
##ացվող
Եվրատեսիլ
հուշարձանը
##ացրած
կազմը
հիմնվել
առանձնանում
##եյնի
##ինացի
սեղմ
International
Բիթլ
Անտոն
##ադրությամբ
##ple
##հարկ
մեկին
սկզբից
Սբ
անձն
տարածքները
պատերազմում
Յակ
ընձ
ռազմաճ
##րիկյան
օքսիդ
սահմանը
եղանակով
##քսը
վճռ
hier
Խարկ
քաղաքացի
կառավարիչ
##ոսպ
##անգստ
Հերց
ոգեշնչ
##orn
Դե
նահան
Երբեմն
Եկեղեցու
##ews
դից
խորհուրդը
Աստվածածին
##ре
հմտ
ԽՄԿԿ
մերկ
ուժը
սկզբն
##երժ
մահապատ
թողարկվեց
միզ
ծնված
##ափակում
Ր
գոտին
##որակ
Nov
Թաղ
Տաճ
##reibung
ջախջախ
տեսակետ
բանակում
Հյու
դաշնակից
մրցանակին
##ակերտի
ժողովածուն
վերջնականապես
##պաստ
խմբին
ուսումը
Փիթ
ամենախ
քառակուսի
##ենտալ
հրետ
##ուզական
Awards
##ка
անմիջական
մանրանկար
միախառնման
ակադեմիան
##հոլ
##ագրեր
##arbeitung
##schreibung
կազմակերպում
vier
Landesamt
##րու
Հա
##արներ
կրոն
կային
Sticht
1870
##standes
դրանով
բժշկության
##թր
##իդա
Մելիք
##ayerisches
ակադեմիայում
##արյանի
պարբերաբար
04
Իվ
Արխ
Datenver
Շրջկենտրոն
##aw
##գռ
##sende
բազմիցս
Fortschreibung
viertes
հատվածի
միայնակ
Quartale
Stichtag
օպերային
Quartalsende
##int
հուս
ուկրա
սովետական
Սլով
տասներ
շրջակայքում
##21
Rep
Լենինի
ժողովի
քվեարկ
օրերին
ճակատամարտում
մր
##ակապ
Կայս
93
կց
##ոսոմ
Թայ
Աշոտ
աղոթ
##յալների
ունեցան
ընդհանրապես
իրականացնել
ru
##նդիր
Բաթ
հանկարծ
ժամը
գրքեր
ռեկորդ
07
1878
արխիվ
տատան
ընկերոջ
թվային
մաքուր
ամառային
##աշնչ
հիմա
կիրառվել
##irl
էֆեկտ
թերապ
տրվել
երես
վարք
ասոցիացիայի
օդի
ալկոհ
##արանային
ավտոմատ
անցկացվել
Միկ
այբ
այցելու
դաշտում
սերունդ
Տնտես
արքայադ
գործերը
American
պահպանված
Fran
կարիք
ժամանակներից
Br
անհն
վնասվածք
կիրառման
165
կոպ
քամ
ամփոփ
արքան
Բի
էթն
գրավեց
Էստոնիայի
##ale
ստր
օդային
սահմաններում
1902
շարժվում
##bert
800
ինչն
##ինները
կանադ
դիմել
որոշման
եզրափակչում
Ռոմ
լքել
մեծամաս
խառնուրդ
Անգլիայում
##ղան
##ոսն
Զաք
Թոր
Լատ
Սարդ
Քրիստոսի
Էնդ
արդյոք
հաստատուն
մասնակցություն
##che
##սպաս
Զել
##ամորթ
##անթի
##իստները
կղզիների
##եզոք
Մարզ
մանրամասն
շրջապատված
դեմոկրատական
##իսլավ
##ավաճառ
բարակ
տեսքը
##լանդիայի
դպրոցական
Վել
հետեւաբար
Ge
Սիդ
Լուի
քանակի
Ելեն
իրավունքը
Հռ
Պարգեւ
մեծացել
##ия
Կրասն
Սահակ
վայրը
ձեւափոխ
դատարանի
բրիտանացի
Վեստ
կոտր
լրատվ
##25
##արտի
##հայտ
Գեորգի
գավաթը
##արաններում
պաշտամ
նորաձեւ
ցեղասպանության
##թիռ
##ուտի
##ացանց
ստամ
վարդապետ
պատրաստել
քննադատների
##ions
##առու
##արից
##ընթ
##ականում
Դրանցից
աստղերի
մրցաշրջան
Շոտլանդիայի
շինարարության
գործունեություն
##աբորբ
##ուսական
Ամբողջ
##ժան
Պիկ
աճը
օրինական
##ինիի
դինաստ
մատակարար
շարքի
մասնիկների
պաշտպանում
##գործ
եկան
սյուն
ակադեմիական
Հիտ
գնել
ջարդ
թափվում
անդամներ
Միեւնույն
be
Բա
Զոր
հեղինակի
խճ
##ակայության
##բոր
##իգի
##ount
##արշավ
ջութ
դիմում
տեսանելի
բացառությամբ
ուշադրությունը
##но
Դաս
Մինաս
դարաշրջանի
տուժ
Մարդու
տեւում
վաճառվել
տեսահոլովակը
քարե
վրացական
##ԱՀ
##երծ
Cent
մաշկի
ախտահար
բաժնում
Արեւելքի
խոհան
երկուսն
նախընտր
միությունը
թփ
Թիմ
Սիբ
տղան
նպատակը
##յանն
Հիշատակ
կոորդին
հրեաների
##թա
94
##ոպոլ
##ույզ
##ինսկի
դրամատուրգ
գարնանը
շարժում
քերական
Co
Հովս
գայլ
հեռանալ
տարածքներում
##ci
Արվեստ
##tainment
պաշտոնում
որդուն
Ճապոնիայի
##ile
Պյ
##ներս
զեկ
սակ
ակադեմիկոս
Պակ
ցեղի
Gl
Նե
##ագրավ
##ուրան
Publ
Տրան
##րեն
Հետեւ
##ազոտական
բարոյական
կրող
ձեւերի
պորտուգ
##ՆԵՍԿ
##իտեր
Բիր
պայքարը
##22
Գյ
երջ
կարգավոր
փոխանցում
վարձավճարով
##ագո
Ռեալ
անհավ
կապում
##are
չվ
պարունակող
##արանն
##ցենտր
Կյուր
անունից
բնակելի
##ութենական
##կոմի
Քեյ
VII
ընտրության
Հայդ
Հովսեփ
նկարել
նմանատիպ
կազմակերպված
##արյանը
դեկորատիվ
օվկիանոսի
նշանակվում
##TA
բնակչ
##իսպ
ստանձ
կայսեր
##վազ
մեղմ
կիրառել
օծ
##երա
ՅՈՒ
Սաղ
ասպիր
տարիքի
պրովինցիայի
փոփոխության
դդ
Պողոս
ապրող
վանական
##The
##ril
##աստղ
Ջեն
բառից
բուրժ
փաստը
քրեական
##ford
Բելառ
ժանրի
ասելով
ԵՊՀ
գար
ֆիլ
##ենսիվ
պտույտ
կանխատես
պահպանության
##ադը
##առական
ավելին
առկայությունը
##35
գորշ
անվանումով
դրդ
այցելում
մեխանիկական
Ող
##աբեթ
1897
կոնց
Աֆրիկայում
##au
##ax
140
մոտիվ
ընտրել
նկատվում
զբաղեցրեց
ամառ
տարածվել
##ks
Երգ
##անգել
շարքը
աքսորի
վարում
հնդկական
հարձակման
ունենալու
սահմանում
հավաքականը
կապերի
Մն
աղջկան
հայտնաբերված
Գանձ
դիրիժ
մասնակի
ամենահին
գրանցված
05
հռոմե
օրենսդր
174
Անվ
##արժան
բակտերի
Զարգ
ծագել
ամսագրում
##սկայա
ճամփ
##երջ
տասը
Ակադեմ
գրականություն
##ро
##att
Բադ
##ալում
1898
Ստեֆ
գլոբ
դեպքերի
ազնվական
ծրագրերի
Մանչեսթեր
աշնանը
կնոջը
հաճախակի
##լինգ
Գոգ
ընկերների
Ալեքսանդրի
մոխրագույն
##եցիկ
սեզ
փոխնախ
թվականները
##ագործությամբ
ամուսնանում
հարցերով
Em
Լայ
##ալեզու
խորը
Վենետ
չափանիշ
պայմանների
Տիտ
Հեռուստ
##ագնիսական
ակտիվորեն
Ցուց
վրաց
խորհրդանշում
գնալ
մտահ
պատասխանատվ
գանգ
##եքսի
ոճը
##որդան
որոշումը
արժեքավոր
փոխվում
ոռ
մտավ
Չարլզ
մրցույթի
##ert
մագիստր
Խաչատր
գերազանցում
երկաթուղային
And
նախն
Ընտանի
հոսանքի
դեբյուտային
ճշմարտ
ԼՂՀ
##աթթու
Հայրը
եզակի
##ահետազոտական
Տավ
պան
ռեփ
ասաց
առաքել
գործեր
Թագավոր
##ետրի
սել
Դրան
արագությունը
հիվանդությունը
գործողության
թագավորությունը
##ուկները
քարանձ
Երուսաղեմի
##ֆին
Բոբ
Բուժ
բացվում
կանգնեց
կիրառում
Cam
տանկ
Մարին
Լոնդոն
արտադրական
Բաղդ
##ընթացի
##24
##արդը
##ոյից
##ունու
որոշմամբ
ցր
Խորեն
եկամուտ
##ոթի
Սիրիայի
արքունի
իմանում
##հա
##ացիաների
##րոտ
Պարզ
աստերոիդը
##այքի
թերթից
ուսանող
պատկերը
կանխարգել
բուլղ
կոնսերվատոր
բարձրություն
Gen
##աբերության
##ES
##pr
##ise
##կապ
ծնվ
##կոմ
##ֆորդի
նվիրել
##ընդհանուր
ժամանակին
61
Եփ
աղվ
Վահան
ազատության
արտահայտվում
հեռուստաընկեր
##իսա
##յամ
Fl
##ագրերի
##իոնում
հոլով
վանքը
գլխուղ
##նե
Mag
##րանոց
արեւմտ
##աբլ
բել
##ամարմ
հաշվին
As
ոռոգ
կամրջ
##ափաստան
Մեսրոպ
ազգայն
տեխնոլոգիական
##ated
##անիի
1899
Միջն
խալիֆ
##ույթներ
պարտավոր
##տոտ
բի
art
մեթոդը
##այությունը
կապակցությամբ
հիվանդություն
Ծառ
ցամաքային
##ուբեր
##ուրին
Իտալիա
Թիֆլիսի
Արգենտինայի
բարեգործական
Գաբրիել
իմաստով
Նեւ
ճանաչված
##ավորումների
Նահանգների
նահ
1894
բալետի
Բրազիլիայի
Entertainment
##eth
##ԵՖԱ
Ջր
##ուլին
առիթ
##ագանակ
##աններով
Մովսես
Շեն
Ալթայի
բեմադր
Գերմանիա
նե
սուպեր
##աշրջանային
03
բանի
##ախումբ
կինոն
մեկնարկային
ներկայացնել
Երեխ
110
Har
դիֆ
դարեր
տարրեր
սահմանված
##ոտին
շեշտ
ինտեր
Բագրատուն
Հայտնաբերվել
##երիմ
##կոյի
##եմենտ
հայեր
ազդանշ
արաբեր
նկարագրել
կյանքին
##ումներում
##աթեւ
##խում
##սանի
առաջնությունը
արվ
Պուշ
Փետր
չեզոք
Վերածն
միջուկային
##զն
##ett
քաղաքակրթ
##քերին
ալիքի
##աբուժական
164
Սմբ
Սիմոն
վերել
խաղերին
ծայրահեղ
##եքսպ
Պիեռ
որմն
Բաքվի
մեկուս
##անկարժեք
անտիկ
ջրամբ
բաղադր
##ընտ
March
լիովին
ձգվում
##աշի
բիզնես
##չն
##ոլո
##ոսից
գալու
հայտարարում
Անց
ջուրը
հորմ
##ագրերը
կլինիկական
700
Աստծո
զգում
պատրաստման
տարածքների
##արե
Անձ
պալատը
ամսագիրը
Թանգարանի
Պարգեւատր
թարգմանվել
հոդվածներ
Չինաստանում
մասերի
մեռ
##ournal
դինամ
ինդեքս
տեսակները
##ney
##իստի
168
##ուդյան
օսմանյան
##ջը
wh
##line
Հեյ
Բալթ
Լուիզ
բջջային
Լոռու
Դանիել
մրցակց
National
բյուզանդական
##ոների
##ուական
վիտամին
վերջապես
չկան
Մադրիդ
Արցախյան
Ճանապարհ
հետազոտության
Eur
ասպետ
բազման
սիրելի
ընտրվում
Թեհ
գլուխը
##any
##ոնան
պարս
վիրավոր
հանրահայտ
##ովկա
վաճառքի
Հնդկաստանում
Բերգ
##իներին
պլանավոր
տարածության
Ուսումն
ex
կուր
տախտակ
միջնորդ
ինտենսիվ
125
Մեթ
աճել
##ակներով
##gl
##row
հրեա
թվերի
երկրորդը
Ֆիզ
տանի
կուսակցական
ինքնապաշտպան
##ՀՀ
##uss
##եշի
##ահայաց
##վոլյուց
զինանշ
Սկզբնական
ձեռագրացում
##վալ
նկարչի
հիդր
##oth
155
##ակատի
օդաչ
ֆանտ
կառուցումը
մկ
ցնց
հյու
ձեւի
թաղանթ
տարածաշրջանում
##փի
խց
##ագին
##90
##ames
հրեշտ
##ավա
առն
հանդերձ
հանդիսացել
##ve
Այր
եկած
դստեր
մայրաքաղաքը
##ոկրատ
մեծապես
1892
տալու
ուսուցման
Թուրքիայում
##iel
##երենը
##ահարում
համայնքում
պետությունը
##տվ
բռնկ
##երիայի
ընկերական
##նումը
օկուպ
Մերձավոր
պալատում
հիշեցնում
##36
##նից
##na
##uary
Բժշ
Շեր
ձեռքի
ուղեղ
Շիրակի
Լեռնային
ուղղափառ
Պատերազմի
իրավունքները
##մեջ
##ողին
##խային
##յուզի
##ահավաք
##ուրայի
##ածի
չեղ
##ատարի
##ետիկական
Կազմակերպ
անտառային
գերեզմանատանը
Oct
փաշ
երիկամ
##ոզը
ակնարկ
օրենքը
##աձոր
Գավառ
Կատալ
փորձը
##վագյուտ
առյուծ
երկրներ
Ֆրանսիան
##բերգը
##անքային
գիտահետազոտական
##խաղ
sp
##այնը
եղջեր
թուրքերի
##ium
Fo
##ումներին
հաջողության
##բա
քրոմ
դրանցից
166
##իանալի
բյուջ
երգում
մակերեւույթի
յուրաքանչյուրը
о
##դայի
Կազ
տոմ
Խարբեր
##fer
##անյութերի
բացակայության
##те
##վե
Օբի
ճահ
Արեգակից
#
Շուշ
քանակով
թողնելով
մրցանակների
մոռ
նուրբ
##ures
##ank
շենքում
իրականացվել
Լիտվ
կորցրել
պարտության
it
##rans
John
Մուշ
իսպանացի
շնորհվել
խորհրդարանի
ոք
կոնստրուկ
167
Քրիս
Անգլիա
եկեղեցում
##ark
Կն
##essed
Կազմը
սպորտ
տրամադր
մաթեմատիկայի
հազարավոր
##ագար
##ափոր
Pol
Հանր
պատի
վերաբերող
ֆակուլտետում
Աջ
Ծով
մանգ
##ոցային
ընդհատ
հեղինակն
978
##ացուն
կերակ
հարթավայր
##rig
Փոլ
Լատվ
##ատունը
ամենից
Հեմ
արժանացավ
##co
ԳԱԱ
##աբույժ
##վածների
պատված
ամենակար
տող
Wind
Պաղեստ
այդքան
ՅՈՒՆԵՍԿ
Բարբ
Armen
մյուսը
խաղաղության
Տուր
ավտոմեքեն
81
խմբագր
##ատարածված
հանքավայր
Ենթարկվում
մուտքի
##iam
##ram
##մեր
##թոնի
##իրան
եկող
Անդերս
կամավոր
վերականգնել
##ոպլ
Aug
##րաբար
Թատր
լուր
արձագանք
Թիֆլիսում
աթոռ
նպատակներով
##րիբ
չեխ
տատանում
փոխնախագահ
քաջ
Arch
Աճում
Ամրոց
մրցաշարերում
pr
##վայի
տիկն
##իաընկեր
վերածն
ոստիկանության
Սրբ
Տալ
խոչ
##տնտես
խմբային
Ղազախ
հաճախել
տեխնիկայի
##յուդ
հեթ
##իններ
հացահատ
հասնելով
##իտետը
գաղտն
դիմանկ
ավերվել
բացառիկ
փողոցում
##յուրի
##ալների
##ուկներ
##ինայում
Վարշավ
վերարտ
ամենաշատ
##ֆորդ
Can
##ոտիկ
1888
արված
վերաբերվում
Կանադայում
##ինում
տվեցին
Պրեմիեր
մեխանիկ
Ag
##լում
ձեռքը
համարի
##արիան
ստեղծած
հիմնադիրներից
Սենտ
էական
##ակներից
եռանկյուն
վիճակագրական
Աղջ
Պորտուգալիայի
թաթ
Book
##ոքային
նկարազարդ
ողն
##յունը
Հանս
##որդները
հերոսի
մշակվել
կատարման
Հարավսլավ
ֆունկցիան
##ճանաչ
Կասպ
ձեռն
ձերբակալվել
##րետ
Ջերմ
նվազեց
##ոկոլ
օկր
Հիմնականում
##ade
էք
դղ
##ետնյա
Հանդես
զարկեր
Մեքսիկայի
գործիքներ
հրապարակախոս
##itt
##բերի
##եգին
հրթիռ
սպորտի
ընդունվեց
##յար
կոթ
ինչից
մոնղոլ
գունավոր
էներգիան
կիրառումը
տարածքային
պոկ
##իայից
Օլիմպ
ձմռանը
շախմատ
քաղցկեղի
Գերմանական
Պարգեւատրվել
բոլ
1889
Հաղթ
մեծանում
##ենու
##յալի
ճգնաժ
##ելիության
##vel
Չոր
1860
Պրահ
օբյեկտների
##TV
##nd
##բայր
ավետ
արքեպ
ենթակա
հաղորդում
Դմիտ
հերոսը
կոնվենց
անհանգստ
աշխատությունը
##urg
##իզը
##ոթոր
Յուպ
կեսը
շոու
սանդ
դարպասապահ
բանասիրական
##լար
ֆր
շրջանները
առաջադրվել
##կոտ
##աբել
##իպս
##մեդ
հոտ
##աքարի
##ոսների
բերված
վերականգնման
Մարտիր
Հանդիսանում
##ազգի
քվանտային
նշանակությունը
##իտան
##ովիչը
Բեյր
Պատր
ալիք
զբոսայ
##ակնային
ղեկավարը
Միաժամանակ
##Ու
Բաս
կապեր
Եկեղեցին
շոգ
1893
դաշին
ազգերի
այդտեղ
տեսակը
ակնհայտ
թղթակից
##ակոծ
Mon
Շալ
##իլային
ցեղերի
լուծման
նվագախմբի
##կալ
Ne
արքայի
պատկանել
##ակողմ
հողերը
ձկնորս
պատվիրակ
գլխավորում
##23
##ենից
Feb
Գավ
գծային
փոխակերպ
համայնքների
##գրկ
Եվրոպա
այբուբ
##ովկասյան
##վածքային
Խարկովի
արտադրանքի
համընդհանուր
ֆեոդ
ձախող
ենթադր
թունավոր
ձեւավորված
##չը
##չուհի
Շեքսպ
անձրեւ
ֆերմենտ
աշխատանքներին
կառուցվածքային
##го
ժաման
Կյանքի
##Հայ
ուղին
թագուհու
զարդարված
գլխավորապես
##իլիան
Կարի
ուրվ
հավերժ
Հասարակ
կողմնորոշ
##та
##ald
del
բառերը
թողարկեց
օգտագործվող
հորը
գմբեթ
բառացի
երկարություն
ծծ
##շտաբ
##ամենտի
բնակվել
ընդունեց
հավատում
նյութերը
սահմանափակում
##cycl
Ծաղ
1886
##աշարում
չուներ
##որժ
##երապ
##երոն
ապրիլ
դրված
հանել
##եվրոպական
Խաչատուր
առաջանալ
աքսոր
դիրքը
թագուհի
Աշտ
ժապավ
առավոտյան
ակտիվության
BBC
1891
հանքային
Յունայթեդ
##ատա
կողմի
Մաքսիմ
իրականացրել
##ազիլ
թիթ
մատեն
օրգանների
##ink
եվրո
##աներից
կայքը
խոչընդ
Դեղ
Թեեւ
բուն
April
վերցրել
վայրկյան
do
դանի
Հավաք
ձեւերը
գոյատեւ
հաղթելով
##շիռ
Իրա
##աներում
անձամբ
արքայական
##եւին
Ռիվ
հիանալի
ապահովել
մոլորակի
փիլիսոփա
##երց
Բուր
Ջեքս
սերբ
հետազոտական
##ոքսի
Բրան
գազի
Ռումին
չունեց
Վիլհելմ
հունվար
թարգմանիչ
աղբյուրների
##ober
ճեմ
զվար
##աներին
սերիալում
Պավ
Էրիկ
Վենետիկի
##ուղին
Գրել
փայտե
Ասկ
բեղ
սահ
##երայի
Ռոստովի
հարցերին
արդյունքը
##ake
##ակիայի
սեպտեմբեր
պատկերասրահում
##եստը
Գիլ
##իսյանը
Տարվա
օկրուգ
Արարատի
##անտի
անխ
ամենամյա
Ուշ
հնար
սառը
փլուզ
նվագել
ներկայացրեց
գրգռ
դրոշի
մասերը
Արարատյան
տարեկանների
փոխարինելով
##ոսկոպ
մինի
կինոնկ
Դանիայի
Հետազոտ
անվանվում
ուսանողների
##տած
գործարար
##առի
06
##ited
Էռն
##ընկալ
բառի
Դվինի
##աբանում
նվազում
վերածվում
##ны
պիտի
վերջը
##իկներից
սպանվել
աշխարհիկ
ճանապարհի
##բն
##լայի
Մեզ
##ատային
XVIII
Մայիսի
կառույցների
ծան
##ամենտ
հաջողվել
հազվագյուտ
##իկով
Լիս
Լուիս
կոնֆեր
January
Վենետիկ
December
մշակույթը
տարածաշրջանի
##այդ
##նայի
թաքց
Թագավորական
Արծր
##ուցում
անցկացված
միություն
##enn
##cyclop
դեղոր
օգնելով
##ամիտ
Հոլանդ
դպրոցներ
ընդունակ
Փար
ձգտ
##ատերին
Արիստ
ամսվա
գույնը
ազգանունը
զինվորների
պայմանները
##աձիգ
##ամյակի
երկուսը
պալատական
Հոկտեմբերի
գաղափարախոս
հետաքրքրություն
##ron
Դատ
Ուսա
Ամուսնացած
միջոցներով
Ժողովրդական
գործունեությամբ
Bar
Sept
ախտանշ
թեմայով
հեշտությամբ
1885
Խուան
ստեղծումը
Op
ՆԱ
բակալ
թողնել
անընդմեջ
կորցնում
Ենթադրվում
Bi
##ondon
Ստոկ
##duction
##ատիրական
աշխատելու
Gro
Res
##ածավալ
իրենք
խոսքի
Բիթլիսի
արեւադարձային
##լետ
Գագ
##աշնակ
ընտրական
ժամացույց
առավելապես
դպրոցներում
ուշադրության
##այս
Օքս
ձայնը
թաղամաս
օրինակով
անցկացնել
##ery
Բոյ
դժգ
կոնտ
վերածվել
##37
Т
##շալ
169
հատկությունները
##ուղի
Դյու
ընդդիմ
եղբայրների
##ual
օրգան
խաչքար
աուտ
կայան
ջրում
երդ
1500
August
ֆիլմեր
ֆուտբոլիստը
Նահանգներում
##38
##ակոչ
նկարի
##ույթում
եգիպտական
Գաղ
##անքին
Լուսավոր
աշխատության
##27
տոկոս
քույրը
մրցակից
##ces
01
Լես
##ոքում
July
քսան
թվականներից
##oph
##եպը
Film
##սպասելի
Մադրիդի
բուժումը
ստորաբաժանում
We
##նվազն
տարատեսակ
ապստամբության
գլխի
hrist
սառույց
Բելգիայի
Հուս
նախքան
համերգային
##ool
##սերի
1877
Ներսես
հողերի
պարտվեց
Star
Հինգ
շրջանային
##կոր
օֆ
##րերի
ֆունտ
##աբերական
միջավայրում
Մասնավորապես
##ube
Ass
Լույս
հանձնել
երկրներից
##ուշակագույն
հիմնադրամի
##շաֆ
երեկոյան
Սո
չին
տված
ակադեմիա
կողմնակի
արտահայտում
##mer
##իանա
Մարտի
Անջելես
Աշխատել
բաժանվել
խոսքերով
երկայնքով
##28
հիմքի
հերոսների
##34
Սիթ
թմբ
##iction
հասնելու
##me
կպ
##թոնը
One
##եմում
ափից
հարեւանությամբ
##ла
##գետնյա
ՈՒԵՖԱ
##եզը
Փոխ
թռչունների
##աբր
на
ինտերն
կտավը
դատավոր
Եկատերին
##ater
##ուցի
##ուսում
ճանաչել
բնակության
##ափոխանակ
##եմատոգրաֆ
հավաքում
Սեպտեմբերի
##ло
ՌԴ
Մերկ
դավաճ
ինտեգր
լեհական
կինոնկար
հանդիպող
Մունիցիպալ
##ony
անպ
երթ
Ջուլ
գրքերը
սահմանները
ճառագայթման
Սր
Աստերոիդ
հասցնում
առաջացնել
տնտեսապես
##ոնացի
Փորձ
պինդ
Զելանդ
բեմական
##ոտն
նաց
##ասյան
Կուս
London
Journal
շագանակ
մարզական
Էվ
Բատ
Վրաստ
ավստր
ստիպում
առաջարկեց
գեղանկարչության
##ազը
der
մեծահաս
Ser
ընծ
թիր
ծրագրեր
փայլուն
Նախկինում
թանկարժեք
##ai
##ле
##ակու
լանդ
սպասում
կիրառական
##եցած
149
օրհ
մուտքը
էվոլյուց
##ll
առատ
հետաքրքիր
վարդագույն
##26
նիստ
փորձարկ
հաղթանակը
##se
Մենք
լեռների
տասնամյակ
բնութագրվում
գոթ
XIII
բամբ
դեղն
ների
եվրոպ
մակերեւույթից
##org
##ինե
խռ
105
Life
Ռուդ
իռլանդ
գրանցվել
##port
##ոնից
##արները
անհամ
հեծել
ավարտը
կանացի
փոխհար
Իրանում
պարտվում
մայրցամաք
##ֆը
##դիր
Իգ
##ենոս
Քեմ
October
ժամանակով
գոյությունը
շինարարությունը
Դու
խոց
Միջերկր
##ատրի
##նասուն
գրադարանը
կայսրությունը
##լահ
XVII
##ովսկու
Դեյվիդ
կոլեկտիվ
վերամշակ
##իփ
ուլ
1887
մարդուն
բնակեցված
պատահական
Եգիպտոսում
որակավորման
##29
##նիի
ռեգ
Օլիվ
ռում
արձանը
ձեռքով
կաթողիկ
համացանց
քոլեջում
##կեն
Med
ատեն
##ննադատ
Գերմանիան
##ֆիլ
##ախոտ
Բոստ
ժամանակաշրջան
կիսաեզրափակիչ
Ռեդ
ոտն
##ավարման
հետեւել
Քրիստիան
աստիճանը
ցուցակում
համընկնում
վավերագրական
##oy
Տղ
Անատ
ուղեծրով
##ինամ
ելնելով
առողջապահության
##երներ
##ալիզմի
ալգոր
փուլը
հեռացել
զանգվածի
թողարկված
տեղափոխել
խթ
##stit
##իկոն
June
առել
հակա
November
հայտարարվեց
ռաս
առնվազն
կերպարի
##նը
Febru
բանկի
արտասան
մեդալով
##ատորիայում
հաստատված
Արկ
նստած
ծնունդ
ծանոթացել
Կոնստանտին
##ելս
##պետք
##ապետը
քլոր
դիրիժոր
վաճառել
Գետավազանը
կազմակերպվել
Р
խեց
##ադարի
Յուրի
դժգոհ
պատրի
Կիպրոսի
ֆունկցիոնալ
Н
##եյմ
ինը
Նորման
September
գործիքների
կառավարում
Դեկտ
##րոպոլիտ
Անտոնիո
աջակցում
փոխադարձ
Հունաստանում
##իլիի
Նամ
##մահու
##րադիր
Բնական
Կլիման
կարծես
հոկտեմբեր
##sk
##ազին
արժանի
##գո
158
1830
Խմբի
խթան
դպրոցների
դրոշմազարդ
##ma
##յե
##օդ
Սե
բառերի
սերիալի
իսլամական
հաղորդակց
վերահսկողության
##առաջ
Կոկ
տոնը
պարան
Հայրենի
նավի
տեխնիկ
սիմֆոնիկ
հրատարակության
Se
Կո
115
ֆաշ
զվարճ
Բերն
այլք
քրոն
սուլթ
դրամական
փոխարինել
##ոբի
Կահ
կահ
քայքայ
Մուհամմ
##դու
##վիր
կդ
գոլոր
գոտու
շվեյց
Էջմիածնի
##ий
Գոլ
Լեզ
թալ
ֆեն
Սիթի
##ակարգը
խոչընդոտ
##ախմ
##այլի
##րանտ
Տեխ
պատժ
այսպիսի
զարգացել
դաշնամուր
տատանվում
##ոմա
լեյբ
Հյուս
Ապրիլի
անունն
Ծաղկում
##ալբ
թողարկման
թողարկում
կենցաղային
ջերմաստիճանի
##ադե
երգով
սփյուռ
հոգեբան
##պանության
ամուսինը
միավորում
տարօրինակ
ամենախոշոր
##յակին
էպիզ
զգուշ
զգացող
մեղադրանք
համագործակցել
##եւիչ
Լազ
Դուբ
դուր
երգն
կռիվ
հատակ
գերիշխ
բաժանման
հաջողվեց
նախարարի
ռեժիսորը
##ածրի
109
թավ
##ենների
փորձի
բաժնետ
լիարժեք
տնօրենը
Լիգայում
շքերթում
Շվեյցարիայի
հայտարարվել
##ալք
##մանք
Գիշ
աղի
Բյուր
երաշխ
##ասկավառ
մեթոդների
անձինք
տարածաշրջանային
##39
##զին
118
##իմնազ
իրավաս
բանաստեղծական
##անկի
##եցրել
##ography
ուղեկցվում
##ays
ծրագրային
Մեխ
##թափանց
գումարը
փշ
##երման
հաստատվում
դեֆ
##ախաղի
զավթ
մթեր
կատեգոր
Արեւմուտ
Հնդկաստան
թերակղզու
հաղթանակի
հաջորդական
##eum
##ենայի
Մոնտ
էլեկտրամ
ապրանքների
##ana
pl
##մուն
Բրի
Բորիս
թույլտվ
փաստացի
տարածքներ
119
Ռադ
##որային
հիշողության
եթ
խր
154
Ֆար
խոսել
հուլիս
ռազմաճակատ
Զոհ
Ռոջ
ֆոսֆ
դասին
Կովկասի
##սա
Սաբ
հակառակորդի
##ուղթ
Այգ
Կրթ
արվարձ
խաղերը
պարտվել
փախչում
Արեւելքում
կենդանական
Bayerisches
Հարրի
աղջիկների
հրապարակել
կրի
##նդյան
Նապոլե
տարբերակում
Ավստրալիայում
Ժակ
Ձմեռ
գրավոր
փախչել
հեղինակային
##ream
Ռաս
1882
##լաս
XVI
ֆիլմն
Սթիվեն
իրավաբան
իրականացման
գիտնականների
Տիեզ
Ռուբեն
ավանդույթ
լեռնաշխարհ
##ոմպ
##վիգ
##այություն
շրջաններից
տրանսպորտային
##ամետր
կոշտ
##ինային
հիշող
Ֆերդին
##ամերիկյան
Բնության
բակալավրի
ծանոթանում
##ինիա
Կենտ
գոտի
սյուր
##աղբյուր
ճամփորդ
м
երգիծ
##աժամկետ
ընտրում
հունգար
Տերեւները
շարժվելով
##իկո
Յո
Քեմբ
Ստեփանոս
At
Կիմ
բուժում
հրաժարվեց
##ree
##լիգ
##inal
##րայի
Հիպ
թենիս
հունիս
մտածում
##ook
Մոդ
ռոմանտիկ
ձեւավորում
##ուբլի
Արխանգել
արտակարգ
առկայության
արքայադուստր
Գա
##ines
Բեկ
լիմ
##ահայր
##ոսլով
պողոտ
դարձնել
երկարաձգ
նկարները
պատկերել
խավարածրի
##ley
1884
պապի
բացվեց
կնքում
Windows
գրադարանի
հեռուստասերիալի
##ոնիան
Բալկան
ֆիզիկոս
կատարվող
գիս
չափերի
վերցնել
##ety
Էլի
Կող
Շապ
Միսս
էքսպ
սերը
Մուլտ
Մուրադ
կատարելով
Վիեննայում
ներկայացուց
US
con
պապը
հովտում
կրկնօրինակ
1873
##stitut
##իրական
February
##ակալության
սովորելու
քրիստոնյան
##ախց
աղմ
դրել
շտապ
լեյտեն
կազմակերպման
լոգ
փետ
ռիսկի
Հերցեգ
բնույթը
##ari
տարով
Գրավում
քաղաքները
ուղղանկյուն
միջոցառումներ
##չենկ
Դեպ
Ստոր
կլիման
սերնդի
դոկտորի
ներկայացման
Սոցիալիստական
##ոմոն
Բեք
Միտ
Անտի
##եմատիկ
ձվաձեւ
նկատելի
տեխնոլոգիաների
##ցը
1848
Will
##ուրում
զոհերի
մաթեմատիկոս
##ոնալ
1881
խրախ
պսակ
ասպիրանտ
կայանում
պայթյուն
##NS
##erl
Դոր
Ադրի
##իկներին
քիմիայի
խոստովան
տեսություն
##aj
cl
##իմալ
Met
##որների
Երվանդ
դահլիճ
երգահան
անցնելով
գյուղերի
##իտերի
Ստալ
թիմում
որսորդ
Թանգարանը
д
արեւմուտքից
Pe
արթն
դերեր
Գրական
Հերցեգովին
im
Կլա
##այներ
##աստատ
բարձրացնում
կիսապաշտպան
հոգեբանության
##անիտ
159
Իրտ
Ղազար
հիշում
ֆիլմերից
մեթոդները
մս
սպանության
ստուդիայում
արդյունքների
##քերն
Ջավ
օրական
օրենքով
##air
էի
##րանի
##այանը
##ստերդամ
մշակված
ավարտում
մեծագույն
ամենատարածված
##ke
##աթը
Վյ
Օրբ
1883
լինեն
ենթակայության
##ave
##ուղղ
Լաս
Brit
մտքի
Ճարտար
վերը
##անմուշ
##վածքով
լքում
կիսագ
Tw
Բոգ
Գու
մոմ
հունգ
նկարահանվում
##րիշ
##ելան
##ենիա
Քեթ
րդը
Մարս
Ատլանտյան
կամավորական
առանձնահատուկ
բրազիլ
նախապես
Հոկտեմբեր
մարզադաշտում
տեւողությունը
Երկր
Լինդ
հրաձ
վեցերորդ
թաղամասում
հանդիսավոր
Սայ
թարգմանել
##նո
##սերը
Լար
մալ
ուխտ
մայիս
հատվածներ
սահմանային
##af
##արով
##ուշտ
Բուխ
տեսած
Դմիտրի
թաղված
կարգով
մահապատժի
հեղինակների
նորաձեւության
##վերի
Սեդ
փար
Տոկի
մեքենան
ընտրությունների
ՀԱ
ձեւեր
որակի
Քաղաքում
կուն
Ստոկհոլ
լանդշաֆ
շաբաթվա
լիգայում
Տեսահոլով
անսպասելի
հարձակվում
##ull
##շնչ
##աձորի
##յեկտի
կարտ
##իքային
Բազմաթիվ
հրապարակվել
Г
օձ
Air
1850
Կարճ
Սեբաստիայի
երեւույթների
##ino
##oman
Բաշ
##ոյանը
Տրապ
մասս
հեղաշրջ
հետեւից
ներգաղթ
համարժեք
ջանքերով
պատկերում
ստեղծմանը
շրջանառության
news
անօր
Խումբը
համախմբ
Պորտուգալի
ասպարեզում
##բալ
##վենտ
Լիվերպ
կայացավ
Encyclop
օրացույց
անցկացրած
գործիչների
կառուցվում
իրականության
Hol
##ագետի
դարպասը
հիմունք
ձեւաչափ
զուգընթաց
Նիդերլանդների
sh
##արիզ
##ուզի
Off
Կամպ
##քներով
երկրները
ամուսնալուծ
##եմո
##ահող
##աքսի
վրեժ
##ենտգեն
առարկա
կանտոնի
ամենակարեւոր
##amp
##ելյ
փրկել
Միջերկրական
Б
Ռե
##ոպան
##եղենի
դրվում
կանտոն
Նրանցից
Ղարաբաղի
սահմաններից
պատերազմների
վերականգնվել
ՖԻ
Հաշ
Ջեր
հավելված
հանգեցրեց
##ón
ցիկ
սլավ
հաստատեց
անունները
Sk
##տերի
128
Նիլ
##ենային
լուսավոր
հիշատակին
միջոցները
քրիստոնյա
ուսանողական
##St
##ամոր
դեռահաս
ճնշումը
նկատում
Նոյեմբերի
գիշերային
Լենինգրադի
##ծի
##ury
##ելլա
117
Միհ
վեճ
Շամպ
խոտաբույս
cod
Պեդ
դերով
թերթը
Արտաքին
հանդիսատեսի
##ոյանի
Լուսնի
հանգիստ
##ստան
Վերածննդի
գնահատվում
Ox
##irst
##ավին
##ասպուր
ներքեւ
գերագույն
Եղիշ
չեմպ
կուրս
ոստիկ
անվճար
ապաստան
Ամստերդամ
##աքի
157
Աբու
Հրաչ
լինելը
Գյուղում
քաղաքներ
##նած
Բո
##ogle
##ouse
Մազ
##իրում
1872
լորձ
Բուրգ
Մարսի
քանզի
նյութը
բարձրան
Ռիո
դիպլ
հարցի
մետրանոց
զբաղմունքը
ժառանգական
##ral
145
Ժեր
բաս
Լայն
Անկախ
Ալբոմը
նկարում
վերջերին
բարձրացման
##եմիկ
Չեր
Երկիր
##անդինավ
Թբիլիսիի
անցկացվող
իրեր
հալած
Ցանկում
Ֆրեդերիկ
վարժարան
խորհրդարանական
##իլա
##հեմ
##ոնեզ
գնդակը
պարիսպ
Սերբիայի
##արկտ
Աբով
Ալմ
արեւի
երգել
Հրատարակ
մասերում
տղամարդու
ամուսնության
երկրաբանական
բեռ
Լյուդով
նշանակել
հրավիրում
եղբայրները
Արխանգելսկի
միջոցառումների
##yn
Dr
բարեն
դավան
շրջակայ
##ատարակում
Մարտակերտի
առողջության
Գրեմ
##ոլետ
Թել
տղա
Ակումբ
հարսանի
գնահատել
երկրորդական
հարթությունները
Դիսն
օջախ
դատարկ
հարցեր
տարածքով
տրամագծով
##EE
##ինս
Նիգ
##ադառն
լսում
Ալֆրեդ
վերանվանվել
124
ոչխ
մահվանից
բնակչություն
Երկարությունը
##գան
պատշ
##ցիների
տարրերը
Հանդիպում
##ատեխնիկական
վերլուծության
##ents
##view
կեսից
տիրապետում
Հիշատակարաններ
##ze
Աթեն
##չնագույն
Կովկասում
Անժ
ֆոր
##արդար
ձուլ
Սպարտ
շտաբի
անսամբ
Վասպուր
Տավուշի
երեխաներ
հրաբխային
##ցք
զր
##արիի
թվարկ
##ստանում
զարգացող
ճանաչվեց
դարաշրջանում
##յոդ
թեոր
սուլթան
Օվ
գնդի
##ուղարկ
վրայով
բոլշեւ
զգայուն
ներառվել
Խորվաթիայի
Կու
Հաբ
Քոչ
ցամաք
Կենդան
մոտակա
փափուկ
հավաքածուի
Իսահակ
անկում
հայրենիք
к
DV
Cor
տոկոսը
խնդրանք
կապվում
բացառապես
կաս
##ապաստ
##ոլային
Ղրիմի
գաղթել
ընդունման
միավորման
ներդաշնակ
##ott
Արձ
##արանից
չպետք
արտադրում
արտացոլում
##մաս
մաքս
Դվինան
սիմվոլ
տերմին
թագուհին
վերնագրով
##ավարությունը
129
Առողջ
Երկաթ
Պտուղ
պաշտոնյան
##ոլա
##ացնի
Տան
կոնգր
օրինաչափ
իրավիճակը
կերպարների
##աբին
104
148
##արայի
Քարթ
##ելային
կատարող
ռմբակոծ
##եղը
Եռ
##ridge
##երները
##որական
գումարտ
դարձրել
էության
Վերջինիս
Փոստային
առաջացումը
հրաժարական
շարունակեց
##իրա
շապ
##ակալի
##ապեշտ
երկս
##եղային
Մարմնի
էպիզոդ
հարցերը
հեթանոս
այդպիսով
ծագումով
արյունահոս
el
Լիմ
Տատ
Վագա
այգի
լսել
ցուրտ
Ընդգրկ
վճարել
բազմամյա
հղիության
Int
##աշարը
Սքոթ
հայեց
հնչում
И
թոռ
ասոց
բացահայտել
հարվածային
կինեմատոգրաֆ
##eek
##աբջ
ծավալը
ճամբար
Ռաֆայել
Էլիզաբեթ
##ֆոր
##ելիի
##ավարձ
1879
Մոլդ
սահմանակից
Ուսումնասիր
ուղեւորվում
##ագործությունը
##yl
##եշը
02
Բարս
Ռեյն
##անոթաց
կինոստ
պատերի
փոխում
Աստերոիդի
հավատարիմ
Կռ
156
հիդրո
բացման
Բուդապեշտ
##եգի
##վեժ
##ասեռ
Comm
սառն
ածանց
պոլիտ
##այնային
գիմնազ
##ապետական
Բանաստեղծ
աց
Լիզ
Ջիմ
Մեծի
շրջանառ
Չեխոսլով
Ստեփանակերտ
դեպարտամենտ
##icle
##թերի
Գեն
խաղին
զիջում
զորավար
որմնանկար
անդամներից
##իցա
Im
ոլորտի
թերթում
նկարներ
երկրամասի
##աբուժության
հանրության
##նեւ
91
Կեր
լիներ
այգեգործ
սահմանել
խեղ
Վասիլ
Կովկասյան
ներկայացնող
Ֆոր
ագրես
ցանցի
հանգաման
պարզվում
ժամանակից
##արագ
ոքի
##ision
աճեց
թշնամու
Ֆուտբոլի
հիշատակում
արքեպիսկոպոս
լար
##եյում
Ավել
թվին
Արմավ
այլոց
տոննա
փոխվել
Քրիստոֆ
արվեստագետ
փոխհարաբեր
ֆունկցիայի
առաջացնելով
##խր
##անայի
##ասում
##աստիճան
Հնարավոր
արձակագիր
ամուսնությունը
Էպ
##ուդը
պոպ
տրոհ
Ճակատ
մասից
համալր
ներգործ
դատարանը
ջերմային
տերեւները
տարբերությունը
թխ
Աման
կայսրը
մարգագետ
TV
Sup
Դոմ
##ոցներ
մանրէ
Վաղարշ
Այսպիսի
ֆիլմերը
Նախիջեւանի
հիվանդանոցում
Էգ
նկարիչը
Հնդկական
##ոմատ
Mod
Ալբոմի
Միլանի
Բաքվում
ընթացքը
հավաքված
##ոկը
Գն
իգ
Սավ
##ագրման
հանուն
պայքարել
նախագահական
##ric
կարմր
զարման
պոտենցիալ
##անդը
Bro
Հազ
Եվրո
Թուն
հյութ
ոսկու
ուղեղի
Միջագետ
բնակվող
##rat
Սից
շառ
Song
ամին
խառը
##ահամալ
Շահում
բանական
մամուլի
ավստրիական
աջակցությամբ
##ital
1871
page
Միրզ
իջեց
մեթոդներ
զարգացում
##ելիությունը
##sp
Sw
դքս
##ետնամ
այգու
##աշխատող
##ահեղինակ
օպերատոր
եկեղեցիների
##վանի
Մենդ
ականջ
Քեմբրի
Ամերիկա
միասյուն
ուղղահայաց
Թե
Ծր
##րեսիոն
ազդել
միասն
տղամարդիկ
Տի
147
Dav
XIV
that
Բոսնիա
Ալեքսեյ
Ժամանակի
գլխուղեղի
թվաքանակը
սկզբներին
սկզբունքը
##իկտ
Ջոզեֆ
հավաս
Հատուկ
արեւելքից
թարգմանաբար
կարճամետրաժ
քս
սրճ
##իդային
տապալ
Կառլոս
շարժիչ
տարիքային
կինոփառատոնի
##BS
##դիի
127
VIII
ստրկ
Խոշոր
Մորիս
Տրանս
##րաճանաչ
Oxford
կաշեպատ
ազատամարտիկ
106
զեն
շքեղ
##ումներն
Անջելեսում
լայնությունը
Օն
107
կոճ
Ընտր
Խոսե
արշավանք
բարձրացել
##իվի
##մանն
Sci
կայք
##ադրաբար
փնտրում
ապահովելու
135
ֆլոր
##ահատար
##յուզիք
##աքանդակ
Դեռեւս
բազում
դիրքորոշ
Do
Sec
ռիսկը
Կանանց
Ղարաբաղ
մետաղների
պատանեկան
ակումբների
սահմանադրական
հարավարեւելյան
##да
Ab
քեզ
##իտային
##կայուն
փախստ
ստացան
փոխադր
Իսպանիա
գաղափարները
եւն
հեկտ
հիվանդի
##ացումները
մարտերին
արժանանում
##inc
##բեկ
##տոնը
DVD
պաս
Թիֆլիս
ստորագրել
կազմակերպվում
լիբ
Դավիդ
գրողի
բացում
միացյալ
կաթնասուն
արտադրվում
##ամն
126
##ոթատր
Վայոց
անտես
Անդրեյ
Հետագա
Արագածո
կառուցում
կայսրությունում
ներշնչ
Կիլիկիայի
Ռուսաստանը
##bout
##գենի
##որենի
Օպեր
Black
Շնորհ
տանող
առեւանգ
օրգանիզմում
հասկացությունը
Ռա
Cont
Մագն
Վիեն
դարը
Բրուն
տանել
##ահանման
քահանա
ընտրված
##ագիտությունը
տեսավ
Սինգապ
##ակողմյան
կոչումը
հասցրել
նկարների
##գրով
##ույգ
Լեգ
##earch
##ապատկ
կադր
կարբ
վանկ
##աշնորհ
Գուստ
հոգու
ծառերի
գրասենյակ
գործոնների
##սուլ
Չիկագ
արտագ
երկաթի
տնօրենի
Ռումինիայի
Աշխատանքները
##ոի
Girl
տանջ
Զանգեզ
նավատորմի
՜
##անավ
Կոմպ
սակավ
Պատմական
ներթափանց
կազմավորվել
Ջեք
ռիթմ
##արարների
նվագում
##իտիվ
##իրին
Դիվ
սով
ձորի
պլան
##ալային
խաղալով
շենքերի
ուղղությունը
Մունիցիպալիտետը
Մաշ
անկան
Գեղարք
մեղադր
հանկարծակի
քաղաքացիների
Էշ
Ջեֆ
նով
զգեստ
Տրապիզ
ավիաընկեր
Քաղաքացիական
##ախտի
##իֆիկ
պատճ
Կահիր
դեպքեր
ընտրվեց
հաղթանակով
##ալտ
Թեյ
աղավ
լիցք
Ավանդ
Դիարբ
Կոտայքի
ախտորոշման
##der
##թիվ
աճող
հորեղ
օրերը
##ետիկայի
նվաճեց
Գրիգորի
Հուլիսի
ատենախոս
հարավարեւմտյան
Սոն
Փոթ
վահ
Պակիստ
զույգը
հրավիրել
ստեղծելով
ուղղության
##մոն
##իդների
Կոմունայի
օպտիկական
##aus
##րոմբ
տպավոր
կոմպլեքս
Կոլումբիայի
##ոմը
Սմբատ
##IT
##umb
##ինձ
##հայ
##արտը
##արանին
մեդալի
հիմնարկ
Բեռլինում
ժողովածուի
կարիերայում
դռ
Ռոբեր
արվել
Դիարբեք
շրջանավարտ
բացահայտում
Պետերբուրգում
To
ժող
աստծ
##իստներ
համայնքը
Լենինական
անվանումն
##ամս
Alb
մեքս
##անկարը
արական
սուբյեկտ
օտարերկրյա
ղեկավարության
##ամոլ
3000
Rock
Time
կազմող
դառնալու
##եյդ
Թվ
Գրանդ
ամյակի
գագաթնակ
տափաստան
Ալբանիայի
ծաղիկները
պորտուգալ
մասնակիցների
134
##ունիքի
Հորդան
իջնում
աստղագետ
կամուրջը
նկարագրվում
գիծը
Դեւիդ
ճշգրտ
ջրերի
մեքենաների
Tur
խոզ
զենքի
ընկավ
Պատկեր
զրույց
##անյութեր
Լատվիայի
բացատրում
հրատարակում
##պեդ
##սիա
##ages
Tel
Դեկ
Հիդ
Դենի
հոգի
##ուրյան
ջոկատ
մրցաշրջանը
անտառներում
##նու
Սող
ձագ
Գրադ
անվերջ
խաչակիր
կոնֆլիկ
ձայնային
Լր
##բախտ
114
##ելիքի
Պարտ
##ագլուխ
ռեժիս
բնակիչներից
##por
Ռու
Գոլդ
վիրուս
##ապահական
##երյան
թեմի
համարը
պարային
հուշարձանի
ՌՆԹ
խաբ
Ղուկ
Աֆղան
Խարբերդի
դասավանդում
մասնագիտացված
##inn
գց
##ոգոր
##ածների
##մանդամ
ինչու
տեւել
##անոցում
Գյուղն
##գիր
##ակրաց
##ելիեֆ
##ընտրանք
հրահանգ
##աշինության
ավելացնում
կարգավորման
հունգարական
##ուճ
##իրյան
շտաբ
խաղեր
մետալ
խմբերը
դարձնելով
Յունայթեդի
##յալը
խոհ
##ատեղի
1800
1876
Բեռն
կինոռ
բաժանել
գտնվելու
նմուշներ
պաշտոնից
եզրափակիչում
Պել
ծիծ
ջազ
##րանքի
պարկի
անիմացիոն
##սմ
գրեց
միներ
անկայուն
երեւույթը
կոնֆերանս
Գյուղատնտես
սկզբունքները
Դոլ
նրանում
##պի
##աֆիզ
Արքայ
դրաման
իսպաներեն
յուրօրինակ
նկարահանումները
1869
Գասպ
##ոցների
կղզիներ
շրջանից
արաբերեն
խորթ
պարի
մզկիթ
կաթված
ազգաբնակ
ենթարկել
##ադատության
վերակառուցվել
##ij
Acc
##քսեմբ
Ջուղ
համաճ
ձայնի
պլազմ
web
շոշ
չեմ
իրերի
Հենրիխ
ծանոթաց
առարկաների
էթ
Բես
Փող
##ամայի
Կարեն
ափերին
ապահովման
տեսողական
կառավարական
##իշապ
Խան
##սբուրգ
codice
այլուր
լուծել
հագուստի
հանձնվել
նախագծով
Յուպիտերի
կենդանիներ
Բարտ
Կորեայի
Ստամբուլի
ընկերները
##լյ
##ոեւ
Mic
Լյուս
գլյուկ
բացումը
Իռլանդիայի
##sh
1840
Հոլմ
Ռադի
մտածել
Գիտական
##իոնը
դաստ
Europe
ռեստոր
համաժողով
աջակցություն
##33
Սադ
ձայների
շարժումների
108
350
հոսպ
##աթթվի
##ափորձ
Գիրքը
Աբդուլ
դասվում
դինաստիայի
հոդվածների
սեփականատեր
##թար
##ենտին
կրծք
մորը
Ռոբին
մեղեդ
Թեոդոր
Համբարձ
հրաշալի
նախադաս
Դեկտեմբերի
##անվ
խլ
was
##ակտոր
խնդրի
ֆիզիկ
ներառել
արժեքների
նորվեգական
##ри
##ци
##զգ
##եսն
##ենան
##այանի
##րայել
##ցիայի
նուկ
թողեց
##պատերազմ
ադրբեջանական
##oria
Արթ
խնձ
կաց
Լինելով
վերեւում
հաջորդում
գեղանկարիչ
##iter
##ոֆիլ
##ջում
Ռոյ
Վիքի
անդր
Սկսած
ռազմա
տիկին
ռոմանտ
հաստատվեց
տարբերակի
տեղափոխում
աղյուսակում
բնագավառներում
##ios
օրի
##անիստ
Բարդ
սպիր
կոմբին
##ածովային
փորձերը
ազատազրկ
ապրանքանիշ
դասավորված
Sing
Ֆելի
##աբույլ
##աբերում
Առաքել
խաղողի
գործակից
փոստային
Երաժշտական
Վոր
Իսլամ
Պավել
գվարդ
դասակարգված
հատվածներում
մարմնավորում
##ом
##ets
##ike
##oss
##ատերեւ
##ովսկին
Վեներ
դատախ
պայծառ
##եցության
##ոնիայում
##ուհիների
եղանակը
բանահյուս
ձայնագրել
կենսագրությունը
##լիֆ
Բյ
չկ
##ադեպ
Վախ
ակունք
ծովում
տեսարան
պայմաններ
արվեստների
տղայի
##ելֆ
Pop
շփոթ
անցած
##յալները
համակարգեր
տեղեկատվության
144
Սաֆ
ֆորմ
վերցված
փոփոխական
ժամանակում
##CA
##oft
##ակյան
համալիրի
նախագահն
Ռոտ
##արկել
Վիլյամ
վտանգի
Զբաղվում
մանկության
##ти
Չափ
միջատ
պատերը
Կալիֆոռ
Շամպայն
ստացվել
Պատմության
դաշնակահար
Ալեքսանդրապ
##ime
##ius
1867
##ուսիայի
Տորոնտ
ծրագրում
աշխատավարձ
մարմինները
հեղինակավոր
շագանակագույն
պոլիտեխնիկական
##աւ
##ովիչի
##եսուել
Ռոստով
դերերը
շարքին
գործարան
պարամետր
Բյուզանդական
ուսումնասիրման
Գվ
ինքնատիպ
պաշտպանի
կախարդական
կենդանաբանական
##աի
##ger
##մեկ
Աչ
Գոմ
գտավ
դուքս
կատարյալ
ճանաչման
հանդիսացող
գիտակցության
IX
Գի
լվ
##ագեն
մարս
Գեորգ
ռեժիմ
բոլորին
օպերացիոն
##ler
Per
Ալժ
Յոթ
##յակից
##սկում
մենեջ
նկատել
##աթաղանթի
ստացման
կինոթատր
ձայնասկավառ
Շեքսպիրի
հետեւորդ
մակարդակով
հրատարակված
##ակամ
1864
քարի
Կատուն
մոդելը
հանգեցնել
ուսումնարանը
տրամաբանական
##խոս
Ալպ
##վարդի
ներդրում
հսկողության
տնտեսագիտության
Բախ
##ստերը
Կորդ
գնացել
հանրահ
գրավեցին
լուծվում
հավելյալ
Մուլտֆիլմ
անձնակազմի
##ID
##նայա
##եները
Էնդր
##իտները
Մարոկ
Միշել
Մկրտչ
Մխիթար
հարաբերական
երկրաչափական
##ka
##չափ
##անախ
##անգի
vol
իդե
ներբ
մարզային
նոյեմբեր
Կառուցվել
հրավիրվել
գովազդային
Sm
##ster
ածխաջ
ֆեմին
տիրակալ
քաղաքներից
##fl
##ամկ
##ույքի
պուր
քաղցր
##ավորներ
բերվել
##կենտրոնից
##ակցություն
մարզերում
օդանավակայանը
##ԱՎ
##ara
##uch
##արոս
կշռ
հիաս
Բրիտանիա
ժամանակվա
Պլատ
##չությամբ
Լիբանանի
լեռներում
հիմնադիրը
##ada
##յեն
##աթոշ
այտ
ավան
Ադոլֆ
սահմանի
կինոյում
բորբոքում
##ata
##չատ
##որներ
1863
մանդ
##ութեան
պլանի
փոթոր
երկարավուն
շահագործման
##հեր
CD
էգ
900
Թով
##ներիս
1874
Գլոբ
սեռի
##որները
Լեոնարդ
մերժում
դիմանկարը
##ement
նավը
զորքը
##աշարավոր
նախատիպ
օրգանիզմների
##ենթ
XII
##ազերծ
Ֆրենկ
##ացվեցին
կապերը
գրականությունը
##31
Cal
Don
Պին
Վիս
թեստ
##իներից
Ստյու
Mc
##հարմ
1875
Հատկ
կողմերի
Լատինական
առանցքային
պահպանողական
գերբ
դեմքը
խորվաթ
հանում
Ամենայն
Գյումրի
Ֆլորենց
թուրքերը
գիտաշխատող
պատրաստվել
Վինչ
հսկա
էջում
վահան
ձմեռային
թողարկվում
##ato
##անիչ
hist
Գուր
Հուդ
##վորյակ
դասեր
ցողուն
Բժշկական
պատկերներ
այլընտրանք
կինոռեժիսոր
մասնակիցները
հորիզոնականում
##օղ
##ոշի
Սլ
Լիլ
ռոբ
ցեր
1868
##ակայված
Ֆեոդոր
սարքերի
ուղարկվել
Մեհ
##azine
փոստ
Բուենոս
կյանքից
##AS
##gel
##վից
Այվազ
Կանաչ
փառքի
անհնար
արտաքս
սնվում
մոտավոր
Չինաստան
ականավոր
սպեկտրալ
##գել
##ալար
Tom
Կավ
գեղձ
ժամկ
ամսին
այգում
դասագր
սեթում
հայաբնակ
հասկանալ
համահեղինակ
հարյուրավոր
##reat
##մում
##ագրային
Սամվել
մահացու
տպագրել
օվկիանոս
բանվորական
չկարողացավ
Բարձրագույն
լուսանկարիչ
ազգաբնակչության
##գավ
MTV
col
Ջես
1861
տառապում
Հունաստան
բնակավայրը
աշխատանքներից
##ren
##adem
##ific
##աբարձ
կրակի
միտքը
վերջից
մյուզիք
Աբովյանի
ալբոմում
շուկայում
գործընթացի
գաղափարների
di
##ասից
Քաջ
փոք
##իտներ
##փոփոխ
խոսքը
Մարսել
ժամկետով
առաքելական
Պարսկաստանի
ընտրությունը
արարողությունը
##եբի
ագր
##եցնող
Մարիամ
ինֆեկց
տեսնելով
նշանակվեց
շրջապատող
լայնությամբ
##ոսմ
Դուգ
խորհրդում
թողարկումը
ձայնագրման
##alt
Բակ
Թալ
Սեռ
անձը
Վասիլի
կոմիքս
Կոմիտասի
##եզր
Իջ
հնգ
ձու
բլուր
հետաձգ
բանտում
գնդապետ
##ictionary
շվեդական
մրցույթին
##ամիութենական
համակարգերը
##out
հզ
լիճը
##ուրգեն
ամենավ
մետաքս
պարտիզ
ռադիոկ
ազդեցիկ
շրջափակ
}
##ացր
##րոզ
ՄԻ
Ջի
մլ
Mer
բլոկ
ռեփեր
գերակշռում
մրցանակակիր
պեր
քրդ
##ուղու
բռնցք
եղբորը
աջակցել
նախագիծ
Աստվածաշնչ
Օգտագործվում
ծառայությունը
1866
երկկ
ճեղք
պրոտ
Դինամ
օգտին
գործար
Ֆիլմում
եկեղեցիներ
փոխարինման
աղբյուրներում
##rib
##շական
##ետների
Պոլսի
վայրերից
գնահատման
Ինգ
Կով
ջրհ
Սուխ
գորգ
##եքսուալ
Ուելսի
ռենտգեն
Արագածոտնի
##տու
Թա
##atch
##ուցը
Սեյ
Էլեկ
Ստան
դրամահատար
տարբերակով
##он
##че
Օզ
ռեֆ
##աստեղ
Գարդ
Կում
դնել
##ուցման
սուլֆ
Պրոֆես
Տեղակայված
##այայի
##ափոխական
ներքեւի
Մարտական
արգելված
բջիջները
ստուդիայի
կվ
##ագոր
ձոր
խռով
Կարսի
Մոնրե
կոչել
շոշափ
##ունական
լյարդի
##աբանների
չափավոր
Ռազմական
հաշտության
հավասարում
##ret
##ետե
եք
կկ
Գին
կրոնի
Արվեստի
զորակոչ
հետաքնն
արագորեն
հետախուզ
մարդկության
Քամ
Լեոնի
ունենա
##աններում
փառատոնի
նավահանգիստ
##լինը
137
Ուն
1828
բրիգ
##երիալը
Չելսի
վերսկ
գրելու
միանալ
ջութակ
առասպել
##fr
##ֆա
##ույք
Չեռն
փողոցը
##ադատական
իսրայել
ծրագրերը
մենակատար
ժողովուրդը
անդրադարձել
մոլորակների
դերասանուհին
##its
##ովո
Տպ
##ենալ
##ոլան
138
Ջին
բլրի
Ավստրո
##աշրջանին
լուսանց
Արմավիրի
Փետրվարի
հաջորդող
սերտորեն
քարանձավ
աշխատանքներում
Շան
##իլյան
պարապ
Խաղում
համալիրը
բեմադրվել
##հով
##ոնոմ
զրահ
ներս
Հոլիվ
##վողական
Company
##մունքների
Լյուքսեմբ
իշխանական
##ագրություններ
##աղը
##արզ
յի
##able
Իզաբ
օղակ
վարքի
տոհմի
Review
աղբյուրը
տեխնիկան
ստորգետնյա
ոլորտներում
իշխանություն
ր
##թարի
Գրի
վրձ
##օգուտ
Բրեդ
անորոշ
Արտաշես
հաջողությունը
##աթան
##ենտը
կաթն
Հասան
Ատլետիկ
Կարեւոր
մետաղական
ենթադրվում
ցուցաբերում
համաձայնության
##hem
##լոն
հեմ
##ional
##արացի
Google
հոգեբուժ
գծի
խստ
##ույնը
Կորե
ճահճ
դիտում
ընդմիջ
կամրջի
պրոցեսների
աշակերտների
О
Up
##ադան
##ալիի
##ոնանս
Փաստ
բուհ
քաշը
Apple
դաշտը
դպրոցն
սպառնում
համեմատական
պատրաստելու
##ոհամ
Die
Աբբ
նոտ
հորդ
օրիգ
Կայսր
երկարության
Pa
Պո
հաշվետ
մեքենայի
նահանգապետ
##ume
ոս
Ռիկ
Շում
դեպք
դիրքերը
մյուսները
հանրաճանաչ
Գեղարքունիքի
##երո
Կեմ
բանջար
համբավ
թագավորին
ժողովրդին
Սյու
հակառ
հակված
պատմել
խուսափել
պահանջվում
մասնակցելով
##եգն
չտ
Soci
Գրքի
Սիթիի
մոդելի
տնօրին
Հունիսի
Որպեսզի
Հատկապես
Հուշարձանի
կատակերգական
տնկ
##ուրդի
Քինգ
կանչ
##րաթերթ
տիրոջ
Սուպեր
կործան
ապրելու
կառավարել
պահեստային
ղեկավարությունը
*
##ենդը
##ուխը
դոց
սպա
բողոքի
օպերան
հատվածները
ընտանիքների
##ատառ
##զբեկ
Վեգ
ծեծ
Բունդ
զարդար
Նախնական
բնութագր
երեխային
ավանդույթները
գործողությունը
կուսակցություն
ապստամբությունը
##wood
##որտը
լեզուներ
գործարանի
ինքնակենս
մամուլում
##ever
##ադին
բուդ
կոմիս
բնօրինակ
դեկտեմբեր
աղբյուրներ
նկարագրված
մնացորդները
Д
##ower
Roll
Կարոլ
ուժով
Publish
կղզիները
ձայնագրվել
##ael
146
Rad
Top
Ռիգ
##աբերդ
Tour
լիմֆ
խմիչ
սիրտը
ամենալ
գյուղաքաղաք
դրսեւորվում
պաշտպանելու
##յուգ
ճշտ
##իսյանի
Ժոզեֆ
քուրդ
##իաներում
ալիքների
##sy
Գայ
##ահարկ
բուռն
Թաղված
հյուսիսից
գնահատական
co
##ենսը
Գուլ
Կաթող
առթիվ
չվերթ
պոեզիայի
հյուրընկալ
պայմանագրով
պատմվածքների
նյութափոխանակ
համագործակցում
##ոմայի
ցիկլ
ինտել
Առաջինը
օրենքների
ֆունկցիաների
##իբր
##իմա
##atur
Rel
հնդկաց
սնունդ
բերելու
դերերում
հիմնարար
մենամարտ
թվագրվում
Մակեդոնիայի
##ext
##ոմե
Ով
Կիս
Տաշ
ատր
##արկվել
Chart
##անշանակ
քոլեջի
սիրային
հավատարմ
##վածքներում
Հուշարձանը
Բարսելոնայի
##իպի
##րաքն
Մանդ
Հայեր
հիպոթ
օգտվել
ամենայն
արդիական
##իդայի
Կարմ
Դյուր
աղտոտ
թիրախ
ծովահ
կալցի
Լվ
Թոփ
Փրկ
Վոլգ
գրած
արմատական
տարածաշրջան
տարբերակներ
Դիտ
Թամ
շոուի
ճգնաժամ
փետրվար
քննադատության
հատկությունների
մգ
Camb
գրամ
դիաբ
տեղն
պիեսի
ամուսնացավ
##ԱՐ
##զեն
по
##ացիներն
Սուրեն
հարուց
քոլեջը
բույսեր
հայազգի
##ացումների
Գրիգորյան
եթերաշրջանի
##era
շն
##uman
##ագոն
##անիտար
նավթի
դեպքերը
##ico
Fe
Մո
##ղթեր
Mac
Խալ
##արենը
Colle
Սերիա
այժմյան
ավարտեց
սիրողական
կղզիներում
##omen
Սոմ
գահին
մտնել
ընկերը
կոնցենտր
դարչնագույն
Նի
բծ
##stem
##ապատի
1865
Ելենա
Գարեգին
ծագումը
ուղարկեց
տարիները
ձեւավորել
հիմնադրման
մագիստրոսի
պատմությանը
հավաքականների
##սենի
ֆոլ
##իզմին
Պարկ
##ոլոգիա
Եղիշե
##ունիների
գործերից
բնակավայրերի
Kn
##անդա
Phil
Բժիշկ
ավտոբ
անվանի
հավաստ
զորամաս
Մխիթարյան
տոնակատար
գիտություն
պայմանական
##ella
##նակց
ՍՍՀ
Սաս
Ապոլ
նոտր
##ախնդիր
##ավարտի
մտահոգ
վանքում
Հայրապետ
ամրոցում
դիզայներ
շոտլանդական
Բե
Անի
Առն
Գազ
Գուգ
Կոսով
##րապարակ
Նիկոլա
գալակտ
համաչափ
խնդրանքով
սահմանվում
ավանդության
Մոց
կալի
Շարան
կալված
հակաբի
կողմիցՀՀ
վայելում
##ва
##ոկա
Ավգ
ասած
զայր
վերագրվում
գիտնականներ
հուշարձաններ
սպիտակուցների
##erv
##վեին
Ջան
ռադ
##մատիկ
##ույտի
Չորս
կայքի
անհատի
Գուստավ
լեյտենանտ
կանոնները
##երիի
ցրտ
##պատակ
Կարդ
սուզ
##ազիայի
Պուշկինի
աշխատանքից
##ֆիկ
Օմ
Միչ
էթնիկ
նվազել
օրաթերթ
ղեկավարի
եկեղեցուն
##էկ
##ՖՍՀ
##համ
WW
qu
Կուզ
Group
Նարեկ
կարծր
պոլիմ
իգական
զեկույց
կողմերը
մասսայական
##ԲԸ
Ev
##ival
##ուլա
116
Ապա
##ատված
Ալան
մարքս
անփոփոխ
ընթացող
Կալիֆոռն
ավազանում
հաստատելու
պարագայում
##ժեն
միս
Կալի
Բաբել
նատրի
Ֆրանչես
լիակատար
արշավանքի
սեփականության
##ER
id
##զուկ
Բավ
Կրկ
գիսաստղ
օբյեկտի
##lo
Լյ
##amil
Pre
խար
##անդայի
պասիվ
Մարիան
փրկում
գտնելու
Մարտիրոս
ընկերությունում
հետազոտությունը
միացությունների
Inc
##ավորող
զորքի
փոխառ
Museum
կերակր
##ավայրում
լուծում
չափերով
երկրամաս
լեռնաշղթայի
տնտեսություն
Գիտությունների
մութ
##րանյութ
ձեւերով
ճգնաժամի
ընտանիքից
նույնանուն
Հարավսլավիայի
##ena
##իգմ
cont
վերստ
քանիսը
պոպուլյ
հաղորդավար
##ek
##անար
##պանը
Չել
Պոտ
##իտանի
Նալբ
##ակազմի
Գագիկ
բժշկի
Ուրուգ
ջոկատի
հանգստի
որոնցով
ատոմային
սարսափելի
Ադրբեջանական
##կինը
##ունն
Նել
##աչուս
Open
բնապահ
սցենարի
առաջադիմ
վերակազմ
միաբանության
##ais
ԱՀ
սթ
կազ
որբ
խնդր
Բայազ
ոռոգման
ծրագրավորման
թագավորություն
##արնջ
Մեջ
Տոտ
վիդ
##ալուս
1862
Հանգ
Ղրիմ
##ապտուղ
Գրանց
Ջուլի
Հիսուս
մեկնեց
կառույցը
շարժմանը
լիամետրաժ
ռազմավարական
Ջավախ
օպերա
Մկրտիչ
հասցնել
Անջելեսի
կիթառահար
խորհրդական
##ելում
Play
Յուր
հուզ
Հավան
գիտակց
իրարից
մարգար
խաղային
##ատեսակներ
Լեհաստան
Հոկտեմբերյան
փոխազդեցության
Շր
not
ակտ
նոս
գրախ
Կարող
##գանական
վեպում
բացատրել
իրանական
սեւամորթ
առաջընթաց
կառույցներ
տարբերակները
##pro
խզ
Նեյ
Փառ
##րական
Զուգ
հարկում
Թուրքական
նվազագույնը
##eph
Mo
Not
Տիմ
Գրին
Գյուլ
սանդղ
խնդրել
տեղաբաշխ
առարկաներ
նվազեցնում
ռազմածովային
իրականացնելու
աք
136
##րախաղ
դրեց
պոեմ
##ախմբեր
լցված
կողոպ
Disney
Կամչատ
Հայերը
երբեւէ
կիսանդ
բերելով
երկնային
անհավասար
ասվում
Նալբանդ
քրոմոսոմ
մարմնավորել
##ավորի
##ացրին
##արանոց
փաթեթ
դեղերի
կարդալ
ազատվել
հաշմանդամ
ձեւավորումը
կենտրոնացված
##erg
ст
##ject
վեհ
##ution
##ահարթ
##ավանի
կորիզ
ռմբարկ
##ուղիների
երազում
տեսարժան
մականունը
դիտարկվում
ստեղծագործել
##ux
##ոները
կիրճ
անհատ
աստղի
կյանքն
հանգուց
դրամատիկ
Լեհաստանում
բաժանմունքի
ուղղություն
հեռուստաալիքի
ԿԿ
##berg
##բյան
Մոկ
սարկ
##ցիները
ծագմամբ
հայտնեց
Բյուզանդիայի
##անչ
##նով
##օքս
Մայրը
գրիչի
անկանոն
զբաղվող
պատվանդ
իտալերեն
Վենեսուել
բացատրվում
համակենտրոն
Հովհաննիսյան
##rim
##գոյի
##որով
պաստ
սիրտ
Բարսեղ
սաունդ
շուկայի
լանջերին
մանրամաս
մեդալակիր
ամուսնանալ
զինվորները
երկրորդային
du
սլ
##այեց
չափը
##եցույց
գինու
արժեքի
Վիետնամ
##դալ
##ուլս
արջ
##օդային
պահից
դժբախտ
պահելու
##ատեսակների
##IS
##burg
իբն
##առում
Ուոթ
ծախսերը
Անդրկովկաս
ցուցաբերել
Կալիֆոռնիայի
խորհրդանշական
##րաս
no
արշ
զարգանալ
Cambridge
արեւմտահայ
մրցանակներ
գործողություն
##con
##աբթի
##իզախ
1200
Առանց
Յակոբ
դրվել
իմաստը
պարզել
Իտալիան
ամենուր
հայերին
ականատես
աշտարակը
շինություն
հայտնաբերվում
հեղափոխությունը
##ose
եփ
ֆլ
##ople
Լոգ
Մոս
##եֆեկտ
##իգուր
##հարկե
Շարժ
##անդերձ
Հերակ
Հունվարի
ընդգրկել
վերականգնում
##աբն
Հադր
Ֆերն
անցկ
##էլեկտր
Նիկող
##ախմբում
Գրեմմի
գահակալ
երրորդը
Ավստրիայում
ամուսնությունից
##eral
##մենի
Դիլ
Մեգ
ակց
Հարթ
##ազգեստ
Արաքս
անցան
համեմ
վայրէջ
##ավորները
համաստեղ
վաճառվում
օգտագործելու
##շը
պս
Կադ
Գորդ
հարսն
անսովոր
##ուհանդերձ
շրջաններ
կառուցվեց
հարձակվել
խուսափելու
նախատեսվում
տնտեսությունը
##pe
##եթս
Red
բուր
ափում
պղնձի
գոլորշ
երկերի
տրանսֆ
Ֆինլանդ
դաշտային
##ասիրության
նահանգների
##օթ
##երսը
Սկիզբ
դիտել
ռեժիսորն
սկսվեցին
կեղծանուն
Հարությունյան
##դես
լազ
բեմում
##ահարուստ
տեսակետից
համակարգով
միջնադարում
ցուցահանդեսը
ներկայացնելու
Լիդ
Վրաց
բենզ
պրոպ
David
Inter
Սեւանի
գալուց
##ամյակում
Սարգսյանը
արտադրանք
Լիոն
Բրայան
մշակվում
պատասխանում
##խա
139
Հիր
առաջարկը
տարածական
##ողականության
##ըլ
##way
##իտար
##անկարի
Յոզեֆ
դիպլոմ
երկրից
եպիսկոպ
դիվիզիայի
գրաֆիկական
շաբաթաթերթ
փոփոխություն
Կոստանդնուպոլսի
ափի
դուբ
##երկրած
հոգին
բնածին
նայում
ռելիեֆ
գոթական
խաղացողը
##ավորումներ
Բրիտանիան
Հետեւաբար
հերոսները
##eter
Դեբ
Սիս
##լենդի
Պատվ
Սուդ
դրոշը
իդեալ
##ացիաներ
հավակն
լեռները
նահատակ
էկոլոգիական
նկարահանվեց
հրատարակչության
##res
##եից
##թով
Քյ
Նադ
Վագ
բալետ
ուտեստ
դոկտորական
##OS
Po
Ափ
##ոտոպ
Բիա
Best
Բերդ
բուրգ
անկման
մասշտաբ
օբյեկտիվ
գործարանը
հանդիպումն
մուլտֆիլմի
##lex
Կտ
Թափ
##ալայի
##էներգ
##ջյուր
գահը
զուտ
շոկոլ
փախուստի
ավստրիացի
տրամադրել
դերասաններ
դեպարտամենտի
անկախությունը
Պտղ
ծառի
վճռական
կարճատեւ
##ացությունը
տրամադրում
եկեղեցիները
##ris
վեբ
հեկտար
հավաստի
ուսանել
տարիքից
հակառակորդ
շրջագայության
##els
Աճ
##ազանգ
##ողներն
նախօր
##վածային
հեղուկի
առաջնություն
##ոյը
Ձայն
ճակատի
մեքենա
Եգիպտոս
վախենում
կազմակերպիչ
անմիջականորեն
կառավարությանը
INS
ծծմբ
Թերեզ
Բուխար
նորվեգացի
պահանջները
աստղագիտական
Л
##ագը
##ավեպ
Օսլ
փայ
ջրվեժ
վերեւ
Վալերի
արագության
պատկերազարդ
ցուցահանդեսների
##վածը
Քել
Պոնտ
սլով
##ախաղում
ճնշում
նշելով
փակվել
քարքար
շրջագայ
կենտրոններից
պաշտպանությունը
##անցք
##ուրն
##ազորի
Գրոս
##ողմանի
Պիտեր
ձեռքին
վաղուց
թթվածնի
պատրիարք
արտահայտել
երկրպագուների
##պց
Օռ
չբ
##անկը
Թաթ
Տոլստ
Անդրանիկ
արվեստում
կուտակում
տասներկու
##IA
##քոլ
լռ
Լոկ
##ալիստ
Գալիլ
գյուտ
##ավորվեց
չափերը
քարքարոտ
գործընթացների
##աքն
Բոտ
Վեց
##աբանի
Վեպի
Վուդ
նկատի
ծնվում
Պոլսում
պտտվում
ակումբին
այսպիսով
##պատերազմյան
Ֆինլանդիայի
զբաղեցնելով
Հող
Վոլֆ
բուդդ
կառույցի
վարձակալ
Հայաստանից
##շան
ro
Tra
##ature
##երանի
Pict
##եցնելու
Associ
Շուշիի
սյուժեն
Ֆրանսուա
բաժանումը
Փափ
բարոկ
ընկերներ
թուրքերեն
կերպարվեստի
Դժ
տուգ
Դամաս
հոսանք
ամենօրյա
նստավայրը
դերասանների
կառավարումը
ad
##erman
##աշերտ
5000
Part
խաղն
պատիժ
Թողարկ
Օսկարի
Լիտվայի
թաքնված
նախապատ
բուրժուական
կառուցվածքով
##ая
Թիմի
Սերմ
թռիչք
ոմանք
պրոբլ
ծայրամաս
հաջորդել
գենետիկական
Պեկ
ստեր
ծավալի
Բեյրութ
Յուվենտ
կանգուն
ստանձնել
շնչառական
օրինակներ
Լյուդովիկոս
համալսարանների
##ապս
##փոխ
Ալյ
Սիգ
##վական
ՖԻՖԱ
ֆրանկ
երջանկ
չափման
##աֆրիկյան
Թարգման
համառոտ
տեղադրել
փոխարինեց
փորձնական
բնակավայրի
##za
us
##ives
Ռոք
Տիբ
գոր
##ուայի
##րանքը
Ուղղ
##եմիայի
Ալբեր
ատամն
Institut
լուսաբան
ամուսնական
մեխանիկայի
Դեմոկրատական
հայտնաբերում
##ally
##ույժ
##ռայլ
Թռչ
Կոբ
##եցվել
Սպան
ալերգ
School
օգոստոս
Քաղաքական
փոխարինում
##ет
1858
Կլոդ
Ջոնի
սելջ
բարեխ
ճկուն
պատանի
ստամոքս
ամրացված
անցնելու
կանադական
պատմվածքը
օրենքները
Աշխատանքային
կանխարգելման
##տիի
##orth
գիծ
իոն
##ունդի
##ուկում
կաթոլ
մտերիմ
կազմվել
կապիտան
գործիչներ
հավաքվում
շնորհվում
##aut
##րիա
Նաս
Վիգ
##ացիաները
զբաղված
ֆանտաստիկ
##ջան
Օստ
մոգ
ցիտ
##icial
1859
դեմքի
դեղաչափ
հոդվածի
սպառնալի
հողատարած
գոտիներում
դաշնամուրի
հատվածների
վերադարձնել
ծառայություն
մասնագիտությամբ
##my
Բոհ
Կաբ
Դիեգ
Ամառային
կայսրություն
մասնագետների
երիտասարդության
ԵՄ
##ագոյ
Գոդ
Փիլ
գարեջ
մեթոդի
քարերի
երջանիկ
թեմատիկ
հագեցած
հուղարկ
ստուդիան
միմյանցից
կրթությունն
##ates
101
Յալ
կծկ
սատար
պատասխ
ռեժիմի
կոմիտեն
Իսպանական
լատինական
խանգարումների
Ոստ
ձիթ
##ացողը
Ելիզ
INSEE
Իբրահ
համահ
արգենտ
ճյուղերի
մշակումը
Լենինգրադ
Սարգսյանի
զբոսաշրջության
մասնակցությունը
##arl
##կիր
Ալկ
##անոցը
##եմական
տարեթ
անատոմ
##ունքային
Իսպանիան
պատկերացում
խաղարկության
av
##օքսի
##իդներ
չափի
տուփ
մեծությամբ
##ամշակութային
մոլեկուլային
ցուցահանդեսներ
այծ
Կոնգր
կարգը
Եվգենի
Կապույտ
գլխացավ
մուլտիպ
յոթերորդ
Բալկանյան
դիվանագետ
Թագավորության
ալբ
ծիս
##եւսկի
Լիգա
Կենդ
##ոթերապ
##ոտների
Իրենց
դիրքի
կդառն
Սնվում
Վիկտորիա
ցուցանմուշ
սիրահարվում
Ստեփանակերտի
##եւտ
Շմ
Net
Ցեղ
##ադելֆ
թթու
նույնական
գրասենյակը
շքանշաններով
հաստատություն
անհրաժեշտության
Ele
Տաս
անթ
տեմպ
Դոմին
գլոբալ
անասուն
փորձելով
հրապարակի
Գեղարվեստի
բարձրացնել
Եփր
հետն
Սասան
աֆրիկյան
սկզբնավոր
համախտանիշի
շարունակվել
Encyclopedia
պրովինցիայում
##ԱՍ
##ցանց
Նեղ
Որդ
հոսքը
Micros
հուզական
սահմանին
հանգեցրել
սննդամթեր
պահպանելու
փորձարարական
գործունեությանը
Մաթ
Տեղի
գրչի
հրեշ
##անվում
ամենի
Լյուդվիգ
##ունակությունը
##րոկ
ըմ
##ալիա
Ատր
Բառ
##ափոքր
Բարի
Բերտ
ջրով
Պիրեն
առարկան
կարդում
նստավայր
ուրիշների
ներգրավված
պատկերների
##ծծ
##ean
##ովն
es
Pal
##բերալ
Մուտ
##ախտում
##ումում
գծերը
հոսքի
Ապրում
անվանեց
անկումից
թափանցիկ
##անդինավյան
ֆեդերացիայի
պարտությունից
##ой
##վիտ
ծած
օգնեց
Բալթիկ
ամսական
ծավալել
հարկավոր
սառցադաշտ
Ֆի
Ֆել
Live
չարթ
##անկյալ
բարեր
բույսի
անձնավոր
կիրառվող
կերպարներ
մեծության
բնորոշվում
##ideo
##ազանդ
Վազգ
սոլո
գիշատ
Ամենամ
նվիրաբեր
հոլանդական
##ед
г
##եսկ
##սիմ
##ֆել
Ազգ
Դիլի
կիսախ
Նախքան
Վահրամ
##օգտագործ
Կալիֆոր
հաջողակ
սցենարը
մկանային
քնարական
կառուցելու
հարձակումը
տնտեսագիտական
համալսարանական
Ձեւ
Տոն
##այելը
թանկ
ոսկեր
զուգորդ
արտադրող
հոսպիտալ
արտահայտվել
##էն
##արոն
##իսոն
Սիկ
Ֆոլ
դուռ
կմախ
մկրտ
տագն
բոլորի
լեյբլի
մյուսի
Տարեկան
վնասակար
բարենպաստ
մանկապարտ
ոչնչացման
սենյակում
անդամներին
երեխաներից
կլիմայական
տեղումների
##ովսկ
##ոնտաժ
Զագր
Բելգի
սերմն
##ահանդես
գրավիտ
սեղանի
դարձյալ
1856
Գյոթ
գրաքն
վերակ
օլիմպ
Աթենքի
տեսախց
##աստանյան
##ուտներում
Ծաղիկները
Դիարբեքիրի
կարգավիճակը
Շվեյցարիայում
հյուսվածքների
##եմա
Պեն
Սակ
Վատ
1857
Ժորժ
Լամբ
Օդես
կացրել
ընթացքի
##աշրջանների
թեմաներով
##df
##պր
##ene
##երք
##իրճ
##սիի
թեփ
Գուն
Բաքու
զավակ
թյուր
Տաճարի
դեպրես
փոխհատ
Նախագահի
##յուի
Հոֆ
Քաղ
##ենները
ուղեկ
էներգիա
բեմադրել
ռեակցիան
հազարամյակ
հայտնվեցին
##ears
##ենով
##լանտ
խաղող
շարքերը
accessed
նկարչական
ցուցադրում
հայտնաբերման
##ապան
քնի
##ույտը
Զբոս
https
բերդը
ուժեր
քայլը
##ացումով
թռիչքի
հաղթական
կենսագրական
ուկրաինական
մանրանկարներ
կոնսերվատորիայի
##we
##alk
##aily
ուղի
##տոնում
Կիեւի
կոպիտ
վերջն
տապան
##ուհիներ
հետմահու
շարժական
ռացիոնալ
շարժումները
քննադատական
##ero
աղբ
թիկն
Սյուզ
Ավգուստ
լրատվամիջոց
##եբեկ
ները
##ատիրոջ
Անվան
կանոնների
Dictionary
##երդ
##տայի
City
Post
Նազար
Ունեց
տների
պողպատ
տեքստը
ձեռքում
նկարված
Armenian
վերապատրաստ
##արծ
Կուլ
վտար
##ակերտը
հասած
##աժառանգ
Առանձն
Պայման
աստառը
Չեխիայի
ժամանում
տնտեսագետ
պատճառները
##աբուծությամբ
se
ind
Պոպ
Սեգ
ըմբշ
հիեր
Իշխան
Կասպից
Ինդոնեզ
մատչելի
միաձուլ
Թուրքիան
թմրանյութ
տարբերում
տարածություն
##իջի
##երիզ
##վերդ
Your
Դաշտ
մղոն
ֆայլ
փորձեր
մեղադրում
հեռախոսային
##կած
Av
բջջի
նավերի
զբոսայգ
Նապոլեոն
հիմնվում
ավարտելով
##ատոհ
Ֆալ
##erson
Հում
##ապետության
մեծացնում
նշանակալից
ավանդույթների
երիտասարդների
հանրապետություն
##ling
##հինգ
San
գոգ
թիկ
##իանոս
1849
վամպ
Անաստ
նորոգ
նավարկ
##ացիներից
վերջերս
մկանների
Տարբերում
հետեւյալն
նախընտրում
համայնքները
##չա
##անետ
int
Էքս
Պոն
##ամանկ
##ուբերկ
Սասուն
Արիստոտ
Չորրորդ
Ներկայիս
հայերենի
ալբոմների
պաշտոններ
անուններով
հաղթահարել
զբոսաշրջային
##ոին
Վոյ
King
##ույթով
Փիթեր
երգիծական
##ուզը
Day
Կոզ
էկզ
##անքից
խորան
պատկերի
տեղային
անոթների
հակադարձ
հանձնում
##ՆԱ
##քիզ
փղ
##ring
շատր
##ատեքստ
պարկը
լեռներ
##ատորների
սրտային
տարաձայն
Ֆերդինանդ
աշխատողների
ընկերությանը
բացակայությունը
##ելե
CO
##ամեդ
Բուս
Ջոնը
տներ
##անապատ
##ծովյան
Marvel
Այդպես
Կարելի
վերցրեց
##ականներին
Մանկական
կորեական
##րթ
##ավիղ
բառեր
Ունեցել
նշաններ
ռեակցիայի
դատապարտվել
ֆիզիոլոգիական
կինոփառատոնում
##ones
##ակոթ
օրդ
##ելլեն
գահի
դրամա
հարկի
գլխարկ
դոլարի
ափամերձ
դիտարկում
հաղորդման
գաղութային
սկզբունքով
բավականաչափ
##եռի
##լից
##աղաց
##անդր
Սահ
##բերին
Սիդն
աղետ
Trans
եզրին
##անյութի
Զինվոր
Փոքրիկ
մեղավոր
##ապատասխան
անսահման
ելույթներ
Համբարձում
pdf
##glish
##իստիկ
Gold
լորդ
Great
Փյուն
Մոնղոլ
կոկորդ
հողային
Հակոբյան
հոդվածում
բաժանմունք
երաժիշտների
մուսուլմանական
‘
Mad
Օկա
դրաֆ
պլատ
իշխող
Դամասկ
հանրաք
վերեւի
Գրանցված
օրիգինալ
քննարկում
ճառագայթների
##emb
##ior
##իլվ
ընտ
##աֆիլմ
1829
աչքերը
պրեֆեկտ
Զաքարյան
հակաբիոտ
Շվեդիայում
տեսահոլովակի
Մշ
##անգը
Յոն
ոսպ
պիր
##ունքն
թեյի
հասար
դինամիկ
համաճարակ
ամենաերիտասարդ
արվեստագետների
փս
Զեն
արեգ
օլիմպի
դեղորայք
հեռանկար
պատկերները
կարգավորում
փաստաթղթերի
ապստամբություն
##eng
Մյ
##մատի
##յուբ
##սիան
լիտվ
##ահասակ
օրերի
տարիքը
երգերից
չունեցող
քայքայում
Նկարահանվել
##ագրությունների
Կառավարության
հարցազրույցում
լծ
մթ
##ուկտ
Ծեր
դարձրեց
գլուխգործ
ողբերգական
##ծն
##աշապ
Կոշ
Ջեյն
##ուրայում
անցյալի
կապիտալի
Microsoft
##ագնացության
նկարահանման
##պե
##ars
##սիդ
##usic
##պյան
Բոդ
վիզ
Սթեն
Վուլ
կետի
շփման
Հրաչյա
##աշինական
Ընտանիքի
Հարվարդի
##արարության
բասկետբոլիստ
տեղեկություն
Cr
Out
Հոդ
սատ
կոնդ
Ընդուն
դաշնակց
հարավից
գնահատում
մարդասպան
տա
##Tube
Պադ
##ոտում
Ամիր
Books
մայոր
կարգերի
իդեալական
Կուն
Կրեմ
Սլավ
լքեց
Ավետի
ժյուր
Ռուդոլֆ
ալբոմից
բիզնեսի
իրենցից
Վերադառն
ինքնակառ
ավերակները
Նորվեգիայում
տպավորություն
##նշան
Քան
կինն
բերանի
##բուրգում
Հեռախոս
##վածություն
ուղեցույց
կենտրոնացած
հատկություններ
##փը
##als
##թեւեկ
Mart
Խաղի
Սերժ
տնից
##ագեղձի
հովիտ
Ազգերի
արյունը
պատվերով
գումարման
հուշահամալ
##igh
sc
##ուտը
ցատ
արոտ
գինը
բռնել
հօգուտ
իսկապես
պլաստիկ
##արնջագույն
երկրպագու
թերակղզում
հանգամանքը
վերադառնալով
մեծամասնության
##յի
##զադ
##ակոտ
Անահ
բռնի
գլխին
վեկտոր
գաղափարական
անբավարարության
ժամանակավորապես
ԱԺ
քո
##աքիմ
զառ
իսպ
##ասկզբ
Week
Բլեյ
##ացկուն
##մնավոր
ռակետ
##հարկանի
թեւերի
կոչման
փորձեց
գնդաձեւ
զանգակատ
հոլանդացի
ցուցադրել
բնակչությանը
սկզբունքների
##էր
##րյա
##ազյան
##որեստ
չլին
Album
քաղաքին
Նույնիսկ
լեզվական
ընդօրինակ
u
##իչին
##շտադ
Վիշ
##անկյան
##երենով
Բույս
բացված
նապաստ
սինգլի
շարժվել
եզրափակչի
գործածվում
Հովհաննիսյանը
մեծահասակների
թարգմանությունը
##ֆր
##բիի
Զար
##ագիրն
Իրավ
արդի
##անաձեւ
Բագրատ
Բունդես
առաջխաղ
ընդհուպ
փոքրամասն
առաջադրանք
կենտրոններ
tr
Ուիմ
դուք
կրաք
Պյոտր
Կոպենհ
բերեցին
ատոմների
տաճարում
աշխատանքով
գյուղերում
ճակատամարտի
Հերցեգովինայի
ակտիվությունը
##ки
##ени
##բախ
Er
##վինը
Վես
##ահերթ
##ներգի
Բրոդ
##ականիշ
Արդար
Իրական
Տոլենի
զինծառ
թեքում
Դերասան
առաջացրել
ավելացվել
##այնությունը
առաջացմանը
դրսեւորում
##MA
սո
##book
Նահ
բնիկ
խմոր
Իրաքի
շերտի
վրացի
բակում
գնալով
դասերի
դիմադր
ջոկատը
ամյակին
Ասկերանի
ստեղծեցին
##ոգի
bl
ոտքի
ցանցը
գրվում
թիմային
երեւակայ
Սոցիալական
մուլտիպլիկ
վերաբերմունքը
##rop
Միդ
##ջային
արեց
ծովը
դոցենտ
Magazine
տրանսպորտի
դիմադրության
կոմպոզիտորների
##յոթ
##ular
##իպել
Նազ
Դինը
Վտանգ
ապրեց
կտավի
##ունքները
Մամիկոն
համարձակ
հեղինակել
տրամագիծը
հրամանագրով
մայրաքաղաքի
##զա
ՀՅ
##իկից
մրգ
##աշունչ
Շիրակ
Պոլիս
հետին
փախել
Կրասնոդ
Նորմանդ
հեռացավ
ախտահարում
մետրոպոլիտ
վարժարանում
ուսումնարանում
համամիութենական
##ther
##արատ
Ուժ
Ջոկ
##իկում
Տասն
գծեր
##ichael
Stone
օդաչու
Եզրափակ
կիսագնդ
աշտարակի
ամենափոքր
առանձնյակ
երկվորյակ
ազատագրման
տեսարաններ
##CO
##ский
Min
Լագ
ոսկի
Լիսաբ
Ներկա
բանավ
որակը
##ակայուն
կռվում
համադր
Մանուել
խրախուս
անցկացման
համեմատած
տեսակներից
ներկայացնելով
##դե
Sl
Զգ
##դենի
##թյան
Մոզ
ռեպ
##ույրը
Կտավ
Կրաս
հարդ
նախշ
թվերը
տարավ
առաջադր
կորպուսի
##եռնային
անցումը
Ֆիլադելֆ
վտակները
Գեղարվեստ
Ca
թի
##բրայ
##րդատ
Արփ
Թոնի
լեռը
խոսք
հաշիվ
փետուր
Science
փաստաբան
Իսլամական
հաստատման
հերոսական
ներկայացումներ
##ցիան
##ակարդ
##տական
խաչի
##ոդինամ
վիշապ
պատմող
գազային
քիմիկոս
ռեզոնանս
համարելով
կերպարները
ճակատամարտը
ներկայացուցիչը
##ев
##միկ
Yo
##ique
220
Դոկ
Պոդ
Ռուզ
Լայպց
ժամանել
շախմատի
հավաքվել
մակարդակ
ներկայացումը
##ied
##ածր
##աշը
վի
Aust
դանակ
թրոմբ
սեմին
Ալֆոնս
Ռեժիսոր
արտագաղթ
գործիքային
ջերմության
աղբյուրները
գիտնականները
ծառայություններ
##ii
Na
##ուար
all
կանց
մարդն
Robert
Նկարիչ
Վիեննա
գավառը
լույսը
##ակողմանի
Ֆերնանդ
Վարշավայի
մնացորդներ
նախատեսում
ժողովրդավարական
##app
Mov
Ֆեդ
##ագնդի
##անեկան
##մանում
Առաջն
Կրիստ
կռվել
մենակ
##ատվական
##վածները
անցնող
Վրացական
հիմնադրված
ձեւակերպեց
ստեղծվեցին
մեծությունը
α
PM
Ավր
Կաֆ
Ռեգ
Բրոն
Վերն
Ալավեր
Գավառի
եղանակի
ծաղկում
հասցեում
մեծամասամբ
հրամանատարի
##chn
te
##ուբի
##սենը
##ցված
Վաչ
հոմ
գալը
ողող
Չիլիի
մտնող
կետում
մարզերի
խմբագիրը
ապացուցել
հետաքրքրվել
##ագործությունն
դաստիարակության
##լամի
մանի
սկզբի
դարձած
մնալով
Արտավազ
մրցույթը
գեղարվեստա
շինություններ
քրիստոնեության
##yle
##նես
##պիր
ap
##ress
##մոնդ
Լեռ
Ջալ
վալ
փես
կարկ
Պարոն
Վոլոգ
խմբից
վարակիչ
##իստիկական
Սարգսյան
այստեղից
դերասանի
միջանկյալ
Պատերազմից
##erm
##աբանը
Սաքս
Վեպը
կուլ
երթեւեկ
ՅՈՒՆԵՍԿՕ
ղեկավարն
Մյունխենի
ամուսնուն
շուկայական
##sych
##անքն
Անրի
Ֆրենս
բոլորն
ժողովը
նույնն
Ժողովրդ
հրատարակչ
վիրաբույժ
հիվանդանոցի
##ացվի
##քական
Հայն
Կիրով
մարզը
պարսպ
Կիրովի
Rolling
տիեզերան
հետազոտման
հետապնդում
բնութագրում
գործարանում
հետաքրքրված
##ole
##աշահ
Ուել
Սմիթը
պիեսը
##ոլոգիան
կետերի
դաշինքի
մատնանշ
առաջացող
խանգարման
հիմնվելով
հանդիսացավ
##արեւադարձային
առանձնացնում
գեղեցկության
պատերազմական
ՀՅԴ
թեյ
Լանկ
հնդկ
##արաձեւ
բավար
սրահում
Ստանիսլավ
Տնտեսական
ենթադրաբար
սահմանների
ֆեոդալական
##ուջ
up
Երզ
Գրեն
Night
պարոն
YouTube
մասերից
ուղղորդ
օգտվում
դեմոկրատ
արժեքները
կենդանիները
ներկայանում
հետազոտություն
450
##ախոտի
Լուն
##ոմետրի
Սրանք
Անատոլ
ամբիոն
բնանկար
գագաթին
Կորեայում
խորհրդատու
հեռարձակվել
միջակայքում
ակումբներում
փչ
##alth
իրերը
քրոնիկ
խողովակ
օգնելու
Համագործ
բռնության
հյուրախաղ
ռադիոակտիվ
Հունգարիայում
հաղորդակցության
##ай
##isc
մել
##ավարը
հողը
##աբույծ
Սունդ
Մահվան
նորման
բանակին
##ոնումենտալ
ճանապարհների
նախագահության
##խին
Ֆա
##ուշը
կստ
##որդական
Իրտիշի
աննշան
ընկնող
շրջանց
Հիսուսի
դերերից
զիջելով
մրցաշարը
Անգլիական
հարթության
միավորների
Սահմանադրության
##ibr
##անիկի
Էմիլ
Լանդ
եղան
կվեր
հասան
ուտում
Society
ավտոմոբ
Կենսագրական
անցկացնելով
վիրահատական
լուսանցազարդ
##ode
վեն
Cult
լեյկ
Ֆեդեր
ագրեսիվ
արտազատ
դադարում
Շահումյանի
մոլեկուլների
ժամանակաշրջանը
Նիդ
##եգորի
Ջերսի
կլիներ
նետում
կոտորած
աստղային
##րիժ
##ոյով
rel
Կեն
Հադ
օրեր
Dream
տները
Ռոնալդ
դիտվել
ինչքան
ռուբլի
Տղամարդ
հասակից
Ելիզավետ
Վաշինգտոն
նկարիչներ
Քառ
Russ
Մարշ
ադամ
##ենալով
հաշվառ
մոդեռն
հակառակը
հրետանային
թագավորների
զբոսաշրջիկների
##ասթ
##րիտ
Չի
##ապաղ
Թադ
մող
##ուցիկ
ապօր
House
James
##մանալով
գագաթը
նեյրոն
կողմերից
վերաբնակ
վերջավոր
տիեզերքի
տաղանդավոր
գործնականում
##ki
##յույ
Հագ
Քոլ
##ընթեր
Կուտ
հրավ
##արակում
ոտքերի
Ակումբը
անվանակոչ
արդյունքի
ընդգրկվեց
տարածումը
##ավորումները
նկարագրությունը
Մր
Reg
per
Շիլ
գյուղն
կոալից
արաբների
##ոխի
Հի
էտ
##ետոն
Լիպ
Հարկ
##եցումը
դուբլ
ծովափ
Իսլանդ
##ակրթական
ածխածնի
կազմվում
գրականագետ
մանուշակագույն
##hed
##եցում
Կոնֆ
ատրճ
բերք
##ոներեն
շերտը
կայարան
կարծիքը
վաճառական
մթնոլորտային
նավահանգիստը
Act
Էնթ
կոռ
##իմետր
Սվան
Միլան
Ուզբեկ
կնքված
ծիսական
համաձուլ
ուսուցչի
տեղերում
Տրապիզոնի
գնդակահար
դարաշրջան
վարչապետի
աստվածային
խանգարումներ
##ճիռ
ՌՍ
Շեւ
##աբջիջ
Գվին
Սիսի
ստվեր
կազմեց
մանուկ
William
խախտում
հաշվետվ
վճարում
աշխատանքն
դպրոցները
մթնոլորտի
այլընտրանքային
սարքավորումների
##աո
Քո
##աղթի
##դոնի
##վանը
Ասպ
Անիի
ֆիքս
##ընտանի
օդում
##ախմբերի
Ռոդրիգ
տնօրենն
##ադիմացկուն
դասընթացներ
կառույցները
կապիտալիստական
Web
ազգի
##ամների
աղանդ
մեկից
##արտական
Ուիմբլ
գրավելով
կանադացի
Բավարիայի
կարողացան
տարբերակն
թողարկումից
նկարչության
համաձայնվում
##շին
Ant
Կել
կայծ
##ներինը
Արյան
Histor
հաշիվը
##տրոնային
կլիմայի
ինքնաթիռը
գործընթացում
աշխատակիցների
հեռուստաալիքով
##ֆիլդ
##ասերմ
պահակ
Մնացած
պլատին
դատարան
նորածին
տուբերկ
այնտեղից
օրենսդիր
Բարսելոնա
անվանական
գլխավորած
##ականություն
խորությունը
##ջութ
Soc
Քալ
##ակովի
մղել
ադապտ
ծիծաղ
կույր
##ապատման
##ուսների
Չեխովի
կոչվեց
պարարտ
նվիրատվ
Պետրոսյան
կամերային
պտուղները
##ոնշ
վետ
Երզնկ
Ուսան
վերաբ
զոհված
ապարների
կանխելու
Հավանաբար
Սաղավարտի
անտառների
բարձրացավ
էությունը
ստանալուց
աշխատանքներն
հասարակությունը
##Cl
##ՍՍՀ
Ժն
##vent
##վարց
Խաղը
Ավետիք
Կանադա
մագնիս
Սրբազան
Pictures
հրապարակը
մակարդակում
##ոան
##եպետ
##եցկի
Կիլ
ցավը
##գանիզմ
ստվար
Ավելին
դնելով
##այնության
ալգորիթմ
որոշեցին
վաճառում
փոխանցել
ավելացնել
կամայական
վերջիններիս
անվանումները
բարեփոխումների
##եյր
##ասահ
Ձոր
Տոկ
ծոց
կնի
Ասիա
##եկտորի
##ազորային
Խաղացել
համոզել
Խորհուրդ
ավելանում
հայրենիքի
վնասվածքի
համակարգերում
հակամարտության
մուսուլմանների
##ura
##վերը
թնդ
պաթ
##երինը
This
Իոսի
ազոտ
վաշտ
բացեց
##ասիական
վայրեր
##ավանդակի
խաղալու
համերգներ
ցանկություն
գագաթնակետին
##ԼՄ
##էս
##ոգլ
##րոբ
##ator
##պելի
Que
Sam
Ավտ
Նեմ
1855
Գուդ
Դրամ
ներծծ
սկանդ
##կանշական
փաստորեն
Գեւորգյան
կատարումը
հրամայում
խնդիրներին
մշակությամբ
ուղղակիորեն
սահմանադրության
Li
Խր
Ագն
##ատերը
##ուկին
հույզ
Ստորեւ
դիզայնի
էլեկտրա
Հադրութի
ինտելեկտ
հարավկոր
Երուսաղեմ
Խորհրդում
վերակառուցման
Կոստանդնուպոլիս
##ադո
##ենիկ
Բեգ
##իվերս
What
Կղզու
Ցյուրի
ճյուղը
տեղահան
տղաների
Կալիֆոռնիա
Հիվանդության
վերադառնալուց
կենսաբանության
##րիչ
##ամայր
Սառա
առցանց
English
Վիքիպեդ
կորցրեց
Բասկետբոլ
առողջական
բոլորովին
պարսկերեն
վարժարանը
իրականացված
մայրցամաքային
##կերտ
Pri
Ղար
##Ուկրա
Գայլ
ձյուն
##աստանյութ
Հորդանանի
շվեյցարական
պետությունները
##ցխ
##ein
##ոզից
##ածային
նահանջ
նեղուց
ջրածնի
Հետաքրք
առընթեր
հյուսվածքի
թատրոններում
##վիչ
##ամազ
##իտիկ
Նիժ
Թուլ
բորս
Online
Վազգեն
թռչում
Առանձին
Օքսֆորդի
Ընդգրկված
Ընկերության
##ԴԲ
Են
Cap
Նին
##աներով
Ռոջեր
տիպիկ
##ուղային
երկխոս
իմանալով
Հեռախոսային
գեղագիտական
ինֆորմացիայի
##LA
##ակղ
##մոս
Bu
Mil
Բաժ
Դամ
##ածաղկ
##արբեր
Ալիս
ՄԻԱՎ
Ֆուլ
##ington
բուժք
առջեւի
##ացումներ
հիմնում
մինիստր
ցանկացել
փոխանցվում
Վերադառնալով
##աել
էն
Թավ
##ալանջ
##եգրել
##ծանոթ
Թայմ
##տավայի
խոնարհ
մերժել
առանցքի
բազմակի
բաժնետոմ
կարողանա
արձակուրդ
հիմնադրամը
##ago
Բջ
չդ
##ալացի
Տուլ
թոքերի
արտահան
Եկատերինա
կողմերում
վիրավորվել
արտասահմանում
աշխատություններ
##elt
##իցը
Des
Պաս
##ագրիչ
##ուում
1812
Գետը
##ունեին
Զաքար
United
ծխական
հանդիպեց
##աքաղաքական
Թումանյան
Վոլոգդայի
գիտելիքների
Sal
net
Վանա
ափով
Մակեր
անգլո
կինոդ
հիմքով
Մասաչուս
զբաղեցրած
լեզուները
կալանավոր
փաստաթղթեր
##վեյ
ՌԽ
240
Գոթ
Հես
##օքսիդ
Գրեյ
հարբ
հերք
Count
##մինիստր
Երկիրը
մնացին
դրամայի
Քիմիական
զինծառայ
վոկալիստ
կովկասյան
դադարեցնել
հզորության
Ուկրաինայում
հետախուզական
շարունակական
##ենշտ
##ուժի
##վորի
are
##ավերի
Կլիմ
ոսպն
##երցիոն
Վոլգա
##ացրեցին
աչքերի
դատախազ
ռադիոյի
ամենաերկ
պրոֆեսորի
միացություններ
##ալան
ՆԱՏ
1600
1851
Լեոպ
Նանս
Լոուր
անտառի
ավերված
կենսական
միացնում
նպատակների
##իչն
Id
##իթմը
Դուր
տեսաբան
Սաուդյան
Քեմբրիջի
արտադրանքը
ընկերներին
հեթանոսական
պատմվածքներ
վիրաբուժական
շինությունների
##ԱՖ
##urn
Of
##ասրտ
Sun
ռեւ
ամիր
մարկ
Հալեպ
Ուստի
##ածոների
անգործ
հյուպատ
մյուսին
կլորավուն
փոփոխվում
##ԷԿ
##ham
##ազա
##ղար
գե
doi
##ենկոն
Արած
գտած
հրատ
##ադպրոց
վարքը
Մարդիկ
մեջբեր
Մաթեմատ
Չարենցի
Պրահայի
բանավոր
գենետիկ
Իտալական
մակերեսի
տեղեկատվություն
##sc
##գամբ
սոն
arch
նոսր
դիֆեր
հպարտ
ջրերը
արվում
նստում
տոհմից
##ունքների
կարդինալ
փողոցների
ազատազրկման
##за
Ում
Ռիդ
##ենսկի
Բայր
Դեպի
հայրն
Մարկոս
բորբոք
գետնին
էլեմենտ
##աթթուների
էքսցենտր
խաչակրաց
հեռացվել
պատմվածք
երգչուհին
##ոպեր
Պիտ
##րաձեւ
Media
տրվեց
##նիայում
Սատուր
Կատեգոր
Համայնքը
##ca
##ин
##թող
Լը
չպ
Էնն
Օրդ
##ities
Բլեք
Քեյթ
պատն
Բեռնի
Կիրառ
Մատու
Հենրիկ
Այդպիսով
գրանցման
դեղնավուն
ռեակցիաների
##արախ
##մենը
##ութը
Sim
ծալ
##ամոքս
With
Հրաշ
Radio
չեղյալ
Փիլիսոփ
նախագծել
ռեժիսորի
հակասական
պատասխանել
##ագործություն
այգեգործությամբ
By
##orge
##անոր
##պատի
Ժիր
Շել
Յուլ
թռչող
խիզախ
վերապ
##ատերերի
պարզվեց
տեքստիլ
դամբարան
ենթադրել
սննդային
բժիշկների
գործոններ
մոտեցումը
տեղադրվում
Ռուսաստանին
մետաղադրամների
##bl
ABC
Cat
##իմյան
##ունով
Յուս
գնեց
##եգույն
##olution
##եցնելով
Գուրգեն
ամենալավ
փորձագետ
##երկրածովյան
ընդունելով
կաթողիկոսի
Val
Գնդ
Իշխ
շիկ
##յալներ
##աթաղանթ
Բեթհով
նամակում
անցյալում
նախագծման
կիսաանապատ
առկայությամբ
թույլատրվում
աջակցությունը
##hip
##ird
##աժի
##ետան
Թեմ
Ռաջ
գրք
վարպ
Daily
Heart
Գորկու
Պտուղը
պատվաստ
լեզվաբան
կիսախորան
երեւույթները
##ии
##աչի
##ցու
##վիլի
կեսի
առնել
անցում
գույքի
թեկնած
ստիպել
վերամի
##ավորմամբ
Անգլիան
Անտարկտ
մարզիչը
օրվանից
Նիկոլաեւ
որոշելու
մշակաբույս
ֆաշիստական
մոնումենտալ
##ck
##сс
սղ
տխ
##ասոն
##եդին
360
Ակն
##ուղով
1853
հողեր
նախապ
##ապատճառ
Ստեֆան
թաղվել
##ավորելու
ժամկետը
վերեւից
դետեկտիվ
հեռացվեց
##եոս
##կել
##սուն
##իցայի
##մական
##մարիտ
անմեղ
ինքնի
հակամարմ
Խորենացու
հազարամյակի
նահանգներում
մարզկենտրոնից
քաղաքացիություն
##ita
##րակ
PD
##over
##ռված
Անս
Ռեզ
միսի
հատում
վտանգը
Թուրքիա
տպագրված
հեղինակները
թարգմանությամբ
##շա
օրն
Էդին
հայց
դոլլար
վախճան
չունեին
վերջիններս
б
##oug
##իշը
##ետեղ
##ուտն
##ջրյա
Կոչ
սող
##եցուն
##րոգեն
խորտ
Մուստ
անմահ
հեպատ
բռնում
միավորը
բնակարան
գաղտնիքը
ինքնաթիռի
Վերջիններս
աջակցության
աստղադիտարանի
##ру
##ude
##դեմ
##յոյ
##ավորը
ակնկ
կենտ
մարտն
պոկեմ
##մայստեր
Նշանակ
Ակումբի
##առություն
բանջարաբ
դիտարկել
շաբաթում
աղյուսակի
լրատվական
անօրինական
եթերաշրջան
##ԴՀ
##իլյա
##իտոն
##վածի
Չայ
Ուես
Ունեն
դաշինք
ռեֆորմ
Աշտարակ
անկումը
ասիական
արգելակ
գույների
սկզբնապես
Մրցաշրջանի
մարզադաշտը
անկյունային
կազմակերպած
##ublic
Ծանր
հոգե
երգեհ
երգեց
ընձեռ
քանդակը
կոմպոզիտ
Աշխատանքի
##ունակության
աստվածների
նկարահանումների
##idd
Օրի
քիմի
Նովգոր
եթերում
ուժերով
սյուժեի
ուղղաթիռ
ուսմունք
##առությունը
ձեւավորվեց
քաղաքակրթության
Ռեմ
##ադրամի
Angel
գործին
սխեման
ֆիզիկա
##ոքննադատ
Էնդրյու
Քրիստոն
հրաբուխ
շահույթ
ստամոքսի
ճանաչվում
նորաստեղծ
քանակական
գործոնները
հատկանիշները
##ձգ
Չժ
##ript
##ուզեպ
Սուն
թիվն
վրայի
ցերեկ
շահերը
շենքեր
չափահաս
գունային
Ներսիսյան
##արդյունավետ
պաշտպանված
տեղափոխվեցին
կառավարություն
##uck
##երքի
Լիտ
թոփ
##ազդան
Թրամ
Հարց
Յոհանն
կանչում
նահանգը
սինթեզի
Սունդուկ
կատարմամբ
կենսագործ
պեղումների
ախտանիշները
սահմանափակվում
ab
##ball
##անձր
##ոտիպ
102
Բետ
Փոփ
##ոքսիկ
դիսկ
##ադիտակ
##եռլանդ
Շենքի
հասցե
##աժողովի
խոստով
Թատրոնի
ընձյուղ
տարածել
վերածվեց
##աեվրոպական
Իրականում
սլավոնական
համաձայնագիր
հզորությունը
մակերեւույթը
մտածողության
՚
Շլ
##թում
103
Big
Pat
տրի
Քութ
լեյբլ
Կեմերով
դուստրն
միացված
միներալ
Հունական
փուլերում
Մեքսիկայում
քերականական
հանձնաժողովը
##զե
2020
Կարծ
Պետք
Արմսթ
Կանոն
թափառ
##ոյանում
գետերը
ձեռնամ
ներկան
ռադայի
##իտիկական
Կաթոլիկ
խճանկար
կեսերից
կունենա
ուշագրավ
օպերայում
Կարապետյան
հաղթանակից
մոտիվներով
բնակիչներին
անդրադառնում
պատկերասրահի
##վեի
ձն
Քոն
Հարի
Հոնկ
Օտտո
Paris
գծերի
կոլեգ
փարավ
##ունների
շաքարի
առնչվող
Համակարգ
անտառում
մեխանիզմը
մրցաշարին
հրապարակեց
##64
##PA
##սե
##աին
ԶԼՄ
Ցին
Ուին
##իքների
##րաբեռն
Պեդրո
աղվես
ափերը
զետեղ
##ference
լեռնագ
նամակը
Իբրահիմ
բյուրոյի
թռչուններ
անձնակազմը
Արեգակնային
Համալսարանի
տարածությունը
բանաստեղծության
##աշա
Հյ
##ավաճ
##րերը
How
Ողջ
Սեֆ
##ուկով
Vict
Ֆրոյ
մտան
##ահարմար
Հարրին
փոխվեց
Հիտլերը
կրթաթոշ
Դաշնային
ապագայում
հավաքելով
նախագծերի
օդանավակայան
արդարադատության
##օգն
230
Ital
սարդ
Կիրակ
լրտես
America
մտնելով
արտադրվել
փորագրված
ֆուտբոլիստի
Անդրկովկասում
Գեղարվեստական
հուշարձանները
##ya
me
##ունջ
1831
խայտ
##ընդուն
Արման
Պատրիկ
խնդիրն
սկսված
դիմակայ
հակադիր
արվեստին
լուծումը
ձեռնամուխ
ճակատագիրը
նկարագրվել
վերանորոգվել
##yd
##կն
##ese
##յոմ
Քիմ
Ֆիշ
հոփ
1814
1815
1854
ՍՍՀՄ
Անկար
Էդգար
Թորոս
ամսագիր
հիասթափ
##Ուկրաինայի
ավանդաբար
արկածները
նամականիշ
մասնակցության
NA
Թեոդ
Պուլ
Վերմ
Վերս
հիգի
##աբերդի
##իկներն
Շուշի
Ջոնսը
Քինգը
Առյուծ
երկնքի
Խորհրդի
արմատներ
համոզված
նորագույն
ազատություն
ներդրումների
վերանորոգման
##ат
ԳՀ
Էբ
Շպ
հռչ
##կների
Paul
orig
ավտո
##ոպլազմ
Ժանեյ
առեղծ
էներգետիկ
վերադարձը
շրջապատում
Անդրկովկասի
լայնություն
##uf
##ացն
##angu
##եյլի
գոհ
Օհան
Super
Վատիկ
բամբակ
բաշխման
զուգակց
պրոցեսը
հիշատակի
նշանները
նավատորմը
ընդունումը
Հասարակական
##եյխ
##իլլ
##վայ
Զմ
Կոռն
trans
պրոպագ
Քննադատ
բառերից
բերվում
ժանրում
համոզում
ֆունկցիա
աշխատելով
շաքարային
փոխարինվել
##TP
##of
##ղջ
##դեհ
Դես
հիս
1700
1846
Դամբ
Սայմ
##ուղղակի
Եղբայր
Լորենց
Ջուզեպ
Սեւանա
թրթուր
իզոտոպ
Չիկագոյի
ընկալման
կիսապաշտ
ճապոնացի
պահանջել
ոստիկանությունը
##եժի
uk
Դոբ
Փեր
լրջ
նշվել
դստերը
թենիսի
հետքեր
##իններում
Ինքնավար
##վեդ
##ավուր
##ոգրամ
1852
Աբեղ
Լյուբ
ամենաթ
գեների
##ահայկական
Արմսթրոն
հեռուստաշ
Ակադեմիայի
ֆինանսների
մանկապարտեզ
հատկանիշների
##oma
Bel
Սմիթ
##ությանն
որոշիչ
վաստակել
Վարդանյան
առաջնորդը
Ալեքսանդրա
պատճառներից
Հարությունյանը
##ուստը
##ակայան
տափակ
##վածքում
##անքներից
ընթացիկ
կացվում
ուժերին
հետեւակային
##ագրությունները
լաբորատորիայի
##հայմ
##որիի
##ունց
##ֆերի
խոլ
նայ
գլիկ
##անդակը
շուկա
Ուկրաինա
Շվեյցարիա
Ֆրանցիսկո
անհատների
պատահաբար
անհետանում
Թանգարանում
արտադրությամբ
##գոն
##site
##դամի
##նակը
ֆիր
##իտակի
##ուրիի
Port
Զեյթ
Վանկ
գենի
գրիչ
խուլ
##ագործի
Բոլիվ
ալբան
բանկը
կատակ
գրախոս
հոգնած
տագնապ
Edition
լարային
հուսալի
##աբուծական
##աքիմիական
գերբնական
պատվաստանյութ
##ատն
Az
ev
##արքի
##եմիա
Char
Էմմի
Շալոն
բերդի
ծառեր
շների
ստեղն
իհարկե
մարզչի
##կացուցիչ
ութերորդ
նատրիումի
նշանակված
ուղեկցում
հաշվողական
մրցաշարերի
բարձրաստիճան
հավաքածուում
##omb
որմ
##ասարի
##հաուզ
Լիլի
##ardian
##ոցները
Songs
բարեհ
տեսքի
հաճելի
պատճեն
##ալիքների
ուժերում
Association
համախտանիշը
արարողության
т
##ոկոկ
##ոպաթ
210
Գող
##իսոնը
միգր
դյուր
Ֆրանկֆ
##երակային
Հայերեն
վերացնել
Քրիստոֆեր
առանձնապես
նացիստական
պաշտպանություն
աստղադիտարանում
##RA
##ión
##ody
##մալ
ԿՈ
##նթաց
Արջ
Վիճ
##ամինի
##ամյան
##իբրիդ
##ոլում
1847
##ակական
առիթով
խոռոչի
սարքեր
##անոթային
Նախիջեւ
բռնաբար
տանելով
բույսերը
տեսակետը
##ագրությամբ
Բասկետբոլի
Մայրաքաղաք
ներկայացվեց
հարաբերությունը
##ՌՆԹ
##շեն
##թովպ
Գահ
հիփ
Կուպ
ձուն
Human
Կարին
ալբոմն
Այսինքն
թվականն
հեռացնել
Կատեգորիա
Հանրապետական
երկարաժամկետ
դիցաբանության
թույլտվություն
Առողջապահության
##ոգն
his
Դետ
##ատորը
պոետ
նշանը
տարեց
##ացիայից
##սանեկան
վերսկս
##արարները
Նիկողայ
կոլտնտես
##ավարություն
անկյունում
##li
##unt
##evel
##ալյա
##ակոմ
##յոյի
Ռոլ
բրդ
##աշենի
Իգոր
Տարտ
ատել
թեւի
##ավարել
##ներորդ
Թադեւ
կապել
մասով
ձկների
նավերը
կրկնվող
գոտիների
վերացման
Բելառուսի
աստիճանով
պարտվելով
Միջնադարյան
##ane
##թեն
##ists
Cons
Կիեւ
##եթական
Sport
ծիրան
##ոնայում
տղային
##ավայրերի
պրոբլեմ
ամենահաջող
ցուցահանդեսի
##ats
##եթին
##ջանի
Dig
գամ
ծես
West
աղեղ
Հրանտ
##ակներին
##ինակում
տարանջ
նկատվել
աղբյուրի
կոնֆերան
իրավիճակի
հրավիրված
Պարսկաստան
Խաղաղության
Նկարահանում
շինությունը
ցուցադրությունը
##ym
##իհ
##ille
ծոցի
ալիքը
արիստ
երեքը
ելույթը
մեկական
գյուղացի
որովայնի
վարակված
բեւեռային
զինանշանը
ծնողներին
Բունդեսլիգ
Թբիլիսիում
լայնածավալ
զանգվածների
կուլտուրայի
##ՈՒԹ
##ոմն
##իցին
Roy
Աբխ
զատ
վոլ
մատր
Աֆրիկա
անցման
ուսման
որոշվեց
կենդանին
Պիրենեյան
բարձրադիր
ենթարկում
երեւույթի
հունվարից
Բելգիայում
զորակոչվել
հայրենասիրական
##fo
##լոկ
Դն
Ռիբ
սոխ
Սուս
խնայ
քարը
##եցվում
Էմիլի
էլիպս
article
Հանրային
հրաձգային
Գրիգորյանը
հարստության
հոգեւորական
տեսողության
գերմանացիների
##45
##by
##արիո
Լոզ
վիկ
Եթովպ
ջրամբար
հացահատիկի
Ընկերությունը
##լեմ
AS
##ոցով
##տոյի
Ann
1820
Բերկ
Թեյլ
եկամ
Աննան
կամքի
հարցին
Դասական
միավորի
Կոպենհագ
նոտրգրով
Զանգեզուրի
նարնջագույն
լուսանկարներ
նախարարությունը
##դեր
##աբազ
##ածան
##այաց
Իքս
##եներալ
գրողը
##աշրջանն
Ալբանի
Պարթեւ
Կոմունան
Ճապոնական
ենթարկվեց
խոստանում
վերահսկում
ռազմաօդային
արշավանքների
թեկնածուական
երաժշտությամբ
մակերեւույթին
##ապլ
##փակ
##ակեղ
չստ
##ելլան
2500
Մանգ
խաղից
##ապատում
##ենտների
Ղուկաս
երեւան
Լեոպոլդ
Կազմված
ակունքը
պրոցեսի
տեւական
խմբագրել
տարածքից
Քաղաքային
անգլերենի
եթերաշրջանում
##աճան
Օգտ
ձեր
Բաիա
ատոմի
բազիլ
##estival
Volume
Լեոնիդ
անելու
առօրյա
զեկուց
վնասված
տիրույթ
օկրուգի
բանկային
թաղամասի
նշանների
զարգացնել
սկավառակի
հիմնախնդիր
շարունակելու
խանգարումները
##լիտ
քշ
##ield
Մոգ
##ատեղին
Անուշ
պլաստ
##հասարակ
միացած
պատմիչ
տեսուչ
##ինիայում
Studios
նվիրում
##ունեության
բարձրանալ
կոմերցիոն
շրջանաձեւ
ոսկերչական
բաղկացուցիչ
բնակավայրերը
բարեկամության
հանդիպումներում
##լաթ
##եյին
Կոս
Նագ
լեղ
ցող
ճնշող
##ակառակը
Ֆելիքս
Հեռուստաս
անվանմամբ
պատմվածքի
##47
##elf
վիմ
Էրեբ
թերմ
թռչն
Ջեյմսը
Պատրաստ
լիբերալ
խաչաձեւ
գյուղերից
ճակատային
մտավորական
փոխանակման
արձագանքներ
ռեալիստական
##68
##եգիր
##ույի
off
Գիբ
կոնս
Կաննի
Վորոն
Խոսրով
Սոֆիայի
ծխախոտի
ջրանցքի
Սիրիայում
շարքերում
տերեւների
հայացքները
խոստովանում
նախարարների
տեխնոլոգիան
տեւողությամբ
առողջապահական
լուսավորության
##ava
##բար
Պրի
Սարկ
դերն
մուր
փողի
ծոված
էնդեմիկ
բուժական
առեւտուրը
եղբայրներ
միավորված
հրամանատարը
գյուղացիական
սպանությունը
##ля
##ասլ
##նիվ
##itch
ret
փլեյ
System
ապօրինի
աշխարհին
գաղափարի
խնամակալ
խորագրով
նախօրեին
ժառանգությունը
համեմատությամբ
Շոն
դոմ
##ազորը
##ահանի
1837
մտահղ
Academ
Արմենիա
Ծննդյան
Չինական
դերասանը
ղեկավարած
հանդիսանալ
հաջողություններ
##իմբ
Մտ
She
ՀԿԿ
դոն
Club
ընկճ
Ալպեր
Կալին
ոտքերը
գետաբեր
վարպետների
գրավիտացիոն
ռեժիսորական
բաղադրության
##ակցի
Bas
WWE
Վիդ
ալտ
թոռն
##ադավան
Ախալք
Կոլոր
լքված
Պարսից
ոգեւոր
թերթերի
տեղամաս
բաղաձայն
Անհրաժեշտ
ամբիոնում
պաշարների
սուպերգավ
Բնակավայրի
##մերի
1838
Ջենի
##ուպերմ
անչափ
բխում
եռակի
փնտրել
արտանետ
բազիլիկ
գյուղերը
կորուստը
պաշարում
ճակատագրի
կերպարվեստ
ջութակահար
Արգենտինայում
բովանդակության
վիճակագրության
ցուցահանդեսում
##լդ
β
Les
von
շան
օրթ
Cast
Կոնդ
Վյատ
##նամարզ
Ահմեդ
Սեւան
մաշկը
##արգավաճ
Սալվադ
##ակիցների
դանիական
սերմերով
ոչնչացնել
քարտուղարը
տեսահոլովակ
պատմություններ
##այզ
Mir
Սեզ
Սոս
##սոնին
Կամբ
Մալի
ժայթ
զուրկ
մղվող
Սոյուզ
վարակի
Վրաստան
Ֆրենսիս
Բնակվում
առաջացավ
թենիսիստ
համանման
մուլտֆիլմը
վերաբերմունք
կազմակերպելու
##ps
##од
##կմ
##ոտան
Պեպ
##ացանկ
##իկոսի
##քահայ
Բուն
քամու
Պատճառ
իշխանի
ճակատը
Գործում
եզրակաց
հույների
հրավիրվեց
պահպանելով
այցելուների
ոստիկանական
##ama
##ano
##ոտա
ՖԱ
##աթել
Զարգացած
Քրիստինա
արձակում
ձեռագրեր
ուղիների
ժառանգորդ
խորհրդանիշը
կուլտուրաների
ընկերություններ
##լյան
Մոխ
Սես
բայ
կով
##ատախտ
##մանին
##րիայի
գնով
զգայ
կռվի
##ահռչակ
պատին
##եմենյան
արշիպել
Վերջապես
հաղորդել
ադմինիստր
Կատալոնիայի
Վասպուրականի
##ado
Օպ
##եցրեց
Գոնս
պտղի
##ունյան
First
##ացիայում
Ախալքալ
դադարել
խթանում
անոթային
համարվող
արտադրություն
##աֆա
##իստն
Սրա
պղպ
##ագիրք
##անցքի
##ոլայի
Դոստ
Նուր
պրոլետ
շքանշանի
պայմանով
կինոնկարը
մեքենաներ
սահմանվել
112
Բռն
նիզ
ժանտ
ցայտ
##ուլյար
Արյուն
իմանալ
վամպիր
տեքստի
փոխկապ
##ոններում
Տոկիոյի
թավջութ
սրբազան
Գիտնական
բաժանվեց
ընդհատակ
երգչուհու
պտղաբերում
ընտրություն
քաղաքապետարանի
##ածը
##եխի
##inem
##րանկ
Բիս
Դաղ
From
Գառն
հերց
պոեմը
փոխեց
Կախարդ
Սպենդի
Michael
բջիջներ
ամիսների
խմբերում
Նապոլեոնի
յուրահատկ
Ma
Bre
ցին
##աներկ
##նակալ
##տների
Գիրք
ծաղր
աստղը
Միխայլ
Մինչդեռ
Պետրոսի
կյանքով
հենակետ
մայրենի
հրամայեց
ուղղաձիգ
Պահպանվել
հաճախական
##led
##ատո
##երվ
##ոյն
##ուխի
Est
արի
Good
Կերպ
Հեքի
Ֆորտ
տենդ
South
##անդական
##ունքում
Հովհան
էկոհամ
գրողներ
բարեխառն
հավատացյալ
ուղեծրային
ag
հռ
##իվան
Որո
Քու
##ահանջ
Sony
##ibrary
Այնշտ
Կամեն
նոմին
##ագուշակ
People
ալյում
գրանցել
հիմքերը
Accessed
թերակղզին
Սլովակիայի
ռեկորդային
##դոկ
##նչին
new
մսի
##կերտի
##ովում
Ադան
ոգին
Շենքը
առաձգ
սնանկ
##ավորվող
ավազան
բալլադ
կարբոն
հնագետ
ռադիոհ
ցանկալի
առարկայի
տեսարանը
հիմնադիրն
աշխատանքներով
##եյզ
##թրե
##ived
Շրի
##ative
##երիան
##յուսի
Ռայմ
Տերմ
զրոյ
Դերաս
Մոնակ
Յակով
կեղեւ
Ինտերն
բանտից
գործադ
իսլամի
Հեռավոր
եգիպտաց
ժյուրիի
շարժվող
աշխարհով
Ավստրալիա
ներկայում
փոխանցվել
երկաթուղին
ախտանիշների
ամբողջություն
##la
а
##ՈՒԹՅ
##թերը
Ben
Fre
Արհ
Տրի
մած
նիկ
##ուղթը
Ալաշ
ացետ
վրան
##ոնշյալ
Խաչիկ
##կովսկու
գրաքնն
ներարկ
Աֆրիկյան
ալիքային
խաղընկեր
միավորել
Խաչատրյան
անուղղակի
մարդահամար
գյուղացիների
##48
##AF
##կե
##շար
Օթ
Who
Wil
Բարն
պատը
world
Արշավ
Կոստա
եռանդ
թիթեղ
երկուս
համեստ
առնչվում
թեկնածուի
առավելության
հայտարարեցին
հրատարակվում
ազդեցությունն
ներկայացումների
##ցե
կը
##ոքսը
Զավ
##iness
##ոպրան
նվեր
պանդ
դեֆորմ
կլասից
հանվել
նուկլե
շառավիղ
միսիոներ
գործերում
կինոստուդ
միավորներ
ենթակառուց
ավելացնելով
կատարողական
որակավորում
վերանվանվեց
հետաքրքրվում
տատանումների
իշ
չխ
##ախոսը
##ամուղ
1842
քնար
մղված
##ենցիայի
German
լանջին
Համեմատ
անծանոթ
տասնմեկ
քաշային
Ձմեռային
լուծելու
արշավանքը
դարձնելու
բասկետբոլի
բնապահպանական
աշխարհագրության
##ely
Ձախ
Նեպ
կել
##ասկան
Գարն
Վիլն
կտակ
Video
ողնուղ
Այստեղից
օգտվելով
ղեկավարման
լուսանկարչական
##gy
##նար
Հո
pre
Զիգ
Ֆրի
Մելք
Արժան
Համիլ
կամար
Դոնալդ
շքերթի
Ոստիկան
տաղանդը
Կոսովոյի
աղիքային
հարմարավետ
տեխնոլոգիայի
##ем
##ոթը
ժխ
##արիդ
Ղեւ
##ածայր
##շային
##ոգլոբ
##ատորներ
խելացի
կոմիտե
պարսից
բանաձեւը
Սովորական
օբյեկտները
ինժեներական
##ef
##ճռ
Բհ
##ious
##այթը
##եգետ
##իմեդ
Los
Ֆեյ
##աունդ
##արդին
1839
1843
Մանի
գինի
Իոսիֆ
աշուղ
կինոմ
կդառնա
##ուհիները
արքայազ
խոսքերը
արեւային
գործերով
եկամուտը
##աքննության
Կոստանդին
առաջարկվել
իռլանդական
##ogue
##եվար
##լիին
բեն
##ument
##ույցի
Ռեմբ
կորտ
Այրես
հազիվ
օգուտ
Ամրոցի
լուրեր
##ամշակման
Հակառակ
ճշմարիտ
աշխարհից
զորքերին
լուսային
ստանձնում
գրասենյակի
հատկություն
դաշնամուրային
վերականգնելու
##let
##ոդը
NE
WTA
Աղբ
ՀՆԱ
##իփսիմ
##ոզավր
hone
Բանգ
Նեպտ
##ուղում
State
Արգել
Մետաղ
դառնա
մագաղ
բազայի
##ամատչելի
բանավեճ
բուրժու
սպանված
անտառները
միավորվել
նկարչուհի
կազմավորման
Կոմունիստական
##oo
##իմպ
##սու
##ուցե
Չապ
##press
##ատեխն
Էմմա
Լանգ
որսի
փափկ
##ելյանի
շահել
ապրանքի
զոհաբեր
հաճախում
պայքարին
##ոլորակային
Publishing
Հովհաննեսի
աղբյուրներից
Սմոլ
կաթի
##խորհրդ
Class
կապող
Սվանեթ
վատթար
դոլարով
թնդանոթ
ծախսերի
անխուսափ
անուններ
բնույթով
հարցնում
արկածային
ներառելով
արդյունքներ
փաստաթղթերը
էլեկտրոնների
##ha
##arm
##iet
##եդր
Բահ
Կաղ
թթվ
##եւիչի
գերմ
Թյուր
Միչիգ
##անալուց
Հրազդան
ավելորդ
գույնով
լեգենդար
Հարավարեւ
երգչախմբի
հիմնադրամ
վերցնելով
բուսաբանական
հավասարումների
վիրաբուժության
##67
##գեղ
Ֆու
Ատրպ
Պրոկ
ունկ
սրտխ
ֆոնի
Տեղեկ
հիպեր
##աբնույթ
##այելյան
Անահիտ
կորպոր
ստույգ
Վալենսի
ծավալով
վերջինը
ծաղիկներ
կազմելով
սպանվում
տարածվեց
Պատկանում
մերձակայքում
պորտուգալական
##կվ
##թագ
##ծաղ
Ha
iP
##ural
##ապակ
##աբազմ
1841
4000
սաքս
փակել
##իչներով
Գոնսալ
Հաղորդ
ընտրեց
Հիտլերի
##ամոքսային
արգելում
Biography
թվաքանակի
ազգագրական
գործառույթ
ազատությունը
քվեարկության
տերությունների
##խան
Ob
Կվ
##unes
##յանա
cent
Մուն
խեղդ
չափից
անկեղծ
ծաղկման
Սասանյան
նպատակին
##ափոխության
արքայատոհ
նախնիները
բարելավման
օրենսդրական
ներկայությամբ
##po
##ей
##ԱՏ
##oul
ne
Պֆ
Way
Ահա
Վեպ
ձեզ
փոս
##իմուռ
##շաբթի
Հերմ
էժան
կոսմ
##երսոնը
Միքել
կրոնը
անկյան
կազմած
հպատակ
սերում
գումարի
կոնցերտ
տառապող
Բեյրութի
Դասավանդ
Էջմիածին
հարուցիչ
սպառազին
Մուհամմադ
Ֆրանչեսկո
բանակային
մակերեսով
նյութերից
կոնստրուկց
արարողությանը
Հեռավորությունը
##աքը
##ղզի
##լավի
Glob
Ալես
Սեմը
ձեւն
##իդները
##քներից
Նկարի
գների
պարագ
##ասենյակ
Public
Զոհվել
լուծար
միջուկի
Բոնապարտ
աղջիկները
ոչնչացնում
բուլղարական
մասնակիորեն
տպագրության
դասակարգումը
վարչությունը
ֆլորիստիկական
##ко
##ров
##ատել
##դերը
Էսկ
Տակ
հոբ
սնդ
##կարող
Գրաֆ
Քլին
ցանք
##ահարված
ավազակ
մեջտեղ
Ուիմբլդոնի
ընդգրկվում
հիվանդները
ուսանողները
##ME
##խը
##անկա
##երիչ
##տերը
Rich
##ոսական
Տաթեւ
Քվեմո
խաղակ
հնդիկ
սիրել
##ադրանքը
##բերգում
թաղման
Ասորեստ
անավարտ
պատճառն
Նմանատիպ
անտարբեր
արտադրել
հաշվվում
հաջողված
բողոքական
սկզբունքի
բորբոքային
կայունության
##olit
Gal
Անն
ահա
սիլ
##cient
##ուհետ
մորթ
պահը
Green
Ժյուլ
եբրայ
Էնթոնի
ճյուղի
Մարտինը
Պրովինց
ապագայի
Արցախում
լուծույթ
հագուստը
հողերում
Պրուսիայի
կալցիումի
կիսանդրին
շինության
ամսագրերում
##iev
##uel
##ՆԵՐ
##ժեի
##կաթ
##նդր
##ոզն
##ason
##այտն
##մերը
##ոստի
122
Լաբ
Ռաշ
գնչ
խնջ
վաս
##աթթուն
##ակերպի
Կարակ
Սկզբն
Քինգի
արհմի
երկեր
նովել
ցրված
Պուերտ
Հռիփսիմ
Կարիբյան
հորեղբայր
դրդապատճառ
հիշատակվել
Բուլղարիայում
վերլուծությունը
##ues
op
##aster
միջմ
անարխ
պատշաճ
զգացում
սարավանդ
տարիներից
Վաշինգտոնի
ուղարկվում
սպասարկման
պայմաններին
զարկերակային
ատենախոսություն
##ւմ
##եֆալ
Բող
օդը
Park
կավե
Grand
Գերեզ
Նյուր
##ունքներ
Դինամո
անանուն
մարտերի
վերածննդի
փառատոնին
բաղադրատոմ
գործիքները
խորհրդավոր
իրավունքներ
մասնաճյուղը
պատմությունն
քրիստոնյաների
##Ով
##ՍԱ
##ora
##ոսա
ur
չմ
##ոզին
##ոնով
Mat
Լեմ
##ազման
ծառը
սարքի
տեւեց
սպասարկ
կոմունայի
բավարարում
երկարաձգեց
Բարձրությունը
##ամանուշակագույն
##ոկլ
##aint
##իլեպ
Դիզ
Ավազ
լեգե
սորտ
##ալները
##երենից
##ունյաց
դավաճան
Հեղինակը
ոսկեգույն
շրջկենտրոն
սպիտակուցի
ուսուցիչների
##ճը
##ots
##ռավ
##work
##ident
##անջել
1826
Լոնգ
պարադ
սատան
ֆոնդի
ստիպեց
քույրերի
Նիդեռլանդ
ամսագրերի
Լենինականի
մեքսիկական
հեղինակներն
պրոդյուսերը
ֆիզիոլոգիայի
##Ar
##սկա
Jo
##ասիա
Տել
##աբրիկ
##ելուն
1836
Շուլ
չարի
աստծո
մասեր
սպեկտ
Հայդել
Սուլեյ
կազմով
ֆորմատ
Ապստամբ
դեբյուտ
ռեկորդը
Մարտունու
ավազաների
բուժքույր
գույներով
նավահանգստ
տեղումները
Սունդուկյանի
##во
##erd
##ոքը
pg
Ալթ
Զատ
##ագեղձ
##աքարը
Նյութ
դիմեց
##կության
մազերը
միամյա
Ստացողը
նպաստեց
մարզաձեւ
երկրաշարժից
կինոքննադատ
##ump
Էք
div
Գառ
Down
Լուվ
Նշան
մլրդ
մորֆ
տոնի
Found
արմավ
լուսն
Աղջիկը
Կալվադ
զույգի
Զբաղվել
հեքիաթի
շերտերի
պլատինե
մայրական
պատշգամբ
ուսուցիչը
Կալիֆորնիա
հրատարակեց
##49
##ինջ
##ահաջ
her
Ռեւ
1832
Ever
Էվան
Ախալց
Հյուր
Նշված
##ասահման
Գործող
չափածո
որոնման
Ավետարան
Անվանումը
այբուբենի
##ավորությամբ
եղանակները
համերգների
համայնքային
##ողականությունը
պետություններ
հեղինակությունը
Օձ
113
Hall
Զույ
ելքը
ձուկ
պետի
inter
##արկային
Զինված
փակում
##ատներում
Հրեական
ծնունդը
ձեռքերը
ֆիլհարմ
գույները
հռչակվել
Ատրպատական
Իսրայելում
երիկամային
մարմնամարզ
Չեխոսլովակիայի
##gar
##ոցից
Sur
Փիր
##amily
Stre
Դնեպ
Հենդ
Պոմպ
Հրեշտ
ամոնի
դոմին
զիջել
##ամբյուղ
##աբանորեն
սինթետիկ
ավելացրել
Տեխնիկական
լեռնագագաթ
տեղափոխման
ախտորոշումը
ղեկավարների
##ute
Pap
Սիրո
##lywood
##օվկիան
Դենիս
առաստ
զինադ
գերադաս
դասարան
վայրերի
##ատվության
ծանրաբեռն
համատեքստ
հրեաներին
ավանդույթի
հեղինակություն
հեռուստահաղորդ
ինքնակառավարման
##ասա
##լիթ
##ոգը
կբ
##ունա
Գոն
Ջրի
արց
##ադում
Թայլ
էրիթ
պոչը
ՌԽՖՍՀ
ցանկի
խումբն
ծխախոտ
բնակչով
վարկածը
փրկելու
ընդգծում
ճամբարում
քայքայման
նկարահանած
վերականգնվում
##ales
Լեբ
1844
Լացի
Լորեն
մռայլ
չնչին
բժիշկը
մետաղի
ստանձն
նահանջել
առաջացրեց
հետեւելով
##աբուծության
դիվիզիոնում
ձեւավորմանը
հնդեվրոպական
##kt
##շիր
##սիխ
DC
##oice
##եկցի
Bad
Խոջ
Կոռ
Կրտ
Ռաբ
ժխտ
##ովանի
##ոֆիլի
Կույ
Սում
##evelop
հակահ
##ազմզուկ
գրավիչ
խնդրեց
հիբրիդ
ներում
փրկվել
Տեղական
##աշիստական
ընկերոջը
բնագավառի
բանջարեղեն
վերակենդան
կայսրությանը
ժառանգություն
լուսանկարները
Բագրատունիների
սեփականություն
ф
##կիի
##fter
##եպար
Մեք
##ամանի
Back
Rott
բութ
ըմբռ
##ոմատիկ
Դիեգո
Քերոլ
ձգված
##րատարակ
շերտով
վեպերը
թոքային
##ուդիայում
ներդրման
փառատոնը
օբյեկտներ
բանվորների
համալսարանից
Գյուղատնտեսական
##amb
##արո
Շչ
##ոլիի
Իգն
##ածինը
##ավայի
##իլիամ
Հանն
Girls
ռետին
փարիզ
երկակի
ծածկում
հավաքեց
ալկոհոլի
միավորով
Հաբսբուրգ
Նիկողայոս
Ղազախստանի
գրադարանում
##pos
##աձի
##ատպ
Նո
Սղ
Քս
Դիր
Տաթ
Իմեր
թողն
հրան
Women
Warner
Արեւմտ
այտուց
կիրակի
հեռակա
առափնյա
լեգենդի
ակտիվիստ
առեւտրով
գնահատվել
քննադատել
էվոլյուցիայի
քանակությունը
##amm
##ոհիշ
arm
##ետում
տրիբ
ֆլեյ
Աստիճ
մարտը
արծաթի
կոնցեպ
ֆիլմից
##աչափական
բարերար
թեթեւակի
հորինված
ոչնչացվել
ազգայնական
ազգությամբ
առարկաները
հեռանալուց
ահաբեկչական
ապացույցներ
իրականացվող
բնավորության
##itz
##իվա
##ոլիթ
Գեյ
Եվս
Ուգ
Պոր
խափ
##մային
Փենս
բուծ
միկր
բառապ
Անդրեա
Թեհրանի
շնորհել
պոտենցի
տոնական
Guardian
նամակներ
Ստոկհոլմի
արբանյակի
Լիբանանում
ելույթները
էքսցենտրիս
ճարտարագետ
քննադատում
բնակավայրեր
կենտրոնների
նվաճումների
Ф
շշ
##apan
##ճյան
Նաբ
աբբ
book
սպեց
ֆուտ
Անտառ
Տոլեդ
ուտել
##ulation
##ագծային
##երիների
Բատիստ
ինքնին
հատման
միացան
##ախմբային
Armenia
հաղթեցին
շրջապատի
փոխարենը
գոյատեւել
հետազոտող
թանգարանին
թարգմանվում
հավաքականին
կիրառություն
հավաքականներում
սեփականությունը
##ԳԱ
##իտո
##ափող
##եացի
##ուտգ
Մշո
##ետներ
Կարկ
գրան
ցավի
##ուստին
##ալիական
##աններից
Ղեւոնդ
Նպատակ
դիզայն
խմելու
Դոստոեւ
հրաժեշտ
Աթենքում
ամենամոտ
ամենատար
փոփոխվել
եղանակներ
երեւույթին
իրավիճակում
ներերակային
կատակերգություն
##յատ
##ոխա
##rown
##արկղ
Բագ
Պերս
ուրբ
Սաութ
հասակ
գտնված
վեպերի
##ological
պիեսներ
պրակտիկ
վարկածի
Կաստիլիա
գլխավորեց
##ատվությունը
Իսլանդիայի
աշխարհայաց
հիվանդությունից
##yth
##եդը
Խմ
Անթ
Գոտ
Պիզ
րդի
մաշկ
սինդ
##նիական
Սայաթ
ջութակի
վնասում
բնականոն
միանշանակ
դասարանում
հիվանդներին
##ady
##ola
##գայի
##ելլո
##conom
1835
Սիրի
ասոր
թմբկ
կրեց
պացի
կլիմա
##ատեսակը
Այդտեղ
մրցում
##ակարգերի
նվաճում
վաճառքը
փորձերի
հետագայի
Առաքելական
Կրասնոդարի
անցումային
աշխատանքին
fe
Լիի
Հաղ
Ջամ
##ագրից
High
Մյուլ
Քեւին
բարոն
գցում
լողափ
քարեր
ապաքին
կանխել
հակում
տուժել
##ճանապարհ
British
##մունքները
ցուցադրված
դեղամիջոցների
ուսումնասիրելու
##TS
##չե
Թող
էսկ
1300
1833
Դրեզ
Մուլ
բեմի
լամպ
տուֆ
Ստրաս
թարախ
Քութայ
պիտանի
սիրված
փաշայի
ամսաթիվ
գործուղ
կերային
Կիլիկյան
Նոյեմբեր
տեսնելու
արմատները
մարմիններ
ծանրության
վիրուսային
պայմաններից
##ոյս
Օնտ
դեն
զսպ
1845
Իլին
Ռիու
դյու
գիշերվա
ծագումն
ջրիմուռ
հարկային
մթնոլորտ
զարգացրել
իշխանների
Պետրոսյանը
զինվորներին
մասնաճյուղի
բակտերիաների
բնակավայրում
##ածաղ
Law
Խել
դաջ
լոկ
Թերթ
Քեյփ
խուճ
շուն
Psych
Կամեր
##իվերսալ
Ամրոցը
Ուրանի
կորստի
գաղտնիք
սպանվեց
Երեխաների
ապրանքներ
համակցված
ներքեւում
ներխուժում
Պատմություն
նվագախումբը
##ny
##բերդ
##րանը
Dep
Արճ
բետ
##ադրող
##ուշան
##տուալ
Ալեն
Դիոն
Երեկ
սպար
տետր
##ագծերի
Դյում
ցուցակի
պարտիզանական
թարգմանության
##NA
##անթը
Զալց
Միակ
կրած
Գրեթե
Մարկո
Դրանով
մանրադ
Ստեղծել
բուլղար
Սեբաստիան
հազարանոց
մեդալներով
լեզուներում
կարգավիճակով
վնասվածքների
վերականգնումը
##69
##փլ
##իկե
##ոյե
Զվ
##եստր
##իթմի
ent
Իբն
##atoes
Արաք
Երզն
Մելի
Ջեքի
Քյոլ
##ոյական
##ացիային
##ինգների
ընկնել
խաչմեր
պարթեւ
##ակենտրոն
Ատլետիկո
Համբուրգ
իրավահաջ
զբաղեցնել
միջատների
ստորագրեց
հասունանում
ավտոմոբիլային
մետաղադրամները
անվանակարգերում
հավաքածուներում
##աբաց
##ապալ
##ենցը
750
Հրե
ռեց
##ister
##ուլսի
Anim
Պապի
##իրիայի
Dance
ստրատ
ցորեն
բանասեր
իոնների
մատերիալ
դրամայում
մատուցում
մոդելների
օրգանները
##հի
##rab
##պին
տհ
##ոլիզ
Բրո
Լամ
տոր
Mill
Կինը
պալե
Ամերի
փաթաթ
##անյութը
ինտերի
կատուն
կնքվել
ցեղերը
չափորոշ
երկրաբան
սուլթանի
առաջացնող
շնորհակալ
##ելլենիստական
անգլիացիների
լեզվաբանական
եզրակացության
##сти
քա
##anda
##նկատ
PDF
##իմաստ
##իտետի
PMID
Տոսկ
##ամկանի
Իսպան
բերած
դուռը
##ադրանքի
##ակարմիր
Բրաուն
պառլամ
կինոմրց
գինեգործ
##ամատակարար
Միավորված
ընդլայնել
Ծաղկաբույլ
մոնղոլական
յուրաքանչյուրն
շինությունները
##In
##աֆֆ
Հնչ
Յոլ
բակ
դոր
##ագրին
##եւիչը
Ագաթ
կոստ
##ավային
Քուին
Հայերի
գործով
տպագիր
Արեւելք
մատուռը
մեթոդով
պահանջը
կարդացել
ռոմանական
Ազատության
բարձրակարգ
համակարգային
##րոս
##ադաշ
##իմին
##կովի
Բրահ
Սվետ
ավատ
աբստր
մղում
սարքը
ծրագրով
համասեռ
կանգնում
նկարներից
հոդվածները
բուդդայական
իսրայելական
ընտրությունները
„
##ահի
##հոֆ
##ակրկ
##ather
##լոմեր
Բորդ
Լեդի
Հանք
աֆրո
ռեմի
մարտկ
ռոբոտ
վերջի
Ինդիան
ազատել
նախազգ
ոլորտը
տիրում
հրեաներ
սելջուկ
##անշանավոր
Research
կենդանու
Ավստրիական
Լուսավորիչ
ամենաերկար
առանձնացված
որոշումների
պաշտամունքի
դժվարությամբ
կենդանիներին
մետաղադրամներ
##թեզ
##ոցն
##անոն
##իտով
##ոցիտ
Bab
Fox
Կոյ
Մոհ
Վիրջ
ռեալ
հմուտ
##ոցիտների
դաշտերի
արաբները
ընդդիմադիր
բյուրեղային
համացանցում
մարդասիրական
աստղագիտության
աստվածաբանական
##յին
##ազեպ
rec
##ելայի
##չուհին
ավելց
գետից
մետրի
Հալեպի
խնամքի
շուկան
Ախտորոշ
Թափվում
տպավորիչ
բնությունը
մասնիկները
խալիֆայության
##ур
##յոզ
##զիստ
##ուսպ
Eng
վոկ
Աթոռ
Պասկ
Սենթ
երիտ
ձյան
##ագծում
Մամիկ
Պլուտ
ժուռն
##իոնական
##ոհիշյալ
Երկրում
ակնառու
բարոկկո
էֆեկտիվ
պարզվել
երկսյուն
թերթերում
նվազեցնել
գերազանցել
տեսահոլովակում
##ni
Are
Lou
Sum
Էրի
ֆիբ
Land
գրոս
Շուրջ
ամիսը
կորած
##երեւութ
կլինեն
Բրաունը
ավանում
երեսուն
հիմքերի
ցուցակը
Ավստրիան
գլանաձեւ
հայրենիքը
ասոցիացիան
դրսեւորվել
հեղինակներ
հումանիտար
ճառագայթային
##ма
##յեի
բիթ
##ritic
##ունիք
Show
Ամազ
Կամա
Դյուս
դրվեց
Քաղաքն
գազերի
պատվեր
էջերում
##ագործների
զգայական
Մադրիդում
քանդակներ
դատարանում
միանգամայն
պահանջներին
կարգավորվում
##rac
##դոն
##arth
##ound
##եթսի
Դոյ
1821
1834
Iran
Plan
Pres
Կարտ
Քաղց
Հաշվի
դղյակ
վեգետ
##ծննդյան
Հերման
Մուշեղ
Կոնգոյի
կանգնել
օրինակը
արտասովոր
բջիջներում
ընդունելու
լայնության
Աստվածաշնչի
Չեխոսլովակի
ձախակողմյան
ճարտարապետներ
Փր
##ոնիի
111
Ժամ
Լադ
Սոչ
Քաս
ձող
սամ
##ուարի
Լորդ
ոգով
քաշի
count
Սպորտ
##անկային
աստղեր
շրջանն
history
մրցավազ
Զբոսաշրջ
Մշակույթի
Սկզբնապես
բնակիչներ
իմպրեսիոն
համաձայնում
ֆունկցիաները
##DA
##եւա
##րեր
##ider
##itor
Ութ
Ռալ
Տայ
ելք
Սիլվ
Տիգր
անոց
վերծ
##վածքից
About
բազան
անմարդ
կարգում
Ցեղասպան
մաշկային
որոշները
օպերատիվ
Թեհրանում
ազատամարտ
սպորտաձեւ
արհեստանոց
համակարգին
հաշվարկման
բոլշեւիկյան
դիմանկարներ
օգտագործված
բաղադրիչների
##78
##ja
HT
##հեմի
Tri
Հոս
էնտ
##ածանց
##եռնել
Բրես
Պրադ
Princ
Մակար
ավտով
արգաս
էապես
##ոկրատես
Modern
##ակառույց
Ջեքսոնի
ամուսին
խտրական
ջրերում
անպայման
կատարվեց
հռչակում
Լիվերպուլի
գաղափարներ
անխուսափելի
կազմակերպեց
հանրությանը
հնարավորինս
ռազմաճակատի
սովորեցնում
աստղադիտարան
վարպետության
×
##ida
##անիվ
##խարի
Չավ
Վազ
Փախ
Քաշ
վրկ
Ռենե
արկղ
անողն
կատու
մողես
##ization
Econom
Ֆինանս
##ուկներով
Անդրեաս
Մարտինի
կոնգրեսի
սառույցի
Նորմանդիա
մակերեսային
շարունակվեց
դաշնակիցների
##րից
##ատոն
260
330
par
Արզ
Թեն
##անցիկ
Դեյմ
##եդիայի
##րադաշտ
Հուլի
ծախսը
հակաֆ
##ագրագետ
Բաթում
Կախված
Չելսիի
##շտարաձեւ
արգանդի
հասցրեց
Աստղային
ատամների
կալիումի
քաղցկեղից
խոստովանել
միավորումը
Ուկրաինական
հրապարակված
Պաշտպանության
կարեւորությունը
##urs
##ոպի
Su
##անտը
Վեբ
##ենցաղ
տեկտ
Առավոտ
Կոլսկի
Կրասնի
էներգի
խմբերով
անվանման
անտառներ
հույները
Պակիստանի
ներխուժել
քաղաքատիպ
դասակարգվում
ինտելեկտուալ
ցուցադրության
##illa
##mann
##առիկ
##եկին
Lat
Ros
Sil
Դեվ
Խնձ
Քես
##րոպոլ
Hand
Դերբ
թրիլ
պատռ
Queen
բելառ
լուրը
##ացնելիս
Դեմիրճ
Դոկտոր
Մարդկանց
գերիշխան
դեղաբույս
հարցազրույցի
Էթ
Atl
Fri
##եններ
Վիլյ
գայթ
երկը
լոնդ
Ֆիլմն
պարալ
Վալենտ
website
Անտուան
սրածայր
Կենտկոմի
##ատիրության
Պոլտավայի
ընդհատակյա
հատկանիշներ
ղեկավարները
դերասանուհու
ծայրամասային
##75
##lam
Mot
Tor
բոս
##ագրող
Կրետ
Պաստ
պրոֆ
Էլեոն
Rotten
Շտուտգ
ինդուկ
##ակարգում
ալկոհոլ
միջավայրը
նախնիների
Զելանդիայի
եղանակների
առավելություն
կաթնասունների
հանցագործության
##IC
##err
##ոշը
##աչին
##ասեղ
CIT
Mor
մառ
##իզմով
##ոտրոպ
##ութան
Բամբ
Չերն
Կղզին
Փիլիպ
##ամփուշտ
##ունները
Office
Ստացել
##ատուների
##արենպաստ
Կուզնեց
պոեզիան
սպառման
հռչակվեց
Institute
առաջնորդի
արգելվում
բազմապատկ
ցուցասրահ
##Bayerisches
Հայաստանին
Ստեղծագործ
ուրարտական
անցկացնելու
գիտելիքները
հանդիպումներ
հանդիպումների
##ani
##mas
լե
##ուկա
Ջիլ
##կուսի
Ինքը
Մարդը
սառցե
Վինսեն
ողջուն
հրեշտակ
նվազման
ստուդիա
օպտիմալ
անհնարին
ավելացել
գտնվելով
Արժանացել
արոտավայր
բազմացման
ծածկասերմ
տեղադրում
խնդիրներից
միավորները
Ռուսաստանից
փոխարինելու
օպ
##ette
##ագով
121
Emp
արե
##որայի
Alex
Mont
Չիլի
զերծ
##ավանքի
##ինգերի
White
Young
անկար
գայլը
ծովից
նորամ
Քանդակ
երկաթգ
սողուն
մայիսից
սերիալը
քանդվել
գրավելու
զարմանալի
ինքնիշխան
միավորվում
պահպանումը
գունավորում
հեռուստադիտ
վերամշակման
կուսակցությանը
##go
##իո
քոչ
##apter
##նամյա
Կոմս
Հայք
Օլգա
աճին
երկշ
##ոսները
Guide
Էռնեստ
խփելով
##ամանատար
ազատում
ծրագրին
վարձատր
փառատոն
փաստարկ
ընկալվում
քննարկման
Ադրբեջանում
հռոմեացիների
ֆուտբոլիստների
##ՄԱ
##ona
##լատ
##հեթ
##ռեալ
Բոկ
Գամ
1827
Sant
Ժերմ
չգիտ
ցմահ
Roman
ձգտել
օսման
Health
Արհեստ
Վալտեր
Ռուզվել
անգույն
փակվում
Պաղեստինի
մակաբույծ
ներդրումը
Երուսաղեմում
հիմունքներով
Կազմակերպության
հրատարակություն
##ía
Di
##ուկն
End
sur
Ժիլ
բադ
Work
Ալին
գոնե
կշիռ
##արշավի
##ենկոյի
կաթիլ
##ատեսակի
Աստրախ
շղթայի
ռաունդ
Ճապոնիա
գերեվար
կատալիզ
պատերին
այդպիսին
վերագրում
ախտաբանական
առանձնացնել
պատկերացումները
##irt
##oon
Ep
ՀԿ
##աննա
Bra
Jos
ԱՊՀ
Կարգ
առագ
չանց
չենք
##անգույց
ստացվող
տեխնիկա
մշակույթին
սոցիալիզմի
վերականգնողական
##ենչ
MA
Լճ
Լան
Ֆեն
Blue
Երկն
չհաս
##իկյանը
##որդներ
անակն
ավագը
##ագնահատ
##չենկոյի
հրվանդ
##անդակում
Անատոլի
տեսակից
ուսմունքը
գործազուրկ
երկրաշարժի
խորությամբ
կորուստներ
հունգարացի
զբաղվածությունը
##պա
Е
##enc
##եկա
##ձեւ
bi
Իդ
##ская
##աձեն
##ատաշ
##ուած
123
բոյ
##ալներ
1400
Մերս
Նուբ
կուռ
##գիական
first
Բրուք
գեղձի
կիսատ
Գորիսի
տեղացի
##իզացիայի
պարուհի
##երգության
օտարերկր
Մետրոպոլիտ
երեւույթներ
բազմակողմանի
իրավասության
նի
##արդո
133
Aut
Pan
est
gov
Ալտ
Մեռ
Շիկ
Օլդ
մեգ
Ահար
Գարի
Մորգ
փախչ
Բենեդ
Գոյաս
Հոգեբ
Հոլոք
թմրամ
##eration
միջինը
ֆորմալ
խաղացած
շենքերը
Tomatoes
կերպարան
հրավիրեց
անդամներն
անջատվում
ապարդյուն
վտակներից
լեռնաշխարհի
կառավարվում
խաղաղություն
ամենանշանավոր
պետականության
արտահայտություն
##ria
##աշկ
օն
##իտին
##պատվ
##րոմի
Mal
Հոն
Նաց
##լինգի
##յուրմ
ֆակտ
Japan
Տրդատ
բռնագ
Բորուս
Դպրոցն
եկամտի
երկսեռ
քարերով
Պողոսյան
լինելուց
ծավալուն
պարզաբան
ցածրադիր
մակերեսին
սահմանումը
արքունիքում
հետեւողական
Լյուքսեմբուրգ
ուսումնասիրված
##ye
##վատ
Նայ
Օռլե
CITES
զենքը
վակու
վտակը
քրոջը
Վյատկա
Քեթրին
մեդալը
Century
եղբայրն
վնասվել
Festival
Կալիֆորն
հաջորդեց
հատորում
մազմզուկ
Աքեմենյան
աշխատավոր
լեռնաշղթա
շաբաթական
տպագրվում
կոմսության
հյուրանոցի
սուբյեկտիվ
արեգակնային
աստերոիդները
դասակարգային
իրականացումը
կինոստուդիայում
##44
##то
##ճնշ
##ողմ
քչ
280
doc
լիպ
հնէ
վագ
##անսկի
##իայով
East
այրի
վկան
Էնրիկ
մակեդ
փայտի
##արոսլավ
թիմերի
միաբան
կորցրած
մարտում
թերապիայի
հետազոտել
ազատամարտի
բանաստեղծի
սիրահարված
տեղավորված
ալկոհոլային
հիվանդանում
հետեւանքները
վերադառնալու
ունակությունը
##ox
Ած
Ջաս
Աուգ
Շարլ
թթվի
շնաձ
աղիքի
կաբին
Տիրապետ
ժանրերի
կասկածի
նեյտրոն
տարվում
ռեալիզմի
անունների
շնչառության
կոնվենցիաների
մայրաքաղաքում
տրամաբանության
Իմպ
Տոռ
Thom
part
##ալյանը
ամռան
մտերմ
##երենում
France
Արաքսի
թոշակի
շարքից
խոսքերի
ջանքերի
##Հայաստանի
թերակղզի
սերիայում
մահացության
նախարարական
գեղանկարչական
թվարկությունից
հեղափոխություն
##լիս
Leg
Let
խոյ
միլ
##ավանք
##եմիան
Հաշվ
Սարի
լճից
Georg
Լյութ
Մալաթ
##անտների
Լուիզա
Սեւիլյ
տեղերը
Հայֆիլմ
բարգավաճ
դիվիզիոն
չեմպիոնի
սխալմամբ
Ինստիտուտ
ավիացիայի
շոտլանդացի
Ֆուտբոլային
կիսապաշտպանի
բանահյուսության
##թեմ
Եգ
Կյ
Տաղ
##մունդ
over
Հովն
աորտ
տիրող
արտերկ
կացվել
Նիկոլաս
Ջեքսոնը
խելագար
հետքերը
ձեռքերի
մարտահր
պապական
ավիացիոն
գերիշխող
խտության
փոփոխման
նախազգուշ
Միքելանջել
կանգնեցվել
հայացքների
##ԻՄ
##eld
##էլեկ
Ախտ
ջրա
##եպաշտ
##տները
Լենկ
Մանր
Տրետ
տհաճ
Techn
Վայրի
Սիմեոն
կայանը
տարեգր
գլոբուս
ստերոիդ
Կոնգրեսի
Ճապոնիան
Կարելական
երկնագույն
ուկրաինացի
գործոններից
տիեզերագնաց
հարաբերությամբ
բովանդակությամբ
##ви
##ble
ԱԱ
##երես
ՀԱՀ
Սոր
տոպ
Mark
Էնդի
Ծնող
բանին
##ացիայով
ամենաք
բուժիչ
էկոնոմ
##վաընտանի
Գեղեցիկ
Մակեդոն
Շնորհիվ
մանրակրկ
մասնակցեցին
գերեզմանոցում
լեռնաշխարհում
նախապատրաստական
##str
Թի
##rest
##ոտոն
##ոցին
ծնե
1825
List
Բենջ
Մանս
Տրիպ
անզգ
խուզ
հացի
սենս
##րադարձ
Լոպես
Մեխիկ
Մեքեն
կրծքի
մեջքի
պատմա
##ածնային
Report
մեքսիկ
հանձնվեց
ստորջրյա
վառելիքի
Ֆիզիկական
վերարտադր
աստվածաբան
լեզուներից
Պրոֆեսիոնալ
հանգամանքին
սպիտակամորթ
Ռումինիայում
##isk
##ный
Դիք
Կիտ
Ղափ
վիթ
Դրեյ
Էմիր
Ֆեռն
վարս
##ությու
Հրազդ
ազնիվ
ծնվեց
փաշան
քաշել
Հոսում
հողում
տարուց
փուլից
Ալֆոնսո
ձեւական
Խաչատրյանի
երկհարկանի
Միջնադարում
Э
##day
NT
Boy
Հաթ
Վեդ
աթե
խեժ
##ուման
Եդես
Հիմա
օրից
##լինում
Պարագ
արտաք
դիմակ
Ջեյսոն
պատանդ
Ավստրիա
Ծովային
երկուսի
կարգախոս
փոխարինող
Ալեքսանդրը
Կամչատկայի
աստվածաշնչ
երիկամների
տիկնիկային
աղքատության
Իռլանդիայում
կարողությունը
ջերմաստիճանում
##EC
##ՆԿ
##min
կզ
##ելիչ
##ապատվ
Գրիֆ
Մյուր
ծովախ
պանիր
Վիրջին
աղավաղ
սենատոր
քրդական
Էրեբունի
Հրապարակ
գործելու
հայրական
որակական
Ուրուգվայի
շրջանակում
Ստամբուլում
առասպելական
գտ
##ible
##oday
Զեւ
րդն
stat
##ահավատ
##ոսային
Royal
ճահիճ
Տասներ
Գեներալ
հարկերը
ձեւերից
վայրերը
վիրուսի
օրենսգր
անկյունը
Նախիջեւան
ակումբներ
էլիպսաձեւ
կինոընկեր
վերլուծական
##MD
Х
OS
Դո
փր
##բուր
##ոնար
##վալդ
Յար
1813
Page
Աղաջ
Վերա
խայթ
պահի
##ենտային
Օսլոյի
Իջեւանի
Կուբայի
Նատալյա
ընծայել
Վանաձորի
ուղեծրին
պաշարման
քառակուս
արդյունքն
ընտանիքով
հանգստյան
պաշարները
Յունայթեդը
ընդհակառակը
գերազանցապես
մշակույթների
քաղաքացիները
յուրաքանչյուրի
##és
−
##cis
##стор
մոխ
##irect
##ոգենի
Orig
Էման
ձիու
աստղերը
լրջորեն
կացնում
արձակվել
ճյուղերը
սպեցիֆիկ
Ֆրանկոնիա
ենթարկված
Վենետիկում
գիտությունը
մթնոլորտում
Հովհաննիսյանի
Էտ
Մե
##vers
Ռոկ
Fall
about
երաշտ
էսքիզ
կեղեւի
շատերի
##աթթվային
գիտելիք
համերգը
տաղավար
Եգիպտոսը
ատրճանակ
զինամթեր
ընկալում
Նահանգներ
ամենուրեք
հեռացվում
երկաթուղու
հավելվածներում
##ugh
##լիդ
Խն
##ոնգի
Ամպ
Վեյ
##ացնեն
##ումին
Սցեն
արու
դժոխ
սիստ
հետեր
##ակալում
Հերակլ
##իզիկական
##օրգանիզմ
Digital
համախոհ
միացման
Մրցաշարի
Տոլստոյի
հոգաբարձ
վաճառվեց
Մանուկյան
հանձնվում
նախագծում
պատասխանը
Մամիկոնյան
ավանդույթը
մատուցվում
Մոտավորապես
Պրովինցիայի
Արեւմուտքում
ամենահարուստ
մեխանիզմների
Հարավաֆրիկյան
գերմանացիները
##ձոր
##յազ
650
Sol
##եդարձ
տերը
Sound
Դուգլ
Նաիրի
դատավ
##usiness
Սինգլը
արարած
կտրում
կարծիքի
համերգի
շատրվան
Հնագույն
առաջադեմ
##ատեսակները
Production
հիշատակված
անկախություն
պատկերասրահը
##ids
го
Իկ
բզ
##ոմոտ
Ընկ
Ռոշ
##եմյան
գենդ
ալկալ
ամերի
##ատախտակ
Հենրին
Պավլով
եվրոյի
շահերի
##անտաստիկ
Պարզվում
Ստյուարտ
վարքագծի
ամրապնդման
էլեկտրաէներգ
ցանկությունը
##so
##աբաղ
##ուքի
Hen
Յաս
##ոգլիֆ
##անդակի
##աքիլիս
Դատար
խաղաք
միակն
շոուն
գունդը
հրավեր
ձայներ
Պուերտո
դպրոցից
միջուկը
պարզում
Կալվադոս
խորհրդով
Hollywood
Կիրառվում
Հունգարիա
նախագծվել
ընկերուհին
հնդկացիների
պատկերներով
սարքավորում
լարվածության
լուսանկարների
տրամադրության
##erb
##աթե
em
Օշ
##ease
##սկան
Jun
Ամս
##ittle
Բրեյ
Պարի
օրհն
օքսի
ասեղն
գրուն
դարին
կերամ
##անդային
Եվրամի
Հասուն
Վալենս
այրման
հեծյալ
հիմնեց
Մոցարտի
արձանիկ
որոշվել
բժիշկները
ունեցվածքը
տիրույթում
եղանակներով
համաձայնագրի
ուսումնարանի
վարկանիշային
գործընթացները
բնակավայրերում
կոնսերվատորիան
սարքավորումներ
##79
##red
##եխտ
##զան
##հալ
Մթ
##ածախ
pop
Պայ
##աթուր
Լոմբ
Վալդ
գերդ
գերհ
հասկ
հապավ
##ուրային
##պատվաստ
Ադրիան
Նյուրն
մոդուլ
վերագր
մասնիկի
Դյուսելդ
Սոկրատես
թշնամուն
ժառանգել
ճգնաժամը
սկավառակը
աստղադիտակ
աշակերտները
Երաժշտության
հատկանիշներով
դժվարություններ
##ta
##ֆրի
pe
##pect
խառ
Turk
Պահպ
մոսկ
Բանակ
Գյուն
Իրտիշ
նախալ
Գրոսու
թռիչքը
միանձն
ուղերձ
դանիացի
մեքենայ
սրտխառն
##անյութերը
թղթադրամ
պատմվում
Գիտության
քաղցրահամ
աջակողմյան
խոսակցական
շախմատային
պայքարելու
դիֆերենցիալ
Կալիֆորնիայի
հիշողությունը
##ԵՏ
э
##iff
Mem
Աղթ
Զախ
Վիզ
##erlin
##անդրո
##անվան
##ափայտ
##խրուն
##ուկես
Phys
Երազ
ներհ
##ացանցի
Liter
Story
Գեղեց
դեպքի
Columb
անալիզ
լցվում
խորտակ
մոնտաժ
##ավորմանը
գիշատիչ
Աշտարակի
բեռնատար
հանրահաշ
ձեռնարկել
քաղաքներն
Ամստերդամի
կոմպոզիցիայի
անողնաշարավոր
Բեմ
շեր
քթի
Beat
##ահովիտ
##ասիայի
Գանձակ
մերժեց
միտում
սկսնակ
սյուժե
քարերը
անհապաղ
հատակին
վարելու
սրտամկանի
ուսուցումը
համալսարանն
հաստատումից
հատկությունը
լեզվաբանության
##án
##ացց
##դար
##դոր
##ույկ
gen
կտա
Խոսր
Կարա
Ջուն
Էկվադ
Սմիթի
դեպքը
##ակայանը
##ենինյան
խոցելի
մարտից
ամբիոնը
վարպետի
Ջուզեպպե
աքսորվել
դիվիզիան
խորանարդ
խորհրդին
ռեստորան
ծաղիկների
Կենդանիների
Հունգարական
դասընթացների
Սահմանադրական
հետազոտողների
ցուցահանդեսին
##բը
##cha
##զաս
##րոլ
##ange
##ning
Mel
Արշ
Պոչ
Ֆոն
##cript
##osoph
Բուզ
Մայն
բարկ
ժեստ
հակաբ
Շիրվան
մտադիր
Ստամբուլ
պիեսները
սկավառակ
տարեդարձ
օրենքներ
անվանելով
արտադրված
ընդլայնման
խմբավորման
Անկախության
ճանապարհորդել
##omm
##rol
##ites
##urch
##ոմեն
Նեֆ
##եսյան
Բանդ
գտան
##ոիդներ
Նկարը
ճապոն
ուլտր
ռումբ
կետերը
հետեւի
նավաստ
##արձակման
Ջոնսոնը
գյուղեր
խաղերից
հարկերի
սենյակը
սերմերը
Թուրքմեն
ժամանակն
Թողարկվել
եղջերավոր
փառատոնում
անբարենպաստ
աշխատանքում
սփյուռքահայ
օվկիանոսում
դեղամիջոցներ
վիրահատության
աշխատությունում
համաձայնությամբ
##ԵՖ
##ԻՆ
էվ
##ելեն
##ոզով
##ովնա
##ռելի
mod
Հղի
##other
##ամարհ
1100
Վիսկ
##ոսյանը
North
Պատվո
Օլիմպի
Եվրոպան
նրբագեղ
ամենաազդ
բռնագրավ
նավթային
պատկերով
իմունային
##օվկիանոսյան
կիսահաղորդ
կինոնկարում
նվաճումները
##զիի
Թթ
##rael
131
hts
ԱՀԿ
Պիլ
Հարդ
խանդ
խանի
կլան
##ազյանը
##ապարկի
Իրանը
Նյուք
բաղնի
չհաջող
Տրետյակ
մնացածը
Արսենալի
թաքնվում
հետադարձ
մենախաղի
մեծություն
արգենտինացի
Վենեսուելայի
սահմանակցում
վերադարձնում
##ba
##որե
##ամիի
##ատից
270
Cro
Ռեկ
##րոմատ
Բանտ
Հնում
Մարիո
արեւը
Պերուի
Սփյուռ
վազում
օրիորդ
##ավորումն
Փենսիլվ
հիվանդը
Արածանիի
ածխաջրած
Հակոբյանը
Միջնակարգ
աշխարհամարտի
##կլ
##ավթ
##ոզա
da
մշ
##iver
##օրոք
Afr
##aking
Cour
Զեմո
թութ
##իանոսի
##իկյանի
անհար
թողած
գայթակղ
գործուն
թաքցնում
Բնակիչները
զարգացումն
##արարությունը
մայրաքաղաքն
պատերազմներ
գերեզմանատուն
զգացմունքները
ուղեկցությամբ
դիմադրությունը
ընդունելության
##զել
##վառ
See
##ընկեց
Game
քարից
Comics
կազմից
մզկիթը
չարաշահ
փուլերի
արհամարհ
ուղիները
անվանեցին
հայության
ձեւաչափով
տեղեկատու
թատրոնների
քայքայվում
##46
##86
##zy
##եսա
Del
Kar
Մախ
Շեֆ
Քիշ
Ֆաթ
##ափայլ
##րկուտ
Բաստ
Կտակ
Յուտ
բետա
##ովաննի
Տեխաս
ափերի
կույս
States
Աննայի
Նեապոլ
դիսերտ
փայտից
Կամուրջ
այգիներ
արտահոս
թշնամին
##եկուլային
հրեաները
##տանգության
Անհատական
գիտակցում
գրանցվում
էթնիկական
թոշակառու
քարտուղարի
կատարողների
նկարահանվելու
##ED
##շն
##ԻԱՀ
##iana
##ակաց
Բիբ
##ատուի
Մաքք
##ադային
ագրեգ
կտրել
պղինձ
Երկաթե
Պատանի
էստրադ
շքերթը
սրբերի
վերնախ
ֆիգուր
##յալներին
Studies
Արքայադ
մարգարե
ծավալում
տարրերից
##ադրությանը
մետալուրգ
վերջանում
գումարտակի
ունիվերսալ
Սպենդիարյանի
հանրակրթական
պատմականորեն
վերահրատարակ
ճարտարապետների
##IF
##arly
Բեզ
Ցող
##ակետը
Աճառ
Ծովի
Յանգ
իմաց
##ոլների
Անտիկ
ասամբ
սերնդ
##յանները
ռեժիմը
փաստեր
ուռուցք
պահանջով
պատրաստի
ճյուղերից
Սինգապուրի
բնակարանում
հավասարաչափ
##yan
Տա
թզ
##ադեն
Rob
med
Սատ
սըր
##եւտիկ
Սուբ
հռետ
պարը
Արեւի
Քոլին
թիթեռ
ինչին
ցիկլի
##ապտույտ
Համլետ
մասնաշ
Բուժման
պտղատու
ռեակցիա
սնունդը
##րաբանական
original
##ա
##ն
##ո
##ր
##ե
##ի
##ւ
##մ
##կ
##տ
##յ
##վ
##ս
##լ
##թ
##հ
##ց
##ը
##դ
##գ
##,
##է
##ղ
##ք
##պ
##բ
##ծ
##։
##շ
##զ
##ռ
##խ
##1
##ջ
##չ
##0
##e
##-
##Ա
##:
##2
##9
##a
##i
##ձ
##ժ
##՝
##Հ
##փ
##)
##(
##r
##o
##.
##n
##Մ
##t
##s
##«
##»
##Ս
##ճ
##8
##ֆ
##l
##Կ
##3
##5
##Բ
##4
##Ն
##օ
##6
##7
##Գ
##"
##u
##d
##c
##h
##Վ
##Պ
##Ե
##Դ
##m
##Լ
##Ռ
##p
##Ի
##Տ
##g
##Ֆ
##f
##I
##y
##Թ
##S
##Ո
##/
##A
##Շ
##Ք
##Խ
##C
##b
##Է
##Օ
##w
##v
##T
##M
##B
##Ջ
##`
##k
##P
##Չ
##D
##N
##Փ
##R
##Յ
##Զ
##L
##E
##H
##F
##G
##V
##W
##Ժ
##Ը
##O
##–
##%
##X
##а
##J
##z
##о
##и
##Ծ
##е
##K
##x
##U
##—
##н
##Ց
##р
##'
##Ղ
##_
##Ճ
##с
##т
##Ձ
##Y
##՛
##=
##л
##j
##в
##к
##;
##]
##[
##Q
##°
##’
##д
##֊
##&
##м
##q
##é
##я
##Ւ
##у
##+
##|
##п
##Ր
##С
##?
##г
##Z
##й
##՞
##ü
##ы
##з
##ь
##б
##ö
##А
##!
##М
##ч
##В
##П
##К
##>
##х
##á
##“
##ó
##ц
##Н
##Р
##í
##И
##Т
##<
##О
##”
##ф
##$
##•
##ä
##ж
##α
##Б
##Г
###
##×
##Д
##ı
##ш
##ю
##Л
##−
##ç
##՜
##Е
##ا
##è
##ā
##}
##*
##ο
##ñ
##Ф
##э
##‘
##à
##ς
##β
##ρ
##Э
##Х
##λ
##ν
##μ
##У
##З
##՚
##š
##ՙ
##ل
##ú
##ε
##ι
##τ
##щ
##ş
##„
##ː
##æ
##γ
##→
##É
##ø
##ё
##σ
##ر
##ł
##́
##′
##π
##å
##ə
##~
##č
##κ
##ë
##Ш
##Ч
##£
##ن
##م
##ß
##ī
##Я
##―
##ć
##Ö
##â
##·
##⁄
##η
##ي
##ğ
##δ
##ό
##ē
##ō
##و
##Ж
##ί
##ˈ
##İ
##ã
##ά
##Ц
##د
##φ
##^
##ê
##ی
##Ю
##›
##ω
##€
##±
##‹
##ა
##ب
##י
##{
##ი
##Δ
##ū
##س
##υ
##@
##ô
##ه
##θ
##ъ
##ו
##§
##ž
##\
##ت
##Á
##χ
##Ä
##¬
##ę
##ă
##ר
##î
##ा
##이
##Ü
##і
##ة
##ń
##ع
##̊
##έ
##ή
##ე
##ś
##Ç
##ύ
