[PAD]
[unused0]
[unused1]
[unused2]
[unused3]
[unused4]
[unused5]
[unused6]
[unused7]
[unused8]
[unused9]
[unused10]
[unused11]
[unused12]
[unused13]
[unused14]
[unused15]
[unused16]
[unused17]
[unused18]
[unused19]
[unused20]
[unused21]
[unused22]
[unused23]
[unused24]
[unused25]
[unused26]
[unused27]
[unused28]
[unused29]
[unused30]
[unused31]
[unused32]
[unused33]
[unused34]
[unused35]
[unused36]
[unused37]
[unused38]
[unused39]
[unused40]
[unused41]
[unused42]
[unused43]
[unused44]
[unused45]
[unused46]
[unused47]
[unused48]
[unused49]
[unused50]
[unused51]
[unused52]
[unused53]
[unused54]
[unused55]
[unused56]
[unused57]
[unused58]
[unused59]
[unused60]
[unused61]
[unused62]
[unused63]
[unused64]
[unused65]
[unused66]
[unused67]
[unused68]
[unused69]
[unused70]
[unused71]
[unused72]
[unused73]
[unused74]
[unused75]
[unused76]
[unused77]
[unused78]
[unused79]
[unused80]
[unused81]
[unused82]
[unused83]
[unused84]
[unused85]
[unused86]
[unused87]
[unused88]
[unused89]
[unused90]
[unused91]
[unused92]
[unused93]
[unused94]
[unused95]
[unused96]
[unused97]
[unused98]
[unused99]
[UNK]
[CLS]
[SEP]
[MASK]
ప
##్ర
.
##ని
##ర్
క
వ
స
##న్
మ
##లో
,
అ
##ార
##ిం
##ాల
##స్
##ది
##్య
##ను
చ
##క్
##లు
##రి
##కు
##గా
త
ప్ర
##డు
ఉ
##ించ
ర
ఆ
##ల్
##న్న
##ట్
గ
##ారు
ద
న
##డి
##రు
##ాయ
##త్
బ
జ
వి
##కి
##తు
##టి
##ంది
ఇ
##ంద
##తి
##ంలో
1
##యు
"
##ంత
##లి
##ార్
##ము
##ిన
##ండ
##ామ
##ాని
చే
ల
##ంట
##ద్
##ంగా
ఈ
##ప్
##ాలు
శ
##ాయి
స్
ఎ
భ
సం
##పు
మరి
##త్ర
ని
##ాడు
మరియు
##వి
##ాన్
##ాన
)
(
##ైన
2
ఒ
##ింది
##ిక
##వు
##వా
##ష్
##డ్
##గు
##క్క
##టు
##నే
##స్త
##లా
##చ్
ఉన్న
##ానికి
హ
ఒక
##గ్
-
రా
##సు
##దు
య
##క్ష
గ్ర
ను
##తో
##ేశ
##స్తు
సమ
##ంచ
##ారి
కొ
##చ్చ
##రా
##ండి
##్యా
లో
##్వ
##సి
చె
19
##ాన్ని
పా
20
##డా
ఫ
##ందు
##మైన
##యా
ము
##మ్
##గి
##ప్ప
గ్రామ
##లను
ఏ
##ెం
##ాం
##ిల్
##ట్ట
##యం
##త్త
లే
##యో
గు
##మా
చి
కూ
##ద్ధ
మొ
వా
##ళ్
ప్రా
##ద్య
##రించ
##బ్
నుండి
##ట్ర
##కా
##మి
##త్య
##స్థ
##ాల్
నిర్
కా
పె
##రణ
##దా
ఉంది
పరి
##ాగ
##ొక్క
##ారం
కు
తె
##వే
##ూర్
##న్ని
##ద్ద
కో
##రం
వ్య
పు
##ధ్య
/
యొక్క
సి
##నా
మీ
##్రి
అనే
##మె
##టీ
##ంధ
వె
:
మా
సా
కూడా
పో
##్రీ
కి
##లకు
##డం
##ాలను
వే
ఉన్నాయి
##పా
##లలో
##ిత
##ేవ
##ించిన
##జు
##వం
##ారా
##కో
##లే
డ
స్థ
##వాత
200
##ంద్ర
##ీయ
##ీప
ట
##పో
##ప్ర
##ల్ల
కలి
##ంతో
##త్స
##చి
అయ
పే
##రో
##క్కు
వీ
కే
5
ఉంట
##ించారు
పొ
ఇది
##ాలలో
తన
చేస
##చే
##ళ్ళ
##కొ
##జ్
##తా
##రీ
##ంప
##యన
##ింగ్
##ప్పు
నా
ఉప
##ఖ్య
##టర్
##ంగ
##దేశ
##నీ
##్రా
దీ
గా
##ంచి
##చు
3
##ఫ్
అత
##ారణ
తీ
##బడ
##వర్
మార్
చేయ
రాజ
కార్
##సం
##ంటి
అను
##శాల
##స్తుంది
భార
సు
##తుంది
ది
మొద
##తం
##ించి
##పి
##రకు
అని
సమీప
వై
ద్వ
##ేష
బా
##డిన
భా
ప్రభ
రో
##్రమ
జిల్
##య్య
10
##మ్మ
శా
##ండ్
##ర్శ
##ధాన
##కర్
##రంలో
వచ్చ
##an
##న్నారు
##నం
ప్రాంత
##ధిక
ఉండ
కాల
##యోగ
##ూప
##లీ
అవ
##in
##రుగు
##హి
##డానికి
ఘ
##భి
##్యూ
యు
వ్యవ
డి
##ెట్
స్వ
##ుత్
##యన్
వారి
తరు
దూ
##క్కువ
ఇత
జిల్లా
##లం
##ంటే
201
##ధి
##ందిన
లేదా
మూ
##ించాడు
తి
ధ
భారత
మి
కేంద్ర
##లోని
##గ్ర
##మే
దీని
##జీ
నీ
##స్తారు
##కీ
##er
4
##ెస్
##ేక
##బా
ద్వారా
తరువాత
పి
##ట్టు
ప్రక
##సుకు
శి
##చ్చు
'
##ష్ట
##ాలి
ఆర్
##ించింది
##పై
ఆయన
సాధ
##ుంది
##జా
దేశ
అంత
చిత్ర
నే
##ల్లో
ప్రతి
##మీ
##గిన
##ించే
జా
##వత్స
##ులు
##ెక్
##ెన్
విశ
0
##ష్ణ
తెలు
##త్తి
సంవత్స
##స్త్ర
##on
##ణి
##డ్డ
##బంధ
t
##క్తి
వ్యా
##లతో
##ష్ట్ర
సహ
##యి
జరి
##ూరు
ఆమె
సామ
##జి
##లన
##బడింది
##దే
##కాల
##సిన
##ట్టి
##ర్మ
పై
కళ
ప్రభుత్
సె
జీ
##ప్పటి
##స్క
##ందుకు
##కం
పని
రె
మధ్య
##న్య
ష
ఖ
##ar
స్ట
##భా
అధిక
గ్రామంలో
చెందిన
శ్రీ
##ర్త
క్
##ప్పుడు
##బడిన
##ాలకు
##యంలో
##ాలా
##ీక
ఇం
##ండా
మహ
6
ఐ
నుంచి
##ద్ధి
##at
అభి
ఓ
##ంబ
ఆధ
మె
##ెండు
సంస్థ
పద
##es
రాష్ట్ర
కార్య
##షి
నిర్వ
##ట్లు
##రించి
##వచ్చు
భాగ
దూరంలో
సై
ప్రధాన
##ద్ర
ప్రత్య
పేరు
##ల్లి
##కే
##వరి
పూర్
చూ
ఎక్కువ
##స్తున్న
రెండు
##తులు
##క్షణ
మే
##ుడు
ఏర్
సిని
కలిగి
ఉంటుంది
గ్రామం
##ించు
##సా
18
వంటి
A
S
##ేషన్
భూ
##he
కొన్ని
##టం
##తున్న
##బు
7
##or
##ింద
పాఠ
##్యం
అర్
##ాల్లో
;
##నూ
నగ
సౌ
విద్య
##మాణ
గో
c
వర్
##క్కడ
##al
##en
##మిక
దా
బి
ప్రారం
##శా
##ంత్ర
రి
చెప్ప
##టో
జన
##రే
మండ
##రాల
చాలా
రచ
వు
ప్రారంభ
8
##హ్
##కూ
C
ఇతర
##మో
విజ
##ుల
కళా
##శ్
రై
అనేక
ఉత్త
సూ
క్ర
సంబంధ
##తీ
##ంటారు
##వులు
##వల
దాని
ఉపయోగ
199
##తీయ
##వృ
రూప
వరకు
##స్తూ
##వ్
##ములు
p
కేంద్రం
I
##గం
అతని
##పోయ
సమా
ఆఫ్
##బడు
##ములో
##కుండా
##టా
##పంచ
వారు
9
అయిన
##కులు
అంద
పర్
##దర్శ
]
సంఖ్య
##ారణంగా
##క్స్
పార్
##ణా
మొదటి
##ీత
ప్రజ
##క్రమ
%
[
పెద్ద
కృ
##ామి
తొ
పరిశ
##పె
##సాయ
##ంలోని
పాఠశాల
నిర్వహ
##క్షి
తెలుగు
సర
##భ్య
ముఖ్య
##ెడ్
##is
తా
ప్రపంచ
కథ
##డే
అందు
##ానం
వాటి
సినిమా
నె
అన
M
మాత్ర
కోసం
##ార్థ
చేశ
##ితే
##ic
మంది
చేసిన
##ెల్
##గే
ప్రభుత్వ
##వీ
విధ
##క్ర
##త్వ
తర్
s
##ానీ
భాష
##ోర్
##వేశ
##న్స్
##త్తు
o
తో
సౌకర్
మీద
##న్నాడు
##it
##బ్బ
##ాప
P
##తన
గుర్త
లా
న్య
తర
పాటు
రోజు
అత్య
##గొ
##పే
##లైన
పట్ట
హై
సర్
వ్యవస్థ
##ట్ల
ఉత్
ప్రత్యేక
##పర
##గ్గ
##కోవ
##వృద్ధి
##లై
వైద్య
##ోధ
T
మో
ట్ర
లోని
చిన్న
విష
##భాగ
##మారు
ఉండే
##బరు
కె
మర
##సీ
పాల
##ed
పొంద
తర్వాత
వద్ద
కల
దు
##బ్ద
##న్నా
h
రెండ
##వన
బ్ర
B
##ుని
తెలి
##సే
##త్రి
##ంగ్
నిర్మ
##ండు
పూ
##పాటు
##మై
##వాహ
విశ్వ
రే
సాం
##కర
తయ
D
##ప్పటికీ
విస్త
అభివృద్ధి
రామ
అమె
##వారి
##om
తమ
##ారీ
గ్రామానికి
జూ
##ంధ్ర
శాస్త్ర
w
దేవ
##స్ట్
సో
ఆల
##బడ్డ
##త్రిక
అతి
వృ
##స్సు
##ణం
మన
బ్యా
అమ
అయితే
##రిగి
of
##ెంట్
##తంగా
##as
##వర
అతను
యూ
##శం
##దాయ
##ెర్
##స్తున్నారు
అమెరి
##టక
##యర్
##బి
198
##బడి
##తూ
##స్య
##00
##ించడం
సంగ
తే
##బర్
##ాలని
ఉంటాయి
ప్రకారం
##దీ
పాత్ర
ముందు
మొత్త
వలన
మై
సంద
##ముఖ
ఆరో
అం
సీ
యుద్ధ
మరణ
##ల్ప
వ్యవసాయ
కని
లేదు
##త్మ
the
పూర్తి
ఉత్ప
##ింపు
##జ్య
ఫి
##గో
##కుడు
##స్ట
##ంటు
##తాయి
సౌకర్యం
##న్మ
క్రీ
##ాజ
కానీ
R
##స్తాయి
నియ
##ాలయం
ఉద్య
##ర్య
##వ్వ
గొ
##ఫీ
##ర్భ
##హార
15
##పాల
##న్ను
భారతదేశ
సమయంలో
##ట్స్
దక్షి
##పూర్
##హా
కాం
అది
పర
##లువ
##తారు
##వుల
ఫ్ర
##తిక
పనిచే
##గ్య
##ర్థ
విజయ
శతా
ఆంధ్ర
##లుగా
మాన
##తుల
##ion
##లంగా
##థమిక
ఉన్నారు
##క్త
##గల
##సన
##దల
ఒకటి
బ్రి
గురించి
ఏర్ప
అవస
in
అలా
ఆధార
##వ్య
దర్శ
రహ
##లె
ప్రదేశ
12
అన్న
పలు
##గ్రహ
##మని
ప్రస్తు
ప్రాథమిక
అస
ప్రదర్శ
##విధ
వెళ్ళ
జనా
నీటి
##స్వ
U
##టానికి
తీసుకు
తిరిగి
##ైనా
##జ్ఞ
##మాన
##తిని
##and
197
N
##ంటర్
##టుంబ
ఇక్కడ
##కార
00
##పాద
వీటి
నిర్మాణ
కళాశాల
విని
##ోన్
##ొక
##ించబడింది
17
##రిత్ర
మూడు
##నలు
##ద్దు
##ల్డ్
##విత
కాని
##పతి
##శు
##కృ
##ంథ
కృష్ణ
అధ్య
కుటుంబ
సరి
##ంచు
##స్కృ
గణ
##డంతో
పేర్
##ాలయ
##హ్మ
##రాలు
మాత్రమే
##చార
బు
మండల
కంటే
డా
జనాభా
##వరణ
11
జరుగు
##ేవారు
##లేదు
##షన్
##ద్యా
##దారు
##గింది
ఊ
ఇచ్చ
అనేది
నట
##తే
H
యా
##ాలతో
చేసి
##le
##ర్చ
ప్రభా
##డిగా
దక్షిణ
తక్కువ
##నో
చేసుకు
జాతీయ
బాల
జరిగిన
కను
అన్ని
జన్మ
##నికి
##హు
ప్రవేశ
##క్ష్
దీనిని
కంప
ఉత్తర
ప్రముఖ
##ur
##ెలి
##వంత
##నె
b
చరిత్ర
నూ
196
##టర్ల
##కాలు
##రావు
##ించడానికి
##్యు
వచ్చిన
##ిల్ల
విద్యా
ప్రే
##నకు
శతాబ్ద
హో
##ేశ్వ
##am
న్యూ
టి
##ంగు
##కొని
!
క్ష
##ళ్ళు
ఆరోగ్య
విధంగా
కొంత
విడు
##ామ్
చేసే
##బ్ర
ఉత్పత్తి
భావ
##tt
కిలో
ఎన్ని
##డీ
##ండ్రి
##వారు
f
కొత్త
చేశారు
E
##ింప
##జన్
లి
పాట
##శి
##డుగు
గ్రంథ
చు
G
##త్వం
##కుని
మహా
##మార్
లై
రాజు
m
##కారు
##విద్య
ఎస్
##తిలో
##ర్ర
##ర్చు
అంతర్
సేవ
స్ప
విధాన
నాయ
పార్టీ
కార్యక్రమ
##కున్న
##నల్
16
మొత్తం
##సై
స్థి
సరఫ
కొరకు
వ్యాప
నాటి
##కుల
సము
రంగ
వర
##బడుతుంది
##లిం
##్లా
##ైవే
##మును
=
##ీన
##ళ్ల
195
##ముల
సభ్య
##లోకి
కారణ
స్థాప
సిం
##ీకరించ
స్థాన
##ందని
a
వార్
సహాయ
పురా
వార
##రువు
పరిశోధ
##స్తాడు
ప్రభుత్వం
కాలంలో
##రాజు
##స్థి
##ల్వే
##స్ట్ర
ఎన్నిక
కొన
d
##వై
##లిక్
##ణు
ఛ
##్రియ
##వాస
##యత్
–
సాధారణంగా
సామాజ
##ధు
వ్యక్తి
సామాజిక
తయారు
##గణ
ఇలా
దృ
##ాయు
నగర
##వాద
వున్న
##భవ
అంటారు
ఉదా
శక్తి
##il
సంత
వివిధ
##టకు
14
వస్తు
అండ్
స్థాయి
##నాడు
సంగీత
##ాంత
##కార్
నాలు
##దారి
పంప
వీరి
రైల్వే
సే
##రియా
##లియన్
##దని
ఆర్థ
##ాన్య
కారణంగా
కిలోమీ
కర్
పద్ధ
దే
వల్ల
పాల్
##నరు
##మూ
ఇవి
##షణ
బో
కలిగిన
రెండవ
ప్రకట
పుస్త
ప్రైవే
##హిత్య
194
అమెరికా
##జన
##రంగ
##ల్స్
##ొంద
##డవ
##ింత
##లక
13
మార
మంచి
##ప్రదాయ
F
అదే
000
చేసింది
కీ
##యోగి
##సింది
కాలం
పీ
##ాను
ఇందు
##ent
హె
##స్తే
విశ్వవిద్య
##ంత్రి
##ౌర
అమ్మ
##త్మక
అనుస
##ttp
రు
##ముగా
##బడ్డాయి
##re
##కీయ
బొ
గల
బ్యాం
మొదలైన
##ూర్పు
లె
##శాస్త్ర
##పడ
రహదారి
థ
and
##రిక
సంస్కృ
హింద
ప్రయత్
##స్టు
##ంతు
ఆట
ఏర్పాటు
తండ్రి
##ra
##రూ
##తలు
ప్రో
##సర్
తూర్పు
ఆర్థిక
సొ
##పద
L
##us
ఎక్కువగా
కావ
##ాయణ
రూ
రాజకీయ
బల
అక్కడ
##గ్గు
పట్టణ
##డియో
బయ
రోడ్
ఇంటర్
తల్లి
##శ్ర
##బో
##టన్
పేర్కొ
##ెడ
ద్ర
వినియోగ
క్రమ
##ing
ఇండి
సాహిత్య
రీ
##el
##ol
అవి
హైద
అయ్య
తొలి
సంవత్సరాల
##ానిక
విషయ
వెం
ప్రచు
హి
com
##కట
క్రి
ప్రస్తుతం
వాడు
అంటే
సరఫరా
W
నై
ప్రసి
ప్రజలు
##రుకు
లక్ష
జరిగింది
సిద్ధ
2009
##తాడు
పోష
నిజ
ధర్మ
##et
##హరణ
##ెలు
పోటీ
##సన్
##వాడ
_
అల
##ష్టి
##పల్లి
##ాలుగా
2008
##నర్
?
వీరు
సందర్భ
బహు
తు
##di
##కరణ
జి
ఒక్క
అంగ
##దన
అత్యంత
##జర్
హా
భూమి
పెట్ట
##రాబా
ఎదు
##యే
జీవిత
##గ్రీ
తీసు
##లిక
అక్
##డో
##డిని
##ెంబరు
కలిసి
చివరి
##టింగ్
##జే
తెలంగా
##యిన
పిల్ల
n
తప్ప
##వత
##పెట్ట
విద్యుత్
కుమారు
##తోంది
ప్రాంతం
##మతి
##నై
జో
నిర్ణ
##త్రీ
రాయ
ఇందులో
##బ్లిక్
##యిత
అధికార
25
బీ
దగ్గ
నివ
బె
వాడ
పరిధి
2007
##పరి
##కె
##ినీ
##బాటు
http
పుర
ఉదాహరణ
చట్ట
హైదరాబా
193
సూచ
##వ్ర
కిలోమీటర్ల
లేక
మార్గ
వ్యతి
అవు
యూని
చిత్రం
##తను
##కల్
రాజ్య
కవి
##టర్లు
ఇన్
##ార్య
##కరించ
##వ్యా
##దాపు
శాసన
పశ్
##డికి
పత్రిక
##న్నాయి
భారతీయ
సంవత్సర
##లవ
చూడ
##సాగ
##శ్వ
##లూ
బృ
##ద్ది
నాటక
అర్థ
మత
సముద్ర
వచ్చింది
ప్రాంతంలో
అవకా
తిరు
సంబంధించిన
వివాహ
మహి
##టెడ్
శు
బ్రా
ఉపయోగి
##దులు
నాలుగు
##ఫి
కలు
##un
అప్పటి
నీరు
##ారాయణ
పైబడిన
రచయిత
ప్రయా
వాణి
సుమారు
సృ
##ందం
##పాడు
##రేక
ఆల్
పశ్చి
##లిన
పారి
##మెంట్
##తున్నాయి
ప్రస
##ఫీసు
##హం
చో
##వంటి
##ార్లు
కింది
##పోవ
ప్రైవేటు
నెల
చేర
తెలియ
##చేశ
సాధారణ
##ch
##ri
##ీకరణ
##ఫ్ర
##రుష
టెలి
30
డాక్
ఇవ్వ
##మొ
మండలం
స్త్రీ
దశ
పాల్గొ
##ల్లె
##కన్
అవసర
##నాయ
##ామా
అలాగే
In
విభాగ
’
లభ
##ro
##ప్ట
నది
##మ్స్
దీనికి
గంట
ఆడ
ఔ
పరిస్థి
ఆగ
టై
మూల
వ్యతిరేక
##ెడ్డి
దాదాపు
J
##ంటుంది
##గర్
##రుగా
##ంజ
##ించుకు
చేసు
##కెట్
డిగ్రీ
##నాలు
##జాతీయ
##స్తో
##తమైన
బాగా
##సభ
ఆంగ్
##ేట్
K
##ల్లు
##పూ
సమస్య
కాదు
ఇంకా
##ul
##మన్
సంవత్సరం
వయ
ఈయన
ఫలి
విడుదల
##డైన
ఇంగ్
##దం
వ్రా
##లాండ్
##మయ్య
నిలి
పం
గి
దూర
కనిప
న్యాయ
##తికి
మరో
కాక
##ation
తెలంగాణ
V
చా
వచ్చే
##బీ
2011
మార్పు
##నియా
గ్రా
తీవ్ర
##తల
##రగ
##ెక్ట
##ష్ఠ
చేశాడు
నాగ
ఉష్ణ
2006
పరీ
##టువంటి
లు
##ించబడిన
ఉద్యో
రూపొంద
మహిళ
అంతర్జాతీయ
ఇద్ద
##నిక
జీవ
##మంది
విభ
శ్ర
డె
##చ్ఛ
ఎన్
లాం
##చిన
జిల్లాలో
చూప
వాణిజ్య
##ct
g
##ist
మిగి
##ంపై
##ేశ్వర
వల
చేప
పురుష
ఈమె
##ెనీ
##వేత్త
##ణ్య
వారికి
శిక్షణ
దొ
పొందిన
##టే
##పత్రి
స్వామి
##ించాయి
##రస
##క్షే
‘
##డ్డి
##ికా
కౌ
లేని
##ానా
##ీర్
##పం
నో
మార్చి
##పీ
##న్నీ
పశ్చిమ
##పురం
##స్టి
ప్రజా
ఆలయ
O
##సారి
లీ
##పర్
బస్సు
##ాక్
##ారని
భాగంగా
##లగ
##పుడు
విద్యార్థ
కొండ
##ెర
##ట్లో
##ెను
రంగు
పదార్థ
అందుకు
##యోజ
డే
##మ్ము
వృత్తి
కమ
##్లే
వహ
##దువు
##కిత్స
&
##ంటాయి
అర
192
బ్రిటి
ఒకే
##రించిన
భీ
##పోయిన
నియమ
ముఖ్యమైన
ఇంజ
పబ్లిక్
అధ్యక్ష
కోడ్
ఆసు
కుల
##త్సవ
బ్యాంకు
కంపెనీ
##ంటూ
##గానే
##దేశ్
స్టేషన్
చంద్ర
సంప్రదాయ
##ధాని
శాఖ
##న్నది
##్రో
##దిక
పర్యా
##డని
విమ
వ్యాపార
నమో
##చర్
##ారావు
వం
##ట్టిన
ఉద్యమ
మరొక
కాకుండా
కేవ
ఎత్తు
అభ్య
##వాడు
అడుగు
సినిమ
##ైల్
తమి
పరీక్ష
24
##సిక
##ష్య
చర్య
##ag
|
గృ
##th
ఎం
చెంద
విమాన
కనిపి
పడ
##నలో
మరింత
వచ్చి
లోపు
పెరుగు
గుర్తింపు
##ల్లా
##మున
చేయడం
##పడి
##బన్
సేక
##ండే
##ాన్స్
బౌ
వర్ణ
##బడే
##కృష్ణ
చక్ర
##త్రం
నేను
అక్ష
##శాలలో
##చ్చి
శరీ
జల
##నులు
##జం
జూన్
కాంగ్ర
21
##వరకు
##ణీ
పార
##స్వామి
స్థిర
పథ
తమిళ
సామ్రా
అక్టో
##సె
##కర్త
కొనసాగ
##ునిక
మాధ్య
పురస్క
ఎలా
దగ్గర
##ట్లా
ప్రొ
##వుడు
తిరుగు
ఆధారంగా
##హద్దు
22
ఒప్ప
పిలు
The
##ండ్ర
లక్షణ
##id
##లింగ్
ఆసుపత్రి
బెం
##ధం
మాత్రం
##ad
##క్య
##మైంది
తగ్గ
##రూప
గొప్ప
##పత్రిక
##ళి
ప్రవ
##em
##స్తున్నాయి
2010
కన్నా
##యల్
కాలే
చెయ్య
##పియన్
##ంతరం
గుర్
##ళ్లు
పంచ
##తులకు
##రులు
నిర్ణయ
##సో
జె
అనగా
##సులు
సంపాద
##రికి
##తర
సూర్
##తులను
##వె
వైపు
జనవరి
##రల్
వలె
##సియా
l
స్థానిక
అత్యధిక
##iv
డిస
డై
సెప్ట
##కల
బే
##ద్వ
##షు
సత్య
వాటిని
కేవలం
మాట
##ళిక
మొట్ట
భాగం
##మైనది
##ూర్తి
ww
www
వాతా
##లోనే
##పడు
తల
##గాన్ని
##చన
##న్నో
ఆధునిక
వెంకట
##కంటే
మానవ
హిందూ
##్లో
భార్య
ఫోన్
ఏప్ర
వర్గ
##స్తా
ముఖ్యంగా
సరిహద్దు
ఇంటి
భావి
##షా
##శ్చ
డ్ర
ఉండేది
తాను
##గత
##ంచే
మొక్క
to
పెట్టు
నగరం
చవచ్చు
లక్ష్
##క్కడి
టీ
##ద్రా
రైలు
పరిశ్రమ
##టరు
##ప్రాయ
వాయు
పౌ
నాట
భక్
నవం
అంది
సారి
##ృత
వాతావరణ
అడ
##పొ
##ంతా
100
##రై
##మొద
##ఖ్యా
##ెట్టి
అంచ
##శీ
##యాలు
దో
మిలియన్
వనరు
23
ఆన
రావ
2014
ఏప్రిల్
పోరా
ముస్
##ాయని
కాలు
అమెరికన్
##మాన్
అవార్
##థి
##ించబడుతుంది
శివ
సాగ
యుద్ధం
50
##ంటాడు
జూలై
ఏక
##పోయింది
దారి
ఉద
యునై
##నాథ
##వంతమైన
విలువ
##స్టర్
పర్య
దానిని
గ్రీ
##నాటి
వివ
మొట్టమొద
##వాణా
బ్రిటిష్
రికార్
నాటికి
##um
##భూ
రచన
ఉన్నత
ఉత్తమ
##క్షన్
ప్రక్రియ
##డంలో
హెక్ట
##యులు
##గణన
కామ
ఈనాడు
పాఠశాలలు
##రింగ్
జై
చేయడానికి
కోట
షెడ
అధ్యయన
ఆస్ట్ర
షెడ్యూ
పనిచేశ
e
##ర్స్
విగ్రహ
191
కుమార్
కం
2004
విడి
విమర్శ
సమయ
ఆఫ్ర
##im
##ెన్స్
యునైటెడ్
##ప్రదేశ్
ఐదు
2005
##రక్షణ
##లుగు
ఆహార
##నాల
##దో
కల్ప
##ూహ
చికిత్స
##ర్లు
##వులను
##రుడు
##ter
##నుడు
స్థానంలో
జరుగుతుంది
తొలగ
##ృత్య
##స్తోంది
ఎల
కనుక
గత
పెరి
దర్శక
##రుస
ప్రయోగ
##యోజక
కన
##చె
##ర్చి
##ంతర
##ాయ్
చైనా
రాజధాని
పేరుతో
##ండును
చారి
సంఘ
ఇండియా
మిగిలిన
చదువు
##తంత్ర
నియంత్ర
##సర
##క్కి
##శ్య
ఇతడు
##చూ
##మవు
అంతే
##ఫె
##బ్రవరి
##గిరి
వెంట
##లేక
##రుపు
నమోదు
##స్తవ
ఆది
బ్రహ్మ
##వతి
##కంగా
చేస్తారు
##కేతిక
ఎక్స్
సిద్ధాంత
కోర్
మంత్రి
వేరు
రక్ష
ఘట
చలన
##ిల్లీ
నియోజక
##యిన్
జిల్ల
ఉండి
బాధ్య
హైదరాబాదు
ప్రదర్శన
##ైన్
ప్రజల
పాకి
##ay
అంశ
కాంగ్రెస్
ఇద్దరు
##ములను
ఫిబ్రవరి
కాల్
చేరు
లేకుండా
##ce
##యిర్
కొద్ది
##కాలంలో
##స్ప
ప్రేమ
పురాతన
##చుకు
రకాల
హార్
26
ఆలయం
వున్నవి
మ్యా
శై
సూచి
##శ్రమ
##మణ
##స్టా
##ప్తంగా
పూర్తిగా
సాంకేతిక
28
##చారు
జనగణన
##వో
ఇంజనీ
బహి
జ్
ఎన్నో
##లపై
ఆలో
ఇప్పుడు
ఉపయోగిస్తారు
##స్తాన్
దృష్టి
##చారం
చేత
ప్రమా
జంతు
స్వాత
గుంట
##హిత
##st
##ాంతి
మహారా
పట్టు
ప్రి
కన్న
ద్వీప
షెడ్యూల్డ్
గురు
పథకం
”
##ళ్ళి
గ్రహ
ప్రస్తుత
##ut
##వలసిన
ఆకర్
నూతన
గూ
##చేయ
వారిని
రవాణా
27
అధికంగా
##ేవాడు
##ప్త
వాహ
##ణాలు
పరిశోధన
##ేషను
##లియా
వ్యక్
##డుకు
##ార్క్
రసాయ
##నియర్
##డియా
కనుగొ
##తుడు
చాల
##పెద్ద
షా
భౌ
సృష్ట
##ov
పూర్వ
మొట్టమొదటి
##చింది
##నుండి
వ్యాధి
##ev
ప్రభావ
జ్ఞ
నటు
వలస
##రించారు
లాంటి
నామ
చేసారు
గాంధ
##వితం
##ir
విశేష
లోప
అర్థం
చేస్తుంది
##టల్
దిగు
కట్ట
##కోవడం
ఋ
ఎంతో
##ంక
##ముడు
మారు
అవకాశం
“
##ారో
యువ
##ందరు
ఎంప
##ew
##od
జట్టు
మాధ్యమిక
పరిమాణ
ఘన
##నిక్
నూనె
తేదీ
అప్ప
హిం
##నుక
##గలి
##ోగ్ర
వస
విజయవాడ
##మునకు
కల్
##డింగ్
శాతం
##ౌన్
##న్యా
లిం
చీ
వీటిలో
నగరంలో
40
పక్క
విజయం
##వలన
వ్యవహ
##ించేందుకు
##ానే
నియోజకవర్
ఢ
విదేశ
కుమారుడు
ఆరు
పూజ
##దేవి
చది
పుస్తక
##లేని
చంప
##రించే
##ట్రో
##తున్నారు
అవార్డు
మగ
విశ్వవిద్యాలయం
ఎందు
##డ్స్
పర్వత
నడు
గాయ
ప్రకా
గే
అల్
గణాం
##గ్ని
దేశంలో
##భు
##ింట్
ఓడ
##షిక
హక్కు
జే
జర్మ
##dia
ఉద్ద
మొదల
ఆమ్
##గ్రా
సంవత్సరంలో
##డూ
ఆరం
పంపి
ప్రసిద్ధి
##ేషనల్
2015
గుంటూరు
##ార్లలో
అక్టోబరు
యో
##మత
##op
##పడ్డ
మురుగు
2013
క్ల
గెలు
##టిక్
##సులో
మొదలు
సహజ
కమి
ఆవి
##ంలోకి
అతిపెద్ద
నృత్య
లెక్క
##ంట్
##ర్ల
మౌ
దళ
##ిందని
పశు
వెళ్
ఆక్
పండి
చిత్త
పొందింది
అయినప్పటికీ
##బె
సార
అఫ్
##ింటి
v
##ers
వేగ
సమాచార
##సరి
సహకార
అధి
మార్కెట్
గంటల
ప్లా
##రక
##వారం
ఉష్ణోగ్ర
##పూర్ణ
##ఎస్
స్వా
##ారులు
పరిచ
స్వాతంత్ర
సంఘం
ఆస
##లోను
భారతదేశంలో
గౌర
చుట్ట
వారం
పరిపాల
గృహ
తరగ
కష్ట
వీర
##పథ
కంప్యూ
##ig
కారణం
##షధ
రోడ్డు
##జెక్
వివాహం
పైగా
##నెట్
##చిత్ర
వీటిని
నడి
అందుబాటు
అభిప్రాయ
అడ్
అనుసంధ
##ెస్ట్
రక్త
స్టే
##లోనూ
దానికి
##రామ
పోలీ
బై
##త్వంలో
వస్తుంది
చక్క
వరుస
అమలు
మద్ద
##మెంటు
ఆచ
ప్రయత్ని
ఆగస్టు
##బుల్
భూభాగ
నమ్మ
ఎంపిక
మురుగునీ
నవల
##టరీ
ఎంత
టెక్
##దిగా
నవ
దేశం
స్కూ
విడుద
బ్రాహ్మ
వెళ్ళి
మైద
అర్జు
సామాన్య
ఇదే
క్షే
2001
ఉపా
అప్పుడు
చెబు
పిలుస్తారు
##దేవ
తరచు
ఎదుర్
హెక్టార్లలో
ఆరంభ
చేతి
ఉదాహరణకు
ఫో
త్రి
బెంగ
అవసరం
##యుడు
##ub
##ృతి
నిర్వహి
##తె
కోల్
అందులో
అధ
డిసెంబరు
##జ్ఞాన
##కాహార
##ెంబర్
బంగ
నారాయణ
బంధ
##కొండ
##ab
స్ట్ర
##కల్ప
కృషి
బ్లా
ప్రదేశ్
స్వతంత్ర
కమ్యూ
ఆఫీసు
పైన
##బిత
అతడు
నౌ
ముఖ
##డవు
వరకూ
##ువు
ముద్ర
2000
భర్త
##సిస్
##ర్ప
జయ
నిర్మాణం
సమాజ
ముస్లిం
##డికల్
గ్రామాలు
##దవ
సైన్స్
##వచ్చ
త్ర
##ందో
రక్షణ
ఏర్పడ
##ధ్యం
##ందే
ఎల్
మూడవ
కృష్ణా
శతాబ్దం
నిమి
నవంబరు
సోద
స్నే
మొదట
భారీ
ప్రమాణ
$
స్వయం
నిర్వహణ
##న్సి
సెప్టెంబరు
సర్వీ
సంవత్సరాలు
##ార్ధ
ఆంధ్రప్రదేశ్
పరిశీ
చెల్ల
లలో
##కలు
వైద్యశాల
మను
##వర్తి
స్టేషను
పది
##tm
##ess
ఉంచ
సమ్
నేషనల్
యూనివర్
ఉద్దేశ
విస్తరించి
##ర్ట్
##నను
సహా
or
ఆంగ్ల
గ్రామములో
ప్రాంతాలలో
##డర్
29
##డాది
ఎయిర్
##గూ
##ళు
ఎడ
పదం
2003
పోషకాహార
ప్రసిద్ధ
జాబిత
రేడియో
లైన్
##ండర్
తయారీ
##రించింది
పౌర
మద్రా
టె
##వుని
##మిది
##ికంగా
సంస్థలు
సిబ్బ
అప
చర్చ
బ్రిటీ
ఆస్ట్రే
##రాజ
##వ్వు
##టెక్
పరిమి
##స్థాన
పేజీ
##ాలీ
##వైపు
రక
పక్ష
అంచనా
ar
##ణ్
బాధ
చేయబడింది
##ామ్నాయ
##ీతం
##సారు
వ్ర
##ములలో
ఫర్
ఔషధ
ఆహ
జాన్
190
నివాస
చేసాడు
ప్రాజెక్
##వరం
చూసి
ప్రత్యామ్నాయ
కాగా
నిర్వహించారు
నిల
సైన్య
మాట్లా
స్టీ
##ించబడ
ఉపగ్రహ
##కునే
ఖా
సగ
వది
మద్దతు
##బైల్
##ింగు
##వల్ల
##బ్బు
##og
సర్వ
ఎందుకంటే
##ఫోన్
పంట
##సెస్
##గానికి
వ్యతిరేకంగా
గాలి
సాయ
చేరి
సామ్రాజ్య
##టంతో
నిర
##ంటీ
ఆత్మ
భో
##జె
on
మేనే
వేయ
దుర్
##లర్
ఇండ
ఏడాది
బృందం
వ్యాస
##ప్తి
సభ
మందు
##య్
##మాని
ప్రభావం
ప్రపంచంలో
##వపే
సమాన
హరి
for
యంత్ర
సొసై
సంరక్షణ
ఎలక్
హీ
##ఆర్
##టివ్
నమూ
ప్రోత్స
ఇతని
2016
పంజా
హిందీ
##చో
##ాలూ
కలిగ
##ak
మారింది
ఇంజనీరింగ్
##కోవడానికి
ఆటో
ఫా
సంస్కృత
##కున్నారు
re
క్రై
కొనసా
ఢిల్లీ
##దర
మ్యూ
చెప్పు
##త్తా
పునరు
పిలి
వార్తా
తరచుగా
th
##పరమైన
ప్రతిపాద
##os
##నని
శాసనసభ
జప
ఫలితంగా
##వపేజీ
##వంతంగా
స్క
##విజన్
సంయు
##మూర్తి
##బ్లీ
##ట్నం
ప్రణా
టా
అరు
అగ్ని
సొసైటీ
##రోధ
సింగ్
భద్ర
బౌద్ధ
అయి
##వచ్చును
భారతదేశం
శ్రే
##మంత్రి
కూడిన
ఇంటర్నెట్
as
పద్య
మద్య
శతాబ్దంలో
విం
ఆయు
మార్చ
సంబంధం
##వాతి
శిశు
విషయం
నివే
పోస్టా
పెళ్ళి
##ించబడ్డాయి
##కులను
##స్వామ
సమూహ
వెబ్
పద్
తెలుసు
##జాల
భి
సైన్
మంగ
##కారం
అభ
##ధులు
##రగా
##ూరి
డీ
మొబైల్
పాత
పోస్టాఫీసు
కలిపి
##మిని
##్ల
##ia
చారిత్ర
ఏమి
##వర్తన
##ళం
నరస
##ow
బోర్
దాడి
##ర్థి
ఇంత
కార
రాసిన
##గాడు
##ఫ్ట్
31
సీత
ఇంట
ఇంగ్లీ
##లియ
ప్రయాణ
పొందు
##పల్లె
వంటివి
##డమే
##బట్టి
##ot
##యింది
చేయు
##కారులు
వర్గం
జాతి
అయింది
కార్యకర్త
విభజ
##పాలు
US
##ాఖ
##న్నత
జరిగే
##రోజు
జన్మించాడు
చుట్టూ
ప్రధానంగా
అదన
##రవ
నల్ల
ఇస్
అతనికి
##తృ
గౌ
##రెడ్డి
వెనుక
టు
చేరుకు
భవన
##డె
##ాలయంలో
##ug
ఆన్
క్రీడా
##మన
జు
చిత్తూరు
##త్యా
##గారు
వరి
##గాయి
పండు
నెట్
కొందరు
కణ
##ధారణ
గాంధీ
సార్లు
ఫు
సేవా
సైనిక
పురస్కార
##దొ
నేరుగా
సమావేశ
శరీర
ఐరో
##50
##గులు
##వేయ
##ప్పి
చెన్న
ముగ్గు
##ap
##ించేవారు
##బాద్
అణు
వినియోగదారు
##ప్రాంత
అర్బన్
స్థానం
##సము
వాటిలో
st
హు
##కలా
##కలో
##గవ
క్రిక
ప్రమాద
##బే
ఆర్ట్స్
##క్ష్మ
మ్యాచ్
##యుల
చేస్తున్న
##ట్యూ
వేద
పొడవు
ఆఫ్రికా
ప్రసా
##ండె
##రియ
మంచ
##మల
ద్
ఎగు
##ించబడు
##గర
##స్లో
##దావరి
అన్నాడు
##నిర్
##కున్నాడు
##డై
రాష్ట్రం
##ధా
శిల్
వాల్
##పుల
##ట్రి
Ch
1990
బోధ
బట్టి
##ci
##పులు
##ల్ని
అందుబాటులో
##ంగి
రెడ్డి
క్రింద
కింద
ఏర్పడిన
అనుకూ
కమ్యూని
##యిల్
జాబితా
ఆసక్తి
##ింహ
యూరో
##ెంబ్లీ
##త్రు
##యంగా
నష్ట
##నుల
##చిత
##గ్గి
ఆదాయ
189
కార్యాలయం
2012
సమీపంలో
విధానం
##డుతుంది
చెప్పవచ్చు
అద్
##వెన్
##జ్యం
అసెంబ్లీ
##చార్
##ధ్
##పత్తి
రూపంలో
ఉష్ణోగ్రత
సందర్భంగా
విశ్వవిద్యాలయ
##ాలపై
##దురు
మారి
ఐరోపా
k
##దిరి
వెలువ
ప్రణాళిక
దిన
ఫై
పుష్
స్పష్ట
##తక
కెన
తనకు
వస్తువులు
##చ్చిత
ఉన్నాడు
##ep
##ధుల
2002
నియంత్రణ
రాత్రి
ఒకరు
స్థాయిలో
##చేసి
సంపూర్ణ
##ీణ
##వార
##రిత
సబ్
##ాలే
##పేట
లక్ష్య
నార్
ఇప్పటి
చేస్తూ
##య్యారు
ఉన్నది
##జో
లను
దిశ
మల
సామర్థ
##రె
##స్కృతిక
##సియ
##రించు
పెం
పిలువ
దేవాలయ
##దరణ
##ాయిల
హౌ
ప్రాధ
ఉత్సవ
సందర్శ
సంయుక్త
##పరచ
అన్
##బియా
రసాయన
వంశ
నిర్మించిన
ఆసియా
హైదరాబాద్
తగిన
అంతేకా
##రుగ
శాస్త్రవేత్త
##బూ
##వ్యాప్తంగా
హే
##స్తి
వంద
పడి
గారి
సాంప్రదాయ
##షే
##ండన్
##త్సవం
##గ్రామ
రెండో
ఇష్ట
జార్
##టిల్
నివస
విక్ర
##శారు
గ్రామము
పరిధిలో
##ందరి
గడి
##ణిక
వ్యవసాయానికి
వంట
##ులకు
భు
లభి
పద్ధతి
పున
గౌరవ
##య్యాడు
పరుగు
సంగీతం
##ఫోర్
వరల్డ్
##రించాడు
##ండగా
r
##పుర
##్యంలో
ఉంటారు
రికార్డు
వ్యవసాయం
శం
##ర్ధ
ఇప్పటికీ
##ైవ
##ించటం
##షనల్
భాషా
##దరు
##్యాన్
క్రికెట్
చార్
విశాఖ
సాంస్కృతిక
##ాంగ్
పురాణ
##ెంచ్
##దుగా
##కారుడు
బ్రాహ్మణ
మండలానికి
##డెన్
దీనిలో
గమని
సొంత
ధర
##ించాలని
##ఫు
ప్రారంభించారు
##టిన్
ఖాన్
చై
సగటు
##మార
దేశాలలో
##ఫర్
60
దూరం
అనుభవ
ఆక్రమ
జరుపు
##నగర్
##పోవడం
గుడి
##ామె
ఆస్ట్రేలియా
వినియోగం
##లభ
విష్ణ
వాస్తవ
రాజా
##పారు
##స్థాన్
వేల
గారు
ఉండటం
##గుణ
సభ్యులు
##av
is
ఉద్
దె
భౌతిక
##ly
ఉంటే
శైలి
##గంలో
అకా
పరిగణ
ఇటీ
పాండ
ప్రయో
##ానని
##స్స
##ర్వే
క్వ
##తనం
వర్ష
##్యో
చెప్పాడు
##ate
సమయం
ప్రవహి
చెప్పిన
యె
ట్రాక్
An
హైడ
అవకాశ
బయట
క్రీడ
కాన్
నేపథ
పోలి
##ఫల
బహిరంగ
##దూ
అర్ధ
##మర్
##్యాండ్
లండన్
ఆయనకు
సూక్ష్మ
##ik
సంభవ
దీన్ని
లూ
##త్తం
గాని
1999
టో
ఏరియా
##వర్ణ
##మం
##గుల
##ity
ఆనంద
##న్యు
##లిన్
ఏడు
##దయ
నివసి
##పడిన
ప్రశ్
##ధీ
##పుణ
నాయక
చేయబడిన
వార్తాపత్రిక
+
##ber
మని
పంపిణీ
పాకిస్తాన్
కథలు
అనుమతి
వెంటనే
##హో
వో
సాగు
##కుడిగా
##త్తులు
కాబట్టి
##పిన
##్రు
నిర్వహించిన
##ంభ
పిం
ఆల్బ
మ్యూజి
బర్
చీన
##ేత
##దర్
ఇట
##est
బ్రిటీష్
##ang
పాటలు
పుట్ట
##వలసి
నటి
##సార్లు
కంప్యూటర్
ఇక
##సారిగా
ఇక్కడి
##తులలో
పొందారు
ఎన్నికలలో
జాన
మట్టి
##పోయి
htm
##ద్వారా
పునర్
ఎదుర్కొ
సన్ని
రాజ్యా
ప్రాంతాల
35
##ళీ
##కళ
ఆమెను
##ష్టు
##టిని
పెంచ
##యూ
నిరా
##స్తుంటారు
యే
మిన
##గీ
వేస
కింగ్
గీత
స్థల
సంక్షే
##ముని
ప్రసార
59
ఆప
సోమ
##దైన
చెందు
##ర్యా
##తకు
విదేశీ
స్వీకరించ
మెక్
ఇండియన్
సెంటర్
##ind
గోదావరి
##నగ
##్లూ
అంగీకరించ
కొను
గవర్
##ాత్మక
1980
వయస్సు
చేర్చ
సినిమాలో
త్వ
##్యాల
నాడు
పరిణ
##పూడి
కులాల
దంప
##ద్దీ
##ాడని
క్యా
అలం
ఘటన
##వల్
మాం
##కులకు
గర్భ
జగ
##ాయలు
గుర్తు
క్షేత్ర
తీర
అసలు
##డల్
ఆమెకు
##న్నె
##రాన్
##ముతో
ముగ
పట్ల
##కరమైన
ఫలిత
##ించటానికి
32
##బద్ధ
ద్రవ్య
##పాటి
విప్
##వారికి
##ఫిక్
ప్రతిష్ఠ
ఖండ
మంత్ర
##ary
188
ఫ్రెంచ్
తక్కువగా
నొ
##విగా
##పోయారు
జన్మించారు
నిర్మించారు
##పెట్టి
##ళ్లతో
చేపట్ట
దీర్
India
డాక్టర్లు
వివర
పరిచయం
##రక్ష
కొరి
దూరములో
##ారెడ్డి
St
సూర్య
చేస్తున్నారు
మధు
రోడ్లు
##పణ
ఫీ
##క్రో
తెల్ల
చని
గ్రూ
సల
ఉంటు
##ric
##సింగ్
ప్లే
తెలుసుకు
ముగ్గురు
సంచ
తెగల
పాలకు
##వాసం
జిల్లాలోని
ద్వి
మరుగు
ఖర్చు
టెలిఫోన్
రావు
మార్కె
##మీద
##క్ష్య
సహాయక
సంబంధిత
##హన
##మాత
దశా
##రాజ్య
##భార
చిత్రంలో
##ప్రా
అవసరమైన
##యోధ
నేర్చు
గణాంకాల
పర్యావరణ
##కాలం
##ారిత
గ్రంథాలయం
అయినా
##ార్డ్
2017
భాగంలో
##రుల
పుస్తకం
నెట్వర్
పనిచేశాడు
ప్రత్యక్ష
##కోవచ్చు
వెలు
సిటీ
ఇంధ
ధ్వ
500
##చ్చిన
##తుందని
చట్టం
కేంద్రంగా
##ెన
##టికి
అప్పు
ప్రస్తా
రచించిన
రాష్ట్రంలో
##ామిక
దర్శకత్వం
##కింగ్
##స్థాయి
ఇన్స్
##వస
##యింట్
##సైడ్
##దర్శి
కుమార్తె
ఉపయోగించి
##ith
పరిష్
వీడియో
##కుంది
బొమ్మ
వచ్చు
##ant
స్వే
భారత్
భావిస్తున్నారు
వృక్ష
##ల్వ
##నంలో
బృంద
లక్షల
##నారాయణ
ఇచ్చిన
ఒప్పంద
సంక్షేమ
తిరుగుబాటు
ఎని
కొల
సంఖ్యలో
80
స్టేట్స్
##ంచిన
##చ్చే
హెచ్
ఆధారపడి
హను
మాజీ
##ప్పుడూ
##బాల్
విశ్లే
కార్యకలా
సిబ్బంది
ఫోర్
స్నేహి
##బడ్డాడు
నీటిని
పోస్ట్
52
లక్ష్మీ
అనంతరం
##ill
ఉపాధ్య
##దృ
##విన్
ఒప్పందం
##దారులు
చెట్టు
తిరుపతి
ప్రత్యేకంగా
ఫ్రె
అద్భు
##గమ
##సిటీ
బార్
##డప
ఆశ
ఫైన
కర్ణా
చుట్టు
మార్కెటింగ్
క్రింది
##వేర్
అతడి
##త్యం
##ల్లూరు
##పరంగా
చక్రవర్తి
కలసి
ప్రజలకు
సౌకర్యాలు
##దుల
కోర
లాండ్
##ec
##షియా
##ట్లుగా
సినీ
నియోజకవర్గం
మైదానం
తగ్గు
క్రమంలో
కనిపిస్తుంది
##సూ
కనీ
##ించాలి
##రిస్తారు
##కాంత
##ోలు
తరువాతి
జూనియర్
ప్రచురణ
##నది
పార్ల
##కము
విషయంలో
స్కూల్
అధ్యయనం
##యత
కేంద్రాలు
##ర్యంలో
##వనం
##ర్తి
##భావ
శ్రీకృష్ణ
పద్మ
భావన
సైని
మార్గం
సాధించిన
భిన్న
మంచినీ
##రేషన్
##ముఖ్య
##ాహ
వేడి
##టై
##డము
ఆశా
చిహ్
గుండా
##ధార
బాలల
ఆలయంలో
ప్రకాశం
##ేశ్వరరావు
##ంకట
ఎవర
ప్రఖ్యా
°
సంచార
సీజన్
##ాలనే
##విత్ర
విశాఖప
అవుతుంది
ఆక
నాకు
రోజుల
ఆమో
##కాలను
ఇంద్ర
వస్త్ర
ఎమ్
గణన
పాలన
ముందుగా
స్పె
##పోయాడు
నివేదిక
##ఫా
వదిలి
మధ్యలో
జీవితం
లభించింది
##ానో
చివర
మద్రాసు
##ులను
##పాలెం
సంస్క
##లికి
అందరి
##శాస్త్రి
సుబ్బ
పారామె
పొందాడు
##ర్షి
##సాడు
##మవుతుంది
##చాడు
ఇతను
##ాంపియన్
##న్నే
##ందున
టర్
ద్రా
వ్రాసిన
##శాడు
గతంలో
పారామెడికల్
##కోసం
సూప
శిక్ష
X
పట్టణం
వారిలో
జనన
లోహ
జీవన
కొంతమంది
భక్తులు
##డాన్ని
##ేద
మళ్ళ
ఉందని
ప్రాజెక్టు
##ందర
అవత
నిరోధ
ప్రాంతాల్లో
##ఖా
పాలీ
మొదలైనవి
తరగతి
##్వాస
నక్ష
##కంలో
జనాభాతో
##లుపు
##నాన్ని
స్వంత
సంస్కృతి
##జిల్
జరగ
సేవలు
గుర
మిశ్రమ
ముంబ
విడుదలైన
తప
##ర్యం
కన్
జపాన్
జిల్లాకు
ప్రవేశపెట్ట
ఆటల
భాషలో
మానసిక
ఫె
by
భయ
ఘా
##డ్డు
గొట్ట
II
మగవారి
##న్లు
డిస్
##ల్లోకి
చెరువు
యూనియన్
బాధ్యత
కాలి
కచ్చిత
పరమ
##త్వాన్ని
సూత్ర
అందువలన
పిల్లలు
రిప
పొర
##దాని
##ాశ్ర
యుద్ధంలో
దుకా
పనిచేశారు
వ్యక్తిగత
మనిషి
శబ్ద
గిరి
దర్శకుడు
ఉపయోగించే
మనం
1998
జారీ
ఫార్
పరికర
శాంతి
##గోలు
అత్యు
కమిటీ
ఉద్యోగ
మంచినీటి
##భాష
##రీస్
##ికల్
వయసు
వస్తువు
45
70
##ించగా
విమానాశ్ర
పవిత్ర
##ంగుల
##పడింది
##గారి
అలో
##క్కల
##ెట్టు
##ేంద్ర
కర్ణాటక
36
##శాస్త్రం
ఉండవచ్చు
##ందీ
##మయిన
ఆడవారి
వార్షిక
జరుగుతోంది
##ac
జర్మనీ
##మండ
##లాం
ప్రీ
డాక్టర్
గణిత
తది
పెంచు
సంబంధించి
##ేఖ
మాతా
జాగ
పోరాట
##ఫో
##చంద్ర
సంకే
ఘిక
##ానించ
##ory
నిషే
నటుడు
##ల్య
కారు
పండుగ
థి
లొక
1970
వేంకట
కలిగివు
చెందింది
చర్చి
జనరల్
చరిత్రలో
అనంత
విజయన
దేశాల
ప్రవాహ
విజ్ఞాన
సాధించింది
##ింజ
##విని
ద్వార
అక్కడి
##ళన
##వంతు
పన్ను
బంగారు
##టమి
నీవు
పిన్
##ాల్సిన
అధికారిక
కాంతి
బరువు
శాస్త్రం
వంత
##ీస్
ముని
ప్రచార
పాడ
శాస్త్రీయ
##ాయం
##ంద్రీ
ప్రాధాన్య
##ాల్సి
రచనలు
గురువు
ముగి
మరణాల
షి
లొకేషన్
కొడుకు
పారిశు
వ్యాఖ్య
##రస్
డైర
వర్త
ఆదేశ
అద్ద
క్లో
లేవు
ఇంటర్నే
కుటుంబం
సర్వీసు
ఎలక్ట్ర
##దులుగా
##ok
చెన్నై
##ాయా
ఆమ్ల
చేతిలో
పురస్కారం
##hi
తప్పు
##టీఎ
పట్టణమైన
ప్రాంతాన్ని
విర
హత్య
చర్మ
వాయి
బిల్
IS
##ద్రి
ఆకా
##లని
##స్తులు
రాజ్యాంగ
గర్
##పాల్
ఉత్పాద
పారిశ్ర
ప్రకృతి
##all
చౌ
వాద
##ధిప
##హ్ర
షే
ఆలోచన
దెబ్బ
తీసుకుని
బాల్
ప్రాణ
33
పర్యట
పురుషుల
లీగ్
##టెక్నిక్
##ములోని
న్యూయ
ఇళ్లతో
వహి
చల్ల
##భ్ర
##లవు
గార్
ఉండగా
క్లబ్
మాదిరి
తగ్గి
రోజుకు
##ud
బాం
##ట్యూట్
వుండును
మార్పులు
##ందా
కార్యక్రమాలు
బ్లాక్
అనుసరించి
నంది
ఉండేవి
బం
నెలకొ
కొనుగోలు
pp
##కుంటారు
దివ్యా
##పిస్తుంది
##పడుతుంది
##కృత
అనుబంధ
విస్తృ
ప్రాముఖ్య
లాభ
##పడే
టే
##దైనా
బూ
వచ్చాయి
##ine
##ునిగా
పాలు
దారితీ
రీడింగ్
కళాశాలలో
##పోయే
నేల
1997
కెనడా
##మ్మి
##ండ్ల
##యాన్
##వాదం
ఘర్
##ించలేదు
పెట్టుబడి
సూచిస్తుంది
దాన్ని
అధ్యక్షుడు
##నంగా
సెంట
##ప్రద
విప
ఉత్తర్
దేవాలయం
శీ
సరఫరాల
ఎటువంటి
గోల్
##వస్థ
పరా
ఎఫ్
మొదలగు
##దండ్ర
##ించడంతో
పాలి
సైన్యం
అనువ
చివరకు
##భాగం
డాల
చూసిన
వేసవి
తెలియజే
##20
##పోతుంది
పుట్టిన
##ప్రెస్
ప్రాంతాలు
నిష్
పట్టి
##up
90
క్లా
నమూనా
##ప్స్
##లిష్ట
##గడ
##ఠా
జైలు
ప్రేక్ష
##ందన
అడి
##బడతాయి
రౌ
ఫ్లో
కోరిక
స్వాతంత్ర్య
వెళ్ల
క్రో
నిజాం
గంగ
అంగన్
##సుల
ప్రథ
ఇలాంటి
పోలింగ్
##ish
గాను
##ైక
తెలుగులో
న్యూయార్క్
##యాత్ర
జ్ఞాన
##హీ
మరుగుదొ
సెయింట్
##పరు
ప్రొఫె
ఎవ
##భద్ర
ప్రదేశం
##వియ
దండ
మాస
##రియన్
పారిశుధ్య
అకాడ
పిలవ
డో
వ్రాయ
##్వర్యంలో
పేద
అనియత
##eb
పరిస్థితి
ఇంటర్నేషనల్
1996
కొరియర్
రూం
రంగంలో
ప్రారంభంలో
##ెన్స
టెలివిజన్
తల్లిదండ్ర
37
గుర్ర
##యితే
విద్యుత్తు
##ాలంటే
తను
జన్యు
##బడ్డారు
మీటర్ల
పాయ
తాలూ
##పొంద
##రళ
చొ
కార్యక్రమం
##ల్లం
కాలువ
రహస్య
చిత్రాలు
సులభ
ఎక
వీలు
కావ్య
##జ్ర
con
##దిష్ట
గుండె
అమరా
వాడే
##వులకు
ప్రశం
దశాబ్ద
బావులు
##బిం
##హ్య
తరచూ
పునరుద్ధ
ద్రవ
ఉండాలి
ఏర్పడింది
##వెల్
తిన
##్యాస్
ఉన్నప్పటికీ
భక్తి
##రిక్
1960
నటించారు
ప్రైవేట్
అర్ధం
వాడీ
##ెదరు
ఊహ
##ణుడు
##ంటో
ఆలోచ
బాని
నటించిన
##పాత్ర
సుల్
##40
##రప
##ాంశ
##నిగా
##రాష్ట్ర
##రించబడింది
సామ్రాజ్యం
##ళూరు
##ోన్నత
##ములకు
రాజ్
ఇటువంటి
అక్క
అభ్యర్థి
పాఠశాలలో
కవ
వెల్
స్థితి
ప్రయోజన
సమి
కలుపు
దివ్యాంగుల
అసా
##మైనవి
##స్థల
##ినా
చోటు
వేదిక
##బొ
పొడుగు
ఫిల్
శ్రీని
ఎవరి
తయార
వైవి
##సనం
186
ఆరా
##విక
##వారీ
187
ఎడ్
అప్
సమర్ప
ఉన్నప్పుడు
##వుగా
##లైంది
వృద్ధి
పాద
సరైన
గోడ
ఎడి
##బ్రహ్మ
హిందు
చారిత్రక
బానిస
##రంగా
శాల
గుర్తి
దేశాలు
నాశ
రకాలు
ధర్మరాజు
కీలక
హీరో
అన్నది
మెరుగు
##దేశం
రథ
##ews
##శాఖ
##ెక్టర్
అగ్ర
చివరికి
కూతు
శతాబ్
##లియం
##if
రొ
ఎత్త
లక్షణాలు
నిర్దిష్ట
పండ
##టె
ఒకటిగా
ప్రాంతానికి
సభ్యు
సహాయం
ప్రకటన
##ర్పు
శిఖ
ఫ్రాం
##ాంగ
##శక్తి
##నము
రాజమ
పరిణామ
అంతా
హనుమ
##10
##వన్
కై
##శ్రీ
కోర్టు
##ణంలో
వెళ్లి
ఒకరి
##ట్టే
1994
పొడి
నిమిత్తం
పాలీటెక్నిక్
శ్రేణి
కొనసాగు
ప్రార్థ
##కూడ
##ూలు
##మ్మద్
సమాచారం
##వని
పారిశ్రామిక
తెర
##చేసిన
వాతావరణం
నెట్వర్క్
##కొనే
##వార్
ఉంచు
ఏదైనా
ప్రతిని
దిగువ
08
##సిద్ధ
##కూర్
##వుడ్
##ంటున్న
##కాన్ని
రేఖ
గుహ
##నియన్
కన్నడ
గుర్తించ
బయటకు
ఆకు
##rom
##ంపు
భగ
దేవత
##ts
##శో
గెలి
అబ్
నరసింహ
స్కో
వచ్చారు
##ట్లను
గంగా
##పాతం
స్టార్
##లెస్
##భిన్న
పచ్చ
##త్తిడి
కార్యదర్శి
జర్
క్రొ
నగర్
విష్ణు
##ాయల
సందేశ
ముందుకు
ఎర్ర
తిర
##నాలజీ
నిర్మాత
##ies
##సుడు
అడవి
##age
##సిన్
లోను
పార్క్
షో
##కోవాలి
మురుగునీరు
అసో
ఆధ్వర్యంలో
ఎక్స్ప్రెస్
రష
పసు
అడుగుల
##మయ్యే
58
##స్కో
##్రల్
1991
ఆయుధ
పత్ర
డబ్బు
బాలబడి
నాయకుడు
ప్రాంతీయ
పాప
సూపర్
38
ట్రి
ఆకర్షణ
కనిపించే
వ్యర్థ
##రత్
కంట
రక్షిత
##గార
ఫిలిం
##30
##చీ
పూర్వం
రోజులు
185
అంబ
జ్యో
ప్రాచు
##ధ్ర
ముఖ్యమంత్రి
ప్రవహిస్తుంది
##our
ప్రె
నిల్వ
వివరణ
విభాగం
నవా
బెల్
పెట్టి
బస్సులు
స్వేచ్ఛ
చింత
ఉన్నట్లు
##ఫై
వెల్ల
నిలిచింది
జం
చూడండి
రాజ్యం
##ేడ్
కప్
300
##ాయితీ
ఇబ్బ
సరస్సు
పేర్కొన్నారు
పల్లె
##ండ్లు
స్టా
ప్రెస్
ప్రాథమికోన్నత
##లంక
గుణ
వైశాల
కొన్నిసార్లు
హాల్
1950
ట్రా
అనుసంధాన
1995
##క్యూ
పడు
##స్వామ్య
సాధించాడు
##టూ
బదులుగా
తమిళనాడు
##క్యు
##మర
##స్థానం
స్టేట్
ఆర్ధిక
పేరును
అందిస్తుంది
కంకర
తెలిసిన
పదార్థం
క్షి
మించి
చేతిపం
##పడ్డారు
సల్
మళ్ళీ
మళ్
క్రితం
తెలుపు
పద్ధతిలో
మును
సంభా
చెక్క
మరికొ
రాతి
సృష్టి
వరుసగా
##లక్ష్
##ిష్ట
విద్యార్థి
##und
మరా
తాత్
##సంబంధ
సాధ్య
అమరావతి
పాత్రలు
##సంఖ్య
విభిన్న
##ah
##దగిన
విడిచి
వద్దకు
html
నాణ్య
జరిగాయి
##ress
ఆమోద
ఫోటో
##విధంగా
##ర్మన్
మాట్లాడ
మరణించాడు
##యాల
ఫల
వనరుల
ఇంగ్లీషు
దంపతులకు
##ical
ఇచ్చి
గె
మాన్
తీవ్రమైన
##ెట్లు
వెలుప
##హన్
రాష్ట్రంలోని
##ామీ
విన
భవి
##ెస్టు
ఆధారిత
##గతా
కథా
కేరళ
దర్శకత్వంలో
##గోళ
##మాను
లచే
ప్రోత్సహ
##ీకృత
అనుమత
దృశ్య
కౌన్సి
ఆహారం
శాస్త్రి
మహారాష్ట్ర
##ింగ
##నింగ్
##గ్రాఫ్
హాజ
కనీసం
ఉనికి
పరిశీల
ఇన్స్టి
ఉత్పాదక
బిలియన్
##స్తుందని
అశ్వ
నిర్వహించ
పదవీ
##BC
org
01
పరిష
ఇచ్చే
దక్షిణా
మంద
నిపుణ
##స్మ
ప్రతీ
##మయ్యాయి
సార్
ఓడి
##ెక్స్
నక్షత్ర
సరిహద్దులో
శిలా
వీరికి
చెప్పారు
##ain
##వులలో
బయలు
##ens
అందరూ
##కరి
లోనూ
##ర్ణ
బిరు
##ాల్లోని
##ంటా
##విడ్
కవిత
చేసుకుని
##మ్మడి
జానపద
సలహా
భవిష్య
ప్రకటించింది
విచ
ముక్క
రష్యా
వాళ్ళ
##త్మిక
సమ్మే
ఫ్రెంచి
మిల్
##నున్న
##ేశారు
అకాడమీ
నిబంధ
75
##య్యే
నిర్వచ
కర
రాక్ష
##పెన్
జిం
Un
మిత్ర
అందుతుంది
##నేయ
##రుని
జీవి
సత్
ఫ్రాన్స్
యూరోపియన్
పంజాబ్
##qu
##తాను
తార
##వును
గట్టి
బుద్ధ
సాహ
వేడు
ప్రథమ
##ive
##షిప్
ప్రామా
విద్యార్థులు
పోయ
##ారిటీ
క్రైస్తవ
##క్లో
రోజున
చేసేందుకు
##ించబడి
సంస్కరణ
పేర్లు
ఆంగ్లం
సందర్భంలో
##జరా
స్న
పిల్లల
పరిధిలోకి
హౌస్
భీష్
రూపకల్ప
పనులు
విల
ప్రచారం
##శేఖ
1989
మిలియన్ల
లోక
##వణ
తోట
కళాశాలలు
నెల్లూరు
స్కా
##తుల్లో
ఆవిష్
##రును
##గల్
##రేట్
##షియన్
మళ్లీ
వ్యవహార
34
చూపు
స్వల్ప
శక్తిని
ఏకైక
మంచు
##ట్రిక్
1992
లేరు
విశిష్ట
మృ
##డును
మెద
నేటి
##ans
జీవితంలో
ప్రభావితం
నదీ
ఆకాశ
##స్తున్నది
పోల్
పరిసర
ఎనిమిది
కార్యాలయ
##BN
డొ
విస్తార
పాత్రను
దీంతో
రద్దు
సాహిత
హృ
##మైనా
##ard
రోగ
లకు
##వడం
విలీ
ఇచ్చారు
ప్రయత్నించ
##ట్లాడు
##బల
gov
అలీ
పోలీసు
##దాన
##యము
దక్క
కిందికి
తాము
తిరస్క
##ామని
##గుణంగా
##పోతే
అలాంటి
శాత
ప్రారంభించాడు
ఆవ
##స్టిక్
మహిళా
మైక్రో
##ల్లే
##ధికార
పర్యాటక
చేస్తాయి
నటించింది
వెన
క్యూ
ఎక్క
తత్వ
పొడుగునా
##బెర్
వుండ
పర్యవే
వేగంగా
##ోభ
అతనిని
ఫుట్
##రిన
యాత్ర
అందుకే
##హీన
పెద
బహుళ
ఆధ్యా
##శ్మీ
పైకి
ప్రశంస
చలనచిత్ర
##బాదు
##తులతో
##నాలను
##వర్డ్
ఆమ్లం
##రియల్
మాల్
సీనియర్
పెట్టారు
##oc
##కై
##నాథ్
ఉండదు
ప్రక్క
కేంద్రీ
##సమ
కూడ
##రిక్ష
మిగతా
సెంట్రల్
##జింగ్
బలమైన
సేకరణ
పదవి
రకమైన
##ల్లీ
గురి
పారు
దశలో
సంపద
సేవల
ప్రత్యేకమైన
కర్మ
వారస
పట్టా
కేంద్రంలో
తెగ
##ీయమైన
మీరు
##పాయ
##ర్టు
ప్యా
##ళా
42
at
గుజరా
హైడ్రో
##ect
##కోట
##ధీనం
లింగ
అదనపు
పొంది
పక్కనే
నార
రోమన్
అట
##బర్ట్
వెంక
వేసి
విరా
గ్రీకు
కోరు
మరణం
సమర్థ
కద
ప్రారంభించింది
##కునిగా
అంతకు
ఫౌ
##బాబు
పంచాయ
##ద్యమ
##శిటీ
##ఖరి
##నాల్
ఆయా
చెప్పి
చేసుకున్న
##త్తమ
కేట
##ానిక్
ఎంచు
అంశాల
##చ్చింది
వేర్వే
53
కనుగొన
కొత్తగా
సత్యనారాయణ
##పక్ష
సంస్థల
##డెం
విస్తీర్
స్వాధీనం
హాలు
ఎన్ను
కార్మి
కాలేజీ
లెక్కల
చేతిపంపుల
Y
##్యాన్ని
మాట్లాడు
యి
##కారి
##ులుగా
##eved
##కను
##కవి
ట్యూ
##జైన్
ఉదయం
స్థా
తేదీన
##మెంట
స్వి
కావలసిన
గ్రామాల
విధమైన
అంతరిక్ష
యూనివర్సిటీ
##ment
##డుపు
##పార్
##తోపాటు
##య్యాయి
##రత
##tic
##క్స
చెప్
ఫ్రీ
నలుగు
##ఫే
ఫిలి
విరు
పసుపు
##రించడం
నిమిష
వెలుగు
ఇరు
సంభ
ISBN
రిపబ్లిక్
##హే
ఉప్పు
ఎక్కడ
సోవియ
జర్మన్
జ్యోతి
##లూరు
##స్టన్
అమెరికాలో
ఉద్యమం
తద్వారా
##ook
ఆగ్
##జూ
##వయ
##జ్జ
తీయ
టెక్నాలజీ
##వాది
ముందే
ప్రసారం
హిమ
స్టూ
##కుండ
వన్
కిరణ
నిషేధ
అనుకూల
శస్త్ర
##ాగో
మైస
సెర్
ఆఫ్రిక
రోజుల్లో
##లైన్
రాజవం
క్రమంగా
##హద
##లింగ
లోపల
సెప్టెంబర్
##కాం
జంట
##తుకు
వెర్
లభిస్తుంది
##పైన
48
##ure
కాన
యూనివర్శిటీ
దాడు
ప్రారంభమైంది
సవ
##ారామ
అవసరాల
##ేట
##ామంది
తరఫు
##rieved
వీరిలో
పలువు
ప్రాతిని
తీసుకో
ఒడి
##పోర్ట్
యజ
సాహిత్యం
##కొక
##టంలో
రాణి
సంతో
కావడం
చిత్రీకరించ
దేవి
బెర్
##ph
స్వయంగా
##ంతం
మతం
ముడి
##నాత్మక
కళ్యా
గానీ
విషయాన్ని
##కొన
హాస్య
1993
బాక్
పనిచేయ
పుస్తకాలు
చతు
నంద
##ట్లయితే
##డియం
##్యాం
లోయ
##షింగ్
సామె
##iz
##హాలు
కాపా
జిల్లాలలో
##మౌ
నౌకా
దాంతో
##ండీ
అగ
##వాన్
ఇండో
చేసుకున్నారు
##హార్
పాలనలో
పుణ్య
సమస్యలు
ఆధ్యాత్మిక
ఇటీవల
##ారము
బిం
తనను
##ేషన్స్
##గురు
అధికారి
సింగ
కలుగు
క్షీణ
చేయాలని
పరిమాణం
పీఠ
పరిక
కార్పొ
మామ
వాల
సంకేత
భావిస్తారు
##పాలి
నెలల
చెత్త
అదనంగా
ఇర
పసి
రూపం
ఫ్రాన్
##ంలోనే
స్థానాన్ని
##బోర్
మనో
సాఫ్ట్
అంతర్గత
వాడుకలో
కొనసాగింది
కావు
తరఫున
విద్యను
టెలిగ్రాఫ్
##ధన
తేడా
కాలువల
విద్యు
ప్రాధాన్యత
సమాచారాన్ని
##చేసింది
స్తం
కట్టు
బ్యాండ్
అక్టోబర్
ఉపయోగించ
ఫే
ఆహ్వ
లోపే
విప్లవ
పెరిగింది
##జను
##షల్
రకం
39
##కాలిక
కోట్ల
ఎలాంటి
గీ
పూర్త
అక్షర
నీకు
ఆగష్టు
స్త్రీల
బ్లూ
బది
పర్వ
వివరి
ఉచిత
వెలి
శ్రీకా
##మంతా
జన్మించిన
##దశ
లేదని
తీసుకొని
##గొండ
##యేటర్
కాశ్మీ
నిరూప
విభాగంలో
అర్జునుడు
##మాం
ముగింపు
పేర
వివరాలు
ధన
పల్ల
అధికారులు
మహబూ
భారతదేశంలోని
##ాయిక
మనకు
##ld
పదార్ధ
నగరానికి
##కినా
##12
ఘో
సిస్ట
వినో
##ast
##ీయంగా
##గార్
##దాసు
##వర్గ
నేర
##పోయాయి
పరుగులు
బెంగాల్
కనిపిస్తాయి
గది
సమీ
శాన్
ఉపాధ్యాయ
##లెట్
దీప
తెలుస్తుంది
##మాల
స్వచ్ఛ
##నేని
తమ్ము
##తున్నది
ఉత్పత్తు
ఇను
దినపత్రిక
##స్కు
##ళ్ళలో
##పోవడంతో
ఇంగ్లాండ్
##పిడి
1947
శుద్ధి
సుఖ
##రన్
57
కుడి
ఫ్యా
వాటికి
##ుడి
Ar
విశాల
##మిన
##లాది
లోక్
ఉన్నా
కార్బన్
ట్రాన్స్
వ్యక్తులు
విశాఖపట్నం
శాశ్వ
పేర్కొన్నాడు
400
నిశ్చ
ప్రయత్నం
##ేయ
##ేష్
##నుంచి
ఎల్ల
Ret
అటు
అష్ట
రిజర్
ప్రసాద్
మరణించారు
చేయబడ్డాయి
చేసుకున్నాడు
##యుని
పనిచేసే
పీడ
##వసరాల
వెస్ట్
##ge
##ha
##లలోని
దూరంగా
మాల
ఛాంపియన్
కథాన
కొట్ట
బ్రహ్
గ్రీన్
ఏను
అరణ
అనువద
బదిలీ
భారతీ
ఆధిప
##ాలున్నాయి
స్తంభ
##నేందుకు
వైవిధ్య
##ob
కేసు
పునః
గ్రూప్
##సార
##క్రీ
##డియన్
అప్పటికే
##డియ
##సిం
##భావం
కాయ
శిల్ప
సేవలను
ప్రజాదరణ
సేకరించే
శృ
కరీ
దొంగ
బాయిల
##నామ
లభ్య
వచ్చాడు
##ear
##ated
##రులో
##ేందుకు
భూభాగం
గవర్నర్
స్త్రీలు
##చా
al
##స్కాంత
##ational
రోజువారీ
##స్ర
తదు
2018
నాట్య
ఉర్
పలక
కురు
##చ్చారు
క్రీస్తు
చాలామంది
రామారావు
ఇంటికి
నిర్వాహ
మరణించిన
ఆకర్ష
ఇచ్చింది
ప్రతిబిం
భీమ
పెరగ
హాస్
ఇన్స్టిట్యూట్
##ఎల్
ఒక్కొక్క
##ించుటకు
బాధ్యతలు
వ్యాసం
##ఖండ
https
అయ్యింది
గెలుచుకు
దేశంలోని
##పేరు
చేరాడు
తీసిన
##esh
55
విక్రయ
సామర్థ్యం
an
##ింటికీ
జాగ్ర
తదుపరి
చేయవచ్చు
51
##ొన్న
సాల
ఉండడం
నాటకం
ప్రయాణి
చిత్రానికి
##వసర
గృహా
ఖై
ఘు
##వాం
44
ఆస్
కండ
##ానిష్
మల్
డేటా
##ీట్
##రాలి
పంచాయతీ
విధానాన్ని
నమ
ఆటగా
డ్రై
ఉంటాడు
ప్రామాణిక
డిసెంబర్
##వైన
##పూర్వ
నిలు
సరస్వ
పారుదల
##క్రి
బయోగ
##స్తాను
అట్లా
Retrieved
be
చదివ
ఇంగ్లీష్
47
##ాలలోని
సైతం
బ్యాంక్
pro
స్థాపించబడింది
##రైడ్
##ర్గా
##ళ్ళను
జనాభాలో
150
ఎత్తైన
తప్పని
సముదాయ
##కథ
##ord
కొంచ
ధ్రు
##చేశారు
ముంబై
న్యూస్
విగ్రహం
గురించిన
##గ్గా
రేటు
పేర్కొన
నిజానికి
సిద్ధాంతం
##కరణం
##భూమి
కెమె
##మను
కఠ
##య్యా
సదు
##ామిక్
అక్షరా
రాజులు
ఆకృ
గరి
1985
వ్యక్త
41
65
##ించగల
యజ్ఞ
నీటిలో
అమ్మాయి
##ూల
##డ్ల
##డులు
చైన
హిల్
నవంబర్
అంట
మైదాన
జాతులు
##వేళ
##దాస్
చదర
ప్రస్తావ
##వర్త
అల్ల
ఉపరి
సన్న
వాడుక
##సియేషన్
అంతేకాక
బలహీన
##వ్యవస్థ
వనరులు
మెక్సిక
కొలం
ప్రోగ్ర
రామకృష్ణ
సినిమాలు
##డ్జ్
అంటూ
అధికారం
వేర్వేరు
wh
ఆకార
జేమ్స్
from
బోరు
నన్ను
వహించాడు
##పున
అంగీక
గ్రామీణ
43
పరిశోధనలు
ప్ల
##dian
ఫెడ
తీసి
కౌన్సిల్
##య్యి
ఏదో
వివాద
టైమ్స్
ప్రజలను
##ందర్
మండలాలు
గింజ
నిండి
కుటుంబంలో
శీర్
##నిర్మాణ
దేశానికి
అంటు
##మ్మిది
కన్ను
డేవిడ్
మండలంలోని
దైవ
కక్ష్య
అర్హ
చిరు
##టాన్ని
మాస్టర్
వుంటుంది
##షియం
##ించుకో
సోవియట్
##టీన్
క్రా
##కులుగా
సాహితీ
ఎప్పుడూ
స్వర
దాన
సుప్ర
##హర్
##గోళిక
అవగా
వహించిన
బాణ
##త్సాహ
సెల్
పాశ్చ
##ించడంలో
##ఫార్
బయలుదే
##జెన్
బహుమతి
సంస్థాన
ప్రపంచంలోని
##ry
విఫల
j
##షేక
##నలను
##ించుట
##తగా
ఎలి
##ember
పరపతి
ఆల్బమ్
##సాల
##డ్లు
తరల
మనసు
స్థాపించారు
y
##కట్ట
ఒంట
వరంగ
ప్రొఫెసర్
##లొ
##ములతో
ఆయనను
వస్తున్న
##చున్న
1930
భాషలలో
##రమైన
అమర్చ
పోర్చు
లిపి
##ort
##ధానం
##పాలక
##ోత్సవ
శరీరం
##ంద్
చోళ
అంకి
టెస్ట్
తీవ్రంగా
సమీపంలోని
##హరి
##ూహం
1984
సమీక్ష
ఇచ్చాడు
56
రత్
##ెస్టర్
ఏర్పర
వీధుల
మీదుగా
##కూరు
పెడ
మైన
చేస్తాడు
ప్రవహ
విషయాలు
##ట్రా
మోట
లోనే
##కేంద్ర
మేరకు
మీడియా
అధ్యక్షు
##జిన
అసి
లోకి
మహర్షి
పదాన్ని
భౌగోళిక
##ంచీ
రెండూ
సమితి
మాట్లాడే
సుందర
క్యాన్
దేవు
వేరే
సమాఖ్య
కళాకారు
##rad
##గిల్
##బర్గ్
మంగళ
##జిమెంటు
##జ్మెంట్
తాలూకా
అధికారికంగా
UK
##సముద్ర
డాక్టరు
##కూల
స్ఫ
బాబా
ఆదాయం
నిలిచి
వ్యర్థాలను
సింహా
పరంగా
అతన్ని
రాష్ట్రాల
##బెల్
##వాహిక
నెహ్ర
వదులు
##ింపబడిన
##గాన
97
వ్యాపారం
భావించారు
##ాత్య
కాలనీ
జీవితాన్ని
##ian
##http
వందల
సమీకృత
##rit
183
శేష
ఉపరితల
జాగ్రత్త
చేసుకో
పలువురు
మరుగుదొడ్డి
ప్రత్యేకించి
విస్తరణ
గృహావసరాల
##తీక
గజ
గ్లో
తిరుమల
బ్రాడ్
##థ్
##నల
ఐక్య
హోదా
అనుసంధానమై
##శేష
46
ప్రకటించారు
ద్రో
మహబూబ్
విచారణ
జాబితాలో
గుర్తించారు
కదా
అన్నీ
అయ్యాడు
##రిన్
అందించే
##ించినట్లు
##టంటే
##డ్డాయి
##వుతుంది
##ubl
ఊరి
ఒక్కో
వేసిన
అసోసియేషన్
##హాయ
మహిళల
సుయోధ
డిజి
సంతోష
##తుంటారు
##ించుకున్నారు
మాతృ
##సాలు
దివ్య
మాటలు
అటువంటి
##హె
en
గ్రేట్
##్యత
180
స్మ
అనుభ
పోర్ట్
ఉద్యోగం
మండలంతో
అభిప్రాయం
ప్రాచుర్యం
##భ్యా
ఇటలీ
ఆశ్రమ
##ue
##వళి
కుళ
సెం
1975
మేనేజిమెంటు
##రలు
అశో
రాయ్
##iki
##భారత
##వ్యూ
##కరంగా
1987
దాకా
నెహ్రూ
చర్యలు
##సేవ
##ార్థం
క్రియా
##మిత
తారు
ఇంటింటికీ
##కత
##istory
కర్నూ
ముద్రణ
1983
ధారా
ఇంట్లో
కొవ్వు
1988
రూపు
కాలేదు
వ్యవస్థను
##ere
##గుల్
రాం
కుమారులు
విస్తృతంగా
##గె
##టిస్
##పాత
##మంత
##గాను
మంట
సంచిక
##ఖ్
రాయల్
ప్రతిభ
పనిచేసిన
##టిక
##రాయ
ఈశ
శర్మ
##దానం
##పుల్
ఇతి
##ంగ్లా
వంతెన
విభజన
శత్రు
అంశాలు
మార్క్
అనుగుణంగా
ఋణ
##కిల్
##పుణ్య
##ాంధ్ర
##ియా
గౌత
##ించుకున్న
నటించాడు
ఉపయోగించారు
ప్రాతినిధ్యం
##పురంలో
ఓపెన్
పాశ్చాత్య
బయోగ్యాస్
En
ఎము
with
టాక్
మూడో
కనిపించ
##రణం
##కూడా
ఏకీ
కలక
క్రూ
దాటి
డిస్ప
చెత్తను
తొమ్మిది
కేటాయ
##ఠీ
64
చదరపు
##శై
##har
నలుగురు
లక్ష్మణ
##యిక
సమాజం
పార్లమెంటు
49
##నాలి
##విల్
బృహ
ఏటీఎ
నివా
నిద్ర
దగ్గరగా
సంబంధాలు
##ell
##ధులను
అభ్యస
విశ్లేషణ
##గన్
##మెన్
##కొన్న
పంచు
నాశనం
##గాన్
##నుని
విత్త
చిత్రాలలో
లాస్
##నియం
de
184
ఆచార
నేతృ
సామర్
##స్తున్నాడు
పాకిస్థాన్
##డన్
##బల్
##వియా
టౌన్
తెచ్చు
నిర్ధార
##ామిడి
బ్రె
అనువాద
తూర్పున
రంగస్థల
సంవత్సరానికి
##igh
##గాలు
లతో
హెల్
##ెన్సరీ
##క్ల
##త్మా
##ంద్రత
బంగ్లా
స్టూడియో
##తాన్
##ించుకున్నాడు
నర్
కాశీ
—
ఖు
1972
బిడ్డ
వుండే
బ్రిటన్
అడ్డు
చెంది
జాతుల
బోర్డు
పురుషులు
రోడ్డుతో
డిస్పెన్సరీ
రూపొందించిన
మాధ
నాగరిక
ప్రయాణం
##స్తుల
వీధి
వైభవ
##చేసుకు
##యాన్ని
##హమ్మద్
అలోపతి
లాటిన్
##లుడు
అనేవి
మహిళలు
స్పష్టంగా
##టికల్
##ాల్ని
ఖాళీ
##న్నింటి
అందించారు
ప్రత్యేకత
కెఫె
అక్కడే
ఏటీఎమ్
నృత్యం
ఆందో
ఉద్యాన
రెండింటి
సుబ్బారావు
##జున
##డ్ర
బాబు
##రగాయ
కలప
తదితర
శిష్య
సమాధి
##చికిత్స
##ib
##ana
##మూర్
రవి
వాయువు
వాళ్ళు
అయ్యాయి
ప్రాముఖ్యత
గొట్టపు
ప్రఖ్యాత
ప్రవర్తన
##మానం
ఉద్భవ
భాగాలు
మందికి
సంభాషణ
అత్యధికంగా
దీనితో
##పురా
జార్జి
రాశారు
కర్నూలు
సినిమాల్లో
##జిన్
##బాయి
ఏర్పా
టన్ను
##ింట
విక్
అందజే
క్షిప
భాగాన్ని
మార్గంలో
స్పానిష్
##ందరూ
కంటి
మురుగునీటిని
##చేత
##గర్భ
రెడ్
అమలవు
రంధ్ర
##యస్
asp
నిరు
అన్నారు
శ్రీలంక
ట్
ఎర్
##పెట్టిన
దాదాపుగా
ప్రయత్నాలు
చైత
పారబో
బాహ్య
డివిజన్
##కాయ
##istric
వికెట్
ఎడమ
పురో
అమ్మవారి
ఇటీవ
తిరి
శృంగ
అసాధారణ
##పటి
##imes
##టర్స్
విరి
ప్రెసి
రూపకల్పన
##ous
##విం
విధానంలో
No
##లేదని
##వస్తు
వాదన
సందర్భాలలో
పనిచేస్తుంది
పంపు
ఎదురు
చేసుకుంది
పేర్కొంది
1986
పులి
వయసులో
ఆఫ్రికన్
చేస్తోంది
టోర్
పెరిగి
##చేసే
##క్సైడ్
##ించుకుని
పారబోస్తారు
##ణే
##ail
##డ్యు
రాక
మలయా
బావుల
ఒత్తిడి
మరిన్ని
స్పెయిన్
శత
##కొను
శని
##దారుల
##ళ్లలో
బట్ట
బొగ్గు
సార్వ
ప్రారంభం
form
శతాబ్ది
వేట
##శ్చర్య
##క్షేత్ర
చేసుకోవ
##రాజ్
చాళు
##పోయినా
##లక్ష్మి
ఉత్తరాన
ప్రాంతాలకు
ఇసు
సంప
శ్లో
పాత్రలో
##ైడ్
మల్ల
##గ్వే
మొదట్లో
వెళ్ళిన
##మలు
Th
తీసుకున్న
##ust
రామచంద్ర
##ులై
హెన
ధో
రస
1967
జనతా
వాటా
రాజమండ్రి
ఉపయోగించిన
వస్తువులను
##ath
##olog
మండలి
సినిమాకు
##ace
##ెస్ట
మలే
అధ్యా
పాలనా
పాల్గొన్నారు
##art
99
##పిరి
ఒకప్పుడు
అనుకూలంగా
నేపథ్యంలో
పిత
సంపు
సర్వే
కేంద్రమైన
తరంగ
భవనం
థియేటర్
విశ్వాస
అందువల్ల
కుటుంబానికి
##మారి
##స్ట్రి
భాషలు
1948
వైరస్
ఎందుకు
చేరారు
1971
శీర్షిక
##ence
1962
##ించబడతాయి
గ్రామాలను
##యిస్
ఎక్
1982
హ్యూ
##గ్న
sp
జ్వ
దేశాల్లో
##బియన్
అమ్ము
##భివృద్ధి
##ాయో
ed
##ప్ట్
##క్రియ
ఘర్షణ
##కన
##ore
రాక్
##టప్పుడు
బిరుదు
మొదలుపెట్ట
co
##ఫోర్నియా
ఉంటుందని
##గము
##యని
శ్రీరా
అమృ
ఖని
అన్వే
ప్రసాద
విశేషం
అడుగులు
##జీవ
అజ
గోపాల
సంయోగ
క్రొత్త
అమలవుతోంది
కోప
హర్
బహుశా
గుజరాత్
ప్రదర్శనలు
##ex
##రీలు
ఛాన
ఒకదాని
పిలువబడే
స్వాతంత్ర్యం
##మనే
అణ
యాజ
కఠిన
కాలేజ్
విజయనగర
##ద్రమ
##ళ్లను
చేరిన
కలిగిఉ
రచించారు
కార్యక్రమంలో
##వాణి
బాలు
పుట్టు
are
పాడు
సాధన
ఆక్సి
ప్రమాదం
వ్యవస్థాప
చదవ
##పింది
##ింపజే
స్వర్ణ
సాహిత్యంలో
##ff
1940
దినో
నిర్మాణానికి
##ులైన
వరద
##ముందు
ఇస్లాం
అవుతున్నాయి
##ou
As
హిస్ట
##జాతి
ఎన్నికైన
తల్లిదండ్రులు
##గలు
వన
వాయ
ధ్రువ
సమానంగా
చెందినది
ఉపయోగించడం
##ాయుధ
కరి
ఒలిం
పరమాణ
డిజిటల్
ట్రాక్టరు
##ction
దేశీయ
దానితో
సమకూర్
వెళ్ళాడు
##కస్
##టిలో
కత్తి
మెడికల్
పరిశోధనా
పుష్ప
##రిస్తుంది
తెలంగాణా
##స్టో
గ్రే
తోడ్
విజయవంతమైన
లేన
##జ్ఞానం
నవాబు
##తలను
##త్రా
పిల్
నాయుడు
ఆధారాలు
కాలానికి
పద్ధతులు
##ండో
అంతేకాకుండా
ప్
సెట్
కాదని
సమయానికి
##ంటె
##orld
వాడి
దర్శన
కీర్తి
##విడ
85
##క్షా
స్క్
##తుంటాయి
కాకినా
##hra
##ంగం
##మ్మా
నైపుణ్య
తెలుగుదేశం
Al
దేవుడు
పాటుగా
సిరీస్
క్యాన్సర్
పరిధిలోని
రాజధానిగా
హ్య
ఒలింపి
బ్యాక్
##కరించారు
చిత్రాన్ని
##షీ
జైన
భయం
కప్ప
##రాత్రి
ప్రేరణ
విస్తృత
మాదిరిగా
##18
##గతి
##గ్యం
ప్రాంతాలను
##60
54
హొ
ఏళ్ల
తేది
కుళాయిల
నిర్దేశ
నిర్మించబడింది
##ృప్తి
సమూహం
విలీనం
డివి
కాకినాడ
ప్రవేశం
##ula
##కమైన
1952
అంతటా
అయ్యే
కూతురు
పురపాలక
ex
##ానికీ
అలవా
చక్కగా
##లాస
మూర్
వెండి
కూర్చు
పరిపాలన
ఉండేవారు
అత్యుత్తమ
##aj
##జని
వోల్
వ్యవస్థలో
గుర్తించిన
విమానాశ్రయం
జమీ
వారితో
##దుపు
##పిల్ల
జాక్
ప్రారంభించిన
##ైర్
##డవైన
శుద్ధ
##దార్
##చ్చాడు
కవితా
##ల్యాండ్
అధికారు
##ice
##సంప
##ప్రసా
#
రంగం
శారీ
మేనేజ్మెంట్
చల
సౌత్
గ్రాండ్
అప్పట్లో
##ult
##బ్లి
మణి
1981
ఇస్ల
కావడంతో
సాధించి
09
చేయటం
గృహాలు
నొప్పి
62
##గలిగే
##end
##డింగు
మూసి
##టిక్స్
##భాగాన్ని
##గడ్డ
విడ
##భాగంలో
ఇటు
##చరిత్ర
చేరింది
వాడతారు
##శీల
##వరకూ
వెల
##రులను
1977
బుక్
గ్రంథం
సహాయంతో
జత
నర
##ించా
కీర్త
గమనించ
ఆనాటి
పంజాబీ
ఎన్నికల
మహారాజు
మ్యూజిక్
ఎది
అభ్యర్థ
నెలకొల్ప
ప్రదేశంలో
##ప్రతి
వారీ
సన్యా
##చుకున్న
మొక్కలు
వ్యాప్తి
03
సంతకం
మీటర్లు
సంవత్సరాలలో
##ంకు
##స్ను
కాథ
బలి
సరళ
దత్త
##చున్నది
##డయ్యాడు
ముస్లి
అందుకున్నారు
##దాంత
జార్జ్
##బడుతోంది
కమ్యూనిస్టు
పను
ఉంటూ
తెనాలి
సిబ్బందీ
క్లిష్ట
అభివృద్ధికి
##cl
పోరాటం
##ాలియన్
విపరీ
ప్రత్యర్థి
ప్రాజెక్ట్
##క్ట్
##నుడి
##రంగం
నమ్మకం
##చార్యులు
ఉత్తర్వులు
95
##ొచ్చు
కాగి
సుబ్రహ్మ
మసీ
##దేవుడు
అవగాహన
##కుడి
cod
##ూరులో
చేస్తే
తపస్సు
పూర్వీ
ఏమిటంటే
చేసుకొని
విజయవంతంగా
ధ్య
నాల్
సాయి
హెర్
ఎత్తులో
విరుద్ధ
##మితి
తాత
పుట
క్రియ
పరిశీలన
పెట్టిన
సీతారామ
##19
వాస్త
సన్నివేశ
he
ఘల్
1979
పాక్ష
##ారే
వినియోగి
##రైన
##ీలు
##elug
పెర్
సింహ
##ass
1974
అంశం
కార్యకలాప
చేయటానికి
##షం
##ాలైన
బహుమ
##స్థానంలో
వారసత్వ
మొదటిసారిగా
అనీ
వెళు
##ఎం
తెలిపారు
జాల
పొల
తప్పనిసరి
##జల
##రణి
##వలె
తై
##వంతం
అభిన
కుండ
కొలు
రాగి
##చిత్రం
శుభ్ర
మూలంగా
సభ్యుడు
కొద్దిగా
78
దంత
తరహా
##పడ్డాడు
##భవన
##ద్యో
ఏది
1920
1978
వసతి
##ఫోర్డ్
తేలిక
##త్పత్తి
వెబ్సై
చెబుతారు
##కలి
విద్
పొరుగు
సముద్రం
##ంటున్నారు
చేసేవారు
చము
సగం
##ivers
##ోత్సవం
విద్యాభ్యా
74
కడప
కాఫీ
రాజుల
2019
సమర్ధ
అయో
##ెడి
ఏట
తుల
##కుంటూ
అవుట్
ఆశ్చర్య
వస్తువుల
సుమారుగా
రాష్ట్రాలలో
##ich
##ళ్ళకు
ఫౌండ
మేరీ
మామిడి
ఝ
##జాన్
సిక
రామ్
నిరంతర
కలకత్తా
##రాశి
##రిస్తూ
కమిషన్
పర్యాట
సంస్థను
మధ్యకాలంలో
##లులు
##యొక్క
వడ్డ
హాని
ఆర్కి
విన్న
ఉమ్మడి
అక్షరాస్య
##వద్ద
గుడ్
ప్రాం
వెళ్ళే
తాగు
##67
##ong
##జేషన్
రోగి
అరణ్య
పరిమిత
పొడవైన
పద్ధతిని
పనిచేస్తున్న
భారతదేశానికి
హోటల్
చేరుకుంది
600
తరలి
రంగా
పదాలు
వెడల్
##దీర్
##రాయి
ప్రచురించ
##pp
was
వైట్
మినహాయ
శక్తివంతమైన
ఆధీన
విరమణ
పవర్
స్టె
శాసనం
నిర్ణయం
రాష్ట్రపతి
పరిస్థితులు
కాలిఫోర్నియా
##గరం
##ధ్యా
లాగ
అప్పగ
వేరుశ
క్రైస్త
సోదరుడు
అద్భుతమైన
##cc
##రిట
ధృ
ఆడి
మూలం
##ానంతరం
జరుగుతున్న
ఈజి
1969
సాఫ్ట్వేర్
జన్మించింది
##చ్చా
##తువు
నంబ
విధి
ఉర్దూ
పోయిన
మిగిలి
##టమే
##tern
##ంగిక
స్థితిలో
శస్త్రచికిత్స
##ఖి
i
##డీఏ
##వచ్చని
మారిన
##ట్టానికి
##మణి
72
బయో
##న్నింగ్
హక్కుల
##ానంద
##ానికే
పెను
బ్రూ
సర్ప
నిలిపి
వ్యాప్తంగా
##ee
##స్సా
1956
సింధు
వాయిద్య
సినిమాలలో
లొ
ఫ్లా
పూజలు
తీసుకొ
గడ
చంద
పెరుగుతుంది
##ెల
డెల్
మనుష
సీఆర్
##స్తుంటాయి
##నిని
##ాంశం
##కానికి
ఒకవేళ
అధ్యాప
ఇందుకు
కార్డు
భూమిని
వీటికి
77
శివుడు
వాషింగ్
అడ్డ
##ించమని
చెరకు
గూగుల్
సంగ్రహ
##ాలన్న
##స్థులు
శ్వాస
అవసరాలకు
బంగ్లాదేశ్
భవిష్యత్తు
ఫ్
##లేషన్
##ంద్రియ
సభ్యుల
చాళుక్య
##సల
##జ్ఞా
అరి
కదలిక
పెరుగుదల
##టైన
ch
ఇవ
##ణ్యం
##కంప
సన్
##క్తులు
ఒప్పు
##య్యింది
చేయాలి
మెక్సికో
##దరి
##దుడు
##పోర్
సంబ
వెను
వస్తాయి
వ్యత్యా
##బోయే
విల్
నేపథ్య
దారితీసింది
నిర్మించాడు
లలి
##మాండ్
1976
ఇంది
వరంగల్
పోలిస్తే
##ern
##లేరు
నిత్య
స్వీయ
వివరించ
ప్రాంతంలోని
##మ్య
బహ
179
ఆశ్ర
రైతు
ఈశాన్య
##15
##ial
And
భగవ
సరిగా
స్వీక
ఆకర్షి
పిల్లలకు
250
సిల్
##జికల్
అటవీ
##క్కులు
##రాలిగా
సంతానం
వాస్తవానికి
##ంబు
##హారం
నిర్వహిస్తారు
##రులకు
1000
చూపి
తమకు
##13
##ితం
తుఫ
##ెస్టి
ట్రై
జంక్షన్
##డాన్
##ేవారి
సీఆర్డీఏ
##కలన
BBC
ఆపర
డౌన్
నేడు
జ్ఞాప
ప్రతా
ధారావాహిక
సాధించ
నాటకాలు
ప్రపంచం
విజయాన్ని
##కాని
ఆఖరి
ఆర్ట్
జిల్లాలు
పడుతుంది
##యైన
001
##గొట్ట
ఎవరు
టవర్
నివార
##పల్
ప్రాచ
హెచ్చ
పోయింది
చూడవచ్చు
వ్యాసాలు
98
##డాలు
కర్ర
గూర్
కుప్ప
టైటిల్
##ోల్
##ages
వేగం
హోమో
రచయితలు
సాయంత్ర
that
ఆచరణ
ఓవర్
కౌంటీ
##డ్జ
మంజ
తరపున
రాజీన
రామాయణ
కది
ఇద్దరూ
వెలుపల
హెన్రీ
##ించినప్పుడు
ధా
ఆప్
ఇసుక
వాహన
విశ్
కాపాడ
ప్రజలలో
అధిగమ
నష్టం
మేయర్
##ప్పటికి
అంశాలను
it
నడ
ఏమీ
##సియన్
పెరిగిన
##బై
##లీప
##క్కా
##టాన్
##స్రా
##స్సీ
##డెంట్
ఇరవై
అల్యూ
రాయి
వాదం
కొబ్బ
అందమైన
రాబర్ట్
స్థాపించాడు
##ండం
##రము
కలుగ
వాని
చక్కెర
##ించుకొని
విశ్లేష
నాయకత్వం
ఆఫీ
గోధు
07
##రియం
##స్వా
ఏకా
లీన
1973
##క్వ
##ప్ల
##మామ
##లేఖ
లేఖ
##నమెంట్
##నాటికి
##ార్మిక
మందుల
నాయకులు
సమాజంలో
శ్రీనివాస
##ond
67
##లాగా
Mar
ఆదివారం
కచ్చితంగా
గాజు
బియ్య
బహిరంగంగా
ప్రభావాన్ని
##తతో
##సంస్థ
సౌంద
ఆదర్శ
శుక్ర
చెప్పే
సదుపాయ
ప్రదర్శి
మ్యూజియం
##ైంది
bl
దిశగా
ఎన్నికల్లో
##రద
##మాట
##ికో
##రితమైన
అనారో
##కుంటే
##ేజీ
##ైతే
లిమి
కర్మా
పిలిచే
క్షిపణి
సులభంగా
ఇస్తుంది
పాల్గొని
ఫుట్బాల్
నివసిస్తున్నారు
##BS
##ప్రభ
##రువులు
ఫిల్మ్
సుదీర్
సంతరించు
##ఎన్
##కాలలో
జననం
శ్రమ
##వెన్యూ
ఆరోపణ
కుక్క
నాయకు
ప్లాంట్
పోర్చుగీ
విధానాలు
డైరెక్టర్
విద్యార్థులకు
##yn
##లకి
63
##ట్లే
Com
##పుత్ర
1965
news
ఏళ్ళ
జాతీ
శిథి
హృదయ
##ట్టుగా
##కోవటానికి
కళాకారులు
స్వామివారి
##uk
##ంస
జోడ
##డింది
కూరగాయ
లభించిన
ఫౌండేషన్
అదృ
##ళ్లకు
శ్రద్ధ
క్షత్రి
అనేకమంది
మొదలైంది
సాధించారు
ప్రభుత్వానికి
##గృ
1964
షె
ఆంజ
విము
నాగార్
ప్రకాశ
సమ్మేళ
##ంజ్
68
ఇవ్వడం
లభించాయి
దౌ
షూ
##యేట్
##india
ఇబ్బందు
##గును
లోపలి
గోల్డ్
చూస్తే
స్వదేశ
##శర్మ
800
ఆధారం
విప్ల
స్థాయికి
ప్రధానమంత్రి
శూ
కూర్చ
అవకాశాలు
##బ్బి
##కోవటం
##పేక్ష
కథను
త్యా
ఎగుమతి
పనిచేసి
అయస్కాంత
శ్రీకాకు
##ite
##బ్ల
##ేశాడు
1968
వంతు
స్మార
వాషింగ్టన్
##యె
శీతా
##స్తానని
భిన్నంగా
##out
##నవి
నౌక
##స్థాప
విద్వాం
ఇటాలియన్
గ్రంథాలయ
నగరాన్ని
##ర్వ
ఏదే
##ition
వెడల్పు
అలె
కర్త
అడిగా
Indian
సౌకర్య
##చున్నారు
లక్ష్యం
వహించారు
తీసుకున్నారు
##16
##ందరో
##స్తీ
182
మన్
యుగ
సరా
ఆదరణ
artic
చమురు
జమీంద
మరాఠీ
చెట్లు
జనసంఖ్య
మార్పిడి
##గాని
దూరంలోనూ
వైశాల్యం
##les
##indu
##క్తం
పాల్గొన
##ధర్మ
##రాక్
ఉస్
1955
పోలీస్
##స్వామ్యం
చిత్రీకరణ
ప్రదేశాలలో
##దె
##రవే
జరిగి
విలువైన
విశ్వనాథ
చేయబడుతుంది
డయా
వాం
##కూడదు
aspx
కలయిక
శ్రీరామ
సంతాన
కథానాయ
కొరియా
చేతులు
History
రచించాడు
పరిశోధకులు
ప్రచురించారు
##పట్ట
ఇటీవలి
నిజమైన
05
##దగ్గ
పడ్డ
త్వరగా
విలియం
మొత్తంలో
నిర్మాణంలో
కార్పొరేషన్
##చర్య
రుచి
నడుపు
##లండ్
నింప
##బడుతున్న
##14
##నెస్
##సేన్
##మున్న
హింస
అబ్దు
స్ప్ర
శరీరంలో
రాజీనామా
సెక
##కుమార్
వీరిని
జంతువుల
యుద్ధానికి
02
##ళాలు
ఇంధన
మిస్
భూగర్భ
##కరించింది
పత్రికలో
పేర్కొన్న
x
##ణుని
చోట
##యింగ్
వజ్ర
##జార్
ఎగువ
ఆల్బం
దేవుని
వేరుశనగ
సుప్రసిద్ధ
##ించును
లైంగిక
*
గ్
##గ్రి
##ణ్ణి
బలం
లోతు
##చేవారు
ఆస్తి
ఎరుపు
మరికొన్ని
టూ
ఆధిక
##ఖు
##బార్
ఎగ్
పోవ
దోహద
భోజన
పెద్దగా
ఉన్నాయని
##మిక్
పాస్
సామెత
##నాధ
##హ్లా
అరే
రష్య
రావడం
టొ
##సెన్
అచ్చ
మెదడు
##కోవాలని
##64
##యాలో
##కోర్టు
రాజ్యాన్ని
Z
##ీపీ
##యంతో
ఖగోళ
నావి
ఆకులు
ఎడారి
##రింప
మేక
స్థావర
ఏర్పడుతుంది
##DA
##ర్గ
ఏంజ
తాజా
మంత్రిగా
##సిక్
##ించినా
అప్పుడ
ఉండును
తీసుకురా
##ost
##ron
ఈత
ధై
బస
##రిని
కేశ
ఖమ్మ
ద్వీపం
మరీ
చదివిన
తీరంలో
##వేల
దిశలో
రూపాయల
దండయాత్ర
అల్యూమిని
గుర్తిస్తూ
##elugu
మాండ
గొల్ల
ప్రీమి
బ్రిటిషు
నిర్వహించే
##cy
##వాస్
కొంచెం
లోక్సభ
నియోజకవర్గ
##17
##లిని
వాసు
##్మ
##రిం
యోధ
##పియర్
పెంప
సప్త
మెట్రో
ఉద్యమంలో
##ేవీ
రాయల
తట్టు
చిత్రాలను
ప్రారంభమైన
స్థాపించిన
శాస్త్రవేత్తలు
##టెన్
Pro
బహిష్
ప్రేమి
Univers
##వీడు
##వున్న
గిల్
formula
తూ
##టియం
##బెట్
##ష్యు
ఐస్
జలా
చెపు
పడిన
రుద్ర
శాశ్వత
పసిఫిక్
కచ్చితమైన
##ru
06
అహ
కాపాడు
కమ్యూనిటీ
##ide
##చివే
##మందు
బాగు
ఆక్స్
జరిపిన
డిజైన్
కొలంబియా
##ాంబ
##ొని
##మధ్య
చదు
కరీం
తానే
##ించెను
వైష్ణ
టాక్సీ
హ్యారీ
##ినే
##ించక
చేయగల
విస్తరించ
సుప
1957
జోన్
##ఫ్రికా
భూభాగంలో
శతాబ్దపు
##మండల
ఇక్క
నైట్
చారిత్రాత్మక
##unt
##ver
చిక
అందించిన
##టికీ
##షియల్
డాన్
##పోతున్న
దానిలో
సాంద్రత
రెవెన్యూ
Am
ఆయ
అంగు
##ంత్రిక
ప్రత్తి
ప్రతిస్ప
లిమిటెడ్
##ya
##per
##కైన
##డార్
##లైట్
##కన్నా
1945
నెలలో
సంప్రద
స్క్రీ
చార్లెస్
04
##టూరు
##రిగా
సీమ
సాగి
##ప్పుడే
ఆర్మే
కొనసాగి
నివసిస్తున్న
##డలు
##రేఖ
##యుద్ధ
##గలిగిన
డిగ్రీల
##ann
ఖనిజ
##ations
##ింపులు
టర్కీ
శ్రీమతి
##eg
##సాస్
New
ఇతనికి
ప్రతీక
స్ట్రా
కాలక్రమ
పట్టణంలో
స్ట్రీట్
ప్రధానమైన
##గానూ
ప్య
సమస్యలను
ప్రతిబింబ
##ట్టా
##సాయి
1946
##రక్షిత
విలియ
మార్గము
##నరీ
##ర్లో
పంటలు
తిరుగుతున్నాయి
##so
##మెంటరీ
జర్నల్
పొందాయి
##ామస్
కృత
##పోతాడు
సంభవి
##ించాడని
మహాత్మా
పార్టీకి
##టుకు
మోడల్
వృత్త
పోటీలో
భక్తుల
69
##బ్స్
##డ్డున
తుపా
అరుదుగా
సముద్రమ
కలిగించే
##pt
పగ
కథనం
స్థలం
చైతన్య
కవిత్వం
వెల్డింగు
##బన
అచ
##నైనా
##ensus
స్వీ
లాల్
అక్రమ
అతడిని
##ించబడ్డాడు
చెప్పింది
##ఫిక
ఎలెక్
ప్రాంగణ
కేంద్రాల
అత్యున్నత
కౌర
రమణ
##శిక్ష
##బడినది
పనికి
స్థాపించి
తరం
##ంబాయి
##కున్నా
కార్యక్రమాలను
66
ఎపి
వృద్ధ
తుఫాను
అయ్యారు
పత
##క్కో
1966
అంతర
అల్లు
పుత్ర
చేశాయి
డాక్యు
నగరంలోని
##గ్స్
పాన
ఆయిల్
త్రవ్వ
##స్థాయిలో
మాయ
నెమ్మ
పరికరాలు
##స్పర
##గూడెం
మోర్
బెంగు
##స్తులను
ఆనకట్ట
భావించి
పోలీసులు
పరిశ్రమలు
శరణ
వాన్
మైసూరు
అడిగాడు
కార్మిక
అక్షరాస్యత
Q
##డిద
##చార్య
మేము
తెలియదు
##సిల్
టీవీ
దారు
పోయి
గిరిజన
ద్వితీయ
జరుగుతాయి
le
##వనరు
పరిగ
పునా
రూపా
లాగా
##వాదులు
కొబ్బరి
దక్షిణాన
పరిషత్తు
రికార్డ్
వ్యక్తుల
82
దృఢ
ఛార్
నడిప
భాషను
ఆలయాన్ని
సముద్రతీ
88
##మిత్
##త్రిమ
హిస్టరీ
దుస్తులు
రాష్ట్రానికి
కరు
పామ
మహాన
కుమార
నున్న
విక్టో
పాయింట్
విషయాలను
మార్గదర్శ
అల్యూమినియం
##ai
##ఁడు
రాచ
శోధ
##aster
చేపట్టిన
తాత్కాలిక
పదార్థాలు
తొలిసారిగా
సందే
సాయం
##ములుగా
పక్కన
ప్రతినిధి
##uc
##యుగ
##బ్రా
ఊరు
కోణ
తీసుకె
మాధ్యమ
విష్ణువు
##ood
##నీస్
##పత్ర
##బిక్
##హత్య
మెజ
ఆందోళన
సరాసరి
సెర్చ్
##IA
గేమ్
తదిత
కోరుకు
ఉపగ్రహం
నిర్బంధ
మతపరమైన
##నేట్
విక
అహ్మ
##ంచింది
##మానియా
ఎవరైనా
పుట్టి
బొంబాయి
వ్యవస్థలు
రూపొందించబడింది
మయ
##ర్రు
##సెర్
గంధ
ఖ్యా
విసి
కలిగే
గ్రంధ
నదులు
స్వరూప
సంస్థకు
##ించబడుతున్నాయి
##డుగా
##పురి
##లిస్
వసంత
నుండే
ఇతరులు
బెంగాలీ
##ముగ
84
##ుక్క
పడే
బల్
మరల
శుభ
అభ్యా
పరమాణు
వైభవంగా
ఉత్సవాలు
##మ్మని
బంధు
వివే
మసీదు
సికింద
##వతీ
##రేంద్ర
పేరిట
##ics
##త్తుల
తీర్థ
నమ్ము
పనితీ
చలి
చెల
శ్వ
##శాలను
వాద్య
హనుమంతు
గుర్తించి
##ద్దరూ
సిక్
వేడుక
నాల్గవ
పేట
ఊపిరి
వెల్లడ
##గ్రామంలో
సాయంత్రం
లక్షణాలను
University
రాష్ట్రాలు
##పూజ
##మూల
##సల్
గాఢ
వేర
##పొందిన
##ించారని
ఉపన్యా
గంటలకు
ప్రయాణీ
పురావస్తు
విద్యార్థుల
భుజ
బాంబు
ప్రయోజ
వున్నది
శాస్త్రంలో
డు
##లుకు
సరో
క్షీ
##కుమారు
వసూలు
టెస్టు
ప్రశ్న
రాముడు
బాయిలరు
పోషించారు
79
##నీరు
##బిన్
##మూరు
Rev
##కాలకు
##పిటల్
సంక్
ఇరాన్
రంగులో
జంతువులు
పురస్కారాన్ని
##థా
##కలనం
అందరికీ
అప్పటికి
అనుసంధానం
వర్గీకరించ
అబ్బ
బ్యూ
అర్హత
##కుండానే
వైద్యులు
##pr
Sh
##లాండు
ఈశ్వ
నాణ్యత
ఆపరేషన్
గణనీయమైన
బార
శంక
గ్లా
చాంపియన్
పరిమాణంలో
>
##సేన
##టులు
177
ఆగి
మేన
కొడు
తీర్మ
రిచర్
వినాయ
బుద్ధి
కృత్రిమ
చేరుకున్న
నిష్పత్తి
రాజస్థాన్
87
##రోడ్
రాజీ
భీష్ముడు
##శాస్త్రంలో
కనుగొన్నారు
##ID
##az
జమ
##పేస్
##ధికారి
##స్తూనే
అన్నా
ప్రవక్త
మహాసముద్ర
పరిష్కరించ
##టీఎం
##ట్టం
తొల
##ార్ట్
1949
వీజీ
పరిచయ
ఓడించి
డిపార్
తీర్పు
సున్ని
సుప్రీ
ఘ్
##న్నం
Con
యాం
కుదు
ఎత్తున
రైతులు
శారీరక
సంక్షి
అత్యవసర
పోటీలలో
##కియా
##చక్ర
##వాల్
కవరే
త్రా
ముట్ట
అట్లాంటి
ఆలయానికి
ప్రోత్సాహ
నాయకత్వంలో
##చర్ల
##వర్మ
##వింద
120
ఆరాధ
నివారణ
మనస్సు
వెర్షన్
చంద్రశేఖ
##ేలా
Ph
##మియా
##ంగానే
1954
##వృత్తి
సంకలన
సుల్తాన్
ఉత్పత్తులు
##NA
##ర్సు
తత్
తామ
వెళ
హెడ్
##ట్నంలో
తగినంత
గ్రాడ్యు
మ్యాచ్లో
వీజీటీఎం
##రేగ
అస్స
అమ్మో
సంక్ష
నిధులు
నిర్మి
పెరిగే
భద్రతా
కావచ్చు
పశ్చిమాన
##గాక
ధూ
ఆడు
##వలెను
మాంచ
అండర్
యార్క్
తయారుచే
రోజులలో
పండితులు
విస్తరించింది
##క్యం
##బిల్
##ాయిడ్
సైట్
##radesh
ఇష్టం
అద్భుత
ఏర్పరు
గూర్చి
ప్రశ్ని
ప్రస్తావన
సంగీతాన్ని
##త్తర
##యోగం
మరు
##మింగ్
బ్రాండ్
సహకారంతో
విడుదలైంది
సందర్భాల్లో
వాన
నందు
లైఫ్
##ద్దీన్
శంకర్
##ach
పఠ
##గ్జా
స్నాన
##జనం
దై
##ధిపతి
##పోవటం
ఆర్య
పన్న
అనునది
పెట్రో
క్షేత్రం
ఐక్యరాజ్య
ముఖ్యమైనవి
##SA
##కళా
శివా
##టర్లకు
##లోనికి
ఎకరాల
కచే
నటన
రుణ
వదల
పిండి
పుల్ల
కార్టూ
క్రిస్టి
మంత్రిత్వ
##11
##లప
73
వడ
##గుప్
##బెట్ట
ప్రై
ధరించి
సంరక్షణా
సంక్లిష్ట
తీసుకువచ్చ
నం
పతా
యస్
##క్చర్
అల్లా
కవులు
వర్షపాతం
##టెల్
##మ్మీ
##చ్చని
ర్యా
గరిష్ఠ
శిష్యు
ఆంగ్లంలో
కరీంనగర్
దృష్టిలో
అందించింది
పెరుగుతున్న
తలె
నిలువ
ఫైనల్
పేజీలు
మూర్తి
##ించుకుంది
ప్రారంభించి
##హౌ
వూ
##యంతి
ఆవరణ
వివా
te
యాగ
లోత
కిమీ
నియమి
ఇంగ్లండ్
##ధ్ధ
##పతీ
ఓం
శో
1953
1959
1961
తొలు
సీతా
పనిచేసారు
రూపొందించారు
ఐసో
దేవతలు
పరిగణి
సమాంతర
బ్రిటీషు
పర్యవేక్షణ
నిర్వహిస్తుంది
##రాం
రజ
##డ్నీ
పరస్పర
వ్యక్తం
పరీక్షలు
##పది
Dep
హాజర
తెలియని
ప్రిన్స్
##బులు
178
ఎండ
కంబ
టాం
##భిషేక
ఆపరే
కెరీ
ద్రౌ
అస్థి
వినిప
మెయిల్
సహకారం
చెందుతున్న
##క్లి
Vol
శిబి
తర్వాతి
దక్షిణాఫ్రికా
##ie
##ile
##టీస్
##ట్రీ
నిరసన
పరిమితం
నిర్ధారణ
వర్గీకరణ
అధ్యక్షుడిగా
వదులుతున్నారు
89
pl
పెన
సమర
తీరు
స్పీ
స్లో
ప్రోగ్రామ్
##న్నిస్
మహారాజా
హైదరాబాదులో
విద్యాభ్యాసం
##వహ
అవ్వ
సమకా
సిస్టమ్
నివసించే
పాల్గొన్న
##శయ
##కిన
##రాదు
శిల
ఎవరూ
మాని
ఆగ్నేయ
ప్రకారము
##బ్రి
ఖరీ
యాద
##తాయని
1963
##రంగంలో
ఏకీకృత
సంఖ్యా
చిత్రాల
రసాయనిక
గెలుపొంద
##యాన
76
86
##గుడి
పల్
వినోద
కెమెరా
మునుపటి
భక్తులకు
##ఠం
##ork
##తరం
##నామా
175
సెల
జలవనరు
నిపుణులు
పరిరక్షణ
##జీవి
యజమాని
##ించేవాడు
సింగిల్
##జిక
##యిత్రి
టిబెట్
డిస్నీ
పార్కు
సంరక్ష
హార్ట్
తమ్ముడు
రాజవంశం
చేసుకునే
కిలోమీటర్లు
##కౌ
##క్కిన
##తుడైన
రచయితగా
ప్రవేశించి
##నియ
పదే
ఫార
##క్షేప
1951
శివల
##ఫీల్డ్
నౌకాశ్ర
83
##బెత్
కొలను
వుండి
##istrict
పురుగు
రాశాడు
ప్రకటించాడు
##మయ
##నీటి
యాక్
తీర్చి
లక్ష్యంగా
కార్యకలాపాలు
##ip
సద
ఐదవ
భేద
##కులతో
1942
ఇంకొక
ఉపాధి
థామస్
##భిప్రాయ
జలవనరుల్లోకి
##యిం
##లనూ
Press
స్పంద
చేస్తు
నాగేశ్వరరావు
93
మచి
మర్
టాప్
పోర్
వేణు
కష్టం
వాటర్
మార్చు
##ించుకునే
డాలర్లు
గ్రంథాలు
##బడుతున్నాయి
వద
యెుక్క
హిందువులు
ఆత
##కార్య
అనుచ
విటమి
మాంచెస్టర్
##లము
92
##edia
##త్వము
తుది
##పుణ్యం
ప్రసంగ
లోనికి
రైల్వేస్ట
1958
కాంట
నుంచే
లైబ్ర
సమగ్ర
మైళ్ళు
స్మారక
హక్కులు
వాడేందుకు
ఆంధ
cont
విస్
నార్త్
కృష్ణుడు
మెజారిటీ
ట్రాక్టర్లు
##నలి
##పోతాయి
##ింగ్స్
కావున
బిజిన
సంక్షోభ
##itt
94
సకల
జులై
ఉక్కు
##ప్మెంట్
##పడుతున్న
సంస్థలో
ఎన్నికలు
బెంగుళూరు
##oth
##యానా
##రాని
##వాటి
##ర్వేద
##ించబడే
ఈస్ట్
మోక్ష
సాయుధ
మహాభారత
##act
##tment
డబ్బ
అందరు
ప్రొడ
మనస్త
మౌలిక
అలెగ్జా
నిర్మించి
##ాక
##ముకు
గోప
##ించని
డెవల
నాన్
బంతి
గణపతి
విండో
ఇక్కడే
స్టాక్
ఉదాహరణకి
స్థిరమైన
##భరణ
##రర్
sh
##టినీ
అమి
కలగ
మెడి
##బెట్టి
విభాగాలు
నాగార్జున
##బాల
బస్
##తులైన
కొలి
##క్కిలి
భూకంప
పురాణం
సైనికులు
చారిత్రిక
తిం
గులా
మూలక
నోబెల్
విమానం
పరిష్కార
##గీత
డార్
##కారిణి
చదివి
బ్యాటరీ
మారుతుంది
మాట్లాడుతూ
web
తగి
దుః
ముర
శ్రా
ఉత్సాహ
బోర్డ్
పర్షియన్
##man
సతీ
##మానులు
కార్బ
పునరా
మోహన్
చక్కని
విశ్వాసం
విస్తీర్ణం
శ్రీకాకుళం
##టలు
##లోక
##క్రా
గమన
సంజ
పాటి
ఎందరో
ఓట్లు
కారణాల
ఆరోగ్యం
సాంప్రద
AD
##యార్
##ల్ఫ్
సహచ
ట్రో
చేపలు
పెట్టింది
##ంకి
##గంధ
ఇద
##తూనే
##విధాన
స్టో
ఉత్తర్వు
సంప్రదాయం
96
##రాడు
##విస్
అండ
##ారాలు
కూచి
తెరి
##ప్రోలు
వ్యూహ
##వేత్తలు
చిక్కు
మార్చారు
నిర్మించబడిన
##ునికి
##పడతాయి
పిలవబడే
ఉంచి
ఖమ్మం
పరికరం
సంకలనం
##న్లో
##లింది
##స్థలం
##ాయిల్
జగన్నా
వేలాది
శృంగార
##త్వానికి
ఎలక్ట్రానిక్
##వేసి
కుంభ
తెలిసి
సురక్షిత
కార్యదర్శిగా
శ్రీకృష్ణుడు
చీక
దిగ
wiki
అవలం
తిరగ
సంకీ
వాడకం
##చేందుకు
దేశాలకు
మానవులు
పాల్గొన్నాడు
##వాలు
విఫ
చూసే
పాటల
ల్యా
వేర్
ఒడిషా
ఆచార్య
##ire
##ణము
మద
##జ్యో
గడ్డి
ల్యాండ్
తేమ
నైరు
వాక్య
ప్రేరే
విలక్షణ
తీసుకువె
##ran
##పోటు
##లాస్
##షన్స్
కాపీ
బోస్
వేరొక
నిన్ను
వైద్యుడు
అభయ
##సమితి
అనుభవం
పౌరులు
ఆత్మహత్య
##నొ
##ram
##వాల
##నాటక
##కుంటుంది
కనిపెట్ట
బిజినెస్
లేకపోవడం
Ed
ph
##డ్రో
మక్
##ology
కట్టి
విజేత
ప్రభావిత
అధికారాన్ని
##IN
##ందనే
పరు
రూపొ
మల్లి
రక్తం
స్పందన
కలుసుకు
##PA
##భై
##డమ్
##లస్
##లార్
ఘంటు
ఎత్తి
డ్రైన
ఇబ్బంది
క్లోరైడ్
ప్రతికూల
విజయనగరం
ముస్లింలు
మురుగునీటి
##CA
##సొ
##లక్
##పూరు
ఉండు
అచ్చు
కొమ్మ
ఉన్నవి
స్టీము
దేహ
##ణులను
అన్య
కెన్
గ్రూపు
పరిషత్
నైపుణ్యం
##han
##ామో
##లాక్
##వాలో
##ామణి
నిరోధక
పద్ధతులను
పిలిచేవారు
శాస్త్రజ్ఞ
నేత
టన్నుల
సౌందర్య
అందించాడు
చెప్పబడింది
గుర్తించబడింది
##తొ
##టాలు
##లాలు
దర్
ఏలూరు
##కుంటాడు
ఇందిరా
ఎడిషన్
స్క్రి
స్వభావ
నగరాలలో
ప్రయోజనం
##దళ
CM
ఘవ
క్వీ
ఉపయోగం
మచిలీప
స్క్రీన్
పుస్తకంలో
నిర్వహించెదరు
##్వే
##బద్ద
అల్ప
హోల్
పడింది
నాగరికత
రిచర్డ్
సింగపూర్
700
##ప్టెన్
బాలిక
అధ్యాయ
దిక్కు
సమయములో
##ey
ఆద
అధికం
నవలలు
అధిపతి
శివుని
చరిత్రను
పరిపాలనా
##పాది
##వ్స్
పంద
బ్రో
##వారిని
కల్గి
గ్రహీత
##భాగానికి
బెంగళూరు
గణాంకాలను
##డనే
##తము
అనా
ఇల్లు
ప్రియ
మెరుగ
మార్గాలు
##iss
ele
కంచ
చెట్ల
మినహా
వార్త
నువ్వు
భీముడు
దిగుమతి
##రని
##ates
##శ్వాస
##ల్లోని
నగరాలు
శైలిలో
అప్పుడే
గట్టిగా
చెందినవారు
##ugh
##చరణ
ఛై
ఉదయ
ఘాలు
బలంగా
మలయాళ
కామర్సు
##ింపబడింది
ఆధిపత్యం
సుబ్రహ్మణ్య
గుర్తించింది
##ML
ఆరవ
గాథ
Andhra
వుంటాయి
##టము
BC
##న్యం
##క్టర్
ముగు
##కరించి
అరుదైన
భగవంతు
మార్టిన్
కనిపించింది
##తిమ
##గలదు
అసం
శార
##సులను
1936
##రెన్స్
World
ఉండవు
తిప్ప
భద్రత
మూత్ర
##artment
ఆన్లైన్
వెళ్ళారు
##డను
అపో
దోష
##ఫర్డ్
##స్ట్రీ
చోట్ల
స్కాట్
హెల్త్
విముక్తి
మాంస
రిజి
డ్రైవర్
సంస్థలకు
ప్రఖ్యాతి
##ంసం
పొగ
##ళ్ళతో
రష్యన్
పరిజ్ఞాన
షీ
##కూరి
##ళ్లి
క్య
చంపి
సూచన
ఉపకరణ
తెలుస్తోంది
ఉపయోగపడుతుంది
##వరీ
ఐతే
##ట్లలో
ఆజ్ఞ
తీరం
చేర్చు
విస్తారమైన
##శాంత
ఆతి
##గ్రఫీ
##బ్లిక
సిస్
##ప్రధాన
కడుపు
సరిపో
రూపాయలు
పెట్టాడు
మిక్కిలి
వయస్సులో
సభ్యునిగా
ఎముక
సంధి
దుకాణ
బ్రౌన్
వాడుతారు
పుస్తకాన్ని
##ism
##గామ
చేయి
మాలి
ద్రావ
ఫలితం
అభిమాన
మూలాలు
నెమ్మదిగా
పెట్టుబడు
##చారి
##టును
##ప్లో
రాగ
##ట్లకు
##ెర్రీ
మోతా
సిరి
దీక్ష
##మవుతాయి
ఇంజిన్
సరిగ్గా
ప్లాస్టిక్
##aw
కట
చిం
1939
సెంచ
కుట్ర
డాక్ట
భాషగా
శ్వేత
సరస్వతి
చెప్పుకో
సికింద్రా
తగ్గుతున్న
దర
##చ్ఛి
బండ
యోగ
అయిదు
ఏటియం
ఘటనలు
ధ్వని
స్వచ్ఛంద
అవార్డును
##శివ
##టట్లు
డ్రా
మధ్యా
ఇవన్నీ
తీర్చు
బోరుబా
సీజన్లో
సామర్ధ్య
అందుకున్నాడు
##రొ
##hen
చిన
##కారుల
##మానిక
ఫెర్
##స్థితి
ఎంటర్
ఏర్పడే
దేశంగా
సంగీతంలో
దినోత్సవం
పురస్కారాలు
##ాలకి
శోభ
కారి
ఏనుగు
సివిల్
ఉండాలని
గుడివాడ
సుప్రీం
##మంటే
వేష
పోరాడ
ఒడ్డున
లక్షణం
అందుకుంది
##చడం
ఎన
మం
##opul
##న్యూ
##విక్
##హాన్
సేన
అంచు
టార్
సభలో
##బడినవి
సిడ్నీ
ఫలితాలు
అనారోగ్య
కాశ్మీర్
జరుపుకుంటారు
##25
##ోప
##une
##రకాల
##హెచ్
కెఫ
సౌర
##లాంటి
ఆడిన
రాసి
##స్టిన్
##ించేది
నగరాల
పీటర్
లూయిస్
అనంతపురం
##టాల
మడ
##తెలు
##సభ్య
వామ
నోటి
రోగు
గుట్ట
ఏదేమైనా
సమ్మేళన
Department
AP
##ాయణం
ఇంక
తిమ్మ
ఏర్పడి
నివాసం
వాస్తు
పార్టీలో
##ేశ్వరస్వామి
ముంద
అమరిక
తొలుత
ట్రాన్
నూనెను
ప్రవాహం
డ్రైనేజీ
వ్రాశాడు
టోర్నమెంట్
##IT
##దాస్పద
స్టాన్
ఇన్నింగ్
దుకాణాలు
ప్రీమియర్
us
##raph
##జాలం
Dec
##జొన్న
హిట్
కెఫెలు
ముక్కు
వేసుకు
అవార్డులు
##ంస్
##జులు
##తోనే
##ంచిగా
##కేషన్
##సేవారు
కరువు
విశ్ర
పొట్టి
##భౌ
ఛా
##టిగా
1937
##ించడమే
##కరించిన
సమీకరణ
లక్ష్మి
వివాదాస్పద
##vi
##orm
##ణులు
##స్కా
పడవ
శతక
గడ్డ
ఛాయా
బ్రే
తొలగి
సంస్కృతం
రాజ్యాంగం
భాగస్వామ్యం
##ict
##మూరి
వేళ
జగ్గ
పూర్ణ
చర్చలు
సమాధాన
మొక్కజొన్న
DA
##పట్ల
##సింహ
గానూ
పద్ద
##లనుండి
వన్డే
సత్యా
స్థిరంగా
మట్టిరోడ్
స్పష్టమైన
##able
కమ్మ
పడమర
యందు
శివు
ఈజిప్
పాయిం
ఉండటంతో
బ్యాట్స్
స్ఫూర్తి
వాతావరణంలో
##24
##యును
##స్క్
అక్కి
వేశారు
ఆక్సైడ్
సాగింది
అనువర్తన
విస్తృతమైన
ప్రపంచంలోనే
మట్టిరోడ్లూ
##ari
##జలి
##ేల్
##stit
##భూతి
##రాజా
తీగ
మూడ
##ప్పున
గోధుమ
చర్మం
బర్మా
హిమాలయ
అరెస్టు
ప్రశాంత
ఆక్సిజన్
విక్టోరియా
విస్తారంగా
##జాం
##వాహక
##ండ్స్
నమోద
బాలీ
నడిచే
మొక్కల
##ించకుండా
నామకరణం
పదానికి
సముద్రమట్టానికి
##స్యం
ఆగ్రహ
జూలైలో
కుదుర్చు
సినిమాలకు
ఉపసం
##రాన్ని
కల్పి
ప్యాల
విడిగా
అన్నింటి
భాగస్వామ్య
అథ
##ట్ను
##కర్షణ
కురి
జాతర
##జ్యోతి
బాస్క
చేయబడి
రీతిలో
##యను
81
హర
##తుని
##ప్లే
డెస్
డ్యూ
వంశీ
వాగ్
##వాళ్ళు
కణాలు
స్థాని
ఆధిపత్య
ప్రదేశాలు
##ma
##ame
ఆర
##eral
ఎకర
నల్
ఓటమి
##తుండగా
దళాలు
మాంసం
ఉత్సవం
ఫెస్టి
ఎదురుగా
మోస
రకర
సృజ
సాల్వ
సామర్థ్యాన్ని
##ఫార
##యందు
ఎయి
ధరించ
చికాగో
##కొన్నాడు
స్వభావం
విరుద్ధంగా
##ధర్
SA
160
కరా
గ్రె
##తులుగా
సర్వీస్
స్టేషన్లు
నిర్వహించి
##దక
##సామ
నలు
మెడ
ఫ్యూ
##ెంట్లు
అసమాన
ఆకట్టు
మరోవైపు
ముహమ్మద్
##స్తున్నట్లు
Co
లౌ
దృక్
వ్యూ
##టీరియా
నుంచీ
ఫస్ట్
చివరలో
మునిగి
Pradesh
ఉండేవాడు
చిత్రాలకు
కలుగుతుంది
##ంటల్
##కుడైన
ఎడ్యు
సంక్రమ
సిక్కు
గాయకుడు
శాసనాలు
ఇవ్వబడింది
మార్చబడింది
కార్యక్రమాన్ని
##బోధ
బ్
##న్నర
రవీ
##ంపూర్
##వరంలో
నికో
బాధి
కప్పు
నైతిక
మిషన్
రెండే
ఇస్తారు
చదివాడు
ప్రధాని
ఫ్రాంక్
పిల్లలను
పోషించాడు
సంవత్సరాలకు
##నస్
##ేవ్
కడ
##డెల్
##రికం
##ులలో
కథల
తరి
నిధి
ఆక్రమణ
నివాసి
విగ్రహాన్ని
##టేజ్
##తికే
##యాను
##లును
శాం
Publ
రబ్బ
##ాలన్నీ
జీర్ణ
దేవతల
కవరేజి
బంతిని
స్వర్గ
ఇక్కడికి
##కాండ
##గాకు
ఉరు
ఓట్ల
గొంతు
వీలుగా
ప్రశంసలు
##80
##దార
##మనీ
##రహిత
ఎకన
చర్
యురే
ఘనంగా
చేయని
బీహార్
యాత్రి
ఉద్యానవన
వ్యక్తిగా
పనిచేసింది
అందుబాటులోకి
స్థాపించబడిన
##గుంట
##నిర్మ
గుండ
##డ్జెట్
కపూర్
క్రమం
నిశ్చయ
మానవుల
శివాజీ
కావాలని
కనుగొన్న
చనిపోయిన
వినియోగదారులు
##కాక
##సియం
code
ఉగ్ర
భాషల
##కర్తలు
అంతగా
అలవాటు
కోర్ట్
పక్షులు
ఉదాహరణలు
ఒలింపిక్
రాజ్యంలో
ఎన్నికైనారు
##నాతన
##శిల్
ఊరేగ
సూచించారు
##ేన్
##పర్చ
##ార్ధం
కారణాలు
భాషల్లో
తెలిపింది
నిర్మాణాలు
##ేరు
##క్కలు
విరామ
అలోపతీ
కర్మాగార
గెలుచుకుంది
సంవత్సరాలుగా
##BA
##రిలో
##జీవిత
రాము
కాకతీయ
మలేషియా
తయారుచేయ
పరిశ్రమలో
##ారూప
1931
1938
రత్న
సాను
నెలలు
ప్రభు
భర్తీ
##తున్నాడు
పట్టణానికి
##బౌ
##రమణ
ab
##సును
ఒరి
కమీ
పేజి
ద్వారం
సాక్షి
ఉస్మానియా
టాటా
దరఖా
##ఎస్ఎల్
పాటను
వైమానిక
వనరుల్లోకి
పధ
వధ
##శ్రే
ఆటలో
లార్
ముద్దు
ప్రముఖులు
##ేజ
}
##కని
##త్థ
WW
##చాయి
##ాయుడు
##ెల్లా
పబ్లి
హార్డ్
ఉత్తీర్
##వంశ
##తేదీ
లక్
ఆకుప
భ్రమ
పనిని
బియ్యం
మొదటగా
అంతరించి
తీసుకునే
GO
ఇస
దాల్
నివేద
చురుకు
సమయాన్ని
##pl
##ట్జర్
##వేషన్
ఫ్రే
వాసన
పెళ్ళ
చివరిలో
ఛైర్మన్
ప్రాంతంగా
హైడ్రోజన్
చిత్రాల్లో
##వాను
మేళ
పోషి
సారం
స్నేహ
ఉత్తరం
పట్టభద్ర
సామర్థ్య
వివరించారు
##ys
##దను
##నాగ
##ండరీ
##ణంగా
##వులో
##ుడైన
##ులతో
తదన
దుర
స్ర
##పర్వత
కోటి
జరిప
వన్య
అద్దె
ధర్మం
ఖచ్చిత
మంజూరు
ధార్మిక
వ్యవహరిస్తారు
##మహ
##నిష
తృ
మోడ
##గలుగు
##దిద్ద
##ాన్యం
తేనె
సల్ఫ
సవరణ
పొందే
తెలుసుకున్న
వచ్చినప్పుడు
##టార్
##ట్టె
పరం
వంగ
##యులకు
1935
ఎస్ట
గన్న
జమ్మ
##చేశాడు
కాలము
విభేద
సమస్త
వర్గాల
##కున్నాయి
ఐరోపాలో
కూచిపూడి
కెప్టెన్
##బర
##దనం
##నంద
##ఫెన్
ఖాతా
గురై
యువత
నేర్ప
భాగము
##పల్లిలో
నాలుగవ
రెట్లు
సిద్ధం
శీత
చారు
మీకు
మేలు
##పెట్టు
అవశేష
ఆవశ్య
ఇంజన్
పర్యటన
మందులు
రకాలుగా
ఆవిష్కరణ
##df
##ash
##ైట్
అత్త
బ్రౌ
##ప్రసాద్
కొట్టి
ఇంటర్వ్యూ
విధానాలను
రాష్ట్రాల్లో
##ధ్వ
##రోహ
##ోపా
దయ
దళిత
శాంత
యాంత్రిక
చెల్లింపు
విలియమ్స్
కిలోమీటర్లకు
##65
##LA
##ef
##నైన
భూత
##యున్న
##ానియా
మిరప
ఆర్మీ
వీక్ష
##కున్నది
##మైనదిగా
##స్టింగ్
ఆటగాడు
ప్రయత్న
భాగాలను
ఏర్పడును
గణనీయంగా
##సస్
##సెఫ్
జరిగ
దుఃఖ
రాధా
సమన్
పిలుపు
చెయ్యడం
తెలిసింది
##ఢ్
##దిత్య
దుకాణం
##త్వంలోని
ప్రవర్త
అధ్యయనాలు
భర
##మియం
##రాతి
ఆవు
నడప
##కులలో
##వేంద్ర
చౌదరి
పక్షి
పదిహే
ట్రేడ్
మంచిది
లభించే
విశ్వస
ద్రౌపది
విమర్శకులు
##CC
##ave
##కేల్
##ంలోనూ
క్లి
భక్త
మెట్
వర్మ
చేయుటకు
ప్రక్రియలో
ఫ్రాన్సిస్
ప్రజాస్వామ్య
##23
##ple
UN
తం
##ర్రె
గ్యా
సాహస
Telugu
దశకంలో
వైష్ణవ
అబ్దుల్
డిమాండ్
##yd
##ack
##నాట
##డీస్
మాడ
ఇజ్ర
ఇబ్ర
లైట్
##ంపల్లి
అతిథి
ఎద్దు
భారతి
భవనాలు
సంకల్ప
చొప్పున
పన్నెండు
##విష
అజ్
సుర
ఎప్పుడు
కాంగ్రె
పూర్వపు
విండోస్
##పాన
III
బిగ
లవ్
భోజనం
సమావేశం
##ధర
##ica
##తాళ
Is
ఎర
##దేవర
నీల
శక్
క్లై
రాలే
##ినేషన్
సత్యం
సిద్ద
గోవింద
ఫీల్డ్
మరొకటి
మోటార్
శాతవాహ
##మయ్యింది
విప్లవం
గోల్డెన్
బాలీవుడ్
గ్రామంలోని
అనుసంధానించ
ప్రదర్శించారు
##ళ్వ
హూ
దీర్ఘ
అధికరణ
వ్యాధులు
ఎట్
ఘంట
పతన
##కొత్త
చేయుట
చేరాయి
స్కోరు
రంగాలలో
సైన్యాన్ని
##లాన్
##మాన్య
నాణే
వారే
##త్మకంగా
కెరీర్
మోతాదు
దర్శనమి
విగ్రహాలు
##దిశ
పల
భే
##గూడు
పూల
##గతంగా
లెస్
సూచిక
ప్రయోగం
సముద్రపు
##సీమ
CD
##కిన్
ఫ్ల
భరత
పీల్
బయటి
వికా
సెమీ
బొమ్మలు
నిర్మాణాన్ని
నిర్వహించాడు
సంవత్సరాల్లో
##సౌ
##res
##పాక
##ాయన
ro
##టులో
##బ్యూ
బుధ
1941
వేసే
ఆలయాలు
ఈస్టర్
పాత్రకు
##ష్క
పృ
నటీ
మత్
పాడే
విత్
అనుకో
బయటికి
సమయంలోనే
##యుగం
1932
రోజూ
ఇండోనే
జలపాతం
జాతికి
ఉపయోగిం
##తలో
##ములా
##ాయామ
టెం
తడి
##ార్కి
బంగా
శత్ర
##దిద్దు
##వడానికి
సాధ్యం
కాలములో
ఆస్ట్రేలియన్
##భం
##కురాలు
##బడలేదు
పత్రికా
ఇంద్రుడు
సాంప్రదాయిక
##రణ్
##ound
110
ఉగా
చీర
##ద్దరి
##మాత్ర
నగదు
నీతి
హ్యా
కామన్
డివిజను
లైబ్రరీ
వ్యవసాయా
ముగిసింది
##oh
##మగు
##ions
ఆర్గ
తవ్వ
త్వర
యుగం
సిగ్
##క్షుడు
ఇంధనం
సాక్ష
చేయడంతో
ఫిలిప్ప
సంఖ్యను
చేపట్టారు
##దిన
##చుకో
జరప
సదా
##పర్తి
నిజం
అవినీ
మనుగడ
వర్షా
వాడిన
దానిపై
పంతులు
స్నానం
పద్యాలు
వచ్చును
పుస్తకాల
శతాబ్దాల
దొర
##ెల్స్
విలు
కోటను
బదులు
##పడ్డాయి
కాలేజి
ప్రాచీన
తప్పనిసరిగా
చేసుకోవడానికి
##ser
Jan
కంద
గాక
##ించలేక
article
చేయడంలో
విశ్వసి
బాస్కెట్
సర్పంచిగా
##భో
##ank
##పస్
##లలోను
##సెంట్
గుండ్ర
గ్యాస్
భూములు
పెద్దలు
సూర్యుడు
విభజించబడింది
un
అగు
ఎన్న
దట్ట
ఆవిరి
నటనకు
##స్తాయని
##ాలనుండి
దుర్గా
మెరుగైన
కాలంలోనే
పాల్గొనే
##సమా
గై
per
వసు
##నట్లు
1928
గ్రి
పూజా
సియా
జొన్న
బిందు
వారసు
అరేబియా
పదార్థాల
రాజేంద్ర
పార్లమెంట్
చరిత్రకారులు
##బరి
pdf
డచ్
క్రు
ఫెడరల్
సాపేక్ష
##చిక
TV
##పాలకు
అవని
##ేశ్వరి
జీవులు
వేగంతో
వేదాంత
ఐదుగురు
అనుసరించ
భాగాలుగా
సౌకర్యాలున్నాయి
##ంజి
##దీయ
##స్టల్
ఆభరణ
పరాజ
హస్త
##త్తుగా
ముప్ప
రౌండ్
సోషల్
చిన్నతన
డిగ్రీలు
ఎల్లప్పుడూ
##29
..
...
గూఢ
##కుమారి
##వ్వులు
వస్తే
క్రాస్
ఖ్యాతి
ఇక్కడకు
గ్లోబల్
రెండవది
విద్యాలయ
##పిం
##ater
ఏడవ
బీజ
##దులను
బేస్
ఎంతగా
చేతుల
సోదరి
ఉత్తరా
కొట్టు
క్వార్
పేరుగా
అభివర్ణ
మహమ్మద్
కలిగింది
సన్నిహిత
సభ్యుడిగా
##63
##చల్
##నిన్
ఉరి
ఐర్
దాట
##యర్స్
పతనం
చదివే
ధైర్య
నెరవే
రంగుల
సాయంతో
##RF
లం
##తుండ
కవా
కలదు
ధోరణి
జ్ఞానం
దెబ్బతి
విటమిన్
##rd
##ూల్
ఆకలి
ఒకడు
కాగిత
ప్రతిపాదన
ప్రభుత్వాన్ని
ఒంగ
ఘనత
చురు
జోర్
##ించేలా
పీడనం
సంపర్
క్లాస్
బంగారం
ఇస్లామిక్
ఉపయోగించు
##ర్మా
##వైద్య
1900
మిని
స్టి
ధాన్య
మహాసభ
రెస్ట
కళ్యాణ
క్లిష్టమైన
##థు
ra
##లోన్
చవి
##ర్మిన
బండి
ముద్ద
ఆంగ్లే
సహజంగా
సూత్రం
వెనక్కి
మార్గాన్ని
కృష్ణమూర్తి
ac
##ద్దా
##ఫియా
108
1944
నన్న
ఫాల్
అదుపు
ఆవిర్భ
దీనినే
వెన్నె
స్మిత్
యువరాజు
ఎడ్వర్డ్
కూరగాయలు
పర్యాటకు
సంభవించిన
పరిస్థితుల
మొత్తాన్ని
రాజ్యానికి
వినియోగదారుల
##హారు
గాల
ధృత
##వృత్త
కనుమ
ఘట్ట
గ్రీక్
గవర్నరు
ఉన్నందున
చాలావరకు
ప్రిన్సి
ప్రవేశపెట్టారు
##ళహ
##ors
##తుక
##కెన్
##ాగన్
నాద
శ్య
పలిక
అలానే
హైస్క
##నప్పుడు
నిలుపు
పర్వతం
సమస్యల
ట్రాఫిక్
##రిస్తున్నారు
ఎన్నికయ్యాడు
##మల్
##ట్టో
శైవ
కేప్
రుసు
##వంతుడు
##సుకొని
కొద్దీ
ఆయుర్వేద
##ome
##ents
##ight
##ెర్ల
అసంత
పౌరా
ఆకృతి
ఆచార్
ట్యాం
బూడిద
మూలకం
కంట్రో
చేర్చి
యంత్రం
లార్డ్
నిరంతరం
సంస్థగా
కమ్యూనిక
##నాశ
##మునందు
ఒంగోలు
పాటలను
ఆకాశవాణి
చిత్రంగా
##ించబడుతున్న
ఆక్స్ఫర్డ్
వ్యవహరించారు
##ooks
ఎలు
ఏటా
విన్
వియత్
జర్నలి
దాడులు
హార్మో
చెబుతాడు
##ించబడ్డారు
పోర్చుగీసు
##యీ
##oci
##ేణా
##రేష్
అలి
ఓటు
తగ్
మస్
ఇతడి
బీచ్
మాయా
మెర్
##దానికి
నగరంగా
పరికరాల
వాయువ్య
పండితుడు
ప్రార్థన
వృత్తులు
##ఇతర
##నాం
##డితే
##బాయ్
##వులతో
క్వి
ఇబ్రహీ
చక్రవర్
తొలగించి
బ్రెజిల్
రావడానికి
##పల
##amb
##ినో
##ప్రె
##మిడి
##నర్జీ
మెల్
భాగవత
##మయ్యారు
జోసెఫ్
సినిమాతో
అక్కినేని
##గై
##ase
ind
1933
పంది
సాల్
##స్థాపన
ఆరంభం
విధ్వ
వాల్యూ
వెలువడిన
సమావేశంలో
స్థిరపడ్డారు
స్వీకరించారు
నశ
నకు
##ితమైన
1934
కాస్
మేధా
##చుకొని
##న్నాను
ఎనిమి
గంటలు
వెళ్ళు
దగ్గరకు
పాక్షిక
మొదటిది
సమూహాలు
ఇంగ్లాండు
ప్రక్రియను
స్థానానికి
దేశవ్యాప్తంగా
##క్షు
##ధిలో
##వంతి
##సార్
మరియ
అవతార
ఇంతలో
ఛానల్
పితామ
సాగిన
ఒకరోజు
తయారీలో
ధరించిన
పార్వతీ
విశ్రాంతి
##ధీన
##సలు
##ట్జ్
##డిల్
##దేవ్
పడమ
##దర్శన
మోల్
సమర్
##పోవచ్చు
పట్టిక
##కరించాడు
వస్తారు
డిస్ట్రి
చేసుకోవడం
ధృతరాష్ట్ర
రైల్వేస్టేషన్
ె
Ms
##జిక్
##ర్జీ
##లాల్
##ధులకు
##జీరియా
##వుల్లో
తక్షణ
పండ్లు
ఆహారాన్ని
మొట్టమొదట
ప్రభుత్వము
క్రీడాకారుడు
##umb
##కుం
##ఖండ్
అపర
##ెక్ట్
రోమ్
వడ్డీ
హాంగ్
గులాబీ
రకరకాల
ఆకారంలో
##outh
##జెస్
##వాడి
##జియన్
##ేశ్వరుడు
ఉద్యోగి
ప్రమాణం
పాండవులు
హైకోర్టు
ఆఫ్రికాలో
చలనచిత్రం
ఛాంపియన్షిప్
##పిడీ
ఆడే
అమృత
ఉప్ప
సన్మ
##మయింది
కాస్త
మెత్త
కర్నాటక
బడ్జెట్
ప్యాలెస్
హక్కులను
విమర్శకుల
##పన
##విజ
చెడు
రోబో
ఆర్గనై
కొండలు
చిహ్నం
వాటితో
చుట్టుప
##ప్రాంతంలో
##iles
##మిన్
కుం
##సరికి
##ించదు
1921
1929
గౌతమ
యాని
రాశి
ద్రాక్ష
కంపెనీలు
సంబంధాన్ని
##హర
##ాడ
##ata
##ముఖి
పదు
అరబ్
కందు
పొటా
పలుకు
బెస్ట్
##opulation
టెన్నిస్
భాగస్వామి
వహిస్తుంది
క్రైస్తవులు
జారీచేసింది
##మ్మట
##లుసు
USA
అస్
దళం
##మోహన్
##స్టులు
అభ్యు
ఆత్మక
ఉల్లం
ఇంజినీ
ఇష్టపడ
పాలకుడు
ఎలక్ట్రో
బలవంతంగా
పత్రికలలో
సుయోధనుడు
పదార్థాలను
సృష్టించిన
ముగుస్తుంది
##27
##59
##తర్
##enue
##ట్లతో
ఘకాల
పోగొ
##యానికి
చూపిన
అభిమన్
కార్యా
నిబంధన
రాజవంశ
సదస్సు
సాక్ష్య
తిరుగుతూ
పనిచేసాడు
ప్రచారంలో
ప్రయత్నంలో
##ారణ్య
##ితంగా
ఒత్తి
వైపున
గ్రాఫి
##స్తుంటాడు
అక్కడికి
అవనిగడ్డ
నియంత్రి
ఉండటానికి
చెబుతుంది
సముద్రంలో
కార్యక్రమాలలో
##ft
##hed
##ంపి
##జోన్
##లిలో
##ిల్లా
ట్యా
ఇస్రో
లోతైన
సొంతం
చైనీస్
సిస్టం
ఆరంభంలో
జాలగూడు
వేసింది
అనుకున్న
పత్రికలు
ఫలితాలను
##దయం
71
##ర్డ్
పాప్
##వారిలో
కవితలు
న్యూజి
యూరోప్
సారిగా
##కొన్నారు
చెందాయి
ముగిసిన
వత్తిడి
క్రిస్టియన్
##CR
##్వా
భార్
నమస్క
క్రెడి
ఫాక్స్
దృష్టిని
##గ్రామానికి
అదేవిధంగా
మొదటిసారి
సంక్షిప్త
వైద్యశాలలో
అమెరికాలోని
##డల
##ంచె
##వరు
కోచ్
నచ్చ
ఎమ్మె
పాండి
వారాల
అసిస్ట
బెల్లం
సేవలంద
పిక్చర్
శనివారం
పరిస్థితులలో
##ఘు
##ణుల
61
ap
##ిందో
అవయ
హార
పోలిక
రద్దీ
సామూహ
సుపరి
సమానమైన
పాత్రలను
గ్రామాలలో
నారాయణరావు
మాదిరిగానే
సూచిస్తారు
బ్రాహ్మణులు
##DP
##ారట
##గితే
##జెర్
##లులో
పరో
లంక
స్త
ఆక్స
ఆల్క
శంకర
సాత్య
చెప్పడం
సినిమాను
పర్యవేక్ష
సామ్రాజ్యంలో
భావించబడుతుంది
##ఖీ
£
et
tr
తేజ
##లన్నీ
##ానాలు
పారా
రచనా
లోకో
##పుల్స్
విరివిగా
కుటుంబాలు
సత్యాగ్రహ
న్యాయమూర్తి
ప్రచురించిన
##బస్
##తత్వ
##దాలు
##వూరు
##ష్టం
సంహ
హోట
##్రాక్
అస్ప
నీలి
పత్తి
అంకితం
కొన్నా
స్పేస్
నాటకంలో
రవీంద్ర
రెస్టార
మనస్తత్వ
##ober
##స్వర
కటక
ఘని
##ంబ్రి
తోడు
##క్తంగా
యాంటీ
కర్ణుడు
ఆర్థికంగా
భారతదేశపు
ప్రభుత్వాలు
ఎన్నికయ్యారు
##టను
జొ
అమర
మతా
##త్యాల
##త్సర్
అనిప
జ్యూ
దొరక
రచయితల
సెక్యూ
వివాహమా
స్విట్జర్
పునర్నిర్మాణ
##oll
##డూరు
రాధ
అప్ర
ఫుడ్
లెక్
కచ్చా
కాకతీ
బిందువు
మొత్తంతో
##చల
##బ్ధ
వశ
1919
కామె
పయని
ఫేస్
మీర్
షేక్
పెంచే
కావాలి
క్యూబా
నేపాల్
సర్వర్
లాంటివి
దేశాన్ని
విశాలమైన
బ్రాహ్మణు
పరిస్థితిని
##28
##att
ఛాయ
##వతేదీ
అంతిమ
వెళ్లే
ఉద్దేశం
పద్ధతుల
##వాని
##షనర్
##ముద్ర
##రుగురు
ఉపరిత
త్యాగ
సంక్ర
ఆంజనేయ
ప్రాక్
పెంపొంద
చెరువులు
బిలియన్ల
ముందుగానే
##దనే
##షను
చైనీ
తోటి
నడుమ
ఆర్టి
గిరిజ
నలుపు
##సిందిగా
అంతస్తు
జట్టుకు
యాజమాన్
ఆహ్వానించ
పాలించారు
స్నేహితుడు
నిర్వహించింది
పనిచేస్తున్నారు
##oog
##ree
##దనీ
Ex
im
##కాల్
##రాల్
##కప్పు
కుతు
డెన్
డాలర్ల
వైద్యం
శివారు
##కుంటున్న
Revenue
ఆవిర్భవ
పనితీరు
##ins
##ంగే
##షణ్
##ప్రే
Sub
మారే
##పదార్థ
కళింగ
శిలాజ
సగటున
పశువుల
పారిస్
తెల్లని
నియమాలు
పాలకులు
##ala
జాం
భూప
కూలి
దేవా
##ందరికీ
##ేశ్వర్
చర్చ్
నిస్స
బాల్య
శిథిల
దోపిడీ
స్కోర్
స్థాపన
ఏర్పడ్డాయి
##నూరు
##బుక్
not
ఆపి
మనీ
##ధారిత
##నులను
##ిల్స్
ఆరోప
స్తో
##సమయంలో
అనబడే
##వేసింది
ట్రస్ట్
వ్రాశారు
మరుగుదొడ్ల
వ్యాఖ్యానించ
##టన
##డ్జి
##ష్యం
కెట్
హుస్
అంత్య
ఇంతకు
తిరుమ
ప్రిం
##ాలీవుడ్
సోదరులు
##ళాల
##సీలు
##కుంటు
CMRF
క్షయ
##వాసులు
గురైన
census
రంగులు
ఉనికిలో
సుదీర్ఘ
అట్లాంటిక్
పొందడానికి
##బలి
##లన్
##యినా
##హౌస్
##టింగు
మోనో
which
గౌరవం
గ్రాం
యుక్త
చైనాలో
పౌరాణిక
బౌలింగ్
జాగ్రత్తగా
##CO
##నేత
up
res
##మంతటా
చిరం
మిలి
రేణు
ఆండ్ర
ఇనుము
శ్రీమ
సర్వసా
దగ్గరలో
ప్రేరేప
సమాధానం
సెక్యూరి
##ంశ
##హై
##ark
##మతం
##డ్డా
##ద్యు
మరే
##స్తంభ
గూడా
తెప్ప
భూమిపై
వ్రాసి
కాంక్రీ
ఇప్పటికే
చట్టబద్ధ
మార్చుకు
శ్రీనివాస్
##ert
##కరం
కవచ
##కత్వం
కళలు
కూడి
పాము
మధుర
తీర్చ
ఏర్పరచ
పొగాకు
యూనిట్
నల్గొండ
విజయవంత
వ్యతిరే
పాలించిన
వాణిజ్యం
అభ్యర్థిగా
##ౌక
తని
పటి
బ్య
##న్నవి
##బెట్టు
సున్న
నిజామా
వ్యాయామ
సంస్థలలో
##స్టిట్యూట్
ద్రవ్యోల్
ద్రవ్యరాశి
శతాబ్దానికి
పరిస్థితుల్లో
IP
##ండింగ్
దేశపు
మున్సి
శ్రీశై
జిల్లాల
నిర్మించ
నిలిచాడు
పోరాటంలో
రచయిత్రి
కార్మికులు
గ్రంథాన్ని
పునరుద్ధరణ
##II
##వూ
##ual
Cl
IN
భై
తాగ
##స్టిం
బీమా
మరణి
ఎరిక్
సుగంధ
##స్తామని
ఆధీనంలో
మేనేజర్
తెలిపాడు
వ్యాపించి
వివరించాడు
##rib
##ేషి
##దాకా
##సిసి
##ాలజీ
మలి
లంబ
##oogle
విషా
చక్రం
నదికి
యెక్క
దర్శనం
నిర్మూ
##చార్యుడు
నిమిషాల
డిపార్ట్
సూర్యుని
ఉద్యోగులు
##థె
CE
##మ్మె
బడి
##ేవరకు
1922
పరశు
ఇతిహా
చిక్క
దొరికి
పాత్రిక
స్వేచ్ఛా
చుట్టుపక్కల
##MS
##ెరె
Sp
cl
కన్య
కౌరవ
పదాల
అంకిత
కల్యా
డాలర్
అందుచే
అలంకార
మందిరం
మత్స్య
విలువలు
చురుకుగా
##34
##reat
మోహ
యేట
భువన
వాట్
వాది
Hindu
పొడిగ
తేడాతో
శతాబ్ధ
కాలేజీలో
చెందినవి
వ్యాఖ్యా
చేసినప్పుడు
ప్రాథమికంగా
##68
ad
##డిక్
##ద్రో
##రంగు
ఆలీ
కనక
మైఖ
##దర్శన్
కాంగ్
అక్బర్
ఉపరితలం
బ్రహ్మా
##రించడానికి
##ara
##ూన్
130
తోక
వచన
దానం
కథలను
##దారులకు
ఇద్దరి
ఫిర్యా
మ్యాన్
నిధులను
మధ్యాహ్
సాత్యకి
district
కింగ్డమ్
##ternational
సామాన్యంగా
ప్రవేశించిన
వివరిస్తుంది
##కుంట
##వెర్
##ccess
అర్చ
విధముగా
నేతృత్వంలో
చూపిస్తుంది
##TT
##ati
##విలో
##సిడ్
అంధ
నడవ
మదన
దుష్
కన్యా
పాడిన
సరుకు
దుర్యోధ
పర్వతాలు
అందుకున్న
పరిజ్ఞానం
అడుగుపెట్ట
ఐక్యరాజ్యసమితి
##షర్
కాప
ఫిల
చంపు
చేయబడ
లక్నో
ఉంచారు
ఫార్మా
సింహాసన
స్నేహితు
భావించాడు
మచిలీపట్నం
##చలం
##ాహం
##పాలన
ఇన్ఫ
అకాడె
పరిశు
విచ్ఛి
వివాదం
సంబంధమైన
కార్యాచరణ
న్యాయవాది
##69
##70
##త్న
ఐన
శర
##జిద్
##డితో
##ధారి
బురు
మరుస
ఈమెకు
కచేరీ
పప్పు
భద్రా
స్వర్
అలంకరణ
ట్యూబు
నాలుగో
దరఖాస్తు
సమ్మేళనం
మిలియన్లు
శాస్త్రము
సాంకేతికత
గ్రామాన్ని
సంవత్సరముల
##బాన్
ఇని
ధృవ
##ంటైన్
##కట్టు
##తోష్ణ
##ేషియా
##న్మెంట్
క్రిస్
సంపన్న
హీరోగా
ఆకుపచ్చ
జట్టులో
కక్ష్యలో
##చోట
##సను
##నార్
##శాట్
ఖలీ
##cient
వదలి
బంగార
మారుతూ
సృజనాత్మక
##MA
##తన్
అడు
నింద
కూటమి
చేయగా
విచార
సమానం
అందంగా
అన్వేష
చేసాయి
మరుసటి
నూతనంగా
ప్రక్కన
రూపాన్ని
##మైనప్పటికీ
కార్యనిర్
దేవాలయాలు
ప్రతిపక్ష
ఫెస్టివల్
##ఒక
##టలో
##ఫలి
##ండిన
##తుడై
900
ఉపశ
కపి
##వేసిన
కులం
తోలు
నామం
ప్రణ
లోపం
state
వ్యయం
##ామిక్స్
##తున్నప్పుడు
చోటుచేసుకు
నిర్ణయించారు
##హ్లాద
మన్న
యక్ష
హాట్
##ograph
ఇరాక్
ఫార్ములా
అంతర్జాతీయంగా
##థో
##రిస్
##కోలేక
కోలా
ధరలు
నీలం
లియో
వెనక
జీవుల
పనిము
పాండవ
బాక్స్
రాజీవ్
పరిధితో
వాస్తవిక
వ్యక్తిని
సృష్టించింది
##కణ
##బీయ
హత
##ులర్
గ్లూ
బోల్
రుక్
సావి
##సంఖ్యలో
మైసూర్
రాజశేఖ
నందిగామ
పార్టీలు
ఉద్దేశంతో
బోరుబావుల
పుస్తకాలను
తీసుకున్నాడు
##ఖో
##టుల
##దూర
##ప్లా
కాళి
కొని
మరలా
అడ్డం
పద్యం
##క్షన్స్
ఎన్నుకో
##రిస్తున్న
ప్రచురిత
##FA
##మరి
##చేయు
గరు
##త్తిన
అరటి
టైమ్
భాను
##కాలుగా
##నాల్డ్
ఒకటైన
వ్యంగ
పంపాడు
అశ్వత్థ
పెద్దది
ఐర్లాండ్
తదితరులు
పంచాయితీ
వాటిలోని
ఇబ్బందులు
చెప్పాలంటే
హెక్టారులు
##ST
##తాలు
170
రిఫ
గడియ
దిగి
బిగ్
##ఢిల్లీ
##దేవుని
పంపిన
చూసుకు
మునిసి
ఉచితంగా
కేంబ్రి
నిరుద్యో
కలిగిస్తుంది
షాప
స్పి
హామీ
అసలైన
వెలికి
శిల్పాలు
ప్రయోగాలు
##ించినప్పటికీ
##నరస
##port
##వాయు
ఆపై
వాగు
సయ్య
##చేసారు
అవలంబ
తప్పక
##illages
అతడికి
నిలబడి
ఫ్లోరి
ఆధిక్యత
ఊపిరితి
వృత్తిని
శుక్రవారం
##one
##టస్
By
FA
కోవ
పటే
##యన్లు
##యన్స్
చేపల
##చెందిన
చీకటి
నటులు
మైళ్ళ
సాగర్
దగ్గరి
నిత్యం
సన్నని
పుట్టుక
బ్రహ్మో
నక్షత్రం
విమానాలు
సరికొత్త
తెలుసుకుని
##ంక్
##న్ల
##రారు
##ానొక
Jul
##నేశ్వ
1927
కోడి
కళ్ళు
సెకన్
గుర్రం
పదాలను
మార్చ్
రామాను
అద్దంకి
చేయలేదు
ప్రభువు
పోతున్నాయి
ప్రదర్శనలో
అప్పుడప్పుడు
కార్యక్రమానికి
Dr
##జన్మ
##ెయిన్
డబ్ల
దేవ్
సంస్
##ేశ్వరం
నదిలో
లావాద
##స్తుండగా
ప్రారంభమై
##మనం
##మస్
##భాషా
##ల్చి
##హామ్
నిక
క్వా
##రాముడు
అర్జును
పోతుంది
దశాబ్దాల
వెనుకబడిన
దర్శకుడిగా
ఉష్ణోగ్రతలు
కార్యక్రమాల
మధ్యప్రదేశ్
##ేది
##ఫేర్
##ారణా
##ించడ
చాన
పరచ
##లలోనూ
##విష్ణ
##సాగర్
నూజి
పోయే
రుజు
అత్యా
అష్టా
కళారూప
సభ్యత్వం
ధరిస్తారు
ఎడ్యుకేషన్
ముఖ్యమైనది
కమ్యూనిస్ట్
##fer
##దేవు
##బిసి
ఆటం
కూర
గలి
షార్
హేతు
##డెన్సీ
ఆంధ్రా
`
##ung
##amic
##గలవు
##త్వా
##వాసన
తమను
పరమా
##జెన్సీ
కొండల
గుంపు
సెక్ర
ఆంగ్లో
ధ్వంసం
భూమికి
రాకెట్
కాథలిక్
శిక్షణా
సార్వభౌ
అందించడం
సంవత్సరము
కుమార్తెలు
ఉద్దేశించిన
అనుమతిస్తుంది
##గూడ
##చనం
##దము
##రోస్
తాళ
నాన
##రియస్
ఇనుప
పెరు
##చుకుని
##వేశారు
హిప్ప
ఏర్పడు
త్రిభు
ఫాస్ట్
నిలిచారు
ద్వీపకల్ప
సేకరించిన
##als
##నెల్
##మోర్
##శాతం
##మ్ముల
##రువాత
బోధన
విడా
##దేశంలో
ఇంకనూ
పేపర్
అభిషేక
చక్కటి
చెయ్యు
పెరుగుద
మనుషులు
ద్వీపంలో
ప్రాణాలు
సలహాదారు
పంచాయతీకి
విశాఖపట్నంలో
##line
##లేము
వైస్
సాహి
కాపర్
పాఠ్య
వాహనం
వ్రాత
పర్యాయ
కాలుష్య
ప్రేమలో
సూచించే
యాజమాన్య
తీసుకోవడం
ప్రేక్షకుల
నరసింహారావు
##ign
##టాప్
##ాగార
గద్వ
పేజ్
ప్రద
బెది
##కుడుగా
##రితంగా
##వ్యాధి
వదిలే
కార్పో
చేతితో
ఫోర్స్
మామూలు
##ించిందని
ఢిల్లీలో
censusindia
వదలబడుతోంది
##TV
##ows
##తిప
గతి
పతక
రంప
##వల్లి
భీమా
జబ్బు
మొదలై
సెన్స
##వ్యాప్త
పాత్రల
రావడంతో
గ్రామంప్రధాన
అందిస్తున్నాయి
##rin
##మ్ల
##ిని
అఖి
గర్వ
వేతన
##వర్తనం
అభిరు
ఉదాహరణగా
స్థాయిని
తప్పకుండా
ఇండోనేషియా
ప్రతిస్పందన
##దండ
##ేశ్
##ఖాన్
##ట్రం
అవే
ఎంజ
##మార్క్
ఏమిటి
అప్లిక
పైకప్పు
వర్గాలు
వ్యాకరణ
ఊరేగింపు
కాలాన్ని
మైక్రోసా
ప్రమాణాలు
వ్యవస్థకు
##ేతర
##స్లే
లోన
##మిత్ర
కూలీ
వంతె
వీసా
గడుపు
కట్టిన
త్రాగు
విషయాల
క్రీడలలో
సుల్తాను
సికింద్రాబాద్
Af
##ంపేట
##హోర్
విఠ
##రవాణా
గుప్
##సెన్స్
మౌంట్
పదవిని
ఉపన్యాస
విచిత్ర
ఉష్ణమండల
చేరుకున్నారు
##yl
##గమన
ఆం
ఏం
##గెన్
##వాయి
##వేశం
##ెంలో
ఆస్క
##నానికి
అభివృ
వర్షం
ప్రావీ
విక్రమ
విచ్చే
అనుబంధం
నమూనాలు
నారాయణ్
మండలంలో
ఛాయాచిత్ర
మద్రాసులో
##eng
##కుశ
CO
Ge
##జియా
##వర్ధ
##విచ్
##ానది
నిమ
కనీస
ఫైల్
మెగా
##stitut
వాల్వు
గుర్తుగా
ప్రారంభి
యంత్రాలు
##దలు
##ర్రీ
##లీన్
##వెంట
CBS
ఇమే
##ండెను
బాలా
##ట్రాన్
##మ్ములు
ఆగ్నే
అడవులు
అంతకంటే
చట్టాలు
మద్రాస్
రామాయణం
వేసవిలో
ఆర్మేనియా
డెవలప్మెంట్
##షలి
DC
am
##సుకో
Ind
కాలిక
కోట్లు
కోస్ట్
శత్రువు
మొత్తంగా
రహస్యంగా
సైన్యంలో
##ించుకుంటారు
కేంద్రీకృత
##ces
##గంటి
##వ్యం
##ారాం
జాయ
1943
ఖైదు
పద్మా
మేజర్
శబ్దం
ప్రోటో
టెర్మిన
పరిణామం
ఎలక్ట్రిక్
ద్రవ్యోల్బ
##గాంధ
##శ్యం
కలా
సరే
##గ్రంథ
1914
కళ్ళ
రావి
స్తు
##దాన్ని
అర్జె
మహమ్మ
ఆస్థాన
రాముని
పేర్లతో
ప్రదానం
వీరభద్ర
సమస్యను
స్వాధీన
పురాతనమైన
id
##క్కన
##క్కీ
##జ్జు
##లక్ష
##వహార
##ారనే
##స్కర్
కథలో
మెమో
##య్యూరు
జరిపి
మల్టీ
వర్ణన
సెంటీ
##గలిగారు
కవిత్వ
##ఎస్ఎల్వి
అవినీతి
నటుడిగా
ప్రభావాలు
ఒప్పందాన్ని
##rig
##డిక
##యిట్
##chive
##ోద్యమ
June
కాండ
చిలక
చూడు
దాస్
నానా
మంగో
షెల్
సరసన
హర్య
నియమం
##స్తారని
అధిరోహ
చేయమని
దారిలో
పెంపకం
వివక్ష
వెదురు
వెయ్యి
December
గ్రహించి
సంతృప్తి
కళాకారుడు
కోల్పోయిన
##చర
##rid
##్యము
రాణ
లేత
అధీన
ఇంకో
ఇయర్
న్యు
##సెర్చ్
ఇతరుల
వుంది
కీలకమైన
చర్యలను
సోమవారం
మరణానికి
పనిచేస్తూ
పొందబడింది
##ంతీ
##మాలు
##మీకి
##ౌండ్
అమీ
ఘనా
##తండ్ర
కంబో
వైఫల
గాత్ర
జమ్మూ
ప్రకృ
అనుకరణ
ఆరుగురు
క్రీడలు
సినిమాల
నూజివీడు
రూపాంతరం
బ్యాంకింగ్
సార్వత్రిక
షు
##clop
Apr
గడు
ధను
శిర
1918
కరుణ
ముఖా
మృతి
లలిత
ఈయనకు
##ప్రాంతం
మందిని
సిఫార్
ప్రవేశి
సరస్వతీ
శ్రీరాములు
ప్రెసిడెంట్
ప్రవేశించింది
సిద్ధాంతాన్ని
సామ్రాజ్యాన్ని
స్విట్జర్లాండ్
##దశి
##భవం
##సిని
ఆరి
బ్ల
కూడు
దేవర
పాలక
ఫైర్
##కపోవడం
##బుల్స్
##హాత్మక
కిందకు
ఫ్యాక్
ప్రయోగా
సంఖ్యలు
అక్షరాలు
చికిత్సా
విమర్శలు
శ్రీకాళహ
అవకాశాన్ని
##ఱు
<
##గృహ
NA
##కృతి
174
చాం
కామ్
నదుల
పాడి
దృష్ట
మృత్య
భాగస్వా
##కేంద్రంగా
స్థానికంగా
వెంకటేశ్వరరావు
యీ
##యెల్
డైన
మొహ
##ధులలో
అలహా
కుడా
మనము
రాయబ
వర్ధ
అయ్యా
ఆనంద్
కణజాల
నైట్ర
భగవద్
మూసిన
రకాలైన
గ్రాములు
చిత్రలేఖ
నైజీరియా
స్వీకరించి
ప్రభుత్వంలో
##లుల
##ారుల
##ింపబడి
లాంగ్
##మయ్యాడు
చల్లని
రాలేదు
వెన్ను
తెచ్చిన
నిర్మూలన
కావడానికి
వేగవంతమైన
నిర్వహించడం
రికార్డింగ్
##90
##భయ
##con
##హాం
125
140
##పురుష
త్రో
అణువు
ఎమ్బీ
దొరుకు
నీటితో
సిండ్రో
సంబంధాలను
హాస్పిటల్
ఇవ్వడానికి
కొనసాగించారు
##దప
##ept
##గంగా
##డిన్
##లేవు
మీణ
ఎదుర
ఎలిజ
మూడే
తప్పి
పోల్చ
##లాండ్స్
స్టోన్
ఒంటరిగా
జార్జియా
పర్యాటకులు
ప్రతిబింబి
ప్రదేశాన్ని
##తరగ
##ెని
##కైనా
వేధ
##భక్తి
News
చీఫ్
చిట్ట
నిమ్మ
భాగాల
హింసా
కార్బో
అవుతాయి
పరిస్థితులను
##ER
##IV
##పెడ
ఫొ
##లైడ్
##ృప్త
లిఖ
1911
చేరే
##కారంలో
##బీయెస్
##ల్లోనూ
ఇరువు
గోత్ర
రూరల్
విజయ్
కుతుబ్
భారీగా
వహించి
##తోపాటుగా
పెట్టడం
National
గ్రామంఇతర
##డోర్
##సెల్
##ెరపీ
గావ
ఫండ్
వక్ర
గుప్త
వర్ణి
సవాలు
##డేపల్లి
త్రిపుర
పొటాషియం
తీసుకుంది
గెలుపొందిన
కల్పిస్తుంది
చరిత్రకారుడు
మైక్రోసాఫ్ట్
##33
##క్సి
##టూరి
##పర్య
##పూరిత
1917
రాహు
గదులు
జట్లు
భాస్క
సెలవు
స్థూల
అనువైన
నిప్పు
సయ్యద్
మానవుడు
##కునేందుకు
చిహ్నంగా
ఎమ్బీబీయెస్
పరిగణిస్తారు
ప్రత్యక్షంగా
నియోజకవర్గంలో
##నః
Bl
##ance
##జీలు
##నూనె
##ర్మో
కోస
1910
Cent
నిరో
భావం
ఆర్డర్
భీముని
సెంచరీ
జగ్గయ్య
మధ్యయుగ
రిజర్వ్
కాంగ్రెసు
నియమించారు
##own
He
##ited
##గుడు
##ాంగం
వయో
వేశ
సమై
##ంచాడు
##స్థుల
అపార
గనుక
మాకు
##జిక్యూ
##శిక్షణ
ఎన్టీ
పటేల్
సారూప
మారాయి
అన్వేషణ
పోగొట్టు
విశ్వామి
స్థితిని
అగ్నిపర్వత
పునర్నిర్మ
రాష్ట్రంగా
##ధో
OS
##పయోగ
##ఫైడ్
##బ్వే
##రూపం
int
##టేషన్
##పించి
గాయం
కలిసిన
నిజంగా
పోటీలు
వేల్స్
ప్రతిభా
ముక్కలు
అమృత్సర్
వంశానికి
సేకరించి
ముస్లిములు
చేస్తుంటారు
##బట్ట
##మానా
నవీ
మరె
##రాలను
అమర్
##cyclop
ఉంచిన
నరసిం
పండిత
పోవడం
మరియూ
లోపున
ెచ్చి
సీరీస్
పరాక్రమ
పట్టుకుని
న్యూఢిల్లీ
హైదరాబాదులోని
##యమ్
##ూపం
##ెత్త
his
బహద
హోం
తాలి
పదము
వీరా
##ష్టమైన
పిమ్మట
స్లోవే
విజయాలు
క్రెడిట్
టెక్సాస్
గ్రంథాలను
మాస్టర్స్
అందిస్తాయి
భూభాగాన్ని
విభాగానికి
సంస్కృతంలో
##మరీ
##గలరు
##సాన్
##ాగ్ర
గడప
తైవ
మనుమ
వికీ
సంగమ
##చ్చాయి
##శ్రేణి
##ాల్లోనూ
అపరాలు
ఏర్పరి
ఘంటసాల
మాసంలో
మైకేల్
సైన్సు
వస్తాడు
##are
##దన్న
##వోలు
తనని
బాయ్
సజీవ
##భిషేకం
##స్తానీ
మనుషు
పరాజయం
సహకరించ
ఓడించాడు
చిరంజీవి
ఆసుపత్రిలో
##థీ
##టకై
##uary
##ంత్య
##లాడు
##సెట్
May
డిఫ
మిష
1925
##బ్బులు
మునుపు
శివలిం
షాపింగ్
నాటకాలలో
పరివర్తన
సైన్సెస్
ఉత్పత్తుల
పాక్షికంగా
సెక్యూరిటీ
పిలువబడుతుంది
##ంచాల
##ంద్వ
కాళ
ట్రె
పాన్
బాహు
వంశం
##బోర్న్
తయారైన
విషయము
##స్తున్నా
దట్టమైన
నరేంద్ర
వార్తలు
కొంతవరకు
బహుమతులు
సంభవించే
ఏర్పడతాయి
తల్లితండ్ర
ఇల
##ward
టైం
##కాలతో
##గజైన్
కవుల
బల్ల
Dated
జయంతి
తమిళం
##ప్రభుత్
అస్సాం
ఒకానొక
కోరాడు
ఇప్పటికి
ఇంగ్లీషులో
న్యూజిలాండ్
ప్రేక్షకులు
##ఎఫ్
##లేస్
అణి
స్ల
##చెయ్య
##ాలిటీ
ఎగుమ
ఘాట్
జీవా
పేరొ
మొనా
##ద్రవ్య
ఆశ్రయ
జీవనం
ఆదిత్య
ఇంటిలో
బైబిల్
##ప్రాథమిక
స్పష్టం
వెబ్సైట్
అనుసంధాని
ఉత్పత్తులను
సంవత్సరములో
##irst
దళి
##కపోతే
##కర్స్
##కావ్య
##మేషన్
##యాలజీ
##ారిస్
కమలా
పతాక
##సంవత్స
కుంకు
సామగ్రి
యుద్ధాలు
శరీరాన్ని
క్రీడాకారు
రూపుదిద్దు
##ani
ఆలి
##ధ్యాయ
##స్త్య
##ోర్స్
తీసే
బహ్ర
యుని
అంతటి
ఆడియో
రివర్
కావ్యం
తెచ్చి
సేవలకు
అడ్డుకు
అనుగ్రహ
ఆస్టిన్
గాంధీజీ
వైవిధ్యం
హార్వర్డ్
ఇప్పటివరకు
ఉపగ్రహాన్ని
విడిచిపెట్ట
##na
##మవ
##సహ
##యడం
Ab
##face
##కాన్
##పైగా
##మైతే
##ర్రా
##వ్వి
Aug
one
డిజ
బావ
పావు
రచనల
##రీస్లో
సోడియం
ఆహ్వాని
జనవరిలో
##ించుకోవడం
పట్టికలో
హాలీవుడ్
నిర్వహణలో
సభ్యులుగా
వెలుగులోకి
నిర్మించబడ్డాయి
##ars
##గాల
##మిం
##ings
ఇవే
దార
వలే
##టిఫిక
కల్పన
వర్క్
చెల్లి
డెల్టా
తిరిగే
ఉద్యోగు
కన్నుమూ
పరిశీలి
సామూహిక
న్యాయస్థాన
విద్యాసంస్థ
##చెంద
##థ్యం
##ధిని
##యాస్
##సుని
శంఖ
##దర్స్
##ధాన్య
##ర్ణమి
1923
July
##వుతాయి
జలపాత
అహ్మద్
లాహోర్
సూర్యు
గెలిచిన
తేలింది
వాహనాలు
విలువను
ఫ్లోరిడా
సృష్టించాడు
వ్యవహరించాడు
##62
##కోచ
CP
##లూరి
కమా
మెహ
శనగ
చాటు
చేశా
బాటు
స్లా
ఉపఖండ
చేసినా
కాలువలు
షూటింగ్
చేర్చారు
నిర్వహణా
పరిశ్రమల
చేయబడతాయి
చేసినట్లు
స్థిరపడిన
##సంధ
##దేవత
##వారే
రన్
##press
##రులతో
మచ్చ
వాలి
April
Times
ప్రగతి
##కాలానికి
##క్షేత్రం
ఆయుధాలు
ఉనికిని
వ్యయంతో
సిద్ధంగా
ఘనిస్తాన్
విపరీతమైన
గుర్తించడం
రంగారెడ్డి
##జరీ
##పైకి
##సిందే
చిలీ
చిలు
తంత్ర
వెచ్చ
అభ్యాస
పాండ్య
##చేస్తుంది
భిన్నమైన
సంస్థలను
అశ్వత్థామ
బాధ్యతలను
ప్రాంగణంలో
ముఖ్యమంత్రిగా
##నులో
##షులు
all
వ్వ
విను
ఆఫీస్
##కోవడంతో
జైపూర్
పునాది
సుగ్రీ
సూచనలు
పార్వతి
##గంట
##గతం
దహ
##కును
Dyn
ఎరి
##యేషన్
##వుంది
కేన్
నిరం
##కాల్లో
##తిపదిక
##మార్లు
ఐసోటో
నటిగా
రియల్
హైదర్
గాలిలో
జపనీస్
రచనలలో
##పోర్ట్స్
గుమ్మడి
స్పెషల్
పీపుల్స్
పోషించింది
ఆంధ్రజ్యోతి
ప్రదేశాల్లో
ప్రపంచానికి
ప్లాంట్లోకి
కార్యకలాపాలను
##కమ
##hem
##ime
91
కొడ
గేయ
పొడ
##తుంటే
గేట్
నియా
రుగ్
ఇదిలా
చేనేత
యోగ్య
విహార
సహస్ర
తొమ్మి
ముదురు
గుర్తిం
కెనడియన్
##ES
##erm
##old
521
has
man
##ంటీనా
##రాలైన
##ార్హం
1924
1926
పాట్
పోప్
యూదు
##సాగాడు
##ైవేద్య
అందించ
జంతువు
పుచ్చు
విన్యా
సైకిల్
కఠినమైన
ప్రకాష్
ప్రాంతము
కుమారుడైన
తాడేపల్లి
తిరుపతిలో
##దశలో
Oct
దహన
వరు
సద్
ఉందో
గలదు
##దాబాద్
మర్రి
శాలలో
ఎప్పటి
నైరుతి
పెట్టె
రాక్షస
ఇంటర్మీ
గన్నవరం
వ్యవహరించ
అవతరించింది
విస్తరించిన
గ్రాడ్యుయేట్
##ae
##erv
On
నల
##మండ్
రథం
ఎవరో
ఫిజి
ఫ్రా
సాన్
Chitt
ఎప్పు
కాయగూ
ఉద్గార
దిగువన
భావాలు
అర్జున్
ఎంతగానో
మాత్రము
ఉద్యానవనం
ఉత్తరప్రదేశ్
International
##ays
Bh
Gu
##లింగం
కొరత
గానం
చూచి
షిప్
బ్రాం
లోకసభ
శాఖలో
సంగతి
గింజలు
నాయకుల
నిండిన
షేక్స్
##స్ట్రేషన్
మంగళగిరి
వాల్మీకి
ఏర్పాట్లు
స్వతంత్రం
ఎలక్ట్రాన్
మినహాయింపు
గ్రామస్థులు
##emb
##పీఠ
##బిన
##వెం
మఠ
##ural
##inter
##గాంధీ
##పరిచే
ఇప్ప
జోస్
తాడి
పిఠా
మాధవ
కదులు
వారణా
##మౌతుంది
గ్రేడ్
హర్యానా
ఉన్నారని
వికెట్లు
చేపట్టాడు
స్నేహితులు
బ్రాహ్మణుడు
ప్రచురించింది
##వతం
##ther
Res
తెరవ
పతకం
మాగ్
సులు
స్పృ
##ద్యుమ్
అజ్ఞా
గ్లూకో
నేటికీ
భూమిలో
హనుమంత
క్రియాశీ
పాత్రికే
వ్యవస్థల
సంస్కరణలు
##గఢ్
##ourn
##బెన్
అంక
మేర
ధ్వజ
బద్ద
లైవ్
##స్ట్రో
##్యూషన్
దుర్గ
మెల్ల
హాజరు
##గలిగాడు
ఉత్తేజ
కార్ల్
చదివారు
గ్రంథంలో
విజయవంతం
నడుస్తుంది
మార్కెట్లో
##బం
ఆఖ
##ద్వే
##లికా
##న్నర్
##పడుతూ
indi
స్పా
నెదర్
మున్న
శిఖరం
మిత్రు
మిస్టర్
##పూర్వకంగా
బాధ్యతను
##కరిస్తుంది
కొనసాగుతుంది
క్రీడాకారులు
##TA
##ett
##సలి
##ికొ
DV
జవ
##తురు
##నిలో
##లియో
ఋతు
అంకె
టూర్
బాగ్
వీక్
హరిక
##యుద్ధం
చర్యల
మధ్యన
master
సేకరించ
##పోవడానికి
తండ్రికి
తాగునీరు
చేరుతుంది
ప్రమాదంలో
మొదలగునవి
స్వచ్ఛమైన
ప్రస్తుతము
విస్తీర్ణంలో
తట
ఖడ్
నాటు
పిదప
యోగి
ఉపదేశ
ధ్యాన
పంజాబు
అందుచేత
అమలులోకి
రాజ్యాలు
స్క్వేర్
బ్యాంకులు
లభిస్తాయి
సామర్ధ్యం
##స్తున్నప్పుడు
జిల్లాల్లోని
##జ్వ
Ad
##ధిగా
##సాని
దాఖ
##కొరకు
##వియన్
కోపం
గుల్
పూలు
మృదు
వేదా
వైన్
##ానికల్
నిర్మూల
గణాంకాలు
స్థితికి
కార్పొరేట్
##58
##arn
ఎమి
యూర
కొలవ
విరాళ
అరబిక్
##తుంటుంది
ఉండడంతో
ప్రధానమైనవి
##38
##ele
##ume
##టిన
లవ
##ines
##oriz
##గానీ
##జిత్
##రుద్ధ
Soci
కణాల
##పోతారు
##వాదిగా
అవమాన
ఊరికి
కలిపే
కోటలో
వివేక
గీతాలు
జోక్యం
నిదర్శ
పదవికి
రూపాలు
సందేశం
సన్యాసి
ఎలిజబెత్
కాల్సియం
నిబంధనలు
పోషించిన
ప్రతిష్ట
సావిత్రి
విజయవాడలో
తగ్గుతుంది
న్యాయస్థానం
తగ్గించడానికి
##యొ
##సిలో
వసూ
##బొమ్మ
1912
క్లు
గమ్య
నవలా
హాకీ
##గిల్స్
వెన్న
వైదిక
పెక్కు
క్షత్రియ
గురువారం
పుట్టింది
యమ
##మిల్
##గోపాల
నాడీ
నియో
వేటా
##స్తుండ
ఎక్కు
గదిలో
ద్రవం
సామ్య
##కొనుటకు
##క్రమంగా
పరోక్ష
ప్రాణా
అభ్యుదయ
ఇంద్రియ
యాక్షన్
వెలుపలి
సెక్షన్
చెల్లెలు
భావించిన
రాధాకృష్ణ
స్వతంత్రంగా
##ాలో
జహ
##మైన్
##ండేది
##రాలతో
1500
ఎలాగ
జంగ్
##పాలిటీ
##రానికి
ఉపనిష
మన్ని
సమక్ష
ఉండేలా
సిక్ఖు
సర్క్యూ
అన్నమయ్య
పరీక్షలో
సూచించిన
భారతీయులు
##ంప్
భవ
సఫ
అనూ
##యులను
దశకం
నినా
బుర్
సుదూర
రంధ్రం
##రిస్తాడు
మస్జిద్
రాజ్యసభ
పట్టణాలు
అనుకూలమైన
దేవస్థానం
విపరీతంగా
స్వాతంత్య
ఉత్పత్తిని
ప్రాతిపదిక
##కలను
##డిలో
##మియో
##రాను
కుద
ఫెర
this
ఐరన్
పోరు
రియా
వికి
షేర్
కరుగు
కాన్ఫ
వాటరు
విజ్ఞ
##దారులను
##ర్మేషన్
ఆధారపడ
చెందారు
డైరెక్ట
తీసింది
సెకండరీ
గోల్కొండ
మరణానంతరం
మాసపత్రిక
ఆర్గనైజేషన్
ప్రెసిడెన్సీ
##ton
##uch
##udi
Ra
##టారు
##డివి
##వరపు
అసమ
హయా
ఖైదీ
##ించండి
సోషలి
అతనితో
ఇండోర్
క్వీన్
బహదూర్
మక్కువ
విల్లు
అత్యల్ప
ఆలోచనలు
కాన్సర్
సముదాయం
బుద్ధుని
చూడటానికి
శ్రీనివాసరావు
##li
##కూర
##థర్
##నీయ
లయ
శాప
##కొంది
##పూజలు
##ముంది
ఇంక్
##రామయ్య
##గోదావరి
గినియా
జైలులో
యుగంలో
ఉంటాయని
ఉత్పన్న
కంట్రోల్
విశేషంగా
వేస్తారు
ప్రోత్సహి
అసిస్టెంట్
ఉత్పత్తిలో
తెలుస్తున్నది
వ్యవసాయాధారిత
##26
##పంచు
##సీన్
016
ఇంప
కిం
కొర
అనుమ
మీనా
స్పై
##విధమైన
ఆలస్య
కూర్పు
పెరగడం
నెలకొని
సంతతికి
కొనసాగిన
ఫ్యాక్టరీ
##SE
ఎగ
##రాణి
Nov
తగు
ధనం
##గించి
##సూత్ర
గలవు
##మాత్రం
అధిష్ట
నాట్యం
ప్రకటి
అల్లాహ్
ముఖర్జీ
Encyclop
ఉపయోగపడే
కూర్చుని
గమనార్హం
అర్జెంటీనా
##ery
##పోత
Man
Mus
మిథ
##ల్లిన
##ుడిని
అమాయ
బిర్
పాండు
రాజమహ
కాగితం
ఘంటువు
న్యాయం
పెట్టే
##ప్రతిష్ఠ
ఫిలడెల్
ఫైనల్స్
అవసరాలను
ఆధారపడిన
బ్యాటింగ్
చేపట్టింది
కనుగొన్నాడు
కార్యకలాపాల
##జుల
షర
##చును
##పోతూ
##ల్యే
##కాంత్
##చెప్ప
##తుందో
also
మహల్
ముసు
రెసి
తలసరి
నియామ
మహేష్
ద్రావణ
పాండవుల
శ్రీరంగ
స్వదేశీ
అలంకరించ
దుస్తులను
Population
చెందుతుంది
పూర్వీకులు
మెజారిటీతో
వైవిధ్యమైన
చిత్రీకరించారు
నియమించబడ్డాడు
##కగా
##పరీ
మస
##ప్పా
168
##ంచారు
ఈవిడ
డెమో
అనేకం
పానీయ
వాడటం
పిల్లి
ఉపాధ్యాయు
చుట్టుప్ర
చంద్రశేఖర్
sc
కజ
##లాగ్
జవా
హాం
1908
ఉచ్ఛ
గొడవ
జీన్
ఇంజను
కొయ్య
గర్భా
మానవు
రింగ్
హైడ్ర
##లాజికల్
ఆవశ్యక
దీనిపై
నిర్మా
ప్రాసె
రచించి
స్టీల్
##ించాల్సి
నిర్మిత
చంద్రుడు
చేయకుండా
అమ్మోనియం
ఉపయోగించేవారు
పంపిస్తున్నారు
##ise
##పని
రణ
##దుర్
##రిష్
##శాయి
##శాలి
##మలూరు
##ింపబడ
మానే
##పారుదల
నిరాశ
రూపాయ
వర్తక
వర్తి
విందు
కళ్యాణం
జోర్డాన్
పరిపూర్ణ
ప్రోటీన్
అభిమానులు
నాటకాన్ని
ప్రతినిధులు
##Wiki
##olit
ఎంబ
మదు
మూత
page
ఎవ్వ
నిపు
పౌనః
##సియానా
ఉపసంహ
క్యాల
తిన్న
రాత్ర
మిడిల్
##కుమారుడు
మరోసారి
రాకుండా
గాంచింది
రంగారావు
##జిక్యూటివ్
అమెరికాకు
నమ్ముతారు
పదార్ధాలు
ప్రోగ్రామ
సూచించింది
##95
##రమ
##పదం
##సరు
PA
అశ్
దోహ
టిబె
నేర్
విసు
వ్యయ
##జిల్లా
##వంతులు
##వాటిని
##ధారణంగా
January
ఆరోపణలు
ఇతివృత్త
చేసేవాడు
మరణశిక్ష
శాసనసభ్య
తగ్గిస్తుంది
ప్రయత్నించిన
ఉపయోగిస్తుంది
##నంత
HP
##గ్యు
##జాతీ
##ప్యూ
మృత
సమృ
##Files
శ్రు
పరంపర
శాఖలు
ఒక్కటే
తలెత్త
పనులను
మండలాల
చైర్మన్
మతాన్ని
Villages
నిర్వచనం
భగవద్గీత
భవిష్యత్
దూరదర్శన్
పరిష్కారం
పిక్చర్స్
పొందవచ్చు
##ina
##దళం
##టౌన్
##వాసి
ఎంట
జ్య
నీడ
శేఖ
##ithub
##చేయడం
##పట్టు
##ప్టర్
##ారంగా
అంతః
నానో
శల్య
##ర్లాల్
##సాగారు
ఎక్కి
సర్దు
github
Chittur
అవసరాలు
కాయగూరలు
వస్త్రాలు
వ్యక్తికి
##ించుకోవడానికి
మొదలుపెట్టారు
##21
##eci
##వెల
##శాసన
ఆటను
విలాస
ఇంటెల్
కెన్యా
కోర్సు
తెలియక
పోయాడు
భాగమైన
మించిన
వ్యంగ్య
##WikiFiles
డాక్టరేట్
ఇంటర్మీడియ
IndiaWikiFiles
##sh
##పట
##ury
##నార
ఘటి
శకం
##తరగతి
##నపుడు
##భారతం
##ారాధన
blob
నాగా
పగటి
యాదవ
లాభం
సారా
స్ట్
##కొద్ది
##ష్టంగా
##ాలలోనూ
##ానిక్స్
చూస్తూ
జాతీయో
ప్రాణం
తేలికగా
నైవేద్య
ప్రేమను
ప్రాధికార
గుర్తింపును
##eop
##కిక
పట
##ర్రి
పుం
ఆర్జ
గీతా
దురా
సాధి
##వచ్చిన
ఎదుగు
పనిలో
##శ్చంద్ర
కలవాడు
తీవ్రత
ప్రబంధ
బ్లూస్
మిశ్రమం
వింబుల్
పత్రికను
స్థలాన్ని
##du
##రచ
ఇమ
##land
##గ్రో
##లిపి
అంజ
ఉపన
ఎరు
##రత్నం
గీతం
బారి
బావి
బాష్
##వార్డ్
అట్టి
పడమటి
మత్తు
##పరిచారు
August
అనుభవి
తెలిపే
పేరుకు
బ్యూరో
స్విస్
దీనివల్ల
షేక్స్పియర్
సంప్రదాయాలు
##రథ
##శ్లే
ఉంద
##నిరోధ
##ములైన
##లియను
##్రియా
గుణం
హోమ్
##ట్రాక్
##నాయుడు
##పూర్వం
##బ్బిలి
##రాలుగా
##ల్పూర్
జస్టి
నవలలో
భరించ
చివరగా
నొక్కి
రచనలను
వారిచే
అనువుగా
పెనమలూరు
వెళ్లారు
కల్పించింది
కొనసాగించాడు
చేస్తున్నాయి
వాటితోపాటుగా
##36
##ox
qu
సత
##మేష్
గాన
1901
తీర్
దండె
విరమ
సెన్
ఓల్డ్
పెంచి
స్కూలు
అందరినీ
ముంబాయి
శ్రామిక
##పల్లిలోను
బ్రదర్స్
మార్క్సి
అధ్యయనంలో
వ్యతిరేకి
ప్రకటించిన
ప్రచురించాడు
భవిష్యత్తులో
##MIN
##ప్రజ
##ార్ల
Rep
ముష
కోలు
చెవి
జిమ్
తిని
మాక్
##ాన్సర్
భాషకు
సోదరు
నటించి
మోటారు
సూర్యన
జీవించి
తయారీకి
కథానాయిక
జమీందారు
దేవాలయంలో
సమాంతరంగా
కేంబ్రిడ్జ్
తీర్చిదిద్ద
అధ్యక్షునిగా
ప్రయత్నించారు
##sp
Pl
##form
##జ్జీ
##సేపు
DVD
ఉల్
బోయ
##క్షలు
ఆకుల
బాబి
యంగ్
స్కే
కాలపు
చతురస
నిర్భ
వాయిస్
అబ్బాయి
ముడిపడి
దినోత్సవ
క్వార్టర్
ప్రవేశపెట్టిన
Ag
##టినో
##రాస్
##లేట్
##మండలి
##రోజుల
##ెన్సీ
Sept
అనకా
తంజా
ముఖం
సాంబ
##ప్రైవే
March
పుష్క
కలుగజే
లిటిల్
పత్రాలు
ద్రోణుడు
మద్దతుగా
సినిమాకి
తయారుచేసిన
థీ
##ండరు
##లవరం
350
సైన
##జర్స్
1857
తింట
మిడ్
##రూపంలో
##లైన్స్
##ేశ్వరాల
కొందరి
నార్వే
మహానగర
##istricts
అందుకని
పామర్రు
పద్మశ్రీ
##చుకున్నారు
ఆస్ట్రియా
గుర్తిస్తారు
##నన్
ఖి
డూ
##తాబ్
లార
##వృక్ష
గెలవ
పూజి
మూవీ
అనంతర
##ప్రతిని
డిస్క్
మాన్యు
కళాత్మక
దంపతులు
నిర్ణయి
పౌర్ణమి
##ించబడినది
నగరాల్లో
రైల్వేలు
ప్రముఖంగా
కార్యక్రమాలకు
##35
##హాల్
105
గార
వశి
కిరా
##వాళ్లు
అయాన్
విధులు
సిద్ధి
ఒకేసారి
వందలాది
తగ్గింది
హుస్సేన్
ఎక్కువమంది
పరిస్థితిలో
ప్రదేశానికి
స్థాపించింది
ప్రతిష్ఠాత్మక
శవ
##జ్జా
For
ఉభయ
##జెంట్
##వేయడం
ఉంచే
కిరీ
తనతో
ప్రశ
బోధి
##పాడులో
పిచ్చి
మేనమామ
రాజును
రాళ్ళు
కష్టాలు
అందులోని
అవుతోంది
ఆక్సీకరణ
పురుషుడు
వృత్తాంత
సర్టిఫిక
ఎమ్మెల్యే
రాజమహేంద్ర
సంస్కృతిని
##ించుచున్నారు
విశ్వామిత్ర
##32
##39
##దారీ
##వధాన
ఫెలో
బిట్
రెవి
వేలు
సేనా
##ందరినీ
ఓజోన్
మలుపు
సౌండ్
##మునుండి
##సాహిత్య
అస్త్ర
టికెట్
దృక్పథ
పోయారు
గ్రాఫిటీ
టెక్స్ట్
పవిత్రమైన
ఉద్భవించింది
##RA
##కోశ
##జల్
fl
##గ్రే
##నమ్మ
##బ్రమ
DNA
Feb
ఆను
ఋషి
పదవ
##earch
##చిన్న
కిర్
పోవు
##పూర్వక
నన్నయ
మార్క
వారిక
ఆహారంగా
##న్నింటినీ
వేగాన్ని
నివసించిన
వెళ్ళింది
అమ్మవారికి
##se
##చక
##లత
##జాత
సభా
User
cent
have
బాబ్
##కారంగా
మరాఠా
లింక్
తైవాన్
మైఖేల్
వాయవ్య
పరిమితి
##తులయ్యారు
కాల్షియం
హెచ్చరిక
ఆర్కిటెక్
చట్టాన్ని
పెట్రోలియం
బాధపడుతున్న
డాక్యుమెంటరీ
నేతృత్వంలోని
##హణ
##కువ
##డాల
ఐఐ
##ండుట
పియ
##antal
వింత
స్వయ
##గొట్టి
అవధాన
ప్రమే
వాహకన
ఖురాన్
పెన్సి
ఎస్టేట్
కాంతిని
ఫైనల్లో
పాలుపంచు
భగవంతుని
రహదారులు
వెంకటేశ్వర
మొదలవుతుంది
##Gov
##లచే
##ెబ్
##క్తు
ఉదహ
వాట
##ట్లర్
##బడులు
##వింద్
Brit
ఈక్వ
ఉచ్చ
ఫిష్
యురో
##కూడదని
మయామి
వేయడం
అయిననూ
ఎక్కడా
నూనెలో
ఫోర్డ్
జ్యోతిష
తీసుకోవ
వుండేది
శివాలయం
ఆస్పత్రి
వహించింది
సిండ్రోమ్
నీటిపారుదల
గెలుచుకున్న
నిర్మించింది
##eth
##ral
##దీప
ఫం
Comm
డాల్
త్రై
పెన్
వారా
సిన్
కరిగి
యుద్ద
అజ్ఞాత
డ్రైవ్
రబ్బరు
రామయ్య
సంపుటి
విధానము
సంక్షోభం
సిఫార్సు
హిందువుల
కార్మికుల
మార్పులను
##ణె
##టియా
##టుడు
##ినేత
రజా
ఒకటే
గ్రో
తినే
ముల్
శంకు
ఆకారం
కొలువ
జింబా
కాల్చి
జోన్స్
సిరియా
Dynamic
అనధికార
తమిళంలో
నిలిచిన
హనుమాన్
ఉన్నట్టు
ఫెడరేషన్
వియత్నాం
ప్రదేశంగా
సంస్కృతిలో
అలెగ్జాండర్
ప్రదర్శించే
ప్రయత్నించాడు
##yst
##డాస్
##విటీ
మనవ
హామ
##క్కుల
##పట్నం
##వర్లో
1915
ఔరంగ
గోవా
పొలి
మాడు
హిప్
దేశము
బుట్ట
విస్మ
##ించవలసి
రాబోయే
ఆడపిల్ల
శ్రీహరి
పాయింట్లు
కార్యాలయాలు
పరిమాణాన్ని
రాష్ట్రములోని
##inal
##దికి
ఈజ్
జనం
చెక్
రాదు
వాసి
##మెన్స్
ADMIN
గుహలు
తటస్థ
దోహదం
బారిన
మీదకు
జుట్టు
దాడికి
రోగులు
అధికమైన
తదనంతరం
స్థలంలో
ఆసక్తిని
క్రమబద్ధ
తండ్రిని
బాలకృష్ణ
మొక్కలను
రెవిన్యూ
ప్రోగ్రాం
పెట్టుకుని
స్క్రిప్ట్
ప్రమాదకరమైన
అందించడానికి
పర్యవేక్షణలో
ఎదుర్కొన్నాడు
##66
##డక
##దై
##ife
##rda
##గని
##ల్చ
##CRDA
##కాలి
##టైల్
##డుతూ
##నియో
##సేజ్
కలవ
టీం
థ్ర
భ్ర
##ities
##ంచేసి
##రాలలో
crda
ప్రబల
మెదక్
##త్సవాలు
##రావుపేట
APCRDA
ముంబయి
శైలిని
హైడ్రా
##ప్రైవేటు
జాన్సన్
వ్యాధుల
శ్రీశ్రీ
September
చట్టపరమైన
అంతకుముందు
విభజించారు
చేసుకోవచ్చు
చాంపియన్షిప్
చుట్టుప్రక్కల
శౌ
##జ్డ్
##రెన్
par
##Horiz
1905
ఉపవి
##ulture
##దారుడు
ఘకాలం
తులసి
అంచనాలు
యుద్ధము
##మిస్తుంది
ప్రతిభను
ముస్లింల
కలిగివుంది
వింబుల్డన్
సాహిత్యాన్ని
##Tab
##ock
##శ్శ
##కంతో
##టోన్
##త్రేయ
1913
వేయి
సభకు
హెలి
##GovTab
##తున్నా
##ారణ్యం
కానుక
కాయలు
పరమైన
కారణము
కేబుల్
ఖరీదైన
సంకేతం
అంశాలపై
బోస్టన్
విధానాల
##interface
నిర్వర్త
##Horizantal
అప్పారావు
డిసెంబరులో
Userinterface
##HorizantalGovTab
^
##ీకృ
##గిలి
##చోడవ
##ష్టవ
##సారం
tem
##ద్దరు
కవర్
##యోధుడు
నవలను
కార్లు
పేటెంట్
లోపలికి
ఉంచుతారు
గార్డెన్
విధాలుగా
స్థానాలు
##స్తుంటుంది
వచ్చిందని
వారపత్రిక
##లమ
##een
##red
km
##మేట్
పదో
##క్రమణ
##స్పతి
ఎంజై
డాలీ
విలే
స్నా
##త్తూరు
ఈనాటి
దౌత్య
మెటల్
గద్వాల
అణువులు
##వేయబడింది
ద్వారానే
ప్రాధమిక
మెల్బోర్న్
ఫ్రాన్సిస్కో
సూచిస్తున్నాయి
ప్రత్యామ్నాయంగా
##ss
##సంగ
uk
##కర్మ
Eng
యాన
##ature
ఉజ్జ
జెట్
నర్త
భంగి
రిటై
##యాత్మక
##విధానం
##స్ట్స్
ఆవిర్
ఎపిసో
కాల్ప
అయోధ్య
కార్తీ
తేడాలు
పాడారు
మురికి
సైన్యా
ఆసియాలో
మిలిటరీ
##తున్నట్లు
ఉన్నవారు
సంపాదించి
సూర్యనారాయణ
స్వామివారికి
##of
ధి
##ర్రే
##వాలా
104
అకౌ
తలు
విద
##ories
comp
అఖిల
చంపే
తనకి
మాసం
##ాలక్ష్
కరాచీ
డిస్క
ఆసియన్
ఎడిటర్
సమన్వయ
సీరియల్
పాఠశాలకు
లైసెన్స్
స్వామిని
కంప్యూటరు
జింబాబ్వే
సాగుతుంది
హనుమంతుడు
సున్నితమైన
తీసుకుంటారు
సమర్థవంతంగా
రం
##నితో
##వుకు
జమై
ధూమ
##రకంగా
తెలప
బ్లే
##చెరువు
నవ్వు
వైఖరి
సమ్మె
##చున్నవి
సమైక్య
స్నేహం
October
తెలిపిన
పీఠభూమి
వచ్చినా
##ించబడలేదు
ప్రావిన్
నిర్మాతగా
రికార్డ్స్
##oy
##ధే
త్
##డిపి
##డులో
##నిస్
##నుకు
##ారంభ
అధు
ఆదు
సిన
అహిం
పెద్
వైదొ
##మార్ట్
జోకర్
దొరిక
నంబర్
లొంగి
వైపులా
సూర్యా
జరుగుతూ
స్థావరం
అధికారుల
సింహాసనం
లక్ష్యాన్ని
సంపాదించాడు
##98
##రియో
1909
అపరి
ఆవాస
ఉపయో
జరుగ
బాట్
మామూ
మాస్
రహిత
లేచి
అలెర్
చిహ్న
మౌర్య
రకంగా
వెయ్య
##సేందుకు
అడవిలో
అడిగిన
ఎనర్జీ
నిషేధం
పౌనఃపు
సాక్షా
##ించవలసిన
చిత్రకళ
రంపచోడవ
అమ్మవారు
ఇండియాలో
వయసులోనే
అద్భుతంగా
తీసుకుంటే
ఒలింపిక్స్
ప్రయోజనాలు
మంత్రిత్వశాఖ
##ఱ్
##దంబ
చద
##బ్బీ
వీణ
##inder
అపరా
కొలత
జావా
యాన్
సాగే
దాసరి
రాయలు
మనుషుల
రాజుకు
రుక్మి
మరింతగా
మహిళలకు
రామలింగ
రేటింగ్
ఉద్యమానికి
తెలియజేస్తుంది
ప్రచురించబడింది
##ms
##జ్జి
##ెంగ్
##ంగానూ
మాంద
లేక్
##వైపులా
ఆశీర్
రాయడం
అంశంపై
అమలులో
కలిపిన
కళాఖండ
డొమిని
బేరియం
కింగ్డం
గంగరాజు
రూపొంది
ఉద్యోగుల
పేరొందిన
వ్యత్యాస
స్టేడియం
అర్జునుడి
వేయబడింది
అభివృద్ధిని
ప్రవేశించాడు
నేర్చుకున్నాడు
సామ్రాజ్యానికి
##IC
##fo
##ముక
##వృత
##శాన
ఖో
##డ్డీ
##ాయనే
అహం
నెమ
##ద్యమం
were
సిద్
అన్నే
ఐరిష్
బుర్ర
సంతతి
ఔరంగజే
నీళ్ళు
పరుగుల
మారారు
##కాలికంగా
అగస్త్య
సంభావ్య
బొబ్బిలి
డయాక్సైడ్
ప్రవహించే
వ్యతిరేకత
రిజర్వేషన్
హరిశ్చంద్ర
స్వాతంత్ర్యో
ప్రవేశపెట్టింది
##la
##డుల
##బిలి
##వాసు
దరి
##కాలపు
##కులైన
##మించు
తుంగ
బర్మ
స్థూ
ఊరిలో
ఒంటరి
దత్తా
హొగన్
##పల్లెలో
అంశంగా
కోరారు
ఈజిప్టు
కాంగ్రే
ఖర్చుతో
ధర్మనంద
చేరుకుని
బయలుదేరి
రంగాల్లో
లూసియానా
వివరించే
యురేపియన్
ఇన్ఫర్మేషన్
రూపొందించాడు
##ta
##డట
##ౌట్
CA
##ject
##జన్య
##జాద్
##స్థు
Mah
Ram
గాలు
ట్రీ
బెక్
వుడ్
ఏడుగు
దక్షణ
దురదృ
నేత్ర
codice
లీడ్స్
హతమార్
అవార్డ్
బోయింగ్
మహేంద్ర
లక్షణాల
వెళ్లిన
హిందువు
భువనగిరి
వర్గానికి
సంక్రాంతి
ప్రొఫెషనల్
వర్ణించాడు
##37
##eh
##ఠి
##ీయత
##టుగా
##పిల్
##ప్రో
##శ్వర
##ెంజ్
117
157
సున
##ప్రకా
చందా
చిల్
ట్రూ
మైలు
సునీ
సైడ్
##కుటుంబ
##జెన్స్
##ణాత్మక
##పిస్తూ
##మార్గం
ఆచారం
పత్రం
భాగ్య
వస్తూ
రాయితీ
స్వాతి
##విష్ణువు
కిరణాలు
ప్లేయర్
సాధారణం
అట్లాంటా
గమనించిన
పెద్దాపు
ప్రాప్తి
వాయువులు
సింగిల్స్
అప్లికేషన్
మరణించింది
శీతాకాలంలో
కలిగించింది
చెప్పడానికి
ఉపయోగించబడింది
##వచ్చి
##ాలిక్
దిల్
##మీటర్ల
ఋగ్వే
జానకి
ముక్తి
సిల్వర్
చంద్రగుప్
సదుపాయాలు
ఉద్యమాన్ని
సూచిస్తాయి
ప్రదర్శించిన
##61
డం
##త్తె
##స్వం
జరు
వీట
##వాదుల
##వింగ్
##ాగ్రి
బెన్
శారద
హాప్
##సేవాడు
క్రొయ
గల్ఫ్
గ్రహం
శంకరా
హైపర్
కనిష్ఠ
చెరుకు
వీటితో
వ్యాప్
పొందినది
బహ్రయిన్
విద్యార్
వ్యక్తీకరణ
డిపార్ట్మెంట్
##TS
##row
##మాస
##రచన
CH
కలం
మిల
##బడుతూ
1916
గోర్
నూరు
పిశా
##ములోనే
##ేవారని
అతుకు
ఆమోదం
కోరిన
డబుల్
అడ్మిని
ఆమ్లాలు
కార్తీక
ప్రశ్నలు
శ్రేణిలో
##ప్రాంతాలలో
పొందుతారు
స్పోర్ట్స్
##000
##లలు
##లాడ
##వాయ
##ెడల
RF
##నైట్
బాట
యావ
లిన
ఆపాద
కోనే
జియో
టెస్
పండగ
##గ్రామం
కదిలే
శ్యామ
సాంగ్
స్వప్
##ంగాన్ని
##ంగుటూరు
కట్టడం
నాటకాల
పెంపుడు
వుంటారు
సభ్యదేశ
చేయవలసిన
ముందస్తు
రంగానికి
అన్నపూర్ణ
కలిగివున్న
క్రియాశీలక
సూచించడానికి
ఆస్ట్రేలియాలో
నిర్వహించడానికి
##సృ
##ణ్ణ
##లాట
Col
ఐదే
జన్
రసం
publ
ఆడాడు
మర్యా
##స్ట్రన్
బట్టలు
వివరాలను
సూత్రాలు
ఉద్యోగాలు
ఆర్మేనియన్
క్రమశిక్షణ
సిద్ధాంతాలు
ఎగ్జిక్యూటివ్
##ole
##మయం
##evel
##బాబా
##రాకీ
పూత
శ్మ
##కారము
##దులలో
##లేటర్
గుంత
ఘంలో
##సంఖ్యా
##ేశ్వరు
వినాశ
సారథి
వంటిది
గణతంత్ర
సమయాలలో
కాల్పనిక
పురాణాలు
లావాదేవీ
మధ్యవర్తి
వాడుతున్నారు
##99
##ech
అశ
##దిలో
##రమ్మ
##ానర్
సుమ
పింగ
ఫీల్
##రీత్యా
South
చెలరే
విసర్
##చార్యుల
జ్ఞాపక
నైట్రో
వినియో
##స్టిక్స్
బుధవారం
ఇంధనాన్ని
పరిశోధనలో
తెలుగులోకి
పట్టించుకో
అవసరమవుతుంది
చేరుకున్నాడు
##ix
do
##ures
##ఉన్న
##ర్థం
అమో
కమల
##ement
1890
పదకొ
పితృ
యార్
##్రియల్
##లతోపాటు
ఎవరికీ
గొలుసు
తొలినా
పొందడం
బుక్స్
మొగ్గు
హెచ్చు
ప్రతీతి
వివాహమాడ
సమయాల్లో
##డ్య
##వంగా
ఛేద
తాన
ఇంచు
కంకి
మోసం
యోగా
క్షమా
రైతుల
సర్పం
##ించెదరు
కుమారి
ఘకాలిక
చేసుకొ
వెంకటా
సూచించాడు
గోపాలకృష్ణ
పెరుగుతాయి
ఇవ్వబడ్డాయి
కేంద్రాన్ని
##int
##వగా
##ford
##పానం
##పోగా
##భారం
ఘాల
##నివ్వ
##భాషలో
పనుల
బిన్
##ండెంట్
ప్రొట
వేత్త
##ించుకోవ
జీవితా
వెంబడి
అక్కడకు
చూపింది
హిందీలో
హ్యాండ్
##పెట్టింది
విషయాలలో
ఓడిపోయాడు
##22
##TC
##ym
##మెర్
978
పోక
లిబ
కీటక
కుది
గోపీ
డియో
##iction
##ించుచు
జెండా
నాన్న
మహావీ
చొచ్చు
తిరునా
మరియొక
ఉన్నదని
క్రిమిన
జస్టిస్
పట్టింది
బాల్యంలో
వన్యప్రా
సంస్థానా
తీసుకోవాలి
హనుమంతరావు
##ణుకు
##ప్తు
##స్మా
118
మాత
##వెళ్ళ
1906
పెడన
పౌరస
భారం
మెన్
లాట్
లోడ్
అచ్యు
చవిచూ
బాండ్
విలీన
##ాల్లోకి
గేమ్స్
పిలిచి
లక్షలు
అభిమాని
దక్షిణం
రైతులకు
శక్తులు
డిగ్రీని
సమక్షంలో
విగ్రహాలను
సృష్టించారు
##31
##orth
##జీన్
##ద్వా
##లెన్
##సిటి
ఇబ్
నయం
##ెర్స్
గాడ్
చాలు
నాజీ
##ట్రాయి
ఐఫోన్
త్రాగ
దర్గా
లివర్
యాత్రా
రాబిన్
చిహ్నాలు
చెప్తారు
చేయుదురు
ఫ్రాన్సు
శరీరానికి
తల్లిదండ్రుల
పుణ్యక్షేత్ర
ప్రవేశించారు
##45
##కాన
##పియా
##పోయా
##హుతి
Par
php
ఉజ్
కాట
బెజ
##డర్స్
లాక్
వేచి
హరిత
##కోలేదు
##శెట్టి
దుష్ట
శూన్య
తగ్గిన
పెళ్లి
పోరాడు
బంధువు
మార్పుల
రావణుడు
##వారిపాలెం
కేంద్రము
ద్వీపాలు
పత్రికకు
ప్రాంతపు
స్టీఫెన్
ప్రయాణించే
వస్తుంటారు
వేంకటేశ్వర
జరుగుతున్నాయి
ప్రారంభమవుతుంది
##ild
##ంతట
##జాడ
##లట్
##చులు
నలభ
మిశ
##మానుల
##రకమైన
##ానులు
కిస్
పెరూ
రూట్
శోధన
శ్రో
##ల్లోనే
ఆరాధన
గ్యాల
పోలిన
మల్లా
రచనలో
వాళ్ల
ఆలోచనా
కార్డ్
వాసులు
వనరులను
జిల్లాగా
ఫిర్యాదు
ప్రతిచర్య
మెమోరియల్
క్రీస్తుపూర్వం
##బృ
##amp
##isc
##గ్లో
##జియం
GDP
app
యము
కలుప
డీన్
మెరి
##త్యాలు
##సికొని
పచ్చి
పొన్న
అవసరము
ప్రీతి
బహిర్గ
మిల్లీ
##పిస్తారు
తప్పుగా
దొరికిన
నిర్వచన
యువకులు
##టైన్మెంట్
##ించడాన్ని
క్లోరిన్
హీరోయిన్
రోజులపాటు
లక్ష్మీనరస
విభాగాలుగా
చేసుకుంటారు
z
##eld
##erg
##ety
##థాన్
##ఫిన్
115
CIA
its
net
జని
నొక
మాగ
##ంట్లో
##వాళ్ళ
##వ్వుల
1896
ఆపైన
కనబడ
కృపా
జెరి
దేశా
మహామ
##ించిరి
ఆంజనే
బాంబే
##పించాడు
అక్షరం
తుపాకీ
ధరించే
పెద్దల
కోరింది
దుష్ప్ర
నమూనాను
అంశాన్ని
ముఖ్యముగా
స్వీకరించాడు
##కపు
##ధీశ
##పోరా
##యాని
##క్కడా
##ధులతో
కంది
కావే
ప్రధ
మనకి
హిమా
##జేశారు
ధర్మా
రాజైన
ఇంతవరకు
నేపథ్యం
ఉత్తమమైన
నవంబరులో
నియమాలను
రీసెర్చ్
వలసరాజ్య
జంతువులను
తెలుసుకొని
సాంప్రదాయం
స్కాట్లాండ్
అంగీకరించారు
ఇనిస్టిట్యూట్
##ముష
Re
ఈస
##గావ్
##తార్
తాక
##క్షిణ
కేశవ
కావలి
డిప్యూ
బాల్యం
##వచ్చింది
అధునాతన
పూర్వము
తెలుసుకో
శాసనసభకు
జరిగిందని
ప్రభావంతో
సిస్టమ్స్
పరిశీలించి
ఇంటర్మీడియట్
##TO
##ras
##ట్న
##నొక
##సరా
##ణుడి
##పడటం
##వేరు
101
##శంకర్
తాడు
తారా
నర్స
నేరం
మాంట
యాభై
సూరి
##కుల్లో
##ాలలోను
దుర్మ
ద్వేష
రెట్ట
అవమాని
ముప్పు
సాహెబ్
హిల్స్
గ్రంథాల
ఫ్యాషన్
శీతోష్ణ
ఎన్టీఆర్
తంజావూరు
సులువుగా
ఏర్పాటుకు
ధర్మనందనా
మరికొందరు
సమాజానికి
పేర్కొంటారు
ఫిలడెల్ఫియా
##పత
##ఱి
##ాలం
IB
Sc
అబూ
వాస
1907
గ్రు
పీడన
##ణాన్ని
##నిరోధక
india
అన్నం
ఫైబర్
సందేహ
##ద్యమంలో
Master
క్యాలె
ట్రిని
పంపారు
పువ్వు
ఫిలిప్
మెయిన్
వికీపీ
ఏజెన్సీ
వున్నాయి
సిరీస్లో
Districts
ఉండేందుకు
గుర్తించే
వెళుతుంది
సంవత్సరపు
పెంచడానికి
కమ్యూనికేషన్
చేస్తున్నాడు
ఎంటర్టైన్మెంట్
##షో
##ఎమ్
##గాలి
##పాను
107
కంఠ
మిళ
##elang
##ండ్రు
Wind
స్కై
##ానియన్
ఆఫీసర్
ఎవరికి
నియాండ
పాలకుల
మనసులో
చేపట్టి
సంపన్ను
కళాకారుల
కార్తీక్
విడాకులు
మార్పులకు
వ్యాపారులు
పార్లమెంటరీ
వృత్తిపరమైన
దారితీస్తుంది
##orn
##ఫ్ల
##శయం
ఔష
నృ
##alle
##దుంప
##పండు
Mic
tra
గ్ల
బసవ
అనాథ
ఓడరే
దీవి
పాక్
బాడీ
స్ని
##వెల్త్
##ిల్లర్
నాటిక
ఫర్నే
నాగయ్య
ప్లాట్
వెలసిన
సువాసన
పారదర్శ
పునర్వి
జిల్లాను
భీష్ముని
వారానికి
తగ్గించడం
ప్రముఖమైన
వాదించారు
సంపాదకుడు
స్థానాలలో
అభివృద్ధిలో
##48
##్రే
##జులా
##హిని
##ished
ఇల్ల
కోణం
యెరె
రీసై
##ournal
##క్షేపణ
##మోటివ్
##సేనుడు
జరిపే
పొట్ట
పచ్చని
పరిగణన
వాహనాల
content
అన్నయ్య
అభిరుచి
చురుకైన
పరిశోధనల
రిపబ్లిక
##ించవచ్చును
గ్రహించిన
గ్రామాలకు
##ించబడుతోంది
ముఖ్యపాత్ర
సంభవించాయి
రాష్ట్రాలకు
స్వాతంత్య్ర
శ్రీకృష్ణుని
##భీ
##స్కే
అరా
టిం
##కాయలు
వేసు
##ంటింగ్
##తీరంలో
##పూర్లో
టర్కి
పాలసీ
ఫ్రమ్
వట్టి
అదృశ్య
అయ్యర్
కల్పిత
ట్యాగ్
వేరుగా
కారణమని
తల్లికి
కాకతీయుల
కొన్నింటి
నియాండర్త
ప్రత్యర్థ
ప్రదర్శనకు
లక్ష్యాలను
పరిపాలించిన
##EC
##కంఠ
Or
##మ్లో
##వాలి
అయన
ఇట్
ర్య
##istor
##వాడని
హైవే
##స్థానీ
మరమ్మ
విలసి
ఈస్టిం
కేసులో
పెంచడం
లాభాలు
వృత్తా
##ేశ్వరుని
అనుమాని
తప్పుడు
నాయకత్వ
స్వలింగ
పనిచేయడం
పాఠశాలను
అధికారిగా
పాత్రల్లో
కేంద్రానికి
ప్రతిపాదించారు
##ధూ
##నక
##పార
థె
##angu
##పాయం
##రీలో
కళల
నమః
విత
అంకు
ఆంటో
ఎండ్
కుర్
పోషణ
##గృహాలు
విఫణి
##పోకుండా
అణచివే
ఆశ్రయం
మారాడు
archive
పొడవునా
భావించే
వచ్చేది
##చేయడానికి
ప్రకటనలు
చంద్రబాబు
లేకుండానే
వారిద్దరూ
శివరాత్రి
సర్వీసెస్
రికార్డును
సాంప్రదాయక
స్వీకరించిన
ag
kn
హజ
##కర్ర
##గారం
##నును
##పరచు
ఆము
తేవ
##మార్గ
రైల్
లోహం
##evelop
##ింటికి
తనిఖీ
నిధుల
##ిస్తారు
గారికి
గ్రామీ
బ్రేక్
జరిపారు
స్థితిగ
ఔరంగజేబు
పూర్తయిన
విశేషాలు
కోల్పోయింది
సంభవించింది
గుర్తించడానికి
##ese
##దంటే
##లీప్
అపు
కదల
పలి
మెక
##ండూరు
అట్ట
ఆటలు
కలుష
చూసు
దుంప
##నిక్స్
##బెర్గ్
కూడలి
వారీగా
సగటుతో
వెనుకకు
కంబోడియా
దర్శకులు
రామస్వామి
సారవంతమైన
చెందినవాడు
వ్యూహాత్మక
తాత్కాలికంగా
వ్యాపారవేత్త
పాలీటెక్నిక్లు
##టికా
##పాయ్
##ప్లి
##రికే
పిన
##వెంట్
ట్యు
నలభై
ముది
తిలక్
నగరము
మక్కా
మీటర్
యాంటి
##ించాలనే
గాంచిన
గొట్టం
ఘానికి
పోయాయి
బెజవాడ
##వుంటుంది
మార్చిలో
మైదానంలో
సంభాషణలు
శాశ్వతంగా
రాజకీయాలలో
చెప్పుకోవచ్చు
##ose
##లార
##eric
##ఫిల్
జనస
ఫ్య
##రేటరీ
##ించరు
నిజా
పోలో
trans
కొల్ల
నాదల్
పిన్న
రక్షి
##పాలెంలో
##విరుద్ధ
కొండపై
వాళ్లు
##గలిగింది
##దయస్కాంత
గమనించి
వేడుకలు
స్వీడన్
November
కాలుష్యం
తొలగింపు
షెఫీల్డ్
సాధ్యమైన
అమ్మోనియా
మంత్రివర్
వ్యాఖ్యాన
చిన్నప్పటి
పిఎస్ఎల్వి
ప్రక్రియలు
##RI
##యై
##ale
##udd
Em
PC
ఢీ
##దీనా
##ఫేస్
##భ్యస
నయా
వెద
##ద్కర్
##్రాన్
నాట్
సిర్
##ప్పులు
##సుకుని
నియమా
##జ్ఞానిక
Volume
ఇతడిని
పద్మనా
మహాభారతం
సభ్యులను
సిద్దాంత
##స్తున్నాను
ఉండవచ్చని
క్రిమినల్
పరికరాలను
శ్రీకాళహస్తి
##ali
##యుట
భృ
##uman
##ంతగా
##సంపద
పూట
వరం
##inist
##ruary
##క్షను
##ిస్తూ
1800
ఆక్ర
ట్రే
రెస్
వాలు
##కర్తగా
కంచిక
గాయని
దేవతా
పల్లి
ప్రాయ
##పదార్థం
అన్యాయ
గ్లాస్
నెంబర్
ఇంజనీర్
పర్షియా
వారసుడు
అంతేకాదు
మార్చింది
ఒకప్రాథమిక
తాలూకాలోని
నియమించాడు
ఎయిర్లైన్స్
చేసుకున్నాయి
విద్యుదయస్కాంత
##ake
It
##amil
##కారణ
రీత
లవణ
##వైపున
year
దళాల
అల్లి
క్షార
బందరు
##పించారు
నావికా
పబ్లిక
ఫ్రంట్
స్టోర్
హోమ్స్
కారణమైన
నిరంకుశ
విశ్వసన
కంపెనీకి
కార్టూన్
రహదారితో
శ్రీశైలం
స్థాయిలు
ప్రమాణాలను
వ్యక్తిగతంగా
##sc
##కరు
##చని
##మాయ
##రంజ
##వేష
##ీపి
ఊర
వొ
##atch
##పోవు
Joh
who
చెల్
బేగం
రాగా
##బినెట్
Afric
ఆదిలా
ఉల్లి
శేఖర్
పండిట్
ప్యాకే
మరణాలు
వ్యర్ధ
హామిల్
పోతోంది
మార్షల్
సల్ఫేట్
February
కాలక్రమేణా
ఇంజినీరింగ్
తీసుకువెళ్ళ
స్టాన్ఫోర్డ్
##ada
##ోబా
##atic
##చరల్
##డ్డం
##వైవి
##సివ్
##స్టే
బంక
##eople
##మ్మను
##య్యాక
##లక్షణ
##్రాజు
దర్ప
పాపు
సేన్
##రాజ్యం
అన్నద
ఆల్ఫా
ఒకరైన
తీర్ధ
లింగం
అర్థము
పదవిలో
సామాన్
##పిస్తాయి
వైశాల్య
ఆగస్టులో
సమస్యలకు
మునిసిపల్
స్థానికులు
కనుగొనబడింది
సంతరించుకుంది
##ons
##శిల
ఘ్ర
మగధ
వరా
ఆళ్వ
కశ్య
తాటి
దేవీ
బాపు
వాహక
##కారాలు
##చుకునే
అమ్మా
ఇస్లా
ద్రవీ
నిముష
మూలిక
##కుంటాయి
అనుమాన
కాళ్ళు
చేసేది
పేరొంద
రేపల్లె
లేకపోతే
నిపుణుడు
ప్రతిపాది
యాజమాన్యం
అందిస్తారు
సంగీతానికి
గెలుపొందాడు
సంపాదించింది
##జరు
##యంబ
##యనం
##కుంత
##రోజూ
NBA
Raj
కోడ
చార
##ాపూర్
నాశన
రాస్
##ండ్లను
##గ్రేడ్
##స్క్రి
about
కిలోల
గొర్ర
భాగాన
లభ్యం
విల్ల
సైప్ర
ఇస్తాడు
అమ్మకాలు
కలెక్టర్
జర్మనీలో
పోటీల్లో
మార్క్స్
సెక్రటరీ
తొలగించడం
ఫిబ్రవరిలో
వ్యవస్థలను
వ్యవస్థాపక
సంస్కృతికి
వాతావరణాన్ని
##FS
##ze
##బరీ
##ట్టూ
##ళికా
127
135
HIV
##స్తాం
1880
దక్ష
యవ్వ
రోజ్
శాఖా
సుంద
పెయిం
బల్గే
సిలిం
ఆశ్రమం
నల్లని
లక్ష్మ
అడవులలో
బృందాలు
హ్యూమన్
అంతర్జాల
ఇవ్వబడిన
ఫ్లోరైడ్
మామూలుగా
వ్యాపారి
విదేశాలలో
సెప్టెంబరులో
##ely
##ంగో
##ధరా
##జెనె
##డాక్
రియ
జెస్
టీకా
దిగ్
నిలవ
పోసి
రాగం
మద్యం
వక్రీ
##స్తుంటే
##ేవారికి
అయినది
కేసులు
క్షీరద
జెరిఖో
##రిస్తాయి
తరంగాలు
రచనల్లో
సంకీర్ణ
సంబంధాల
ఉంగుటూరు
పువ్వులు
పర్యాటకులను
##oph
##లోయ
##ript
##గామి
##ధ్ధి
##పథకం
##బ్రో
##మోహన
new
und
##శాలలు
##ెక్కి
ఒంటి
మాది
వాక్
books
కాంస్య
గోపురం
నోకియా
మార్చడం
##చినప్పుడు
అమెరికన్లు
జీవితానికి
నియంత్రణను
ప్రేక్షకులను
గెలుచుకున్నాడు
##air
##దాల
ధీ
##కాదు
##గలడు
##చ్యు
##ణిని
కీప
##ద్వార
Comp
ఇత్త
చాన్
రామా
హోలీ
##నెస్కో
ఆందోళ
కలిసే
తోటలు
పౌరుల
కోస్తా
బేసిన్
ఏడుగురు
పన్నులు
పరమాత్మ
పేర్లను
వెంకయ్య
సిగ్నల్
##ించాల్సిన
కంకిపాడు
తాలిబాన్
వ్రాసారు
గ్రంథాలలో
చూడడానికి
యురోపియన్
నియంత్రణలో
అంగీకరించాడు
ఉపయోగించడానికి
##iew
##తని
##తార
##రపు
Tr
శే
##బారు
##వుండ
##శాలు
##స్పద
కట్
##మంత్ర
##రింది
1904
గేజ్
తేల్
బెడ్
సుభా
##ందరికి
##తుంటాడు
టేబుల్
మెరుపు
వరుసలో
Windows
జాక్సన్
డబ్ల్యు
దేవేంద్ర
మెడిసిన్
ఎదుర్కొని
కళాకారిణి
పరిపాలనలో
మధ్యతరగతి
కొనసాగించింది
లక్ష్మీనారాయణ
##ళయ
##వద
Wh
##ముపై
##వాదు
అహో
గ్వ
నరక
##ystem
అవయవ
జనసా
టైప్
నడిపే
నిలబడ
పరస్ప
ఆహ్లాద
కుంకుమ
దుస్తు
నిలువు
మెచ్చు
రాజరాజ
రివ్యూ
##ప్లెక్స్
కేన్సర్
సమృద్ధి
##వలసిందిగా
పేరుపొంద
బుద్ధుడు
భాగానికి
రాజపుత్ర
శిష్యుడు
ఈస్టిండియా
నివసించారు
భౌగోళికంగా
చిత్రకారుడు
బాస్కెట్బాల్
##lo
యం
యథ
రమ
##చిన్
##డ్యూ
##పండి
128
rec
బఫె
దసరా
లారీ
##చేసాడు
##ద్వారం
కప్పి
చుక్క
సైంటి
##కప్పుడు
కామిక్
కామెడీ
చేతికి
టిప్పు
దృశ్యం
పక్షుల
విషయమై
అవశేషాలు
కుమారుని
బ్రిడ్జ్
విత్తనాలు
కొనసాగింపు
వెలువడింది
అధికారంలోకి
కుటుంబాన్ని
పనిచేస్తాయి
ప్రాముఖ్యతను
రూపొందించింది
వినియోగదారులకు
##ఛ్
##ంతక
##కేశ
##బండ
##ower
##ఉంది
##నీతి
Del
కైవ
భజన
##చింగ్
##చెర్ల
##ద్దేశ
టైటి
బద్ధ
మదర్
మాదక
రేవు
first
తెగలు
ఓటింగ్
కేవలము
వైపుకు
జగన్నాథ
కాల్పులు
పాత్రలలో
వృత్తిలో
పట్టుకొని
మార్గాలను
అనువదించారు
ప్రచురితమైన
పారిశుధ్యపథకం
##47
##NS
ఆమ
ఆశ్
##కాలము
##పించే
##ారియో
1902
కస్ట
చావు
జెర్
వ్రత
##మేనియా
##వాత్మక
##స్సుకు
కిరణ్
నరికి
పిట్ట
రమేష్
##యడానికి
గోపాల్
నాలుగే
మార్చే
వినాయక
శ్రావణ
ఆస్కార్
నిర్ణీత
మతానికి
గెలుచుకున్నారు
##ium
##లనం
##సాం
##ాగత
me
##arly
##చెన్
##జుడు
##డైనా
##మూడి
రెం
##రాదని
##షన్ను
క్లే
బంధం
అయ్యి
చిరుత
జవహర్
మధుమే
##ీకరించి
వాడారు
అథారిటీ
అలెర్జీ
అసంఖ్యా
ఉండేదని
ఏమాత్రం
తల్లిని
ఇబ్రహీంప
కాశ్మీరు
ప్రమాదకర
విమానాలను
ప్రాంతములో
ధ్రువీకరించ
పదార్థాన్ని
రెస్టారెంట్
{
##TML
##కిలీ
##త్స్
##యంట్
##రామ్
155
Rel
##ానంతర
##ుడికి
##్రిక్
1860
చేజి
శీతల
కుందే
పెనుగ
భూమిక
##పాలిటన్
కుప్పం
తీర్మాన
దక్షణాన
పదకొండు
విధ్వంస
నిజాయితీ
ప్రతిజ్ఞ
సంకేతాలు
చూపుతుంది
గ్రామాల్లో
పెంచుతుంది
ప్రొడక్షన్స్
సంభవిస్తుంది
##దగ
##rop
EU
##నాయక
##పుట్
##ిండి
##ాంశాల
అరిక
కారం
గైడ్
జవాహ
నేనే
రాను
వంపు
వూరి
their
అశోక్
ఇస్తూ
దర్యా
రాళ్ళ
హద్దు
##ళ్లపాడు
ఆకులను
##సంబంధమైన
దిగుబడి
##ామిరెడ్డి
##ించినపుడు
గర్భగుడి
తగ్గించే
ఫిలిప్స్
ముఖాముఖి
సర్వస్వం
స్టాండర్
ఉద్యోగంలో
నివేదికలు
వాస్తవంగా
ఉత్పత్తికి
నరసరావుపేట
వ్యక్తులను
సాధించడానికి
పేర్కొనబడింది
##92
##rim
##హిం
##చంద్
##బ్రూ
పతి
##గేషన్
##ప్రియ
అంబే
ఉంటో
గానే
బళ్ళ
మాను
యేసు
##Finder
ఆపిల్
గార్డ
ఇండిపె
పేదరిక
పేలుడు
ప్రసరణ
##ేశ్వర్లు
ఏడాదికి
కొండూరు
బెంగాలు
చిన్నతనం
ఆపరేటింగ్
నౌకాశ్రయం
ఫోటోగ్రఫీ
సమావేశాలు
సినిమాలోని
అప్పటినుండి
ధృతరాష్ట్రుడు
##పూట
FM
##iter
##డ్లో
##మాంస
##రత్న
##రార్
WWF
des
లఘు
##త్తున
##లీకరణ
##సియస్
##ెట్స్
అశోక
పోషక
రోహి
సౌదీ
##ింపబడు
గణాంక
తపాలా
పాలెం
బౌలర్
అంటాడు
కృషికి
పీపుల్
పొపాయ్
బిల్లు
రీత్యా
లిబియా
##ధికారులు
అభిమానం
గుర్రపు
నందమూరి
పండుగలు
భార్యను
ఎలెక్ట్ర
కాళిదాసు
గ్లూకోజ్
అనుబంధంగా
స్త్రీలకు
##కుంటున్నారు
కేంద్రాలలో
ప్రదర్శనను
మొత్తానికి
##ET
•
##భిన
Ox
la
చం
##కులో
##డెడ్
##థియో
##రంటో
లంచ
##గరంలో
##పరచడం
##్రాంత
పదమూ
పిట్
బందీ
రియో
ఆనాడు
ఉన్ని
గర్భం
చేరువ
తనదైన
సుసంప
పటిష్ఠ
సురేష్
మార్గాల
డెట్రాయి
పెనుగంచి
యునెస్కో
ఇంచుమించు
కారణమైంది
క్రియాశీల
ఫిలింఫేర్
ముగింపుకు
స్థాపకుడు
ఉద్దేశించి
వికీపీడియా
సర్వసాధారణ
సమర్థవంతమైన
సత్కరించింది
##yp
##శర
##కర్ల
##కేష్
##తుంద
##పరచి
##యిడ్
158
167
ఇర్
కోన
##మనేది
##్యూల్
దాచి
యెడల
విశద
##ధికారం
##వుతారు
గట్టు
వేముల
##ించినది
ఆచరించ
తిక్కన
రాజుగా
సహజమైన
స్మృతి
అలాస్కా
పట్టాభి
మానవుని
##తుడయ్యాడు
ఉద్దేశ్య
చుట్టుము
కనిపెట్టి
వ్యత్యాసం
అనుకోకుండా
ప్రణాళికలు
మిలియన్లకు
కనిపిస్తారు
తెలుపుతుంది
##DI
##డొ
##పాట
##సుర
em
##ికలు
అడగ
ఏదీ
గన్
చొర
డర్
నెం
##రేటర్
మండప
మావో
రేఖా
హౌరా
##స్రావం
కాళ్ళ
చెందే
పరిగె
సామంత
##ccessed
కథనాలు
కొల్లా
పిట్స్
పుష్కర
వారంతా
Ancient
పదిహేను
పనిచేయు
పార్టీని
రిపోర్ట్
వ్యావహార
చేరడానికి
సంప్రదాయక
కనిపించాడు
ప్రణాళికను
సంయుక్తంగా
కార్యాలయంలో
ఆకర్షించింది
వార్షికోత్సవ
వ్యాపించింది
##ij
##చ్య
హయ
##హుడు
Med
అమ్
మాథ
##చర్యం
##ిల్లు
ఇటుక
కంచి
మండి
సోనీ
##కుడిని
##మిక్స్
##విద్యా
##ాలయాలు
ఈమెను
కట్టడ
గుడ్డ
నిండు
మెట్ల
లేజర్
##మెంట్స్
ఆత్మకథ
కంటికి
దిద్దు
పోస్టు
సంపాదక
హోమిని
పడ్డాడు
పర్వతాల
మధ్యస్థ
మొత్తము
Institut
ఇందులోని
ప్రభావము
ప్రతిరోజు
ప్రతినిధిగా
రంపచోడవరంలో
ఇబ్రహీంపట్నం
చెప్పుకోదగ్గ
పెనుగంచిప్రోలు
##మత్
De
ఎఫ
##పాయి
ఆపద
తాప
వృష
వేప
##conom
##తారని
York
దశకు
నెపో
వక్త
షాట్
హైపో
##రాజులు
కుమ్మ
వైఎస్
##ించబడ్డ
ఆచరణలో
గాలిని
గ్రాఫ్
పాడేరు
మూలకాల
సమూహాల
##సరిహద్దు
గొప్పగా
టన్నులు
స్టడీస్
పెరిగాయి
బృహస్పతి
వ్యాధిని
శ్రీదేవి
పరిశ్రమకు
నిర్మించడం
ఉపయోగిస్తాయి
పెట్టుబడిదారీ
నిర్మించడానికి
##లనే
##సూయ
##ాయే
##ీపై
FI
##డ్ను
##ితమై
##ైనర్
##పింగ్
##ాయిస్
కాడ్
తిరో
పురి
పూను
సంజీ
హామ్
ఇబ్న్
చెడ్డ
టీచర్
బంగాళ
శాఖకు
సిఫార
హాసన్
##క్రటిక్
కంట్రీ
మాల్టా
రైళ్ళు
డ్రాగన్
పండితుల
బంధించి
వామపక్ష
వాహకనౌక
పోటీచేసి
సంస్థానం
స్వరాజ్య
ఆంధ్రప్రభ
మధ్యాహ్నం
వైజ్ఞానిక
వ్యవహారాల
హామిల్టన్
కల్పించారు
వ్యాపారంలో
హైదరాబాదుకు
చేరుకుంటుంది
ప్రతిపాదించిన
##son
IC
IV
##ద్వి
##నూతల
##బ్యా
rel
ఆదా
డ్య
##పేటలో
ఆదిమ
కులీ
కోరి
దాసు
విమో
ఆగ్రా
ఉగాది
ఎర్త్
తుమ్మ
పనామా
శూద్ర
##ంటుందని
అధినేత
అర్ధము
కొలువు
ట్రోఫీ
తత్త్వ
పురుషో
పూజారి
అనేవారు
అభిమాను
ఆచారాలు
ఆహారంలో
ఎత్తుకు
గడిపాడు
పెడతారు
చిత్రంతో
పురాతత్వ
మూత్రపిం
వారసత్వం
పూర్వీకుల
చిత్రంలోని
విభాగాన్ని
విశిష్టమైన
కార్యక్రమాల్లో
##utt
##బలం
##భామ
AT
##కన్న
##జాలు
##ఫ్యూ
అలస
మొఘ
##ణులకు
##స్తాన
త్రీ
బారా
సైకి
##సైక్లో
అనిల్
చంపిన
జవాబు
టైగర్
శుక్ల
##యున్నది
అరబ్బీ
క్షీణత
పొడిగా
రాచరిక
రాహుల్
లైసెన్
స్ట్రీ
##స్థితిలో
పేదరికం
మరికొంత
మున్నగు
కుటుంబాల
బర్మింగ్
తీరప్రాంత
వివరిస్తూ
కార్పోరేషన్
##AP
##te
##నవ
##రెట్
Gen
HPV
pre
sub
బణు
ముహ
##రరావు
చండీ
ఫుల్
బాలి
మిర్
##స్తాము
నిదాన
పరమపద
ముచ్చ
రాగము
వాంకో
వైస్ర
స్పృహ
##లేకుండా
క్రోమో
గెలిచి
డీజిల్
సైనికా
##elangana
అంగుళాల
చెందాడు
జరుగును
వర్షాలు
సంకీర్త
##ictionary
ఉద్యమాలు
న్యూక్లి
ప్రక్కనే
వ్యాధితో
తత్వవేత్త
అక్టోబరులో
డెన్మార్క్
పోర్చుగీస్
వర్ణించారు
సుబ్రహ్మణ్యం
ప్రదర్శించాడు
నిర్వహిస్తున్న
ప్రకటించబడింది
##శూ
##ama
AC
Le
##abad
##ital
##lish
##గ్వా
##దుని
##ద్యం
ఎసి
అంతం
గద్ద
ఘటనల
ఫ్రై
మహాయ
సాఫ్
##మెంటల్
అడవుల
అసోసి
రాబర్
##ography
##ంలోనికి
స్ట్రో
ఈజిప్ట్
గ్రౌండ్
నగరాలకు
బ్రౌజర్
భావాలను
గుర్తుకు
పిఠాపురం
బెర్లిన్
##లేకపోయింది
హింసాత్మక
కలుస్తుంది
ప్రయాణీకుల
మహాసముద్రం
ఉపయోగించాడు
సంవత్సరములు
కలిగివుంటాయి
పునరుత్పత్తి
రూపొందించబడిన
ప్రతిపాదించాడు
##way
##పీడ
##టెర్
మకర
##పుస్త
##రీకరణ
1893
టెలీ
బంతు
రైట్
సిసి
##గేట్రం
ఆనందం
దిబ్బ
పలికి
బఫెలో
తార్కి
భాషలను
సొమ్ము
##కపోవడంతో
ఎనిమిదవ
పరస్పరం
ప్రభాకర
బృందంలో
ఉత్తీర్ణ
పర్యటనలో
ప్రదేశాల
తెచ్చింది
పరిమితమైన
పొందుతాడు
విజయానికి
క్రికెట్లో
లేకపోవడంతో
విమర్శకుడు
అధ్యక్షులుగా
కేంద్రీకృతమై
ప్రభావవంతమైన
##arb
##కావ
##వలస
ఒబ
##ర్గత
##ారనీ
అమా
ఈక్
కేథ
మెం
రంజ
John
డోర్
పూణే
బచ్చ
యుగో
##ల్లాస్
##స్త్రం
అమ్మి
అరుణా
ఏమైనా
కన్నీ
కర్బన
గంటకు
దత్తత
వర్జీ
వికాస
##కేంద్రం
##క్లింగ్
##డుతున్న
##లక్ష్మీ
ప్లాన్
వివరాల
రామదాసు
అంగుళాలు
గుర్రాలు
పెరుగుతూ
ఆమ్లాన్ని
నష్టాన్ని
నిర్వహణకు
లేకపోయినా
అంత్యక్రియ
ఉపగ్రహాలను
ప్రయాణించి
బ్రాడ్మాన్
సరిహద్దులు
##మంద
##జాక్
##త్సు
##ద్రీ
##ప్టి
##ళ్ళో
##ష్ణా
జంగ
హంస
##టబుల్
##పాక్ష
థియో
పీఠం
ఫ్లూ
##కొల్లు
##వెంటనే
గజపతి
గోపుర
ఫ్రెడ
కూర్చో
తృప్తి
నలుమూల
రాజభవన
విశ్వం
శిల్పం
##కిస్థాన్
##నప్పటికీ
పరిరక్ష
పొరుగున
రాక్షసు
విడుదలై
విల్సన్
వెల్లడి
##చేయబడింది
ఎప్పటికీ
త్వరలోనే
రాజ్యంగా
విలువలను
నాటకాల్లో
ప్రతిరోజూ
రాజకీయంగా
ప్రయోగాత్మక
గుర్తించదగిన
వ్యాపారాన్ని
##స్ఫ
##నుగు
##నేది
అవా
వధు
##ట్టర్
##నియల్
కంచు
తాకి
తీపి
వ్వా
##ములందు
అనవసర
ఆమెతో
ఉండుట
ఏకాంత
తియ్య
తొక్క
పుంజు
లేబర్
##బద్ధంగా
కోణంలో
చెక్కు
ద్వారక
ఫైనాన్
బొమ్మల
మాటలకు
స్పర్శ
ఏర్పడ్డ
విపత్తు
సదుపాయం
సర్పంచ్
గురువులు
జరిగినది
తగ్గించి
విజ్ఞానం
నిర్మాతలు
భూస్వామ్య
సైన్యాలను
అమ్మవారిని
రికార్డులు
బ్యాక్టీరియా
##చట
##ంగీ
##భజన
డౌ
##కెస్
##పద్ధ
##పిథె
##పెల్
##ాలనూ
##్రిత
ent
దీన
మౌఖ
వగై
##మీటర్
కామా
టెన్
బడిన
మేల్
వేషం
సేపు
ఇదంతా
లిఖిత
జన్మని
పాలనకు
##నూతలపాడు
గంగానది
చివర్లో
చెయ్యటం
తరగతిలో
తరగతులు
నెలకొల్
పిలిచారు
బహిర్గతం
సైన్యాలు
స్థిరపడి
సూక్ష్మజీ
##por
##మరు
##వాచ
##ైజ్
##్వీ
##ధుడు
##పును
##బ్లో
భువ
##ండేవి
##ంపైర్
అడ్వ
తెరు
దీపా
పీస్
ఫిరం
రోల్
##చెట్టు
నియంత
రామన్
శకుని
ఎరెక్ట
కుస్తీ
నెయ్యి
భావనను
యూదులు
వారంలో
విద్యన
##కురాలిగా
ఉయ్యూరు
చేజిక్క
భాగాలలో
మధ్యధరా
హక్కును
డబ్బింగ్
దక్కింది
ప్రముఖుల
షెడ్యూల్
సియాటెల్
ఆదాయాన్ని
విభిన్నమైన
వ్యక్తులకు
చేరుకోవచ్చు
సంతనూతలపాడు
సాంప్రదాయకంగా
##కనే
##ఱ్ఱ
##మాంబ
##లిజం
##షోర్
165
can
ఓర్
కరో
బరో
##మణులు
##్యాలు
క్షణ
నడుప
వందే
##బ్రోలు
తెలుప
##ధార్మిక
##సాగింది
Google
చేకూర్
దీక్షి
పోల్చి
బ్రిస్
##త్యాన్ని
కరెన్సీ
చేయవలసి
జీవవైవి
ప్రాదేశ
రాజ్యాల
కంపెనీలో
కొట్టాడు
చెప్తాడు
తీవ్రవాద
నాగేంద్ర
నాటకాలను
భవనాన్ని
వివాహాలు
##భివృద్ధికి
పలుమార్లు
కాలక్రమంలో
సంపాదించిన
నియమించింది
ప్రభావానికి
వర్తిస్తుంది
##RC
##ull
IA
NH
##ingh
##పాండ
gen
mus
ఆలం
బహూ
సమో
సుం
##ాంగణం
##ానికై
Arch
చరణ్
చైర్
వాలీ
##స్ట్రే
జలాంత
బ్లడ్
మటుకు
యూరప్
రక్షక
లలితా
##వంతులైన
డెస్క్
పాడుతూ
మలయాళం
వేశాడు
కారాగార
పార్టీల
సరిపోయే
హిమాచల్
ప్రోగ్రా
వాయువును
స్వస్థలం
కనిపించిన
కోల్పోయారు
కామన్వెల్త్
సంయుక్తరాష్ట్ర
##inn
##సాధ
##స్ల
##roup
##డెర్
##తోనూ
##ముడి
##షైర్
##ార్ర
పోత
అరుణ
పొడు
రకపు
రేసు
వేంక
##పదార్ధ
గోడలు
చతుర్
ధృష్ట
స్టాం
##ారంపర్య
అభినంద
కొల్లి
భార్యా
రోడ్దు
సరియైన
అడిలైడ్
ఎన్నికై
కనుమరుగ
ద్రావిడ
అధికభాగం
తగ్గింపు
ప్రజల్లో
భయంకరమైన
ఆధీనంలోకి
పద్ధతులలో
ప్రతిస్పంద
నెదర్లాండ్స్
నిర్ణయించింది
##97
##alth
##తగిన
##పెర్
##మ్మే
ఆగు
ఘోర
జీత
సహో
1903
ఐశ్వ
గందర
పూరీ
బుల్
##దేవిని
దొంగి
విద్వ
సమతుల
స్కాల
##న్నాడని
గ్లోబ్
శ్రామి
ఏనుగులు
కంపెనీల
గ్రేటర్
మహోత్సవ
సేవలంది
స్పీకర్
నియమావళి
ఉత్సవాలలో
ప్రణాళికా
ప్రయోజనాల
వారిద్దరి
స్వల్పంగా
సందేశాన్ని
పాల్గొంటారు
పెట్టబడింది
తెలుసుకోవడానికి
##ks
తగ
##పైనే
##లోస్
##పరచిన
##స్మస్
##ామిలీ
అస్త
కథకు
క్షమ
మొలక
##cience
##త్తీస్
ట్రాం
తండ్ర
దాఖలు
నాంది
పండ్ల
భయపడి
వలసలు
గాయాలు
చందమామ
జయించి
నిర్మల
నేర్పు
ముగిసే
ముప్పై
వుండటం
##న్నిటినీ
అంటరాని
దేశాలతో
ప్రతిగా
కీర్తనలు
చెన్నైలో
దేశంలోనే
ద్రవీభవన
నైట్రేట్
వెంకటరమణ
గుంటూరులో
##ింపబడుతుంది
డెట్రాయిట్
తొలగించారు
గుర్తించాడు
భారతదేశములో
ప్రాచుర్యంలో
ప్రిన్సిపాల్
శాస్త్రజ్ఞులు
##ంశం
##లీల
##కాలో
##టిష్
##యోల్
met
##డంబడి
##పొంది
Phil
కాను
ట్వి
నూలు
భావో
##పడతాడు
##మోనియా
చిల్ల
సిక్ఖ
ఎన్నడూ
లాస్ట్
లోతుగా
ఉంటోంది
మాండలిక
కోర్టులో
గురుత్వా
దృష్ట్యా
కలిగిఉంది
గుండెపోటు
నాయకుడిగా
పాస్పోర్ట్
చట్టవిరుద్ధ
సంవత్సరాలపాటు
##ads
జడ
##కృతం
##నూరి
##భ్రమ
##మాణం
##ష్వా
147
640
వరస
సిమ
##భారతి
##ల్లర్
##వర్స్
##ైన్స్
అరకు
చిప్
నాగ్
పౌరు
స్రా
world
అన్వయ
జ్వరం
దాడుల
చుట్టి
దుగ్గి
ఫ్లాష్
బడింది
వారిపై
కెనడాలో
గ్రంథము
చూపించే
బౌద్ధమత
డిప్యూటీ
నిలబెట్ట
వాల్యూమ్
హైస్కూలు
అసంతృప్తి
తయారుచేసే
వర్జీనియా
కనబడుతుంది
ప్రోత్సాహం
బాక్టీరియా
అభిప్రాయాలు
సరిహద్దులలో
సింహాసనాన్ని
సంప్రదాయాన్ని
##42
##Hz
##ఛే
##ibr
##ాలె
ఫూ
##book
##ంచర్
##కిని
##త్తూ
##మిర్
##వసరం
reg
హేమ
గాఢత
జగన్
దైవం
పేలవ
హర్ష
##సరించి
ఎలుగు
ఏళ్ళు
నాగర్
ఒకరికి
జనాదరణ
న్యూజీ
భూకంపం
రైళ్లు
ల్యాప్
Publish
మరణించే
విమానాల
పరిశుభ్ర
మిత్రులు
మొహమ్మద్
స్మార్ట్
అంబేద్కర్
తెల్లవారు
మెక్సికన్
సర్దుబాటు
బ్యాట్స్మన్
మాట్లాడతారు
తెలుసుకుంటాడు
##adu
##enn
##తాం
##దాం
##పరా
##శోధ
##ప్రథ
##బాక్
##రైట్
##సిపు
IBM
ఘోష
డబ్
హల్
##istan
అజయ్
నోరు
పోతే
భృగు
అటుపై
గ్రాన
తాళ్ళ
నింది
మాణిక
లౌకిక
వుంటే
##కాకుండా
ఇంటిని
చంపాడు
రాగానే
వృక్షం
హోదాను
##కాలంలోనే
##కునేవారు
##క్రిస్ట్
పొరపాటు
రోగులకు
లండన్లో
వెలువడే
అంతర్భాగ
దేవస్థాన
నిలిచాయి
పెరుగును
కృష్ణానది
ఉపాధ్యాయులు
కురుక్షేత్ర
ప్రపంచాన్ని
##ht
##హూ
##iod
tw
##view
##నాకు
##ష్ఠి
Ele
Mac
వెడ
##ative
##కములు
అతిశ
ఆయనే
కాంత
కొంక
నిషి
విదు
సరదా
తలుపు
ఫార్మ
మారిష
వీరేశ
##ందువల్ల
##చడానికి
కోపెన్
నిపుణుల
స్ట్రాస్
ఎన్సైక్లో
సమాజాన్ని
ఉపసంహరించు
కొద్దిపాటి
అనారోగ్యంతో
గిల్క్రిస్ట్
విద్యార్థులను
అభిప్రాయపడ్డారు
చారిత్రాత్మకంగా
##ext
##తమే
అక
బడ
##డినా
##ణికి
##న్కు
XML
mov
ఆండ
నడక
నిడ
##ంతుడు
##నులకు
comm
ఎక్స
కలవు
డిప్
పరిస
బుష్
రుతు
##త్వంతో
##నార్డ్
State
కార్ల
తయారి
పాతాళ
భంగిమ
రెండి
##తనాన్ని
##బెట్టిన
నాణేలు
విలువల
ఇతరులకు
బాణములు
హిట్లర్
మిత్రుడు
సంతోషంగా
సామాగ్రి
స్వామికి
గుండ్రంగా
నిర్ణయాలు
చిన్నతనంలో
జ్ఞానాన్ని
విలక్షణమైన
నివాసగృహాలు
ఎదుర్కొన్నారు
ప్రసిద్ధిచెందిన
##ంభీ
##కతా
##గ్ధ
Im
ధు
##టీసు
##తిగా
vol
ఓల్
##ments
##దత్తు
##మాధ్య
##ుడిగా
జరుప
సోలో
అనురా
ఫెర్ర
సనాతన
సన్నా
పనులకు
అమర్చిన
పురాణాల
మాతృభాష
వేదికగా
ఉపయోగపడు
తొలిసారి
రసాయనాలు
స్క్రిప్
##చుకున్నాడు
వ్యావహారిక
ప్రపంచవ్యాప్త
మెట్రోపాలిటన్
##వడ
##ool
##oss
##rah
##తెర
##కుర్
##మిటి
##యిని
##లంగి
##వతార
ఊహా
నను
##ution
##తల్లి
##ద్దాం
##నీకరణ
##య్యర్
కటకం
ఖండా
ఫీడ్
##విల్లే
##సురుడు
అద్వై
ఆలోచి
ప్రాబ
మండపం
యూజర్
వెలిగ
సంజయ్
##ization
##శక్తిని
ఏకాదశి
గుత్తి
వాటిపై
గ్రాముల
రజాకార్
వస్త్రం
విభాగాల
చింతామణి
వాంకోవర్
వాడేవారు
వ్యాసుడు
సైన్యంతో
డివిజన్లు
ప్రాదేశిక
విద్వాంసు
సృష్టించి
పెట్టుకొని
ఉపయోగించుకు
వెళ్ళడానికి
తయారుచేస్తారు
##els
##etw
##ott
##ావు
##arth
##కన్య
##టాల్
##సినో
220
Red
SMS
చాప
##ుల్లో
##ెర్రా
part
కలర్
చేర్
బాస్
ల్యూ
సంభో
స్కి
హసన్
##బీరియా
##ానింగ్
index
inter
పాలను
వరదలు
హరికథ
##న్నట్లు
##స్తాడని
కోరుతూ
ట్యూబ్
సుభద్ర
స్టీవ్
##ాలక్ష్మి
డబుల్స్
మాధ్యమం
రావణుని
ఆటగాళ్ళు
దృశ్యాలు
పొందుపరచ
సినిమాగా
చూస్తున్న
దక్షిణంగా
పాలించాడు
లక్ష్యంతో
ఉండవచ్చును
మొదలయ్యింది
స్ప్రింగ్స్
పబ్లికేషన్స్
నియోజకవర్గాలలో
##49
##au
ఏవ
##డీలు
##ారంగ
##ాలనీ
Sch
##క్కడే
1870
1897
కువై
దుశ్
రాని
రైస్
శిరో
##దారుగా
ఉంచడం
గణితం
టిక్క
తినడం
పాటర్
##ంతోపాటు
అంచనాల
ఐలాండ్
వ్యవధి
భూములను
అక్షాంశం
ఉన్నపుడు
ప్రతాపరు
బ్రిస్బే
భువనేశ్వ
సార్వభౌమ
స్క్వార్
ప్రమాణంలో
ఇన్నింగ్స్
పరిగణనలోకి
ప్రోటోకాల్
మహబూబ్నగర్
ప్రవాహాన్ని
మొదలుపెట్టాడు
##OS
##నమ
##నగా
##ౌడ్
Bi
ev
##ames
##పరిష
##పిక్
##లాగే
##సోర్
ధని
##క్లహో
##ప్టన్
##బడేది
కపిల
క్యు
నర్మ
నూర్
మాసి
వితం
శిలీ
##డుగులు
##మీదుగా
##ెక్షన్
కావటం
క్యాథ
వలెనే
విండ్
ఆండ్రూ
ఏనుగుల
పింగళి
శిశువు
శ్మశాన
##పెట్టారు
ఎలాగైనా
ఒరిస్సా
చైతన్యం
జాయింట్
తగ్గుతూ
ముత్యాల
వాయువుల
వెనక్కు
సంచికలో
##కరిస్తారు
##న్నప్పుడు
కొడుకులు
నమూనాలను
నాణ్యమైన
బంధువులు
జనసాంద్రత
జిల్లాల్లో
తెలియకుండా
స్టేట్స్లో
పెట్టుబడులు
వెలువడ్డాయి
Ac
##జనల్
##తితో
138
ఆనవ
లాయ
షాజ
సరు
##కల్లు
##రాయలు
##ాన్సీ
1895
ఉత్స
కాక్
క్షు
గామా
దీపం
ఫిన్
ఫొటో
మతము
అబద్ధ
అల్లం
మల్లె
లేవని
##కోవడంలో
##రించాయి
కోబెన్
డార్క్
దీవులు
పుత్రు
భీమవరం
రుగ్మత
నుండును
వివాహము
స్తోత్ర
చెయ్యాలి
వదిలివేయ
నిరాకరించ
ఉన్నట్లయితే
కంప్యూటర్లు
నిర్ణయాన్ని
హైదరాబాద్లో
వెంకటేశ్వర్లు
##pg
##ండవ
##లాల
##rish
##లోకం
148
ఘాత
బాద
##రాలకు
అతిథ
ఎండి
రప్ప
సత్ర
##విడిగా
##ించడము
ఆరోజు
కుంతీ
ఖరీదు
విఫలం
వైశ్య
కృతజ్ఞ
కోపంతో
యోధుడు
##మవుతున్న
అనికూడా
చతురస్ర
కృష్ణుని
గుర్తులు
సమరయోధుడు
##భూత
MS
##మాస్
##రీన్
##శైలి
##ిందా
240
Gov
out
ఉమా
కరగ
చిర
బిష
సలీ
##కెక్క
1830
డైలీ
దివా
నమూన
ప్రబ
రాసే
##ంద్రీయ
##కొద్దీ
##పీడియా
ఉజ్బె
కల్లు
కెమిక
గుండు
దగ్గు
ప్రవీ
త్వరిత
మాండలి
హిప్పో
Journal
చేయించి
బ్రతుకు
సైనికుల
హెమింగ్
క్రోమియం
భారతీయుల
యెరెవాన్
కొనసాగాయి
విన్సెంట్
అవార్డులను
ఆరంభించారు
నిజామాబాద్
వ్యాపారాలు
నిర్వాహకులు
పిట్స్బర్గ్
మేరీల్యాండ్
ఎలక్ట్రానిక్స్
##ంగ్ర
##కోట్
##క్వా
##డిస్
##ముఖం
##ళంలో
##సోల్
అథ్
పట్
భైర
##జినల్
##బక్స్
##లలోనే
##షన్లో
name
చేయడ
జింద
జీడి
డెత్
బీటా
##కూలంగా
count
విజయా
సమకాల
చర్యను
దాడిలో
న్యూరో
విరామం
అవకాశము
క్షమాపణ
చరిత్రకు
ఫారెస్ట్
మానవులకు
మార్గంగా
మైనారిటీ
రక్తపోటు
జలాంతర్గా
పౌనఃపున్య
మట్టానికి
రాష్ట్రకూ
పడిపోయింది
పాడేరులోనూ
న్యాయవాదిగా
##DF
##RS
##బయ
##ilm
##గరీ
##సమూ
GS
##టాని
##రేజ్
##వేలు
##ించె
ABC
Mon
Sal
ఏరో
కోయ
నిశ
మంత
సలా
1888
ఇదొక
నిలక
మేడి
రిలీ
వేలం
వైడ్
##వర్మను
Delhi
అథ్లె
చింతల
నదిని
నిలయం
ముసలి
##ించటంతో
దొరికే
బాలికల
మనుష్య
మాంసకృ
రుసుము
షార్ట్
సెకండ్
##గిస్తారు
చివరిగా
పార్శ్వ
పురోగతి
మొదలయిన
వర్గంలో
సానుకూల
అధ్యక్షత
దుర్మార్
ప్రాంగణం
ఫిజిక్స్
సాధించడం
అవసరాన్ని
కాంక్రీటు
క్రిస్మస్
చేసుకుంటూ
కలుపుతుంది
పత్రికల్లో
లోకోమోటివ్
సైన్యానికి
జీవితచరిత్ర
దక్షిణాసియా
ద్రవ్యోల్బణం
ప్రవహిస్తున్న
వ్యవస్థాపకుడు
##its
##ope
##పత్
##్ర్
se
##ract
##కిలో
##గులో
##బంధం
MIT
తగల
దయా
ధార
సంధ
##పులను
##లర్లు
##వ్వడం
##ినేని
1898
ఇంపీ
జాజ్
టామ్
దేని
మరచి
మాటల
లుగా
సదరు
హస్థ
##కిన్స్
##క్షనరీ
##ల్లేరు
##ళ్లుగా
##ార్రఫ్
ఇన్ని
ఎదుటి
నామిన
వల్లభ
ఉగాండా
ఒకనాడు
ఒడంబడి
గూడూరు
డొమైన్
తీశారు
పొదుపు
బంగాళా
భరద్వా
ఎన్బిసి
ఖర్చులు
బళ్ళారి
భక్తుడు
భార్యలు
మహారాణి
వర్తమాన
సుపరిచి
మార్కండే
వివాదాలు
శివలింగం
అభయారణ్యం
నామినేషన్
మల్లికార్
విభాగాలలో
క్లుప్తంగా
చదువుతున్న
పెద్దాపురం
బహిష్కరించ
న్యూజీలాండ్
సురక్షితంగా
ఆంజనేయస్వామి
కేంద్రీకరించ
##hel
##iqu
##భక్
పన
##కాక్
##కెర్
##బాగ్
##వానా
సుధ
##కర్ణి
##క్రమం
##తానని
##ాంతిక
ఎండో
కోట్
మహర్
మూలా
విజృ
##పార్టీ
ఉదజని
తరిమి
పట్టే
మురళీ
మెంట్
విషాద
గోల్స్
విన్స్
వేడిగా
హయాంలో
మలేరియా
వారసులు
పడుతున్న
వ్యాసంలో
కావాల్సిన
తయారుచేసి
నెపోలియన్
పునరుజ్జీ
ప్రతిష్ఠా
సందేశాలను
హెమింగ్వే
పూర్తయింది
యుద్ధాన్ని
ఉపాధ్యాయుడు
ప్రాంతాలుగా
అభిప్రాయాన్ని
##దట
##ఫ్ఫ
##యరీ
no
so
##తిన్
##సియో
##స్టీ
WWE
dec
ఆశి
మఠం
మూఢ
హెప
##ంలోను
##మట్టి
##యాలను
##లగడ్డ
##ాయ్లా
అపాయ
దామో
##ంటోంది
##ప్రసాద
##యుగంలో
##ించాను
కొప్ప
చదవడం
మేనల్
స్క్ర
##కపోయినా
##త్తులను
andhra
ఒకరిని
గురజాడ
బ్రూస్
మాస్కో
వర్గీక
విరిగి
సల్ఫర్
కట్టుబడి
నిర్వాహక
అవకాశాలను
కాంట్రాక్
చేయాల్సిన
సర్క్యూట్
పబ్లిషింగ్
హాజరయ్యారు
కారణమవుతుంది
బర్మింగ్హామ్
రక్షించడానికి
##పాఠ
##మాప
IT
##జారు
##పాజి
బాగ
##గుట్ట
చెంచ
పోతన
బాయి
మహ్మ
లాగే
##ctions
elect
చూడటం
సంసార
అణువుల
అదృష్ట
ఓక్లహో
కమర్షి
కాలంగా
గిటార్
పర్యవస
భూటాన్
మార్కా
వల్లనే
##రాతియుగం
##ల్వేనియా
ఆగ్నేయా
ఘవేంద్ర
శివలింగ
పత్రాలను
మదనపల్లె
మార్చాడు
వ్యాధికి
శిష్యులు
సాగించిన
పోర్చుగల్
ప్రవహించి
##పడుతున్నారు
పరిశ్రమలలో
శాస్త్రాన్ని
నేర్చుకున్నారు
##dy
##iam
##urn
##uth
##ికీ
At
ఉధ
గం
##పాణి
App
బెర
##చురల్
##ప్షన్
##భూషణ్
##యుక్త
##వన్నీ
1899
acid
తంతు
##బోర్డ్
speci
అంతరా
##బడినాయి
కార్బొ
కెన్నె
క్షిపణ
గొర్రె
రాసాడు
సంఖ్యల
కలుపుతూ
జనాభాను
శాతవాహన
కట్టడాలు
కరీబియన్
జాబితాను
దుర్విని
సంస్థాగత
టెర్మినల్
ముషార్రఫ్
అభిమన్యుడు
ప్రదేశాలకు
రిపబ్లికన్
విప్లవాత్మక
స్టార్బక్స్
##రకం
AM
##ందాం
##కోర్
##డాను
##మనగా
##రాకు
##రితం
##వేసే
##సూర్
సమే
##యన్ను
##వాసుల
Book
ఇన్వ
నరాల
పీచు
బాణీ
బొలీ
యాదృ
##గారికి
##చార్యు
##దృష్టి
బోధనా
రోగుల
వీలైన
అపురూప
ఇజ్రాయ
గెలాక్
ధైర్యం
మంత్రం
యథార్థ
విల్లి
##వాదాన్ని
పడగొట్ట
విద్యకు
ట్రాన్సి
దూరాన్ని
నామమాత్ర
మెక్మాన్
వ్యాయామం
సూచిస్తూ
కంచికచర్ల
ప్రిన్స్టన్
సమర్పించారు
పునర్వ్యవస్థ
గురుత్వాకర్షణ
పునర్నిర్మాణం
##46
##పధ
న్
##గమనం
##పుర్
##రాడో
##లోడ్
009
CPU
అజీ
నేష
రాత
వియ
##డర్లు
##రణాలు
pres
ఆకాం
గెల్
చూపే
జాగ్
డ్యు
నక్స
బురద
మిచి
హిరణ
##తక్కువ
##ప్రదేశ
ఆకాశం
చీలిక
జలాలు
నెలకు
వేంగి
వైశాఖ
సంకోచ
##శివరావు
అస్థిర
ఒకవైపు
జోయెల్
మిసిసి
వసతులు
సాహిబ్
స్ఫూర్
అక్షరాల
అధ్యాయం
అభ్యర్ధ
టిబెటన్
ప్రాచ్య
ఆర్టికల్
ఇవ్వాలని
కొల్లూరు
ఫేస్బుక్
బ్రహ్మాన
మంగళవారం
ఉండడానికి
ఛాంపియన్స్
డాక్యుమెంట్
పుట్టినరోజు
అనిపిస్తుంది
ప్రోత్సాహంతో
ప్రత్యేకపూజలు
##43
##తమ
##కంద
##మేధ
##చూపు
col
రేవ
##ప్సన్
##ల్సన్
అజర్
తేలు
ద్రు
బిపి
లిస్
సమేత
కోదండ
టెర్ర
ఆలస్యం
గడిపిన
టొరంటో
వాడిని
శిల్పి
సందేహం
సుల్తా
కారకాలు
నాటికలు
లినక్స్
ఇంటిపేరు
వివరించిన
ఆదేశించాడు
క్యాలెండర్
పిలువబడింది
లక్ష్మణరావు
విద్వాంసుడు
అంగీకరించింది
##ామం
##ోజీ
CS
MP
UC
జౌ
##rist
##చూరి
##భవనం
##స్వత
Har
ఋజు
కడి
తలం
బంజ
##విరమణ
డాగ్
నవీన
నిషా
పాపం
భగత్
లక్క
other
ఉపవాస
భక్తు
భట్టి
మతాలు
సేవలన
స్వరూ
ఆర్థర్
ఫెయిర్
ముఖ్యం
సంపదను
సీట్లు
అల్లుడు
కమిషనర్
గడిపారు
టర్కిష్
ట్రస్టు
నారదుడు
నేషన్స్
బ్రయంట్
విక్రమా
విక్రయి
సంక్రమణ
సమస్యగా
స్థలాలు
ఆయుధాలను
క్వీన్స్
పరమాణువు
బలహీనమైన
బహిష్కరణ
సభ్యులకు
ఆక్రమించి
ఖచ్చితమైన
చేయడాన్ని
ప్రకృతిలో
సముద్రతీర
విధానానికి
అభ్యసించాడు
రోడ్దురవాణా
గుర్తించబడిన
జిల్లాకేంద్రంగా
##RT
##hip
##యుత
##క్యో
##గలను
##నాలో
##ప్రి
102
హిత
##rough
##ద్వీప
Page
అంటి
కాపు
తాజ్
పాతి
మతాల
వ్రే
శతకం
సైంధ
##కుడికి
##పరిచిన
##బోర్డు
ఆజాద్
కవిగా
కోయంబ
పళ్ళు
మట్టం
##ication
గుప్తా
పట్టిన
లోపాలు
అమితాబ్
గౌతమాలా
పడ్డారు
పరీక్షి
వెళతాడు
శిల్పకళ
స్పియర్
ప్రమాణాల
సాక్ష్యం
దుగ్గిరాల
రాజకీయాలు
కేంద్రాల్లో
చేసుకుంటాడు
కొనసాగుతున్న
కార్యనిర్వాహక
##ED
##థం
##ade
##డగా
SS
##ives
##కుంఠ
##ఫెల్
##లిథి
Per
కరే
పతం
రగ్
లేవ
##మాసిక
0867
కొల్
గనుల
నికర
యోని
##ఎస్ఎస్
##శ్లేషణ
##స్కోప్
నవాబ్
మెప్ప
సీతను
ఆవరణలో
కులాలు
క్రిమి
చేయడమే
నిడివి
##ప్రదర్శన
దేశములో
ముట్టడి
రక్తంలో
ఉన్నతమైన
తెలుపుతూ
వ్రాసాడు
నిర్మాణము
ప్రకటించి
మ్యాగజైన్
సాధారణమైన
స్వేచ్ఛగా
##ించుకుంటాడు
జగ్గయ్యపేట
దర్శకునిగా
విద్యనభ్యస
స్వయంప్రతి
##పోయినప్పటికీ
ప్రయోగించిన
##Cl
##fl
॥
##డరు
##పిట
##శాస
##షణం
AA
##మన్న
##మారా
##రికీ
##స్సే
##ింక్
తండ
మిత
##ional
##ondon
##స్మిక
HTML
పరిమ
ముగ్
లేడీ
వేమన
శివర
సత్త
సాధు
స్వత
##ందువలన
##ాంశంలో
థెరపీ
Oxford
చెబుతూ
చేయలేక
దొంగిల
నెంబరు
పోరాడి
మాక్స్
మిలటరీ
మూడింట
రాసుకు
వాస్కో
ఆస్తులు
ఇస్తాయి
బెక్హాం
రూపాలలో
అందిస్తూ
ఫ్యామిలీ
విషయాలపై
చూపించారు
నిలబెట్టు
పట్టణాలలో
రెట్టింపు
పూర్తిస్థాయి
ప్రజాభిప్రాయ
సుప్రీంకోర్టు
##ck
##ve
##amm
##ick
##లోపే
##ల్సా
##సికా
##ెంస్
116
145
గూడ
ఘన్
రోమ
సిర
##చోట్ల
##భిమాన
##రాజుల
over
ఛాతీ
వాజ్
##క్ష్వా
##యంలోని
times
అగును
ఇన్ఫె
కోసమే
మదురై
శాంటా
సంధ్య
కొమ్ము
పడతాడు
పాలనను
బహుముఖ
మృత్యు
సిక్స్
ఆకస్మిక
ఉరుగ్వే
దెబ్బతీ
దేవతలకు
భద్రపరచ
మల్లాది
వైకింగ్
ఆంధ్రదేశ
ఉపకరణాలు
నృత్యాలు
వెళ్లాడు
గిరిజనులు
చెందుతాయి
దక్షిణాది
కనిపించాయి
జాగ్రత్తలు
ప్రణాళికలో
ఆకర్షణీయమైన
సంపాదించారు
అభిప్రాయాలను
తొలగించడానికి
##AN
##మేర
##సభా
##గాస్
##గింజ
##ట్టీ
##లాయి
450
ఆరే
కాడ
##బిడ్డ
కేర్
దినం
సాటి
##ధుల్లో
ఒట్టో
ఓవెన్
మెమరీ
సుల్త
డాన్స్
డిప్లొ
దృఢమైన
మరొకరు
వెతుకు
స్తంభం
##ాయ్లాండ్
అందరికి
మద్యపాన
మనిషికి
కందుకూరి
మద్దతుతో
పర్యావరణం
ప్రయాణంలో
ప్రయోగశాల
నడుస్తున్న
కంప్యూటింగ్
విద్వాంసులు
రాజమహేంద్రవరం
ప్రారంభమయ్యాయి
బస్సులుప్రైవేటు
##ats
##క్ట
Mo
##reen
##దినం
##నిమి
##ర్ణం
##వాక్
137
అతు
భోగ
##కాలజీ
##పట్టి
##వాడైన
##ాల్ఫ్
RFID
ప్రహ
##కముందు
##ట్రాల్
##నీషియా
##లకుండా
##ించుకొ
ఏమిటో
కన్నె
భూగోళ
లోబడి
##ఫికేషన్
కలెక్ట
క్విట్
జైలుకు
దంపతుల
దెబ్బత
నిర్వి
ఇక్ష్వా
గర్భాశయ
పతాకంపై
పరీక్షల
లెక్కలు
ఎరెక్టస్
క్రిస్టో
పరుగులను
బహుమతిని
ఖచ్చితంగా
చంపడానికి
వెస్ట్రన్
విశాలాంధ్ర
తల్లితండ్రులు
##aks
##జీల
రధ
##aper
##నెను
##ెట్ల
119
కణి
పిర
వని
##చుటకు
తుర్
దావా
##కాలంగా
##గురువు
##చేస్తూ
##డాక్స్
ఆర్సె
ఇట్టి
చొక్క
నేలపై
విడదీ
సురభి
స్థూప
##సముద్రం
ఆస్తుల
కొలువై
త్రికో
పక్షాన
ప్రస్త
history
అంగీకార
చిత్తడి
పొడవుగా
యుక్తవయ
శక్తిగా
సంతృప్త
సన్నిధి
సిమెంట్
##ాలనుకున్న
తాలూకాలు
నిర్లక్ష
ఫార్మాట్
సభ్యులతో
చికిత్సకు
మొదలుకొని
సంస్కృతుల
గవర్నమెంట్
పూజిస్తారు
బ్రిస్బేన్
మాంట్రియల్
సరిపోతుంది
చెయ్యటానికి
##జయ
##pur
##నెల
##పవన
##ఫోట
##రోగ
IM
##clud
##ency
##వాహన
##సైట్
Inc
కేల
శశి
సలహ
హఠా
##ించలే
కమల్
కర్ణ
కాంచ
గండి
టాంజ
థాయ్
నటనా
షియా
సూది
సేవి
హెవీ
##చితంగా
బెల్ల
మద్ది
కీర్తన
దళాలను
పంచదార
పొద్దు
బార్క్
స్టాటి
Society
ఆతిథ్యం
ఎంపికైన
గోధుమలు
పక్షంలో
పట్టణము
ప్రహ్లా
రాజశేఖర
సిరియస్
ఉపయోగంలో
యజమానులు
వృక్షాలు
వ్యవధిలో
గెలిచింది
తెలంగాణలో
యంత్రాంగం
శరీరంలోని
అల్పసంఖ్యా
క్షేత్రంలో
తిరస్కరించ
న్యూట్రాన్
ప్రతిపత్తి
చేర్చబడింది
క్షీణించింది
చిన్నతనంలోనే
##నౌ
##కామ
##ాకా
##ేరి
##ists
##మిడ్
##వేలి
బుడ
భవం
##కొట్ట
##బడును
##లలోకి
3000
ఆద్య
ఖండి
దశరథ
ధూళి
ప్యూ
సైజు
##పాత్రా
##మాటిక్
అనుభూ
కైవసం
గ్రాహ
చిదంబ
లోయలో
##ెన్సిస్
ఉన్నంత
కమీషన్
చల్లగా
ధ్యానం
మందిలో
లైన్స్
వాల్ట్
వినోదం
వేసారు
స్టోరీ
##ications
ఏవిధంగా
చేతులతో
దేవతలను
యునివర్
సత్యవతి
సిఫారసు
ఒకదానితో
కామిక్స్
బిరుదును
విమానయాన
అనారోగ్యం
ప్రచురింప
వాదించాడు
వాస్తుశిల్
అందిస్తోంది
దుర్యోధనుడు
దేవాలయానికి
ఇవ్వబడుతుంది
ప్రేక్షకులకు
భావించబడింది
##రహ
##వళ
##పంట
##ాంధ
fe
ర్
##శ్చి
All
అపహ
కవల
బరు
గంభీ
ధాతు
లెఫ్
వాపు
శరత్
సుమే
##నాల్డో
##బంధాలు
##సిద్ధి
టేలర్
పల్లవ
సీరియ
##చుకుంది
ఇత్తడి
ప్రజ్ఞ
సువర్ణ
అందించి
అడ్డంగా
ఇష్టమైన
ఉత్ప్రే
కాకపోతే
కార్బను
గురైంది
పరీవాహక
ప్రతాప్
రాజ్యము
లాంగ్వే
వర్క్స్
పుత్రుడు
ఫిలిప్పీ
భావోద్వే
సేంద్రీయ
ఇచ్చేవారు
ఒక్కోసారి
చెప్పబడిన
జీవితాంతం
త్రైమాసిక
పేర్కొంటూ
బ్రహ్మాండ
చేసినందుకు
నిజామాబాదు
ప్రాధాన్యం
వెనువెంటనే
ఉపయోగపడతాయి
ప్రయోజనాలను
ప్రయోగించారు
వర్ణించబడింది
##ంబి
##దిత
అద
గమ
##ప్పం
##ర్మి
తైల
ఫతే
భంగ
మకు
##వర్గం
1889
అంతు
అతిక
ఖండం
నటీన
లేదో
షాహ్
సరసు
హాఫ్
thumb
ఇథియో
ఇమేజ్
కాలిన
తణుకు
భీష్మ
##చుకోవడం
ఇంగ్లం
కాపాడే
గుత్తా
నిమగ్న
ఫోర్ట్
భర్తను
మైలవరం
రుజువు
ఆంధ్రుల
ఆభరణాలు
కోల్కతా
గుజరాతీ
ఫంక్షన్
వాడెదరు
వార్నర్
వెంట్రు
శీతాకాల
జన్మించి
ప్రాబల్య
ఒప్పందంలో
సైనికులను
పాకిస్తానీ
శాస్త్రాలు
ఆమోదించింది
ఏమైనప్పటికీ
ఆధిపత్యాన్ని
విడుదలయ్యాయి
ఆకర్షిస్తుంది
గ్రాడ్యుయేషన్
##af
##ris
##ube
##వాణ
##ోస్
ఠా
##త్తో
##సీస్
ఎగి
రిల
వండ
##icial
##ంతోనే
##కర్లు
##గుప్త
అడుగ
జారి
డ్రీ
తర్క
తార్
సిగర
##ibrary
##వారితో
ఎన్వి
తరబడి
నేచర్
పరమశి
##మీటర్లు
London
ఆడమ్స్
ఇటీవలే
క్షితి
తాజాగా
నిష్ణా
భోపాల్
ముట్టడ
సెక్స్
స్ట్రి
##్యులేషన్
ఎదురుచూ
కొరియన్
బలాన్ని
వోల్టేజ్
శిక్షణను
సౌకర్యము
ధర్మాన్ని
ప్రచురణలు
ప్రసారాలు
ముక్కలుగా
లేనప్పుడు
స్నేహితుల
పరికరాన్ని
వ్యవహారాలు
శంకుస్థాపన
పనిచేయడానికి
విమర్శించారు
##RD
##uss
##వకా
మమ
ష్
##ular
##టంగా
##నిజం
109
360
Mad
గీయ
1850
బౌల్
మడగా
మెరు
విలా
సుధా
హంగే
హాన్
ఇంతటి
ఎముకల
ఫిలాస
మౌఖిక
యమునా
రౌండు
విభజి
శారదా
సమయము
##బ్రాహ్మ
indiat
అనూహ్య
కిటికీ
తదనంతర
మార్టి
##నిర్మాణం
అకాడెమీ
తరుణంలో
ప్రాకృత
లోహాలను
వంటకాలు
శనగపాడు
అనుచరులు
వెనుజులా
ప్రమాదాలు
మున్సిపల్
రాజధానిని
వేయడానికి
పరిశోధకుడు
శతాబ్దాలలో
సంప్రదాయానికి
##eer
##థ్య
##షుల
##దంలో
ఒకట
కరె
##ట్టన్
##ెత్తు
అబ్ర
ఆంటి
ఆవేశ
జానీ
పొంగ
ఫ్రి
స్టు
హీట్
##పోర్టు
##మెయిల్
అధర్మ
గృహాల
తీరాన
పాదాల
కల్చర్
చెందని
తోడుగా
దక్కన్
పార్ట్
ముద్రి
ఆర్కెస్
మిలియను
తీర్మానం
బెల్జియం
##పరుస్తుంది
చిన్ననాటి
వెంకటగిరి
ప్రభావాలను
రెండింటినీ
ప్రసిద్ధమైన
చేసుకునేందుకు
##IS
##ets
##కొల
##గను
##గేయ
AS
CN
HD
Qu
##తంలో
##త్సం
##ామన్
CEO
పృథ
రోజ
అరవై
ఆవుల
కిడ్
మైక్
వరాహ
హెక్
##కొండలో
##నాథుడు
##భాగాలు
##ెక్కిన
ఆలయము
కాటన్
పన్నె
మీటరు
సేనలు
##భరితమైన
అసాధ్య
టోక్యో
చెందుతూ
దీపావళి
నాగపూర్
భక్తితో
రిపబ్లి
సారూప్య
ఆల్బర్ట్
ఆస్ట్రలో
కాడ్మియం
చేయాల్సి
తోడ్పాటు
నిమిషాలు
పరిశీలకు
వెలికితీ
ఇండస్ట్రి
ఉయ్యూరుతో
కారణంగానే
క్రిందికి
చికిత్సలో
వ్యాఖ్యలు
కంకిపాడుతో
కృష్ణారావు
మినహాయించి
అందిస్తున్న
ఎలక్ట్రికల్
ఎలెక్ట్రిక్
పరిజ్ఞానాన్ని
సరఫరాగ్రామంలో
##rab
##డనీ
##చేసు
##బ్రీ
##వేవ్
but
భట్
##కెళ్ళ
##గుండం
అఖండ
పాదర
లాంఛ
వంశప
##నేవారు
##వాయువు
నడుము
పక్షం
మెట్ట
మెట్ర
##ించలేని
నమ్మిన
నియమాల
పచ్చిక
పదహారు
మర్యాద
మొక్కు
లెనిన్
వేసాడు
శుభ్రం
##పూరితమైన
అమెజాన్
ఎపిసోడ్
చెట్లను
తాత్విక
ధనాన్ని
పట్టాను
పద్దెని
పరిధిని
పొందుతూ
సన్నిహి
ఆలోచనలను
రూపొందిన
శాసనసభలో
శ్రీకారం
సంస్థలతో
అమ్మాయిని
చల్లపల్లి
చికిత్సను
జరుపుతారు
రాక్షసుడు
సంస్థల్లో
పురస్కారాలను
సూచించబడింది
##CD
##వము
pg
డ్
పచ
##agar
##కేట్
##కోడ్
##లేటి
106
art
గోచ
ధన్
##ridge
##ార్జు
1200
అమలా
కూల్
గిరీ
పవన్
భంగం
##జాతులు
పాటలో
సంహిత
##నాయకుడు
క్షీణి
ఘాన్ని
చేరుకో
దేవుడి
నారింజ
విత్తన
##చేస్తారు
చూసింది
చెక్కిన
నెలల్లో
మారథాన్
రోజులకు
సైప్రస్
నిలువుగా
సుపరిచిత
అనకాపల్లి
కమర్షియల్
క్రమాన్ని
చనిపోయారు
నివేదికను
పుష్కలంగా
యానిమేషన్
లభించలేదు
వస్తుందని
ప్రొడక్షన్
భావించింది
యంత్రాన్ని
అభ్యసించారు
చెయ్యడానికి
ధృష్టద్యుమ్
ప్రచురించబడిన
ఠ
సన
##క్తా
##తులై
##ప్యా
##ఫుల్
##బీర్
##ిందట
ఆసి
గౌడ
##కృత్య
##రింపు
1887
ఇంజి
ఉబ్బ
ఘమైన
నీల్
బెలి
వెదు
##స్కాన్
##స్టుగా
##ాంశాలు
తృతీయ
నొక్క
యూదుల
రగ్బీ
ఆహారము
ప్లేస్
మెట్లు
వైల్డ్
స్పెక్
##జీవితంలో
ఆకాశంలో
చేయాలనే
తింటారు
దుస్తుల
పాఠశాలల
శక్తితో
అలహాబాదు
దేశభక్తి
##రించేందుకు
ఒప్పందాలు
ఓడిపోయారు
చాళుక్యుల
ఎదుర్కొన్న
కనిపించారు
ప్రవేశించే
ఆసక్తికరమైన
దేవాలయాన్ని
వ్యక్తిత్వం
హైడ్రాక్సైడ్
రేడియోధార్మిక
వార్షికోత్సవం
ప్రయత్నించింది
##పౌ
##der
##మంగ
##లనొ
##omen
##శుల్
159
mon
red
అగ్
ఒలి
లబ్
##ంపాడు
బంటు
భేదం
వ్యో
##ection
##లికాన్
##విన్స్
అమ్మే
గుమ్మ
జరగడం
సర్వా
##దర్శిని
కమాండ్
డిపాజి
భవనంలో
అనుభూతి
డబ్బును
నాటకరంగ
ప్రమేయం
బ్రతికి
రకానికి
రాజనీతి
విద్యలో
తీరానికి
నేతృత్వం
పతకాన్ని
మంగోలియా
మైదానాలు
వెంకటేష్
స్వయంచాల
అవార్డ్స్
ఒత్తిడిని
న్యాయమూర్
పట్టభద్రు
సాధించాయి
చదువుకున్న
నిర్లక్ష్యం
సాహిత్యానికి
చదువుకున్నాడు
##57
##గౌ
##మట
##app
##ణిమ
Ma
చవ
##డిచి
##తలకు
##పైన్
##ఫ్లో
Cal
కెర
రేక
##ప్రయా
ఓరియ
కీర్
కెర్
తలపై
దహనం
దాగి
నిల్
పెంట
పోగు
బీజా
యాగం
##స్సును
ఇన్సు
మానవా
##ప్రవేశం
అపూర్వ
కొనియా
పోయినా
లేకపోవ
శరీరము
##పురానికి
అణిచివే
ఉంటున్న
ఐశ్వర్య
చర్యలకు
డబ్బులు
డల్లాస్
బృహత్తర
భారతీయు
చెప్పాలి
ముందున్న
విశేషమైన
పరిగణలోకి
గ్రీన్హౌస్
ఇన్స్టిట్యూ
చేసుకోవాలని
##డౌ
##మ్న
##వంద
po
##ందుల
##ణిలో
##్వర్
596
off
ret
ఇచట
జడ్
##కర్తల
##భాగాన
##మేరకు
##రవయ్య
##సీమలో
ఎలుక
కనపడ
గౌరీ
దిక్
పగలు
మట్ట
రేస్
##ప్రజలు
గమనిక
చొప్ప
సైద్ధ
ఆర్ద్ర
ఇతడికి
క్యాంప
గాంధార
గుజ్జు
తెలివి
పిజ్జా
రేలంగి
సహస్రా
stories
అయ్యప్ప
గాయకులు
తెలివైన
న్యూటన్
పశువులు
స్వరాలు
కలిగినది
కోల్పోయి
నల్లగొండ
పర్యాటకం
శతాబ్దము
##ించినందుకు
ఎక్స్ప్లో
తీసుకురావ
నైట్రోజన్
సర్వీసులు
ఆరోగ్యానికి
విస్తరించారు
పెన్సిల్వేనియా
##ied
##iff
##ley
##చూప
##దేహ
ఖన
##పులో
##మంచి
##ళ్లే
##సినా
VII
హీన
##క్కర్
##ించవు
Cont
ఓట్ట
ఓరుగ
నాగి
రాణీ
వక్ష
వైరు
##సినారు
అంగార
కస్తూ
క్యార
##వరెడ్డి
అజర్బై
ఎకరాలు
ఏర్పాట
కల్పనా
గడియార
తరహాలో
నిజాము
ఫ్రాంఛ
బర్మన్
రాడిక్
వాదనలు
అధీనంలో
ఇబ్రహీం
జాతులకు
ప్రామాణ
సంబంధము
##ప్రభుత్వం
ఆనవాయితీ
ఏంజిల్స్
చేబ్రోలు
తాగునీటి
ద్రోణుని
నిష్క్రమ
స్కాటిష్
##సరిహద్దులో
Institute
తరలించారు
నిబంధనలను
రాష్ట్రీయ
సాగించారు
జీవశాస్త్ర
గుర్తింపుగా
మార్చడానికి
సరిహద్దులను
ఉపయోగిస్తున్న
ప్రోగ్రామింగ్
రూపొందించడానికి
##వీర
AN
##ious
##wood
##కాస్
##జిని
##టాక్
##ఫాల్
##ేవని
Off
Pre
Sri
Sur
అట్
అబి
యిత
##ందురు
##దేశాల
ఎదుట
ఐఐటీ
కక్ష
గద్య
మహిమ
రాడ్
సూఫీ
హెరి
##క్షేపం
##రుగుడు
నికరా
వేశ్య
##జెనెగర్
కొట్టే
గుణాలు
యాసిడ్
హాస్యం
హెలికా
కళ్యాణ్
కోపెన్హ
వెళ్ళడం
స్వరూపం
పెళ్ళికి
లారెన్స్
స్టాన్లీ
ఏర్పడినది
ధ్వజస్తంభ
ప్రవృత్తి
ఫలితాన్ని
అంగీకరించి
చేస్తుందని
విమానాశ్రయ
కనిపిస్తాడు
కలిగిస్తాయి
కుమారస్వామి
మహావిష్ణువు
స్థిరపడింది
సిద్ధాంతాలను
స్క్వార్జెనెగర్
##మొక
##రకూ
##సఫ్
##బడటం
##హ్రా
750
ICC
Int
జాత
తనే
బలగ
విహ
##ident
##uring
##న్నతి
##ములపై
కుదర
తరాల
నారా
బతుక
మండు
##ప్తిని
##ల్లులు
గొడ్డ
బ్యాల
బాలుడు
వానికి
అశోకుడు
కమాండర్
గర్భవతి
చేయబడ్డ
పంపింది
పొడవాటి
రెక్కలు
కార్డులు
గెలాక్సీ
డిక్షనరీ
డిస్ప్లే
నివాసాలు
వారిరువు
సహజసిద్ధ
సాయిబాబా
కన్యాశుల్
నివేదికలో
రాష్ట్రము
విశాఖపట్ట
పేరుపొందిన
పొందటానికి
రూపొందించి
వారసత్వంగా
అంగీకరించిన
ఉష్ణోగ్రతను
కాంప్లెక్స్
గెలుపొందారు
ప్రతాపరుద్ర
ప్రతిపాదనను
వీరుళ్లపాడు
అంగీకరించలేదు
మంత్రివర్గంలో
##ule
##ఇన్
##రావ
##రాశ
Se
ఉమ
##ough
##పేట్
##మంగా
##వ్యవ
edu
కౌం
తేడ
పవన
లైన
హంత
##జీవనం
##దులకు
high
అంబా
గోడల
తారీ
పళ్ళ
వదిల
వెదజ
సిటి
సౌలభ
చైత్ర
జింకు
నకిలీ
పాటకు
బిషప్
రాకపో
##స్తుందో
ఆరుద్ర
కాపీలు
గిరాకీ
పండితు
మిగులు
రమ్మని
వీక్షణ
సుందర్
##డంతోపాటు
ఈవిధంగా
పెనాంగ్
పోతున్న
ముంబైలో
సామెతను
##ీకరించారు
అధిపతిగా
చంద్రుని
చిరునామా
చూస్తారు
నెలకొన్న
పుస్తకము
రంగంలోకి
రాత్రికి
స్టెయిన్
##స్వామివారి
ఉంచడానికి
పరోక్షంగా
చేయబడ్డాడు
న్యుమోనియా
వివాహానికి
స్ఫూర్తిని
ప్రతిపాదనలు
కనుగొనబడ్డాయి
##దకు
##ాము
ఉష
##డెస్
##బాలు
##హారీ
##ాయుత
523
కొమ
టచ్
సియ
సూర
##పాలిత
##ారిక్
1891
అతీత
ఉండక
క్లె
దాటు
సాగర
##క్వెన్
##వాడిని
కాంగో
నంబరు
బుకాన
ముళ్ళ
సైమన్
గ్వాలి
పతకాలు
యజమాను
రూపాయి
##పించింది
పోలీసుల
రేసింగ్
వేధింపు
సల్ఫైడ్
ఓక్లహోమా
మోతాదులో
స్తంభాలు
ప్రాణాలను
ముగింపులో
రక్తాన్ని
విశ్వనాథ్
హనుమంతుని
హార్డ్వేర్
ప్రధానపాత్ర
చేసినప్పటికీ
పిలవబడుతుంది
##ier
El
af
##డయిన
##నాధ్
##పీఠం
##ఫెర్
##మోవ్
##య్యం
ఔట్
జవహ
##కమ్యూ
##రియర్
##ాగ్రా
కొమర
తొంద
పరుగ
వేడె
##దానిని
##మిల్లి
##మ్యాన్
there
కల్లా
కుర్చ
ఘటనలో
నింపు
సిక్క
##ernment
కణాలను
కొలతలు
చిట్టి
చెయ్యి
జిన్నా
జిమ్నా
ఝాన్సీ
డేవిస్
పన్నుల
ప్లాటి
బురుజు
రామన్న
శక్తుల
స్టేడి
స్వామీ
హత్యలు
##రంగేట్రం
ఆతరువాత
దశాబ్దం
ప్రకటనల
యువకుడు
ఆల్కహాల్
గెలిచారు
చెపుతారు
తొమ్మిదవ
##స్థానాన్ని
కర్మాగారం
ప్రదక్షిణ
స్పాన్సర్
##రిస్తుంటారు
ప్రాచీనమైన
మారిపోయింది
వాణిజ్యపరంగా
వెలువరించారు
సందర్శించారు
వహిస్తున్నాయి
##IO
Fl
ఘి
##క్కర
##గ్యూ
##డౌన్
##పాలీ
##రీఫ్
See
అగా
చలం
యధా
##నిర్ణ
##ారన్న
కుబే
డియా
నకలు
##ప్రయోగ
##బెర్ట్
ఆటోమొ
ఇళ్ళు
ఊరగాయ
ఎగిరి
మాంసా
రాబడి
రేడియ
సింహం
కిషోర్
గుడిలో
గ్రెనే
చిత్రణ
నైరుతీ
మహాకవి
రక్తనా
వాటాను
సుబ్రమ
చిన్నది
జరగలేదు
ద్రావణం
ద్వంద్వ
ఫ్రాంకో
##వేయడానికి
చైనీయులు
పద్మావతి
లక్ష్మణ్
సుబ్బయ్య
ప్రస్థానం
బాయిలరులో
శత్రువులు
సంపాదకులు
సూత్రాలను
నిర్మితమైన
పద్ధతుల్లో
వచ్చినపుడు
పురస్కరించు
వ్రాయబడింది
సంస్థానాధీశ
##io
##uld
PS
ఒల
##ctor
##డ్రి
##దీప్
##నామం
##బాహు
ఛంద
ఛాం
మహో
##udies
##ింపాం
1885
blog
into
more
అధిప
##మీడియా
##రిల్లా
అస్తి
ఎక్సు
క్రమే
బజార్
యువతి
సంభాష
సాధనం
Americ
ఇస్లామ
కౌబాయ్
క్రికె
డేటాబే
నమోదైన
ముఖ్యా
వారాలు
సున్నా
హోమియో
ఆహ్వానం
తెరిచిన
నిల్వలు
నివాసము
మార్చిన
యువరాణి
సొంతంగా
తెలియజేయ
పిలుపుని
ప్రొద్దు
భావాన్ని
ఇరువైపులా
దర్యాప్తు
భూభాగాలను
అధ్యక్షులు
వైశాల్యంలో
అప్పుడప్పుడూ
ఆవిష్కరించారు
స్ప్రింగ్స్టీన్
స్వయంప్రతిపత్తి
##44
q
##led
##స్న
EC
TB
##గంజ్
##జెట్
##మ్ను
##ళ్ళై
##సిరి
Age
గండ
బాప
మీర
##iness
##దుర్గ
##నర్స్
##ప్పన్
##ారిగా
కంపో
కదిల
కలరా
కలలో
కళను
కెమి
తోటల
పంపే
బీర్
##కుర్తి
##ేపల్లి
##ేషియన్
నడిపి
మనీలా
మహాను
మొగల్
శకుంత
##వుతున్న
కల్నల్
చార్జ్
పోటీని
మానవతా
రాసారు
శివరామ
సంయోగం
సర్రియ
సునీల్
హత్యకు
కామర్స్
ప్రభావి
మాంద్యం
వేలమంది
వైఫల్యం
##ించుకుంటూ
అమర్చబడి
అవుతున్న
ఆలయంలోని
చట్టాలను
సుందరమైన
సెర్బియా
ఇంపీరియల్
కాంగ్రేసు
గవర్నరుగా
పదవీవిరమణ
చాళుక్యులు
చేసేటప్పుడు
చెప్పవచ్చును
పునరుద్ధరించ
ఏర్పరుస్తుంది
కలిగివుంటుంది
లభిస్తున్నాయి
##FC
##udy
##గాం
##సంచ
mm
##జియో
##పొటే
##యాకు
##వర్థ
##ిందే
210
522
jpg
అసూ
గోర
దత్
పుల
పొద
మెథ
యాస
##umber
##చనాలు
##డుగుల
##డులను
##మయంలో
##యులైన
##వేశ్వ
కల్వ
కృతి
జియా
తగిల
నవ్వ
నిక్
పిండ
మెసొ
లోటు
విభూ
##కెల్లా
##బడతారు
##స్తారో
కాథలి
నాయక్
బృహత్
భయంతో
మహాత్
వికలా
స్టడీ
telugu
కార్న్
చిల్లర
నీళ్లు
భూస్వా
లాగానే
లాభదాయ
లింకన్
శివాలయ
సాసేజ్
సీతారా
##ీకరించిన
##ుత్పత్తి
కప్పబడి
క్షితిజ
ఖండాంతర
జపాన్లో
జిందాల్
పడ్డాయి
భారత్లో
రాంబాబు
వాస్తవం
సాధనాలు
కనిపించి
క్లాసిక్
డిపార్టు
తెచ్చారు
ప్రార్థనా
బిల్డింగ్
మొదలైనవారు
విచ్ఛిన్నం
వీరేశలింగం
సైద్ధాంతిక
స్థానాల్లో
అధికసంఖ్యలో
చారిత్రకంగా
ప్రదర్శించి
Encyclopedia
తమిళనాడులోని
విక్రమాదిత్య
శాస్త్రజ్ఞుడు
సామర్ధ్యాన్ని
##EA
##gan
##బుల
##మయి
ఘం
##ంచడం
##గోళం
##చింత
##తును
##ర్భు
##ానము
ఐదో
కోత
ఘము
డెం
వల్
##యోగ్య
జాకీ
తిలక
దార్
పొది
ప్లూ
ఫ్లె
మీది
యర్ర
సభలు
కుట్ట
కైలాస
గడువు
సంజ్ఞ
సమరయో
##కొంటారు
##రియన్లు
##ించదగిన
ఉపశమనం
తిప్పు
తిరువన
ప్రబోధ
మెట్టు
English
ఉండగానే
జీవులను
పరికల్ప
పరీక్షా
బహిర్గత
లాభాలను
వేదాంతం
శివరావు
అన్నదానం
గెలిచాడు
మార్పును
అదేసమయంలో
తీసుకెళ్ల
థాయ్లాండ్
రిజిస్టర్
విఫలమైంది
విభాగాలను
విమానాన్ని
సంస్కృతులు
సృష్టికర్త
నిర్వహిస్తూ
ప్రమాదాన్ని
సన్నివేశాలు
స్వభావాన్ని
##ించుకునేందుకు
ప్రదర్శించింది
##ka
##nd
−
##లగూ
##వయం
Gl
La
జర
##టాను
##తాము
##త్రే
##నారు
##స్తం
LTT
ఉంగ
బీద
మలు
షెం
సమత
హృద
##కాంగ్
##నుంది
##ప్పర్
##ఫికల్
##ాయిగా
##ారాజు
1892
5000
This
అణ్వ
తలను
పుంగ
బూర్
మానస
ఉద్రి
తెరచి
మధ్యమ
మాటను
సమ్మత
సెంటి
##స్తులకు
క్రీడల
గంగమ్మ
గుడ్లు
చక్రాల
చింపాం
చూడుము
పతంజలి
బాప్టి
భూమధ్య
వార్తల
విజృంభ
వేస్తూ
సిగ్గు
##ధికారిగా
##ాలతోపాటు
ఆస్ట్రో
నంద్యాల
ప్రజలతో
యాదృచ్ఛ
యున్నది
వాట్సన్
వారణాసి
స్థిరపడ
అంటార్కి
ఆప్టికల్
ఉండొచ్చు
జార్ఖండ్
పుట్టుకొ
పెంచింది
రిజర్వాయ
విద్యాలయం
శతాబ్దిలో
సమాజంలోని
అనుసరిస్తూ
ఓడిపోయింది
కథానాయకుడు
ప్రదేశాలను
శ్రీరాముడు
ఆంధ్రపత్రిక
ఆగ్నేయాసియా
ఆవిర్భవించింది
##41
##ారె
##కోటి
##గుండ
##బెక్
##సంగా
##సుగా
MTV
ఎథీ
కౌశ
ఘనీ
జాడ
పెర
##టీరియ
##తాడని
##దులతో
##ానగర్
##ాయువు
ఇలియ
నత్ర
ప్లై
మన్మ
మలిన
మోహన
యూత్
సాదా
సేఫ్
##రాబాద్
##లిస్ట్
story
ఆలివ్
గాయాల
నిశ్శ
బలవంత
మారడం
వితరణ
శతకము
includ
ఇంటెలి
న్యూకా
పారితో
మనుమడు
యోధులు
వీధిలో
సున్నీ
అమ్ముడు
అహమ్మద్
క్రిస్ట
తీసుకువ
నిర్వచి
యంత్రాల
వృద్ధాప
సల్ఫ్యూ
అమర్చారు
క్రోమోజో
డిఫెన్స్
ఢిల్లీకి
దర్శించి
##evelopment
పనిముట్లు
విద్యార్ధ
స్థానాలను
యాత్రికులు
సముద్రతీరం
ఒప్పందానికి
తయారీదారులు
నెలకొల్పారు
భావించేవారు
మున్సిపాలిటీ
అనుసంధానించబడి
పిలుస్తున్నారు
##ink
##డగు
##ృతం
##లిప్
Mal
ఖాత
నెవ
పదా
రఘు
##ంటెనె
##దిశలో
##పురము
##షర్స్
##ాయంగా
##ారిన్
Geor
list
ఎండు
కారా
కొడవ
చలనం
తామే
పైనే
మోడె
వైకల
##జిత్తు
##లావస్థ
##ష్టవశా
Singh
ఏమంటే
కొలది
నమ్మి
భవనాల
యువజన
రీజన్
ఆవర్తన
చేయబడు
డార్జి
ప్రైజ్
వారాంత
వ్యాలీ
శ్రీలం
సెటిల్
##నున్నారు
అంకితమి
జ్ఞానము
నిరాకరణ
నిర్మల్
ఫోటోగ్ర
సత్యభామ
ఇండస్ట్ర
దేవాలయము
నిస్సాన్
పాత్రలకు
ప్రాసెస్
అనుసరించే
అబ్దుల్లా
కలకత్తాలో
డొమినికన్
దశాబ్దంలో
నిరంతరంగా
పురాణాలలో
వెన్నెముక
ఉద్భవించిన
చిన్నపిల్ల
పరశురాముడు
శతాబ్దములో
సౌకర్యాలను
ఇంటర్వ్యూలో
ఆస్ట్రలోపిథె
పరిపాలించారు
తీసుకువచ్చారు
విశ్వామిత్రుడు
##sa
##ants
##తిక్
Isl
##right
##ప్పుడ
time
ఓడలు
తాబే
తారక
దృగ్
ద్వై
పైపు
విష్
సాత్
సామం
స్కీ
##జాన్ని
##దార్లు
##ముఖంగా
##యులుగా
##వాటిలో
Chand
అవరోధ
ఇచ్చు
ఒరియా
తర్జు
నదిపై
పేర్ల
ఫీచర్
మిల్ల
శ్రేయ
##ిస్తాడు
అతిశయో
కిర్గి
కేరళలో
చేయబడే
జీశాట్
రూపంగా
సరళమైన
సాఫ్టు
ఆలోచనను
కర్ణుని
కింగ్స్
క్రమేణా
ఘర్షణలు
జాతులలో
మందులను
విఫలమైన
విషయంపై
సహాయంగా
సౌలభ్యం
అంగీకారం
ఏర్పాటైన
చెల్సియా
సామ్యవాద
అధికారంలో
ఎన్విరాన్
బాక్సింగ్
బానిసత్వం
విధించింది
జరిగినప్పుడు
విస్తరించాయి
ఎప్పటికప్పుడు
కార్యకలాపాలకు
తూర్పుగోదావరి
##EFA
##త్క
##మాచ
##ాఖా
థా
##కర్ష
##కెల్
##కోలు
##ద్ధం
##నాయి
##పాకు
##మేమి
##మోన్
##లోచన
##ించ్
##ెక్క
112
కలహ
జయం
బిక
యాప
##గట్టు
1881
used
దేశ్
పూడ్
మిరి
రాన్
విధే
సాలి
##తోందని
##నుడిని
అపోలో
ఆయనతో
ఎరువు
జంధ్య
సహకరి
##బద్ధమైన
##బోతున్న
ఒకరిగా
కొలెస్
క్లిని
త్రివే
త్వరలో
సెవెన్
##దేవరాయలు
##ాల్సిందే
అగ్రహార
అశ్వమేధ
ఆదేశాలు
జరిమానా
నిబంధనల
మహమ్మదు
మూలకాలు
విజేతగా
బహుమతిగా
స్కూల్స్
అర్జునిని
పర్యాటకుల
ఉన్నట్లుగా
ట్యునీషియా
మెరుగుపర్చ
నిర్మాణాలను
న్యూక్లియర్
నిర్దిష్టమైన
వ్యతిరేకించారు
##జొ
##ene
##వది
##ేర్
హం
##దరన్
##సూచి
sur
తరత
యని
షిం
##సికల్
ఎమర్
కర్బ
గరుడ
టుడే
టోపీ
పులక
ఫ్లై
రేడి
వాలె
సమ్మ
##జేశాడు
అగ్రహ
ఆర్క్
కనబరి
జంటగా
బాబర్
మిట్ట
వలసిన
##వచ్చారు
అల్లరి
ఆధారాల
ఈవెంట్
కథల్లో
కాలాను
చట్టాల
చోప్రా
నమూనాల
బోల్ట్
భాగంతో
మండలము
మోక్షం
సుభాష్
సూపర్మ
##ological
##కమ్యూనిక
అపారమైన
ఖనిజాలు
గ్రాంటు
జాతులను
తొందరగా
దాల్చిన
దీనివలన
బానిసలు
విధులను
వివరణలు
స్రవంతి
పరిపాలకు
రిలయన్స్
శిలాశాసన
స్కూల్లో
ఇజ్రాయిల్
ఉత్తీర్ణు
వ్రాయబడిన
అహ్మదాబాద్
కొలుస్తారు
కమ్యూనికేషన్స్
##DS
##తః
●
##కోన
##లోహ
##ేజ్
Mr
తహ
##ంపైన
##తెను
##వర్ష
##వేతర
##ాంట్
Rao
pol
అసు
ఇంద
ధరల
రమా
##apter
##పరిచి
##పర్రు
##మొక్క
##హైడ్ర
1886
LTTE
Stat
than
ఐఆర్
చట్ర
చేయక
తనలో
నాస్
భగవా
మీరా
శిఖర
##లాపూర్
Relig
ఋతువు
కాలేయ
గంధర్
దుర్భ
ప్రమో
మచ్చు
వత్తి
##ారంగంలో
అడుగున
పెరుమా
ప్రాబల
ప్రియు
మార్లు
మాలిక్
వానిని
శిఖండి
ఎరువులు
గ్యాలరీ
చక్రాలు
తీసుకొన
దాడులకు
ప్రారంబ
యుండును
రోలింగ్
సర్వస్వ
హార్బర్
ఉద్రిక్త
కాలంలోని
బార్సిలో
వస్తోంది
విభేదాలు
శ్రీనివా
స్థాపనకు
కనిపించడం
ప్రస్తారణ
వేణుగోపాల
స్త్రీలను
indiatimes
ఒక్కసారిగా
ఫిలిప్పైన్
అందుకుంటున్న
ఇన్నింగ్స్లో
చెబుతున్నారు
నిర్మాణాత్మక
సంస్కృతాంధ్ర
నిర్వహించబడింది
##PS
##షె
##200
##arg
##చుట
##ఫలం
##రాస
ఈయ
##ivil
##ప్టో
##యిక్
##రోజ్
hyd
కనె
సీక
##టులను
##నాథన్
##ాలియా
##ీకరణం
UEFA
గణేశ
జెనె
నోట్
ఫాక్
##ంగ్రామ
##ఫ్రెడ్
##యోగ్రా
##లోకంలో
అవగాహ
ఆక్వే
ఖలీఫా
నేలలు
భావిం
##మ్మడిగా
United
అమ్మకం
నిక్షే
ప్లేట్
##స్తోందని
అంతరాయం
అనేకమైన
అవక్షేప
కోరికలు
శ్రీధర్
శ్రీపాద
సమాధులు
అలహాబాద్
గ్రీకులు
మంత్రులు
మెట్రిక్
జవహర్లాల్
పెడుతుంది
ప్రావీణ్యం
ప్రవేశానికి
ఎంచుకున్నారు
గుర్తించేందుకు
€
##ంగల
##షియ
MR
Pa
we
##గీలు
##పాస్
##మాల్
##లినా
##సెను
129
747
Car
two
దాత
లిట
##చువల్
##ద్రేక
##నొకరు
##న్నిక
అకస్
అజ్న
జపనీ
లెవీ
విజే
సీన్
##గ్మాన్
langu
అద్దం
అమృత్
కాండం
కోటకు
తిరువ
నరేష్
పడుతూ
మధుసూ
ఎర్రని
గాలులు
చార్లీ
చెందడం
డైరెక్
ధాన్యం
నిపుణు
నేటికి
పక్కకు
పాఠాలు
పురోహి
బ్యాట్
మార్పి
సమ్మర్
నాగరాజు
ప్రధానం
విలియమ్
షెంగెన్
##ంటున్నాయి
చేసుకొనే
తిరువనంత
దండెత్తి
దృష్టితో
పర్వతారో
ప్రకటనలో
లక్షలాది
లాట్వియా
శిలీంధ్ర
కల్పించడం
చేయించారు
పొందినాడు
వ్యాధులకు
స్టూడెంట్
అధికారులకు
అసాధారణమైన
క్రొయేషియా
దోహదపడింది
పర్యవేక్షి
మైక్రోవేవ్
సందర్శకులు
విష్ణుమూర్తి
ఏర్పాటుచేశారు
విశ్వవిద్యాలయము
##గాయ
##లిత
భజ
##్
##ి
##ా
##ర
##ు
##న
##ం
##ల
##క
##త
##వ
##ప
##స
##మ
##ద
##య
##ో
##గ
##డ
##ట
##చ
##ే
##.
##ీ
##ె
##,
##అ
##బ
##జ
##ూ
##శ
##ధ
##ై
##ష
##ొ
##హ
##ఉ
##భ
##ఆ
##ణ
##1
##0
##ఇ
##థ
##"
##e
##2
##a
##ళ
##ఫ
##ఎ
##ఈ
##9
##i
##t
##)
##n
##(
##ఒ
##o
##r
##ృ
##s
##-
##ఖ
##5
##8
##3
##4
##l
##7
##6
##h
##ౌ
##ఏ
##d
##c
##u
##m
##/
##p
##:
##g
##ఘ
##ఠ
##A
##S
##f
##y
##w
##C
##b
##I
##'
##ఐ
##v
##M
##P
##T
##ఓ
##D
##B
##;
##R
##k
##N
##]
##%
##[
##ఛ
##E
##ఞ
##H
##F
##U
##G
##L
##O
##ఊ
##V
##W
##!
##=
##–
##K
##ఢ
##_
##x
##?
##J
##’
##ఔ
##ః
##‘
##&
##|
##j
##z
##ఋ
##”
##“
##°
##$
##X
##+
##Y
##ఱ
##q
##ఁ
##ఝ
##Q
##Z
##—
###
##*
##>
##ఙ
##ā
##ा
##}
##౦
##é
##र
##£
##ا
##्
##`
##<
##−
##ि
##^
##ل
##α
##{
##•
##ल
##ر
##न
##म
##॥
##क
##م
##ن
##त
##и
##ज
##€
##●
##ी
##а
##स
##о
##е
##و
##்
##द
##प
##×
##व
##ु
##ü
##ī
##ي
##ο
##→
##@
##া
##н
##á
##σ
##í
##μ
##ب
##~
##π
##े
##ς
##د
##р
##य
##ö
##।
##್
##ی
##ρ
##ó
##ह
##ं
##\
##β
##′
##æ
##с
##ग
##़
##ä
##⁄
##λ
##ع
##س
##ౄ
##т
##ł
##ι
##ν
##ி
##»
##к
##্
##ो
##ರ
##₹
##౧
##ḍ
##γ
##ब
##ε
##श
##в
##്
##è
##ౠ
##ă
##ಾ
##ர
##ę
##ج
##τ
##ة
##·
##ū
##θ
##ա
##ಿ
##ت
##ம
##౩
##ṇ
##κ
##ō
##౯
##ನ
##л
##ه
##ি
##ா
##à
##ē
##র
##க
##ṭ
##ਾ
##ল
##ú
##ί
##ح
##भ
##ழ
##η
##च
