[PAD]
[unused0]
[unused1]
[unused2]
[unused3]
[unused4]
[unused5]
[unused6]
[unused7]
[unused8]
[unused9]
[unused10]
[unused11]
[unused12]
[unused13]
[unused14]
[unused15]
[unused16]
[unused17]
[unused18]
[unused19]
[unused20]
[unused21]
[unused22]
[unused23]
[unused24]
[unused25]
[unused26]
[unused27]
[unused28]
[unused29]
[unused30]
[unused31]
[unused32]
[unused33]
[unused34]
[unused35]
[unused36]
[unused37]
[unused38]
[unused39]
[unused40]
[unused41]
[unused42]
[unused43]
[unused44]
[unused45]
[unused46]
[unused47]
[unused48]
[unused49]
[unused50]
[unused51]
[unused52]
[unused53]
[unused54]
[unused55]
[unused56]
[unused57]
[unused58]
[unused59]
[unused60]
[unused61]
[unused62]
[unused63]
[unused64]
[unused65]
[unused66]
[unused67]
[unused68]
[unused69]
[unused70]
[unused71]
[unused72]
[unused73]
[unused74]
[unused75]
[unused76]
[unused77]
[unused78]
[unused79]
[unused80]
[unused81]
[unused82]
[unused83]
[unused84]
[unused85]
[unused86]
[unused87]
[unused88]
[unused89]
[unused90]
[unused91]
[unused92]
[unused93]
[unused94]
[unused95]
[unused96]
[unused97]
[unused98]
[unused99]
[UNK]
[CLS]
[SEP]
[MASK]
a
##ch
##ai
##ea
an
##dh
##ha
##na
.
##ir
s
t
,
b
-
##in
ann
'
##an
na
e
##gu
d
##is
S
##il
c
##ar
##ean
C
f
m
##th
##le
A
"
##gus
air
T
##ig
##ach
##each
agus
B
##on
ch
r
1
bh
##adh
##air
##bh
##inn
##aidh
##mh
##idh
M
##la
G
##ain
##te
dh
##gh
tha
Tha
D
##aich
##ia
L
(
)
##or
##ail
##al
th
l
##ear
à
R
’
##as
gu
##id
P
n
##ur
##io
##ich
2
am
p
aig
le
I
Ch
##er
##ais
##tha
o
##en
##òr
##ìo
:
##aile
g
E
F
##ta
##eachd
##ao
19
##eo
fh
##re
N
anns
bha
sg
h
##ith
##eadh
##eas
##it
##ainn
##eann
##àr
de
##ol
##ro
i
##igh
##achd
##eal
An
cu
mar
##ra
##eil
##ad
##ine
##nach
20
##rìo
##ic
eil
##im
##ill
is
##aid
##un
O
ro
##bha
H
##och
Al
##aigh
##ath
bho
##ead
##uir
st
ain
##om
##eag
##ru
sin
##iad
ri
##es
##ba
##el
##son
ainm
##uair
mh
18
##ùth
seo
##uidh
##ann
Bh
##ac
##og
do
##um
##ion
nan
##us
baile
bhaile
airson
##nan
as
Th
##ug
##am
##oil
dùth
Gh
san
##ul
Bha
##st
Alba
##èidh
##eadar
##achadh
##li
co
suidh
eadar
##àidh
##chd
àir
ach
iad
##eachadh
##ichte
mu
Chaidh
Be
W
St
##km
##os
Dh
##ge
##las
3
##oir
U
u
du
cuid
##gha
tr
##lan
##ailt
##de
##ìre
##ite
Cha
J
dhe
##lu
##aig
##ist
##lig
##aichean
##lach
##isean
201
sa
##ios
##rr
##liadh
##uath
##eat
##urla
ph
io
##ed
sh
mòr
suidhichte
Loch
dùthch
##ns
##ll
200
##ile
##ana
##ag
##iù
##inne
chaidh
##ing
##ud
Ph
K
Ro
##aoine
robh
##imh
aige
##ìr
fha
##aichte
##ibh
##ot
5
Beurla
##liadhna
##uireach
##àidhlig
Mh
leis
fuireach
##lt
V
no
Mar
##rìomh
eile
##at
neo
4
##às
##rd
In
##ne
la
##ionn
daoine
of
##ran
cho
##ùn
0
dùthcha
##otha
iom
##aobh
gun
duine
far
iar
gh
##òmh
##èin
ob
Sp
##sa
chu
##airt
##all
##eò
##àir
cuideachd
bheil
Co
Sg
8
dà
às
##aidhean
##ilth
9
àirde
‘
##iu
sgrìo
##land
nuair
aon
##ilthigh
##ie
/
##aisg
##mhair
ris
rè
##ob
17
##aing
là
6
##eam
Mac
fo
taobh
àite
Eil
Gàidhlig
fhèin
##san
7
bhith
roinn
##ib
cl
ga
ù
Br
chuid
prìomh
##ior
motha
bu
Ann
sgìre
##àin
##innt
dèidh
nam
##arr
##eir
##iseanta
stèidh
ag
È
os
dhan
##rom
##ce
##anach
##ca
##ter
Spà
##raidh
##ois
##uchd
##ris
##pa
ru
##ona
##eamh
##if
faisg
ear
chiad
##àth
ceann
fad
be
##earm
Oilthigh
beag
ce
bhon
##tan
199
lea
À
cionn
chl
##od
Sc
##itean
and
##atha
Aon
deas
Fh
##lam
mhòr
##bhar
##oc
##aiche
sgoil
##lais
##àiseanta
Le
16
Ar
den
mara
##da
##dair
Col
fear
àm
##òis
fal
tro
##han
Is
##tas
còmh
##eall
##ugadh
##ri
falbh
ìre
;
eilean
##earmailt
Scot
15
##ogadh
Du
##ord
##ga
bliadhna
##bhail
##ort
##aibh
##unn
ria
Air
##eath
the
##tach
gur
##ireadh
math
The
se
nach
obair
##rach
##ish
dùthaich
rinn
##ige
##ber
197
##ice
##oirt
cum
10
chuir
##qu
##lachd
##bhadh
stèidheachadh
##et
##gail
##chan
Sh
##àrt
in
##ers
##aist
loch
##èana
gach
neach
bhliadhna
##chadh
##lann
tuath
##ip
gus
##àirt
##ills
nas
##org
La
##rachd
##bia
ion
uair
##thar
chur
cr
##eac
ainmeil
##eadhan
##iv
##ent
Aonaichte
Stà
bhu
##ille
##nas
linn
poil
##eum
Fr
mì
##àidheal
##ton
taigh
Dùn
cà
ath
Rugadh
##chu
latha
##ap
##aic
##ian
dìr
##ghaidh
rèir
San
luchd
Eilean
##iorrachd
12
##isge
chru
mach
chan
##iche
##PA
14
Iar
Am
##òn
##ìgh
Sa
##òs
Cu
Chan
bith
##lo
cha
cru
##idir
##iugh
tur
##ghail
##uch
##àinig
##annaich
–
##luaigh
##ard
##sach
##obh
diugh
##èanamh
##aim
##omha
##mhairle
tu
##bur
##lat
dhen
Re
adh
ur
##isim
##ay
dha
′
##eanan
##ut
198
##ram
##àrna
stà
##ise
##em
##aire
##ogail
11
##eanach
##laschu
##earan
13
##eagh
còmhla
Tuath
##ailtean
feadh
##ochd
fhuair
##ghalt
mha
##bar
Nàiseanta
##ell
uile
gn
Cal
##nal
##lamaid
col
eisim
mòran
##leir
%
##àrlamaid
dò
eò
##rà
##ait
##bhir
Su
##aill
Anns
ar
Con
Stàitean
##rainn
##aidean
dìreach
IS
Ru
##ium
aghaidh
dheas
meas
##eachdadh
##ct
Ga
##iall
crìo
##BN
##se
##iodh
sgrìobh
Siorrachd
ISBN
Jo
##eatha
aca
leth
##ow
##est
Baile
uisge
##àrd
##oidh
##tam
##ìrean
Un
##àn
##art
àrd
Gearmailt
194
193
Spàinnt
##ideann
Com
196
ùr
191
##res
Roinn
Inbhir
òr
gha
inn
##ichean
Ead
##op
##ford
##eataig
bharr
##anar
##annach
195
“
àireamh
bharrachd
”
##nadh
00
Scotland
##00
##airean
Èir
Èideann
##leann
Gu
oif
Deas
##eul
Ma
Eòr
ciall
Ria
##àrr
fho
##and
Ghàidhlig
Ear
##asg
##nachd
##ck
##imig
##eart
thuath
sluaigh
##ry
##àrtaidh
thogail
Iain
ionns
##thachadh
##ulat
ruige
##tachd
eag
##roch
Chu
Ò
##ult
192
cean
##thast
Dhùn
seann
steach
##òrsa
##ìn
com
##mp
fhathast
##rù
Z
dhu
##burg
oir
##idhinn
cud
##ladh
##òir
poileataig
##ens
##ìos
aith
##ala
000
##mha
ciallachadh
Af
Alb
Da
##ghadh
Bhu
IPA
##eachas
##tean
##oim
fac
Se
##igeil
Beinn
urrainn
Na
##thaich
suidhe
##nad
2011
sgrìobhadh
##bhe
Linn
##ast
Mòr
Sas
don
##bhainn
Cl
thug
Lù
##anta
bru
##eachdan
thoirt
sam
##tharr
Bhe
dol
pàirt
##ghaltas
##òm
v
##òisich
eachd
km
Car
cheann
##radh
Rinn
Dist
##romach
Ne
##ance
seach
atharr
##aoch
##bhal
bun
##tainn
làidir
lorg
dòigh
Lu
##athad
Rìo
leas
Duais
188
measg
Ghàidheal
##oimbia
2010
##eadhanach
Ì
sp
Fran
dheireadh
##les
##oire
fhàs
Spàinntis
sl
cur
deal
iomadh
##tar
##agh
##iar
##ire
##ity
clu
trì
##èile
Y
Gha
Laid
##nard
bailtean
Ox
eachdraidh
fhac
##rì
thaobh
Chuir
meadhan
leabhar
##iochd
##raichte
##ov
mìle
turas
Oxford
##dadh
Cho
ionad
Distance
##ou
##èid
##ighe
##hn
##rachadh
rà
190
##èisean
eaglais
dhèanamh
w
##omharr
sm
##eathain
##oblachd
nis
gabhail
Nob
##èir
##chas
cànan
##und
che
crìochan
fhe
##pleir
Ach
##òg
##rich
te
Obar
sgàth
Fao
Mon
sao
fhà
ged
gum
189
nàiseanta
##lè
##lean
Inn
Nobel
##orm
##raig
##raichean
##onn
ais
##ullach
Eòrpa
thall
clach
##aighinn
##ón
buidh
toirt
eisimpleir
Cam
##gach
##alla
##culat
##ugha
187
##illeadh
##len
Laideann
rathad
##ghl
##culator
Comhairle
##àrn
Ged
Calculator
##rs
Sha
aice
troigh
chean
poileataigs
##lair
coltach
##eaghlach
Eadailt
##ina
àird
Brit
oifigeil
Ù
su
Dheathain
##imhe
tois
seòrsa
Dà
##ara
##ònraichte
obrach
##than
cro
##to
Rìgh
Breat
##bhadair
phrìomh
##eatair
Spàinne
rann
Ghearmailt
##ph
ràdh
Glaschu
àit
##àrach
##ghachd
##ivers
##cheall
##yn
##ies
##ìth
dheal
Fhuair
##aighe
##annan
Sta
##sainn
Suain
##aireachd
re
chum
##imcheall
car
##anaich
riochd
186
##ve
nà
Eag
Fac
cù
##ibhne
##reuchd
Afra
stiù
##ik
chèile
lean
##go
##alach
##sk
##rid
##ears
Lib
John
184
Stòr
##eanntan
El
nochd
##bl
##ma
Bar
tà
##hachd
##lands
chun
fhoills
##mar
##einn
Univers
Gall
##eachan
##che
bro
br
thu
dheth
ma
deach
##aisteal
Mha
Gàidheal
Bhr
rud
##inist
chlàr
Gleann
30
Nu
Ca
##orra
esan
##bhaist
Sgoil
##cha
laighe
##gan
##ìor
##àthair
21
##tish
sgìrean
′′
Eileanan
##òrr
gnìo
##pan
As
seachad
##iùc
25
##ional
##dar
##man
22
##righ
toiseach
mun
Sgith
Afraga
bheachd
Coloimbia
##iz
rith
183
Eaglais
##ithear
sònraichte
ball
##eòl
Dù
##unntas
fu
181
aois
bhios
canar
cleachdadh
##co
chà
##bhan
##reid
Ste
ciù
Pres
##ern
Ce
mus
##ionns
Nuair
##amh
##unt
Bo
Bheurla
sgrìobhadair
tric
##ochail
##ras
##òig
Mu
2016
Chaochail
on
##aitlig
Bhuannaich
##ld
##dal
##itr
##airis
2015
roinne
##eagan
Gearmailtis
Par
sgeul
En
##oria
Cru
##ghal
##eadair
Poblachd
oilthigh
De
Nao
stàit
Abhainn
##ín
Hill
àbhaist
thaghadh
Mo
dio
Port
##ìon
##berg
##èitean
chaoch
Sao
dùthchas
Aim
##aighd
28
185
2001
beinne
Ghlaschu
##ts
##teach
Thug
24
##ogaidh
Gr
##daidh
##inneachadh
timcheall
sna
##ighinn
##tt
##rìobh
bàrd
British
beinn
chruthachadh
##sg
##cia
##ìle
iomad
##ez
Pr
lu
##aoin
dèanamh
23
##onom
sàs
Àir
##ten
##stal
##liadhn
chaochail
fàs
phàirt
cudromach
Thathar
##bo
ac
##athair
##lac
##mhainn
##av
pr
##baid
athair
##sh
##ier
##lin
Cr
Iuch
##aitligeach
dùthchasail
àraidh
Ed
thairis
chomharr
Òg
##lainn
##ighean
dàrna
fios
Scottish
fhaighinn
University
Sgitheanach
##inistear
##aingis
##àill
thàinig
Rìoghachd
sgrù
Cogadh
29
Nat
eòlas
##ilean
##iud
##tae
bàs
fre
buaidh
##der
##olm
##iubh
##rath
Press
cumanta
##osg
180
Nor
##oidhne
chionn
##bheis
fhad
Taigh
feum
##illeach
Stòrlann
##bay
2003
cumail
##nar
bi
tè
##eabh
New
chleachdadh
##gailte
Ber
Dùbh
stàite
##eibh
Ost
##aiste
Cèitean
##ous
26
seinn
##76
##mm
##tad
Ge
gr
bhall
Sasainn
Phàrlamaid
##iam
II
##tair
Sch
##án
##ick
bidh
Colom
bà
##rraing
##imhears
Pàrtaidh
sr
Fhr
Ant
##kh
##èis
lìn
##mhain
port
cuairt
fà
##bert
##ithir
##ins
tharraing
##aideach
beanntan
##eumas
ionadail
##idhe
rithist
##ica
Mur
##eamhan
seachd
##ang
ta
Àrd
##imhearsnachd
##lla
Pro
glè
##ithean
##achaidh
##pp
y
##òin
##eannach
##oll
eileam
##ff
##ía
Pa
Her
arm
##ultain
Dàmhair
aithris
thòisich
Dùbhlachd
teaghlach
##ka
##iath
rath
dreuchd
##igin
Jos
##onadh
ruith
atharrachadh
##gal
##ìde
Can
Innis
facal
broinn
##dan
Aig
dhiubh
Riaghaltas
##BC
##MO
Hist
Pà
##ainge
droch
##channan
Iuchar
Fraingis
to
##iblean
ciùil
bruidhinn
##ugh
tach
##làr
eac
Lunn
Sultain
##ùthchannan
Albannach
##ames
Ara
Man
cult
Seumas
SMO
locha
beatha
bheinn
bhiodh
##ilm
Te
fr
cluich
##ull
Me
Cor
##gabay
##ghlam
Nuadh
Ghàidhealtachd
cumhachd
Ac
##airm
tron
Èireann
He
Lùna
fhear
ghabh
Ògmh
làrach
Èirinn
##sp
##era
##ius
Ha
Lunnainn
chomharran
27
clachan
gnìomha
Bu
Sgrìobh
Lùnastal
##abh
##har
##abha
##iostam
riagh
##earachd
##ireachd
ainmean
Ògmhios
Colombia
##ke
samh
##ict
dl
Nis
trice
sgrùdadh
Gre
West
idir
croit
chlàradh
dear
suas
2007
##den
182
Faclair
Gear
taic
##èill
É
aibhne
##thadh
loidhne
##liadhnaichean
X
##ory
Ros
##iosta
fìor
##inneach
chànan
bheatha
##ensus
Màrt
mullach
##aon
seal
Ceann
mac
rìgh
tighinn
Q
##iel
##que
##rish
##earag
eisimeil
Faoilleach
2005
Will
Naomh
ceithir
Lochlann
Pàrlamaid
beò
##78
##be
##aol
##eala
teag
uabha
Census
Aimearag
dhealaichte
Seo
dhà
##laichean
Frainge
##ty
##imrigh
##oisich
Bidh
Mhic
##eibhear
##eap
##ineadh
At
##lain
##ogot
mòra
leanas
##do
im
##ogotá
sgio
##ladair
mhuir
Bur
chù
Beag
Thàinig
##imigeachd
##71
##aran
Gael
Siar
fhacal
##ong
##oirbh
Fhraing
##ùrr
Dan
dhaoine
##ze
Giblean
deireadh
mheadhan
##ds
##ilem
##luagh
##ghlaim
##50
##ùs
pà
ùgh
Dòmh
##ok
Tu
##artas
clàr
uabhasach
meadhanach
##liù
##za
##bas
On
chinn
leabh
Spàinn
k
##illa
pro
##aicinn
##92
##neach
##raich
ceum
Sgùrr
ionnsaigh
##stit
##eabhar
Saoghail
##irt
##ley
##ste
##illean
saoghal
##uirt
bhr
beul
liosta
##sle
31
Pe
ha
##nean
##tion
Med
##umhan
duill
siostam
thogadh
eileamaid
Bho
Imp
Mhòr
##iot
Sl
Tr
chr
##eireag
cilem
Mongabay
##sinn
fiù
Data
lèir
Ghall
Taobh
bheag
William
iomairt
##nn
##ston
Nic
##inntir
Samhain
leasachadh
Ròm
litr
saighd
##ileanach
mhar
Bhaile
##ver
##ruim
##llamh
dhol
creid
lugha
cultar
dhuibh
##òiseal
##sachadh
slighe
Ó
##rìs
##raid
Ham
fhàg
Nochd
riamh
##aib
dr
##nachadh
Cunntas
##me
##ore
dè
##aoil
Arc
##ghaltais
##ago
Iù
##darr
##mean
##ltainn
##eachdar
##ation
##chair
còig
##oilleir
sgeulachd
##ant
##ros
fa
##ireann
Irish
Gearran
stiùireadh
##90
##ess
##ithe
Fios
tarr
oileanach
##he
Char
chlu
cilemeatair
##asach
phòs
thèid
thathar
##ja
treas
tarraing
##aide
##aith
sru
##ham
##ùin
##eoin
2008
##ür
ˈ
##ide
eal
##icheadh
iomadach
stèisean
ainmeachadh
##pach
##eilge
##aidheal
dhaibh
eileanan
bhuannaich
Ceil
freumhan
Á
##far
Cat
fada
làimh
for
mal
chuireadh
ionnsaich
##asan
##ighr
ghn
##alamh
sreath
##onomaidh
##uc
Alas
Inns
taighean
riaghaltas
##isia
##ouse
Chr
sha
aind
meat
##sis
##luas
tog
airg
##ora
1975
Canar
biodh
##pl
##oin
##ond
Or
Rò
Wal
beagan
aindeoin
##àird
Lod
thean
crìoch
nobhail
bliadhnaichean
##eimh
BBC
Tìle
Srath
cridhe
##enn
Là
lù
##uing
Leò
2014
##innich
##àsaich
##isg
##vin
Qu
##aine
##itch
imrich
nochdadh
Arm
ceòl
seir
Phris
làn
##taich
1999
sinn
##taichean
Aimearaga
dheidhinn
##olais
2006
Cill
naidh
foghlam
leantainn
##oth
ia
gan
she
orra
rèile
fheàrr
##imhne
Stud
Contae
Leabhar
##òrd
me
ùine
fhios
2004
Chol
Arcaibh
##ans
##ien
Gaelic
turais
feachdan
##ey
##tes
Tur
##ltean
dith
mhair
Bhreat
Alasdair
##ical
Bun
con
##va
Ad
2012
saor
siud
##neachadh
soilleir
Breatainn
##ub
##gar
##lad
Soc
José
cruth
##rìos
tìr
##ellín
cois
tachartas
tuilleadh
##ven
Tà
Ur
##earc
##oirid
oidh
##ichead
sàill
òrain
Libear
##eachaidh
stèidhichte
Sag
uachd
##odh
##ual
Tòr
##reu
##ìob
Sir
Chlu
dhiù
Atlas
mìltean
Chomhairle
fhoillseachadh
##ash
##noc
##ment
phr
2009
barr
tàmh
##igeach
Eadar
##aingeachd
32
Tù
##nall
rìo
##ingen
##throm
James
##imigear
staigh
sàilleabh
fhoillsich
##ab
Ain
##oinne
chom
Sgoile
cogadh
smachd
malairt
Rothaich
##ita
òg
##orge
aona
##luasad
seall
poilit
##ird
##par
Mus
sia
##igearan
bhuaidh
##brid
##iadh
deug
beairt
dithis
sgioba
Lochlannais
leabhraichean
##ys
##ico
Fe
##iobl
Sea
gre
Dubh
##ington
##òrs
50
##well
lagha
sheal
National
##ór
Ban
Oif
teo
Arab
Dàrna
sluagh
chruinneachadh
##ole
##ùil
56
Res
òran
##bad
##base
Har
MacG
bàrr
leugha
àireamhan
Gàidhealtachd
##orr
55
ao
fars
##bharan
Eadailtis
##ids
And
leig
##òlainn
Cille
hills
Bogotá
Database
bàrdachd
##NE
##aint
foills
roimhe
duilleag
##fa
##end
##ìch
Ùr
cliù
dual
tòrr
fhaod
ceàrna
##ión
40
Dè
fon
inneal
##aidheans
##laich
##raiche
mhàin
chumail
Thòisich
muinntir
roinnean
mhinistear
##ban
##rad
cuir
triobl
sealltainn
##eòir
##ibhe
Sal
gam
##omhas
Allt
##aisean
deagh
Tìrean
ollamh
adhbharan
##tin
##àigh
100
Nap
saoghail
=
84
stu
##aradh
Phòs
Phrìs
nàdar
chaill
##rachaidh
ò
##orn
##hann
##mhor
War
##ailte
##reith
rinneadh
##ren
##òsta
talamh
balla
dhuinn
fearann
Rìoghail
feadhainn
##br
##kes
##udar
ban
##baidh
##naich
Seann
##asgaidh
Sk
Gra
atam
Ìsle
Leòdh
Linne
bhuidh
rugadh
Caisteal
Eilbheis
buidheann
buidhnean
gnìomhachas
eachdraidheil
##cel
##orta
##thair
Bhon
Cana
oirre
Robert
eilein
fàgail
##gs
Po
##aidr
##iteach
Count
Lùnas
beaga
##agg
##tis
##gair
còrr
meatailt
rannsach
Dùthchannan
##àirc
##iorram
shluaigh
àiteachas
##ect
Pop
Leas
##bridge
##uchainn
abhainn
fheudar
fhàgail
chithear
è
##ler
fe
##ògram
acair
leith
Cruinne
##15
al
mi
Mor
char
fèin
innt
sìos
Oifis
oighr
##ghlaidh
Lùnasdal
Shasainn
Riaghaltais
##no
Wa
2013
Paris
bruach
sgaoil
nighean
ceannard
leughadh
ceangailte
naidheachd
rathaidean
##yd
##ura
##osta
Dav
fhu
dlùth
##inntean
stiùir
Studies
mhullach
Ba
Es
eas
dòcha
rannsachadh
&
Tom
sgr
##bhach
##nanan
Diùc
Eabh
Antio
adhart
dealbh
##imigeach
leithid
cheannard
##gra
##rig
##ghas
978
Instit
adhair
reachd
Chithear
làithean
gheibhear
suidheachadh
sn
Ale
Bal
##arrach
Gairm
bhàrd
##quia
Far
##orial
1995
film
##eireadh
choire
History
ghabhail
sruthadh
Ab
meatair
barrachd
fhoghlaim
obrachadh
##oirm
##rian
Uill
lagh
thar
coise
thill
fheadh
Antioquia
Fiosrachadh
dùthchannan
##60
##gua
##lea
Clu
Val
Cast
Seal
##panaidh
togail
##yk
##sin
Cro
Rom
##thach
Iùdh
Sant
innl
##eagach
stèidhich
##ym
##än
##òd
##ada
##ont
39
Fo
Fre
Stoc
##ùnaire
millean
Sagsainn
##gen
##ism
60
Os
so
##nain
Ben
tuatha
Lodainn
Dòmhnall
cruthachadh
38
##ileag
leud
Àite
##aigeach
Gen
tal
traid
phuing
Thogadh
Chuireadh
tachartasan
##ttp
ir
Lin
Pàpa
cinn
dach
Franc
chòmh
Cheann
theang
uairean
linntean
ceàrnagach
##nich
Mich
Stiù
thùs
##sanaich
Stàite
Gaeilge
Bailtean
##ft
##wa
33
So
ge
##icip
179
Cas
1978
tòis
Westm
ealain
fhaide
##iom
##irr
##nam
##ork
##sen
34
58
178
Ath
Mad
fao
##kholm
Carl
##ulation
iarainn
thomhas
Ameireag
mhàthair
Ceimigeachd
##gel
##ilia
Ast
sìo
##eairt
Duit
##ionnsa
##eachail
##nichean
diofar
taghadh
fhaclachd
turasachd
##13
##imris
North
dhear
fèill
##romaiche
Stockholm
##so
##ino
##uel
35
##iona
Eas
##bhairt
##ùthaich
Prìomh
cànain
adhbhar
Medellín
riaghlaidh
eisimeileachd
##ya
##ald
##ola
ne
##sean
##thas
innte
comharr
àireimh
##urt
Er
##ries
174
Gar
Pol
Bagg
Chru
chleachd
##rá
##led
Acad
MacL
reic
##bhalta
##sanach
Ainmean
iomradh
sòiseal
tasgaidh
##we
##áin
Ped
##arach
##saich
##shire
àraid
Chluaidh
Ròmanach
chinnidh
##iorramachd
saidheans
##ama
80
nì
ìo
##iost
##rdam
##ipear
1918
dubh
##anachd
##itcheann
Tòraidh
Westmins
Population
BPA
Roy
Vol
del
##naill
##uairt
Thèid
chòir
Comann
Chuimrigh
Westminster
Cù
Pha
siu
thoisich
Bhreatainn
riochdaire
##ho
##itz
##kur
Bà
##baig
Fha
Pla
##chais
Blàr
thog
Ostair
Bagging
eaconomaidh
48
fir
##oille
Paul
##allach
sgoiltean
talmhainn
choireigin
Au
DA
Fl
Kar
Wash
Aonghas
Eòrpach
atharraich
Pu
Sm
da
##adal
Sìo
##naidh
George
fhaodadh
##73
Go
##ited
##uinn
##èine
Mas
Làbar
##rochaid
ùghdarr
ainmeile
fhaicinn
Ghaidheal
coimhearsnachd
##ert
##ron
Gl
tù
##eòid
Map
cam
2000
bhun
coim
ochd
againn
goirid
thachair
Ra
##uras
Eac
Rec
Sam
Tar
seas
mharbhadh
Washington
riochdachadh
##pe
90
##idio
##ings
Chl
Gus
Lan
Lou
fòn
##bhagh
1990
Nirr
##ealach
buill
chois
feall
Aibhne
iomall
Nirribh
ceangal
caisteal
sgeulachdan
traidiseanta
##20
##hol
##unc
en
##iety
##òrna
Bru
Chom
Ruis
sean
##mhairl
Duitsis
fheadhainn
##jo
##ida
44
Ju
Geo
Hen
rug
Thom
Ghabh
Àisia
##thromach
Rùnaire
drochaid
##way
36
##aimb
##geul
##rean
Kir
Rois
boir
##araidh
##celona
phoil
oidhche
Choloimbia
trioblaidean
poileataigeach
##Dh
##ly
##osa
##ung
57
td
ww
##ords
Thu
www
##anais
làmh
caoch
duais
Ghleann
faighinn
##18
##erf
##ula
Fer
Hol
Mag
##ester
BhPA
High
##eachais
Society
saighdearan
##ure
gl
nu
##anan
##utha
Jac
Tru
von
##ìosan
thìr
##uirich
geala
ràinig
rannsachaidh
##ary
##lev
##dail
##eact
Bla
dhù
http
##ighear
Chinn
Ruadh
frith
beachd
##lem
##ust
Ho
##plòm
1991
Lakes
Result
Danmhair
theaghlach
##25
##àil
##inis
cas
seò
trà
##mhais
Uibh
raon
##irtual
Gearm
Iarla
fhada
##aighean
Uibhist
cultarail
siorramachd
##eral
Bre
leòr
Earra
stoidh
Francis
]
##ruct
##tamat
1997
mhotha
labhairt
Phàrtaidh
ceimigear
##ij
?
##var
Bher
##laiche
Mhòir
biadh
rudan
coltas
Uilleam
fèisean
##714
##òid
70
Kö
We
##pais
##àiri
òrd
##ruigh
seil
##idhean
##igeadh
##lacadh
cinnt
fhèis
Chaill
Christ
Virtual
dioplòm
municip
nàdarra
Drochaid
sheallas
##Am
##ks
##ial
Sr
##7692
Ver
##athar
1945
Chuan
##7692714
Canada
Suaine
Steòrna
bhàsaich
0007692714
##wo
##alm
sù
ùra
Carr
Rich
Mhuir
stuth
smaoin
solais
Meadhan
chluich
##ger
##iss
37
To
##nada
bar
Muir
chud
mhac
Achadh
Cathair
Country
gluasad
sgaradh
[
Mc
VI
dìo
1970
2002
Cham
bhonn
fhars
shean
samhla
rathaid
iarraidh
Mheadhanach
Gearmailteach
##14
##fo
Do
Ta
cò
##èimh
##èinn
phà
1871
Dail
##ianach
David
María
fuaim
Ostaig
##ruighlea
teagasg
buntainn
Bhuineadh
Cleachdar
seinneadair
45
176
Aran
ciad
iasg
##vincia
Santa
deich
muigh
##rìochan
soirbh
atamach
Eaglaise
Ceilteach
##cy
##hab
##sta
##ente
##usan
Bro
Mos
##ànain
Alex
Chon
Seil
Anton
bhean
ceart
Eabhraig
Danmhairg
oighreachd
Leabharlann
##DF
##ima
##ker
88
##tain
##ural
Phr
2017
Còmh
Litr
Rain
iris
Màiri
riutha
sgrios
##achdraidh
Colaiste
##91
##ind
Nà
##ragh
##ughte
crao
Ùige
##bhaidh
luath
Aonadh
sgoile
Records
còmhlan
àiteachan
cheimigeach
##àl
##lar
##uca
##une
##ìdh
##olog
168
PDF
cor
ron
1936
Anna
sìde
##dhachd
ceath
Lochan
dìriche
dhreuchd
fèilltean
##ìl
##ass
##ions
Dar
Wil
ghl
##eamoc
Càrn
Làrach
feumar
airgead
Cuimrigh
chogaidh
eòlaiche
Eachdraidh
##lag
XI
##oway
bhò
Earr
mean
Àird
croch
Chille
Charles
Chogadh
Suainis
chuairt
beairteas
Impireachd
##elt
##old
54
##thir
Alm
pòs
1994
astar
cloinne
dealbhan
Gearmailte
Libearalach
##borg
Log
##onald
sine
##nanach
Roinne
Leòdhas
Stèisean
Steòrnabhagh
##ún
##eau
##nat
##ock
##òrn
96
##easan
Dict
bheò
càird
inhab
##aimbeul
chreid
dearbh
rèidio
Richard
Sasannach
pàrlamaid
##jö
x
##ael
##tal
##eirt
##itir
##orld
##éidh
170
Tim
der
èir
##estiz
Stat
mion
crìch
house
àlach
ionnan
crochte
islands
Tùsanaich
##nà
Den
Pen
Ser
grà
##holds
##luais
1960
DANE
cusp
Catal
Dhùin
teòir
teodhachd
tòiseachadh
dioplòmasach
seallaidhean
##lm
##ors
##tre
Ot
##mann
Des
Iom
Cent
Coim
sìth
teas
##estizos
##paichean
Figearan
Thoisich
stoidhle
inhabited
eòlaichean
households
Chaitligeach
##ec
##ive
##per
##tte
Dr
Dum
##fries
##uidhe
1996
Agus
Mapa
daon
Clach
Stèidh
Pheairt
Chunntas
mestizos
riaghladh
seirbheis
Nirribhidh
municipios
##ki
##cht
Hel
clò
ste
##ilein
Cair
Reyk
ceud
dath
Greug
liost
Cliath
Napole
cànanan
##cot
##cur
##jav
##the
##ield
sta
##antan
cunn
pailt
Bileag
struct
Reykjav
cleachd
##gos
42
it
Lìo
Per
tar
##adair
##oblach
Riagh
coill
##àidheil
Arabais
chruthaich
fhiosrachaidh
fharsaingeachd
##72
##yr
##ife
##lok
Cà
ca
##eana
nao
1930
Raib
##ratach
Maril
Peter
##itorial
##ortagail
leigeil
Diùcachd
Rinneadh
##ano
##ena
##lebh
##reap
##bhair
##dhail
1974
fhar
Átha
##illeir
Black
Louis
Mount
deidh
luach
pròis
faclan
##òmhnaill
Bherlin
laghail
sgoilear
saighdear
##outh
Cum
##àsach
còir
dìon
geal
Crìos
chana
leigh
chaidr
matamat
##ireannach
togalach
Litreachas
Spàinnteach
liostaichean
##30
##ek
##vo
##nsp
##ingi
##ling
Die
Tor
bog
cun
rim
##burgh
##àinia
Sean
sgìr
##alaich
##eanadh
làimhe
thuirt
tràill
prògram
##35
##36
##70
##ini
##lop
Eò
##onar
##ràid
##ander
1983
bean
##othach
Inter
##ullaich
Fanaich
Marilyn
Napoleon
Stiùbhar
pàrtaidh
caitligeach
##dor
##olf
51
52
75
No
Wh
##eard
##earg
##nais
##obar
tor
##reumh
Cuan
Rann
Tran
chon
tior
##anaidh
##ianais
##òrsach
tomha
Ghallda
ainmich
Gàidhealach
cudromaiche
##én
##own
46
95
Hu
Ob
dù
##bhas
III
Basg
##igsinn
##onaidh
Amste
Facal
Uisge
Berlin
Statist
Làbarach
Tàilleir
teagaisg
cliùiteach
Ghaidhealaibh
##86
##iqu
##ner
##ney
##van
##Line
##dean
aod
bhà
##ville
ùidh
##lokkur
Bheag
Thill
bhuin
##lannach
airgid
sabaid
àrainn
Leughte
cothrom
chuimhne
cruinneachadh
##ix
##ás
##cas
##chen
##eama
Eur
##mhnan
1980
Fear
Gran
bhru
lùib
mìos
stad
Dèagh
bheir
chunn
mhìos
OnLine
Cuimris
chànain
##Dùthchannan
eisimeileach
##by
##cu
##inc
Ka
RC
##aige
##dach
##iste
##iùir
##sson
##tadh
154
##þingi
Astrà
cheum
bithear
cluiche
Bliadhna
tomhasan
Barcelona
dachannan
Breatannach
##74
##ík
##ias
##iago
##ìodh
175
Rob
ail
##actar
clas
iarr
MacDh
corra
mhìle
##sanachd
Martin
Mhoire
Raibeart
caochladh
cinnteach
sòisealta
uaireannan
mheadhanach
##DB
##ís
Fu
##eags
##onam
##rain
##uain
Ghr
1892
Luis
bàta
cheud
##osgladh
##ighearna
faicinn
##mpireachd
cheangal
Gheibhear
bhràthair
##po
##oni
sà
##ther
Dhu
län
##rence
1950
1998
Cnoc
fhos
reul
ìomh
Gotha
gnàth
mèinn
##inneamh
Galloway
MacLeòid
Amsterdam
bhuineadh
coiseachd
cudthromach
##ak
ì
##ics
##ume
92
##easg
##roma
160
Bas
##achan
##ainmh
##illse
1993
Glas
Land
Rubha
druim
Chogaidh
Phòlainn
Santiago
Astràilia
rìoghachd
##10
##ña
##ado
##oid
##one
Pò
mo
Gal
und
##ainne
1833
Achd
Cath
Cupa
tìre
World
freag
##itheach
feartan
measach
##ibhnichean
creideamh
ionnsachadh
64
##aigs
##ward
Sur
gru
##ainnt
1910
Donn
dàta
##ailear
##bhaich
clann
shìde
Albainn
dhùnadh
uairsin
beachdan
bhuineas
dualchas
Innseachan
##ein
##enz
##linn
Mal
Upp
ogs
##mhach
Friù
cead
##aighst
Angel
Ròimh
tràth
steidh
telebh
MacGill
bhàrdachd
_
##dha
##ett
##gart
##rann
##names
East
Teàr
York
bonn
dara
##nichte
##tanach
##òrdadh
Frank
annta
cleas
greis
teine
Dumfries
chathair
Francisco
Sealtainn
sgrìobhainn
àbhaisteach
poiliteagach
theangachadh
##vey
85
or
Eth
Reg
càr
dia
##parte
Cinn
Clas
Cuid
Iona
Lann
Mark
strì
tàinig
##ionndadh
##lokkurinn
Coimisean
ainmichte
sgaoileadh
Lochlannach
##are
##itt
##asal
Ail
Bra
Los
Mhu
Mid
Rad
Ter
dhi
mhe
Jour
Plac
##èanadh
Druim
Trans
Tàile
beann
earra
ghnìo
Sabhal
farsaing
rinneach
##bu
66
bl
Fed
For
Fìo
Iap
Mem
shl
##allas
##ersen
##tions
Karl
##ailway
##chaidh
##iseach
Spain
grunn
inbhe
thuit
Pòlainn
chogadh
sgìreachd
coitcheann
##85
##nag
##uts
72
500
Bel
lìo
thà
##igear
1992
City
Moir
meud
##eagsago
Compan
Johann
##ighlands
cruaidh
cruinne
Caimbeul
Gàidheil
Teàrlach
fhuirich
rugbaidh
##achaidhean
iomallach
##75
##pen
##rag
##zig
91
150
Dia
dàn
làr
##laidh
##alachd
Ròimhe
triùir
Bheireadh
Reykjavík
##ims
##ður
94
##aisb
Pat
##iseal
##isein
##oladh
MacC
coir
tuin
Chuain
connsp
teachd
eaconam
oirthir
##khighlands
litreachas
farsaingeachd
##ss
##tr
##ál
##car
##umh
##bach
##inia
##iùil
##laid
##port
Hal
Mun
Urr
dor
org
##lairt
##àinte
1973
Cala
Lean
Seic
##ealadh
##imhead
Calum
neart
urram
Arango
freumh
ùghdar
fhreumh
inntinn
fhosgail
gnothach
taghaidh
phàrtaidh
##96
##és
Í
ʼ
##fer
##rum
Sw
Va
##geir
##ried
Bay
Lao
Riv
gin
##draig
##gaidh
Lorg
tagh
tobh
##thachd
Gusta
Place
bhros
Eilein
Alþingi
Journal
Pedersen
choisinn
stàitean
Walkhighlands
soirbheachail
+
##line
##tais
Mer
all
tùs
##rìoch
1841
Bran
Juan
lann
plan
teagh
Bheinn
aonadh
sheinn
##currence
uachdar
Cuideachd
còmhnaidh
Chruthaich
bhuidheann
poilitigeach
comharrachadh
##gl
##ti
##up
!
##say
##stan
Ios
Pri
ise
tra
Fall
slàn
breith
coimeas
##flokkurinn
companaidh
̊
##ied
##tus
74
ud
uk
Old
Ung
##athan
MacA
Thog
lìon
##istean
Smith
innse
Donald
Thomas
dhèidh
cunntas
easbaig
pàipear
##eadairean
bàtaichean
Ìmpireachd
##men
##mer
##urg
53
Ao
##ster
##vent
147
172
gnè
1976
Bonn
cath
chol
òsta
##lasach
##tander
Fionn
Ghobh
Meall
cearc
##aisteil
Bhiodh
cheart
comhairl
dòighean
mhalairt
pàirtean
sgrìobhte
Shiorrachd
##ova
Sà
Ind
ias
Jose
mair
Augus
##aiteach
##ealachd
Uallas
Volume
chlach
Gaidheal
mhullaich
sheòrsach
##kó
##ero
##her
##ool
##ota
##àna
##bais
##iana
Cur
Dun
Han
Phà
##iotal
1806
1962
tadh
##chairt
Ghear
bhris
bochd
nuadh
uasal
Madrid
aoisean
siubhail
##19
##80
##yl
##can
##din
ab
Às
##terr
156
Ger
Osp
Sòr
des
fhl
fhr
fos
pla
tug
##òinia
1909
1986
Jean
Mhan
dann
rèit
uidh
##erfect
##ladach
Seile
seilbh
lorgadh
provincia
##wy
##zu
##óp
43
##dale
##iden
##ramh
##rick
##sear
164
Jan
shu
##aoidh
##eigin
1948
Norm
pear
tuit
Frìth
Lochs
Talla
Water
Thuirt
lochan
##national
Federal
Éireann
Iùdhaich
chloinne
eaglaise
Aimeireag
obraichean
Eaconomaidh
Dumfriesshire
##iet
##rar
##vie
59
##lect
##ower
##stad
Alf
Gir
Mel
cal
iol
van
##orach
1897
1968
1982
Aber
Part
bris
ceàrn
dhith
greim
Comunn
gnìomh
##aighstir
##iathrach
màthair
chumhachd
aithnichte
##je
£
##cio
##oma
##rez
##uen
##irbh
##tank
300
400
##bhinn
##graph
##lèite
##àthar
1971
1981
1985
Arch
Glen
##neachd
ruadh
ruaig
Chrìos
Tutank
ghairm
òrdugh
bhathar
ghluais
Frangach
nobhailean
Ghearmailtis
##16
##igu
##ila
##tac
##tel
at
##edia
##idge
##near
##ubal
Mhe
Nam
Sìn
##iseig
1920
1989
amas
##noterr
linne
òraid
##àrantan
Afraig
cruinn
pòsadh
chrìoch
fichead
Alexander
Camanachd
Ethnoterr
Imperfect
Ròmanaich
cleachdar
Albannaich
Federalism
Concurrence
aibhnichean
phoileataig
taghaidhean
##hr
##usa
##sair
##sala
Max
mhu
1988
Chic
Faoi
Leip
Phil
Sìth
bhog
fuad
losg
trad
##ichidh
##ionary
Names
mhath
Canton
Graham
Uppsala
boireann
fharpais
ùghdarrasan
Coimhearsnachd
##mo
##bon
##eld
##irg
##rsa
##uto
83
Rh
##eata
##tich
Bol
Dal
Fir
Leo
She
##aisge
##aolas
1947
1953
Fried
Pàirc
South
fhilm
mheud
Asaint
Slighe
gleann
Leipzig
Dùthaich
Sruighlea
Tutankham
smaoineachadh
##nis
##ray
##ric
49
62
##vens
##wood
Bàn
ghr
Èip
##rique
##santa
1921
1922
1940
1987
Leig
Real
Sgio
airm
dham
Clann
Ratha
dhìon
fhaid
sheas
their
##nallach
Academ
cheàrn
shuidh
##tearachd
Bhogotá
fireann
poblach
fearainn
sealladh
Ghobhainn
Sasannaich
matamataig
##82
##dr
##nu
##MDB
##ild
##lie
##tro
Em
IV
##ette
##furt
##ight
##mhan
##òigh
Ard
Clo
Fad
son
##asdan
1911
1951
1952
1972
Bàgh
Corb
Maol
bhan
tinn
##icheil
##ideard
##nathan
Mhàrt
litir
meadh
Rathad
cogaidh
Beanntan
Cambridge
Sìobhalta
dhùthaich
fhosgladh
Dictionary
Leasachaidh
##df
##wn
##ale
##usp
Rè
##iabh
##ione
##isch
##olas
Bud
Mil
Ram
cùl
eug
eun
##chdas
1939
Espa
dùil
Trust
##eanaich
##oirmeil
tiotal
##ainmhich
Chicago
Iùdhach
Rathars
carragh
cathair
##alaichean
##anaichean
Santander
##ionnsalachd
Ameireaganach
##eof
##ira
65
Di
Ex
by
55°
Pal
Tal
Tro
VII
ios
rad
tag
1887
1923
Eain
IMDB
##nalair
adhar
phrìo
Anainn
Fàsach
Survey
thuras
##aiseanta
Falling
cuideam
Meagsago
Caitligeach
Tutankhamun
ceimigeachd
cheangailte
foillsichte
##óm
##ün
##eur
##gow
##rat
##val
Ri
##alas
##eirm
##iano
##ibid
##ocha
##wick
Ass
Cap
par
sla
##chuid
##nasan
1810
1946
1979
Barr
Leis
Pana
each
hist
pìos
trom
##earaig
##trecht
Mosqu
Uachd
comas
dearg
##achaigh
chanar
Sòrbais
sùilean
fhichead
ìomhaigh
siorrachd
oilthighean
foillseachadh
##33
`
##rra
##uss
##ève
##aimh
##reug
gao
1938
gear
##nachan
Chill
Great
Mhair
Pheof
gruag
oifis
rèidh
seòrs
strìo
ciùird
smuain
streap
Utrecht
Faodaidh
faodaidh
teòiridh
feuchainn
##eathaichean
Spàinntich
phàrlamaid
International
##12
##Map
##cyc
##let
##str
et
rò
##ainm
##cais
##fòrn
##ison
Sil
sàr
##field
1965
Bhan
Celt
Hear
dèil
niùc
State
caran
neoni
shuas
fheuch
##saichean
Antonio
Cataibh
Ghallta
Hamburg
fianais
làthair
##liadhnail
##ogaidhean
domhainn
foghlaim
rìoghail
chaidreachas
Ghàidhealaibh
##Th
##ih
##ið
##ux
##ye
°
##das
##rik
##sau
4°
##Scot
##ence
##udan
##uman
Eal
alt
bhi
##guage
##idean
1944
Caol
Chur
Fada
From
Ghra
Poll
Tuir
bear
blàr
dràs
fhal
sear
##àrnach
Costa
spòrs
##ealladh
Ungair
eòlach
inbhir
Enrique
Natural
Mosquera
caractar
Friedrich
deuchainn
roinneadh
seachdain
beairteach
iomadachadh
connspaideach
##ua
##lez
##lor
##ral
##ìne
76
##agha
##ràma
##ters
##ópez
152
Chù
Tol
clo
las
##ilinn
1934
Comm
Mara
Torm
corp
duil
òige
Dearg
Innse
López
Radio
sràid
##othaich
Còmhla
feachd
Islands
lìonadh
àicheil
Greugais
chunnaic
coimhead
creidsinn
riaghailt
##eamocratach
Ratharsair
Èireannach
riaghaltais
feallsanachd
gnìomhachais
##93
##95
##Fe
é
##bra
##isc
##tag
##ted
##win
bù
##halt
##luim
130
Kan
Nac
Sim
Tun
Wat
tru
##badan
##bhaig
##ghain
##ilton
1886
1914
1964
Haag
Innd
aims
eòin
pean
teic
##ghdarr
Henry
daing
marbh
rithe
##eadhain
doirbh
eòlais
glèidh
cùisean
ghabhas
sheòrsa
##ubaltaich
bràthair
##aisbeanadh
cleasaiche
Dòmhnallach
ainmicheadh
cuideachadh
Libearalaich
##CO
##rn
##zo
##ble
##iob
##iog
Ag
##aise
##blin
##ject
##onia
##ívar
56°
All
##marca
Ange
Aodh
Liot
Mair
Seac
buil
faic
##cyclop
##ganach
##undina
pòsta
##actions
Anhalt
Manuel
ogsaid
shaighd
comhairle
dhachaigh
sìobhalta
##undinamarca
thimcheall
sgrìobhaidh
##ere
##red
pu
##heit
##illo
##tein
162
Bor
act
bac
pdf
uir
##beirt
##easta
##iùlan
1954
1955
1984
Còig
chlò
##ileann
##mhnant
Monar
Thuit
Tobar
talla
##aibhidh
##ealaich
Histor
Peairt
Places
Tormod
aiseag
armachd
fiosaig
##taireachd
Mheadhan
Ruaraidh
Somhairle
mhilleadh
Chambridge
Mhinistear
thuilleadh
Transactions
##34
##bal
##ipp
##ute
##wer
##èil
98
Eo
Zü
dì
##adan
##arna
##thur
##òine
166
May
Nar
Tra
eat
thr
##obhar
1901
1949
Long
Vict
##idsear
Colin
Creag
Prize
dàimh
Sgioba
mìosan
##laideach
Glasgow
chontae
siubhal
Crìochan
Stèidhich
croitearan
cuspairean
Riaghladair
chòirichean
croitearachd
##79
##du
##etr
##ilg
##ott
##tat
02
##gham
Dom
Que
Rep
Wür
deo
##aithe
##ghais
##islig
1900
1929
1957
1966
Mart
càil
Dhubh
Dàibh
Ionad
chall
chusp
chùis
Ospina
aimsir
airsan
dhiùlt
dhuine
iadsan
meanbh
mnathan
uachdaran
Catalanais
##rìobhaideach
freagarrach
tobhtaichean
togalaichean
##ku
##eme
##eth
##eus
Lo
Lì
##stri
##usen
Dor
Gro
Hur
Neo
aos
tre
##avier
##mainn
1961
Bith
Coir
Rafa
Sròn
comh
gual
torr
##harain
Liotu
faigh
France
Zürich
fhalbh
pìosan
##ithbeirt
bhreith
bithean
eaconom
Almanach
Chaolais
Nacional
Prionnsa
Thachair
fosgailte
Pheofharain
Cundinamarca
##11
##kin
##rit
Ja
##ceed
##idad
##ique
##wald
Bad
Der
Win
can
cre
fol
##Feuch
##reach
##àrnan
1813
1912
1942
Bhru
Camp
Flor
Lagh
León
Mach
deis
dàin
prìo
##athain
##guaidh
fiodh
Antiqu
Burgos
naoidh
phròis
tursan
##bheisean
##ceedings
##raidhean
Cogaidh
Hamilton
ghluasad
tachairt
Phoblachd
Proceedings
cluicheadair
##tz
##ars
##iat
##log
##tum
08
78
Rì
un
##ador
##cach
##esse
##eòil
##ogra
##oisg
##wart
##òras
Hun
Ill
Jul
Rio
blo
brè
trè
##ailis
##aisil
##arian
1885
1943
1969
2018
Edin
King
Rune
Samh
Stre
rian
seat
uais
##ibheas
spior
Choire
Kanton
Rafael
School
Thuath
thaigh
Angeles
Hearadh
obraich
Gallaibh
comasach
figearan
tràchdas
Seanalair
chaisteal
bhruidhinn
sgoilearan
##97
##98
##An
##dy
##NES
##bol
##elm
##ime
##lav
##oss
##rew
Ke
##idel
##ince
##iolm
Hon
Les
Pre
Tir
Top
dùn
sìn
##illte
##òmais
1830
1867
Cean
Herr
Laur
Lios
Mhad
treu
##sachan
Saint
Sgìre
aonad
chliù
mheas
uaine
##oinnich
##tachadh
Online
Canaich
losgadh
shoirbh
sneachd
Runeberg
Choinnich
Edinburgh
ceathramh
stiùiriche
urrainnear
chompanaidh
leabharlann
##94
##ark
##bel
##bro
##irp
Ak
Ap
Ré
##etts
##gate
Köl
Var
tùr
##chail
##onian
1917
1919
1925
Bell
Crom
club
##tarach
Class
Luchd
iosat
sgiob
shaor
theag
##iùcachd
Carlos
Ollamh
Panama
Series
sheann
àraich
Ceiltis
Ungaire
bithidh
shabaid
Èipheit
##ileanaich
Johnston
chòmhlan
iasgaich
samhradh
Crìosdaidh
Eadailteach
##ane
##cer
##ome
Dé
Rù
Ze
##ient
##ruth
Bir
Rev
Rog
chì
dad
##ación
##eanas
1848
1926
1937
1956
1958
Hall
Kirk
Shan
##achail
##fòrnia
##sachus
Droma
Pedro
chath
##bhalach
##lenburg
Lublin
daonna
iosatò
Chaluim
Mhadrid
Nornais
comhair
Lannraig
càirdeas
àitichean
##eachaidhean
Briathrach
Phortagail
mìneachadh
Antiquarian
boireannach
eileamaidean
coilltearachd
##tm
##ío
z
##ces
##sch
##öte
82
86
Má
op
pl
##ario
##dorf
##onna
##àsan
155
Eus
Mis
Ord
Trà
Ven
##NESCO
##aladh
##bhann
##faidh
1863
1959
1977
Abar
Amer
Luft
Otom
Virg
ailt
fuil
thag
##ailean
##ibheis
Sèimh
Third
bhann
lusan
##dachadh
Airson
Arthur
Cruith
States
Steven
##Scottish
Michael
Project
oidhirp
##cklenburg
##ionndaidh
Breatann
ghnìomha
phrògram
tilleadh
##sachusetts
cheannaich
duilleagan
sgrìobhadairean
##cs
##hm
##uk
Þ
—
##lau
##omp
##vel
##igan
##lidh
##nann
##orth
##tran
Ghl
Lam
Nas
lib
nòs
ola
òir
1880
Book
Bàrd
Clàr
Gill
Lìog
bùth
chro
càrn
earb
gaol
thig
##eabhal
##ibidil
##ramach
##àrlain
##òmaidh
Dwell
Scots
Scott
Urras
cladh
docha
##airtean
##öteborg
UNESCO
fàsach
Saoghal
cuimhne
Memorial
bhitheas
feumaidh
Coinneach
Donnchadh
mhuinntir
Seumasaich
dèiligeadh
reubaltaich
Breatannaich
chaitligeach
comhairlichean
##td
##aca
##bie
##ifr
##ser
##uer
63
67
Pé
tì
##agan
##sail
##vard
##ómez
120
163
Bio
Boy
Ior
Liv
Men
Rap
Tul
drù
gas
los
##adail
##zburg
##ànais
1860
1928
Noll
Thür
leag
siar
##aisist
coinn
dhùin
##Thòmais
##aistean
Duaise
Island
Joseph
grèine
iomain
leatha
thìodh
Braisil
Nibheis
chionns
iasgach
Fiosaigs
Language
aithnich
##liadhnachan
Placenames
oileanaich
Tòraidheach
telebhisean
phoileataigeach
##17
##ws
##ók
j
##lap
3°
##more
##reis
Gon
Lle
Sgu
##aidhe
##taidh
##ìghde
1932
Isle
Lang
MacI
Mhed
from
goir
ithe
##ileadh
Andal
Maria
Rotte
Times
innis
puing
tract
##uairidh
##àineadh
Pòlais
aodach
##eòladair
Patrick
Seacais
ghoirid
uidheam
Historia
MacGille
Mountain
aontaich
bheireadh
chànanach
dearbhadh
Meadhanach
bhliadhnail
Sgitheanaich
Stiùbhartach
bhrosnachadh
seirbheisean
Massachusetts
cleachdaidhean
bhliadhnaichean
##su
Ö
##eid
##iva
##mes
47
73
SC
bo
vo
##airg
##iuth
##obal
##rary
Ang
Kal
Len
Rud
Tan
cos
lus
ìos
##iudad
##ledge
1902
Bhar
Each
Harr
Stan
Ward
bana
cnoc
ghnè
glas
inbh
rosg
tras
tèid
##iuthar
Cheil
Gómez
House
Ronal
Tuirc
Valle
diadh
furas
##omharra
chruth
comann
moladh
##aisgeach
##igheachd
Bolívar
Britain
Corbett
Railway
Daibhidh
Encyclop
Leòdhais
Chaisteil
Mhedellín
meadhanan
mhòrchuid
##eadaireachd
còirichean
fiosrachadh
frithealadh
àrainneachd
Lochlannaich
steidheachadh
Å
##acá
##bor
##oli
##ons
##pay
87
Ir
##cair
##ican
##ones
140
153
800
Adh
Cre
Fhu
Nan
Som
gal
gar
sgu
##ución
##ultan
1850
1931
1967
Dres
Dual
Fish
Gorm
Maur
Theo
chlì
gorm
leac
long
lùth
suim
thor
##ataidh
##eacail
Coire
Cànan
Europ
Muile
Villa
abaid
aonar
athar
dràma
Celtic
Javier
Sìnidh
tìrean
Eideard
Harvard
Logainm
chanadh
poileas
Tùsanach
ceathrar
cànanach
dachaigh
ghlacadh
innealan
MacThòmais
Tòraidhean
boireannaich
##eb
##oa
##sc
##jör
##nes
##neò
##ple
##rac
##uri
##utt
Ib
Uí
cì
##hamm
##odal
##ridh
##ttir
##éill
##ñola
57°
Che
Jim
Sel
Tri
cao
geo
man
spr
tom
##loinn
##stadt
1933
1963
2019
Ball
Bath
Bona
Gini
Hein
Mull
Rath
donn
form
nise
parr
sìol
##aibine
##innean
Dheas
Phort
Rèine
Tomás
fheum
raoin
##denburg
##eamainn
##iseanan
##sannach
##tenberg
bhrìgh
chiùil
dhàsan
tioram
èirigh
##eadarail
Faisist
Uairean
cuspair
tomhais
##eachdaire
aiseagan
cudthrom
structar
Instituto
Otomanach
Rotterdam
Seumasach
cuideigin
eaglaisean
riaghladair
MacDhòmhnaill
choimhearsnachd
##IS
##ör
##ipa
##ost
##tav
61
Cá
ad
##1391
##iger
##ilte
250
415
Bon
Gua
Isa
Lus
Min
Mòd
Ola
Sym
Tìr
cia
mor
##mpire
##payán
##ònach
1882
1883
1915
Bòrd
Feum
Hans
Holm
Pear
Publ
bàis
naoi
##901391
Cauca
Chair
Colle
Green
Liath
chult
cùrsa
pàirc
teirm
##ipearan
Seapan
chanas
iomlan
mharbh
phàigh
##iniseala
Andalus
Arabach
Cloiche
Easbaig
dealain
draoidh
##ighreachd
Ghaeilge
beulaibh
leigheas
poblachd
tarsainn
Stevenson
tionndadh
1871901391
Uaireannan
litrichean
teaghlaich
inntinneach
tradaiseanta
##ír
##dra
##edd
##gué
##kir
##ráf
05
06
68
93
Cú
ed
##graf
##hach
##tado
165
Fel
Ges
Has
Inv
Kra
Mod
mil
ùir
##ailli
##bhalt
##imhir
##inger
##ornia
##stein
##unnan
1881
1935
bros
corr
eich
ogha
rude
teac
toil
ìsle
##enburg
Abaid
Ealas
Marie
buadh
fodha
loidh
mhean
Ealain
Edward
Fìobha
Murray
cumadh
Laidean
fhaisge
##ghdarrais
##glaichean
Bonaparte
Institiud
Mhoireibh
Mhàrtainn
Nochdaidh
Portagail
ministear
tuathanas
Shasannach
Shruighlea
Bheiniseala
taisbeanadh
tràilleachd
Gearmailtich
beathaichean
chudromaiche
##ér
##hem
##sal
##èig
5°
Có
##arra
##bain
##helm
##over
##ruis
##rumm
124
136
Dhù
Ltd
crà
sal
##ienna
##uglas
1854
1904
1905
1924
Sobh
chor
diof
sibh
sùil
##ardoch
##ineach
Camas
Deuts
Fhear
Murdo
Roger
Stàit
chrao
deoch
mhara
naomh
thoil
##Eathain
Dwelly
Tuatha
Vienna
dathan
dràsta
factar
laghan
tràigh
##ainntean
Aonaidh
Sòiseal
deiseil
fhacail
nàisean
roinneil
rudeigin
ruigsinn
rìghrean
Ceimigear
Thüringen
Calafòrnia
chudromach
dhearbhadh
bliadhnachan
##ño
##Mon
##bul
##igs
##ken
##lot
##nap
##rey
##ràg
##urs
##war
##ìmp
##ías
Jó
##cher
##eilg
##imar
##iosa
##nalt
##tell
##unnd
125
Aem
App
Art
Bos
Cer
Ion
Lar
Lom
Pin
Slò
Wit
òig
##laibh
##óttir
1815
1907
MacM
Past
caol
fhul
guth
shìn
##eallan
##lencia
##rsaidh
Caled
Sìona
darna
solas
##eallach
##ithrean
Bridge
Castro
Church
Freder
Ghreug
aiseig
chearc
cunnar
##aibineit
Douglas
Holland
Mairead
feadhna
piseach
seasamh
tuiteam
Ghranada
chruinne
chumanta
Chrìochan
chomhairl
coilltean
pearsanta
òraidiche
aontachadh
clàraichte
thagraiche
Laideannach
oighreachdan
riaghailtean
prìobhaideach
##dt
##ät
##ibe
##isa
##oba
##ski
##ydd
##earn
##hein
##inga
##ques
##tsch
145
How
Mat
Off
Wel
cat
Àth
##hagen
##imate
##mhinn
1803
1876
1895
1903
Bàrr
Caer
Chap
Dùth
Jack
Mhar
Saor
crùn
siùc
uàrd
##eamhar
##iogair
##ograph
##tacain
Aemet
Argan
Jacob
##earsain
##idheadh
##igheadh
Slèite
Weimar
Nàisean
Pàislig
Rìmhinn
daonnan
shluagh
tòisich
##rsaichean
Dàibhead
Highland
chinneas
Bhatacain
Memorials
Oighreachd
##aireachdainn
##In
##hu
##piu
##uma
##yle
Sn
Wo
ré
##aman
##bols
##ghan
##ista
##nòid
Gaz
Gun
Ken
Las
Lor
Rùm
Sin
Sol
##arain
##caigh
##irean
##laind
##ìleas
1870
1908
Club
Edit
Mary
Rock
Rout
call
chàr
goil
modh
muir
slat
Ìosa
##ráfico
##ìcheil
##ìoball
Duill
Jorge
Sgeul
Wales
sruth
Coille
Riochd
facail
##Mongabay
##levation
Basgach
Bhathar
College
Foghlam
Hurtado
Library
Sluaigh
Wilhelm
cladach
ghlèidh
leighis
station
tuiseal
Chuimris
Ruairidh
Enriqueta
Phrionnsa
Routledge
Tighearna
dreuchdan
trioblaid
àrdachadh
cogaidhean
filmichean
Chuithbeirt
deireannach
ionnsaighean
##cr
»
##ben
##eak
##gro
##iod
##omm
##tra
##ved
##éin
04
My
bò
el
##icia
##nuic
##town
102
104
art
bat
ghu
tao
èig
##glish
##umbia
1746
1888
1894
1916
Mall
ainn
bìdh
dhìo
ioma
mhìn
àile
Buidh
Canon
Niall
Néill
Polit
breac
leana
phort
speur
thìde
tìodh
##Neacail
##inntinn
Caolas
Castle
Eabhra
Global
Lathar
Manach
Ruaidh
actair
gheamh
saorsa
tadhal
uiread
èirich
Airport
Clachan
Dresden
Nàsaich
Phrìomh
Popayán
Symbols
follais
formula
furasta
ghleann
sìneadh
Chleachd
Ealasaid
Española
Heinrich
Johannes
cearcall
##othaichean
phàrantan
ùghdarras
Mullardoch
##ue
##är
##ła
##ade
##ame
##fan
##zen
##àta
Ay
Oc
Ul
rù
##oigh
Bis
Ern
Mór
Red
bàn
htm
lag
Ìos
òga
##ealan
##ology
1861
1875
1878
Bhun
Feed
Feir
Park
Righ
Tail
teis
Òran
##eartan
##nasach
##oraich
##ünchen
Bharr
Bhòid
Tatha
bhàis
ghear
iolra
sgìth
ìosal
##aillimh
##neachan
proife
stéidh
treasa
tùsail
Basgais
Bithidh
Climate
Constit
Loidhne
Turcais
aibidil
bheairt
cloiche
grunnan
rachadh
Mhanainn
bhualadh
chuspair
cuireadh
Andalusia
Argantain
Provincia
cheàrnach
choinneamh
cruinneach
rèiteachadh
tuineachadh
sgrìobhaiche
sgrìobhaidhean
##di
##fr
##mi
##zz
→
##err
##gam
##gue
##ike
##ków
##law
##use
##vis
##áil
03
41
fl
##feld
##irte
##làth
##ogha
##quez
132
Lud
euc
##dainn
##ering
1840
Chor
Eige
Ghen
Leth
Para
Pers
Plan
Prim
Ross
allt
bhàn
bhàs
Ìomp
##eathan
##iceach
##inmean
Carol
White
##aidsear
##rummond
Bheilg
Lodair
Monadh
Naoimh
Reachd
Ràinig
Shèimh
Walter
bacadh
fhreag
Òlaind
Academy
English
Iarainn
Lochain
faclair
thugadh
Chèitean
Còigeamh
Romàinia
dhèanadh
Companion
structair
Caledonian
##eathraichean
leasachaidh
fiosrachaidh
seòrsaichean
eisimpleirean
iosatòpaichean
##ód
##col
##jas
##sea
Nì
Yn
ol
Ís
##bost
##mont
##ping
##rail
##àirn
105
110
118
122
135
Bat
Cla
Dis
Ean
Fal
Iba
Shu
snà
##Leòid
##saigh
1831
Cali
Eòin
Gonz
Magn
Otto
Pier
aire
bòrd
chas
dùin
eadh
leum
rèis
##ingham
##lement
Iapan
chlub
choim
cuibh
ghlan
##ìmplidh
Ibagué
Pharis
aillse
buidhe
ceudna
dealan
gheibh
mhodal
nàdair
seòmar
Gazette
Pàdraig
brèagha
cinnidh
phòsadh
stuthan
##partement
Raineach
Suòmaidh
lùchairt
maireann
Elevation
Phearsain
fhearainn
innleadair
brosnachadh
dhearbhaich
dotaireachd
Choimhearsnachd
##Fh
«
##761
##bag
##die
##gon
##int
##ipe
##ves
##wig
##ńsk
Ig
UN
Ve
go
##esar
##loch
##mair
##ncia
Esp
Gab
Hàn
Kat
Lug
bra
cnà
mur
èis
##iller
##irinn
##mberg
##paich
##sgeul
1807
1845
1857
1889
1906
Bill
Borg
Corn
Cron
Cult
Dris
nàmh
rogh
##amaidh
Acair
Brown
Royal
Svens
aosta
brìgh
loisg
sgath
sheir
trian
##gráfico
##ifreann
Aillse
Albann
Albert
Andrew
Eilidh
Ghlais
aonais
chuimh
dòchas
manach
seirbh
##òinteach
Chanada
Thomson
creagan
slàinte
Ghiblean
Laomainn
Tailleir
còigeamh
uaislean
ceimigeach
niùclasach
coinneamhan
aithneachadh
ionnsachaidh
Crìosdaidheachd
##83
##fi
##gy
##ão
##ée
##cal
##ign
##ony
##rog
##wyn
81
Gn
Oh
Ol
Sj
di
##alta
##enze
##eàrr
##ibia
115
146
Del
Gio
Hor
Lat
Oir
Pru
Spr
Sub
Tay
mag
##estre
##illes
##ution
1927
Comp
Fres
VIII
geme
##ichear
##searan
##ìthear
29761
Bhalt
Burns
Chois
Naidh
##itheamh
County
Michel
eilear
##ionnaire
##ttemberg
Chairib
Feirste
Ghlinne
Herrera
Reamhar
charaid
thathas
Bhàsaich
Michigan
buidhean
craobhan
crochadh
foirmeil
phàipear
Làbaraich
Universit
crìochain
theangach
Dhòmhnaill
chomhairle
iomairtean
leudachadh
riochdaich
àiteachais
Brandenburg
comhairlean
eaconamaiche
proifeiseanta
##Ph
##bi
##yo
##bla
##gas
##oto
##uga
##yte
Fà
Pl
##Info
##anda
##bout
##etro
##heim
##litz
##ppen
##ssel
126
Don
Gas
Haw
Hum
Ire
Pan
dhì
pha
##eatan
##eland
##ensis
##inois
##leach
1814
1868
1890
1891
BhBC
Bhàn
Cèin
Córd
Deal
Fhad
Fort
Fèis
Gord
Zipa
acad
shiu
shon
tean
##eathar
##hammad
##hausen
##olmbia
Doire
Olaya
aosda
crann
creag
eagal
fhaic
##Ainmean
##chester
##ianaich
##iomnadh
##paisean
Aonach
Boston
Deòrsa
Santos
aithne
bathar
ciamar
leotha
sheòrs
##caichean
##sanaiche
Ireland
fhuaire
riaghal
uairibh
Castilla
Latharna
uachdair
Ameireaga
Cololmbia
Ghöteborg
Innseanach
aonaidhean
adhbharaich
telebhisein
Constitución
coinneachadh
gnothaichean
maraMongabay
Prionnsalachd
shuidheachadh
##99
##hi
##ko
##vi
##ال
##row
##wel
##zog
Hà
eu
##also
##bers
##form
##gadh
##gion
##hard
##ingo
##king
##ness
##oven
##tens
BhP
Bus
Fon
Lag
Pas
Sig
Tam
osp
tho
##daich
##iotàr
##raigh
##ència
1872
1898
Fhir
Iasg
Köln
News
Ynys
gabh
sìor
teth
##ations
##eartas
##obhair
Comar
Eòlas
Neach
aonta
bhuil
chlas
chòrd
dhìth
déidh
làith
maich
mhòir
##aiceann
Buidhe
Daniel
Kraków
Seachd
Seòras
chosta
clàran
pàtran
sheach
speact
teotha
##Infoalso
Company
doimhne
railway
seinnse
Bhearaig
Classora
Hànobhar
Illinois
Màrtainn
Phàdraig
Phàrlain
València
briseadh
còignear
gemeente
oifisean
peantair
phrìosan
Ministear
Samhraidh
prògraman
pàipearan
reachdail
shealladh
Geográfico
bitheantas
chreideamh
Dictionnaire
chomhairliche
##84
##kt
##pc
##pt
##ced
##saw
71
Ec
Im
Ko
##ania
##ardo
##burn
##eile
##hire
##irge
##isse
##maid
##olom
##oman
##onso
##tage
##ìona
112
Bea
Cop
Gad
Jen
dhl
gle
min
pol
tun
Ìle
##ische
##oilec
##ruinn
##seach
##thamh
Andr
Lond
bhrà
blas
dùbh
feur
voor
##inistr
##neòlas
##osgair
Breac
Coast
Congo
Const
Monte
Music
Nicol
Pàirt
Ruman
fhuil
Arainn
Boyacá
Desert
Phruis
Seotal
Slòbha
Warsaw
ataman
dlùths
eadhon
gheama
theich
Chontae
Maurice
Maxwell
ceannas
choille
dhealbh
fhliche
iarrtas
sgìreil
thoradh
##aineering
Bhrìghde
Sealainn
Virginia
beartach
oifigear
siathamh
Frankfurt
Rumantsch
Stiùbhart
dùthchail
rannsaich
Bharcelona
chainntean
clasaichean
creideamhan
riaghalaidh
Briathrachas
Ghàidhealach
cudthromaiche
Mountaineering
##87
##Bh
##ni
##sd
*
í
##ges
##ito
##mad
##our
##pha
##sey
##ska
##ðis
##ñez
77
97
Vo
Za
nò
og
qu
##aria
##hmed
##iach
##main
##rael
##sadh
114
116
123
173
Dur
Gil
Gru
Tex
Tre
Van
dom
grù
shà
##ithne
##vania
##àirce
1884
Adam
Brus
Ceap
Guad
Labh
MacD
Mhòd
Mòir
Neil
Oidh
Salm
Sìne
Tròn
chlo
seòl
thal
tèar
##iùlain
Andes
Fìobh
Halle
Rojas
maoin
##aibeach
##dairnis
##estrepo
##oiseach
##stanbul
##tairean
Bhreac
Farair
Lengua
Margar
Nàdair
Rivera
Wester
astair
dhòigh
fhaigh
phàirc
staile
##iuthainn
Results
chomann
feumail
tioraim
Choisinn
Laurence
Restrepo
còmhstri
pròiseas
sìmplidh
##ibheasachd
Highlands
Leasachadh
Wittenberg
daingneach
ghainmhich
tòisichidh
Bhriuthainn
Faisisteach
Württemberg
iomlaideach
malairteach
phrìomhaire
Eachdraidheil
ceanglaichean
##uz
×
##chn
##oph
##pag
##pol
##yes
##yst
##álf
##èar
2°
99
Nú
##eamp
##erto
##ital
##ress
##roth
##ubli
103
Aqu
Aus
Dhè
Rea
Tìl
aid
imp
nar
rùn
smù
ìob
##abhal
##adain
##anium
##eòlas
##ision
##keley
##lapul
##nacht
##ochda
##rìost
##tacht
##usgan
1798
1864
1913
Akur
Cuim
Fuad
Gard
Marc
Poet
Poil
Stea
Suom
Thor
beus
bhus
bodh
mhic
rang
sgar
##achsen
##ileach
Brian
Langu
Latha
Leabh
Leigh
River
Saoir
Sìthe
Uribe
caill
dhubh
dubha
leann
mheat
taisg
thach
Ailean
London
Lùtair
Morair
Ulapul
chleas
chùirt
craobh
iarann
Acadamh
Chuilth
Eanraig
dleasta
fhillte
manaich
ospadal
seòladh
sileadh
òigridh
Drummond
Geonames
Mhonaidh
Moireach
mèinnean
theirear
Christian
ceòladair
bunaiteach
ceannardan
cunbhalach
naoidheamh
smuaintean
thalmhainn
Portagailis
chathraiche
thionndaidh
Cuibheasachd
Encyclopedia
saidheansail
Chruthaicheadh
##88
##AS
##az
##nò
##ól
##ace
##gor
##iek
##lio
##tem
##uck
It
Op
um
##bria
##inge
##iùlt
##orgh
##samh
##wing
##ález
101
106
600
700
Brà
Cen
Dem
Pap
Str
Tel
Wis
ful
soc
##dańsk
##ghlas
##ideil
##iguel
##imeat
##nberg
##oghar
1816
1847
1849
1855
1859
Aach
Beat
Berg
Chrì
Comh
Dara
Menn
Mill
Morg
Schl
Sìon
Toll
Uach
conn
dhìr
ghin
part
ròin
sgap
thrà
##àrnaig
Basin
Camar
Croit
Frang
Georg
Palma
Stutt
Tunja
ainmh
cèill
datha
dheug
feart
fhìor
gràdh
luibh
mhion
phàpa
##oileciu
##ultural
Bureau
Chauca
Chlann
Grande
Kalmar
Miguel
cainnt
dannsa
giùlan
sagart
Córdoba
Ghenève
Publish
Thuaidh
eugsamh
Àireamh
##annachadh
Duilleag
ainneart
ceangail
chuidich
chunntas
fhearann
leabhair
sràidean
Bharraigh
Canongate
Institute
Stuttgart
bhitheadh
teothachd
Paraguaidh
Seanailear
MòrScottish
thìodhlacadh
teaghlaichean
sgrìobhainnean
##BA
##gr
##rc
##gun
##iba
##jar
##net
##rab
##uld
##ück
Je
Of
ال
##blic
##mund
##tail
134
871
Arn
Cym
Ein
Est
Sar
arc
neò
tub
##beart
##ersey
##inium
##ittle
##olain
##toids
##ullar
1866
Alan
Aust
Kent
Mack
Nord
Ohio
Ragh
aite
chrù
leòn
##aimbia
##deburg
##graphy
Alten
Calif
Fhran
Neiva
Pérez
Scoil
Sruth
Sràid
Uladh
choir
costa
fiolm
thàth
##aichidh
##asgladh
##bhailte
##eactair
##nanachd
##ylvania
Akurey
Caldas
Centra
Ciudad
Daoine
Fhionn
Gdańsk
Genève
Ghlinn
Hamish
Muslam
Suisse
coille
drùise
dualch
fhuaim
sloinn
àlainn
##gaidhean
Central
Feusgan
Florida
Herbert
Mariano
Oidhche
Rothach
amannan
iondail
làraich
nithean
ochdamh
tadhail
Íslands
Antilles
González
Meadhain
Moireabh
Roinnean
mhadainn
bheachdan
phàirtean
California
chruinnich
clasaigeach
diofraichte
measgachadh
shònraichte
tuathanaich
faireachdainn
##ju
##ata
##dur
##ene
##iop
##iza
##lah
##stæ
##tle
Vä
cè
ex
wh
##bail
##enca
##ioch
##ivil
##làir
##ores
##orms
##quín
##raim
107
117
142
936
Ais
Cox
Dha
Fil
Hil
Jer
SCB
Sum
Urd
blà
fòg
##airte
##laigh
##odach
1829
1834
1835
1852
1858
1862
1869
Airm
Fhao
Hend
Melo
Mhag
Vers
agam
camp
fala
mhan
nead
pìob
àrda
##allada
##icsean
##tagena
Adolf
Elect
Faisg
Franç
Libia
Trian
baist
dheis
fhéin
miann
phean
roimh
##etrical
##ighiche
##isimeid
##itheadh
##àrlaich
Cuenca
Dhoire
Empire
Leatha
Street
ailsea
bhiadh
bochda
iongan
laoidh
libear
staing
uimhir
##bhachadh
Alfonso
Britann
Bànrigh
Chluich
Thathas
coimpiu
deasbad
eatorra
farpais
##òraichean
Barraigh
Istanbul
chànanan
dìomhair
greiseag
heactair
rianachd
slighean
thighinn
thomhais
trastach
##aidheansan
Gazetteer
innleachd
pròiseact
seasmhach
Acadamaidh
MacCoinnich
Tròndairnis
##narflokkurinn
##ðisflokkurinn
Naidheachdan
cheimigeachd
shaighdearan
tarraingeach
trèanaichean
chluicheadair
##EF
##bs
##fh
##nt
##pr
##apa
##bus
##day
##ese
##ieg
##iol
##wis
Kr
Lü
##bour
##ense
##esto
##leab
##sing
##tern
109
143
144
Bog
Bòd
Chè
Dro
Gov
Kel
Luc
Pay
Slo
Vis
Wig
Zar
brà
gnà
net
##innes
##sinki
##uaire
##uncil
##worth
##ànamh
1745
1821
1874
1899
Anne
Luís
Rang
Sten
Tenn
anab
cana
crom
fhòg
meur
mhór
prìs
##oirthe
##álfstæ
Baden
Brice
Chlàr
Chàrn
Chòmh
Fresh
Johan
Noord
Núñez
Rhein
Sgeir
Sròin
Steph
aiste
cheòl
dhàil
sealg
theth
tuair
tuama
##aitheas
##arbaidh
##chichte
##ernment
##ladaich
Bathym
Bayern
Camino
Jersey
Pullar
Talamh
dèanta
dìonta
fheall
robhar
taighe
##itheanta
##seachadh
Canmore
Castell
Eaconom
Fallada
Leonard
Sobhiat
Stewart
Telford
chainnt
còrdadh
earrann
gaoithe
ionadan
piuthar
Akureyri
Aonghais
Lìobhann
Muhammad
Seiceach
Sjálfstæ
Thaghadh
pàrantan
shòiseal
treasamh
##aidreachas
##panaidhean
Altenburg
bheanntan
bhoireann
chàineadh
Liotuàinia
Theàrlaich
shaighdear
bheòthachadh
loidhnichean
naidheachdan
Aimearaganach
Bathymetrical
##MP
##ah
##fe
##fé
##esa
##iac
##ido
##ika
##ria
##sha
##ury
##zar
##íos
01
69
BS
Bé
Hj
Il
Ok
##ando
##bard
##ckle
##ener
##icus
##lich
##paig
##view
128
Cul
Got
Hoh
Lim
Loc
Mao
Nov
Odh
Pho
ana
aot
boc
dlù
lit
oib
oid
Òir
##agoza
##aoich
##astan
##thann
##òrdan
1600
1832
1865
1879
Bern
Chem
Chum
Clem
Cuir
Guer
Kira
Oslo
Pala
Pius
Wars
cail
fuar
fèis
name
slig
with
##kólinn
##quilla
Chùil
Copen
Curie
Iùgos
Power
Sheas
ceist
choil
doras
fiadh
geama
leath
mhian
rubha
##Leabhar
##annachd
##bhaladh
##dairean
##rigeadh
Bràigh
Franco
Gordon
Puerto
Watson
balach
##òstanach
Bealach
Council
Regione
Sabhail
Shlèite
againne
aistean
aodaich
bathair
ceàrnan
tinneas
##nsylvania
Helsinki
Statoids
Zaragoza
crìonadh
geoimeat
Fhraingis
Iaineatan
ballrachd
bhailtean
riatanach
seachdamh
sàbhailte
thuigsinn
àitheanta
##Leabharlann
##oirbheartan
Copenhagen
càraideach
dealachadh
cùrsaichean
parraistean
Deamocratach
gnìomhachasan
##hl
##rh
##ár
##ùr
−
##gat
##gur
##tor
##una
##via
##vig
##vir
##ynd
##éid
##éir
Sé
US
Zo
mò
##abal
##adha
##annd
##bhag
##guez
##icut
##ines
##repc
##riel
##thor
Alt
Ana
Arg
Cip
Crì
Dún
Fio
Fra
Kil
Mol
Por
Spè
Til
Tin
brù
mhì
uam
##ansas
##ction
##tario
##ìrinn
##òisir
1820
1825
1846
1941
Band
Blan
Cros
Gabh
HuMP
Main
Mhil
Palm
Path
Rodr
Sand
Star
Tars
Tìre
Uamh
fhir
gann
geam
iomr
sheò
urra
Íoch
Òban
##eumais
##ideach
##iostal
##zogtum
Ailig
Aoidh
Chrom
MacPh
Naofa
Reich
Rione
Ruigh
Ruise
Tìlis
foirm
puirt
ùrlar
##eartach
August
Beatha
Bremen
Chainn
Crìosd
Càisge
Erfurt
Faodar
MacMha
Norman
Pierre
Poetry
bhuail
chlann
Bearaig
Cronáin
Domingo
Haswell
Jacques
Murchan
Ontario
Slòbhac
fhàsach
Berkeley
Centraal
Fhirenze
Reamhair
Rionegro
Sheumais
Williams
baistidh
ghabhadh
thidsear
Cartagena
chantainn
cheangail
craiceann
troighean
Statistiek
anabarrach
bhrosnaich
chleachdar
toisichidh
Cruithneach
Département
litreachais
Mhecklenburg
Phrionnsalachd
##IT
##ôn
##öm
##ön
##īs
İ
##Fac
##asc
##bes
##els
##gre
##jam
##sto
##yer
##éon
89
BP
Sz
Vé
##ería
##esia
##ippe
##isle
##mium
##ìoba
108
177
213
Cùl
Dhe
Eug
Iul
Kam
Law
Nel
Not
Nür
Ran
Reu
Sud
Tùr
cla
cus
phl
teò
##achas
##aneta
##eadan
##idire
##ister
##nando
##riano
##thain
##ìomha
##íguez
1173
1707
1792
1809
1812
1819
1826
1842
Boch
Eilg
Faic
Grea
Magh
Math
Mìle
Phad
Pràg
Rhod
Russ
Scha
Skye
Song
Sèir
Thig
cabh
comm
gàrr
land
sail
salm
sior
toir
uisg
##dalena
##eactar
##ibhinn
##òrdain
Chabh
Diego
Maigh
Martí
Uillt
argam
bhlàr
caith
chòig
dragh
galar
ràith
sreap
##idencia
##ileagan
##lachadh
##olution
##èanaidh
Chnòid
German
Heidel
Murcia
Màthar
Nàsach
Prince
Stiùir
Sultan
artaig
dhroch
dreach
eucoir
filean
instit
mhiosa
nàdarr
Ìosail
##adairean
##aicheadh
##airbeart
##eatagach
##ideanach
##teachais
##ìosachan
Carrann
Helsing
Menntas
Mhonadh
Shabaid
armailt
bhòtadh
dìreadh
measail
sgeulan
uighean
ìobairt
##onaidhean
Greugach
Mhìcheil
Muileann
Politics
Urdaneta
colaiste
comharra
craoibhe
deichead
deidhinn
leathann
milleadh
Editorial
Mheàrnaig
Rodríguez
leasachan
samhraidh
thoiseach
##repcultural
Britannica
Government
Heidelberg
cumhachdan
Fhaoilleach
Fuadaichean
cumhachdach
chaidreachais
cuairteachadh
Aimeireaganach
##NA
##gg
##gi
##my
##si
##ím
Č
##901
##bat
##bot
##bre
##cle
##del
##ets
##eva
##iul
##nez
##omi
##uid
##ynt
Fa
ra
rì
##aird
##beck
##idae
##jara
##lamh
##naig
##nect
##onte
##orca
##ovie
##reag
##teil
##uist
133
Bil
Blo
Cle
God
Hit
Lly
McC
Môn
Ott
Sat
Vil
dea
mas
##berto
##craig
##essen
##estra
##iotas
##liuch
##saidh
##sgadh
##villa
1790
1802
Ainm
Bang
Björ
Cait
Damh
Fram
Jena
Luim
Mhor
Peak
Pont
Sile
Teic
aidh
casg
diùc
dèan
ruig
sgia
shru
èisg
Bhiet
Bonif
Civil
Linie
Locha
MacFh
Rèile
Worms
crodh
cuimh
cèile
dìona
luing
rèabh
stèis
sìthe
##eartais
##igheach
##rasaidh
##àrdainn
##úntacht
Alfred
Barran
MacIll
Museum
Sliabh
Tolima
Verlag
Victor
Warsza
bhreac
chroit
chùram
giotàr
ionann
shìnte
tomhas
##eachdain
##innesota
##isneachd
##laidhean
##nachainn
##naltradh
Chomann
Gabriel
Ghluais
Hendrik
Mullach
Sìonais
Taghadh
chraobh
chumadh
dhearbh
easpaig
eatarra
àrsaidh
##aitligich
Academia
Cipriano
Murchadh
Nollaige
Nürnberg
Urramach
Victoria
annasach
chuireas
marbhadh
##aireannach
##àrtaidhean
Dhiùcachd
Gearasdan
Ghreugais
Saidheans
choinnich
gaisgeach
gnothaich
phrionnsa
strìopach
Breatainne
ionnanachd
leathainne
theangaich
feallsanach
follaiseach
litreachadh
tòiseachaidh
Menntaskólinn
feallsanaiche
Ameireaganaich
##ci
##ee
##ack
##bec
##con
##esk
##kek
##lia
##low
##see
##ulu
##ław
79
Dy
Mà
Wy
up
Éd
òl
##bell
##eder
##ento
##ides
##ikon
##iort
##olar
##rium
##siss
119
121
129
Cow
Eli
Gao
Hav
Nev
Ork
Sor
XII
bom
lùb
màl
per
res
reò
rìr
sur
Ùis
##burrá
##count
##enmes
##enzie
##ileam
##illan
##stock
##thail
##utair
1853
1896
Jaén
Kant
Mein
Muis
Pent
Plat
Saal
Tole
bhro
binn
feòl
iadh
mhor
thrì
##aigear
##easach
##iogaid
##lainne
##mstadt
##nadach
##ridean
Allan
Astur
Bhern
Bhict
Chris
First
Lewis
Sudan
Sèirb
bheul
bàird
caoin
casan
fhuar
sheòl
thilg
thòis
##alajara
##chasach
##daichte
##eampall
##mhaiche
871901
Aburrá
Advent
Assynt
Bruach
Creige
Cuaich
Europe
Ghorta
Ghrèig
Newton
Nìgeir
dhearg
dùinte
fhadal
mhaoin
sgèile
teacsa
##illeachd
##naichean
Cantone
Dùthcha
Foirthe
Iasgair
aonadan
chultar
fuadain
nàmhaid
##ghdachadh
##mraichean
Gabhaidh
Leigheas
Rannaibh
Rìghrean
Valencia
chlachan
fhoghlam
Placenmes
cultarach
eileanach
tràillean
Aimeireaga
Cheilteach
Geschichte
Logarbaidh
barúntacht
cluinntinn
eaconomach
gheamhradh
sheachnadh
stèiseanan
Íochtarach
Charaibeach
Statistical
Bhreatannach
riochdairean
Leabhraichean
Banrepcultural
chomharrachadh
##AF
##St
á
π
##625
##aia
##aip
##dez
##dre
##elf
##fro
##kar
##kie
##olk
##roc
##sók
##vat
##úbl
Az
Cò
Ll
Lá
Mi
##cess
##dain
##dela
##earr
##eirg
##iast
##iber
##igse
##mais
##then
##ulle
##wall
004
113
210
235
240
Anc
Aos
DAU
Dag
Eir
Fro
Fàr
Hog
Kap
Lad
Lea
Lex
Pad
Slà
Zam
hel
mod
srà
sòn
àrc
##airbh
##bhais
##dháil
##eanta
##earch
##ghead
##ierra
##iogar
##linie
##opher
##right
##taire
##toria
##ument
1778
1817
1824
1828
1851
1893
Bhrà
Chat
Cruz
Cùba
Elbe
Garr
Lund
Mala
Mona
Road
achd
bann
cuan
dama
fiar
gior
haid
html
null
tìde
##bagger
##ghaill
##latais
About
Banca
Beann
Caitl
Chath
Chiar
Guide
Isaac
Reyes
Stone
Swiss
Texas
Ville
campa
cùram
nàimh
pharr
sheat
shine
àrach
##Faclair
##atharra
##ionnach
##oirmisg
936625
Chlach
Easpag
Hitler
Nassau
Orkney
Ronald
Samuel
Sublev
Sàmais
bloigh
chàird
dìleas
ghràin
ionmha
mheasg
teanga
treubh
Archive
Bhraoin
Chrìosd
Hermann
Irbhinn
Ottoman
Pinilla
torrach
Arabaich
Ceiltich
Chomainn
Deutsche
Editions
Feumaidh
François
Seileach
caoraich
còmhnard
diùcachd
feamainn
fearrann
fhulaing
gabhaidh
làitheil
stàilinn
tùsanach
##inistearan
Cluanaidh
Comhdháil
Luftlinie
fhuireach
poileagan
raointean
teicheadh
Chnòideirt
Peakbagger
Uachtarach
cànanachas
iongantach
mhaighstir
obrachaidh
phàigheadh
##eamocrasaidh
Caitliceach
Chuiltheann
Guadalajara
Riaghlatais
Sublevación
fhadalaiche
fiosaigiche
ìomhaighean
Pennsylvania
bhuannachadh
thàthaidhean
riaghailteach
MacGilleEathain
innleadaireachd
##AT
##ky
##ms
|
⁊
##182
##com
##cre
##its
##ori
##ulf
##wen
##áth
##ürs
Eg
Hó
Kn
MA
NN
dé
pò
sc
##Gael
##adel
##adem
##anas
##atre
##bane
##dhal
##eron
##gaid
##ghad
##ideo
##ider
##ippi
##iter
##uill
##zazu
225
Aar
Bib
Bot
Cos
Dam
Gob
Hay
Hod
Hus
Ian
Kin
Lyn
Ren
Six
Vor
dhè
eus
grè
not
ort
sus
top
was
##apest
##cachd
##essee
##ibhia
##naigh
##tatis
##umach
##werin
##öping
1789
Burn
Cape
Gram
Gren
Hild
Iorà
Raon
Reuß
Urch
Wolf
chos
dhùn
dona
geur
mhol
sing
toll
uamh
##ealain
##idheon
##intean
##ürsten
Bheas
Chean
Comun
Eindh
Guard
Liber
Mòire
Their
Vélez
Walla
bocsa
faoin
fhuad
ghoid
goilf
meall
shìos
stail
tairg
teicn
theas
theus
##mhlachd
Aachen
Anndra
España
Girona
Innise
Little
Lorgar
Ludwig
Magnus
Muisca
Narann
Nicola
Office
Walker
abairt
aotrom
briste
cìsean
dhàimh
ghnàth
trèana
Comhann
Connect
Framsók
General
Mhilano
Nollaig
Rangers
Rosario
Western
comainn
cunnart
deònach
fhaclan
fhàgadh
ficsean
spreadh
Bhìoball
Constant
Destatis
Fernando
Gaillimh
Margaret
chruaidh
treubhan
trèanadh
Buidheann
Chaimbeul
Chàrdainn
Comannach
Fhearainn
Tennessee
aonachadh
chearcall
comannach
dealbhadh
deasaiche
goireasan
shoilleir
Bàideanach
Cheannaich
Ghearasdan
Liotuànais
MacNeacail
bhuidhnean
craoladair
cànanaiche
phròiseact
sheòrsachd
teicneòlas
Christopher
Mecklenburg
choitcheann
cleachdaidh
deasachaidh
mhanaidsear
planaichean
##inistrealachd
Toirbheartan
ghnìomhachas
poileatagach
sgiobaichean
làimhseachadh
##Km
##af
##ev
##ii
##zi
##184
##727
##det
##dol
##for
##ibo
##jór
##pes
##uti
##ðið
Bù
Hy
XV
kg
pa
##amal
##bury
##ches
##cuta
##edin
##inus
##ival
##laic
##lenc
##ocia
##okyo
##side
##skie
##unta
##vers
137
141
167
230
Ata
Dhà
Diù
Edu
Fam
Kem
Kit
Lee
Lia
Nie
Pòl
Seg
Ton
Trì
Wha
bus
dra
mao
sho
##18476
##72773
##ainia
##ceres
##elius
##ident
##mouth
##nario
##neiss
##othan
##shron
1800
1873
Bail
Coin
Cong
Cuil
Fred
Hous
Lake
Mund
Quin
aran
cham
fair
fran
have
##Sabhal
##aitist
##èilidh
Bhall
Chiad
Clais
Craig
Ernst
Fidel
Found
Hansa
Inver
Meadh
Saale
Sgrìo
Stadt
Thoir
adhbh
bainn
blàth
cairt
chosg
feòil
gràin
matha
mhùth
paidh
sgeir
thoir
tunna
uaigh
##arraich
##ingston
##mingham
Chanar
Coburg
Eòlais
Ghaidh
Gustaf
Nuaidh
Theich
fhrith
fliuch
ghrian
histor
làmhan
màthar
sealbh
siùcar
toradh
èiginn
##Coinnich
##anachdan
##antanach
##eanadair
##sissippi
Aoisean
Aosmhor
Carraig
Clemens
Eoghain
Greatna
Jackson
Phadova
Sachsen
Wallace
aonaich
coltais
cùlaibh
luaidhe
neònach
prìosan
pòsaidh
Ùisdean
97818476
Aranzazu
Ceannard
Ghearran
Leathann
Làithean
Lùchairt
duaisean
fosgladh
pailteas
shruthas
Chaisteal
Cheartais
Chàrnaich
Lochlainn
Minnesota
ainmneach
bàsachadh
drèanaidh
nàdarrach
rèisimeid
teòthachd
Manchester
Ughdarrais
cheannachd
sheirbheis
shòisealta
Chrìosdaidh
baranachdan
còmhdaichte
mhìneachadh
seasmhaiche
caractarachd
sheinneadair
9781847672773
chuairteachadh
##IC
##eh
##ən
θ
##iff
##ink
##rát
##urn
##vic
##ène
##óir
##ött
CL
Eu
Jr
ST
Sy
af
ho
lo
mù
pi
po
##airc
##bana
##cium
##fort
##ghus
##head
##mark
##nitz
##orsa
##pear
##rama
##ship
##ular
##very
##ðher
Day
Dic
Gor
Guð
Haf
Kol
Làr
Our
Pos
Pot
Pra
Vik
aux
bas
bre
dam
dho
gob
leu
mnà
##anish
##ghair
##ighre
##iscon
##orado
##ström
##uirgh
##àirde
##üssel
1603
1801
1811
1827
1836
Beul
Ceòl
Chal
Clan
Crùn
Dunc
Fris
Head
Igna
List
Llor
Marx
Shal
Stal
Uile
bheo
bunt
chùm
cosg
drum
fonn
iuch
scot
Ùire
##Gaelic
##derson
##eatach
##enberg
##erness
##illeim
##illinn
##innein
##iterat
##saiche
##ðherra
##ùthain
Bauer
Bheir
Harry
Napol
Osman
Pasto
Pearu
Santo
Shiar
Uaine
aithr
beart
chorp
fhasa
oifig
puinn
spìos
teann
##eòiridh
##ðurland
##òiseact
Hessen
Kansas
Leiden
Lleras
Malaig
Morgan
Roimhe
Social
Toledo
Wiscon
chiall
chladh
dotair
faodar
fhorta
ionaid
lorgar
phuist
Éirinn
##nachaidh
##öttingen
Associa
Choille
Cleachd
Gustavo
Primary
Rostock
Stanley
Suomais
aithisg
bratach
ghiùlan
ghlinne
mholadh
niùclas
rùnaire
sgilean
ùghdair
##ionnsabal
##àrnaraigh
Budapest
Columbia
Guardian
Schwerin
Warszawa
aonadach
beathach
carbadan
chrùnadh
chuideam
chìthear
feòlmhor
fiosaigs
leasaich
muileann
sgìthidh
##rogaichean
Bhictoria
Eindhoven
Frederick
Rannsaich
Wisconsin
ailseabra
dhèidhinn
mheatailt
pàigheadh
shiubhail
speactram
stiùiridh
theagaisg
thoileach
Catalòinia
Cruithnich
Publishing
fhortanach
fhògarrach
leanmhainn
thionndadh
Ùghdarrais
Eaconomachd
Presidencia
bhòtaichean
fhicheadamh
gunnaichean
libearalach
maireannach
mionaideach
deamocratach
thòiseachadh
Ìompaireachd
Gaidhealtachd
companaidhean
crìochnachadh
fuaimneachadh
uidheamaichte
##EE
##NS
##RS
##jó
##ps
##eis
##elo
##eod
##fon
##gie
##gio
##iga
##ili
##key
##lov
##rop
##yar
##zac
Iu
Ly
Lé
es
lì
ni
pp
##ains
##beth
##char
##dafi
##enta
##guín
##ilbh
##lagh
##logy
##oden
##olly
##opol
##ætis
##èist
##ùinn
220
860
Cad
Cry
Dol
Gib
Hat
Kön
Lap
Lon
McM
Mit
Oli
Pam
Rij
Rug
Run
Sla
Vic
Wag
cnò
còc
gad
ròn
sch
sea
sim
ter
##assel
##ididh
##rddin
##uchen
##yklop
1837
1843
1856
1877
Arag
Bhig
Choc
Educ
Inde
Lord
País
Reul
aimh
bhar
bàgh
cala
feas
ghas
leat
léir
stòr
tonn
##eannan
##illidh
##ireach
##ithich
##salair
##unsail
##ætisrá
Barra
Bened
Bhlàr
Coill
Hawai
Hòigh
Hólar
Iucha
Learn
Mitch
Moire
Rouen
Study
Union
dleas
gairm
pìoba
thiom
##eagaisg
##iarmaid
##lacaidh
##lements
Bhuidh
Caesar
Calder
Chrìon
Forbes
Gheàrr
Girard
Peadar
Pruise
Strath
aontar
sgeama
Crystal
Còrdadh
Eachann
Holguín
Indiana
Iosrael
Llorona
Stephen
Theòrsa
Vallejo
buntàta
gabhadh
gabhalt
leanabh
luaithe
mhàthar
planaid
tractar
tubaist
uranium
American
Bàrdachd
Corcaigh
Strelitz
Tiomnadh
Ungairis
adhartas
bhuaithe
croitear
cràbhach
fheadhna
leigeadh
roghainn
shiostam
shlàinte
theagasg
Darmstadt
Dualchais
Fhrangach
Frangaich
bitheanta
camanachd
charactar
coinneamh
còmhdhail
còmhlanan
dheasaich
fhoirmeil
fuilteach
leughaidh
nàimhdean
siostaman
suidhiche
tagraiche
Afraganach
Coitcheann
Foundation
factaraidh
spioradail
##ætisráðherra
Chleachdadh
Danmhairgis
Rannsachadh
Universidad
ailtireachd
aithnichear
chruinneach
dealbhadair
geoimeatras
phrìosanach
Èireannaich
##eachdaireachd
sgoilearachd
stéidheachadh
Ghearmailteach
cluicheadairean
rannsachaidhean
##26
##DA
##kr
##ng
##wr
##äp
##204
##cho
##dle
##eig
##ele
##jan
##lay
##lec
##pal
##raí
##ree
##uda
##uil
##vle
##wal
##yan
AC
CB
CD
Gä
Mé
Ní
Sù
Tì
ap
au
gè
iù
pe
##aima
##aiti
##elle
##erfy
##ezia
##gram
##isto
##kirk
##nara
##oint
##olla
##omen
##rona
##ucky
##ving
##wish
##work
148
149
350
58°
900
Abu
Ash
Esk
Gol
Jam
Kle
Kno
Kon
Kur
Lob
Mir
Pow
Syd
Tao
Zoé
mic
shù
tig
tri
##ainte
##arejo
##beath
##dinho
##dolid
##enzol
##farro
##gnadh
##haras
##hemia
##ichin
##ifeas
##ities
##laman
##nance
##oithe
##otair
##souri
##uador
##utzen
##äpfer
1000
1500
1700
1822
Caro
Chel
Chop
Clar
Cons
Dàin
Euro
Fors
Kenn
Less
Lìte
MacR
Over
Seir
Siad
Skek
Tuil
Uíbh
bhad
bhra
ceil
coil
càch
cùis
dìth
fhìn
foir
phar
righ
stoc
taca
thri
##ailium
##asachd
##ghlais
##itiche
##lèibhe
##tamach
##ìobair
88182
Aisia
Choim
Chuid
Cúige
Fiold
Garbh
Haiti
Ioràc
Simon
Stran
Valla
bòidh
chead
cuide
fèidh
grèim
liath
phìos
sgead
slabh
smùid
Ìochd
##bhairne
##inneadh
##làthain
##ography
##oisgeul
##righinn
##riogair
##ualchas
##umarejo
##ventura
Garadh
Herald
Invias
Mhuile
Philip
Quatre
Région
achadh
bainne
caolas
cileam
coirce
fulang
oighre
phòsta
reusan
sianar
àitean
##ionalenc
Bernard
Chaolas
Cáceres
Eideann
Gaddafi
Langues
Mandela
Meallan
München
Nafarro
Spanish
Theodor
Tiriodh
cnàmhan
cuiridh
nochdas
reultan
sliochd
spiorad
tairgse
thuatha
Éideann
##erfyrddin
##ionnsgail
##yklopedin
##ùraichean
Canàrach
Chomuinn
Colorado
Cùmhnant
Dualchas
Eacuador
Eòrpaich
Feachdan
Griogair
Hohenzol
Kentucky
MacAoidh
Mhuilinn
Napoléon
Philadel
Raghnall
Saalfeld
Scotsman
Sheabhal
Voltaire
Würzburg
cantainn
chothrom
càirdeil
fileanta
inbheach
moileciu
puingean
seirbhis
theusais
##adaireachd
Chonnacht
Inverness
MacDonald
Rapunsail
Schläpfer
Seapanais
bhriseadh
chaisteil
chomharra
chunntais
deicheamh
duilghead
gnìomhair
lantanach
obrachail
pharraist
suaichean
tursachan
Chòmhdhail
Iùgoslaibh
Mhaighstir
Ronaldinho
Valladolid
cheimigear
dhealbhadh
dheasaiche
manachainn
shoirbhich
sloinneadh
Association
choileanadh
fharpaisean
fireannaich
fuadaichean
leasachaidhean
##CL
##Mh
##SP
##bé
##ls
##ná
##tí
##ŵr
>
Ú
##dom
##edo
##ely
##ián
##mat
##nac
##oga
##osh
##ove
##rie
##skó
6°
Gü
MG
Ou
PS
Us
ic
ka
sk
Ál
##3204
##aite
##anne
##bair
##bant
##bium
##buig
##cast
##hind
##iùrs
##lana
##lern
##obre
##pson
##stàn
##tadt
##tawe
##uirg
127
158
208
Act
Bac
Càr
Dev
Dir
Ell
Fho
Hop
Ing
Iol
Jar
Lis
Maj
Muc
Már
PhD
Pie
Pit
Pàp
Ron
Sen
Sus
Web
ama
bal
gov
mad
nat
pas
pur
ull
vol
##Irish
##brück
##dachd
##dsidh
##ement
##eople
##erman
##iones
##ireil
##nsson
##oidte
##shill
##stair
##tsson
1776
1799
Buen
Card
Chro
Chry
Eusk
Gair
Gron
Gwyn
Iomp
Lach
Meek
NicA
Pais
Rosa
Salv
Sigu
Stad
That
Thur
Thír
Torr
Wood
cion
fìon
ghle
news
pres
sùla
that
èist
##aibhse
##aillte
##aimbic
##isches
##lamhan
##ologna
##ustice
##ública
Award
Blair
Bruce
Canal
Edwin
Ewing
Glynd
Hesse
Odhar
Seana
Store
Sudàn
banca
bhàta
colbh
dhonn
ghlac
names
phìob
sgrio
shamh
slige
theac
tomad
tùsan
Álvar
##eamhach
##iscover
Adhair
Albais
Anders
Benfro
Chatal
Dhiùlt
Düssel
Ghairm
Gobhar
Gustav
Hawaii
Howard
Indias
Lleida
Láirge
Nevada
Obando
Pàirce
Teruel
aimhre
caraid
dheagh
dìleab
fhiodh
fhiolm
miotas
rannan
sheall
thearc
tobhta
troimh
ùrlair
##sinneach
Account
Baltach
Dùghlas
Gnìomha
Granada
Gwynedd
Ignacio
Thoirbh
Thugadh
Tilburg
ailtire
amharas
bhuidhe
canaidh
ceàrnag
cofaidh
cromadh
cruthan
cuirear
glacadh
iadhtag
leagail
roinnte
salainn
shuidhe
teagamh
##antanachd
##bhachaidh
Abertawe
Annuaire
Castelló
Chathair
Chonaill
Chòrdadh
European
Ionadail
Mhünchen
Trianaid
bheactar
chuileag
dheànamh
fhaoidte
margaidh
partaidh
phòsaidh
pàganach
sneachda
thadhail
Bhlàthain
Cholaiste
Còmhdhail
Gainmhich
Herzogtum
Nàiseanan
cheannach
feadarail
iomadaidh
ogsaidean
tighearna
Dubhthaich
Philadelph
caractaran
ceadaichte
chleachdas
comharradh
càraichean
fhlaitheas
mionaidean
ùghdarrais
Mississippi
Siorrachdan
chleasaiche
cumhachdail
drochaidean
ghlèidheadh
saidheansan
Iùgoslaibhia
beachdachadh
chrìochnaich
dhùthchannan
domhainneachd
fheallsanachd
strìopaichean
thriantanachd
##En
##UC
##ði
Š
##ATO
##The
##alp
##cin
##erd
##eto
##haw
##ils
##mas
##osc
##uña
##wan
##òbh
By
Dl
IX
Kl
Ty
ve
òs
##acio
##bast
##ctor
##eano
##eaux
##eict
##hart
##inea
##neth
##otas
##ovar
##ovia
##ppel
##sein
##tana
##tica
##tter
##vila
086
138
227
Aba
Chú
Dón
Esc
Fea
McK
Nid
Ore
Out
Poz
Prù
Sho
Spe
Sun
Sàr
São
Tod
Uru
Way
aim
amh
clì
eir
mon
new
och
red
ròc
sgà
Ùig
##arral
##astàn
##bhidh
##ealla
##ealog
##ental
##ieval
##iston
##okrát
##ories
##peare
##richt
##ublic
##unity
1775
1793
1804
Anth
Aont
Atha
Bart
Beck
Bein
Buch
Bush
Cabh
Coat
Deir
Film
Finn
Flav
Hamp
Hann
Laus
Life
Llan
Lugo
Mean
Ming
NATO
Nich
Roll
Tans
Trin
Watt
Zola
bhòt
cais
comp
diog
fram
punc
sglè
thur
##bhachd
##eactan
##eagain
##earach
##ission
##ladain
##lanach
##mhaigh
##stable
##taiche
##vigado
Arist
Bhonn
Chuim
Conch
Fhuar
Garth
Glenn
Grand
Hills
Krist
Libre
Marta
Party
Reser
Riata
Rudol
Seach
Simón
amail
brath
buain
catal
cnuic
comar
crois
cuirm
cùirt
cùise
gaoil
geàrr
sheil
sèimh
##aineach
##aisbean
##instein
##èireach
Behind
Cowden
Cúcuta
Felipe
Frauen
Gòrdan
Lesser
Mehmed
Mhacha
Mhaigh
Muckle
Napoli
Review
Ruisis
Sgaoil
Shakes
Sigmar
Uarach
bùthan
carbon
ceudan
cùirte
dorcha
earran
fhearr
helium
leagha
thuair
tuigse
Àrainn
##innteach
##ionghain
##neachail
##unlèibhe
##òsaimbic
Bhuidhe
Bithear
Canaidh
Charlot
Eilginn
Slàinte
Tannara
asgaidh
ballach
bhroinn
blàithe
broinne
chruinn
dhoirbh
euslain
fheachd
fiaradh
innlich
ruigear
shagart
##artachadh
##thachaidh
##òrsachadh
Campbell
Chataibh
Envigado
Greumach
Missouri
Nafarroa
Northern
actanach
ainneamh
cheithir
chùlaibh
coireach
faighear
fhireann
iarrainn
prionnsa
sheanair
stàitire
Chaladain
Cholumbia
Cuimreach
Dhualchas
Meiningen
República
Statistik
bochdainn
chòmhlain
dhealaich
institiud
sgriosadh
thilleadh
uaireigin
èigheachd
Chaibineit
Pròstanach
Sòisealach
conaltradh
còraichean
eaconamach
ghaisgeach
oifigearan
seòrsaiche
sìthichean
sòisealach
thachartas
uisgeachan
Caidreachas
Connecticut
Cowdenbeath
Nationalenc
Shakespeare
bheairteach
dualchainnt
dualchasach
iomraiteach
litreachail
seataichean
siorrachdan
##aitistearachd
Hohenzollern
Nàiseantaich
Philadelphia
bhoireannach
dheireannach
sgiobaidhean
Chairibianach
bheathaichean
obrachaidhean
##AR
##MS
##iè
##ji
##zy
##éd
##ìa
ó
##ava
##ayo
##dia
##duc
##itu
##lif
##lle
##oco
##uim
##uit
##xel
##óra
Av
BA
Ey
FI
Mü
Om
Um
Yo
er
fò
##Gill
##acha
##acle
##aice
##bank
##bole
##cail
##clem
##into
##iomh
##ithr
##iuil
##kien
##laga
##oine
##onto
##oris
##rais
##rìgh
161
169
171
374
Aur
But
Doc
Fhe
Fun
Fàs
Ins
Let
Län
Màm
Nou
Ort
Phò
Rox
Sac
Seò
Toc
You
dòr
gen
lan
map
pat
str
Òrd
##ainìa
##eille
##ighth
##imium
##inidh
##ipeir
##recht
##tanum
##èiria
1689
1780
1788
1796
1805
Boff
Boil
Conn
Dear
Fhìo
Gail
Gait
Gand
Ghar
Holy
Kiel
Leon
Màil
NNDB
Pass
Rand
Shot
Sker
Toba
Vinc
ghrà
ghrù
glan
lèin
moch
mura
nuas
opra
phob
phro
tilg
uinn
umha
òsda
##asaidh
##eamach
##eamaid
##ichael
##itatus
##leachd
##leanan
Atlan
Balla
Basel
Bheul
Buill
Catha
Ceath
Cenus
Chnoc
Chunn
Cùirt
Ioràn
Jones
Kappa
Mhoir
Niger
Plana
Rioja
Saoil
Scien
Sgurr
Spior
Steaf
Treas
dhual
dorch
fhast
mamal
monar
spaid
urras
Ávila
Òraid
ìrean
##ealaidh
##innsean
##iostaim
##isgeigh
##lairean
##lichean
##okrátīs
##àirtidh
##òintich
Aberde
Arauca
Calvin
Cànain
Duncan
Ghrian
Hunter
Ioslam
Kassel
Köppen
Napier
Runrig
Stalin
Turkey
carbad
dràsda
eileag
fiosag
ghaoth
gneiss
shreap
sràide
##ailteach
##cionario
##clemente
##eamannan
##idsearan
##illteach
##therford
Ancient
Bohemia
Nighean
Rathais
Saimbia
Sevilla
Tolkien
aidheon
bainnse
chìsean
fuirich
samhail
sireadh
teòirim
thalamh
tràithe
Èideard
èibhinn
##eamocrach
Bheagain
Carolina
Eadailte
Ionmhais
Leonardo
Ordnance
Pumarejo
Republic
argamaid
choltach
muillean
phiuthar
BeagFeuch
Bhruiseal
Chorcaigh
Coineagan
Comitatus
Dhùghlais
Phàirtidh
Tairbeart
buaidhean
chraoladh
ghearradh
seachdnar
sgrùdaidh
thaighean
tractaran
Düsseldorf
Riaghlaidh
Uachdarach
briathrach
cumaidhean
làraichean
toraidhean
Aibhnichean
LearnGaelic
MacMhathain
Mhanachainn
bhràithrean
dùthchasach
eugsamhaile
pròiseactan
pàrtaidhean
tuathanasan
Chruthachadh
comhairliche
phoileataigs
riaghaltasan
seòmraichean
Briathrachais
comharraichte
poileasaidhean
##AN
##ER
##là
##lé
##mb
##ÀR
##ər
##ος
##Ria
##amb
##bey
##blo
##bru
##cie
##eol
##fur
##lis
##mus
##oft
##oro
##tic
##uly
##ysk
Cf
Hä
Og
Ow
fi
##Gall
##Iain
##Stòr
##ages
##ball
##bian
##book
##cete
##csam
##elly
##enny
##esca
##harc
##haus
##holm
##iada
##iels
##ilio
##illt
##kman
##lane
##lava
##liga
##mara
##neas
##nsey
##ogne
##oith
##olin
##omer
##onas
##orum
##ptem
##quir
##rhyn
##rika
##ruag
##sant
##wich
##ìche
243
253
280
Ala
Bhà
Dub
Fin
Hib
Joa
Ler
Mic
Pun
Sap
Sri
Tem
Tib
Tie
agh
alo
bhe
dlu
dru
eic
ith
mhi
mis
muc
mór
slu
uil
##andel
##annsa
##caich
##durra
##eolas
##erner
##haven
##iatha
##igion
##ilidh
##iseim
##publi
##reich
##stain
##suana
##ungen
1701
1760
1774
1838
Aith
Alac
Barb
Boyd
Bres
Cord
Dick
Fest
Flau
Form
Fras
Garc
Gera
Herm
Inch
Line
Làth
Nair
Ober
Phar
Rica
Sail
Sala
Stob
Tele
Tour
Trip
XIII
alba
bhal
còrd
dhio
iùil
mail
phàr
raid
tana
uchd
ùire
##achdan
##asgadh
##athadh
##eataic
##omhair
##ommern
##orainn
##skrona
##òraidh
Caill
Campo
Cymru
Duibh
Eighe
Elías
Esper
Feuch
Huila
Lille
Lippe
Metro
Munro
Mòine
Nèill
Songs
crith
dhùth
ghlas
milis
place
seadh
sgior
simpl
slaod
tàlan
##asglann
##eatrail
##ghausen
##iktsson
##inneimh
##ranachd
##rothaig
##ràbhach
Ailein
Appenz
Beauly
Benjam
Bhanbh
Bidean
Bissau
Ceinia
Dessau
Fergus
Feumar
Guinea
Hebrid
Lincol
Liosta
Miller
Sebast
Shotts
Thuill
Tobago
Vargas
bhlàir
carson
comhla
faisge
fiodha
ghaoil
mailis
snaidh
tugadh
##aidheimh
##athairne
##lamhachd
##ological
##santachd
Alacant
Brabant
Chanadh
Fürsten
Glyndŵr
Iuchair
Márquez
Russell
Seanadh
Svenska
Tràghad
Tulaich
Wigtown
acadaim
bhalach
bodhaig
ceartas
feurach
fhulang
fhàsadh
leughte
mathaid
phoilit
sgapadh
tagradh
tidsear
Àrsaidh
##eatairean
##ighearnas
Bhaltach
Churches
Creagach
Cruachan
Flaubert
Minginis
NicLeòid
Research
Salvador
Sokrátīs
Steafain
Theirear
bhòtaidh
buileach
chladach
chuirear
craoladh
criogaid
còmhradh
cùmhnant
dhealain
ghiùlain
iongnadh
lèirsinn
seòrsach
singilte
siostaim
tuigsinn
##Riaghaltas
Bhrothaig
Charlotte
Eastòinia
Magdeburg
Mheagsago
MhicLeòid
Mòinteach
bhuidhinn
bunaichte
casaidean
cholaiste
cuairtean
iomchaidh
mhiannach
nochdaidh
phoblachd
tràighean
ullachadh
##aigearraidh
Coatbridge
Norðurland
chreidsinn
cunnartach
fàsaichean
sinnsearan
uachdarain
Ìochdarach
Chatalòinia
Diccionario
Gaidhealach
Helsingborg
MacGriogair
Sanclemente
chuspairean
eaconamaidh
meatailtean
neartachadh
nàiseantach
poileasaidh
seirbhisean
shealltainn
taisgealadh
deuchainnean
dleastanasan
foillsichear
Peathraichean
dealbhachaidh
stèidhicheadh
tràillealachd
##29
##CD
##II
##fs
##ær
##ów
##ög
##ük
ð
Ł
م
##any
##aya
##bil
##diz
##eab
##eds
##fir
##ily
##iro
##jer
##joz
##mos
##mpo
##ose
##pos
##saa
##tie
##tym
##ugo
##uis
##ðar
##ùna
Et
MV
Od
PC
SA
UK
lè
Ém
##agas
##aime
##anni
##babu
##buch
##eira
##fair
##gain
##ghla
##holt
##icle
##iner
##laus
##ledo
##nait
##onim
##pold
##rana
##reac
##rech
##áskó
##òirn
111
131
203
209
249
360
Add
Bul
Cfb
Cir
EIS
Fiù
Hig
His
Ier
Jak
Ker
Lie
Mul
Nin
One
Ori
Pet
Ucr
Vie
bio
fin
för
ind
lom
nua
rap
thù
who
##aimhe
##asdal
##ather
##bourg
##fters
##irect
##iseag
##istol
##itage
##leith
##mhann
##ocent
##praid
##sburg
##skill
##àinis
##àradh
##àrnag
1680
1688
1787
1844
Aora
Ariz
Bada
Bhol
Brun
Buga
Buir
Béal
CBDA
CLÀR
Cour
Dìon
Eise
Halm
Hugh
Innl
Joan
Khar
Komi
Leum
Lind
MacB
Moor
Naim
Sard
Schu
Shaw
Skál
Toro
Trad
Tòrr
UNIC
Wick
Yell
coin
fean
fìdh
ghnà
gràn
mile
shin
ìomp
##amanga
##bhaigh
##bladet
##innear
##mhaidh
##odhail
##ragona
##troduc
##untàta
Barba
Barre
Bello
Bhris
Bhàrd
Bhìob
Björt
Claud
Colum
Cádiz
Deòir
Diadh
Frysk
Gaidh
Geàrr
Hotel
Luail
Oscar
Peach
Porto
Saidh
Seine
Sgalp
Tener
Tokyo
Women
beirm
bhite
bogha
chion
coimh
deala
elect
fhair
fhors
fànas
gorma
inter
nGall
phlan
roman
sagar
sgàil
sinns
svens
thagh
uamha
ubhal
ìochd
##baidean
##luasaid
##otasium
##seanach
Bhuail
Biblio
Borgar
Centre
Cluain
Conser
Crìost
Dhuibh
Econom
Gaulle
Geiger
Ghearm
Gibson
Harold
Jewish
Kölsch
Modern
Oregon
Ridire
Sloibh
Sluagh
Soills
Valley
Wishaw
aidheo
aobhar
aonach
bhuain
bhuapa
bhàird
canadh
chùrsa
domhan
eiseim
fairge
fàilte
fàinne
luaths
mhèinn
mìrean
stailc
àiream
Almería
Badajoz
Bautzen
Bhoston
Cameron
Canaigh
Chrìost
Dónaill
Hallaig
Houston
Joaquín
Leopold
Literat
Machair
Oirthir
Ostaire
Penrhyn
Pàipear
Uachdar
Westpha
diathan
duilich
ealaine
feasgar
fhoghar
iuchair
mheanbh
mhìrean
rèitich
siùcair
truaill
##caramanga
##formation
##ladairean
Albacete
Asturias
Augustus
Crofters
Guernsey
Kingston
Laighean
Machrach
Mallorca
Monreith
Naimibia
Rannsach
Tenerife
bheilear
creutair
càirdean
fhaclair
fheumadh
fhianais
historia
leabhran
phoblach
sgiathan
thigeadh
Ìompaire
##eamaichean
Boilibhia
Bonifacio
Constable
Dòmhnaill
Fionnlagh
Ghaillimh
Mòsaimbic
Reykjavik
Sgalpaigh
Tansainìa
Tarragona
Theagaisg
caraidean
connspaid
luachmhor
mheadhain
niùclasan
sgaoilidh
thiomsach
##lèanaichean
Historical
Manachainn
Sgrìobhadh
deachdaire
fheadarail
meudachadh
shàbhaladh
tuathanach
Chlaidheimh
Dheamocrach
Laidinneach
Sigmaringen
dhealachadh
ghnèitheach
bhuileachadh
##DR
##òc
##úa
„
##alo
##aoh
##bók
##eln
##eti
##fal
##igi
##ioc
##isi
##izk
##kat
##lex
##mal
##owa
##phy
##rae
##rip
##uin
##vas
##àra
##ürk
AB
AD
Bó
Cy
Ná
Pg
fè
ti
Àc
##NSEE
##adas
##chel
##erra
##gren
##idem
##ific
##iten
##kota
##leat
##liam
##nock
##tate
##tero
##thad
##tinn
##xico
##Ìosa
219
236
237
239
242
257
305
ABC
Cay
Das
Dòr
Fay
Ful
Hom
Kah
Luz
Mot
Moz
Nes
Pig
Pir
Prò
Ric
Río
Stu
Tog
Vas
bhù
geò
lar
lon
med
mhò
por
reu
rin
thè
Þór
##arino
##babue
##chill
##eader
##eaman
##house
##jillo
##marck
##nares
##owice
##polis
##stail
##stean
##theid
##vanni
1750
1795
1818
1839
Alma
Asar
Best
Coil
Cona
Crìs
Dabe
Dhia
Doir
Eile
Eric
Etym
Free
Fàro
Ghot
Knap
Knox
Kurt
Luch
Mend
Oras
Ròid
Self
Shag
Staf
Tean
Town
Unst
Vera
Wall
Zuid
agad
anti
beir
bhrù
caib
clar
cron
dhia
iomp
mìor
nall
tuar
tuil
Česk
##alaidh
##bhreac
##chainn
##easaig
##easdan
##ermann
##kuchen
##lahoma
##mhachd
##oinear
##otainn
##thaidh
##traigh
##àrnadh
Abair
Chron
Dhear
Ewart
Extre
Galle
Halen
Heide
Imper
Ionns
Luain
MacBh
MhicA
Murad
Neart
Neder
NicDh
Roimh
Sandh
Tachd
Tower
ceàrr
dèana
forsa
geamh
gheal
ghuth
mòine
obann
oibre
plana
sanas
##earsden
##easbuig
##enstein
##ization
##liament
##lingean
##logical
##obhlach
Atadal
Cairib
Estate
Freumh
Grèine
Iulius
Kenned
Lucsam
Luther
Mancha
Mhaoin
Prùise
Quebec
Sasann
Schwar
Wagner
bunait
cheist
chuain
deighe
duille
fìrinn
sgrìob
staidh
tional
ùpraid
##achaille
##eachaile
##partheid
##thorwald
##uirbhidh
##volution
Aghaidh
Aonghus
Arizona
Armadal
Bìoball
Caorach
Century
Chuairt
Cumnaig
Deirdre
Earrach
Eustice
Faoghla
Henares
Hàbadan
Kenneth
Làraich
Rolling
Salaman
Salmond
Skeksis
Stranra
beartas
bruaich
ceallan
clàradh
coisrig
dhaonna
dùbhlan
earrach
giùlain
glainne
iomlaid
rabhadh
rìbhinn
seanair
##ainmheach
##ershausen
##onnchaidh
##thaichean
Aberdeen
Bismarck
Chemnitz
Chryston
Crìsdean
Crìstean
Fhaolain
Giovanni
Halmstad
Laureano
Libearal
Martínez
Mitchell
Nìgeiria
Oklahoma
Orasaigh
Pastrana
Salzburg
Slàbhach
Trujillo
ceistean
chluiche
chòrdadh
croitean
càineadh
eagalach
itealain
naoinear
parraist
potasium
sheasamh
tarruinn
thosgair
thàthadh
thìreach
urramach
òraidean
ùghdaran
ùmhlachd
Bhealaich
Morairean
Muslamach
Nirribhis
Rhodàinia
Shagsainn
Tachdaidh
Teaghlach
Tionndadh
ballachan
chladaich
colonaidh
dhiùltadh
fhaotainn
fuasgladh
mhothaich
municipio
mìorbhail
soitheach
steidhich
theòiridh
togalaich
##olasaidhean
Caitligich
Chrombaidh
Cogaidhean
Companaidh
Fürstentum
Muslamaich
Shubhairne
Topography
adhbhraich
aithrisean
bomaichean
chreideimh
dleastanas
farpaisean
fireannach
fògarraich
mothachail
speuradair
sònrachadh
Beàrnaraigh
Poblachdach
Torthorwald
chàraichean
coimpiutair
drumaichean
eachdraiche
fiosagaiche
gheamhraidh
nuadhachail
steidhichte
##ùinneadairean
Croitearachd
Johannesburg
bheothachadh
chuideachadh
cileameatair
maoineachadh
tìodhlacaidh
uachdaranach
chuimhneachan
diadhaireachd
ghnìomhachais
cruinneachaidh
##GE
##LS
##iw
##lö
##xt
##ån
##òp
##öh
##øy
þ
##764
##855
##CLC
##LBA
##ali
##ift
##iks
##ipu
##mon
##mor
##nav
##nik
##ote
##sia
##ske
##tíð
##ule
##uro
##éné
##òch
Bi
Cé
Mí
Sò
##arat
##atar
##elli
##esan
##foot
##hill
##http
##idas
##ileo
##itus
##jand
##kins
##náma
##pidh
##reig
##rida
##ryri
##test
##toum
151
157
159
228
252
256
310
486
756
Akh
Bab
Bao
Coc
DNA
Fle
Gel
Guy
Hyd
Pob
Rao
Rod
Ròn
Sax
Two
Tír
cop
dif
doi
his
ogh
shr
sio
sàl
tìm
##bhain
##biete
##eadal
##ealas
##ember
##erson
##esson
##ganda
##ibhir
##ibhle
##idinn
##igean
##ilich
##iwick
##onium
##stedt
##àisia
1640
Ango
Bach
Bard
Beal
Buck
Cais
Chrù
Davy
Edic
Grim
Hand
Hart
Hugo
Kong
Liam
Mhór
Mìch
OCLC
Pied
Poem
Ruth
Ráth
Saar
Salt
Seap
Seán
Snow
Sond
Stra
Ther
Umha
Walk
Work
Yale
anam
boma
brot
cent
cèin
duan
fhan
gall
lìog
oide
para
rabh
samp
shìo
sinc
spàs
Àtha
##dóttir
##ffield
##jörður
##madura
##ocsair
##onimia
##strong
##tamala
##vincie
Allen
Carac
Cnòid
Crois
Death
Democ
Engel
Fiona
Gävle
Heart
Inuit
Keith
Linga
Maine
Marro
Mhàrr
Moore
Pampl
Ponte
Riada
Rodin
Telev
Tooin
Uicip
Zaque
acras
bhàrr
bhùth
buinn
caidr
chàrn
chòrr
cidhe
copar
eagar
gaisg
garbh
loigh
mhios
nighe
puist
punnd
seagh
sguir
snàmh
trang
Émile
##eachain
##gebiete
##iabhras
##rikaans
##sdóttir
##taichte
Adainn
Andrés
Artair
Comáin
Càrnan
Dakota
Darwin
Dheirg
Flavia
Fraser
Geneva
Guaran
Henley
Huesca
Madadh
Mheall
Málaga
Tiempo
UNICEF
Uganda
Wilson
Zamora
aiseal
brèige
cheath
ciudad
dhaing
earbsa
giorra
stòras
teudan
tionns
trachd
Àcainn
##eathaich
##iombabue
##nicheadh
Alberto
Asainte
Camargo
Camarun
Coastal
Cànanan
Escobar
Esperan
Fhìobha
Fèisean
Gustave
Iòrdain
Johnson
Kennedy
Lincoln
MacLeod
Mhorair
Mìcheal
Segovia
Silesia
allaidh
buidhne
innlean
saillte
svenska
troimhe
##araidhean
##ithichean
##laidneach
Bearsden
Botsuana
Chambers
Chiarain
Chuidich
Chunnaic
Duaisean
Dàibhidh
Eisenach
Göteborg
Iapanais
Innocent
Khartoum
Labhdair
Skálholt
Teallach
bhuntàta
cheannas
chomainn
chomhair
gearradh
lighiche
sagartan
simplidh
sreathan
toirmisg
##eatharlach
Afrikaans
Appenzell
Armstrong
Bellshill
Blackwood
Chomraich
Cnòideart
Ghàidheil
Groningen
Mallarino
Oldenburg
Ruadhainn
Salamanca
Stranraer
adhartach
caoineadh
cheartais
deichnear
fiadhaich
freagairt
ginealach
maighstir
oifigeach
reuladair
èisteachd
Banrighinn
Lucsamburg
Stiùbhairt
cathraiche
chearcaill
chuileagan
dheuchainn
iasgairean
oghaichean
planaidean
slabhraidh
Èirisgeigh
ìobairtich
Chùithbeirt
Extremadura
MhicNeacail
Nàiseantach
campaichean
cruthaichte
eaconomachd
flùraichean
lùghdachadh
toglaichean
Àrainneachd
Mheadhanaich
chudthromach
draoidheachd
iomadachaidh
seachdainean
Sondershausen
adhbharachadh
atharraidhean
matamataigeach
tuineachaidhean
##24
##BE
##IR
##SO
##SR
##nd
##ny
##uf
##äm
##ìd
##üí
##ɔn
##152
##835
##adi
##als
##arc
##ats
##bao
##cou
##dad
##eos
##ffe
##geb
##him
##hoe
##irn
##kan
##nań
##raf
##raj
##ulo
##vik
##zes
##zio
##äni
CN
Kh
Lè
Sí
UC
ax
bb
ib
lä
wa
Án
ät
##agna
##amus
##anch
##bean
##cedo
##cole
##elur
##esis
##eòla
##hall
##icon
##imer
##inas
##ismo
##itan
##jico
##laig
##lend
##nidh
##olle
##ross
##rove
##rùis
##tafa
##teen
##vine
##wyth
##àire
##árez
##éile
202
255
289
290
315
320
335
396
440
450
650
870
Arà
Chà
Clò
Det
Div
Ebé
Eng
Eun
Fab
Hir
Led
Ley
Nad
Nim
Put
Rel
Rus
Señ
Sgr
Sia
Sie
Sìr
Ume
Una
Wik
abr
ber
cog
fas
flu
has
les
log
mol
ord
pon
pop
pri
til
vom
##agail
##again
##aghan
##aisde
##baigh
##bhlan
##chaft
##ealth
##encia
##ennan
##falen
##ffice
##incip
##isten
##istir
##quirá
##trach
##viria
1200
1715
1767
1768
1808
1823
ALBA
Amaz
Anto
Axel
Bank
Berm
Bhre
Bizk
Bord
Borr
Chlo
Crao
Folk
Geal
Good
Groß
Hech
Hibs
Home
Hond
Iber
Iowa
Kung
Lady
Mhac
Page
Reic
Renn
Sàil
Thar
Tuin
Wild
Witt
bhig
chao
chnà
coig
flat
inns
lein
libh
lion
mapa
mhàl
roth
rùsg
stam
strà
toch
##adaidh
##aigean
##ainnte
##arcach
##bergen
##danach
##ghainn
##iatach
##icheas
##ischen
##izales
##köping
##mhairc
##penden
##ppelin
Alain
Board
Canad
Ceàrn
Champ
Emine
Filip
Franz
Gille
Gobha
Grian
Horne
Human
INSEE
Isles
Kahlo
Kitty
Leath
Mhars
Màili
Owain
Parra
Payne
Queen
Rapal
Ridge
Robin
Rouss
Shaor
Strom
airde
anail
coire
cugal
dluth
dusan
lääni
solar
staid
taice
thobh
tobar
uidhe
which
Òbain
##inceton
##iobraid
##iùrsadh
##lannais
##naichte
##námabók
##onghais
##onlainn
##thadair
##èarmann
860764
903204
Akadem
Atharr
Chnuic
Chrùin
Clases
Còisir
Direct
Dorcha
Dotair
Duibhe
Dunbar
Fraing
García
Hammar
Herrán
Hodges
Impire
Köthen
Munich
Obrach
Phàirc
Queens
Saorsa
Schutz
Sheall
Smaoin
Spring
Tràigh
Ulaidh
United
Winter
bhlàth
bhochd
chaith
dhasan
dhiadh
dùnadh
fhàill
fhèill
ghruag
ghuail
ghèill
gràmar
pearsa
people
rìribh
thràth
tuairm
##astricht
##baidhean
##gaichean
##vingrove
America
Brìghde
Caswell
Ceannas
Chester
Choluim
Chruith
Dabeiba
Dheòrsa
Garthim
Gaviria
Guðmund
Hildbur
Laidinn
MacIlle
Murillo
Mustafa
Ospadal
Selfoss
Springs
Uilleim
Vermont
amhairc
bharail
carthan
chlòimh
dlùithe
ealanta
earball
framtíð
galaran
gruaige
gràmair
gàrradh
inbhich
leathad
sìtheil
uallach
##ainteachd
Bernburg
Camshron
Electric
Festival
Fhuarain
Iapanach
Kungliga
Pamplona
Roxburgh
Seanaidh
Stanford
Tarsainn
Teampall
Zeppelin
aoiseach
bhuidhne
dhìreach
eòlasach
fadalach
leasbach
mhatamat
mèinnear
phoileas
searbhag
sgeirean
shiubhal
taisbean
tèarmann
ùirsgeul
##eannachadh
Apartheid
Bailiwick
Bhonnaich
Bhreatann
Breatuinn
Comataidh
Esperanto
Ghrùthain
Hechingen
Luimneach
Mackenzie
Pròiseact
Sheffield
Turasachd
Uruguaidh
Westfalen
aidheonan
aloidhean
bheartach
choimhead
coltaiche
comataidh
cugallach
fheamainn
pheantair
poilitigs
Blaidneach
Bràithrean
Cathaireil
Constantin
MacBheatha
Mhagdalena
Parliament
Phrinceton
Rudolstadt
deasachadh
gleidheadh
glèidheadh
innlichidh
ionmhasail
meatairean
ruigheachd
seilleanan
Fhionnlaidh
Innocentius
MacPhàrlain
NicCoinnich
ballaichean
bhàtaichean
cheannsaich
cànanachais
còcaireachd
dheasachadh
dhùnaidhean
fiosaigeach
làthaireach
margaidhean
nuadhachadh
rannsachair
thionnsgail
Benediktsson
Cairibianach
Rannsachaidh
cuideachaidh
thachartasan
Coloimbianach
Schutzgebiete
cuimhneachadh
moileciuilean
Hildburghausen
phrìobhaideach
##45
##IA
##ID
##cl
##cm
##sy
##uv
##zm
##èa
##ós
##ús
##üb
##ɾa
$
ɡ
##888
##Log
##Mac
##aro
##att
##doe
##gau
##ged
##hit
##iae
##icz
##ief
##ilt
##mhí
##nia
##obe
##obi
##oer
##rus
##sex
##teo
##áez
##ård
##ódź
##ões
BC
Ic
Ku
Ky
OS
Py
RA
SN
Up
tS
Ás
##aids
##asay
##aver
##baca
##bahn
##bara
##bhis
##bhri
##bork
##cadh
##cial
##eden
##eper
##esco
##icas
##imus
##iria
##iùth
##lena
##nand
##nart
##nein
##neis
##olic
##olis
##olph
##onne
##oton
##ough
##rass
##stol
##stra
##tela
##ures
##vate
##yter
##ésar
##ìoch
218
223
224
229
233
244
265
275
291
340
370
420
Aid
Alc
Ali
Alp
Bob
Bow
Cun
Ens
Get
Glo
Goe
Hut
Ida
Jag
Lab
Mhí
Net
Now
Pag
Rav
Ray
Sem
Szc
Try
Wer
XIV
bon
còd
dao
dig
ean
fer
für
gro
met
que
reg
##agach
##almar
##amhan
##araid
##bhait
##bhana
##eadas
##enton
##etrie
##gaill
##genst
##ghall
##ghann
##iosan
##ition
##itter
##lagan
##lèibh
##olomé
##ommun
##ragan
##raham
##rhein
##rison
##ruime
##rìona
##teadh
##velop
1770
1779
1783
Atat
Bhas
Bras
Bryn
Carm
Cluj
Cole
Cook
Cors
Dhún
Drum
Erik
Farr
Gott
Gray
Gulf
Haar
Hert
Ital
Jans
Lait
Lenn
Malm
Mann
Mata
Neap
Prof
Roma
Seat
Shas
Stac
Sìde
Sìdh
Tart
Vest
Wiel
Wind
Year
asta
bhlo
bhoc
bròg
bròn
cnag
cons
càin
fhor
fhìr
kraj
labh
leus
mall
muil
nait
sgil
Àras
Łódź
##airtbh
##anance
##artach
##asgail
##bheinn
##bheise
##eirion
##enaten
##ifesto
##irtean
##isgeul
##laware
##ration
##urland
Airme
Books
Borgh
Canàl
Charr
Chast
Chomh
Colla
Conwy
Cuimh
Eryri
Estre
Eurov
Facts
Faoil
Geala
Haber
Henri
Josef
Lanca
Libor
Lucha
Mundo
Obair
Phoen
Phràg
Pròst
Rosal
Samoa
Sante
Sheal
Snowd
Trump
Welsh
Whyte
bhòrd
bràth
bùird
cadal
ceàrd
ciste
deigh
droma
ealan
every
fiach
ghorm
gille
guail
lionn
opara
orain
seata
world
Árann
##Logainm
##earcair
##eataics
##elurium
##erfield
##gabhaig
##gaidean
##ingwall
##inister
##nanaich
##richean
##romachd
##sairean
##èideadh
Alison
Aragón
Arnold
Balzac
Beithe
Carras
Chrios
Cromba
Cruinn
Eminem
Fàinne
Gaitán
Gheibh
Glèidh
Grannd
Ierusa
Iosaid
Jóhann
Lübeck
Maroco
Merced
Mumhan
Nelson
Phrùis
Public
Ramsay
Robbie
Schles
Señora
Sheasg
Sierra
Socach
Stuart
Stòras
Sydney
Séamus
Väster
Wright
aidich
bheaga
bhrist
bothan
cheang
chidhe
choimh
fhiadh
gathan
litium
luaidh
measan
seorsa
sgriob
sliabh
suirgh
theagh
theine
thuige
uaisle
##ainneach
##daidhean
##eallaidh
##naidhean
Abraham
Antoine
Aràibia
Atatürk
Buinidh
Carrick
Chionns
Cluaidh
Coltach
Dobhair
Dòrnach
Easaidh
Ebéjico
Eduardo
Eireann
Iomairt
Langaim
MacLean
Malairt
Milldoe
Normand
Venezia
Vicente
ainmear
calpach
cheudna
chloinn
cosnadh
cultair
iosatòp
leasach
leinibh
làidire
sheilbh
taobhan
Ùghdarr
òganach
òrdaich
##ibheasach
Calderón
Fhraoich
Geograph
Gidheadh
Institiù
Medieval
Nicholas
Nicolson
Norstedt
Pretoria
Seanagal
Seonaidh
Stafainn
cairtean
ceàrnach
chosnadh
clachain
corporra
cuirmean
dàimhean
dèidheil
earraich
einnsean
mearachd
pàircean
rabhaidh
saothair
shìneadh
suathadh
sìobhalt
òirleach
##ailearaidh
Akhenaten
Bartolomé
Chainneir
Chaparral
Chlàrsach
Fhoghlaim
Geamannan
Geography
Ghallaibh
Ghreugach
Greugaich
Magdalena
Marroquín
Ordanance
Talmhainn
Urchadain
aimsireil
coisrigte
càirdeach
feitheamh
fhilmeadh
gainmhich
glèidhidh
mhaireann
mìosachan
phàirtidh
rèabhlaid
sgiùrsadh
sheallach
smaoinich
Birmingham
Croitearan
Gheàrrloch
Livingston
Stiùiriche
Television
charaidean
choimisean
deicheadan
eugsamhail
fhuaimreag
fhuasgladh
ghnothaich
manaidsear
neadachadh
oidhirpean
phrògraman
phròiseict
seòrsachan
theicheadh
toirmisgte
Cleachdaidh
Filipineach
Landnámabók
Stèidhichte
Universität
artaigilean
clàraidhean
cuartachadh
drogaichean
gàrraidhean
iomallaiche
measgaichte
ministearan
prìosanaich
sgìreachdan
tuairisgeul
àireamhachd
àiteachaidh
Barranquilla
briathrachas
chùrsaichean
litreachaidh
mheasgachadh
mèinnearachd
polasaidhean
teacsaichean
MacIlleathain
NicDhòmhnaill
Stèidheachadh
Stèidhicheadh
deamocrasaidh
leantainneach
Ministrealachd
foillseachaidh
BeagDùthchannan
##IP
##OC
##cz
##ht
##ló
##ox
##py
##tà
##ui
##ét
##ða
##ın
<
ʃ
日
##caí
##dhe
##gui
##hua
##idd
##imi
##ivá
##lue
##now
##por
##pus
##raw
##rel
##sie
##sky
##tia
##umb
##wau
Id
SS
Sv
Tw
Tá
XX
Yr
ba
he
zu
Àm
##acht
##adar
##ailí
##alad
##cker
##dydd
##eill
##elns
##enzo
##escu
##ezid
##falz
##gean
##hang
##hoff
##iare
##ible
##iens
##igte
##inch
##itta
##nigh
##obha
##osch
##pend
##pool
##sand
##seal
##tane
##teca
##tron
##vend
##witz
##zzav
##èibh
050
090
247
264
270
273
276
301
376
454
521
551
589
885
962
Age
Bet
Bhù
Big
Cec
Cyr
Fas
Ghu
Jud
Jun
Jón
Leb
Lev
Mik
Neb
Phl
STV
Tac
Vit
Wor
bbc
bel
bia
bur
cab
chò
dar
die
fan
lot
out
pob
roc
smu
àrs
##banon
##berry
##eabad
##erade
##ianan
##ierna
##ified
##igidh
##istan
##narra
##nster
##odoma
##oimin
##oming
##ousse
##paidh
##shall
##stica
##stone
##tanan
##tasio
##trerr
##troim
##umayo
##under
##ungur
##vedra
##zaque
##òrach
1539
1550
1560
1610
1762
1782
Balè
Bhac
Bois
Both
Carn
Ceja
Ceum
Cois
Eala
Fair
Fore
Fìor
Glar
Gold
Hier
Huel
Hunt
Jahr
Kath
Lion
Lurg
Lusa
Lüne
Macm
Mana
Mers
Mhur
Mort
Nied
Open
Phàp
Raid
Riks
Sear
Sgrù
Sìor
Tach
Time
USSR
Uais
Wang
Wass
Wend
Zald
amar
bior
borg
chùl
cian
clòr
dàil
fiac
gath
main
mhis
mill
mort
murt
near
neod
peil
plat
radh
reus
tais
##Office
##aidhle
##aileir
##antian
##aragua
##bhsair
##boleda
##burger
##chison
##couver
##ctions
##dinand
##eather
##illear
##iùghal
##mhoire
##ología
##onaich
##rasach
##reagan
##seinon
##tartav
##unción
Ahmed
Aires
Apple
Bloem
Buena
Cairo
Cesar
Cheum
Creid
Crios
César
Daily
Deagh
Derek
Ellis
Feall
Fhèin
Frodo
Gavin
Hanks
Hiort
Julie
Kemal
Liver
Marco
Media
Neill
Norte
Pablo
Pfalz
Piast
Punja
Ramón
Roman
Salem
Shear
Sigur
Soria
Teicn
Theod
Thiar
Tovar
Young
abrar
bhana
breug
cheil
chuan
cràdh
fionn
fuigh
fòcas
ghaol
miosa
phear
saoth
shinn
siùil
tiorm
Ángel
Åland
École
Édith
Ìbhri
Òrain
##ainnear
##aithean
##berland
##bhartas
##ernicus
##fjörður
##iceadan
##mhachas
##mhlaigh
##ystwyth
086152
Blanco
Camões
Carann
Chalif
Cuairt
Dlighe
Eimhir
Eithne
Feachd
Garden
Isabel
Meppen
Mhàirt
Middle
Milano
Ninian
Oisein
Palmas
Retrie
Sgreap
Struct
Suárez
Tulach
Turbay
adelns
banalt
bhorgh
bhuids
casaid
ceithr
chiste
chomas
chuala
chuirp
dearga
deilbh
detail
fànais
longan
public
ruibhe
spàirn
territ
treabh
##agobhana
##aighdean
##arrachan
##eargaidh
##ionnaich
##leachadh
##neachain
##paigeach
##trerríos
##ànachadh
Alexand
Aristot
Auguste
Bayezid
Bheithe
Bizkaia
Bologna
Cairist
Caycedo
Celtica
Còmhlan
Donnain
Elgenst
Eòghann
Fearann
Gairsay
Hilario
Iolaire
Lorgadh
MacCorm
Mhabain
Neasaig
Nuestra
Ourense
Rathaid
Siostam
Sodhail
Tòisich
anailis
caileag
century
chloich
chridhe
cuibhle
dhèanta
fhalach
gillean
iarradh
leanadh
loighne
madainn
maighst
mhanach
nathair
phàraoh
tachair
theachd
theacsa
tombaca
Àrasaig
##ighthouse
##iùthsaich
##tartavlor
##velopment
Aontroma
Arboleda
Asunción
Barranca
Bochanan
Caerdydd
Catrìona
Eustasio
Ghòrdain
Hafstein
Heritage
Holstein
Larousse
Leasaich
Liborina
Michelin
Pagastàn
Putumayo
Sandhead
Stendhal
Urchaidh
aifreann
aimhreit
bhràthar
brùthadh
cathrach
choltais
criostal
cunntadh
dannsadh
fhastadh
glèidhte
gnìomhan
introduc
language
leaghadh
phlanaid
riaghail
thilgeil
##iùghalaigh
Andersson
Balèarach
Chainnigh
Cheannard
Christine
Cruthaich
Directory
Ferdinand
Girardota
Guatamala
Hampshire
MacAskill
Macmillan
Manizales
Nordrhein
Princeton
Retrieved
bheathach
ceannairc
chòmhstri
creideimh
dhealbhan
diadhachd
eachraidh
faigheadh
fhaighear
fhreagair
ficheadan
fèineachd
glasraich
thogalach
tùsanaich
Bhuidheann
Choimisean
Chrìosdail
Entrerríos
Eurovision
Mhagdeburg
Pontevedra
Riochdaich
Shomhairle
Westphalen
aideachadh
bheactaran
bliadhnail
chaibineit
cliùitiche
foghlaimte
ghnìomhair
haidridean
lethbhreac
ollamhachd
seanailear
sheanadair
shiorrachd
tionndaidh
##aintighearna
Aberystwyth
Bheastraigh
Caerfyrddin
Chalifornia
Dhubhthaich
Dùthchasach
Kelvingrove
Schwarzburg
Siorramachd
clubaichean
eiseimpleir
fuaimreagan
sgeadachadh
strìopachas
theangaiche
ättartavlor
Carrasquilla
Dòmhnallaich
Elgenstierna
Gnìomhachais
MacDhiarmaid
chruthaichte
plèanaichean
puinnseanach
thaisbeanadh
àireamhaiche
ìompaireachd
Diadhaireachd
acadaimigeach
introducerade
peathraichean
Ghaidhealtachd
cilemeatairean
deachdaireachd
seinneadairean
shoirbheachail
chruinneachaidh
ghlèidhteachais
staitistearachd
##Al
##RO
##oy
##ås
##úr
##ον
Î
€
本
##BBC
##EFA
##Fha
##Ill
##aga
##ari
##atl
##dee
##eae
##enc
##fia
##fre
##iai
##ici
##imo
##irc
##isk
##kap
##kry
##kyr
##odd
##olt
##rol
##àno
##ère
##édé
##éis
##ìan
##òth
1⁄
CO
Ep
Gy
Gö
Iv
Lú
Sö
Vá
av
cm
hE
ja
my
sq
té
us
##acho
##amon
##apan
##atra
##dais
##deck
##ease
##eiro
##eltz
##ench
##four
##gybi
##gàir
##hara
##hous
##ibar
##iers
##ihor
##imin
##ingr
##ious
##jall
##leck
##less
##leán
##loyd
##nasg
##ober
##orná
##orro
##owns
##rict
##tara
##teiz
##tico
##undé
##urge
##wley
##yana
206
212
217
238
245
260
303
308
330
344
442
530
581
604
814
850
Abd
Acc
Are
Brù
Buc
Cli
Dig
Exp
Gle
Grè
Gur
Hob
Hof
Iru
Jäm
Kaw
Lil
MIT
McL
Nij
Occ
Pem
Pic
Rab
Rat
Sid
Skå
Sug
Tag
Thr
Urb
Yao
ant
ara
ard
ceò
dem
dìl
gio
gla
its
mer
nad
olc
rom
sag
ser
sol
tan
ugh
ver
zur
##allan
##chead
##claid
##dhach
##diria
##eagal
##faras
##forth
##guist
##ibald
##iburg
##idium
##igeas
##ights
##ilium
##imean
##inean
##inton
##itinn
##nagan
##navut
##odium
##oland
##phort
##ranes
##rálov
##staig
##stown
##tagüí
##tatus
##thama
##ughan
##water
##welyn
##ànadh
##éndez
1540
1541
1569
1650
1665
1682
1714
1719
1755
1769
Alam
Alec
Aona
Berz
Brad
Cheò
Deis
Diar
Domh
Eair
Eich
Fine
Gach
Gary
Gent
Guav
Hogg
Hunn
Icel
Kier
Leac
Mhìo
Most
Nash
Nise
Osos
Papa
Phre
Rose
Ròin
Saul
Seam
Sgar
Shìo
Sion
Sior
Thun
Vorp
Winn
With
Zeit
Zern
arch
chiù
chrì
clia
cuin
dhut
dèid
faid
fast
fàth
geug
holm
leam
lite
past
post
rain
said
shàr
sios
soch
stac
stud
sìdh
teir
thru
thus
##aimrig
##bailte
##baneta
##dhaigh
##eabhas
##gunbla
##iathar
##innidh
##iuthas
##kirche
##larach
##mhaich
##otonou
##ridein
##tàbria
##umaidh
##unnach
##ímsson
Abuja
Alder
Bhasg
Bosna
Cadha
Carib
Carlo
Chala
Chall
Cheap
Ciste
Cladh
Corra
Daing
Darna
Dheal
Drise
Eliza
Ferry
Fhada
Grant
Holly
Hàbad
Iaime
Islam
Jakob
Jimmy
Jules
Karls
Kelly
Kirkc
Kreis
Linda
Luirg
Masad
Mhagh
Monta
Moray
Noble
Papua
Paras
Pollo
Portm
Rèidh
Storn
Sàile
Tunga
Turku
Ulbha
Upper
Verse
alcal
altan
aonan
batal
beàrn
chnoc
count
cuirp
deimh
diùlt
fearg
fhàil
ghoir
gèill
leugh
nobel
sgian
shìdh
spèis
stoth
stràc
thuin
uillt
Öster
þingi
##airginn
##bharach
##derland
##eadaidh
##earcall
##eartain
##edigion
##ildings
##illeibh
##illermo
##istence
##iubhais
##iuthair
##rìosain
##uenburg
##àirdeis
##àireach
##übingen
Adhamh
Alasca
Argent
Battle
Bilbao
Buenos
Carter
Chiùil
Common
Creach
Danann
Engels
Euskal
Fhailí
Fraoch
Gallda
Gallen
Ghille
Gregor
Henrik
Hjalta
Huelva
Itagüí
Livius
Lochin
Lusaka
Marcus
Marina
Mexico
Ochail
Oisean
Oliver
Pieter
Portal
Rennie
Rosain
Rudolf
Schaff
Shrath
Skerry
Suidhe
Svensk
Sweden
Sìleas
Taylor
Tierra
Tuirce
Ucràin
bhideo
chridh
cultur
dealas
dleasd
falach
fhoirm
gabhar
iùlach
lantan
luinge
monadh
radius
ruadha
salann
searbh
septem
sgoilA
tlachd
Àirigh
##mhnantan
##publique
##therland
##zzaville
##òsdanach
Andorra
Austral
Beatles
Biograf
Birlinn
Brusach
Calavie
Chorcaí
Cocorná
Deutsch
Fontane
Gasteiz
Iubhair
Lombard
Nairobi
Nunavut
Pollaig
Romagna
Socorro
Steafan
Toronto
Tripoli
Uaraidh
Yaoundé
Zernike
aghaigh
aonaidh
aosmhor
brònach
chonnsp
chreach
chòrdte
comasan
connadh
domhain
draghan
eadarra
faicear
fhìrinn
fàsaidh
ginteil
history
irisean
loisgte
measadh
nithear
thobhta
toisich
ùrnaigh
##airtbheil
##ifeasanta
##inneachan
##ionnsgeul
##èidianach
Aildiria
Benjamin
Caroline
Carrainn
Catholic
Chìthear
Croàisia
Cumaradh
Fhinnein
Frombork
Guaviare
Harrison
Iaimeuca
Latbhais
Lausanne
Llywelyn
Marshall
Rousseau
Sabaneta
Salcraig
Samhradh
Sloibhìn
Suasaidh
Tarsuinn
Uachdair
beòthail
bhathair
bhealach
buidhinn
dhubhadh
faotainn
fhoghair
leabaidh
muilnean
mullaich
platanum
saoraidh
sgaoilte
tasglann
telurium
##otaireachd
Airmeinia
Archibald
Barrachan
Bhìobaill
Ceilbhinn
Chaorainn
Chastilla
Community
Deuchainn
Eairdsidh
Education
Ghiubhais
Hunndaidh
Institiùd
Maighstir
MhicAoidh
Normanach
Phretoria
Stornoway
Sòisealta
adharcach
aonaichte
bloighean
ceumannan
chlàraich
chraobhan
chòigeamh
dligheach
dotairean
drochaide
duilleach
ghnothach
gnìomhach
mòinteach
nàiseanan
phròiseas
provincie
roinniche
thachairt
Chailleann
Chairibìan
Dhunlèibhe
Faoilteach
Ghöttingen
Guaranaidh
Malabhaidh
Moireasdan
Poileataig
République
Shalmhaigh
Sheasgaich
Sònraichte
Ungaireach
Vorpommern
bhanntachd
bràithrean
choinneimh
chomataidh
dualchasan
easbaigean
fhaighnich
fhuaireadh
fàisneachd
leasaichte
mapaichean
mothachadh
nàbaidhean
nòtaichean
sheachdain
sòisealtas
tuinichean
Breatannais
Cairistìona
Dhearbhaich
Disathairne
Fisherfield
Ghiùthsaich
Pròstanaich
ainmhidhean
eisimileach
faiceallach
Aimeireagach
Etymological
Iompaireachd
dannsaichean
pearsantachd
Ghàidhealaich
MacFhionghain
chruthaicheas
duilgheadasan
shoirbheachaile
##48
##Co
##FA
##fn
##gé
##oi
##rg
##tl
##ân
##æl
##ɛn
##ρα
ĺ
ʎ
##199
##251
##CDT
##act
##ags
##agá
##bac
##bit
##eda
##enb
##ffy
##imp
##irk
##isd
##ité
##iño
##kee
##leg
##lom
##mel
##orb
##orf
##oso
##reo
##sla
##sty
##tit
##uge
##ála
##íaz
##òla
##ùir
##úin
KG
Ny
Pi
Pt
Rí
Vl
bè
có
id
ok
wo
Òb
ór
##Each
##Fios
##agne
##anus
##arry
##bama
##bral
##chru
##cias
##ción
##eros
##eson
##ffin
##fore
##gana
##gang
##hasa
##hist
##hode
##hosa
##hren
##ichi
##igon
##iond
##ipuu
##itte
##ives
##kell
##luís
##mhpa
##mhòr
##oble
##olan
##orio
##pala
##phry
##pian
##plus
##pont
##rhus
##rien
##rois
##roño
##sdam
##thon
##ugou
##unas
##uter
##ware
##âtel
##èamh
##édie
##ìsis
##òmas
009
204
207
216
295
297
316
325
361
380
395
476
512
540
557
Afr
Ark
Arr
Atl
Att
Bed
Bod
Chò
Enl
Eor
Fox
Gom
Gri
Grà
Hes
Inc
Kop
Mgr
Mhà
Oca
Oll
PSS
Pac
Plo
Pur
Rag
Rua
Sec
Set
Sic
Son
Sov
Sra
Stj
Tai
Teo
Ulm
Wad
Yop
are
ars
bag
cle
eud
fìr
len
nic
off
phi
plu
pàr
pòn
ròs
Àit
èif
##agado
##bhasa
##breac
##dhaig
##dsear
##eacon
##encio
##ernán
##eroog
##esium
##fting
##ianna
##ienne
##iento
##itein
##itich
##nacas
##oilib
##oinia
##ongwe
##oster
##otazo
##owski
##plete
##rasan
##raska
##regor
##rioch
##tagan
##tegat
##tonic
##trodu
##ungas
##ustra
##àirne
##íipuu
1250
1300
1400
1415
1566
1572
1585
1616
1618
1623
1660
1672
1693
1727
1754
1773
1794
ABBA
Acla
Ailt
Aird
Auld
Bara
Bert
Bige
Blas
Brig
Bàta
Ceal
Cher
Clev
Conc
Conf
Cùil
Díaz
Firm
Flev
Fuar
Ghrò
Hard
Hell
Hoff
Hong
Jane
Koch
LCDT
Lath
Live
Lule
Lùgh
MacF
MacK
Mesa
Mong
More
Neag
Opra
Phen
Post
Reid
Rico
Sara
Sche
Skag
Spec
Tall
Todh
UEFA
Uige
Vern
Weil
Well
Zand
aics
aird
annA
arab
been
bile
carr
coth
cuil
dhàn
fall
falt
fior
fois
foto
garg
into
ionn
mhnà
nòta
over
peac
poll
réir
ròpa
shoc
sion
slug
stop
##allamh
##arradh
##asdail
##chuimh
##eadain
##ealair
##eanamh
##eantas
##earais
##gativá
##idente
##igheis
##iomach
##iotàir
##ischer
##isiana
##istear
##itions
##lachan
##oilein
##ostela
##rachan
##ranais
##sgaill
##shaven
##staður
##tavita
##tonium
Almaz
Amagá
Araba
Armée
Baker
Barry
Beach
Being
Bhean
Bhran
Bihor
Biodh
Brigh
Ceite
Ceàrd
Chorr
Chòrn
Cleve
Court
Cuach
Cyril
Dhail
Diard
Diùra
Ebers
Eisim
Eugen
Feder
Greiz
Guate
Helen
Honda
Hydro
Háskó
Julio
König
Lands
Latin
Lemos
Litir
Lluís
Loisg
Maoin
Mario
Meyer
Milit
Monro
Paula
Paulo
Phàpa
Platt
Rhode
Rìogh
Sanct
Selim
Skara
Spark
Suidh
Szcze
Techn
Thagh
Tomas
Tràth
Verde
caism
chail
chrom
chrùn
cupal
dhomh
dream
faide
feòla
franç
fàidh
gheur
ghior
ghiul
grùpa
gàird
https
iarla
iochd
laoch
lùbte
lùths
mhain
mhurt
minig
piàna
polit
refer
rùisg
saigh
saora
shloc
teist
théid
treòr
Àirde
České
##delburg
##elfling
##fòrnium
##gebirge
##icoides
##lanachd
##lington
##pendent
##rechten
##àillidh
##òighean
Afgana
Almere
Aoidhe
Beinid
Bhàigh
Chongo
Chrìch
Chùirt
Chúige
Daonna
Derick
Eagles
Foills
Gabhar
Gunnar
Harper
Hungar
Kawago
Králov
Königs
Leitir
Lisbon
Luzern
Mackay
Maoile
Marine
Medina
Mheadh
MhicDh
Mozart
Omhain
Pabail
Padova
Sheinn
Shìona
Slèibh
Willie
amasan
amharc
bheart
bhocsa
bhuadh
bhuill
bhàigh
chilem
cleamh
cruidh
crìche
dorsan
fhiach
fhànas
gheall
gheàrr
ostail
peanas
pàirce
pàiste
ridire
romhpa
school
sgiath
shaoth
truagh
truime
turaid
uiseag
Àithne
Álvaro
##Fhaolain
Aibidil
Akranes
Balfour
Bulgàir
Cothrom
Cotonou
Cuilags
Cuiridh
Gallery
Geograf
Gerhard
Gluasad
Greater
Griogar
Humphry
Iceland
Introdu
Jónsson
Limited
Logroño
Margadh
Ouagado
Republi
Ricardo
Rònaigh
Station
Sìneach
Wyoming
Zeeland
abhaist
aigesan
balaich
cnòthan
eisimpl
fiachan
foirmle
inntrig
itealan
mnàthan
ochdnar
present
rothair
rìreabh
sglèata
shlighe
shreath
sprèidh
sìochan
tabhann
tosgair
trannsa
##eanaraidh
##iteachais
Aifreann
Albàinia
Caergybi
Colaisde
Colbhasa
Cumantan
Dingwall
District
Einstein
Engativá
Fearghas
Gobhlach
Grenoble
Isenburg
Kattegat
Lawrence
Leòmhann
Lilongwe
Luimnigh
Neagrach
Nebraska
Nimíipuu
November
Ostfries
Palencia
Phoblach
Phàislig
SMOFeuch
Shòiseal
Sòdhaigh
Thatcher
Thompson
Uicipeid
bhithear
bhratach
bitheadh
buadhach
catharra
chaorach
chultair
cinneadh
cruthach
còmhlain
earrainn
eicrioch
elements
fheartan
fhàillig
fitheach
fàileadh
ionmhais
leisgeul
mhaireas
obraiche
rìomhach
sgillinn
ùrachadh
Anthology
Aonachain
Berzelius
Cantàbria
Clàrsaich
Comunnach
Dhaibhidh
Diardaoin
Ebersdorf
Eilbheise
Elections
Gaillimhe
Guillermo
Göttingen
Henderson
Ierusalem
Lochinver
Louisiana
Manifesto
Mheadhain
Morgunbla
President
Shuòmaidh
Telegraph
Uachdaran
Vancouver
Wangeroog
abairtean
caibineit
ceannaich
choireach
chrochadh
chrìochan
chàirdeas
càraidean
dhachaidh
fuaimreag
gluasadan
ionnsaidh
laoidhean
mhargaidh
mhòintich
naoidhean
romansach
tàlantach
##Fiosrachadh
##inistreachd
Aimearagan
Biblioteca
Chabhlaich
Cheumnaich
Chuairtich
Colombiana
Commission
Compostela
Copernicus
Crìostaidh
Culicoides
Gelderland
Lighthouse
Lobenstein
Mharseille
Ròineabhal
Sgreapadal
Sloibhìnia
Statistics
Sutherland
Teachdaire
achaidhean
arabachadh
beartaiche
cathaireil
chaochladh
gainmheach
impireachd
spreadhadh
teicneolas
Bucaramanga
Ghraonlainn
Ouagadougou
Portmeirion
Saidheansan
Tràilleachd
chumhachdan
département
iomraidhean
lughdachadh
poileataics
sòisealachd
teasairginn
theangachas
tropaigeach
tìodhlacadh
Buenaventura
Chruithneach
Introduction
dealbhachadh
stiùirichean
sèimheachadh
Coilltearachd
bhoireannaich
cheannsachadh
phoilitigeach
pàrlamaideach
Thoirbheartain
chuimhneachain
feallsanachail
gnìomhachasail
##AD
##CH
##IN
##IO
##MB
##Sg
##TH
##bó
##gá
##iy
##iß
##jø
##kv
##lı
##rö
##zt
##él
##öl
##ōn
##ɑn
##ɔr
##ان
q
ب
##734
##832
##ASA
##anz
##cus
##dex
##emy
##eàn
##hal
##hat
##hen
##ijn
##iut
##izz
##jal
##jov
##jum
##koa
##mid
##nig
##oda
##pho
##rec
##ril
##rod
##tap
##urk
##vre
##wed
##yde
##àrm
##èam
##éal
##öns
07
Bò
Ci
Cì
Fè
GA
Mó
Oi
Ov
Sü
Tó
dx
mà
oc
£1
£2
Àr
øy
##akch
##amha
##anny
##arta
##aría
##cart
##chat
##chua
##colm
##come
##dagh
##elia
##endi
##ersh
##fjór
##geme
##hand
##iami
##iell
##innu
##inos
##ivar
##iver
##ivet
##kerb
##lear
##lera
##lero
##life
##llar
##lung
##mond
##naly
##nama
##ogad
##ogan
##oich
##omou
##ount
##pect
##quil
##quén
##rava
##rose
##sund
##thag
##tock
##táin
##uela
##unda
##utan
##vang
##vell
##vina
##voir
##weed
##wieg
##áile
060
221
222
258
263
267
271
278
279
281
282
283
294
318
323
346
378
379
429
508
513
518
520
561
620
735
810
925
Aro
Aut
Bau
Ble
Bom
Ces
Cuc
Dim
Eig
Fan
Fhè
Fow
Gip
Hap
Hud
Iad
Ist
Kro
Lac
Lut
Lìg
Met
Mov
Neu
Nua
Oil
Pil
Pod
SNP
Sio
Sky
Tud
Uis
Ult
Usa
Vin
Vás
anm
bla
cer
cìs
dir
ead
fiu
gra
had
ill
ing
law
mìn
nin
oct
pún
rec
sgè
sil
spe
tsu
var
Île
Òig
Ùir
##Brìgh
##agsto
##baich
##baint
##chase
##chnie
##endum
##fjórð
##frinn
##félag
##gacha
##icino
##irate
##itidh
##itzer
##laude
##lesey
##llaid
##mhail
##nanas
##ograf
##oidig
##oirne
##onach
##phill
##quent
##tador
##thaid
##tland
##ystra
##ànaig
##òthan
##órico
1513
1521
1547
1590
1607
1636
1648
1759
1763
1764
1781
1784
1791
Anim
Atad
Bast
Bean
Bhio
Bhir
Blot
Blue
Born
Chàr
Colm
Doch
Dord
Dòbh
Emma
Fhar
Fife
Fire
Fìne
Greg
Grun
Gàil
Henn
Info
Inuk
Iosa
Iran
Levi
Maps
Mats
Meas
Mike
Mora
Mord
Murt
Nach
Nioc
Norr
Nova
Nína
Oban
Pago
Phob
Play
Pìob
Reub
Roch
Romh
Shin
Shir
Sinc
Slat
Sval
Sver
Teil
Tigh
Tony
Trom
Tron
Umeå
Wroc
aoir
bata
buan
bàna
bùrn
cnap
dall
faod
fhol
goid
lìbh
mala
reir
rèim
shia
stru
sìne
upon
##ailles
##aitean
##ballan
##basdan
##bourne
##bright
##brokes
##illera
##ionale
##iquita
##rosoft
##seachd
##sgaire
##undert
##vantes
##ytechn
##ántara
##èirich
##òidium
##òrachd
##òrnais
84734
Ababa
Abbey
Addis
Akerb
Alcal
André
Bever
Bhàin
Bogha
Breda
Burra
Chaco
Chlas
Cionn
Clark
Contr
Cross
Davie
Dhiùc
Dover
Eddie
Eisle
Eskil
Estad
Frith
Gailf
Games
Hergé
Honor
Honsh
Hunza
Idaho
Itiop
Japan
Lagan
Lagos
Leith
Lloyd
MacMh
Malmö
Màirt
Neuch
Norma
Nueva
Ocaña
París
Pearù
Phara
Phear
Phoil
Poems
Porta
Rodas
Rèabh
SMOAm
Schwy
Secre
Skåne
Sovie
Story
Sucre
Swans
Taidh
Tarbh
Unión
Valen
after
aoise
bhlas
blàir
briog
chabh
chala
claon
crios
cuidh
deise
della
dhail
eòrna
faire
feise
gaoth
goirt
laige
leòin
mhort
neirt
preas
radio
rìogh
seasg
shear
smuid
taing
thaic
tràid
tuill
under
Århus
##agascar
##agstofa
##ainnean
##aiptean
##aireach
##aiseach
##akchott
##arkivet
##baideàn
##bianach
##bottens
##eanasan
##earnaig
##easgair
##enhagen
##ialaidh
##iathran
##imearan
##innsear
##inshasa
##istance
##ithtean
##landier
##nachais
##sachain
##tamaría
##wieglen
##ùghaill
Acaill
Albany
Bharra
Bodach
Burund
Cathal
Chadha
Chaoil
Claude
Coirea
Coruña
Corùna
Dhruim
Diario
Disney
Dundee
Fayard
Feàrna
Fisher
French
Guerra
Iapain
Inneal
Irvine
Isaacs
Israel
Jeremy
Leslie
MacCon
Madame
Marino
Monaco
Méndez
Naoise
Nariño
Nature
Pentre
Phuill
Polloi
Record
Region
Rivers
Sahara
Samacá
Samper
Seonag
Stones
Telebh
Urbain
Veneto
Werner
barail
bhalla
bhuinn
choinn
chreag
chrios
chéile
creige
càraid
dathte
dhuill
eystra
falamh
fhaisg
fheòil
gearan
grunnd
impunc
island
itrium
lasadh
luatha
maighd
modern
phuirt
seusan
sodium
steall
stoirm
teatha
thiodh
thionn
uabhas
àlaich
òrdagh
##Bailtean
##aidheamh
##ailealog
##alachadh
##aoidhean
##baigeach
##laiceadh
##laisgeir
##mhorachd
##naighean
##omerania
##roningen
##ustrated
##vicencio
##òirneart
Atadail
Augusta
Barbara
Bhràigh
Canaria
Cecilia
Chloich
Craoibh
Cuirear
Cultura
England
Frangan
Galicia
Garrido
Ghlèidh
Hjalmar
Iarmain
Janeiro
Kawagoe
Králové
Lexikon
Lorenzo
Lorimer
Làthail
Lùghdan
MacEach
Midland
Network
Partido
Pereira
Phanama
Pigeard
Princip
Quechua
Reserve
Robledo
Ruiseis
Science
Seaborg
Seattle
Siarach
Taibhse
Tocaima
Usaquén
Vásquez
adhradh
amòinia
aramach
bhathas
bhothan
cainnte
cheàrna
chiùird
chàradh
ciorram
clòimhe
cultura
cumhang
cèilidh
deatach
details
deànamh
dhìleab
eilthir
fhiodha
fhortan
gailium
goireas
laimrig
mhìnich
mionaid
paidhir
sgadain
sgileil
teicneò
thadhal
theiche
àrdaich
##andelaria
##eartanach
##neachaidh
##oilibdean
Bhasgais
Bhànrigh
Bogotazo
Castillo
Cathcart
Chaorach
Christie
Congress
Cuimrich
Cumhachd
Davidson
Distille
Eisleben
Foghlaim
Frangais
Gelfling
Grianaig
Guateque
Historic
Largacha
Leabanon
Mhantáin
Mhaoirne
Pheadair
Robasdan
Ruadhail
Soisgeul
Svalbard
Tasgaidh
Theodore
Tuinisia
Tèarmann
Tübingen
Weilburg
ameireag
bhodhaig
brachadh
cabhsair
chofaidh
chreagan
clàraidh
clàrsach
cosnaidh
dhìreadh
duileasg
fhalaich
gealladh
luibhean
marsanta
mearcair
reachdas
ruighinn
sluaghan
staidhre
tabhainn
taisteal
teampall
thuiteam
trasnadh
uirsgeul
##bhadairean
##brokeshire
##eastabhaig
##fjórðungur
Akerbeltz
Alcántara
Argentina
Beinidict
Bhaltaich
Blotchnie
Cervantes
Cheiltich
Chreagach
Churchill
Crìosdail
Dhealaich
Flevoland
Geàrrloch
Hjaltadal
Labhrainn
Mariquita
Mhearnaig
Murchison
Neuchâtel
Pentlands
Raghnaill
Rheinland
Romhsaigh
Schleswig
Seirbheis
Siombabue
Snowdonia
Stromness
Sìorrachd
Timcheall
alcalaidh
armaichte
caitheamh
cleachdte
coimeasta
coimisean
connragan
dhùineadh
fineachan
gabhaltas
ginideach
iarrtasan
mailèiria
marbhtach
mharaiche
pillteach
plutonium
roinntean
septembre
sloinnidh
spìosradh
sàilleibh
tidsearan
trèanaidh
Ùghdarras
##therfordium
Bhuinneadh
Ceredigion
Comannaich
Conchobhar
Cordillera
Duilleagan
Fanaichean
Ghalldachd
Leòdhasach
Literature
Masadoinia
Niocaragua
Nouakchott
Riochdaire
Santamaría
Shantander
Sobhiatach
Tallandier
Teicneòlas
Trowieglen
Versailles
busaichean
ceannaiche
chailleadh
cheàrnaich
chinnteach
chruinnein
cinnidhean
dealaichte
eucoireach
fhreagairt
ghinealach
iompachadh
loidhneach
prìomhaire
rangachadh
sheinneadh
teisteanas
treabhaidh
àiteachail
àrsaideach
Asarbaideàn
Bhirmingham
Carraighean
Chathraiche
Dhonnchaidh
Gilleasbuig
MacGillÌosa
Persistence
Pharaguaidh
Reubaltaich
Teicnigeach
chomharradh
chothromach
chraoladair
còrdaidhean
dheachdaire
impunctatus
innleachdan
libhrigeadh
phoileagain
poilimearan
sealgairean
soithichean
triantanach
##òdaigearraidh
Atharrachadh
Constantinop
chilemeatair
chlasaichean
comannaichte
fharpaiseach
frithealaidh
gnìomhachail
innleachdail
leabharlainn
sheòrsachadh
thòisicheadh
ìomhaigheach
Steòrnabhaigh
Villavicencio
bheòthachaidh
cheanglaichean
chrìochnachadh
soilleireachadh
taisbeanaidhean
##55
##CE
##Ch
##OR
##RD
##UP
##UR
##bɛ
##eu
##ew
##gn
##ió
##má
##rɪ
##sb
##ák
##âr
##óg
##ùc
##ɪn
ɔ
ə
ˌ
β
##ARC
##IAF
##alf
##cat
##cca
##dho
##día
##fie
##fin
##ghe
##hav
##hou
##hre
##iko
##jul
##kel
##lof
##met
##nsk
##oku
##oms
##paz
##pin
##rij
##sol
##tom
##tun
##ube
##uta
##yin
##zan
##æmi
##ños
##ùid
##ğan
09
CH
Cè
Dj
ID
Kó
Lò
Mā
Nó
SP
Sè
Ts
Ud
Zw
gà
hÉ
mó
sò
ĺs
##ands
##bhia
##boin
##bura
##chid
##ders
##eats
##eauş
##ello
##eman
##emen
##entz
##este
##eter
##ffer
##flor
##hald
##ians
##ibón
##iges
##igua
##impe
##iola
##irth
##isde
##iuba
##jöld
##kind
##meja
##naoi
##neir
##nett
##ning
##nost
##olap
##omor
##onal
##ontá
##oslo
##othy
##pair
##part
##rale
##rdal
##read
##reyf
##rock
##teir
##teur
##thes
##ting
##tino
##ttin
##udio
##unde
##upas
##urre
##urst
##vita
##zmir
##élīs
##òron
##ùdar
##ějov
231
241
246
248
266
269
277
284
285
293
296
299
307
331
342
347
351
367
369
381
383
393
394
409
413
463
504
519
550
580
590
686
750
774
786
874
918
958
963
967
970
992
Ade
Auf
Ayr
Châ
Cit
Cup
Cyn
Dio
Dug
Dìo
Dìr
Euc
Giù
Had
Hec
ISS
Ime
Kay
Kyr
Lel
Low
Mba
Mbe
Mül
Noc
Nás
Och
Ocs
Ogs
Rac
Rah
Ris
Rol
See
Shl
Sog
Sou
Sán
TUC
Tip
Tùs
Vel
Við
Wre
XVI
Zen
ait
ans
aol
cad
cap
cod
cri
crò
drà
fia
hop
lin
lir
php
ròl
sge
siù
sìl
tdd
vie
##Bhàin
##achar
##achim
##adhra
##aidhs
##ardub
##arium
##aruis
##azine
##bhean
##chaeo
##darra
##dhoek
##eannt
##eatro
##erset
##etiòp
##giers
##iamey
##iedad
##igali
##inary
##innte
##ioram
##irein
##itude
##ksson
##mailt
##ments
##negie
##orcha
##osoph
##owitz
##raeth
##romag
##thers
##titut
##utiér
##viken
##viron
##àilia
##áiste
##èadha
1314
1413
1537
1546
1567
1570
1712
1728
1735
1741
1743
1751
1758
1765
1772
1777
3000
Ankh
Arad
Area
Bhud
Bifr
Bior
Boer
Báth
Ceus
Chep
Chli
Chun
Chía
Ciar
Cuba
Dios
Djam
Font
Fàil
Gama
Gath
Geni
Gilb
Graz
Hano
Iarn
Ifan
Jade
Just
Jöns
Lisa
Lock
Lugh
Lyon
MacN
MacU
MacÌ
Magg
Mars
Mhis
Mion
Mira
Mont
Nice
Niùc
Norð
Parr
Peir
Phys
Pitt
Rein
Ruiz
Saga
Sana
Saud
Sett
Seòl
Shim
Shiu
Sieg
Sing
Sinn
Soph
Spie
Stru
Sund
Supp
Toir
Tolm
Tomé
Tosc
Toul
Ulva
Vaud
Voce
Weir
anmo
bard
bhol
book
brat
cear
chla
chnò
cial
ciar
cost
cròm
cuim
cupa
cùil
dios
dòbh
fhre
fhrì
glac
lios
làth
maic
msaa
mòir
nigh
phla
phut
pinn
ràmh
seoN
sgur
shea
smàl
spìo
sàil
teud
than
theo
thro
uime
Èite
##aigich
##ailein
##aineis
##almain
##amento
##amhain
##amillo
##arsaid
##asaigh
##athach
##bhagan
##bhailt
##eidean
##eilich
##etroit
##gement
##iberia
##ichara
##iginal
##ijssel
##iluain
##ithorn
##lamadh
##lation
##lected
##mhaill
##narfon
##nesium
##oghail
##rabost
##ramaid
##ranger
##rathon
##senger
##shlain
##skjöld
##tagail
##umburg
##àining
##àrradh
60485
Acain
Alpes
Angus
Apulo
Armen
Assen
Barco
Basil
Bhirg
Bhuin
Bourg
Bradh
Broch
Brook
Buids
Cabar
Cailt
Calvo
Ceauş
Chear
Chocó
Chorn
Clyde
Colon
Dearc
Dewar
Dheir
Dumha
Echan
Euseb
Fhinn
Frida
Frédé
Fèill
Gabon
Ghlac
Ghlas
Grann
Group
Ilidh
Iruña
Lazio
Leòid
Llyfr
Mainz
Manan
Maoil
Meala
Mhaol
MhicG
Mhóir
Minor
Morat
Mosgo
Movie
Muine
Night
Opera
Pacho
Payán
Perth
Point
Powys
Ruith
SCIAF
Sandy
Schwe
Shean
Since
Spòrs
Stafa
Stall
Stein
Stoer
Tarra
Teres
Terms
Tours
Trail
Trygg
Tròis
Tuair
Urram
Vasco
Wight
Yopal
aoine
being
buair
cabar
chian
chomp
càite
drama
euchd
fhact
fhean
fhein
geall
ghann
ghlùn
ghort
ghual
greas
grian
innil
iomsg
mhòra
muirt
neòil
nòsan
okres
peata
ridir
sgire
smuan
soidh
tearc
theab
thàmh
tiugh
treun
İzmir
##alachas
##anderyd
##bermeja
##eatailt
##fontein
##incsean
##jumbura
##lachail
##thachas
##thority
Abhach
Abstol
Aetiòp
Africa
Alcalá
Antwer
Arcach
Athair
Awards
Beilge
Bhaden
Bhorgh
Bhruis
Casach
Center
Ceòlas
Collin
Concha
Cruach
Danske
Dearga
Deighe
Distan
Durham
Easter
Eduard
Eirinn
Ernest
Fianna
Gaspar
Genova
Ghiuth
Goills
Golden
Gotach
Guadal
Gutiér
Harare
Hearts
Honoré
Iarmhí
Iomain
Julián
Laidon
Lamont
Lingua
Magyar
Maupas
Meanbh
Mhonar
Molina
Monica
Nation
Niamey
Olomou
Parlam
Planet
Poland
Pontus
Ruyter
Sandra
Sappho
Saskat
Schwyz
Soacha
Solais
Sratha
Tanach
Tarsus
Tartes
Teanga
Ticino
Torino
Tulard
Uiseig
Urbino
Valera
access
aithgh
bheann
bodhar
choill
choise
chrann
clòimh
coitch
cruadh
eagran
fainne
fillte
fuaime
gléidh
grùide
kommun
lannan
leacan
leader
mhiann
naoimh
nòsach
osmium
priomh
pàrant
radium
reòite
salach
sgapte
sgeòil
shoidh
smùide
stiall
tiugha
tsunam
uàrdan
Àrnais
##Distance
##anchthon
##dingston
##earghais
##ernández
##isenberg
##tachaidh
##ubaltach
##utairean
Algiers
Archaeo
Barbosa
Barreto
Borrero
Breslau
Bristol
Budějov
Báthory
Caracas
Claudia
Coimbra
Conradh
Céitean
Detroit
Djamena
Dìreach
Eilreig
Faidhle
Farpais
Fhuaran
Firenze
Fishman
Fàsaidh
Gillies
Giùdain
Grammar
Iùbhair
Joachim
Kingdom
Leticia
Liberal
Malcolm
Mariana
Mbabane
Municip
Partaig
Piedras
Prògram
Rosnait
Seilich
Sgumain
Steingr
Svenskt
Swansea
Tallinn
Thairis
Turcach
Vincent
Waldeck
Weather
Winston
bancair
caesium
calcium
chasach
choirce
choltas
chruidh
còmhrag
dèilige
fasanta
fògradh
general
itheach
leannan
octobre
private
prìsean
saoradh
seòmair
sreatha
suarach
suirghe
sòidium
thuairm
thìrean
Álvarez
àirneis
órnarra
##naltraidh
##oiminicia
##vironment
Anderson
Angelita
Anglesey
Basgaich
Beannach
Biograph
Cailtidh
Caisleán
Ceapaich
Chocontá
Chuimein
Chèitinn
Danderyd
Delaware
Echandía
Estrella
Fheichin
Fontibón
Freiburg
Frequent
Fàinnean
Genealog
Ghabhadh
Ghaimbia
Ghaoithe
Girardot
Grampian
Lochaidh
Lòchaidh
Mhadaidh
MhicGill
Monument
Oifigeil
Oriental
Peighinn
Regional
Rugbaidh
Sguideil
Sionnach
Somerset
Staitean
Thòraidh
Tiobraid
Trinidad
Tuathail
Whithorn
Windhoek
actinium
agallamh
ainmhich
anmoiche
artaigil
chaileag
charragh
coireall
creagach
cuaraidh
dùbhlain
feargach
fhollais
fuaimean
gaisgeil
leanaidh
luingean
lìonaidh
mairsinn
roinnidh
samhladh
scottish
seòlaidh
shaoradh
sheòladh
shliochd
shùilean
sionnach
spaideil
stiùidio
sìthiche
tagraidh
teirmean
tiomnadh
tochradh
triantan
òganaich
##ladaichean
Adhartach
Authority
Barichara
Bhirginia
Biography
Blackwell
Borgarnes
Buildings
Ceathramh
Ceauşescu
Chamshron
Chelbhinn
Chladaich
Colombian
Dheasaich
Elizabeth
Fheachdan
Gorseinon
Guatavita
Gutiérrez
Jaramillo
Languages
Lauenburg
Leargaidh
Lebkuchen
Liverpool
Locations
Lombardia
Mhuillidh
Microsoft
Neachdain
Nederland
Polytechn
Reservoir
Riaghailt
Rèabhlaid
Santayana
Sebastián
Sruthaidh
Teicheadh
Tuairneir
Wickerman
banaltram
bhualaidh
bòidheach
cearcaill
chatharra
chitheadh
chunntadh
chòmhnard
cothroman
cruthaich
dealanach
fhaicsinn
fheachdan
fhuadaich
fuigheall
geamannan
geòlasach
mailisidh
mhaoineas
mhoileciu
naiseanta
paidhleat
pharaiste
phoblaich
riaghlach
seòladair
sgiorradh
soilleire
spioradan
tairbeart
theangair
toilichte
triantain
uamhasach
òrdachadh
##rachaidhean
Campamento
Candelaria
Chruinnich
Danmhairge
Ghroningen
Goillspidh
Historique
Institutet
Karlskrona
Lüneburger
MacConaill
MacCormaig
Madagascar
Maupassant
Niùclasach
Overijssel
Thanachais
Thuirteadh
Tighearnas
Universite
Wassermann
bàlaichean
ceannardas
ceithreamh
colaistean
cosgaisean
cothromach
eileagtron
faclairean
fharsainge
fhiadhaich
fionnsgeul
gheibheadh
inntinneil
inntleachd
lantanaich
monarcachd
naitridean
oideachadh
radaigeach
referendum
sonraichte
taigheadas
Aristotélīs
Bheasantian
Ceatharlach
Chairtbheil
Chaitligich
Choitcheann
Chopenhagen
Illustrated
Independent
Livingstone
MacAmhlaigh
Phròstanach
Poileataigs
Sòisealachd
ameireagium
argamaidean
bancaichean
caidreachas
ceannsaiche
chluinntinn
duilgheadas
euslaintich
fhilmichean
geamaichean
marcaichean
mhapaichean
oideachaidh
samhlachadh
seòrsachadh
thuathanach
Bhrandenburg
Easbaigeachd
Feallsanachd
Fionnlannais
Frauenkirche
Hammarskjöld
MacDhùghaill
Riaghaltasan
Universities
chuibheasach
còmhraidhean
eaconomaiche
gnìomhairean
iomairteachd
sgeamaichean
thràilleachd
thuineachadh
Bhreatannaich
Chanèidianach
Crìosdaidhean
Dheamocratach
Wilhelmshaven
eachdraichean
international
matamataigear
rutherfordium
speactromachd
tèarainteachd
Cleachdaidhean
atharraicheadh
dualchainntean
Barrancabermeja
Flòdaigearraidh
dùthchaBailtean
##40
##65
##MI
##TE
##TV
##dó
##mu
##oo
##uá
##zs
##òb
##üü
##ān
##ɑr
##əl
##ɛl
##ɛr
##ɪŋ
##ɾu
å
ɣ
‐
##502
##ISE
##ami
##ani
##bet
##cea
##cký
##cuy
##dec
##ebs
##eka
##eri
##fyl
##hlt
##ifs
##iti
##lao
##lek
##lix
##löw
##mio
##ogo
##olo
##omo
##oon
##rot
##río
##ród
##tah
##tta
##uak
##yas
##yll
##ysl
##zel
##zon
##éil
##ìdi
##ìop
##òim
##óme
##öst
##ɑnt
AN
Ae
Bl
Bö
CE
DV
Dz
Dò
Fé
LG
Li
MC
MR
Mò
SI
SW
Ti
Wr
dt
ea
gd
il
jo
tò
ul
we
£3
Òr
##Port
##airn
##alan
##alia
##alya
##amer
##asca
##atia
##boro
##cain
##chal
##coas
##dhan
##doza
##ecer
##ensa
##faig
##fred
##gast
##ghai
##guin
##iaan
##ibal
##ibdó
##iedo
##ikie
##illi
##imba
##iska
##isky
##ists
##jörd
##jörn
##lage
##laim
##lash
##leen
##lejo
##link
##load
##lton
##lymp
##meer
##mhna
##mold
##muir
##nant
##neag
##nius
##oddy
##oile
##orna
##osis
##ouss
##pped
##pris
##quer
##quis
##rand
##rang
##rano
##rico
##rina
##ruig
##ràis
##said
##saka
##sgop
##sohn
##strì
##tham
##uder
##uire
##undo
##unum
##upar
##usch
##vage
##vest
##vium
##went
##wicz
##zaña
##àirr
##òidh
##ólks
##ùras
020
033
1⁄4
272
302
304
311
314
327
328
382
384
401
403
411
412
453
456
492
516
558
570
610
612
614
625
630
633
635
640
642
653
704
711
804
832
843
893
906
950
965
968
999
Alo
Aug
Cea
DDR
Din
Dyf
Erd
FRS
Geb
Hoy
Hra
Jus
Kip
Lic
Lir
Lit
Lju
Lun
Làn
Mam
Moc
Nok
Oak
Oct
Orm
Pep
Pia
Pon
Pug
Pyr
Qué
RAF
Ras
Rem
Riy
Rum
Rùn
Sad
Sak
Sca
Shà
Sna
Sul
Sve
Swe
Tav
Ten
Tob
Tum
UCC
Uan
Uig
Und
Vat
Vog
Zug
aic
ass
bis
cna
dhr
dus
eig
est
eòr
fam
fhè
her
niù
ois
rep
rio
sen
tio
ton
unc
val
you
##Point
##aidne
##aille
##alann
##amoso
##antas
##ardal
##ardan
##artra
##astal
##bados
##eagha
##ealta
##eburg
##ennis
##enred
##erine
##ernes
##etróp
##ghean
##hrium
##icana
##icean
##icial
##ields
##ileán
##illas
##illip
##iness
##iodag
##ippin
##isted
##iutha
##laise
##laran
##leigh
##letta
##loine
##mesis
##mhoir
##naeus
##neadh
##oslav
##othic
##pherd
##print
##rador
##reisn
##riage
##riggs
##ruidh
##stuna
##tavia
##vence
##zquez
##énées
##ítica
0508
1100
1296
1350
1453
1523
1538
1542
1605
1614
1621
1622
1631
1639
1685
1690
1742
1786
8526
Agra
Amar
Auck
Bald
Bana
Barc
Boir
Bosa
Brea
Butt
Caec
Cann
Casa
Chib
Chla
Ciad
Cien
Clár
Cock
Cres
Cunn
Còir
Down
Dren
Eest
Emil
Fact
Farm
Faro
Fitz
Flem
Four
Frid
Fèin
Fóme
Gahn
Ghil
Ghre
Gunn
Guth
Haus
Heck
Hers
Hume
Iris
Jord
Jude
Jung
Kais
Kron
Kyle
Lars
Lomé
Làir
Làmh
MacS
Mail
Meän
Mhol
Mian
Midi
Mohr
Mura
NASA
Nead
Nils
Offa
Olof
Prov
Rail
Rend
Riga
Scar
Slig
Soir
Sour
Stir
Subá
Suma
Sumo
Thir
Tiom
Tène
Uair
Vist
Walt
Whau
Wilm
Yang
aimn
aing
axis
bail
banc
beum
brac
bàir
chre
chòr
cola
cuis
còrn
còta
cóig
dans
daor
deir
dian
dobh
eigh
faca
fhas
ghre
gort
halt
info
leòm
loma
luib
làir
mise
mord
mull
munc
mèin
neon
page
rach
sgol
sloc
sona
sròn
tòir
tùir
uaig
were
Éige
èisd
##251199
##aidein
##ardine
##castle
##chtens
##eagair
##ebsite
##eireig
##ibourg
##ibouti
##iconia
##idhich
##iseall
##itchie
##kingin
##lander
##lenium
##nardan
##olapük
##othais
##partam
##pesium
##rachas
##radain
##ranach
##seanan
##thasan
##tlands
##tronan
##urgeon
##walden
Afric
Akira
Alist
Analy
Annie
Aquit
Arbel
Azaña
Banbh
Beaut
Bhion
Bhord
Björk
Bursa
Caith
Chuil
Crann
Cròth
Dante
Delft
Dhòmh
Dirac
Duine
Enlli
Faire
Felix
Fiadh
Fólks
Galla
Ghior
Gipuz
Hamal
Haven
Higgs
Ibiza
Jamie
Karen
Lagha
Lebor
Leugh
Lever
MacAr
March
Mhòid
Navar
Ogsat
Olymp
Ortiz
Punnd
Quito
Scand
Seven
Sheòl
Siria
Spree
Stads
Stair
Stand
Stras
Stula
Tales
Talún
Tanga
Tartu
Theas
Thors
Tonga
Tweed
Tòmas
Uaimh
Uamha
Urban
Xhosa
Xunta
Zitta
about
alcol
bheus
bhàgh
bogsa
brisg
chaol
chàch
ciuil
comha
conns
cotan
cìche
dhèil
doimh
feuch
first
gaidh
gearr
glinn
guerr
laigh
leagh
mhill
midge
palad
plàna
radon
searm
sgurr
shìth
siorc
srath
stòir
taibh
thras
throm
toigh
trast
tuinn
ìseal
##acabana
##aitheis
##altachd
##arabhan
##arainte
##ayaquil
##elssohn
##enredam
##idhnear
##ifeasan
##jördæmi
##labhagh
##lasraid
##lexikon
##nachail
##nachdan
##napadal
##oineann
##onnagan
##ramhnan
##teachas
##ucation
##udraeth
##undland
##usaiche
##òsagail
Aimeir
Aragon
Armero
Arnhem
Athall
Ballan
Bangui
Bhatar
Bhlàir
Bremer
Buaidh
Bunsen
Canèid
Carmen
Chapel
Chionn
Chreid
Claise
Coirèa
Corbyn
Cornel
Croise
Cuilth
Dorian
Droigh
Earran
Eartra
Eugene
Fhaoil
Forest
Fowlis
Gomera
Hairte
Hector
Ibadan
Iosail
Joshua
Labour
Libris
Luanda
Lùisia
MacFar
Marcel
Marche
Master
Memoir
Metell
Panamá
Pardub
Penins
Pippin
Posada
Potter
Poznań
Ptolom
Pétain
Quibdó
Report
Richte
Saighd
Salaam
Salgar
Scheme
Sgeama
Sgrios
Slioch
Steall
Taighe
Teodor
Thaigh
Tintin
Torran
Travel
Turing
Viking
Xavier
acasan
airidh
alltan
arbhar
batail
bleith
campas
ceimig
chorra
cnàimh
contra
creach
dhùisg
fàthan
ghalar
ghille
gobhal
goirte
lannsa
loidig
luaith
mhamal
mheadh
modhan
oidhch
poilis
region
ruithe
sampla
snaigh
sultan
tSáile
torium
àithne
##Mhìcheil
##Scotland
##bhairean
##eamhainn
##idheachd
##idigeach
##ifeasair
##ineachán
##inisteir
##oirmeasg
##udbright
Antalya
Antigon
Aquileo
Aquimin
Armachd
Armenia
BeagMap
Bheatha
Bifröst
Buidhne
Buiríos
Catalun
Chapman
Colegio
Colombo
Commune
Compton
Cùmhnan
Detmold
Dhùnadh
Dickens
Dùghall
Eliecer
Ernesto
Farrais
Fleming
Frances
Friseal
Fómeque
Gàilise
Haarlem
Henning
Iadaigh
Iomarat
Iùgosla
Jagiell
Lachlan
Leasoto
Lerwick
Limburg
Loisgte
Lorentz
MacBain
MacLach
Mankell
Mendoza
Nabhair
Nicolás
Nieders
Paisley
Palmira
Penpont
Phillip
Phoenix
Potsdam
Revista
Ritchie
Romania
Sheumas
Soillse
Stainge
Stendal
Sumapaz
Thagair
Tomhais
Toscana
Támesis
Umhaill
Varberg
Viljand
Village
Vilnius
Vistula
Vitoria
Volapük
Wrocław
acadamh
ailseab
aisling
bhunait
binnean
buadhan
cafaidh
carbaid
choitch
cobhair
commune
deochan
dhiofar
diagram
dùsgadh
fasgadh
fhaodar
fhuaras
ghnìomh
ionnann
luachan
malaria
margadh
margaid
mheannt
miltean
moralta
nadurra
nighinn
nàdurra
orrasan
sailead
sanasan
seanach
seilbhe
sàmhach
taibhse
tigeadh
tighear
ìochdar
òirlich
##etrópolis
##fylkingin
##ganachadh
##tamonaidh
##èilidhean
60251199
Albanach
Auckland
Baoghail
Bhocsair
Canadian
Coláiste
Complete
Dealbhan
Dòbhrain
Eadaraig
Eigheach
Feamainn
Fearainn
Frederic
Frédéric
Fólksins
Gealaich
Ghriogar
Greanada
Hagstofa
Hebrides
Hondùras
Internet
Lapworth
Lenngren
Manannan
Maryland
McMillan
Mharmara
Military
Pyrénées
Randolph
Romàinis
Samhainn
Sciences
Shanghai
Shepherd
Shevilla
Sinclair
Sogamoso
Stations
Stephens
Sturgeon
Sveriges
Szczecin
Teresita
Toulouse
Viðreisn
Wightman
Wolfgang
anarcach
bhallach
bheirear
bracaist
briathar
cairteal
catalais
ceannach
chonnadh
chunnart
creideas
cruaidhe
còmhdach
deasbaid
dhleasta
dhìteadh
diùltadh
duilleig
fastaidh
fhaicear
gaidhlig
gnàthach
iompaich
laithean
leasanan
losgaidh
lèintean
meudachd
mheasail
paladium
paraiste
peantadh
peighinn
phàipeir
platform
purchase
reusanta
sinnsear
slaodach
stopping
stèidhte
susbaint
tiotalan
toireadh
trachdas
tuiltean
tòiseach
èifeachd
##chtenstein
##ididheachd
Barbacoas
Bhionsant
Bhordeaux
Bulgàiria
Caraidean
Chabhlach
Christmas
Cleveland
Dagbladet
Dhrochaid
Dhùghaill
Diùranais
Duitseach
Dòmhnaich
Eastriggs
Filología
Fraingich
Ghealaich
Ghluasaid
Ghrianain
Gutenberg
Heliconia
Inuktitut
Johnstone
MacGregor
Palastain
Saenredam
Sheiseall
Sparkford
Suaineach
Tachraidh
Whauphill
Zipaquirá
bhuidhean
briathran
caileagan
cailleach
ceilteach
chràbhach
chudthrom
chunnacas
chùmhnant
cluichidh
comharran
deatamach
dhòighean
dualchais
dàimheach
eisimplir
falaichte
française
lagachadh
leaghaidh
neartmhor
passenger
phiuthair
phrìosain
reifreann
riochdair
rionnagan
seanadair
sgrìobhas
smuanairt
soirbheas
tharruinn
thoirmisg
thràchdas
thuairmse
Àireamhan
Àiteachas
òranaiche
##ailealogram
Afganastan
Buachaille
Caernarfon
Ceiteirein
Chluanaidh
Classified
Copacabana
Cumberland
Distillery
Eskilstuna
Fhearchair
Heisenberg
Independen
Innleadair
Landranger
Landskrona
Libreville
MacAsgaill
MacÌomhair
Moratainia
Muineachán
Occurrence
Ogsatanais
Ostaireach
Pròsdanach
Revolution
Ruiseanach
Rutherford
Schaumburg
Shealtainn
Sùlaisgeir
Uddingston
Wangerooge
bhallrachd
bharailean
bharanachd
campachadh
cheòladair
chlèireach
chòmhdhail
coimeasach
cothlamadh
dleasdanas
dàimheachd
faoighiche
fhlaitheis
gasaichean
ghearasdan
haidridein
labhraiche
leigheasan
leughadair
mhiannachd
màthaireil
nàmhaidean
phrìomhair
phàipearan
rannsaiche
Àiteachais
ùrnaighean
##icheadairean
Brazzaville
Chalafòrnia
Fhaoilteach
Mendelssohn
Nirribheach
Oilthighean
Reubainnear
Riksarkivet
Shònraichte
armailteach
buidheannan
calafòrnium
chroitearan
cungaidhean
fhuadachadh
ghleidheadh
mhanachainn
mullaichean
prionnsabal
rìoghachdan
sgaraidhean
shealbhaich
territories
theaghlaich
Aquiminzaque
Ceathramhnan
MhicCoinnich
Preastabhaig
Riochdairean
Spioraideach
ceannsachadh
chothromachd
cleasaichean
colonaidhean
cuimhneachan
dealbhaichte
dhrogaichean
easbaigeachd
feòlmhorachd
proifeasanta
soidhnichean
soirbheachas
tràidiseanta
##chuimhneachadh
Astràilianach
Cruinneachadh
Cruthaicheadh
Liechtenstein
Raghnallsaigh
Stiùbhartachd
aithnichearan
atharraichean
bheachdachadh
fhaicsinneach
mìorbhaileach
thogalaichean
Constantinople
MacGillEathain
Mhaoineachaidh
chuimhneachadh
maighstireachd
ministrealachd
teachdaireachd
Spùinneadairean
speuradaireachd
##AL
##DP
##LI
##MG
##ML
##au
##ax
##iç
##ić
##já
##of
##tu
##yi
##yš
##át
##åk
##ém
##íd
##ør
##ɛʁ
##ία
##لي
æ
ö
ʒ
ق
##158
##214
##849
##851
##Can
##ERN
##Her
##PAC
##aco
##acy
##aif
##aik
##aty
##atá
##bin
##blj
##chy
##clu
##ela
##eno
##erb
##fle
##gad
##gey
##hon
##icy
##jóð
##ket
##kka
##laj
##lee
##lip
##loc
##lus
##lyn
##nah
##nie
##noś
##ogh
##ono
##osp
##ots
##ouk
##ows
##pat
##ppé
##pri
##rin
##rán
##sko
##sos
##teg
##tim
##tín
##uno
##uns
##unu
##uru
##vus
##wak
##xjö
##yne
##yss
##zer
##ème
##éar
##ògo
##ône
..
Dá
IU
KV
MW
NW
Pí
Ry
Ró
Sú
Zu
dá
em
fé
hI
lb
mm
ìm
ía
ðe
−2
##2214
##Hill
##ante
##arts
##arty
##ashi
##bidh
##bold
##cata
##chiv
##cott
##crip
##cted
##eace
##eaks
##ealt
##eans
##eant
##edes
##eolt
##erne
##erno
##erte
##gaig
##gård
##hagh
##hair
##hlen
##iane
##ices
##icum
##ilis
##indi
##iquí
##irne
##itar
##itat
##ites
##kiel
##leni
##lerk
##lers
##lint
##luic
##nari
##ogon
##omas
##pavo
##pere
##quet
##reño
##rice
##rift
##ruhe
##sian
##ssjö
##tact
##teas
##tent
##tera
##thod
##tole
##tone
##uirm
##ulus
##uron
##urus
##utes
##vian
##wski
##ytet
##zoon
##zuku
##énez
##ília
##ímur
##óirí
##ögsk
##ýsla
...
139
214
226
232
234
261
262
268
274
288
292
309
312
317
345
349
352
353
358
362
365
373
388
397
402
441
445
472
479
480
484
490
498
517
531
560
568
578
591
645
660
661
676
685
713
714
730
741
742
754
763
769
775
794
852
902
911
923
934
966
979
986
Alþ
Amh
Ask
Bah
Blà
Boc
Chì
Crà
Did
Dra
Enc
Eye
Eòl
Fet
Fid
Fit
Fos
Gai
Gin
Gün
HMS
Hin
Iní
Ith
Jas
Jih
Jol
Kaf
Kru
Leu
Lov
MSP
McG
Meg
Nag
Nik
Nyk
OGE
Ois
Phn
Ree
Ret
Rib
Roa
Roe
Rut
Sob
Syl
TBh
Tut
Ukr
Vir
aba
age
alm
bad
crù
càl
doc
eis
fri
hal
hip
hou
hum
ite
iup
mhù
nor
odh
pan
pap
pio
rag
rel
smo
tac
tam
tir
tiù
uhi
wal
won
Òga
ìmp
##agadh
##agger
##baist
##berta
##bhard
##biano
##boldt
##borgs
##chaff
##cmana
##cnidh
##dheal
##eacan
##eatre
##ersfo
##ethou
##ferry
##fhurt
##firio
##garth
##hacha
##huatl
##ianis
##idius
##ikoku
##ilear
##ilius
##illon
##ineat
##iplom
##iseil
##istry
##iteag
##itner
##itnia
##iwers
##jarni
##kinge
##kopol
##kreis
##laine
##leadh
##leibh
##markt
##ointe
##ostia
##otail
##ovium
##ppert
##rache
##reuch
##sachd
##stura
##teman
##tzain
##ugham
##untam
##utsal
##welve
##woerd
##wohlt
##yddfa
##òcair
##òilia
##ónica
##öhler
1214
1240
1492
1520
1526
1535
1536
1574
1592
1613
1630
1634
1642
1646
1675
1681
1683
1691
1692
1709
1710
1723
1739
1740
1748
1771
1785
Ales
Amas
Anar
Andy
Arte
Bain
Bear
Bhal
Bhen
Bhra
Bish
Bohr
Brno
Bund
CERN
Call
Cars
Cata
Ceud
Chip
Cran
Crit
Dalm
Dame
Diob
Doha
Dron
Dùin
Dúin
Easg
Elba
FIFA
Feld
File
Flod
Flug
Glam
Golf
Grig
Gàna
Hamh
Heim
Howe
Häme
Ille
Ivan
Jock
Klap
Know
Lead
Lina
Lior
Love
Lìon
Lòin
Meta
Mhon
Mhos
Miss
Mitú
Mùid
Naoi
Ness
Olaf
Oper
Puig
Qunu
RISE
Rijn
Ring
Sagu
Samb
Shap
Sher
Sole
Spar
Ster
Strì
Sàrd
Tant
Tear
Tert
Thru
Trav
Uall
Ulla
Utah
Vill
Wahl
Whit
Wide
Wies
Worc
aibh
aile
aint
borb
buin
bàla
bèic
cain
chrà
chìs
cran
deil
dids
dàna
dàra
eala
fann
fras
gobh
hass
heil
laid
llan
luis
meal
mhuc
mios
mole
mosg
muic
muin
neul
phrò
phàp
prom
reub
rion
seud
sgòr
shòn
spàl
stob
thao
time
uèir
Àros
##actair
##adilla
##ainidh
##alainn
##alegre
##araich
##asdain
##bheist
##bhlain
##borone
##chewan
##dachas
##eadail
##eadais
##ennitt
##eòlach
##eòlais
##flores
##iarmid
##iction
##idence
##ileisg
##imates
##iosmat
##iriquí
##iterbo
##llachd
##ltachd
##manuel
##mheach
##ontium
##solini
##stagan
##tabhal
##tancur
##teachd
##teenth
##temala
##terson
##vation
##ántico
##ünster
Aaron
Alice
Angla
Annan
Baron
Barth
Bheal
Bhric
Bhros
Bhàgh
Biadh
Blood
Bobby
Brune
Buirc
Bulle
Cabal
Cairt
Camus
Canis
Ceana
Chaol
Cheus
Child
Chupa
Ciùil
Cocuy
Conce
Cumha
Darío
Deven
Diels
Dream
Droch
Dubna
Eadie
Ealan
Early
Elvis
Euler
Falun
Fotha
Fries
Girón
Gàidh
Harem
Hears
Hiond
IUPAC
Janet
Joule
Kevin
Kezia
Leeds
Lower
Macle
Magan
Magnú
Major
Malta
Marit
Mason
Mecca
MhicS
Mhich
Miami
Milan
Mocoa
Montr
Nancy
Notre
Organ
Osaka
Param
Ports
Pruis
Rabat
Raven
Rhône
Roder
Sailm
Seall
Seice
Short
Siles
Sligh
Space
Sròim
Stodd
Stora
Tambo
Thear
Théid
Tibet
Tirol
Tuaim
Vevey
Waver
Wilde
Wille
Years
Yeats
aibhe
ainne
annas
bhior
bholc
bhuan
borgh
breis
brùid
buids
bàsan
camas
canal
chaib
chiar
cinne
clèir
coirb
cruit
còrsa
easan
fhlat
fighe
fogha
geata
goibh
gunna
lèama
maigh
mhapa
mheur
peant
seilg
seula
sguab
sinne
story
suath
sìnte
thuig
tiodh
tuirt
tursa
uimpe
villa
##aciones
##aillean
##ailteil
##bhaigia
##caidean
##earaich
##erville
##hanaich
##idheach
##ination
##iostail
##isabeth
##itanium
##iùirnis
##lalaigh
##ledupar
##ngström
##pavogur
##tanachd
##tingham
##unnaich
##uthachd
##vendish
##venhaus
Acosta
Adrian
Agrado
Almaty
Angola
Angòla
Asmara
Assend
Bangor
Beinin
Beinne
Bergen
Berrío
Bhioct
Butler
Carmar
Carson
Cesena
Chrois
Corpor
Cultar
Dhiuba
Emilia
Family
Ferrol
Foghar
Geikie
Gerard
Glarus
Goirid
Greeny
Grenja
Gruney
Guasca
Guiana
Harris
Harvie
Herzog
Hispan
Hobbit
Ibidem
Jethou
Joliot
Juvent
Kaiser
Kaunas
Koppar
Laoigh
Laoise
Llanos
Lonely
Lugano
Làthos
Market
Meadal
Medell
Moines
Murphy
Ocsead
Oviedo
Parish
Patten
Perkin
Phluic
Pirate
Planck
Proppé
Québec
Ragnar
Rahden
Rainer
Riyadh
Ruanda
Sagart
Sauron
Secret
Sergio
Servic
Sheann
Shuain
Shuidh
Siarra
Sigurð
Silvia
Strabo
Stéidh
Sussex
Teresa
Thatha
Tocque
Twelve
Vicuña
Wigner
Wyddfa
Zaldúa
Zwolle
aodann
bhanca
bhùird
bileag
bradan
bruich
cerium
ceuman
chatha
cheàrd
chinne
chnuic
chrùin
chuair
cloich
croise
crotal
cuibhr
dhruim
dhuais
dèanar
eibhir
fheart
foghar
fungas
fèille
gleidh
gobhar
guthan
iasaid
illean
iolair
lorgan
lèirmh
lìonra
mathan
meuran
mhuirt
mhòran
pìoban
riagha
rithis
sglèat
sgèith
shlàin
shruth
slèibh
stoith
teiche
thairg
thraid
thuama
thuice
tàladh
uaighe
uaimhe
vestra
Ásgeir
Èiphit
àiridh
ùbhlan
##Encyclop
##anachadh
##bhartach
##braltair
##eamhradh
##eoltóirí
##ghachadh
##guistics
##itheachd
##lachaidh
##mhairean
##tzaindia
##òmhnaich
Alanais
Amersfo
Annabel
Anthony
Aramach
Argtach
Aschaff
Bateman
Bermuda
Bhathas
Caladar
Capital
Captain
Carbost
Ceithir
Ceàrnag
Chamber
Chibcha
Chliaid
Chloinn
Chumadh
Clement
Consult
Convent
Culture
Cùisean
Deathan
Diluain
Dugdale
Eaconam
Eadraig
Edición
Eusebio
Flokkur
Fuirich
Gaelach
Gandalf
Gaoithe
Garradh
Ghiorso
Gilbert
Gillean
Grianan
Hamhaig
Indones
Innsean
Jiménez
Laitbhe
Lindsay
Linguae
MacRath
Maugham
McManus
Mhanann
Mianmar
Nations
Nocaima
Northum
Olomouc
Parties
Phòlais
Polskie
Preston
Quintus
Redland
Rowohlt
Ruisean
Seanaid
Seòlaid
Special
Stettin
Torrain
Trenton
Triuire
Uallais
Uniwers
Villeta
Viterbo
bhacadh
bhannan
bhloigh
bràthar
caorach
ceàirde
chaoidh
chaolas
chàraid
chòisir
country
cròmium
dathach
dèanadh
dìonadh
faodadh
fhaodte
fraoich
fulaing
gearain
ghloine
ghléidh
ghràidh
giuthas
hEadhra
ionlaid
ionmhas
mairidh
mordant
natural
nàbaidh
phlàigh
pongail
pàipeir
rèisidh
sagairt
sgriobh
soidhne
thiotal
thurais
toinnte
trafaig
treudan
tsunami
tuathal
tìdsear
tòrachd
website
àmannan
##cmanastàn
##daireachd
##eanachadh
##easantair
##ighichean
##ingealach
##iomasaigh
##iscovered
Albrecht
Alistair
Antonine
Arbeláez
Augsburg
Barbados
Bathgate
Beattock
Bhathama
Bhologna
Bholívar
Bhràighe
Bulletin
Cealsach
Celticae
Chiarraí
Chèitein
Cnapadal
Columbus
Comhainn
Criostal
Democrat
Dhèanadh
Djibouti
Document
Donostia
Easabhal
Eòghainn
Fearchar
Ferguson
Fribourg
Gipuzkoa
Grignard
Histoire
Humboldt
Ibearais
Imperial
Institut
Katowice
Kirkwall
Klaproth
Leanaidh
Liatroim
Libèiria
Magazine
Meadhoin
Provence
Register
Reinhard
Riabhach
Riohacha
Ruiseach
Seirbhis
Skagerra
Stirling
Verwoerd
Waverley
accessed
bheireas
bhàthadh
bruachan
buadhair
buineadh
cabhlach
cheartas
chuibhle
chuimris
chùisean
cultaran
cùramach
dioplòma
eagnaidh
earbsach
einstein
eireachd
eiridinn
faighean
farsuinn
fiosrach
frangach
fèillean
ghabhalt
hÉireann
iomraidh
leanaban
leantail
mhonaidh
pòlarach
siorcair
spìonadh
thachras
tubaiste
Àrdanach
òrdughan
##dhealbhach
Angostura
Antwerpen
Atlántico
Bhitheadh
Brittonic
Caribbean
Catalunya
Chriosach
Christina
Chòinnich
Conservat
Cornforth
Crothaidh
Dordrecht
Eireabhal
Florencia
Frankfort
Fàrothais
Gharbhain
Grèigeach
Guayaquil
Hollander
Iomaratan
Ioslamach
Kópavogur
Leathainn
Maighread
McKennitt
MhicGille
Mussolini
Newcastle
Normandie
Oileanach
Peninsula
Pheofhair
Philosoph
Rèisimeid
Sardainia
Seapanach
Sebastian
Sgeulachd
Shalcraig
Sincelejo
Sovietach
Stulabhal
Suirbhidh
Tanachais
Taosgaire
Trianaide
Worcester
altachadh
beirilium
bhrùthadh
caibideil
calltainn
caothaich
ceannachd
chaiptean
chaoraich
chinneadh
chriostal
cluinnear
clàrsaich
community
cuidhteas
deimhinne
dhualchas
dhùbhlain
diadhaidh
fhaighean
fheasgair
fhuasgail
fhàilnich
fòirneart
gearastan
gnèithean
magnesium
mhórchuid
miotasach
mèinneadh
neodimium
nigheanan
ospadalan
phìobaire
puinnsean
sabaidean
slaodaidh
sruthaidh
steallair
stoirmeil
suirbhidh
sàbhaladh
theasaich
thuaiream
trapesium
àirdeHill
èisdeachd
##IllFhaolain
##aidreachais
##eannachaidh
0861522214
Bhrosnaich
Caraibeach
Chomhghain
Chuimreach
Coileachan
Colombiano
Draoidhean
Droighnein
Faisistich
Ghalltachd
Ghobhraidh
Maastricht
MacUilleim
Miraflores
Normanaich
Phròiseact
PowerPoint
Prìomhaire
Ptolomaidh
Sealltainn
Statistika
Stockholms
Sìthichean
Thearlaich
Thighearna
Uachdarain
Valledupar
aithghearr
amharasach
bheathaich
bhàsachadh
caismeachd
caistealan
cheathramh
chraiceann
chòmhnaidh
claidheamh
codaichean
cuantamach
damaichean
dùbhlanach
feumalachd
fheuchainn
fhuilteach
flokkurinn
ghrùideach
mhìosachan
moilibdean
phrobhaist
pròiseasan
pòsaidhean
raidigeach
structaran
theothachd
thighearna
tradaisean
àiteachadh
##neachaidhean
Ailtireachd
Bremerhaven
Campoalegre
Conbhairean
Development
Eaglesfield
Environment
Ghiuthsaich
Hairtebreac
Hermannsson
Hjaltadalur
Jóhannesson
Litreachais
Mhìosachain
NicAonghais
Ocseadanais
Rìoghairean
Sgeulachdan
Telebhisean
Tocqueville
Uniwersytet
aithriseach
antamonaidh
charactaran
chliùitiche
chluicheadh
creutairean
cruthachail
einsteinium
matamataigs
poblachdach
shaorachadh
sheanailear
tagraichean
teicnigeach
tradiseanta
ìobairteach
Ameireagaidh
Cuimhneachan
Cùmhnantaich
Ghriogaraich
Hionduthachd
Ionnsachaidh
Mhiùghalaigh
Ministreachd
Samfylkingin
Schaffhausen
Stadsrechten
Undiscovered
aobharachadh
ceòladairean
cheartachadh
chreideamhan
chòmhdachadh
feallsanaich
fhiosrachadh
fhrithealadh
gnìomhaichte
mhinistearan
phrionnsabal
pàirteachadh
rèididheachd
samhlaichean
sgrùdaidhean
suaicheantas
taistealachd
theangaichte
Aschaffenburg
Hearsagobhana
Kirkcudbright
MacIllEathain
Pembrokeshire
Soillseachadh
Triuirebheinn
bharganachadh
caochlaidhean
daingneachadh
factaraidhean
innleadairean
inntleachdail
stoidhlichean
suaicheantais
thìodhlachadh
Aimearaganaich
Euskaltzaindia
Eòlaigearraidh
Toirdhealbhach
chompanaidhean
chruthaicheadh
parailealogram
pheathraichean
stèidheachaidh
spùinneadairean
triantanachaidh
##28
##CB
##CK
##CS
##De
##HE
##IL
##ME
##MM
##RE
##kk
##lɛ
##té
##uw
##wg
##yp
##äl
##ìm
##íf
##ðo
##ɛi
##αρ
##ός
##ري
Ç
Ø
Ś
ɾ
́
⊂
国
##000
##ITE
##Mha
##Tha
##alt
##arm
##coq
##cré
##dau
##ebl
##eru
##evo
##ezh
##fay
##fra
##gae
##gig
##gis
##gum
##hir
##icu
##igo
##ijk
##irá
##ivo
##joy
##lon
##loo
##los
##mba
##mia
##mit
##owe
##ppe
##pul
##rif
##rio
##rri
##rul
##tig
##ubá
##uet
##unk
##vil
##vio
##wat
##xeb
##yon
##yth
##zee
##zin
##àto
##ìte
##ðab
##ðir
##şeh
Ah
CW
DJ
Dì
FC
GP
IC
IJ
Kü
Ni
PP
Pù
RB
SO
Să
ft
hi
hu
je
kB
nn
om
rh
tú
Ìb
ür
##Hist
##agat
##aipė
##aisc
##amph
##arau
##arde
##arri
##arth
##asar
##ator
##balt
##basi
##buid
##caid
##chie
##cken
##clav
##cuma
##eald
##edom
##eint
##elft
##enho
##etta
##eyer
##fell
##fend
##fran
##fric
##féla
##gall
##gamo
##gerz
##gher
##gins
##gypt
##here
##icar
##icht
##ický
##ifis
##imil
##ires
##isco
##itig
##iven
##jaló
##jevo
##jnal
##kara
##kawa
##kina
##kken
##kyrö
##lado
##leag
##ledi
##lemy
##lens
##lieb
##lier
##liza
##lock
##loth
##mage
##oedd
##oinn
##oise
##olfo
##a
##n
##h
##i
##e
##r
##s
##d
##l
##c
##t
##o
##g
##u
##m
##b
##.
##,
##-
##à
##'
##f
##S
##1
##C
##A
##T
##"
##B
##p
##ò
##ì
##0
##M
##2
##G
##9
##ù
##D
##L
##è
##(
##)
##R
##8
##P
##’
##I
##k
##5
##7
##E
##y
##3
##F
##N
##:
##6
##4
##v
##O
##H
##w
##z
##W
##U
##J
##K
##V
##á
##é
##í
##j
##‘
##x
##/
##ó
##È
##À
##′
##;
##q
##–
##%
##ö
##ü
##“
##”
##°
##Z
##Ò
##Ì
##Y
##ä
##ð
##ˈ
##Ù
##ú
##X
##É
##Q
##ñ
##ʼ
##Ó
##ː
##Á
##ə
##=
##&
##æ
##ɛ
##å
##]
##?
##þ
##[
##ɔ
##ɪ
##_
##ɾ
##ç
##ɑ
##Í
##̊
##+
##!
##ß
##ł
##ا
##ø
##£
##ل
##ı
##ń
##`
##â
##ā
##α
##ô
##ο
##ρ
##ý
##ʃ
##Þ
##š
##—
##ي
##ʁ
##Å
##Ö
##ō
##ī
##θ
##ã
##م
##β
##»
##ɡ
##ν
##ɣ
##ة
##→
##ş
##ɐ
##«
##ʊ
##π
##ς
##ر
##×
##а
##و
##*
##−
##ˌ
##ب
##ū
##د
##ن
##č
##ŋ
##Č
##İ
##̯
##λ
##Ú
##ʏ
##ʒ
##|
##ě
##ğ
##ŵ
##ι
##κ
##τ
##⁊
##ë
##ق
##œ
##ć
##ʎ
##̪
##ε
##س
##⁄
##>
##Š
##̃
##ɲ
##̥
##δ
##σ
##ă
##ą
##ė
##͡
##μ
##õ
##Ł
##ž
##ɦ
##υ
##и
##ط
##ř
##ś
##ו
##„
##ί
##ω
##н
##ê
##û
##ź
##ά
##ό
##ت
##$
##л
##о
##َ
##<
##ɫ
##א
##י
##ר
##日
##Î
##ș
##η
##ύ
##ح
##ḥ
##€
##本
##ĺ
##р
##ج
##ش
##ï
##ŷ
##ț
##ɒ
##ɨ
##с
##ع
##î
##γ
##ę
##ǎ
##ʀ
##ל
##ש
##‐
##コ
##Ç
##ő
##ɵ
##ʌ
##́
##έ
##С
##в
##к
##Ø
##Ś
##ů
##ɬ
##ʂ
##ʋ
##ˑ
##у
##ד
##ה
##מ
##أ
##ك
##⊂
##ン
##国
##ň
##Ž
##ɕ
##ʉ
##Π
##Σ
##П
##ա
##⊙
##イ
##ス
##タ
##テ
##ド
##ヨ
##英
##\
##~
##ē
##ţ
##ż
##̩
##Γ
##Λ
##χ
##е
##м
##т
##ّ
##ᚱ
##Ṣ
##ẽ
##ラ
##川
##市
##ꞌ
##Ü
##Ē
##Œ
##ˀ
##Β
##Κ
##Τ
##ή
##А
##Д
##д
##ָ
##र
##्
##ṭ
##⊆
##の
##河
##神
##語
###
##^
##¡
##Ō
##Ş
##ʝ
##̆
##̞
##ξ
##φ
##ն
##ז
##ט
##ן
##ת
##ز
##न
##म
##स
##ा
##ᚦ
##ᚨ
##ᛁ
##ḗ
##Ἂ
##ὰ
##ῆ
##†
##∈
##∠
##⊕
##、
##ギ
##ッ
##リ
##中
##子
##¶
##Ä
##Æ
##÷
##ņ
##ų
##ɚ
##ɰ
##̀
##Μ
##Ο
##ώ
