[PAD]
[unused0]
[unused1]
[unused2]
[unused3]
[unused4]
[unused5]
[unused6]
[unused7]
[unused8]
[unused9]
[unused10]
[unused11]
[unused12]
[unused13]
[unused14]
[unused15]
[unused16]
[unused17]
[unused18]
[unused19]
[unused20]
[unused21]
[unused22]
[unused23]
[unused24]
[unused25]
[unused26]
[unused27]
[unused28]
[unused29]
[unused30]
[unused31]
[unused32]
[unused33]
[unused34]
[unused35]
[unused36]
[unused37]
[unused38]
[unused39]
[unused40]
[unused41]
[unused42]
[unused43]
[unused44]
[unused45]
[unused46]
[unused47]
[unused48]
[unused49]
[unused50]
[unused51]
[unused52]
[unused53]
[unused54]
[unused55]
[unused56]
[unused57]
[unused58]
[unused59]
[unused60]
[unused61]
[unused62]
[unused63]
[unused64]
[unused65]
[unused66]
[unused67]
[unused68]
[unused69]
[unused70]
[unused71]
[unused72]
[unused73]
[unused74]
[unused75]
[unused76]
[unused77]
[unused78]
[unused79]
[unused80]
[unused81]
[unused82]
[unused83]
[unused84]
[unused85]
[unused86]
[unused87]
[unused88]
[unused89]
[unused90]
[unused91]
[unused92]
[unused93]
[unused94]
[unused95]
[unused96]
[unused97]
[unused98]
[unused99]
[UNK]
[CLS]
[SEP]
[MASK]
d
##es
a
de
##en
##er
l
p
,
##ta
c
##el
.
##ar
s
##an
i
##on
##or
'
##ci
la
##re
##qu
##al
##un
el
m
v
##ti
f
##ent
##ri
##at
##om
es
un
qu
t
"
##in
en
del
##ol
##ra
##is
##os
1
E
se
per
que
al
A
##ic
##mb
##ia
##és
h
va
C
##ad
n
##ro
##res
##ció
L
##it
##tat
##ment
S
com
e
M
##ons
P
##la
o
##us
g
re
les
(
)
##ix
##as
in
una
##le
amb
2
##va
##il
##ant
b
B
##mp
El
##gu
##ir
els
an
19
##da
D
-
con
T
##ct
##ur
##ca
##ques
##ul
pro
ha
##era
des
R
##ot
és
##ada
G
F
##di
ser
##tal
##ran
par
##et
ca
20
##ob
##tan
di
V
##nci
##ma
dels
##si
I
##ica
##ts
no
##als
##ter
##oc
##id
La
##ig
N
##eix
##ist
##ver
ex
ll
##eg
H
J
##up
##ell
més
##ec
j
##tu
##tar
pri
##itat
:
##od
seu
##ou
for
ar
Es
##ats
##cions
##tr
aques
##am
r
200
any
##ona
U
##ub
##ed
seva
##ici
##itz
van
##ut
ac
·
cons
##ncia
##ven
##em
##tic
##ors
##entre
##um
##im
ob
##ació
##ria
O
fin
##na
seg
##vi
##any
pel
hi
esp
comp
##tes
##les
En
##op
or
##ss
Al
nom
##du
##og
cap
##te
##all
##ana
##tra
##ades
##ens
##ves
##ón
res
##tin
##ers
##cion
##ans
3
##ència
esc
18
esta
prim
ta
##mbé
##par
##via
##ab
te
##tà
##li
K
ten
##iu
##ect
##pr
##ill
##ep
##ni
ter
##ud
entre
##alment
##ord
##ís
##ge
##fer
##ac
alt
##tant
fou
car
##me
tra
##uc
##ça
als
##and
##ès
##ari
##egu
##ones
rec
##prés
##ents
ma
;
Ca
##ió
##ass
dis
mat
era
tot
pres
mol
##ista
havia
##pi
cas
##ib
W
4
##obre
##ort
on
ab
mar
també
201
però
##car
/
##eu
pa
Mar
##ments
##ina
##ura
An
tro
X
##rib
##ga
##tica
##int
5
Els
##eri
fins
##osa
##eb
##tats
sobre
imp
són
##ch
part
##ve
##tir
##end
so
’
##ula
pos
pob
##urant
gran
##ip
##de
##til
##ug
##enta
pers
##ador
##ita
inter
##rà
##ess
altres
aquest
vi
anys
gu
199
##vol
##ris
##ener
##erra
In
##fic
pre
##he
pod
col
##ya
##cl
trob
exp
##vers
##sió
fer
##ten
seus
##lic
##lia
##00
després
can
Va
cre
##lan
##eren
Ar
##tament
fa
temp
##for
emp
qual
##tor
oc
form
sup
Per
##ena
ass
estat
princi
##ges
##mbre
##fici
pr
6
ad
##ín
##ola
aix
aquesta
ciu
##tre
##ces
##tit
reg
##eny
##ard
##reb
me
##ne
hab
##cional
##ing
act
dos
##gun
à
##igu
Un
Com
mun
ja
ap
##its
##des
princip
##ins
##ric
8
Les
##teri
fam
Aques
##ora
##alitz
Bar
##ien
cos
prop
mateix
primer
rep
##itu
du
##titu
##tru
gener
##ble
cor
por
7
##ular
##tiu
##ili
man
##ús
##òn
##lica
##gl
rel
durant
##mes
Des
pol
##rer
ins
##ics
##ont
##pa
##iv
vol
##cia
sol
##rat
17
eren
pot
Par
quan
li
##av
molt
##àn
##tiva
##min
9
##lar
##rup
aut
##rec
ciutat
ag
fun
Gu
196
##fica
tor
##oni
198
forma
##cel
pobla
Fran
##vern
està
produ
##rica
##unt
##ert
Ma
Ch
##est
am
##cial
##aix
15
algun
divers
Jo
treb
to
contra
situ
##riu
est
##ella
tres
##tants
lí
ent
int
Sant
##erm
estu
segle
##ala
É
2007
famí
16
fill
desc
##bre
##ev
##itj
##eta
si
##lu
actu
##ai
estaven
##met
No
ind
12
##anya
sub
pass
##tura
197
##ició
seves
treball
lloc
##omen
10
of
pels
difer
##ida
Ta
Car
comen
##overn
##atge
u
dues
##cid
##ctor
##atre
Q
arrib
##ental
Catal
##lo
##ense
##òria
##ost
Pa
##tion
af
##sa
##gan
don
pe
ú
Re
##jor
té
##gra
És
##tis
De
lle
k
##ants
fran
hist
nord
encar
Uni
població
##èn
empres
fet
edi
##ema
##eixen
bas
##terior
è
ra
primera
##mi
parti
quals
##tilitz
ocup
grup
##itats
##ori
##sos
##èr
##rans
##oci
##ja
apar
##ncies
##ària
Con
incl
disp
hom
##ecte
##ust
##rar
##tiv
##rig
cla
munici
Barcel
mitj
Cas
persones
##oca
cin
et
##isme
San
conc
camp
equ
segu
##dre
##ren
##man
11
veg
Na
utilitz
##àr
han
z
##ron
«
##ret
##cs
govern
»
na
mor
Barcelona
mes
Qu
193
##ha
prov
major
##ion
##úb
14
13
##uro
Cons
##olog
op
##ern
##ce
##cte
mo
##eres
Y
po
sud
impor
##ll
pl
inf
pub
família
##men
2009
##cie
anomen
conegu
##ov
##rim
##emp
troba
comun
##çar
jun
sense
x
ti
##tell
##tives
temps
##anda
##ral
##dic
Z
orig
Esp
##ars
##ural
def
pla
194
II
##tics
fil
as
##tiques
##versi
trans
mod
##èc
av
contin
##unya
estab
encara
##às
plan
##adors
##tol
polí
rom
##ag
estudi
##ls
##uli
consid
##istes
prof
##els
rei
segü
##dia
##mar
##cció
##erv
##tius
només
bar
195
The
co
##rip
acons
dia
Catalunya
ro
##ències
cul
##ries
això
##dat
##ru
mon
tal
##ament
##elles
##gi
obra
inici
##enci
aconsegu
cal
##cies
catal
tenir
##rí
repres
Després
uns
També
així
cent
##alitat
##eria
##pe
proc
ver
##erc
##ixer
##cep
##den
##tim
##truc
##ros
##tació
##co
192
met
cl
lla
llar
##anes
tenia
loc
##glés
habitat
desen
##ines
##oll
##usa
##nar
##vid
sist
mili
il
0
im
manera
w
##oma
espe
##ució
##rid
realitz
##ong
aqu
dist
##ba
##ril
tí
##erat
##urs
##000
##volup
trac
Sa
terme
##nes
##ós
##ells
##tia
##con
gra
sota
##ements
Jos
##ules
##ies
##gut
##if
##II
min
conf
Am
##asc
##oria
espè
##ine
quatre
Val
poder
desenvolup
##ement
##omin
equip
obs
sig
Cor
191
##bil
cat
##rada
organ
##ït
Seg
resp
##versitat
##of
tant
##dor
##ides
##tany
tots
##òp
##ang
nou
principal
##ecció
##que
Ja
tan
##iss
sen
mort
##glésia
poden
mus
aca
##ologia
partici
llib
##cter
tar
##erg
%
diferents
resta
guany
##itants
##dar
##vis
##ols
Ll
mal
apro
##reg
exemp
baix
Le
##tac
##ode
diversos
líc
##eric
##endre
Aquest
##qü
conver
dirig
haver
tenien
##onal
anti
Ba
propi
llen
comple
000
Can
Ab
sor
vida
the
abans
segons
##ocs
mill
À
general
em
germ
dins
##ara
reb
constru
Pro
##pus
deix
##cor
##forma
Euro
alguns
Col
##xa
Or
diverses
##ui
##reu
vis
##trucció
dones
mos
##ritor
##aren
##oles
espany
public
and
##reta
hum
##què
Ha
aquests
Ex
Gran
##aria
serv
neg
Ale
##ond
mentre
serve
títol
##mica
##rit
##per
##essi
rela
ofici
Aquesta
edifici
Cal
peti
##ian
homes
##òg
veu
fills
partir
##rin
##ero
val
at
##òs
##anç
oest
començar
municipi
continu
##th
següent
món
##nica
##ere
pop
aj
##ració
cada
guerra
mús
##ores
##ions
##vint
habitatges
total
Durant
Man
##ual
Mon
territor
cel
dese
##rag
##vien
##rom
sal
altra
sistema
##erta
##eració
tipus
##und
##ogra
##urg
##ectes
regió
sè
##tada
da
final
estava
què
llarg
Vi
##jar
–
obres
arribar
##ow
##rie
esde
presid
empresa
##ure
##nic
##quit
##cis
sin
##cit
estr
perquè
Aix
##aris
organitz
##ssi
Universitat
èp
franc
##ns
##ton
Ra
acab
diss
XV
##bor
##hi
Sal
##ública
qui
dire
25
jug
##gues
ju
Estats
##stitu
altre
##able
planta
Mad
190
grans
cara
##ze
origin
##enys
obj
compos
Di
mom
##fi
especi
banda
contr
poble
Joan
##atges
ho
Amb
##oss
oct
riu
Inter
##sions
progra
castell
mà
##gen
##gué
##ira
habitants
cop
ne
##ots
causa
juli
##mat
comer
##ubre
canvi
casa
##dis
super
##ior
història
##ribu
##rera
punt
leg
Hi
dep
##alla
y
##vors
maig
tempor
##qui
set
##òr
##ux
##ures
##isb
càr
juliol
activ
Una
##ka
##teriorment
francès
Guerra
França
Units
zona
octubre
suc
tard
##han
##za
ve
úl
època
##fí
su
juny
sec
donar
porta
resul
exemple
país
classi
refer
30
església
construcció
Tor
tin
feb
tenen
##truct
##esa
conj
##tembre
molts
Mus
morir
Reg
pat
##xim
setembre
nova
us
permet
km
ben
##ital
##gular
aigu
lícula
Is
##leg
estan
sa
aquestes
art
##por
Mun
març
ba
abril
##minist
perí
##èrcit
Camp
direc
##erva
nomen
nat
establ
Rep
nove
##ide
proj
##art
dir
mant
men
1999
cinc
doc
lit
fe
##oli
situat
##nacional
ara
Espanya
ped
##land
amp
##orm
##ress
2008
dem
##ònia
possi
##ava
desembre
_
sèrie
pas
conegut
24
important
tradi
agost
##lor
recon
moment
##cer
##ela
havien
dar
##ea
den
189
##osc
bé
jo
poc
autor
novembre
Esc
aigua
##ok
prot
costat
antic
##erar
##ich
##pes
##gn
##omp
##ctes
esqu
principals
aconseguir
ref
centre
21
##ficació
##tina
territori
pare
##ini
cer
cosa
##isc
disc
Santa
militar
cont
alem
Te
##ient
comb
##mbres
nec
##fa
##omb
##ys
##ront
22
##eccions
municip
##ològ
##èixer
##ivil
ven
##ical
##mun
ell
cob
sim
partic
Ac
##rimoni
tel
Ne
188
##ía
vegada
##uta
millor
##tres
##avant
segona
Se
Ro
integ
música
febrer
##emes
person
lo
desta
##gua
XI
algunes
bri
Mo
##bol
Ant
dona
##epend
##dial
pin
##vés
foren
econ
##talla
pun
segon
llavors
gen
caracter
##bles
tornar
Josep
##àl
##essor
semb
Madrid
proví
català
##quen
##ki
uni
##nia
viu
##se
ri
23
Maria
##issió
##cionals
Si
espècie
passar
treballar
##ograf
##ets
niv
empreses
grà
##àm
##àg
ef
##ínia
capital
període
medi
movi
##entació
##nat
Nacional
Pre
##tig
mateixa
Pi
##uda
acc
través
rev
So
popular
##olí
##ano
##uit
nombre
majoria
##etat
##rodu
##ez
##rac
##ull
Gener
estruct
Europa
##tad
Mal
vegades
##illa
càrrec
metres
cur
Tot
aC
totes
ed
Fou
tras
fus
Bo
med
##èl
davant
inac
celeb
##tions
cir
##ensa
##tenir
fut
der
edat
##entar
cri
##èrica
##tures
resid
Co
##lies
ide
##òm
##riure
For
Entre
Ad
##io
Nova
suport
##ïsos
indi
##án
tota
2000
nú
mig
estar
rebre
trobar
##ke
##èm
Cap
##lí
##ms
anar
dedic
labor
faç
Ass
abs
##eral
##rets
##uri
sent
esdeven
primers
Th
domin
inclou
manten
seny
##osició
anomenat
angl
èx
influ
##arca
ús
partit
As
##ià
26
##III
##ry
28
exist
##xi
veure
##iga
unes
mot
enf
##ind
187
nomb
##uls
signi
##ale
actual
##hn
director
##unci
##ogrà
##ire
##gar
##ïda
##ras
2006
Me
dip
##lat
##tt
##osos
president
independ
capa
27
mil
inc
rà
Pat
Sh
pen
relig
Quan
tracta
estil
Cl
din
elect
##oses
materi
superi
administ
2010
##ües
política
para
tri
exèrcit
##mà
comença
2011
##risti
París
##titat
origen
##ille
histò
##pon
##au
##osi
coneix
gèn
interp
creu
##tivament
##acions
alemany
control
##osta
##ització
temporada
terra
escola
Vall
##iment
##una
##èt
acord
Dels
##tari
##isió
descob
ens
púb
##ística
dèc
illa
##ork
é
##quitect
vic
Lle
guanyar
186
##òbil
##vant
antiga
##esta
mas
##vall
presenta
brità
pertany
##red
Sch
circ
conjunt
##xt
autom
fon
província
Consell
##urb
línia
##gon
##vent
Lu
cad
decid
##ància
ells
nacional
Ge
membres
membre
Segons
##éu
##vin
mostra
carrer
##assa
gai
##ger
Mi
##ançant
##niques
##tima
constitu
##eti
##cil
prom
formar
frances
##cidental
##oble
pis
##rir
anglès
Gar
espec
extre
façana
pedra
disseny
##partament
núm
##etes
particular
paper
##der
##rea
distri
##urar
ital
programa
##ish
color
##ach
eleccions
##formació
dies
##var
ren
##éixer
do
Ben
##vel
Mor
##kh
central
er
obstant
##ografia
##gin
le
##wa
Mas
força
company
##rab
pàg
##volu
Hist
##quia
Su
Pal
##eca
Sud
baixa
##menta
menys
##itud
establi
figu
##lla
##ualment
fund
Antoni
social
estudis
crear
servei
##àb
2005
obtenir
##àries
escrip
29
servir
2012
##ània
famílies
blan
##orn
inten
decl
separ
particip
Alb
nivell
nomenat
##ting
Ju
los
anim
##omia
##cials
##tista
base
èxit
considera
##emà
nuc
proble
Pop
germà
##ani
Nord
Mont
ni
Ber
llengua
sel
imm
##itor
Fer
sis
juntament
##adament
aband
americ
sigu
Sol
convertir
Vic
=
##rop
derro
mitjançant
##ètica
Pu
##gat
ordre
##anta
plaça
especialment
canç
lliu
format
formula
##emb
Ram
##go
##cal
Pere
últim
ofer
##esti
##ònic
##tí
moviment
llibre
III
avi
##ustr
Pla
bisb
situada
2004
República
##quer
##do
##ífic
tèc
interior
ge
class
##emen
natural
sovint
trasll
##metre
participar
Pol
corres
##mpre
diu
##udi
all
quad
classific
moltes
##ectiu
pes
Alem
Gal
públic
##tals
Por
llog
XX
##tural
cases
envi
voltant
##cin
Be
##xic
sempre
actualment
Castell
serveis
##ock
front
procés
##nies
escriure
##onat
##grat
##roc
##ites
elements
fot
sex
##vor
]
civil
Da
##teriors
ing
inclo
inves
##las
representa
Min
##tanya
Fin
espècies
tur
data
Partit
Emp
terres
persona
2013
artic
##ttp
plant
##untament
deter
superior
Rom
31
185
Imp
##uss
##ança
vari
Roma
##osar
##ler
relació
##uts
##eratura
importants
prob
ober
coneguda
possible
is
grups
##atori
Ap
dècada
gènere
seua
York
bi
[
##ial
##ff
nombros
##inat
##our
merc
Ori
2015
producció
##evol
local
establir
cam
finals
carrera
##istre
50
pu
##tot
automòbil
”
Ver
defin
parelles
repar
Frances
##tific
emb
##arra
únic
Estat
espai
##bu
Ser
següents
simp
Institu
fre
##citat
##ase
Algun
acabar
##ks
polític
Així
igu
2014
##ilar
“
##vat
##licació
##entals
posició
Alemanya
Lond
fi
desenvolupament
##uel
iden
##anc
##ocar
##ids
sinó
fos
finalment
futbol
club
desa
bal
filla
crí
euro
apareix
estructura
##tava
##eli
Ed
##duca
anomenada
escri
Ag
cic
##ham
obl
##let
districte
milions
##rist
184
fab
darrer
Li
Està
##aven
##edi
##òpia
##icació
redu
cavall
##ate
cant
##ultura
original
Rob
Act
##ionat
##ònica
aquell
avui
països
##ícia
Jocs
superfí
aug
Mol
##rebé
qualsevol
##ços
##ràc
Comp
instal
petit
##rés
arc
##ity
Això
substitu
##urals
departament
##gel
##ór
##ríc
cens
##ulation
##ístiques
bo
condi
torn
oficial
2003
##onor
gal
##isi
##én
desp
prendre
##rats
etc
troben
Prim
construir
Unió
determin
ep
http
realitzar
ocupats
batalla
Ità
##tip
sobretot
projecte
actives
significa
Cat
Mundial
##volucion
versió
deixar
40
##ctors
sí
her
Però
dec
commun
##uny
##ota
enc
trasllad
pràc
##rega
New
John
conte
llum
vivint
direcció
##ey
##ph
##erador
Bor
##cul
única
100
##entat
sols
##onals
##tida
Regne
##èria
XIX
esca
##ua
Itàlia
principalment
mare
##unda
professi
##edir
183
##rò
Res
##ser
ib
##àss
gairebé
néixer
Har
##tància
deman
##tom
##frica
Cent
##titud
inactives
modern
carà
##retat
&
Mu
professor
docum
Premi
##mad
clar
edició
declar
forces
conserv
hos
##ino
sab
individ
accep
##eus
commune
present
ferro
quedar
—
##ecu
categ
##ck
dret
reun
revol
##qüència
##ustri
##olf
grec
correspon
parla
##mit
compon
##formes
telev
València
José
##lib
divis
ata
espanyol
##onar
ella
##siva
norm
incor
informació
##val
superfície
associ
##rent
sob
##atí
malal
ang
cristi
recup
##ècia
##èmia
##adora
Dom
vers
At
estudiar
Nom
##rics
peix
introdu
mantenir
proteg
pal
##ast
##ciona
probable
institu
##ilitat
fisc
Llu
lim
Internacional
relacion
##yn
Imperi
##ume
petita
##entment
ví
afeg
posteriorment
##ré
##ho
##erna
##mis
publicar
##crip
2001
mesos
òp
principis
1968
And
ajud
seria
Ga
àl
##enes
##jat
##edia
agríc
##ístic
##cat
retor
ir
fan
portar
##alau
##estres
Bal
propieta
trib
socie
disposa
Os
eta
destac
Soci
Mè
##rers
##uals
Té
jove
mitjana
2002
Tan
Fil
##lota
peri
##ps
propor
Ob
funció
Vol
internacional
Olí
creix
tradu
alta
##xes
urb
Olímp
activitat
punts
material
##asi
##ega
Í
assol
##itar
conserva
occidental
##ibli
model
masc
##metres
vila
Baix
especial
##essin
##bilitat
##her
Acad
Je
Museu
##rees
estiu
Actualment
Londres
primeres
parts
ciutats
Pet
home
?
entrar
orien
zones
##çada
Ka
novel
##hib
investig
Gra
##gui
##opa
tropes
##óna
mai
espanyola
retir
Van
General
joc
compar
fes
infer
##mateix
establiments
##table
2016
Terra
competi
atac
Angl
produir
1962
Hab
##úss
##enc
Il
Tar
##ressió
utilitzar
asp
##burg
##ocrà
dades
##jo
anterior
##ley
aproxim
181
ww
##to
www
Mari
Segona
tren
mostr
Pres
llu
tit
formació
poblacions
text
varia
##enya
cient
35
dóna
##odes
llocs
Sup
tec
##tagon
necessi
revista
##ssa
activitats
adop
situació
àrab
##òl
##dap
cinema
deri
Nic
##bum
##gués
terr
##íncep
defens
long
Ph
##ie
Oc
Sp
##ik
ord
##sia
cultura
Pos
rus
caus
##uria
municipal
Ur
##erts
divid
##dem
properes
posar
60
##èg
Fed
assass
sembla
exer
Fel
sur
Saint
##iter
##unta
partits
##urat
accés
1961
vin
Br
industri
Gir
##len
##egut
Del
educa
creació
restes
32
extrem
viol
ales
##inar
##itzar
fons
eleg
##igh
entrada
incloent
##íb
condu
concep
Carles
Cla
bisbe
podria
Fa
##dio
àrea
plantes
real
pec
decidir
acomp
vict
Aquests
##sion
mèt
demos
##ússia
Casa
##òmica
pens
interès
necess
182
##uració
##ixa
valor
deu
Er
Lo
caràcter
desapar
teatre
quí
Amèrica
fiscals
meitat
presentar
pint
vir
ocas
resultat
##hores
##ocup
mitjans
##rien
##orial
sos
unitats
Bi
##tistes
àlbum
##ner
ali
cm
##andre
objectiu
Rec
vel
##mer
pil
Ín
##ex
presència
premi
vaix
musical
interpre
IV
gl
##tab
##cera
band
Pel
pan
Ven
favor
##ds
seguir
sigui
Ter
comte
emperador
conta
Char
##òleg
fent
Era
1998
Alf
Mat
##ils
xar
##ànica
Dav
comarca
##mbra
costa
##cle
número
longitud
##onestir
societat
massa
rebut
##ità
1990
oblig
adap
viure
protagon
comerç
duc
subs
escriptor
cultural
##tall
excep
Olímpics
Unit
vall
pròpia
mul
vess
##yer
Med
tes
sant
##dors
He
perd
casar
Patrimoni
Institut
pràctica
port
##zz
pir
llista
##alt
##ania
ci
honor
Will
televisió
##aterra
##nics
##onia
##quel
flu
Juan
referència
Art
+
succe
desig
cli
##àlia
##ibliot
Cast
hid
Vila
##riques
Déu
organització
##uï
##port
productes
llibres
consider
afir
espa
Anglaterra
religi
##ible
escol
Ind
##istència
Cam
Lluís
St
##oure
llatí
mans
##grés
equips
Gi
interess
1995
probablement
Alex
principi
ves
##ublic
gràcies
infor
##no
Església
Club
drets
Ri
bosc
prepar
nous
##usió
##berg
180
continuar
mec
##reus
igual
Bu
##ore
36
prova
problemes
imatge
energ
estren
Mic
Jor
Mil
##cara
##bi
noves
##tana
Dem
Als
divisió
##one
1996
resol
end
Kh
##tional
not
##alitzar
##dica
asc
ibn
llei
Exp
##rament
##tive
nor
Tra
fusta
Go
Comun
influència
sac
##istir
catalana
camí
marc
##dament
Ste
##erca
incorpor
Francesc
europe
Jaume
##alització
Francis
##mentar
##lament
fís
Lla
##bo
mesura
curs
80
classe
##dats
##ró
barri
coberta
arquitect
relle
##asa
lluita
segles
##orta
Més
nucli
Pe
lect
##cionar
ess
dur
fora
observ
vuit
Jac
##rang
##inació
1997
utilitza
espor
esquerra
web
enfron
docu
##encià
categoria
1991
##ole
ocupar
personal
habitatge
##gip
Tur
##òmic
torre
hauria
bus
decor
##là
1980
33
##vació
tercer
quar
##ult
teoria
pública
##ològic
Ib
mis
Op
liter
##davant
dreta
##tival
##çà
Àfrica
deci
log
##ek
##tiga
pobles
Sar
##resa
italià
compositor
Pri
1992
Robert
Segu
1994
plata
Geor
lar
defensa
##ecta
##ef
regne
evi
evolucion
extra
estudiant
##úst
##orca
rectan
respons
lícules
destru
feia
Mèxic
esdevenir
Est
Univers
aproximadament
XVIII
##igües
##gües
process
##50
Bri
##miques
Alguns
casos
##obles
figura
cr
Em
clàss
##ters
##nis
experi
##ònim
##ums
nav
habitu
ec
##ilò
cab
pian
dol
##icions
destin
##erd
##lació
gràfic
companyia
Escola
Centre
cu
Men
##tint
escla
monestir
##lada
##grama
príncep
##guda
Cab
propietaris
passat
##licacions
dibu
ced
##unciar
70
Govern
##pital
ch
Af
##com
instru
##essió
##vas
179
administra
pren
muntanya
##ològica
##çat
##quip
2017
Aquestes
##ames
!
sola
francesa
1970
tas
Po
cicl
Mac
##ash
prote
consell
medalla
Arag
aleshores
interna
##ànic
Bro
fug
Paul
pon
quantitat
capella
##ètic
veloci
##èct
dipu
posterior
comunitat
alter
destaca
##iana
Reial
muntany
encarreg
##volució
Arquitect
refor
nit
conflic
##gue
##ventari
Ciu
capacitat
##lam
tecn
lliure
exerci
##ices
Ros
Aj
elim
Sim
Finalment
rectangular
denomin
fundar
##ogràfic
##ado
##encial
Xina
Jap
##ulta
dirigir
dirigida
comand
opera
desenvolupar
##ficar
##zi
professional
etapa
governador
matrimoni
dibuix
##erament
orden
nau
later
##làn
ampli
País
Bern
Pen
Ten
Tanmateix
publicat
##ld
ful
##lec
##unid
##retari
Cha
iniciar
importància
##voc
far
Encara
dispu
sexe
deb
Posteriorment
tr
Manuel
llengües
##onès
fal
podia
st
gas
formes
##lant
Ci
##retera
##itx
##mo
##quing
energia
marx
agric
reac
##èdia
Din
recor
##ulació
500
elles
allib
##zar
imperi
mitjà
passa
jugador
Bra
Jean
sentit
modi
manif
menor
destacar
##ressos
1936
conse
dif
##edral
Her
personatges
Estu
ga
1993
bran
Acadèmia
##trat
Mag
Tom
candi
Rib
##ite
Rússia
Espany
simple
##astia
oriental
##mació
##guer
petites
##quet
##ko
Mart
considerat
acció
##ultat
##ident
animals
##ates
tema
jugar
petits
Willia
bona
dra
mic
##eries
Pau
diferència
sistemes
conèixer
anom
anual
nasc
bàs
reconeix
cançó
adqui
femen
##vada
jub
##rant
aviat
aux
administració
##fiques
font
Sam
gent
34
angles
Carl
##dal
##ker
estatunid
son
Ramon
perdre
permetre
Campionat
tradició
conté
##ung
Pas
preci
##gir
##lex
##old
ràpi
mem
humans
treballs
##anisme
verm
##ribució
estats
Los
##ficat
historia
victòria
Fern
##ançar
Bre
perf
lecció
pi
##ïa
queda
##gia
execu
alcal
represen
##ith
##questra
escala
proves
David
dic
##osat
fru
##ífica
Miquel
##lars
aigües
recerca
##isp
esper
##ile
##urn
tercera
##ties
##ocia
indúst
90
bon
##zo
carretera
Flor
Kar
Rod
apr
mestre
classificades
última
personatge
Malgrat
##licar
Log
Copa
blanc
enviar
elev
##lin
##ulm
##augu
##lín
religió
##cina
bat
respec
##son
Antonio
campanya
acompany
sector
Mall
via
illes
unir
##tenció
peces
##ña
##rasil
##iliar
tradicional
comtat
##can
Tel
##erre
Sab
##ogràfica
frontera
relacions
agrícoles
Edi
Índia
Ho
##omes
piràm
45
Aut
1960
##ly
##ei
contemp
##st
Ir
##ber
##alles
domini
composició
1989
##itària
inclosa
##jada
Nor
entorn
##òlica
##umnes
just
##ofia
##ingü
##úl
Altres
##gal
romà
##rades
period
generalment
##uf
##ïts
temple
Austr
Juli
comunicació
tron
##net
anomena
vista
sortir
concent
arb
Civil
qualitat
Inventari
matemà
Vil
Social
Hen
##cili
escoll
aer
##dien
Nombre
XVI
veï
##adia
condicions
Nav
estre
##ilòmetres
##òlic
cançons
arque
##lea
##lau
cèl
Ped
Andre
nombrosos
##venció
propietat
37
hip
formant
Fes
ub
Nat
##raven
os
edificis
ator
##ico
Arquitectònic
##nex
On
##icia
Jan
tend
funcions
competició
codi
grat
demanar
foc
diari
Lou
velocitat
##ília
senz
evitar
utilitzat
inaugu
sot
consist
##isteri
finestres
##erals
antics
ministre
intel
recol
escrit
##ky
atura
Jordi
##cip
traves
services
selecció
##estió
Japó
amor
llin
##rem
##ïta
òr
temes
##ociació
##baix
ajuda
formen
viat
assolir
mundial
ciutad
##enca
piràmide
##icals
équip
##isca
178
##ford
##hu
Pr
aparèixer
##aters
équipements
pintor
idea
literatura
doncs
descend
##har
àmb
diferent
Francisco
pintura
classificació
##íc
similar
armes
##ann
Ajuntament
respecte
##itza
##odi
nos
fl
ingressos
38
Du
elèct
##dós
##che
Europe
Tim
retirar
doble
efecte
Oli
bl
diagrama
fonts
traslladar
Marc
compost
edats
alm
##hora
carb
locals
defini
Lib
estació
portu
##ood
malgrat
##ferència
realitat
fort
##pies
motiu
##ced
pour
canviar
automòbils
##tisme
expedi
freqü
transport
##far
educació
1986
article
comanda
##cripció
##etats
complex
##uis
Pl
llac
##jos
##ional
xarxa
Popular
arquit
##ires
fines
42
Serra
magn
Arm
fabrica
particulars
Nacions
Bas
Cin
Sha
##ory
1988
evolucionat
mag
arriba
tècnica
1987
aire
##graf
Alt
ul
Aragó
paraula
##ories
##taments
exterior
disposaven
##çal
pocs
envol
nombroses
mercat
##dua
Bel
##òces
##adi
arr
##iblioteca
restauració
##urada
pau
inferior
municipis
alçada
hivern
Div
##giques
comercial
ocupades
##quí
##òries
militars
##mbol
assegu
soldats
##ugi
aquells
##eter
##pir
descon
reial
atribu
fron
Gre
hor
2018
##cap
##usi
artistes
dinastia
##neig
##ocal
44
org
Primera
Ala
##íg
##orld
obtin
fets
autors
Jer
lleug
Jes
##ilades
reparació
soles
comú
territoris
explota
Generalitat
##nd
assi
Girona
formada
1982
contribu
1984
esmenta
Puig
##lida
##àp
Enric
Av
Sec
Tol
##urt
##xima
Congrés
tractat
##cada
excl
mit
1985
Espa
obertures
Gr
consta
ín
mediev
dimen
##òf
39
lib
##ursos
PS
##iança
creat
##liss
objectes
succ
volta
legis
##titats
##be
regist
##ales
1979
romana
imatges
roman
##ulars
##vo
germans
Population
eix
##ulat
noms
científic
##erim
##rael
proced
Dip
doctor
Fo
enem
sul
mm
segones
òpera
qü
llic
##mon
##ismes
regular
abandonar
1983
##rita
##ertat
##ïdes
Aug
##och
##clop
guer
termes
##cant
engin
unitat
socials
population
Mir
Fins
##opar
VI
distància
record
Pan
##adal
ajudar
independent
pàr
Parlament
elab
##rich
filos
línies
san
XVII
censats
fem
##usta
donat
##ival
48
sil
alguna
177
masia
##ensement
clima
torna
pàrquing
Ni
##dam
joves
##isa
##sula
confir
millors
##loi
Albert
electr
esti
intentar
Sen
depuis
procla
##ersonals
amena
Don
desocup
actualitat
vint
Unides
Egip
britànic
##utes
active
##àtic
paral
considerar
fen
màxim
Sc
##utació
difí
unip
independència
##illem
fonam
serà
recensement
Emploi
capbaix
logements
pred
inactius
Logement
afec
Central
##ulada
produeix
##tils
Exèrcit
compte
existència
secció
moderna
residències
Tots
Habitants
43
gar
41
1920
pp
##SA
llogaters
mena
esposa
indústria
explotacions
artista
##gica
marca
1976
unipersonals
Mes
univers
materials
esdevin
##eld
vide
##umb
Met
##ïna
Mc
##tec
arribada
##eridi
Països
1950
guard
vig
quilòmetres
construït
Mallorca
Coll
cambra
##tors
entren
##ule
##gent
##edo
romans
hores
##uït
normalment
##ardo
canvis
flor
Merc
Portu
##órm
##ables
ball
##yd
Rich
fabricació
tran
Dic
##ath
##efici
##ations
##uk
##ví
Egipte
usu
fà
funda
Far
##ji
##quis
Felip
Són
Sel
##tivitat
carta
distribu
##idor
habita
jubilades
##errat
stock
##guts
aga
escul
anteriors
##siu
mida
##dues
legi
##20
aquella
1975
dià
inclouen
actor
element
conn
disting
##tabliss
##ence
##nam
consum
llarga
negoci
##liques
##timent
llogats
malaltia
caigu
William
objecte
##tades
Port
americà
##tablissements
dans
entitat
àmp
##rez
To
établissements
vora
##ficacions
1939
##ronze
##hic
1977
francesos
##fe
gradu
##ony
ple
Bla
##òcesi
Blan
seguretat
##cident
ani
1978
XIII
##esos
impuls
##guin
recuperar
cadasc
Arts
Font
directament
##alitzat
##amunt
##ando
##itzat
temperatura
##ença
##ectà
hidro
##òd
Palau
##cen
identific
limita
econòmica
trobat
##icar
celebrar
##ègim
colors
endavant
llig
ésser
resultats
bra
##itari
##ínsula
María
atra
##ali
conven
##cionalment
1945
##ney
Associació
Plan
Catalana
posse
refugi
pèr
##eja
condem
acus
1981
representació
##issa
##itè
castellà
Calif
piano
##icat
enlla
aturades
quart
bomb
combat
Fred
##tenen
##mos
exten
Orient
##itorial
pap
sug
parrò
Ban
lid
Ang
mica
muntanyes
##ustria
##dez
elegit
recons
negre
150
ros
##rani
fàb
##idors
Gl
##ise
##itzada
##gentina
escut
Guillem
##tual
Tarrag
##tm
monu
prò
##tien
Món
segueix
conseqüència
assassinat
elabor
senyor
##pen
classes
compta
Mel
naix
Gen
guar
generals
##ater
##peu
##ice
ps
lel
atacar
##questa
##10
cantant
##ade
##òrnia
regions
fed
##cio
retorn
##òc
Alfons
intent
concepte
##edes
ordin
##icament
corona
##ington
desocupats
acaba
##ue
46
nens
poss
promo
gratuït
1930
candidat
reprodu
lus
prohib
##ente
sòl
##onada
experim
sus
##tins
##are
provin
##úr
neu
##ènia
mass
cot
Clar
James
efectes
setman
oli
sap
acad
química
##talls
inicia
arx
FC
Festival
cim
Charles
paraules
##elló
àmbit
##van
Lin
digi
Sin
##dà
dom
Cul
64
seguit
fla
lli
Fish
llança
contempor
##ògiques
tribu
Torre
##bia
##fera
musulm
##àmica
distribució
##ítol
prem
Dar
Pon
portal
Do
varen
##iments
##onomia
Tour
##gatz
##undació
Canad
1940
##ward
sovi
World
##ario
XII
##irà
##vador
mand
Califòrnia
comandament
fra
començament
##uris
britànics
47
##dies
creixement
##àtica
##emblea
##we
mur
Khan
mètode
##onda
ràpidament
darrere
estrat
problema
orquestra
mural
rib
absol
publicació
Monts
1974
Berlín
mel
explica
ret
##istan
poeta
Cu
llengu
bronze
Sta
mascul
Luis
##màtica
típ
Á
dedicar
aï
Martí
Conf
succes
##ES
hectà
##ign
176
viatge
##vier
##ectiva
##ring
fundada
evid
àmplia
catedral
Mare
capt
sala
economia
##gueren
arquitectura
participació
Press
##órmula
1972
Federació
1973
grau
articles
Cos
Costa
perill
canal
altitud
##ias
indica
règim
actriu
##ressar
invas
##mana
vehic
fortal
posteriors
Tarragona
Lliga
ort
##queb
Ross
##entada
##iz
investigació
Nou
aquí
Major
##ctora
jard
dot
Portugal
top
##use
##ary
Ciutat
Història
52
Company
fàcil
pont
##eguda
Americ
hectàrees
anàl
oficials
nascut
Crist
Martín
##times
mé
fase
pares
conflicte
Teatre
##ectius
hora
disputar
##dad
Pic
##mada
Martin
amic
lingü
Àsia
We
protes
motor
##ister
termin
Castella
hem
Abd
coneguts
##rals
crítica
futur
germana
conv
missió
hàb
##tern
##tatge
prog
Phil
##quebisb
guanyà
Ol
pressió
camps
contacte
polítics
##abet
##otes
ensenya
Brasil
jut
Austràlia
XIV
regnat
Illes
últims
##ump
frag
desemb
treballa
Wal
Pall
escena
##orb
##TA
dific
Hos
fix
##usti
secretari
totalment
1967
##ago
obrir
palau
rem
històric
##bert
##lir
##pat
EU
Jesús
cort
exposició
històrica
llibertat
vaixells
Thom
##tel
##iten
funciona
compor
von
##chi
75
junt
impos
premis
Fre
55
Ger
##yo
protecció
Tx
UN
avanç
observa
simil
resistència
reina
Mentre
completament
##idar
disposi
Angel
Wil
succeir
Creu
vo
agrup
àcid
arquitecte
comerci
University
utilitzen
certa
##arien
escen
ambdós
àrees
límit
moviments
particuli
##ew
Israel
##ross
trobem
##tein
Comissió
coin
##ordin
George
dissol
infant
51
judi
museu
##orth
Constitu
damunt
particuliers
300
diputat
##iny
##tesa
esfor
potser
quin
podien
Wh
secund
Societat
Bat
##eo
llui
demostr
ori
##nima
màxima
Vir
alhora
frac
presó
Gon
meridi
tingut
##esc
49
##mentat
pet
volum
mediana
fugir
sof
lules
Sil
torneig
provocar
comunes
ox
tasca
cursa
continuació
1969
expres
##esia
Gab
prou
##oj
trobava
Hom
Ric
incre
nega
Este
##titz
##sible
medieval
epis
astr
caps
##tas
##ito
Bon
polítiques
##ossa
reda
##elle
##ostres
vots
fac
##uba
equival
figures
##ològiques
dispon
Bell
Aten
Roy
fulles
interpreta
universitat
##gh
alcalde
corrent
Real
gira
tractament
120
sep
##mic
##erven
##cha
##olo
Ara
comuna
espectac
##eccion
Bur
portes
exercir
oficialment
exc
dub
Ren
Reven
##ccions
despla
##lem
##rot
Cada
destaquen
##essa
##ndard
##uch
plana
memòria
estran
##alitzada
romandre
##vats
56
Lim
península
arran
54
Argentina
integraven
difícil
localitat
plat
líder
estable
alim
apareixen
oposició
fu
fundador
##olis
##landès
producte
##ixen
Grup
Cré
austr
##vocat
aconseguí
expedició
65
1971
màqu
aplicació
##tesi
Mod
Pub
pais
sugger
dimensions
##oral
##tans
trop
subj
VII
Papa
ponent
##ícies
##ondre
unió
jugadors
transfor
concl
err
sortida
clau
boscos
post
Àustria
##ski
62
rod
##lle
Mill
##30
##enament
contingut
lleg
peça
gò
##ecució
##ight
víde
terreny
Canadà
Divisió
Stu
##onesa
coincid
benefici
nobles
##guen
Pra
##nages
##órrer
1966
##asti
programes
bot
##ibles
estàndard
rius
coneixement
reconeixement
Ferran
##acte
mad
##ois
presenten
##obili
1964
fisca
ménages
##ògraf
Revenus
fiscaux
republic
marit
addi
minuts
##ològics
Cant
##ás
anunciar
Lan
dò
Hol
afric
pic
Algunes
Aqu
recorre
teat
Garc
##usc
pron
diners
##teres
provoc
Espanyola
expuls
laterals
##gatzem
##òmics
Jun
##80
170
establiment
Pac
passà
nota
Hum
argu
Sovi
##àcia
mineral
pisos
Az
cossos
ocasions
tècniques
industrial
cerc
dirigit
feta
Bretanya
jocs
constant
comandant
Fundació
##hael
sens
Mah
esdeveniments
exili
recursos
##abilitat
##omba
pàgina
Dec
caure
varietat
volun
nivells
##ruix
almenys
##quin
##pora
residència
##regist
finestra
Richard
escrita
vist
idi
fundat
##ficial
##truccions
Salvador
rob
aspecte
laboració
##missió
##anar
##oz
htm
llevant
profess
tall
1948
documents
trà
##cament
##dex
##oren
prefer
1931
Viena
vessant
recep
##AC
degut
calc
conquer
trip
ama
1965
Tro
##encia
ascend
##ings
construïda
Grècia
Lli
requer
Interna
arcs
alemanys
175
##òrica
augment
títols
##àt
parc
càm
##pal
Ele
humà
industrials
irre
War
ress
##rits
exca
##ech
##oa
obertura
Abans
171
mostrar
##landa
##yl
models
alemanya
declarar
atenció
enregist
160
Rei
assum
Frank
Lleida
perman
física
llenguatge
Trans
aparició
Seb
signar
Ham
Occidental
diferenci
##enciana
vaixell
mi
Xa
##ott
mateixos
##ão
##dida
ciència
darrera
resposta
Democrà
Rad
descriu
marxa
naturals
##ortun
##sitat
Thomas
cantó
Oriental
##abil
vermell
valors
##BC
lació
lig
raó
##ville
extensió
mantin
miss
##unal
notable
57
organitzar
existeix
revolta
aliment
cambres
##icitat
preson
maj
##íp
adj
Tal
Ali
depend
Créations
cert
arquebisb
idees
##emat
forta
Anna
Camb
cris
prové
creada
patir
##lis
monopar
actes
ocupació
escoles
cinqu
propietats
papa
dispers
##oris
gel
lliures
matar
Mús
Pin
2019
antigues
monoparentals
flors
Wa
53
##aqu
peu
lliga
comprom
##tiri
seguint
film
Mur
##40
cadena
fàbrica
ges
1963
##ètics
acos
tecnologia
compet
diòcesi
crà
veri
García
filosofia
sat
fundació
##cà
##ante
Luc
posi
##ànd
##iri
Carlos
##etir
las
##guai
Gro
crea
descobrir
fortalesa
##eda
corre
alterna
##by
planeta
soci
franqu
començà
inicialment
##úp
##kel
americana
mè
Fl
tret
afegir
Europea
##enent
parella
##pur
marí
carrers
bandera
inicial
##utà
policia
mascles
##té
nucle
accions
Bé
marxar
Gil
tingué
motius
##ístics
asseny
testim
habitual
naixement
acceptar
consol
curt
##vera
Michael
##itors
arreu
populars
##ández
universi
Hong
cost
1937
dedicat
Bale
salut
1956
400
Set
fic
##àstica
descrip
Abu
llanç
àn
##rià
##ame
manca
glob
##vell
##diment
evolució
Za
audi
dedicada
##siques
Irlanda
dismin
Corts
internacionals
1944
actuar
donant
##ald
Tri
##way
Bol
basada
Parc
versions
Fon
##tània
Ru
projectes
necessitat
poesia
Mass
Cad
##idel
tractar
##ox
taula
estim
vessants
##lants
##rava
Rev
Reus
famós
##lava
juga
##gell
1958
##ER
##guera
Seguretat
oferir
1933
##guessin
campionat
musicals
Cro
volia
titular
Alta
Han
reti
escal
Joseph
fitx
premsa
derrotar
cedits
58
expan
Ciències
##eck
teix
##asta
dial
narra
quasi
##abel
Polònia
##tero
##ool
EUA
1934
psic
naveg
##cy
parròquia
Cre
sum
##jats
balc
anomenats
1932
##enten
prac
carn
atacs
Batalla
cult
expressió
##ova
Pedro
len
capità
##cesa
##CI
97
Cr
Mosc
hospital
murs
1918
th
Card
##zan
##iors
reis
ade
estudiants
Las
capítol
59
enll
Vin
##SS
##ft
Cultural
President
##ranc
##ïnes
63
Just
document
Leg
Santi
Ah
sang
Louis
Sev
##ject
##ares
1959
Trac
xines
essent
##òsit
Norm
vid
99
responsable
nacionals
periodista
##àriament
anat
sacerd
Som
72
democrà
##12
dipl
barre
1941
Dia
##inès
National
interpretació
66
concerts
Hu
ban
Llei
acte
considerada
Neg
1938
instruments
jueus
autoritats
TV
##rina
##ònics
##undi
##xe
regu
representar
realitzat
>
adequ
lluitar
##outh
##ïssa
operacions
##ulg
##òmiques
##lag
here
##cionari
##mir
##ology
otom
ocupaven
incloure
##eros
##ace
campió
68
morts
podem
individual
##òx
guitar
Alexand
Johan
obert
##viv
1947
recoll
espanyols
Sí
##endes
##ensis
explor
##tenia
breu
minerals
pintures
llançar
##yes
rebel
consisteix
fabric
##ografies
festa
gir
familiar
##teix
Trib
agrícola
identi
som
##fin
##till
successor
##ür
pista
lacions
escollit
##mbia
passant
Cris
anàlisi
musulmans
saber
##eig
paci
humana
circums
Medi
Poc
Valencià
feina
fórmula
càn
Pont
##ego
retornar
##ínim
municipals
prima
Joaqu
##vé
anomenar
##yr
Vallès
autoritat
experiència
orde
conserven
##ene
##tàncies
immedia
##uxemb
respectivament
1946
possibilitat
càrrega
excepte
lleis
econòmic
##ervatori
Vill
Ministeri
##ato
##IC
Mich
intera
rang
darrers
senzill
ur
159
golf
deleg
travess
Rog
##cher
suf
##tits
Temp
Corn
tram
##rov
Front
Edu
1924
símbol
Pé
Nar
espanyoles
Urgell
##uela
similars
inclòs
96
##rida
Mitj
Treb
capaç
lluny
mínim
1942
mí
centen
1957
carden
estructures
Esta
##sol
##pid
conquesta
##oth
vent
##riment
comercials
Ya
1949
reunir
radi
senyal
##kov
##ury
Comitè
##mina
continua
augmentar
Moscou
Tre
visió
##adores
##AR
crisi
sín
ocupa
digital
##ultats
ambient
##uns
Mer
##cits
utilitzant
representant
britànica
debu
Igu
##mann
anteriorment
Roca
ràdio
propis
rat
basat
donen
##dura
videoj
aconsegueix
italiana
Soviètica
West
exig
dispos
publicada
sem
Dis
Música
84
##jant
net
1943
juris
##ny
##wood
concurs
##osicions
semblant
##ords
##ches
tir
##tum
##rids
Fu
Peter
95
##Base
simplement
jap
setge
human
manifes
tribus
vendre
context
gaud
##làndia
1919
Frederic
Consulta
##ellot
dura
bel
restaurant
là
actuació
ol
compr
perm
proper
fonamental
neb
Econ
Hel
Tres
CD
|
##tita
##tori
complet
semi
Milà
be
Pierre
patrimoni
##don
##iguel
##cos
branca
Germ
deixant
°
enviat
##ders
allà
setmana
perc
tub
##eller
00
Dani
diàmetre
1952
caiguda
##istia
##glésies
europeus
Sebasti
Alexandre
impres
##entatge
85
Cir
afirma
abund
negres
##mith
ext
dòlars
centres
convid
associació
integrada
províncies
Pallars
##antil
##inada
##tici
##adell
61
Lit
lletres
decoració
revis
Miguel
155
##òric
estima
1929
##oph
1954
Ins
##últip
Ti
##rad
aïll
##alem
institucions
emig
assenta
novament
Rafa
situa
##mac
aspectes
##roqui
Duc
ruta
molta
1955
temporades
amics
mam
##elli
##arm
completa
comm
derrota
historiador
supos
enginy
estratèg
##fs
67
program
cro
apartaments
Constan
relativament
opin
altura
aprofi
##ops
Grà
##uega
visita
##onis
1928
alg
Sul
Pot
espais
pertanyent
directe
##gament
tradicionals
carreus
Gonz
##endi
Roc
##onom
Baixos
Estudi
166
Sci
arm
pèrdua
164
llinda
##ociacions
##geria
1914
1953
174
desenvolupat
Cultura
American
disputa
valencià
reforma
propos
id
##ye
##oba
156
##eto
ris
actiu
##ases
##liment
dit
Mars
grega
Àn
religiosa
financ
introduir
múltip
Assemblea
##sim
##rana
157
Mediter
estrang
##lesi
FishBase
enseny
lab
##anyes
escolar
##tua
71
##hol
##trop
estrella
Suècia
##ack
##etria
##oto
##igs
mesures
resolució
##úria
Munici
processos
##atura
88
parlar
veïns
reacció
cog
gens
##opi
##kin
##wan
prin
August
##inea
##alls
##esp
##eva
##endo
sèries
##ridge
Només
1935
Star
entitats
1912
arbres
Son
cru
explo
contrac
##tador
1923
##utbol
aixec
inspi
##ún
Royal
escacs
cristians
taller
##ance
92
##òcia
Hug
Santiago
perme
ciclista
pràcticament
##icis
geom
Sevilla
##gers
div
pros
coll
decisió
coses
Rub
coron
87
Monte
poques
possessió
##mal
assa
Dr
treballadors
Tr
##vang
seues
interpretar
conca
##tical
elem
hero
dany
escrits
millorar
erm
reconèixer
1900
gestió
##wn
anal
ofereix
98
eng
actuals
suposa
##istat
generació
Biblioteca
##urí
càl
##ty
freqüència
##umna
llançament
##epres
Princi
Sic
brill
##odis
Conca
presa
##ologies
espera
càrrecs
Ò
ensenyament
##lov
mètodes
##pez
culturals
173
Sala
recla
èt
absis
tocar
sorg
##alició
flota
##ector
atmos
mandat
Sub
1922
Colle
agricultura
Lleó
bastant
##tle
76
##fia
convent
comunitats
##mant
69
##usiva
Molts
concre
Forma
mac
Ret
86
féu
##bar
169
Pala
##umen
primi
asset
CO
##tino
AD
##eracions
intenció
recom
##ònies
portugues
arxi
Dos
##sivament
##ocol
1951
urban
##uar
##genda
columnes
determinar
##guès
Explo
##igen
Ox
expansió
Dep
##hammad
contracte
Fri
podrien
74
solar
víc
##essions
1917
##çant
##own
Pod
Orde
cong
172
ambdues
emma
##erada
observar
Inf
##èmica
pag
defensar
abandon
anunci
oce
##ety
Dam
##ertes
elecció
Estudis
##EC
##seud
##temp
##àrdia
##ementiri
93
vincul
cràter
distin
posa
parroqui
matèria
metge
solen
##itations
sag
clàssica
##avor
##rants
##ilitar
gaire
##lez
##oport
##urà
##daris
Departament
culte
àrabs
Llavors
pell
<
feien
agricoles
plu
152
concert
viuen
baixes
estrenada
77
##usalem
Exploitations
by
ima
##tera
còn
##oga
##empla
##ratge
irregular
##mbla
lent
animal
Den
lustra
##anova
##ònoma
fruit
##ficient
Ari
Suïssa
168
##ér
impacte
vídeo
urbà
enllà
Isabel
emmar
invasió
utilitzada
Cru
cò
##tigi
Bl
usar
annex
Red
catalans
transpor
##vades
alumnes
Primer
##aden
peus
##iada
##ficada
Def
deriva
característica
##grada
##mits
##qué
triom
International
Bir
enfrontar
Palma
##íf
Gall
fol
nomenar
inscripció
prè
possiblement
1910
##úries
reempla
##àc
Avui
signat
virtu
Enci
arbre
condició
##vista
##arda
##tanta
Rafael
amplia
realitza
Fe
##mburg
manté
coord
73
##romp
##erita
claus
##çament
##racions
transi
##uros
rit
167
Franc
avant
reduir
Jerusalem
alf
considerable
##itxa
deixa
##pass
##ortar
ciutadans
setmanes
##iner
##quil
pagar
textos
colònia
Conc
gla
cerim
recorregut
Junta
##onament
Fab
Greg
##enda
gro
ferrocar
##igues
descriure
##ians
inver
béns
##heim
##pita
##udes
Mos
inspir
##yan
aplicacions
##íac
##àstic
##ordà
162
blau
artístic
##hel
solució
##otel
Angeles
mitjan
##oms
1925
##ows
Cop
##enos
né
gre
##quies
esglésies
##ongar
propera
##mm
au
homen
debutar
dotze
Limita
desitj
moments
adquirir
165
Ló
##àleg
quali
verd
xinès
##forme
ordres
instrument
ender
parets
geg
aprof
ruï
Anti
##èd
##inats
94
May
meta
cicle
Muhammad
FI
revolució
Spe
preocup
religiós
Cel
nombres
ambaix
##ban
superiors
##venir
##bes
mostren
##obi
Revolució
1921
apren
##bita
hostat
escriptura
altes
reconegut
expl
demostra
estatunidenc
##col
adoptar
##war
130
coop
revel
89
##lles
sh
Bèl
compondre
##gas
inn
Dist
149
br
cita
##iliars
158
editorial
##ít
Ana
clubs
Català
Smith
##hr
163
mala
##ym
##inet
82
Noruega
##zim
foss
neer
##win
marcar
81
tind
oportun
basa
tornà
dècades
medicina
créixer
pròpies
destacat
estrenar
Ann
Seny
operació
1908
1926
##guez
ajuntament
encap
Villa
##obreix
avent
Wash
pedres
naturalesa
menjar
esdeveniment
##taris
menors
incorporar
##rons
partíc
apre
existeixen
americans
78
1901
López
mir
cinemat
hagués
##FA
##cades
Roman
sobir
estrelles
dob
##ïen
exemples
##urats
##BA
Dol
visitar
VIII
Bèlgica
##tides
arts
##eses
html
##off
fotografia
Enciclop
num
treu
estatunidenca
artística
##ele
professionals
partida
eclesi
princesa
##ick
arribat
hagi
Sac
entrenador
##din
Organ
horitz
reconstru
demostrar
1927
rest
descobert
Llobre
Dan
composta
Tractat
escenes
establert
venda
ulls
llegenda
##unes
Balears
IX
PC
alum
jaci
relacionats
Carta
rock
traducció
escultura
##idal
##ws
necessari
Catalans
Fernando
##viament
retirada
Stan
facili
91
opos
conegudes
Fi
assist
##icacions
específic
conservació
funcionament
organitzacions
permeten
laborar
intenta
79
##je
Fernández
Sav
Bou
##tadors
Henry
##cles
##rània
bu
##cisme
components
esclaus
transc
##quès
diplom
comprar
##kar
##erto
immobili
83
exter
##ude
arribà
científics
amèrica
revistes
amenaça
malalties
grecs
##àtics
##dicció
diferències
competir
aparell
perp
##èmic
micro
protagonista
objectius
##entri
##ild
mu
esdevingué
poca
anava
esmentat
##erats
sorgir
##rents
emir
líqu
quarta
accedir
##esi
temperat
##osament
Pales
##americ
125
##xo
##encials
Guinea
posicions
Filip
Andreu
participa
Llobregat
153
Socialista
parroquial
##orf
gruix
##ling
intercan
##hen
elemental
arribant
avan
##emàtica
immediatament
arquebisbe
Gai
##ànics
enor
fres
identitat
Comtat
Resol
##odor
exclusiva
plans
##fat
Rus
assegurar
denominació
protegir
##hal
##fè
##recció
contrari
##cipl
##alitza
legal
conced
consci
Washington
concentració
##NA
xif
aus
Sobre
##orat
##ropoli
greu
dé
fals
monument
lum
##cialment
publicacions
electri
Agu
usa
Bernat
manusc
Comunitat
finalitat
institució
##oti
estrena
usuaris
matemàtiques
radic
etapes
##ster
Venècia
assistir
Figu
informa
bur
gèneres
arma
College
Luxemb
Dal
satèl
##ètiques
##iles
catòlic
perdut
futbolista
##ògica
Tec
Esteve
reserva
inicis
cardenal
activa
##po
buscar
Ira
Riu
lici
recentment
##bal
turis
anglesa
##ejar
crid
Esqu
pantalla
Montserrat
pàgines
trets
belles
llicenci
Còr
nas
campanar
600
imperial
aflu
comtes
##sc
recull
viatjar
patri
161
Bill
factor
cron
lletra
molèc
##onial
estadi
individus
embar
ceràmica
154
múltiples
Indi
participà
pensar
##oland
pati
##CO
Educa
comptes
hostatgeria
trenta
mer
combusti
Web
##èncer
crom
medalles
Fort
##cra
##ífiques
##tem
##pole
##èp
##hire
majors
consideren
garan
substituir
relleu
confer
110
##cià
configu
##eno
##ults
connec
Camí
deixeb
vell
civils
explicar
realitzats
Conservatori
##iós
ajut
plena
151
Constitució
##itació
poemes
##uck
blanca
vege
##ifa
turó
##jà
produït
Let
##ello
noble
Proví
##dita
Wind
All
Sota
##vita
prestigi
durar
##sen
qües
reci
progres
donà
from
límits
documental
vegeta
##rint
detin
refereix
Eug
connex
##vacions
vul
vicepres
##gna
cartes
##organ
##kes
Mem
City
riques
districtes
ull
clàssic
Victor
protegida
##ilib
1911
Fill
Bus
exac
##rol
converteix
Fal
140
Sir
funcion
##antes
##ensiva
##gio
cadascun
proce
Hal
Republic
Cer
Fac
argent
Hospital
intervenció
Mà
Ví
Oce
Arx
##ionats
terror
##ígens
músic
250
Aires
primavera
##rano
estendre
Gas
decora
parlament
line
##ositat
1916
pregun
biblioteca
excel
acum
crític
##med
##ovent
Air
1913
estén
coalició
##ardia
##ère
##ht
mestres
##endari
Internet
deia
assenyal
aliats
##jan
projec
trobada
lateral
Society
convertit
gos
patró
prec
cobert
##bó
arti
go
potència
##uari
##oia
Buenos
advocat
bandes
tropical
ample
periò
ocasió
prove
descoberta
##erson
##màtic
History
compren
originals
meridional
Nàp
reta
##ences
científica
Ken
Atlàn
Sabadell
ordenar
Atenes
Nàpols
Administ
1905
possibles
femení
tip
##AS
norma
Dins
sexual
pref
1904
naus
aplic
editor
allar
violència
aconseguit
Herm
##ier
Zel
femenina
##bra
propietari
europeu
circular
derrotat
aval
espacial
Fla
puntu
històrics
##ograph
adoss
remun
començaments
destinat
North
##dora
##ucions
Resolució
##anni
realitzada
UE
sindic
insc
capit
subminist
riba
revolucion
lleugerament
completar
Der
My
bases
Navarra
##ño
fenomen
finalitzar
Xile
tasques
Andor
recin
decideix
falta
preu
agafar
Sor
empresari
##gonya
paret
saque
Turquia
##veu
800
##sives
Ak
conservar
publica
mira
milers
##minació
Black
representen
assign
migdia
factors
japon
confor
Martínez
originalment
Daniel
jardí
Rà
feu
rèc
1915
Cerd
##ette
proteïnes
##fal
entra
càmera
Viu
Ep
cops
##gol
edu
edicions
Pass
majoritària
##olímp
Pérez
definició
serra
equivalent
cil
Dinam
definitivament
Corona
publ
##eau
##erant
##wi
sobrevi
proposta
Wi
gols
##mel
nen
##dy
##sament
documentació
déu
dispar
notícies
##omina
catòlica
causar
comenta
Luxemburg
##ellotge
enfront
divi
carboni
discipl
ferrocarril
##OE
##jol
agu
Marina
101
gris
##òss
##mesa
##olly
crítiques
Hongria
comportament
productor
equilib
##bul
##bit
Gabri
Jim
Brità
encapçal
risc
124
aliança
IS
calor
registre
##quets
enva
CF
109
##edra
serveix
##mas
natal
profundi
Treball
presidència
##èrsia
1906
Mary
caça
descar
pilot
Municipal
persegu
##ogen
##uz
Dra
guerres
Igual
##ricte
olímp
composicions
Síria
Uru
##queta
especials
Rena
normal
##òlegs
presents
##dag
##cent
##rates
but
##uncia
##ote
creixent
##unts
##onesos
##òniques
Natural
##lah
permanent
bate
##inista
suposar
euros
##rista
cua
Escòcia
##tentri
aconseguint
Sarag
voluntat
##mpoc
qüestió
construccions
Corea
tre
immig
Canal
obligat
##ogia
Alfred
categories
##AM
publicà
sp
igualment
públics
roca
espect
acabat
Sur
##versari
Carol
Bos
Lar
##ález
afavor
festival
Luci
Equ
únicament
corresp
Sing
morí
músics
##rand
homenatge
Independ
Cerv
##orts
##astre
Belles
europea
Mé
Leon
1907
columna
programari
Futbol
Bay
##endent
ficció
governar
actors
ermita
disputà
vehicles
##rius
Tribunal
flux
Ast
traject
cementiri
Saragossa
127
146
press
pseud
Ce
##andia
##oní
guanyat
resultar
##regació
festes
recent
pensament
adaptació
angle
altar
Oxford
allí
occi
papers
marques
Polí
##eresa
proposar
##ller
Pacífic
voler
##icago
ampliar
capdavant
tornada
##cu
##arques
cond
botiga
Alacant
##andes
costats
inven
ronda
ingressar
##arde
##estruct
tanmateix
físic
##ecs
tinent
siguin
##medi
emmagatzem
Ul
fall
147
religiosos
##urien
##sius
cavalls
atre
descendents
usuari
particularment
hàbitat
toc
vocal
tomba
##tral
##ellat
128
arreb
Bert
##idae
##NU
González
##obil
canó
##teg
Mot
fama
Dret
veritable
##oda
Cuba
Vell
difusió
Len
contín
refle
Beren
##aman
Dur
Sicília
Sem
ciències
Roger
fusió
Veg
treballant
Cri
superviv
Bag
tancar
certs
Andorra
lic
##taven
Park
Superi
èxits
arreboss
##rof
tendència
durada
oncle
##ak
ascens
Que
petr
densitat
plataforma
dividir
superar
trencar
excepció
123
Ministre
Christi
##nom
tenint
vivien
##cla
Bil
##rere
126
Plat
##ée
curta
Edward
Diputació
allò
pugui
barranc
Brig
harm
aliments
02
##imn
Cle
##viment
107
conquerir
solament
emo
##chez
privi
##urnal
espiri
terrestre
##ila
rural
##hl
significat
##fran
Max
Llen
marge
segurament
enemic
surt
CE
Borgonya
##mber
##cripcions
escenari
Inici
##qüències
companys
roba
##cessió
Joaquim
Oscar
ocupat
reflex
##ellà
106
famosa
màquina
concedir
destruir
desaparèixer
extin
quadre
destacats
09
##ane
Dou
constitució
Cinema
demana
##eor
Chicago
estel
Bet
mediter
ràpid
##uma
##ogràfiques
##olls
defineix
recinte
01
hereu
sultà
Perú
oberta
Music
ocupada
Human
utilitzats
Sat
##ram
Sand
hagué
alluny
Empordà
1909
cura
##zer
comptar
##ïtat
119
esport
Christ
directa
Giov
105
Ferrer
controlar
gam
134
##tatges
##arc
envia
##illes
independents
Times
serien
profunda
Exist
cedit
actuacions
Alm
Barb
##cut
repeti
incloïa
específica
136
renov
Comunista
##ètrica
platja
destrucció
##òsof
Rab
usat
obté
Totes
mòbil
proclamar
115
transició
##oy
practic
escriu
brillant
acoll
poema
##out
ruïnes
teulada
Dinamarca
##inyà
Ebre
139
encarregat
##inal
trajectòria
##uen
sò
escapar
Fam
sacerdot
cit
elevat
esforços
122
##umental
ph
##alus
129
arrel
celebra
Vel
Llista
japonès
accident
##AN
satis
fr
core
delic
abat
cord
117
##tificació
ocells
exemplars
exposicions
fib
singular
popularitat
##capa
cristiana
Dire
fidel
volums
##OS
acostu
secundària
##camp
##hist
proporcion
negra
sam
certes
##talles
Hit
commem
King
donava
##iscop
Rh
##verna
guix
expos
portuguès
##oft
Gh
fosc
Of
##ear
simf
apreci
corresponent
116
##ball
amplada
definir
debut
descrit
concretament
##hs
Sep
clarament
rector
disminu
Cic
manifesta
preced
seguida
orígens
Marg
predomin
Franco
descrita
horitzon
desenvolupa
Ales
Sard
tex
repr
with
llegir
treure
execució
132
Kir
##onats
òrbita
Serve
emerg
invol
dividit
##cta
filòsof
1903
formà
interessos
gust
reformes
descobriment
roques
God
Hill
suï
##adura
cercle
Alps
històries
Str
Mark
Lor
Kal
capçal
Agust
pujar
promoure
Valenciana
convertint
137
uneix
endemà
135
Congo
formava
##hes
torres
detec
terrat
paisatge
profunditat
fàcilment
##ances
muralla
produeixen
App
##cab
##hara
##èric
Nasc
protegit
dificultats
ordinador
##af
##loque
episodi
fir
Stat
##tària
mateixes
Orig
Rosa
Super
##genes
dibuixos
dominis
##field
Hisp
coronel
Tu
Superior
hel
pret
##orre
##ionar
##chen
Miss
bisbes
parell
##cular
grand
egip
moderns
ornam
##ríguez
descripció
Vis
Seu
tx
legisla
om
alco
aplicar
##rick
##eç
successió
##tena
Atlàntic
##ete
raons
sorpr
dispersa
complir
haurien
Romà
avions
Rock
galeria
118
Rodríguez
Berg
identificar
##ients
South
114
sign
Hall
fred
Ell
Local
metàl
1881
contenen
dicta
monuments
conseller
Hans
períodes
contes
regional
transfer
temperatures
##àtiques
erig
necessitats
realment
Perp
Prof
públiques
145
implica
Castelló
##uan
partícules
majoritàriament
*
04
Marroc
##èries
suma
carreg
quadrada
##ocació
victòries
sectors
estableix
##AT
historiadors
vegetació
##DE
Plaça
motors
àfrica
School
1890
##èrcits
hipò
opinió
representants
1902
privada
literària
exhib
groc
enzim
anomenades
khan
dubte
Historia
Green
Nicola
consul
testimoni
##kan
adre
Gor
circuit
combinació
Philip
##arà
Band
dissenyat
persp
antigu
##ute
You
atle
cuina
121
##hom
Companyia
##èle
##my
##encs
##issions
Angola
06
efect
Fried
##ciones
portada
##yp
religioses
##cava
Roig
conflictes
##ken
Dj
Rio
bellesa
iniciativa
Dub
##teria
Porta
apun
disposició
Pob
turc
proven
memb
Ke
enorme
Grand
caracteritza
05
Via
russos
resoldre
##lent
03
allot
enllaç
##tible
Elis
Espanyol
mix
Iraq
romanes
##erida
mexic
##issi
dolça
terrenys
Mira
Cort
enginyer
Shah
avió
Teresa
aprendre
substituït
##rine
Journal
eliminar
##line
##òvia
reunió
Bab
elèctric
titulat
Llibre
Constantin
metall
enemics
Granada
Sebastià
112
natura
##èu
103
queden
comèdia
aprenentatge
AR
diaris
travessa
transmissió
treballat
considerava
cedir
cursos
enterrat
148
habitualment
##redi
indret
Tex
seleccion
##iar
##edeix
simul
#
Ku
fetes
07
##èx
alts
introducció
##cht
Lea
sentir
det
fotografies
entr
Vilanova
xarxes
informe
declarat
##àmic
Europeu
idioma
vidre
Cambra
Illa
rena
Marie
Open
belga
rend
Radio
##fiquen
Gregori
discurs
septentri
##ope
vesti
indu
maneres
conservat
08
Joh
normes
escultor
imposar
##tigacions
depèn
salvar
proporcionar
AC
peixos
##tilleria
Secretari
Nob
Prin
Sag
Tir
pols
emetre
relacionades
eines
##view
138
humor
aplica
amistat
sigut
líders
##hid
entendre
##bs
Fol
Franç
##edic
russa
102
petroli
##riev
jurí
##anès
##edònia
casat
Reb
##DA
111
romànica
Sus
contribuir
vescom
absència
##fort
impost
##mès
enam
Torres
esperit
##àrrec
he
Democràtica
millora
guió
Stra
heb
Ucra
##ixement
##àx
disponible
Hor
eva
##cepció
pion
radia
comuns
Cambridge
Fra
##èsar
cadascuna
Carrer
##dant
Arxiu
##ogràfics
presoners
tardor
##ènd
bol
lat
Sán
canals
##rell
violí
estatal
Valls
Anton
virus
costan
graduar
Var
avançar
##ustin
##arquia
associat
afirmar
108
Giovanni
reconegu
Ribera
dansa
barreja
divideix
retr
assump
Uruguai
branques
decret
acabà
organismes
oxigen
retaule
atmosfera
##ebre
##entes
Divers
anglesos
astero
1880
detall
clara
vicepresident
Nig
Desta
1896
131
ADN
àmpliament
labora
bombarde
portat
113
Deu
proporciona
aeroport
relacionat
professora
vehicle
Sk
Ki
Rou
lliurar
notables
##usos
cub
gol
España
##lav
Diego
Bona
vies
cavalleria
##ilia
banc
escriptors
##tilla
1898
coneixen
Stre
actitud
##ido
##well
##hab
##tex
##gudes
raj
extraordin
administrativa
lingüística
Ofici
##tificat
alb
Terc
celebració
Lic
##ciformes
Haw
104
##uric
apod
Toledo
aniversari
rellev
‘
##mba
juven
Aur
Vers
##gles
Mit
rècord
augmenta
cantar
##edat
Dev
##rey
constitueix
canon
##zen
133
compart
desf
incendi
notícia
colònies
franceses
compostos
prol
design
continent
organisme
##gada
##diques
combatre
multip
##rata
hagut
Federal
Land
enca
junts
corda
jovent
##lad
bord
estada
seccions
estacions
detalls
Win
Interès
exclusivament
London
provoca
parcialment
##lie
formats
##sin
existir
##pera
familiars
Mario
Rosselló
Napole
estudia
estret
Armènia
distingir
potencial
Sánchez
déus
tomb
estad
situats
nu
arres
Paris
canta
##ionals
manteniment
Ot
##ectura
magist
llargada
PSOE
nebot
elèctrica
fragments
##ralada
Editorial
Tes
Educació
##odo
Ay
judici
porten
Od
Gabriel
electoral
Poble
141
senyors
kg
Ment
critic
Militar
Tib
144
Bes
Sara
plas
Champ
142
Ama
Gol
1899
individuals
##lets
rebaix
##ígenes
sort
sacri
143
Tam
aprofitar
dedica
tampoc
promoció
##ife
estranger
##rique
##tilitat
dalt
tancat
##ous
Pers
arag
Cèsar
forn
explotació
##pre
Cong
Telev
individu
Ucraïna
poders
seix
oficina
È
##ár
fish
Xavier
Sig
Premis
Berenguer
llargues
adults
Emili
cònsol
vot
rebels
##ussà
Serv
negar
comissió
##cids
hongar
comprèn
mall
episodis
Burg
infanteria
situades
Província
##qués
onze
##utats
Mestre
##sburg
arxiu
##fon
##une
referir
##uni
participat
##IS
##etnam
antigament
error
##landesa
recorda
##LA
Serrat
lió
inicià
voltants
autonomia
requereix
##uth
und
pressup
Vit
global
abadia
llistes
mitologia
##òxid
Florència
conjuntament
##erres
aprovar
##mics
blancs
Jacques
involuc
aquelles
Volta
viatges
##etre
recuperació
700
càncer
Jul
classificada
##lvar
feix
presentat
monedes
baixos
Peters
companyies
##teb
resulta
preparar
##eró
##orar
##jades
##rieved
##ily
correc
Defensa
Ball
Colom
procedents
bor
Riv
##òsits
##vitat
Universi
debat
façanes
inferiors
Gel
determinat
##illo
castells
infantil
##pp
guitarra
intercanvi
##olític
Rip
cinquanta
lular
adoles
provis
federal
Cur
Catòlica
Sw
programació
donada
Districte
xi
##ixes
Sun
##ussel
separació
##haus
ras
Lev
declara
##ning
##ortació
##òmbia
##intendo
Sembla
##mia
encàrrec
colon
curses
justícia
##itori
separar
Quin
implic
##otip
##àndol
portava
Colòmbia
Nu
##igi
Johns
emiss
obre
agent
convertí
##eum
leccions
PP
lamp
mecan
Tant
voc
enterra
seguidors
Eduard
persa
superv
Líb
1870
US
vegeu
italians
1897
capturar
Hip
utilització
cristianisme
exèrcits
reeix
còpies
moneda
exerc
Cass
Stor
##oks
representacions
tradicionalment
solitari
Nik
tals
Edifici
occidentals
assumir
##atro
##ku
##ífers
##tids
capçalera
exam
fòss
blat
##MS
accel
variable
Arn
Aran
Tort
liberal
hidrogen
constituir
oceà
cornis
molí
propers
abol
aixeca
indis
##orça
Not
vivia
esmentada
nació
##restant
IG
nét
Jussà
enfons
pertanyia
arriben
Palestina
##alis
teories
pesca
ona
golfes
NA
##igo
extens
Verd
asi
##istema
arrels
tractava
dispositius
segell
Guàrdia
holand
1888
Tolosa
últimes
ritme
encarregar
Bob
##taren
Florida
informar
##irs
##ganda
tècnic
àtom
casà
instr
expressar
##òtica
Academ
barris
##aire
nostra
universitats
Mis
##alitzats
##anis
depen
infra
Edat
##itzats
##ystem
Sum
##ílica
pogués
crítics
tesi
##ederació
coure
mecanisme
seqüència
##intre
Cala
##cista
sostre
##cats
##sita
Manresa
ultra
1891
artes
Windows
Perpinyà
assemb
campanyes
##òtic
proxim
Ko
reals
delim
Moz
Glob
Trin
##orenç
estany
realització
multi
##liquen
trobaven
$
territorial
##ussió
pràctiques
##tacions
##kins
seixanta
grandària
jurisdicció
##queria
##tx
Jud
rebutjar
United
##corre
graus
bloque
François
Zelanda
##osex
formal
separa
havent
CN
1893
##onga
##ae
arren
Eus
##undo
Gin
Allà
calendari
sobirania
Has
pedag
Constantinoble
##cans
##sers
##erb
##alia
nad
classificar
Hon
Iran
pensa
Marcel
aporta
enrere
Hamburg
BBC
indic
variant
quantitats
vapor
##tico
teatral
convers
immun
depenent
econòmics
europees
##minar
lluit
Rem
rig
reflect
cinquè
Nadal
##iria
demanda
sales
triomf
fundadors
Ital
antrop
##àcies
1895
Karl
presentació
March
ràpida
##tain
Cavall
simb
Tun
llet
Tab
regla
Ve
espectacle
guarni
agència
visible
How
topònim
##bilitats
basc
Henri
permetia
Inicialment
##ider
guanyador
Prat
Johann
fossin
magnitud
boca
##osió
Dor
##eni
muralles
Ps
##itzen
Apar
##ritz
cèle
veus
Llorenç
Tw
##ervi
##assar
cotxe
cavaller
república
Ly
impedir
##rocar
##cteris
freqüent
##olla
definitiva
Ràdio
Sax
moral
econòmiques
personalitat
##thur
##uges
Pab
blocs
##nau
##viació
artilleria
cúp
##king
Senat
doct
##rineus
##etti
clim
##çats
pac
##enciat
canvia
estrangers
##ugh
##utor
Benet
pronunci
Aer
1860
auto
consecu
petició
oportunitat
##omi
matí
nuclis
acompanya
São
lec
cated
noblesa
nuclear
víctimes
##ropolitana
integrar
organitzat
##inari
afecta
##ugos
comparació
referències
##ònom
doma
##viera
punta
reflec
centenars
escoc
##mbols
subdi
gòtic
##gic
bud
màquines
antiguitat
simbol
governs
universal
Nintendo
dividida
lectura
News
diagn
elevada
Us
rema
##ibilitat
sobreviure
Beat
corrents
Bach
##ctiva
esquerre
renunciar
Mala
##ollywood
bisbat
còmic
brasil
vass
filles
ment
sobirà
##teris
diver
##rog
flan
Dun
confirmar
##ards
##gies
cres
Munic
posat
ts
Mam
omb
compa
##tivo
Feliu
Bran
Pomp
##rupció
gamma
bateria
literari
venced
éssers
Moviment
neix
Enciclopèdia
dispositiu
##èrp
llançat
existents
But
Antic
bàsicament
Españ
Alc
Obs
esdevé
Álvar
captura
##ados
domès
índex
negocis
considerats
AT
##oro
moda
pogut
aixecar
pale
incorpora
Long
##ïren
##enç
Banc
propòsit
1892
pastor
participants
ideal
mitja
sotmetre
notes
torrent
Francesa
##rador
##atoris
Patri
ballar
obligar
colonial
personals
##cida
Pirineus
Selva
balcons
Astúries
substitució
parà
Parti
llogar
Gib
Jovent
##nie
mercad
separat
senzilla
deixà
Moltes
bany
1886
mecànica
masculina
##erman
nar
Geòr
escass
Orquestra
videojocs
estils
senyals
situar
jaciment
camins
##idació
absoluta
segueixen
Harry
coneixements
badia
ramad
institut
imagin
Justícia
concret
enginyeria
##ay
##pu
reiv
##ture
Che
##OR
##cita
indígenes
emprar
##ipè
Basc
proteïna
Amer
ligència
romàn
absorb
##pos
cerv
##ata
Quatre
Sib
comptava
oper
facil
component
##quez
nostre
joventut
transformació
##ush
##pí
bro
balcó
xinesa
secret
suficient
infants
rebé
turisme
noia
Claudi
causes
Catedral
òrgan
##ucs
Domin
mines
##raments
##rio
##òcrata
connexió
condemnat
Sob
Virg
Alg
Texas
secre
teor
##ficats
inclosos
neerlandès
reconeguda
##mig
Geòrgia
Baixa
cerca
##uller
Bisb
Napoleó
funcional
missions
salt
turcs
##rils
acompanyat
1889
Play
##eng
combina
UCI
##ionista
aprovada
dolor
Deb
1882
recomp
equilibri
##tone
fundà
catalanes
buit
resist
ubic
neutr
comencen
designat
##quita
creant
Margari
aprovat
mina
Nicol
##uren
associada
pertanyen
##iat
intens
agra
regnes
Bap
termini
##laus
jueva
##ett
Lad
rellotge
##mez
##ròp
Gó
voltes
##tàn
Terrassa
##ime
Antiga
inaugurar
atès
remar
1868
express
Diputats
símbols
cultures
immobiliària
##oques
Arch
fanta
##iro
Ts
Mauri
recolz
##aten
Sov
noct
Soler
mapa
sing
##lats
Hav
avin
blanques
Apol
respon
##ingú
Badal
fronteres
Pàg
invers
Michel
success
masses
diputats
##merce
##quera
significativa
##lé
1883
1884
##òlia
##úm
##cionat
anell
##ower
pintors
eliminat
guanyant
Brown
ocell
Kn
Sols
forts
Wolf
##çades
Puerto
Revista
quinze
raça
arxius
UR
deixat
descomp
telè
assentament
investigacions
inj
Verge
pianista
Espe
sobren
##ulsió
morf
quaranta
cerimònia
sensi
regles
entrevista
##pis
hisp
##lot
##egal
intèrp
suec
ous
sop
League
deixeble
meteor
Gusta
Simon
Baviera
disponibles
bones
##cils
Para
recents
posseeix
Vo
##vard
Gràcies
##yle
salv
##fons
##idad
Força
veritat
bio
Rin
gravar
lu
prèviament
Brussel
crim
equació
registres
exis
##nest
##quista
carre
barcel
Dig
Inves
tem
Honor
amunt
alimenta
him
esforç
Sis
Veneç
##tànyer
missatge
Labor
penet
Amp
Lud
##àncies
habil
##fes
autèn
abast
insectes
aparegu
produïda
##low
inv
##nsit
Lee
gimn
1887
mons
##diments
tensió
pertànyer
relacionada
##ítim
califa
Proven
celebrat
arist
##IA
conduir
septentrional
1894
##sterdam
investigadors
tradicions
##rimir
òperes
##edor
Chris
Depor
quadrats
Ency
ensenyar
intents
patro
placa
dro
Lluna
transformar
Hollywood
##tine
1885
dedicà
primeren
Ú
##aro
bloc
Ramón
Tenia
acusat
números
estatus
proposa
recap
Amsterdam
hipòtesi
traslladà
##igó
Pep
influències
cova
##CD
corresponen
diumen
radiació
líquid
reducció
qüestions
##dics
catàleg
temporal
alliberament
bàsquet
omp
Plata
##rob
espectadors
##AP
##gos
portà
acabada
##ingo
dictadura
##vals
retrat
aturar
pages
tol
riquesa
Án
Isa
##iscopal
vertical
##eal
Kur
Estany
domina
Ec
varietats
capelles
Im
commerce
santuari
feud
besti
Bot
Cra
##fores
mostres
Forces
partidaris
Form
privat
##hip
Medalla
Associa
nostres
recollir
Mul
zero
centrals
formaven
facilitar
rup
##erols
##iades
Constant
organitza
útil
Vicente
##aba
##jament
Veneçuela
maquin
Facultat
catalog
orientació
declaració
Nep
##tines
##bis
símp
hon
generar
DV
Galícia
interessant
##òrics
prior
molècules
restab
##tització
necessària
Brun
sulf
exteriors
##vir
bru
Eri
taules
gestion
##hat
amf
emble
domaine
socialista
extrems
argument
Gard
reper
##IN
##úncia
Audi
descans
##alitzades
candidatura
##odon
sobres
ajudant
##bas
##òcrates
Bost
Pablo
clàssics
##latura
potes
addicionals
##adís
desert
esclatar
presoner
Gri
Wood
marquès
Nobel
##vist
correspond
japonesa
guardonat
ric
##ough
profund
folk
##df
Ok
indicar
##rus
fel
anaven
escons
evang
##urament
Nascut
It
Ovi
##zy
##onald
ater
seri
masculí
Badalona
obtingut
Blu
Broad
France
fact
Museum
Tin
greus
tèx
##landes
##ensiu
##àquia
perfec
perspectiva
Big
Vidal
agrada
acords
agents
quadres
desaparegut
##reix
químic
Yo
rival
SS
##gs
segur
repartiment
curi
ó
compositors
##aces
Situ
##tenint
cavallers
mode
lectual
##cters
IGN
ala
molec
##tier
##reres
##tio
##olar
Alexander
##ju
Servei
ambien
estàtua
##pin
##urus
Litu
assistència
##ams
##rome
infin
videojoc
semblants
Ath
Ibèrica
competència
parlen
ubicació
##raeli
nà
Estra
##zena
rendiment
escollir
lin
Víctor
cognom
Sy
cà
##adol
locar
pilars
sard
taxa
cornisa
cents
Cristi
fracàs
##tam
##uró
Cy
##sson
totalitat
##lip
Wes
Mozart
vendes
##rides
empla
Nam
Tit
##ràtic
Jacob
compra
She
braç
marró
plani
bibliot
fabri
armen
jutge
##eth
jorn
Andalus
Pertany
costes
Esquerra
Territor
##itaris
Mid
##encialment
##TV
##oi
##istres
portuguesos
llargs
vàl
Adolf
enderroc
Bala
musul
quedà
Provin
monarquia
rectangulars
Boston
trànsit
parlants
##íssi
nervi
provincial
##nita
Muh
combustible
Aquell
matriu
escriptora
danys
dintre
Nicolau
motll
retar
tribut
##rall
Jack
metal
##odia
Bru
rica
vital
Hitler
##him
##zig
Ras
cosí
rodal
motoci
##gans
ingress
##idesa
paleta
integrat
drama
Mand
##ualitat
Ella
fortament
sostin
##gels
##viat
Life
Romania
Friedrich
##utx
jueu
quants
reconstrucció
##ror
##tificar
responsabilitat
quedat
financera
romànic
##unz
1878
Pened
emissió
Rot
Top
##arcal
##tionary
cúpula
Arc
##mesos
##ardi
Macedònia
##fam
##mino
refugiats
Nas
Neu
##ipèlag
tèr
Estudià
mamífers
disciplina
##gava
##rins
Vegeu
divor
Williams
##etta
##dició
##piració
accent
##àstics
Cerdanya
ofensiva
Kas
acer
conferències
Bany
ducat
##kistan
habilitat
##ery
Arthur
##tag
ka
Consta
##rod
pobres
tet
1879
Comer
##alo
idiomes
Retrieved
##ee
##itada
directora
Ill
relleus
##pit
alfabet
##icon
acol
magatzem
zo
Mada
Sovint
##mbic
Sad
semin
nascuda
expand
tanca
guanya
pacients
##ange
##ssos
Boh
circum
femelles
bons
Penedès
realitzà
animació
Eul
1867
Agustí
clor
oscil
diuen
Singh
Doc
permís
monjos
esportiu
irlandès
##mentant
##ío
##ento
rol
usos
compro
cridar
denomina
media
Principat
Bord
Mentrestant
desper
Magn
electrònica
ign
Oliver
esment
##tums
opció
emprat
tractats
negociacions
Exposició
##èrbia
incid
vídua
tenim
doctorat
##ulla
Coop
agreg
costum
Records
teula
representat
Walter
actua
Sierra
indiquen
Plana
Cruz
anomenen
##ilat
flamen
competicions
dominant
Regió
oferta
Elisabet
moure
herència
realitzades
puguin
##cho
##arro
##andro
Consultat
Director
##ísica
Venus
caixa
comporta
##MA
##enti
Nos
Conflent
abandonat
franquista
##xonom
cultiu
vegetals
dissenyar
##ique
Hy
incur
regidor
estratègia
continguts
terç
confiança
maó
Príncep
variacions
Organització
jardins
construc
##itzacions
IN
naval
diàleg
tones
pintar
Jones
1876
Ibn
submar
vei
depar
increment
Mans
homosex
braços
electrons
ànim
files
##agn
planes
Saxònia
##AF
Lisb
repertori
Tomàs
fishes
avantatge
##rari
##tuals
##uació
Javier
trastor
##gam
protagonitzada
Avin
neur
##kson
pressupost
professors
poblat
tallers
acadèmic
Scott
divisions
##gà
##hard
##èrnia
##tish
Zh
Regional
Zo
situacions
roc
Gómez
cinquena
restar
pagament
##sk
lula
Law
heroi
respondre
ningú
comunista
conferència
1000
Jord
emet
polici
Afric
emper
simples
alliberar
AP
Fitxa
##tz
ov
Jen
protector
Tai
carl
persecució
Kam
Micros
##erà
dirigeix
caràcters
necessita
documentat
creà
##çon
Petersburg
Vietnam
##guardia
Davant
soviètic
intervenir
##grà
estreta
titulada
Hil
envair
continental
##pl
barroc
Die
bret
existia
diversitat
##ander
frase
triar
passos
multitud
##culs
màr
rar
Kat
duresa
Normandia
Pasc
##ficiència
aten
##otoma
governant
##oman
èpoques
lectiu
establerta
beneficis
##ogle
veuen
procedent
Shi
continuà
##ovis
##ebra
##mond
Lord
Elect
dates
treballà
eti
interiors
##qua
##nats
Christian
Piet
pilots
quedant
organista
tros
típic
Leop
enter
##mats
Tay
##eques
jus
herb
enfoca
regionals
escultures
##èsia
1871
##òb
Finlàndia
##ther
##endic
estudià
Bah
##otball
matemàtic
inscripcions
Ty
teixits
horitzontal
Hern
llis
comarques
assaig
austríac
vestit
##erina
##citats
mesurar
##vila
imple
genera
literalment
##tro
Lé
Medicina
q
radio
elaboració
FA
establí
High
Chi
##íl
possibilitats
circumstàncies
##ràs
visual
Lituània
restaurar
Bosc
atorgar
##fil
ampliació
Ernest
valenci
membrana
corpor
##utri
Center
##CA
Bad
marcat
Jon
1872
clan
##ül
Bea
brig
##iscal
democràcia
ran
urbana
doblada
##ön
aprovació
identifica
##atx
##jas
sonora
##él
dient
adaptar
##elo
##the
Tortosa
Pom
House
temples
possessions
polonès
##ònima
susp
destitu
recomana
Ángel
esportiva
##tòria
variants
inspiració
gegant
reduït
Liceu
conceptes
Iv
vigil
dipòsit
conreu
dominar
reorgan
començat
##adra
gaudir
marina
descendent
##ocl
fond
recordar
##ucra
jazz
marbre
Autònoma
1877
capes
Pèrsia
catòlics
Llib
##tàr
dov
##trals
Cantó
##timents
transforma
càt
##rá
##jador
contrap
Existeixen
##àpia
Fir
hebreu
##gla
East
algor
colla
reserv
Daw
##chester
mallor
Hein
conjunts
compromís
##bach
##oshi
passava
Bass
##nant
Alts
incon
consciència
austral
Suc
aran
Universal
Blanca
designar
impossible
temàtica
donació
##orum
pluja
Origin
assemblea
##roca
juvenil
dificultat
utilitzades
XXI
roseg
setanta
ordinadors
naz
##onòmica
Bíb
Qui
##ustra
Produ
##bao
Anth
nazi
Award
famosos
treballava
##yar
sorra
quant
metropolitana
##jecte
bits
##etària
##alista
##mament
Eg
##cteri
##IM
islam
esclat
kh
laboratori
His
Oceà
compartir
DO
vèr
##tomes
##alitzà
DC
##isteria
Science
##erol
##iano
##vira
Administració
Vas
1848
Matar
bestiar
acompanyar
##tinent
avall
oposar
Tru
Modern
otomans
societats
Sudan
històriques
##ongs
Int
Island
teixit
1850
valenciana
##ione
ocorre
òrgans
nacions
estètica
Andalusia
Àngel
àlbums
Pes
##nm
Praga
jugà
Association
precisió
alternativa
Gèn
Lisboa
tombes
reproducció
abstra
Bernard
travessar
flex
ciclisme
tecnologies
nomenament
contemporània
##ism
##icili
constitueixen
cors
fòssils
Menorca
cobertes
##àrrega
##entament
relat
autònoma
exercici
càlcul
mòd
costums
primària
Rud
existent
##quisició
carreteres
André
contrast
##RA
anà
Alcal
1875
Espar
republicà
descens
Rico
finca
semifin
conseqüències
discu
Encyclop
Mediterrani
##EN
##quina
##itzades
##comun
restric
Buda
Temple
cadenes
capturat
perdu
##GC
carbó
Òpera
associacions
##và
Spor
infraestruct
fases
##ör
destruïda
##onso
separats
Doctor
Aquit
consag
fusteria
interpretat
##otidi
eina
indrets
##ulf
redac
Senyor
freqüents
esdevingut
vertic
admi
epid
##itàries
##entats
divorci
Cob
##entant
barra
comitè
cromos
legals
presentà
Pit
Astr
Aquitània
espiritual
Carmen
Ciutad
cí
##ficant
dirigits
funcionar
1874
impar
sucre
semici
consa
Diccionari
desaparició
Pap
màs
Ivan
seran
colons
arxipèlag
##riana
Ripoll
Vicenç
afegit
llevat
excavacions
##key
##cre
rea
servid
cristià
##àmmad
redacció
cau
afluent
##gaz
##inger
prel
guarnició
##unció
cinta
dents
burges
senador
procediment
Simf
ger
crida
decidí
extinció
pdf
##franca
dobles
##dova
McC
Vella
##vies
1873
Species
prínceps
tancament
##ius
##khs
manip
variables
passatgers
núvol
perfor
Carolina
music
oficines
substàncies
Sent
##ison
determinada
Dalt
Bilbao
ru
##cides
acud
##ànquing
Noguera
rodalia
litza
afectar
entrà
canons
passen
serralada
Loren
lès
##undes
creuen
veter
emigrar
detingut
##ami
##tado
Estocol
impostos
recórrer
chem
publicats
artificial
santa
##ères
##ESCO
Uns
ciclistes
Muhàmmad
##dan
Estocolm
Constantí
##wer
mong
provar
síntesi
Ada
Bulg
prehist
convèncer
proporció
continuïtat
integració
lun
càmeres
modificacions
Adam
sons
monarca
símptomes
devia
posada
Institute
##anista
limitada
##ender
germanes
Isi
Ash
##ester
##mud
Molí
Vlad
simpli
talent
trobades
##anim
##ticle
campament
##ON
##iques
##ablement
cartell
quotidi
Vatic
aliat
Alberto
accedeix
##onya
Gav
##amanca
semblen
llatina
##uitanta
Mediterrània
milió
ortof
incapa
obtingué
tàc
geogràfica
apoderar
llicència
afici
rap
Filipines
ms
Múr
Evang
Conferència
##adolid
intensitat
##ware
inno
previst
##earch
1869
expressa
##java
Chap
audiència
aprofita
habituals
##cau
##rosa
Publ
hotel
orientals
Valladolid
##kha
Victòria
essencial
rendir
##çó
fronter
decisions
##sta
busca
##mentari
plom
antec
lux
##ilació
semicir
evidència
ports
refus
UNESCO
Peri
##ècnica
orgue
invent
Prússia
Estava
##ecten
quadrat
adov
comunica
supervivència
pala
ambaixador
empresonat
abundant
##bon
evolu
##riga
##IT
##mor
Pad
còpia
tab
Reich
##uga
900
retrats
interven
preparació
Oct
adver
alcohol
secundari
acollir
idèn
lents
Aleshores
tallar
##helm
emple
##landesos
retirat
Pius
Mana
Climent
##ològicament
##onèsia
batalles
Bac
Net
talla
alimentària
##anos
Mora
separades
predic
governa
observació
##itant
Miró
lineal
preses
teologia
modernes
##ticisme
funer
Estació
##fec
Disp
inicials
##mberg
##uci
barana
ortofotoma
Pir
histori
regulars
executar
##visió
uniforme
tún
editar
candidats
digitals
Quint
pseudònim
Reina
secun
##dria
##inen
seca
##tàniament
contemporani
lis
##hoven
Ricard
Cardona
Oest
Osona
guionista
##rei
##asso
aven
cèlebre
comunicacions
##wig
bit
volien
descri
perfil
Elo
esmen
valls
##zu
##adir
##eixi
Sense
atemp
ànima
evident
reaccions
búl
gravat
llibret
Cari
capítols
administratiu
##rèm
matern
executat
corresponents
esb
Urb
pena
avinguda
boti
Cristal
##ñez
Game
cristal
##zzo
Rui
Coma
##amin
vect
complexos
pur
##àndia
##court
diumenge
fili
Sistema
1840
proximitat
##egar
dors
Arque
Flandes
lectuals
##iners
vella
Normalment
Ear
esports
mú
##estar
nomenada
..
centí
...
Tradi
vocals
Jorge
subter
fum
##ísiques
encarrega
relativa
Him
llumin
ideologia
dissolució
Lew
Dues
rànquing
##tani
##issari
Presenta
destacant
modernista
mental
convocat
dirigí
genètica
##fr
creia
responsables
Ray
Anat
Columb
ou
##quei
Johnson
consulta
vencedor
##ün
ençà
atribueix
Mateu
intern
aparença
mission
Microsoft
orientada
suggereix
CS
Opera
explic
##RC
este
gluc
filosò
Gràcia
localitats
##tano
##ceres
connecta
lleial
Pakistan
Ford
jugant
America
Colònia
tropicals
Riera
revoltar
Pompeu
ortofotomapes
##oso
Alv
##ançament
##PA
##màtics
lògica
Nigèria
##ròs
Teatro
espasa
Torneig
resistir
##quio
lider
Bak
perciformes
Blo
esperança
##bres
##ness
tripulació
conflu
humanes
limitat
##gebra
Pamp
Franz
##eland
combats
Part
errors
Juntament
Circ
metalls
rutes
passeig
traduir
escrites
##rest
Grau
xinesos
coc
destí
demostrat
Rel
Filos
##lastres
casada
privileg
Fr
##cència
Tò
##bat
esperar
Ans
acostuma
esmentar
experts
##rogen
Sants
fortes
escales
aventures
tut
judicial
Russ
##llar
residents
confondre
##ingen
executiu
directors
##ubi
jes
tancada
Joventut
proposat
##íaca
patrons
##anga
1864
efica
ocupava
dissenys
francs
Engl
perpendic
Vicent
##ènt
##ixamp
unit
desac
resum
Valenci
manifestacions
canad
galàx
fruits
dependències
característic
Film
bin
dorm
ev
interromp
Golf
cosm
##illy
Sà
fores
##nida
##anesa
cine
tothom
anualment
Xi
##odel
DVD
cervell
Spi
red
Kong
Enrique
##feres
Savoia
1865
Teodor
Bulgària
##laga
Ahmad
vuitanta
corba
canton
##inades
fauna
produccions
##OM
##form
Castro
alemanyes
conre
Día
##lita
##fo
Au
##arn
##pia
##oment
clín
White
##rosc
cares
pilota
##orgi
Ral
refugiar
Moça
Street
repressió
orb
Vent
Bíblia
fotògraf
Xar
ester
sufrag
organitzada
telef
xoc
creuar
garantir
trens
secreta
fabricar
gi
actius
##uld
##eman
Bai
della
reprendre
##TS
1830
1857
Saló
Nickel
Provença
##eiro
usant
##metratge
catedràtic
perses
Reis
inci
cantonada
assenyalar
Tig
##vetat
##assi
Pale
orques
signes
cobreix
Industri
1866
pota
##ography
Ó
afro
interacció
típica
centrar
precisament
##dials
1863
##ròniques
renaixen
##mentació
igualtat
associa
pales
immigrants
batall
bacteris
##nez
massís
##olita
gasos
projecció
Moss
Georges
principat
##ías
##ulats
vols
recob
escult
impression
parròquies
##zon
riera
##evo
##ube
term
crimin
equipament
saga
reben
Wag
##egudes
subjecte
ferrovi
##ïn
##osh
estric
modificar
##icats
turb
System
correu
prenent
substan
descobreix
##ctiu
Còrdova
experiment
Pil
##fel
Mess
professió
AS
##ueva
Ran
roda
##dures
terratrèm
Confederació
##lovàquia
##èlic
##eder
feines
rurals
##vey
trom
lustr
Samuel
magistrat
navegació
mud
SE
tresor
pèrdues
adoptada
Diari
criteris
##ocè
gros
Espor
solucions
destruït
jurat
sants
Sé
cere
##ertura
Borbó
mou
Incl
periòdic
noru
River
lluites
plaques
receptor
testament
Horta
planetes
Paral
guarda
seqü
desemboc
junta
Disney
Rivera
substància
Rat
popularment
governam
humanitat
Ev
reclu
triat
vigor
tranquil
enfrontament
##ah
gòtica
pulm
viles
Cerc
envoltat
distinció
cator
inhib
Sèrbia
habilitats
Ott
heter
originari
aprofitant
##integ
Eric
Extre
Repres
acces
##die
##egues
Oficina
Vilafranca
funcionaris
insp
##itzant
mantenint
Anvers
trama
Letònia
algú
contemporanis
capaços
mont
Steph
Margarida
Vanguardia
##eux
GP
cotxes
planteja
##oració
##ovo
##ísia
ONU
implan
partides
desconeix
Lluc
##gor
##inant
1835
Bolí
##enades
##ome
1861
Cont
##fà
dipòsits
Alexandria
##non
DE
URSS
nov
sals
trams
assassinats
generacions
##drome
Millor
abas
campionats
morter
infància
##quetes
calcular
formalment
disposar
##emi
muller
vermella
soviètics
Renaixement
##vesa
Edicions
sorp
polar
##untaris
impulsar
impressió
tingui
Concili
##vet
compens
éations
Molt
vius
Ruanda
##imon
Any
tract
àtoms
##eci
Creta
espectacles
pè
Conn
##envolup
Presid
discos
##atòria
teorema
detectar
vener
Salamanca
Figueres
apartament
Pujol
autop
matemàtica
Anys
basats
traçat
reputació
##lega
acusa
amino
econom
virtut
absolut
##omo
Esper
Iugos
##ilson
herba
rotació
utilitzava
##vic
Bog
extensa
víctima
Ens
Ron
Mach
Tòquio
vèncer
##idels
pist
musulmana
ABC
habitació
representada
desconegut
Gö
manuscrit
SA
associats
Múrcia
Taxonom
##màcia
israeli
Alvèrnia
mecanismes
còmics
Contr
clients
Domingo
tribunal
cordes
##ovació
feren
Sid
haurà
NASA
poetes
Caterina
comunistes
transmetre
amo
ones
Cristina
publicitat
comerciants
CA
##urch
##àsia
##sses
Allib
##PE
Acc
medievals
##dard
Bul
cinematogràfica
Magdal
##erves
soviètica
especialitzat
assumptes
##oces
Tercera
ferit
Indonèsia
traslladat
dav
##terna
armada
concloure
##madura
Contin
rèp
Maxim
alumne
Cup
##ument
llacs
cobrir
avantgu
trig
declarada
Gold
##ands
##zona
fotos
jesuï
realitzen
arqueològiques
##ítica
Mataró
##espè
Camer
amant
sinte
##ction
1862
##olat
Festa
polic
negativa
alimentació
##ondo
enver
començant
reh
Love
Roine
##tadt
fulla
##ogèn
Arist
assalt
pròxim
secundaris
##cini
Xip
rug
telesc
##cint
##isses
Google
Dre
ubicat
necessaris
##mag
Sm
federació
bàndol
separada
identificació
##inus
Buc
Cod
pit
##yya
##làvia
Alas
##row
doctrina
bil
experiències
traï
innov
Jackson
intensa
Mons
llit
poli
estal
controla
Sindic
expulsar
llur
Capella
rodatge
Sardenya
##angle
msnm
Taylor
basant
Antàr
altip
pleg
Televisió
Up
decad
disposava
americanes
britàniques
Garcia
experiments
Nev
pou
British
lampisteria
Strunz
##riz
Suprem
documentada
Eti
##òstic
denominat
cooperació
assentaments
Kra
promot
signatura
Leip
Tall
manuscrits
##kal
Domèn
propa
Alco
Liberal
càs
arròs
Claude
regent
conques
dialecte
consistia
destinada
##ène
peleg
mantenen
aline
visitants
meu
Comte
Destaca
Beg
arross
##nik
crèd
citat
alliberat
##hor
##ader
Compr
únics
festiv
definit
concepció
##entista
electrònic
conservador
##ación
##wal
inaugurat
##sies
##reria
Cadis
afegeix
creador
sacrifici
##OC
rein
vaga
pistes
##èlix
vents
Interior
activament
comentaris
ic
radical
venir
tap
Eliz
Enter
fonamentals
esclav
farmac
fragment
Francesco
##uresa
Football
Mitjà
Research
##adius
llo
empr
Arnau
enllaços
##egen
##uset
soprano
Inc
##òmens
Ple
xifra
extremadament
##cing
centímetres
expulsat
asteroides
químics
facilitat
##enberg
calci
venut
conson
observacions
ber
geometria
adher
dieta
retra
permès
entrenament
Fen
##cell
1858
##remta
portant
cultiv
##bus
Carme
posant
Torrent
integral
##usias
vit
mapes
predec
nòr
##tibles
Eduardo
Olot
mantingut
ajus
iguals
Occident
##omys
##right
Informació
Beet
##onaments
exactament
estabilitat
##RE
kur
##forts
Aleks
incomp
tretze
ministeri
##pids
##range
Ptol
prosper
##ògic
Jard
bell
litúr
tècnics
construïts
probabilitat
suau
mitg
esfera
adoptat
sà
Wat
signe
##orals
Apple
perru
centra
obliga
biografia
urbanització
fo
Aquí
comtats
##sh
erup
adjac
específicament
##legi
pitj
##iral
Home
##ivissa
Caixa
resultant
Pok
duu
configuració
##fact
1854
Barber
variació
càtedra
Democràtic
vac
vil
portaveu
##ficients
protagonistes
##ال
One
bà
basílica
Equador
frontal
civilització
córrer
latitud
regidors
repor
Moçambic
controv
Estan
africà
africans
privades
Alan
Burgos
empra
fitxa
correspondència
Alonso
Wilson
derivat
fèr
fiscal
contínu
traduït
Julià
Filosofia
Zi
Public
infecció
paisatges
##çons
Mort
dC
IC
bes
##ionalment
Broadway
trian
legislatives
##edy
Bòs
bomba
enfocament
nacionalista
##zh
silenci
destacades
##idat
##quir
Prob
ordenat
experimental
Díaz
##xill
1812
avantpass
japonesos
Arà
espon
Digital
Direcció
##èndum
##ugat
Llor
dama
massac
Imperial
Acció
dirigents
##osca
Kan
##ulacions
lideratge
dè
Púb
Dion
##piques
Wilhelm
Mata
##yth
1859
dedu
##orada
complic
Laur
cafè
inser
##cas
Torí
obstac
Sofia
contínua
identificat
Ruiz
deessa
complexa
rebaixat
reflecteix
##vre
Dictionary
##eure
##ixos
##mers
Sit
Hè
IP
Diversos
determinats
Quant
##mpa
Leipzig
Stal
fitxar
aparells
##shire
Salut
raigs
indústries
##uer
Guin
ucra
Bages
##çoneria
geomèt
soldat
Mitjana
constituït
##amo
atorgat
provinents
Ort
escap
anuals
edificació
gab
reials
aparegut
eg
access
àmbits
CP
ill
rodes
conversió
##iren
tarda
##feu
##idjan
Post
dita
pess
enmig
exces
manifest
##br
##gència
perif
provisional
bici
noies
##iden
Mong
mani
promin
##có
##ussa
usen
entusias
1845
##nal
Islam
benedic
coronat
enviats
eclesiàstica
##ilo
Gord
Time
acordar
dimensió
fondària
##bona
Lamb
racional
Allí
tennis
altament
progressivament
new
reunions
##tid
subespè
supervis
##ifor
places
Cervera
AM
##video
Republicana
##day
rosa
##http
recta
museus
Kon
##énez
tenn
occità
volcà
##egat
Pons
##furt
##vend
pav
Carlo
tèxtil
entrades
##ap
Et
parcial
##ubert
reduïda
assessor
Beethoven
Aigu
Color
canviat
##El
##ogo
Llan
##IB
##itora
lits
versos
pilastres
primitiva
Engin
Sultan
ferits
Política
Iugoslàvia
Hun
accepta
##osse
inspirat
participant
Joana
influir
activista
Lang
Cis
##acció
##inson
Humanitat
electricitat
##ensió
Proc
argentí
televis
experimentar
##atorial
creure
desembar
pesar
liberals
##ceae
##eppe
Ars
Rela
##tenien
computa
guia
Lletres
taul
##ellada
ocupant
##enha
interfí
oral
requis
precurs
##ray
fle
##tanes
aleg
exting
dialectes
proclamat
bàsics
trenca
operatiu
Desenvolup
complement
Eth
vinculat
Montevideo
autò
Decret
viola
esquema
##erba
Júp
Adri
circulació
##rel
Ces
remodel
##mies
destacada
curtes
informes
reconstruir
##tini
afers
sexuals
##BS
##òtics
suspen
gan
Gan
Hort
Tony
##querida
í
##cus
##fan
anul
Balaguer
subg
curts
##poli
Class
teatres
derrotats
Cot
Lliure
ocupà
arquitectònic
##tiria
Marx
empren
automàtica
fortuna
gravetat
terminal
molecular
socis
sacerdots
##età
Atlan
Tip
mens
Júpiter
##etz
##dium
hal
Little
Cabrera
personalitats
##vià
##nava
Day
perj
##quín
##ág
mobil
feudal
##udio
##ossos
fara
patr
depressió
##rodon
##òstol
hoquei
obtenint
Magdalena
Ponti
##enstein
sobrenom
##ulades
Mares
Tenen
Nil
caç
##mines
##regues
assab
dirigent
##atra
lelament
Group
misteri
manifestació
restaurants
àr
350
commemora
reivind
emissions
escenaris
exec
##né
Shar
Xipre
##ellas
##eles
llurs
AN
##aments
escoltar
portuguesa
ES
Wit
Comen
descarreg
sepul
##ños
dut
Afers
testimonis
Fox
repet
musulmà
cust
Dona
sofer
localització
difícils
concessió
Ges
ponts
permetent
##ícula
Oviedo
Aliança
propostes
Taxonomicon
suposadament
##leta
fia
vèrtex
##uits
mosa
forats
fluvi
precipi
Ciceró
arqueològic
##íssim
plàn
àcids
Kab
Dé
tamb
situen
esperava
Kos
desigu
instruccions
##mans
##èmics
mortal
Fórmula
incorporació
##áz
sentència
1856
Fun
contraforts
##hir
tancs
quedava
##uig
hiper
Britànic
Tet
insta
Christop
ubicada
derivats
CV
Llic
Georg
infla
bibli
desenvolupada
addicional
##rós
lluna
llargària
apost
revelar
dits
pròpiament
##ussi
recoman
renovació
incrementar
##upa
Tecn
Ptolem
harmonia
PD
##rema
danès
##ejo
Lep
##guerra
##ervació
##gram
##onja
mestra
remunta
Tremp
franja
Lug
Brigada
daten
concedit
ofereixen
baixar
Pobla
estretament
Lis
vaig
Oficial
reclama
poguessin
1800
equacions
legislació
reforçar
polèmica
registrar
##tues
##uran
Abra
pict
Arran
Semp
ínteg
##xos
1820
culp
##ecos
##etto
spe
delegat
Economia
modalitat
moss
sisè
visig
fidels
Alliberament
##tió
it
##aida
##omun
Gius
creuer
Joaquín
##cilia
Afgan
##ucle
ampl
Agric
butlla
##ede
espectre
corrupció
Got
succeït
introduït
forat
fàbriques
NBA
preus
preserv
darreres
Ky
lia
1847
quàn
Iz
##vere
##inacions
##àssic
expon
propag
Ginebra
promesa
veí
relí
Mundo
Pastor
##dorf
##òriques
millores
finançament
##rier
sensació
litoral
abandonà
agres
fenòmens
coordenades
##mund
freqüentment
##nà
Llac
dimi
conclusió
##ál
Comerç
##ople
cess
acomia
pintat
Etiòpia
##gur
##try
esquena
Damasc
fas
Cli
Bomb
León
##entades
marcada
determina
##grad
acull
##edad
eixos
tindria
preocupació
##oco
otomà
Clara
vassall
arquitectes
estudiosos
##UC
Anne
nutri
específics
##eba
quina
Vaticà
assolí
mercats
##wich
encarregada
OH
Ever
Negre
Infant
coordin
materna
efectiva
Probablement
noi
vescomte
fixar
client
parlant
##irats
Sacre
rigor
##ité
##erades
Carib
seguia
##mont
plural
Massach
hàbitats
fonamentalment
arbit
vegetal
Álvarez
##ED
##isis
##abeth
1814
Jeff
croats
gràfica
##oter
Ribag
monjo
Canàries
Monestir
Alfonso
##òrum
##rilla
Feb
##ological
contactes
Generalment
##quessa
parament
##pan
##esper
inex
##usetts
encuny
aristocrà
desplaçar
##llu
euc
##àrqu
arte
Harvard
episcopal
##IL
##lona
coves
tortu
suprim
##erie
##work
espl
Olimp
##òricament
##feld
Massachusetts
dim
##enciar
tsar
Syd
##elor
sint
Arrib
embarca
inversió
històricament
Tran
gegants
Croàcia
##ulen
agaf
vita
assenyala
decadència
almir
calia
##cules
Diario
coneixia
potències
Ker
Orle
gravats
##nera
Guill
pendent
referent
Doug
perdent
revisió
Davis
Algèria
Eivissa
##atures
devas
datada
mesquita
Roja
coral
films
##àu
##oteca
lligada
protestes
LA
Zam
##tificada
Publish
pobresa
contenia
triangular
Bang
Otom
catorze
##box
fang
usada
##gre
elog
1855
##anus
https
mides
minut
cancel
##lement
Legis
crònica
efectiu
##rill
Ducat
##ansa
##onto
##òdia
ossos
##alitzant
vestits
ira
Musical
và
autob
regal
congrés
casament
envoltada
presidenta
esf
Corb
Pamplona
dramàtica
Pia
bec
Monta
empa
##ficades
Igna
efec
editat
llegat
semblan
llinatge
puntuació
##org
Ptolemeu
##ulo
sòlid
Wagner
ratpen
especialista
ost
màrtir
aminoà
envers
##lit
##radors
##imar
iniciat
Fres
mars
rics
plenament
terrestres
dependència
Encyclopedia
Hem
Gur
Coloma
##anna
Nov
Salom
quarts
definida
convocar
##adj
##ïl
xil
paga
Llengua
externa
monumental
##hum
comunal
verb
Statis
coopera
##das
Sri
cristalls
##cron
##enne
afer
delegació
desapareix
Tok
Orleans
concili
##elson
reserves
copa
assal
mínima
luminació
##ulant
humitat
Lewis
dedicats
elaborar
tipologia
consolidar
##tiss
Ign
##veres
Media
motiv
contribució
Màlaga
envolta
físiques
productora
típicament
tum
Elec
missa
##orament
Harris
intermedi
1851
nazis
Bartom
jaciments
hind
laboradors
publicades
##íx
crip
units
cercles
abra
constitucional
Jove
Masia
##dides
recurs
aventura
Vern
##ficials
##atem
Fons
protesta
tendències
transferència
lligat
relats
predominant
##sid
##ossal
##peses
enfrontaments
##ET
disparar
ingressà
Britànica
##dae
explí
eficaç
pretenia
enregistrament
Stephen
esquí
Pública
referèndum
rellevants
##ianes
neocl
##ximació
rellevant
1500
faria
percentatge
perfectament
##lips
adult
Ré
let
Grande
investigar
}
Prom
reclamar
competències
##onata
morta
Alaska
Española
##tars
gat
Hard
partid
assetjar
semicircular
##lova
##issin
constància
##rix
Call
embol
Afganistan
desembocadura
##rès
##unn
Ji
Moll
##jord
Union
reves
anuncia
##ilv
##tah
Ny
##emont
##cleta
convidat
partitu
##eira
1815
UEFA
##àstiques
exploració
Prot
borb
fris
obren
solista
Bartomeu
Good
Young
autora
##pro
lector
exposar
##hem
##imi
Jam
lip
##gazine
esperant
específiques
Aràbia
conducta
##11
##wen
Pav
##dores
##ratges
State
Armada
fusionar
Rey
Agència
compara
molècula
##pel
Ze
Paulo
Margar
perpendicular
ATP
palmar
ال
lista
Cao
Hand
astu
tenor
tempesta
##vistes
saló
Azerba
favorable
##del
gossos
##neum
ton
Diss
Gènova
representava
##uster
monop
inesta
contribucions
##bad
dissoldre
fabricant
##iona
verticals
##òt
orbital
Negra
trasp
Mahmud
violon
originària
determinades
##ych
femin
vídeos
mitgeres
visir
despleg
virtual
##jou
setze
##animitat
##ipri
negociar
classificat
científiques
##mf
##onita
ances
arribaren
maçoneria
##oire
Pur
Wall
assistent
##índ
enci
erud
privilegis
departaments
Hay
1836
gratuï
intèrpret
##hak
##àniques
estigui
mòbils
sofrir
Giuseppe
electricista
##mid
##hall
##fics
aïllat
conceb
dibuixant
##quad
sessió
arrebossat
temporalment
##eras
##igan
##itzà
Goya
##rero
monoc
pacte
Guardi
tornat
legislatura
Àr
Prop
descobri
##elis
Vars
lusió
guàrdia
buf
soroll
adequat
##òlics
Operació
Zar
utilitzaven
##tation
creences
hongarès
eliminació
pretén
regularment
PA
cart
volen
##egü
Liv
votar
Andrés
bàsica
inauguració
Isaac
positiu
##DS
##erald
Industrial
maniob
transmet
Emperador
Rav
tu
expulsió
comunicar
voluntaris
Azerbaidjan
Drets
semifinals
documentals
amate
##ilàndia
sorpresa
{
##andra
Amar
míss
forjat
adquirit
monestirs
Ing
##endents
UA
Nab
php
##làmic
femella
pertanyents
##ázquez
avançada
Elizabeth
disminució
##yne
Independència
rodar
Provincial
aparentment
##ator
##oneses
##vić
Lorenzo
pòs
laborà
tindrà
comtessa
terrassa
cereals
progrés
votació
botigues
fixa
valu
vicari
1853
nadius
semblava
significatiu
##zzi
ele
his
Steven
universitari
gall
##èmiques
##dé
##rass
##altres
transcurs
destinació
##round
Líban
noctur
##wick
vest
començaren
##elly
Benj
Otto
Índies
Qa
altiplà
exemplar
##hua
xa
roig
malalt
lectors
visites
síndrome
Tà
adonar
α
construí
##uce
##íssima
empat
resca
futura
productors
##quers
rere
obertes
desconeguda
Antio
escar
milles
Allen
censura
difondre
##zia
Guad
bene
cereb
abandona
xic
##urice
cantants
Mohs
volc
balcon
filial
##rangular
residus
vigilància
turons
##vocats
ombra
Deportivo
revi
himne
renovar
escollida
##tif
##gala
egipcis
republicans
Petit
inspirar
##tili
agl
dramat
basades
##tus
##mens
bíb
Mia
1833
polin
alumini
##amà
Quí
produí
almirall
Ref
1852
Quart
magnètic
inof
bàsic
peculi
esdevenint
atorga
##atus
##inos
##vendres
Martor
Leopold
derivada
militants
explicació
##ody
Soc
Sena
consells
nacionalitat
marítim
##tificacions
1839
efectu
1846
tornen
contenir
practica
Gü
Bolonya
afegint
repetir
receptors
##alth
Kara
formacions
comunament
intr
hagin
Santos
mascle
unanimitat
##dimen
incloses
escó
aèria
Membre
transpar
##nst
ale
recur
Contemp
lleuger
violoncel
considerades
cc
rum
aportar
constituïda
creença
escorça
##junt
adv
cint
palmarès
sentiments
##lay
##juï
Erm
pig
##màtiques
emmagatzematge
##ebes
sax
suís
Enginy
amen
Pilar
discri
poderós
claustre
sentiment
aproximació
quadrangular
Alz
acceptat
guixaire
simetria
llicenciar
verda
bacteri
Lieja
Pà
Simp
##diòcesi
gallec
practicar
##nior
##èdies
Gam
Alba
quil
##òliques
adreça
meridià
play
fosca
aerona
Francès
Agrup
Maurice
##gy
1837
estàtues
congregació
##usions
bancs
carena
Maresme
redueix
##elt
##ket
##optera
educatiu
card
##àmiques
virrei
descendència
##mea
especialitzada
##dell
presos
artístiques
edificacions
realitzant
##fra
##mble
##olítica
estant
##atri
immedi
dimitir
reedi
cremar
lleugera
##mur
Sain
toca
german
esmentats
##sional
Heinrich
##aster
##ision
beca
Great
Especial
Estad
evacu
Llo
##inc
##ènic
àudio
provocant
participen
superfícies
cridat
laborador
necessàries
Shan
correg
emplaçament
olímpic
bla
calç
##ursion
crema
Rah
Poké
Viol
parar
francis
propici
velocitats
Castel
circumscripció
Jar
##antils
esquer
regiment
defensors
##oke
##tates
Verm
potent
presbit
explosió
portaven
##ersey
reel
escocès
##ól
Gàl
1808
Poli
càstig
##oine
Fot
Birm
propaganda
##cadors
restring
privilegi
Literatura
##worth
##família
electrom
Antioquia
EP
visibles
fomen
##pol
Badia
optar
aparent
rehabil
Baptista
Varsòvia
meva
essencialment
1849
periodisme
convencional
esten
georgi
rab
Vera
televisi
guitarrista
##part
Blanc
##americans
##uca
Pip
amar
margin
##urrecció
traspass
Kol
convi
sessions
Manchester
##odin
bos
baró
aviació
pad
1834
compl
Alhora
israel
##emàtiques
##GB
Montes
−
##ebo
1843
Ateneu
passió
òptica
##yy
##has
##onina
##urgia
decorat
ciutadania
##àrb
##erin
incursions
renaixentista
Casas
metro
exposa
##tie
Andrew
provinent
Joe
Menor
donaven
##ben
##zè
##egra
##edida
apor
sòls
##àmia
##geta
Otomà
minoria
##PV
##mbo
Steve
trasllat
Guy
Estatut
controvèrsia
interpretacions
constel
##acs
Women
##yó
##cents
##entin
European
Cí
##erico
Loira
##mentaris
Bolívia
Valle
Det
graf
divin
celebrada
festivals
Anteriorment
Dim
Sydney
##gni
Are
subtrop
##isfer
##rover
Deuts
ampla
fotogra
dissenyada
##ango
##gata
Kent
pacient
afavorir
supervivents
360
Estatal
produint
##rum
##endor
prengué
##ated
Mai
##elèct
Chem
farà
##rió
##orns
maons
adequada
Id
tax
unida
##ïm
##usses
##ím
##mus
##ellar
Quar
lema
profundament
anomenava
interpretada
Châ
fisi
##rigues
afron
ocupen
localitzat
By
enri
Unitat
decorada
##cula
autòct
Ibra
gràfics
Marsella
comparteixen
somni
IB
surten
calcul
pagesos
desplaçament
##water
primitiu
##corat
##alisme
Santo
cria
##dicació
Cercle
##orama
quel
##hie
vinya
Dublín
condec
missatges
OS
Kle
Julio
vistes
clandes
##19
##bro
ae
##uten
viva
acaben
confusió
##isteix
1844
tronc
nacionalistes
Peti
restants
comportar
reconeguts
túnel
revela
##uriformes
prohibir
postguerra
##enses
jugat
Bagdad
autobi
Holanda
ramaderia
##vie
##vind
Victoria
##çut
up
##icisme
cabal
##àssiques
guerrers
incident
Thor
Mercè
intra
castig
dinàmica
africana
##kk
extrema
ministres
Bros
oposa
bis
jerar
modificació
metges
Olímpic
icon
##onòmic
April
accid
prototip
presentava
Hart
##ilvània
##ilòmetre
Igualada
##ende
Vida
interns
capacitats
Ton
##ollers
Dones
casal
Estadi
videoc
##estes
Fru
##onies
simètrica
mèn
##alitzacions
governants
construïdes
##omorf
Kenn
galeries
similitud
Tosc
trag
trin
Investig
observat
##ose
serveixen
sinònim
1842
Pare
Bòsnia
memòries
finan
interessants
Volum
Stalin
egipci
mèdica
respir
laboral
frar
licitar
Montb
##MC
##dici
##gued
##àtria
restaurada
##IP
1841
Brian
##cletes
masies
despeses
MP
##gull
natació
reemplaçar
##RS
FIFA
nena
Xarxa
geografia
Camps
analitzar
Banu
Adrià
Rovira
dinosa
mescla
posici
Segarra
simpa
##oux
##javen
Alej
continuen
##RO
##hy
##osp
##ally
##lymp
termen
Kha
etn
cable
altern
nasqué
negatiu
enla
establint
Book
Prats
##imo
##ilis
lica
Intel
abundants
destinats
##minant
armats
##rish
perll
militant
oposat
suïcid
Occi
estels
malalts
Contempor
aproximada
##mera
Tota
circuits
Frankfurt
##juïc
Kor
Marco
calcula
provocà
cotó
Church
Sr
desenvolupà
expedicions
Alp
armat
Muntany
acabant
ine
Ricardo
terratrèmol
##entà
Hotel
Informa
ferides
##anyà
Jas
##owski
Moore
##tebrats
Commun
manual
Pokémon
narrativa
kilòmetres
##igne
republicana
##íria
Kim
tom
##àbria
1838
Montjuïc
paràmetres
proporcions
Muñ
##gil
##uto
##tanbul
Bosch
Porto
sigles
breument
penya
afores
Pascual
Johannes
positiva
##xillerat
laborat
progress
disminuir
##fice
legítim
canviant
Campionats
##ij
Roberto
disposats
acceptació
acob
Dawla
rebuig
tindre
necessiten
Maj
aportació
presentada
prohibició
##itch
page
gastr
usats
incend
prosa
audiovis
consideraven
espad
feble
Ibrahim
parells
arribava
llogaret
Martorell
Física
tràfic
leccion
denominada
cristianes
##essen
##rària
Escal
vides
##bord
Ful
disf
extracció
Lyn
Laura
mòdul
disposen
diferencia
CC
##osté
Saturn
vulnera
Song
selec
brasiler
atletisme
##eguts
Marne
##eris
Eva
Review
single
variar
afectat
##ulu
absolu
##isia
##ucas
##tillo
índia
estabil
expulsats
metre
Contra
nitrogen
##ctu
Mix
ballet
botànic
condueix
inofensiu
##tesis
nuclears
complexitat
informàtica
##yu
Team
estàndards
turca
venia
##antí
##titzar
roure
##cir
##èrie
##anesos
delta
sodi
truc
nadiu
veïna
Comand
reflexió
##llament
consagra
tingueren
investigador
har
loca
sous
##òpters
trobats
siluriformes
Ní
Hat
Pou
prés
extern
lustració
##adas
estès
pneum
Tunísia
rellevància
Hero
espectador
incorporat
gradualment
##rovis
posseïa
psicologia
##lades
estudiat
Antigament
##major
enfor
supera
##raf
inus
1810
Olymp
Miller
##eia
Jú
cod
carener
adquisició
resolucions
Jr
ecl
pant
segres
aportacions
aeri
fren
lics
serp
demostració
Desc
Execu
ARN
Pequín
Solsona
sensible
triangle
traduccions
nan
solu
##teixen
Virgin
cister
vib
ciutadà
platges
bella
##abilitats
rosegador
##fet
Gaud
Gordon
Douglas
irregulars
requereixen
##ló
Habsburg
fracassar
Amaz
cadà
pall
posà
Global
originàriament
Inn
Quad
mercen
Regiment
castellana
##inn
Barra
lesió
adaptat
##igny
##risme
ned
sir
renom
Cun
Lió
indo
hidrà
biologia
Blas
massiva
restaurat
setè
exigir
##ejat
##ànies
##gascar
Gaspar
vigent
cobertura
religions
biblioteques
##oud
físics
disputat
formades
ano
mera
Kenya
transportar
##adriu
infec
escuts
mongols
Dinastia
##actes
Guer
##ingham
divulg
##ads
1821
oberts
apartat
gabinet
orgànica
abandonada
Fund
hostil
interac
opcions
especialitat
Mr
Aeroport
##hesió
##cionada
reform
jornada
úniques
confluència
Secció
endins
Alemany
Aud
##tigis
Trip
escassa
Prog
mexicà
Theatre
Històric
##xen
Delhi
trasllada
Gior
Allah
Madagascar
##fri
sots
Grans
fonaments
franquisme
##cers
##oplas
gregues
senat
noruec
literaris
##OL
##jara
Esca
prenen
Corpora
degrada
arxidiòcesi
nacionalisme
imped
Guatem
Prades
frontó
avis
Aviat
Luigi
Primo
dissab
sisena
Republicà
treballen
Lima
abasta
mantenia
senzills
202
Adel
presump
personalment
voca
Nikola
consistent
Tou
desigual
homònima
opinions
contaminació
Java
revolucionari
datat
esbor
Corneli
arcades
constants
deixebles
violinista
##gli
lava
flora
Drag
Hawai
comprovar
relaciona
Vega
apel
Copenha
##hio
originar
##GA
servia
avantatges
Desenvolupament
##ostes
litu
justi
gor
pèl
comprensió
##tilles
solars
invenció
ingredi
##bury
Federico
##ñas
René
fracass
##run
interfície
Loc
##ología
forçar
cultius
defensor
##iti
##sules
##erància
denominar
plataformes
Moreno
costos
internes
##pest
sch
secs
##jal
egíp
Space
metod
Pis
elef
Espasa
##àmics
desenc
financeres
##iza
Liu
##essors
aliar
Panamà
Cartago
Concepció
##dios
tril
Academy
Empúries
##gne
successivament
##nier
##vena
xifres
##ñol
Zen
##guet
Bis
Aristò
estigué
Testament
##lim
teatrals
##oko
fidelitat
##wart
Old
Resp
Ordre
Turis
coincidir
fabricants
prefectura
obrers
seguiment
Clo
##erola
##orials
Ernst
pilar
##zón
##rites
visu
obligats
processament
##ígena
endu
Anthony
Toronto
taques
Publica
electrònics
Mig
Tuc
##odoxa
##ovina
llindes
ant
Autor
capitells
##ills
Bow
bou
tela
prèvia
feminista
interessar
mediterrània
Amad
trobà
qualitats
##abe
mari
gravació
muntatge
##ID
Estr
blind
Abella
conformen
extractiva
lliurament
Guatemala
Bud
Aèria
aixecament
Gaz
Ull
Herc
Champions
##cals
bizan
creats
llegendes
##jú
##ogerm
ares
perpet
Istanbul
estimada
procediments
##rif
hep
flet
Marta
Publi
magnes
estrany
simultàniament
insu
melodia
cercar
protocol
transcorre
##nit
1822
diferenciar
luc
enten
infantesa
Num
##árez
prepara
Muntanya
protagonitzar
bess
íntegrament
##alta
culpa
##pida
Aus
##àlisi
Punt
##denburg
auxiliar
pessetes
Territori
mercaderies
##zakhs
camperols
assassinar
lesions
diputada
##ètric
sosté
Howard
flo
fosf
contractat
provenen
docent
##tú
##jón
Anoia
##ος
##xina
Pera
Jersey
rebent
wh
feli
comparteix
independentment
sencer
suposat
Ribagorça
##emin
causant
astronomia
Arquitectura
recollida
##ercus
Banda
Cugat
espar
##obiliari
##inter
salvatge
discussió
Granollers
event
##kita
##istent
jurídica
transcripció
bèl
focus
##zio
Gia
##dicar
##ulosa
blas
Nicolas
220
cof
##ustro
Hugo
ràfec
proveï
formatge
solem
mediterrani
Jane
Pant
espat
avança
uneixen
directes
acadèmica
enderrocar
dil
tocant
ya
##uter
cuny
Polit
Bartol
bàsiques
Audiència
colonització
Hasan
intes
plats
procedeix
regulació
##òdrom
Ignasi
armament
##andr
èmf
cilínd
conductor
Boy
Gala
desni
telèfon
pregunta
restriccions
##omot
##wald
Brit
Queb
Pietro
elèctrics
##idaritat
Vend
despr
lunar
Inclou
suspensió
End
marins
Picasso
definitiu
distàncies
notablement
pluges
contractar
lingüístic
fortificació
DS
##ermo
##ritat
Ciència
Somàlia
##ses
Lí
##oquen
##itatge
dirigia
tons
sorgeix
matèries
##ights
##tique
heretar
Budapest
espacials
nòm
refusar
Columbia
mundials
##13
##TC
vàlv
realisme
Josef
ortod
##alitzen
eixamp
madril
ascendir
Lind
recop
centrat
drogues
internet
##18
##onne
##ersió
camb
presidir
Mü
engl
##isferi
rescat
##idi
exf
Exemp
Verda
Emilio
substituint
Ferro
Montg
blava
citar
aragonès
presidit
Orientals
complexes
##siqui
##òpter
destacà
noranta
rarament
percepció
públicament
desenvolupant
##gonal
acla
Segre
Patrick
##onímia
diagnòstic
subministrament
recolzar
##èlia
Aven
Lake
Show
tingués
##para
Aga
Mak
##ropol
nois
pirates
##mau
##umi
Foix
aspi
etim
volar
Concert
classificats
desenvolupen
##zin
correcta
barroca
ocórrer
cha
mite
##urador
regnar
repartits
##EL
##anca
##rote
Out
ascendència
Whit
anells
Gilbert
exiliar
facultat
instrucció
##hon
Teod
dirigides
periòdica
distingeix
##ató
devo
rugbi
seminari
periodistes
##bek
comprendre
Pots
Roll
subm
fluor
patit
pitjor
consellers
presbiteri
consideració
caracteritzen
minor
suggerir
##estiona
Família
diplomàtic
Rao
##raria
Degut
bombes
neteja
Kí
Codi
Sula
visqué
Arizona
Montcada
mitjanes
literàries
Asp
##mirall
Andrea
Meridi
engany
Hisenda
##FC
##ogl
granja
instrumental
immobiliàries
sé
ISO
Felipe
plàstic
Programa
davanter
acceptada
constantment
escor
acabava
homònim
##zburg
blog
tracte
clàssiques
##cidi
múscul
èmfasi
Article
Bry
##rence
Data
Corunya
Eur
Techn
dedicades
Ye
##pitalet
sofert
estrenà
##oper
Janeiro
improvis
sar
peculiar
comissari
troballes
##led
Kun
##ffe
Nove
rebia
exacta
Bit
Cés
##queri
Caire
penal
##vill
lap
dipos
Sobirà
##òcits
##cances
index
CNT
Dies
full
formigó
coincidint
##bour
##lash
cilind
parent
sosten
##uralment
publici
senyoria
Wu
##irac
ascendit
##làmica
Llengu
estaria
mantingué
Neb
Ves
abreu
Penns
condemna
##cass
Raj
##inita
Disc
Pueb
Capit
Justin
coefici
significar
sumar
pertin
porter
Podem
retro
pintada
territorials
##gics
limitar
funcionari
##leu
##rep
##gant
##illi
optim
salva
centrada
seda
##ficàcia
parlat
rivals
començava
##xico
##ladors
habitacions
Imm
assis
girar
expandir
Statistics
Muñoz
discs
ascensió
emissora
##riss
hex
amiga
avaluació
coordinació
##kers
Nostra
patron
Trinitat
estatals
fila
enzims
dominació
##anz
##kir
##rineu
##ogermànic
impremta
restablir
establerts
Vigo
Colomb
operador
##dos
##rigo
##tara
bap
##èrics
Hora
Mike
Solà
coincideix
##gines
Plini
fortificacions
Forn
mènsules
##tap
##inosa
Valent
ritual
##initat
Ciudad
##board
Instituto
desembarcar
##tiz
Sou
urg
Meta
veia
consultat
senzilles
##cet
Hop
##meses
Isma
Declar
Hernández
ecos
Parma
##obreixen
sobrevis
normativa
##ufact
foto
Líbia
flanque
liderat
Corporation
disciplines
podrà
excepcional
Vilar
Barberà
emprada
Arb
buc
für
##etari
1832
cend
Lucas
privats
esdevind
Ludwig
cròniques
##fred
cinturó
adovellat
subjectes
Work
prostitu
Eleccions
aminoàcids
ambiental
profundes
tardà
parents
crani
financer
adsc
seqüències
Bengala
promogut
relíquies
240
porc
colpe
Convenció
setmanari
##ems
##lai
LE
Meh
##inski
coet
Guadal
taronja
italianes
reproduir
acompanyada
##ulus
Arte
Indúst
sensibilitat
##dià
Cub
Malta
avançat
ruptura
Rica
poblada
manifestar
centenar
deterior
qüestion
glic
dovelles
notació
Apro
Rose
elit
Ribes
alberg
Califor
Hospitalet
##ellers
Alejandro
Sn
avor
beta
Escut
Eulàlia
tensions
pins
porxo
cursar
##cole
##etri
Segon
lenni
inventari
##ític
June
Ahmed
protestants
##nos
càrregues
emprendre
estructural
papal
Valeri
afectada
deixen
socialistes
##rice
Tele
combinat
##kt
marxà
Western
armades
Aub
##parte
1789
varien
conjunta
dirigint
provocat
##iev
##xev
##guis
##kespe
##érvol
muntar
produïts
lah
##osax
preveu
guanyadora
vela
Fabra
exerceix
patriarca
Tradicionalment
Om
##egem
Tang
dign
oportunitats
##ej
##lig
##tables
selva
designa
quilòmetre
##inda
horm
Campo
Gla
Livi
fita
Assump
##sch
SP
##adis
Arg
Valles
poètica
enginyers
Exteriors
Bec
##getes
Berlin
Marquès
Navarro
adopció
incloïen
##omar
Conrad
##olia
adi
##enques
tuberc
fur
##caigu
contras
afus
Escrip
rebate
Apareix
demanant
condemnar
Originalment
##hil
##kon
EL
Pag
despob
Yu
Otó
##guedà
Montp
controver
##upe
Acab
Anjou
alber
Senyora
sobtada
##americana
##ese
##nou
##onna
Cient
anarqu
combinar
modificat
Christopher
Cres
enclava
residir
Pul
Babil
Anderson
bombardeig
Das
1823
##quilla
mobles
núvols
estrictament
##mó
##ebi
##enza
##orció
rode
arrodon
##hra
gest
##lahoma
##instein
transvers
Antí
inde
Resta
Península
necessàriament
mob
honors
parcel
metrall
tardana
integrants
##sidi
endèmica
Cross
sotmès
Newton
expert
viscut
##ticament
astrònom
confirma
tò
Baden
haguessin
SO
Hud
Trà
USA
rot
mata
atacat
Oklahoma
Valencianes
##vora
##guila
Amor
Mend
divuit
pioner
esquel
fortaleses
HD
farmacèu
##bell
##edre
brigada
famoses
Anim
Wild
##química
espadanya
Tas
nenes
atreure
Fis
Jeroni
puntes
Russell
Magazine
anglosax
fomentar
dissenyador
taxes
anomenà
afectats
componen
suggereixen
×
Esplu
unides
##16
tendeix
burgesia
calcària
elevació
tendeixen
##istra
Chen
Chess
rebutjat
servidor
químiques
Hass
Power
diòxid
Benjamin
abundància
Night
fresc
β
##opot
Comm
##cionats
Quebec
monges
corredor
ambaixada
lela
##onials
coberts
vas
Sever
##had
Berga
Lem
marges
estimat
##metratges
Memorial
##kas
encorat
##lanc
Maz
sueca
Indian
interpretant
Tob
##taner
Lady
alça
decorats
empleats
##gang
450
##tinat
andal
crims
deute
parcs
perruqueria
##gats
##rary
Rug
Antoine
interfer
cui
Donat
sabia
despatx
Caucas
Indiana
cervesa
Ferrocar
narració
##ober
Ord
lulars
##utacions
pavelló
cler
##inà
##ree
Austral
ambients
1809
Sigu
Legió
Econom
flauta
artístics
classifica
##är
##ansas
##olina
Final
vells
Kennedy
Recerca
actuant
compleix
##olor
faraó
##sibilitat
subcamp
1818
Arta
moro
##amèrica
acusar
típics
##itès
##ròpoli
##los
Vid
##àrids
Bull
pira
brancals
##zes
manga
Ambdós
Havana
preten
buscant
concentrar
##orom
260
Carac
Abraham
portals
apreciar
atracció
##ranes
engan
nul
Cens
Rambla
Reserva
gramàtica
##eco
Filad
Lorena
sistemàtica
institucional
##mot
##retes
Nich
cims
eleva
armeni
cabell
retirà
escrivint
Blue
Casal
resident
Aristòtil
espectacular
planificació
##anal
Jut
imi
1825
##ànides
urbans
traïció
Shakespe
1831
capi
Igualment
Observatori
UD
##opis
##viar
Islàndia
##edors
##unals
Sitges
Teneri
causat
Virgili
influït
acadèmics
Verdi
estra
precipita
##vari
##itter
Boni
Berguedà
representats
fàr
Gand
nominada
##ips
##ínids
como
Zuric
celebren
##cació
dramaturg
Revolucion
Cór
Khal
electro
mana
excés
inunda
##wo
Eren
##roducció
agrupació
Sport
generat
Gha
recl
##utilitz
croada
##campista
descriuen
diccionari
dup
Four
parlava
California
##untry
Rand
hipot
##onge
Flo
ideals
Química
radicals
reforços
aïllament
##ng
##ògens
incom
escalf
humits
subcon
pensava
Tenerife
simfonia
vestigis
esportius
comerciant
##NC
##gena
Agn
duen
Elena
Marca
TVE
##allen
teòric
correctament
Sky
##ranis
Moham
ètnia
gem
pág
1813
Live
ingrés
normals
explorar
Shakespeare
Dante
andor
conten
##ims
Eix
Cançó
Vives
Crimea
Seminari
protectorat
##BI
##bé
Quir
##retaria
dorsal
arca
fantas
utilitat
##icus
Mog
Índic
criteri
##imir
Pun
efí
Water
causada
enciclop
quelcom
Tailàndia
arquebisbat
##enal
Hawaii
Wo
cícl
##ustres
Brook
Hermann
Hispània
##pina
Kot
##rotxa
matin
contre
##La
FIDE
contrar
jugava
Aleksandr
1793
Bald
Brah
assajos
##ianès
esgo
Colorado
preparat
Thé
metà
esquad
eficàcia
connectar
relacionar
##orsa
Books
delicte
Paraguai
associades
corts
presidencials
fant
sonda
Africa
processó
expressions
var
Spring
regència
brillants
administrador
English
rituals
degradació
immigració
Gem
Six
exercí
Bohèmia
iniciada
semblança
##lora
ordes
regula
Tècnica
##urbis
neut
Missió
Conserv
confirmat
Sex
Fira
Diccion
donacions
Š
##adoc
##cias
##pool
Hera
retroc
consens
impress
Monument
asteroide
Syl
jutjat
vector
elaborat
##zel
EM
##ergat
Morgan
acollida
duquessa
realista
arguments
quotidiana
##raltar
Lanka
fluid
marines
acadèmia
Habitatge
successors
##xil
##antar
##òdics
ions
hidrò
costanera
aficionats
discogràfica
##15
##borg
vet
Groen
Moianès
preg
retorna
##ficà
##urades
Particip
##hya
orelles
Hus
hand
##àndols
minim
pertor
anteced
remarca
amenaces
repartir
substituïda
Cinc
llums
notar
milita
aquestos
##AL
##obar
##ònoms
pateix
polonesa
ratpenat
convenció
##vitx
Fle
##única
1824
Regu
Mariano
estimar
dimissió
Riba
conveni
aparicions
proporcionen
Ou
drac
ocul
Kil
##idament
##èriques
saquejar
##mil
UP
Fél
Tren
daurat
rebuda
adossat
avantpassats
##uru
##omor
Medina
entregar
femenins
termenal
##estí
estri
##itzador
baronia
estratègica
governadors
inqui
disset
mostrant
emergència
aconsegueixen
riv
vores
innovació
lustracions
##rillo
Sans
##EM
repob
estratè
influent
augmentant
Hub
##íngia
puja
Senegal
consola
estatut
##ped
Adams
rever
##versions
Llevant
##pient
Zona
Maurici
Congregació
iniciatives
especialistes
Nan
Delta
barres
Philippe
EC
jer
Sony
##sibles
senyora
Antàrtida
enregistrar
##íbul
lep
escapa
amateur
##esse
Model
enquad
##adí
##olins
##uncil
atribuir
raja
Fonts
Dionís
promet
afirmen
esm
##GT
Tud
##olles
Tess
Zeus
casc
##cís
pobre
Galile
Santan
Existeix
pertanyien
Meg
antis
posen
previs
Toscana
maquinària
##14
nig
##inois
##celler
juntes
sagrat
Ignacio
batxillerat
##ibi
##vio
##ocròs
##lemany
voluntària
Rig
sou
partidari
Taiwan
celebrats
Octa
acta
##hausen
Txeca
Carbon
veïnes
proporcional
hin
1790
tetra
aïllada
condens
superficial
##tiner
abord
Policia
tinguin
converses
connexions
anàlisis
òxid
fongs
introdueix
##yin
Bada
gala
##hus
destr
pesta
dictador
Wy
##ción
savi
##erques
mariscal
Carlemany
pressions
inclinació
##udita
Humb
decidit
Eng
Bour
quarter
elevades
Unes
lada
codis
acabaria
continuava
avantguarda
enregistraments
Riga
César
Classi
envolten
mallorquí
##amina
##arita
mots
##uradament
Franklin
##ugell
Verg
submerg
##cind
##pitals
Berna
patrocin
lleó
Capità
flamenc
canadenc
convidats
SC
230
Ohio
cald
Corre
estadística
##gents
Scala
nominat
##lands
llars
colomb
servit
destina
Curi
mals
renda
Copenhaguen
##tos
##illet
Brad
Morí
Barri
arsen
texts
algorisme
masculins
universitaris
##kara
Deix
febre
útils
figuren
marcant
retornà
atemptat
detenció
telescopi
1801
argi
turístic
hemisferi
intentant
primerenca
##ïd
dren
agafa
Jiménez
asiàtic
greument
declaracions
##hin
##allar
vins
quedaven
##ïsa
sagris
##undation
Babilònia
conservada
rehabilitació
##reries
molins
Sibèria
lluitant
ocasionalment
Lat
previ
##frugell
enllaça
##lio
Crí
Kub
Chan
assolit
míssils
cartagines
innoc
Agricultura
considerant
##quier
Bris
Duran
##ectives
trastorns
##bama
Bena
Obra
Russa
sòlida
armenis
hidràul
vocació
carreres
prohibit
##ilià
Hur
Syn
híb
Fanta
Virgínia
desinteg
electorals
essencials
##igar
Alí
Bàs
Cec
Fos
##rines
Bank
Giro
tria
Pedra
desplaça
llançada
##head
##livi
##house
##ílies
Consid
requeri
governat
negatius
desnivell
Administra
conquerida
puri
##tea
lleialtat
##owa
aiguam
Vincent
protestant
característics
Barça
inters
luxemb
##kis
Dres
Simó
radioac
##uses
##BN
1817
Cand
pica
vàlida
finançar
Marques
suportar
##arch
##rico
##éndez
Atlé
retre
tracten
jesuïtes
entrevistes
##manuel
Eugen
Arnold
fugida
tornant
##elia
##ofil
triple
veïnat
Gibraltar
##gul
##olà
liderar
arrestat
ríg
##volution
barrera
##onòmiques
##harm
##ophy
luxe
aplicat
Ç
defenses
llicencià
##teries
Situat
canvià
menció
og
Maes
fruita
Ian
Llomb
Donald
Atès
obtenció
Prado
mèdic
governació
′
India
##gens
Heb
Arab
sarc
exfutbol
##uà
SD
##otti
##reda
convoc
Llatina
entrant
sindicat
falsa
discorre
occitana
Bruce
aterratge
Nacionalista
MS
##rima
Rein
Igles
amist
modificada
uk
Nass
satí
Obres
concreta
Americana
combustió
cantonades
##US
SI
cogni
examen
exfutbolista
##mini
erigir
exposat
tornava
revoltes
##irat
##mades
operar
sufragània
##tata
##illuns
Linux
Pasqua
depenen
##qual
kar
afluents
desemboca
detinguts
##17
##lesa
Jules
Stone
Comença
Cartagena
Llenguadoc
Mant
freda
Period
Diverses
Fan
##rases
resson
Sz
calib
esportives
eclesiàstic
##book
Flora
decisiva
inclusió
turistes
vinculada
enderrocat
precedents
1816
Metro
fibres
deixava
horitzontals
enviada
decoratius
##enni
##ixar
##òfag
Rag
advers
bombard
Wei
Kíev
nomenà
governava
electromagn
##faci
##pats
urani
##ellament
luxembur
##lementació
lentament
Cord
txec
Miami
adjud
Nelson
superat
femenines
##quins
fleca
mudar
integrant
##olas
##onen
fina
Amics
Molina
detenir
australià
precedent
##afir
Mec
lac
Línia
ampit
irlandesa
Lac
##orten
##òrdia
aclar
hereus
incons
efectuar
##amor
corb
immoble
conspiració
observatori
past
Narcís
Portal
intervencions
##lut
##erno
##onià
PSC
Ruta
Salt
Terol
cations
recolza
defensiva
inspirada
destituït
Governador
concentracions
##àmbia
microsc
discriminació
BM
Sang
abor
##ventura
deguda
Camerun
Marítim
fruites
israelià
trastorn
##evin
##emann
Leonardo
existien
##ïns
##lers
##ouri
##rama
aparegué
plantilla
enterrament
Mys
Fron
Gian
Gros
renunci
etr
1828
búlg
test
Projecte
designació
subfamília
##tutx
sofre
Lluïsa
histor
disposat
##WV
##dle
##doba
cis
pogué
##üt
##àbia
##odies
Cova
Road
porció
Compost
esmenten
##oides
Oslo
##enciada
cicles
psiqui
Garrotxa
##lics
Hot
Thi
esgla
lan
uru
##illas
Emma
##emàtic
inventar
cerimònies
clergat
fallida
imperials
infraestructura
1826
Sher
acús
emprats
glucosa
Cher
Direc
préstec
visuals
##rope
Bod
##lines
Unión
bretó
sonor
actuen
sostenir
franquícia
McG
Scar
lels
venj
arbust
Avinguda
Palafrugell
Toni
Zamora
encreu
oració
wa
olor
Dolors
Herbert
correcte
Entertain
denunciar
matemàtics
mercenaris
arqueologia
Eis
nus
##inava
Tomás
races
##ropolità
instrum
Sea
cabd
Cases
sintetitz
Foc
##osfera
ajunta
Galeria
lectiva
Atlético
domicili
habitada
estrangeres
Osca
##minat
##resos
Coron
Romanogermànic
##ML
##kie
1803
noces
facció
Margaret
##nell
Conté
patin
##inament
adossada
freqüències
1811
estables
##inas
inèd
nissa
##èniques
ordena
declivi
directiva
alternatiu
usur
Liver
bruix
incendis
nosaltres
##gnar
apòstol
poderosa
esplendor
Reforma
tubs
Bisca
polig
ordenà
cartutx
dividits
sostenen
##bos
##ird
matx
Àrab
leles
tromp
florals
##lore
1829
Alep
refug
Txecos
ajudat
cessió
dissabte
Successió
##egant
Singa
cames
Online
Wright
targetes
##avan
##adur
instància
##sionat
esgra
cintes
Council
pelatge
romanès
Professi
destinades
210
Rid
bul
oval
pujada
dissenyats
Nú
Bau
Mann
juda
basar
congel
essència
favorables
##erap
##ingi
##issau
Mali
marro
descobriments
Xah
##íades
news
##cistes
Terres
cràters
atribuït
detecció
redactor
evolucionar
Jug
##èlfia
Cart
projectar
##edu
Cou
hegem
veneci
immediata
jerarquia
adolescent
extraordinari
##EE
Histor
ciment
litres
depenia
Registre
Cour
Jaime
prevenir
Ach
Bey
cérvol
vacances
argentina
##qa
##sionar
gaèlic
Lawrence
preguntes
esclavitud
administratives
capellà
nerviós
convertiria
##vit
list
pals
Foment
campus
aturada
mostrat
emperadriu
Comunicació
##zm
Setmana
Filadèlfia
llomb
Sàhara
##ember
Basi
Zhang
dignitat
Entertainment
##coa
750
Hir
aqü
rendició
divendres
##sky
Cit
Cassi
admet
Helena
##teniment
alimentar
gestionar
construeix
reemplaçat
Extremadura
##NG
##ska
Paci
adjunt
Seguint
derivar
emprant
precisa
Comandant
precipitacions
##yi
##rena
Luna
Alice
##naments
avenços
cirurgia
consolid
##enyes
tanc
anime
primari
embarass
Dy
##iber
Nim
delictes
substrat
holandesos
infeccions
##enz
Llar
recepció
Llibertat
arrebossada
##⁄2
Níger
fibra
prolong
##idora
depred
Marshall
extreure
redactar
acostumen
tribunals
heret
Tercer
##assament
Formava
polonesos
requisits
##ocat
##uble
paletes
perduda
perfecte
arquitectònics
##mu
##ises
##turo
##rònim
Domènec
Illinois
dramàtic
alimenten
Oro
arg
reafir
consultar
Foundation
##tó
afecten
##very
Abb
Wol
màn
1792
Colla
seljú
Guilla
##hari
quir
Dalmau
milícies
pescadors
presentant
Queen
rostre
##eae
##ètia
Our
##pides
Silva
emesa
Danubi
jutges
devoció
Anatòlia
capturats
compostes
##UP
##gle
fracció
sortint
emmagatzemar
##éra
axi
Tanz
##ctives
Mikha
Titus
Còrrec
Academia
efectius
\
##aires
emès
comparar
Treballadors
medall
acostar
corpora
olímpica
maquinari
necessitava
Naz
##tites
cans
Ponte
##muntana
##ográ
##volta
interm
Barranc
tèrmica
recuperat
##dico
pura
Oriol
trial
##uste
Had
mini
Roser
Temps
oferia
preval
Córdoba
anarquista
##lletí
##ostic
Plec
Àrea
##llures
Espai
omplir
passatge
procedir
finalitzà
##tarc
barb
zinc
amagar
Bandera
Garriga
semblar
cass
##istemes
fosfat
farmàcia
immediat
indígena
interval
RCD
##ymond
mamel
tragèdia
perímetre
Ima
Tennis
erupció
Santander
traductor
implementació
bea
larves
explotar
adquirida
motllures
##kam
##ocra
Trí
Wür
1795
invi
##herine
##eration
apropi
batalló
ò
Manel
depor
acusats
disputes
##fico
fit
##òloga
recre
Centro
entrat
parada
oxidació
##allat
##àisia
Mineral
##än
1819
Nació
Bissau
States
errònia
successives
Investigació
Agrupació
##lik
##érica
##onista
##òmetre
Clark
Mendo
Project
mecànic
corporal
##Hz
##idó
Wang
presi
Esparta
Turisme
registrat
focs
##ultors
concer
ligent
lliber
executa
##comunitat
cardenals
Llicenciat
##oes
##nada
##iller
##ènica
Grec
nouc
Havia
partitura
##duí
acompanyament
ERC
Ermen
Raven
Sarah
semic
notari
visitant
turística
##rara
Bret
campanes
##itzava
Iemen
basen
canya
rellot
verdad
##cionament
plantejar
preservar
##gie
##iba
##fiar
Carn
hura
roja
penes
Sainte
##pot
##dible
Bres
Awards
Simfonia
assoleix
denunci
intentà
suposava
##rion
##tium
Lab
tauler
consagració
continentals
cinematogràfic
##ocidi
Stein
AL
##umann
patent
CH
First
localitza
##eves
##mara
##ulsa
##ardes
intensi
excavació
Compta
Lincol
atleta
angular
venjança
demostren
Ard
Ferdin
eficiència
##atg
##lores
creixen
##mile
Athle
associar
establia
##nius
##poració
Malàisia
quàntica
Vig
geni
##ògrafs
Secretaria
desencaden
##neo
blu
torneigs
##jer
abd
tribal
suports
emmarcades
cup
cera
Gaudí
assess
dester
addició
confron
partícula
emperadors
##adem
Río
Fontan
clínica
guardar
caracteritzat
IBM
sospit
assassí
Groenlàndia
contínuament
Kr
anne
##clisme
càlculs
Infanteria
consistori
contingent
Universidad
##jab
##rible
Ferm
heli
Nepal
Conver
Augusta
herbes
Comarcal
renúncia
dependent
costaneres
Independent
##ilada
setena
dibuixar
mostrava
criticar
pèls
bigues
lliurement
proclamació
agulla
teclat
conscient
exportació
residencial
pòr
##titza
Mestres
hospitals
finalitats
##yas
Plu
Main
Disposa
perseguir
IM
Metal
ètica
temporals
condemnats
##dàc
##anet
làs
Energ
Motor
cortes
difunt
Mercuri
Evangeli
magatzems
##opo
dominat
reuneix
tallada
propietària
##mouth
licitu
Stanley
##erià
emin
##ducció
futurs
Biscaia
elegits
segment
gimnàstica
governamentals
##TP
##gart
ducs
limf
iraqui
músculs
succeeix
##cc
##eval
Abadia
Alfredo
Utilitz
metabol
explorador
profession
presidencial
##dula
fetge
##olicisme
insecte
absorció
sobirans
festivitat
finestrals
μ
accessible
##zza
bob
##uston
##miento
Malik
finanç
perceb
podent
##entiment
islàmica
jurament
##ímir
1827
Jardí
Cornellà
epidèmia
controlada
Ö
†
##cast
Passeig
cascades
galàxies
Equatorial
##inster
Dresden
bastida
jurídic
sincron
bloqueig
marítima
tennista
infantils
correspons
Jin
Aman
##hwater
Unida
École
assignat
interaccions
Gim
tambor
cronologia
xe
1802
mirall
segura
uruguai
rumb
clans
envià
soter
nomencl
predecessor
argila
nomena
Muntanyes
derivades
accidental
promou
emmagatz
##VA
##anti
UNI
faci
onada
Humans
Racing
postura
##mals
Pow
portades
Infer
diges
Pirineu
plantacions
Rup
##ingrad
Compa
##èmies
Atlas
Musta
balls
creen
dotzena
##dés
Ut
Vide
russes
àngels
##trú
Fà
Ata
fils
doctorar
forestal
limitacions
##hai
lud
helic
pasta
entrega
urbanes
violació
##haw
##ití
1600
deure
sentim
executats
universitària
##erns
##into
Anci
Kelly
Bibliot
daurada
Occitània
fog
##ogonal
##otacions
desenes
dilluns
despertar
llenguatges
##ecomun
Aless
Femen
Prote
rastre
Rossini
produïa
vestíbul
sagristia
cama
acudir
artefa
Edimburg
faccions
pra
##onent
##òpodes
valencians
laboracions
##oide
off
1794
Naval
escamp
Roberts
mexicana
##66
1806
Estònia
Mendoza
Mississi
intervin
Biografia
Frederick
precipitació
##òbia
ambició
afirmació
From
desar
groga
Castellar
Glas
acrònim
atorgada
HMS
Clot
punk
decorades
Províncies
##put
##trac
Amat
radiof
defineixen
##pà
##sian
Consul
Quercus
paratge
coronada
Txecoslovàquia
##hm
##lus
MA
Gau
feliç
mirada
missioners
alternatives
##iff
##onian
##òpolis
Garden
líp
Dark
Janu
raïm
batejats
barceloní
##eces
Orfe
abre
centr
Network
inversa
manufact
##xar
##erro
##main
##rial
nissaga
pronunciat
##sex
llad
##egüent
Penya
Gerard
transformacions
##otja
##úmbia
Dum
Yan
polim
##ctivitat
distribuïts
•
##his
July
amet
##òcesis
llana
modes
##issionat
destacable
disposades
renaixement
Hid
clav
àvia
Relacions
tributari
Kin
entén
Matthe
Tossal
##ètriques
Sindicat
##uña
##tros
Aca
Ghana
alcoh
Sempre
Charlot
paterna
records
ordenació
aconseguiren
##rik
##ogne
##pura
freg
inventor
melodies
suficients
conservadors
##ctus
1700
Boix
China
Félix
lapse
lenta
cunyat
erosió
escand
Calders
compressió
estrangera
adolescents
Sanç
Tarra
mares
motiva
autorització
desenvolupats
ron
Ming
Denis
nocturn
bibliotec
Plecoptera
obrer
discapa
endèmic
quantes
distingeixen
##cine
##mpes
##inton
sostingut
##24
##ínic
Lip
coa
viv
sufra
Liverpool
Gy
##este
escis
valer
Disseny
paquets
Cron
amenaçada
Harold
corbes
evangel
##oku
you
Geltrú
hereva
comitès
editors
esgrafi
llargmetratge
fract
sabor
Avinyó
Romero
Albània
Frontera
prosperitat
crug
Docum
influents
intèrprets
##less
Natal
Nomen
Raymond
altituds
tonalitat
##òpic
Expe
Tras
coher
maternal
purament
Enciclopedia
Dag
##ilton
polz
corred
Forment
significatius
Abdul
Sound
exercia
##TAN
##chel
Sau
was
papall
acusació
companya
recupera
suïcidar
Simfònica
esquerres
romàntica
##lyn
##anne
facto
treva
estesa
refrig
predi
espèci
##niformes
Metropoli
legalment
democràtic
desembarca
##eme
Nit
##tilde
Pach
anci
species
convidar
##tenes
anuncià
targeta
##óc
##udo
Gn
Xà
##alada
pris
rares
Alcalá
banderes
##core
##vert
Lob
Pros
medica
botànica
Constitucional
hà
##orci
##roni
Nag
Bloc
Down
Horn
List
antí
##cionen
##vestre
Julia
orgull
autònom
##lon
##gades
Paula
multim
sòlids
Kazakhs
exercit
##igma
##anita
Cany
Rodes
heràl
Blanco
mangan
campana
perjudi
Wolfgang
Indústria
obligació
treballaven
##hamp
Leb
vasc
Innoc
gires
tiges
##eps
Kevin
Story
Isidre
Eli
ressal
distribuir
1805
Creus
Histoire
##yà
1804
Troia
emmur
##ròpolis
desena
nativa
Rodrigo
tractaments
##rians
Situada
conreus
orientat
##elop
##omis
Hols
prats
world
pantal
deposat
Bartolom
autèntic
Cook
Viny
retard
ortodox
Sociedad
##ecar
Gun
Poden
compten
cerebral
granit
veient
sencera
##ïdal
vag
Nort
Baptis
sorgit
Studies
Mongòlia
subdivid
irlandesos
extraordinària
ut
breus
confisc
aplicada
##dimensional
estadístiques
Hig
dei
cantons
exporta
pastures
##uti
GR
Bess
Over
càps
pleb
Orange
maduresa
panorama
Bonaparte
divideixen
carros
##ends
aud
màgia
Pàgina
acosta
relatiu
mobilitat
acumulació
##td
Bàl
##zantí
Fire
Jonat
Morris
celebracions
##ør
##vez
fatim
Herceg
January
jubilació
FM
##iduc
##osses
rajola
donaren
restitu
desastre
##lanca
Cult
##tabase
Marag
Office
online
assembla
fantasia
controlat
compliment
1714
trio
emblema
capitals
disposicions
sci
1200
Pseud
ETA
Arms
tort
espòs
globus
Cementiri
respostes
consolidació
Prí
Guip
didàc
##Station
lliçons
educativa
organitzà
1799
alfa
##hattan
Tebes
proto
##ificació
Començà
dev
##kings
financers
diferencial
arqueològics
Històricament
##entia
##teneg
ISBN
Partici
assignar
Kazakhstan
##ding
##torn
ajun
nerv
Plató
exclus
Campions
Colúmbia
sc
rajoles
mariners
descàrrega
sorprenent
Presidència
democràtica
##tienne
anions
reconstruïda
##obe
##vella
Fair
Sarrià
matric
satisf
parlada
romàntic
suggerit
permanents
##ànida
##europe
Record
naturalista
desapareguda
##ssic
fec
trí
##uther
cipri
pàtria
African
produïdes
localitzar
socialisme
##xaca
Mob
odi
##mbria
tija
Gramm
llenç
##fos
Beck
##fèrica
##ustrada
fusion
percep
filades
galàxia
Manhattan
ingredients
Ani
Euc
dures
##enciona
creades
transcend
Sas
espit
paràs
conces
Library
integra
promotor
##ristes
obtinguts
##uman
Pho
back
paquet
sobresurt
NO
Beau
greg
Capítol
Pennsilvània
ral
##latge
rami
geneal
Selecció
policrom
Campió
codice
Guadala
docència
acusacions
##istic
amaga
buits
Romana
escomb
##oracions
##fila
##over
Lot
Mn
1798
Depart
Suárez
apunta
oficis
prussi
fuga
##cons
##wara
##rancs
Fèlix
atacant
cipriniformes
##wab
##sida
Rap
síl
Link
cruel
desfer
##dh
##phy
##opin
sua
acredi
ornamentació
tà
##alat
beguda
Bertran
venerat
Vladímir
menciona
expliquen
determinació
##ïble
Homer
Pasha
herois
##çana
rodó
búlgar
caigut
mosaic
respectius
catolicisme
inundacions
Og
entorns
orgànics
204
tru
##uncis
firma
egípcia
coronament
PlayStation
AF
reutilitz
Flu
cúb
##estre
Grim
ambi
vespre
franges
subgrup
remodelació
especialitzats
##oche
##opia
budisme
exiliats
Declaració
econòmicament
##roe
restà
clares
típiques
##pra
##ulina
estím
oferint
traduïda
unificació
##ink
Màn
alz
##olada
enta
maced
migració
sindicats
posseeixen
Ax
1807
decideixen
##more
Casals
German
Athletic
##avi
Sot
Kath
##racció
Corom
Campos
Complut
Convent
caçadors
Professor
morfologia
paris
##ediència
incapaç
Exc
##ersal
repeteix
sotmesos
oliv
Ultra
esclau
Gairebé
tancats
implementar
protagonisme
##asco
Non
##ordre
##ressa
espitll
Generals
atractiu
escàndol
divulgació
seleccions
entreteniment
representaven
##keley
navar
##ficador
venuts
exhibició
encapçalada
Hä
##ocond
néta
humida
ampliat
jurista
Tanzània
portalada
sòc
Gira
Guti
ataca
imper
Concurs
recerques
pH
##bourne
Bella
magnesi
amplitud
comentar
seleccionat
##dea
##matic
Chal
Hell
Crònica
referents
Complutense
Hé
Who
genèric
Basílica
observador
supervisió
descripcions
##dif
RA
ina
Born
Leone
Ville
basca
soldà
solia
Potser
missat
benestar
prometre
tornaria
resistent
IA
##ports
gole
Torro
joies
eficient
desgrà
infrar
adaptada
artesans
reus
samar
Johnny
Roland
##itzadors
editada
estigués
implicar
vassalls
Department
subespècie
##ancy
##ibis
Caball
Uganda
dubtes
genocidi
conducció
Vita
##LC
calif
demar
Salvat
amerin
defensà
prevere
continuat
políticament
##oja
##queren
Kings
demol
Tiberi
Elector
Espacial
nominació
##data
Kit
bir
cofund
gravada
Billboard
aristocràcia
caracteritzar
za
noció
vuitè
Common
algebra
reconegudes
fag
Bien
llatins
romanen
Database
diòcesis
UC
Fòrum
Llull
salts
Queens
adapta
frases
reivin
Mesopot
Premier
##yama
suprem
Álvaro
Jonathan
Robinson
escollits
##zione
indirec
teòrica
Recentment
alar
culpable
Principal
##ínx
##ocesà
Niça
Beach
àrbit
Rodolf
batejat
Guadalajara
encarregats
##ífex
Ola
apla
##allada
Party
ràpids
senyorial
interessat
Mou
esg
Obrer
lència
criminal
escrigué
arqueològica
##tila
obe
Patron
segments
Planta
significatives
píx
vos
Billy
Norman
estandard
##IR
ende
Guide
masos
farina
Hercegovina
Ai
Mercat
contac
bateries
contamin
fusteries
Diccionario
##legar
velles
vectors
Ry
##anny
seguí
elegir
resten
disminueix
localitzada
##irar
##kota
Montal
austro
demanà
Esports
Tod
1791
crèdit
reformar
recte
Rudolf
implantació
migcampista
##mak
##tula
##íbia
BWV
Archi
Montesa
Destaquen
##side
Lus
Rif
Hend
fans
Domen
Argent
##sio
Jose
Force
Sports
citada
debutà
murals
Eslovàquia
conservats
##ects
Màr
##ulles
Mèrit
imita
premat
estenia
centenari
medicaments
##ffa
Ais
pom
##allas
##assos
Line
cist
sina
primàries
##eble
Caldes
critica
Hamilton
alcaldia
##kat
Paco
desús
assumpte
Fora
Mili
deca
arbus
danses
history
permeté
àlgebra
embassament
́
Uz
cast
##ateria
explosi
oratori
aprenent
Abi
Integ
rectes
dominava
solucionar
parlamentari
##sols
Jama
Charlie
reduïdes
pantalles
Spa
##dates
ressò
iP
sentia
Valencia
Publishing
estructurals
contrarellotge
sta
1797
reme
##jadors
##cionista
elevats
empresarial
##hof
##iam
Eb
##abal
Husa
##entava
lloses
Agustín
Sagrada
canonge
oblidar
remunten
trencament
Gren
Count
Castillo
holandès
sobreviscut
##oner
##osis
##ectors
Àrtic
Flores
diària
encarregà
poblament
especialitzades
##eden
##áñez
Estrasburg
corresponia
##ła
People
reeleg
Lincoln
Lub
##indre
Mirza
anuncis
suprema
Singapur
proclamà
viatgers
concedida
##aran
1787
Entr
tabac
##tivisme
Segura
Mesopotàmia
##urgi
##ografí
##òtiques
pioners
December
campiona
Càn
duia
Comics
plasma
annexió
Michigan
progressiva
Marià
Plant
adona
empar
conversa
emigració
travessant
Gat
Lun
Boul
Free
Page
Well
##bulari
saltar
paisatg
geogràfic
aiguamolls
enclavament
##sega
##tice
##tora
##ònomes
ribera
Armades
avaluar
llistat
trossos
estrenat
Paz
serví
venien
comarcal
fabricat
revolucionaris
gin
uní
batlle
anomenaven
automàticament
##macs
Ceb
Circuit
celebrà
islàmic
textura
construint
distribuït
Prò
Agen
Jura
dete
nàixer
llençar
arribaven
qualificar
##60
descont
Turó
filtre
Vázquez
formals
entrenar
Econòmica
##hí
##mps
##oir
PO
##dids
##robi
##manes
fira
caixes
secular
satisfer
obligacions
##arius
Ponç
Núria
Serveis
judaisme
vitamina
autopista
convocatòria
Kö
##hima
##igua
barro
artificials
arquitectònica
lè
##anza
hol
Rams
endar
parad
màster
##zó
##egada
Iren
ètnic
Conven
Herrera
Serrano
descomposició
##ourt
##riol
##ïnès
Strauss
##tibilitat
dinam
mirar
Ermita
anònim
palaus
Ambdues
Catòlic
allunyar
etiqueta
##may
Sog
Bard
Roses
lucre
Barbara
intentat
convencionals
##ов
##ítmica
tirar
Service
domèstic
##cota
Aguilar
desafia
Amazones
##úscoa
Artur
vermells
estratègies
eu
Seat
cruci
bolxev
adjacents
palestins
organitzats
bale
amples
sicili
lectius
nominal
Eurovisió
Baró
intu
sars
retic
àngel
sorren
Gonzalo
externs
##glar
Hèr
desb
adoptà
escull
forçat
Moderna
nomenats
remarcar
dedicació
reconstruït
curtmetratge
##oval
die
Bukh
respectar
submarins
##ongo
Lec
positius
##aco
##erable
memor
##posició
Còrsega
embarcacions
pròs
##àrdies
prolí
Atlanta
obtenen
secrets
Berkeley
continents
neerlandesa
mèrit
retin
posava
anunciat
doctoral
Guipúscoa
dispersió
educatius
governamental
Ey
Tech
stat
transs
demanava
traslladada
PR
##ívors
Sind
that
Chron
Benito
Hessen
##isteries
Control
apareixia
llicenciat
Say
##guage
Gott
Yang
Diana
Gustav
caserna
emocional
vermelles
Astronòmica
reorganització
##ika
ond
sabem
Warner
Bordeus
Coromines
presidida
obertament
Bh
Ub
##gnia
otomana
submissió
secretària
##ipar
Viv
Namíbia
làmines
ucraïnes
inaugurada
##iman
Elx
Mois
##isiana
datar
Demetri
adhesió
##rys
GM
##adar
##ismo
Lig
##erner
##iento
OTAN
dada
pesa
##erativa
desple
Miranda
humides
comprenia
concursos
##ndel
Roda
Yuan
isòt
Andes
pesant
reclam
baranes
diploma
fitxers
filòsofs
defen
pagès
Socials
governada
##íbal
225
Tul
##asses
compag
October
obstacles
estratègic
Euf
Holl
##damunt
escissió
guanyadors
provincials
mog
Segle
pròleg
admetre
cuirass
nominacions
##kovski
intim
colles
estenen
##orà
obo
Gant
almo
##ompson
Prada
veiem
Calder
restant
usualment
Núm
1780
Hoff
cany
dolç
Bruno
teules
Cinemat
Championship
##cob
##erte
Bio
##egació
observen
preguntar
voluntari
Shu
Zag
##ulants
sangu
Capital
bicicleta
reestruct
salvatges
##opl
Má
##mons
##illon
##oneda
decre
##ometria
Rahman
Jordània
agències
esmentades
##arte
##yman
Coc
Candi
autobusos
capdamunt
immor
surre
carregar
##scar
##utó
##guna
270
Trent
coets
diversa
suïcidi
campions
Ark
Pèr
Sop
Nick
humit
polif
succeí
intenten
primaris
##arios
Lenin
##fu
##jug
EN
##omet
##otec
Pier
xemen
Constru
crèdits
traspàs
adquireix
Brandenburg
fortificada
##eds
vén
##tings
beure
carro
oliva
obligada
precursor
participaren
##òfol
##òfor
3000
Raja
elevar
amenaçat
compartit
pg
##iness
atur
dens
reeixida
AG
##uras
soc
##ciplin
proveir
fluvial
hu
bre
coma
recrea
aïllats
estatuts
##utat
Golden
afició
##ciliació
Lambert
impedeix
Metropolitan
##mata
dominada
disputada
##mie
##desa
pàl
Llob
bull
Paolo
anàleg
recopi
alberga
lligats
incidents
qualificació
##òlit
##onates
##tember
atlàn
supor
Participà
eclesiàstics
205
##eburg
Barry
modal
Eugeni
Hudson
rumors
conforma
ambientals
Information
llicenciatura
##dent
Gos
rer
Jordan
Xàtiva
Legislatura
##lave
Pisa
signa
##ecomunicacions
##fen
CR
Dja
Hyd
Ltd
allotjar
estiguin
prominent
Conselleria
##óra
Py
##lador
Glen
##ectades
finances
passaren
Ferdinand
WW
##iquen
sand
ferma
sufragi
recorden
##onàu
eds
esporà
Verdaguer
pronuncia
##iser
##ítima
##jaments
amants
lírica
Piemont
aranyes
diversi
demandes
vicepresid
lluminositat
##ectu
Fall
Roch
Eslov
inusual
suporta
franquistes
##23
##25
##nac
##egel
exag
napole
funeral
ballarina
economista
determinant
##fix
ací
Escol
Seren
enfonsar
decoracions
independentista
##tte
Robin
làser
vulgar
cromosoma
lloctinent
innovacions
Lugo
llop
alien
Volume
divina
##itorials
Solsonès
criticat
escrivia
comunicat
##kó
##zano
sav
Scot
serbi
debuta
cilindre
ISS
deg
1770
Sèrie
discursos
consecutives
municipalitat
##ely
##oka
##uat
sedu
Guerres
equivalents
##üh
##ichi
##pici
Lanc
distor
enormes
augmentat
Leo
Guia
Güell
Vitòria
preservació
Nec
##irien
Gaza
obsc
ària
Artes
November
abolició
##TE
##isión
Dick
Prima
Arquebisb
Laboratori
moto
Creek
Gijón
locat
aèries
Almeria
apropar
Thompson
edificar
malament
mitocond
protegits
208
Pell
Borja
Canet
freds
tants
aposta
discutir
resideix
descarregar
##ulà
matan
Carmel
proclam
Executiu
superant
Technology
incrementa
secundàries
experimentat
Bin
##cador
##ouver
Meyer
greix
Nevada
delegats
evidències
recompensa
##vida
##èstia
erra
bàndols
Hèrcules
suprimir
compatible
##bel
gr
##tang
basava
confiar
Hog
Gandia
datació
passada
promulg
##nè
##burgh
1783
hard
ètnics
adjacent
Cristòfol
cilindres
confederació
Cara
##rànies
pells
reval
Balear
deshab
cabells
Almirall
successius
estatunidencs
##wat
Dob
Filharm
entusiasme
##ànov
##macul
ador
##eriana
Alcoi
liques
Nicolás
motllura
Montpeller
respectives
Gual
arit
Maine
eclèc
Salomó
##bur
cineasta
##lich
lant
Acord
desas
##órmules
Ciutadella
distribueix
##frag
##omon
Yus
##ícola
Recon
palla
posseir
auxiliars
prevenció
Pren
berb
Pacte
Formentera
##cés
##guesa
##istry
Joves
Greenwich
titularitat
Utre
actuà
pereg
prestig
descobrí
September
influenciat
hot
Grant
Antena
emirat
Pictures
processador
AV
Sín
has
##aresa
##èrcia
Neix
dotar
video
precis
incorporant
rin
Gene
Kurt
degà
refre
Poblet
Belgrad
quartet
sediments
ortografia
Ef
##toria
Abel
Stutt
Cá
File
Said
Walker
Comprom
sorprendre
CB
##idos
##teig
Corpus
Nation
Públic
##citament
embarcar
guardonada
neoclàssic
Hills
destruïts
microorgan
##ethe
Ses
eman
Evans
sòcol
Platja
Conserva
poderosos
converteixen
##tés
##rona
tox
Jazz
accidents
ornamental
##ande
##irol
1775
Kant
Oliva
Cooper
picada
vental
medicin
emocions
combatents
contrapunt
transformat
Mancomunitat
caraciformes
##út
##eron
Gay
##reses
##òdols
##mental
Virginia
Eslovènia
Oh
Léon
Antón
perdé
perfecta
pronunciar
Graham
habiten
tractant
##PS
mandíb
potassi
pacífica
##érrez
Cadasc
refereixen
##oge
CI
Kum
duo
quins
barret
infinit
massacre
senyoriu
administrar
##roy
##grau
##tira
Row
##andat
Games
##ussions
Develop
acabats
exiliat
Santuari
codificació
Rac
##anger
Minnes
trilogia
consagrat
disputant
203
niu
Llop
Bisbe
Macià
Sirac
Basili
salari
teràpia
coronació
capitalisme
##nu
##ção
##utus
veié
Arles
franco
catalan
rèptils
afirmava
recaptar
##gau
Run
muc
donaria
Llombardia
soviètiques
##eche
##devila
Punta
sengles
aconseguia
##chus
Grig
Mate
bola
##gueres
pinyin
Leonard
##kra
##yen
Ech
Fas
bastit
gaudeix
assegura
còr
Hugh
ètnica
mercuri
partició
cuir
nínx
webs
marcà
estrets
dependre
Demòcrata
connectat
Cé
##roid
##mbien
YouT
Alcor
Light
precep
reapar
Nascuda
integrats
are
còl
tens
Carter
algues
nòmades
Sciences
tubercul
Gutiérrez
prestigiós
##abad
##fried
Teix
Tomé
water
##rimonis
Kurdis
caminar
creadors
ej
##othy
sàn
##andar
atacada
oposada
Holstein
imprimir
direccions
##beg
##iani
##inki
##ugar
650
Emb
Kosovo
guions
reperc
Siracusa
policies
servidors
##orra
280
1796
Poll
pantà
Laurent
segells
colonials
~
##odore
##americà
fórmules
especialitzar
##achi
Key
Fitz
pous
Marvel
líquids
diagnostic
registrada
pug
patí
Amadeu
Aragón
parteix
trencat
Bernardo
batallons
assistents
vocabulari
abandonament
##olle
##ureau
##aragua
Mathe
pross
indisc
emmarca
seients
ciutadella
adaptacions
##get
##oves
Tem
##elita
Meca
inscrit
##86
##ved
##aret
##ucci
##oneta
##regon
##ropia
Kirk
Ocup
rols
Bonet
seques
seguien
constava
informacions
##ted
##wana
##ïment
ritu
Pacific
prefecte
defensava
##atha
##ífer
Acta
Buck
lars
##hongar
desmun
anatomia
magnífic
editorials
resistents
Coral
aboca
penit
priva
calent
animats
setmanal
incidència
efectivament
Roth
vidri
guardó
nòrdic
penetrar
incorporà
Rioja
hoste
sultan
Balcans
tribals
folklore
periòdics
##omer
Nin
Base
Mèdici
decisiu
corredors
fornícula
correspondre
denominacions
##mbe
Aar
Bun
gua
Aleix
agreu
Utrecht
Tecnologia
Superc
expecta
contradic
observadors
2020
Foren
acamp
debats
verdes
elegida
frescos
portats
simbòlica
activistes
tòx
EA
207
##cient
##quill
Mura
##ellats
clars
animar
navegar
marxista
Serralada
supressió
incorporada
##üb
##ogh
Hag
Kap
Jesuc
preve
Balduí
creien
juguen
massiu
Monteneg
derrotes
policial
Sebastian
africanes
Barcelonès
intencions
homosexuals
Bois
Pris
What
pila
##osaure
homog
mixta
pròxima
206
Full
jogu
##àssica
Español
##gow
##arre
256
Bielor
afirmant
Jesucrist
protegides
##tret
dedi
lina
Dream
autoria
ovelles
divorciar
seleccionar
##jk
##jous
Gimn
Valley
pateixen
##uix
Rí
Tris
duta
##heimer
Kansas
Stewart
factura
acompanyant
ensenyaments
sust
##ellades
adquir
viatja
vinyes
retrans
Campbell
relata
assentar
prossegu
Mind
falla
ganiv
incer
imposà
aprecia
facilita
polzades
Francesca
PN
Lov
òptic
BC
Spar
soft
##riller
ubica
Mercedes
Stuttgart
concedeix
parlamentària
##kun
##olet
Tron
piss
elegant
Banyoles
Arqueològic
Bof
##erich
##llets
suaus
Monter
serres
suscep
Alterna
cantata
comesti
Montenegro
##dec
ses
##quena
obrí
Febru
##tilació
Molins
Century
pistola
Einstein
elèctriques
substitueix
##wyn
Qing
imposa
vertad
Vallespir
criatures
implicats
passatges
audiovisual
##UM
##say
##ctius
##ícules
alfab
Ortega
ajuden
baralla
evitant
emmarcada
stu
leuc
gendre
pretor
tocava
exposada
passaria
violenta
publicant
relatives
##pres
##ocles
show
Studios
YouTube
reduint
Nicaragua
finalista
##TI
##lev
Ami
Fré
1553
digué
cadira
garant
matant
Nikolai
Priorat
begudes
lineals
autèntica
##nistia
afili
##ference
teòrics
##íada
320
ignor
amagat
gratuïta
distribuïda
##usol
##wari
abb
sog
Pàdua
Strat
inconven
divinitat
imprescin
reglament
Gis
Sams
titu
vinc
metab
Murray
coneixem
ucraïnès
Filharmònica
Publications
superioritat
ós
209
##òpica
grava
Nature
Basilea
Enginyeria
Governació
Ida
reformat
##ordi
Aigües
defunció
castellans
##nett
carol
tonal
Traves
orient
Fischer
##omy
vore
Salzburg
garantia
automobil
positives
anarquistes
alimentàries
lampisteries
##agrup
##polis
Observ
adopta
apropa
poblats
sentits
encapçalat
progressiu
1750
futures
piscina
prestar
cristall
sardanes
##bites
auge
bassa
criar
plens
concedí
handbol
continuada
##iata
Master
parado
venjar
Coalició
lleugers
telèfons
##ursionista
introduïda
motocicletes
Gou
##ulgar
Jaén
Savi
Dades
Euroc
Grammy
Narbona
locomot
atributs
pobladors
sociologia
Kut
With
##àbrica
Daily
estilitz
arribaria
reflecteixen
##zas
##ovas
221
hàbits
mirant
consistir
comprometre
##ctà
##sse
##ernes
Chang
tribú
contractes
##inga
Prix
bamb
Tours
abusos
atendre
Cervantes
##otà
##zal
Sall
That
enamorat
rematada
establertes
cartaginesos
lúr
más
Pels
ross
Posse
##ítiques
Casino
rebien
Collins
cadàver
Missouri
coincideixen
##adiu
##phan
##quim
##ónica
##itoral
##ressin
Griff
tallat
guerrer
pastoral
##alú
##ulls
gau
Moon
arru
Alber
Fruit
deser
metaf
sarra
empeny
planter
vuitena
Kurdistan
percussió
##EP
##dicte
Bush
acom
param
Potter
bizantí
cavitat
biològica
operatius
##fre
punx
usades
Gallery
tallats
parlaven
##éné
Ud
Poly
##licitat
cartells
cronista
esperits
federals
liderada
subespècies
##vig
flanc
Verlag
Ventura
videoclip
tramuntana
217
235
Ruf
##ische
vincles
assumeix
##iran
Phy
Teoria
sanitari
computació
##oise
Fro
distan
empitj
inacab
vestir
Pontifici
proposada
rellotges
Mitjançant
llibertats
procedència
Camar
deien
males
Panzer
February
sortides
facultats
Guiu
##erapèu
##tadora
Armen
Sergio
assoli
quirúr
Introdu
Pradesh
Village
espines
pastors
comèdies
recollit
##diz
##úmul
Pine
Corres
Àngels
Pasqual
judicials
##arth
Walt
Ivori
Lloyd
Passa
blues
prelim
olig
##tifica
aritm
tanta
exacte
legitim
mantell
formaren
Minnesota
terrorisme
Sá
##ondu
Aux
##icana
##ènyer
1776
alba
navals
submarí
Stanford
recolzat
llibreria
##fícia
nits
Disco
taule
circula
##kia
##vial
##undar
Dalí
plànols
juvenils
adolescència
civilitzacions
##clar
##mark
Fus
##ceton
gràcia
assigna
separen
intentava
Fé
##udia
PCE
Dipl
Sina
Cerim
Edgar
Geoff
sànsc
Corint
llavor
andalus
coloració
excepcions
ajuntaments
##100
Wii
1763
arom
##anomen
culminar
fonament
incursió
invasors
Haia
Filla
Tirol
patia
Termin
aliades
embaràs
Cantàbria
conservadora
Mú
Zhu
##ocada
Suny
Wars
##erland
Arsen
Extra
##ernitat
belgues
aeronaus
convenient
convertida
##ïs
##xid
frà
Torr
##velles
persu
Natura
crusta
consten
enquesta
domèstics
invasions
compensació
##inae
##atory
doctorà
bitllets
impactes
alteració
mobiliari
classifiquen
##Ar
##call
##tons
215
Cana
plec
Arena
rescatar
afectades
modernització
##àus
gov
Jimmy
estes
ritmes
agregat
Guillermo
reformada
Universitari
##gado
Cors
liqu
cries
encer
reven
Canals
barons
neboda
certesa
implicat
llegendari
representades
##uka
##ínica
cogn
evita
Arturo
Mounta
buscava
Compromís
combinacions
Akh
Sed
1640
biom
palm
Child
Walla
ratolí
Cecília
sancions
fundadora
Back
cota
pàgs
Giuli
aprop
Husayn
itiner
vacant
moderat
sentimental
##trea
212
veien
Arenys
Parker
origina
hegemonia
disputaren
encapçalar
Å
216
rell
carav
degué
Britan
Turner
equipar
sotmesa
Sporting
afrontar
ortodoxa
predomina
organitzen
McK
Sos
##asties
banys
agrupar
definits
ai
ní
##miss
##ázar
Trob
Marine
brutal
educat
Houston
pintades
forestals
##zam
Marcus
Exemples
escolars
vinculats
##òfon
cirurgi
trobant
Polítiques
desaparegu
pretendent
corresponsal
Low
Von
##ferro
Taula
adulta
suplent
##eh
##teu
Reyn
##àrbara
Earth
desgu
Queral
genoma
berbers
muntants
##pt
##ògics
destil
Estrabó
profeta
narrador
##ingüística
conquerit
cromosomes
Chand
espin
tribuna
amerindis
AB
Weimar
desemp
solien
descent
tortuga
ampliada
proclama
assetjada
fortificat
tolerància
irra
Mostra
sonata
Hispano
comunic
##e
##a
##s
##i
##r
##l
##n
##t
##o
##d
##c
##u
##m
##p
##v
##,
##b
##g
##.
##f
##'
##q
##h
##1
##ó
##é
##"
##x
##E
##à
##0
##A
##y
##C
##í
##2
##9
##è
##L
##S
##M
##P
##j
##(
##)
##ò
##B
##I
##z
##D
##8
##T
##-
##R
##3
##7
##5
##6
##4
##F
##G
##k
##V
##ç
##N
##H
##J
##ú
##:
##U
##O
##w
##·
##ï
##K
##X
##;
##W
##ü
##/
##’
##É
##Q
##á
##Y
##«
##»
##Z
##%
##À
##–
##ñ
##_
##=
##]
##[
##”
##“
##ö
##&
##—
##Í
##?
##+
##°
##!
##ä
##Á
##€
##ã
##ā
##>
##ō
##|
##α
##а
##Ò
##â
##ø
##<
##š
##о
##ا
##и
##ο
##е
##ë
##ć
##*
##č
###
##È
##н
##‘
##р
##ل
##ς
##$
##ê
##ô
##ū
##Ú
##ı
##ρ
##Ó
##ν
##ī
##ι
##ł
##å
##с
##в
##ş
##к
##æ
##λ
##−
##μ
##л
##ي
##τ
##ε
##т
##ð
##ر
##́
##م
##ب
##×
##ن
##σ
##β
##}
##π
##{
##κ
##ß
##î
##′
##ă
##ž
##ğ
##و
##د
##⁄
##Š
##η
##Ç
##γ
##д
##י
##Ö
##ί
##ì
##\
##ń
##ù
##†
##δ
##м
##•
##у
##υ
##ý
##س
##ά
##ו
##ع
##й
##ē
##ω
##ə
##ό
##я
##~
##Å
##û
##→
##ř
##г
##Č
##ة
##θ
##¡
##ʿ
##ч
##ר
##ː
##¿
##φ
##ה
##ˈ
##ح
##ь
##ś
##Æ
##С
##б
##п
##ت
##ė
##ě
##œ
##א
##±
##ב
##£
##έ
##ق
##ל
##ḥ
##İ
##Ø
##ы
##ύ
##ه
##õ
##А
##ת
##מ
##з
##ف
##К
##@
##ę
##Δ
##М
##χ
##ი
##ج
##ő
##Ü
##ა
##ș
##^
##§
##ή
##В
##Σ
##ش
##П
##Ş
##ů
##ש
##ा
##أ
##Ž
##Κ
##ك
##ی
##ד
##ա
##Б
##Ō
##Ñ
##ز
##Đ
##`
##ṣ
##х
##נ
##Π
##ɛ
##Р
##®
##ц
##Μ
##Н
##ע
##―
##ţ
##Þ
##ṭ
##ą
##ן
##ط
##И
##Î
##र
##ш
##्
##Ł
##ż
##ɪ
##ص
##ს
##đ
##ე
##Α
##Λ
##О
##ח
##Д
##і
##Г
##ǎ
##ɔ
##خ
##þ
##Т
##ж
##Ś
##大
##ξ
##ー
##Ε
##ώ
##რ
##ם
##ζ
##Ḥ
##ņ
##ס
##≤
##ン
##ʃ
##Л
##Ż
##の
##Γ
##ŋ
##Ä
##Ω
##כ
##ק
##ÿ
##ț
##Ἀ
##ָ
##ր
##国
##פ
##ʾ
##न
##„
##中
##ო
##Φ
