[PAD]
[unused0]
[unused1]
[unused2]
[unused3]
[unused4]
[unused5]
[unused6]
[unused7]
[unused8]
[unused9]
[unused10]
[unused11]
[unused12]
[unused13]
[unused14]
[unused15]
[unused16]
[unused17]
[unused18]
[unused19]
[unused20]
[unused21]
[unused22]
[unused23]
[unused24]
[unused25]
[unused26]
[unused27]
[unused28]
[unused29]
[unused30]
[unused31]
[unused32]
[unused33]
[unused34]
[unused35]
[unused36]
[unused37]
[unused38]
[unused39]
[unused40]
[unused41]
[unused42]
[unused43]
[unused44]
[unused45]
[unused46]
[unused47]
[unused48]
[unused49]
[unused50]
[unused51]
[unused52]
[unused53]
[unused54]
[unused55]
[unused56]
[unused57]
[unused58]
[unused59]
[unused60]
[unused61]
[unused62]
[unused63]
[unused64]
[unused65]
[unused66]
[unused67]
[unused68]
[unused69]
[unused70]
[unused71]
[unused72]
[unused73]
[unused74]
[unused75]
[unused76]
[unused77]
[unused78]
[unused79]
[unused80]
[unused81]
[unused82]
[unused83]
[unused84]
[unused85]
[unused86]
[unused87]
[unused88]
[unused89]
[unused90]
[unused91]
[unused92]
[unused93]
[unused94]
[unused95]
[unused96]
[unused97]
[unused98]
[unused99]
[UNK]
[CLS]
[SEP]
[MASK]
##्य
##्या
.
स
क
##्र
प
आ
म
व
##ार
##ात
अ
ह
त
##ां
,
##र्
##ले
य
##ला
ज
न
द
##च्या
##हे
##ान
##रा
आहे
##िक
ब
ग
##्त
##ून
श
##ाव
प्र
##ली
##चे
_
##ील
##ास
##चा
अस
भ
##ित
##ची
त्या
या
##्व
हो
##्ह
##ना
ए
##्ट
उ
१
आण
वि
##ंत
##ते
##ने
##ल्या
##नी
##ाह
के
आणि
##्ष
र
सं
##ाम
##ध्य
##ण्या
##ती
कर
ल
इ
##वा
रा
##ंद
एक
##ध्ये
##ेत
-
च
)
##ंग
##क्ष
##ता
##ठी
झ
हे
##ाय
(
##स्
##ुर
##ाप
##िय
ख
##ाण
##ाग
##र्व
##री
मह
घ
झा
##तात
##्ध
##ेश
२
##सा
##ाल
##िल
##ाज
फ
##कार
त्यां
##वर
यां
##ष्ट
ते
##ाळ
म्ह
##ाही
##्री
##ंड
ये
"
दि
मु
म्हण
स्
नि
##त्त
आहेत
##द्ध
##मध्ये
सम
पु
##ंब
##मी
पर
हा
##ोक
##ाच्या
##ेव
१९
##स्त
राज
##ही
##णे
जात
##कर
##्स
##ाद
होते
सर्व
भार
##ळे
##वि
##ाने
##ातील
ड
ला
ध
##्म
##शी
##थे
ट
##साठी
##्यात
:
केले
##मु
##की
गाव
##ाचे
##ेल
'
ही
##ावर
२०
##ार्
##तो
##्यां
##ारी
##दी
उप
सा
##ंतर
##ाट
##िं
/
स्व
##ारा
##से
##ूर
सु
##का
##जी
##र्म
मो
##प्र
##वळ
मि
##क्त
##णी
ठ
वर्
##ास्त
##हि
##स्थ
##लेल्या
को
##ोग
##ांत
असे
##ण्यात
##णा
##ल्
##ति
लोक
पा
##डे
स्थ
कार
##ीत
##िर
##ाची
नाही
##ुस
वे
##िन
##ित्र
त्यांनी
##त्र
##ांच्या
##ाब
##ष्
मध्ये
##ोन
##डी
वा
##वी
##जे
##ाला
दे
##मुळे
##ळी
##ारे
##ाचा
##रे
झाले
##्न
##िम
म्हणून
##ासून
##ऱ्या
नाव
मिळ
##्द
##ांनी
##ांना
##िव
##त्य
तर
##ष्ट्र
केली
येथे
##टर
##द्या
ऑ
##वे
गे
सुर
##मान
पुर
##िस
##ुक
किल
अन
##टी
पू
##त्या
ह्या
साम
##धी
गो
##्रम
##ंद्र
##्ञ
##मध
##र्थ
##नेक
##र्ण
मरा
’
##ांग
अनेक
२०१
कु
व्य
ती
##ेक
भाग
सर्वात
अभ
##िया
शह
रो
जन
हि
काही
यांनी
ग्र
लाग
होता
##ुन
वर्ष
##लब
##ोब
भा
##लेख
काळ
##ेट
गावात
##िती
##व्ह
##ांचे
##ण्यासाठी
##पट
##ेर
जाते
मान
का
काम
ओ
##ासा
३
चित्र
##ोड
जवळ
##ाई
केला
##त्
##ोर
##िक्ष
किं
##ांची
५
##चार
होती
चा
##ुद्ध
##के
##ांचा
दोन
##लेले
##ंत्र
##ंध
##्ल
##तीय
##देश
##ापर
देश
##माण
लि
त्यांच्या
अध
##िका
१०
यांच्या
##ंप
किंवा
##स्ट
महारा
##ोध
पो
##शा
घेत
##ाणी
##्च
भारतीय
सह
मराठी
असून
##ख्या
महाराष्ट्र
विश
##in
##ूप
##कृ
##ज्ञ
##्रीय
सर
तसे
##ोप
##तर
##लब्ध
उपलब्ध
##ाना
##नंतर
गु
आले
भाष
म्हणजे
तो
मोठ
##िंग
##जन
करून
##ाली
क्ष
वापर
असते
तसेच
##ख्य
शि
स्त
शक
##ऊन
किलो
##मीटर
##ाक
मार्
##र्श
झाला
##िश
ब्र
अम
व्या
जिल
पहि
किलोमीटर
##मधील
]
‘
##an
##्यंत
जास्त
##पू
पद
जिल्ह
चित्रपट
४
##ेड
[
उद
##िट
##ळा
##वड
##हून
##ुल
की
##ुव
आय
##राव
##्यातील
##ासाठी
##भाग
##िद्ध
##र्ग
शिक्ष
1
आप
साली
त्यांना
उत्त
संघ
संग
##पर
लेख
प्रस
विक
##ोल
##पासून
##धार
ने
झाली
##सं
स्प
##ात्र
##वस
छ
२००
##ar
शहर
जवळील
##ेस
येत
##ांड
मा
##ातून
##क्
थ
##विध
एका
येथ
##्यक
पुढ
से
जी
##तील
##पी
##द्र
##्वे
##ेत्र
##ष्ट्रीय
करण्यात
१८
अधिक
;
इंग
##काश
##पूर
##ांमध्ये
देव
t
घे
भू
वै
##on
मंद
विद्या
क्र
##ंथ
प्रकार
##लय
##ंबर
करण्या
खे
दर
##दार
##र्ध
रोजी
##ाती
##at
संस्
कि
सो
निर्म
##त्त्व
स्थान
##ांब
साह
पड
इतर
पण
##दा
2
##ंबई
परि
असतात
##er
##कीय
नाट
बन
मुंबई
मू
ति
जग
##क्ती
##व्या
दु
चाल
जन्म
श्री
##धान
##लेला
##ंट
असल्या
अशा
मे
##ग्र
##ाख
पक्ष
##भा
##कडे
भारतात
##क्ट
संस्थ
##रण
##ल्प
##णाऱ्या
समाज
##ामध्ये
दिस
पूर्व
मुख्य
प्रमाण
c
च्या
दुस
केंद्र
##ht
##्यास
##लेली
६
##ुसार
प्रव
वाढ
##ास्त्र
##मुख
##ोट
##गी
##ुष
हिंद
क्षेत्र
##ंच
##मा
##कड
##ेक्ष
##or
प्रा
##षय
मी
शिक्षण
##ोबर
##णारे
राज्य
##ष्ण
असलेल्या
##ोज
##en
##ेन
ठेव
रु
अव
##टक
##ैन
##त्व
##क्र
आज
साहित
##ैकी
येथील
बाज
##श्च
##ांध
७
आर
डॉ
कमी
विमान
राह
प्रति
स्थाप
किलोमीटरहून
##ताना
सुरू
##्प
धर्म
पुस्त
अमेर
##थम
##क्षि
व्ह
##ठा
##००
##al
##्याच्या
करतात
##यार
##नि
पाह
शे
भारत
नदी
##द्य
##ियन
स्वत
##सी
##ंज
##्यान
##तक
सांग
गेले
##गर
##्हे
##es
चे
अशी
##योग
##हास
वेग
बांध
##ण्याचा
रेल
जातो
##ावि
##तिक
##दान
सार
##डा
ग्रंथ
असतो
काय
बह
मध
निवड
वर
##ावे
मार्ग
जा
##च्
होत
भर
##ण्याची
प्रत्य
##पती
असा
अर्थ
##मार
##ृत्त
##िके
रेल्वे
##ष्ठ
##शि
८
उत्
##णार
प्रकाश
दक्षि
होतो
जे
##न्स
##ांवर
##भाव
नाग
प्रश
रंग
प्रदेश
आली
##वून
##वाद
%
त्यामुळे
##ब्द
##िनी
सरकार
##करण
##र्ष
##स्कार
जाग
प्रसिद्ध
कृ
##he
##ेष
##गड
##र्ज
##्यू
खेळ
विविध
##is
##ांक
##पाद
##ज्ञान
तयार
##तिहास
ठिक
##पैकी
काळात
निय
##व्य
##पणे
##ाजी
##ार्थ
##ष्टी
##ृत्य
मंदिर
##बंध
आढ
म्हणतात
##ळख
नो
विचार
स्ट
लक्ष
ht
कंप
ताल
##ळ्या
##भू
##ॉल
ज्या
शाळ
##ालय
राम
तीन
मन
अभ्यास
s
वाट
##िप
साहित्य
##्याय
पुढे
औ
जाण
##पर्यंत
ठर
पुरस्कार
##को
##ामु
स्पर्ध
नस
लिहि
##र्त
##्वी
##्हा
ओळख
सी
किल्
##ंतु
आढळ
##मे
मध्य
##वले
##वन
पार
##हान
##द्द
शब्द
भारता
१९९
वाह
आला
जम
जो
वस
माल
##ापासून
गण
नंतर
आव
अनु
येते
##त्स
९
A
w
सद
महार
##था
यांचे
जातात
##प्रमाण
##दे
##गाव
##म्यान
करा
ना
गा
##णारी
केल्या
##िस्त
बद
महत्त्व
##शास्त्र
उत्तर
##ामी
##णारा
p
प्रमुख
काढ
##वाय
##ूण
तरी
बाब
पुणे
बस
परंतु
राष्ट्रीय
पूर्ण
##ंची
##प्रमाणे
##ic
कार्य
संस्कृ
##िता
अप
##पूर्ण
त्याला
##हार
झाल्या
##िने
##ानी
=
##्वर
##ंच्या
in
दिवस
मुल
सन
सात
##ेक्षा
इंग्र
##ूक
ऑफ
विश्व
##ध्या
##अर
सुरुव
चौ
##रात
तु
माह
कॉ
करणे
##दर्श
20
पुस्तक
##र्भ
##पीठ
##च्छ
त्याने
##र्या
##सर
पद्ध
##नाथ
महाराज
##it
राष्ट्र
विषय
१७
##वाह
करण्यासाठी
बा
##्यांच्या
##ावा
पश्च
##as
##न्न
विभाग
मोठ्या
##हा
व्यव
श्र
कोण
##ंचा
##ंक
कॅ
##tp
१५
भूम
##न्
##कल्प
##ध्यक्ष
कंपनी
यांचा
##सार
फु
बो
##om
समु
##ंभ
लहान
वस्त
चार
१२
पुन
बहु
त्यानंतर
नाटक
##ोष
##द्व
मृत्य
##ग्
दिले
अंत
##ंनी
सैन
##्ही
आंतर
S
वन
यांना
निर्माण
शतक
##ed
##रोबर
m
बी
##र्क
##नुसार
पश्चिम
##ेतील
##क्षण
१६
o
फ्र
##वठा
##चना
##खी
दृ
##ात्म
##खील
शास
##लक
मात्र
##ीर
सुम
माग
त्यांचा
ऐ
##िरी
माहिती
##ुंब
स्त्री
##ांसाठी
##ण्याचे
कार्यक
विद्यापीठ
व्यक्ती
##र्स
विशेष
##ासी
##द्यालय
लोकसं
अति
##्यांनी
एकूण
१९८
झालेल्या
##र्ती
अश
मत
http
कला
इंड
इतिहास
##त्न
ले
दक्षिण
##व्हा
##राज
##्यावर
पाय
आश
##शोध
जोड
##्यांना
तालुक
डि
महावि
##ामध
१९६
##कडून
|
##च्च
ची
इत्या
##भार
##र्ड
दिव
योग
ई
यु
##काळ
१९७
कारण
##भे
पाव
##जा
गाय
भारतातील
वड
इंग्ल
##बी
##पुर
##ूल
संगीत
##ाणे
महाविद्यालय
स्वर
##हेब
##वसाय
प्रत्येक
ज्ञ
पाणी
##िला
##िल्
बाल
##ण्यास
डो
##्यु
##पु
##दिव
पुरुष
##ुरु
मंड
##्याचे
##पण
##ार्ग
१९५
##खे
फे
वार
##ion
शिक
##हेर
##ेशन
इत्यादी
##यु
युद्ध
स्त्र
##र्ट
##वली
पहिल्या
##दर
सुमारे
##िंक
##ावी
##ानंतर
ठिकाणी
खाली
बदल
##शन
##ामुळे
C
समज
त्यात
संस्था
काल
##राष्ट्रीय
पृ
दिली
विकास
।
##ध्यम
क्रम
##पूर्व
सप
लढ
कुट
the
##ंदी
##ाजिक
मार
१९४
आम
##ापूर
मै
##ावेश
##व्हे
##ॉन
##पद
##रिक
##करी
आकार
##ाप्त
बौ
प्रय
पी
##ंना
विर
शाळा
##ृह
मोठे
वर्षे
केलेल्या
##मधून
##भव
शिव
##ृत
##ाले
पि
##वादी
##शे
सामाजिक
सोड
नवी
भागात
##ांतर
करत
आंतरराष्ट्रीय
माण
आठ
बौद्ध
##क्स
##वरील
समावेश
संशोध
ब्रिट
##वार
आंब
##्याने
I
##्याचा
पाच
##क्रम
माध्यम
##वान
हात
##जय
##ब्र
सेवा
##ीच्या
व्याप
पद्धती
दाख
##ंचे
##िरा
##ण्याच्या
##ट्ट
##पत्र
अमेरिक
##ान्य
घेऊन
शहरा
आत
ॲ
संम
स्थानक
d
##शय
##धारण
शोध
किमी
T
##देव
त्र
घड
साध
##ल्यावर
रस्त
दूर
दिला
##्याची
P
कम
राहि
पाठ
##तळ
##स्था
ज्ञान
##बाब
समुद्र
##कु
of
##ीय
देत
तेव्हा
##द्दल
जीवन
पाक
##िकेट
##गा
बे
##ांस
प्रयत्न
सार्व
११
दी
संत
असलेले
भाषा
पाल
मांड
शेव
दरम्यान
मद
बि
##लित
वय
?
##ीचे
##डू
M
##त्ता
संबंध
क्रिकेट
इंग्रजी
येतात
##थमिक
##िस्तान
##बाई
##टन
यश
##ूह
सू
##मन
रे
स्वतः
यांची
कुटुंब
प्राथमिक
##ur
##क्क
गर
बँ
कव
##ॉट
१९३
##ोबत
सूर
##le
जान
असताना
फार
भाव
##ंदर
होत्या
सिं
हिंदू
##र्न
सां
##ंश
b
टी
असत
गेली
##ासाहेब
##us
##म्
गट
विमानतळ
##वला
१४
संप
a
आता
प्रमाणात
हर
घेतला
##वत
##स्य
##धिक
##ेच्या
##गार
वी
##ुण
युर
##ातंत्र
##चित
##र्फ
##्यांची
जिल्ह्यातील
##खंड
मूळ
##्रो
गेला
देखील
दिवशी
ब्रिटिश
##चन
अज
##पास
संमेल
##ेवारी
घर
स्थापना
वर्ग
##भर
सुरुवात
मॅ
भारताच्या
सिद्ध
##क्टर
##ँड
पासून
##या
f
##ियम
B
##्रिक
##ेला
महाम
##िळ
##लीन
प्रथम
##ामधील
संपूर्ण
मोठा
शेत
##षण
आध
तेथे
##तः
नाम
टाक
दोन्ही
##ळवळ
##सर्ग
स्वातंत्र
धार
करीत
गड
अर
##जनिक
रूप
शिवा
उल्
पे
सार्वजनिक
##ra
गां
दुसऱ्या
##िज
##ल्ह
कार्यक्रम
ट्र
##िल्ली
##and
वेळी
लेखक
अध्यक्ष
मार्च
##ये
##वण
कर्
बाजू
–
##ळ्यात
लागले
दिल्ली
आधार
पर्यंत
भूमिका
जर्म
##श्यक
बंग
##हो
पाट
##ेश्वर
केवळ
सध्या
एप्र
चळवळ
येतो
एम
जय
असल्याने
अह
अथ
खंड
एप्रिल
यात
जिंक
##बा
निवडण
##मंत
##ईल
परत
वास्त
##जार
जप
##वंत
प्रभाव
##स्व
##पादन
##्टे
आपले
##र्च
आर्थ
राजकीय
##्राज
गुण
19
विद्यार्थ
प्रवेश
१३
स्वरूप
##ोस
हिंदी
##ौर
करते
##ेम
जानेवारी
##िस्ट
##ग्न
##ावरील
लोकसंख्या
शेती
##पेक्षा
होतात
सांगित
दर्श
पुरवठा
संस्थे
##णार्या
देण्यात
मास
##ाव्या
नव्ह
साम्राज
##्यांचे
वृ
तास
नार
लाख
करता
##्मी
लो
##ड्या
चांग
बुद्ध
संस्कृती
घेतले
युरोप
##ाबाद
१९२
आवश्यक
##ांपैकी
##स्थान
नाहीत
##ायला
##युक्त
##र्वा
याच
नवीन
##नाच्या
E
उच्च
परिण
##खा
चंद्र
##दर्भ
जेव
खालील
##क्टोबर
##ॅन
लांब
पहिले
##गण
##जवळ
com
परिस
शरी
उल्लेख
आर्थिक
खूप
##ल्ला
##वेग
जु
पत्र
२०११
उपयोग
नेत
जगातील
व्यक्त
घाल
मृत्यू
##राम
##ुकी
एस
जिल्हा
##्रह
##कारी
##िड
D
##खाद
पाहि
##ूट
डी
निर्मिती
##ुप
ऑक्टोबर
##्ड
याचा
वर्ण
##नगर
##ावरून
बंद
आंबेड
##ia
पेश
लेखन
राज्यातील
ww
##ायण
www
संशोधन
शिवाजी
एखाद
नोंद
##ुरू
दश
3
ऊ
सप्टे
बु
पहिला
##काम
##ंस
छोट
प्रकाशित
##०००
##re
स्थापन
योज
मधील
##सभा
##ादर
इत
##टले
##िष्ट
##्ये
होऊन
##ंती
याचे
२५
विजय
सप्टेंबर
संक
##नाचे
##खर
नावाने
##दाय
भग
##गिरी
आरोग
##il
नै
डिसे
##स्थाप
०
जि
##ांद
##ित्त
द्व
न्याय
##ाचीन
क्रमांक
पदवी
मराठ
##ल्यानंतर
##ing
##बरोबर
बाहेर
डिसेंबर
फक्त
न्यू
राजा
##स्ट्र
##्ले
बाजार
201
वेगवेग
##कालीन
महिला
घेतली
गांधी
अतिशय
##वेळी
##्यांचा
R
सदस्य
##डक
आपण
वेळ
साधारण
दिग
वृत्त
राजधान
हव
वर्षी
मानले
अथवा
##द्वारे
##सम
##र्द
नाट्य
##लि
होय
असेल
पृथ
करू
जुल
##शिवाय
पुन्हा
जून
पुढील
परा
##त्री
##विले
##ित्व
पाकिस्तान
पाण्याचा
##ोव
रुप
आई
किल्ला
साप
आंबेडकर
व्यवसाय
##न्ह
शै
##्मिक
##ent
तिस
नव
##ंटर
होऊ
प्राचीन
अंग
##ch
##वाडी
याची
नोव्हे
##पाल
##्याला
रक्त
##साय
गोष्टी
##ंदाज
वाद
आन
##ात्मक
शर
##्दर्श
चालू
सर्वो
अमेरिके
##ग्रह
दो
३०
##मद
##ुनिक
फुट
##राण
कोर
##ol
वाय
प्राप्त
महाराष्ट्रातील
नोव्हेंबर
##्ज
##har
##गस्ट
तंत्र
सुविध
ऋ
स्त्रिय
असलेला
खो
##ॅट
##नाय
बाळ
घरा
स्क
काँ
घट
मंडळ
##श्व
##िटी
परिणाम
संस्कृत
लाव
जल
##खाली
वाच
##ोटी
ली
##ुत
मज
g
साल
##चित्र
कोणत्या
परिष
शकते
##प्रिय
महान
l
डोंग
हजार
पृथ्वी
##ाळी
मंग
जुलै
##क्षर
ढ
मोठी
पां
विधान
सहभाग
आरोग्य
##द्धा
##पूर्वी
स्वतंत्र
स्वातंत्र्य
पान
ऑगस्ट
बँक
अस्त
निव
##ामान
अग
वस्तू
##डून
कृष्ण
आस
##ॅम
जिल्ह्यात
धाव
पत्
##ीम
महिन
##जर
इंग्लिश
##ुम
बोल
उद्य
प्रच
##िंप
राजधानी
##क्के
अल
##िव्ह
शासकीय
दिग्दर्श
##पे
4
कोल्ह
करतो
शक्य
##ानुसार
एकत्र
केलेले
द्र
##वढ
पक्षी
##el
संख्या
१९१
##ल्याने
मंदिरा
पै
to
काव
##षी
##ग्ण
##्मण
##त्ती
प्रकल्प
##बोध
कल
जमिनी
परंप
अत्य
पात्र
##र्ल
##ंडी
कोक
एकम
तालुक्यातील
##ृत्ती
##्ला
मिळाले
मात
ऑस्ट्र
राजकार
##ुवारी
म्हटले
##एस
स्वी
अख
##पक
##थी
पदार्थ
लोकप्रिय
स्वय
२०१६
##ेद
##बद्दल
##लन
आत्म
संर
औष
फेब्र
##रंग
##त्सव
अभिने
काद
##प्प
असलेली
सग
##ांशी
कधी
सुविधा
##क्षा
जंग
##ग्रेस
तत्त्व
करण्याची
##ेचे
##वरून
कल्प
n
##ाइ
कवी
##िओ
##णात
तार
मदत
##स्वी
विवाह
लागते
महामार्ग
##un
##फळ
##श्र
##ation
समिती
फेब्रुवारी
##वाज
##षक
झाड
उन्ह
##स्क
सामान्य
##गत
##लेज
##ोह
पॅ
प्रयोग
##िक्षण
नियम
उत्प
जाती
##ंकर
खाज
वनस्
##ro
रश
##द्
महत्व
##et
पं
and
एअर
खास
आफ
##तीने
निघ
##पा
##भूत
भेट
मैदान
खात
खु
पर्व
##धन
तिला
किल्ल्या
संदर्भ
वात
जागतिक
हवामान
H
माय
सौ
##धा
खान
N
G
##न्या
ओळखले
अत्यंत
दक्षिणे
##चर
##दर्शन
अण
येथून
पर्य
खेळा
प्रक्र
स्म
प्रश्न
पंच
बाबासाहेब
अन्य
टक्के
कस
वाहत
सहा
##भाष
साव
मान्य
उंची
मूर्ती
##सह
200
संघट
रुग्ण
शास्त्र
याला
शकतो
सांगितले
9
दृष्टी
##रीत
##घर
गुरु
विज्ञान
##ंगा
मूल
##ान्स
तेथ
उत्तरे
२१
फिर
२२
भौ
उद्योग
है
##िब
##तीत
मग
खेळाडू
सुरुवाती
##am
समर्थ
जेव्हा
##ोजन
##व्यव
ताप
वाज
०००
##भूमी
आनंद
##प्त
शकतात
##ुका
तेल
##तार
खाजगी
एक्स
आधुनिक
कौ
##स्कृ
यामध्ये
वेळा
जीव
साज
अभिय
इंग्लंड
ख्र
विन
कादंब
##िना
##राच्या
बनव
पहिली
धर
मुक्त
जर्मनी
##दास
कथ
कथा
करणारे
##र्षी
##मत
##ांती
प्रवास
पट
उत्पादन
##गो
२४
##ct
##गु
पुण्यात
काँग्रेस
महाराष्ट्रात
##ूत
##ेचा
वनस्पती
नागपूर
##ास्त्रीय
इस
##तिहासिक
वग
नोक
पात
संपाद
आधी
वैशि
##विषय
##श्य
##णक
संकल्प
संमेलन
अहमद
दत्त
घटक
सुरु
##नाचा
##रावर
मतदार
##लाव
विष
##शाही
शहरात
रॉ
5
##वाड
##बे
##ृत्व
वडील
कॉलेज
##मंत्री
स्पर्धा
##ल्यास
निर
राय
##ांतून
##ूस
##बॉल
##संघ
विस्त
ऑल
तत्
##विर
##ल्याण
##id
##तु
चि
बार
कराय
##बर
साय
ब्राह
##्क
प्रकारच्या
जर
##र्जा
यामुळे
##टे
##ाऱ्या
पत्नी
सूर्य
##र्घ
##ख्याने
निर्ण
अमेरिकन
##रास
उंच
बेट
विद्य
कोणत्याही
पांढ
##गे
हिर
कर्ना
##लं
शुद्ध
##शिक
वृक्ष
परी
##ासार
##धर
विष्ण
स्थित
सेव
मिळते
ऐतिहासिक
##ul
ma
मीटर
पावसा
कळ
इंटर
विरोध
##काळी
हॉट
0
मोह
##स्थित
ग्री
२०१४
त्यावर
मिळाली
असल्याचे
वैशिष्ट
##गणने
केलेली
वैद्य
पौ
##ांतील
रचना
##ov
वेगवेगळ्या
##गोल
##प्रधान
उत्तम
करण्यास
स्वीकार
असल्यामुळे
##नाची
!
नर
कोटी
निक
पोल
ठिकाण
थे
htm
याने
योजना
माध्यमिक
स्थानिक
##ut
##ठे
##वाई
देऊन
करताना
##बल
प्रज
भाषेत
In
सत
फॉ
वीज
सोय
स्वच्छ
इंग्रज
##ंडळ
##घड
रोग
##ag
सोला
हु
पोहो
पाटील
पूर्वी
##फा
झालेले
##ंदा
शाह
हस्त
अस्तित्व
##ादी
##णाची
नेह
##ांमुळे
अंदाज
अक
##ांडे
योग्य
यासाठी
##ist
##र्दी
F
प्रसार
##टा
भाऊ
##गम
लागला
निर्णय
याच्या
पंत
आपली
२०१०
ऑस्ट्रेल
प्रेम
धार्मिक
##मता
देवी
आलेल्या
##डो
आद
आपल्या
सुधार
घोष
जाऊ
२०१२
कान
उभार
##ri
शु
##पुरवठा
##ैर
जुन
दिन
म्हणजेच
##लंब
रस
##ियर
##तन
##संग
##ाशी
पार्
मानवी
##िए
लाल
आढळतात
आयुष
##ल्ड
हॉटेल
##ल्यामुळे
दिसते
वयाच्या
करण्याचा
##कर्ष
##्यो
##्यम
हिम
उज
##्यांमध्ये
औषध
१००
##आय
जनगणने
##शील
नगर
विशिष्ट
२३
##ापर्यंत
स्वामी
प्रशिक्षण
कर्म
सापड
शेवट
th
##ुद्धा
##म्म
##ीतील
शिर
पोहोच
पसर
शाख
घाट
अनुस
गणेश
सामन
क्षेत्रफळ
लागली
तिने
##णाली
ब्रह
करणाऱ्या
चीन
वाप
##स्प
कर्नाटक
##ीन
उतर
शर्य
एखाद्या
##गल
नेम
उदा
हाय
मिळा
शिल
L
##ल्स
##धव
##ाखाली
दिसून
अन्न
हेक्टर
सर्वा
मिळाला
##दारी
विकस
##दिवासी
सुद्धा
वृत्तपत्र
घात
##खान
२६
फुल
व्यावसाय
चढ
अगदी
##मार्ग
नारायण
औरंग
e
उड
परिव
##चल
आदिवासी
नावाच्या
##ागर
उद्द
वर्णन
व्यवस्थाप
बंध
सरकारने
##मू
##ाता
इमार
त्यावेळी
##ूड
मुली
वर्षां
ग्राम
##लाम
##स्त्र
हिवा
##गृह
२०१३
कार्या
अड
##र्गत
नाय
अधिकार
##ाड
जपान
सभ
##क्षित
##हित
काप
महाद
२०१७
शतकात
पुस्तके
व्यावसायिक
##्टन
वेद
तळ
##ांत्रिक
आधारित
करण्याचे
जोशी
लिहिले
##नाम
##ल्ल
एर
नावे
##स्थिती
##स्थे
जसे
जागा
२०१५
##स्कृतिक
W
ग्रह
नियंत्र
आदी
इंडिया
सत्य
सैनिक
प्रामु
##ढी
सादर
कोल्हापूर
##im
##ात्री
५०
##णाचा
तम
जाऊन
२७
फाय
१९०
##ोद
##ाहीर
##ोजित
संयुक्त
##iv
भक्त
##कृती
फुटबॉल
सांस्कृतिक
##ुड
छत्र
कै
प्रामुख्याने
मिळव
##तून
पंड
उदाह
लढाई
मंत्र
##ब्
##नेट
क्
सर्वाधिक
क्षेत्रात
##म्स
##ंगिक
अंक
##ध्द
पाड
नदीच्या
दहा
मुस्
झालेला
##गरी
##ाडी
##ाळा
##र्णी
नव्या
लोकांना
पह
##ंमध्ये
##प्रेस
असले
ब्राह्मण
लोकसंख्य
##ुरी
रस्ता
##र्फे
अनुभव
##तेक
राहतात
संग्रह
टेक
लष्
लिंग
मुला
बांधकाम
दुसरा
##ens
महत्त्वाचे
ब्रह्म
वातावर
सोलापूर
##dia
लाभ
https
संकेत
बहुतेक
##ेने
ताब
सोन
##ऊस
h
गुज
अभिन
काला
मतदारसंघ
निर्
##ांमधील
उत्पन्न
नात
गेल्या
##लात
##्टी
लग्न
अधिकारी
पाहिजे
##ce
##वाणी
##नात
##र्चा
व्यापारी
पंतप्रधान
नेतृत्व
दह
##ेची
कार्
शास्त्रीय
दशक
वाघ
दोघ
##ीता
फिल
बाय
##ंदू
फुले
झालेली
##st
##निक
नोकरी
##राब
कादंबरी
कविता
त्यातील
थोड
पडले
##लो
##चार्य
श्रे
##वारी
पुत्र
शेवटी
तंत्रज्ञान
“
प्रती
##ूने
##्मान
##ad
##कल
एन
##ोली
##ैंगिक
समा
संप्र
##एम
html
##कट
##ंवर
##जीव
##ृष्ट
##बु
”
##मीन
२८
##सर्गिक
यशस्वी
##ांश
थांब
प्रत्यक्ष
##ष्य
कायम
ठेवले
##ढे
२००९
##वास
अजून
प्रकारचे
मते
ऑलिंप
क्लब
प्रशास
एवढ
##करिता
##ैव
बॉ
सि
कप
लु
राहिले
तत्कालीन
##ेप
गोल
यंत्र
फ्रान्स
##यन
रि
##सन
अंतर
गावातील
##दु
प्रकाशन
मॉ
कल्याण
केलेला
##लिम
शर्यत
##चं
भगवान
##um
आकाश
वापरा
##दरम्यान
देतात
अली
##ूळ
चर
गायक
##यर
बंगाल
##सारख्या
कल्पना
##ृती
आणखी
साक्षर
##क्षक
फ्रे
दीर्घ
आल्या
जबाब
ग्रामी
नैसर्गिक
गौ
महा
लिख
##ित्य
नाशिक
धरण
खाल
आहार
संस्थान
##्टर
हळ
or
##र्तन
##ैरे
लक्षात
ग्रामीण
देशाच्या
##वर्षी
नृत्य
प्रचंड
##og
पालघर
टोक
येईल
ऑलिंपिक
##ाराम
स्थल
सुंदर
वीजपुरवठा
बै
रान
##ज्
वास
महास
##ot
##ंडे
खरे
सोप
##ॅक
The
त्याच
##ंडन
##ोवती
वंश
##ंगी
निधन
प्रणाली
गाज
##ध्व
४०
तरुण
छत्रपती
संबंधित
एक्सप्रेस
##ew
##कि
8
मानस
असेही
##ारंभ
रह
वैद्यकीय
##सु
रेड
##काचा
आजही
अशोक
समूह
##कृष्ट
##सुद्धा
रोज
होईल
विकसित
धन
स्त्रिया
##्राट
जाई
१८९
##वर्ध
यादी
इस्
फूट
हंग
प्रकारे
रच
पिक
##वण्यात
श्रील
आघ
नी
भि
महाय
सहकारी
त्यासाठी
##ाबाई
गृह
पंज
२००८
त्यास
दलित
पद्धतीने
##ाळे
शंकर
##सू
##न्ड
##काची
बरे
परिषद
जवळपास
परंपरा
संपादक
##स्थळ
डोक
पूजा
साजरा
विधानसभा
##ाकडे
जाहीर
##नाला
ध्व
आशिया
मुख्या
भाज
संगम
वगैरे
##ाध्यक्ष
छोट्या
नावाचे
##ंदे
##िको
सिंग
तलाव
वडिल
##्थ
##चंद्र
गुरू
कसोटी
हिंदु
वाळ
O
बघ
##त्तर
दर्शन
निसर्ग
तिथे
२९
##ॉफ
रू
##ळगाव
##कृष्ण
##लाइ
##साद
##विंद
विद्यार्थी
##रत
##वेल
सामने
प्रमाणावर
विश्वच
दृष्टीने
स्वच्छता
##ay
न्यायालय
अर्ध
पंडित
##घु
v
##खाना
उद्
वेल
जमाती
लंडन
सामना
मुस्लिम
भी
अं
स्पष्ट
व्यवस्था
6
##ायचे
उष्ण
फ्रेंच
सर्वांत
##कांना
चो
##ूच्या
नागरिक
रुग्णालय
##यास
साठी
##ंधी
##सिं
कां
मुलगा
झाल्यानंतर
##शल
काव्य
नव्हते
##िमान
मासिक
आयोजित
खालीलप्रमाणे
दुसर्या
##क्षी
सत्ता
##ir
आवड
प्रो
अंतिम
तापमान
##em
वळ
एकदा
कोकण
दौ
लव
##वाडा
शिल्प
संगणक
##स्ती
कर्ज
तमिळ
उदाहरण
अफ
सतत
दिवा
पंजाब
लोकसभा
इंद
आवाज
विश्वचषक
##ोम
##ब्ल
##राचे
ग्रंथालय
##नेत
गीत
उपचार
कालाव
ऐक
##op
खर्च
प्रेर
उन्हाळ
##ियाच्या
##रक
##साई
जमीन
शांत
##िंब
##त्तम
##श्वर
##्यांत
शिवाय
K
गरज
२०१८
पद्धत
सोडून
असणाऱ्या
##्रोत
लीग
अक्ष
माध्यमातून
येऊन
दिसतात
नेप
थेट
पद्म
##ोडे
भांड
वापरले
पट्ट
शक्ती
##२०
किर
##ापू
तुल
##ांमधून
मागणी
##दिवस
समोर
ar
##क्षेत्र
राज्यात
7
##यात
##सेवा
##गती
##ठ्
पातळी
शरीर
मित्र
निवडणुकी
साक्षरता
##घाट
प्रां
सन्मान
मराठा
प्रतिक
स्वयंस
##कला
नावाचा
प्रस्त
निम
बाह
पृष्ठ
गुजरात
सम्राट
##धर्म
दरवर्षी
##णाला
मिन
इच्छ
करुन
कामे
##वेद
अॅ
आंद
परिसर
कामगार
जाणाऱ्या
J
समी
गणपती
##विण्यात
टे
##ensus
अमेरिका
जह
दगड
##सभे
शी
अनुसू
##ुग
धोर
##ig
दृष्ट
एफ
##र्मी
तुक
गावी
आक्रम
##लट
##थ्या
लक्ष्मी
॥
##asht
संरक्षण
##िग
द्या
##ेवर
पारंप
दुसरे
जुन्या
##ियो
##काला
तालुका
##र्प
##वते
आकर्ष
##ॅशन
ता
केस
करार
तेथील
पराभव
##वित
काग
रत्
एकाच
घ्या
##harasht
सच
तांब
लैंगिक
##हन
लॉ
##वात
##वाल
निश्च
जनगणनेनुसार
सत्त
लागतो
##लर
for
गर्भ
विस्तार
आठवड
##ळाच्या
अभिनय
उद्या
समाजातील
##उन
##मधे
##िक्
भु
##ोबा
नये
डोंगर
प्राणी
बाजूला
परिस्थिती
इंज
दाद
मोज
अनुक
चळवळी
मर्या
##ळात
##ेतून
पोट
चक्र
शासन
स्मार
पर्याय
अनुसूचित
##वर्ण
मिर
##देखील
वाहतूक
##व्र
हॅ
##कडील
मिल
१८८
##द्योग
##सारखे
##रस
तट
##ेक्स
gov
निज
उभ
उम
##ेश्व
##्वारे
भागातील
&
##रित
देणे
##करांनी
अनुवाद
मध्यम
कार्यालय
##डन
##ुती
इट
जॉ
शुक
देशातील
तत्त्वज्ञान
गणित
गाडी
आंदोल
##ेशी
##द्दी
##िश्च
##od
घन
देवा
याशिवाय
विल
सहभागी
##र्ब
##विला
##क्षणिक
काढून
लांबी
##जाव
हॉ
वसंत
सरकारी
सिंह
##िफ
डाय
आफ्र
औरंगाबाद
##नीय
बल
गिर
व्यवस्थापन
शिला
##पणा
##ंत्री
ख्रिस्त
आपल्याला
10
इथे
##ik
##रू
गुंत
##वल
वरील
नेहमी
गावाला
##फत
साला
##ण्य
असू
हक्क
३५
इतकी
सातारा
प्रवासी
शैक्षणिक
वैशिष्ट्य
##सळ
सुट
आढळते
परिसरात
कृषी
यातील
##विली
आयु
संचा
मुख्यालय
##भाळ
एल
वैद
##कांनी
तारा
व्यापार
##ub
##रो
चिक
##राबाद
बांग
राजव
उत्सव
कायदा
उद्देश
प्रतिनि
##हू
##बंदी
दार
भात
पुरात
दिसतो
##ान्त
##िक्स
पांड
बरेच
संधी
करावे
##वजी
पाऊस
सुमार
रात्री
२०१९
करणारा
##भाज
अंब
##व्यवस्था
उन्हाळ्यात
##ंडा
दैन
हल्
यावर
##मो
तप
२०००
देशात
वेगळे
##लाल
जनता
मालिका
##ृद
३१
##ज्ञा
पोषण
##os
महात्म
जर्मन
प्रांत
##घात
##वणे
पहा
अवलंब
सैन्य
##पांडे
आलेले
निवडून
पव
बरोबर
##ow
##ोळ
##रिक्त
##ांपासून
प्रक्रिया
उभे
टिक
याद
युन
भौतिक
मुंबईत
##ाभ
##पाट
आंध
किन
सेंट
सुमारास
##ok
##वतात
काश
सहज
पोस्ट
##इट
##फी
##ेरी
दुर्ग
इंटरनेट
maharasht
##राचा
ज्यो
२००६
यात्र
प्रवाह
थंड
विश्वास
पळ
फळ
##ाजवळ
##केंद्र
##्झ
##ers
खा
भरपूर
कार्यरत
##वर्धन
पुराण
गौर
टप्प
##ळक
नुक
पोलिस
बाग
##विण्यासाठी
आजार
माजी
२००७
समावि
##र्जन
सिने
मराठीत
पत्रकार
प्राण्या
##ास्त्री
पेक्षा
अहमदनगर
##रल
केश
संप्रदाय
##्यातून
##ठ्ठ
महायुद्ध
साम्राज्य
गॅ
पाहून
रत्ना
अमेरिकेच्या
##पन
##िष्ठ
क्री
तासांचा
व्यवहार
##ess
##मेंट
प्ल
सालच्या
##ांज
विध
कवित
मागे
एकमेव
प्रकरण
##लिक
ब्ल
महादेव
जबाबदारी
प्रदेशात
##ev
##ँग
बॅ
ग्रीक
प्राण
सण
मला
काळी
मानव
तरीही
योगदान
स्पर्धेत
अभियांत्रिक
६०
##ुमान
विक्रम
समाविष्ट
##्यांवर
##मेद
##ाणा
##कृत
##ंचाय
##त्रे
##सोबत
क्ल
मुख्यत
टिळ
वसाह
अधिकृत
अस्तित्वात
##ंशी
##बार
पश
##लिंग
##ांकडून
अर्थात
शिक्षक
##ंका
on
re
चेन्न
मिळतात
हिवाळ्यात
##रु
##षा
##ाया
##चारिक
अभिनेत्री
मुख्यमंत्री
धु
##ाप्र
विम
##खन
##ासम
येऊ
आजवर
दिशे
परिषदे
संकल्पना
बऱ्या
इन
लिहिली
##सिंह
तोंड
इंद्र
तथ
इमारती
##िकार
##ेव्ह
केर
राजे
##ेमध्ये
रांग
दुसरी
क्षमता
प्रदर्श
वापरासाठी
आग
देख
करणारी
रम
कुठ
पाळ
संवाद
मृत्यु
कायद्या
देशपांडे
##सीय
उठ
घरी
चौक
मुख
##ोत्सव
उत्स
मोहि
करावा
सकाळी
शैली
##राय
##ियेत
क्व
पित
##प्रकार
एकमेक
इंडियन
जरी
राख
हल्ला
नियंत्रण
पावसाळ्यात
##माग
##र्वे
गुप्त
आवृत्ती
प्राध्या
##भेद
##ोरा
चै
निर्देश
तेज
दुक
चर्चा
सांभाळ
##िकल
##िन्न
कुल
बेल
उमेद
वर्त
कसे
हैद
जनते
एकदिव
संबोध
##ाद्वारे
काळातील
उगम
##निष्ठ
##ाप्रम
पडतो
वॉ
वापरली
अच
विज
हवे
हंगाम
प्रकारची
कलाकार
अष्ट
नव्हे
महात्मा
##राची
यास
संभ
रोमन
निजाम
प्रतिदिवस
गावे
##कांच्या
##बन
##िष
##ांप
बहि
भास
जगात
आघाडी
##ाप्रमाणे
एकदिवसीय
##ism
##द्री
अंध
पाण
##रासरी
ठाणे
कालखंड
सरासरी
##टेड
##शेष
आख
शकत
हैदराबाद
अभियांत्रिकी
##ांव
##विषयी
##र्ते
त्व
साधन
##वण्यासाठी
##di
##कोश
##सेस
##ोडी
घटना
दाखल
व्याख्या
पठ
काठ
##ॉम
##्रा
असता
पंथ
अल्प
अंतरा
##ोजी
##th
##झी
अल्
जैन
जिंकली
संकेतस्थळ
18
##ॅशनल
सुरुवातीला
##भोवती
एड
सिंध
फॉर्म
वातावरण
V
दू
छाप
दिग्दर्शक
##रिस
नेते
पाने
प्रद
बनले
##द्योगिक
त्यांत
शिष्य
शहरातील
ष
##्युन
बाद
मुले
मिश्र
अभ्यासक्रम
तिर
मंत्री
अब
लागतात
संस
बोली
आढळतो
पार्श्व
भारताचे
##ग्ने
##ालिक
विवे
सरदार
भाषेतील
चित्रपटात
राज्याच्या
##चणी
हल
माती
समान
घालून
साठ
##ृष्टी
सोबत
मिनिट
खड
##ध्वनी
##शास्त्रज्ञ
##ap
रण
उघड
कुमार
शाळेत
मिळवून
त्याच्या
##ंटी
is
ऑफिस
संघटने
निश्चित
पक्षाचे
मान्यता
अट
खाद
देऊ
चेन्नई
नावाची
समस
उत्पाद
##तान
प्रारंभ
##णीय
##सेन
फड
##निर्म
##ांकडे
किती
महिन्यात
तालुक्यात
##िन्स
उपन
कागद
पर्यटन
विद्युत
शतकाच्या
चर्च
##एल
##देशी
चिन
फेरी
##ter
##ार्ड
गुर
माणसा
होणाऱ्या
##सल
घोड
तीव्र
##av
##ापक
##ोळी
आंध्र
बऱ्याच
##ak
जण
राणी
रुपये
विष्णू
##तम
ज्व
##िणी
##ric
##ळकर
ठरले
तिचा
पोर्त
maharashtra
##न्ट
##न्स्ट
पुष्
वेस्ट
##विरुद्ध
##धीत
##ोरे
गुन
अर्ज
कुलक
महिल
गोष्ट
महानगर
सर्वोच्च
##ईट
##ायी
##सिद्ध
परम
##लेक्ट
आरोप
##लाइन्स
अमेरिकेतील
##ूम
गज
प्रतिष्ठ
##all
##ाटा
१८५
ताब्यात
पॉ
##वाश
कड
सल
##नायक
##स्थेत
बाजी
२००४
महाराष्ट्राच्या
टा
क्रांती
##हर
फरक
वीर
लिखाण
वसलेले
##आधी
as
नष्ट
सहकार
नांद
मंगळ
लेणी
साखर
सांगली
गाड
तुम
##क्रिय
##ाविषय
मादी
लवकर
दृश्य
साधारणपणे
##बर्ग
एकच
धात
फिल्म
प्रस्ताव
##ताप
##लंड
##वीर
डे
अंश
अखिल
माणस
मुख्यतः
##ab
##फे
एच
मोर
कुलकर्णी
##लीस
##्राम
असं
##्यामध्ये
लिपी
नागरी
स्रोत
औद्योगिक
प्राध्यापक
##बाबत
तुळ
आशिय
ब्रा
शक्यता
प्रदर्शित
##क्कम
१८६
इतके
शस्त्र
अंतर्गत
##वाला
##वानगी
युद्धात
पूर्णपणे
##ंढ
U
४५
सुल
कन्या
मिळून
संगीता
प्रमाणे
बर
इस्लाम
पवित्र
##hi
बरा
अनंत
##व्ही
तात
पोह
मंडळी
गोविंद
नोंदणी
##एन
##चारी
चिं
कोलक
पुरा
व्ही
डॉक्टर
यानंतर
वापरून
कुटुंबे
लोकांनी
नौ
अर्
##वाच्या
पाण्या
हृद
विठ्ठ
##ac
##यी
##ानंद
झोप
सदर
१८७
आफ्रिक
चरित्र
घेण्यात
जॉन
भोस
युग
घेणे
होणे
##ापेक्षा
##age
घेतात
युनाय
##ळू
##ोरी
ठा
धोक
सोसाय
सारख्या
स्वरूपात
राष्ट्राध्यक्ष
##क्झ
ओढ
५५
जंगल
यादव
##ॉफ्ट
पिवळ
युनायटेड
##स्म
पुण्यातील
##्युला
आढळून
पर्यावर
##ल्फ
##ेंट
स्वयंसेव
पंढ
महामंडळ
##सिंग
कॉम
अखेर
लागू
मानला
स्कूल
##oc
##्वीप
केंद
१९९०
संघर्ष
धोरण
सावर
असावे
स्त्रीवादी
+
##्मीर
पाहिले
जिल्ह्यातल्या
आशा
असला
देते
इंजिन
कारकि
इलेक्ट
सुवर्ण
राजस्थान
##कारक
ताम
शेतकरी
महाराजांनी
##00
##ाते
स्फ
##गोलिक
निष्
सहाय
ओळखला
जवळजवळ
जोडलेला
शो
##ल्याचे
##कऱ
##िद
##ोधी
##्राय
सुख
सोम
वाढत
दर्जा
##वणी
कॅन
बहुत
बाह्य
प्रचार
शिलालेख
साहित्यिक
राब
##राव्या
##इन
##ाहन
##क्या
##राला
##ंबंधी
सेना
उपक्रम
भौगोलिक
जगभर
भव्य
क्रांत
##्यांसाठी
दिलेल्या
##ंतू
##गडी
भे
सफ
राग
फॉर्म्युला
##विक
##गुरू
##ीकरण
मनोर
मालिक
##िअ
##खेरी
पॉल
मनुष
##तिरिक्त
चांगले
स्थिती
राजकारण
वित
बालक
होणार
मांडणी
##णूक
##िजन
##ितीय
##ेकडे
पास
प्रभ
##्मय
##्यपद
##ित्री
कर्ण
लेखिका
तिसऱ्या
संस्थापक
प्रचलित
पुस्तकात
k
##पट्टी
केरळ
वाहन
दूरध्वनी
हेत
असावा
नव्हती
##गन
पेट
एकत्रित
काश्मीर
सर्वोत्तम
##ाटे
नाई
अनुक्रम
पाण्यात
सोसायटी
रत्नागिरी
##ोदर
मौ
बारा
माधव
महत्त्वाची
उच्
विस
प्रगती
पडला
स्मारक
कामगिरी
राजकारणी
##ंजन
##खले
नक्ष
आसपास
##ामा
##ॅक्स
अँड
गंग
##वर्ती
छोटे
समाधी
समाजात
प्रेक्ष
##वेत
##दृष्ट
##ेसाठी
नाटके
यशवंत
शिंदे
शहराच्या
भीम
मधु
वाड
असली
राजी
वाटा
करावी
राहते
r
##ानक
किरण
असणारे
बांगला
##मुखी
##ावली
आणले
इसवी
पेशी
अंदाजे
करण्याच्या
##स्वती
रंगभूमी
##आर
##ोवर
st
श्व
समजले
महाभार
##ज्ज्ञ
वेळे
##्यांपैकी
मुंबईच्या
##ँट
फो
री
हन
##ृद्ध
जाह
मोड
नसून
हाती
##ांतरित
##बळ
तू
##र्जे
मेट
अग्र
अश्या
संघटना
संपर्क
होणारे
परवानगी
येणाऱ्या
ह्यांच्या
##est
फल
##वणूक
##स्कर
मंदिरात
महत्त्वाचा
##ेता
##ीतून
वाक
##त्ताक
स्थळ
संभाजी
स्वतःच्या
अले
किंग
२००५
पर्वत
कन्न
कोणी
चिंत
वसले
org
व्र
शाखा
##राई
##ासह
##कांत
##साधारण
किल्ले
लष्करी
##ेय
३२
##बद्ध
रोड
ठेवून
मुख्यत्वे
##झर
रॉय
सदस
संख्य
संस्कार
##नेर
चम
जिव
शाले
##्रे
##स्टर
थोर
सल्ला
पुण्या
जाल
रस्ते
शालेय
##बाज
##क्ष्म
ज्यात
census
नेट
निरी
दुकान
देण्यासाठी
ईश
७०
ठराव
##तीच्या
आश्रम
##तू
##ity
##पदी
##सान
##भाषा
##्षिक
झाक
फ्ल
पारित
भोसले
करायला
लोकांच्या
##य़
##ाणू
##श्री
##स्को
मनात
शत्र
##बध
con
गोड
हेच
##वल्या
##फो
अंम
##ामधून
नियु
सुधारणा
राष्ट्रपती
##शत
ऋषी
नवा
उपग्रह
गावाचा
जाणारे
देशमुख
अवलंबून
जाण्यासाठी
##नाडू
रसाय
तेव्ह
बाबतीत
त्यामध्ये
##ंडू
आदेश
गाणी
टिळक
यावे
२००१
नियतक
निवडणुक
मंदिराच्या
##शु
##ोत
##खाल
##ातच
##ॉर्क
अभयार
आयुष्य
विदर्भ
कारकिर्दी
##शास
##िंड
घरात
१९८०
वारसा
लोकशाही
##ment
##प्रदेश
अवतार
##नाट
##तेचे
नान
तपास
विद्व
सामील
पर्यटक
##ोने
##कुमार
गोवा
बाजूस
स्टेशन
##्रॉन
उदय
मुलगी
विरुद्ध
३६
##वर्ग
सेल
सह्या
बंगाली
##झा
अवि
जवळचे
तीर्थ
जाणारी
सरस्वती
सर्वोत्
##ायर
उर
##ापुर
पोच
##विषयक
कंपन
रुपय
जाहिर
सत्या
असल्यास
केल्यानंतर
##िले
विधी
वाचना
स्टेड
ठेवण्यात
##ीज
##झील
खट
##शिया
पुत
माळ
१९६०
उमेदवार
निवडणूक
ह्यांनी
##ec
##ill
##निव
इच्छा
साहाय
आक्रमण
विश्ले
विद्यालय
हवा
हाल
घोषित
जपानी
दशकात
प्रदान
प्रक्रिय
##कंप
बळ
८०
##चरित्र
हेक्टरमध्ये
##भाई
मठ
##लाचे
मतदान
तिच्या
उल
दास
##र्वेद
विशेषतः
##if
कट
यो
गाठ
दरवा
मुद्द
तटबंदी
बांधले
मानसिक
संपादन
क्रमांकावर
लिहिलेल्या
दा
गंगा
सहसा
२००३
तेथून
स्वराज
कण
सख
##ार्क
कडे
मुळ
##दुर्ग
प्ले
हातात
##डील
##ांसह
दूध
मंज
##तेच्या
##सायनिक
हत्या
कीर्तन
##ांपेक्षा
##ायक
कृष्
सप्त
अधिका
आलेली
ग्राह
मेक्स
ज्योति
राहिला
##ापि
तथा
हिं
2011
विंड
सूत्र
यांच्याशी
सर्वोत्कृष्ट
##20
##संप
नव्हता
हिमालय
जोग
नसते
##लाच्या
वाजता
सोडले
क्षेत्रातील
यू
पकड
##स्थितीत
स्टेडियम
शंक
सुच
जावे
मार्गाने
##कळ
फा
##भरात
##शाली
रवि
##क्षेप
पवार
पोलीस
काळ्या
मर्याद
##शास्त्री
पारितोष
म्हणूनच
शतकातील
##ांप्रमाणे
##्ण
हार
##ूनंतर
##ांप्री
शुक्र
ग्रांप्री
विद्यापीठात
##ंजी
##र्मा
##शेती
संदेश
##दृष्ट्या
##इड
##क्ति
कात
गोद
ऊर्फ
तिसरा
##ज्ञानिक
क्रमांकाचे
##हु
##ळीत
##िप्त
वेब
चालत
ज्ये
पैसे
अक्षर
सरकारच्या
##ॉक
##ant
चतु
राव
वास्तव्य
७५
वाङ
##शक्ती
##ाकडून
प्रशासकीय
##एच
##टिक
इथ
##india
##िली
दल
दुध
बरी
##तातील
##द्वार
हृदय
द्वीप
वर्गी
प्रजास
विभागात
रासायनिक
##alg
##क्शन
##र्जी
एटी
किना
मिळत
दैनिक
माणूस
केंद्रीय
##ऐवजी
बळी
भोर
मजक
मिळवले
उपयुक्त
वापरतात
अमेरिकेत
##चक
##र्वी
##विणे
माव
रवी
मुळे
दक्षिणेस
##गांव
गंध
५००
वायू
महिने
महत्त्वाच्या
##िमा
दान
जहाज
आदर्श
सरोवर
##स्थापित
उच्चार
##मान्य
तांद
सुपर
किमान
इन्स्ट
##प्रसिद्ध
##तेचा
पती
फोन
बात
आग्ने
राज्या
विक्री
##चने
##ंसाठी
असणे
कोळी
जाईल
व्यास
विठ्ठल
पूर्वेस
कोश
पटक
यज्ञ
कन्नड
तथापि
मुद्र
ग्रंथात
सह्याद्री
##लक्ष
खेड
निवास
लावून
सामन्यात
मृत्यूनंतर
##मंद
co
तृ
मोक
गडावर
निबंध
मंदिरे
लक्ष्मण
दूरचित्र
##ांडर
शोष
आग्नेय
ऍ
नद
बच
##पाणी
##िटीश
किश
पॅरिस
प्रथा
चांगली
प्रभावी
ब्रिटीश
महाराजांच्या
##ews
नऊ
सै
चंद
लोह
##सारखी
##साहेब
पडते
रशिय
१९९८
त्यापैकी
##ण्यापूर्वी
##शिय
३३
पाप
##िश्चन
पंढर
##ांपर्यंत
प्रजाती
##िकी
चक
इन्
रोख
वाग
##रावती
टीका
दहशत
अभ्यासक
करणार्या
सर्वसाधारण
##्रु
वक
हरि
घोषणा
वाढते
क्षेत्राचे
नॉ
टोप
सीमे
कनिष्ठ
मार्गदर्श
##म्य
##क्षम
##जारी
##वाचे
भवि
गोळा
घेता
१९४७
##alghar
अलेक्झ
ईशान्य
ज्येष्ठ
##ane
##ang
##ल्ली
वाम
##ऱ्यावर
वस्ती
अजूनही
जाणारा
वापरला
दवा
##पंचाय
साप्त
स्पेन
दिशेने
अफग
मधून
२००२
दिवसा
स्टार
##राष्ट्र
पहिल्यांदा
199
कुर
वेगळी
palghar
मुंबईतील
##गंध
##ुगी
जख
कले
काट
स्थिर
पात्रता
वार्षिक
मार्गदर्शन
##दम
##हाय
##र्दू
##देशीर
##पुत्र
अवशेष
आलेला
शिक्षा
प्रत्ये
वर्षांच्या
##खल
##णीत
नृ
९०
कसा
उपाय
गरजे
काळजी
संचालक
##ासारख्या
आफ्रिका
ख्रिश्चन
##ठीण
टाळ
वेध
##प्रथम
जनरल
पिंप
राहून
विमाने
##ोपा
मरण
रेष
साख
अब्द
अस्प
बँके
आयोजन
योजने
लावला
परिवहन
##ादरम्यान
कालावधी
घेण्यासाठी
##वता
##शीत
15
##पुरी
दिसत
आमदार
प्रबोध
वर्तमान
श्रीमंत
##ुळ
##पटी
##सेव
##ाहिक
##ाराची
पडली
पाया
नद्या
विंडोज
संस्थेचे
##तीचा
बंड
आयोग
कक्ष
असावी
##स्फ
##िटल
##ावून
लढा
शाहू
##ांवरील
असतील
कोणती
जाणार
येणार
रक्कम
मुलांना
नियतकालिक
##पटू
##पात
खोल
दुय
बोट
इटली
उपास
१९७०
समुदाय
सालापासून
शास्त्रज्ञ
##ावरी
अनुय
गव्ह
पौर्ण
भिन्न
विश्लेषण
सर्वप्रथम
##ाधी
##ेपण
##ग्री
खडक
मृत
खगोल
पैकी
महाल
रायगड
इस्राय
नुकसान
पारंपरिक
धो
ग्ल
युव
सूक्ष्म
सुरक्षित
प्रजासत्ताक
##वू
it
##ातल्या
मालकी
स्मरण
दुय्यम
मानतात
समृद्ध
मराठवाडा
मर्यादित
##ट्स
##रूप
संच
##ाराचा
tour
चिनी
ललित
सीमा
स्वप
##िकेच्या
दुष्
१९९९
अवकाश
ह्याच्या
##ear
##tic
##न्त
शुभ
मोगल
कारकी
सर्वत्र
पर्यावरण
ऑस्ट्रेलिय
नेतृत्वाखाली
##हीम
12
सुन
सारखे
##ly
दाम
मधे
कीटक
तारक
धातू
अध्या
वाटते
अनेकदा
वास्तू
##मती
##ार्ध
कराव
क्रिया
ग्रामपंचाय
##काल
नम
##्यूट
बरीच
##्यासाठी
डाव्या
निवृत्त
गेलेल्या
वैज्ञानिक
संग्रहालय
ऑस्ट्रेलिया
##पत
##वडी
बट
गोप
लघु
आर्ट
उड्ड
सिटी
अत्या
उद्यान
प्रसंग
##11
##पुढे
बोर
अमृत
ईस्ट
कठीण
पोहच
कोणते
मिळवली
पृष्ठभाग
संगीतकार
##णू
##ाव्य
फळे
##स्मान
इतका
जुने
नकार
##ाविषयी
कंपनीने
उदाहरणार्थ
##ेनिस
शिखर
नॅशनल
साकार
पातळीवर
##तेने
##नामा
बॉल
गायन
जेथे
तुरु
बनला
##ाबद्दल
भागवत
मिळतो
रामदास
निमित्त
साप्ताहिक
##लेट
कास
##र्यंत
##र्लंड
##ार्पण
धम्म
मजकूर
जातीचे
दिवाळी
प्रतीक
रामायण
दिग्दर्शन
##पो
##बेर
en
दै
बीज
महे
राहत
वाचन
उर्दू
फायदा
म्हणत
दिनांक
वर्षात
व्यक्ति
मेक्सिको
##शाळा
छाया
अफगाण
भिंती
मोबाई
वैदिक
कलावंत
पोर्तुगी
प्रदेशातील
##ip
##ासद
##गुती
##्लोक
बाप
वजन
##बाहेर
धारण
प्रवाश
बांगलादेश
11
टॉ
तह
##ावेत
##िकरण
साग
##काराम
ऑक्स
माही
##पचारिक
घरगुती
प्रार्थ
##ईन
##ुणा
इज
डिझ
##िक्षा
बंदी
लोकस
जॉर्ज
चित्रे
लोकसंख्येच्या
फि
##ताही
घटने
सांड
##स्वामी
रशियन
थोड्या
मोबाईल
सक्रिय
समस्या
वाचनालय
इन्स्टिट
पाण्याची
पश्चिमेला
##ish
फौ
##यारी
जमा
सेक
कर्त
काळे
१९९६
##बरोबरच
खरेदी
उजव्या
St
जोर
बैठ
##ोत्तर
नेपाळ
संशोधक
गुणधर्म
##मोर
##लोक
##स्पर
##ाकार
फेर
हवाई
पाश्च
tourism
उन्हाळी
लिंगभाव
##लम
##वट
##घरा
नट
४८
##ंभीर
##ायची
रघु
गौरव
त्रास
भूमिक
मार्क
सर्वच
हत्ती
तुरुंग
सगळ्यात
युरोपियन
पोर्तुगीज
पत
कोळ
लिम
##ांबरोबर
##भाऊ
नवे
##क्तिक
##व्हाण
अरबी
बाबा
मूलभूत
तुकाराम
##ढा
##लास
ऑट
##वासी
कुळ
पेशवे
भाविक
उत्तरेस
पदार्पण
प्रतिमा
महाविद्यालयात
##खित
##्मा
रज
##बर्ट
##ाविर
जोडी
थोडे
स्त्रियांच्या
##ंठ
##ॉस
##िअर
##ध्दा
चां
जलद
भूमी
नक्षत्र
भाषांतर
यांच्याकडे
स्थानकापासून
##ताच
##ाईन
मृ
१९३०
१९५०
आल्यावर
विद्वान
##लाय
वध
आरा
जाव
तिथ
हरी
ज्यू
महाप
##संग्रह
श्रीलंका
रस्त्यावर
##ep
##कले
##ातही
##ारिक
तोड
##ंदाजी
हयात
बर्या
##ेज
##जूर
फॅ
##स्तान
गावाची
महत्वाचे
##ate
यज
शं
##ायिक
##ॉर्ड
वैय
बराच
काढली
दिल्या
नांदेड
मायक्र
मध्यभाग
##चय
##मूद
##िकन
Ch
##समोर
अटक
कोड
गरी
धबध
##ेंद्र
पाठी
वामन
बिहार
रसायन
मारुती
होणारा
##मय
गी
चित
चिम
कपूर
मुसल
##प्राप्त
असणारी
परस्पर
बाजूने
म्हणूनही
राज्याची
रामचंद्र
##ta
##यान
##ात्य
गर्
रिस
मुसलमान
आयुर्वेद
पारितोषिक
##ूष
ठे
दंड
##ग्रंथ
##ेकडील
काळा
ठरला
##ेश्वरी
गंभीर
हजारो
दिलेली
देशांमध्ये
पुण्याच्या
प्रस्थापित
##फु
##फार
##लाचा
##्रमण
काब
##ख्यात
झाडे
शहरे
एटीएम
घडवून
भक्ती
लिहून
अमरावती
निर्देशांक
दूरचित्रवाणी
##वय
##कोट
##्कर
तब
३४
##ल्यात
गौतम
जाता
प्रेरणा
उत्कृष्ट
##वतो
##पालन
अकाद
१९९२
श्रेणी
कोलकाता
मध्यवर्ती
##ud
##ंबंध
##गंगा
तपक
सौर
उद्ध
गोखले
चेंडू
तपकिरी
महोत्सव
अर्थशास्त्र
##डर
५६
अरब
जैव
डेट
लाक
काशी
गुला
संध्या
रहि
##व्हार
सभासद
कम्युन
झाल्यास
चांगल्या
संस्थेच्या
##शै
##ary
३७
##ांगण
##धिकारी
विवेक
चांगला
द्वारे
पुरातन
विष्णु
हायस्क
जिल्ह्याच्या
pro
ग्व
##विधान
जाधव
जिथे
अभियान
श्रीराम
देह
##ेक्षित
चव्हाण
यात्रा
त्यांच्यावर
##म्ब
नंद
मले
पेशव
येणे
विजे
१९५६
कायदे
पांढरा
झाल्याने
##वाती
अको
१८४
कुंभ
बनवि
भाजप
पडतात
पार्क
पाठिंब
मदतीने
बाजीराव
अलेक्झांडर
##ाइन
पस
कशी
गुजर
चिंच
१९९१
अजिंक
अस्पृ
संघटन
सिद्धांत
##घे
##फर
##करे
##वळी
खोड
पेन
रिप
रोम
जाणी
डेव्ह
रेडिओ
सौंदर
स्वप्न
वेगळ्या
##लीत
अय
झु
बीड
भंड
##ऱ्यात
अपंग
असोस
ऊर्जा
प्राद
इंदिरा
नाटकात
उपस्थित
वैयक्तिक
व्यक्तिम
##लँड
##ूला
by
ऑन
खनि
मैल
वाण
निरा
पठार
##प्रकाश
##स्थानी
नाकार
##ata
अँ
##िएशन
भोग
शून
##द्दीन
धावा
नाईक
अकादमी
केल्यास
रूपांतर
गावाच्या
लिहिलेले
ज्यामध्ये
##ळून
शत
##म्मद
१८१
३००
##लच्या
केशव
वेगळा
परीक्षा
कालावधीत
##rict
कॉल
यान
चिन्ह
भूभाग
कृष्णा
नियमित
बांधून
राज्ये
राहिली
पृथ्वीच्या
##मट
##युग
##ोला
गोर
घटन
नमु
हाच
##ांसोबत
दरवाज
भावना
आचार्य
गाड्या
##्णा
##ंकार
##ाहून
डाव
लगे
##ाराला
जागी
वेगाने
इतिहासात
##ुसं
गझ
वज
मुर
शार
अरुण
व्हे
आम्ही
##्यात्मिक
विषयावर
कुटुंबात
मार्गावर
##ha
##ायत
##िरे
कब
भेद
जम्म
काढले
मानली
##istrict
काठावर
अभिनेता
##हरी
कन
पंख
##ताच्या
##ामान्य
निवडणुकीत
##डप
##दल
##ine
##कथा
##ल्क
उघ
दाब
पिढ
रुज
##ार्फत
सचिन
##मूर्ती
सगळ्या
##up
##घल
##शाख
##शाळ
ओर
अणु
##ंग्रह
अग्न
किनार
जिवंत
बोर्ड
अंतराळ
प्रोत्स
इलेक्ट्रॉन
##ook
##नेने
माद
आव्ह
कुंड
ट्रॅ
मिसळ
१९९४
क्रमां
मनुष्य
वारकरी
पंढरपूर
##वीत
##्कन
##क्का
उचल
शिख
आसाम
thane
संवेद
कोकणातील
नसल्याने
##दीप
##देवी
इंध
रसिक
जळगाव
देवता
वरच्या
संज्ञा
काळापासून
##ith
सें
ध्ये
फ्रांस
बर्याच
##पार
##सूर
४१
१९९५
रक्षण
विकार
शेपटी
सावरकर
अर्थाने
पाण्याच्या
येण्यासाठी
कलम
गती
टाइ
साथ
हॉल
उर्व
पालन
ओळखली
नेहरू
बांधण्यात
##ाटी
##arat
##सेना
बहुधा
येथेच
शब्दाचा
वर्षांनी
त्यानुसार
16
एज
##र्ता
##ास्थ
बोई
बंधू
लागवड
पर्वतर
वायव्य
सूर्या
कुठल्या
##बाग
##रीव
ओल
खर
सरळ
##ction
##ोपचार
##त्याने
प्रसू
गुन्हे
केल्यावर
दिग्दर्शित
##सीसी
##्युल
अश्व
संविधान
शेवटच्या
होण्याची
पर्वतरांग
किल्ल्यावर
##ंडर
##न्द
17
आड
दोष
माघ
##सारखा
शारी
लढाईत
आंदोलन
रंगाची
विल्यम
प्रतिनिध
कार्यकारी
##णकर
##निरा
##वेअर
##ुप्त
गैर
ठरवले
वाहून
एकात्म
दिलेले
ज्यामुळे
सिद्धान्त
##16
##und
##कुट
##मिन
An
##र्डी
तित
मेल
सदा
लगेच
##प्रमुख
गोदावरी
दवाखाना
भारताने
##बि
##णीस
पेठ
लात
स्न
अब्ज
इराण
१९६२
श्लोक
मालिके
निरनिरा
ख्रिस्ती
हायस्कूल
शिक्षणासाठी
##प्
`
##पणी
##लां
##लेखन
##ुदेव
अभि
आडन
शेक
सास
चौरस
वर्च
जव्हार
परंपरे
वाङ्मय
विशेषत
संघाचा
हनुमान
आकाराचे
संस्थेत
संदर्भात
रेल्वेमार्ग
विद्यार्थ्यांना
##्ग
##ans
##वती
आकड
आणली
बजाव
विकत
मिळवला
##ल्याच्या
पाण्याचे
पूर्वेला
##ug
##ॉप
##ड्र
उग
जड
जां
पेर
शरद
वाटत
लागेल
विभाज
व्हिड
सिस्ट
ज्याला
पश्चिमेस
प्रत्येकी
कम्युनिस्ट
##गट
##िडी
##ियस
सध
##पट्ट
##प्पा
wik
बुल
सिल
एवढे
हळूह
जाणीव
साम्य
सुभाष
संघाचे
निरीक्षण
##बो
##हीत
चिकित
टेनिस
शेतकऱ
ब्रिटन
छायाचित्र
##५०
be
##ावले
ठार
माश
जम्मू
वर्चस्व
पारंपारिक
निमित्ताने
त्याचप्रमाणे
##ियल
##ुरा
##र्नर
##ायचा
सोह
तत्व
बसेस
बाबी
राहू
१९४८
हळूहळू
दक्षिणेला
पक्षाच्या
##चंद
##शिव
##ावती
अधिव
टर्म
सागर
१९७१
ठराविक
स्थायिक
##our
##por
##ूनच
लॅ
शंभ
औषधी
गाणे
चांद
असणारा
शारीरिक
त्याचबरोबर
##ber
##पेठ
##ोहर
an
००
##ादशी
##्व्ह
शरण
साडे
कंपनीचे
विद्यमान
स्त्रियांना
##चाल
##समूह
##्याम
कोर्ट
टेकडी
ध्येय
कोणताही
गुजराती
जमिनीचा
लोकांची
सौंदर्य
चित्रकार
एअरलाइन्स
वर्षांपूर्वी
##वीस
टाय
होई
##र्मीय
##ासोबत
दर्ज
सकाळ
काढला
होण्यासाठी
पार्श्वभूमी
##मह
४२
##क्की
##लाची
##ांकन
कुक
आर्य
कापड
कृती
महाज
१९४२
मुलाख
समजून
आजच्या
विनंती
नळाच्या
तांत्रिक
विषयांवर
##डेल
##ानु
##imes
##ॅनिश
भ्र
##ासमूह
गरीब
##रीत्या
एकनाथ
क्रीड
रशिया
##वलेल्या
स्वरुप
देण्याचे
प्रतिनिधी
अफगाणिस्तान
उभी
##ावयास
अंडी
ध्वज
इजिप्त
दशलक्ष
प्रधान
विद्यापीठातून
##िच
##सात
५२
##olog
##िज्य
##ॅटिन
इरा
जाद
वगळ
##वृत्त
अभंग
कांब
माता
उत्तरा
##ंझ
##णाव
##नार
##ल्य
##ग्नी
##मारी
##ुरंग
##ंपैकी
ठरली
दगडी
ठेवली
असतानाच
##पथ
##मर
##ive
लघ
##ाक्ष
नवर
फोड
ध्यान
देशांत
##िझ
##her
##ंगल
##ज्ज
##नाश
##पाटी
##योगी
##वर्क
##वर्ष
दात
मोहन
वाढी
शून्य
करायचे
सुरवात
##रेट
##तेची
##मागे
जुळ
टेल
पीक
पूर
सलग
१८३
नाना
मुघल
##काच्या
चित्त
##िव्हर्स
मेट्रो
पाठिंबा
संस्थेने
मर
##िटेक
मशी
कुठे
##णाच्या
इमारत
ठेवला
पदावर
लष्कर
##ांतराने
दरवाजा
राज्यक
जमातीचे
व्हिडिओ
प्रतिनिधित्व
##ौक
##ies
ph
विप
ठरते
१९८९
खाद्य
उद्घाट
चौथ्या
देशाचा
संबोधले
मैदानावर
##दन
j
##उंड
३८
##ोपंत
नील
बंदर
प्राय
सॉफ्ट
सोव्ह
संघाने
सुरक्षा
##थर
##ory
##पद्ध
चषक
वाल
१८०
पीएच
लागत
वकील
अपघात
माणसे
लोकसभे
आकाराने
अनुक्रमे
गू
##ऱ्हा
फाळ
सभाग
मुंडे
##व्याच्या
उत्तरेला
सर्वेक्ष
तेव्हापासून
इन्स्टिट्यूट
##माळ
##ायन
चोर
मेह
गटार
ॲन्ड
##णीच्या
स्टेट
स्वतःला
मध्यभागी
##डम
##ard
##ण्ड
##ical
##डिया
चेह
ड्र
बाण
शहरी
सोने
१९९७
##ित्येक
आकर्षण
उड्डाण
व्हावे
कित्येक
जमिनीवर
बहुतांश
मंत्रालय
सध्याच्या
##यव
##विन
तै
##जीवन
चिर
तसा
##प्रति
बापू
वरून
##ळीच्या
##वेलच्या
ज्ञानेश्वर
##माश
##करणे
##करून
भरत
##िमेंट
##नेच्या
मंगेश
कार्बन
नियोजन
मिश्रण
होणारी
मतदारसंघातून
##ial
##लेस
##वाची
##ोत्स
ताक
अध्य
चार्
दोघे
##साच्या
उस्मान
कारखान
पाकिस्त
संपत्ती
उद्दिष्ट
##ॉड
##कुल
##ुके
##िव्य
फॉर
भैर
अभ्या
स्तंभ
तमिळनाडू
प्रतिसाद
कालांतराने
##पंच
##ुली
##पारी
##शैली
डेक
तशी
दुख
पूल
फोट
प्रथ
सचिव
गरजेचे
कोणतीही
वासुदेव
विस्तृत
असोसिएशन
वर्गीकरण
परिसरातील
जिल्ह्याचे
रेल्वेच्या
##स्र
##ागत
##ॉजी
##ोटे
##माला
रेस
##द्रास
दिशा
निधी
##ाबरोबर
बदलून
शहराची
स्मृती
देण्याची
प्रसिद्धी
प्रतिष्ठान
##कोन
##भट्ट
गरम
लिह
बाकी
वायु
##ग्रस्त
##ण्यातील
##ांद्वारे
युरोपीय
सिंगापूर
प्रवेशद्वार
##िद्र
नाथ
##कांची
form
India
तयारी
सर्वस
परीक्ष
राज्याचे
##कीत
##रोज
##वडे
##र्मन
उभा
जाळ
लिप
काठी
सर्क
१९५७
राजवट
शहराचे
पर्यायी
भारताचा
लागल्या
कार्यकर्ते
##ाच
##जेब
##ागु
देतो
फिफा
१९७२
बालपण
यातून
देणारे
##ांदरम्यान
पाकिस्तानी
##ँक
##ंके
14
##िमंडळ
तर्क
तृतीय
ह्याच
##ational
व्याकरण
समाजाचे
##ator
##ऋत्य
##ूहिक
१९८४
##रेंद्र
भूकंप
रूपात
जंगलात
पायथ्या
सामूहिक
झाकलेल्या
चित्रपटगृह
विद्यापीठाच्या
##पाई
भट
##राजे
शेख
हित
अंगण
मालम
वाळव
व्रत
श्रम
१९७५
किंमत
बनवले
असंख्य
मुलांची
लोकांचा
सेनापती
आठवड्याचा
भारतामधील
##rom
##करता
तला
बिन
१९८५
आव्हान
प्रताप
लेण्या
##निर्मिती
सैन्याने
आध्यात्मिक
Y
##ळीस
##्सा
##यरोग
##ांडी
पंध
पदक
##ध्याय
प्रत
मांस
१९६१
गुलाम
गोपाळ
जयंती
वेळेस
लिहिला
म्हणाले
स्वतःचे
##दि
##लीम
##dian
##तीचे
आपट
खार
दिश
४००
बांब
##ांवरून
जेम्स
प्रभा
संघात
आशियाई
क्रीडा
मद्रास
येणारे
स्पॅनिश
किल्ल्याच्या
##qu
##शो
##ell
लस
अला
बिल
तेवढ
भविष
मिळे
करणार
नोंदी
पांडव
प्रिय
इंडोने
लोकांचे
वर्षांत
शासनाने
कर्मचारी
लोकमान्य
विधानसभे
समाजाच्या
##पंत
जै
भो
##जाती
दीड
नोब
आम्ल
नमूद
नाते
##पूर्वक
##रीच्या
##ांनुसार
कारखाना
इंग्रजीत
स्थलांतर
##गढ
##ुं
##जात
डोळ
अंतर्
खेळला
देसाई
वर्तु
गेलेले
जिंकून
औरंगजेब
सुरूवात
##शास्त्रीय
##एफ
##ॅप
##art
DC
##ट्या
##ारीक
##ेशिक
१९८६
यजमान
बांधला
भाषांत
होण्या
असल्याचा
गटारव्यवस्था
कश
##ौर्य
कलक
चलन
##धिकार
अखंड
गीता
छोटी
रॉयल
अखेरी
किशोर
वसाहत
वृद्ध
हस्ते
नेमणूक
रंगाचे
धर्माचे
##किन
##्वा
शृ
##ियान
गार
फेड
विहि
सोयी
अटलां
सुरेश
सेंटर
नंतरच्या
##िये
13
थर
रथ
६५
##ress
अवघड
गोंध
जुनी
दुरु
परिचय
मेंदू
मोहीम
##ांबद्दल
अभिनेते
कोणतेही
संस्थेची
प्रार्थना
##ापन
##्विक
दुः
बास
##ांकित
१९९३
##िक्षित
अडचणी
दुर्ल
बहुजन
लक्षणे
महासागर
नियुक्ती
सांडपाणी
जनगणनेतील
##93
##चि
##ॅड
##ूषण
##चक्र
##वरुन
##्कार
तिन
##योग्य
संजय
हाताळ
जीवनात
वास्तव
अहमदाबाद
शुद्धिकरण
महाराष्ट्राचे
इं
##करोग
##शिंग
##िक्ख
मोट
##ंमुळे
##त्रिम
##वलेले
खनिज
चुंब
भेटी
लिखित
असूनही
आकाशवाणी
प्रदर्शन
##चिन
##मास
लां
अस्थ
नायक
मागील
श्राव
चळवळीत
तुम्ही
वसाहती
यांच्यात
##लू
*
##out
##वेळ
##िशन
ढग
४७
##हेरी
घुस
अचूक
##ेनुसार
आडनाव
बिंदू
देशाची
मांडले
कर्करोग
मराठीतील
##ॉर
सान
पुरे
पावले
साधने
##नामध्ये
मैत्री
सांगतात
##पि
##ुट
##ast
७२
##ारीत
उलट
खोद
##मंदिर
भाजी
artic
लोखंड
##ल्यातील
कंपनीच्या
##घट
##बेट
अत
डा
##ंवार
##फेअर
##वाडे
sub
टिप
तोफ
##्रिया
हेतू
परंपर
टर्मिन
प्रसाद
विनायक
नाटककार
प्रकारचा
झाल्यामुळे
महत्वाच्या
युनिव्हर्स
##िकोन
लाह
##काळात
१९८२
पाहता
भिक्ख
कारभार
त्यांपैकी
छोटा
प्रौ
१९६४
गर्दी
जोडले
भूमिके
कृत्रिम
श्रीकृष्ण
महत्त्वपूर्ण
##स्वर
##ीर्ण
दुर
पितृ
##ासारखे
प्रीम
सिंचना
धर्माचा
स्तरावर
प्रांतात
प्रादेशिक
##ॉय
##lev
##ong
##मेल
##http
##ग्रा
##याचे
198
निष
रेख
##मुद्र
##ष्कार
अवयव
नोबेल
शीर्ष
##ाप्रकार
वस्तुमान
वापरल्या
वेगवेगळे
वापरण्यात
##जण
##भक्त
मेघ
टाटा
बार्
मस्त
आख्या
स्तूप
##ासंग्रह
देणारी
घेतल्या
मराठवाड
कायदेशीर
##चरा
भय
##लाही
उर्फ
महाक
मासे
##विल्या
तुलनेत
विषाणू
व्यवस्थे
##ex
##les
अद
##्युक
अडथ
कॅथ
१५०
news
आरंभ
फारच
माने
टाकले
यॉर्क
लवकरच
खासदार
जिंकला
रोजगार
गुरुत्व
पटवर्धन
प्रतिबंध
##इस
##ust
##edia
##मंडळ
##ांगी
अरे
घेऊ
पडत
सती
डॉलर
दावा
बर्फ
वाईट
१९५५
१९७७
१९८८
आग्रह
शेतकी
सिंधु
परदेशी
##करांच्या
नेटवर्क
##भि
##ताचे
##िटेड
##िषेक
नाश
होम
आणून
एव्ह
गुणव
रत्न
वन्य
संसद
##क्षमता
विहार
म्हणुन
##प्रमाणेच
उद्घाटन
राजाराम
वारंवार
प्रोत्साहन
##्स्
##सागर
कित
कैद
ताज
आश्व
कौशल
म्है
राशी
वक्त
लॅटिन
श्रेष्ठ
केल्याने
बाजारपेठ
वर्षाच्या
यांच्याकडून
सुरुवातीच्या
##ld
##ail
##ोजक
तल
पथ
##ग्वे
##ताची
##िवूड
आणला
कडून
गुंड
दररोज
मराठे
गुरुजी
वापरात
गांधीजी
पुढाकार
ब्राझील
भारताला
शेतीसाठी
क्रांतिकार
यांसारख्या
##क्य
##ष्म
गम
दळ
५१
५३
##वर्ड
##्यूब
चिप
आपाप
उजवी
एकेक
कॅलि
कोंब
दौरा
१९६५
कधीही
अध्याय
नृत्या
रघुनाथ
होण्यास
गुंतवणूक
दृष्टिकोन
सातत्याने
परिस्थितीत
हिंदुस्थान
##गीत
##गीन
##रीय
##ार्ज
आर्
कॅप
विद
साद
##वितात
डोके
१९२०
डोंगरा
राजवटी
सभागृह
इंग्रजांनी
##्वल
३९
##ुभाव
##ोवता
197
अहि
##लिखित
पटेल
वाचक
१९६७
१९८३
तामिळ
लातूर
यावरून
शरीरात
इस्रायल
विरोधात
दूरदर्शन
इतिहासकार
##ॅल
##ुवै
##बाबा
इतक
बिय
मेड
छाती
झपाट
##क्रिया
कोलंब
स्ट्र
अखेरीस
डेक्कन
व्यापक
खालच्या
रवींद्र
शहरामधील
तारकासमूह
##उंट
नग
फ़
##ादेव
##्हेर
दाग
भूत
सेन
हिल
१७९
डावी
देता
रेशन
सामु
##क्ष्मी
गर्भा
टॅक्स
ठाकरे
नसतात
सावंत
प्रसूति
दत्तात्र
राजीनामा
सन्मानित
साहित्यात
प्रत्यक्षात
##णि
##ind
##ोदी
आक
मल
सव
हम
हौ
४३
८५
ॲल
##नशील
##बुवा
##्युस
बुध
##त्कार
परशु
भरून
महाब
पार्व
रानडे
दाखवून
प्रबंध
बांधणी
विरोधी
संमेलने
स्थापने
कालखंडात
विचारवंत
लोकसंख्ये
क्षेत्राचा
महामंडळाच्या
##hy
जनक
न्ह
हुक
आश्र
तारे
##संस्था
जनावर
पौराण
अर्जुन
नामदेव
क्षयरोग
मार्क्स
##कत
##नेल
##साळ
ac
आळ
५४
##रावी
कॅर
बृह
##वायला
##ावरुन
गीते
डोळे
१९५२
##रित्या
क्रिय
घातली
निकाल
स्कॉट
बेळगाव
रिपब्ल
भारतामध्ये
ठाक
वाई
हीच
खांब
यांत
रद्द
प्रजन
द्रव्य
भांडवल
नरेंद्र
पौराणिक
समीक्षक
अंगणवाडी
अभयारण्य
##eb
४४
##ावास
##ऱ्यां
एवढी
खोली
चुकी
##र्त्या
पुतळा
लिहित
वाहते
अध्ययन
एकादशी
महासाग
स्वभाव
नव्याने
जगभरातील
फिल्मफेअर
साहाय्याने
##भूषण
##वाचा
##ोखाल
गोव
जाम
मंगल
राखी
संपु
शक्ति
लिमिटेड
साधारणतः
स्त्रीवाद
##अल
##ure
##मेन
##्ली
जं
भव
##ence
##र्ति
##ष्ठा
##ुरूप
रेक
ग्रे
तेलुग
यादीत
सफाळे
यशवंतराव
अजिंक्यपद
सर्वेक्षण
आत्मचरित्र
##नाव
##पान
##यना
##ुनी
IS
कठ
##रचना
##्रोजन
आद्य
दिसू
##ांनाही
कर्वे
तुर्क
पशुवै
साक्ष
सायन्स
सुलतान
जास्तीत
डोक्यावर
##ass
25
##ूद्ध
अवघ
बेस
हून
१९४५
१९७३
वस्तु
शत्रू
उंचीवर
उर्वरित
एरलाइन्स
वातावरणात
संमेलनाचे
##्डम
४९
##ेल्स
कंट
जमात
जाणे
पिढी
प्रण
शकेल
आधारे
ग्रीस
मुळात
लावले
विनोदी
कंपन्या
पुढच्या
एकात्मिक
censusindia
चित्रपटातील
निरनिराळ्या
##chb
##ंकट
##िंद
##त्रा
##म्बे
##र्चे
##वाहन
आदर
जेट
##लाकार
##ुत्तर
with
जखमी
जगन्
धोका
निघा
रंगम
शिंग
##census
##ांद्या
##ोपर्यंत
गायिका
ट्रस्ट
तेलुगू
पुनर्व
यावेळी
##ाविरुद्ध
परशुराम
गव्हर्नर
विमानसेवा
व्यक्तिमत्त्व
##HB
##कथ
##वृ
##ult
सब
##2011
##ट्टी
कथे
कुस
भटक
रिक
शां
data
देवत
ब्रम
भाषण
१९७४
टाकून
भाषिक
राक्ष
साखळी
द्यावे
विसाव्या
वैशिष्ट्ये
पुढीलप्रमाणे
##शीर
##िपी
Un
४६
##र्की
##लाने
##व्हर
##हिता
##ाग्र
बाई
शाक
शिष
इंधन
कष्ट
खूपच
१९४०
१९७८
ग्रुप
ठेवणे
त्वचे
वैद्यक
कुठल्याही
यांच्यावर
##डाख
##िनो
at
सय
नजर
##्हाला
DCHB
dchb
डब्ल
१९६९
##नाखाली
अकोला
चैत्र
सिनेम
##ऱ्यांना
अभिव्य
##व्यवस्थे
वैचारिक
कागदपत्र
##न्व
इम
##ात्त
माम
धरून
१९५४
प्रभु
पुष्कळ
गायकवाड
भारताची
समाजाला
घेण्याची
ट्रॅक्टर
##ुरे
लप
##ष्टा
##स्ता
##ौकिक
आहो
उडी
माड
##गुप्त
##ालियन
2009
नसतो
१९७९
##िमित्त
बहुसं
मारले
##रामध्ये
टाइम्स
कर्णधार
द्वितीय
वाणिज्य
अपेक्षित
दृश्यप्र
सल्लागार
स्वयंसेविका
##ore
##खेड
##ाईल
ex
५७
माज
येश
लुई
##ंदर्भ
##फोर्न
##हाराज
##ूरियर
जुना
सेने
१९६६
द्वार
धर्मीय
पदवीधर
विजेता
विभाजन
स्पर्श
पौर्णिम
माधवराव
झाल्याचे
पांडुरंग
पांढऱ्या
कॅलिफोर्न
##ula
##ावत
आदि
कंब
नका
फाट
फडके
बाला
मिळू
रुंद
निघून
निर्व
सुटका
जगभरात
समुद्रस
संकल्पने
उस्मानाबाद
Th
शा
५८
ॲड
##्यार
एकर
कुड
कोठ
दाट
पाऊ
भोप
संल
##तोष्ण
मिशन
एखादा
ओलांड
निवेद
परदेश
##ापूर्वी
क्वचित
वरिष्ठ
वर्ल्ड
सर्व्ह
##्यापासून
जगन्नाथ
##ग्ध
##ाबत
wh
इक
झे
दिल
गोळी
मावळ
रहात
समशी
सोपे
##वृत्ती
पुनरु
प्रकट
बातमी
मनोहर
अन्याय
कूरियर
गंधर्व
तेजस्वी
आवश्यकता
संघाच्या
समशीतोष्ण
निवडणुकांमध्ये
चल
थाय
शके
##राजवळ
##ात्रा
उपवि
गोंद
गोपी
खासगी
व्हाय
शहराला
आकारमान
गावाजवळ
केंद्रित
लिहिल्या
श्रीलंके
राजकारणात
महाराजांचे
##भ्र
##रणे
##ानन
##्ती
सश
##णीचा
##साला
रूढ
##गावकर
१९६८
बाराम
Indian
टॅक्सी
देशाचे
आयर्लंड
दृष्ट्या
सत्याग्रह
इतिहासातील
##खाने
##तीची
##्निक
नाक
विघ
##मंत्र
##लबजाव
खाते
ताबा
पिके
१९५९
##ल्याची
##ार्धात
धान्य
पुण्य
खोल्या
यापैकी
रंगाचा
किंग्डम
गर्भाशय
प्रदूषण
उल्लेखनीय
##ूचे
##ेकर
चव
काज
तळे
सभा
हेही
##द्यकीय
##मार्फत
तेलंग
शिकार
हिंसा
प्रथमच
समर्थन
स्वर्ग
पुरातत्त्व
##ठिक
##राट
टो
६४
७३
##गारी
##न्ना
##श्चर
इंच
एके
बुक
वेश
##जवळील
##पेक्ष
##र्लिन
बेटे
भातशेती
शहरांना
भौतिकशास्त्र
##ae
##lo
##ँप
##उथ
##ाबा
416
घरे
तीस
देण
बुड
मुद
##त्रिय
मत्स
१९५८
त्र्य
काहीही
पराभूत
बुद्धी
मांडला
संलग्न
महानुभाव
सावित्री
रंगभूमीवर
##सभ
##कात
##नेस
21
##बाजी
अंड
काक
बोध
मोन
subd
ट्वे
स्तन
##नामुळे
नदीवर
शोधून
श्याम
आयसीसी
धर्मात
म्हणणे
प्रबोधन
चित्रपटस
क्रीडांगण
हस्तलिखित
समुद्रसपाटी
##ापु
बैल
वचन
##युगीन
##सूत्र
आचार
जवाह
पाळी
वर्द
उपखंड
उपनगर
प्रौढ
ज्वाला
दिवसात
देवीचे
म्हणता
घेतलेल्या
कारकिर्दीत
अर्थव्यवस्था
##of
##जाग
##टकर
##ावन
##िकट
ऊस
##ताचा
भुव
बोला
१०००
##िपत्या
तिसरे
ध्वनि
फिलिप
बारीक
विशाल
##ऱ्यांची
अवस्था
ठेवतात
मोहिमे
स्वयंप
पराक्रम
देणाऱ्या
समाजवादी
सुप्रसिद्ध
स्थानकावरून
##िथ
##ऱ्ह
७४
##ाधीश
##ोर्ट
केळ
दीप
फौज
वाफ
सिक
आहोत
कोसळ
अग्नी
इंडीज
उभ्या
कोरीव
तेथेच
स्वयं
प्रभाकर
सर्वांना
ब्रिटिशांनी
राष्ट्रवादी
##ect
##हीर
30
६२
##प्रे
##माले
अमर
तिक
रिझ
हेर
##खालील
from
आदिल
क्षम
बुरु
युवा
शंभर
घ्याय
महाजन
लक्षण
वितरण
परिवार
असतांना
प्रसंगी
अटलांटिक
प्रकारात
जिल्यातील
##वरण
##ूची
##्नर
अठ
##गीते
##रीचे
##वेळे
असो
एयर
झार
रिच
##विश्व
ऑटोर
विमा
सगळे
१९३५
अर्पण
उत्खन
भाष्य
येतील
##्यानंतर
ब्रम्ह
भास्कर
समारंभ
अवस्थेत
पक्षाने
संगमनेर
संख्येने
यासारख्या
लोकसंख्येपैकी
##धि
##ोआ
##याम
00
पन
७१
अडक
चाव
##कांचे
##तंत्र
##त्रिक
4163
आरती
कामक
हायड
आश्रय
दरबार
मोहिम
शेकडो
श्रेय
जंक्शन
नेहमीच
पाठवले
येणारा
लहानपण
अनुयायी
निर्मित
आशियातील
निवृत्ती
पशुवैद्यकीय
##ॉग
##umb
##निष
##लटण
de
##शियन
अज्ञ
क्ला
धुळे
निगड
बापट
अहवाल
ट्रेन
मधुमे
मूल्य
अंगावर
ठिकाणे
देशामधील
महानगरपाल
subdistrict
##ai
##ost
##कधी
##यला
गृ
##काने
##साची
एको
कच्
पदे
रेन
##स्फोट
धुके
पाली
साथी
१९५३
##arathi
##तज्ज्ञ
##संख्या
ग्रेट
ब्राम
स्नान
##levator
बर्लिन
भाषेचा
सदाशिव
सातव्या
चित्रपटाचे
##इल
##मंड
##शहा
टि
मथ
६७
##निया
कडक
काउ
गझल
गॅल
नास
##ोत्तम
जयपूर
जवाहर
धबधबा
नुसार
प्रेस
प्रोग
मॉडेल
इतक्या
##विलेल्या
घेण्यास
पाचव्या
पॉलिटेक
प्रभावित
सिंचनाचे
सोव्हियेत
मिळालेल्या
##एवढ
##ोडा
En
७८
अन्
खरी
पूज
अभिज
थोडा
पर्श
महाग
संगी
१९८१
कारणी
पालखी
माहेर
लागून
साधना
स्वाय
प्रजनन
समाधान
दुष्काळ
श्रद्धा
सातवाहन
देवस्थान
पायथ्याशी
##ीक
##ृति
##ॅथी
दब
सज
छंद
मां
शीख
बंगळ
भिंत
मिळेल
म्यान
रात्र
##लबजावणी
कधीकधी
व्हावी
formula
बाजारात
महाभारत
उपकेंद्र
होणार्या
पॉलिटेक्निक
##णम
##भु
##लाच
##ेलो
Ar
##ूबाज
php
पोक
बेर
भगत
रेज
##लीकडे
म्हट
रोहि
साउथ
१९८७
##्यात्म
परंतू
प्रगत
प्रभू
रुद्र
लाहोर
वाढले
मास्टर
विजेते
व्हावा
जाहिराती
बहुसंख्य
देशांच्या
भाषांमध्ये
##ge
##मोह
##रावा
तान
##ियाचे
cont
आज्ञ
१९४६
१९४९
##वर्गीय
अद्या
एखादी
आवृत्त
घ्यावी
तज्ज्ञ
वास्तु
मर्यादा
विभागाचे
विश्वनाथ
सामान्यतः
स्त्रियांचे
##वै
##ord
23
गि
##िल्ल
नको
१८२
##क्यात
##गडावर
ख्या
घेते
टोपण
भावे
मल्ह
##लीच्या
चालते
निदान
घरातील
तिन्ही
पूर्वा
मुक्ती
वाहिनी
श्रीधर
अध्यापन
हिरव्या
धर्मातील
धर्माच्या
युरोपातील
साम्राज्याचा
##दाद
आह
##डेकर
बडो
रॉक
वान
##खेरीज
##पदावर
दस्त
नाझी
बंधन
लाखो
कार्त
तुळशी
नक्की
पदव्य
वतीने
आजूबाज
उपनगरी
कामकाज
प्रक्ष
प्रसन्न
औषधोपचार
प्रीमियर
राज्यपाल
आरोग्यसेवा
पूर्वीच्या
स्पर्धांमध्ये
##ासन
24
ओड
दख
##काली
##दत्त
##र्तक
##साचे
ओपन
कदम
कोट
दाभ
फेक
बही
मेळ
संय
हजर
१७६
##धान्य
##नच्या
##रिस्ट
##हाय्य
अनुभ
गरुड
संगण
१९६३
घराणे
तर्फे
त्रिप
महिना
कांबळे
चित्रण
नगरपाल
भारतभर
संसर्ग
कारणीभूत
म्यानमार
स्वायत्त
##uc
##जल
##ंबक
##परि
##िते
##ोगी
##्टा
##्लक
sh
टन
##पाला
##लावर
##ॅम्प
पाद
बेन
शंख
भरते
सजीव
राहतो
विषयात
हिच्या
चार्ल्स
जाहिरात
दिसायला
असणार्या
जाणार्या
स्थापत्य
##गीर
Ma
आच
६६
##कारण
##जन्य
ठळक
ताण
धाड
हाव
गौरी
बिया
मल्ल
स्तर
इंटरन
उद्भव
ऋग्वे
घातला
जालना
पुनर्
पोलंड
वित्त
कोकणात
दीक्षा
वस्त्र
गडाच्या
प्रशासन
समाजाची
अभियानात
मायक्रोस
वस्तूंचे
पुस्तकाचे
किनाऱ्यावर
चित्रपटांत
संध्याकाळी
वर्तमानपत्र
समुद्राच्या
##बस
##end
##केत
##बूत
##य़ा
##्को
##्रल
आझ
आट
दम
lok
मेन
हेन
##संबंध
##ोग्रा
खाडी
द्रव
बचाव
मोफत
सखोल
हिंग
१९३१
१९३६
१९३८
##विद्या
##शिक्षण
पंचाय
खात्री
बांधली
मांडली
वृत्ती
शांतता
शिल्लक
सामर्थ
आफ्रिके
कंपनीची
जवळच्या
सहाव्या
अस्पृश्य
राज्याचा
वर्षांचा
ऑटोरिक्षा
बालकल्याण
दक्षिणेकडे
ऑस्ट्रेलियन
पुरस्काराने
>
##ian
##ram
##ubl
##बंद
##य्या
##वाहत
##्युट
196
आगर
##ार्थी
आतील
तेंड
नामक
वाडा
चाळीस
तुकडे
क्षेपण
ठरविले
मार्गे
शिकारी
ट्वेंटी
परीक्षण
भाषेच्या
पदव्युत्तर
##सेफ
##ुत्
##ोटा
##ारकर
तुट
हिट
जेवण
बसून
रेषा
वयात
१९७६
##मधल्या
उदयास
चारही
दैनंद
नक्षी
वगळता
उपयोगी
कारवाई
जाताना
तपासणी
भागांत
येणारी
लावतात
वाळवंट
हाताने
देण्यास
समकालीन
रामकृष्ण
संरक्षित
आतापर्यंत
##उस
##शह
##शाह
##ूकी
##र्णा
चुक
मिस
मुक
मॅक
औषधे
थोडी
देऊळ
मोसम
शेतम
सर्प
१९३९
केसरी
कॉर्प
पुरूष
उभारणी
ग्राहक
तांदूळ
थायलंड
श्रद्ध
असल्याची
कार्यक्रमात
वर्षांपासून
##षाण
##िसा
##्सी
##ास्ट
जला
दुब
बाँ
वीस
साळ
सीम
दुःख
वंशज
अगोदर
ईश्वर
द्याय
मौर्य
राजीव
विनोद
गावाचे
पंचांग
परिणामी
संप्रेर
देण्याचा
रिपब्लिकन
स्वयंसहाय्य
##च्य
##बाद
##orld
##्रोल
लेन
वंच
##दर्शक
गुहे
त्रि
मातृ
मालक
शकले
संकट
साठे
कारणे
गजानन
पुर्ण
मागास
संसदे
आख्याय
जिंकले
खाद्यपद
कारकीर्द
नानासाहेब
स्पर्धेसाठी
##ंमद
##चिक
##िनि
६३
##साचा
अनौ
तब्
दीन
बिर
##ापत्र
पालक
पुरव
वारस
##ठिकाणी
कॅनडा
चाचणी
जागृत
ट्रेक
अब्दुल
फलंदाज
शेवटचा
सर्किट
गोपीनाथ
आयुष्यात
प्रतिकार
खाद्यपदार्थ
##पल
##भी
y
##दंड
शौ
##वेळा
ind
थॉम
दंग
मॅट
##ित्या
१९२९
##ापासूनच
अज्ञात
अभियंत
बॉम्बे
गोलंदाज
मुंबईला
म्हैसूर
उद्देशाने
नियंत्रित
दिल्लीच्या
दक्षिणेकडील
क्षेपणास्त्र
##pp
##ॅग
##han
##ंगत
##वाले
##साली
##ोत्र
अपय
चरण
यवत
युक
##ांमधे
एकही
बहीण
भैरव
##थ्यावर
##ाव्यात
मल्या
विद्र
गेलेला
नामकरण
गावातून
ज्यांना
ज्योतिष
यंत्रणा
रहिवासी
विचारसर
स्थापित
क्रमवारी
समुद्रात
अनौपचारिक
इंटरनॅशनल
त्यामुळेच
अंमलबजावणी
चित्रपटांमध्ये
७७
##eved
##लामी
##ावणी
##ुलकर
##ॉर्ट
जतन
निल
नुस
हंस
##ादेवी
##िक्षक
आवडी
नेदर
प्ला
वेळो
स्ने
##ल्याचा
##ांनंतर
सागरी
हुसेन
##वण्याचा
ग्रंथी
नैऋत्य
प्रत्यय
स्पर्धे
वडिलांचे
मुलांच्या
सॉफ्टवेअर
मायक्रोसॉफ्ट
##भौ
##रीन
गत
are
आणी
कदा
राघ
१७७
अनिल
असेच
उतार
नर्म
पडून
लडाख
इंदूर
बोईसर
माहीत
वेदना
##ऱ्यांनी
अवघ्या
कौशल्य
जोडलेले
रेकॉर्ड
elevator
प्रेक्षक
शास्त्री
आल्यानंतर
सुरुवातीस
अमेरिकेमधील
##लीय
##चाली
##फर्ड
##ोक्त
एकक
भवन
लाय
##नागरी
कायद
चाली
डेटा
पेंढ
अरुणा
कीर्त
आमच्या
ब्राम्ह
मोहम्मद
वाहतुकी
संपादित
##शास्त्रात
लिहिलेली
न्यायालयात
ठेवण्यासाठी
##ळम
##जित
##दिन
ओब
##कांड
##शियम
##ष्ठी
ऋतू
एस्
गाई
गाळ
पैठ
सोल
##ition
##ावादी
आईचे
आराख
जांभ
१९२८
१९५१
##ण्यावर
बुरुज
आठव्या
बेटावर
भिक्खू
स्वागत
हिवाळी
##ाप्रकारे
बॉलिवूड
महाविद्यालयीन
Al
बग
##पक्ष
कोल
रास
१७५
##राज्य
##ासमोर
घोडे
##ंत्रित
त्याग
सामान
पंजाबी
##ण्याकरिता
राज्यांत
सर्वसामान्य
##iz
##ry
##शिप
22
##स्सा
बहर
में
रेश
लसी
वेत
देवळ
शोषण
गोल्ड
रंगमंच
शेजारी
देशांनी
वाढत्या
जवाहरलाल
निष्कर्ष
युनिव्हर्सिटी
##ुब
##ern
चट
##tern
##दायक
अंज
किम
डिज
##ियाचा
##ॉलॉजी
2012
उठाव
पाला
निवडक
मजबूत
वाढली
शर्मा
हॉस्प
अरविंद
कदाचित
गेलेली
टीव्ही
सामन्या
त्र्यंबक
शरीरातील
स्वयंसेवक
मार्गदर्शक
वैशिष्ट्यपूर्ण
##सो
##्फ
##पति
##बुक
sp
आभ
घोर
जित
धाक
##ंव्हा
##र्मिळ
##ष्टात
इन्फ
उघडी
कोंड
बनली
शनिव
##atimes
तब्बल
तिबेट
विजयी
शिफार
संसार
होळकर
##वण्याची
वर्षभर
##ऱ्याच्या
गोलाकार
नियुक्त
बारामती
वेळोवेळी
द्वीपकल्प
##दळ
##लाई
नज
६१
अणू
गडद
झुड
बिब
हमी
अप्र
अभाव
१९४४
##rieved
##पद्धती
अचानक
जाणून
टप्पा
पर्जन
बहुमत
सेकंद
ज्याने
पुरावा
भाषेचे
वर्गात
वेल्हे
सीमेवर
आकर्षित
दुर्मिळ
प्रकाशक
जातीच्या
स्पर्धेमध्ये
##झे
##ics
##पंप
##पाठ
##मटम
##हाद
गळ
दय
##र्लो
करम
डाग
लग्
वेढ
१७०
2010
टमटम
नसेल
फ्री
१९३३
अण्णा
चांदी
मूळचे
वंचित
सूचना
##प्रणाली
प्रकृती
कारकीर्दी
कार्यकर्त
पुस्तकाच्या
##ms
##ुख
##kar
९५
##evel
##धारी
##र्नल
##लाइन
बेत
वां
१७८
##मुक्त
##स्तंभ
अस्व
कपडे
नाला
मोदी
##प्रयोग
india
उपकरण
उपदेश
कथानक
बायबल
रुंदी
व्यंग
शांती
हॅन्ड
आरक्षण
घालतात
दिलेला
दिशेला
तिसर्या
श्रीलंक
उत्तीर्ण
जवळपासची
नसलेल्या
यांच्यातील
##तुक
##धरी
##वाळ
##्लो
जळ
##ित्झ
##्युर
कृष
ठोक
दखल
माक
लाद
शाल
शिज
हळद
हवी
that
अशाच
ऐवजी
##स्वरूप
आश्चर
काल्प
जायचे
टेक्न
ज्वारी
बंगळूर
मूलद्र
केंद्रे
##मल
##ace
##ain
##न्य
##वाट
९६
##काठी
##वाणू
##ानुक
##ाहित
##िकेत
Com
ऑपर
कुण
कौट
लखन
वंद
##र्वाण
##विस्त
अण्ण
कधीच
कमान
घाला
चिपळ
निषे
मोरे
सीता
१९४१
##पासूनच
उपवास
एकांक
लाकडी
ऋग्वेद
चतुर्थ
निवडले
पहायला
पार्टी
बनलेले
रिचर्ड
स्थितीत
##ऱ्यांच्या
पूर्वेकडे
##िआ
##ासं
##द्रे
खोक
बेक
लुट
##तर्फे
बदलत
हरित
##ाबाहेर
##क्रांती
अलीकडे
गंगाधर
ज्यांनी
हंगामात
व्यक्तीच्या
##ष्क
कवि
सिड
वादळ
हिरा
##तेमुळे
अपवाद
ज्ञात
शिकवण
सेल्स
जुन्नर
देवीची
मधुमेह
##प्राप्ती
कोल्हापुर
व्याख्यान
##ib
##शार
##आयएस
##वंशी
##ापती
कल्
तोर
नाच
नाद
रेण
लाइ
लाट
शेर
##रेस्ट
गुहा
दादर
पसंत
बाळग
१९३४
१९३७
संकलन
स्फोट
एज्युक
ओळखल्या
काल्पनिक
अध्यक्षपद
##aw
##टो
##ork
##ous
##तीन
##ेतर
ऑप
५९
धान
यमु
साई
सिर
आपटे
आर्क
कॅनड
तक्र
बनते
राधा
संशय
१९३२
##evelop
##त्त्वे
वाद्य
किर्लो
यवतमाळ
जन्माला
लक्षणीय
संवर्धन
तेंडुलकर
बांधलेले
गावामध्ये
झपाट्याने
न्यायाधीश
स्थलांतरित
##ाफ
##ice
al
८४
##त्ते
195
##यॉर्क
##ोरेशन
अकरा
कुक्
तत्स
नारळ
मर्स
सराव
हाऊस
हॉकी
मतभेद
मुक्क
लॉर्ड
वाटले
वापरक
चिपळूण
म्हणतो
शहराचा
##विण्याचा
प्रशांत
मंडळाचे
सुरवाती
एज्युकेशन
##ee
##बरी
##र्र
##ुंग
८३
##ated
##िदास
कमळ
१९२७
चर्चे
चौकशी
बेल्ज
उत्साह
त्रिको
नामवंत
न्हाणी
महर्षी
विहिरी
दहशतवाद
मंदिराचे
मालमत्ता
चित्रपटासाठी
##BN
##pt
##लोर
इय
##स्ला
##ाद्र
आंग
खाण
पिस
शीत
सहन
##ास्तव
घडाम
टी२०
दुर्
पाऊल
फर्ग
महेश
माला
##ंद्रिय
##डीच्या
##ियातील
आवाहन
चौधरी
दिलीप
विलीन
व्याज
श्रावण
औपचारिक
डोंगराळ
नेदरलँड
मंगेशकर
शंकरराव
##िपत्याखाली
अमेरिकेचे
प्राचार्य
मध्ययुगीन
शतकापासून
शहरामध्ये
मार्गदर्शनाखाली
##ey
As
इर
##याची
नित
पीठ
फडक
षटक
२५०
##न्यास
##पुरुष
आखात
बलात
बोअर
भागी
सारे
जातीय
तपशील
नित्य
पंधरा
पितृस
वैष्ण
शंकरा
अनुदान
ज्याचा
दुहेरी
राजघरा
रिसर्च
स्मृति
माणसाला
सध्याचे
क्षत्रिय
थोडक्यात
देवनागरी
प्रख्यात
रेजिमेंट
ट्वेंटी२०
बाळासाहेब
मुलांसाठी
क्रमांकाचा
##डीत
##रोग
##्डी
टू
६९
##मोहन
##ळेकर
##ातले
Ret
खरा
सभे
१६८
अप्प
घेतो
निकष
पाहु
बेंझ
व्हॉ
सोळा
##चेस्टर
##ळ्याचे
ग्वाल
ध्वनी
लावली
शहाजी
जमिनीत
लक्ष्य
उदाहरणे
कुक्कुट
बाहेरील
मनोरंजन
परिवर्तन
सांगितली
माणसाच्या
वास्तव्या
अपंगांसाठी
सर्वसाधारणपणे
साम्राज्याच्या
##टल
##माने
##र्पण
##र्षण
##ार्ट
##ुक्त
आसन
धूम
भाल
भूष
##सच्या
##ियाची
असुन
फेडर
वावर
##्यांशी
प्रार
माणिक
राहील
समजला
##तीमध्ये
राजाने
१९व्या
##्यांमधील
गुंतागु
ह्यांचे
हॅन्डपंप
व्यवस्थित
शिक्षणाची
संपुष्टात
दत्तात्रेय
##ack
खज
लय
##द्रा
##शायर
##िफिक
एलि
फेट
बुर
शोक
पन्न
पातळ
भूमि
वारी
##वाहतूक
टेक्स
मंजूर
सक्षम
करायची
कुस्ती
अपेक्षा
उत्पादक
ऑक्सिजन
ताराबाई
दैनंदिन
व्यायाम
देवीच्या
पार्श्वग
विश्वकोश
संगीताचे
विमानतळावर
आंबेडकरांनी
##कण
##act
##फोन
चॅ
##शेखर
##स्टन
करण
गुं
चेत
शाप
##त्तीस
उज्ज
फलटण
बसला
मेंढ
मेरी
लाकड
काराग
गाडगी
गोंधळ
पटकथा
पुरावे
भागावर
जगाच्या
डावीकडे
न्यूझील
पायऱ्या
सरकारला
सहाय्यक
सैन्यात
बहुतांशी
न्यूयॉर्क
न्हाणीघरा
होईपर्यंत
##डीच
##म्प
खत
९१
९९
##धारक
##परंप
##श्रे
##सेने
अंद
जाड
थिए
मना
मुह
मॅन
ISBN
भीती
कार्ड
नदीला
शेजार
सौम्य
अनुयाय
एकत्री
दिवसभर
पांढरी
बंगलोर
मधल्या
पक्षाचा
अत्याचार
किनाऱ्या
परिषदेचे
स्वीकारले
केल्यामुळे
जिल्ह्याचा
हॅन्डपंपच्या
##ci
##ob
##इत
##ामण
आइ
झी
##गाडी
##विते
##ील्ड
##ूल्य
टाई
##ology
##ेकडून
देशी
१९२५
##ंतर्गत
घातले
नैतिक
पोर्ट
फाळणी
लाभले
गाण्या
पक्षात
पांढरे
विवेचन
शेवटचे
नाटकाचे
समीक्षा
हालचाली
उत्तरेकडील
शहरांमध्ये
सिंधुदुर्ग
##वेज
##हीन
##ूचा
८२
##ंतील
##ळीचा
##हारी
जबर
डेल
यहु
यूर
६००
उदार
नेले
शाही
सूची
१९२४
##विरोधी
दिसले
धावते
महादे
राहणे
शिस्त
सिंचन
डिजिटल
देणारा
निवासी
अधिवेशन
इटालियन
घडामोडी
पक्षाची
दहशतवादी
विद्यापीठाचे
##फॉ
##ोश
##गुण
##रून
##्ता
Sh
९८
##क्कर
##त्ये
##ब्दी
##िडीज
##ृष्ठ
१६७
##धारित
##भक्ती
करेल
कुणी
चौथा
फ्ला
१९१७
१९४३
ग्रहण
पित्त
सारखी
आकर्षक
दामोदर
घराण्या
जीवनावर
पोर्तुग
चंद्रपूर
महत्वाचा
न्यूझीलंड
मंडळाच्या
स्पर्धेचे
##ंघ
##धीर
##लिओ
यम
##बीसी
डेन
भुई
##क्साई
##वायचे
##ोपॅथी
काका
ग्ला
घरटे
स्वा
##प्रवाह
उपनिष
जीवनस
परकीय
फेरीत
वर्तन
विहीर
ऑपरेशन
जागेवर
कार्यात
राज्यघट
विजापूर
बलात्कार
आफ्रिकेतील
किर्लोस्कर
जर्मनीच्या
विकासासाठी
व्यतिरिक्त
न्यायालयाने
##बू
##ide
##इंग
##ऊंड
##मेर
##ालन
##ुर्
##ळाशी
##ारात
##िंटन
ठिप
तंब
दख्
नसे
सिम
##ल्हाद
कॉन्
चढाई
नकाश
रचने
रुजू
हरिय
##स्तानी
नागली
वाक्य
संजीव
##्यामधील
अभिजात
दुपारी
मिनिटे
सांगता
सापडले
स्वस्त
आफ्रिकन
पार्वती
प्रकरणात
आकाराच्या
समुद्रकिन
##ुआ
##ाहक
पल
७६
##लाला
##शोधक
परभ
फेस
माध
##करंजी
##न्द्र
##वृक्ष
ग्रॅ
घट्ट
नेता
मच्छ
##ळेश्वर
कान्ह
टाकला
नदीचा
पाडले
महंमद
लेखात
साध्य
होतील
गुलाबी
भाज्या
रीतीने
पक्षाला
पाहायला
केंद्रात
वेगवेगळी
स्थानावर
पूर्वेकडील
राज्यामधील
##दै
•
##खोर
##वत्स
##ांडा
##्वार
१७४
##वलेली
##िकेचे
किवा
खटला
भोजन
मोती
##ंबरोबर
##भाज्या
##ांडेकर
कुटुं
गाडगीळ
घ्यावे
जीआयएस
जोरदार
भूमध्य
संपन्न
आकाराचा
उजवीकडे
टर्मिनस
##ांविरुद्ध
भरलेल्या
हॉस्पिटल
##evelopment
तालुक्याचे
नसल्यामुळे
प्रमाणपत्र
##झो
—
##पूत
##लाढ
##ोदय
छळ
##ोपास
इचल
कोप
दंत
नेव
सोळ
##रीकरण
##विरोध
##हूर्त
##ावेळी
अतुल
बकरी
बातम
मॅने
##ations
##ासारखा
##्यासार
भोपाळ
शुल्क
रॉबर्ट
सांगतो
कलकत्ता
लहानपणी
शिवलिंग
समितीने
ह्यांचा
इचलकरंजी
होण्याचा
##व्यतिरिक्त
दादासाहेब
व्यक्तीला
क्रांतिकारक
##बद
##rit
##पंथ
##सूल
It
ab
ed
८६
##िल्ड
##ोपाठ
कडा
गुळ
पेड
भान
भूप
भोज
वीट
हेल
जयंत
जाति
तबला
लीला
वल्ल
१९१८
कांही
कुसुम
कौतुक
पनवेल
फाउंड
भूतान
हिटलर
झारखंड
द्यावा
सुधारण
सुध्दा
डब्ल्यू
सेंट्रल
Retrieved
खगोलशास्त्र
कॅलिफोर्निया
##fo
##ps
##unt
##गंग
##वस्त
##वावे
##ारीख
##ेन्स
डबे
१६६
##बिंदू
2015
दुबई
बरोब
हर्ष
हवेत
##ंपासून
कापूस
ट्यूब
विपुल
सामंत
स्थळे
अखत्या
अद्याप
त्यानी
पन्नास
जीवनातील
तुरुंगात
लोकप्रियता
सालापर्यंत
##३०
##जीक
##माल
##ंतून
##श्या
##सेवक
आवि
ओळी
खिड
गोस
शनी
ईश्व
कठोर
परिश
पेपर
मिरज
व्हॅ
##ipedia
##कुमारी
##ताब्दी
आढावा
जातील
निषेध
विषुव
संज्ञ
##ासंबंधी
मूल्या
सृष्टी
चिकित्स
दिवसांत
केल्याचे
घेण्याचा
बेल्जियम
सुरूवाती
आणण्यासाठी
कॉलेजमध्ये
मंत्रिमंडळ
व्यक्तींना
##78
##ेथ
##une
##शेत
##ुंत
##ोशी
इल
##पाशी
##लेखक
##्रेट
उमट
एंज
##च्छेद
##मानिक
##ांत्य
##ुध्दा
घेउन
साने
१९२३
आठवणी
ग्रँड
चालना
जैविक
तांबे
मूत्र
श्वास
स्नाय
##ंदर्भात
काउंटी
सूत्रे
पद्धतीत
मॅट्रिक
उत्पत्ती
डोंगरावर
प्रदक्षि
प्रसारित
मिळालेले
आसपासच्या
पृथ्वीवरील
कल्याणकेंद्र
x
##ताई
डच
##तन्य
##ामाण
कृत
बचत
भजन
##वणारी
कमला
फिरत
लाइन
विसर
##याच्या
##्रांती
अत्रे
काबीज
जंगले
नेत्र
पुर्व
##वण्याचे
आक्रमक
उष्णता
बाळाजी
याबाबत
रूपाने
स्वारी
मार्केट
उपाध्यक्ष
राहण्याची
हिंदुस्तानी
##गळ
##सद
##दीय
##वाण
bl
##ानाथ
गवत
गेट
घुम
तुर
भोक
विण
##जापूर
##शुद्ध
थॉमस
पाहू
म्यु
नदीचे
मारून
शुक्ल
सोहळा
नावावर
याबद्दल
कामासाठी
दुर्लक्ष
त्यांच्यात
पुरुषोत्तम
मध्यप्रदेश
लोकांमध्ये
कालव्याच्या
पृथ्वीपासून
##eg
##लेक
##हॅम
##ागो
७९
##झ्या
##्रुव
आषा
लिओ
##निबंध
##ेशन्स
मशीन
माया
सोशल
##िक्शास
अल्ला
तत्सम
तुलना
फारसे
भवानी
##व्यवहार
संहिता
साध्या
वैमानिक
शेतमजूर
सामग्री
गोलंदाजी
फाउंडेशन
तामिळनाडू
नेदरलँड्स
ग्रामपंचायत
##ff
##erv
##कोप
##देह
##न्म
pl
६८
८८
##कुंद
##ळीचे
##ामधे
अॉट
धना
पिन
बलु
बेड
##पल्ली
##बुद्ध
घोरप
तुला
न्या
पीटर
स्टी
हेमा
##ासारखी
##ृष्टीत
प्रदी
स्टुड
##ष्टाचार
अंदमान
बजावली
मल्हार
सत्तेवर
रंगाच्या
दृष्टीकोन
स्वातंत्र्यल
##नं
##तरी
ch
८७
९७
##श्रम
##ावाद
पैश
पोत
भिव
##ियन्स
अडीच
अद्व
खेळत
गिधा
गिरी
लहरी
सुलभ
हानी
##नात्मक
##मीच्या
कंबोड
जलाशय
पत्कर
महसूल
माउंट
शेतकर
प्रोजे
समांतर
उपांत्य
राजांनी
नावावरून
बेंझसाठी
स्वयंपाक
wikipedia
चंद्रकांत
निधनानंतर
शरीराच्या
मराठ्यांनी
##94
##नो
##orm
##per
##मेघ
##रान
##लकर
##शिल
यथ
##ight
##ाळून
##ावीत
##ॅटिक
केत
डाळ
##चिन्ह
अन्व
उदा०
छपाई
तरंग
नंदी
नातू
युने
१९२१
अॉटोर
आग्रा
कामात
चालुक
व्हिक
समर्प
अविभाज
एडवर्ड
दोघेही
रमाबाई
सामोरे
मालिकेत
वसंतराव
सशस्त्र
स्तोत्र
कादंबऱ्या
ग्वाल्हेर
द्वीपसमूह
स्वीकारली
##ाव्यतिरिक्त
व्याख्याने
##जिक
##रीज
##याचा
करु
लता
##युद्ध
##ापैकी
2014
इराक
करणा
कुशल
सर्ब
##ांनीही
असणार
आढळले
आनंदी
खेळले
खेळात
टिकून
ठरावी
फिरता
समन्व
हिरवा
##ांतर्गत
##ांविषयी
करायचा
पूर्वज
चुंबकीय
त्याकाळी
दीर्घिका
फर्ग्युस
अमेरिकेची
गुरुत्वाक
विचारांचा
शहरापासून
##घळ
##मि
##काव
##सला
##िसन
##्शन
Am
८१
९२
विट
सद्
##वणारे
##ियाने
आत्त
खिंड
ध्रु
पिंड
पैसा
##क्साईड
गुजरा
थिएटर
पॅलेस
प्रसि
फारसी
वाढला
##्यामुळे
हेतूने
##्यांमुळे
रुपांतर
दुरुस्ती
युनेस्को
वास्तविक
शासनाच्या
कुटुंबातील
परिषदेच्या
संस्कृतीचा
मराठ्यांच्या
##ach
##ave
##ंबा
##दाट
##वरे
ra
100
मसा
शिम
हॅम
##िनियम
अक्क
आंबा
गार्
जाळे
बुरू
लष्क
साधू
हिमा
##प्रदाय
उर्जा
दुर्द
देशभर
दोस्त
द्रुत
परांज
प्रोट
बनवली
माहीम
मिळवि
स्नेह
असावेत
कंपनीत
प्रतिप
वापरता
स्नायू
एकेकाळी
कलाकृती
डेव्हिड
स्वित्झ
चिकित्सा
त्यांतील
सहाय्याने
स्मरणार्थ
##िक्शासुध्दा
काँग्रेसचे
##यू
##श्
##गेट
##राह
##ोआप
50
र्
##राणी
##लिका
Con
अना
आल्
कशा
गति
चाह
मंच
लेक
१२०
फोटो
बाबू
मांग
अर्धा
काहीच
ग्रीन
घनदाट
चैत्य
पासुन
प्लूट
माघार
लाकूड
विषयक
संभाव
सेंमी
अक्षरे
पुरंदर
वाटचाल
वेगवान
इस्लामी
कालिदास
अतिरिक्त
त्यावरून
एकमेकांना
प्रवृत्ती
फर्ग्युसन
बंगालच्या
महालक्ष्मी
कुक्कुटपालन
इलेक्ट्रॉनिक
X
##iew
##तेच
##िपत
pp
##ामंड
खून
जसा
डेम
पोप
शेष
सुब
##ंमधील
##वेळेस
असुर
कॅमे
नाणी
पावस
भीमा
##तीसाठी
आत्मा
जोडून
त्वचा
दिव्य
नमुना
परभणी
ब्रिग
ब्लॅक
भगवंत
समजली
अंधश्र
ठरावीक
पर्जन्य
फलंदाजी
वातानुक
हॉटेल्स
अविभाज्य
जाण्याची
महत्वाची
लोकसभेवर
स्वराज्य
उत्तरेकडे
रशियाच्या
इंडोनेशिया
उत्तरार्धात
##खड
##फल
#
##मां
##वडा
##हरण
मश
रक
##atta
##रिया
##ाळात
##ोद्ध
##्पुर
आजी
कंद
नीट
रुक
वसई
##ंत्रण
##निवास
##ांहून
##ाहारी
##िटणीस
##ोरिया
2007
2008
कमीत
केलं
जहाग
टक्क
सपाट
##नारायण
##प्रेमी
##मार्गे
##वाहिनी
##संस्थे
कार्ल
वर्धा
महापाल
रिझर्व
टोपणनाव
बुद्धिम
राजवाडे
संमेलना
समितीचे
दिवसांनी
पडलेल्या
पौर्णिमा
वर्षांचे
शोधनिबंध
सुवर्णपद
अध्यक्षीय
किनारपट्टी
निवासस्थान
वर्षापासून
स्वतंत्रपणे
इंग्लंडमध्ये
##ire
##घ्र
##राग
##ोषण
झट
##ater
##तेला
cor
अगर
गुड
मकर
##मानंद
आराम
ऐकून
खुले
मंडप
१९१९
##रावरील
आपोआप
कॉम्प
युक्त
राखून
##विज्ञान
##िव्हिजन
पंचायत
लागवडी
कारखाने
ब्राह्म
निर्माता
संमेलनात
नागलीशेती
प्रक्षेपण
स्वीकारला
प्रक्रियेत
वडिलांच्या
Q
##नीस
##प्ल
##बेन
le
कू
फै
##info
##port
##ताला
##रांग
##रीने
गूढ
पल्
भाई
१६५
wiki
आढळत
कोठे
गिनी
माची
रावण
शेंग
समता
##ंदर्या
आजोबा
तिसरी
भोवती
##शिंग्टन
##ेपर्यंत
मिलिंद
येण्या
दहाव्या
परांजपे
भूमिकेत
मुक्काम
मुस्लीम
व्हियेत
तोपर्यंत
पद्मश्री
प्रक्षेप
संस्थाने
सामान्यत
रसायनशास्त्र
##गृ
##झन
##कली
##कास
ऋष
और
चप
##ooks
##गण्य
##तीला
मीठ
##नीकरण
##ादायक
आठवण
गटात
गणना
बहाल
१९१६
##करांचे
ठाकूर
बनवून
यांवर
राहुल
विक्र
हल्ले
उपासना
कौटुंब
प्रेरण
मुद्दा
विकिपी
जाण्यास
ॲलोपॅथी
टप्प्यात
निर्माते
प्रदीर्घ
आख्यायिका
महाबळेश्वर
वर्षांनंतर
तीर्थक्षेत्र
##ef
##ंबी
##धना
##निय
##लाद
us
उत
फट
##कोनी
##डीला
##लाईन
Mar
Pro
सगळ
##पासुन
भाषे
वेढा
असतान
देणगी
देवाण
पार्ट
बुरूज
महानग
वैश्व
सुधीर
अलंकार
मॉस्को
जबाबदार
ब्रिगेड
शिवसेना
सापडतात
आकडेवारी
रेल्वेची
एकत्रीकरण
त्याशिवाय
प्रांतातील
स्पर्धेच्या
अधिपत्याखाली
महाविद्यालये
##ite
##गाड
##रिश
##च्यु
##जेता
##टर्स
##दैवत
##वादक
जशी
फिन
बोस
येई
राध
रेव
वाव
१६०
##लिंगी
##स्टिक
कराड
पाले
पिंग
लिंब
१९२२
१९२६
##्यारोह
गावचे
धक्का
बहिणी
मागित
वैष्णव
शनिवार
सांख्य
हेन्री
चळवळीचे
मल्याळम
मुहूर्त
राहणारे
ब्राम्हण
कीर्तनकार
त्यापासून
वॉशिंग्टन
सिद्धार्थ
अभिव्यक्ती
चित्रपटाची
भ्रष्टाचार
संघटनेच्या
इंग्लंडच्या
मिळवण्यासाठी
##लप
##ंतन
##डेन
##ौरव
he
डब
##वाना
##स्तन
##िर्म
अजय
गाल
फंड
मिठ
लाड
लिन
शिब
७००
##वणुकी
##विद्य
##ांतिक
##ोलियन
कचरा
क्षण
खुला
गांव
जबरद
रेणू
वाटू
हिने
१९१०
##टीच्या
अव्वल
केळकर
खातात
पाषाण
हुतात
खेळवली
जिल्हे
दाखवले
निघाले
पिंपरी
होताना
तात्पुर
मलेशिया
कौटुंबिक
राहिल्या
गिर्यारोह
स्वित्झर्लंड
##दो
##णिस
##त्थ
उध
##ोन्स
कौश
चेक
छान
डिप
युए
##पुस्त
##िंद्र
घनता
लिंक
सत्र
सारा
##मध्येच
अतिरे
खऱ्या
गुलाब
राजेश
एअरवेज
चक्रधर
संरचना
समर्पित
स्पष्टी
मंदिराचा
यापूर्वी
सामर्थ्य
अध्यक्षते
कथासंग्रह
निजामशाही
क्रमांकाची
##rig
##भंग
डह
मड
९४
##नामी
##प्रा
##बाणी
##संगी
res
घेव
जाय
2013
अल्ब
कमतर
ठरतो
पायथ
प्रे
मांज
लखनौ
१९१४
एकेरी
बांधव
वाहने
अनुकूल
कायमचे
कुंभार
दरवाजे
युनियन
समन्वय
सांगून
दिल्लीत
वसलेल्या
हायड्रोजन
प्रतिष्ठित
होण्याच्या
##92
##फन
##सत
##ंथन
##दूत
##िअस
शू
##वलकर
गहू
दही
फाल
लंब
##ब्राह
##हत्या
arch
इनाम
गोरे
घोडा
टाकी
देखभ
पैलू
##चित्रे
अपमान
पिवळा
मॅक्स
छत्तीस
ताऱ्या
विदेशी
##ियामध्ये
कार्तिक
दीर्घिक
सापेक्ष
गुणवत्ता
परिपूर्ण
शिल्पकार
विभागातील
कॉर्पोरेशन
घेतल्यानंतर
महाविद्यालयातून
##ru
##ron
##गंड
##रेस
##ष्प
##्रीट
चात
मदन
सेट
१७२
##र्वाद
##िकेने
##ितीने
comp
page
vill
उन्न
गाभा
पळून
बहाद
वज्र
हिला
१८५७
ग्रॅम
दख्खन
सिंधू
अज्ञान
ज्याचे
मुकुंद
शीर्षक
सभामंड
हल्ल्या
articles
आंबेडकरी
काळाच्या
राज्यकार
विचारसरणी
चित्रपटांसाठी
##६६
##oog
##फ्ट
##सून
##ान्
##गर्भ
##ाद्ध
##्रेन
एल्
खगो
चोच
झुक
दळण
दहि
मुज
मेर
ऱ्ह
वकि
##ग्रहण
उलगड
नगरी
लिटर
वाढू
वैभव
करतील
केदार
तलवार
तिथून
देखरे
नावाज
पट्टा
पट्टी
बांबू
भ्रमण
लेनिन
वल्लभ
वेल्स
पेशवाई
भागाला
विषारी
सखाराम
marathi
अहिल्या
धर्माची
प्राकृत
कुटुंबीय
चित्रकला
बाळकृष्ण
राजेंद्र
वडिलांनी
स्वरुपात
प्राधान्य
प्रतिक्रिया
प्राण्यांच्या
प्रशिक्षणकेंद्र
##ors
id
##गुरु
##डीचे
##भूती
##्टिक
कवय
छेद
तीच
बसव
मिथ
##कार्य
##भिषेक
##हाबाद
इंडो
जेणे
तणाव
पायी
बदला
बैठक
होतं
आजारी
जागेत
बद्दल
यहुदी
##रावांनी
डिझाइन
निघाला
रेसिंग
उद्योजक
कुळातील
थांबतात
निर्यात
सहकार्य
आपापल्या
यांमध्ये
लोहमार्ग
गावापासून
बोअरवेलच्या
स्वातंत्र्यलढ
##cl
##़े
##ich
##दिग
##फेक
##वाढ
##्का
##्दी
जस
नय
फर
९३
##डीचा
एकप
तूप
हाड
loks
अरेब
आयपी
कमाल
पाहत
महाव
शिकत
सेवन
##लैंगिक
आरमार
खंडात
ग्लोब
दुर्ब
भारती
विधवा
हावडा
अस्पृश
झाडावर
टेक्सास
नवरात्र
परिषदेत
बुद्धिब
बौद्धिक
विलक्षण
विविधता
कवयित्री
नाटकातील
पाण्याने
पूर्वीचे
बकरीपालन
मर्सिडीज
येणार्या
खेळवण्यात
जगप्रसिद्ध
development
कर्नाटकातील
##ah
##df
##sh
##गू
##िडे
रौ
##ापास
अटी
अथे
कमल
जर्
वळण
शाम
सॅन
##oogle
##च्छाद
आधीच
चंगी
फिकट
बघित
राजक
##नेश्वर
कांचन
कॅन्स
पहाटे
भांडी
शकतील
स्क्र
##अंतर्गत
##स्थेतील
कोरिया
चिंचवड
पुरवते
बनलेला
राजवंश
समीकरण
भागातून
ह्यांना
##क्षेत्रात
loksatta
अध्यात्म
##ांप्रमाणेच
किल्ल्यात
यांच्यासह
स्पष्टीकरण
शिष्यवृत्ती
##रथ
##्ब
##rap
##शान
##सेट
##ूर्त
##ोग्ल
अरु
नसत
निः
पॅस
रतन
१६४
##नाट्य
##पुरात
##विध्य
अजित
आंबट
कोहि
गर्द
घडले
पब्ल
भरती
राजन
वांग
विना
शिरा
सवाई
हॅरी
##गंधर्व
इतरही
जनार्
जीर्ण
पाहिज
फारशी
मोक्ष
यमुना
युएफा
शाहीर
आकाशात
देताना
पानिपत
फेसबुक
संघाला
हिस्सा
##्यांमधून
अधिनियम
आणीबाणी
कर्तव्य
खालोखाल
फेडरेशन
विभागणी
प्रारंभी
वर्षांची
सादरीकरण
दृश्यप्रत
क्रिकेटपटू
गेल्यानंतर
प्रदक्षिणा
बांधलेल्या
पाकिस्तानच्या
##cy
##़ा
##ंगे
##ावळ
ओम
रघ
सक
##िंगी
घोट
धडे
पडू
पोर
लँड
संब
##िक्रम
काचे
चिकट
##विलेले
अडथळा
चेताप
तारीख
पट्टे
बोलली
मंगोल
साजरी
##शिक्षित
आयुक्त
आराखडा
पुनर्र
त्यांचे
नमस्कार
पाहिजेत
वैश्विक
ग्रंथाचे
रेल्वेचे
स्कॉटलंड
होण्याचे
प्रशिक्षक
जन्मलेल्या
पाणीपुरवठा
महाराजांना
सावित्रीबाई
##१०
##ash
##ond
##चाच
##साह
##ाकथ
आल
नॅ
##cess
##राशी
##वाशी
मेक
रचन
लोण
८००
##देवता
क्वी
दर्ग
दुवा
भट्ट
शकला
##स्तरीय
##स्पर्ध
##ांसमोर
काढणे
ताम्र
बर्वे
मासेम
वकिली
हार्ड
काढतात
गोळ्या
तांबूस
मत्स्य
शिवराय
हरिश्च
village
अरुणाचल
आधीच्या
चीनच्या
दिनदर्श
नाटकाचा
राजवटीत
वीटभट्ट
संन्यास
सनाच्या
नेपोलियन
सैन्याला
कार्यालये
गणेशोत्सव
घराण्याचे
राहणाऱ्या
लोकांसाठी
वादग्रस्त
व्यक्तिगत
स्वरूपाचे
संस्कृतीचे
चित्रपटाच्या
तालुक्याच्या
##ोत्
##बाबू
##ल्हे
##ाताई
##ास्प
धाग
पुल
विच
वॉल
शपथ
##ळाकार
##ांतही
पैठण
पोषक
बाँब
१९०५
१९१२
##द्वारा
##ातर्फे
चंगीझ
चॅम्प
दत्ता
विघटन
सहस्र
साजरे
सेवेत
द्यावी
नर्मदा
भविष्य
मूर्ति
##poration
चमत्कार
बाजूंनी
##्यांपासून
जपानच्या
प्रल्हाद
उभारण्यात
एव्हरेस्ट
महाराजांची
महाराष्ट्रीय
##50
##वई
##ome
अळ
मँ
वट
##ंकडे
##ठ्या
##साधन
##ूर्ण
##ॅक्ट
##ॉक्स
app
गडी
भगव
मणि
शोभ
स्ल
##िन्या
अजिं
अनुप
डांब
लुइस
वाचा
अक्षय
आज्ञा
ध्रुव
प्रखर
लगेचच
कीर्ती
गोसावी
तुर्की
सांगते
सिनेमा
तुलनेने
पर्शियन
पाठविले
प्रशस्त
मिळविले
सामुद्र
उत्पादने
प्रस्तुत
मानण्यात
मासेमारी
रंगमंचावर
##्रोतांमध्ये
नद्यांच्या
संमेलनाच्या
समाजशास्त्र
इंग्रजांच्या
अध्यक्षतेखाली
आंबेडकरांच्या
चित्रपटामध्ये
##ode
##िएट
##िवे
##िसी
##ुटी
27
घो
##तेवर
##धारा
car
जिम
नूत
भाड
##कांचा
##तीर्थ
##पात्र
##लेदार
indi
आवरण
कुरु
कुला
चीनी
दबाव
नवाब
नैवे
रमेश
सगळी
साइट
हार्
अशक्य
द्रवि
बॉम्ब
सांगत
##ofindia
जनतेला
रविवार
समाजसु
##विण्याची
लांबीचा
शब्दकोश
संभाव्य
ज्ञानकोश
टाकण्यात
परंपरागत
राजकुमार
लावण्यात
डोंगररांग
चित्रपटाला
प्रकाशवर्ष
मार्गावरील
विभागाच्या
ट्यूबवेलच्या
साम्राज्याची
##uk
##थळ
##दय
##yst
##ंटा
##पाख
##बाल
##वरी
##संध
##ुला
##्सन
28
कफ
मय
##नेही
##रीची
##ुष्य
000
194
अधि
कोत
चौथ
बोग
शाब
##दानंद
##रच्या
नौका
पध्द
रिंग
##करांना
##लेश्वर
##ोग्लोब
ऑस्कर
ठेवता
दंगली
अनुमान
उपकरणे
गीतकार
शिल्पे
संवत्स
##्यांकडून
कोरलेली
लिंगायत
विचारात
कोल्हटकर
तुम्हाला
बाराव्या
बुद्धिबळ
भाऊसाहेब
माथ्यावर
शिक्षणाचा
साम्यवादी
त्याद्वारे
साम्राज्याचे
##चिर
##लाग
II
धम
रड
वह
##ally
##रम्य
##्रिय
अलि
चमक
डाॅ
फूल
मशि
साब
##स्ताद
##ीमजूर
long
ताकद
दिवे
फॅशन
मलिक
शतके
सद्य
१९११
अपूर्ण
अभिप्र
खेळवले
द्वारा
निगडित
राजपूत
समाप्त
सावकार
आधारावर
खांद्या
तत्त्वे
निवडणुका
लोकसत्ता
व्यासपीठ
राहिलेल्या
हरिश्चंद्र
पाकिस्तानात
वीटभट्टीमजूर
पार्श्वभूमीवर
##fer
##uch
##ंडक
##भवन
##माप
##मीत
##िरण
##ोही
26
ऋण
##धुनी
##बर्न
##साईट
dis
अमृ
आशी
कोन
गेल
गोग
माप
सुक
हान
##ivers
##िल्टन
##ोच्या
अकबर
अस्म
टिपू
गायली
चालले
तिकिट
भीष्म
भूगोल
मॅनेज
मोठया
लोकमत
समजूत
हल्ली
कर्मचा
##विण्याचे
आत्मसात
आश्चर्य
जनार्दन
पॅसिफिक
कृष्णाजी
प्रभुत्व
संघटनेचे
ऑस्ट्रिया
पाश्चात्य
भागामध्ये
व्यक्तिरे
संवेदनशील
ज्वालामुखी
विषुववृत्त
##sp
##झान
##टेक
##माड
##सने
##ance
##ound
##काशी
##लकोट
##ावला
pdf
झेल
मिड
##ाग्रज
##ोनिया
नांग
नाणे
पुरी
बाबु
##ोद्धार
गायकी
जगाला
जोसेफ
बळवंत
बोईंग
ब्लॉग
मधुकर
वाटेत
##निर्माण
##श्रेष्ठ
कोणीही
दुकाने
भंडारी
स्वतःच
##ळ्याच्या
उतरत्या
खंडातील
प्रतिभा
प्रिन्स
रांगोळी
उत्तराखंड
गुन्हेगार
चंद्रगुप्त
परिणामकारक
भागांमध्ये
सूर्याच्या
स्त्रियांची
##उट
##ुए
##ual
##कोळ
##क्व
##वेर
##र्शी
##विता
##ोलिन
##ोल्ट
##ोव्ह
फडण
भाट
मेस
वॉर
##बुर्ग
आप्प
घडून
दारू
धरले
पूजन
बिंद
बिघड
भक्ष
लिही
##वण्यास
##विनायक
##ांचाही
आपणास
जोडला
ठिपके
नेमके
प्लेग
मार्ट
यालाच
विलास
साहेब
स्प्र
जोरावर
सोनेरी
स्वीडन
article
लिहितात
व्हिक्ट
आंदोलनात
आजपर्यंत
बालगंधर्व
सुवर्णपदक
किलोमीटरवर
सहकार्याने
सैन्याच्या
ऑलिंपिकमधील
ज्ञानेश्वरी
राज्यकारभार
##aj
##खुर
##वळण
ev
ए३
##प्रव
##साइड
##ृश्य
##ोजना
खुप
जेर
पशु
मनी
लॉस
##्मिणी
खराब
जादू
शंका
कमिशन
काहीं
कोळसा
गाजले
जंगली
बदलते
लिपीत
घ्यावा
देण्या
मार्शल
मुर्ती
##विद्यालय
कारणाने
कॉलेजात
मृत्यूप
लेखनभेद
बँकेच्या
बांधलेला
म्हणण्या
श्रीनिवास
घराण्यातील
नागरिकांना
पाहण्यासाठी
होण्यापूर्वी
##dc
##नक
##ile
##दूर
##भरा
##िमी
Ad
तड
पँ
०८
##डीने
##ध्वज
##ागार
##िश्र
##ैनिक
एम्
चहा
दाप
शिश
सरा
सीत
##रापूर
##्याशी
अपयश
क्यु
त्वर
दादा
निंब
वाडी
विषम
१८१८
##istory
मारली
युनिट
विधेय
##रिस्टॉट
##िर्मिती
खानदेश
पडद्या
व्यंकट
##ोग्लोबिन
कंपनीला
पिवळ्या
पोहोचले
मिरवणूक
शताब्दी
एकांकिका
द्रुतगती
विजेतेपद
शक्तिशाली
अशाप्रकारे
किल्ल्याचे
कृष्णमूर्ती
##36
##px
##ॅस
##ath
##ere
##ife
##नास
##वळे
##हरा
##पुरम
##पेशी
##वाहू
##सभेत
##्रिज
आशय
ओशो
खरो
गोठ
बाक
विठ
सज्
सवल
१६३
##िकारी
आगरी
आझाद
तरतू
प्रम
फाशी
महाड
मारा
सतीश
सुभे
सुरे
ऊर्जे
गणिती
ठरतात
पावला
प्रात
रेखाट
लावणी
शारदा
सरपंच
##क्षिप्त
कॅप्टन
कोणाला
गुन्हा
घेण्या
परिचित
फुलपाख
भंडारा
राक्षस
अभियंता
आकाराची
घेतलेले
विचारले
श्रीपाद
स्टुडिओ
प्रवृत्त
मतानुसार
हंगामाची
ह्यामुळे
विवेकानंद
टेक्नॉलॉजी
पश्चिमेकडे
भूमिकेसाठी
साहित्यातील
अर्थव्यवस्थे
##णं
##चीन
##झाब
##ीची
खल
फस
बड
##ंगार
##ागोर
##ानेच
अॅन
करी
जिज
रूम
आकलन
उद्व
खोरे
परिम
मामा
मीरा
लघुक
लढाऊ
वाणी
हाँग
##संकल्प
आळंदी
खेळतो
दिनकर
निर्भ
मिरची
राखीव
वारली
शिकले
##जवळच्या
अथेन्स
इयत्ता
ख्याती
गटातील
रोहिणी
वर्तुळ
संघाची
सिंहास
कंपनीचा
देवगिरी
प्रामाण
वैविध्य
सरकारचे
साक्षात
स्पर्धक
उपविजेता
ज्याच्या
सैन्याची
रस्त्याने
महायुद्धात
वास्तव्यास
काढण्यासाठी
महिन्याच्या
यांच्याबरोबर
महाराष्ट्राची
##mp
##बेक
ऐन
दस
धड
भै
##ानिव
##िकीट
##ोहित
कुम
चोख
नफा
शृं
१७३
##्व्हे
एकुण
तिरु
पूजे
वद्य
वारे
हिचा
जलस्त
नॉर्थ
परतले
पांडे
भिक्ष
लौकिक
सायंक
सायकल
एकोणिस
सहजपणे
सायबेर
त्यावेळ
राजवाडा
विभागले
विश्राम
वेबसाईट
आयुष्यभर
चेतापेशी
जाण्याचा
पद्धतीचे
केंद्रशास
मालिकेतील
पुस्तकातील
साहित्याची
निवडणुकीमध्ये
##te
##ईड
##ale
##how
##ign
##गडा
##चून
##मुक
##िएत
##करणी
##दायी
##पुरा
##ामाग
##ैर्य
गुल
वेर
##विचार
##शाळेत
कोपर
गवता
नदीत
नांव
बव्ह
समास
##कडच्या
अभिनव
एखादे
कलिंग
गिधाड
तीनही
दत्तक
नारळी
पसरली
फ्रँक
बॉक्स
लोकसभ
वाढतो
विखुर
समजते
एवढ्या
प्रतिब
संघटित
याविषयी
स्वतःचा
काढण्यात
वर्गातील
सत्यशोधक
हिंसाचार
हॅमिल्टन
काळामध्ये
गुंतागुंत
परराष्ट्र
संस्कृतीत
तुर्कस्तान
प्रस्तावना
मुख्यमंत्र
साहित्याचा
संमेलनाध्यक्ष
##18
##गज
##वज
##ons
##धित
##भौम
##वीय
##हंस
##िझम
Sp
ओक
८९
##rans
##ंबीर
##बेटी
##ब्रू
was
कडू
झिम
नाज
##तांना
##फोर्ड
##वण्या
अशीच
दैवत
पिता
बसले
१९१३
##महाराज
##स्ट्री
कुष्ठ
गाजली
चेहरा
तिकीट
पकडून
प्रबळ
बेस्ट
सुनील
##ियामधील
उत्खनन
किंचित
चालवली
डिग्री
##ोपाध्याय
आविष्कार
दुर्बिणी
सोळाव्या
पोर्तुगाल
प्रोग्राम
पश्चिमेकडील
काँग्रेसच्या
##ame
##कता
##कूट
##खला
##मात
##रीस
##ीचा
अझ
##ther
##णुकी
##ांदी
##िवार
##ुवंश
इंट
खाड
टोळ
डॉल
पिल
##दान्त
##धारणा
##पोर्ट
##भ्रंश
##रुग्ण
##वस्ती
##िकेची
##ोराडो
कॅले
गोंड
धरणे
नंबर
नोकर
पन्ह
पेटी
प्या
बच्च
१९००
##तेसाठी
##यात्रा
World
दाभोळ
प्राग
सिंधी
सोडला
गळ्यात
घेताना
मार्फत
मेडिकल
अमेरिकी
गोळीबार
ट्रान्स
तीव्रता
पेट्रोल
यांपैकी
शहराजवळ
स्त्रोत
अलाहाबाद
उमेदवारी
कॉलोराडो
नाटकांचे
मंदिराची
अखत्यारीत
वातानुकूल
सार्वत्रिक
क्षेत्रामध्ये
##10
##ॉज
##ann
##तेत
कं
lat
उमर
कंठ
जिन
मणी
##विविध
##ास्तर
अमिर
कामत
कृषि
गरजा
गूगल
टॉवर
योजन
##्त्विक
##्युमिन
कोकणी
चक्री
पावते
पोलिओ
प्रश्
भाद्र
वर्षा
संचार
सैद्ध
हुकुम
उज्जैन
उभारले
उस्ताद
कोलकात
गोरक्ष
पाहुणे
वाढतात
##पर्यंतचे
अधिक्रु
घटस्फोट
तेंव्हा
नाटकांत
नामांकन
मागच्या
मुहम्मद
सरकारची
स्त्रीय
असण्याची
भूप्रदेश
महिलांना
विधिमंडळ
चंद्रशेखर
कादंबरीकार
किल्ल्याला
त्यापूर्वी
युद्धाच्या
राष्ट्रकुल
साहित्याचे
corporation
##ue
##ैत
##वचन
##विस
उब
कह
०७
##भद्र
##ऱ्हे
दौल
बर्
लॅब
सल्
सुग
१२५
##ystem
##ंगाने
##मित्र
##स्कृत
##ियाला
2006
एसटी
घडते
चौदा
तिथी
पणजी
भरले
भ्रम
युवक
शकता
कांदा
काश्म
कॅरिब
टाकली
तरतूद
पोलाद
पौगंड
भक्ति
भाषणे
मेहता
शेतात
संयोग
स्टील
##संस्कार
इथल्या
उपनिषद
जागृती
धूमकेत
नवव्या
परिभाष
बरेचसे
मुद्रा
संक्रम
केशवराव
जमीनदार
दांडेकर
चित्रकले
सार्वभौम
मंदिरातील
कुसुमाग्रज
अधिक्रुत्या
सामुद्रधुनी
##ुश
##als
##फेस
##समी
##ोना
गं
##काचे
##जन्म
##ढाणा
##ानें
cms
एन्
कळस
खंद
दलद
दैव
स्र
##earch
##झाबेथ
##विवाह
##ावतार
आचरण
एकदम
कुंक
त्रै
मेजर
येशू
सकार
सुरत
१९०७
##लेकिल्
अल्बम
आंतरज
घड्या
पाठ्य
माहित
शांता
संहित
सावली
##द्राबाद
##ऱ्यांचे
अमृतसर
भागाचा
सारखेच
हालचाल
काहीतरी
खोऱ्यात
परिक्रम
चळवळीतील
तिच्यावर
नाट्यगृह
नामांकित
नाटकाच्या
सूर्यमाले
प्रस्तावित
##gl
##ंजक
##घोष
##दीव
##फ्त
##यचे
##ॉइड
##्यद
Ex
छत
##गोदर
##शंकर
केप
खाँ
गाढ
पेल
हेम
१३०
##संपाद
##ांतरण
itdc
अहिं
एवढा
तेरे
नायट
पाटण
सुपी
होळी
१९०६
खर्चा
घालणे
चालतो
डहाणू
धोरणे
फारसा
बनवला
युनिक
विल्स
शेक्स
हार्म
##ोग्राफी
खगोलीय
खुल्या
तिबेटी
मानाने
यांतील
लिनक्स
सापडतो
सुरक्ष
ह्याचा
##ृष्टीतील
आल्याने
प्रसारण
बुलढाणा
मुलाखती
युक्रेन
स्टेट्स
अक्कलकोट
अग्रगण्य
घराण्यात
दुसरीकडे
विश्रांती
व्हियेतनाम
villageinfo
एकोणिसाव्या
शिक्षणाच्या
##निस
##वीन
##समज
##ांच
##ोनी
इश
##नेरी
##महाल
not
उभय
गाभ
पाथ
माँ
रोप
१६९
##ublic
##पुराण
##शीर्ष
एशिय
कट्ट
गवळी
पेंट
##गाड्या
##चिरोली
##िश्चित
किताब
गॅलिल
चालून
छिद्र
दोनदा
पुष्प
मालवण
लघुपट
वाजपे
सर्जन
सातार
त्वरित
देवालय
निळ्या
न्यूटन
पलीकडे
प्रभात
प्रवचन
मिसळून
सभोवता
सापडली
हिंदीत
हिमाचल
अर्ध्या
करतांना
पौगंडाव
मुलांचे
श्राद्ध
श्रीमती
संकल्पन
एलिझाबेथ
कॅरिबियन
गडचिरोली
ग्रामस्थ
प्रसिध्द
बालेकिल्
भविष्यात
लिहिलेला
आघाडीच्या
पाश्चात्त
पोलिसांनी
प्रतिपादन
शहरांपैकी
संक्षिप्त
समर्थांनी
हैद्राबाद
अनुक्रमाने
एकत्रितपणे
महाराजांचा
युद्धानंतर
विद्यापीठाची
##14
##डु
##ॅर
##ood
##लना
##लीव
##ोवा
ॲथ
##गंधा
##बारी
##बोली
उदर
जणू
जेन
तंज
ताड
हास
##पत्ती
##संमेल
##ांजली
##्युलर
आयात
कोरे
चौकट
वडार
सांक
साडी
१९०९
१९१५
इतकेच
टागोर
दुग्ध
बदलले
राजगड
वाराण
झाडाची
नरसिंह
फडणवीस
रक्तगट
व्हर्ज
शिर्डी
साक्षी
ह्याचे
अक्षांश
कलात्मक
गावच्या
भारतावर
मान्यवर
साडेतीन
गावानंतर
बोलीभाषा
मँचेस्टर
वेळापत्र
सांगितला
मच्छिंद्र
राजधानीचे
देण्याच्या
पुस्तकांचे
रुग्णालयात
सामान्यपणे
काव्यसंग्रह
फ्रान्सच्या
त्यानंतरच्या
मिळाल्यानंतर
विद्यापीठातील
##15
##pg
##बत
##erm
##ंजय
##जान
##देर
##ाईट
##िशा
##िशी
Ed
cl
##चालक
##पाडा
##ोलिक
New
man
अवर
इति
टंक
ठसा
ठाम
तळम
बसू
बाव
वीण
आगमन
चालक
तेजो
पोटी
मायक
मुळा
राही
शासक
सनात
१९०१
अंत्य
अनन्य
आकृती
एस्सी
कराची
गृहीत
गेट्स
पुकार
फोर्ट
म्हशी
वेळेत
शकुंत
सस्तन
सहवास
##मानुसार
अमावास
इतरत्र
कमतरता
गार्डन
चैतन्य
डेल्टा
डॉलर्स
राजाला
हातभार
अप्रत्य
नैवेद्य
पहावयास
बातम्या
भाद्रपद
विषयाचे
समाजाचा
सुधारित
##्यापर्यंत
राष्ट्रे
सौंदर्या
गोष्टींचा
समितीच्या
घराण्याच्या
तंत्रज्ञानाचा
सामन्यांमध्ये
##ts
##ya
##नर
##ृश
##iss
##फली
##ळणी
##िटर
##्चर
##र्डर
##वर्त
##ौपदी
##्रॅम
इला
खोब
गाण
फर्
लाओ
सिन
##न्सिल
blog
अद्य
कांस
क्रु
जावा
टाके
तेरा
दाजी
बनतो
माळी
सुधा
सौदी
##कीच्या
##ण्याला
असाही
करंदी
खोकला
डॉक्ट
रेशीम
हिस्ट
##विण्यास
##श्चर्या
अभिमान
अभिषेक
चिन्हे
पुरेसे
बनविले
बीजांड
मृतदेह
व्युत्
अब्दाली
पावसाचे
प्रेरित
मानल्या
वाजपेयी
विचित्र
वेदान्त
सभामंडप
आशीर्वाद
ऑक्सफर्ड
त्यातूनच
प्रमाणित
प्राणवाय
समलैंगिक
सेंद्रिय
तत्वज्ञान
प्रामाणिक
स्पर्धेची
स्पष्टपणे
कारणांमुळे
articleshow
कायद्याच्या
धर्मशास्त्र
सह्याद्रीच्या
##az
##pr
##िध
##ों
##ank
##esh
##जेट
##दाब
##षित
##साम
##ूना
##्डा
un
अा
##च्छा
##जीसी
##मुनी
##योगट
##संगत
##स्ते
चाच
चौद
नवस
बल्
१७१
##दिवशी
##सैनिक
##ोनियम
अनुष
अर्क
आघात
खोटे
गाठी
जवान
ठेवत
पंचा
##मतवादी
index
उपनदी
एवढेच
धर्मा
धारणा
पसरले
सिडनी
##विश्वास
आश्विन
कुठेही
चित्री
दाखवली
रितीने
शेक्सप
स्थायी
कार्यान
खात्यात
दर्जाचे
द्रौपदी
युरोपात
कृष्णराव
दीर्घकाळ
तत्त्वज्ञ
मिळणाऱ्या
अर्थसंकल्प
किल्ल्याचा
क्षेत्रांत
चंद्राच्या
विकासाच्या
आंध्रप्रदेश
##कू
##घन
##२१
##ech
##hed
##ंदन
##साल
##ीला
इब
खप
झो
हज
##ates
##ंजीव
##ंदरी
##झेशन
##ाटिक
##ाळकर
##ोगिक
##ोबार
अँट
आंत
केल
पिं
बाट
माझ
लेफ
शेण
##ऱ्हाड
##िंग्ज
आमटे
झुंज
दांड
पदके
पराव
मीना
लागे
साधी
हरीण
हिचे
हैदर
##जागृती
आवडते
आवर्ज
भक्कम
मोटार
लाभला
लावणे
लिव्ह
वापरत
शुभ्र
सज्जन
सासवड
हिरवी
टाकतात
डोळ्या
तुझ्या
देशाला
नृसिंह
शिकवले
शेवटची
संताजी
हिब्रू
##दिग्दर्श
कोरलेले
घेतलेला
पायाभूत
मांडतात
रोजच्या
सरकारचा
असामान्य
आदिलशाही
बांधलेली
रुक्मिणी
अंतरावरील
प्रतिकृती
सकारात्मक
महानगरपालिका
ब्रिटिशांच्या
महाराष्ट्राचा
खगोलशास्त्रज्ञ
##oll
##रेज
##वेध
De
pr
up
ऋत
सड
##गणना
##जंतू
##द्धे
##मीला
##ावार
##्रेड
Res
अस्
गात
गोक
चवी
न्य
मुब
रीत
##right
तहान
प्रग
बेगम
लोणी
स्कु
##ण्याने
##र्लिंग
एकूणच
कोरडे
जोपास
ज्युल
पत्रे
पुरंद
प्रिं
फाऊंड
मस्तक
मानून
वयोगट
सक्ती
समग्र
होम्स
##्यावरील
आल्यास
देखभाल
द्रविड
क्रमाने
टेकडीवर
तेजोमेघ
द्राक्ष
परिवर्त
परिश्रम
म्हणाला
अठराव्या
धोकादायक
नक्षीकाम
भगवानबाब
भागीदारी
एकमेकांशी
त्यावेळेस
प्रबोधिनी
सैनिकांना
आयुर्वेदिक
उत्क्रांती
लक्ष्मीबाई
शतकापर्यंत
संपूर्णपणे
इंग्लंडमधील
क्रांतिकारी
राज्याभिषेक
राहण्यासाठी
वातानुकूलित
##कम
##जू
##शः
##िण
Z
##अली
##क्ल
##जेन
##टेल
##मीर
##लेम
##ांट
##ादश
##ानं
##ीने
##यानी
उपय
कलश
निझ
मलय
वतन
१०१
##ग्राम
##वलेला
##संगीत
##ांधणी
##ापुरी
2017
अणुक
अभ्य
काजू
कारग
कॅल्
गणपत
पोपट
१९०४
##माध्यम
thumb
कर्नल
काढता
पुरोग
लोणाव
विदेश
श्रवण
सालचा
तात्या
पाहिला
बार्शी
मणिपूर
शिकागो
अर्थातच
गेल्यास
जीवनाचे
दीक्षित
निर्मात
बांग्ला
आमंत्रित
एकपात्री
घेण्याचे
प्रेमचंद
अमेरिकेचा
कार्यशाळा
पत्रकारित
व्यक्तीचे
करण्याकरिता
त्यांच्याशी
संकेतस्थळावर
गुरुत्वाकर्षण
लहानपणापासूनच
##घा
##ree
##डिय
##बाड
##लोट
##्यत
जट
मण
हड
ॲन
##able
##stit
##दासी
##माशी
##वादन
##शाखा
##्बाब
काॅ
कुश
घाब
जगद
झील
ताव
नवन
बॅन
मनो
मूक
युस
हसन
##ग्रही
अंगी
अंतः
कोंक
चेता
पिसे
शेअर
##ायच्या
##ार्जुन
गडकरी
चिंतन
बक्षी
बेकाय
रंगीत
संगमर
##ऱ्यांचा
दापोली
पब्लिक
विल्सन
संचालन
अपभ्रंश
आवर्जून
कुलगुरू
चालुक्य
नातेवाई
वाहतूकी
अधिकाधिक
किरणोत्स
चिकित्सक
जनतेच्या
जिंकल्या
प्रतिकूल
फाऊंडेशन
मातीच्या
रुपयांची
कागदपत्रे
लांबीच्या
अप्रत्यक्ष
किल्ल्याची
गुन्हेगारी
बाह्यरुग्ण
##शर
##ुभ
##ोघ
##ani
##ंगळ
##काई
##नेश
##शोभ
##ाइल
##ादे
ag
चु
०५
##here
##परिष
##विका
##िनेट
##िवली
तिम
नेर
बँड
बरख
भिज
साफ
##ाबाबत
##िस्को
चाणक
ठेऊन
तज्ञ
नसले
##िरुद्ध
##्याकडे
अथर्व
नदीची
पाणबु
लिहीत
वाचून
विजेत
अस्थिर
दिगंबर
बुद्धि
समजतात
गणितज्ञ
झिम्बाब
नावांनी
प्राधिक
वस्त्रे
district
कर्तृत्व
गांधींनी
विमानकंप
व्यवसायी
संपर्कात
सांभाळली
सायंकाळी
उद्योगपती
##ल्याप्रमाणे
indiatimes
रवींद्रनाथ
संगीताच्या
मध्यमवर्गीय
शेतकऱ्यांना
सूर्यप्रकाश
करण्यापूर्वी
राज्यांमध्ये
##25
##ोफ
##ana
##दरा
तन
भज
०९
##ions
##ural
##नाशी
##न्नी
##मिनी
##विधी
##िम्प
##िवाह
धडक
धनु
पवन
मर्
माऊ
शेड
##ंकडून
##पदाची
##ापुढे
##ालावर
##ियाना
maps
आल्प
उंबर
चौथी
जोति
तशीच
धरला
नयेत
बँका
रजनी
वसति
वीजन
सोपी
१५००
##संबंधी
आर्जे
कक्षा
कानडी
कुणबी
घेवून
जोडली
युरेन
व्याव
सय्यद
सुतार
स्वाद
##प्रकारे
##विरूद्ध
कामाला
फेरारी
मालदीव
वाटेने
सिमेंट
सिस्टम
चिंतामण
प्रथिने
बरखास्त
मुखर्जी
वनस्पति
संग्राम
सुभेदार
अनुवादित
इंजिनिअर
जैवविविध
तेराव्या
नात्याने
ॲरिस्टॉट
कार्यान्व
ठेवलेल्या
पातळीवरील
ब्रह्मदेव
समुद्राला
सैद्धांतिक
पाश्चात्त्य
व्हिक्टोरिया
##13
##MT
##इक
<
##ुवन
##ोबी
हब
##ग्या
##द्रव
##प्री
##ावणे
अलग
आगा
गोळ
चँप
टॉम
ढकल
धीर
बलि
रुई
रौप
वंज
विं
##etail
##धिष्ठ
##र्मीळ
##वणारा
##स्टेट
##स्टेर
##ॅक्सन
अप्स
कच्छ
गुढी
जागे
दक्ष
द्रो
पूरक
बनाव
बॅडम
भावन
भूषण
युती
लोकल
वाशी
##पदार्थ
##ापासुन
##्सच्या
ओबीसी
थोरले
पाळीव
सारंग
सुरेख
Intern
आर्द्र
ज्याची
दुर्गम
दुर्गा
मोर्चा
व्हॉये
Univers
परिभाषा
पाश्चिम
विभागला
समजावून
उत्सर्जन
कामाच्या
पद्धतीचा
पुरोगामी
बॅडमिंटन
याद्वारे
व्हर्जिन
संस्थेला
अमेरिकेने
नागरिकत्व
महिन्यांत
राज्यकर्त
अंधश्रद्धा
वृत्तपत्रे
क्रमांकाच्या
कोल्हापूरच्या
##pl
##खु
##नल
##ari
##ery
##ock
##इंट
##जोग
##फान
##सिड
##िअन
##ोळा
On
सॉ
##lect
##टीचे
##ब्जा
##ळीची
##ातला
##ोक्र
आतड
कोह
गाथ
चुन
जंज
जरा
तरच
पॅन
महल
सुध
हळू
##देरिआ
##शस्वी
##शिल्प
##स्कोप
##ास्पद
##ाहरित
have
अत्र
कामा
चढून
तमाश
निळा
पेंड
बोरी
योनी
स्टॅ
##करबर्ग
##प्रसाद
##ऱ्याची
##ऱ्याचे
##ुद्दीन
अपहरण
कर्जत
ख्यात
चायना
दिवाण
नेमले
परिसं
पारशी
पेडणे
बायको
##निर्मित
##वणाऱ्या
अर्धवट
आधारीत
कक्षेत
तक्रार
निवेदन
मुलाला
शक्यतो
गोंदिया
गोव्यात
मेलबर्न
व्याघ्र
साहाय्य
घालण्यात
पुण्याला
राहिलेले
व्हॉयेजर
सेल्सियस
त्याचवेळी
धावणाऱ्या
प्रतिबिंब
रानभाज्या
व्यवसायात
स्कुदेरिआ
हस्तक्षेप
पत्रकारिता
mapsofindia
##ase
##eng
##ort
##ताग
##संत
##हेत
##ामक
फण
##जेला
##ण्णा
##पूजा
##ास्व
##्विन
jpg
जगत
दोर
पाई
पिट
विभ
##क्टिक
##नाकडे
##वायचा
##संपदा
कळते
गोरख
तुकड
नीती
बदली
रांज
१९०८
##दृष्टी
##स्थाने
अनुरा
आरोपी
करवून
तळाशी
पिंपळ
भगिनी
मनमाड
विनाश
श्वसन
स्वार
हवेली
गैरसमज
घोरपडे
डिझाईन
नसलेले
नेताजी
पाठीवर
बालाजी
महाप्र
समर्थक
##ेश्वराचे
आकाशगंग
आणण्यात
आम्हाला
चिरंजीव
जीवनाचा
दुर्मीळ
पसरलेले
लांबीची
वाराणसी
शिखरावर
परमेश्वर
लीगमध्ये
कारकीर्दीत
जिल्ह्यांत
पौर्णिमेला
विधानसभेचे
सर्वश्रेष्ठ
संस्कृतमध्ये
मिळविण्यासाठी
बाबासाहेबांच्या
विद्यार्थ्यांनी
##12
##own
##कीम
##गूळ
##जीत
##झिल
##मुळ
##हीद
##िपद
##ोरम
Cl
am
एप
टॅ
मऊ
##कोजी
##गणित
##णेने
##नियम
##वितो
##श्यप
##सीआय
##ामणी
##ाहार
##ॅडमी
##्वाक
978
all
अवे
केम
कौल
पिश
फते
मोग
वसु
##ement
##press
##पणाने
##्टनंट
अवतर
आणणे
कपाळ
खटाव
गांध
गाथा
धुरा
धोंड
नविन
पांग
पाटल
प्री
मद्य
योगी
रूढी
वराह
सांध
##ंब्रिज
##द्रव्य
##्यांसह
आठवडे
कॅम्प
खंडोब
ठरवून
त्रिम
प्रेष
भावंड
रेस्ट
सोडली
इंजिने
झाडाला
तीरावर
पुजारी
भेदभाव
शिफारस
अस्वस्थ
डेव्हलप
दारिद्र
दुरुस्त
फांद्या
बाबुराव
विख्यात
समुद्री
National
असतानाही
घडलेल्या
मिळाल्या
व्यक्तीस
शाळेच्या
आत्महत्या
चक्रवर्ती
चळवळीच्या
वेळापत्रक
पाठ्यपुस्त
स्पर्धेतील
पाकिस्तानने
पेशव्यांच्या
व्यक्तींच्या
##40
##co
⇨
##ict
##ंसह
##ंसा
##चीच
##हाण
##हाळ
##ापा
##िओप
##ियत
##िस्
##्सल
Ph
Pl
आॅ
##दिनी
##र्जर
उपा
गुह
दृढ
राऊ
शेल
##ंमधून
##भाषिक
##वर्मन
##स्थळे
2005
Comm
अपार
अव्य
कातळ
जाने
तोफा
नीति
बनार
मजूर
रहीम
रूपे
वॉटर
सजाव
समित
सहका
हिमन
##विस्तर
##ाविषयक
अग्नि
एक्स्
कमानी
कोयना
तंबाख
बोलणे
सातपु
सारखा
हरिहर
##मध्येही
##ऱ्यातील
अप्रति
उत्पन्
उभारली
जोडीने
टोकाला
बनवतात
बरोबरच
भाऊराव
महासंघ
वागणूक
हंगेरी
अयशस्वी
घेतलेली
पुरोहित
मंडळाची
मुंबईचे
विसर्जन
स्ट्रीट
स्थानके
ह्यांची
अंतर्भाव
खेळपट्टी
##्यांपर्यंत
देशामध्ये
प्रायोगिक
निसर्गरम्य
व्यंगचित्र
व्यवस्थापक
आत्तापर्यंत
कवितासंग्रह
वीजनिर्मिती
ख्रिस्तपूर्व
मराठवाड्यातील
##खट
##थु
##लग
##सट
##्श
##amp
##उलट
##दोष
##पुढ
##वंश
##सिल
##ारू
se
हट
##कर्म
##निर्
##न्सी
##रचने
##रीचा
कोष
जॅक
नीर
भूक
याम
लिब
शहा
हिन
१२१
##धुनिक
##रक्षक
##्वस्त
2016
आस्व
कस्त
कुर्
गोडी
जागर
नीरा
न्यु
भाले
मशीद
माथे
मानक
सदैव
समुद
सेमी
अंकात
खुद्द
गोपाल
चालूच
दहावी
भगवद्
मनाला
रहस्य
सिव्ह
##गडाच्या
##तेनुसार
दाखवला
प्रदीप
मायकेल
राजवाड
वंशाचे
व्यतीत
अमिराती
कॅलेंडर
नोंदवले
यांनीही
सेवानिव
उद्यानात
जेणेकरून
त्यावरील
दशकाच्या
परीक्षेत
पांढर्या
लेफ्टनंट
व्यंकटेश
शांताराम
नियमितपणे
पृथ्वीराज
शुद्धीकरण
संगमेश्वर
गावांमध्ये
प्रक्षेपित
आजूबाजूच्या
मार्क्सवादी
शस्त्रक्रिया
##70
##igh
##ट्र
##नने
##पाळ
##साध
Co
वो
०४
##गृहे
##जुरी
##डोजी
##नीचा
##भावी
##र्डे
##ांबर
एकी
किड
गेम
चिल
जीन
मगध
मॅग
शेळ
शैव
##मांसा
##मासिक
##विभाग
##्वर्ड
ऑर्ग
कोरड
गुगल
तरूण
पहात
बलाढ
बळकट
यक्ष
लुईस
वाटे
##stitut
ऑपरेट
ग्लास
नास्त
पोटात
बँकेत
भारतर
मंदीर
##निमित्त
अजिंठा
आक्षेप
गोल्डन
चालवले
जिवाणू
मुलाखत
शब्दात
सोप्या
स्तुती
स्फटिक
जर्मनीत
ठेवलेले
निकोबार
बंदिस्त
सविस्तर
स्पोर्ट
केंब्रिज
भालचंद्र
भूतपूर्व
येण्याची
वाचकांना
श्रीकांत
चित्रीकरण
त्याबद्दल
भाषेमध्ये
शतकामध्ये
सांगण्यात
आयुष्यातील
चित्रपटाने
जीवनसत्त्व
त्यांच्याच
ध्वनिमुद्र
केंद्रशासित
चित्रपटांचे
पहिल्यांदाच
कार्यकर्त्या
केंद्रस्थानी
जिल्ह्यामधील
क्षेत्रफळाच्या
##19
##30
##38
##अभ
##ज्य
##णाम
##पाड
##वळा
##ाभि
Ro
मट
रय
##आयटी
##प्रद
##ब्बर
##ाकां
##ियार
##ियास
int
उंट
उंद
कपड
डॅन
देठ
पचन
फुफ
##्व्हर
आर्म
कारक
खांड
चिखल
ठरेल
पडता
मुदत
मोबा
रकमे
वाटप
वादक
सदिश
##्युनिक
क्रूर
चिमणी
निष्ठ
पाडली
बनतात
मूलतः
सेन्स
हुशार
##साहित्य
archae
किरकोळ
कॅन्सर
खेळवला
त्याचे
दागिने
महोत्स
व्हॅली
हेमाडप
गुणवत्त
पुनरुज्
मार्टिन
मिळविली
व्हायला
शहरातून
चक्रीवाद
डिव्हिजन
भारतातून
मिळालेला
मिळालेली
ठेवण्याची
हत्याकांड
झिम्बाब्वे
महिलांच्या
राष्ट्रांनी
साम्राज्यात
महायुद्धाच्या
##यो
##way
##ंजर
##ंजे
##ंटे
##कथे
##खात
##झाई
##िकस
29
कच
नळ
##ages
##form
##reat
##चाही
##माशा
GMT
दमट
बां
मनु
लाई
शूर
##ऊर्जा
##मागील
##ूर्ती
इष्ट
झोपड
दाते
पतंग
पशुप
फेलो
मुंड
मॅसे
विंच
वेतन
##करणाचा
##क्साइड
##ग्रेसर
कल्पन
कापून
गिरीश
गुन्ह
ड्राय
निर्द
फायदे
ब्रँड
भाग्य
म्हणू
राशीत
शुष्क
हद्दी
##्यावरून
कादंबर
कार्ये
गोव्या
दौर्या
बनलेली
बलाढ्य
मोबाइल
मोहिनी
रेणुका
वंजारी
वापरुन
सदानंद
सुपारी
स्थानी
अग्रेसर
गुणकारी
तुकडोजी
देशांना
मागण्या
मालमत्त
येण्यास
राजगुरू
वर्षाचे
सदाहरित
साकारली
हरियाणा
##्युमिनियम
आफ्रिकेत
कार्याचा
प्राप्ती
साहाय्यक
##शास्त्राचे
आवृत्त्या
इंडस्ट्री
नगरपालिका
महादेवाचे
व्यक्तीने
प्रेक्षणीय
राष्ट्रवाद
आत्मविश्वास
बनवण्यासाठी
राज्यांच्या
साम्राज्याने
##रम
·
##ईंट
##बाह
चत
##किंग
##तकमी
##रेकर
##लोकन
##िलकर
##्गुन
उपज
घडत
पिर
फास
बोड
माफ
१०८
११०
काली
क्रो
जहाल
झाडी
बघून
मुभा
मेहन
१८९७
##क्रांत
##वरच्या
अधोरे
आणतात
एअरबस
गुवाह
मशिदी
स्मिथ
##प्रसंगी
##ावस्थेत
##्यांकडे
अल्पसं
किनारी
पाठलाग
प्रथिन
मात्रा
व्यंजन
सत्कार
साहजिक
कमीतकमी
काढल्या
जिजाबाई
देवाणघे
निर्मूल
पठारावर
यांमुळे
लागणारी
विमानात
सिद्धां
आर्जेन्ट
कोलंबिया
यांत्रिक
अनुषंगाने
उद्ध्वस्त
चाललेल्या
संस्थानिक
पुस्तकांची
प्रभावशाली
पाश्चिमात्य
महामार्गावर
विमानवाहतूक
संपल्यानंतर
##सक
##ica
##झेल
##तोड
##सीन
##ाळू
##ुंड
##्ने
ro
आब
सई
##किना
##त्नी
##बोले
##सूची
##हानी
##ियात
##्वेष
अभय
एफ१
जखम
टिट
ठरत
तिघ
त्स
दरी
सेब
१०५
१५९
३५०
##glish
##कर्ता
##गृहात
##द्रुक
##भिमुख
कामी
खेडे
गायी
घुमट
टेबल
दिग्
धबधब
मोबद
वृंद
शहीद
शेतक
शोभा
सतरा
१८८०
१८९०
##ऱ्याचा
which
आठवले
उतरले
छावणी
टेस्ट
ट्राय
तितके
दर्जे
निझाम
पुराव
मुबलक
मोडून
राहता
##खालोखाल
अतिसार
गावकरी
जाण्या
नागराज
पदविका
ह्याने
१७व्या
अप्रतिम
जबरदस्त
पटकावले
बाहेरून
लागणारे
शरीरावर
संगीतात
आज्ञावली
चाळीसगाव
जर्मनीने
विश्वस्त
हुतात्मा
आशियामधील
इंग्लंडला
काढलेल्या
प्रदेशांत
शिक्षणाचे
जागतिकीकरण
मृत्युमुखी
कन्याकुमारी
जीर्णोद्धार
बुद्धांच्या
महाभारतातील
राज्यस्तरीय
याव्यतिरिक्त
##ces
##एनए
##निर
##भूळ
##वाक
##विच
##शिर
##ूपी
40
99
Bh
जब
फी
मळ
##ंट्स
##गीता
##ण्यक
##पूजन
##भूषा
##यावत
##ायणी
##ीतरी
खबर
गॅस
ढोक
तशा
विव
१२९
##ल्हास
##स्पती
अठरा
काना
खाणे
गुरव
चंदन
चातु
ठेवा
प्रक
फाटा
भरीव
मासा
राणे
लेडी
वैकु
१८९६
५०००
##णेच्या
##विलेली
आर्थर
इराणी
उपाधी
करंडक
खरोखर
तासात
तेवढे
बास्क
भाकरी
भोवता
मांजर
रेनगन
विजया
संतुल
सांता
सुशोभ
कल्पने
कुणाला
पडलेला
बोलतात
विधेयक
शिवराम
सापडला
सुधारक
ह्याची
खेळणारा
चित्रित
तेलंगणा
दीनानाथ
संघातील
साधारणत
इस्लामिक
टिळकांनी
तुळजापूर
बनलेल्या
बाजूच्या
भारतरत्न
लेखकांनी
दिल्लीतील
याप्रमाणे
व्हायोलिन
विदर्भातील
##oci
##घाय
##मित
##लगत
##ूनी
Re
do
##मधले
##साइट
##िप्ट
##्यता
Man
जेल
थाट
पंप
बिझ
बॅट
लेप
सत्
सरह
##ograp
##क्रमी
##णाबाई
##यंत्र
##ेमुळे
अंमल
अलिक
इकॉन
ऐक्य
कबीर
कांग
गद्य
ताली
तेही
दांप
नेऊन
परळी
पर्ण
बदाम
##ंबद्दल
अर्जु
आर्मी
कोर्स
नाजूक
भेटले
मिळणे
सोबतच
होताच
आर्ट्स
आस्वाद
उल्हास
गुर्जर
जाणवते
परिधान
प्रभाग
भूगर्भ
मुद्रण
येताना
येथेही
लोखंडी
समीक्ष
सैनिकी
##ांबरोबरच
कितीतरी
गोडबोले
जमिनीची
पुरंदरे
फाल्गुन
भगतसिंग
महाराजा
समाजाने
दर्जेदार
बांधल्या
सैन्याचा
आपल्याकडे
आल्यामुळे
गोविंदराव
चालणाऱ्या
मानवाच्या
राजांच्या
लग्नानंतर
सैनिकांनी
अत्याधुनिक
त्यापेक्षा
दुर्लक्षित
पृष्ठभागावर
पुस्तकामध्ये
विद्यापीठाने
विश्वविद्यालय
न्हाणीघराशिवाय
##मै
##रि
##ॅथ
i
##ंबे
##भैर
ज़
बख
सॅ
०६
##indu
##डीची
##ब्रह
##राणा
##स्ली
केन
क्य
चिख
थेर
धडा
नाल
बीच
##जयंती
##वायची
2004
this
ज्यु
देवर
निती
मापन
माले
मुनी
युरो
रियो
सरोज
##करणाची
##रात्री
##विणारे
##स्ट्रो
गावकऱ
जर्सी
जायला
तारखे
नकाशा
नाताळ
पसरला
फील्ड
म्युझ
म्युन
शाश्व
शिरूर
समोरच
साखरे
ह्यां
##लेटिक्स
ऑनलाइन
कॅमेरा
कोतवाल
तानाजी
दळणवळण
दिग्गज
पुर्वी
महायान
मोजमाप
सेनानी
##ानिमित्त
गायत्री
दासोपंत
धावणारी
नदीवरील
बोलावून
भिंतीवर
मोरोपंत
वाड्यात
व्याख्य
शब्दांत
अनेकांना
उरलेल्या
कुष्ठरोग
चीनमध्ये
नावाखाली
घेतल्यावर
जपानमध्ये
धर्मग्रंथ
पुस्तकाची
भुवनेश्वर
महाभारतात
संपल्यावर
पर्यटकांना
पेशव्यांनी
बांग्लादेश
भारतातल्या
विद्यालयात
विषयांवरील
सर्वांच्या
व्यक्तिरेखा
कार्यक्रमाचे
त्यांच्याकडून
त्यांच्यासाठी
महायुद्धानंतर
राष्ट्रांच्या
##con
##enn
##ime
##झीर
##दरी
##परी
##ाइट
##ाईड
##ोपन
##ोमध
Bl
MH
kh
उस
नल
बज
##एवढा
##रामर
##ल्ले
##ोगाई
##ोत्त
has
अंट
ठुम
तळी
दाल
सुस
##पक्षी
##फॉर्म
##विकार
##िल्ले
##ैवाने
असणा
असें
आषाढ
कनेक
खुणा
घडली
चिली
चौथे
दौंड
द्वै
नैर्
पंचम
पुनः
बिला
भाडे
मिमी
लीळा
विरळ
होउन
२०२०
##उद्दीन
##ऱ्याने
##ूपासून
##ेपासून
Press
चिंता
पाडाव
पेशवा
मधमाश
मोकळे
लिलाव
सुगंध
##रापासून
अग्रणी
अजरामर
उत्सुक
कानपूर
टोकियो
देवाला
भूमिगत
##ाविज्ञान
content
अनुसरून
ओलांडून
घ्यायला
चळवळीचा
जोडणारा
ठेवल्या
नियोजित
महेंद्र
माथेरान
शरीराचे
सिंहासन
सिस्टिम
ईशान्येस
कार्याची
प्रवर्तक
रेल्वेने
शाकाहारी
संघटनेने
संपादकीय
संप्रेरक
हार्वर्ड
ज्यांच्या
maharashtr
प्रशिक्षित
फेरारीसाठी
स्वरूपातील
पूर्वीपासून
व्यक्तिमत्व
स्त्रियांचा
दृष्टिकोनातून
ऑस्ट्रेलियाच्या
##ंन
z
##rib
##काठ
##केश
##हाड
##ारक
##िवस
##्वळ
80
es
sc
गढ
दड
रॅ
##ower
##कुंड
##त्वे
##रणार
##ांचं
##ावीस
nic
आलं
कवच
खोप
घोळ
चुल
नोट
भुज
मका
हुस
##र्ध्व
##ापट्ट
आकडा
इमाम
एक्झ
केशर
गुंफ
टेंभ
बहाम
मोडक
लढले
लेणे
वरचा
शंतन
सिंद
सिक्
सोना
##ळ्याची
##व्यापी
##ागुच्छ
##ास्थान
books
ऐश्वर
ओरिसा
थांबा
पायदळ
बैठकी
ब्रिज
मारला
वाटून
संमती
सूचित
स्टॉक
##प्रकल्प
##लक्ष्मी
अलिप्त
अलिबाग
उपजाती
केव्हा
कोरियन
पाठवून
पिवळसर
पुढारी
प्रमोद
बँकिंग
भाषेची
विल्हे
दोघांनी
धूमकेतू
बनवलेले
मंडळाने
मुलींना
रविवारी
लेखकाने
सीताराम
जीवनशैली
यांसारखे
वर्दळीचा
सतराव्या
खांद्यावर
कार्यासाठी
नागपूरच्या
पर्यटनस्थळ
बाबासाहेबांनी
##ie
##yn
##चौ
##िऑ
##२५
$
##ugh
##ब्ब
##ितो
##ुणी
##ेशा
60
Wh
कद
ठो
##अर्स
##चुंब
##बीआय
##रीला
##रेने
##स्का
##ावरच
##िग्र
##्रेस
##्सिल
आखा
आयन
ऋतु
कॅब
घसर
चाय
बिट
मिट
##वताना
अफाट
असंत
आकडे
कपिल
कर्क
काकड
काणे
घातक
दोहो
धंदा
पुरण
ब्रे
भद्र
यानी
सभेत
हिची
३०००
##ात्म्य
कुराण
कॉलनी
खोलवर
त्रिश
दलदली
पकडले
प्रणय
म्हंट
लाभली
संकुल
आयपीएल
करमणूक
चेतासं
तालुके
पहिलाच
पुष्कर
पूर्णा
लेखनात
आढळणारा
करंदीकर
कॅथोलिक
क्वचितच
झाडांची
टर्मिनल
तिथल्या
प्रेषित
शकुंतला
समुद्रम
स्मार्ट
##ांमध्येही
अधोरेखित
अभ्यासात
नावानेही
बनवण्यात
कर्नाटकात
ग्रंथांचे
पावसाच्या
प्रतिष्ठा
भाषांतरित
University
इलेक्ट्रिक
गेल्यामुळे
प्रवाशांना
##शास्त्राच्या
कार्यान्वित
दरम्यानच्या
फ्रान्समधील
##yp
##धे
##पै
##शृ
##ौल
q
##000
##one
##जीर
##भान
##भोग
##राद
##ॉफी
##्ते
45
##ited
##line
##दादा
##दाने
##बहाद
##योगे
##हिणी
##ारूप
##िटरी
##ॉन्स
tra
अवै
उपस
चंप
जोध
दिम
भुस
##पदाचा
##हारिक
चारा
टपाल
तिखट
थंडी
थेंब
बोंड
ब्लू
यावा
रचला
सेवक
हळदी
हाउस
१८९२
##ाखालील
##ित्त्व
##िमार्ग
##ृत्त्व
अरुंद
आगरकर
उद्धव
कास्ट
खारफु
प्रता
बुरशी
मोठमो
रक्षक
वर्मा
वैशाख
सयाजी
सुपीक
सुवास
सूक्त
##विरोधात
##स्लाव्ह
उत्तेज
काळातच
किनारा
जाणकार
दासबोध
नसताना
निगडीत
निघाली
पाणलोट
पुरेसा
बँकेचे
भाषेला
महापौर
माडगूळ
रहिवाश
उपविभाग
परंपरेत
ब्राझिल
विभागीय
श्रीनगर
आग्नेयेस
लोकवस्ती
सर्वांगी
##पर्यंतच्या
कोरलेल्या
खेळाडूंना
जर्मनीतील
तपश्चर्या
पसरलेल्या
प्रतिज्ञा
विषयावरील
स्वरूपाचा
कार्यालयात
राष्ट्रकूट
बुद्धिमत्ता
अभ्यासक्रमात
इंग्रजीमध्ये
संस्कृतीच्या
##ild
##int
##riv
##गडे
##गोर
##रेन
##ांन
##िचे
##्ना
48
०१
##गामी
##व्हल
##्मेर
##्रिद
Par
Vol
ऐकू
कनक
खेर
पाग
पोष
बळक
मता
मीर
रहा
रात
लूट
विह
हनु
हलक
##योजना
##लनालय
##वस्तू
##वाक्य
##व्हिल
##समवेत
##्युअल
##्युटर
अंबर
अतिन
अल्ट
आयएस
आयटी
कोंढ
खाणी
पल्ल
फायर
संबध
##मानाने
##संपादक
about
अपत्य
क्षणी
ज्वलन
दिसली
पाठपु
पाडून
पार्थ
पिवळट
लांबट
संतोष
##िन्स्टन
##्यपूर्ण
##्याकडून
अंमलात
जीवाणू
टाईम्स
त्यातच
दयानंद
देवळात
प्लूटो
भटक्या
मुद्दे
मोलाची
योजनेत
रंगनाथ
साऱ्या
अलीकडील
घराच्या
चाचण्या
ज्यांचे
दरबारात
पोहोचली
मोकळ्या
शाळेतील
शिक्षणा
साहजिकच
अभिप्रेत
माणसांना
मुलाच्या
रक्तातील
विभागाने
संस्थेचा
सांभाळले
ऑस्ट्रियन
प्राधिकरण
बंगालमधील
##शास्त्रातील
छायाचित्रे
मराठ्यांचे
न्यायमूर्ती
संस्थेतर्फे
स्त्रियांनी
हिमोग्लोबिन
कार्यक्षेत्र
स्वातंत्र्यवीर
##17
##अन
##खळ
##चण
##सई
##ise
##war
##ग्ल
##भुज
##िमय
Or
खळ
रख
षट
##प्पट
##ानगर
##ेतिक
##ोलकर
अनो
अपर
उषा
पाउ
भुम
##भ्रमण
##स्मरण
काटे
दोनच
पँथर
माथा
मानत
संभव
सुसं
हत्त
हाही
##ऱ्याला
कमांड
क्रॉस
क्षार
ख्मेर
गुहेत
ग्राफ
तिथेच
दर्या
देखिल
प्रास
मनावर
यूरोप
विशाख
वेधून
##ंद्वारे
system
उभारला
ज्योती
त्रुटी
बघितले
बहादूर
भुईकोट
रेखांश
वेश्या
वैशाली
शर्यती
संसदीय
सिंहगड
सुट्टी
आघाडीवर
त्यातही
पुराणात
बुद्रुक
माद्रिद
विरूद्ध
शब्दाचे
शिलाहार
शिवसेने
सद्गुरू
##ल्यांच्या
धर्मांतर
नैर्ऋत्य
पद्मावती
पहिल्याच
बऱ्याचदा
राजतंत्र
राज्यसभे
विद्यापी
संगीताची
सदस्यत्व
##शास्त्राचा
कायद्याची
गुलामगिरी
घराण्याची
तुरुंगवास
स्वामींनी
तारकागुच्छ
व्यावहारिक
आफ्रिकेच्या
मृत्यूपर्यंत
##du
##जि
##िऴ
##४०
##ink
##ins
##तूर
##रने
##ामे
##्तन
Ac
खण
मक
मस
##ines
##irst
##ward
##म्मा
##िराव
##िलाय
##ेक्ट
##्युत
For
one
अती
जडण
झळक
धडप
नाह
नौद
फॅस
वेड
सरस
१५७
##्यासह
2001
एकमत
डांग
फर्न
फ्ले
बीटा
रेखा
समार
आयफोन
कमिटी
कश्यप
कात्र
केतकर
छापून
जत्रा
डायरे
तमाशा
तालिब
दिसला
धाडसी
नियमन
पर्वा
पिल्ल
फ्लोर
मधोमध
याउलट
राहात
वाढून
श्वेत
घरच्या
डोंगरी
पत्रात
पोतदार
प्रहार
बंधारा
मानकरी
मोसमात
युक्ति
राहावे
वाढवून
सप्ताह
सांगीत
अतिरेकी
उद्वाहक
गर्भपात
चळवळीला
चांगदेव
दिसणारे
पानांचा
पोहोचतो
प्रेमात
संगणकीय
संवत्सर
आनंदीबाई
कान्होजी
त्यांनीच
शेतीच्या
सूर्योदय
पुस्तकाचा
संचालनालय
गांधींच्या
महत्वपूर्ण
समुद्रकिना
सरकारमध्ये
सापडलेल्या
वर्षापूर्वी
सोसायटीच्या
##90
##ss
##आन
##यल
##eop
##झोन
##डॅम
##माय
##लान
##वीण
##ापद
कझ
लग
##निधी
##वावा
per
कोथ
कोस
पॅट
मॉड
यजु
येर
सॅम
हजे
हेड
##करीता
##मुळेच
##वेस्ट
This
आईने
इक्व
उपनग
करुण
कारा
गिरि
दानव
धनगर
पगार
पॉवर
बाली
बाष्
बोटी
राजम
वसूल
शिंद
सलीम
सूफी
हजरत
ह्यू
१८६७
१८९८
##गांवकर
अडथळे
आजकाल
ओडिशा
करिअर
कल्या
केव्ह
नमुने
निवार
पॉईंट
पोशाख
प्रेत
बहुदा
मुकणे
राहणी
लेखणी
वेरूळ
शूद्र
समभाग
अवस्थे
आदित्य
आशियात
एनजीसी
काव्या
छोटेसे
त्याना
पहिलीच
बराचसा
मुलभूत
रामभाऊ
वैकुंठ
अग्रलेख
इत्यादि
उड्डाणे
खेड्यात
तिच्यात
थोड्याच
देशांचा
नास्तिक
पसरलेला
प्रवाशी
बोलीभाष
मायक्रो
मालकीची
राजापूर
संघांना
सामावून
अद्ययावत
ख्यातनाम
गुवाहाटी
तांबड्या
धावपट्टी
पद्धतीची
परिसंवाद
फेरीसाठी
राजेशाही
विकसनशील
शुक्रवार
संघाकडून
नारायणराव
प्रतिबंधक
व्यवहारात
सुरवातीला
सूर्यास्त
न्हाणीघरासह
प्रकरणामध्ये
International
म्हणण्यानुसार
##28
##60
##खत
##ali
##ऐवज
##डित
##पदे
##पूज
##वधी
##सील
##ुति
35
Pr
im
धृ
बढ
##ंधीय
##जीवी
##तिथी
##मांड
##रत्न
##र्धी
##वरही
##ोबतच
असम
जमी
तैन
थाई
पाम
पीप
मुश
लवण
लाज
सिय
हरण
##अगोदर
##जींनी
##न्याय
##ुसलेम
##्यानी
more
अनाथ
कमाई
किंब
गणले
जगदी
टायट
धावत
पाईप
पुंज
मंदी
लेखी
वरचे
वादन
वाळू
साधे
हौशी
१८९४
##नीच्या
##वाड्या
कब्जा
कहाणी
कुवेत
कैलास
गार्ड
गुच्छ
पटवून
पत्ता
पिवळी
बसवून
भाप्र
भास्क
मथुरा
विषयी
शरणाग
शैलीत
सल्तन
साधला
स्लॅम
ह्यात
##निर्देश
##िंगच्या
ऑनलाईन
कॉमर्स
गुंडाळ
टिकवून
पडल्या
पुनराव
बैठकीत
भीमसेन
मध्येच
मिळणार
मीडिया
मैदानी
मोलाचे
लसीकरण
उपयोगात
पत्नीचे
पाथर्डी
बास्केट
मैदानात
मोजक्या
लोकसभेत
वन्यजीव
वाहणारी
संजीवनी
सिस्टीम
पराक्रमी
प्रवासात
राहण्यास
वर्षातून
विद्रोही
सर्वांनी
##ेश्वराच्या
districts
इंद्रायणी
कारणास्तव
कार्यक्षम
जन्मस्थान
मूलद्रव्य
सर्वांगीण
सुभाषबाबू
स्वरूपाची
अस्तित्त्व
देशांतर्गत
प्रयोगशाळा
युरोपमध्ये
साहित्यकृती
यांच्यामध्ये
लहानपणापासून
##dh
##तं
##सच
##itt
##rop
##चीत
##टीस
##नाग
##फेल
##िडा
##ोधन
गॉ
##स्की
##स्या
##ितात
अधी
अनै
उमा
छाव
झुल
झेप
तर्
दाह
पिठ
फॉल
मदर
मसु
माओ
राठ
लोट
शिं
सीर
९००
##eared
##inist
##ंदिवस
##मेन्ट
##विकास
##ातूनच
##ुमदार
##ोळ्या
2000
आजचे
क्षय
जनुक
टोळी
डोंब
नूतन
फर्म
बाबत
वक्र
वडोद
वारा
शर्म
१८००
१८८५
##कलाकार
##प्रसार
इस्रो
उचलून
कट्टर
कुंकू
खिडकी
गोत्र
चालला
जवळून
निरोप
पर्यट
पायरी
ब्रॉड
मंगला
युगात
स्वाभ
##ेक्षाही
अवॉर्ड
कलकत्त
खंडोबा
गोड्या
दिवंगत
निव्वळ
पाहिली
पीपल्स
मंजुरी
महादजी
म्हणले
यंत्रे
सहाय्य
१६व्या
##त्याच्या
##िनिर्वाण
आनंदाने
कोरड्या
धोक्यात
पोहोचला
फुलांचा
बनवलेली
यासारखे
वाटाघाट
समृद्धी
साथीदार
सैन्यदल
जेरुसलेम
टेनिसपटू
पुरातत्व
बंधनकारक
भाषांतील
महाराष्ट
मूर्तीची
विषयातील
अभिव्यक्त
उपराष्ट्र
त्रैमासिक
नकारात्मक
नायट्रोजन
पर्यायाने
भगवानबाबा
मराठीच्या
मॅनेजमेंट
युक्तिवाद
विचारांची
व्यक्तीची
शिवाजीराज
संगीतातील
सुशिक्षित
काँग्रेसने
ग्रंथाच्या
दिल्यानंतर
दिवसांच्या
स्कूलमध्ये
स्त्रीच्या
पुरस्काराचे
संस्थांच्या
हिमालयाच्या
क्षेत्राच्या
चित्रपटसृष्टीत
##एक
##erg
##गेर
##तीस
##दिक
##नाल
##मेट
##शेव
sn
##खाडी
##ज्यो
##ड्डी
##तीवर
##रेषा
##ष्मा
अझर
अवध
अॅड
आकु
खाऊ
खोर
गौत
चकम
निळ
परग
मृद
१५३
##ember
##ities
##तेदार
##िमीटर
कतार
केळी
गरिब
जोती
झाशी
ट्री
बुलब
भरतो
मज्ज
येउन
लोकर
१८६०
##र्निंग
##ादेखील
other
कुंती
नाहीं
बच्चन
मुरली
येताच
वार्त
वेंकट
सरदेश
साधून
##नापासून
##स्वरूपी
आकारात
आण्विक
कारवाय
किंमती
चालतात
तंजावर
तांदुळ
तेजस्व
दागिना
नेपाळी
पंचवीस
मानाचे
मुक्ता
मोहिते
योद्धा
रेडियो
शांघाय
हनुमंत
ह्याला
अजिंक्य
इतरांना
कारावास
कॅबिनेट
गणपतीची
दत्ताजी
दाखवतात
नाकारले
निर्वाण
बोलल्या
मोहिमेत
वांद्रे
शरीराला
शस्त्रे
शासनाचे
संरक्षक
##ाप्रमाणेच
केल्याचा
डॉक्टरेट
तरुणांना
पद्मभूषण
मंदिराला
रिझर्व्ह
वक्तृत्व
वर्षातील
कॉलेजमधून
खेळाडूंनी
दिवसाच्या
देशांमधील
पाठपुरावा
पानांच्या
प्रोजेक्ट
रूपांतरित
सरकारकडून
सर्वसामान
ॲरिस्टॉटल
पिण्याच्या
बेकायदेशीर
रेल्वेगाडी
आंबेडकरांचे
चित्रपटांना
पल्ल्याच्या
त्यांच्यातील
##८०
°
##ala
##कुस
##झरी
##द्भ
##बीज
##बुव
##ासे
##ुने
##ूरी
##ोदा
ad
डु
हस
##छत्र
##णाचे
##पुरे
##पोषण
##र्थी
##िबंध
Air
Jan
its
mov
par
अका
कथक
घार
दफन
धूळ
नही
मरी
मेज
वधू
विड
संथ
सरक
सही
१४९
##कर्मी
##डच्या
##दर्शी
##देसाई
##्टर्स
Cent
अपरा
उग्र
एड्स
खडसे
ग्रा
तंतु
तापी
दशके
धरली
पानग
फतेह
भावी
भिडे
वितळ
संमत
सरोव
१२००
##वादाचा
##स्त्री
##ांतरीत
अकोले
अस्सल
करुणा
दुर्य
रेल्व
वाचले
व्यसन
शोधात
##कारांनी
##ाबरोबरच
अयोग्य
आणल्या
आत्मकथ
आपत्ती
ओस्मान
खंडाळा
घेणारा
ठरल्या
पात्रे
मिळावा
मिळावे
सिद्दी
स्क्वे
१८व्या
आश्वासन
कीर्तने
डेमोक्र
बाजूंना
भाप्रवे
माणसाने
रामानंद
विजयनगर
समजल्या
सिक्कीम
स्वयंभू
स्वाक्ष
स्वाभाव
हिंगोली
##ण्यासारखे
उंचीच्या
उपस्थिती
देशांतील
निरीक्षक
परिक्रमा
रावसाहेब
शिक्षिका
संबोधतात
कायद्याने
गोरक्षनाथ
तुलनात्मक
बुद्धांनी
अध्यक्षपदी
क्षेत्राची
भविष्यातील
मध्यरात्री
महिन्यातील
महिलांसाठी
व्यक्तींची
समाजसुधारक
टाळण्यासाठी
भाषाविज्ञान
रस्त्याच्या
वर्षांमध्ये
चित्रपटांच्या
##हत
##ton
##ईची
##चरल
##टीत
##थेन
##नाद
##बिल
##रूम
##िवा
##ुता
07
34
गद
सट
०३
##tain
##पन्न
##वारे
Ind
act
rel
एकल
एजन
खैर
निश
पौष
फुक
भिड
वेष
वॉट
ससे
##र्जित
##िकेचा
असतं
आमचे
कौरव
तरतु
दैवी
नेली
पडेल
पुंड
भग्न
भारी
लाला
१८७०
१८८२
१९०२
१९०३
##परंपरा
एकंदर
कच्चा
क्लास
खजिना
ग्रेस
चालली
तहसील
तैवान
निघते
पावली
पाहणे
पिस्त
बनारस
भीमाश
याकडे
रांजण
लिमये
वाटतो
स्टडी
आंतरिक
ओळखतात
त्याही
देवीला
नंतरचे
नक्कीच
निश्चय
परिमाण
महावीर
मास्तर
येथूनच
लोकहित
वापरणे
संकलित
अपघातात
अवकाशात
गॅलिलिओ
तक्रारी
तारापूर
भाषेतून
भास्करा
रक्तवाह
रिसॉर्ट
सेबास्ट
उपलब्धता
त्रिकोणी
लेखिकेने
शिवमंदिर
सॉफ्टवेर
गृहमंत्री
बनवलेल्या
वर्षानंतर
संध्याकाळ
सावंतवाडी
कार्यकर्ता
प्रकाशनाने
बास्केटबॉल
खेळण्यासाठी
चित्रपटांतून
ज्योतिर्लिंग
बनविण्यासाठी
##27
##ji
##झम
##११
##row
##uld
##टिस
##पाय
##ाचं
##िंह
##्डे
01
##ular
##फल्स
##वयात
##िनाम
##्द्र
घरट
चंड
ढोब
दडप
धुम
पॉप
मॉल
याव
रुळ
रेट
सोव
हरे
१२७
##क्षिक
##धानिक
##मात्र
##वर्णी
##स्टंट
comm
कत्त
करमर
गुरा
घालत
चरबी
तसाच
नजीक
नारद
याही
युगो
विंग
हिंड
##त्याचा
##मपल्ली
##विणारी
##ांबाबत
##िबंधीय
right
अशीही
कोणता
गतीने
गावोग
गौतमी
जनमान
पॉइंट
बदलली
बेरोज
समस्य
हजेरी
हेमंत
##खान्यात
Google
अधिष्ठ
ऋषींनी
ऑलिम्प
कुलाबा
ठेवावे
डांबरी
नायिका
पडलेले
पश्चात
पुरवणी
फ्लाइट
बक्षीस
मांडून
मोठय़ा
विपरीत
व्हिएत
शहापूर
शाश्वत
स्थाने
स्वयंच
History
आश्रमात
इंद्रिय
चीनमधील
ठेवलेली
दिसणारा
प्रकरणे
बाबूराव
मिळविला
म्हणावे
वित्तीय
शरणागती
हवेच्या
आठवड्यात
उपप्रकार
कार्यकार
झाल्याची
धरणाच्या
नातेवाईक
निर्मूलन
मिरवणुकी
इंग्लंडचा
इतिहासाचे
उपस्थितीत
घराण्याचा
जमिनीच्या
नेतृत्त्व
युरोपमधील
जिल्ह्याची
निघालेल्या
मिळाल्यावर
व्यक्तींनी
हॉटेलमध्ये
जिल्ह्यातून
ज्याप्रमाणे
राज्यमंत्री
संशोधनासाठी
व्यवस्थापकीय
चित्रपटाद्वारे
##AT
##मस
##ीड
##ati
##ran
##uth
##जली
##पूल
##फ्र
##रम्
##रला
##हिक
##ाटक
##्यर
##ache
##चालन
##नीती
##पिंड
##लबाग
##शन्स
##शिवर
##ुकीय
##ुषार
##ूरकर
##्रीन
उथळ
खूण
झेन
दूत
धृत
पिळ
भंग
वने
सूज
##पुढील
##संस्थ
##ाकथित
##ापाशी
टाका
टेकड
डायॉ
तुंग
धडपड
बिगर
मनोज
शार्
##etails
##चिटणीस
##तागायत
##व्याची
अस्थी
खर्या
गिरणी
चक्कर
द्राव
धर्ती
पाचवा
भंडार
भरतात
मॉरिश
वनवास
विनाम
विराज
विस्क
शकणार
सवलती
सुबोध
सुरूच
सोनार
##विस्तार
##ांकरिता
अदृश्य
असायचे
कांस्य
कामाची
चुकीचे
चौकोनी
तंबाखू
तलवारी
पंथाचे
पेंडसे
फ्रांक
बादशहा
लाइन्स
हायड्र
१५व्या
##ological
अभ्यंकर
एकावेळी
कंट्रोल
कर्मवीर
तथाकथित
नदीकाठी
परदेशात
भैरवनाथ
मार्मिक
मिळणारे
म्हंटले
संख्येत
अध्यक्षा
ग्रंथाची
जंगलातील
दिल्लीला
देवाच्या
पाण्यावर
मार्गाचे
हिंदुत्व
कायद्याचे
ठिकठिकाणी
शेजारच्या
अष्टविनायक
दर्शनासाठी
पाठविण्यात
भारताबाहेर
राष्ट्रसंघ
विशाखापट्ट
सामन्यांची
एकमेकांच्या
पुरुषांच्या
यांच्यासोबत
कायद्यानुसार
त्र्यंबकेश्वर
महाविद्यालयाचे
##57
##ma
##ys
##तच
##१९
##ert
##कवी
##तीच
##मते
##मोल
##लेल
##शेट
##ालो
##ुपी
उझ
##खिंड
##च्ची
##नेचे
##वाचक
##शीला
##िसेस
but
उकळ
खला
खिल
चूक
ठरू
धाम
पेण
फिफ
बिग
##पृष्ठ
##रक्षण
##ष्कृत
##्यंतर
work
अजिब
अपरि
अर्भ
काशि
घरोघ
जाउन
टिका
फौजे
फ्रँ
बोलत
भूतक
मिनी
मुरु
मूर्
यावी
लांड
वसला
साठा
स्पा
ह्यु
##शेजारी
##्मार्क
कुत्र
गाडगे
जवळचा
ध्यास
नंदुर
नांगर
निराश
पसंती
मार्स
मोकळी
वादवि
विवाद
संभोग
स्टँड
##चिस्तान
##व्यवसाय
अंटार्
अध्याप
आवारात
ऊर्ध्व
ग्लोबल
चांद्र
जॅक्सन
टोकदार
पारायण
पुरस्क
प्रतिज
बल्गेर
बियाणे
बीजिंग
भागाचे
यातूनच
रसायने
वसलेला
संसदेत
हलक्या
##ेविरुद्ध
आढळणारी
इनामदार
जालपत्र
तालिबान
त्याआधी
दक्षिणी
दिशांना
नसल्यास
पूर्णतः
महाशिवर
मागितली
रक्तदाब
शब्दाची
हिरण्यक
अंतर्भूत
अनिश्चित
आजतागायत
करावयाचे
ग्रंथाचा
धर्मगुरू
नसल्याचे
पेंढारकर
बहिष्कार
भांडारकर
भाजीपाला
माहितीपट
सरचिटणीस
साताऱ्या
अधिकृतपणे
पुस्तकाला
महोत्सवात
वाहणाऱ्या
विस्तीर्ण
जर्मनीमधील
पर्यावरणीय
शब्दापासून
अंदाजानुसार
आयुष्याच्या
इतिहासाच्या
लक्ष्मीकांत
संप्रदायाचे
प्रधानमंत्री
मेक्सिकोच्या
##AS
##oh
##ick
##man
##old
##ose
##ंचन
##जरी
##बिन
##याग
##ादा
##ाबी
##िषय
##ुखी
ऑड
मं
##गुंड
##देकर
##प्रस
##र्डन
##वानी
##वाहक
##वाही
##ातली
##ाळगड
##ुवार
Aug
चाम
जसज
ढास
तसत
ताट
पैन
##वर्तु
##ावरही
अंबा
आंबे
आईवड
उठून
कुतु
कॉफी
कोडे
चाफे
झालं
तांड
देवक
नसली
पुतळ
बर्न
मोडी
राजग
राजस
शकली
शिया
संकु
सर्च
सल्फ
सिरी
१८९१
##करांचा
##त्यर्थ
##प्रबोध
##मुक्ती
##र्जन्म
अंधार
अमिता
असमान
उद्दी
उपजीव
खोलीत
जहाजे
जोडतो
डिझेल
डीएनए
दगडात
नकाशे
फ्रंट
बडोदा
बदामी
बनवणे
बोलाव
रहावे
लालसर
वंदना
सम्यक
सुहास
स्काय
##यांच्या
अच्युत
अद्वैत
अहवाला
कवितेत
गर्भाव
गिरगाव
चिटणीस
दुर्बल
नागनाथ
नोकरीत
बंडखोर
मनमोहन
युवराज
वांशिक
शिरपूर
##नाद्वारे
आंदोलने
ईस्टर्न
उन्हाळा
कृष्णवि
चरित्रे
जीवनाची
दाखविले
दिवसाला
धर्माला
पश्चिमी
वाढदिवस
सिंहाचा
appeared
अकराव्या
देणार्या
परंपरेने
रामेश्वर
लैंगिकता
वाटाघाटी
वायव्येस
शब्दांचा
सांकेतिक
स्त्रीला
चक्रीवादळ
डेन्मार्क
दर्जाच्या
पुरुषांना
यशस्वीपणे
संस्थांचे
संस्थांनी
स्वाभाविक
दुर्दैवाने
बंगालमध्ये
युरोपामधील
वर्तुळाकार
स्पर्धांचे
अभ्यासासाठी
मानसशास्त्र
जिल्ह्यामध्ये
भौतिकशास्त्रज्ञ
##24
##26
##झल
##भो
##ole
##कान
##द्घ
##फेड
##वाङ
##िअम
##ुवत
##्रू
He
उच
थक
##ific
##ंगडी
##खोरी
##शोधन
##ातुन
##ालिन
अनि
अबा
अॅक
इजा
उदी
एकद
ऑपे
कथन
चीज
जना
जेस
डॉट
दया
धूप
पौड
लढत
लेह
संध
सुई
##arath
##भवानी
##भौतिक
##ियर्स
##्याना
will
कॅथे
गांग
जारी
दंगल
द्वि
पावन
पॅरा
वळले
वीणा
शक्त
शाहज
शेपू
स्लो
हरिक
१८९९
##विण्या
##सम्राट
##ाजवळील
trans
अल्फा
उझबेक
ओंकार
गायले
चित्प
जोडते
ठेवते
तालीम
तेलगू
देणार
नर्तक
नायजे
न्यूज
पंढरी
फार्म
बोइंग
भिल्ल
भ्रूण
महाला
मागून
रामजी
लुप्त
विराट
शेंगा
संदीप
सोयाब
स्वाम
आराधना
उंचीचा
उद्गार
घरोघरी
जाणवतो
पुरेशी
माहुली
रेड्डी
लागणार
वाड्या
वाहतात
संगोपन
सहयोगी
सुगंधी
सोमवार
अध्यापक
आढळणारे
आयुर्वे
जागांवर
नाटकाची
पाकळ्या
बालाघाट
बोलताना
मस्तानी
महाराणी
मांडलिक
विषयाची
व्यापला
शरीराची
शासनाचा
सर्व्हर
##वण्याच्या
आणलेल्या
काश्मिरी
कॅल्शियम
जनजागृती
जाण्याचे
नंदुरबार
प्रवाहात
मालिकेचे
याठिकाणी
वादविवाद
व्याप्ती
इंडोनेशिय
गाजलेल्या
गोव्यातील
तत्त्वावर
तात्त्विक
मांडण्यात
विचारांचे
सौराष्ट्र
होण्याआधी
डोंगराच्या
चित्रपटांची
डेमोक्रॅटिक
डेव्हलपमेंट
पत्रव्यवहार
वर्षांखालील
राहिल्यानंतर
पाकिस्तानातील
##yd
##एट
##फ़
##रप
##ुज
##२६
→
##att
##ral
##जेस
##तोल
##थ्य
##पेट
##प्स
##सचा
पच
वण
##ilos
##भैरव
##माही
##रावे
##वावी
##ावरण
##्रेक
अयो
असह
आउट
आरे
कृप
कोय
जिओ
झोक
टीम
तिल
धुव
नृत
वैध
सुळ
१५६
१६१
##ंद्री
##गुळीत
##द्वीप
##प्रभा
##भारती
##र्वाह
##लेस्ट
##संचार
##सेट्स
अवगत
आहेच
इन्स
एल्फ
कृपा
जातं
नर्त
बराक
बांद
ब्री
मधुर
सज्ज
सराफ
सुगम
हद्द
##णाखाली
##धर्मीय
##स्थानक
##ुर्भाव
##ेसंबंध
उपासक
एशिया
कॉन्ट
खडकाळ
डिस्क
दातार
नागाल
निर्ग
पाचवी
बल्ला
रोवली
वक्ते
वडगाव
वाढीस
शाखेत
संपले
सहावा
सातवा
स्थूल
##स्पर्धी
जातीची
प्रोटे
बुधवार
बुलबुल
भावनिक
भिवंडी
युद्धे
रित्या
लंडनला
वडोदरा
वाटेवर
संबंधी
सदस्या
सूर्यक
हाताला
##शियाच्या
अश्विनी
क्लिष्ट
गणपतराव
जकरबर्ग
दस्तऐवज
पर्यन्त
बेटांवर
महानगरी
समाजसेव
हस्तिना
अणुऊर्जा
ऑपरेटिंग
घेणाऱ्या
देवेंद्र
निर्णायक
पर्यंतचे
पुण्याचे
रक्तपेशी
लंडनच्या
लिहिणारे
विद्युत्
सर्वांचा
सर्वांचे
उत्पादनात
तलावाच्या
नेत्यांनी
प्राणवायू
ब्रह्मदेश
स्वयंचलित
स्वयंसेवी
गुजरातमधील
पर्जन्यमान
मंत्रीमंडळ
माणसांच्या
संदर्भातील
युगोस्लाव्ह
संग्रहालयात
निर्मितीसाठी
राष्ट्रप्रमुख
आर्थिकदृष्ट्या
##ft
##कस
##कॅ
##खो
##नम
##eth
##gen
##नाक
##मेज
##वेझ
##शेल
##ागी
##िपु
08
55
BE
टु
##omen
##spot
##ंजाम
##करुन
##पिंग
##याने
##याला
##र्घट
##ातीत
##िवळे
##ेशीय
##ोरेट
अवज
खुल
गुद
तील
दृश
बखर
बदक
बबन
रता
लोप
सित
सुभ
१४०
१५५
##ंट्री
##पणाची
##पत्नी
##लीवूड
##वाडकर
##िकेला
##ुल्ला
##ुवर्ष
life
ओमान
करडा
काढत
खडतर
गणला
गोळे
पापड
फवार
मनोव
यूरो
वाहक
सुखी
१८८७
##ांचेही
##ापूर्व
##ास्थ्य
##िवार्य
अपयशी
उंदीर
उतरून
ओळखून
कमाली
काळसर
गटाचे
गल्ली
चौहान
जगतात
तऱ्हे
तुषार
दर्गा
पदाचा
पांचा
पुढची
फेटेल
बाजरी
मातीत
व्हॅन
श्रोत
स्पेस
हंबीर
##ांसारखे
##्यासमोर
अजिबात
इकॉनॉम
कारगिल
काॅलेज
किंबहु
कितीही
दुप्पट
देखरेख
प्रवरा
प्रवीण
बलिदान
बहामनी
बालपणी
बिझनेस
भुसावळ
राहणार
विभक्त
व्यस्त
स्मशान
हिवाळा
##पेक्षाही
आघाडीचे
इमारतीत
देशभरात
धर्तीवर
बव्हंशी
महेश्वर
विभिन्न
समलिंगी
##दिग्दर्शक
अनिवार्य
अर्थव्यव
गुप्तहेर
चुकीच्या
चौदाव्या
जपानमधील
जोपर्यंत
पडद्यावर
पृथ्वीचे
प्रकाशात
भाषांतरे
भीमाशंकर
राज्याला
अलीकडच्या
जीवनाच्या
प्राध्याप
फ्रान्सिस
मुलींच्या
एक्स्प्रेस
प्रदेशच्या
मंदिरासमोर
कायमस्वरूपी
केल्याबद्दल
प्रकाशवर्षे
प्रादुर्भाव
मंत्रालयाने
सेबास्टियान
साहित्याच्या
##se
##आड
ॐ
##ely
##ंकन
##ंता
##धाम
##धीश
##लाब
##िषे
##ॅगन
##्नी
31
ओस
##ject
##ंशीय
##कुवत
##केला
##पर्व
##फझाई
##बेरी
##लेशन
##वाटे
##िटकर
col
web
अणि
अॅल
ओढा
काच
कोम
खां
गगन
गवई
घडी
जैत
ढोल
त्य
भरभ
भोई
सुद
##कार्ड
##क्टरी
##व्यात
##स्सार
aspx
आईला
इस्प
एमबी
ओहाय
कर्ब
खंडे
खंदक
गादी
गुणा
चोची
ढोबळ
दरात
दशरथ
नवरा
पठाण
पांच
पेरू
बर्क
बिंब
मिर्
रक्ष
रणगा
रामा
वंदन
विनय
समुह
##ल्यवान
अधिकच
आम्ला
उपहार
ओब्ला
कलेचा
खालून
खुर्द
गटाने
जडणघड
तांदळ
दराने
निभाव
पूर्त
बर्मन
बायका
म्हात
रोमेन
रोहित
विघ्न
विरघळ
वेळात
व्हिट
संपतो
सातवी
सार्थ
हुकूम
होवून
##ण्यांची
##पदाच्या
##िलेल्या
marath
अनुसार
आंग्रे
आच्छाद
कमकुवत
कोंबडी
दिवसीय
देवाची
धनादेश
पडलेली
पाठवला
भरलेला
मिळवणे
शिकवणी
English
अनुराधा
अयोध्ये
उपखंडात
ओस्मानी
कोरेगाव
तितक्या
देवयानी
भाषांचा
वेबसाइट
स्विकार
blogspot
आत्माराम
कार्यकाळ
गुळगुळीत
बसलेल्या
माहितीचा
रचलेल्या
विमानाचे
उत्साहाने
ग्रंथालये
पुनर्जन्म
पुनर्रचना
प्रारंभिक
संस्थानात
सोसायटीचे
स्पोर्ट्स
तालुक्यांत
पदार्थांचे
पर्वताच्या
पारितोषिके
पुनर्विवाह
बलुचिस्तान
मार्गशीर्ष
मुख्याध्या
व्यवसायाने
कार्यक्षमता
न्यायालयाचे
पुनरुज्जीवन
यांच्यासाठी
वातावरणातील
अलेक्झांडरने
प्रतिस्पर्धी
क्षेत्रांमध्ये
##ou
##वो
##२४
##osh
##करू
##गंज
##वरच
##्मन
38
85
चह
##चीही
##चेंज
##णीचे
##मिंग
##राया
##र्गे
##लिता
##ॉनिक
All
अँग
अबु
ऑटो
कुत
कॅल
डॉक
बेळ
मुस
मोद
शाई
सवय
सूट
##ंद्रे
##जच्या
अमान
एकंद
कैदी
कोळश
खुर्
गुलम
चेअर
जावई
तक्त
तात्
नरहर
पाबळ
बाबर
रचले
विटा
सोंड
१८९५
##परिणाम
अंजली
अमृता
अष्टम
उदगीर
उल्का
कुठली
गळ्या
चौकात
जगदीश
जर्नल
जाळून
ट्रेड
डीझेल
ताकदी
तुळजा
दामले
धनंजय
नक्षल
बदलला
माहूर
रिव्ह
सहायक
हवेचे
##स्टेरॉन
अतिप्र
काहीजण
कुमारी
चतुर्द
जपानने
टायटॅन
नामशेष
निवडला
पदांवर
पाध्ये
राखाडी
लायब्र
सुसज्ज
##निरपेक्ष
##रापर्यंत
केन्द्र
कौन्सिल
नगरसेवक
पद्मिनी
यंत्रणे
संक्रमण
सुचविले
सोमवारी
स्वदेशी
अद्वितीय
ठरलेल्या
बेटाच्या
मराठीतून
मौल्यवान
रुपयांचा
वडिलांना
शंकराचार
किल्लेदार
गर्भधारणा
श्रीलंकेत
दीर्घकालीन
देवाणघेवाण
प्रताधिकार
विमानाच्या
शेवटपर्यंत
ब्रह्मपुत्र
मराठवाड्यात
सेवानिवृत्त
प्रेक्षकांना
चित्रपटसृष्टी
##43
##47
##ङ्
##नव
##रन
##ीस
##ॅश
##amb
##कंठ
##झार
##फेर
##वर्
##स्स
##ुमा
02
06
mr
खै
सस
०२
##ents
##ists
##आयएम
##कृष्
##गुडी
##घरात
##निशी
##ालगत
##ासित
##्टेक
fil
किस
कुज
चोप
टां
ताफ
धंद
पति
पळस
फला
१०४
##टक्के
##फरन्स
##यातील
अडचण
आलेख
इन्श
काँग
गुलब
चटणी
दोषी
पगडी
बुवा
मनोग
वंदे
शिंप
१८४८
१८९३
##cience
##णाल्या
##बाईंनी
##ब्रह्म
##ामुळेच
##िनच्या
first
आषाढी
उर्जे
काटेक
कासार
गुरुक
गोडसे
जाणिव
तितकी
तुकडी
तुलसी
तैनात
दुष्ट
निमुळ
पदाची
पाळला
पोकळी
बहरैन
महमूद
मुत्स
म्हाळ
राठोड
रौप्य
वाशीम
विकले
विकेट
शेळके
सेन्ट
स्क्व
हिरवे
होतेच
उद्रेक
चित्रा
छातीवर
जुळवून
निरोगी
पहिलेच
पानावर
पिल्ले
मातीची
यामधील
व्हर्स
सावत्र
आमंत्रण
कच्च्या
काव्यात
तेव्हाच
द्यायचे
द्यायला
निदर्शन
परमार्थ
प्रशासक
बदलत्या
मराठीचे
मुंबईची
युधिष्ठ
लघुग्रह
हरितगृह
##ण्यांच्या
अभिनयाची
इस्रायली
एशियाटिक
काळासाठी
किंबहुना
चॅम्पियन
छत्तीसगढ
त्याऐवजी
दिवसांचे
परिषदेची
पुनर्वसन
बनविलेले
यजुर्वेद
राहिलेला
वंशाच्या
विचारवेध
शिल्पकले
संगीताचा
उद्दिष्टे
नातेसंबंध
प्रदेशावर
प्रेरणेने
रघुनाथराव
राधाकृष्ण
लंडनमध्ये
लागणाऱ्या
विश्वातील
संस्थांना
कशाप्रकारे
गौरविण्यात
दिनदर्शिका
धृतराष्ट्र
पर्यंतच्या
प्रश्नांची
रुपयांच्या
लीळाचरित्र
विद्यापीठा
विद्यापीठे
समाजामध्ये
आंबेडकरवादी
कारकिर्दीची
रस्त्यावरील
मंत्रिमंडळात
नेतृत्वाखालील
महाराष्ट्राला
शेतकऱ्यांच्या
##ve
##वठ
##सौ
##ese
##गिर
##ताल
##धात
##नूर
##फाय
##वुन
##ुची
तद
##apsh
##ings
##ंचाई
##काँग
##टिंग
##पेकर
##प्पर
##फेसर
##बाला
##ळीने
##ाधीन
##ियुग
##िल्स
##ोलिस
Apr
अॅम
इक्
उपर
गूळ
तीळ
पदर
फेल
लॉक
वृष
सोई
१४५
##च्चार
##ोबस्त
अनिय
अमीर
अश्म
गांड
चॅले
जनने
जस्ट
टेलर
ढासळ
दळवी
दीपक
नत्र
पदरी
बघता
मोखा
मोहो
रणजी
लढाय
सत्स
स्वे
१८८९
५५६६
##apshot
##ilosop
##ंद्रीय
##ावल्या
##ोपयोगी
आभासी
आयलंड
कालीन
केळवे
कैदेत
गावची
जोन्स
तिकडे
दिवसे
देवधर
दोनशे
निम्म
प्लेट
महापर
रंगात
वरदान
##ंपेक्षा
अनुबंध
अब्राह
असंतोष
उंचीची
एकीकडे
कर्णिक
काळाने
जातीचा
पदव्या
पुरवली
भरतनाट
मुलाचे
मॅग्ने
लढ्यात
वाटतात
सापडते
१३व्या
##्यानुसार
अणुभट्ट
घटकांचा
चालणारी
जोडलेली
प्रशंसा
प्रसारक
बारमाही
भूषविले
मंगळावर
मुद्दाम
मूळच्या
शरीराचा
सूत्रसं
snapshot
खंडाच्या
चित्पावन
दत्ताराम
दिवसांचा
परिषदेने
प्रोफेसर
भक्तांना
विराजमान
सभागृहात
सांगण्या
गणपतीच्या
पाण्यातील
मिनिटांनी
सदस्यांना
सैन्यातील
स्तरावरील
अल्पसंख्या
इंग्रजांना
उदारमतवादी
चित्रपटाचा
त्याच्याशी
मुंबईमध्ये
शाळांमध्ये
समुद्रातील
व्युत्पत्ती
सूर्यापासून
सूर्याभोवती
##68
}
##urn
##use
##खास
##नेड
##पुत
##बळी
##भूष
##सीए
##ायू
##ारण
33
43
ओठ
कँ
##olit
##करित
##कीचा
##कृति
##णाशी
##द्दा
##निमी
##नीने
##नेचा
##श्ले
##ुत्व
##ेन्ट
##ॉल्फ
##ोदित
##्रीम
Ear
can
net
अरण
कंस
कटक
गेज
चिड
जनस
टोम
डॉन
बुव
मिग
योन
रसद
५५६
##ature
##eople
##ग्रेड
##प्रभू
##सेल्स
##ालाही
##िव्हा
##ॉरिटी
##्स्की
Arch
Pune
such
आयकर
आल्फ
उलाढ
कालम
चावा
चिमण
जमाव
जाळी
निकट
प्लॅ
फाटक
बुडा
ब्ले
भरला
माँट
लव्ह
हाडे
##dition
##प्रचार
##संपन्न
khand
उत्ते
कार्ट
कुठले
खनिजे
चढवला
जायची
ट्रॅक
ठुमरी
दूरवर
नवनाथ
नासिक
पंथीय
पोलिश
बलवान
मातंग
मेमोर
रुपात
लोणंद
विभाव
व्यंज
हरवून
ॲडव्ह
##नेनुसार
##पुरातील
##ासुद्धा
अनिष्ट
आवाजात
उंचीचे
कुरुंद
जहागीर
टोकावर
तरतुदी
तळवलकर
नॉर्वे
पाहतात
बाल्कन
भाजपचे
मनातील
व्हेने
शहरांत
श्रीवि
सभापती
सुचवले
होमिओप
##संप्रदाय
उत्कर्ष
करावयास
काटेकोर
कारागृह
चार्वाक
जातिभेद
जातीतील
दर्जाची
देखरेखी
देशांचे
नागालँड
बहिर्जी
मुद्रित
लोणावळा
वेगळेपण
व्यवस्थ
शिवनेरी
सुयोग्य
हॉटेलचे
उपेक्षित
केरळमधील
चंद्रावर
तंत्रज्ञ
पडल्यावर
पर्वतावर
पारदर्शक
बंदोबस्त
बहिणाबाई
लहानपणीच
विदर्भात
संगमरवरी
चितमपल्ली
झाडांच्या
दत्तात्रय
फुलांच्या
फेर्यांची
आठवड्यातून
कंपन्यांची
टोपणनावाने
शिवाजीराजे
सुभाषचंद्र
किरणोत्सर्ग
झाल्यापासून
राज्यातल्या
पुस्तकांच्या
मच्छिंद्रनाथ
##AN
##बै
##यम
##ें
##दळी
##नीत
##रेष
##लबि
##लेन
##साड
##ाइम
##ागड
##िन्
32
ओळ
##atic
##क्कल
##ग्रॅ
##जेते
##नगरी
##वयीन
##शिगन
##हिनी
##ांका
##ांने
##ांबी
##ासिक
##िंडी
##्मुख
And
ent
उलथ
कळत
किट
गंज
गजल
गदा
गिल
निख
फोर
मेण
समत
सौद
हैं
१५४
##ating
##ocial
##umbai
##अभिने
##ख्यां
##पत्रक
##पर्णी
##वश्यक
##िंगची
##ेदुखी
##ोलॉजी
अण्व
आखूड
एकटे
एकतर
चौकी
टांग
धक्क
नसला
फांद
बढती
महंत
मिली
मोटर
यकृत
वरुण
सावध
१८३०
##प्रवास
##व्याचे
##सृष्टी
##ोग्राफ
उपभोग
कंत्र
क्रोध
क्षित
गावचा
तुफान
दूषित
पिवळे
पुढचा
पुढचे
पेंढर
भरवली
मावशी
याआधी
रहमान
वाचता
वीर्य
शिकून
शेपूट
संतती
हातून
हिरवट
##ण्याआधी
##निर्वाह
करूनही
कामाचा
कुर्ला
घेणारे
चर्चास
जेजुरी
थांबते
थोडेसे
पेशावर
प्रदूष
भक्ष्य
मातरम्
मिशिगन
रिक्षा
शृंगार
संसाधन
१२व्या
अल्बर्ट
आयोगाने
उपनद्या
एकंदरीत
गडावरील
जेवणाची
जोगळेकर
तेवढ्या
त्याहून
दिल्यास
पाककृती
पिढीतील
प्रचारक
बांधतात
बॅरिस्ट
राहणारा
लांबीचे
लिहायला
लोकांवर
वामनराव
विभागली
संगमावर
स्वयंवर
करण्यावर
कादंबरीत
जगामध्ये
नागपूरला
पद्धतशीर
मुलीच्या
युद्धाची
वेस्टर्न
शब्दांचे
संशोधनात
ठेवण्याचे
बनविण्यात
भरतनाट्यम
माहात्म्य
वयोगटातील
वर्गाच्या
विनामूल्य
व्यवस्थेत
न्यायालयीन
प्रकारातील
भांडवलशाही
एल्फिन्स्टन
पाकिस्तानला
प्रांताच्या
प्रोटेस्टंट
महत्त्वाकां
लोकांपर्यंत
उत्तराधिकारी
औरंगजेबाच्या
क्रिकेटमध्ये
वाढवण्यासाठी
##ke
##we
##ara
##red
##udi
##ंतक
##काच
##डली
##डीए
##नाड
##ब्स
##ळया
##वजा
##ानि
##ाम्
##ूंब
04
47
sa
तव
##eral
##ourn
##चाकी
##झिंग
##ट्टा
##डोली
##ढ्या
##तज्ञ
##पर्य
##वर्थ
##सचिव
##ाव्ह
##ोन्न
##्यून
Col
out
अबू
घास
तडज
नेस
पशू
भाक
भोव
मजल
माई
मृग
मेद
मैफ
लिट
वहन
शेट
सूड
हौद
११९
##cient
##त्याग
##र्मास
##वळ्या
##शीलता
##स्राव
##ाक्षर
##िंग्स
##ियमित
2002
2003
अमित
इवले
कर्ट
क्रौ
खुली
जावी
थर्म
परवड
प्रॉ
मंडल
मनाई
म्हस
रोपे
हलके
२५००
##रामधील
##समध्ये
##स्कृती
##ावयाचे
कालिक
कोस्ट
गनिमी
जयराम
तटस्थ
दिंडी
निलंब
न्यूट
प्रथे
फ्रेड
मानवा
रिसोड
लढाया
विवरण
शिबिर
अंबिका
कबड्डी
काहीसे
जणांना
दरबारी
दुर्घट
नाट्यक
पंचक्र
भरभराट
भरलेले
मंडळात
मातीचे
वर्गीय
विशेषण
सक्रीय
सर्वजण
सुटतात
सुन्नी
हरिभाऊ
२०व्या
##ण्यामुळे
##िंगमध्ये
अशोकाने
काळातही
कोरलेला
जहागिरी
जेंव्हा
नसरापूर
बापूराव
वृंदावन
शिलेदार
संक्षेप
सध्याची
सीमेजवळ
स्क्रीन
##harashtra
##ण्यायोग्य
आणण्याचा
ओब्लास्त
कार्यभार
काळानंतर
कुटुंबिय
ज्ञानपीठ
निरपेक्ष
प्रेसिडे
बरोबरीने
समोरच्या
हंबीरराव
##्यांपेक्षा
अण्वस्त्र
इतिहासाची
उपखंडातील
ग्रंथांची
जोगेश्वरी
तरीसुद्धा
निवडण्यात
पुण्यतिथी
प्रकल्पात
प्रांताची
बाहेरच्या
दुष्परिणाम
पक्ष्यांचे
प्रवासवर्ण
लोकहितवादी
सांगितल्या
हस्तलिखिते
गुंतवणूकदार
पार्श्वगायक
पार्श्वगायन
विद्यार्थिनी
संरक्षणासाठी
पुरस्कारासाठी
हायस्कूलमध्ये
##अस
##चेल
##डतो
##णाल
##तरण
##नेच
##मरी
##संच
##ेरे
##ोगा
थड
##land
##कीचे
##कोळी
##जोगे
##त्ति
##धारे
##नेते
##न्सन
##लायन
##िवाद
##ूनही
##ॉन्ट
##ोसिस
##्रोप
War
गळा
डबल
पाज
बिघ
शूट
होन
##ption
##त्थान
##द्वाज
##धारणे
##बलपूर
##बाह्य
##व्हाक
##शिक्ष
ओरिए
कलाम
टेरा
दुवे
पोळी
मठात
लॉरे
वर्ध
शंभू
शिवण
शेवा
हट्ट
##द्याचे
अकाली
एकरूप
करवीर
क्वीन
खालचा
खिलजी
छत्री
टेलिफ
पेरणी
बंधने
मंदार
मिसिस
विकली
वैराग
संरचन
सजावट
समवेत
हजारे
अल्पाव
आकुंचन
इवलेसे
काहीसा
कृतज्ञ
कोठेही
गृहस्थ
चिमाजी
जोधपूर
डाळिंब
त्यांस
निर्वा
पाटणकर
बनविली
मध्यात
मिळावी
मूल्ये
मोडतात
रामटेक
सुसंगत
##ंग्रहालय
अनुवादक
अलास्का
आल्याचे
उत्तेजन
कोर्टात
गर्भगृह
धावांनी
ध्यानात
नियतकाल
निर्बंध
पत्रिका
पावसाळा
मध्यस्थ
माणसाची
मासिकात
राजर्षी
रायफल्स
वाढलेले
विदागार
संपुर्ण
साराभाई
##ण्यापासून
आर्किटेक
ऑलिम्पिक
काहीवेळा
ज्यावेळी
दृष्टिको
प्रतिजैव
प्रमाणेच
बर्याचदा
याचबरोबर
विशेषांक
विषयांचे
सर्व्हिस
पंधराव्या
प्रोग्रॅम
युद्धातील
##क्षेत्रातील
अभयारण्यात
उत्तरेकडून
घेण्याच्या
दिवसेंदिवस
विकिपीडिया
उझबेकिस्तान
कार्यकारिणी
परंपरेनुसार
प्रदेशाच्या
प्रभावामुळे
रंगभूमीवरील
स्वरूपाच्या
हिंदुस्थानी
किनाऱ्यावरील
दृश्यप्रतीचा
प्रदेशामध्ये
महाशिवरात्री
राज्यशास्त्र
ऑस्ट्रेलियाने
पोर्तुगीजांनी
##चट
##वॉ
##ूख
##rim
##कां
##कीस
##कुळ
##लिन
##शेठ
##िअल
##ॉईड
##ोधक
81
Is
kn
उन
ओत
जठ
भड
##कर्त
##टीने
##णीची
##राजी
##ाखात
##ियोग
150
इगत
खडी
खाप
गिळ
घेर
चपट
झटक
डास
नॉन
पीत
पैग
फॅब
बोक
मीन
वरद
व्द
शील
सरप
सिग
१२३
ॲपल
##कर्णी
##च्छिक
##धर्मी
##पोस्ट
##प्रेम
##बाजार
##वस्था
##वाद्य
##ष्टिक
##स्टार
##िपर्व
view
year
आखणी
इब्न
केंट
कॉपी
जंतू
तमिऴ
पडदा
पराग
फटका
बर्म
मजली
महसु
मातो
राऊत
राहु
रेखी
विरा
१८८३
१८८८
##तत्त्व
##सीसीआय
##ित्र्य
अॅन्ड
कत्तल
जागरण
ताम्ह
दिशेस
पंचमी
फांदी
फिरते
फोर्ड
मंडळे
मानवत
मेहकर
वाजून
विरार
सहयोग
हेलिक
##विद्युत
##षास्त्र
##सेनापती
अन्यथा
अबाधित
अमिताभ
अहंकार
उडताना
कलियुग
कुत्रा
चालवते
त्रिवे
देवराई
धारवाड
नसलेला
नुकतेच
पिढ्या
पीटर्स
बहुमान
भीमराव
मेळघाट
वसिष्ठ
##विणाऱ्या
अनियमित
एफ१साठी
गायनाचे
तिरुपती
धर्मांत
ध्रुवीय
पुंडलिक
मुलांचा
यांसाठी
रत्नाकर
लागणारा
विश्वात
शेजारील
श्रीरंग
सातपुडा
सोयाबीन
स्थिराव
##च्युसेट्स
अखेरच्या
जोडण्यात
फायदेशीर
बॅरिस्टर
माडगूळकर
यांपासून
विकासाची
शिक्षणात
सायन्सेस
हाताच्या
आजूबाजूला
दारिद्र्य
नाटकांतून
परंपरेतील
मध्यपूर्व
यादीमध्ये
वापरण्यास
व्यक्तीचा
स्वाक्षरी
अत्यावश्यक
दिवसापासून
पानिपतच्या
लेखकांच्या
अनन्यसाधारण
गुजरातमध्ये
प्राण्यांचे
राज्यामध्ये
वर्षापर्यंत
वस्तुस्थिती
विचारांच्या
श्रीक्षेत्र
उत्पादनासाठी
कामगारांच्या
धर्मनिरपेक्ष
वर्षांपर्यंत
विशाखापट्टणम
श्रीलंकेच्या
संप्रदायातील
यांच्यासारख्या
स्थानकांदरम्यान
##37
##AL
##AP
##AR
##चु
##वध
##ीण
ا
ॠ
##med
##जिन
##बेल
##मेढ
##साठ
##ात्
##ॅको
##ेतन
05
37
70
Im
ऑर
पप
वू
##over
##ंगले
##ंग्ल
##नाशक
##पंथी
##ब्बी
##राने
##रेटर
##ापाल
188
Nov
Oct
Tra
कळा
कूच
गान
घाम
झां
टीक
ट्व
डेप
तोल
दमण
दरम
धरम
बुज
मेग
१४८
##पणाचे
##परिषद
##व्हेट
##ाचेही
##िकारक
1990
2019
News
serv
आखली
आहात
एकता
एरवी
ओळखू
क्ले
घंटा
घाणे
चमचा
टोके
दाभा
परिघ
बदलू
भरली
भस्म
भाला
मेळा
यूएस
येता
रसाळ
विधव
श्रो
सरते
१७०७
##ंग्राम
##ब्ल्यू
##ळ्याला
##्लेक्स
अर्थी
आठवडा
उच्चा
उत्कट
एकसंध
एकाकी
क्षीर
क्षेत
ख्याल
ग्रास
घडीला
जिव्ह
तरंगल
तुरळक
त्वरण
दुर्व
पक्के
पद्मा
पुतळे
प्रका
फाळके
फिरोज
बागेत
बादशह
मंडया
संताप
समतोल
सालचे
स्कंद
स्टॅन
##लामध्ये
अनुकरण
अप्सरा
अलौकिक
आतल्या
उत्तरी
उरलेले
एजन्सी
करड्या
कलाकुस
किशोरी
क्लबचे
गुप्ता
घेणारी
चाणक्य
जनुकीय
ड्रॅगन
देवाचे
नवनवीन
बल्लाळ
राजाचे
विरोधक
श्रमिक
सत्तेत
सैन्या
##्यांवरील
आपल्याच
उगवणारी
कुठलाही
गणपतीचे
द्वादशी
पैनगंगा
बटालियन
यांचाही
यानुसार
राजांना
व्यासंग
व्हिन्स
संघांनी
सरदेसाई
सुशोभित
सोवियेत
##ांसारख्या
काचेच्या
चँपियन्स
छत्तीसगड
ठरवण्यात
पितृसत्त
ब्रह्मदे
मातोश्री
वर्षभरात
सोन्याचे
##ऱ्यांमध्ये
आढळणाऱ्या
निर्धारित
महापालिका
अण्णासाहेब
अप्पासाहेब
कालखंडातील
त्यानंतरचे
निजामाच्या
पद्धतीच्या
प्रवाशांची
हिंदुस्तान
हिमालयातील
आर्जेन्टिना
चित्रपटातून
प्रदेशामधील
वृत्तपत्रात
निवडणुकीच्या
यांच्यापासून
रेल्वेगाड्या
रेल्वेद्वारे
ऑस्ट्रेलियाचा
##29
##CC
##IT
##na
##ईत
##कौ
##नौ
##२७
##ied
##ंडल
##डिश
##पुट
##फलक
##बला
##याप
##स्न
##िबी
##ॅनो
##ोडो
##ोले
##ोलो
##्तर
bh
ठी
##टीची
##बंधू
##रंगी
##राजा
##लीला
##वरचा
##शिला
##स्तर
Bud
dec
flo
rec
कूट
खुश
चाक
डार
तैल
मलक
रेप
रोष
सीई
हीन
##नेस्ट
##युगात
##र्म्य
##शेवटी
##साधने
##ार्गे
##िलेले
##िवाहन
##ेरियन
Amer
अधून
इकडे
कळंब
कुंप
खाल्
चालु
जटिल
जोडप
टाउन
ट्रे
नाडक
पत्त
पद्द
फुलं
बुंद
बेला
माळा
रुची
शेतज
सारी
हप्त
१८८१
१८८४
##जेच्या
##त्याला
##ादित्य
कडेला
करताच
काँगो
गडाचा
गरोदर
जमीनी
जायचा
जीवित
झेंडा
टप्पे
डिस्ट
दर्पण
दहिसर
दिब्र
देवळे
निम्न
पळवून
पेटंट
बसवले
मनाची
मुकुट
मैत्र
यादवी
रवाना
##ography
अंगाला
अंधेरी
अग्निश
अर्काट
इक्बाल
कामाचे
ग्रेटर
दर्शनी
देखावा
निघतात
निष्ठा
परवाना
पोटाचे
प्रघात
बघायला
बाकीचे
मातेचे
राजदूत
लागतील
सारस्व
##ilosophy
अनेकवचन
कलेक्टर
काठमांड
काशीबाई
कोपरगाव
त्रिज्य
दाखविला
निर्मला
पॅलेस्ट
याखेरीज
रेस्टॉर
सर्वाना
सिव्हिल
सुधारणे
हेलिकॉप
अनेकांनी
नाडकर्णी
मार्गाचा
मासिकाचे
मुलाखतीत
राजपुत्र
विद्याधर
संघटनेची
सेल्सिअस
कादंबर्या
कॉन्फरन्स
गोष्टींची
ग्रामदैवत
दर्शवितात
दिसणाऱ्या
दुर्गाबाई
नेहमीच्या
पावसामुळे
पुण्याहून
प्रदेशाची
प्रांताचा
मालवाहतूक
लावलेल्या
विचारधारा
व्हिएतनाम
शेक्सपियर
संस्थांची
स्थानकावर
औरंगजेबाने
ग्रंथालयात
टिळकांच्या
डायॉक्साईड
त्यांमध्ये
नागरिकांनी
रेल्वेवरील
शब्दांच्या
सोन्याच्या
अभ्यासपूर्ण
प्राण्यांची
प्रोत्साहित
राजकारणातील
लावण्यासाठी
विद्युतचुंब
समर्थांच्या
स्त्रियांवर
चित्रपटांतील
लिहिण्यासाठी
विज्ञानाच्या
शस्त्रास्त्र
संस्थांमध्ये
सामन्यांच्या
इलेक्ट्रॉनिक्स
महाविद्यालयाची
##ph
##अम
##ईस
##ज़
##ूद
##२८
##७०
॰
##eed
##कीर
##ख्त
##घटक
##लचे
##विष
##हाँ
##ाडा
##ुलं
##ेरा
##ोळे
##्मक
09
87
Dr
ऊन
##angu
##atch
##ould
##नाने
##लंघन
##लाना
##लिटी
##ोडकर
Jul
अचल
आवर
एकट
खाम
धूर
पणे
फित
रिम
सुष
१५८
##गडाचा
##च्यून
##ताबाद
##धिकृत
##फील्ड
##वाश्म
##विष्ट
##सूबाई
##ादर्श
##ुरूंग
1999
pers
अंडर
अंडे
आजचा
उध्व
उन्म
ओघात
कुळक
चुलत
टाऊन
टोपी
ढसाळ
दिंड
पितर
भूजल
मंथन
मल्ट
माकड
मुंग
रचली
लेखा
वर्झ
संयु
स्तं
हमीद
१८६१
१८८६
##कल्याण
##त्पादन
##र्याने
##ाळातील
##ाविरोध
world
कर्ता
कलेचे
कुस्त
कॅरोल
चूर्ण
जयवंत
तथागत
दलाचे
निकोल
पुरवठ
प्लॅट
भयानक
मनाने
महिले
मूर्त
यांसह
युवती
लेबेन
व्यवह
शौर्य
संग्र
सनातन
सामाव
स्तना
##ामार्फत
अतिनील
अन्वये
असायला
उदयाला
कमांडर
कात्रज
खेळतात
चालीरी
जबलपूर
ट्रांस
ताबडतो
दिवाकर
नियामक
निवारण
पारंगत
पेनसिल
प्रेरक
बँकेने
भिक्षा
मलेशिय
महापुर
यथार्थ
लघुकथा
वसलेली
वितरित
विषमता
व्याधी
शाखेचे
##ंप्रमाणे
अरेबिया
आजारावर
काढलेली
काशीनाथ
क्रिस्ट
खेळताना
चलचित्र
देवांना
नावारूप
पायर्या
प्राच्य
मुक्ताई
मुलांनी
यांचेही
शैलीतील
समूहाने
सेक्रेट
स्टालिन
हॉलिवूड
उत्खननात
गेल्याने
जगातल्या
जर्मनीचा
त्यामधील
दिल्याने
नाटकांची
नेपच्यून
पडणाऱ्या
पिण्याचे
बीसीसीआय
मिसिसिपी
वल्लभभाई
विषयांचा
सैन्याचे
सोनटक्के
हाँगकाँग
ह्यासाठी
अशोकाच्या
इतिहासाचा
जमातीच्या
पदार्थाचे
प्रांताचे
मार्गांवर
मुंबईमधील
विधानसभेत
साक्षीदार
इमारतीच्या
उदरनिर्वाह
पुस्तकांचा
मिळाल्याने
मॅग्नेशियम
श्रीरामपूर
सावरकरांनी
मालिकेमध्ये
व्हर्जिनिया
पक्ष्यांच्या
पौर्णिमेच्या
बॉलिवूडमध्ये
समुद्रकिनारा
मान्यताप्राप्त
##घम
##ोझ
##ars
##els
##ंजा
##ंटल
##ंधर
##आहे
##इंब
##कडी
##केन
##खीम
##गान
##चेच
##डोई
##लीग
##ळेल
##वाब
##विल
##ॅलस
Ab
Sc
qu
लँ
सृ
ॲट
##echn
##iter
##कक्ष
##खानी
##गौरव
##चेरी
##बीएस
##म्मी
##शाला
##िस्व
##्फुस
आवा
ओला
कंक
खेच
डिस
तोक
नयन
परळ
बनत
बुश
भुर
मसू
मॅथ
रयत
रिट
लुक
लोग
शनि
##ंवरील
##चिकित
##तावाद
##पत्रे
##शिष्ट
##श्वरी
##िक्शन
##िपत्य
##्चर्स
Comp
city
असती
आवडत
ऊर्ज
कळले
कवठे
केने
क्यू
खाला
गुंट
चारी
चोरी
डग्ल
दलात
दसरा
दालन
दिलं
देउन
पिंज
पॅके
पोकळ
फायन
मुठा
रेगे
लामा
वरुन
शीतल
शोधत
सतार
सुबक
सोपा
हत्य
हरकत
हेतु
ॲक्ट
##बुद्धे
##वाङ्मय
##विणारा
##ांगणात
##ाभोवती
April
अंशतः
अतिथी
आर्या
ऑपेरा
कांजि
कालवा
खंडणी
गवताळ
गोंडी
जलतरण
जागोज
डेहरा
दाखला
पहारे
पाहणी
रिलाय
रूपये
शिखरे
शिवसे
सर्दी
सव्वा
##नाबद्दल
##मीमांसा
##्समध्ये
आदिलशह
गाडीला
गुजराथ
चांदवड
जास्ती
डिप्लो
नवोदित
पुनर्ब
प्रभार
फिनलंड
बनविला
बाजीरा
ब्राउन
मंगळवे
मुक्ति
शेतीची
सिद्धी
##प्रमाणात
उपनगरीय
कागदावर
कुलदैवत
केंद्री
कॉलेजचे
खाडिलकर
गोलार्ध
ग्राह्य
चतुर्थी
जन्मदिन
ताजमहाल
देशांची
द्रव्ये
द्वारका
नांदगाव
निरीक्ष
न्याहाळ
पाठोपाठ
फुलांची
फुलांचे
भाषांचे
मालेगाव
राक्षसी
संवेदना
सरहद्दी
स्वीडिश
##्व्हेनिया
अथर्ववेद
उत्पादित
घराबाहेर
जन्मलेले
जितेंद्र
ज्ञानाचा
दक्षिणेत
दुष्काळी
प्रार्थन
फिफाच्या
बाकीच्या
मिनिटांत
याच्याशी
लायब्ररी
सयाजीराव
अधिवेशनात
अनुप्रयोग
अमेरिकेला
ग्रंथातील
तत्त्ववेत
तत्पूर्वी
निर्वासित
बांधवांना
शास्त्रात
सिद्धांकन
हृदयविकार
इत्यादींचा
पक्ष्यांची
पुरस्कारही
पृथ्वीवरून
प्रभावीपणे
मराठीमध्ये
राष्ट्रसंत
हार्मोनियम
महाराष्ट्रभर
केल्याप्रमाणे
क्रमवारीमध्ये
महापरिनिर्वाण
वाढविण्यासाठी
##48
##67
##so
##ऊट
##गौ
##धु
##हळ
##२२
##ety
##खिक
##जाई
##जीन
##जुळ
##बुड
##वटे
##सकर
##्नू
90
sm
भृ
ॲक
##outh
##दाचा
##देशक
##न्यू
##भाषण
##र्टी
##वर्य
##व्रत
##स्ना
##ालाच
##िनाथ
##ियोप
##ुलिन
##ेसार
Dis
Int
bec
अथक
उधळ
उसळ
ओवी
खडे
खोत
चपळ
डेव
दहन
दुन
भिक
लगत
वुड
शेज
सँड
हें
१२८
##ंबर्ग
##ईच्या
##णाकडे
##पुष्प
##ाकडील
आयएन
करंज
कागल
कारभ
कुशी
गळून
तळमळ
तोटा
धमकी
नाइट
पडणे
बनून
बसवण
मारू
मेहे
विलय
शल्य
##रासाठी
##ांपुढे
##िध्यात
##्याहून
cache
अप्पा
ओव्या
ओहायो
कुतूह
कोठार
क्रोए
क्षमा
गावकर
ग्लुक
घडतात
घालते
जगताप
पाताळ
पोचले
प्रॉड
फोर्स
बिल्ड
ब्रेक
माध्य
मान्स
मेहनत
मोरोक
यायला
वाढीव
विमेन
सपाटी
स्पेश
हमखास
हिंसक
हुबळी
google
अनुभवी
इब्राह
कस्तुर
खरोखरच
गावांत
जनतेने
टांझान
तेलंगण
नवग्रह
पुरुषी
बससेवा
मुलीला
व्हाईट
शृंखले
शेतीचे
श्रीमद
सरोवरे
सारंगी
सोमनाथ
##माथ्यावर
अग्रवाल
उद्याने
क्षितिज
गुलबर्ग
टेकड्या
ताबडतोब
ताम्रपट
पौष्टिक
प्रज्ञा
फुफ्फुस
बॅनर्जी
बोलावले
भूपृष्ठ
मनोरंजक
मुक्तिस
युनिकोड
योजनेचा
लर्निंग
लाभलेला
लेबेनॉन
व्हायचे
शिफारशी
सर्पिला
सर्बिया
##प्रक्रिया
Research
खात्याचे
डिप्लोमा
भाड्याने
मजल्यावर
वर्गवारी
वापरकर्त
विमानाची
शालिवाहन
सेवेसाठी
सोन्याचा
एकापेक्षा
केंद्राचे
खेळाडूंचा
जोडलेल्या
फुटबॉलपटू
रशियामधील
राहण्याचा
लोकांकडून
संगीतबद्ध
संसदेच्या
सरसेनापती
उंचीपर्यंत
दीक्षाभूमी
फोटोग्राफी
मूर्तीच्या
सैनिकांच्या
अस्तित्त्वात
क्षेत्रांतील
##23
##ON
##ix
##ks
##चै
##३५
●
##alp
##ean
##ita
##oli
##ung
##ver
##खार
##डीस
##पुण
##प्ट
##लची
##शात
##हेम
##ॅटो
##्डन
..
US
जत
षड
##alth
##inal
##vent
##इतकी
##टीचा
##स्लो
...
Rep
आगी
इयर
उंब
ओएस
काड
चाळ
चिट
चॅन
जनन
तूर
भडक
मलब
मित
यंग
रोझ
लंग
शशी
संं
समर
साच
सिस
सेत
सोब
१०६
१२६
##लमेंट
##स्टोन
##ांशिक
##ामाता
##िमानी
अधिस
आहेस
इस्त
उजवा
कदंब
कसबा
काले
गावा
जातक
टिके
दारु
दासी
देईल
नम्र
नाईट
नाले
निगम
निसट
पक्व
पॉटर
बागा
मानद
वत्स
वसती
वाडे
विली
सांघ
हेल्
१८५०
१८७१
##ission
##भावाने
##विभूषण
##संमेलन
##स्मृती
कथाकथ
कॉन्स
घाटात
घोडदळ
दरडोई
धाकटा
धावतो
नजरेत
फेकून
फेमिन
फोर्ब
बाळंत
भयंकर
मनोगत
मांडी
माऊली
मिथेन
मृणाल
मोकळा
लिंकन
सिध्द
सुदान
स्वाग
##ल्यांचा
##ांशिवाय
अस्मित
काटेरी
गांधार
चर्चेत
चॅलेंज
जबाबदा
ज्यावर
देवरुख
प्रतिम
बंधारे
भ्रष्ट
मिळतील
मॉरिशस
लघुरूप
लिव्हर
लिहिणे
वर्षान
संन्या
संरचने
सत्त्व
समानता
हंगामी
हद्दीत
हरिकेन
##्यांवरून
अस्मिता
उध्वस्त
कालगणने
तुकड्या
निर्दोष
पत्करली
पसरलेली
प्रवचने
प्रासाद
महाकाली
वास्तुक
विवाहित
समूहाचे
इब्राहिम
उद्देशून
उद्योगात
कंबोडिया
क्षेत्रे
गुणसूत्र
चालीरीती
डेहराडून
दूरसंचार
नद्यांचा
परिस्थित
प्रतिभाव
बलुतेदार
बेलग्रेड
भूमिकाही
मुंबईहून
विषयांची
संगणकावर
साधर्म्य
सुरेंद्र
स्क्वेअर
हल्ल्यात
##वर्तुळाकार
अल्पावधीत
इतरांच्या
ठरविण्यात
नोंदणीकृत
न्यूट्रॉन
पाठवण्यात
पूर्वाश्र
प्लास्टिक
फेरीमध्ये
मार्गांनी
अर्थमंत्री
कार्यकाळात
खाण्यासाठी
पालघरपासून
पितृसत्ताक
पुनरुत्थान
भारतीयांना
महामंडळाचे
वस्तूंच्या
व्हिन्सेंट
शंकराचार्य
सर्पिलाकार
स्वराज्यात
केंद्राच्या
धर्माधिकारी
माहितीनुसार
विदागारातील
छायाचित्रकार
निवृत्तीनंतर
बांधकामासाठी
वनस्पतींच्या
हैदराबादच्या
मायक्रोसॉफ्टने
कार्यकर्त्यांनी
रसायनशास्त्रज्ञ
##21
##OR
##ti
##एर
##बॉ
##ept
##ket
##ड्स
##दाह
##मनी
##लाज
##शंक
##ोहण
##्य़
36
Se
no
op
झर
बक
##akal
##uman
##उतार
##दोडे
##नीता
##पोटी
##मोडी
##रेला
##ल्डन
##वेली
##स्टी
##ायती
Ram
air
may
अॅथ
औदु
कॉन
गढी
चॅट
छटा
ठोस
तें
दुम
नाण
पदा
पली
पौर
फलक
मति
रित
वलय
शयन
सुज
सून
११५
११७
##क्ष्ण
##द्भुत
##द्रोह
##प्रती
##प्रेर
##ब्बार
##मार्क
##यात्र
##िस्टर
##ुक्कर
pass
अंडा
अंशी
आठवी
कझाक
करीम
कांद
चतुर
जरास
जाडी
टाइम
ठाकर
ठेवी
तारख
फुटी
बोटे
भीषण
मुळी
मेनन
रोशन
लाडू
वरती
शारद
सद्ग
हाकल
##खानाने
##वर्णीय
##ावस्था
##िराजवळ
their
अंकुर
अविकस
आबाजी
कऱ्हा
कोट्य
गुंफा
तोडून
त्रिज
थोरात
निचरा
परतला
पल्ला
पोचला
भाजून
मिथुन
मुळचे
मूळचा
मौखिक
याज्ञ
योद्ध
रांगा
रामाय
लवचिक
वयातच
विध्व
शोषित
सहारा
सुट्ट
सुलभा
हार्ट
##stitute
##स्फूर्त
अर्चना
अहिंसा
आराध्य
औदुंबर
कोथिंब
चालवला
तलावात
दंतकथा
देशाने
पाळतात
प्रवाळ
बरेचदा
मुलीचे
लोकांत
लोखंडे
वाद्ये
विनिमय
संवर्ध
हस्तगत
अशावेळी
आम्लारी
उपपोस्ट
काढलेले
क्लिंटन
गावांना
नामांतर
पोहोचता
प्रतिभे
बदल्यात
मानववंश
रक्तदान
रामदासी
लीगमधील
व्हेनिस
संघातून
समाजवाद
एकादशीला
कायद्यात
क्रियापद
गुरूच्या
जन्मदिवस
निंबाळकर
पार्टीचे
प्रतिपदे
भारद्वाज
मातेच्या
मास्टर्स
मोरेश्वर
मोरोक्को
वापरलेले
शिवकालीन
##विण्याच्या
अर्थपूर्ण
अलेक्झांड
काढण्याचा
कारणामुळे
काहींच्या
गटांमध्ये
ज्वालामुख
ड्रायव्हर
पितृसत्ता
यादरम्यान
विस्तारित
शत्रूच्या
श्रीधरपंत
स्पेनच्या
अखेरपर्यंत
अध्यात्मिक
गुंतागुंती
पीटर्सबर्ग
पुढाकाराने
बनविलेल्या
माहितीच्या
लोकसंख्येत
वर्दळीच्या
संस्थानाचे
सर्व्हिसेस
पुनर्बांधणी
प्राण्यांना
बॉलिवूडमधील
शस्त्रक्रिय
अधिकाऱ्यांनी
कंपन्यांच्या
व्यक्तीमध्ये
ऑस्ट्रेलियातील
तंत्रज्ञानाच्या
##SC
##ऊक
##थन
##भट
##हल
##ूथ
##arg
##led
##कोण
##पोष
##शिम
##श्क
##ोटो
La
ur
डॅ
शम
##इतके
##कारा
##क्षे
##घातक
##तारा
##ताळा
##नामे
##न्टल
##पोळी
##मधला
##मिती
##ल्डर
##वस्व
##सरॉय
##स्सी
##ायोग
##ाविश
##िलकी
##ुरास
##ेट्स
193
gro
कीं
गोम
चोळ
छाय
टिम
डोम
पेय
फलन
बँग
महि
रजत
रुच
सफर
हया
१३५
४५०
##odern
##कर्ते
##जातीय
##वंशीय
##वाहित
##श्चात
##सरकार
##ाईन्स
##ॉजिकल
अनाव
अमोल
आम्र
इंजे
एरंड
कासव
खेळी
घरची
चट्ट
चुली
डिस्
तुझा
दोघी
दौलत
धाडस
पहाड
बद्ध
बोलू
मेंद
राणा
लाइफ
लिओन
वानर
शिक्
सवयी
१८५८
१८७४
##ेंबर्ग
water
अगस्त
अजमेर
अन्वय
उघडले
उपोषण
करिता
ख्रिस
ज्युन
डग्लस
डान्स
डायोड
तारपा
तुकडा
तोंडी
धैर्य
भगवती
मौलिक
लावता
लिंबू
लुफ्त
शिंगण
शोषून
षष्ठी
समस्त
हरमाय
##ulation
##पदासाठी
##राजांनी
##ल्यांचे
August
अध्यास
अमूर्त
अविश्व
उष्णकट
कुटूंब
चेअरमन
जरासंध
ठळकपणे
थांबले
देशावर
धनुष्य
धावतात
पाणिनी
पादुका
प्रयाग
प्लेटो
मधमाशी
मोनॅको
म्हणते
यापुढे
लोककला
शिराळा
शेतीचा
सांगणे
सिकंदर
स्थिति
अनेकविध
उद्योगध
कंत्राट
कारागीर
खंडेराव
त्यांवर
दलाच्या
दिवसाचे
नेण्यात
पूर्तता
प्रोटॉन
बिबट्या
भागीदार
भावार्थ
मान्सून
मुखपत्र
वारसदार
विकासात
विषयांत
सत्यजित
सरोजिनी
स्टीव्ह
स्ट्रोक
स्वाधीन
अधिष्ठान
अविवाहित
कर्मकांड
कोट्यवधी
दर्शनाला
देवतांची
दौर्यावर
धम्मचक्र
नव्हत्या
पक्षांनी
पानाच्या
मार्गिका
मुजुमदार
राहणीमान
रिलायन्स
वस्तूंचा
वाहतूकतळ
विष्णूने
संन्यासी
सांगीतिक
स्तनाग्र
##ण्यापेक्षा
उपाययोजना
कादंबरीवर
घातलेल्या
जातींच्या
नागार्जुन
परतल्यावर
प्रणाल्या
मल्हारराव
विमानांची
विषयाच्या
सदस्यांनी
सुसंस्कृत
सेक्रेटरी
हार्डवेअर
गुजरातच्या
चॅम्पियन्स
तुळजाभवानी
पद्मविभूषण
वर्षांसाठी
विमानकंपनी
सन्मानार्थ
सिद्धेश्वर
सुरुवातीचे
अहिल्यादेवी
काव्यप्रकार
घालण्यासाठी
प्रत्येकाला
ब्रिटिशांना
माध्यमांतून
लोकसंख्येचे
साक्षात्कार
प्रसारमाध्यम
विद्यापीठाशी
वैविध्यपूर्ण
विद्यार्थ्यांची
##AA
##ER
##de
##air
##bal
##ull
##कळत
##खरे
##जंग
##जीब
##झिन
##थुन
##नें
##फिश
##मिक
##रीष
##वेश
##सेज
##ापट
##ामय
##ुळे
46
sw
ईद
ओट
हू
##ames
##णेकर
##तर्फ
##दुखी
##बियन
##मधली
##मानी
##वाढी
##विना
##शीकर
##श्रय
##ुराई
##ूंनी
who
उजा
कणक
खते
गजे
गया
जलस
तंत
ताठ
नां
पीर
पूड
फिक
बघत
बॅक
मोझ
रफी
वैश
सीन
हला
हाफ
१०७
१११
११६
३६०
##झोतात
##धीत्व
##बत्ती
##मंडळी
##यांनी
##ष्णिक
##ानेही
##ामागे
##्यपदक
##्स्टर
2018
Publ
also
been
अयोध
आग्र
आतून
इथेच
इलिन
ऑस्ट
कन्ह
कावे
कॉमन
घाली
जादु
जीएस
डोळा
पोटॅ
पोहे
बोधी
ब्ला
यासह
रविक
वाहू
विधि
शोभे
सबंध
१८६२
##पलीकडे
##र्याची
inter
अभिषे
ओळखता
काझीर
कावळा
कॉर्न
गद्रे
गोमंत
ग्रँट
घाटगे
जनसंघ
ज्यास
तरुणी
निघतो
न्यूम
पावडर
फडणीस
बक्षि
बद्री
बासरी
बोगदा
बोलून
भरभरा
भुयार
मानतो
मानधन
मुकेश
मेंढी
मॉरिस
रचनेत
रणजित
वाढती
शेवगा
संत्र
सत्तर
##पूरच्या
अद्भुत
अधिवेश
अपेक्ष
आल्प्स
इथियोप
करमरकर
किंग्स
किराणा
चाफेकर
जांभूळ
ज्ञाती
ट्रॉफी
दुर्बी
नदीकाठ
निकामी
फर्स्ट
बरीचशी
भाषणात
मोहिमा
राजकोट
वस्तुन
विनोबा
संवेदन
सारांश
सुंदरी
हार्बर
१४व्या
##द्याच्या
##विसाव्या
अभ्यागत
काशिनाथ
घटकांना
जादूगार
दशकातील
नाटकाला
पोहोचते
प्रतिमे
प्रयोजन
प्रसूती
भागांची
मायबोली
मुरलीधर
मूलद्रव
यामुळेच
लिपीतील
लेखनाची
वंशातील
शिकल्या
सत्तेचा
सारस्वत
हाताळले
हिराबाई
##formation
इंजिनियर
करावयाची
कोणालाही
गुणोत्तर
तुर्कमेन
त्रिपुरा
निमंत्रण
नृत्याचे
नेमण्यात
नैऋत्येस
पिंपळगाव
बेटावरील
भूभागावर
मनुष्यबळ
महाकाव्य
युरेनियम
लंडनमधील
वाङ्मयीन
श्रीकृष्
संग्रहात
सर्वांची
सूर्याची
सोयीसाठी
##पूर्वीच्या
आयोगाच्या
एकमेकांवर
त्यातल्या
प्रदेशाचा
भाषांमधील
महिन्याला
वाढलेल्या
शिलालेखात
सांप्रदाय
इंडस्ट्रीज
कारखान्यात
गांधीजींनी
नियतकालिके
पाण्याखाली
प्रकल्पाचे
मराठ्यांचा
सर्वांसाठी
हेलिकॉप्टर
अभ्यासकांनी
आंबेडकरांना
करण्यापासून
वर्षानुवर्ष
विभागप्रमुख
शिकण्यासाठी
संस्थेमध्ये
अमेरिकेमध्ये
मुख्याध्यापक
योगदानाबद्दल
शिक्षणतज्ज्ञ
सूर्यमालेतील
कार्यक्रमांचे
कार्यक्रमाच्या
तत्त्वज्ञानाचा
शास्त्रज्ञांनी
##ll
##आप
##नस
##वं
##्घ
##ele
##ley
##omb
##कुर
##डकर
##लील
##शेद
##श्म
##हात
##होल
##ावं
Gu
Sw
उख
हृ
##ants
##ंतरी
##खेडा
##प्रत
##बंदर
##भागी
##मवेत
##र्ले
##स्कट
##ालाल
##िवंत
##्तंड
Rel
pre
rev
आयझ
आलो
उशी
ऑब्
कंध
कळप
चटक
टीप
डिक
तेर
देय
धुर
पोळ
फिट
फीन
भाय
भुक
सम्
साऊ
१२४
##ility
##ource
##तीतील
##त्पाद
##त्याच
##प्राय
##ियावर
Book
node
time
अफजल
अाहे
आइसल
उपमा
कन्स
कसोट
खेडी
गुंज
घाबर
चाफळ
चेंब
जत्र
टाईम
देहू
परोप
फलित
यांस
लपून
लाइट
लावत
लिहू
लोकं
वजीर
वरळी
विकी
शुभे
समजत
साधा
सीना
१८७९
##iction
##गोविंद
##प्रयाग
##स्टाइन
##स्थापन
##िंग्टन
Hindu
अक्षत
अर्वा
आसामी
ऑर्डर
ओव्हर
कालवे
कुंडल
कुळात
ग्वाद
चितार
झीलंड
निवडी
पहाडी
पांढर
पाचवे
पुर्न
फिरकी
बंदरे
बलराम
बिलास
ब्रीद
भरवले
भांडण
म्हणी
येवून
रणगाड
रांची
रेखीव
वाटली
वापरू
शिंगे
संपला
संयुग
सवर्ण
सांबर
सिकंद
सेक्स
स्फुट
स्राव
##काळातील
##वार्षिक
अझ्टेक
अतिरेक
अधिवास
काळाची
किमीवर
चमकदार
तुरूंग
नालंदा
निदर्श
नेपथ्य
पायवाट
फायब्र
बारावी
बृहन्म
मताधिक
वास्को
विकृती
व्हिसा
शृंखला
समूहात
सांघिक
सीबीआय
##पर्यंतचा
##्यांसोबत
##्याबद्दल
अविकसित
गौरविले
चर्चगेट
जातींचे
झाडांवर
ठाण्यात
ठेवलेला
दर्शवते
दोघांना
पात्रात
माणसाचे
मिळणारी
विशिष्ठ
असाव्यात
आणण्याचे
आधारलेली
कारकिर्द
खेळाडूला
ग्रंथांत
घटनात्मक
जर्मनीला
झाल्याचा
ठेवण्यास
डेन्व्हर
डोंबिवली
पिक्चर्स
प्रचारात
विकासाचा
विजेत्या
विभागाची
सरकारकडे
हानिकारक
अणुकेंद्र
कॉलेजच्या
खेळाडूंची
गौरवण्यात
ग्रंथांचा
ठिकाणाहून
प्रयत्नात
मंगळाच्या
मालकीच्या
राहण्याचे
लावण्याची
विष्णुदास
शेपटीच्या
संशोधनाचे
सत्ताधारी
सर्वमान्य
सोलापुरात
स्वास्थ्य
कलाकारांना
कारणांसाठी
काळापर्यंत
चिंतामणराव
जीवशास्त्र
टेलिव्हिजन
पर्वतरांगा
भास्कराचार
मुलांमध्ये
मोगलांच्या
शिवाजीच्या
संस्कृतीची
सत्यनारायण
सरकारतर्फे
सुरक्षितता
क्रिकेटच्या
जाणीवपूर्वक
मोजण्यासाठी
महासागराच्या
सामन्यांसाठी
दृष्टीकोनातून
अलेक्झांडरच्या
जिल्ह्यांमध्ये
त्यांच्यामध्ये
स्वातंत्र्याची
##80
##इज
##ोभ
##935
##hem
##ina
##ium
##oss
##rid
##ंथी
##डीओ
##पाप
##रचे
##लीझ
##वेट
##सची
##होम
##िगो
##िपल
##िमे
##िलं
##ेसह
##्रॉ
##्वि
03
75
Ag
आं
आउ
गल
टळ
##ning
##एसपी
##केळी
##कोपर
##निचर
##पक्व
##र्गन
##ळनेर
##विधा
##विरत
##स्के
##ासीन
##्सची
Ass
cod
def
div
new
इंफ
उकल
एंड
एक्
खडा
जिं
टॅग
फणस
फेम
बाम
रोट
हर्
११४
२२०
##ution
##तीतून
##भाग्य
##मूल्य
##यांचा
##रस्ता
##लौकिक
##विशेष
##ासहित
आघाड
ऑर्थ
कुळी
कोथर
खाऊन
गामा
चुका
चेतन
जादा
ठेवू
थ्री
नंदन
पुला
बाळा
बोरा
मन्व
मिठी
लक्झ
लाईन
लेले
वायर
वाया
विपण
संपत
सगळा
समुप
सुफी
सुमन
१८५३
१८७७
##चित्रण
##नाट्ये
##वादाचे
##विलेला
##व्याचा
##िंगहॅम
##िकांचा
##्याजवळ
अविरत
आगाशे
उबदार
कथेवर
कवीने
कामही
कुशीत
क्रेड
खुरास
गाजला
ग्लूक
जमशेद
जयदेव
टाकळा
टायगर
ठेवतो
तांबट
दीडशे
द्विप
धबधबे
पाटणा
पिशवी
प्रीत
बाष्प
बोरकर
मनाचा
म्हणे
राखली
राखले
राधान
लग्ने
लागणे
विकून
शत्रु
##ा
##्
##र
##े
##त
##य
##ी
##क
##ल
##स
##न
##व
##ि
##म
##ह
##ं
##प
##च
##.
##द
##ो
##ण
##ज
##ग
##ु
##आ
##श
##ू
##ब
##ट
##ध
##अ
##ड
##,
##ळ
##ष
##भ
##ख
##थ
##ठ
##_
##१
##ए
##उ
##०
##घ
##फ
##इ
##झ
##२
##a
##e
##-
##)
##ृ
##९
##t
##(
##i
##ै
##ढ
##o
##n
##ॉ
##ई
##r
##s
##"
##५
##८
##३
##h
##ॅ
##६
##४
##:
##७
##l
##'
##ौ
##/
##ऊ
##c
##d
##ऱ
##m
##p
##u
##ओ
##1
##ऑ
##0
##ञ
##’
##छ
##g
##w
##ँ
##2
##]
##‘
##f
##[
##y
##b
##ः
##;
##v
##9
##A
##3
##4
##k
##5
##%
##S
##8
##औ
##C
##6
##7
##I
##ऐ
##=
##T
##P
##M
##B
##|
##E
##।
##ॲ
##D
##?
##़
##R
##N
##H
##–
##ऋ
##G
##L
##O
##F
##x
##W
##!
##j
##K
##“
##”
##V
##J
##U
##z
##ङ
##॥
##&
##+
##q
##ऍ
##°
##Y
##`
##*
##X
##Q
##>
##ॆ
##ا
##ॊ
##•
##—
##்
##Z
##ऽ
###
##−
##ॄ
##<
##ل
##⇨
##ā
##م
##ऴ
##é
##·
##$
##া
##ر
##→
##ி
##த
##ா
##ن
##ॠ
##ॐ
##}
##ர
##α
##॰
##্
##а
##ō
##●
##و
##ي
##′
##ی
##о
##د
##র
##ம
##ə
##ன
##ب
##⟶
##^
##க
##{
##್
##×
##£
##ு
##₹
##и
##ऎ
##е
##ச
##്
##ο
##ح
##வ
##ν
##π
##@
##í
##μ
##్
##॔
##ি
##ু
##ப
##л
##н
##ా
##ü
##р
##│
##ন
##ল
##ட
##á
##ˈ
##س
##ర
##ম
##ó
##ī
##к
##ع
##ব
##স
##ய
##~
##¶
##ː
##ρ
##ج
##ರ
##ς
##י
##ت
##ι
##λ
##τ
##σ
##ش
##ত
##দ
##в
##ة
##ി
##æ
##è
##с
##ک
##ऒ
##ε
##خ
##ه
##ந
##ை
##±
##Ú
##ழ
##ാ
##ū
##ف
##ক
##প
##ા
##ண
##ు
##†
##γ
##м
##ز
##গ
##ী
##ಾ
##ಿ
##ര
##ɪ
##т
##॓
##ਾ
##ல
##́
##ί
##κ
##న
##ి
##ನ
##ē
##َ
##চ
##য
##শ
##ে
##ো
##ਰ
##వ
##ವ
##ç
##Δ
##у
##ר
##ق
##ం
##ಕ
##་
##♦
##à
##ˌ
##δ
##η
##ό
##॒
##জ
##়
##ల
##స
##ന
##മ
##城
##👉
##θ
##п
##ו
##ط
##ِ
##ર
##ે
##ள
##ெ
##మ
##ಂ
##ಗ
##ಮ
##ಸ
##പ
##海
##\
##ñ
##ʃ
##д
##з
##א
##ל
##ऩ
