[PAD]
[unused0]
[unused1]
[unused2]
[unused3]
[unused4]
[unused5]
[unused6]
[unused7]
[unused8]
[unused9]
[unused10]
[unused11]
[unused12]
[unused13]
[unused14]
[unused15]
[unused16]
[unused17]
[unused18]
[unused19]
[unused20]
[unused21]
[unused22]
[unused23]
[unused24]
[unused25]
[unused26]
[unused27]
[unused28]
[unused29]
[unused30]
[unused31]
[unused32]
[unused33]
[unused34]
[unused35]
[unused36]
[unused37]
[unused38]
[unused39]
[unused40]
[unused41]
[unused42]
[unused43]
[unused44]
[unused45]
[unused46]
[unused47]
[unused48]
[unused49]
[unused50]
[unused51]
[unused52]
[unused53]
[unused54]
[unused55]
[unused56]
[unused57]
[unused58]
[unused59]
[unused60]
[unused61]
[unused62]
[unused63]
[unused64]
[unused65]
[unused66]
[unused67]
[unused68]
[unused69]
[unused70]
[unused71]
[unused72]
[unused73]
[unused74]
[unused75]
[unused76]
[unused77]
[unused78]
[unused79]
[unused80]
[unused81]
[unused82]
[unused83]
[unused84]
[unused85]
[unused86]
[unused87]
[unused88]
[unused89]
[unused90]
[unused91]
[unused92]
[unused93]
[unused94]
[unused95]
[unused96]
[unused97]
[unused98]
[unused99]
[UNK]
[CLS]
[SEP]
[MASK]
t
##ng
c
đ
##nh
v
th
,
l
.
h
tr
b
m
ch
n
k
s
nh
T
và
d
g
p
ph
ng
kh
"
là
##ác
##ên
C
củ
của
1
##ượ
##iệ
N
##an
##ông
gi
##qu
##ột
##ược
##ong
qu
được
H
##iế
một
##ườ
##ại
##ới
##ăm
##ân
S
M
các
B
##uy
2
r
L
##er
##ày
trong
có
năm
##on
x
##ất
Đ
P
)
(
##ch
Th
##iên
A
##ành
V
##am
##oà
##in
-
##ar
K
đã
##ình
##ười
20
với
Tr
##ươ
##áng
##en
##iề
họ
##ai
##ương
##ướ
##inh
cho
người
##or
D
##ần
##al
##ay
ở
##au
19
##ầu
##iện
độ
G
này
Ch
##iể
##ang
vào
##anh
##es
##ung
##ao
##ường
##ến
##at
##ốc
##ực
##ây
##ận
##ính
##iều
số
##ước
##ản
từ
##ải
thành
##ức
như
tháng
##iến
##ùng
##is
##ộc
##ật
##ững
Ph
:
thu
ngh
##oài
không
Ng
phá
##el
##ia
##ập
đó
đến
những
##ối
##ết
##ời
khi
##eo
tại
đầu
Q
ngày
R
##ống
##iệt
ra
##us
học
##ic
thể
Nh
Qu
##ục
ho
##ơn
về
để
##id
##ol
công
##im
3
201
I
##ái
##ài
##ằng
bị
đị
sự
##it
trên
tiế
##ội
##as
200
ông
##ánh
##ăn
##ặc
##iê
##ồng
##ũng
##ảng
##ền
##áo
##il
chính
sau
kho
E
##om
5
##ăng
làm
F
##ur
W
nó
##ắc
cu
gia
nhà
##ích
##âu
cũng
lại
##án
##et
##oàn
##ổi
##iết
quân
/
##iệu
##ôi
dân
khác
##ượng
nhất
4
##ạo
động
nước
Nam
loài
##âm
xu
o
Kh
##em
##ạt
##os
##ào
hiện
J
cả
##ạn
##iển
nhiều
##ảo
##iệc
##òn
##àng
##ấn
##ện
quy
thời
theo
sử
##át
##ễn
##áp
##ắt
##ôn
##uyên
mà
phát
do
con
dụ
##úc
##um
thuộc
##ed
##ịch
##ơi
##ứng
hành
##ấp
hai
##ấy
việc
##ạc
chỉ
bộ
6
##ae
##úng
##and
##ặt
##oại
of
##iêu
##ưở
sinh
##òng
##ưởng
10
quốc
cùng
quan
##uyện
##op
Gi
lớ
thế
##ởi
di
hơn
##ac
##ạng
O
##ấu
dụng
##ad
xuất
phí
nhân
hình
khu
còn
##ion
thứ
định
##iểu
viên
đồng
vị
##le
chiến
X
##ộng
##ter
##un
bản
thị
tên
##ẫn
7
##iểm
Việt
##ot
18
Quốc
tiên
##ỉnh
Trung
U
tự
phía
cách
##ọi
8
tổ
##ợp
đề
##ách
##ưa
cuộc
nhưng
##ri
;
y
dự
trở
##iền
bởi
phần
cao
##óng
bằng
thực
lớn
0
vật
hợp
##ag
giới
trường
lập
##iệp
giữ
chủ
Ho
tiếng
the
##ển
chức
đội
thường
9
##àn
##hi
rằng
đại
trước
hoặc
phải
hội
Trong
##iệm
nhận
##ul
điều
giải
trình
thống
lượng
##ồm
##re
kết
chiế
gồm
Anh
12
##óa
Các
qua
##uyền
tiếp
tu
loại
##ro
sản
##ướng
sẽ
Y
##ốn
cơ
thủ
##uyển
##ing
đi
khoa
tỉnh
lên
vùng
##idae
tế
gọi
199
Năm
xã
diễn
tả
trung
##ĩa
vụ
##áy
##ra
##ồn
tính
bao
##òa
##àu
##ua
mình
vì
bắt
đối
thông
##ằm
tác
nhiên
tạo
cô
lý
##ưu
##ồi
hàng
An
sống
vực
khoảng
##od
##ám
chúng
phim
đường
phố
lu
hệ
trị
điểm
lực
##ọng
Sau
Đại
địa
in
tích
quyền
##oàng
##ếu
Hoa
đánh
##ent
hay
##ắng
nữ
f
lần
anh
##ẩm
sĩ
##ist
giáo
cấp
##ắn
phân
mới
##ut
##ig
##ak
Loài
pháp
cứ
##ệnh
##ưới
##ậu
##ạch
The
##ốt
thức
##ạnh
thì
11
tàu
##og
rất
bay
thấy
##ir
hóa
##ec
##ạm
tham
w
Tây
St
##ers
'
cầu
tập
chuyển
nên
máy
##ảnh
nhạc
đấu
tới
##ùa
##ap
năng
mặt
gian
Pháp
Ô
liên
%
đây
tranh
##ab
trận
diện
toàn
Mỹ
đất
nghiệp
truyền
##ọc
huyện
nhau
Đức
–
Al
##ry
Kỳ
văn
hoạt
giả
phương
giữa
đặc
Ông
nơi
Nó
hiệu
cử
nam
triển
chi
nằm
Một
##ov
##ầm
chất
đang
##st
trí
##ld
##óm
đạo
Bắc
đoàn
biệt
##av
sáng
##ưng
ban
biển
danh
##ìm
tử
đổi
đô
##th
##oc
thiết
đá
nghĩa
##ép
##ard
đo
biết
kinh
dài
tâm
##ew
ba
##ep
dưới
##ell
thuật
##orld
km
##ỗi
so
Mar
##ill
nói
đơn
bà
chế
##iv
##êm
Đông
nay
mục
bình
nhiệm
cuối
198
phủ
##ét
trưởng
âm
2010
##ine
##ow
##út
cứu
mô
đảo
thay
sách
Công
điện
ảnh
##ổng
bóng
nhỏ
kỳ
##ev
194
dùng
ăn
15
##uyết
In
biến
vẫn
tìm
phẩm
trang
gần
bảo
châu
##ỏi
trọng
bài
Hà
##ọn
báo
ta
nguyên
197
kế
cá
##ip
##ẩn
dịch
đặt
17
13
##ob
Thái
##ảy
ý
chu
tiến
miêu
tình
##ừng
tương
cánh
dẫn
đông
##uyến
##00
tin
##ian
Bộ
nhóm
chơi
to
nổi
giá
thi
tổng
Ar
mang
Vào
tăng
tiêu
Nhật
##êu
##ie
liệu
##ant
bên
viết
đều
tài
Am
sông
màu
bu
tư
Tuy
al
lịch
ứng
Nguy
##ậy
đưa
phòng
quả
tướng
bắc
tuổi
ngoài
phục
hát
bố
yếu
16
##iếu
##ợi
Dương
Ngày
##úp
196
sát
##ub
giao
phong
##est
kỷ
Liên
phụ
chiếc
Col
biểu
Nguyễn
##ce
Z
Lan
Văn
lã
tục
đời
thân
##ne
Theo
mùa
khí
bán
rộng
##ou
thương
dựng
ca
đình
giống
Thành
##ok
đóng
quá
##sis
##ation
##ĩnh
and
##ạp
##all
chương
chưa
00
14
từng
nhiệt
thần
Hải
xây
bỏ
hòa
vua
dù
hoàn
##ah
vai
##yn
##ạy
##úi
lo
de
bất
cổ
hậu
##oi
su
##ữu
quyết
nghệ
sở
nhập
##ich
lệ
195
##ẳng
Ban
Le
tấn
Hoàng
##ặp
##if
Bản
Bình
Â
##ik
nào
hoàng
##ủy
viện
##uồn
cung
##ph
##ặng
hạng
tinh
mất
##ina
cái
xác
##iêm
vệ
##ber
vô
Sh
##ít
chiếm
vi
cây
thắng
##ừa
Tổng
tiền
mở
000
binh
ngôi
chống
tây
chết
tra
Minh
ngữ
Á
lúc
##ấm
##ran
bệnh
dạng
##io
2008
trợ
##yl
##ud
chí
##ess
New
hộ
ký
mạnh
Khi
thư
quản
trò
El
tượng
gây
nguồn
Những
World
vận
bang
##ứa
giờ
sang
nghiên
Từ
##aw
án
chung
##bum
sân
Cộng
cộng
tiểu
mu
##ửa
Br
câu
Ấ
##iêng
minh
triệu
Ngh
lưu
chứng
tất
hướng
ghi
chữ
##ton
cư
##áu
##ta
an
##ory
phản
##eg
dương
kiến
lãnh
yêu
giúp
##ãi
núi
ty
tay
Nhà
kể
Sơn
##eb
Con
thích
tốt
##ếp
##ượt
##ắp
miền
đạt
Pr
chọn
lạc
tỷ
hạn
độc
đoạn
Vương
vậy
##ựa
thêm
thuyết
hữu
sắc
cần
cảnh
Châu
sao
lấy
vòng
Quân
kiện
chia
phép
##oh
##az
sư
tộc
##ịnh
hết
Hội
kích
khỏi
xem
30
Cu
vương
Do
cảm
mỗi
##óc
&
duy
##ib
em
xe
chú
Âu
193
##eric
Ba
quận
ít
Chính
vấn
]
##ey
kê
##ast
##ẫu
khả
##man
cứng
25
##ug
luật
trực
##esc
Thanh
II
hưởng
##ầy
##uc
[
Nga
Mus
trai
nội
xếp
##art
Độ
La
Đây
huy
triều
đồ
mạng
##ord
##uôi
Ấn
sp
gốc
Người
lời
mắt
##ìn
##éo
2007
##uk
Tại
tuần
album
giảm
trấn
##our
cố
a
chị
Lý
bàn
du
##sk
trẻ
##eop
niên
##tera
Car
làng
Chiến
giành
gặp
##son
khai
lệnh
##ex
chạy
sức
tỏ
Par
vũ
khách
Long
##ass
##rys
lớp
giáp
ngoại
##amp
Nha
đế
Tháng
##iếm
đới
Thế
Trần
phổ
quay
bầu
21
Giải
dòng
đa
rồi
xuống
##ach
thanh
chuyên
Americ
địch
hỗ
chuẩn
bọ
Danh
áp
riêng
Phi
Hist
Chúng
##ệt
biên
hầu
##ly
Mã
##ace
khiến
gái
thấp
Chrys
bổ
##ort
##ue
Nội
Cô
lễ
##rib
##ens
2011
lợi
##uân
Nat
giám
tuyến
phiên
##ụy
Giáo
cáo
Lê
##und
2006
##opsis
2009
tuy
thúc
Đảng
##omel
bại
##ắm
##ẩu
##ín
Syn
##orm
cập
thiên
##ater
phái
muốn
Hy
##ậm
tiết
dục
Có
hoa
cụ
22
mẹ
##ath
##te
tức
##ff
nghị
Thu
chân
vàng
nghiệm
doanh
American
Gr
History
mọi
##ge
Hồ
Chrysomel
Chrysomelidae
nhanh
vài
quanh
##tt
cực
tồn
##ão
Sp
Trường
đứng
192
24
##land
kiểm
desc
cận
cửa
Ngoài
tịch
thủy
2004
nữa
##àm
191
2016
Nhân
##ảm
môi
nền
2013
##ủng
##eoptera
Un
Hán
##ribed
As
Coleoptera
##atal
lộ
vây
2012
described
rừng
100
Synopsis
##ack
23
bạn
thái
thờ
Bà
##ider
##ãng
tưởng
giết
##eum
mặc
2015
##tr
##yr
##ata
Thiên
##uấn
lâu
##ies
nếu
đôi
2014
ngay
j
Nguyên
bảng
Tư
world
trúc
kỹ
##orn
##ẹp
##ural
hạ
##end
dựa
luận
##ond
##ain
coi
Tân
đáng
tho
##ier
Vũ
đốc
ngôn
hạt
tối
##ind
##ôm
##ana
##up
mật
tuyên
##iz
giai
đủ
##ert
tố
mức
##ưỡ
_
##ore
bắn
Hồng
Đồng
Cl
Không
mét
thất
##ity
luyện
chiều
mẫu
tuyển
nhện
Ở
##ersion
Sc
Ý
thưởng
nhằm
pháo
##ont
cải
Hàn
kéo
Museum
##ate
Kim
cấu
cha
phóng
Đế
##atalog
##ern
##oy
thuốc
ước
##ann
chứa
rõ
lá
Natural
hồ
ngành
lục
Fran
##one
thập
##ica
Is
khó
Chủ
quần
version
##ara
bờ
2005
##ius
Tông
Cao
##ườn
##ork
catalog
phận
chịu
khúc
Xã
##ãn
##ish
thơ
bốn
31
môn
26
spider
##ón
xa
28
phạm
khẩu
tốc
##ans
Kinh
đĩa
nông
##oph
tôi
nặng
trao
phi
Dân
27
dành
ngắn
cạnh
đêm
chấp
đàn
toán
Joh
nối
com
Giang
Viện
##enn
##ium
ấy
##yp
khởi
sóng
Lưu
Chu
đổ
Gu
Đô
##ame
Quảng
dung
hoạch
##ém
nuôi
tù
hôn
##se
##ọa
trùng
Pl
50
xảy
gó
2000
đài
hải
2017
hại
Tiên
lĩnh
gì
buộc
##ary
Ủ
trắng
##iễ
nhìn
xỉ
##ith
chuyện
Điều
##iễn
Ủy
Sự
Bl
thổ
Khu
Hiệp
##igh
##ick
vợ
lửa
Elater
##amb
Kho
Xô
Elateridae
Sch
hồi
##ưỡng
Can
thiếu
kim
cũ
##èo
##ez
sai
##ỏng
##ice
sâu
trạng
San
tòa
Cal
##ek
tôn
En
Hai
##úa
đen
Hòa
trụ
chiếu
Đến
##ỏa
##ada
##âng
Ninh
29
xung
trả
##les
##ock
##ein
Thượng
Bar
Phil
Ale
vu
băng
Lu
##ềm
Mal
u
##eth
Gia
Đường
2001
##ọt
2018
vốn
Thị
đầy
ngựa
mối
Họ
##ụng
trục
190
thuận
căn
xử
linh
loạt
khá
mua
Man
##ula
niệm
vượt
Chi
##lin
tái
Ad
dễ
la
luôn
Đài
sứ
bức
40
bào
rút
##ct
Bảo
trái
song
súng
##ặn
ủy
Ma
##ts
##rom
John
Com
##out
##aceae
##ầng
mại
##lor
##ei
Hu
đỏ
tội
mềm
tạp
Mặc
mã
truyện
=
đào
khối
cự
suất
##tern
##oan
hãng
Giám
càng
Thủ
US
?
Phó
Be
phối
rời
##ẩy
Trước
kiếm
##ipp
##CN
thử
chuyến
kịch
Ú
1999
dấu
kiểu
##ensis
##èn
189
##ust
##ite
suốt
Yên
lòng
da
##ox
suy
Thánh
##ost
góp
trách
cuốn
Har
thịt
##ide
Với
đích
“
tầng
##ect
đảm
Ind
”
##ãy
xanh
tín
##urg
soát
tải
##era
trì
##yc
Triều
Số
vừa
gh
dữ
Tam
trời
2003
kính
dần
hàm
Mặt
ương
trưng
buổi
thật
xét
##ico
đăng
And
##ttp
khóa
##iss
##eph
Or
##ys
Tổ
tước
##ino
##ideo
Quang
Việc
xuyên
Xuân
chim
Vì
nguy
Di
Co
hỏi
đảng
Re
Pol
##ile
nghi
chủng
York
mực
chó
trừ
phê
##oth
##uni
xứ
##aul
kẻ
nhiễ
##org
Lâm
đạn
on
Phần
Úc
##ma
điển
Thụy
Lạp
hủy
lược
##age
pr
Ser
Cơ
188
##na
##ley
nhờ
##ash
loạn
Cr
##ood
Phong
Định
Trương
Per
##co
De
Chí
huấn
##ella
ngăn
nổ
ví
đương
Nhưng
Phật
đem
dị
thoại
thừa
##iềm
thảo
##ale
nạn
tách
##iel
lính
ánh
ô
lượt
Phú
##ama
Ab
đẹp
chảy
nhu
mộ
##ym
giác
diệt
thụ
Ngô
##ka
họa
##ùi
máu
187
lao
##ane
Quận
ủng
hạm
chúa
mm
nghe
chóng
bước
##ler
##sh
Se
##iếp
sửa
##iếng
##uổi
##act
##att
khắp
##omb
đọc
Ber
thí
##ari
##òi
##ya
Ge
2002
đột
##ict
lai
for
##old
thú
TCN
vọng
Cổ
##ena
phút
##ửi
phù
hiệp
thiện
sớ
form
186
trải
##ague
##pl
thăng
##ữa
Rob
kháng
trào
đẩy
hương
chỗ
liền
##alia
Bo
nâng
lông
Phương
Huyện
hiểu
cắt
Hiện
##gh
##oll
Tòa
35
Ai
##ime
xin
Chr
hiểm
bày
hơi
Ap
##ano
ai
Pro
##ett
It
Em
Will
cầm
##osa
Nếu
st
##ien
##uch
khảo
liệt
##ines
cậu
chỉnh
!
ẩm
##ania
Ag
nhiễm
gửi
Char
Fr
dạy
ổ
Ed
quý
Mon
##ald
##ive
##oss
##iam
Rom
60
Sư
tuyệt
sơ
đe
Mel
+
dọc
thôn
1945
Ang
2019
War
Ngọc
tầm
Gre
Hưng
sớm
giản
##ịa
Lương
ru
http
He
khắc
##ver
Nhiều
Về
Để
thăm
bão
e
thoát
##ứt
dọa
cai
Phúc
quán
Trái
chẳng
##per
xâm
##ũi
Sa
mạch
kênh
bí
##ẵn
##ca
cỏ
Canada
thước
nửa
##ft
Her
phó
tá
sáu
Vĩnh
Tập
màn
##ment
thao
truy
đỉnh
ấn
##ames
Dav
mưu
dầu
Mo
League
săn
Cục
juni
##ii
cường
thù
ngầm
Đạo
Cá
Tên
tháp
Nor
##ala
xúc
##yd
##are
##ộn
cm
tan
Phạm
Thông
áo
quyển
Tỉnh
formula
##ita
Lin
1990
##ure
##ix
chồng
Truy
##atus
##ones
thẳng
bò
Trịnh
xo
Sân
##amm
##ậc
khiển
xạ
Tiểu
##ical
Đào
chùa
##ight
Địa
Đội
Pal
Mich
##aur
##ót
Wal
##ial
tiện
##ros
##bo
Tử
tặng
gắn
##õi
sắt
##och
##own
Hồi
ly
32
Đất
đúng
bậc
nhớ
trồng
khô
##ark
Thời
thiệu
game
Paris
Du
45
##ail
##én
quê
Tu
##ational
ngược
siêu
##úy
thác
Pet
500
quang
185
bãi
trại
##iet
Tự
xương
thượng
lẫn
nhẹ
##ừu
##ron
Sal
rơi
##itt
’
sẵn
##ida
##ays
tai
quảng
Camp
Đình
Ac
Philipp
ma
Nghệ
Loan
80
Thủy
sung
Cập
##ashi
lẽ
dây
bề
1998
##ini
hút
IS
hấp
Bài
Chỉ
##ivers
tỉ
web
tránh
Khoa
##berg
##ward
Linh
Cor
Cuộc
So
nghiêm
Sam
##aria
bom
Hạ
đền
Quan
video
gà
Tấn
Tống
##ora
##burg
cờ
thuyền
Air
Me
Kar
đuôi
##ceae
Cách
đáp
lâm
##istan
##va
##ươi
Wh
##ric
1997
Na
##ear
##uz
đuổi
Uy
ww
chặn
Chương
Hậu
nhánh
nghỉ
##ions
lưng
##olog
tán
www
bác
thánh
nghề
##ụp
tống
Phan
##enz
Hóa
hè
Tôn
##ney
món
dưỡng
##rid
can
chữa
trích
Ả
Gl
##ase
vườn
Cuối
Mad
Intern
##ía
III
##ura
##uel
##ướm
##ola
##ene
bánh
phiếu
Khánh
##II
hoá
gắng
sợ
##yria
đoán
lựa
gỗ
Triệu
36
##ott
Chúa
nhật
nắm
đau
##unt
cựu
võ
Mùa
70
##iforn
khăn
My
đỡ
##rod
ràng
gió
tắt
ổn
Áo
Phổ
##opter
Sở
vuông
ưu
bé
Sing
Os
##ner
Thổ
##20
##int
giấy
Rh
##ef
ống
khoản
giảng
##ille
Tiến
cặp
mời
##ặm
Californ
Trên
##aya
ngờ
uống
California
Lat
33
trữ
tàng
mưa
1980
##ris
ngang
hài
1996
##outh
sắp
184
Đầu
họp
Mc
Wil
bật
tắc
Jos
Nhĩ
tạm
nghĩ
phán
dậy
Alex
tờ
cừu
hoang
90
##ượu
##ima
Ca
##bon
1995
thua
bạc
trú
nóng
dãy
ngọt
##asil
On
đực
bướm
Sant
cảng
All
cơn
hôm
##ited
##ole
##sen
Sĩ
Cảnh
##erm
chép
thậm
Sinh
##bert
Cup
William
Go
1975
##xit
Af
##ona
Học
##elle
##la
hùng
phức
trốn
mười
##lo
cấm
##ani
Vân
Bồ
Huy
Điển
Cũng
rãi
Kiến
Paul
##ee
##aint
tia
Mac
##hip
##ói
kì
Tất
Nữ
Đối
lương
Thống
38
Hệ
##ins
Thom
Univers
##ence
##que
Tim
Cam
sa
Tần
chối
mũi
West
Phòng
đai
Môi
1991
1992
##ỏe
ngân
##ve
Mông
Bí
cân
##ean
khỏe
##ept
Christ
Thiếu
Hiến
tàn
rượu
am
USD
##onia
Val
##ợt
Ven
Nghĩa
phường
trứng
183
Sài
nỗ
We
Lục
##eland
tùy
thiệt
Là
##ướp
quỹ
Min
Su
Gen
59
##ael
##mer
pl
Hol
1970
Thần
Lịch
Cùng
Lực
|
1994
i
kg
sh
Mil
mẽ
Đoàn
300
34
##aj
phạt
Cap
##che
tụ
khủng
đẳng
##uss
bụng
dày
##ign
tròn
##ult
Hữu
Trang
Như
tận
Ngụy
ẩn
lui
Sm
Vua
Te
##ester
48
Được
ích
miễn
trăm
góc
et
Mor
soạn
Đặc
Fl
Lễ
Bill
37
##BN
##ịp
Mont
xưa
Lou
1960
Robert
Đan
vịnh
Cho
##inc
##row
1993
##ki
##ics
Mai
##iana
chấm
Bang
Mi
vỏ
đệ
Dr
Câu
hiến
##eta
Saint
Mag
At
Hen
tim
##iaceae
lối
trống
##sky
chắc
hỏa
Hầu
Philippines
Điện
##ford
##ốm
Nghị
tường
Trận
co
Thuận
Syria
##FA
Ir
##orge
Bal
Arg
##rich
chinh
##ull
Gòn
##umb
by
tấm
Đà
##we
##ham
đám
sáp
ngũ
##men
is
55
Ro
Med
hiếm
Tiền
Album
Tiếng
Sl
##raz
đoạt
##ons
Ne
lan
đứa
##ows
at
47
vỡ
hồng
Ex
mỏ
##ero
bá
nâu
##ais
bảy
ac
mái
Rập
bèn
đồn
##ha
as
##yst
hư
75
Lã
Sim
Wind
đốt
Ví
lỗi
kém
cục
01
Dan
##ji
Sông
Mart
Duy
vẻ
##eck
##yo
##xy
Và
##èm
vong
mạc
Sử
Mic
>
pha
dặm
##use
hô
##ors
Pan
Toàn
khán
lạnh
Cả
Tương
##ợn
giọng
rối
##ớt
Ol
##car
##awa
##rat
vẽ
el
Mỗi
Mer
khơi
##ise
Thường
Pom
Cast
##ỳnh
Cầu
United
nhảy
##its
Sao
cháu
kia
hòn
##ea
vĩ
cháy
phe
Eur
Lúc
##go
tệ
Hung
sót
von
Luật
đòi
52
##onesia
You
1989
mệnh
##ubl
To
180
##tain
##ats
lưới
Champ
Hoàn
đức
đợt
z
Tuyên
Bur
39
##eal
cam
giàu
Bạch
sóc
##ota
James
ném
..
...
mong
Franc
##pt
Viên
Hành
Bá
##der
Kr
thẩm
bạo
Kết
##iger
Tor
khám
dàng
Tào
rắn
##ade
David
mắc
Lond
41
thỏa
##ides
gen
49
chuỗi
Lai
Phát
Grand
##odes
ar
phỏng
George
##af
Lộc
điệu
##ool
##ush
cất
##TV
Võ
##ck
Đinh
thai
Press
lỵ
Ant
London
Lào
lôi
Brasil
Quý
Tok
thuế
42
##icus
nguyện
##ago
##inn
chăm
nhắc
thạch
Lạc
cột
##wa
<
Alexand
ngừng
chạm
South
##ila
cướp
Vol
##ake
##rop
43
chặt
##iếc
trúng
##ze
##esh
Indonesia
##anda
51
##ụi
##ustr
huyết
##ony
khấu
Dự
from
Hương
đua
pp
Thạch
1988
44
##itz
##ếch
##BC
65
buôn
hà
Rich
Shi
Vi
##rael
##da
biện
ám
##de
46
Tính
##ram
san
Cha
##anth
##idaceae
Jo
##oria
Tài
Bel
Es
##uth
hu
Tôi
Mos
53
Ben
##ke
tổn
Thư
giam
Er
tám
tọa
Ly
University
##ose
Ger
1950
ranh
chắn
tảng
Bay
1942
tựa
##ẹn
Israel
dõi
Ngay
Don
Cát
Windows
ISBN
khổ
Song
ex
prot
thảm
##gin
lang
Kông
đầm
##ja
Si
khái
Nhóm
Dung
Tiêu
##ks
răng
Fri
đón
##iệng
##za
##enc
đẻ
Sup
tri
Sw
##ere
with
Po
ngọn
54
##li
ha
Ngoại
no
nghèo
vinh
Met
viễn
tam
thiểu
##ski
hy
No
chậm
non
182
Cử
đồi
Ver
mồi
Phim
lái
Thể
Mas
cốt
Tom
le
Michael
chín
Biển
##ire
Mạc
chở
Li
##ci
Op
Italia
sàng
##any
181
Sar
xưng
##akh
Phụ
Ec
kiêm
##oto
Hàng
khuẩn
##ằn
Biên
kèm
Xuyên
ốc
Est
Mex
##line
may
Louis
Trọng
chìm
For
##ko
Bên
Jul
Cung
Flor
Charles
Huế
vui
1940
Mod
quen
dứt
1944
ninh
dinh
##kh
ga
vở
Angel
Thương
thả
1987
ngồi
lũ
del
sữa
##NE
##aus
##mp
Tề
Jack
miệng
Colomb
##ngton
Lang
côn
1986
chứ
##ios
##AS
ác
##mar
Giao
##ớp
Tur
cương
##ali
dư
##alis
vạn
1979
##ụt
đậu
##ations
##ker
##pa
Bu
Sil
cú
Str
City
bụi
400
Argent
Vùng
Bằng
vết
##air
lẻ
Hạm
Ass
axit
64
hứng
Av
##ycl
ngủ
##uchia
sẻ
dừng
Il
Mục
##apore
ven
##ove
Austr
Mạch
##ates
Thọ
hỗn
##yt
##no
Frank
Ngân
Đó
mảnh
°
Enter
Thân
ung
cãi
thuê
##ùn
Ur
Sol
kêu
1946
##ield
1985
Vinh
56
ngàn
##ìa
Singapore
lũng
dàn
Campuchia
Dis
##ato
##illa
##board
sánh
tân
Phước
Cúp
Đảo
##ome
King
lỗ
lợn
Nov
tông
Carl
gấp
thải
##anc
ser
khuyến
bối
en
khẳng
##iver
##iano
Hợp
Ath
Star
khuôn
##me
##ượn
##etri
cát
long
cỡ
##mann
Chân
##he
58
Cent
##ision
mê
##olf
ed
##pha
##inus
Báo
kỉ
Dù
canh
viêm
##ele
chấn
triết
top
Gar
##ling
mọc
Dưới
##ori
phu
ngư
thầy
##uba
lọt
1984
##ho
##10
Rec
Lo
Fo
##ria
Vir
trầm
Malays
05
Nhạc
Kit
Thiết
Hùng
##NA
Bol
muối
Luc
Lăng
Trời
Chiêu
che
vững
##ador
##ement
##sch
04
IV
Malaysia
Tuấn
1930
Haw
##rog
##ress
gu
##by
57
than
84
Gh
1982
Phiên
Mu
##ops
Nob
dã
Thứ
1972
1954
Hel
##ated
1976
1943
Điền
##ashington
tần
Mat
Pat
sạch
Kể
62
cà
vú
##oma
Scot
rã
Tác
Tak
chăn
Washington
Comp
Lee
phúc
Port
Argentina
##òm
—
hắn
Bi
Ireland
Black
##ology
##ger
úy
Quyết
mạn
##ux
##tm
63
Tham
1968
tiêm
##ese
Đỗ
Del
##SC
cản
Quyền
Trị
hang
chuột
##ois
##err
thang
##oli
ức
Francis
##edia
##aki
Âm
voi
##ami
Truyền
##aut
gai
85
1941
##ênh
Giống
Dry
chợ
khổng
lô
hẹp
lồ
Mexico
dao
cán
rad
Zeal
Sk
##ope
xuân
Hot
Colombia
##eri
đập
##une
Dar
1981
Tàu
FC
Melo
##aga
Nông
##yll
Zealand
Aug
Billboard
1983
lạ
150
bia
08
khích
mèo
##oo
Lam
Thiệu
##ava
##ember
Jan
Maria
##aka
1965
chụp
##cz
Đôn
##ury
lỏng
Xương
07
xám
Luân
Venez
1973
bọn
Lib
não
##ition
##éc
ngợi
##oman
Pomer
Ok
02
thuần
Cái
trạm
##ild
97
##cus
North
International
Nghi
Cas
##nam
##raph
Cần
Red
##ife
xấu
1974
sợi
61
sơn
Bos
cụm
tung
Bỉ
##eved
##wood
Bro
May
##AT
thép
Eng
Vị
Ngôi
tô
Hoài
Thực
tháo
06
Vườn
Sai
XI
Tan
Tứ
Alb
Soc
phú
Mik
##rad
Henry
thận
Ther
trương
thám
Brit
Art
##chi
car
lọc
##fl
Khoảng
Uk
dược
CP
Huấn
Chiếc
htm
cưới
cl
nét
##ias
Music
trông
Ấu
03
##ùm
bột
dường
##tainment
Mark
ngực
Động
pop
72
##oni
1978
Gro
Top
khung
##agn
Trưởng
09
kỵ
Som
già
thoái
ghế
Thomas
##itan
##xi
Quy
Ev
or
bạch
Meloidae
Pak
org
hiển
Tĩnh
1964
##ets
Ky
chàng
Đặng
TV
Phái
Peter
duyệt
Oly
Vệ
des
khoáng
dải
178
Lao
Polyp
Pe
Đa
dâng
hộp
thách
##etrieved
##rig
Richard
Entertainment
##ance
##ten
Nghiên
##ộp
bè
1967
Huệ
Iran
nòng
Hi
##ựng
hổ
ngại
Los
Tô
Sách
66
hào
Liêu
bi
hoảng
mát
##ring
chờ
trộn
##app
95
1963
76
##lad
Hình
Vict
dáng
Olymp
ruột
##gar
Rev
mai
Mah
yên
Ott
1956
Ist
##chn
1947
Az
Gal
tiềm
Nap
Nhất
Ukra
179
Stud
Fre
hoan
ếch
tứ
chút
Quần
nhấn
##ẫm
Bùi
Jac
ngập
Nic
uy
bọc
giận
tóc
##aud
Phân
77
chư
Ul
##ink
Phủ
gián
Kur
Mur
ép
Tw
##ters
##uela
1971
sụp
1955
niềm
Dryopter
lúa
##ova
vir
##ren
##ridge
Kế
Vụ
1939
Lãnh
##ube
Mẹ
##ower
News
xoay
Ak
1969
##res
Park
1966
thọ
thợ
##BS
Cuba
##MS
op
Đệ
##yan
bấy
mãn
Môn
Rad
Quản
màng
Polypod
Chánh
Ta
fl
pol
##iidae
xong
##ựu
##osh
##over
Sur
##ye
##ings
Ele
Tokyo
##aph
##oft
73
bo
##III
Ki
Ju
67
Jean
##uct
ưa
men
Bệnh
Pi
1977
Viễn
##ank
##amin
##hing
##ba
##uki
##cel
tĩnh
##ette
hồn
##ville
be
Còn
mơ
phẳng
##ello
74
vn
68
Video
Niger
Tình
Cảng
Comm
##ral
Arane
Die
1962
Ram
##uck
Vo
##itar
##nal
Phù
protein
Thừa
##olo
1959
Champions
hầm
##erus
Fried
##erson
Thuật
Eug
tuyết
Res
nhạt
##ism
##ito
##stein
Berlin
Martin
App
lăng
Arch
Tường
anime
lân
đợi
Cây
Huân
hoà
khuyên
##ùy
600
Sang
Khắc
khen
hưu
Camb
##uri
xưởng
Sel
Andre
dịp
Braz
Ngũ
78
##chen
##ado
1958
Times
im
Ư
Phía
Kỹ
Kon
##ela
tươi
chôn
##ga
71
sưu
Ken
Cos
##els
mươi
##ords
nàng
phẫu
88
Ros
Ham
Max
##ati
##AN
bl
##orus
lắp
Internet
National
##den
Mé
Hiếu
##21
##yrod
Dom
##OS
##ode
Love
##to
Scotland
##oire
##red
Dịch
bơi
đốm
##ớn
thung
120
kín
Manch
Sum
##fer
mấy
France
Publ
Nước
Chung
Joseph
Micros
1961
Cer
Rock
FI
giây
Tex
rau
hề
69
Tâm
Id
Thắng
điệp
177
Ga
pro
Tướng
vang
##oshi
der
Kam
lồng
Super
$
Tin
cổng
suối
khứ
Ni
Lợi
Van
nghìn
Club
##pe
đàm
đèn
Cop
Brazil
##port
hyd
nấu
One
##iew
1920
new
##oda
nạp
Viet
##ual
Ob
nấm
1949
vành
Lev
trần
khôi
Yo
Chile
hâm
căng
##eral
##ave
van
Đăng
đỗ
##rie
CD
nề
##ense
cong
bút
nhị
##itch
##ific
Mass
##mm
un
inch
cac
Je
ki
Div
##seud
Retrieved
đáy
1948
##oz
Venezuela
99
##ưỡi
ngã
thiệp
##ogle
Pakistan
sạn
Tar
Tiếp
##alc
##han
Kitô
##inea
Khang
##ps
sc
Hơn
nỗi
Ð
##my
Carol
nhịp
Reg
Hungary
lật
Ast
Gir
ghép
huyền
VI
##rab
đậm
Bor
Simon
dò
sàn
##CA
Kn
Sun
81
##rit
1957
##erg
800
Georg
Tel
##tron
ấm
dâm
##30
XV
đựng
cưỡ
hạnh
Seo
kịp
gỡ
nhuận
Pap
Hàm
Tri
Australia
##su
96
Hiệu
rock
##ilia
mãi
Pop
đáo
Rep
##ily
##ser
Ter
nhãn
ảo
AP
Roy
##aro
Phục
##way
Trà
Hướng
86
ái
va
Tùng
##50
##inae
##ướt
##ộm
lưỡng
Therid
98
Aleyrod
##ỗng
mây
Game
mỹ
Tạng
##ball
nhượng
Microsoft
Smith
87
Virgin
bùng
1953
tang
Sz
dời
##cher
giỏi
treo
Inter
lò
Huyền
##reg
Mộc
##ecies
##stant
Bul
nở
ấp
Lep
sur
phun
##imb
Lư
fe
UE
##eld
buồn
Ep
ngự
Jour
Gm
Sải
Mary
sườn
##able
wh
Cửu
79
dẹp
##ugh
Bon
Tháp
##oa
nhầm
Nigeria
##form
bây
lắng
Máy
##etr
nô
điền
Thơ
Tour
bền
##site
##ream
##isc
Award
##be
##ster
Bab
gan
lành
dỡ
##atia
thịnh
##ny
Ke
gợi
1952
##uất
Siêu
##rown
Lượng
Anton
##ẵng
##ump
##ars
##aux
đâu
quái
Kỷ
Peru
##iễu
#
##ID
Kính
##IA
ad
mảng
lặp
##ough
Pter
Tuần
soái
Diễn
82
##alin
Trinh
##cess
Atl
##ution
##elt
Fred
##actyl
Vịnh
Angeles
mùi
Google
Cong
Cai
Lập
Quả
Che
Manchester
Cương
Green
##aris
1951
gói
Play
Thạnh
Hal
gl
xứng
eo
##atic
##ystem
dê
##inal
Columb
Hawai
Latinh
Tal
thẻ
Ox
Pu
leo
quét
##of
##ím
##ni
Que
mượn
##11
Lỗ
Lyc
##ulf
lầm
TP
Bad
UEFA
Gold
August
Miss
Trăng
bê
Friedrich
gạo
Istat
Texas
Town
hỏng
Vô
html
Han
cạn
vé
Im
Mill
ngưỡng
Cro
lãm
##ẹt
Ira
##yph
tật
Shin
tuân
##lan
Iv
nêu
##ange
nhì
cod
Hill
thôi
Thiện
Ukraina
Thi
Wales
Thục
Barb
Et
##ator
sub
lệch
thỉnh
##ẫy
##urn
oxy
Sen
93
Thăng
ft
Fir
chẽ
túi
nồng
lãng
##AR
bồi
83
##ote
##agon
##DP
vợt
Ku
##eter
Tai
##por
89
Dev
sổ
##ru
Cụ
##rian
cống
Boy
hứa
dốc
Vòng
##hm
Ts
Mak
##oci
Wat
##ista
nhắm
Tinh
Ân
##nes
Mid
##abeth
Vạn
##ấc
Cực
##onom
Hawaii
##ẳn
AS
Card
tem
Dec
Meg
phế
Albert
súc
Florida
##iga
Stev
1936
Iraq
##oe
##uke
Hau
Bố
Bat
điêu
##aster
1918
Guinea
##ital
Count
Jam
nhựa
Colle
Wars
Kaz
lam
mỏng
##ourg
Tế
##bia
##emb
nút
Tín
##ema
##rey
Aqu
##íp
mừng
Nẵng
hẹn
ab
Thiền
##kin
##field
Giá
##ypt
##19
đúc
bó
##ủi
##elm
Dòng
Francisco
liều
Fu
##plen
Bảng
sừng
##win
thô
Sec
1938
phổi
##har
thuẫn
Karl
hằng
Santa
nit
##let
củng
Loại
##cc
ruộng
đói
##erb
Nhờ
Nik
##ous
##str
Xa
Journal
BBC
Web
par
Tú
Geo
##VD
Nar
92
Carib
sốt
Mol
tràn
##ti
chào
USS
vịt
Trí
Oscar
Asplen
É
ro
Lab
##col
Des
Mộ
##antes
Trân
Wall
Vill
Ry
175
700
Mang
Điểm
hẳn
Bir
##ambon
##sp
Great
Records
Les
CO
Cand
rạn
Quá
##MA
rồng
##40
##uador
Trạch
##SCO
mòn
manga
Khmer
##hiidae
##zo
per
Nag
Ru
##ogen
trinh
Bre
Chùa
Olympic
##enburg
Lit
##ilis
tốn
##hire
Far
táng
##ever
hydro
cacbon
gương
mìn
##una
Prem
176
múa
##otball
au
bốc
Bị
Ray
Inc
Lệ
Sav
Nai
Jackson
91
Gmina
mar
Quỳnh
Tăng
lão
Khai
mỡ
##po
Bra
Kiều
hã
bữa
##rin
chục
##uma
ong
Khê
##anian
Ecuador
##rov
lõi
Fil
Book
béo
cúp
1937
Bất
Off
Steph
Bas
Mười
Thập
##ür
##stit
xóa
##dor
Tay
lừa
Giai
By
##yles
Bern
Harry
trượt
tambon
Mosk
CH
##isa
Quỹ
Mạnh
codice
##ów
Up
Serie
##olk
##usa
##ume
Lữ
Loire
ngo
duyên
vời
##yclop
Ann
Eliz
##rob
gọn
Linyp
Rod
Linyphiidae
Dũng
virus
##apan
Thất
Thịnh
Alp
1000
250
Đỏ
##enia
Disney
Mau
thỏ
bông
Int
Win
UNE
Kiên
160
Hem
Alexander
Men
dội
bội
##eto
##ui
She
Bell
xóm
##TC
Roma
##mi
##yg
Latin
Land
bàng
Giới
FA
Life
##unk
Mir
Bách
##anna
Russ
##tar
Gra
Trans
##ots
Cambridge
##ison
Nobel
##thur
kiên
trâu
Hit
te
xích
149
Gramm
##pool
mì
1929
##otus
Adam
quát
##ery
##ghan
Bạc
##eda
##ound
sọc
sing
##vin
94
Fe
Cẩm
Nguồn
Pseud
bến
tha
vải
##ylv
ôn
130
##atha
thơm
##oug
Núi
1914
1935
Call
Girl
khuyết
Glob
Bah
Mậu
##unc
##oid
Enc
ngẫu
Pier
##hr
##ule
Đĩa
Dip
ind
##jo
##és
kĩ
##atri
Hay
ion
lườn
dính
Hall
##ique
rạp
Quán
Slov
chiêu
Ari
##ych
phấn
Yam
Charl
đâm
đứt
Bến
ướt
Mật
##ete
Trấn
Mis
##aea
1919
bar
lầy
##80
##ience
UNESCO
##uro
##iy
McC
Chel
XX
móng
off
##atra
khỉ
Chiều
Division
phiến
Vàng
Nav
Pyr
Chấp
lũy
Viết
Bus
##iform
Bởi
radar
##atum
##ugu
Tả
chừng
##asc
##ute
QĐ
cúng
##ales
tỏa
Bh
##well
Seoul
##asa
Oxford
mặn
ngon
##anus
1934
Myan
Đốc
Nói
nhi
##IS
cr
##ather
thở
Sud
Columbia
Binh
mù
Ug
lạm
Làng
##optera
br
##ogl
Chợ
mạo
hoại
Kal
cậy
hãm
mốc
Moskva
Kat
Thel
Sat
##ident
Pri
Huỳnh
Ottoman
tiệc
##ène
Oct
##ures
##xico
##olis
##oro
Gab
Diego
##ắk
Giả
Mạng
DVD
##anch
làn
mi
nợ
xướng
giấu
##icul
Cry
đòn
##aser
##rol
Virginia
cài
dắt
Sáng
khẩn
website
##ax
Son
##ýt
met
FIFA
Stre
huống
Đo
##roc
##urt
1931
Phùng
viếng
##amo
Túc
Elizabeth
Alf
Sab
##ophyll
TH
khía
kil
Khải
140
Act
México
##ôma
was
##olia
Dem
##press
nộp
Tùy
Arm
##12
Dub
đắp
Hor
Trò
110
##eol
##uto
Daniel
Dryopteridaceae
ấu
Football
hi
Dict
Java
##ariidae
ngón
Quách
Lạt
dũng
luân
chánh
Den
đà
Brown
ur
und
Thay
Od
##ban
##alus
Chó
khớp
Tối
chuyền
Stan
##helm
Law
gạch
hưng
are
##erto
Ra
##ypter
ob
##aker
Diên
Online
hối
Island
Lud
Vật
hoãn
##ươn
Pomeranian
##aku
Ti
man
Afghan
mờ
Part
Kiểm
Kl
##14
##aun
Jon
##ianus
Victoria
##rak
ri
Tháo
##agi
##ée
1932
ne
Net
xá
##uka
hung
##ione
Căn
1917
hảo
túy
Cape
nhiếp
Big
đắc
Tiết
re
rác
Szcz
Hạt
Ste
##atch
bát
Đôi
##bach
Cre
Đơn
##otes
Hoằng
li
##atin
Chic
guitar
Polypodiaceae
feet
dạ
ngộ
Thẩm
lưỡi
##ky
##orth
Bác
Hon
CS
nhạy
##als
Congo
Cy
##wig
Ay
Gần
Bảy
Ins
Day
##omen
mon
vân
hố
Tre
##rik
AT
##ér
##pid
Ron
Í
Lim
East
Lâu
##BT
Đền
##aire
sói
##ther
Dai
Mô
Dol
elec
##emen
##xít
##umi
Lần
Nhu
High
Lind
German
Eg
nho
##AC
series
kiệt
##ady
trăng
tím
rửa
ngọc
##mel
##oku
Ash
cóc
bách
##vent
triệt
##mond
hist
rào
##õm
Pot
##azz
Wood
xen
Đề
##otte
##17
Giáp
nghịch
‘
170
Sri
ngừa
túc
Show
móc
##eno
CL
khói
trà
##enter
Christian
vạch
Trình
##ơm
lứa
dward
ngụ
Chuẩn
Afghanistan
Xem
dec
##ander
Wilhelm
##ograph
Liver
that
##FC
Marc
Japan
##di
Ko
mâu
Rog
Ear
nghiêng
mod
chém
gr
Constant
##eng
##br
##sea
est
Đạt
Rôma
chua
Bốn
Neo
Real
##NS
1933
PC
Jacob
##AM
##iff
Hom
AD
Fer
Lĩnh
mac
##uman
Tạp
Nho
Giê
##ennis
São
Moz
##gi
Ri
Voiv
it
Khả
Qua
Da
Nay
Harv
Chicago
Hổ
Zh
##esia
Liverpool
trật
Aleyrodidae
Thelypter
Gil
vay
kẽ
Mẫu
giật
Gall
##48
##odeship
duệ
art
Cat
Brun
Encyclop
fr
Panama
Ký
Szczec
##60
Ha
##15
But
Chất
##war
bớt
heo
trôi
page
##EC
1900
Voivodeship
##eira
##ün
##adi
nhọn
##ington
TT
quỷ
##annes
##emy
Just
##CM
táo
Thích
Hạng
đeo
thoảng
bù
##esi
##aly
rải
Group
##ait
Rio
Khương
Time
Vietnam
Ps
Kir
lụt
chốt
##elli
1922
giặc
tê
##ouv
##ject
##ju
Sand
tùng
Đồ
##ili
##http
đấy
Premier
##las
##sa
##oon
##pur
##IC
##ty
Tho
mũ
Leon
Uganda
mầm
##ega
ơn
Var
China
Europ
##iti
##ents
##osaur
Giữa
Đen
Mot
Pres
Penn
##18
##25
##odactyl
Phố
Kenya
##gr
Kan
res
Fi
2020
##arch
##attle
trừng
ngai
son
se
##ourt
Cass
Young
CN
https
Hỏa
say
rễ
Holly
Mường
##agu
##ère
Maur
##ques
Lớn
bit
Séc
Royal
Milan
sm
##ido
sét
Năng
quên
Melan
châm
##led
rẽ
##yme
##eni
cười
##alle
Cấp
Lar
Doanh
hãy
##13
Chelsea
tre
Khối
##ebo
Xá
Hiền
Hộ
##AF
miếu
##ichi
##mon
##ally
##aid
1870
Đã
##opteris
HMS
Jim
##cl
##iki
Mao
Kenn
##16
##ardo
Philip
sôi
tôm
Bayern
min
nén
Arthur
dám
Cố
##ces
nảy
kép
##edonia
Zo
log
1928
##ike
Anth
Ty
System
Trụ
##oster
cap
1927
Bàn
##ional
xoáy
giáng
Boston
##oct
vẹn
##rea
Xiêm
Awards
Mãn
Pa
Độc
##ext
Apple
Lá
##eton
EP
Bulg
Nhơn
Khởi
lùn
Armen
Scott
##ente
##beria
Bát
105
##itis
khiêu
Sản
Media
đạp
giãn
##cul
Marie
trans
1910
tráng
##ớc
##uther
Walter
##olas
Leg
Xuất
Cường
##lines
Araneidae
cuộn
Lau
ân
bùn
##iph
tị
Instit
##erick
##ika
Tuyến
##ants
đãi
sút
thuỷ
##earch
Hãng
Eugène
##ril
Sn
Abd
mắn
Hang
Pers
1925
Pháo
tắm
chẩn
Moh
##ẻo
##cer
1924
Sin
Global
##raw
##aska
##jan
##unn
Khí
Hong
Chế
Sev
đệm
Plat
Bob
cối
ngòi
Jer
vol
vôi
Night
General
Costa
1916
America
White
##ages
Tetr
vượng
Ped
hàn
vắng
he
Dam
Liv
cẩn
Ig
Chap
Thức
bổng
muộn
mic
Fish
ngưng
##ason
God
Len
IP
##ree
Lor
rai
Cà
##ss
##ret
Rick
quãng
Ngựa
bưu
Ước
miếng
nhiễu
##agas
##enth
##ethyl
Phụng
##NC
##so
##net
AR
Sir
Chăm
tour
1926
##ES
Py
electron
Fam
AC
gãy
xấp
Trì
tấu
gấu
Vận
lặng
hãi
comp
Pomerania
Cư
ngục
khe
##ươu
ap
Kos
col
1912
##work
##ative
Kiểu
Kong
##emon
gũi
cua
Dia
DNA
Hir
##bl
đu
Nep
show
##ovo
##ône
up
Serbia
trội
##gan
Fed
khử
##ispa
enz
##DA
##wan
1905
Miến
##stan
##bor
Tỷ
Lại
Not
bám
nướng
##ento
British
Cuốn
##23
rẻ
Prod
##dam
##eli
##ishi
##ude
nhũng
1911
##eps
##igan
##atar
##je
##gen
Tưởng
##achus
Greg
Chim
khánh
Vĩ
##agar
Hoà
rec
buồng
thùng
##endo
##ston
##etts
Der
125
Ple
nig
1921
Trẻ
play
Hitler
Thomis
##olution
##ght
thâm
##ious
Mun
Pre
hái
vĩnh
##arus
##icle
thiền
##arp
##elop
##rus
Ung
Atlant
Chart
Games
Live
xoắn
##27
Ứ
##avia
bắp
Cit
Taylor
Balt
Xích
YouT
Bulgaria
Dur
Biểu
Khâm
Juan
Liệt
lùi
Gard
Grammy
##uv
##plat
##rica
1913
ngô
lây
Ngôn
WW
##eus
##utt
cốc
LG
Ánh
##imus
Sic
##din
hoạn
thổi
Phượng
##isia
##ômét
Nơi
Sáu
ruồi
Company
khóc
gov
ngạc
Airlines
Wolf
165
1908
khoang
Armenia
cơm
##rick
Nev
*
SS
me
tuệ
Cab
Cont
hạch
##hol
Hollywood
##enberg
##ival
Phu
##ites
thự
##ears
Tích
Cậu
Kháng
Raj
1923
Good
Ghana
net
vòm
Uyên
900
trộm
##raft
##iety
##ipes
##ript
##24
khuy
DD
Mess
##agen
Cur
MiG
##box
not
vươn
##NG
##ecta
Lời
Szczecin
##hiop
VII
Sak
×
##other
species
Rub
Ren
##lish
##inger
chòm
vách
Model
1915
Fern
Sport
##aica
tựu
dệt
khoán
Chú
##bi
tảo
Ic
Hãn
Wes
list
Hằng
Sund
##zi
##èze
nốt
##éon
nhậm
gốm
Pierre
lấn
##ER
Cánh
##osidae
Fox
Thác
Côn
cắn
raion
Fort
khoan
Sul
##enos
rùa
Beng
Fac
Key
Đàm
tú
Ori
piano
##cha
bìa
lê
Quế
Jord
##asp
Ker
##don
College
##not
School
thắt
##adel
Tem
1906
##unct
Bắt
Cyr
Bích
quật
Màu
ván
mồ
##inawa
YouTube
##FO
bệ
Ever
##ular
ant
Amaz
Pic
Hoạt
##St
Araneus
kilômét
##shire
Hind
Post
Nhiệt
Puerto
##ND
Jones
Sóc
##ittle
##yte
Ji
đày
##ister
Lạng
##ault
Corn
##eim
IU
Hab
##ulus
ngột
Thung
nát
Giáng
neo
Tám
str
Maj
Lomb
##emia
##eman
##acill
Euro
nắng
Đổng
Chiêm
Associ
Diệu
Miền
phụng
cáp
Phao
Ka
ten
##ogn
Nhị
##omon
đắm
Tanz
##ivia
Rud
lí
Cửa
Nhi
##itter
##osph
Bud
UK
Trực
##aba
##lex
##isp
##22
##ied
Than
đụng
168
Cten
Marsh
tơ
##zh
##min
Tang
1909
##uta
dâu
Kö
##AP
##ủa
##ingham
Robin
Sah
##ensus
opera
Gà
Princ
Las
Síp
##ira
##ody
Pok
##Ph
Xưởng
Nak
Tuổi
Cham
##imal
Kiệt
rêu
##lorua
Massachus
167
Asplenium
Ái
hiếu
đính
sil
natri
##ifer
##rô
Niên
chuông
Okinawa
Lew
Mẫn
giấc
Massachusetts
CBS
Tun
Conn
cưỡng
Christoph
Oreg
Plan
Tanzania
Tới
mập
lấp
Asia
Blue
Old
Roman
##oides
##zy
##roid
rob
lường
##BA
##nus
Candèze
##ely
Spar
Oregon
rủi
Ứng
Emp
##uts
Beat
Carolina
Bao
Hòn
##dy
Tịnh
Frederick
bếp
ghét
Cựu
Dig
Tạ
##IT
Doug
Andrew
tụng
pin
1907
Open
##lam
##mont
Society
Pen
Mọi
bầy
Science
MV
xít
Anna
trùm
Sub
dĩ
159
Fel
Arsen
inter
Bờ
Lepid
106
127
155
quà
Way
Boe
cắm
Prad
luồng
##ando
##amine
Johnson
lộn
##oud
Ôn
##kov
##etta
107
vit
Palest
##vis
164
Thúc
nhiêu
Guy
Đắk
José
##itaine
Jordan
##Th
Tượng
##odon
Khan
Lanka
##elia
Dor
##aza
Allen
##26
Om
Alpes
XIX
Merc
Dal
MTV
cắp
Doãn
##owa
sắm
##ves
cưỡi
Ran
##aven
157
Lycosidae
Gon
GS
kề
Khẩu
Lept
Edward
Theridion
101
lặn
Championship
nhẫn
Spring
##ẹo
##sc
rìa
Liêm
##ław
Bão
Vai
##NT
##com
Uỷ
##rach
chì
hiếp
##kins
GDP
Pard
First
Dụ
Att
Vây
##28
##ioch
Syd
##ionary
##oen
giày
##eva
##ader
Serv
trọn
##kan
rap
Phường
IC
##unic
Link
Sùng
Ethiop
Nu
Cốc
bể
all
##rah
163
##cient
Hann
Khổng
Aquitaine
Boh
Diệm
Jeff
##MT
##agan
Sams
##IV
Bán
miện
Mem
hit
王
108
Ross
##aze
Dep
Cycl
Vinc
##ection
Clark
Vu
173
Henri
Ut
128
mộc
rụng
nu
##tra
vảy
Born
Turk
##29
##ET
Lân
##ovich
Sudan
##uld
##flies
Vis
##ylvania
##ante
Rang
##nia
##cast
##ights
sch
ngài
Clubion
fan
ngu
sẫm
Theridiidae
Jun
Cyath
##enna
Occ
Street
##ụa
Chữ
rep
1895
news
ao
Nhìn
##lô
Madrid
Tuân
Williams
Chris
NG
CLB
Ngược
Radio
##ape
PS
Bái
End
Fle
Pac
kiệm
solo
##bes
Thêm
Gioan
Madagas
gác
phiêu
House
Nghiệp
##estyles
##ras
##aru
##zer
Ball
Last
templat
templatestyles
Thuốc
Tetragn
##esa
Bóng
104
chuồn
##opl
lắm
Encyclopedia
##alo
##aff
Pt
##azine
Dream
Lãng
166
dai
Hand
Jr
##ymph
Best
##wo
kem
but
Dryopteris
##lav
sọ
##ogne
Alg
Arsenal
Hiển
174
Ngài
##eme
##EE
##awi
quạt
thiêng
vội
Inf
tể
hụt
##ollis
Canh
cành
##nd
1904
Acad
Hein
##uction
State
Ali
Dầu
chéo
Stephen
Sor
bin
Trin
##ince
Fall
Croatia
##ray
##rip
sấu
Elec
Moon
Hymen
Samsung
xi
Nhiệm
Boeing
##apt
Đàn
Đậu
Mand
Norm
Davis
Ludwig
Madagascar
HD
us
Mach
Harvard
Prot
Roll
##agh
Lão
Ten
Lombard
Lộ
Vlad
Sydney
Jamaica
DC
Dat
Rai
nương
##pan
Conc
##aman
Tob
##ues
##idad
cuồng
bóc
Por
Polypodium
##uda
Ib
Kore
Domin
169
Alfred
Cụm
##asha
tiễn
##kt
xà
VIII
Diện
1890
tản
Hous
Ngãi
Hans
comm
##anga
Lớp
Rem
chuộng
Pradesh
nhường
##érie
ngơi
Castile
Pardosa
##ids
Bry
Băng
Harris
khát
Rand
cont
##cessed
##ithi
Nepal
##ken
mag
##ulata
hiền
March
##right
Stalin
##ven
##ultan
cuống
mg
##usc
Yu
Nouv
Ethiopia
##etic
Anne
Riêng
##rot
mến
Color
##ives
Thor
##LA
hận
đạc
##ierra
##si
Macedonia
##val
1897
Neg
nha
Ivan
khuất
##OC
##elen
Hil
Nad
Techn
Trắng
##ersey
sương
Africa
##xa
##nik
Yang
Sem
##aco
tẩy
Jud
Fa
Phaolô
Rico
Kai
Kom
Sung
Out
1871
mộng
##edy
##eon
##orum
Linux
Mün
Sid
##uti
##inia
chổi
Andr
Khác
ray
kiềm
đành
XIV
Tiệp
chùm
##phia
##rogen
hươu
Đêm
Hart
##skie
nếp
buýt
tiếc
##iformes
Guad
Mob
chèo
Dư
phơi
Palestine
NAS
asp
##iko
##oke
khuynh
115
Bank
Gala
##rap
AM
Penns
Android
Georgia
Little
Nick
Gib
##ammad
##eople
MP
Center
nghiệt
##alk
##itus
Lag
Hoan
##acy
##alem
Rất
Thạc
đắt
Trúc
##Tr
Thomisidae
Norf
Xe
thạc
Egypt
##elly
1891
1898
Chang
##DF
reg
Pennsylvania
single
Đá
cồn
Khách
UFO
Pont
##ization
Queens
nghiện
##uf
##ambia
##acc
##isch
Let
mỏi
đằng
##él
Catal
Alaska
##ift
Sher
tóm
OS
109
Laur
Gracill
Pad
##rh
Def
##atsu
Iceland
1902
Tuyết
Barcel
##istr
trơn
Dựa
rev
Heart
bú
id
350
##illo
1885
1889
Liban
##eti
Mở
##pson
##ylon
Dược
Antonio
Caribe
##anni
##elles
Ngạn
County
Bức
lùng
##arm
ngắm
sulf
##TA
##ukh
lb
Pas
Cứ
##annel
Norfolk
Brand
##alla
##osus
Jung
Gracillariidae
##hl
Nouvelle
##owo
##ska
##edes
Wik
##yle
137
##thia
Wang
Sound
##ulation
1899
Amazon
156
Tod
Norman
Cận
nồi
##kel
1903
xinh
ham
##urch
##LV
##PS
dr
đê
##iter
Yak
Pict
##vel
SA
Hyp
Film
Nint
##tz
Ble
Nich
##imir
##hio
bộc
lụa
intern
Ny
##ector
dev
Giác
Stone
1896
Yok
ins
##rect
Ahm
mệt
145
cấy
chúc
Slovak
Alt
Carlos
Corpor
Thai
Matth
small
Kazakh
##gy
##ird
Thảo
canxi
Dj
Jenn
rắc
##ental
láng
153
tồi
##iaz
Nguyệt
Marne
##ians
EU
##oper
##oceph
Hard
Road
lữ
Xây
Hun
lội
spin
English
Rhône
Chuyến
Fin
103
Barcelona
##uez
Dys
uốn
##icola
Rica
phot
##ễu
Stat
##formation
##icia
##aeus
113
Trác
thói
Ern
León
Rome
Guide
xông
##oga
##ulu
NS
147
Giêsu
Thiểm
af
154
Pel
gánh
Lewis
##idea
##evich
Bengal
tro
##abase
Power
bẫy
##ić
##ges
Bai
đam
Philadel
UN
360
Fire
Gò
##ourne
Nintendo
Dyn
Myanmar
##omor
Pin
Đoạn
Um
Tae
bính
Herbert
##osp
##ij
út
Maz
conc
##bus
Kent
Marshall
##PT
Hứa
##ansas
Aleur
##do
mị
##atem
##uce
lề
ag
Diệp
This
Central
đèo
Research
Lepidoptera
viền
khoai
thính
Berg
##EA
ni
Hymenophyll
##zon
Amp
##ophorus
Tràng
##arn
điên
Band
##uter
Mars
carbon
##icon
##wich
Vel
Gor
Pur
Network
##aig
Aur
ang
nôn
Torino
##oka
##uph
NAT
##arius
Goth
nhốt
Thôi
lánh
##uguay
nhôm
##TS
123
How
Trump
Kỵ
Franç
978
Pteridaceae
thầu
Christopher
135
Alan
Brad
##ography
##bar
Hond
Trip
white
nguyệt
##onomic
MC
Jersey
Vài
Kab
Sea
Litva
##asi
bơm
##ebook
trướng
Cấu
Sắc
hò
Vấn
dập
Philadelphia
##ieu
Nô
Back
Dubai
LGBT
##iva
Sus
hôi
râu
Cáp
Week
##eiro
##OM
lãi
sim
NĐ
Yến
nhũ
##mes
146
Càn
##ingen
Chẳng
Liễu
Your
hước
part
##cht
Afric
Victor
ớt
Sept
##achi
##olep
##avan
rỗng
Joe
##kok
158
chiết
##abi
##yna
Chức
MS
báu
Salv
radio
Khuê
Kênh
##ifolia
Uruguay
cor
vớt
1901
Bàng
Vũng
Found
Jess
##rest
đinh
##gu
##gio
##ucl
Eric
Hạnh
143
mel
Sony
##df
##osc
Ing
lằn
##ublic
ti
vitamin
stud
thấu
##fa
##itor
Tết
Phản
##sin
ev
##wang
nov
##ipal
##bury
##eroon
WWE
##worth
##agne
##ibia
139
pho
Malta
##éné
bái
rậm
Cant
List
TS
##onne
##opus
##TT
Eth
bre
Hell
Bia
Thuần
Thúy
Lincol
##hn
Sứ
Lincoln
sen
toà
Dong
##yeong
fraz
enzyme
##NH
Us
##ăk
##bit
##onn
##urs
129
nai
Chấn
thiêu
Bolivia
Nord
Suz
bồ
##mund
Brian
##ieg
Tab
Nhận
##idel
Kep
##Station
Douglas
Corporation
phím
Toán
Ric
amin
kali
Duyên
Sierra
Bet
rệt
##umber
##organ
Queen
Gov
tràng
118
Down
Wilson
khuếch
##ario
nắp
Napol
##arag
Triết
##idi
go
trưa
Dictionary
Moore
##ioni
Margar
Kẻ
##iago
##nham
Ngu
Bri
##mas
##mir
gam
Class
María
Illin
Institute
Trại
khiết
Volume
##oba
Pir
UBN
XII
##IM
yể
Cir
UBND
Of
1866
Gord
##yb
Had
##rez
Ghi
Mov
##rence
1860
1880
nung
##fal
đếm
1492
Channel
Arn
trán
##achsen
What
Roger
quyến
town
Khúc
Xê
Girls
Hỗ
##olin
Cừu
Deb
Rel
Shah
Baker
##urus
xôi
rãnh
Illinois
##var
nhai
Libya
##yphantes
Mĩ
##ober
rực
PlayStation
Hog
##otr
##vir
Mikh
Guatem
##edi
sam
Banglad
Public
Bangkok
Ach
Đỉnh
Hyd
##erusalem
June
giun
Field
Đằng
giang
Sát
##etto
ball
##ED
##alt
cent
##rier
trễ
##icial
##uchi
Log
##odrom
mãnh
Guatemala
##wn
117
See
flav
Napoléon
##istics
Gam
Bính
mổ
thề
Work
Whit
check
bì
tạ
lót
Bangladesh
##imi
nứt
1886
giường
Jerusalem
##wick
cọ
##acon
hoành
Stock
Grande
fo
đục
nhắn
ghé
chọc
Somme
##yu
Bog
dừa
Shar
ngâm
Pedro
##oca
##ager
##inop
Lig
mõm
Trùng
##ouri
Guard
Sức
Cameroon
Hạo
rung
##otaxa
States
##feld
##iness
##000
Exp
gán
nón
tạng
##ưởi
##icol
144
Bạt
Steve
##iad
Lux
Squ
giề
ướp
SC
Review
giềng
Hemip
##book
Rab
les
đun
Phyll
mil
1884
Rain
NH
Jay
##ès
##anal
Muh
Hauts
~
##for
##mouth
大
Lady
##uil
tab
Biệt
##oridae
Occitan
##ör
##esar
Studios
Út
Nậm
Association
cớ
136
Zimb
Alice
Hid
Lav
Mind
NATO
khoác
Belarus
##ốp
Sas
##ender
##ipedia
dọn
Đi
126
##iễm
##omi
Mê
Dần
Hắc
rỡ
Dark
##elin
Dak
Bull
Levi
Clubiona
##vers
1850
##ible
Kor
dẻo
ngõ
##zan
##ries
Alexandria
kị
Zootaxa
##ebr
##rew
dis
Books
##arg
##lie
Chem
Ohio
thấm
Nghiêm
Algérie
##idge
Ost
##uh
kí
Dipl
Austral
##bek
giế
##ating
măng
Dục
##ornis
Mike
Rhein
Tamil
##abwe
Form
Mits
khéo
##omm
xăng
Dao
##opidae
Aleks
xuôi
Say
dối
##aca
##lia
Hoá
Fest
220
pdf
Trich
Cải
1887
Project
##ns
CE
Chan
nang
##ews
##ilus
Bot
Riv
hãn
##owski
##osaurus
##cy
lát
Jong
Giuse
1859
##eh
bận
vằn
Thật
Truyện
history
April
Fab
Kol
chán
fir
Michigan
##émon
Tol
Pit
Vit
Ít
##riel
Cle
Tum
Galaxy
Zimbabwe
IX
Chiết
##ulin
133
HCM
Nền
Tốc
Prim
##BM
##td
##cell
124
Cav
tặc
thoải
Jin
Beck
119
Pav
Buổi
Bành
With
thủng
Sultan
Species
##ware
##edo
dại
Page
họng
##ishing
##icollis
Au
HĐ
SP
##chin
Pass
Light
##arin
Four
##CS
Cờ
DS
blog
Baltic
##OR
Uz
##lins
Dora
Pied
Database
rể
Main
vần
##ering
Rừng
Women
Donald
Sad
na
##asm
xả
Insecta
INE
VTV
Hipp
Kazakhstan
From
Horn
Juni
Daily
Lawrence
AK
138
##Hz
##ON
Bạn
##ingrad
##via
Ố
##usic
Burg
khoẻ
##eration
1888
Bột
Civ
khoá
##onna
##zant
Angola
Solomon
thùy
##uary
1894
Normand
dịu
Thao
##esis
Khiêm
##atherine
München
Seg
XIII
##Cl
app
Neur
nhục
Bund
Aires
Pokémon
##igo
mẻ
dong
hao
ngặt
xơ
##andr
Kob
Copel
Water
Din
Ngự
Earth
Samuel
cỗ
chay
1500
khiếu
Office
##apa
Kas
##wer
Oh
Inv
ráp
Kiếm
Matt
sùng
##ís
Ford
APG
Hav
phả
1893
Buenos
##dom
##onto
##ouch
114
Đàng
##eller
Trạm
file
Colorado
##view
gay
sốc
Midd
Villa
##ión
SM
##zona
Tenn
chai
nhuộm
##efer
116
##araon
Ancient
lộc
Ark
Over
##ects
gìn
##opoda
huỳnh
##ikh
tạc
##enza
Pra
ÂL
Stand
Kepler
Manila
Carp
annot
Lop
Vik
thưa
alb
trắc
Hop
Mới
148
cõi
Now
Series
rub
Gol
Kha
Mèo
Nằm
cay
##esp
##encia
IUCN
Biện
Publish
Nan
##imo
giếng
##asu
##ayat
XVI
Second
##LC
##odont
Thuyết
á
1892
Micr
chuối
niêm
##ogloss
Monte
int
Warsaw
##reb
Yêu
act
Brook
huynh
##evin
Dinh
Dragon
##ient
Arc
Phê
Empire
annotated
1858
##cia
##mit
av
lượn
##ako
##usta
That
##ylogen
##akes
102
州
##uku
má
Gran
Miller
pg
HIV
Swift
##uyễn
fil
Kích
thụy
truất
##odactylus
cons
pal
Lệnh
Yosh
Nin
##rough
Chứng
nhàng
##uan
Kang
Esp
Hemiptera
Hat
Sky
mắm
Chuyên
Ful
Papua
Byzant
Slovakia
rỉ
Abb
Lyn
Rey
Cons
Cour
kẹt
##ype
Làm
gân
Bush
Lock
##serv
Are
Neph
CA
##elf
##sko
Bò
Lô
đan
Math
##anthus
Melanotus
Kav
rong
Human
luyến
##anol
Wild
đoan
đuối
Diêu
neut
##bu
##oko
##unes
Kry
Broad
Maroc
##lyc
Dh
mịn
Child
Myanma
##etti
CIA
##oleon
##ophora
Cob
Hoành
chiên
Philodrom
Lombardia
##day
1883
beta
##ampton
whiteflies
Aspid
mo
##aldo
134
Bed
Bis
rèn
mini
Fair
Perry
nhược
Laz
Zod
khinh
Bow
Lành
Vatic
Govern
Gle
##iens
##ocal
##uzia
##ways
Veg
fran
Facebook
1873
quặng
Arizona
##vo
##ize
thục
sê
Hud
Lov
cẩu
lựu
1861
1875
Gaga
rũ
##ities
Paulo
Story
##ior
Kaw
Michel
Santiago
Nhan
quấy
African
Bãi
rel
##asy
##chy
##zen
##emat
Seb
set
##acter
Vọng
450
##anger
1882
Tunisia
robot
rổ
we
Tas
Conus
Ltd
##elopment
Aspleniaceae
##epp
Cán
##inese
Albania
Trinidad
##fia
Clin
BT
Aud
##sburg
Xung
##ists
Kin
yểm
##amoto
##ification
##DS
ôm
##uban
Cel
Two
online
##len
Sig
Constantinop
##IN
Chuyển
Sicilia
1867
Trưng
Church
##lu
##bourne
chặng
khống
laser
Bey
sec
##fo
##ũa
##rain
1864
River
##ouk
Rồi
Tro
Bour
Gruzia
clorua
lăn
1865
3000
Khái
##yland
1868
rước
Newton
chuồng
Lis
Mối
##eting
Next
210
INS
gậy
uỷ
Gai
đao
Chen
##ugo
Rol
Cult
Queensland
Sy
##ụn
##ogo
Tầm
nhấm
Magazine
Amb
NASA
Liga
đống
Heter
gối
##jin
##ươm
gặm
Ngữ
tur
Leyte
##alth
Og
Ptol
##heim
Pha
##athan
Địch
##ysticus
Barbara
##rd
##uru
Aut
Disc
Giấy
July
##bin
Ted
Vatican
##hin
Miy
Prof
Team
Shō
1863
hoài
Khanh
##uli
er
##ency
Who
Xbox
Guam
Rose
âu
##istry
Aust
Phys
Valent
Missouri
Dãy
Ess
Lie
gộp
tưới
##ovsky
Marx
Tony
Gust
Howard
TC
ent
mol
nóc
##immel
Gun
##onder
Union
Nôm
Raf
huỷ
##igl
end
Nept
##fe
##otep
Kag
Toy
Prince
Pun
cal
India
DJ
Bhut
Report
##tha
Put
##rc
##auss
Mam
po
Vin
his
NGC
##ature
Coll
Giản
Tung
Hum
##won
Pictures
##auc
ốm
Ton
bén
Bourg
##ench
Jes
Home
census
Xysticus
my
##burgh
1878
Arab
##US
##VN
##bell
Kap
Kle
Lord
thằn
Beach
Estonia
##vi
nọc
##ilton
axít
khiếp
##elson
Muhammad
##idd
##GS
IA
Koch
panch
Toronto
Esc
phôi
##ological
Raymond
##ahn
Has
Ral
ngụy
chênh
nhan
Pil
Mong
gluc
dồn
trù
##ushi
Jar
Ō
len
Maine
##ipennis
Mes
Otto
Thịt
Ferdin
Xứ
Tax
tâu
Wikipedia
##sey
##enko
##eres
Duệ
esc
Pays
Thuyền
Cúc
Battle
Occitanie
##ipe
hở
##arat
Jane
Feb
đọng
##alcanal
##IDS
##eca
PA
##acia
Fant
Gray
Quyển
Mr
##hich
Cruz
1800
Foundation
##illy
Tốt
##ulatus
##hu
##ble
Mul
Beau
Cân
##owell
Tuyền
Steven
ATP
Abu
##orf
##the
bạ
Bord
Cổng
Guadalcanal
##đd
Tố
##idia
Thụ
Kash
thoi
tiệm
panchayat
##onic
##eston
Dick
Hok
vòi
ST
##escens
Apoll
Borneo
Aleyrodinae
##etz
##asia
##onte
rem
Miên
frazioni
##idus
Tect
Rider
##VA
##ple
khốc
chanh
phosph
Western
ADN
Lad
##eria
##iami
##urai
Jak
Beatles
##eds
##lands
Diêm
ve
##ippi
Sey
Ích
Prov
ngạn
Edition
Johannes
gặt
##roph
gắt
Tắc
đùa
Milano
##ấng
Ein
Anthony
Digital
##té
vụn
Nest
Brunei
ol
##itte
Gri
##olic
##rion
##illes
Xanh
USA
Franklin
CR
Heb
cụt
Hugh
benz
Polit
Studio
ES
##phoe
Bun
Dun
Mosc
quyên
##ores
tệp
Tectaria
acid
Kennedy
Ryan
##yi
Áp
##wald
phác
ISO
1862
##DE
Nà
Leo
Anim
Bánh
q
##oya
##ondo
thiếp
Potter
Houston
111
Rap
Peters
Margaret
##san
##ardi
##etus
Giờ
Sax
Russell
##ocephalus
α
Histor
##burn
Bart
Hamm
Zambia
bọt
Line
Franz
Napoleon
##orp
##ânia
ôxy
Isab
##ửng
GR
have
khép
Publishing
##BI
kn
cửu
Octav
Morgan
Rum
Miami
##MP
##yah
Mig
Thr
Dae
manh
Tranh
Morris
mào
Schimmel
Mec
Súng
Yemen
Schwar
−
##okia
Dead
Gang
lở
Bưu
đạm
Crypt
Sphing
##esl
bas
1841
##gie
sal
Đắc
##round
chài
ep
sỹ
##osis
##stad
##raham
Europa
Cher
Dạng
Piedmont
##ices
đớn
logic
Det
Kevin
December
##OL
Ẩ
Lấy
Taj
##ienne
Slav
việt
Jacques
gả
Lôi
Bước
Thùy
viet
People
Sumatra
Xi
##aise
Pul
côi
Junior
Beth
Nikol
##furt
bồn
Chinh
##ryp
VN
##etes
Plant
Namibia
bế
##irac
##orph
Fai
Kun
Non
Ship
Cardi
November
1877
Mall
Haute
Sarah
Tenness
September
##erc
##nger
##siss
McG
Phoen
hông
internet
Hào
Iowa
Bernard
AI
Vợ
Kamen
Johann
##ares
1848
##Ng
Doraemon
Catherine
Sphingidae
##arl
Mãi
##ña
gò
Row
Tag
que
1874
Golden
Pacific
##can
Ot
xí
Well
Pod
nhô
##xpress
Ferdinand
##lah
##epend
test
Chuyện
à
##90
##iec
##issa
##rent
lậu
Dance
Madonna
România
TR
##erst
##ried
Free
khâu
khôn
Roch
##rio
Ảnh
Luis
this
European
Phr
##dal
Mys
hyp
kiều
nitơ
Bag
its
Cross
##ms
UTC
##antha
khanh
Mississ
François
Vladimir
accessed
Tennessee
gõ
Got
tủy
Oz
bass
Modern
Bé
Sơ
horm
Seine
Sâm
sun
Lũng
##ards
Naz
Tong
Jason
pharaon
##uya
Đoan
Family
sex
Đánh
Matthew
Giov
Nhâm
##abad
240
Bird
Service
##log
hoạ
Justin
##iac
Kum
bón
Kais
Minnes
##lib
##irus
euro
##ohn
Bruce
##hie
Ah
GP
##ility
1879
1881
dán
##ennes
1857
Patrick
##aban
Bae
dem
##aragua
nghênh
##read
sanh
Gordon
Î
##rium
230
giã
##mo
Calc
Caesar
##asci
Osaka
Ow
##uras
152
yết
Fact
##ML
lột
sụt
Kamp
##ilio
Wol
Spec
##ips
##imes
##tario
Death
pound
Sib
AIDS
Pick
Germ
Trav
first
Aspidium
Tetragnatha
##aps
Đăk
Ontario
Raw
Benn
Chiếu
##abe
Cống
Haiti
##45
##ih
Krak
pH
Hảo
Isa
Vall
Lưỡng
Titan
##iae
##aguay
Hus
rạch
##ech
##eder
Sard
Phill
Minnesota
nàn
##itary
loan
ec
##imon
Mog
公
Mit
##off
##achel
##rav
Melbourne
one
chiêm
Romania
##kaz
##rix
Dực
hệt
sủng
december
##onica
1869
Marcus
Warner
Chamber
»
sem
1876
ngủi
Nhung
ABC
Dụng
mult
Uzbek
Nicaragua
##FF
Ub
##holm
##uage
Bass
1836
Iron
Khal
##ül
Sent
Ill
Vic
ret
##andra
##ction
Indust
Mississippi
##onc
Darwin
Festival
out
Vers
October
##wana
Khâu
thạo
##erd
hăng
Ralph
##ends
Sop
Grant
Ngành
Adv
khố
Sái
mài
Korea
oxit
##ighter
pre
syn
Final
##oxit
nan
1840
also
Kyoto
phiền
##86
uk
Syr
cày
##ought
Arist
England
##anz
Thầy
Thậm
phen
##MC
##ben
##enh
Fur
lồi
Euph
Mend
Rạch
Thí
##ference
túng
Mk
Crist
Stein
Trở
##verg
Sac
Utt
nhào
Wo
Bầu
Bội
Cứu
##stone
Mant
acet
burg
Maxim
##fort
eng
Bran
Ober
Paraguay
##rise
doi
Rolling
Cảm
Châ
Cyathea
##omo
##ermo
Delhi
Lod
edu
ngươi
Acc
##aum
chè
mau
##ugawa
Epic
Bhutan
##apur
Cin
gran
Heinrich
##agin
Điệp
Venezia
Champion
php
đũa
##uncil
Nova
diễu
Île
##astern
##lov
##aleur
Pink
##cle
cưa
only
Cath
Ferr
Khôi
Thuỷ
##35
Anderson
##47
##éd
Gö
ồn
##iềng
Aph
##hem
Wy
Arts
ngoan
##amas
Ngọ
Iz
Mân
Spe
Schw
thầm
Point
TTg
Manuel
article
##zig
Bod
chớp
Moscow
Tồn
Leop
liễu
Tiger
Luke
Asian
Nevada
Mikhail
##rum
MA
##ieri
Aer
Age
nhã
which
##nat
meth
Kad
lat
mép
##ephal
##ishop
##PA
##less
Ukraine
Slovenia
Information
##upp
Dim
hop
1851
vuốt
Nem
##romis
##ahl
##lich
Bấy
##house
1872
Module
January
##óp
Reb
Mold
Term
Đồn
##asaki
Prom
Nicholas
zh
##reen
Know
##utiaux
Eugen
Salvador
BC
Lợn
Lake
delle
Terr
Byzantine
Hub
Tir
Batt
phồn
Under
Bou
Fut
##37
rô
book
##ifera
##utsch
over
##icolor
Santo
112
Stu
##iller
Reich
Triển
李
##abin
##ning
kẹo
you
Adams
Cairo
122
prop
##esse
Sachsen
Quỳ
Kelly
chuộc
##roy
tăm
##aijan
Tòng
Theod
Fleutiaux
EC
##ness
rét
about
Cù
##agement
Julius
##evo
##ulo
rưỡi
Carth
Hindu
Jacoby
Vincent
Lac
##ellus
Anat
Cope
Piet
##ede
nạ
Oce
Direct
Indiana
Ea
Dog
Nhái
Claud
Tokugawa
AG
##ambo
lau
Electron
##avy
##omus
dồi
##ueang
Cook
khan
metal
##arta
FDA
Centre
##zcz
Mey
orig
their
Babylon
ax
Any
Yuk
Khảo
Lucas
Miếu
Stew
chước
vóc
kiêu
##quin
Tet
Lyon
Duyệt
Gregory
Hamilton
##izz
Luís
##gon
Nelson
IM
##ancy
Timor
Malawi
##EM
Toà
bẩn
pseud
##arte
Surv
class
Britann
##awan
Ent
Qatar
Indian
Guardian
##icum
Gry
Gur
Hers
Thôn
Mobile
Rhodes
tà
##tric
xay
Studies
Oc
##anes
##esta
##oco
đắng
##acional
##wait
var
##uga
##ophy
##nig
Cừ
##isha
AU
her
##DI
##but
##anti
Hur
Fuji
mông
##inos
Hãy
sảnh
Napoli
##pp
«
##yon
##falz
##plic
Azerb
Venice
Thelypteris
SI
il
Pep
Citation
Imp
Yuri
đẫm
Benj
arch
##ognatha
##hir
##emis
eth
has
Alpha
Lenin
Uttar
##oom
##ved
280
Beg
Chuột
Walker
##xic
Fun
cởi
Biến
Noct
Thới
chọi
proton
##bean
xói
xảo
Đột
Arct
Stef
Baden
Santos
320
IBM
Tạo
##PG
Nhã
inc
sin
Luận
Mộng
Ze
Daw
Carr
Manh
pall
##quer
jazz
##iers
##mark
camera
##rz
##ymn
Xu
Lenn
ngạnh
Cấm
1830
hoán
nhát
Beaut
Janeiro
Suối
Viêm
neutron
Kw
##aust
##rates
##aso
Mueang
Sahara
##uin
Mức
##andal
Lem
giọt
##RA
##roup
Sebast
McD
Platia
Academy
Antioch
Azerbaijan
Population
Blu
##36
lỡ
##iner
##ucle
Ling
Walt
bong
prog
Đương
Alc
Nakh
khiêm
phiệt
Honduras
##ẻm
##ilo
Tà
xô
hal
oán
##iny
##eckl
Sek
##sterdam
Business
##ún
##icz
##iper
HLV
##imar
##omet
thoáng
Gaul
Luther
Schles
đè
hán
##rary
Cyp
Lec
càn
gieo
Konstant
##opol
##ères
Cart
Vang
Carter
##edd
##ocen
Hamb
##artment
Giovanni
##opt
rh
cat
Like
Past
Rồng
chìa
capit
##pus
Ngà
More
rò
Ich
Lub
Sag
Mans
Mario
Amsterdam
kẽm
pyr
Leuc
Scyt
bỏng
huân
Adolf
##raf
##anta
##etty
Rav
dưa
Buck
Cort
Trib
Ś
cúm
Barr
Intel
Songs
##cho
amp
mark
Tuyển
Maurit
styles
##low
##elo
##mat
##omy
##opp
gởi
Maya
bành
##ylla
war
Boys
Twitter
中
##êng
##essa
đùi
##ische
Somalia
NC
260
src
nuốt
Linds
Development
##ifol
Phêrô
Sex
thê
Trai
Luzon
Organ
IG
##chan
Adel
Caribbean
##mid
Gay
Gom
Hudson
Ard
Bil
Viv
hiđ
Dĩnh
Pall
Yong
Đang
dỗ
sỏi
Aster
Thompson
Himal
##46
##iba
##ici
Cốt
thềm
Campbell
##graph
biếm
Basil
Sym
##craft
novel
Batman
Master
##ỉa
##uca
ox
##opis
##ument
methyl
##RO
文
##NCH
Ất
##trol
Xen
bôi
Đời
Thang
ngoặt
Kaiser
Singles
Universal
ster
##kal
##etia
##iere
##ogue
lanh
Dakota
buồm
Tiber
giông
xẻ
Thì
css
Comté
Nokia
##her
kèn
Dest
line
##iences
INSEE
CV
Ana
Lup
bus
Kath
Oliv
Blechn
Franche
Alexandros
CC
RS
Magn
Charlie
Myr
##ausen
Space
##ku
Mut
bấm
bẩm
bẻ
Mũi
Tọa
Zen
##esses
bỗng
Schwarz
##RI
##oki
Dic
Hồn
phà
##phaer
Hunt
XVIII
Gyeong
Lap
Ngư
sáo
Benjamin
ủ
子
Dữ
med
Jose
diệu
##aha
##met
Ye
Vil
AV
AFC
Thử
Tái
lận
Tầng
##dale
##onso
Lip
Gill
Linn
Jonathan
##oyd
HT
Franco
Stanley
##RS
Rw
##iev
dở
váy
Saf
hoi
tỉa
đừng
Samoa
##ambique
Seattle
PM
rập
Amau
Thám
##lahoma
Orange
hormone
##PC
Sv
##amba
750
##Phone
##rypnus
Mỏ
cit
val
suýt
Mitch
cò
Sele
Palau
##gs
trừu
alpha
Pteris
system
##ahu
Cỏ
Hey
Lay
Pis
mày
##ission
Weise
Secret
Frankfurt
##ás
##rox
Nàng
NT
##reat
##aurus
Alab
Pach
Sankt
rapper
Stewart
##ophoridae
Stockholm
##lis
Io
Pao
Hyper
Agrypnus
##38
##ween
Rịa
oan
Nhuận
Maryland
Roth
mont
Imper
Athens
Ł
##cin
lip
Toản
nham
Chinese
Publishers
IT
##omys
keo
Borg
Apollo
##70
Kavkaz
è
Emb
mùng
Mariana
rộn
Hold
##enidae
Collins
dạo
##irit
Rov
##outube
Anime
Engine
##Ch
Year
##ilding
Navar
##AE
##uis
##fish
1806
König
Marit
Thuộc
Tát
léo
Mali
oanh
##iol
##chus
tết
Thìn
##oux
##ướu
Kì
xé
##ffer
##zawa
Roc
Buôn
##39
##HO
##km
##ön
##esch
##umin
foot
##eville
Mozambique
121
##ouver
Haut
Joan
trọt
phượng
##dera
Yah
270
2021
Cardiophorus
##lt
Jimmy
Obama
Tráng
##icornis
Century
山
Cú
Hiểu
down
Valley
úp
##elus
Sed
bóp
Stars
Thoại
##obi
##asso
Hend
melan
Forbes
Latvia
iPhone
Gn
ruf
ngói
##borough
Health
Ngộ
Phn
Ret
Soft
##vergne
munic
##isk
liv
Clinton
##ahi
##bal
GA
Cẩn
Mug
Coel
Josh
##ads
##sol
PDF
Tán
Xét
Leone
dance
Kansas
Republic
##thal
Phải
lừng
Europe
Australian
Uzbekistan
##eki
##ires
##oven
Kem
Zero
Statistics
Chị
##ledge
Roos
Dị
##wara
Fuj
búa
Mats
Soul
Strat
Octavius
Cầm
##atti
##eron
Fal
lắc
vắc
##attan
Andy
port
ải
fam
chày
chảo
Đáng
Castel
Amaurob
μ
Ek
##nhagen
Weekly
##ains
Ngưu
Đuôi
Oliver
Auvergne
Philippe
##zt
##ayo
Dạ
MW
##oker
225
lít
##ussia
Miêu
Nadu
Pear
ghen
vờ
Lom
căm
lầu
##andin
1847
Southern
NQ
Dàn
Kịch
##bre
Món
ass
Febru
县
GN
Sov
Pent
##others
Greenland
##wi
##ono
##lusa
##assidae
##ño
##asco
##egal
Hạc
Teo
##uidae
Bath
nhúng
Wright
Cự
His
lev
##aver
##inho
Celt
##undi
dep
gục
Desc
Happ
Coast
French
Sphaer
Dã
Lên
rot
1838
Hựu
Stor
time
##olepta
Khiết
##ief
##lon
##augh
Dơi
mía
Dend
ballad
nghiền
##enne
Tell
##ève
AB
vá
Kot
Mom
Nghe
Gustav
##yth
##xicô
Rat
cằn
đặn
Munich
Ốc
##ostr
Him
Rot
Silva
##lay
##ados
##anum
##otica
5000
lista
Sparassidae
Gonz
spec
Cyrus
cover
ngạch
Tectariaceae
##arao
giục
•
##cal
##ulia
Eleuther
Iss
Augustus
##ửu
ụ
dơi
Thâm
Bourgogne
##ìu
##shū
Ấp
who
nguyền
##andi
Ave
Mùi
Set
Zar
vệt
Prog
##ularis
Abdul
Graham
##yx
##incl
Edo
McK
Mác
Natal
Eastern
Phylogen
##anny
##enzo
##kina
Nổi
vis
Kras
high
phò
Denis
Force
##ellow
Vanc
Trạng
Doc
Nhiếp
##99
##uj
±
EX
Sob
1854
Tuất
##onment
Olios
Valencia
lơ
tủ
##aude
Hero
Shim
Uyển
Alabama
Monolepta
##edt
capitale
##32
Wi
Sap
bet
Kiev
André
Tot
sono
Blood
dalle
Willis
##kor
##ults
phì
##uring
Shaw
kiếp
nhặt
Aless
Florence
##igny
##ource
Kham
gram
Phanxicô
dati
tẩm
##eran
Nhì
voci
Civil
Philodromus
##icut
Chư
##Quyết
Bond
esclusa
Nepticul
##ếm
##ingo
cẩm
mác
##Dalla
thối
presi
Sports
Atlanta
Dysdera
singole
tabelle
vociDalla
′
天
VH
##oung
ful
pres
Kuwait
Marcel
##ffin
hip
điểu
Record
Ce
Kay
Pand
Oklahoma
Eo
Vn
vo
Ruồi
Independ
##55
##EAN
##uit
##istol
Carthage
Kê
##iden
Cad
Cic
sol
Quay
Ocean
Opera
silic
Idol
##castle
Today
Aeg
sập
sục
##atory
Carey
Hunter
Ia
##roch
nga
Chao
Moun
Bac
Bomb
Pfalz
Connect
Fernando
Department
##lyn
Nao
den
Kill
Shad
thuyên
Hamburg
Ê
##ński
Kak
loa
Express
quỳ
##ureau
1853
Lion
##enthes
Tajik
Explor
##66
##este
Oai
Wel
Nass
Trải
Julia
Gabriel
Ud
##dorf
##esco
Aar
two
Hama
Vald
Vancouver
Copenhagen
Leptodactyl
mạ
đố
rib
Phạn
Evans
Einstein
Bối
def
lăm
xáo
##ikaze
Kurd
Guill
##oglossum
Nicolas
##die
##pos
##back
Medve
ib
Joy
Sán
Xác
khao
muỗi
Butter
Tức
red
Chưa
Cosm
sưng
Front
##ucation
Tasman
Siberia
Noctuidae
Princeton
Aki
Sug
##evelt
Dall
##ful
##gor
##opa
##hium
550
Belle
##atu
##gal
##igi
CPU
Lắk
Von
lén
##onsin
1849
disc
Hak
Krym
thuở
Ernest
Nobita
Caroline
##ogy
Lon
thệ
won
Nương
amphoe
##dez
##rons
Tit
Oman
post
##tin
SO
##hard
##stal
Asp
Ey
lị
##sson
##zano
##odium
Social
##GP
##iro
chén
Chron
##pat
IN
##enes
##assan
##ramma
Jura
Yale
chậu
diều
##lem
##ayan
##iken
Eun
Tục
đắn
Chủng
Parad
##thy
PH
##lyph
dào
see
##astic
miên
Ulithi
Roosevelt
Run
det
Baly
Newport
Ll
Inn
##ullah
Thấy
##phidae
trượng
Robinson
had
rạc
soc
Antig
Enterp
Marvel
Nỗ
vả
Bak
Eff
pap
Hugo
Ranh
nhồi
##orh
##edus
pen
##ianum
XVII
Nur
Sào
mal
sup
##nheim
Bach
Wisc
dist
##eaceae
Giọng
Italy
Pyotr
Gilbert
Version
Lil
Adri
Utah
Yoshi
##roduction
##ов
##bat
Proc
Newcastle
BM
PP
lều
Chin
##dan
Aw
##auer
205
Bit
Wag
doc
sồi
Buch
es
Pon
quế
Planet
Wisconsin
##icin
cur
iOS
##fried
February
##Nay
Pé
##gang
##nick
##opes
Blan
##emberg
Athena
Fishes
góa
prof
Nations
Jennifer
Leptodactylidae
##alan
Thỏ
sum
toa
Falc
Isaac
Cooper
Garden
Pyréné
Rwanda
##eos
EA
nộ
209
1842
chưng
Bureau
Pyrénées
retrieved
##eer
##eur
Tờ
Kik
##ocosa
1833
Lycosa
##irk
RA
Xử
Đèo
1844
gene
name
ASEAN
Holland
##iot
NO
SK
iP
##real
##illon
##terol
1856
Baby
##fu
##otti
330
Bom
yến
Court
Hills
Islam
Marse
Balkan
##eot
ir
Dri
Miz
##elius
Chúc
Mort
Sylv
Albums
##osterone
##yriaceae
Roberts
##GB
##bul
650
Lex
quad
quấn
vựng
##200
##sta
hốc
tuỳ
were
kiêng
BS
Wan
Chín
chip
Nakhon
##antan
##ocarp
Bolsh
##éb
##arov
##more
Gymn
##abria
##keley
Brig
Wonder
Charlotte
##weet
Cặp
Dod
Dậu
dấy
nguội
##ems
##iza
vỗ
##eros
Nong
Sóng
Japanese
Ö
ID
ul
##inda
Ian
Sis
Đống
Gabon
McCart
Stanford
Technology
##YP
##iw
##ouc
##egro
##othy
Ramesses
Athyriaceae
##pi
##ause
##king
132
dies
##ioides
##athidae
Summer
IF
##odia
##phus
Low
##imate
Ctenus
##phy
##vre
Dấu
roi
Head
Tý
##bine
Vậy
Miguel
Georges
Philippine
##ossa
ngà
Pasc
Hát
pul
Quer
HM
mò
##otten
back
Murray
Deutsch
Dĩ
Mae
Map
kìm
phô
Chos
Mond
chạp
chốn
phẫn
##ements
##fr
##jab
Lặc
cer
Cord
##manuel
Nicol
##34
##ucky
1815
Army
Management
Bổ
##town
cọc
Bert
Kiss
Ngạc
Polyn
Mauritius
##ige
Bros
Chir
Gren
báng
##omanes
Jesus
Cyatheaceae
si
Aus
lạp
occ
1832
aspx
##utch
Fat
view
Hogna
ngỗng
##ottenham
sw
Fly
Fiji
Nefer
Claude
Hangul
khoảnh
Turkmen
##hen
##ango
Dận
Sho
##under
trèo
municipal
Ă
##nge
##tea
bb
##arts
##obus
206
dặn
##encer
thes
Turner
£
Dum
Kyr
##ritic
Biết
Cann
Food
Slam
Stad
call
vect
khiếm
Library
Berkeley
cacbonat
##iso
##edom
##rell
Wak
tiễu
toan
##egen
Website
kệ
lim
1837
Take
chướng
##uble
Trừ
thoả
Taxonomic
Tottenham
##isl
Box
Hap
Zam
Metro
##teau
Buk
Cec
Gad
Mack
chồn
Singh
xavan
##istrict
##nu
##anto
##enta
##iste
235
Fay
Yas
clo
##eline
Bồng
Orch
Aguil
Monten
##ror
##eoph
Ner
##raltar
Alger
Takah
Iberia
##azi
Firm
phách
Forest
photon
##etin
Jai
Choi
Ward
then
Terry
chlor
##hik
CT
iT
1825
Nash
Giêng
Praha
Psych
Aleksandr
SE
ủi
xua
loãng
Eul
Jen
Tuc
Vor
Path
Toại
into
Vegas
Nhượng
Sailor
##ands
Cag
Yan
Kane
THPT
Party
AF
Gary
edition
##igm
1820
1831
##vironment
sô
##evik
256
chui
##oshima
Nhược
Juvent
Strand
Kenneth
人
Kō
óc
##iston
Đúng
Banks
Chưởng
##IP
vẹt
Libert
HTV
Tul
Andes
Krông
Russian
##leb
##rim
Sik
Hamp
sunf
##HC
Ré
##aves
##kaid
att
tụy
Đáp
##ollar
Sara
Panzer
##58
##acea
Ara
Louisiana
##enb
##uria
Get
bor
tru
giêng
##WC
皇
lẫy
1846
Conf
Christina
##dia
AN
gã
##asma
208
Our
Lanc
##uno
aur
nanh
iTunes
kẹp
lõm
##cheon
thâu
Soy
##angay
giòn
##inster
Dactyl
Louise
Warszawa
##light
##esliga
##iation
Boris
Vasil
Cannes
Nepticulidae
Tetragnathidae
##nie
NA
Gaz
Hôn
##rodium
Manga
Athlet
Kingdom
Nacional
PL
Nặc
hẻm
Saipan
Ampedus
##een
Ik
##marus
1843
ròng
sign
Billy
xuồng
Fighter
vs
##wall
Aff
Cơn
Vốn
##osuka
##rolep
1802
Doct
phao
chưởng
Zodariidae
dom
rốt
##hanna
Aragon
Castro
Himalaya
##alu
##lag
đả
Rus
rơm
##ether
Chăn
camp
##49
##rate
been
magn
nucl
Kosovo
Bundesliga
##ffy
##sus
##andro
##ished
Gian
Niel
nhụy
Magic
Anypha
Nephrodium
##hiro
Add
Kid
1845
Khoái
Laura
Telev
Yokosuka
Britannica
##get
##itol
RNA
sải
tet
Major
Kentucky
##OP
nọ
ôxi
##azium
1852
Carac
Mozart
Portland
##ropol
Bast
Teen
giàn
Nhiên
Nhiễm
##hyd
Wa
##pect
Gió
Mia
Oon
dim
Đéc
Ngao
Sain
Sukh
Idlib
Sparta
##gate
##rial
Hợi
Pay
Pos
Origin
Harrison
Diplazium
Rheinland
##see
##face
Nhữ
Nit
los
boat
##IL
##erk
Sü
##ache
nến
Anto
Genève
Standard
##obe
Hin
Econom
Official
##ST
CM
##assa
##orte
Kre
1789
Ching
Mello
Presl
polym
Parthia
##Sp
##tv
##hara
##unda
Sắt
Lima
Test
Myl
##athon
Jang
Nham
Phoenix
##ẽn
##play
bon
tel
cast
Lò
hít
Fors
Minas
ngoạn
Special
##Sử
AL
##rine
Watson
McCartney
Normandie
SH
vã
chê
##ading
Rosa
Trev
Bloom
Bryan
Grace
Kings
##iflor
Harp
thoa
Davall
choles
##auge
Tha
Tmarus
##ety
1834
Vượng
index
liêng
Scytodes
##iban
Hig
Kel
Sửu
##stadt
nhẹn
Arnold
##fi
##ibo
##uff
NY
đúp
##emann
luộc
Again
Command
##57
β
UC
Rac
die
chầu
thiếc
Brandenburg
##EG
##aho
ĐH
Dra
Loạt
Rout
Sống
work
About
Ptolem
LH
##obar
Saw
more
gamma
##mingham
Ronald
Scandin
##tor
PT
Vy
##asty
Hôm
Sou
Tốn
Metal
Liberia
##FS
南
##osm
##par
Hè
Mim
Mắt
Tuệ
Alber
Valle
Lennon
##rí
##boy
##ugi
nã
203
Lum
Ngã
Thỏa
Stuart
Brothers
##rag
##iane
##itsu
Ars
Dob
Ole
Đấu
##inder
Suốt
##inella
Linnaeus
Lut
soi
1824
Gand
Rhine
chích
##bs
##iton
Hưu
Tah
##plete
Emma
Trục
Metac
Wiley
##ified
HĐBT
##isi
MB
131
141
Ort
##acker
##icket
lướt
##anos
TVB
tía
##ideae
##recht
chẵn
muôn
Trừng
count
Limited
Christmas
##iani
Màn
Peg
1600
Amar
Reed
nhuệ
Johnny
Nation
Nature
cholesterol
##emi
##hat
Wür
Bông
Tamer
Hermann
##rep
lốc
ngắt
thesaban
bã
div
Clar
Flow
drid
##aeng
Rắn
Đồi
Movie
grand
music
##iod
Iw
Ja
Nas
Trợ
Bướm
Marco
Nhưỡng
##aia
##oit
Did
Jag
Nol
Tap
##nought
Geoff
Thuột
Rafael
Cardinal
##aks
SL
##ialis
Cole
Đứng
Phóng
Census
##XH
→
##eom
Ác
##auta
Mann
Zach
Rihanna
Birmingham
##gard
##gart
##into
Gan
Oise
##idence
Guyana
Vienna
Evolution
nụ
sk
##enda
nại
1855
Phàn
##erland
Country
Pickard
##är
國
Kil
Tib
##ittee
##yrium
lộng
lửng
Bened
Acanth
Bohemia
Montenegro
##opy
EM
1829
Anti
Wayne
Chiang
Doctor
Marine
Heteropoda
Connecticut
##yun
##aios
Bib
Wii
Won
Hoff
Nab
Rib
Chev
trói
##opical
Calcio
Jae
hét
##found
##iance
Data
Mult
Tiễn
thóc
##idelberg
Juventus
##ebu
##iman
Rou
Midway
Bug
Tac
Tìm
pat
cước
Moham
Arkansas
FM
##ahan
Bân
Quỷ
kar
quạ
Côte
ngạo
Teodor
Alberto
Jessica
Leopold
barangay
##utth
Pix
bạt
clip
##osorus
muban
Laurent
##alli
##omer
Alder
Product
VC
##char
CNN
1812
Chai
Điệu
vectơ
Historical
GB
Cau
Sph
will
Sciences
##zu
##kes
##key
##ols
##ryn
##osum
Bin
Tat
##idium
##igen
Pia
SEA
Tra
Perc
tuồng
Commun
##ierz
CEO
Cot
IGN
Herm
Lạnh
##non
Sỹ
##agna
Haz
dạt
náu
Trâu
Krist
lymph
Middle
##zel
MG
##ails
215
key
Chia
gươm
##alysis
urani
nơ
##down
##yeon
SBS
Tch
nhĩ
Chẩn
Gryf
organ
##inburgh
Castell
##iles
162
Lys
site
Damas
Mount
Warri
##aleurodes
Revolution
##iku
##ophyllum
Maurice
##rif
JT
Ras
nom
noãn
thon
buông
nitrat
##uber
Lối
cạo
inf
Axit
##du
##acbon
thuôn
Andrea
Hắn
Mek
publ
Bolog
super
Monaco
nhuyễn
Atlantic
Mons
Sanh
Thảm
Three
Gibraltar
##lio
Dy
##ylan
Sheeran
Má
cù
Bọn
Bửu
Edu
Tau
Mail
Challe
Kraków
##awak
##estr
Pug
##iazep
Spencer
##43
##atty
##ovic
207
Labo
Saudi
Sihan
Spart
##DC
##EN
##ío
##lev
HS
##aces
1839
year
##iformis
##dr
##ches
##midt
Tig
Curt
##tel
CF
##aton
##orio
Koh
ref
Woman
after
##adh
217
Gau
rỗi
sul
Extr
Note
Phot
Sten
chót
##ifrons
Wrest
##omorpha
##vet
Ou
##isen
Bật
Type
Vern
chèn
thớt
##ifolium
Single
Winter
report
PR
Đê
Kul
Vịt
qui
Bots
Ster
điềm
nghẽn
##cat
##ngo
Cz
Hod
vùi
##adian
Bret
Nhằm
Wald
hổng
incl
Eugene
Newfound
Enterprise
xế
##eshi
Tày
VnE
gom
##ystich
other
Airbus
Lastrea
国
Trãi
##ailles
Hokkaid
Ci
Tut
##gramm
Name
Montana
Sihanouk
Petersburg
ps
cám
gạt
After
Malay
Austin
##kar
##nez
XP
142
Hua
xót
live
Liber
##minster
Assyria
Council
Generation
##ls
##ibal
##rome
đấm
đốn
1814
Zeus
nano
studio
Military
##BO
##bro
##lez
Ax
Nên
kíp
Phép
mắng
Newfoundland
##EF
##jor
bơ
##ived
Suk
1828
Sean
Parker
Warren
Bristol
Systems
SV
Diam
Ital
pages
President
Fuk
ngả
tua
Copa
Dmit
Most
chóp
trũng
Chapter
section
Bolshevik
Syrphidae
ê
Rah
khốn
Weber
Khuông
##ecklenburg
##ôme
Tá
238
hir
##oming
1827
Biał
Dean
##ertsch
##oderus
There
Jakarta
Athyrium
##lar
If
Aja
Hag
Pai
##avier
##ilies
Thuỵ
Arena
nhung
##41
##omyc
Jab
Myc
Wer
Knight
Thorell
Botswana
##olt
##rist
nhở
##idine
##iscus
Leip
Nhai
poly
Toshi
##lus
Tể
Equ
sâm
Phấn
Sương
##ucc
##Theo
##overy
##ground
Silver
Square
##rac
Hô
Án
Ald
Mão
búp
sđd
##urity
Scient
##iler
##ttum
leuc
Punjab
Maritime
Metacritic
##bow
##ensen
##inson
Garc
Tord
Heidelberg
武
mỉ
##away
##edon
Uông
Luxem
Short
Steel
##67
Cối
Ahmed
Early
##Ar
nm
ĐT
##agle
310
Vos
arg
##igma
##orax
húy
Leit
Sherman
##bie
##ades
Bây
Đán
Glas
Grey
##ischer
Wagner
Mercury
##amar
OVA
hel
rạng
Yamato
##ocl
204
275
Voi
dan
mậu
##acher
Meth
Putin
Pascal
##ME
##fen
##oros
##yang
Tao
##enops
Kens
Thiều
khiên
Burundi
##star
##ukos
ráo
Ưng
Vành
Spears
##64
dì
##hall
##ping
cúc
vọt
Chal
Less
niệu
Ernst
Glenn
punct
Korean
##ān
##ogh
sl
##emer
##onta
370
Porto
AA
Haj
Six
Tấm
##anensis
Living
Airways
##icho
##load
nhớt
vượn
Harper
Quercus
Mecklenburg
mú
##ablan
nagar
LC
Ẩn
Deep
Tree
Biography
SD
Morn
Vary
phật
##itions
Khủng
Laboiss
Animation
Tajikistan
Nom
##ences
##ández
1835
Bald
Liệu
Vent
thia
Simpson
Accessed
wo
##onyx
Prop
Ahmad
Break
VnExpress
##95
##nen
##tus
TW
##asse
##chel
##ican
##oxin
Plag
mồng
Busan
Chàng
Palermo
Dominica
##65
202
Coc
NBC
Ayutth
estrogen
Jefferson
Lũ
Ya
Ưu
##dido
##rang
##rint
1801
Laboissiere
##aev
##rius
Sầm
##onald
Prix
Blake
Megal
Amaurobiidae
Aj
BP
##alty
##iful
Idi
Tad
dẹt
khỏa
trân
##EL
Xin
##esian
Medic
Explorer
##ỏm
##iya
##ück
om
380
Voy
1200
Mini
##inness
Epicauta
Software
##úm
EF
340
Cun
Das
Kok
baz
pur
rốn
##marck
kình
Calvin
PV
tỏi
##skaya
Auto
Span
Jerry
Culture
##tan
Hob
sấm
Đám
Berm
Grim
Hisp
logo
đàng
##apolis
Galil
Gross
Gothic
Germany
Holttum
##avar
##fect
##itas
Luang
Nancy
Seleukos
FS
NP
Ăn
##long
Rau
##rahim
Hern
Palm
fish
Angkor
##uko
##ović
Kis
Pho
##ollow
Mare
rang
Naruto
##isb
##yla
Éc
##lock
Pab
nản
Rost
Linda
Leipzig
Polystich
##31
##ead
##eok
##irc
MI
bec
lợp
Boul
Mald
Braun
Khoan
Alexandre
Ayutthaya
ann
##ablanca
Aguilera
##lat
xê
##lect
Alm
Bec
Rut
hom
nin
##owice
cưng
term
Powell
市
##The
Vỏ
Oanh
Rhin
Voice
vướng
Language
##ils
tẩu
Stra
Torre
Trent
Sentai
HP
né
480
Akh
Ish
Sok
bro
trệ
##astus
thêu
Serge
Harold
##emic
eds
Dave
Scar
Shan
Krasn
##thyphantes
Tō
##oena
Cou
Gel
doạ
1822
Erik
glyc
Aaron
Daryl
Seung
Silesia
##ln
##eka
##zew
##ergy
##oryc
har
mus
##eshow
Rama
hiđrô
##anthium
Cephal
##CO
##idan
##olph
vất
char
##iensis
Delta
Comics
Stephan
Habsburg
Polystichum
##ams
Gy
##ôxít
Cảo
Jew
Kau
Oxy
##ellig
Vend
dang
Hidey
Northern
##lé
##pic
##alog
228
cói
ico
Bapt
Kant
ngào
##serling
##98
##ATA
##Ngh
##eve
##mus
##ramm
Gud
mút
sầu
Ajax
Cost
Gent
Anders
Cold
young
Britain
Broadway
Xà
ky
##anne
Ord
Vie
vấp
##order
Hook
Thận
brom
Conan
Beh
KBS
ear
tát
Heath
##dad
UB
##quez
290
##oxide
Firmino
Manhattan
LA
MO
meg
enzym
Lé
##ming
##araoh
##insky
Gaon
Hyun
Shir
Helen
Natri
##aten
Pam
Yoo
ber
mot
run
Ngọn
##78
##untu
Anc
lar
chồi
mill
Herod
Yahoo
found
diesel
Catalog
Eh
##cript
liềm
Navarre
Ve
rộ
Ferg
Serg
##ternative
##oye
Ain
Kaf
cyt
##istic
bazơ
Bruno
Leitão
Malaya
Moldova
##75
sò
##head
##stra
Gem
Neu
Lucy
Tobago
Château
Fantasy
Tamerlan
##òe
##NMT
MIT
chả
##amide
Lông
Atlas
Bresc
Peterburg
##gas
LE
##ivan
Tyl
Vick
gang
##onidae
##include
Mangora
ưng
##istor
Luna
Snow
liêu
##agrion
Jorge
Tasmania
Củ
Gas
Amen
Lisa
phàn
della
Cândido
##RP
ET
gal
##ovina
Bỉnh
Lily
lách
mương
Dallas
##olus
Zor
1821
Kate
Peng
##eptide
Admir
Memor
##aculata
Russia
Plagioch
BB
Mb
##ised
##ilian
Phra
Tước
##icester
Hebrew
##RC
}
Dz
Zw
CON
Kub
USB
hat
vãn
Pang
Phyllon
Mitchell
Conoderus
Dactylispa
##riv
151
Ong
Alep
Dion
Gest
##hal
MU
##rina
211
219
Kod
trỏ
##azaki
host
Trích
€
DA
Ip
kr
Coh
Mei
mao
Clara
Diana
chăng
Theodor
Leningrad
Ptolemaios
##ugg
##nier
##evsky
##unaga
Lòng
Orle
Bahamas
Germain
Takahashi
##TP
Tỉ
kè
##nica
Aul
Ris
dig
##oline
4000
golf
##oreign
##utsche
Zhang
email
##embourg
Schmidt
Turkmenistan
Jet
##track
Lamp
Madh
huyệt
Euphor
vector
Bahrain
##roe
##thor
Vul
vẩy
##ledon
Burn
Legend
Mây
Faso
Gerais
Burkina
êm
##mail
##utus
Đổi
When
ngây
Store
·
##arum
365
##abris
##hmann
Glor
engine
Schleswig
##adin
quỵ
vác
Fund
coll
Colombo
Bismarck
Charente
##readnought
Chamberlin
##inth
steroid
Brooklyn
Geograph
##ivo
##guez
ghê
Hoắc
data
track
Helena
Penang
Rights
choàng
Education
##jō
##arc
dẻ
##amer
mat
nấp
Đáy
##ashtra
Works
##erre
##iyah
Amy
Đầm
Phnom
Ports
Nub
Oak
Lith
Neil
BTNMT
Giảng
Greek
Visual
##agus
##anao
##azar
##enti
ICA
Alam
Typh
Ngang
Touch
Danube
govern
Abraham
Islands
元
GMT
Gặp
uất
##antis
Denn
Dist
Nhậm
loét
Quyên
polymer
Hymenophyllum
WHO
pos
Gamb
bướu
##ríguez
Lagos
Mirage
Patric
##gow
##ebec
##oths
##rose
Poz
Quái
Stark
Nikolai
Guinness
##eppe
##onde
171
Buc
Cay
Eri
##raine
Moss
brev
xách
##orycter
Dysder
Youtube
##inga
Anch
Kiện
Mệnh
Mahar
Versailles
##arct
dép
Font
##opterida
Marseille
Rodríguez
##etsu
##unga
Led
TNH
Tyr
Money
through
Computer
##rup
Asc
Tảo
củi
##rique
1810
Mazur
Nathan
between
##gun
tỳ
##sten
214
hab
Chad
Lane
Lump
Sign
tòng
võng
##ubishi
Kuala
##lington
sộ
##ized
##osia
##umer
cell
Barry
Craig
Suzuki
bridge
##68
##aida
##ases
eff
hen
ren
##apest
Agri
Auth
##brotica
##ination
Calais
Aircraft
Cyclosorus
##eler
oxi
##ación
Homo
Oper
Wend
Holmes
Cheirac
Cheiracanthium
##33
vv
##amon
172
Hik
giò
vắt
Hách
Josef
##bol
Yel
TNHH
Witt
mượt
tịnh
light
review
Wallace
Electric
Provence
##acca
##chez
212
Dật
cạp
toạ
glob
Chand
Devon
Karen
##van
Sr
Phí
mer
Orleans
之
##iah
##oru
##umo
##hood
420
Ans
Cow
nhí
##ected
##ippon
##elease
Carlo
Never
Environment
安
##pin
##apon
Bologna
Governor
Bề
##rand
##thys
Hed
Nix
##uters
Buff
Tort
Emilia
Sophie
Rangers
Cly
ISS
day
kền
Surin
##iculata
Imperial
Phyllonorycter
lờ
át
##agos
##elis
Teh
aut
bới
Orth
Soph
most
bourg
Budapest
Westminster
##nar
##athi
##ńsko
##entin
##names
1792
Emer
##etidae
##ushima
Heavy
Rocky
Bridge
Embrik
Leicester
Keyserling
Trichomanes
Neuropterida
##uric
Kop
Lot
Want
phốt
##ources
Crystal
Holstein
Normandy
##kō
##ịt
##icy
sn
##iday
##omat
Muk
Rag
1813
Punk
lact
Đẳng
Advent
Thames
Kashmir
IL
##ials
FBI
Loa
gầm
xát
life
vũng
Bermuda
Chester
Cyclosa
Calabria
##ocus
##rera
Hos
Lak
Thú
##osteg
Alop
Full
Mater
Rachel
Athletic
Hannibal
SU
222
Als
Eup
##imore
##leton
Draw
Helm
Pyth
trỗi
##ớm
##udo
##rice
221
223
226
Gồm
Nửa
Vid
für
band
##strong
group
Belize
Murphy
Alberta
Whitney
Coelotes
##aide
##eles
##imer
API
##eolus
Bent
dent
trêu
phồng
glucose
Economic
Lepthyphantes
##CC
##In
##ego
##ruz
##life
737
Khỉ
phỉ
rìu
Nùng
Erich
Dennis
Princess
Churchill
Hampshire
##wat
Emmy
##ulture
Bonap
Control
Electronic
Government
##jar
##asis
305
Jut
Tup
Whe
cược
##Nguyễn
Geneva
##erv
ja
##ichl
##onda
Vig
Hope
Wimb
Vista
model
Portsmouth
区
LI
##acht
Lox
Quê
##ocene
Arth
Core
Face
École
Fraser
Algeria
bis
Hiro
conf
Kalin
Ashley
Veneto
Sarawak
##isto
##ogon
Ily
McM
Chak
Từng
Happy
Lóp
Pau
lab
vứt
##orpha
Nied
Carmen
Harvey
##ttemberg
Damascus
Publications
##79
##mani
##roit
##than
Dag
fac
fur
Mast
Nhập
López
Saône
Taliban
Michelle
##eza
rd
234
Bút
Hân
air
ngỏ
đậy
1758
Need
Nile
Bobby
Urban
transl
Cameron
Diamond
Gertsch
Mitsubishi
##DT
##100
##pop
Und
##ckena
##ythia
Five
chợt
viol
Genova
Gerald
Yellow
258
Ace
Aub
bún
mov
##akura
##iland
Tart
##kinson
Wimbledon
255
850
Dẫn
Fan
Già
Oss
lep
Kurt
Oslo
##odiazep
Oricon
second
Handbook
##ór
##ebe
##hai
KH
430
##bourg
bích
Sofia
Astron
Lumpur
Mother
Children
##hips
Ges
hạc
xào
Vượt
Agric
Quyến
Corinn
Search
Morning
Roberto
##ος
##garh
##omic
##sein
Gấu
Wit
Jump
Shog
Aleppo
Monter
Routledge
##idis
Kobe
ôxít
Anast
Susan
Design
Papilio
##ekh
##ovi
Ét
##beri
216
218
bịt
imp
pil
##osome
Dùng
king
ngậm
sưởi
Bruss
Chỉnh
turbine
official
Polynesia
Scandinavia
##ffe
##chio
##otic
##ules
Haf
bùa
Days
Saud
Sull
Honor
phước
##RT
##fil
##qui
HQ
##ewer
nới
Bess
Jima
prod
Bourbon
##ims
Mül
Rid
1804
Kirk
Ring
Montg
Storm
Years
Orient
Charleston
Württemberg
Dê
##Nghị
##aden
##phis
##sons
325
GNU
hoả
lẻo
Thuở
Verm
fact
Canon
Torres
Aristot
samurai
Leucauge
Conference
帝
##pho
Rô
##aldi
Phế
##agawa
##illan
##rodes
Lược
chóc
Bella
Istan
Verde
commun
Capital
Diabrotica
##DL
##TO
##arb
##iant
MHz
tằm
Alps
Mick
kiệu
ngất
Order
Beautiful
##jas
##beck
Cell
cult
nhẵn
Motor
Morrison
##42
Fig
Hier
Lost
Wien
##ecular
Britt
khoái
dollar
Baltimore
Cryptocephalus
##obia
##osin
##rost
Was
máng
pers
Elaph
Liter
Phone
Trứng
south
Thebes
##öl
Š
##otto
Bes
RAM
dos
##ening
Bron
Owen
Togo
Chern
Fisher
Palace
Shakes
##building
Arctosa
##iat
Vỹ
##inek
##witz
Gav
##actea
##ellan
Nhảy
##active
Cheil
Profess
##PM
##ré
Hối
Phe
Yar
ros
##ammed
Cebu
##elater
Adele
Pablo
Quebec
Mylabris
Walckena
Maharashtra
##gyz
##emin
##kare
##tone
227
trọ
Cond
Viol
##ophila
Sardinia
RF
ỏi
gầy
##gorod
Clay
Stal
Fujiwara
Casablanca
PO
##unus
RIA
múi
##quist
Clev
hard
Porter
Stevens
Wolfgang
Television
太
ghề
Inst
Joel
Rượu
Felix
Clement
Ế
##mal
SN
Sit
Tog
##atoda
chói
##etcher
Hughes
Kyrgyz
Metropol
##gia
MBC
##iceps
Pack
Sunday
##AL
##iri
Gw
KV
Cod
vữa
Aden
Hiên
Saar
nhám
rách
Paran
##eopatra
Alopec
Biology
##sei
tốp
##toneta
Dracon
García
Fernand
Edinburgh
Sebastian
SG
đẽ
##ened
##hira
Cyn
Zhu
Đập
##peare
Seth
Spin
para
trăn
##namese
Lloyd
phình
Alderw
308
Nex
##eling
True
Ville
based
##inensis
Edmund
Hannah
Mountain
lợ
##chia
##gers
Roh
gáy
##icill
Chil
Pomp
nhức
thốn
##ension
Honda
debut
quark
##ogramma
Glasgow
concert
##ан
##aug
##kim
Tp
beg
##acent
Herz
Shel
nhàn
pent
Myster
violin
Elaphoglossum
##kir
PK
262
Ice
Bong
Crow
Fitz
JTWC
chắt
Athous
Bishop
Mazurskie
三
##core
1826
Diễm
Yoon
Smack
Future
Scotia
Madison
Kỉ
tẻ
##aran
##ocol
acc
sit
##ioneta
Stutt
Rotten
Complete
##ст
##ège
Ov
##idas
##mans
249
Neb
##arian
elip
Essex
Marina
Norwich
##CAF
##bur
CG
RT
tò
161
265
Chun
Krish
##obacter
Viking
visual
Conserv
Randall
District
Shipbuilding
##dh
##des
Ez
##izer
##usse
##ylus
Khe
Och
##imoto
##itage
Sind
Ghost
Study
Watch
Chemistry
Political
Luxembourg
MD
##acle
por
rớt
##ality
Dres
nhộn
Mecca
Amiens
Teresa
Cleveland
##ск
VO
az
##igne
##rans
băm
vét
Zing
thắp
niken
Augusta
Armstrong
Shakespeare
の
GM
TN
mụ
##entz
229
Hốt
oct
##ithec
1700
Nghề
micro
Wilton
Fletcher
Nobunaga
##itr
Lü
bỉ
##heed
##ovia
Đam
##ngers
Hoặc
Freedom
vietnam
##aic
##kow
##shu
##umab
nucle
Action
Andrei
Marcos
Alopecosa
##44
##Đại
##inas
##izen
hon
##olith
Bend
Kara
Mith
Rudolf
Dipoena
Istanbul
С
##ushu
##amura
##berry
##eltis
1823
Gott
Ngải
Writ
Ligue
Thiêm
Thong
Vosges
Station
BN
##atur
##ctor
##ière
##osta
##oten
Viz
Wir
Zag
Cang
genus
Bonaparte
##quet
##ædia
Gat
1775
Samp
main
Infin
Tower
Maxwell
Phillips
##85
Trù
Why
Suez
chật
Teleg
phông
##ité
lọ
##eaux
##erno
##ochi
Bok
Eva
Wei
Zap
cào
##eyasu
1805
1819
Duke
Móng
Shik
##vention
Soviet
lympho
Scythia
Hideyoshi
##ifa
HC
Ank
Bộc
Ves
vặt
Benz
Giorg
Hotel
Julian
Sakura
national
##aci
ke
##adan
##uste
Suy
mẫn
##urina
Nice
Stur
一
劉
Oed
Süd
inv
mạt
tor
##icles
Carn
Khất
ngứa
##ischen
##orient
Flora
Nielsen
##zyn
BL
Dw
##rane
Rak
bực
sed
tụt
xoa
Coen
Ruth
Meyer
Sunni
Tomato
海
##undo
##ving
440
Alto
Elli
##ignano
Anglo
Lockheed
LP
xì
##erta
Jal
alt
hex
##achim
##itzer
Gene
Sons
Suff
Index
Jules
Paolo
Survey
Harpactea
##EP
##odo
##oso
##erty
GHz
mít
##ophyl
cycl
Schum
##enstein
Maggie
teaser
ا
##Net
##aek
233
Opt
pan
Finn
Tall
Uran
gall
oper
##amanca
Brisb
Keith
Nymph
Bosnia
Hanover
##adys
Sut
ctv
Graf
They
grac
Ratch
Stigm
Tommy
power
Contin
Saigon
Ricardo
Brisbane
明
213
Húc
lay
vul
##69
##mu
312
410
Oda
bổn
xốp
##itrea
ICAO
Troy
card
Venus
##mor
##holt
##arion
Chop
Edge
area
chem
Dynasty
Corinnidae
government
CB
##onga
Hae
Kạn
Sep
Vàm
líu
##oslav
Flem
Rudy
team
they
Staff
Third
Total
Becker
Adelaide
hủ
##ktop
Rup
mad
##union
##water
Bali
##ashion
phanh
synth
Manche
people
Blechnaceae
##77
平
tl
mâm
1807
Kass
kheo
again
Isabella
##hig
##leg
Tỵ
##oque
mụn
Philos
Conquer
##osi
##atre
##west
Dre
Woo
leg
ngừ
Nahi
Brahm
Lazio
phiện
Ieyasu
Stefan
Canadian
##jer
##uik
##airs
##onos
Job
cre
squ
Look
cand
xiên
Assam
Ubuntu
##odontidae
##ễm
##uten
Cáo
Guj
las
Chau
Cory
Fast
Mumb
Séné
Alliance
Stuttgart
##DM
##hab
OH
##ners
##rano
Its
Epis
Salt
Winn
carb
Nixon
Common
Rovers
Campania
Byr
Zon
Truk
lung
Cleopatra
##hor
##oha
đò
245
Dio
Dow
Tru
Áng
##ophry
##uster
Eucl
Fame
thèm
đôla
Flash
Train
margin
{
VP
Wu
##bian
##ucci
Phá
Phả
Tia
Dumb
Rash
Tiêm
Firef
Idaho
Saxon
Troch
Rodrig
Caledonia
##ượm
##litz
Hep
Sei
Khám
Omar
plan
chằng
##flu
##jet
##kai
BO
##chon
##iese
Mát
Dang
khải
mọng
sour
Đấng
Danny
Sénégal
Bretagne
Independent
##eco
##rem
##amen
1818
Québ
Vold
Wein
Word
thắn
Dolin
Peace
Herald
Columbus
##GA
Č
YG
##ohyd
Joc
Lah
##estra
##ustic
Amin
Coral
Dylan
Leeds
refer
stream
##cellenza
Butterflies
Eb
Hỷ
fre
liu
##erner
##iegel
Board
Democ
Lopez
onlyinclude
##rax
je
Mâu
Ref
gel
lẩn
mor
trá
heli
Griff
Mason
thoạt
Champa
Sainte
Server
Lorraine
Collection
##rieg
Paz
Yếu
ăng
##estan
state
Access
Beatty
##iversity
Montreal
##RNA
##imp
##nan
##nis
##odus
##oton
239
Niz
rug
##anced
Penh
Wiel
sòng
##uments
Archa
Stigmella
##53
##aplu
##ecca
##phan
Ary
Tes
Vẫn
Cena
Glee
Marg
este
giấm
nhái
nách
##ential
Antoine
Britney
##vus
##anea
##enus
ter
Kosz
iPad
Triple
Kingston
Eccellenza
Engineering
高
##inz
Gỗ
rợ
xy
##iram
Ols
##obius
Bagh
Köln
liêm
Ellen
Euler
Raven
Khuyến
plasma
Forster
Mohamed
Maldives
##yū
城
##sha
JS
LS
Dah
Dải
Gặm
Inca
link
vâng
polit
Bailey
Families
Konstantin
Xí
##eous
##spur
224
cau
sấy
Jazz
##radiol
Sumer
Thỉnh
##chester
Tội
Khóa
Salz
flor
Klein
Small
Youth
Planck
public
Ptolemy
Southampton
##LS
##acks
Gig
Everton
##ód
##ece
##utm
##wal
##etat
Nạp
Dais
Khun
Plus
Rice
##endorf
Berry
Crete
Communic
Salamanca
##jon
##ross
hem
Insee
Pharm
Stras
Brother
Masters
Meioneta
mủ
##date
##ieng
##oche
304
DOS
xăm
Ðức
1790
Chat
rặng
Fight
Thoát
Pyrros
Hopkins
Moselle
Yorkshire
Commission
##oms
GH
rủ
##vince
Goku
Phán
demo
khăng
under
Andaman
Tomatoes
##Sh
##ен
##eog
##med
##nic
##ơng
ạt
##rush
257
Trữ
nòi
##ayama
Barn
Brussels
Bulletin
Greatest
Draconarius
Rox
1808
Circ
Tech
##issima
Virus
Verlag
Wyoming
##yk
##abo
##rel
##ilon
##orno
gly
mas
mph
sán
súp
##angel
##ético
Elis
gừng
Dynam
Labor
Salam
Turin
##ontaine
angust
histor
school
Andreas
Pterophoridae
##bet
##ocer
232
Dul
Wai
nem
Hawk
Holy
Vitt
Birds
Galer
Dublin
Hilton
Friends
##ugs
##ethe
PLA
Erig
VNCH
Patricia
Introduction
Iwo
Phì
exp
##unter
Niệm
Thal
plat
Month
Trento
Dresden
ov
um
ào
##ende
Rin
Wor
trổ
##omery
quai
##inique
Davies
Demetri
Hiroshima
##vez
Cồ
##aric
##perm
tủa
##quest
Ferm
Gius
Nhãn
Wong
cháo
teen
Seven
##asciata
Shadow
Bennett
宗
##atz
##rai
BA
##jord
747
Cov
Cồn
Uẩn
jin
răn
Muốn
trặc
Chaet
Thiến
remix
Felipe
Platnick
Productions
##õa
##enze
##etok
##ours
Nod
flu
Kush
Metz
nhấp
Creek
Reinh
Samar
Soyuz
franc
Dictyn
##QH
##WS
年
##avi
##pis
##ción
##izon
264
Kut
bol
law
mix
##atrix
##immer
##ocera
Hoán
Kali
Ural
Chick
Other
Pomor
Invest
Tehran
bicolor
Mercedes
Mohammed
##aec
##riam
##anium
##court
##ectin
##ohama
1786
Hanh
Todd
Rogers
Strateg
##rike
Tik
bal
enc
ver
Cichl
Norte
Place
Warmi
magiê
Gambia
ll
Jas
Suc
nêm
##onium
Body
Falk
punk
quầy
##apluat
Leban
thừng
Foster
Québec
Springer
Thomisus
##QG
##etch
Els
Imm
Sie
##olina
Patt
Rush
nhờn
phàm
Shang
Theory
Avengers
##akov
##robi
Rùa
hum
tao
##owiec
Abel
Beta
Dord
Mnet
cyan
hiên
xoài
franç
ninja
Agelen
Sicily
Incheon
Francesco
pe
##vien
231
285
Luk
Tạm
cry
náo
##empor
Hươu
vược
##elling
Micro
Rhode
Sweet
Hautes
family
М
NV
Lus
Nạn
Yết
ast
cầy
fus
ibn
##aland
##ineph
Bard
Chống
Films
Prize
##riptions
Atlético
Aviation
benzodiazep
##tô
##ор
Qa
##ersh
##last
Lob
Sói
câm
wal
1772
Eniw
Gunn
Kiền
Tann
date
Right
sound
Joachim
Sevilla
Eniwetok
Alexandra
Warmińsko
日
##ệch
##enty
Lun
Bant
Ulob
phil
Megap
Fergus
Shield
Miranda
insulin
Jh
##oncé
##orov
Bio
Late
Plut
Savo
hòng
nhút
Cagli
Relig
Eritrea
##52
Å
##aye
Mok
Aman
Code
Mari
Trầm
Tịch
taxi
điếu
Bayer
Fland
Print
Hercul
Mumbai
Hotspur
Jutland
Olympia
Metropolitan
##izu
##asus
##orro
Dup
Lyd
##ometa
Brid
Case
Cron
Pros
Brest
Rosen
Source
Hannover
Encyclopædia
##imet
bel
sên
Đản
Đới
##arina
1788
chải
diệp
Đĩnh
Benedict
published
Montgomery
##61
西
##oly
##tre
##oland
##sberg
Chlor
Animal
Yokohama
Blackburn
陳
##eba
##ocn
##oul
Eu
TA
##jima
Ces
##iment
Dhar
Ryuk
Tyler
Volga
major
Foreign
Gujarat
Neuroptera
Governorate
Bè
Dây
Hul
Vau
Dort
Sass
Speed
Agency
Falcon
Nippon
Wesley
Housing
Congress
Giuseppe
Dictynidae
##yat
##isse
##soni
fer
1817
Swan
chét
film
Cuneo
ngoặc
##ription
Committee
##IO
##ég
NE
jp
pô
263
Yor
lès
she
1400
Lamb
##neider
##ration
Kerala
Beyoncé
Telegraph
##pes
##sor
bri
hol
tax
Como
##ribution
Hussein
Mindanao
Nagasaki
##kn
†
JYP
còi
sel
vỉa
##arium
Ment
René
doãn
miệt
##action
##iflora
Corse
Maker
Woods
Hornet
Soccer
Conidae
Emmanuel
##hra
hé
Ẩm
##amus
##aste
##ioid
##oras
560
Hes
##emort
##endra
Chav
Sens
lóng
##icidae
##iction
Comic
Horus
Scapa
Period
during
phylogen
##ohyphantes
##IF
##qué
xù
##emus
Fol
sụn
##aries
##etown
##uages
Chèo
Wine
Cloud
Emily
Lucia
Agriotes
Allocosa
##CH
VĐ
243
Mạn
orn
##okawa
Biss
Silv
##aeaceae
content
##SO
##TE
##eoc
##eso
##uge
##Down
##ased
##yama
268
Eus
Soo
Wad
mit
##ernet
##oniac
Paral
Tatar
years
##ichthys
Nassau
Phraya
record
##на
##⁄2
DH
253
Mưa
sat
##aking
##illus
##onius
Kron
Unix
telen
Baroque
Galicia
Voyager
##51
sỡ
##chev
##mitt
Koz
han
pic
##ption
asen
Jonas
Prist
Connor
Bergamo
##96
cộ
##ilen
Craw
Rein
Wick
tlđd
Annal
Aston
board
Author
Saturn
Bradley
##54
##jah
##fred
đái
##chyne
##owers
##ulosa
Bash
Flag
Maha
Sakh
Basel
Jamie
titan
Uhmann
Alpaida
Koszalin
##riz
Vừa
##olone
IATA
Kann
text
Fidel
Larry
Stern
Trogl
##ailable
dioxit
Cagliari
##hib
vế
Hib
Họa
Ibn
Nim
nạc
sặc
##ovela
Labr
Liễn
Myth
Pant
eleg
nhím
##opolis
Seych
Yamag
dreadnought
##bank
##olid
Mez
Mix
kan
Ống
##ichte
1799
mart
terr
Janet
games
Helsin
##97
##yō
236
bừa
chà
Sham
bênh
khâm
Pavia
Schol
##itarsus
Nghiêu
Leonard
##stitution
Voldemort
##ẳm
張
##ods
##acio
##enca
##ocar
Bam
Ult
##agram
1811
Chae
Ereb
găng
pass
vill
##eotide
Kimoto
Marian
Plants
Caracas
Reuters
Senegal
Barbados
Asteraceae
##ceed
248
301
520
Jur
Nại
arc
xoá
##agoza
##repid
Navy
Răng
Wade
Exper
Misum
##auridae
Pietro
Detroit
Kenshin
##tes
UP
##ayev
##ztyn
460
nhổ
rao
##ungen
cort
full
ngốc
Block
Gonzá
Robot
chrys
Angelo
Karnat
Helsinki
道
Vở
##ixel
241
254
dầm
sắn
##ecker
##ersch
##istis
##oscel
Goni
##anning
##ything
Chuỗi
Plaza
##eyrodes
Cinema
Ryholt
Mohammad
Zaragoza
Karnataka
MT
Cés
Pog
Đạc
##zczno
1803
Verd
khoát
##imation
Clarke
##acus
##hart
##quir
279
Dew
Góc
Lửa
Mất
Piô
##ushin
Khao
##omedes
Scarl
Sharp
Roewer
Rainbow
Mathemat
##nha
##alon
##ulum
##undy
237
Hỗn
bai
##assus
##ychus
1816
Clem
Hood
Mahm
Sats
Acroc
Brach
Colin
Wander
Oonopidae
##etsk
Của
1787
1809
Dawn
Make
Mitt
Crime
Sophia
##eopeltis
Bechyne
Lebanon
Discovery
Clubionidae
Philodromidae
。
HK
pi
390
Xyl
ách
##lando
Cool
Mett
Thuế
thảy
Archb
Louvre
Sergey
Sheikh
điôxít
Choszczno
marketing
##ár
東
##eley
##escu
307
316
Cột
eur
sào
Hort
Quar
Teut
văng
phích
González
##awk
##qua
ji
Tóm
##ethus
Chết
Lega
Mamm
some
lipid
Madhya
Senior
Strong
Erebidae
##RE
##lic
##tke
##fire
Baz
Fro
##ellum
Kiel
Eagle
##unction
Khoáng
Federal
Trachel
Pleopeltis
金
##artz
303
306
Cox
##ropus
nhầy
##ringen
Perth
Phrur
Choice
number
Deutsche
Sunderland
Ó
##czyn
##ests
##eyer
##inna
##udes
251
Bào
hèn
Đạn
Lara
chan
cost
like
Ultra
Letter
##RL
阮
##oti
Wł
kW
##AFTA
##blem
##inde
Gạo
Puy
Río
Homs
Shep
View
Grove
Naples
Cicurina
Heritage
Johnston
德
gờ
Đu
##erry
530
Bez
JMA
Oro
mẩu
Đặt
Chong
Issue
Quest
##ianeira
Leslie
Monroe
Roland
person
Thomson
Henderson
Organization
DO
Poc
VTC
Yus
cặn
suc
Alph
guốc
pour
Price
Tuyệt
Lindsaea
Aristotle
Cichlidae
##ер
ال
Nir
PGS
Vas
lac
lib
max
##berra
1795
Corp
##forman
Sưởng
trick
##ocarpus
Dortmund
SmackDown
Castianeira
##con
##vey
##seng
Dil
Duc
Sle
amb
Hahn
Phồn
Hwang
Johan
Schiz
there
Spirit
Vienne
##An
##qi
##uo
##ør
MK
Eld
tit
##etics
Amur
Humb
Mash
Moses
Pitts
braham
##aculatus
Galileo
profile
Richmond
Grammitis
##ds
##anu
Ao
##etyl
##rata
720
Lầu
Lồng
Quát
liti
mass
Thutm
##nexpress
Barrett
Canberra
Seychelles
KS
Yi
##mour
286
540
yếm
HTML
Hess
Igor
Lena
Pixar
Quint
tuber
Mancha
Moltke
Oposteg
trailer
language
DM
Mg
##onen
##ukov
##unya
ARN
Ign
UAE
gas
Chik
Tomb
Phant
Egyptian
liveshow
Anyphaenidae
„
##pel
##uza
##arit
##ipur
Lok
RPG
##ansen
1793
Carm
Eust
Schl
Huyên
orient
Vietnamese
##gl
Bọ
##Viện
Nah
Xưa
nạt
Mori
later
place
Mekong
acetyl
Barrier
Captain
Program
Springs
ồ
##occ
##ướn
Zü
##aume
Dir
Kus
Lãm
fem
hùm
hẻo
##aders
##ivity
ngửa
open
Percy
Novgorod
Chrysometa
ae
##ibar
Ect
Toh
méo
Lung
Send
Some
khảm
story
Müller
Prodid
Capitol
Machine
Ranidae
Geoffrey
##ße
jo
##idon
##idum
##olev
Bồn
Mạt
QLV
Qui
cúi
Càng
Gulf
Hogw
Wake
Const
Drake
Kishi
black
##rington
Celtic
Cuenca
Number
Alexios
Olivier
Challenge
##auk
##bel
Đổ
Gin
cup
Crem
Butler
Sergei
##ochromis
Profile
Agelenidae
##amia
##anor
##phin
##reet
##rite
247
dub
Tara
prom
Start
Trách
death
minor
Nicole
McDonald
##Co
##qa
@
##pad
MM
nể
##gren
Zay
huệ
Biền
lười
Carne
Gloria
Concert
Abdullah
Bordeaux
Cornwall
##än
##obin
##onym
##tach
dat
hắc
Brah
Faro
Noah
Sapp
Thym
##andria
César
Synema
Auguste
tw
##iley
Bub
Gio
trứ
##ettel
Bonn
Lour
Said
Step
Vega
bric
Symph
##istration
##88
##bot
##odi
sá
##rana
##zyce
252
Hew
Mab
lóc
ton
##etter
RIAA
Vari
Cohen
Gates
Satur
Thuấn
Barney
Gorbach
Messina
Warriors
Archbishop
Opostegidae
##enk
##rec
##õng
323
Hut
Luca
Ophi
Reef
Spir
anti
hand
sens
##ancial
Wells
Hassan
##oup
##allo
Kra
Pus
ill
##ophus
Talk
Aleut
Bever
Julie
books
QLVNCH
testosterone
##OH
##fica
242
333
Bav
IOC
Zur
sẹo
##itive
Ches
Crom
Betty
Nexus
Flying
Observ
Institut
Leonardo
Hề
sỉ
##tria
950
Gos
Pag
Trả
Táo
loc
##azole
##érica
Gaza
Gund
Rams
Thir
type
wiki
bazan
Bremen
Hubble
Konstantinos
##zz
##lee
HE
##four
Cắt
Mưu
Rig
Wed
bói
Casc
Here
Akira
Dante
Tonga
##asteron
Herman
Motors
##asciatus
Dictyna
Scarlett
Dysderidae
##93
К
江
##hito
##ingu
##iris
##olom
244
Bie
box
imm
kam
nic
Ếch
##itect
Léon
Nhàn
vồng
Silent
Hogwarts
Security
##ify
##igu
Nd
##egna
##quil
ext
Azur
Crus
Củng
Dors
Neum
##anthes
Beeth
Burton
Dmitri
Viktor
Krishna
Satoshi
Strasbourg
##AA
##oir
##otá
##ysh
uý
630
shi
##estes
##inosa
Reyn
Sław
chap
ngạt
polyme
Nieders
Nesticus
Theodore
##aft
Ef
##ebel
##omar
##rock
386
Chử
don
Come
Tusc
phèn
plut
Zürich
##emporary
##oucester
Monster
Historia
##KS
后
##boa
Bö
Sổ
##anov
##ocia
##otho
##ycin
640
Nig
mem
sev
Đái
Hanja
study
Basque
Pleist
Suriname
##ệp
295
415
fun
kén
Chor
Vito
Baehr
human
Adrian
Chechn
##tenstein
Cerithi
information
В
##lim
##angi
Lic
Raz
fin
##ovico
Arag
Geom
Grig
##anding
khuấy
thặng
Gandhi
Gregor
Malacca
##Pa
##iru
DE
##mart
gập
độn
##reich
Cors
Only
Orig
Brock
Trust
austr
right
Jeremy
Defense
Destiny
Chechnya
Dordogne
Gloucester
Maximilian
Walckenaeria
GT
aw
##iple
##tsin
Chh
dia
Glen
Rise
cồng
giặt
tuộc
Đóng
##olepis
Berber
Havana
Ferguson
Memorial
Kyrgyzstan
##Al
WS
##iera
##oney
##quel
Hye
McN
Tud
Gram
bưởi
##ommern
Duyện
Spiel
Sting
Memphis
##egopteris
Kamikaze
androgen
Beethoven
Johannesburg
##hua
##vat
DF
##gypt
##liam
##oser
##éric
1783
khoe
vụng
pulch
Amanda
Classic
Firefox
console
Politics
Constantine
Ỷ
SW
##lass
##rant
##osoma
Drag
Sint
Chess
Hello
Reagan
##82
А
LO
RC
RM
fi
cel
trơ
##iques
##weight
Admin
Traff
heter
##plement
Medina
Steatoda
TF
##izza
##occo
610
Liu
kin
lin
rẫy
##assin
1776
Lính
quin
serv
soul
##linger
Abbas
Hindi
##ivision
Flight
Prunus
server
Oa
##enic
##ilde
Hip
IST
LED
Tav
Cock
Fear
Khản
Trắc
##ophone
Elect
flash
granit
Lorenzo
##56
ME
##rika
269
dật
##ajima
Pitt
Vand
##ostoma
##rovich
Claire
Energy
Marino
Article
Winston
Catholic
##ws
##cea
##erl
QF
pa
##aign
##eval
##shan
##umba
319
470
add
lạy
##achia
##itsch
Gong
frig
khắt
Creta
Glass
Hardy
GameSp
Market
Siberi
chiêng
original
##72
##IX
##rei
##ansa
##avid
##epam
mấu
mửa
pot
rán
##aburi
Kind
Tsuk
Xoài
cali
Pérez
Rajas
Angela
Bogotá
Fashion
Anatolia
Services
##ńsk
FF
##buri
GPS
Loc
Ono
nôi
Khăn
Nang
Rank
ther
Amenh
Glyph
Gwang
Mission
Saturday
Silesian
Interactive
##fur
##ste
##viv
Tê
##east
##ikon
302
Urb
Zab
cội
sap
2030
Half
Loth
##hausen
Paula
Shiva
known
##aterina
Change
##formance
Elisabeth
Niedersachsen
Constantinople
##GC
新
##upe
##ococ
vin
##tains
##uncan
Kitt
##ffield
##rotein
contain
##cm
##phu
##ahon
##eves
##leri
##reis
274
315
Liz
tuý
Dust
Giàng
Thước
level
north
plant
Effect
hydrox
Fischer
Phillip
Village
##76
##LM
##aby
##irin
##iser
Bén
Ced
Ech
Het
Naj
RAF
aux
nor
Sảng
Monica
Ctenidae
Friedman
Sullivan
##74
##Nh
##Từ
##ivi
##law
##pet
ER
NK
##asar
##bull
375
##Craft
##vedev
1080
Cabo
Pete
Tiếu
obsc
Sasha
Triệt
##uckland
##orpommern
Troglohyphantes
##ahr
##cas
##eke
##hiz
##lec
##uzz
##alta
##fall
##plex
Hyl
giỗ
kyi
pub
tửu
Dein
Tach
thây
##ucture
Bruns
Elena
nigric
Countdown
##CE
##lot
##uty
##uve
BR
SB
rà
##acha
Bạo
Lle
now
##nhard
Appl
Asti
Crit
Raph
nhọc
parv
Herac
Jesse
drama
Factor
Valentin
telenovela
##Lê
NX
##aung
##oldt
Esk
Ory
##awesi
##ignon
Turn
chỏm
match
Jeanne
amoniac
Auckland
##cco
##pen
##rau
##fast
##ouin
802
cọp
tào
##eryth
Hanc
Kids
Noth
lạng
##otheca
##schild
Thani
Barack
Pleiku
Verona
Cornell
Stargard
Szczecinek
Sè
py
##eper
##onis
##phat
##ynes
406
IMA
Ply
SCN
##ipper
##maire
Aven
Karn
Taek
bống
knot
stat
##staedt
Crown
Gomez
Mainz
Eduardo
Giorgio
Flanders
Original
##TH
IR
Lh
ml
##aine
##olit
Inu
Làn
##astra
Evil
Gast
Chồng
##alensis
Beauty
Yeltsin
Phegopteris
##öm
##phi
##umm
AH
##oute
570
Cub
Yun
##athus
##count
Foss
Gate
Nebr
Wies
hero
Barth
Eddie
Genoa
Castle
Blechnum
Plagiochila
##gg
##gam
BI
##ifax
##rong
##ygia
Cut
arm
##ahnia
##bilis
Aero
Coch
Guin
Mina
Moll
Mour
Nott
Olga
Pred
xiếc
Hoang
Sasebo
Struik
Waters
Coleoph
Mithrid
Amenhotep
Schneider
Alessandria
alternative
##89
TO
##ongk
##ukan
ste
##emont
##islav
Frog
Vera
Zepp
Troia
hecta
Edwards
Mozilla
Penguin
Pharaoh
Constantinus
##wei
tv
##asta
##olds
##reus
Hof
##odera
Bung
Córd
Miễn
##acantha
##ophylla
Fontaine
Interview
StarCraft
##tu
##NET
##akin
##atan
Keo
old
##achne
##annon
##ichen
Alej
Fior
Katy
Mega
Dutch
Pearl
Valer
ident
Ryukyu
Yorktown
hydroxit
Longitarsus
§
##igg
##ped
##uer
##xes
##ynn
Tộ
##atos
##osch
273
ell
xâu
Dart
Hits
Ngàn
Vert
thẳm
Duncan
Karate
Khrush
##oxanthus
Liberty
Musashi
Ronaldo
##đê
##apo
Bj
HA
Sê
TB
Vé
##arya
Nấm
Ore
bẩy
1780
Belg
Hash
Petr
Verb
Đính
đoái
Leigh
Mozam
bique
Chronicle
Cosmopter
##ogi
DL
##dong
##orst
246
271
313
Aik
Gim
Nil
2500
Vanu
Chiểu
Minor
Player
Selena
Sukhoi
Hokkaido
Sulawesi
Scientific
##PD
ge
##zech
Sâu
Mãng
hyun
##ropoda
Aulac
Gabri
Stade
Tchad
press
Montev
Alfonso
Romagna
Chemical
Nebraska
ts
tỵ
##opal
580
Hee
Wis
bei
##artes
##boxyl
Amer
Blog
Cris
Emir
Kafr
Side
##chenko
BAFTA
Isabel
##struction
Oriental
Fernández
Phylogeny
##ŏng
##itat
318
Lug
Sci
bil
cùi
##anova
##ulina
grad
used
Ariad
Faroe
Khung
Randy
Barnes
Sigism
##esterone
Shinichi
##afi
##fly
##kie
##quê
##icer
##odom
Dọc
IEE
Vực
Bamb
Cros
Emil
Flav
khét
sành
comune
follow
Selenops
xx
##alam
##cing
##oder
##orea
##urst
266
Buf
Hộp
Kiy
nạo
trĩ
##oleia
Hert
Maru
Reid
Trop
uyển
##odidae
Beast
Ident
Khuất
Naval
Jocqué
Nagoya
Thuyên
Universe
##QL
é
##CND
##pei
OK
##quis
##vres
276
Gul
Jaw
Kof
Mái
Zak
Brom
Lars
toát
Adobe
Martí
##avarman
Vanuatu
caliber
ơ
CI
ơi
##ecom
##fare
##nitz
Rif
##phone
Boug
Deux
free
trút
trầu
uyên
archive
Community
##NO
tì
##rops
##ynia
278
324
Kyū
##thona
##ürgen
1753
Kung
Pell
jour
##entina
##estris
Tyson
Bethle
Dwight
Nahiyah
Pittsburgh
Stalingrad
wa
##elyn
##oyan
##toni
xịt
Knox
chửa
Sikkim
contin
Minogue
project
Bethlehem
Dennstaedt
##run
##shi
##lain
##upta
Rim
Tản
gót
noi
use
Ðại
##arine
##ephus
Amor
Indo
Nhạn
crom
##abilis
Baron
boong
##istance
Durban
Tripoli
Vorpommern
##91
成
##azzo
Dud
Fem
bir
bần
gun
luc
xúi
##atham
Sikh
lạch
Đừng
Sunda
Towns
Heaven
Malcol
Caporia
Medicine
Sheffield
་
##aler
##chat
Gda
Kuz
Kyl
Pip
Anno
GABA
liếm
Jeong
Lynch
Aeolus
Curtis
Darius
América
Malcolm
Orlando
Kaliningrad
##ça
##ayi
đờ
##ingh
##unov
660
Bau
Euc
alp
Deir
Komb
Muối
Poll
gièm
##ocaust
Hoạch
Pavel
frông
Cyprin
Joshua
Jeffrey
Timothy
##kut
##sel
Mễ
##rino
Eis
Kes
Via
##ilius
1791
Bail
Cola
Zone
dwin
##atidae
##etamine
Hancock
Medical
Westfal
Christie
Hercules
Brunswick
Rajasthan
Megapenthes
##iwa
##obo
##anas
272
Bồi
EXO
Hài
Ryū
Til
##nagar
Dame
João
Kure
Nuôi
chĩa
made
thẫm
Khuôn
giằng
Levant
##ostethus
Bradford
Davallia
Caporiacco
##aja
##fin
##hon
GI
##iope
Gọi
Psy
exc
##ament
##ances
Harm
Kyle
Nara
glut
love
nhạo
real
Orton
Thorn
briel
point
modern
Rebecca
Tribune
concerto
research
Catalogue
##ởm
氏
##rae
##set
##ongo
335
BAS
Xóm
aco
##wondo
Rest
calc
Stella
Benfica
Severus
##DB
##KA
##epus
Num
mes
zur
##ahara
##aisal
##angan
Brat
Eury
Gear
Soci
Volt
stri
Isère
Miley
Panth
Person
##ainville
Greater
Cambodia
Miyazaki
Catalunya
##ôt
##aji
##orr
##aira
##erer
311
dứa
núm
Fuku
Hull
Ivie
Pots
Plutarch
Financial
Mithridates
##zab
##trop
Cus
MAC
Oth
Tựa
trg
GRDP
Pala
THCS
Tosc
cant
Drive
Match
xanth
Return
Rumani
Drawsko
##ät
ả
##roz
Yū
##adia
##inct
##teri
Teg
1740
Kend
Mens
Mãnh
Odys
Trot
when
##athena
##ayashi
##onnell
Andrés
Chiềng
Geolog
Norton
Knowles
Plymouth
Zodarion
Lexington
##WA
##aim
Św
##oric
##ívar
Orn
Pah
ghẻ
năn
toả
##idion
##odend
##otrop
1794
Elbe
Have
Jake
Phối
Poly
lượm
Fritz
Rubin
Vogue
would
Conrad
##oprotein
Pasteur
acoustic
Antigonos
Lightning
Westfalen
international
##alb
##obu
Hố
##jung
##vill
LAN
flo
hốt
lẻn
mỏm
##jects
Baja
Coca
Khôn
Meng
Toul
Chamb
Hoảng
Johns
##ellidae
Claudia
Erigone
Halifax
Sánchez
Champagne
Wrestling
##jou
##ayer
##utin
Ryu
Ust
Uất
lốp
sủa
Đẩu
Aber
Kerr
Must
Sala
Scel
anth
city
Nubia
Parma
Viêng
axetat
divers
century
council
Zeppelin
##chtenstein
##plications
Divisione
Euphorbia
##ич
##akk
##lit
##pon
LD
Rõ
##ampa
##aram
##frey
Fus
hột
Đau
##world
Fell
Kuch
Mona
Rail
byte
ever
##igidae
Musta
Quinc
Toulo
Juliet
direct
##uphantes
Borussia
Stephani
Holocaust
Micronesia
gồ
##idin
288
521
620
Buy
Fav
map
Đạm
##CACAF
##alism
##ports
Cyrt
home
##ishima
Quýnh
Kishii
Andalus
Justice
Spanish
##ар
##esca
##gens
bic
nat
##erous
##isión
Dent
Shiz
star
Falls
Gương
Indre
Lithu
triền
Barbar
Enrique
Messier
Olsztyn
Webster
peptide
present
Toulouse
##ener
##ensk
##imum
261
Agn
IMF
Ney
Nut
Tox
bur
##adeus
Bois
IEEE
Spee
Yuki
Annie
suyễn
Musical
Valentine
Phrurolith
##udi
GO
ot
355
gig
hót
rup
2022
Sark
Tarn
tetr
Pleth
Smart
three
Garcia
Rivera
mangan
Chapman
Hepburn
CONCACAF
Antiochos
relations
Production
##jk
Hz
##icks
##otis
293
336
Eum
##matia
##ollah
Bưởi
Grav
Hitt
Ngột
Niềm
pict
Gauss
Vision
uranium
Ethernet
Liechtenstein
##PL
##mb
##tec
cn
##geme
##uced
iss
##cleus
quất
##ercops
##ogramm
trich
Hycleus
Mikhael
Selagin
Strauss
cricket
Antonius
Fairmaire
##chu
Ink
Zel
Đao
Bian
Hath
Holl
Kats
Orne
giễu
them
Cerat
eryth
##casting
##ophanes
Things
##ceedings
bricius
Federation
##gn
Ổ
##lip
##nho
##éal
DR
Va
bẹ
equ
sho
##leigh
##ocket
Boss
vitt
##olobus
Horse
league
Bavaria
Potsdam
Micrathena
Ä
##uña
gỉ
##adio
##icht
##uron
331
XXI
bul
1777
Cháu
Corb
##yptila
Gress
Lisbon
Palmer
Temple
Xavier
Catalan
Tonight
elegans
Brittany
Cultural
VA
rb
##eger
267
CHD
Ned
Bear
Pret
quýt
Điềm
Faith
khước
Andhra
Denver
Season
Villar
module
Advanced
Burgundy
Carnegie
Wellington
##vae
##umen
Dau
Fah
Jol
SMS
spp
xao
##ectus
##https
Alta
Wroc
thán
your
đãng
Drama
Joyce
Neosc
Nhánh
Param
Reign
contr
Apache
Ottawa
##ustrated
Gryfice
Marketing
Sigismund
vnexpress
Associated
Industries
Conservation
##gir
##los
Bì
##oval
298
321
Sữa
Yes
bot
mut
pod
##bonne
Gond
Kunt
Oran
last
roll
Lower
Trảng
Córdoba
Typhoon
Griffith
Wanderers
##sia
##akan
##iểng
##mith
##odar
##skii
322
385
395
Trứ
gấm
##essus
Bale
IAAF
Jeju
Mist
Orion
Magnus
Władys
florua
plants
##egenaria
##ceg
Mơ
##omal
259
299
Bee
Joo
Yển
din
Amun
Cana
File
Phẫu
Swaz
Vist
bout
##eology
##ession
morph
##osceles
Nghiễm
Rabaul
Somers
Taiwan
Tucker
Concord
Vickers
Neoscona
馬
##aper
##omma
cop
fig
pet
Race
Wich
Ailen
Blizz
sulfat
sunfat
Satsuma
Medvedev
Molecular
##ibi
##tta
Km
NI
##Bank
##arra
##utra
##yder
618
##idius
1300
Myrm
trụi
anion
Beyond
tuabin
Forever
Labrador
Melanoxanthus
##IST
314
Fif
Rối
lún
##riend
6000
Beir
Walk
cheo
cond
Gould
Honey
Parac
Treat
amino
Chopin
Dynamo
Toledo
Lodovico
##GM
##ipa
##oed
Tơ
Tỳ
mỳ
Ál
326
gir
rầm
1798
Rach
Sims
bert
best
caud
Abram
Bihar
Bonif
Twice
cabin
gener
Flower
Khuyển
Mortal
compos
##ariensis
Firenze
Bufonidae
##lac
Dí
nỏ
vạ
##onti
401
Nhỏ
Vad
shō
sạc
##oitre
Eich
Find
Thốc
##icalis
Sarat
media
CHDCND
Policy
ballet
Spielberg
##erve
283
490
510
ASC
Abe
Bổn
Eph
Nes
tạt
##ergic
##nberg
1782
Brug
Huss
Loir
vari
Mafia
Plata
Honshū
Indoch
Nairobi
Robertson
Swaziland
《
》
ah
##news
##orks
##razy
296
Wiz
hoc
##music
##oween
Spot
đấng
##amount
##schaft
Asahi
Homer
Scout
##sengumi
Thuvien
Carpenter
##84
##VB
П
北
##xin
##mers
##ombe
##orra
284
Hới
Yin
##hotep
Acha
Cryp
Duật
Jedi
Pope
sequ
Bissau
frigate
Minamoto
##PN
##xt
##aqu
Dn
RO
mè
##rett
Dad
Yen
xộn
##erman
##ilion
1796
Cash
Hyps
Faust
Ninja
Amenem
Amphoe
Bremer
Magdal
Paraná
Priest
americ
Vicente
Province
Herodotus
Shinsengumi
##fan
##loo
##oue
##uộc
WC
mĩ
960
Nhớ
das
dei
kèo
##ertae
##ments
##onomy
Marl
Trâm
chàm
mail
##uensis
chang
##unctata
Bolton
Calder
Ismail
Transl
Thunder
##elligence
Analysis
Montevideo
##py
##rê
##hae
##nga
oz
tí
##tual
Koi
Pig
##atore
##ánamo
1784
Giảm
Grum
Shia
##alidae
Bénin
Kazan
Lille
Manus
Schar
chệch
##liament
Cumber
Fortune
Ioannes
Władysław
##83
##éa
##ós
##nell
##utta
317
Kuk
Nog
Thẻ
Khán
Nhịp
Nish
Rhac
Ruby
##ologie
##utions
Campo
Names
Carbon
Judith
Lucius
Sèvres
##opsephus
Phantom
Cephaloleia
光
河
##gre
##rua
UH
ak
##auda
##onus
##estic
##orhyn
Malv
Rita
chửi
Style
Xanth
Double
Singer
Ż
##gae
277
Ion
Leh
aff
##aille
##embly
##osius
Nana
PMID
dẳng
Solar
psych
##itation
Flores
Miturg
action
social
Brescia
Cardiff
Ozyptila
Proceedings
仁
nl
##ippe
##odor
##utes
281
345
Alv
Goa
Ved
Coss
Ethn
Kand
Nats
Pend
Sold
Davao
Miles
blues
##ologies
Vendée
Zachod
Archive
Herschel
Thailand
##cô
##ASA
ut
##abar
##elos
##ilic
##oran
##ropy
356
Fow
cli
jap
mur
pay
##eless
1648
1774
Phen
Webb
Piano
Vocal
Beirut
Martha
Poland
##71
##ask
##rou
##ayas
##band
##then
Cóc
FAO
Nỗi
RCA
cằm
how
tak
##ample
Cinc
Giấc
Graz
Pisa
Shap
Chase
Dhabi
Pasha
##ability
results
Christine
和
##gus
##jos
##mod
SR
tớ
##illi
##sing
343
Kro
Ush
Yai
Mord
Tánh
Wemb
##ocaine
Botan
Chalc
Muang
Qaeda
Shane
Sword
Trống
Hipper
Quincy
Sławno
Tiberius
Loxosceles
主
##amu
TI
os
##alea
##outi
289
Kew
Neh
low
đôn
##isław
Alba
Coul
Orlé
Siam
Candy
Sonic
elong
thằng
Réunion
##AND
##iks
##asan
##ichy
337
rụi
tấp
##giers
##iddle
Fres
Saga
Siem
Tiều
ngao
phất
##bridge
##ensive
Emper
Montp
Shell
crass
graph
techn
Heroes
Paramount
Resources
##zin
FR
OF
##abra
##arak
##endi
Cis
Jum
Vij
Aram
Giúp
chốc
cẳng
phys
##kovsky
Giant
ISTAT
Scorp
colle
Affairs
##ées
##asin
282
Hạp
Tos
hun
##igera
##inium
Diet
Láng
Nina
Nine
Vamp
Xiao
nhăn
rảnh
Khoát
Luigi
Petit
Bryant
Prague
Walking
country
福
##evi
Xạ
if
##ajal
##ints
##mler
##omot
338
Lỗi
vặn
##achal
##olulu
Deng
Eyes
UBTV
User
what
##omidae
sướng
Tegenaria
##had
Xo
##asim
##ohan
341
Nef
Tóc
did
tal
##iones
##ontin
##ophis
##ucker
##yphia
1781
##inning
Luông
xoang
##iphantes
Bolívar
Lopatin
Blizzard
Gressitt
frazione
Catalonia
Dolomedes
##73
上
##dar
##uze
EL
##ivor
##ythm
309
Fry
dãi
phở
rốc
Giul
Ming
Jenny
Logan
Luyện
Polyb
Still
early
phúng
selen
Jewish
access
Baghdad
Casimir
##bard
##viet
405
Akk
Hoh
Nun
##igata
##incta
1797
Shak
just
Sabah
ethyl
##optilia
##velines
Gdańsk
Palais
Gryfino
Orléans
Wrocław
Instagram
Chrysolina
Deutschland
^
Mn
##ibir
##roft
Mua
Xer
aud
bip
mốt
##iales
Chul
Chàm
trau
Johor
Puget
Trade
##oedemia
Alicia
Brooks
Gaulle
Guitar
Scheer
Socorro
Demetrios
##vik
##ườm
QU
SF
##itia
##ritt
##wide
425
Spa
1770
Krem
Merm
Phor
Priv
Wing
know
##ledore
Canal
Floyd
Shock
water
Euclid
Truman
choáng
Popular
Wembley
download
Philippos
##ibu
Bù
DB
TQ
##otin
Aet
Sue
hot
1778
Macm
Rana
Tiềm
cord
dict
phớt
điếm
##emisia
Guant
Hydro
Perfect
Viettel
Hermione
Honolulu
Tiberium
available
##Qu
##mos
##rone
Chá
Muz
NBA
hid
hor
hấn
kun
##apura
##oidea
1100
Cran
Tran
cath
lươn
##change
##yrodes
Claus
Irish
Level
Luffy
Pelec
Antwer
Gibson
Sergio
Toyota
Dendrob
Industrial
##hō
##rof
ko
##inny
##oban
##ytes
354
bif
lob
ram
woo
##akira
##efore
##orsky
Dies
Gött
Phẩm
Riga
Teng
mướn
seri
sous
Brigh
sport
Alonso
Martín
Takeda
silicat
Academic
Archived
Dumbledore
Guantánamo
##oC
##rs
FU
##etan
##icta
##ilin
404
Eud
sứa
Đợt
##ocese
Howe
Noel
Pueb
Sega
Seng
chắp
fall
feed
Kirch
Roads
Preston
##jn
dè
##Base
##elot
##iffe
Ask
Cul
Shu
##aware
##onata
Shay
##Arthur
Abruz
Brign
Jacqu
Taira
front
##angensis
Paralym
##phetamine
Sporting
Nashville
Ectoedemia
陽
##zak
##aday
##amid
##rato
##ungs
287
Jör
##kōbon
##stedt
8000
Huff
Mehm
Unic
borg
khấn
##entris
Kabul
choán
Toscana
##ев
##eod
##yer
RI
##iona
##ivar
##neri
291
294
Eck
Roi
THE
Đọc
##ikini
##ubert
APEC
Czech
Kikyo
Pagan
enquê
great
house
##icillin
Friuli
Marche
Rivers
UBTVQH
Werner
Princip
Reading
release
phosphate
##ht
##enae
##iene
##irol
334
Dữu
mận
tuc
##enzie
Swed
Another
Baldwin
Ibrahim
Liguria
against
Davalliaceae
EB
EE
##John
##alay
##horn
##utsu
Anz
QGP
giơ
##actus
##icata
Cube
Keys
falc
fusc
same
##unning
Allan
Nagar
Pinus
Thoạt
disco
differ
Vitamin
##59
Ø
Éd
ập
##yrus
680
Bàu
Jup
LHQ
Lyg
Ruk
Wid
fut
##nikov
Area
Bari
Chọn
Fate
Thép
prov
##enthal
##opomor
##osteph
Fleet
Lucky
Thess
field
Motion
author
Dickson
Strange
Aurelius
Fabaceae
Thanatus
Electronics
UV
##isei
VĐV
anc
bờm
vạt
Agon
Gián
Raff
##arctic
##ionale
Prima
Landes
Algiers
Zachodni
soundtrack
##alm
##eru
##kau
##lei
##put
##wen
##ecki
##inot
##neum
##tail
Dou
Jia
khế
lon
lặc
##elena
Duẩn
Lund
conv
info
kill
shot
Chích
Nishi
Theft
Upper
Where
Kyūshū
tuoitre
Adriatic
Yvelines
Coenagrion
##DR
##adu
##auri
##olla
Boc
##ocoma
Dass
Khos
Wool
code
land
trip
##americ
##atures
Yakov
polyp
Annual
opioid
stress
Norodom
##ll
##300
##320
vò
##hand
##otta
##árez
346
Bov
Gob
cav
##chlor
Giàu
Jeon
Kiêu
Meta
Sach
hiềm
miss
##ologue
Bosna
Irene
Meuse
Vinci
cache
macul
Jürgen
Kombat
Batista
Domingo
Trinity
playoff
Argyrodes
Pseudopoda
##ús
##EST
##amy
##bad
##emm
##yar
##ção
IB
##cott
##imin
##ipio
##racy
820
Rex
râm
séc
##ersin
Chit
Khẩn
Till
Colon
Gesch
Macau
Phiến
##eograph
Hahnia
Battles
Kampong
Shepard
Trentino
Cheilanthes
Professional
##ỷu
FL
Hủ
Mũ
##acer
##ells
##äger
525
Bef
Ngo
1763
frag
Blues
child
Aurora
Ground
Hector
Making
Stream
Andrews
##opomorskie
population
π
##HCM
GE
##isus
GDI
Gis
Kwa
quẻ
diêm
peri
prob
rượt
Ellis
Lives
Plect
brach
mômen
tuyền
Panther
Constitution
##śc
##ол
ư
神
##yad
Cò
##arks
##haus
##ómez
357
407
670
Deg
Pes
Sew
URL
dic
teo
Kuhn
Trad
nhại
Prime
Sales
Stoke
Thiếp
varia
##opterus
Brooke
Olivia
Bactria
Chromis
Sapporo
Vanessa
youtube
Claudius
Marathon
tubercul
Santander
Geographic
##PP
月
##ION
##woo
VS
##atta
##ecut
##itum
##time
777
Cám
Dok
Koł
Kud
Orb
dạn
Biel
Djib
Forg
corn
such
Điếm
Chuck
Hesse
Integ
short
Esther
Twenty
nhoáng
Ariadna
Herrera
Pereira
Industry
Lindsaeaceae
本
##ezi
##uet
Dü
##ammu
##flix
##list
##olor
##ovit
332
Chà
WWF
bat
dop
hee
##enger
##ridae
Kier
##andros
Alert
Weiss
chình
Durham
Reggio
cation
Anchastus
十
地
##eij
##ởng
Jó
##imov
Riz
Vog
cas
Đèn
##entes
##ophon
Măng
Samb
Shot
muội
Crazy
Kuntze
Lleida
Strike
Allison
Geometr
Theatre
halogen
Humboldt
Nakajima
Reference
australis
Alessandro
##bao
##zef
##aner
##oint
##rift
980
Tus
Vết
bbc
##World
##ealth
##ended
Away
Henn
Metaz
Think
Hurric
Parsons
Martínez
Ultimate
analysis
##xx
##ík
##IME
##zar
Hō
##amic
##chis
##eola
Obi
mòi
##iritu
##isenh
##ograp
Both
nhịn
trif
Benev
Dưỡng
Novos
Omega
Pract
Samurai
##alp
##umn
Ses
dĩa
lụy
nếm
tuế
##ators
##ostok
##owitz
##sonne
Ples
Zeit
ngấm
vers
xoăn
Kalim
TCNSử
where
##othorax
Blanco
Rommel
design
Delaware
Aulacophora
##arr
DI
##acet
##agua
##fors
328
Thy
##yanua
Caes
Hodg
Horm
Phất
##enbach
Chant
Derby
Thiệt
Tunis
entry
integ
local
style
Gerard
Macmillan
estradiol
Acrocercops
Hö
##olyt
ASD
bứt
neg
##ocent
1767
Amph
Evan
Evol
Lynn
Pamp
clor
mbar
##oclava
Heinz
Trach
Avenue
Airport
Morales
Falkland
transistor
benzodiazepine
##ień
Bê
HO
rt
377
384
465
Nút
Pik
Đứa
##aptop
##endor
thốt
đuốc
Devil
Elite
Gómez
##ephalus
Commer
Handel
Rising
Shogun
origin
Empires
Fukuoka
Goldman
Leopard
acetate
Infinity
##ostephanos
Lithuania
Transport
Springfield
##Id
##Kh
##gra
PG
XL
##ande
Biz
GPL
Oil
RFC
Rao
hất
##aches
##ayana
##orter
Ichi
Push
Shib
##evitch
##ording
Ehren
Esper
Wendy
##anzibar
Ancona
Archim
Eisenh
Inside
Velvet
Sardegna
Aleuroclava
Geometridae
##oks
##órz
cy
zu
##code
367
403
Qur
ROM
Tôm
WTA
boy
oai
##range
Gris
Liều
Naga
Nhuế
Phon
Polo
QĐND
Stam
##berger
##server
Sinai
Admiral
Trafford
ribosome
tankōbon
Agriculture
Đạ
##aunt
##ibus
429
870
ARM
Ahn
Fen
Mav
húc
sax
way
Acer
Brow
Tern
Xang
Yeon
thìa
##itants
Basic
Learn
Salem
##assanid
Padova
##ocephala
Eustala
Jupiter
Middles
Gorbachev
nucleotide
\
、
##nek
Tí
##amel
##ayen
##uard
327
930
Aux
Dừa
sậm
##eburg
1750
Fréd
Gadd
Gilg
Hack
Lass
Leib
pont
##terson
Adige
Chief
Doyle
Minsk
quăng
Kimber
common
dwards
GameSpot
##hy
##ewo
##utz
Pf
Sẽ
##khan
##sang
351
Bid
Eve
Guz
Nou
dyn
rái
tột
1760
Anis
Chơn
Chạy
Kiệm
Phác
bill
##obatra
Pitch
Steam
khuỷu
watch
Dodson
Habana
Produc
Trochosa
development
周
##fel
##jaz
##nev
lư
ắt
##born
##inem
##inov
##jong
##lint
Jav
mứt
spe
vel
##flict
##illas
1785
here
wall
khang
##ajalein
Weimar
Hiroshi
Windsor
general
Kwajalein
##94
##VI
Kĩ
WA
##adus
##vila
297
371
402
Cua
bít
rủa
Date
Junk
Mine
menu
Alien
Hayes
Montr
Table
##ococcus
##odontis
Hearts
Turing
gracilis
Metazygia
evolution
Dialeurodes
##Nam
##dic
##gos
##hav
##borg
##lett
##usen
347
411
MSN
VFF
##anica
##eolog
##exual
##osuke
##riage
Gogh
Kish
Mete
mach
##n
##h
##t
##i
##c
##g
##a
##o
##u
##r
##m
##à
##đ
##l
##e
##v
##s
##ư
##y
##,
##á
##p
##.
##b
##d
##k
##ộ
##ế
##T
##ạ
##ô
##ê
##1
##ó
##ệ
##ủ
##ố
##ả
##â
##"
##ớ
##0
##ợ
##C
##ờ
##ấ
##N
##ă
##2
##ậ
##ề
##ị
##ể
##q
##ơ
##ầ
##H
##í
##S
##ở
##ự
##M
##ọ
##B
##ã
##x
##9
##L
##ì
##ứ
##P
##A
##Đ
##)
##(
##ữ
##ụ
##V
##ồ
##ổ
##ắ
##ú
##K
##5
##-
##ù
##3
##D
##8
##ừ
##4
##ò
##ặ
##6
##G
##f
##7
##ử
##w
##I
##ỉ
##:
##ằ
##ũ
##R
##Q
##ỏ
##E
##ĩ
##F
##é
##ễ
##ý
##z
##W
##/
##O
##J
##ẩ
##ẫ
##X
##ỗ
##U
##ỳ
##ẽ
##;
##ỹ
##Y
##j
##ỷ
##ẻ
##'
##ẹ
##è
##Ô
##%
##–
##ỡ
##õ
##Z
##ẳ
##Â
##Á
##Ấ
##&
##]
##[
##_
##Ý
##Ở
##Ủ
##=
##?
##Ú
##ỵ
##“
##”
##ẵ
##ō
##ü
##!
##+
##°
##’
##ö
##Ả
##|
##>
##ł
##<
##ä
##—
##ū
##Ư
##ā
##а
##ç
##о
##ñ
##$
##Ð
##и
###
##É
##е
##ń
##н
##α
##Í
##р
##×
##ø
##‘
##ć
##Ứ
##с
##*
##т
##в
##−
##к
##王
##š
##л
##ß
##ę
##Ố
##ś
##č
##æ
##ī
##~
##大
##ا
##ë
##μ
##ο
##州
##å
##ς
##β
##Ō
##ą
##Ẩ
##д
##Ê
##Î
##公
##»
##ï
##ρ
##′
##李
##м
##ş
##у
##«
##Ś
##ı
##±
##中
##Ă
##文
##ν
##子
##й
##Ł
##ː
##ل
##山
##ι
##县
##•
##λ
##Ö
##ŏ
##天
##า
##я
##Ế
##£
##ż
##τ
##ε
##の
##ー
##→
##г
##人
##皇
##南
##ر
##п
##國
##ē
##ร
##À
##С
##国
##⁄
##ي
##武
##€
##σ
##π
##市
##ž
##γ
##ы
##ə
##б
##ч
##}
##·
##元
##Š
##κ
##ь
##م
##น
##之
##安
##з
##Ó
##区
##î
##ن
##ǎ
##帝
##太
##ğ
##М
##ˈ
##三
##Ơ
##Č
##一
##劉
##海
##ð
##ン
##明
##ș
##К
##平
##{
##高
##城
##А
##ě
##Å
##宗
##年
##ب
##日
##西
##Ổ
##陳
##و
##Ệ
##†
##В
##張
##δ
##道
##。
##東
##金
##阮
##德
##η
##θ
##Ỷ
##„
##ź
##@
##П
##ω
##江
##后
##ί
##ก
##́
##د
##新
##ř
##เ
##ม
##§
##Ä
##イ
##х
##ό
##φ
##ά
##成
##་
##ง
##ั
##氏
##œ
##ว
##ิ
##Ộ
##이
##υ
##อ
##馬
##س
##ラ
##Ø
##《
##》
##北
##Ż
##光
##河
##仁
##和
##主
##ル
##福
##上
##^
##Б
##Г
##い
##ย
##陽
##Ü
##神
##月
##ɪ
##י
##本
##十
##地
##ス
##\
##Ớ
##、
##周
##ɛ
##白
##林
##民
##家
##的
##ц
##ล
##長
##生
##Ạ
##司
##Р
##世
##姬
##ة
##ő
##И
##史
##龍
##陵
##ו
##義
##法
##Ž
##女
##小
##行
##`
##侯
##石
##ส
##Ụ
##ш
##朱
##Δ
##昭
##黎
##う
##楊
##田
##ŭ
##孝
##ा
##ト
##้
##ア
##û
##ت
##五
##正
##О
##華
##ع
##軍
##し
##่
##ん
##・
##会
##書
##Н
##定
##永
##越
##ṇ
##Д
##Ị
##妃
##χ
##ท
##水
##リ
##พ
##事
##京
##士
##学
##έ
##君
##Т
##と
##四
##社
##대
##्
##ж
##台
##方
##都
##ี
##ṣ
##漢
##有
##二
##興
##政
##ク
##英
##Ç
##ด
##第
##代
##川
##趙
##春
##花
##İ
##縣
##ッ
##ɔ
##ی
##ʻ
##ה
##朝
##古
##宮
##र
##祖
##美
##郡
##Ề
##ύ
##不
##建
##真
##門
##์
##化
##ห
##全
##出
##清
##ต
##ุ
##ะ
##聖
##部
##ح
##宣
##ǔ
##Ờ
##昌
##羅
##ه
##き
##師
##ר
##自
##사
##ḥ
##治
##บ
##原
##吳
##通
##青
##ج
##か
##宋
##寺
##景
##ช
##伯
##唐
##玉
##ṭ
##鄭
##カ
##®
##八
##阳
##ț
##ɑ
##夫
##黃
##≤
##同
##な
##Ì
##「
##た
##한
##」
##秦
##ف
##り
##康
##忠
##ή
##星
##ţ
##府
##思
##に
##名
##族
##ド
##下
##惠
##梁
##集
##雲
##ė
##徐
##版
##Æ
##≥
##국
##ǐ
##Ậ
##지
##ל
##廣
##胡
##心
##아
##蕭
##學
##容
##주
##院
##語
##阿
##魏
##정
##จ
##志
##口
##延
##立
##る
##九
##恭
##省
##風
##ق
##夏
##木
##א
##信
##ф
##华
##ジ
##Ω
##シ
##孫
##洪
##제
##ش
##敬
##章
##Π
##ю
##Ồ
##式
##曹
##香
##Ş
##ز
##郎
##의
##ป
##仲
##김
##少
##會
##리
##Ỉ
##六
##寧
##弘
##寶
##雄
##順
##ค
##ʃ
##Σ
##≈
##ŋ
##ま
##조
##长
##韓
##东
##기
##¥
##מ
##任
##空
##刘
##達
##マ
##無
##黄
##Л
##宇
##ʊ
##ロ
##丁
##七
##杜
##范
##里
##스
##ナ
##區
##外
##教
##路
##經
##ש
##保
##レ
##島
##湖
##者
##知
##고
##្
##Ọ
##慕
##齊
##く
##书
##字
##시
##ב
##인
##ת
##記
##戦
##百
##重
##Ử
##フ
##何
##合
##慶
##嘉
##嬪
##理
##‰
##鎮
##こ
##ら
##キ
##แ
##は
##吉
##崇
##楚
##野
##도
##성
##Κ
##オ
##威
##张
##～
##Α
##ブ
##壽
##常
##萬
##라
##愛
##ɾ
##も
##ィ
##我
##港
##동
##원
##일
##典
##拳
##龙
##다
##ա
##न
##歌
##蔡
##서
##У
##承
##時
##ʿ
##み
##タ
##傳
##千
##官
##玄
##Ф
##军
##お
##ウ
##手
##З
##梅
##親
##隆
##尚
##ξ
##э
##慈
##樂
##泰
##特
##나
##선
##燕
##장
##Ự
##委
##晉
##科
##ζ
##克
##多
##智
##物
##ា
##さ
##ム
##先
##利
##소
##म
##が
##將
##後
##沙
##源
##音
##Ā
##共
##可
##如
##良
##÷
##נ
##佛
##紀
##어
##자
##ك
##布
##度
##至
##虎
##Ầ
##熊
##莊
##수
##Ợ
##♭
##ち
##土
##蘭
##陈
##가
##하
##っ
##在
##彥
##松
##臣
##草
##衛
##і
##ि
##ṃ
##て
##コ
##영
##ň
##Μ
##ё
##以
##沈
##ע
##រ
##サ
##テ
##作
##兵
##善
##将
##汉
##부
##ط
##ニ
##等
##신
##전
##ɐ
##ศ
##ュ
##令
##烈
##爾
##郭
##민
##Λ
##博
##季
##貴
##ů
##ǒ
##त
##Ể
##☉
##あ
##デ
##Е
##स
##孟
##拔
##相
##穆
##艦
##襄
##박
##で
##ャ
##叔
##型
##母
##马
##연
##ṛ
##バ
##于
##曲
##殿
##Ã
##ข
##セ
##前
##火
##盧
##貞
##ी
##れ
##使
##居
##言
##Х
##基
##堂
##姜
##是
##普
##グ
##プ
##内
##段
##葉
##那
##鳳
##Ò
##Ù
##خ
##功
##友
##恩
##節
##왕
##奉
##御
##禮
##靈
##其
##崔
##橋
##顯
##ʔ
##क
##よ
##富
##左
##情
##藤
##语
##連
##ธ
##懿
##战
##ས
##Ḥ
##ミ
##丹
##仙
##夷
##機
##洲
##老
##에
##ʁ
##‐
##チ
##吴
##呂
##尔
##憲
##戰
##柳
##洋
##流
##秋
##繼
##雪
##공
##व
##ไ
##ズ
##パ
##力
##回
##守
##广
##杨
##甲
##紹
##臺
##裴
##錄
##關
##Ễ
##∞
##命
##秀
##蒙
##表
##산
##화
##ص
##ํ
##ダ
##伊
##場
##格
##泉
##潘
##若
##미
##진
##학
##̣
##ψ
##万
##交
##工
##所
##拓
##村
##桓
##次
##瑞
##統
##藏
##门
##ʒ
##ם
##宁
##開
##階
##해
##أ
##া
##்
##ู
##エ
##哈
##巴
##천
##þ
##Я
##ल
##す
##央
##局
##業
##程
##遠
##은
##È
##ɡ
##ъ
##ァ
##为
##灣
##牛
##记
##靜
##魯
##로
##유
##制
##勝
##園
##界
##端
##谷
##¿
##Ć
##བ
##ḍ
##メ
##封
##峰
##慧
##欽
##津
##禪
##裕
##구
##ក
##奇
##波
##茶
##蘇
##起
##進
##Ч
##Э
##ོ
##်
##姚
##從
##毛
##珠
##超
##오
##Ắ
##ガ
##徽
##房
##来
##為
##頭
##우
##Φ
##โ
##ស
##を
##ノ
##也
##兴
##分
##加
##员
##懷
##榮
##网
##面
##경
##마
##ώ
##ד
##つ
##孔
##研
##赤
##상
##☆
##入
##关
##娘
##尹
##校
##桂
##濟
##維
##Ĩ
##ն
##ָ
##与
##云
##传
##動
##嗣
##敏
##鄧
##陸
##雷
##鬼
##鮮
##보
##비
##ى
##द
##ु
##义
##亮
##开
##球
##盛
##苻
##許
##賀
##乙
##溪
##祥
##竹
##而
##강
##Þ
##ग
##ษ
##ṅ
##修
##圖
##尉
##尊
##拉
##直
##究
##色
##馮
##교
##ื
##略
##紅
##與
##解
##詩
##賢
##車
##¡
##Ș
##じ
##わ
##儀
##喜
##干
##性
##摩
##淑
##論
##麻
##Θ
##щ
##य
##Ἀ
##井
##應
##提
##莫
##諸
##郑
##ן
##ह
##ა
##ន
##だ
##刀
##商
##孙
##完
##宝
##宫
##希
##支
##演
##薛
##謙
##무
##ˌ
##ּ
##ک
##好
##實
##彭
##影
##步
##溫
##能
##見
##雅
##Τ
##ր
##प
##ภ
##〜
##報
##塔
##室
##无
##歸
##熙
##育
##護
##赵
##運
##隊
##飛
##문
##ח
##來
##初
##最
##殷
##淮
##編
##鹿
##니
##ɨ
##Ν
##ญ
##ར
##♯
##ひ
##ハ
##乐
##卷
##卿
##嶺
##洛
##用
##茂
##袁
##首
##남
##호
##Ε
##າ
##丘
##宜
##密
##得
##獻
##登
##錢
##铁
##難
##魔
##종
##‚
##休
##佐
##曾
##靖
##현
##ɣ
##̀
##̊
##े
##མ
##め
##嚴
##寿
##望
##渠
##童
##罗
##辛
##镇
##ʼ
##Β
##כ
##ག
##ビ
##久
##亭
##伏
##向
##图
##宏
##廷
##律
##才
##朗
##照
##画
##督
##董
##觀
##館
##麗
##黑
##는
##¢
##ད
##པ
##ུ
##₫
##位
##敦
##爱
##睿
##角
##雍
##©
##Ц
##ַ
##ณ
##ម
##Ừ
##え
##け
##ョ
##兒
##历
##固
##报
##经
##輝
##백
##요
##트
##Ι
##Ж
##ס
##פ
##غ
##Ữ
##ソ
##乡
##案
##極
##深
##珍
##電
##중
##Ш
##ན
##⟩
##僧
##园
##姓
##存
##意
##澤
##烏
##總
##그
##위
##태
##⟨
##今
##俊
##別
##号
##振
##故
##期
##臨
##韋
##ե
##你
##始
##孤
##易
##晋
##未
##申
##男
##航
##雨
##ɒ
##ང
##ི
##ង
##ょ
##內
##夜
##察
##尾
##放
##旗
##死
##管
##考
##舞
##衡
##象
##개
##만
##최
##ִ
##ត
##』
##乞
##了
##兰
##勇
##勒
##尼
##約
##要
##覺
##話
##限
##陶
##鶴
##ῖ
##√
##『
##ザ
##呼
##圓
##岳
##弼
##条
##父
##益
##簡
##翔
##聞
##豐
##酒
##ħ
##≡
##列
##客
##汗
##荊
##蒲
##處
##誠
##陀
##세
##여
##Ο
##ი
##Ỹ
##ツ
##ワ
##傅
##劍
##头
##毅
##澄
##翁
##肅
##胤
##身
##顺
##관
##드
##Γ
##َ
##ប
##匡
##朴
##派
##电
##純
##식
##희
##ո
##ק
##ុ
##Ẳ
##ろ
##モ
##佳
##党
##夢
##姑
##当
##恋
##慎
##时
##果
##森
##沮
##湘
##留
##祐
##祿
##羽
##苏
##謝
##래
##회
##ǃ
##ְ
##ἀ
##び
##仮
##体
##允
##副
##动
##斯
##游
##然
##目
##红
##舍
##資
##과
##랑
##방
##안
##양
##예
##Χ
##ज
##や
##哲
##场
##庆
##汝
##浦
##由
##精
##紫
##荀
##葛
##訓
##近
##逐
##銀
##魚
##광
##명
##청
##티
##ĭ
##ť
##̃
##گ
##厚
##及
##奴
##师
##復
##想
##揚
##改
##洞
##简
##範
##达
##造
##間
##ľ
##ƒ
##ใ
##Ặ
##丸
##亞
##介
##切
##哀
##宿
##念
##於
##桃
##比
##济
##浩
##系
##纪
##选
##雙
##革
##體
##내
##송
##Ñ
##ो
##‡
##そ
##ケ
##ネ
##件
##侍
##兩
##則
##團
##妙
##岛
##庭
##株
##沖
##牙
##班
##衣
##說
##足
##辞
##韩
##궁
##ג
##ז
##ལ
##ེ
##း
##ゅ
##乾
##发
##婆
##屋
##扶
##根
##桥
##權
##浪
##涼
##綿
##落
##鲁
##단
##ј
##پ
##্
##ผ
##འ
##ᠠ
##ῆ
##∈
##☃
##♀
##ゃ
##再
##团
##戴
##樓
##湾
##甘
##索
##议
##隱
##非
##黨
##반
##ų
##Ю
##ं
##≠
##♂
##ど
##剛
##印
##句
##岸
##感
##曰
##殺
##米
##翼
##豫
##质
##군
##ɕ
##ի
##ئ
##க
##็
##ྲ
##∆
##せ
##到
##協
##去
##員
##圣
##料
##活
##潭
##琴
##甫
##破
##素
##翰
##船
##虞
##融
##邑
##量
##領
##駆
##齋
##레
##ɲ
##ʌ
##ט
##ி
##ំ
##↓
##ゴ
##傑
##吾
##掌
##滿
##犬
##狼
##稱
##肇
##號
##赫
##関
##র
##ா
##င
##ῦ
##ポ
##偉
##勤
##午
##巨
##己
##席
##庚
##強
##樹
##池
##發
##監
##荣
##蓮
##血
##衞
##车
##選
##鄉
##鐵
##食
##餘
##녀
##모
##ວ
##Ỏ
##临
##亲
##劇
##务
##半
##双
##微
##徳
##潮
##片
##耳
##耶
##诗
##贵
##邵
##鄂
##防
##鴻
##야
##운
##재
##터
##ֹ
##श
##ர
##ு
##ງ
##ນ
##ု
##យ
##ῶ
##⊕
##ボ
##余
##勳
##包
##幽
##戸
##播
##机
##柱
##淵
##璋
##祭
##符
##芳
##術
##貝
##遂
##鄴
##鍾
##陆
##震
##麟
##鼎
##을
##홍
##황
##ĕ
##إ
##ब
##ე
##ゲ
##務
##反
##叶
##庵
##指
##末
##温
##獨
##羊
##臧
##虔
##豆
##运
##際
##離
##骨
##노
##월
##آ
##ာ
##Ỳ
##↑
##★
##ご
##ね
##ヴ
##伽
##倉
##儿
##充
##剣
##卫
##壬
##娥
##媯
##展
##碧
##総
##统
##群
##肃
##蔣
##規
##輔
##远
##速
##過
##遺
##韶
##黒
##게
##들
##배
##법
##ซ
##ḫ
##ェ
##ベ
##丰
##健
##品
##嬴
##廟
##彌
##忍
##总
##斗
##查
##柴
##泽
##渡
##瓊
##级
##苗
##譚
##議
##讓
##遊
##霸
##领
##鳥
##려
##바
##차
##͡
##ւ
##צ
##ฟ
##တ
##ល
##ὁ
##ば
##ピ
##ホ
##亚
##伐
##凌
##凤
##右
##問
##因
##寒
##寨
##導
##屯
##岐
##庫
##征
##打
##昇
##曆
##朔
##柏
##歷
##浮
##番
##秘
##突
##舒
##苑
##菊
##话
##走
##逸
##駱
##발
