[PAD]
[unused0]
[unused1]
[unused2]
[unused3]
[unused4]
[unused5]
[unused6]
[unused7]
[unused8]
[unused9]
[unused10]
[unused11]
[unused12]
[unused13]
[unused14]
[unused15]
[unused16]
[unused17]
[unused18]
[unused19]
[unused20]
[unused21]
[unused22]
[unused23]
[unused24]
[unused25]
[unused26]
[unused27]
[unused28]
[unused29]
[unused30]
[unused31]
[unused32]
[unused33]
[unused34]
[unused35]
[unused36]
[unused37]
[unused38]
[unused39]
[unused40]
[unused41]
[unused42]
[unused43]
[unused44]
[unused45]
[unused46]
[unused47]
[unused48]
[unused49]
[unused50]
[unused51]
[unused52]
[unused53]
[unused54]
[unused55]
[unused56]
[unused57]
[unused58]
[unused59]
[unused60]
[unused61]
[unused62]
[unused63]
[unused64]
[unused65]
[unused66]
[unused67]
[unused68]
[unused69]
[unused70]
[unused71]
[unused72]
[unused73]
[unused74]
[unused75]
[unused76]
[unused77]
[unused78]
[unused79]
[unused80]
[unused81]
[unused82]
[unused83]
[unused84]
[unused85]
[unused86]
[unused87]
[unused88]
[unused89]
[unused90]
[unused91]
[unused92]
[unused93]
[unused94]
[unused95]
[unused96]
[unused97]
[unused98]
[unused99]
[UNK]
[CLS]
[SEP]
[MASK]
p
s
.
v
,
##st
##ro
n
##ní
##ch
##ov
a
z
k
##en
d
j
##le
##ra
##la
o
##ou
m
##te
##sk
##li
b
po
##ho
##ce
t
##in
na
1
se
je
##al
##em
##an
##ře
ro
"
P
##on
##er
##ak
##lo
do
##or
##ně
##at
S
V
st
by
##ku
##ic
##rá
pro
##it
##ar
##ří
ne
2
##na
)
(
##ých
##il
č
##no
M
u
h
##od
##re
##ské
##el
19
za
vy
B
ob
##ni
K
##ka
##de
##ci
##je
##jí
N
J
##to
##ky
##ší
A
##va
##ru
##cí
##ter
T
##ol
-
##ři
##ti
##ým
##né
ve
##ick
##ad
20
D
f
pře
##že
##vě
##ová
od
##ze
byl
##av
##ob
R
C
##om
##ál
##et
##ním
H
le
##sti
L
##lá
sp
##ové
##ná
zá
##is
##dy
ú
##tu
O
##vá
ná
##vo
##am
##ri
##dě
kter
roce
i
vý
pod
##tě
##mě
##ví
jak
##ole
##ed
F
Z
##mu
##lu
c
##tí
##ta
##ji
##ého
##ko
re
##vní
##ec
I
##as
##lov
sv
##ny
jako
mě
##es
##zi
při
##di
##du
##nu
/
##bo
:
tak
roku
##ist
##by
##ova
pří
##da
##ry
roz
##up
##bu
E
G
##mi
jed
pr
##rov
ně
##oval
##át
201
li
š
##os
##ek
–
##ží
##dní
##tel
##ran
Č
##ži
##sou
že
##ém
sou
##men
##ty
te
ho
##kla
##rav
##uje
kon
##po
byla
Po
3
200
##ká
##ský
18
##ční
e
nej
##ského
##ud
před
mo
vě
##ie
##še
to
##ly
##nost
##jící
jsou
##ne
##sto
##sta
jeho
##stav
vz
##kon
##chá
##mo
##sa
ji
##bě
##zna
##dá
##lou
##pad
##lí
in
##us
##ný
##ství
##zí
ch
##ena
##kou
Na
##nou
##ub
kte
##vod
##vět
##ent
##ních
U
##ické
##rů
W
##ruh
##ve
ce
##ost
mí
který
g
nebo
které
##ská
##ck
##ap
##ými
##vi
##lé
##sle
##jší
Je
ale
##ků
4
##len
5
##kov
##žen
##sob
##pě
##ha
také
##ma
##ště
##alo
##ských
##vy
##če
##nosti
##un
##op
pou
##ul
##čí
##dí
##ver
##mí
##stup
me
až
##iny
če
##ných
poz
ze
##hu
##ina
##se
##tech
pů
##zen
##lav
##ba
##oj
##kem
ma
##ního
##ot
bylo
de
##ut
##kt
##ově
##ím
„
199
##00
let
##má
##si
druh
##ali
“
##rch
St
##pe
##ování
pra
6
nap
##ur
Če
##ovan
ži
čá
##lem
##alší
##tá
##za
sy
##lan
té
Ne
vel
si
##mé
Š
##hy
##val
která
##zem
ří
##stě
##ální
zem
letech
vš
##ici
##ska
##pi
##oleč
##my
kom
##oru
mu
##ez
ra
##ké
##log
bý
di
7
##ovat
##ád
##chází
8
##erv
##ing
##hra
kde
##um
##klad
##ich
kdy
##ice
ok
##ále
##stí
krá
jedno
Pra
##té
##sky
první
##án
dě
##he
##sku
##pu
##ili
17
##prav
další
mezi
byly
##id
##vr
##sko
společ
an
stole
##řad
##řen
##koli
##žit
však
století
##me
Mar
##last
##bí
prá
##ový
##ného
ře
má
##ast
zde
An
##nice
##ových
sku
##gra
již
##hod
Pro
##ala
##ik
##rg
##tem
##či
##řed
##skou
9
Ro
tě
15
##zy
ví
ž
16
##hem
194
dí
červ
##stou
##ském
##ům
##há
##van
zač
##mec
##ag
##ech
její
##mer
ka
os
hra
198
zí
zp
své
##ati
Ve
##olu
stra
##ovala
##zu
##rál
##ir
pat
##sled
##rou
##rat
hla
##jich
##loven
##ději
Ch
rep
lo
##so
##rodní
nad
##do
##zení
##vu
##ené
##inu
##vé
souč
prů
mno
##im
##ických
##ber
##ický
##oh
##ník
co
##rit
##ině
##ovou
ex
##sp
Od
ty
##res
skup
##ubli
##ab
##iná
vět
##ným
cí
##tek
či
##rem
Fran
12
10
##aro
##ii
##lat
##rát
##nější
##rop
196
##chod
197
##ís
##znam
##for
##vatel
jejich
##and
##vou
##rod
##ším
poli
##ato
##ovi
##sí
##ani
##cen
##zá
vál
op
vzni
tra
##raz
##ory
##ev
několi
ry
sam
##čen
stav
##tej
##dob
14
##ového
##ován
##ard
##ců
pak
##itu
člen
##roj
přes
13
sk
Ma
cel
něk
dů
al
ost
oby
In
##nic
##zemí
sí
proto
jen
Pod
jin
0
##ig
##cích
##den
##ilo
193
svět
##spě
bě
##ara
obje
později
for
být
##nit
##man
pos
##čení
fil
##hle
of
w
šk
;
##ují
met
původ
proti
##zv
nem
##ická
Al
Ná
##ily
tom
##ude
stal
bez
podle
##ického
kap
##uto
zv
195
vše
vlast
tr
##ence
Jan
##nes
poč
vlá
Ž
##stá
aby
mod
##vně
##dem
By
##ským
Ji
prost
část
##ýchod
pov
ru
ak
ko
svě
##bor
11
##ách
ke
so
mal
##sy
##ved
##ari
nep
než
##jem
l
rod
##hla
Ně
km
##ge
vod
##rt
toho
##rní
##cem
stře
použí
##rob
př
par
ní
živo
pop
Vy
##nov
stá
##št
kost
Ř
##tt
města
území
získ
sm
zalo
Le
##ion
##olog
##liv
bud
##sá
vyt
rů
##čně
vol
##nem
pot
prav
192
Za
postav
min
stát
voj
zná
##ale
hod
Sp
##ůže
##cha
obyvatel
##řej
##istor
##ký
Se
##rně
##fi
kra
##hl
Kar
řad
působ
Do
měst
míst
##dr
##žel
##ení
'
##šen
org
ov
ten
dop
dvou
části
zna
##est
##lad
##kra
##aly
pouze
##vat
době
##zná
##sed
##lin
Ob
##říklad
Mo
Pr
##ření
ar
##ia
sil
fun
stej
##udi
##žení
##niver
úč
##ant
##ích
dva
##su
##ity
Zá
čty
##lez
hrá
##ort
lé
němec
191
kole
všech
##ující
##ct
bře
Me
##ném
sr
ved
Ú
man
květ
##vis
stan
kni
syst
vyu
prac
##ována
##bní
##ůsob
pě
##pa
##inou
##ron
##žil
této
##vají
II
amer
##ními
_
ozna
rá
kan
republi
jednot
Li
##ust
##cháze
pros
Jeho
Nej
čas
##ttp
když
##chy
umě
%
obdob
##žně
##vrop
##čka
mož
led
tvo
##ností
##olí
##skos
##poj
dlou
hlavní
histor
##stoup
##gli
vi
obla
tře
ves
sever
bo
##ickou
##hrá
Re
pre
##vů
##vání
##ga
několik
##zd
##lení
ni
zd
může
##000
osob
Jed
##ok
The
##icky
nachází
##tele
podob
měl
##ané
například
více
např
##graf
##eny
##rom
##skosloven
dne
dob
Pa
pís
##ose
##ména
##lit
ta
ja
##ená
##ami
##padu
studi
##oto
dvě
mus
##sah
##kové
což
##cou
tří
star
##ovní
růz
##vý
##nutí
cz
slou
##šší
##slu
##hou
přede
pomo
##voj
tři
ode
##čil
##pět
velmi
součas
zákla
##gen
zak
bi
##šení
asi
##ince
nich
východ
pá
Bo
##les
##let
http
lid
##var
##čit
##mat
##gu
##stru
vrch
##eno
období
##řá
##ultu
##ši
tu
představ
##čet
funk
tým
slu
tedy
##ton
##rk
##orem
proje
ote
vyso
##šlo
říj
větš
##ela
##cké
někter
##ment
##šel
##vad
##rac
místo
##ktu
země
##nil
##žd
##vším
ur
##niverz
pam
##děl
##inci
##uni
byli
význam
##bra
druhé
ještě
spoj
##sty
prv
##stal
vo
dub
##bal
##álu
arch
##co
klu
září
smě
Mi
především
fin
##lán
##hlá
čt
des
způsob
Y
oblasti
##pis
##lekt
jí
##be
války
##au
spol
##emi
získal
##ác
30
kteří
##met
Praha
##átku
##chu
##mín
svého
Jak
##lep
Ten
během
pan
##šť
##řel
západ
##son
Roku
##ren
##ček
##ář
##ej
První
##zo
190
##oc
##bi
ča
##bou
sch
Ka
žen
la
Bě
##řil
obec
##kud
součá
kam
##couz
##her
rozhod
auto
škol
vznik
##ští
změ
##ana
listo
fran
25
*
neby
##nými
čin
##ovy
##ovali
případ
##tiv
2014
rych
obce
##vali
vytvo
##dal
konce
není
##nění
##teč
Vý
násled
postup
##ležit
nov
srp
tzv
České
##ré
##losti
kultu
##ener
##pas
hlav
spolu
##tví
jmé
##min
##zku
##zace
##niční
veli
Lu
Mě
##ováno
vydá
jej
##klá
##art
21
plo
##era
poté
listopadu
Jose
mi
##ované
film
soutě
Při
patří
##pan
cent
at
doby
svou
aut
##moř
##eb
zej
tím
2011
sna
mají
##álně
189
##lost
dokon
prof
tech
zejména
Ru
vá
##sla
Kon
=
##rost
město
kont
##telem
##čky
slov
sprá
##pr
##él
##nat
síd
králov
elekt
kterou
##pod
polov
sez
##vil
Praze
##kých
2010
##tivní
##sad
stud
2013
##stoupil
##ata
smr
##mou
her
kla
##slav
du
pa
obchod
umí
už
##hr
000
často
##teri
Vel
##ovány
##kách
organi
pla
tohoto
##ay
něj
zahra
dalších
systém
##kého
naz
##nd
##mci
##SA
##těz
Te
##čan
hude
jazy
sva
vede
##ovém
rost
##dující
##rová
##tní
##jmen
##lý
##rán
##žní
Byl
slo
ani
též
##cho
soci
##ín
##fin
##ond
skupiny
##bli
armá
ver
ad
##tera
francouz
To
odp
##slední
provo
ww
www
##ila
##hov
Ar
##zev
##ita
##onu
býval
jeden
něm
úspě
##sal
2012
každ
Pře
mili
##gy
května
manžel
2009
Podle
poto
univerz
Evrop
##rie
vů
##enci
kat
##měř
##liš
##mů
##romě
vyp
##fa
##hro
##ených
zat
##ovaly
##kaz
lze
divad
##říd
zab
De
sed
##eň
mist
angli
##tr
října
my
##ely
archi
##lex
Pet
Ber
##stu
##plo
syn
##ac
##řem
zápas
##vor
##bách
tele
Sou
##tiš
světa
##lym
##ovalo
Němec
22
polo
Ví
fir
str
pova
##sil
bar
##race
med
##ovým
poslední
června
měla
##nik
24
2008
teh
Bu
##lech
Ty
využí
veřej
společnosti
politi
##pen
##ších
2015
polit
výš
##skup
##qu
##per
tur
188
Di
světové
the
##eč
##ym
2016
žád
strany
bu
##tor
##stat
##ému
zákon
##ková
##hi
##vala
##forma
##nout
brat
ci
##fer
reg
místě
##ickým
protože
typ
největ
##čem
krát
císa
##ám
tit
rok
##onom
##stře
těch
##ův
##sledující
ledna
ot
zů
závod
far
spe
hor
2006
fot
kraj
Ho
Joh
##teg
##kce
svat
23
vlastní
##stra
dále
lá
začal
cen
formu
2007
187
seve
výro
##zra
komp
dubna
července
##stva
tento
##ání
##láš
##nici
chrá
##ěl
Během
jmen
##ation
března
##ůj
čtvr
##ace
kor
součástí
##ise
opět
ku
##ang
##oda
exist
produ
ope
##nů
on
muž
profes
##az
##vůli
##čních
několika
foto
rámci
##ca
uved
##yk
##álních
uz
fak
##vyk
repre
zt
Hra
##nak
##šem
##lon
Mezi
Českosloven
##ord
republiky
považ
mat
došlo
up
otev
srpna
och
vojen
čtyř
##skytu
uli
skon
Pol
X
##sem
úno
##rist
Sch
##ár
Sa
##lympi
ostat
smrti
men
##ostat
##sch
prosince
##krač
##nie
kolem
Ko
##ven
progra
186
leží
##teli
##vyšší
r
Ju
##boru
##ner
ab
##rati
střed
speci
svých
##ine
##jed
titul
znám
##ff
##zal
hodno
spolup
Amer
##hrál
bod
##ke
##lie
ky
##ickém
metrů
##tů
minist
pob
národní
##šní
uvá
##itě
##ld
##mp
##land
New
pl
Franci
##rese
třetí
těchto
##ori
čís
zamě
rozší
##roveň
Ad
28
&
obě
Františ
želez
volbách
tvoří
##ind
##datel
##bum
inter
označ
##řilo
##jení
Bar
nové
círk
##dění
##čné
##řád
##měr
Be
blí
Mon
26
##lém
Vě
boj
název
mnoho
spo
He
čer
členem
##západ
února
mohou
názv
vla
základní
##atoli
používá
##sahuje
dra
##cký
sezó
##lil
##nictví
##řb
kol
2017
80
stala
kostel
založen
##ývá
##des
La
Ba
ek
množ
27
Vi
společnost
USA
Další
pokrač
Pří
##četně
prob
mez
##icích
pož
díky
ter
působil
##dce
Br
tomu
čtyři
jedin
##lově
?
##ňuje
50
##dov
##pat
úto
com
##itel
##ja
##ismu
##xi
služ
dce
##hé
památ
Par
komuni
český
včetně
##sl
##skými
Zem
##čním
vzta
svůj
##ada
použit
##oucí
##kol
##ten
##lů
##og
per
##isí
##kace
jiné
##tká
##ovací
olympi
##inárodní
##zer
##říž
##ckého
##rig
Před
Pe
##vající
##dala
and
tý
nez
výkon
tex
moder
##hor
Sloven
měsí
názvem
##čas
##pom
jehož
##rozen
2005
##bav
konci
poslan
##esti
##icí
kvůli
tomto
řím
Mich
##álním
formula
##žena
##ovit
Tento
den
##ary
##vin
##níků
umo
Ben
bá
pomocí
##novu
dře
pochází
staro
##tin
##bud
##říve
##ony
sta
mm
dat
oblast
2000
Wil
rovně
proce
##ér
##py
dr
Rak
popr
##ovatel
rovněž
umístě
prvním
pol
##rové
##rovství
##iti
výstav
všechny
prezi
Ří
bude
obsa
##apon
velké
tvr
##nání
##paněl
popu
##zel
věn
mlad
práce
poprvé
seri
straně
2018
##ovaný
účast
##hled
následující
##lace
městě
cit
##ovo
##řes
Jako
##arié
##any
##hrad
brit
pí
Josef
televi
ba
##net
mimo
svým
výraz
##díl
dem
filmu
##pt
kláš
##čního
pap
##prve
potře
##řízení
##roje
prov
nakon
su
##ůvod
přij
29
hudební
pal
2004
##omo
schop
nakonec
##zní
##oni
Ta
podí
dnes
okrese
##our
okres
##podob
Vác
informa
##ital
##ený
##stavě
vítěz
##slov
Kdy
##čku
##stan
sto
různých
##poč
Du
##ler
##pra
drá
kou
náv
Spoj
přev
Ge
sty
##orů
dá
krit
Mal
##kami
Národní
Hor
pohy
##ers
##dent
téměř
##iro
##vol
##děpodob
úřad
spis
některých
Tak
##sol
##dek
klub
##ste
Jiří
ukon
větší
##50
Man
vesnice
pok
nav
##rodil
Mat
##pravy
zach
cm
##gi
lin
obra
života
blíz
prostře
##nitř
Když
dis
##álního
##ft
lidí
184
Brit
##spo
60
100
vr
ovšem
Pan
nejvyšší
pravid
počí
no
31
těž
vlády
život
##skému
##vykle
praž
střední
publi
Marie
Gu
##kter
So
##dou
##ruž
národ
##řit
Ra
bí
nedo
sé
sně
##věd
##háj
finan
##něn
nábo
množství
celé
##rova
Ni
40
##smu
##voji
Roz
##řa
2002
##cé
##oví
2001
##sů
katast
ekonom
##eru
Car
důvod
karié
mon
poh
nabí
##go
zap
##bur
##ady
##nila
samostat
album
Tato
hud
českosloven
obvod
bit
##osti
náz
olympij
Sam
Dne
válce
##byt
##nické
ge
##ovět
##mov
zaji
##kadem
Její
Stu
##oun
ti
počet
níž
umož
probí
##stvo
jméno
fotograf
Pos
Poz
stále
skla
znovu
##znamen
kop
jih
fotbal
nech
stří
##nal
české
hosp
##rum
zvol
]
zpě
##méně
region
zám
podp
tyto
největší
##čila
et
Kra
provoz
##cení
přibli
Cel
##th
hvě
##hli
##obod
##ona
zví
tisí
průbě
roční
##ore
##opis
##chov
##skem
sport
podpo
mnoha
zahr
Pav
##ější
##skyt
##čů
##ráž
##dělá
ostrov
dél
možné
[
##dejší
##cela
##dání
umění
roky
##kým
##úč
##poz
průmy
znamen
funkci
zemřel
##rd
Ex
turna
nejlep
##led
Sta
pomě
##ktor
2003
pev
šest
stat
gen
roli
##cti
rov
stanice
Mu
##šla
předsed
##stala
obci
gener
případě
objev
##xu
##mentu
vl
hy
kar
##fek
##hlí
rodu
##zaci
##ral
příslu
námě
vys
problém
Vz
ČR
pravděpodob
Poté
zatím
okolí
společně
##ák
##ilomet
původně
##ss
##čemž
občan
postupně
vzd
mlá
##eli
##tm
mé
svém
evrop
nacháze
Ha
jejím
Jana
gra
##čin
přičemž
##kém
parla
##ruš
vrát
rozdě
list
Her
##skala
##dech
##nika
dosá
původní
##aná
domá
Rakou
##pl
##kola
ital
1945
zvlá
##ovaná
polovině
okra
##pli
muze
rady
##tra
čele
poku
prostředí
kilomet
##mb
zeměděl
musí
##ovaných
Tom
##uk
začala
stejně
##eta
školy
lete
obvykle
Q
hran
1990
##rb
##olf
kli
vole
Ži
převá
přibližně
uzav
kostela
některé
nes
chy
##tace
en
tvar
##cent
##řena
tran
##ted
rozlo
Ev
fy
##mil
##cká
jiho
císař
tam
##nan
někdy
##star
Kom
počátku
chara
Star
jednotliv
##nímu
##elní
##hledem
ofici
##ele
situ
##mit
##ster
Kromě
sloven
jim
plá
##ždy
##nuje
ředi
Čer
následně
oddě
určit
jedním
celkem
Pi
nichž
##eni
biskup
##der
člově
Proto
Dav
skupina
##ica
San
přístup
##hal
maje
zároveň
##dila
##řila
pi
získala
70
pri
Morav
státní
##orie
nezá
##rý
jež
cest
Co
základě
##peč
##onů
výzku
nik
##nské
##cím
##kově
Evropy
udá
meda
typu
kateg
úspěš
židov
En
##mem
výrob
##ug
severo
rakou
##mít
tehdy
dobu
Har
návr
jiných
klubu
základ
##orf
sbí
Rob
nevy
##rid
nábožen
vzdál
vliv
##roz
tre
##ovu
##rab
shro
##elu
příto
opu
druhů
ší
znak
lu
Vla
systému
##vid
##kali
zcela
souvis
dál
##hru
185
podmín
dvoj
IS
##car
většinou
##šk
ústav
##koliv
tan
##ety
##roval
##zuje
úda
##stoupi
##účast
uměle
##mon
##íše
1992
Sy
hřb
##lých
krále
##nolog
řeky
absol
##stitu
##kosti
##íd
smlou
2019
zastá
severní
##jících
kandi
týmu
odbor
Su
scé
##aru
##obě
dopra
##vky
##ály
##ón
##drž
prostřed
Ti
Nap
##lel
##rální
společen
Alex
zk
materi
##nách
##kládá
##zích
90
##desát
##ell
1998
##line
mas
ochra
Fer
vyhlá
hospod
začí
##řesť
##han
##rii
Ste
širo
skuteč
kvali
##nému
##zb
dříve
##ložen
vyrá
##vš
přímo
Af
##ini
tá
Bi
místní
defin
Con
zmín
pracoval
##har
mezinárodní
Rud
##volu
##véd
##átní
Tu
##ger
jižní
provinci
Yor
##zent
reprezen
ha
pojmen
Sever
##kový
průběhu
##kař
minu
tradi
##běh
romá
##kům
Nachází
##kolo
náro
filo
##štění
Bra
dostal
Kost
slav
kní
##stil
nezávis
právě
##řední
výsled
kterém
##ča
##20
Jaro
##kci
tvor
obou
Později
aktiv
III
em
ned
##ckých
vyšší
##ímž
Původ
##tvar
##však
hrál
##cky
##kal
nor
##krát
At
Per
boh
časopis
pora
vybud
##gie
jménem
##ile
udě
##stěh
pode
hle
##ovice
převážně
##skytuje
##zrael
Com
plat
htm
mar
##čena
Hla
vé
Ku
zvolen
##rovi
##stické
dosa
otevřen
současnosti
##mot
##cie
vyj
práva
důležit
rozdíl
kři
##aný
1999
rodiny
##br
##rově
autor
státu
##liny
premi
##žila
přírodní
##boj
pět
věd
děj
##ino
Dě
##ždění
připrav
vody
hlavně
přen
úd
##rech
##ondý
zel
vzdělá
povrch
tato
zdra
##form
směrem
1996
teplo
##ováním
baro
pěti
pohá
##ben
lí
Evro
##kových
shromá
sa
konstru
pravidel
##tkání
menší
vysí
železniční
vytvá
##níku
##pí
poda
##lina
##žší
poho
kně
##ph
sám
zpět
malí
##rus
pokud
##šet
##šti
Ed
verze
jednoho
zaměst
světě
dokonce
námoř
vále
##kovi
##lii
vstup
jedna
zkou
druhy
##vané
písem
##ovýchod
##lub
##lal
prová
počíta
František
##aných
John
stup
prote
Karel
účin
##tury
kry
##ham
##ung
##tern
##inách
##řesťan
##dra
183
##sen
navr
ČS
doku
uči
1989
##ďar
Mas
plán
Os
zji
##tý
##žné
##ají
##ickými
osm
zvý
les
děl
sla
Rad
zprá
##ativní
panství
sklad
Dí
##ovými
Pat
hospodář
hrad
ny
Pl
##terá
Val
##dale
stru
##rand
##bus
Jind
##nalo
##dního
##stro
akadem
Min
##řich
organizace
tri
pořad
samot
práci
Tur
bás
Slov
##zeny
nově
sub
1991
nic
řád
resp
funkce
Lo
vrátil
##zena
popis
nástup
českých
kterým
vždy
ener
zařízení
##kovou
hnutí
uží
toto
Paří
##uro
zni
Jedná
zob
##pon
vrchol
vznikla
psy
##obil
sedm
Václav
##yna
obsahuje
tehdejší
působí
jednou
1997
Druh
dopl
Ja
##sek
spoluprac
##ede
##opak
##nii
##eti
##ley
obnov
architek
neboť
šlech
br
##kan
vyd
závě
Si
předmě
##list
nepo
##kup
hry
kříd
reali
hlavním
##vede
nahra
##átor
##zice
##konstru
##rich
cyk
sklá
1993
Vil
Kan
nos
##hel
pobře
##kro
##tky
okolo
Prahy
Itá
plan
rek
##burg
strán
Sv
Zde
1994
kr
tro
stě
děti
nový
Dol
kamen
obdr
Evropě
král
##zeň
království
republice
Angli
##ert
zra
Má
uvádí
Stra
##int
Tře
##níky
Dále
německé
jihovýchod
svatého
seriálu
Ter
##lek
slouží
starší
třídy
##kop
začátku
##áz
naro
Wal
mělo
soutěže
+
##rna
svobod
zemí
využívá
kandid
finále
zi
##ána
Jo
mag
tuto
Char
##lice
Bro
##fon
Aust
jedné
částí
získá
##rek
##vem
knihov
západní
1995
##hů
vybav
##ceně
tém
##lomou
označení
kapit
##mír
##stava
##are
##hruba
pravděpodobně
nut
zdroj
##berg
klas
litera
##mal
##taci
Qu
##eme
zatímco
##ill
syna
##ora
Tyto
Lud
##ií
##kraj
brá
obcí
řá
Mist
##org
##jít
zemi
##olem
##lop
Mez
pozem
##stěji
věde
##tou
nebyl
##ach
Vět
pově
člán
armády
post
žilo
fakul
##enu
věku
kterých
opera
nejvý
nato
Ab
Han
##enou
současné
##chodu
And
mohl
obraz
Ke
##stit
##dil
hrabě
poslanec
kmen
proved
##iky
Ry
##ps
lat
východní
##las
1948
##lik
Gi
premié
reži
otec
##jně
sebe
von
univerzitě
Krá
zan
##dních
různé
Ze
##káz
x
para
reak
##tku
kníže
##hlé
kterého
služby
Ri
##žis
host
##rovýchod
##lava
mistrovství
nemoc
americký
##wa
dvěma
avšak
Or
revolu
da
##řejmě
##ody
zmínka
silnice
dět
##ance
##víc
bohat
Martin
##ité
##ket
##pení
letad
Ser
##tion
stojí
##din
díla
##chů
křesťan
vojá
požad
##ht
Col
poš
zástup
měly
35
##šské
tisíc
##nějších
are
nejlepší
stroj
##hrála
##mav
kromě
##oro
řadu
##jní
Pokud
zúčast
zru
vyrábě
##pre
shromáždění
##fika
##seň
##gn
oce
rozsá
Řím
##řů
##zdí
##ologie
maji
otá
spíše
##ista
uprav
##ograf
oper
nejen
180
sing
##ris
náměstí
mot
##hře
budou
##roti
zastup
##žití
##šky
vzniku
##lejší
států
##voval
Stan
projekt
stro
##til
As
##ski
strana
škole
jedná
##arch
##oby
pozdě
nepří
založil
##žený
port
zhruba
##bec
zprav
preziden
##čný
##řili
##vot
důsled
##zek
kulturní
ven
nastoupil
Nav
zbra
kontro
##razil
Mí
Společ
troj
kilometrů
nedale
vari
sko
zří
pape
##ned
For
autom
##bar
dlouh
gym
soused
Fre
podařilo
vydal
přem
##šlen
Svat
dnešní
nejstar
Londý
ovlá
Open
ban
##ečně
žlu
##stud
##anou
##én
Alexand
cca
ním
##vaný
##ese
##átkem
del
nále
Dom
vlád
##vka
Nor
Lou
##něné
korun
nejsou
loď
vedoucí
cenu
##čuje
##zni
program
sbír
velký
hřbit
##řské
181
díl
potom
spisovatel
titu
severovýchod
nadmoř
výšce
Obec
vra
ply
údolí
Mus
hudeb
Mag
##nilo
Bel
Lit
lékař
vydání
domů
moc
číslo
vzdu
odmít
as
takže
##desátých
Bal
konz
rostlin
Rich
##nějším
##vaná
vývoj
uži
mil
smy
ozná
Hol
##vyš
španěl
##dů
prvních
jednodu
Vše
##vila
přá
##átu
reprezent
##názi
podni
Kap
příliš
!
prod
##cion
říše
Velké
##kré
##voje
##ampi
##výcar
32
##vních
jenž
poměrně
stran
okol
##šov
Tra
epi
letou
##ůž
kos
Čí
nikdy
##znamu
řada
##eně
výboru
zku
Spojených
uspo
##ostí
ryb
stavu
výji
nyní
druhý
nazý
##tím
spoluprá
##dnes
Kam
řady
##tes
každý
sním
Byla
milionů
Fi
nahrá
navíc
pe
ins
rodi
struktu
Vyso
My
politik
nějak
##mr
ple
Micha
vystup
vítězství
##fik
Hlavní
vznikl
FC
skupin
mít
ori
jednu
vévod
##oli
##cu
##ens
Ver
voleb
bývá
kraji
##estival
prop
méně
zprac
##katoli
žá
kro
##zozem
We
##etu
prvního
závis
178
##pravu
1968
##had
bývalý
##valo
pozdější
##tečně
##zeno
zaháj
##atu
připoj
Král
dom
severu
Anto
tř
##chem
##livé
Brně
sice
##děj
jihozápad
psych
Vol
Ky
nev
opat
dobře
Kostel
neu
vnitř
##lové
##cházel
pamě
čímž
##ws
##stří
##žili
turist
##ismus
##řené
severozápad
lednu
zbo
konf
imp
Mod
nazývá
##del
bezpeč
##dali
českého
##něna
online
původu
nimi
níz
##kty
45
neb
##zené
tla
odešel
vhod
Rom
El
chtě
##dají
##mení
SS
Karlov
Narodil
znamená
##ška
##hlas
Univer
##klady
Bla
radi
##ama
výbě
škola
##BN
##sud
Hu
technolog
připom
##leně
řádu
##šek
činnost
domácí
##but
Por
ste
katoli
##fe
okruh
##edi
moře
Indi
##tov
sovět
školu
pomoc
##gal
hvěz
činnosti
##jedno
##kladu
Japon
svá
Brno
##čkou
Cho
##vním
##dru
katastrál
##ecké
odvo
místa
uměl
celou
Gra
°
prohlá
strá
##ong
předcho
##tar
##cy
provozu
dle
##che
lok
měli
nejprve
přísluš
##orii
budovy
Žid
právo
hodin
##dět
přelo
stranu
jednotlivých
jeze
##čá
mlu
Mil
Toto
##álů
Is
##old
ISBN
Španěl
##ational
kó
hlad
Francie
režis
Pre
##tekt
##vůr
lety
##éhož
Ot
##žené
model
hmot
Násled
jmenován
Tr
##ling
dosta
Jejich
jde
arci
vyrob
tabu
nást
zlat
rekonstru
##anu
obsahu
napsal
tj
##stání
jihu
##častěji
##čer
179
fung
Ves
##risti
##rali
1939
ulice
##lní
středově
japon
vedení
Er
americké
##vního
potvr
pobřeží
Go
zlo
většina
sociální
poskyt
Pri
sní
adres
Fin
##bá
lev
alba
##ilm
žeb
##deň
##itou
čtvrt
##ecé
nom
utkání
ome
Větš
zmi
studoval
Gre
Willi
apli
33
nasa
historii
##hat
hře
ag
vyh
zla
##zoval
Nic
##hledu
##slava
dyna
##prá
set
vedl
##jetí
zaznamen
barok
uvádě
36
prostor
pramen
minister
sezóně
snad
ri
500
##zací
182
plu
##aci
##edag
is
##we
##uper
chod
##valy
##zbroj
##ase
##one
komun
##unu
##obo
Univerz
form
lodi
trené
žije
Petr
Střed
Met
pohybu
##fy
##teř
ly
odpoví
##ratu
##řela
Cla
jednotky
##štej
soud
IV
druž
zastav
chem
anti
Pla
knihy
Let
Severní
ol
prezident
zemích
proces
stalo
dlouho
ostatní
Tě
##ki
Dob
počtu
##znu
##zují
##rostřed
1988
bran
##áš
přesto
gymnázi
nového
členů
##dak
##lej
vrá
dětí
jist
odliš
podstat
věnoval
firmy
##ES
##ros
##eder
stejno
##úspě
trest
známý
##ává
stí
Dost
##nict
ohro
##važ
Ham
Západ
Ga
celý
ulici
klášter
##zky
##více
##por
##vací
##pil
malé
tru
dřevě
Olomou
socha
Hen
stand
písemná
##kož
prostoru
Lab
rychle
čín
##kat
##níka
Rod
##mější
##ckou
fá
##okrat
čí
prode
##jat
určen
##jez
krátce
##tila
ští
##stává
No
fyzi
městem
##eld
##chan
##skokatoli
html
společností
svými
##mun
Víd
##ňují
Město
1938
##10
hrách
strom
dílo
##fikace
konkré
ed
elektr
němž
parlamentu
olympijských
##kázal
##tivně
Mistrovství
květnu
##ovaného
charakter
##alu
##lární
rodin
poloviny
říjnu
použití
Díky
stál
Britá
##ister
trať
##kladatel
institu
Flo
izrael
mláde
Pou
##ará
prosinci
34
podporu
možnost
Voj
Brati
##níkem
hranice
dalšími
##ines
Již
##vedení
Přesto
dům
územ
dov
vyv
sprav
map
klí
kaple
předpo
##fé
Karla
projektu
Jam
vodní
zákona
Bí
drob
pocháze
##tiž
##TA
založena
va
motor
##tora
##idla
oba
Cí
Mc
gó
##žela
pole
třeba
správ
jejichž
hu
##eného
##asi
##ampion
lodí
zakla
informace
Sal
řízení
Wor
##ingu
půl
Afri
Jsou
##žek
Antoní
sbor
nabíd
1969
##tal
výrazně
##láv
narodil
##zor
zas
Svět
oprav
Také
##štině
nebyla
součást
obsah
lidé
hlavního
##rový
der
hráč
David
##duje
šesti
Hel
##78
spojení
##líž
##omí
##vit
##edagog
##vace
Francii
##entů
##ero
Ros
Ph
Cor
kriti
##ont
herec
nu
##zně
##zof
Josefa
##rodu
vzá
záznam
##níci
nových
##ward
hlu
nová
##mar
oceně
kříž
##leg
Hav
Paříži
způsobem
##lová
##mech
##dat
1918
vysoké
##ctví
##odní
zahraniční
kus
##minist
##II
##finále
##čítá
potrav
příležit
##pel
Da
##lostí
povin
totiž
kur
zby
návště
##avy
##ničí
Někter
komplex
Sla
##kán
poru
Jedno
Německu
Mer
nechal
##čené
lodě
červnu
profesion
architekt
##ovanou
druhou
jména
1980
dneš
##štiny
##rej
jas
aktivní
##kam
poško
stanov
Prá
deseti
ptá
prakt
bratr
literá
vůbec
série
##telné
Univers
leh
##luje
komb
trati
naopak
lokali
1986
##náct
##vení
##tice
Mad
sem
##čná
Vo
##jícím
musel
Česká
úrov
dola
##hly
dodnes
Československa
ztrá
Zd
1960
dlouhé
##teří
Vladi
rozhodl
##stant
práv
Jindřich
vyhrál
kri
Fili
##vak
##andát
Kor
disk
pracovní
hou
usku
ún
jejího
##end
kraje
vedením
podobě
zají
##omb
dal
festival
##kového
##čením
téhož
staveb
Am
Nad
##diska
1946
pohyb
##ždě
Některé
##lic
38
rad
##nili
vláda
zřejmě
nale
elektro
průmysl
##xim
1944
##alist
živ
##odí
##ura
přirozen
##wn
##kými
##lého
##bora
Win
času
ser
výtvar
##oně
Bru
dítě
žebří
centra
stavby
##islav
##zů
jíz
kg
dochází
ovliv
##stalo
##rot
##pou
##peri
právní
37
##lední
##dla
##koval
pát
Cam
pad
##rigin
##čel
1950
knih
##anta
pěst
výzkum
##tiště
rezer
obsad
odehrá
celo
##rových
indi
vozi
místech
hru
medaili
ren
rychlost
Op
##loub
part
##ip
tun
##nech
sobě
##rny
úz
soutěži
nadmořské
oltá
přestěh
Var
##jů
Něk
##ria
vým
##rních
##enta
##pá
##mann
##chách
##žky
##řice
##vili
zámek
##ith
břehu
uzná
týd
##pozici
cílem
automobil
zaved
##vale
##studoval
křiž
městské
blo
velkou
##kl
##řeny
##atím
##zovat
tou
##ilu
1970
myšlen
zvlášt
##známější
1984
##lín
##lila
US
studia
##ekt
tová
##ex
##zim
rozhodnutí
##veřej
##rovat
1976
##tura
##ks
osíd
ženy
přístav
Sto
1985
debut
lov
##čných
##řily
vykon
vnit
jejíž
por
##soci
##nictvím
Liber
##likož
##hlo
Ca
čist
bron
Ost
zmí
papež
##cům
programu
zámku
##řazen
Kol
žádné
Jižní
##kom
hraje
Nov
firma
##avor
##ene
most
##ult
##ravě
žil
##rovou
přítom
pilo
trů
Johan
be
##lis
spor
březnu
nejčastěji
##kova
##aty
Tho
vojenské
důsledku
##60
Prů
##io
učitel
##dic
přátel
ide
jád
hradu
zásob
vytvořil
Všech
##ženil
##rání
malíř
150
zásad
mladší
případně
Med
##jev
1942
vztah
##istické
nádra
Bor
dramat
genera
KS
##ární
amerických
pozici
1987
Ivan
minulosti
Arch
akce
stop
Uher
důvodu
Asi
1941
us
##enec
##rin
zav
##ash
cesty
trans
##čt
##téká
##dán
církve
##hnout
1949
Nová
hvězd
Sb
1981
příro
##ue
sho
zajišť
listy
##věty
Film
moderní
Tour
metod
německy
blízkosti
hně
podep
příbu
dospě
nebylo
##cel
Dostup
rela
skal
##ney
čet
##šit
##ovně
##sof
fi
Nové
##stoupila
opak
Bur
##ýval
matem
##ichni
vide
##cit
Ludví
propu
píseň
##nicí
##jezd
Nak
##movny
člověka
novou
vyskytuje
doch
##bert
##šli
skončil
spole
manželství
bitvě
předchozí
připomí
lou
Sk
1972
posád
narození
##geli
sym
Sc
William
##zala
odsou
divá
zahrnuje
##tev
budova
politické
úřední
Kali
Národního
##30
kola
Říšské
##gar
nemá
poly
podobně
Země
vůči
divadla
smí
1971
rezi
okraji
pohoří
potřeb
Mor
##žeb
##úspěš
##kyně
##ujících
inf
objekt
1964
##SR
objevil
horní
##tugal
arab
hrd
dolarů
poblíž
##kost
##ánu
Praž
soubor
červenci
Bud
##éf
dubnu
Mosk
##ologické
domu
Pavel
##zením
farnost
Hy
##40
záj
##kám
1967
pedagog
brzy
malá
obdržel
parku
inspi
dostup
Vl
Ferdin
vzájem
regionu
nádraží
postaven
##ckém
00
sezóny
dist
málo
částečně
##tolog
univerzity
##sel
##ika
mužů
nalé
chla
##cího
koncert
dvo
##ola
##mez
srpnu
##und
nejstarší
zvíř
astro
1920
atd
nicméně
##vek
patřil
dalším
techni
dosud
symb
##čce
Rus
rozvoj
##lid
177
předsedou
Mezinárodní
fron
Východ
1974
York
Dostupné
##jde
podél
Jaroslav
##mý
pár
1940
vrst
oblastech
Ště
pru
Cent
##bel
##rag
druhém
organ
’
Kr
42
##šil
##vice
##vost
domin
39
Panny
zda
síť
Sed
Čech
věž
##kazuje
University
Dr
povol
##zie
latin
promě
##cet
zůstal
##ader
##tka
princi
teorie
administ
kultury
okruhu
##80
##jích
nejvýznam
nemoh
efek
hlas
kří
Králov
Králové
1973
##entu
otce
Zemřel
Anton
svému
hranici
##alý
osmi
##pětí
1982
##kcí
origin
farnosti
dodá
švéd
bronz
roze
ká
##pp
zpěvá
Ir
písně
celém
1983
vyjád
císaře
1975
úpl
Th
Hal
kariéru
nedaleko
zkušen
pé
Cha
okam
skladatel
sen
##bý
Jde
test
Stav
kated
zased
osobní
hudby
souk
slova
Hlav
výmě
používají
##aného
postavena
##NA
##čeno
stejné
##ovky
##dec
##jské
snaží
##ilní
celého
získat
Ban
koncem
1979
ročníku
fotbalový
##lus
Lin
evid
Jiho
skupině
Františka
začíná
##celá
poch
ostatních
##laci
kláštera
barev
druhého
##pé
##adu
moci
ředitel
únoru
##tom
rybní
Can
##livu
##que
běž
Lid
konzerv
##nor
dráhy
zdejší
probíha
Čechách
lidu
##žad
parlament
##kladní
tvaru
řešení
##stvím
##top
přijí
spolupráci
umožňuje
bodů
##nostní
vesnici
čeledi
1932
zpravidla
##ington
##ván
Horní
Miku
státy
Švéd
stavba
300
##get
##átek
Česku
vypu
##voz
Maďar
buď
jednoduch
Izra
stylu
většinu
1978
Poslední
leg
průměr
česká
Kni
##lig
oženil
##lož
##typ
trá
řadě
oblí
##stoj
potok
##rych
##jícího
##nických
Ly
##ood
##ston
vrcholu
rostou
##vaz
pu
prostřednictvím
dlouhod
##aně
můž
odpově
kř
stříbr
##slí
stad
var
obchodní
Fa
stejnojmen
zbyt
World
py
památka
Slovensku
##éra
bal
##stila
Robert
šlecht
##oly
##nácti
charak
nadá
internet
zaměstnan
redak
##sně
apod
##boli
vzác
vystav
minut
1947
##of
##zdob
zvu
https
##ropo
##činy
##skytují
Geor
##ceti
sportovní
uskuteč
Zdroj
nau
kaž
Sovět
##cena
##ae
klen
souvislosti
speciali
Eu
Rec
Většina
televizní
létě
1977
podnik
prvky
postavení
nacházejí
web
svoji
kontak
##pojení
Václava
##ribu
##stoupení
##ress
Lan
žebříčku
##ins
hlubo
fakt
##čnou
okresu
##anem
##ánské
Mno
Vilém
fotba
##lových
anglicky
ligy
##ezpe
německý
seku
sestav
jednání
1919
populace
##fr
##lova
##ces
##hol
mik
Slez
prací
založení
Histor
Egy
##TP
kdo
oblastí
ště
dostala
nemě
známé
velká
##vangeli
soudu
členy
pom
##čník
román
role
##tně
rozšířen
##vější
dní
1943
##age
matka
přek
střel
situace
provincie
Art
##kají
1965
mnohem
zájem
arche
##inář
autorem
diplo
činí
Fri
probě
podzim
##DS
problémy
##družení
demokrat
Švýcar
velice
druhu
alb
##ker
##kář
působení
konku
deset
léta
nejvíce
kapac
představuje
odstra
hory
historie
##lim
těla
stanici
spad
##isi
členové
Kat
##kladem
##isty
Sim
##ány
##ano
sest
##lec
##ecéze
něho
česky
vydala
zne
##ble
nahrad
##mos
průmě
##chi
##óny
velkých
##dé
zdravot
##11
Air
špat
##iss
##čili
##leté
##pla
lep
vých
##cyk
začaly
divi
vedle
Ukraj
##dro
Plzeň
Původně
sídlo
##arda
##též
neob
nadále
přejmen
##sahu
1966
koncer
Tím
##átky
Následující
vyb
Plo
Bole
třech
##ban
vzor
##inem
udr
zahraničí
Ok
nemo
prezidenta
##meno
##ts
##děla
##vku
státech
povstání
##čín
##biskup
vyda
1963
dokumen
posledních
175
vysvět
##cvi
##teru
##ovské
##elem
Prof
Český
majetku
75
svazu
maxim
##dci
Rudolf
Au
##zený
##die
tor
barokní
Uni
komunist
##votní
prou
1930
##letí
kal
Dolní
##omě
1958
doho
buň
Adam
Mari
47
Austrá
zastupitel
přišel
##cad
##lání
Gro
##gaž
hro
aktu
##ugust
##rchest
##tivy
východě
##rad
naci
písní
Petra
##šené
měsíců
dcera
výjim
##port
Bře
##řením
##sion
uk
stou
rytí
zim
odehrál
dek
sled
začalo
sedmi
Ol
##zka
##rodním
##smus
nižší
prochází
##ng
176
zahá
Richard
##nami
##HL
silně
pový
oficiálně
energie
oddělení
Vídni
stab
tajem
Max
obrá
dynasti
##ott
KSČ
jediný
Měst
návratu
##koj
druhá
tram
mechan
Veli
400
hlavních
Leží
mrt
filosof
úse
##řování
navští
prodá
Inter
Německa
koru
osv
trvale
skupinu
##dia
##otbal
##vnitř
sloužil
Ger
##enti
##jel
48
55
##asá
##líně
##iště
námořnict
Slu
posti
##hání
##prava
hlediska
##inace
zahrnu
Žije
fede
##uman
morav
Ač
lize
turnaj
##pro
War
Stej
##něných
srov
doprav
##ební
##zila
got
Jen
kva
desí
1953
chce
##mas
tímto
Bou
44
##par
##obec
Bre
##ckým
##ey
43
Největ
velitel
důvodů
asist
##lením
viz
přelomu
požadav
Itálie
##pově
dlouhá
tabul
Následně
ků
ps
Protože
y
##vlá
##mila
verzi
1951
á
odhad
##kej
agen
Fo
vstoupil
každé
##ulti
Nový
Jakub
ut
přesvěd
výbor
Lí
##mlu
centrum
##rava
Sil
##tře
##tina
soukrom
kostele
boji
##enosti
##mali
##staly
Ag
jednotek
Ale
svaz
Vzhledem
er
##ánů
log
##avou
zanik
##tok
##ština
##ille
síly
počítač
##hledá
Bul
Ústav
dosáhl
Ved
prince
##ovník
duch
##rovol
1961
ač
##inské
výše
považován
##12
1935
##štěn
1952
##čeny
epiz
##15
##šena
nava
Yorku
##pozice
kruh
##vakrát
pomá
následujících
obvodu
##inos
##aleko
##sledek
##nického
Ce
##way
##cas
##oz
##abá
##ič
##nemoc
círke
##OS
##škol
mohla
West
nakladatel
##rami
něco
maďar
šampion
Pal
Středo
##litní
sportov
1929
výkonu
kategorie
nejznámější
rozloze
##dub
Soci
##skov
prodlou
lig
němu
##počátku
nesou
oh
směru
1962
soutěž
rodině
##ito
dopravy
170
resta
1936
kyse
##kot
##dách
finanční
Ki
##šker
jinak
##red
160
vzniklo
experi
..
...
studiu
or
1954
Les
1956
vaz
##deb
##ram
pás
Saint
Che
Srb
##kaci
##lant
sídlí
start
##léze
Arg
tvořen
Tam
požá
politiky
##icko
##wal
##stein
průzku
##ilí
rock
##spí
Hou
regist
vytvořen
##nce
52
##NES
##ologii
rozdělen
×
##wer
##rách
koncent
inve
Milo
kariéry
návrh
pomoci
nepře
odbo
Že
ústí
osad
##cov
kancelá
podílel
##ováni
cesta
park
Sně
##jal
zách
služeb
pali
řeka
##žitel
stroje
doz
výrobu
##nická
hokej
napad
graf
##illa
##kovat
zastával
veden
##stvu
##nos
##atri
značně
barvy
Dan
oku
přenos
jsem
sebou
ostrova
##ER
jednom
můžeme
##kti
##lia
##use
Bylo
##řuje
navá
nástroj
vyšet
Londýně
arcibiskup
##ňování
roste
cestu
pořá
Pu
##18
ostrově
##SD
uspořá
vnitřní
absolvoval
kov
demo
##raci
celá
existuje
sek
seznam
velikosti
liber
dvor
lokomo
neza
Původní
rostliny
##enty
##haj
##kání
Ostra
kategorii
##ford
úřadu
Dnes
zboží
##sh
kot
Název
##isch
zachy
armáda
hlá
am
zápasy
##řátel
mj
##kací
skončila
nese
letiště
Peter
přesunu
elektron
Alb
palá
obháj
areálu
označuje
popula
1937
vypad
ocenění
Mak
významné
uplat
změny
rodina
dopravní
mlý
těle
Don
vychází
onemoc
Šk
československé
gu
mír
##ere
příj
vlaj
bomb
##ovaným
inici
##vov
rukou
Všechny
toku
##ken
proud
uvol
jižně
##anů
současně
venkov
filozof
skončení
##amě
úrovni
##90
Men
##čích
Aut
ploch
rozšíření
Itálii
pohřb
Kry
majitel
##zující
##FA
Exist
přit
NA
Lad
##reg
pale
zveřej
120
##žením
##pol
vzhledem
##feren
inten
zapoj
Dra
”
využití
zrušen
komise
překon
katastrálním
##ló
##nského
vyz
příbuz
literatu
příslušní
kup
tenis
národního
francouzské
navště
##něny
oboru
##hry
francouzský
partner
Boh
##pisu
##jedná
##uz
##nily
Součas
pražské
přestav
##hne
takové
povrchu
muzeum
##kovým
studium
bak
velko
##ight
sign
severně
posled
##igu
65
1959
německého
zakon
zemědělství
chud
králem
televiz
##jekt
1921
podnika
dědic
uhlí
Podob
prakticky
Nejvyšší
skutečnosti
bou
jich
renes
##ovité
Den
Tro
zákaz
162
Andre
úk
Paul
##inc
jezera
kapely
kterému
##tud
všichni
uživatel
##žívá
##jila
Své
uprch
Fu
pozo
##rního
zlep
##edl
ochrany
známá
Kč
##http
##ečka
tem
sídlem
standar
cestě
Ci
obk
úkol
vyrů
Evropské
přechod
Gen
liší
stadion
sli
odst
koloni
Vá
##věcen
vsi
přispě
nezná
Dou
jazyk
legen
Mni
reál
##ktivní
začali
hlí
174
pravidelně
1925
Divad
semen
On
1957
kanad
##hodno
obtí
##aku
##erem
Kla
pořadí
##řka
só
ben
46
##sbur
udrž
##hlav
vyboj
##19
člověk
smlouvu
Americe
fakultě
##70
muzea
ústavu
Va
německých
divadelní
Los
juni
úvod
divadlo
hrob
turnaje
Vídeň
text
##padech
##vatele
##áty
výroby
pořád
mandát
##lili
##stní
##lista
jednotlivé
veřejnosti
kre
##ys
##čilo
##tus
##eným
##lovou
172
Record
předná
fotografie
August
##itz
##bory
##dající
výstup
53
brně
moto
údajně
Ještě
poro
64
1955
náhra
##logie
Tat
malý
Zatím
psa
linky
##něno
##žování
amerického
##što
##stem
klasi
Dub
koncep
propag
##stiky
1924
zobra
##spek
Ned
sexu
obecně
dispozici
případech
##ons
##žet
data
západě
##gor
celkové
Cy
##lob
Intern
dvakrát
Mimo
výšky
správy
přesně
dobrovol
Bez
1933
probíhá
pozor
poráž
náboženství
Pak
Například
Des
věz
organiz
Bohu
##nul
1928
##lový
##šením
hlasů
##inaci
Spolu
##eri
##ša
sítě
strateg
angaž
Ange
vysoko
Karlovy
soutěží
synem
Minister
vzdělání
##otře
##rista
##dorf
hned
nomin
soustav
přines
Van
##diště
úspěch
hři
kosm
§
Působ
ukončení
##omet
hoke
ukáz
##vaj
skládá
Jon
Roy
he
sněmu
##ula
jazyka
chování
Univerzity
##vnění
divo
zpěva
Bos
analý
příběh
Antonín
orchest
##átů
##mus
semi
doporu
studií
Tri
##kovit
největším
Mont
Fal
##gh
##řaz
zpí
1934
mládež
Euro
##edie
##děli
gale
chví
Francouz
Buděj
pokračoval
used
##onec
římskokatoli
refor
transp
Chor
taj
Sh
žádný
165
kusů
svěd
hus
Tel
##před
kniha
##nický
##tec
##tili
##denti
##odě
Ře
vyzna
##éru
au
Eli
##ans
měří
##čená
85
profesor
konfli
##ric
orient
Far
mla
##kuje
Čá
knize
vzdálenosti
stanovi
stavební
Em
Kos
koneč
vydavatel
eu
posí
##stoupit
nebyly
##čov
##fikaci
hloub
Michael
seznamu
objevuje
##nin
##remi
tělo
##ass
vyuč
##onie
##řicha
dosahuje
49
Il
Přes
Prav
poji
stavbu
##ide
vešker
Kle
Každ
zvyš
Moravě
veřejné
pracovat
průmyslu
vytváří
##lené
procesu
špi
##rním
akci
Nizozem
##eš
boje
obyvatelstva
narozen
profesionální
##žených
posléze
předtím
obrov
jaře
autobus
##bili
Pardub
britské
##eném
ceny
##spoň
zaklá
##víje
zdě
##jezdu
uher
##risto
##vují
##vést
Akadem
##čítání
Slav
titulu
nena
kle
##ery
nizozem
##bet
hovo
zruš
absolv
pravo
Nicméně
##usí
trenér
##lor
buně
Československé
časopisu
OS
Něm
Ča
Jean
vyšla
zdi
zdo
manželkou
##čina
ustan
##ern
##tit
nutné
##ret
hrát
jelikož
##ením
James
dynastie
složit
inžený
vyžad
oproti
##BC
Gar
Anna
zvon
vyšlo
##nově
##inec
albu
spotře
elektrá
minim
Hod
##pravě
neboli
Nakonec
proběh
Seznam
zvo
klaví
##nám
čest
představitel
##ess
objem
##iv
MS
##zili
speciální
Kop
##čného
interpre
Dop
und
##tive
##igh
svo
International
##idel
informací
Wa
podmínky
##atý
byd
##dělena
##itní
Vrch
##str
##fu
takto
literární
ředitelem
Auto
##hdy
173
fon
##nickou
##šila
Tru
##oleku
historické
doká
smlouvy
Až
soupe
oblou
Ram
Skup
##ical
1914
##stane
Jac
rekord
poháru
##14
##16
1922
##isa
##šly
##vách
doprava
ant
1923
paci
George
há
převzal
duchovní
exp
noci
trval
sdružení
festivalu
původního
Spe
kru
divadle
##ála
zvláštní
situaci
##vár
platí
vlh
evidováno
evangeli
staré
nedosta
majetek
1931
délce
stíha
demokra
##žuje
##cené
##doro
##mysl
turné
vězení
Frank
##AM
##cená
EU
Celkem
##ference
CD
citováno
Miro
##13
past
##OP
##ktiv
##lena
##mořád
budoucí
odkud
dří
vytvoření
názvu
nakladatelství
##odob
##ovic
jaké
věže
vojska
atmos
uch
168
Labem
angličt
vozy
##nové
##lým
potoka
##seud
akademie
Anglie
setr
rezervace
režisér
##tuje
rozmě
Českého
končí
mohli
##čtí
##itím
Album
vztahy
půdy
##hon
pozice
##rací
72
Jeru
Tech
použít
Most
zabí
rokem
středi
primá
Štěp
sboru
##čními
cy
il
##cko
##gos
Zároveň
oficiální
##resby
doktor
přijal
evropských
Tran
osoby
Wi
budov
projev
rozhlas
torpé
ročník
ture
Tomáš
vládě
##nají
jezd
##ánem
oddí
americká
známo
54
obor
připad
##nský
přitom
lib
zdroje
Ferdinand
zabý
předseda
uložen
##rol
vedla
##působ
letect
##chal
Sem
kontra
##vinut
Egyp
Filip
pohla
Ameriky
##gel
##niku
##rativní
Chu
dnech
události
56
##datele
##los
válka
Ústí
##čelem
Stud
muži
##ža
přiz
Spar
##žto
##landu
hrab
Feder
Rou
protéká
záležit
##tační
Děj
příbě
Přestože
##bami
jižním
natá
regu
##17
Střední
pen
Hab
val
bombard
62
##riz
sň
Grand
Avi
forma
posledním
plně
Gal
##dili
vzniká
Edu
jader
##amer
##nova
poj
přední
##bit
planet
tisk
literatury
ind
Pale
chtěl
bývají
1927
staly
Len
##anské
Bon
jednalo
objevila
mor
vním
##nom
##čený
fyz
Pap
domov
vztahu
srb
cuk
##kční
jesky
generál
##až
ministra
##zemní
##ženo
body
všeobec
kab
velkým
Records
Ond
chá
##war
še
sti
Počet
Izrael
##sila
##lík
Dar
##zech
##ls
##vých
1911
téma
Červ
##exist
Dů
opustil
##hut
Zden
student
Řec
##stev
##okol
##ür
sle
rada
Super
ustanov
1848
několikrát
muzi
dcery
Dem
Lov
prospě
##slem
##álem
dějin
##něný
novým
##alog
hodnoty
Největší
Společnost
1926
zaměř
##násob
středo
vycháze
##lala
ATP
objed
konstrukce
##pů
tradiční
přemě
##zely
##ával
mírně
##uel
1908
##skop
1900
lidové
místních
čase
specif
##vál
osvobo
zvláště
politických
##ovský
zúčastnil
vyvo
Bern
##žka
Old
mra
uzavřen
Pala
úlo
Rusku
##ish
Lip
##dlo
##jeme
severním
##cát
164
skladby
##lám
Státní
58
##cii
aust
##xy
Hom
Kateř
##střelil
uvnitř
57
##grafi
dědictví
##ženy
server
##rim
sérii
##xe
skupinou
Cup
moderni
čísla
##ashington
##žbě
útoku
##jak
Kun
Mik
lepší
mikro
třetím
vozů
É
##chyb
Oba
rozši
dnešního
říká
papí
podrob
##kování
pobo
volby
alespoň
##gres
plav
##mist
domě
tábor
seriál
Jeruzal
##sala
mimořád
##ame
Německo
daleko
československý
##lot
##rového
starově
##tik
el
proběhla
měsíce
Karo
City
portré
ju
neg
ane
nepřátel
##lze
centrální
násil
národnosti
soft
raket
Vin
You
oček
##énu
##něl
unik
jiného
trůn
licen
teprve
73
útvar
Kalifor
##koho
##kovice
##osa
Postup
##ics
peně
Hrá
##nová
1907
##hen
Reg
##zant
##blí
styl
##AR
##mana
dokument
židovské
es
centrem
národů
##ire
uveden
Rep
Cal
zes
prodej
dopad
ukončil
automat
hřbitov
##zované
1910
zkrá
tvůr
Jiřího
odrů
##šku
sezná
Velká
pokračuje
##ware
dopis
vytváře
přestavě
formě
Zatímco
trhu
klíč
##prvé
Kal
systémy
vojáků
hní
unie
sbě
##počet
volební
##vet
spl
Hlavním
##set
fa
hudbu
operace
##něná
vlivem
žán
zkrat
1000
přidá
##ovatele
hráčů
##gre
vzdálen
řek
vylou
250
Dis
Jack
##utsch
pozů
##if
##gram
130
Obě
Kvůli
sami
zprávy
##pit
ležící
zápasů
##telný
é
zápase
##zován
kolo
podíle
zpracování
okupa
Chorvat
##zt
##tla
##ns
delší
163
##tán
sčítání
##tací
1912
##kovy
##entní
možno
##ecký
##hodou
Význam
symboli
140
bývalého
používat
západním
úseku
vyskytují
žena
dělí
##ath
152
##itivní
##tiva
zobraz
rej
vysoká
patřila
režimu
##cemi
##ěk
##ardin
sjedno
ovli
církev
vysokou
##Dr
arg
úspěšně
jejích
smyslu
hroz
zbar
Nem
důstoj
séri
##sedy
##nut
eko
nalez
dru
##dl
podobné
renesan
letu
přešel
Pí
rizi
May
bratra
Gru
výsledky
zemského
medaile
##sné
ph
166
vyprá
omez
nepro
Blu
neúspěš
Ing
dlouhý
##tové
kontin
spočí
bývalé
##lip
vrtu
##ovacích
manželky
doplň
spodní
##menty
##nář
##ranné
##zená
van
zdob
Washington
ac
nepři
Tex
##zených
peri
kód
Port
účelem
Poprvé
široké
Tre
spolupracoval
##sli
154
novin
podíl
schod
středu
sama
Mac
Juli
dcerou
##kala
zakladatel
super
cvi
169
chrám
profesorem
##vidu
změně
vnější
rolí
týmem
singl
typy
čtver
nelze
výroba
zo
rozhov
iz
##fici
##onem
##věz
ochranu
rychlosti
aj
budouc
##Matri
##áře
##romad
zbraně
##ejt
##ónů
náklad
##cové
hráči
##nek
zaká
VI
nahradil
charakteri
Pru
vej
Rost
rozp
Klub
proná
výzkumu
##mili
##vaných
##AN
zdrojů
63
##rovy
##MS
Bed
moleku
získali
86
hom
doda
Mla
pseud
poloost
zajímav
Pen
Masary
stejném
kapli
Dani
1917
matemat
##enství
Polsku
##kor
66
katedrá
organizací
##ida
##cip
řece
##ezpeč
květy
započ
##ůr
zemřela
##nis
##vině
čast
##rian
schopnost
##rovod
pozoro
##vce
chlap
televize
Británii
provincii
1905
výrobě
strávil
600
voda
##ležitější
dny
najít
Ele
##git
Red
centru
instru
zadní
životě
##cka
Kur
těles
Pov
##ün
##dříve
##osexu
ploš
šed
vyznamen
experiment
Sm
díle
databá
##žily
Dalším
letoun
rekla
##leb
##tim
Windo
##zační
někteří
135
Leop
úsek
Bratisla
##oret
připomíná
##cep
vlastním
utr
fos
zůstala
##dex
motory
Charles
lesní
##důležitější
##gii
výjimkou
paměti
vývoje
hráče
vítě
sněmovny
##žená
Portugal
##kající
##ella
Á
##střed
rozho
uvedl
im
středověku
reprezentant
průměru
##gol
státě
dálnice
délky
bezp
zvířat
##ánského
významných
mění
##emu
ruské
Hit
155
##tější
Krát
rakouský
zrušení
Thomas
existence
přezdí
Org
Viktor
šir
Anglii
Československu
Studi
slovo
místopřed
obyvatelé
základních
klad
Ježí
Py
žal
jazyků
Británie
Lé
francouzského
tera
komplet
Jugos
generace
palác
Hradec
revoluce
Michal
##skal
Ant
fará
komunikace
Kub
dětství
postavy
##ju
diecéze
##dan
##ujícím
nabízí
vyrov
vnitra
Pom
Maria
##cku
167
##stů
pracuje
východně
##tex
Para
sociali
předchů
dosah
##ónu
Měl
seb
Moh
Želez
látky
líst
muže
Die
##wy
historických
příležitosti
kytar
zachrá
událost
osídlení
zástupce
tomuto
hal
neust
písni
##kazy
##řídil
nádr
zbytek
Ture
##álními
atmosfé
09
Fried
stupně
##chou
potenci
vládu
hrála
nebezpe
prosa
Tim
Zlat
největších
oble
závěru
##vyšším
zvítěz
republika
výjime
šéf
dědi
nesp
National
Mic
slavnost
obrany
##ovce
určité
vyhledá
FK
Nan
neexist
Vladimír
zakou
mak
Black
##iew
76
diváků
rozlohu
západně
1913
osla
písmen
##Matriční
##čátkem
možná
Jednalo
doprová
druhým
patrně
Rakousku
identi
distribu
82
Paříž
pokry
##ritu
neod
respek
manželka
##até
vzduchu
##umb
plochy
životní
mni
reprezentace
římské
##sána
nim
krátké
Asii
prezidentem
smrt
##šice
norm
SSSR
varian
Windows
křtu
uprostřed
šlo
vidět
Mlad
Polska
##pěl
King
archeolog
##hn
říši
čp
Cap
##hav
dosava
semifinále
Dán
stává
kterými
##žná
každoro
společenství
##kazu
osady
hmy
nesta
malých
iD
Koncem
postavit
civil
dve
Stejně
##míru
Kou
jediným
Dat
Scho
odsouzen
##pal
Pavla
materiálu
##vence
Krist
Muze
WTA
velkého
159
obchodu
výcvi
##hých
bub
asoci
soukro
českém
##huje
Tou
umístěna
poprav
FI
nemůže
křižovat
##orií
##áři
metra
74
autonom
tal
##bro
##OV
panovní
##ovka
městy
Mot
vlastnosti
800
##anda
vedlejší
postava
čísel
reprezentaci
jinými
potřeby
##mel
sop
kali
já
##obu
##shi
##čich
##gna
##stvem
156
Ope
pomal
týmy
kapela
tvorbě
Základní
##pisy
zpo
##čeb
Tan
##rik
boho
trop
pracov
##agu
##stice
pivov
Sport
##wood
alex
sloup
přip
závodě
chvíli
čtvrti
věci
##žilo
křídla
vytvořit
##žá
77
VII
ři
obvině
id
##čily
poby
##rof
Frid
zase
##éri
knihu
##gon
##wi
vybra
68
třemi
##stli
dvacát
##dom
jem
zvět
Řád
dinos
trad
lidské
##adi
95
Jos
dočas
chrámu
##don
půd
##rované
desig
populární
Tem
zmiň
dostat
jejímž
Angeles
vyhlášen
dnů
ř
mohly
Gab
bílé
##vanou
##loužil
oltář
vzpom
spu
návrhu
Mos
Poslan
##chen
bul
Bratislava
tmav
##čují
1906
praxi
Zdeněk
##ňů
##tis
nacházející
lan
roman
##tiku
dceru
mluví
výu
vodou
##stili
Stre
Mexi
závodu
vystavě
švýcar
dol
zu
978
##nam
jedená
diplomat
##zou
pohybuje
ran
vytr
funkcí
nevě
skr
běhu
ovlivně
##ády
Oblast
##hlíd
ml
Colle
mem
##zkou
Sen
Net
úča
Vedle
černo
##CO
##linu
##áše
99
##rské
##tách
koali
slune
vzdělávání
##ple
Karl
občas
řem
homosexu
##čném
oblé
individu
filmů
Rakouska
vyjad
coby
okamžit
divize
SK
vedlo
přím
##nicích
##zz
apo
Vítěz
východním
Tere
zbraní
−
41
rodiče
skutečně
##lína
slovenský
##kar
uvedena
vyhrála
sezoně
významu
##ferenci
rozpad
Slovenska
onemocnění
zpravoda
učení
##eníze
##tické
##dél
dlouhodob
##kované
osada
samostatné
nád
##itivně
Ruska
sni
obhájil
Tá
neo
rozliš
památky
pruh
věnuje
spolku
Vic
1901
řídí
rozdí
jednak
##lar
Bay
##ning
měšť
rozdělení
opery
napětí
snažil
živočich
Vystudoval
zah
##voří
vídeň
léč
##mrtí
##telů
Součá
##ík
Už
Alo
vyho
mohlo
ostrovy
možnosti
Římě
junior
##ridge
Ul
Premi
##živ
dobré
vybí
altern
premiéru
vznikly
nejm
59
Bob
povýšen
##letý
odmítl
výročí
ministr
##fal
discip
doprovod
domy
správní
důležité
interi
linie
##abi
kořen
##jského
##krá
##onym
Hon
mládí
ozbroj
Klad
žup
Park
##dh
son
1897
hvězdy
##TO
záslu
maj
soustře
frek
péče
věří
evropské
konkrétně
Paříže
podniku
souhla
termín
158
útok
odchodu
církevní
##štěm
různými
##anci
vydává
##ye
hydro
##síd
cena
paho
##vojice
koupil
Konstant
autobu
vysíla
##zování
relativně
otcem
Brazí
1850
Typ
odehrává
##kole
významným
existují
##čelí
pán
##inský
neměl
oblíb
vystudoval
povodí
pokro
Komuni
porost
podmínek
gymnázium
doma
překladu
##rant
celost
velikost
##ep
stejný
Fe
znal
deta
odpovídá
zástav
##hody
##livě
složení
##hodné
##elle
##hají
komer
textu
tradice
armádě
dvora
materiál
odol
##sadil
Izraeli
har
trub
zpočátku
##odi
Poli
délka
zabrá
##ranž
jiný
budově
Cu
##pila
doslov
přijat
setká
##asu
Argent
architektury
popisuje
médi
rozsáhl
Římskokatoli
Ken
##mag
počátkem
husit
příležitost
bezpečnost
slá
gala
účel
##vateli
monarch
Award
##IS
##aka
Ny
zavra
provádě
Součástí
Kři
##chodem
plánu
duchov
původních
car
navrhl
herečka
##mezí
pohled
Spojené
Ak
divadel
Alžbě
##ňovat
nejméně
obrán
##víti
podepsal
##obra
propoj
výhrad
sociálních
67
zasá
Malé
##átorem
účastnil
rostlina
##moc
such
digit
##nka
Sokol
hraběte
##enými
ministerstva
##šné
—
Rakousko
##jov
občanské
pokou
##olení
Třetí
zpěvák
##ount
51
reli
##střední
rozsáhlé
vlastnictví
110
##AS
##rné
prosad
potřeba
ki
příst
metody
##rea
skladeb
##ickému
královské
Fak
Pek
rejstří
místem
probíhala
Každý
neut
dílem
sekun
vhodné
Mit
cho
##sích
inva
Africe
volně
##sté
Jihla
san
ukraj
přírody
##jan
románu
přestoupil
hora
Publi
nápad
##tiky
Dlou
obrazy
hit
zahraničních
vin
techniky
trh
dané
celkově
podobu
##sán
##dilo
##dence
austral
otevřena
##mno
Boží
##ican
##zin
##ánský
##sat
##lét
buňky
produkce
cod
Tor
125
přihlá
##lum
provedení
##čině
mani
ponor
chor
patro
##mání
Rych
##adí
Jin
nená
hlavy
##jský
##žnou
abs
##aném
Brna
uni
vůz
systémem
fázi
##zar
ocas
stromů
Berlíně
hodiny
reakce
##brá
sel
vze
strojů
##rog
##uber
integ
##atiky
reag
studie
zranění
souboru
##low
žijící
spou
Působil
bot
##ild
Bat
##nné
##cházely
snadno
Hein
kapitu
##oviny
většiny
Rumun
maximální
cíl
listů
policie
##cházelo
technické
##rají
##štejna
##gr
##telná
##stoupili
##orth
zbav
ilust
egy
1909
osvět
značné
Lib
Naro
##ico
##omorf
motoru
obsahují
vych
nucen
Skupina
Liberec
běžně
kře
dřeva
dopravu
nedostat
Ani
##mie
mohut
##isté
chu
##stali
play
##ville
náklady
##čným
##dcem
Georg
areál
Rober
##dit
jednotka
##bach
##tali
Jab
##kyní
Prvním
multi
157
peníze
##vát
stranách
Bill
údajů
Výsled
ček
##istů
vyvinu
##nuto
samos
##rí
Pá
##kono
porazil
míru
##udí
paříž
##lými
hypo
Miroslav
protokol
předpoklá
měření
pokus
návštěvní
Asie
rozpu
jím
stabili
třiceti
Bas
Cen
anglický
sochař
Louis
dlouhou
nejvýznamnější
##telně
šíř
##teční
1904
##AC
##datelem
1915
představení
Republi
převz
prohlásil
polské
##člen
využit
Zalo
přízni
##toku
odmí
69
Gali
jiným
fakulty
pozornost
zámě
považována
SP
britský
teorii
zemře
##tika
stol
úmrtí
setkání
řadí
katolí
Nik
fyzik
1916
odtud
Afriky
originále
Tit
moři
stavě
technologie
závěre
systémů
##aj
Přem
Stal
Aby
Up
line
##ous
##řech
hes
vylep
05
menš
##ňující
##svět
bet
respektive
ží
Měsí
Der
84
##istický
dvůr
duše
nemocnice
vysoký
hromad
správu
Tří
##zována
##cházejí
##ktů
tvorby
hřbitově
##ction
Hus
##gan
Filo
růst
##richa
NHL
Seve
Zel
ODS
řemes
Plan
##vána
php
prvků
##buje
##rkat
vesmíru
památek
nástroje
##čím
rem
rybník
olympijské
radě
zařad
Moravy
##sme
sep
Spol
Němci
##pem
##naté
autorů
88
Sig
Ven
Zak
Pier
inform
##nera
##řský
žijí
zvítězil
##žích
##fen
konec
pozd
##pos
nezávislost
potla
tentokrát
Lub
Spi
utká
Novém
bratrem
##evrop
fáze
prostředky
něhož
knihovna
Někteří
získalo
objektu
##nad
Prac
nastav
TV
vyře
##tro
dokázal
pohledu
vodu
stali
významnou
Sing
třída
musela
studovat
hrabství
představi
zdravotní
dřívější
dlu
kres
převod
jmenoval
##rel
Olomouci
ztvár
##chově
volné
objekty
##stoupilo
sci
trén
silnici
##zan
Bulhar
restau
využít
vědy
výhradně
letadla
zapo
deb
přírodě
úplně
bole
hranic
místopředsed
symbol
městech
dinosau
zůstává
obdél
##rip
většině
rostoucí
podnikatel
Ameri
##ague
##itor
intenzi
##ppe
bojů
##burgu
Jer
tlu
večer
šť
Vznik
aktivity
dolní
organizaci
Pin
Daniel
spolupráce
##AF
slab
í
tvrdí
poskytuje
sloučen
##ňoval
Jeden
menších
mom
##naj
sak
##lomet
87
1896
dostalo
ročně
Ť
sav
architekton
Vlá
zavá
miliony
leto
Fir
vle
##inové
Kir
překva
##dž
revoluci
Lam
##hned
problem
##něním
##jo
##rován
codice
federace
Bratislavě
##via
153
Vojtě
##EN
polí
šampionátu
##berka
zvýšení
92
pojem
datum
1891
Mnoho
##ovicích
formy
index
##sten
mini
##átory
pahorkat
umělecké
##bon
##ovaném
Milan
kW
bibli
Bet
aplikace
##štěna
přenes
##sili
##ture
Často
bra
dokončení
96
prvo
78
směr
náleží
Kanad
novinář
##stin
ovlád
těsně
Henry
zakáz
stavbě
podstatě
Západní
##mund
rozhra
UK
##leny
tep
Rue
přehra
vidi
##grafie
sbírky
vysílání
Wolf
dvojice
Velký
zatčen
slovenské
Sara
##rn
##tář
neprav
##leno
##sona
Sci
##vosti
odhal
jedinou
art
1903
příprav
umístěn
##řím
##inů
gól
tratí
zahájil
##loru
světla
vystoupení
námořní
##grafií
znaky
Francis
knihovny
Důvod
vystří
Dvo
vstřelil
##lod
##žku
hab
Někdy
složil
letecké
milionu
##ovitých
vývoji
1895
obslu
zabývá
smrtí
##ovského
ada
sochy
Blan
čtr
pilot
výsad
##hm
Mel
dalšího
hodnosti
událostí
asp
poně
##znak
vybavení
1890
vyšel
italské
03
Nachal
stránkách
vysokých
Rock
04
Arno
mostu
hodnocení
Walter
hodnot
rak
demon
rekonstrukce
we
boku
mý
Čas
modelu
##cia
##erní
akademii
prý
významný
nás
sdí
infek
nejdůležitější
tramvaj
1902
věcí
radik
Alp
prototyp
##vent
cíle
obli
Gr
všem
zahrady
studiové
devět
námořnictva
konal
School
##ske
desky
meziná
postavil
##ždí
závislosti
předlo
Rot
opa
komor
obý
##vilo
Jejím
věnovat
poslancem
vojsk
##ake
Ladislav
jez
umístění
českou
##čík
##ovol
zaměřen
tvá
##razit
##rovým
financ
zřízení
Anti
průzkum
standard
ředitele
Kolem
zajat
těžké
světovou
zastře
odvol
##rka
##row
Průměr
Tal
Zla
vyvinut
Blo
vyk
Nejstar
##matu
Sněmovny
##sau
úro
turnaji
mó
Zemi
vozu
Společně
přestěhoval
redu
mlé
zahy
##organi
nekon
členě
nemají
rozhodla
Ludvík
zbytky
pražského
##lemen
Zim
sídli
plavid
Ali
proudu
##bil
Martina
Jes
jihovýchodní
##lovat
uvaž
uspořád
ť
Lho
výzdob
##pech
1870
půdory
Stavba
světového
1898
Dějiny
instal
Rev
##olfa
Un
Bit
##vajících
##df
Leon
čtvrté
##ring
##inami
dosáhnout
##vkou
##znání
Royal
názor
Skot
vrchu
##mán
takz
umělců
##tat
nejmlad
##líč
přil
Chrá
##zon
účely
sklon
filmové
Dal
příspě
##lini
142
školní
ostatními
začne
jediné
spolek
pó
##šího
1885
horo
##kazují
##ius
143
hodnotu
##ea
##tení
katastru
##slavi
##stilo
##omy
dějiny
ekonomické
##íc
fra
středně
##eral
svaté
usil
Krátce
pochop
##avá
##hují
##win
##evra
vyš
letouny
Jor
vlastního
02
##entem
prospěch
oznámil
Samot
##cyklop
Ostrava
##OR
##stém
původním
proslu
telefon
předsedy
Gil
povíd
nejdříve
Smit
noviny
##xid
tvrd
pravé
trasa
##vědom
buněk
rakouské
jezero
Zí
záření
##čice
##rické
čtvrtfinále
řekl
Stře
severovýchodně
##álové
každého
##antní
blízko
srdce
dohod
linka
Kolí
stromy
vyvol
Navíc
letounu
šach
mobil
##vanáct
založili
Archi
ulo
##ávání
celým
matky
napro
Zákon
##řích
89
##tvr
kandidát
vydáno
Českých
sal
##láves
##fur
čtyřech
vydavatelství
třiná
filmech
##jednodu
historik
##tle
týden
##vedl
##fo
Sprá
##rovala
##rování
Albrech
samosprá
debutoval
hmotnosti
miner
status
napl
bitvy
Ačkoliv
##mění
vedou
Deutsch
Sho
texty
zahrn
klasické
##želi
1899
Music
objevují
##nět
##stné
##cembur
##tero
míry
Mark
jazyky
zpráva
Press
League
sňat
látek
Hos
rozvod
police
průmyslov
79
zub
##ohou
Vlt
##ativ
Top
deva
ptáků
##oce
##érů
Mary
portugal
##šín
Alf
bílá
skot
schopnosti
úspěchu
Cat
##mout
Ac
##enské
okna
spojen
objektů
137
Tý
strý
básník
přítel
katolické
##aga
##šav
střet
Micro
Vlast
muslim
##lépe
##haus
Studoval
gymnáziu
egypt
##vanác
advo
##oruje
##šený
##board
##hách
Napole
Nového
ostrovů
vyví
zdraví
společné
##kův
Prov
regionální
##rátil
nece
##dam
##bude
##úto
niž
kněz
konc
lesy
německá
136
zho
majet
dou
06
83
dokončena
##kalo
stadionu
sur
vojsko
##ratislav
mezinárodních
přile
Druhý
publikoval
149
teoret
Indie
##dape
typů
ang
##vaného
presby
rovno
obsadil
All
milo
týmů
podla
##ací
gru
vrátila
ohra
Ron
medicí
nepoda
dosáhla
97
##knutí
Hrad
Kore
ramen
Lev
uspořádání
##endá
oči
svojí
válek
Slovenské
konkuren
Bohem
italský
CH
spadá
doba
Lig
##inského
vodních
Jindřicha
##áci
Rovně
##EC
bel
nápis
kostelem
inženýr
1867
Číně
silné
08
ska
##niny
ruko
vydána
##hové
Lor
růž
##anech
deska
##ářů
145
jihovýchodně
Přemy
válku
mistrů
ČSSD
Habsbur
Lat
Chic
show
Austrálii
anglického
chlad
##zovala
opevnění
existenci
pevnost
podd
bla
syny
Chan
Rovněž
přeru
sebevra
##byl
aku
##amin
##heim
##zání
93
paláce
studentů
přestože
mis
státních
pojetí
##asa
Pě
##tečné
Zo
128
700
značky
průčelí
hmotnost
Mur
##sket
silniční
##gue
##vez
přestup
etap
hřeben
kláves
náměst
přírod
##těž
Joseph
hníz
##dace
vrací
Es
##zdory
filmy
Svobod
##žď
tero
účasti
napoj
skvr
Byly
celku
překlad
chro
##zín
134
##řazení
##lom
Sva
ženou
Římskokatolická
UE
##átorů
##itá
zasa
Marké
Místo
pohřben
##ůl
98
konzervato
mládeže
považuje
##ars
Bad
okamži
Patří
muzik
spon
##chý
vysokoškol
Část
stránky
analy
##cadem
úroveň
##aným
Cast
měsíc
##odu
malou
museli
zálo
##žný
Mala
Austrálie
krajiny
schvá
dráhu
Kamen
posádky
Japonsku
Rol
Rá
Lau
##poli
Christi
sul
koment
##sey
##ovanými
Johann
chorvat
##cest
možností
rozhraní
kmene
pobytu
##IC
##roni
##ition
Pau
##jením
osobností
tane
##ografie
nastup
schopen
zpro
hovoří
net
##růst
těm
Číny
Phili
vrátit
##sař
##štích
Elekt
masi
Nepom
ochran
##loup
ident
zani
rozli
běžné
cestou
každoročně
##rey
##ovaně
Olomouc
Pís
jakožto
##kod
##elt
##toři
##enského
sestra
kariéře
dokončil
páry
Staré
Není
##ruhé
grand
ministrem
dvanác
##pozor
samo
fanou
poče
magnet
##sků
dobr
##cus
vyná
##ebrej
Organi
zelené
setrval
otro
životního
138
nit
probíh
vojenského
důvě
##ávat
vnu
Škoda
01
vojenskou
##kvi
schů
zařazen
kontrolu
Pas
počítače
##hý
ali
taktéž
prim
konala
narodila
Speci
oslav
pevnosti
zastoup
léka
th
hodnota
Pho
nazna
školství
##ktem
Bavor
guver
dvouhře
letní
lidmi
Jedním
touto
Rusko
##iz
umístěny
##mod
intera
vynika
Štěpán
samice
stati
stejného
vozidla
##klon
##ration
aktivit
##mati
diag
##ow
poe
obyt
vul
lidi
tvrz
průvod
##čany
invest
nejlepších
##RO
dává
ateli
národním
Židé
chráněn
Pam
##řazena
Třebí
obrat
rozkládá
Johna
pískov
##kry
zálivu
##stri
úpravy
human
používal
HC
##óna
Několi
##mile
atlet
paramet
dosavadní
bývalá
pas
lépe
závody
letounů
vit
článek
Ludvíka
Cou
nas
pádu
Nejstarší
ir
##vále
zemědělské
##rnu
Já
##érem
Nat
pohře
horách
eli
názvy
odpor
získání
American
pocházejí
hospodářství
##udíž
pošt
alkoho
přišla
Dle
College
vrtul
##eda
##pará
##rátor
##racoval
hospodářské
Ala
1873
dlouhodobě
samotné
jihozápadně
lesa
formou
palu
iDNES
##trém
katastrálního
##afr
vysoce
Mikuláš
jezer
##nia
rol
vesmír
používán
tax
výška
##ago
##škod
tvorbu
nen
údaje
##bul
poškození
pronásled
dvacet
##ratší
Tehdy
naj
vodě
obětí
Jmé
výši
pohř
Slovensko
##és
##žnost
AS
##enátu
dut
pozůstat
krize
výsledkem
devíti
štá
úřady
Česko
obsahující
osobnosti
vd
House
Slunce
kartu
Tři
##telných
##gs
##ME
##ovna
##mek
##alizace
navštěv
exped
armádou
následujícím
nedá
##kos
Území
##zn
obo
černé
odborné
založeno
založené
jezu
vymě
Právě
##éry
architektu
##ardy
drží
tisíci
pravidla
židovského
článku
Flori
užívá
Palest
absolut
EP
##ther
##noucí
omezení
##odár
porov
vlák
##formace
přímě
mistra
vládou
odpad
ztrat
pdf
jsme
přítok
vozidel
sloužila
##ádě
plod
oběma
dráha
svobody
soustavy
veřejných
##lému
Sat
UEFA
kámen
tábora
červené
Arab
nejvýše
hasi
směř
nesmí
##řských
kalendá
nejvyšším
pracovala
odha
Institu
městského
##AP
##lera
vybojoval
mono
Květy
dvanáct
vědecké
zahájena
##IV
českým
konkrétní
##cin
starších
##tání
zvítě
letadel
Národním
Ov
##romady
Del
olomou
akcí
oceánu
výstavy
##hlou
Tar
prázd
##odo
##over
válkou
desetiletí
##zet
voli
Sw
Atlan
Im
mateř
vytrval
službu
zlatou
lidem
139
##štejn
Proti
##dení
##lévá
##stran
IP
##mito
Isa
Zají
neho
pověřen
nemoci
##ane
Hora
Lich
dojde
##VD
lito
##kin
##žby
##morav
##stika
psal
socialist
definitivně
##IN
firem
nemusí
Prince
jádra
číslem
Okres
literatuře
1889
##icát
provdala
prostory
##emp
con
spojuje
zaří
##éma
Anny
zájmu
hudebních
OSN
Bak
Pob
Sav
nikdo
flo
Důvodem
účet
působila
##así
##šlení
Druhá
##noj
##field
přednost
##avé
Ig
##rovice
Ká
sdě
##vii
Sý
##míra
namí
Green
ihned
založená
stála
##řít
##tef
zr
Podobně
zapojil
vlastních
##iru
##isla
##zenou
ČT
##teře
elektrické
svrch
Naopak
##chaj
doh
trolej
zkušenosti
##nica
Club
mnohé
navazuje
britského
†
problémů
##tín
popsal
přizpůsob
označením
##čkami
teploty
astronom
Sun
Adolf
ul
1861
dolů
Budape
Vysoké
funkcion
##wor
ať
zápasu
Jugosláv
používání
##zovány
místního
1869
##irtu
plast
někdejší
přiná
trvá
Res
výsledek
1500
Kniha
##řele
chlu
Bir
slad
drobné
##uj
anglické
navštívil
chyb
podoby
List
zabit
tvořili
##štěno
nacion
referen
Bus
příjem
lidských
parlamentních
##lev
velitelem
##jet
nalézt
doslova
Kru
##hala
svahu
bych
Jméno
##ologických
Dy
1893
veřejně
manže
146
metru
ztrati
oblíben
##ras
Jelikož
##něného
zástupci
94
##eckého
Nejprve
knížete
##RA
vik
##terie
konečně
mistrem
oxi
##činou
žádná
fol
##jice
##áč
ženské
Tuto
hejt
jaký
nebude
07
person
##ID
chal
##lami
obránce
kandidoval
kulturních
stupeň
opatření
##stají
Athé
pohlaví
##telu
překá
doložen
americkém
##IA
##šená
Spo
potí
plynu
Jednot
##sche
##ality
dílů
medi
žele
baz
##pisů
trojú
každém
##tet
##celon
##ózy
recen
pocházející
123
tudíž
spat
děkan
subje
změnil
Pic
news
rezign
##listů
meta
vojenských
##ladu
králi
##eck
Bran
vést
přidě
Eduard
Říma
Som
spekt
ref
vice
planety
afr
Pon
sítí
tradici
severozápadně
spa
1871
Slovin
vyšších
zajišťuje
##ters
##stán
##ádal
##arem
##gace
hum
knížectví
učin
##sia
##unk
##ůraz
dostupné
prostředků
kaza
léči
hudba
##včí
##ženou
galerie
##zii
poněkud
##slan
Ama
##šského
Plzni
upozor
zod
rychlostí
##yer
čtyřhře
AC
##tala
nejlépe
Moskvě
nejmen
nikoliv
řidi
snímek
ztráty
##ůh
Vyu
odmě
tažení
Projekt
funguje
náboženské
podez
ato
okr
čtená
začátkem
##tic
Europe
seni
Í
##dují
biskupem
civili
bru
větve
##něji
státního
Ital
fre
motorem
vzdálenost
##tah
1892
zdůraz
##vojem
1872
kněž
spisovatele
Lá
ukazuje
kvalifikace
Cro
podporuje
##želo
snížení
Kel
##členě
122
Jar
##rována
vlastně
Teprve
producent
##ovému
nechá
extrém
kombin
farní
nepodařilo
1878
metal
Group
disku
okamžitě
Jas
bázi
sněm
administrativní
##stitut
mladých
148
jazyce
neustále
hodnost
ustav
##stad
výbu
##boře
##natý
detek
##yl
mistr
světlo
matkou
##ologický
sousedí
Mast
Tich
Boleslav
1880
##otball
video
sovětské
##ína
##těl
##ream
vyrábí
##svě
##poru
hokeji
voz
##ňka
nejlepším
##ła
Gö
připo
party
Cas
vztahů
##znamy
char
vydán
1883
pražském
koná
teplota
tratě
televizi
římských
##itý
člu
Land
rozhla
zhor
univerzit
MH
obrazů
ber
##edikt
Hradci
stejnou
##ovává
Rů
bur
##počtu
sestry
dáv
vojáci
##hrob
##inací
příkaz
pohár
Ang
zaúto
počtem
zad
##ors
##stávají
Svou
ačkoliv
##ovatelem
výstavby
Neu
##fikov
začleně
PS
motorů
výstavbu
působící
##zetí
schvál
postoupil
biskupa
zaměstná
obyvatelstvo
##ovny
Pit
motiv
##phy
##nicky
##natých
řetěz
61
Tepli
inteli
podmínkách
##niky
neus
##ies
##lovi
koní
jediná
Antonína
TJ
##kační
Vr
podobný
Petro
dřev
hli
zříd
bezpečnosti
Lom
vzpomín
##čané
cizí
stu
Orli
okraj
firmou
rozsahu
měsících
##tru
islám
generála
##TS
bohy
čemu
zřízena
##sali
##kovými
##kul
##ravy
144
##islava
ný
rodinou
mlýn
proč
přijetí
jedni
měk
##žních
Vídně
fanta
anglickém
##fic
Academ
prefek
##cht
##jili
hmo
##šuje
Nob
guverné
##ovská
##ings
trag
Mandát
připojil
##ves
132
##čej
Té
ubyt
veškeré
premiéra
samoz
##ode
##ON
##tos
##ranu
pád
peněz
##ádu
##lených
sezony
takový
##MA
##cer
1879
rozvíje
imu
pav
Kaž
Harry
každá
starých
Jablon
rozvoje
manaž
výběr
zahrad
dán
##čených
komory
souvise
##tiny
bři
Vít
##íme
##rika
##tur
##livý
##čnost
Cham
zdrojem
##broj
jisté
shod
Janem
##řazeny
ekolog
Nejvý
sídla
Mé
##hard
127
##ovále
##nající
trůnu
výstavba
přispí
startu
grandsla
##naje
##torů
##ničním
Enter
konfliktu
##schop
Franz
uváděn
emig
105
##ovacím
Schwar
konver
instituce
##mut
Vš
##osle
řadou
Nep
##ów
Viet
dovol
protest
konference
##žice
zre
##hledně
dělost
kompon
Středoče
veřejnost
celek
počest
##ovec
východu
Pel
zvaný
nacházela
Kut
průmyslové
Gor
rekonstrukci
##ald
nemohl
Španělsku
kongres
komunálních
Klu
##tz
##áků
Vlad
Litomě
Poslanecké
1894
##řského
zajetí
##vého
Olympi
figu
zimě
##čování
producen
zrušena
ploše
Albert
system
Gam
územní
daň
Poly
osud
##teb
##hléd
režiséra
peč
belg
celosvět
kvalit
vysvěcen
##tain
Cra
Roman
sval
##štní
prodal
týdnů
trium
vlasti
##mavě
vají
mou
nevý
publik
SN
změn
příklad
##stěhoval
procent
spojené
##kow
##pání
France
prakti
##ždu
rozvoji
jazz
Čechy
fotbalista
•
červen
historicky
##etro
štít
změnu
plemen
všechna
Židů
bratři
zbý
##vyslan
Ši
geomet
návrat
objedná
##eng
úva
nezbyt
##nt
odvá
vápen
##illy
Otak
listu
1884
obrazu
United
posunu
Bene
Chal
##álka
Fla
přemí
presti
pořádá
reakci
Frý
spojenec
koncentra
křesťanství
kuchy
provádí
Santa
byzant
Whi
reží
občanů
městských
DNA
##vůj
##tonu
míře
termin
jakou
##ovců
Severo
světových
##nostmi
zálož
cer
##bližší
politice
uká
světle
zlatých
##pin
Lucembur
koně
dostane
renesanční
zvě
orien
##KO
dres
zpěvačka
1888
##rok
##stější
odvozen
železnice
##torem
pokusil
částech
architekta
Há
Ša
ově
Cílem
objevily
zvíře
##dae
Ray
##jských
vůdce
hoře
zábav
kurii
##óza
formá
Příklad
##alé
adap
##dalo
Obje
Profes
Ur
neroz
církvi
otevření
mistry
kyslí
Východní
vystupuje
Československo
##mrt
předměty
záhy
Nes
děje
opustit
pozorování
##rům
půdě
cyklu
infra
High
vlaky
Slovan
městská
Lok
Str
kněze
zemské
struktury
Coun
Kara
extra
Barcelon
městu
Dva
buddh
nějaké
##zatím
sloužit
připojení
poko
##kr
německou
správce
užívání
126
Osman
don
##nějšího
jestli
kompli
svazek
využívají
Konstantin
Sand
##the
Listy
chov
soubo
politického
vlivu
větví
bohoslu
##EL
délku
vstupu
činností
níže
zasedal
Bri
scéná
euro
zlaté
##bergu
Monte
##kovité
Českou
metropo
124
Edward
žádost
zpěv
bankov
útě
Dž
Člen
hodně
##rávně
##zájem
1882
jádro
těmito
zákonem
##sleduje
metoda
Počátkem
ble
##ya
Lis
témže
##omu
XV
srovnání
Tren
McC
aniž
brig
větších
##pus
vyslov
univerzita
Kanadě
sociálně
##sin
rádi
onb
##obili
útočník
Tele
Šlo
Island
rý
vládní
čeho
odpověd
Ox
##uš
##bře
pilí
názory
Barto
Ara
vznikají
výstavbě
kapacitou
hebrej
češtině
Dos
podpory
##růz
amat
asociace
prošel
zavedení
psaní
aktivně
##vaným
stranou
obchody
školách
Son
opo
fe
zlato
##leva
nám
Čty
##louho
představen
##ED
trestu
pokračování
záva
fo
modu
přímé
tepel
pojmenována
##inám
Hali
rozšiř
soudní
produkci
objeví
polici
Muzeum
##plat
##vant
Ker
##osledy
slovan
obyvatele
stejnojmenné
bio
národních
zpří
údaj
Sab
levé
mláď
obřad
sráž
##zovaný
informační
##TV
pur
financí
proběhlo
generální
133
negativní
Fun
muzeu
známých
It
uc
##cher
##komuni
skutečnost
##iera
fasá
ujal
pravoslav
##cová
výrobce
znamenalo
##hlu
barvu
ČSA
##ujícího
##tilo
okolních
zře
znaku
rozmno
jedinců
hudbě
článků
minul
Nikola
Opa
Indii
asistent
naše
kardin
pokračovala
##letá
Bohus
pomalu
Leopold
##rence
poznat
zaměstnanců
londý
Cer
##ensis
stane
Polsko
##hoře
##soft
Zby
papeže
Sám
verzí
##NO
Sáz
přep
proměn
fik
1868
Janu
hled
původem
Ana
nosi
Dvořá
Brod
matur
##nském
závodů
Sovětského
##ož
##tie
Mladá
dostatečně
ap
hojně
##ira
Sr
Vas
členkou
##vič
##paně
Cre
dvanácti
osu
##hráli
##nutím
údol
Smith
kanál
fotografií
mise
##dobor
##stánu
dispon
úrovně
posledního
>
Prix
domní
##telé
indu
ruský
nebezpečí
##chest
modi
překladatel
##ávají
spravedl
velvyslan
Jim
vyhra
Narodila
časem
plocha
sexuální
##sech
kolej
kulomet
čtyřmi
##sáno
pry
poměr
Akademie
qu
provedl
rakov
hřiště
##bru
dokáže
politika
##druž
geograf
samostatně
##činu
147
jimi
veřejného
politickou
spada
##atické
nemocnici
Kö
Mes
bro
Vino
scény
zahrál
komunikaci
##ějším
Gabri
##sazen
nahrazen
Ral
přichází
##zvlá
vyplý
tisíce
místním
##kují
seminá
Feli
plyn
nedokon
Svůj
dala
olej
píše
konzu
##nel
BBC
správě
dot
nerv
Několik
věží
histori
zabýval
Šu
Alois
iniciati
politiku
vytvořila
1886
##kaly
##ques
šel
odv
váp
1881
Sym
vzal
Avšak
kapel
úspěšné
##sis
tvořily
Lar
Mis
tok
##vec
PC
##lují
Glo
##šeny
Theod
ženatý
##ceg
##áním
Síd
##rover
##gg
druho
předmětem
##dlí
##edon
službě
textil
hosti
krajin
počasí
Postupně
nádrže
##fel
##jas
Lond
dělostřele
Kas
materiálů
sví
1887
Budějovice
##itů
odě
označil
anebo
##ovníků
dvaceti
letectva
domác
kamará
pamětní
starého
CS
dohromady
husto
hřbet
zimní
umístil
Stanislav
jar
Otto
##rný
##skij
budovu
propad
hard
Absol
chybě
pořadu
115
vzhled
dé
labora
Sí
Vala
volný
Gala
Fakul
##pověd
napá
Španělska
představují
##řství
robo
##iku
Gott
##cházet
Marii
Může
##istory
vévody
109
́
##edia
##denci
nijak
zemských
Alexandra
požadavky
##hur
##sit
71
##ářské
stavbou
lesů
odvod
žádnou
věc
následujícího
Ö
užit
Rož
Sky
Hud
##kovic
Ofici
off
zanikla
##col
##nala
##istických
Rý
transport
zvané
##ota
System
##helní
Malá
povolení
##ET
##rovaný
dokud
vybudována
ga
symp
změna
oficiálním
osvobození
##rub
##taf
pokles
dostali
af
lesích
manželem
Kro
Oby
atra
nest
smíšen
výsledků
Friedrich
fotbalové
##omen
hlavu
komik
zjistí
věži
označován
Kláš
##ladatel
Exp
Ruské
kontakt
barva
dobrod
Ostravě
královny
##elo
řecké
jednozna
výra
dosažení
rozdělena
pohra
rozpadu
Mars
fond
radio
výhra
Wilhel
nedošlo
japonské
##daci
Led
Krista
ohledu
zhotov
případů
okolní
She
##stající
##yd
denně
zkratka
nástupce
prodloužení
##enský
##pie
##zilo
patře
zámec
souladu
##akt
kant
vojáky
články
spá
anim
banky
podří
sbírka
##UT
Kav
Pohá
Mikulá
zdá
končet
soukromé
Ačkoli
##pany
lody
tituly
natolik
##mum
otci
osoba
předměstí
#
129
Budova
##stavba
apošto
zvířata
Komunistické
Maj
kles
paměť
##US
Wer
typické
třikrát
##zce
stříbrnou
pluku
uznání
nástrojů
výkonem
žili
Ondřej
výskyt
charakteru
##ktorem
Izraele
domo
setkal
##agem
##con
výslov
motivy
postupu
Sá
Koš
##ovina
sekre
Američan
##hany
##ül
autora
povále
kandidá
##brž
hráčem
poměru
##mis
Ori
vzoru
Alexandr
##sáti
Místní
způsoby
záko
stáří
izol
##ier
tvořena
výzbroj
jednoduché
přítomnosti
trav
místnosti
Nit
pomohl
AP
Had
basket
přírodních
##ánek
nýbrž
##resi
##well
##žkou
##now
Alber
Nepomu
Hlu
Victor
ruského
##lilo
##lený
pit
nikoli
Zik
ská
##istická
dohody
##xie
##entální
způsobu
pozdějších
Fridrich
nebezpeč
bas
##ruje
dobách
desítky
brány
otázky
##bri
kyseliny
vojenský
nedostatek
titulů
pokračovat
brazil
nacist
##hradu
mytolog
##hoří
Dům
obnovení
Stří
snímku
##GB
Que
demokracie
##can
##letou
stará
středisko
mužské
Pot
použil
předčas
městeč
geomorf
utkáních
tlaku
obecní
šedesátých
##chat
církví
prezen
##mentální
španělské
##ovacího
velitele
##tav
jinou
zaznamenal
##tara
##álech
kratší
##serv
překro
##mid
##štinu
Kříž
rekor
stříd
čemuž
záležitosti
##hvě
rake
Čín
důraz
Jugoslávie
historického
Sha
výpravy
##bie
Zač
##ňa
##lana
vrstvy
rozšířil
Vzni
termí
##řská
##šský
nímž
péči
červená
##áky
samostatnou
##zak
Lob
Existují
osam
zkuše
náhradní
pes
##zvu
##silo
##gorit
odvět
Hill
zákony
##kovém
1866
rodů
with
hrají
římskokatolický
obvyk
spočívá
pravém
císařem
zkoušky
##uli
obran
smlouva
##cept
Velmi
publici
##cyklopedie
##hei
tříd
Luž
dosti
důležitou
##šeno
kmeny
kapitán
kytarista
Ren
učil
křídlo
Historie
německém
rozhodne
##gas
##tají
Mem
tisku
bronzovou
##ser
Mir
scená
Příbra
market
manžela
Mau
minutě
Microsoft
zůstalo
principu
seznámil
zajistit
víc
chlo
obhaj
nepat
fakultu
81
zmen
tehdejšího
dojít
technologií
##zováno
profesora
sly
ačkoli
inscena
##čenou
bli
kolonie
Jel
##lodní
clan
požáru
pronik
desítek
nacházel
##odr
jasné
Got
Ran
##ome
patri
francouzská
##wan
Kř
normali
tvrzení
Jakuba
Lot
kněží
mladí
Wh
konaly
114
vyme
předchozích
rumun
klášteře
##rku
dílu
ztratil
##wig
##orum
ruce
Beneš
profil
klid
pěší
všemi
Ferdinanda
oltáře
patřily
hří
##átního
Stanice
Sku
Kraj
pivovar
stromu
nejúspěš
##fej
##lií
##sná
dost
Jaroslava
##rií
centrál
odkaz
silný
Nejlep
reliéf
##venci
dřevo
kyt
##kládají
podruhé
Ostrov
##sová
##istou
mech
výskytu
zales
přeruš
vydané
Filozof
##žiště
úkolem
chybí
obecný
světová
Ryb
vydali
majitelem
Hun
veget
zamil
lokality
způsobuje
úpat
Česk
stěny
zahájení
Brzy
jiná
##ett
##beth
Zvlá
pozadí
Apol
krve
tlak
##čko
Vis
spojující
##dium
argu
Sol
státem
##ánských
noviná
##telnou
mladé
trasy
vedoucím
zahrnují
##érie
Wale
##nus
Wit
ohledně
posto
##istického
##logii
správa
pojmenován
předpokládá
Sar
básní
sezónu
Champion
##UDr
##oboda
ženu
Mezitím
##alis
bulhar
jemu
izraelské
Big
energet
orgány
souvisí
##etové
##illi
krou
růstu
jeskyně
Existuje
armádu
zavraždě
Federálního
ger
oto
získává
archiv
přistá
##ohen
Sur
zisk
Slová
nízké
šíření
přístroj
##žu
112
had
kříže
textů
náhrob
##záno
##níkům
třetího
London
##ženého
dirig
konalo
##non
Nobel
Píseň
operační
dostává
Současně
hudebního
navštěvoval
stavitel
obyvateli
vystoupil
Gold
##nali
Svaté
příběhu
Nu
deko
nádob
uvedeno
poslanců
svoje
##BA
maga
obklop
##cházející
dovo
surov
čínské
##ór
evi
potvrdil
##deme
Zlín
cont
slez
##áni
Oli
##ologického
ona
česko
Love
##gií
představil
Ret
##chova
bale
oblo
##imb
sad
1849
národa
vyskyt
from
ČSR
Šum
vlévá
##dice
##manem
Běle
vedly
válečné
zobrazení
konstrukci
Kad
Produ
nádrž
zániku
Švýcarsku
společenské
##cker
obecné
Pop
##alismu
použity
rozhodnuto
zpe
expozice
Tok
Tol
marš
natočil
##tan
Gol
Rozhod
##vné
UNES
každou
Lang
scéně
jazykem
Australi
Še
##cuje
hokeje
pražských
Zab
stanic
##ön
Zé
Sec
aero
použita
podporoval
Vývoj
##feld
Youn
vidí
##obi
##rovém
##gem
Jud
##loval
102
klo
Pocházel
propuštěn
sídel
mezitím
rody
##kaza
výzb
velení
##tární
díly
brána
lístky
Bol
žila
minimálně
databáze
myšlenky
advok
postavu
bos
Kaple
zasvěcen
##lout
slovník
##rudi
rozhodující
##sání
##ische
Třeb
programy
politický
SA
přin
upad
nadvlá
##leh
Plat
modely
taneční
##linou
##struktu
kontex
monarchie
CO
##sány
DVD
Šim
ztra
manipu
ciz
##bilní
noc
uvěz
##aroděj
Rady
stráž
počá
zachování
KD
##nuta
##čité
##čkem
ozdob
sester
výběru
kritiky
Gran
slep
ková
##gera
sílu
sportu
konkrét
významná
vystupoval
Londýn
##graph
obdržela
skončilo
Kli
naru
ritu
znaků
zákonů
##aux
zóny
Žili
využíván
docházelo
##elů
televizních
1874
nástupu
Fra
amatér
vévoda
přestěhovala
vnitro
zpravodaj
remí
účinky
platfor
Billboard
zakladatele
118
vodo
těžce
zemský
nákladní
úspěchem
##vie
##áno
##řená
Občan
komplexu
Umě
##gro
politická
Play
jmenuje
finančních
##tum
##zové
Hans
Dopra
staršího
nedost
##ogle
společného
##dární
statek
založený
hněd
Street
živočichů
rezignoval
3000
synové
terénu
|
##klu
Post
poří
pohon
umožňují
Sum
Andr
Host
postu
UNESCO
vyhlášení
Fou
Jedna
úprav
hlavou
vesnic
Sin
ulic
třídě
##lalo
nek
pon
Mand
Sel
##ějších
žluté
zůstaly
poznamen
nepou
vzduš
##von
sourozen
devadesátých
##livá
HD
##ching
kultura
patřilo
starosta
skří
hotel
vzdělávací
ša
básně
celostátní
##ian
##rky
Map
lokalitě
ostrovech
##fri
upe
diecé
rozví
##zovaných
##loží
pokrý
stezka
it
1875
úzce
Císař
baž
Troj
pozdně
plány
smysl
literaturu
##dací
rozu
North
Jane
Boj
přístupu
Žď
##rala
##roví
Times
Třída
známým
francouzských
##vené
Brat
##aria
Caro
grav
ochot
ochraně
přeložen
samozřejmě
Urb
Stock
rozmezí
kódu
Stand
raketop
sekce
Vik
##itace
nabídku
formální
navzájem
tradičně
starý
Ježíš
bož
##mky
##nec
XX
ré
opou
##ingham
##stoupily
Londýna
Středozem
pojmenování
##raných
modrá
##nechá
One
dora
kráter
neměla
vyprávě
##clé
dřevěné
vzájemně
##IT
slib
##hrn
not
fen
##grace
pouhých
provozuje
Hum
Ode
Kně
obsazení
##žal
cyklus
pracovi
byto
závisí
##pto
Rok
Znoj
atle
nejv
##vech
##vník
##větu
East
tělesa
##ovitý
##bridge
Divadlo
formálně
samotného
královského
půj
kořeny
obranu
funkční
češtiny
angličtiny
##wo
jezdí
likvi
trase
šestnáct
webu
důkaz
103
zločin
demokratické
##ectví
bílý
Mnichově
##čnosti
jejímu
filmový
polovina
350
Soj
Hory
protestant
kin
Celý
novém
Kot
pásu
zjednodu
##ckými
Mach
vládl
##cený
Muse
radnice
územně
Pardubice
úsil
uskutečnil
glob
##ations
skalní
samostatný
navrh
##éria
opakovaně
Ministerstvo
Ostat
nějaký
komunistické
Giovan
otevřené
přidal
vyšetř
104
##oba
Úč
##něnou
čehož
varianty
válečných
západu
úspěšný
zastupitelstva
miliard
##poví
##stný
kdysi
XII
Irá
Vit
Company
##ež
kul
vádí
organis
významně
kav
ocit
Herceg
zanech
přístavu
výtvarných
podzemní
drah
koři
štaf
takových
vydě
úpatí
neúspěšně
##dne
##šovice
Vesel
rodičů
Christo
samostatná
##tisk
ČSL
1860
Závod
Nejvíce
osmdesátých
SR
donu
hitpará
pozitivní
##ČR
##íku
##vádí
vyznání
vyžaduje
provedena
schodiště
klavír
virtu
palubě
Zpočátku
##esa
##vory
dok
žlá
zodpověd
SC
##decké
##rační
Mongol
odvětví
okresní
sup
Polit
německým
kompletní
vysla
Spart
##nalosti
katolíků
Aktu
bite
##DA
myšlení
rozhled
beze
Maďarsku
konzervativní
Hall
Nyní
doved
##och
Vů
##slení
amb
černý
rodinu
zabezpe
##FC
##jka
Luká
hvězda
následné
sousední
skladatele
standardní
soch
lokální
zásadní
##ujeme
1876
Klášter
oddíl
převlá
algorit
kamenné
rybníka
##sii
##ředu
Jedin
##rij
psát
Městě
předmětů
zpřístup
##dav
Ó
černá
GP
zneu
genet
poslu
podání
Michaela
redaktor
zajištění
##šan
velkém
latinsky
##plav
rez
bodem
jedenáct
internetu
Lee
natáčení
zlepšení
italského
dokáz
letních
##zán
Roberta
##zny
##burk
##bírá
##ovič
pest
volebních
1863
plody
Roky
##OH
Jí
druhem
rekrea
malého
projektů
odboj
rád
##toval
Dalšími
učitele
Zam
Hi
Och
sedi
malby
synago
##šů
magist
přišli
Program
lokomotivy
Ple
Baro
Gale
dráze
četné
dvouhry
nezávislosti
srá
fondu
vyřad
Velkou
rozhodli
##řic
Dříve
skrze
domorod
otc
porážce
##ffe
Ai
##řitel
Chem
Benát
Pierre
##gio
##nská
##loha
##icátých
zastávka
výjimečně
Domin
ministerstvo
##inger
provi
##ckey
900
čistě
proboj
poddruh
##luk
Part
108
Virg
objemu
polský
hospoda
##TC
přimě
jihozápadní
##běžně
Ober
##dle
Německé
prezent
zápis
##ges
Henri
Účast
zasedání
oz
sá
zvy
určené
příkladem
los
certi
sporu
sedmdesátých
tká
papr
neděli
uzavření
##lená
##ournal
úspěchy
##nesl
Mid
vlny
režim
majitele
pocházel
nepravidel
spory
poslal
##zec
hoř
polského
White
kolon
princ
##ube
##lací
Are
šťast
pokr
##mber
bezpe
fotbale
patřili
zaměstnání
zabi
Jihomorav
odjel
odborných
zelen
go
2020
koord
mechani
##hyl
##nky
hradě
bezpečnostní
##zkum
Dun
sběra
Hude
##pří
člena
##hony
izo
Obyvatel
polovinu
##mani
##matické
civilní
##cový
Hot
byt
##kazem
čtvrtý
znakem
##aki
kvality
vazby
zbraň
útoky
vlastností
Kri
boční
převzala
##tist
Kaza
Freder
pramenů
est
Brus
Vald
##bral
##parte
##hlý
přesíd
##vám
Celá
Davida
nejmladší
postaveny
##zela
Just
lyža
slohu
terén
obecná
ohrani
Řek
tvorba
pramení
Center
občanství
paní
nejrůz
Gener
Napoleon
brněnské
osobních
oken
Mnichov
##ison
Strana
hypoté
orienta
<
113
wor
dobý
základem
hl
App
královna
Alexander
torpédobor
##rála
##irurg
##české
hlub
devat
patřící
##lině
uvědom
nález
širší
Jednou
projekty
vědeckých
poc
##čková
bakteri
choro
vzrost
##ray
reform
provincií
přítomnost
skry
##nej
podvo
okupace
##ovaní
učeb
hostování
##áru
##novi
novo
městskou
202
Paris
bojoval
intelig
devatená
univerzitu
nebe
South
zahrada
##čat
důl
přestá
označují
povod
omezen
namísto
skladba
nohy
bělo
linii
fanouš
značka
postaveno
slavnostně
Off
prohrál
restaurace
Syd
dekla
##mentů
raše
Bab
víry
účastní
studiích
Zas
vypuknutí
##erto
##sz
##stupu
Círk
Gustav
paliva
živnosti
gólů
nařízení
##lali
##vival
zvyšuje
##OL
vyjádření
software
náč
rockové
obnovena
##sea
##bury
prameny
##dera
Ful
šlechtic
křesťanské
uzlů
gay
##organ
Associ
nálezy
Labe
##idů
právník
třicetileté
##hyb
##žnější
prohlí
františ
##dor
##stát
106
Hart
příznak
pěstování
##čed
##lome
Cur
slovy
119
levém
Důležit
pozůstatky
socialistické
##štěné
posil
kombinaci
##élka
botan
trofej
kvalitní
##řeno
##řan
linek
Chrudi
plic
synov
zmoc
mysli
Belgie
mistrov
větším
úprava
institucí
považovat
##cast
síla
podeps
nějakou
Mikuláše
používány
prvek
Sti
rozk
##cími
energii
NASA
Pražské
určitou
##metrů
Bart
repor
kanceláře
příslušných
severozápadní
údrž
řeku
Franç
závodech
nalézá
##ňské
##řený
Nar
Wat
dar
ošet
usad
malíře
##vest
svědčí
továrny
kvalifika
slí
cestujících
kvar
litu
IC
##šenou
krátký
Pekingu
židovských
tribu
stávající
náhod
získaly
oznámila
Hospod
autoři
nastal
teče
##cházela
neznám
starostou
pravidelné
Hil
firmu
vzduch
libovol
Las
svr
##AL
##vize
zkráceně
hlíd
mladý
stránce
##ceny
##čující
pozemky
vůd
Každá
známa
památkou
záme
cykli
exemp
motocyk
potřebu
dlouhých
středních
Web
Svatý
##týr
nepod
udělil
Oh
Zúčast
výškou
##zident
páté
služba
úst
1864
##stojní
dítěte
umělci
poví
desát
miliónů
##asy
jednat
znázor
Jihlava
bronzové
povolání
zastoupení
plné
expan
mořem
proh
držel
jazycích
##év
váze
krátkou
moderních
##foli
bav
Oproti
Bá
##rána
evolu
poutní
dostaly
restaura
používané
##upi
angažmá
domácím
dvojnásob
prohlášení
akt
horiz
výšku
manažer
studenty
mete
prosto
Lze
podstatně
##inku
Egypta
turistická
Foto
Skal
přená
Oldřich
##ýr
91
Ec
##sové
deníku
triumf
věnovala
Podě
Tábor
ostro
vytvořena
##DR
##burku
Němců
lásky
katastrální
Kre
emi
přetr
kvalifik
##rick
Lew
zprávu
Maxmili
Augu
mozku
Univerzitě
seg
##ij
##vatelem
velením
institutu
liga
##žnosti
Czech
tabulka
zásluhy
Začí
vyú
princip
IT
bloku
čtvrť
sídliště
přízemí
velkostat
Veřej
stale
##skupení
Kateřina
##ečné
Lie
jít
Song
##álnímu
##rův
Smí
místy
##mace
Letních
##ium
Dod
alternativní
vytváření
vyznamenání
koruny
široce
##mach
doč
##rovu
Carl
umělec
zachoval
##nička
##zivní
hust
##uss
AM
##mové
kulturu
##bat
##tské
odrá
převed
základy
filosofie
##mir
skó
Frankfur
##slech
lese
##enská
Armé
teolog
##muje
detail
ISS
Dráž
feder
Science
##ovek
zpráv
presbytá
oranž
nasazení
liturg
neú
nejsp
plochu
námořnictvo
##char
##grafických
sig
Bost
##desáti
Bystr
dokumentu
Giovanni
Paci
spal
Autorem
mapy
Eng
nejni
##div
##ović
minimální
##oth
Vyt
trpas
Kalifornie
##vaje
1862
Christ
křižní
šlechty
územím
dobrodruž
bohaté
ukončila
##xus
Day
rou
levic
dělení
Lichten
jedince
##cle
nominován
##OVÁ
změnila
ceně
častěji
Vesnice
vzniklé
##zat
##obrat
odporu
paláci
pseudonym
Autor
talent
následek
Kaš
##stiku
spolehli
1877
Brand
pohád
přání
##ňové
##kovský
bitva
okamžiku
uzaví
vyšetřování
soli
jehli
Viléma
proběhl
předchůdce
hlava
##hně
Eman
Ever
USS
neuro
##vány
ráno
Nejznámější
Ach
Stad
bodu
Sydney
turistické
převe
podoba
přeprav
bratran
##aryk
Ovšem
květenství
abe
##graci
##vinul
ráže
exemplá
mezinárodního
Stru
##žívají
stovky
rakousko
##osud
alp
srde
dílech
##spi
Prote
dějinách
Syn
vyjadř
Hradiště
naposledy
##dii
brz
pun
noční
klasic
nižších
vytvářejí
francouzsky
##ux
vytá
Všichni
posádka
zved
sjezd
##nií
int
kub
##lywood
stopy
vyhlášena
##ativně
bakal
svobodu
ČSSR
Zlatý
nejdel
##jmu
Miss
##ňovala
##nder
##ovitá
jenom
sbírek
inte
cestující
potravin
Prostě
Internet
kontrover
vysílá
zmiňuje
##guay
stojící
filmových
boha
fara
kůže
bon
##lování
Cit
Set
Podí
zavě
##jevo
státním
pobřežní
Miloš
vybudování
Jones
vrace
vyučoval
##mož
orgán
průkop
varianta
##lát
držení
poznání
##nín
##měrné
populá
trenérem
##šu
##amu
povinnost
period
Masaryk
##genní
aspx
fili
vzdal
programů
Španělsko
Eva
peru
Ap
##zána
116
Tým
flu
Time
zbud
Poděbra
Černý
divokou
startoval
karty
vydat
Běloru
sněmov
Zajímav
hledání
využívána
prst
zrcad
disciplí
##tiop
##lační
##óz
Systém
vědomí
##bek
věk
dole
odsu
##žije
jakým
úsilí
basketbal
reprezentoval
některá
obsadila
vytvořili
Pur
typicky
Ministerstva
##utů
ši
Kryšto
vyvíje
kategori
americkou
politicky
tzn
zaned
##dám
##imbled
hudebním
Festival
spolkové
Příkladem
videok
vybaven
fotografii
##ženým
kameny
##inka
##rovány
distri
##ologicky
1865
##vodství
klubem
přiblí
senior
obchodních
##zovali
Délka
vybudován
jara
byť
rám
čím
Japonska
Lípa
Eston
udělen
litoměř
dvacátého
##části
použitím
elektrárny
##AT
vym
##ostroví
samotný
uctí
##aven
bol
řeckého
##žují
Marek
CZ
zaují
pokusy
Kalifornii
ztrát
protokolů
##iu
##far
Mk
##škou
bavor
určena
svazích
##zion
absolvování
žít
##čkách
deník
tmavě
zdědil
společný
soukromých
##iki
mand
vrstev
potravy
ca
But
Hop
Marií
využil
široký
dočasně
pravomo
ep
blízké
Wag
##třese
Sala
recep
materiály
##enem
kopce
orgánů
statku
výrobky
##ridu
tole
vyhla
pochod
zelená
kanálu
družstev
zprostřed
řap
Wood
Avivu
##častější
reprodu
Brazílii
vlastnil
reprezentační
Vav
Fren
pozná
podpora
sloužící
kilometry
kampa
##ést
plukov
využívat
Papež
zapom
Vojtěch
památku
odstranění
##ffer
vystřídal
##atiku
kmenů
Francou
##čiště
Maro
modlit
jab
osobně
ochrana
spojena
Dopravní
komunity
zprava
##see
prud
podně
moderního
automobilů
page
##řov
Trans
##itých
operaci
Evropského
Motor
kanclé
tabule
##oden
štábu
##pky
vyvá
chirurg
##metr
časop
##skoslez
vyobra
##rozu
##risty
##sport
Blue
##inus
##jedině
Zad
Karlem
kardinál
příjmení
sloužily
sluneční
živí
hudebník
##hire
Bour
Bitva
sdruž
variant
osobnost
##ave
##zovaná
křídel
římského
rodinné
##říč
prodeje
vrcholem
posu
hrající
##ocy
##ecká
opravdu
zahájila
##ukle
Malý
Matě
jedinci
##kel
##wald
##istka
fó
misi
přijímá
znalosti
Championshi
Kim
Pomo
obklo
portálu
přispěl
##ózní
Life
komo
vydr
řídil
sakristi
rozv
##ugos
##šování
našel
kulturního
##vel
##inová
idnes
bratry
přechází
##stka
##bské
přilé
##tre
Kated
odchy
družstvo
dvoře
povrchem
zastávky
góly
teku
horním
sekund
Sázavou
konferenci
##itori
jasně
působit
dep
atent
##aměst
##lora
Ukrajině
##ght
AV
##ktoru
Slezska
##nickým
přípravě
laborato
fu
judi
pohřbu
rozměry
důstojní
##leji
##tána
Blí
vypo
##rovali
uměleckých
##rs
Zámek
Příběh
##rvu
Mají
dresu
vyčer
Předpo
vítězem
##středního
povinnosti
##chus
Tvr
dodrž
Viz
Zna
ledního
reformy
rozšířena
vlo
Prob
##zeného
libre
odkou
kvalifikaci
osa
Parla
Serge
smlu
firmě
kores
##nějšími
Berlín
požádal
severovýchodní
##cara
dostatek
učitelem
##tyš
##káře
##áček
obsahem
začínal
lidského
##čího
Sez
zápasech
oteví
gymnázia
Tomáše
Celková
koalice
##zeni
převa
univer
##červ
##rovaných
Drážď
urych
připsal
doktorát
severozápadě
##náší
##kostí
vyrost
departe
Heř
dých
homo
generálního
##dum
škod
moment
severovýchodě
Hes
následní
jihovýchodě
##rap
stvo
legisla
##níže
Změ
vynikající
ligu
Kapit
speku
ukrajin
##idy
Černo
##alt
pust
strop
Rudolfa
MP
Pole
Vítě
kapitána
padesátých
Mount
výhod
současný
##listé
spách
čaroděj
117
bada
názoru
zprovoz
##sper
odra
vstoupila
trvala
staletí
RS
Peru
##ontolog
##stek
čili
různá
skoro
Pracoval
Mladé
snaze
mužstva
Young
ostatky
pobýval
##anými
reakcí
##sé
rovnice
symbolem
řazen
podaří
##off
Jag
Knes
##ms
107
Žiž
zkom
trochu
##chel
věr
neop
násilí
nejstarších
##tivním
vynález
projevuje
pta
poklad
převaž
frag
trupu
těmto
pojedná
koncertní
Wo
##átoru
rakety
##ít
##ánská
hyper
##lily
blu
##hradě
daně
vysa
desku
ovoce
turbí
Švédsku
nacházelo
##roub
podlé
Google
publikace
vykonával
kapali
příslušnost
##áda
opad
vodop
přehled
zahynu
zčásti
novější
patnáct
zastavení
##IP
##els
##right
krás
Železniční
##wit
Námě
moz
Simon
předních
##MP
nou
##ragon
NATO
vytla
interiéru
##avý
Kří
Lidé
Zastup
britská
uvedení
poloze
Krum
kard
manu
velkými
God
téže
Moravské
##zdu
Tímto
maximálně
##pha
##inky
dynam
nazývají
##gin
##lok
olympiádě
##bám
##sse
ruských
říd
Otec
Brown
odstart
ukázalo
zahrála
hřbitova
ME
##iner
sbírku
vypráví
lékařství
##ardi
##stor
Gun
Filipa
Nejčastěji
mezinárodním
Obdob
odpovídající
##lese
Wol
konven
předem
jihozápadě
Člán
exter
rozhovoru
vyprac
Muž
exilu
klesá
litev
nevlast
vojenská
##hnou
Sul
Such
drži
dětmi
kontaktu
mezivále
tehdejším
zabít
ukončena
teologie
množstvím
explo
praxe
Kanady
##CH
##chin
##váním
Linu
dorů
mužstvu
##šta
##světější
stejným
dostá
konstrukt
složky
##idní
Nis
desk
mnohdy
nebyli
General
rozdíly
mů
Berg
příběhy
Budapešti
zvítězila
Sna
Dyna
ohledem
králů
požár
abstra
portál
koncerty
##šce
##dku
kanóny
premiér
prozkou
službách
mex
##čnímu
blíže
Floren
trojúhelní
##ect
serveru
Kod
Úřad
limit
Obchod
týkající
Manžel
Obvykle
nejspíše
Ern
skvě
modré
symfon
určení
vstupní
##ois
##opol
pek
##terán
lehce
Psy
Česka
jev
Zahra
Luis
Space
Černé
arcidi
chráněné
##ód
##zef
zprvu
pověst
připis
konflikt
Australian
##kládání
Bedřich
postupem
současného
Břez
zástupcem
##icz
##ume
blok
Reich
životo
podobná
britských
angličtině
Tay
##ology
přípravy
uvedeny
dveře
snaha
Vyskytuje
##BS
něž
Long
televizním
##ovci
svátek
dokumenty
##oty
Sau
ele
abece
zabránit
Virgin
Používá
spod
síti
lékařské
##com
vrátí
zájmy
autobusové
##říčí
křes
vizu
stíhací
dž
výk
##hvězdí
naproti
spojených
předchozího
Hub
zje
kory
##lag
##tová
tvrze
podporou
produkty
drog
měšťan
sjednocení
##lam
##nác
Rem
atom
přenosu
dokončen
střediska
úž
Štýr
táboře
Českém
Koru
okolností
typem
provést
kopí
farář
hotelu
reklam
volebního
Výro
žáků
dozvě
odlišné
##EK
##líků
Mgr
potřebné
Society
západních
koleg
příchodu
##dána
vybudovat
Abra
úřed
známého
republiku
Úst
zamí
Norman
postavou
funkčního
##čků
Rub
centi
přiby
##ugosláv
okraje
vrstva
##itele
opevně
sídlil
družstva
koncepce
##lada
##tují
Doug
Jupi
Čtvr
##kánské
markra
lokomotiv
##šně
cihel
hráli
média
Ludwig
následky
nástupcem
zadr
Bernard
zbarvení
##kle
Hole
##stoupí
gesta
harmon
hledat
kamene
příkop
západního
##mes
##geta
baskyt
teorií
nedostatku
spisovatelů
základny
strukturu
výstavě
digitální
považováno
vydalo
Profil
průtok
signál
patnácti
rozpou
##mond
zvyk
přistavě
rozhlasu
Pad
ileg
##čež
Dig
tox
kibu
výměře
severního
hladiny
paralel
nahrazena
bicí
enzy
duchu
výsledku
##kovo
varhany
nejbližší
##ceno
Haw
1859
Formu
hornin
přijíma
MF
##redak
rovnová
Cru
semena
##LA
stoup
srovná
všechno
začínají
##natá
nimiž
nákup
ostře
daného
Dál
put
Seri
založila
hranicích
##jela
Wen
obu
přešla
simu
Chris
klubů
##vaném
přinesl
Královské
##iat
##kur
pasi
rodném
výrobní
Vysočina
beton
Nejlepší
označována
milion
epizodě
definice
administrati
om
##rovaná
bychom
nazvané
studenti
Jednotlivé
##atom
Ind
für
gro
Stráž
tolik
vysokým
Byst
přítelem
##ink
##prise
dota
taková
Ostatní
Předsed
dopravě
##eg
Gym
Has
celkového
##rice
##pohlav
silou
podvod
Not
##kládal
pěcho
třináct
jednotlivými
##sie
1855
náčelní
Sant
Radio
Brazílie
##24
##uer
##roun
##stění
vylo
vlaků
údolím
párů
pásmo
poezie
částic
městský
expedice
Schwarzen
probíhaly
pracovních
scénáře
##ai
##fil
sol
tabulky
císařství
nejvyššího
vážně
používána
##ářem
zavedl
Cena
vybrán
Jü
emo
FIFA
náboženských
##ure
Gy
##edii
imi
Cupu
County
Získal
pomáhá
používaný
Bö
Dor
##pravo
malým
třicet
Frances
##sor
##árna
miliardy
budoucnosti
##pka
##áka
##vati
mok
Book
nejmenší
velel
ústavy
jugosláv
záložník
##etta
##kolej
##čoval
sestrou
hek
oxid
souostroví
##hys
Krit
kluby
cister
vládce
střechou
##jim
jízdy
uvedla
jižního
vyjedná
pochyb
antropo
klasifikace
Zast
Uherska
existovala
římskokatolické
Bílé
procesy
souborů
infrastruktu
##jíždě
nespo
stanicí
uvádějí
jediného
stanoviště
Výsledkem
Rey
pojišť
setkat
##osi
čela
Nejsvětější
Květ
Smet
váží
##alismus
Law
nalezeny
##rity
opě
##cování
Vincen
imunit
odejít
##eník
Aero
zábě
nutno
odpůr
jižních
slovenských
News
Valent
kombinace
##neum
hem
##alogu
##něným
paro
přís
horských
##elen
Data
kníž
Spolup
komisa
riziko
koncertů
Journal
astrono
##rce
##arth
##kříd
ling
těho
##nickém
dobou
východního
hi
##omorav
##jícími
známy
pokusu
Christian
absolutní
spravedlnosti
Joe
##hlejší
epidem
oddíly
ojedině
kilometru
Chile
denní
souřad
analýzy
některými
historický
oznámeno
##pust
pyrami
Rap
Wel
dětské
fyziky
rozdělit
chorob
každým
propuštění
skladbu
Japonsko
##olek
zaměřuje
okresního
dění
vědom
dosahují
policejní
##lici
zahradě
malo
##als
Thé
##basti
středověké
Vod
##žných
zbroj
zřídka
Představ
dnešních
neexistuje
slovenského
zisku
řekou
ekvival
přírodově
##ariátu
##nuté
čtení
špatně
zničení
čtyřhry
listopad
naprosto
podnikání
##ario
Rudé
VIII
Hockey
SV
šik
strojí
králové
##ingen
zřej
srost
Awards
intele
objeven
osvětlení
Nepomuckého
vymez
Slavia
znamení
značená
úvodním
##vým
slunce
audi
úder
Roger
agresi
papežem
proslav
vybojovala
UN
Knesetu
##fan
okup
doposud
odehrála
vzájemné
nejstarším
přechodu
uvedené
příslušníků
##ctor
Výraz
Epi
dikt
dnešním
kontextu
##klo
IA
maxi
Madrid
procesů
považovány
příslušníci
##řík
Stat
Voda
psycho
naří
slon
hnědé
způsobilo
zabývající
##cop
##lynu
středním
Vladislav
Josefem
Heinrich
autobusy
řez
##ovníkem
režíroval
ptáci
staví
vzpou
vyhodno
časopise
vymy
studio
příčinou
Hro
Havlíč
určitých
ID
Loď
##denní
Hru
krok
##šených
privi
zničen
prototy
Akademii
Evangeli
##rád
Chi
Nel
Trna
zákonodár
trpí
vyjadřuje
nerov
Elect
1830
telef
záznamy
##anus
Steph
dobrý
odpoč
větev
usadil
##ds
##ign
Cle
Vra
##chová
zasloužil
##ML
Sparta
odmítá
polohy
dostateč
ohlá
zavr
##vision
kerami
zvolena
##apol
Odtud
tyčin
invazi
stabilní
Region
sňatku
dokumentů
##fér
neví
průs
jinde
Robin
efekt
ulicí
umělce
čtrnáct
aplikací
terorist
##děje
pavil
vyplývá
poloostrova
##inali
##rator
Out
##řicích
Museum
místopředsedou
Sibi
váno
vyhlíd
změnit
Bub
##omoří
##řskou
loka
##dány
Nig
##pením
prokáz
statky
titulem
protivní
nejrych
budování
Cenu
Magdal
##čist
##menta
Zápas
protektor
sobo
vypl
##álen
ová
kužel
znění
Štern
scénář
Nejvýznam
orchestru
zkušenost
Ču
zoo
Ústavu
dvojici
##KA
důvodem
##studovala
automaticky
bývalých
ostatním
##rne
Bot
Augusta
Mou
##ismem
Maty
vyvrch
povstal
organiza
zemětřese
##ebev
mrav
výpočet
prosadil
filozofie
##pic
Sü
1800
postoj
operací
fiktivní
##NS
##lab
snahy
Zi
##lenou
cyklo
nárok
rozman
statut
Nanebev
Sovětský
##jn
Nád
blíží
zvony
intenz
vidění
otevřel
Albrecht
##tia
ES
navi
lodní
úřadů
štěstí
členění
komerční
expon
palub
##alistické
považují
provizor
soutěžích
středního
##dis
##udek
sál
Egypt
Města
odstav
vrcholy
vytvářet
##kus
Cli
Patřil
žijících
##jdž
##wen
Ott
ukázal
Wilhelm
obléhání
odkazuje
vyrůstají
spi
melo
modr
mužstvo
Stockhol
##dané
Gon
lit
##fordu
plát
Kultu
##mii
ole
##pher
bom
##manna
shroma
content
##ovníky
##ologická
Kole
##vědomí
respekt
##cke
##doku
##logické
letadlo
medailí
výrazné
sebevraždu
Poh
cílů
živé
bezprostřed
pp
##pěla
Svit
oddílu
##rátů
Pozná
nádvoří
Přírodní
sametové
##elli
Kolumb
pozdní
mrtvých
důležitým
##letého
##rovými
aktuální
španělský
##yně
Sie
##livost
poruš
membrá
útoční
##tona
případy
továrna
##hrade
škody
ústřední
##obot
##tišti
##úd
jiní
Hradce
##plet
AR
##eved
Postav
argent
podniků
poražen
soustava
spotřebi
101
Kab
konají
přepis
hlasování
##maj
Way
dobytí
formátu
souhlas
1854
lázeň
oběti
starosty
hoj
ras
aspek
kouzel
používala
Svě
##vostran
průzkumu
##cra
diale
Německem
považoval
Sus
ohni
lehké
epizod
tvořil
zbytku
##anční
Hoře
svis
Čtyři
spojit
vyzbroj
##ovem
##žním
River
jakož
týdny
chtěli
legendy
rozt
zleva
unikátní
##ýš
##hart
adop
Obháj
někdo
oblečení
##sand
##iction
##stavět
Měsíce
##istickou
orchestr
konzervatoři
##novou
##rough
hloubky
Ján
Vinohra
úředník
##EP
zjišť
Dře
Jem
gly
##jíždí
Live
Zná
posta
reperto
Moravskoslez
zó
chtějí
rozená
produkt
Svazu
Williams
##vaci
Rab
##měrně
obcemi
souhvězdí
##vard
Bun
plno
dozví
##líky
Gla
normalizace
Cop
motý
Karpat
domácích
úvodní
Svoboda
společenských
##ław
rodné
romant
ekonomiky
chat
hodnotě
takového
Ander
sestře
technika
zbývající
myslí
##áv
1846
léčeb
vyrobeno
účastníků
##rony
ent
Fede
zůstat
vyrábět
půdorysu
nezávislé
##bývá
Gram
grafi
výcho
zásah
kardiná
skupinách
##anka
tunel
cukrov
snižuje
částice
spolupracuje
Sz
dies
žánru
European
hokejový
volebním
dav
zři
domé
známou
kancelář
šer
##sonem
Dosa
Osob
zaru
očeká
Vietna
pozoru
plemeno
hodinách
rejstříků
##celku
brou
dostav
příčce
Slezsku
Pravděpodob
Emil
gymna
nejroz
spojeny
produktů
zástupců
metry
##EG
naps
Cesta
struktura
tisíciletí
Gó
Aven
zasahuje
Jičín
vědci
důchodu
přijala
lym
##atikou
květů
nesla
nemovit
objevili
##dánu
fig
infor
##enne
diferenci
Filozofické
##ells
soudob
výz
šif
živnost
proběhly
přátelství
ustanovení
Hrál
prozatím
porovnání
##GC
##šná
rozsah
Cambridge
##ette
kosti
celých
mobilní
##jevů
##sexu
Atlant
prošla
filmová
největšího
zkoumání
##aut
##day
říš
dílny
dalšímu
konečné
Nick
nechtě
##rona
##uela
Bůh
padl
témata
Budějovicích
uj
vytvoří
##mad
1856
Massa
bilan
promí
různě
komedie
koncept
autonomní
##isu
##berk
Imp
##tební
zabil
pozemní
necelých
##nen
řeč
naruš
řehol
obyčej
Druhé
lince
slávy
přináší
Mol
žluto
hraniční
##oky
synů
##nát
##novy
Sep
rodá
History
Světové
soubory
výrobků
Association
##dej
##ania
žlut
##ischer
generálním
hledá
křížové
odděluje
časopisů
rakouského
Sop
##oněmec
archivu
korespon
přestavěn
##cal
Bau
##bájdž
Stará
##nských
neček
pásma
horské
spoluzak
kas
pum
##tismu
poni
různo
zřízen
Bohuslav
Manchest
vybavena
PP
fale
naší
Tvoří
parní
steno
návrhy
##hof
Mun
Hugo
clanek
zeměpis
##nese
Beau
Mali
##nesení
Starý
osamostat
##rátorem
mladého
nesouhla
raketoplá
##apa
Wy
Ein
Popu
##zerbájdž
Obsahuje
celkovou
rozšířila
##encí
raně
neúspě
poplat
trenéra
##ator
Bil
kob
##atika
info
značnou
1858
Boha
Zprá
zvuk
Tatra
zřícen
soustřed
šéfredak
podlehl
Vodní
Vrchol
Starého
ponechá
Nova
Centrum
zúčastnilo
pahorkatina
##oy
##rana
José
Paula
slaví
probíhající
Náv
##onské
Vyše
vína
##rieved
opeře
činil
chrání
Trojice
##itiv
pota
vedena
##book
ztratila
IX
##hlých
Kruš
zbožím
průběh
zničena
evangelické
##AD
pocit
patent
rodiči
sjezdu
Vítězem
Průměrný
bohatství
Zu
##davě
Jung
stara
ziskem
postavený
vévodství
##šin
tiská
PR
Dvě
Předmě
arabské
Např
jevi
zázra
opt
Varša
##amp
##čům
rohu
##kre
řecko
marketing
##rovo
dívky
přídav
##vaku
Takto
zamít
vzácně
nazýván
silnější
##rnou
##stik
##fra
##lino
operní
Enterprise
Ší
1840
základnu
zdravotnictví
##GBT
##toky
Rov
Křti
##šily
Hay
vzrů
##počtem
klade
##rup
půdu
vylu
oslov
najdeme
##číka
Lind
##hající
Jacques
senátor
zahájen
##zeb
Av
sý
##tole
Sude
výhře
##hličit
Davis
hrozí
úlohu
Řecku
dřevěná
subjekt
##atek
Pouze
přita
##sterdam
císaři
##pele
##vězd
Vale
inci
zdrav
##šova
Sup
Alfon
Hvězd
karet
spravuje
NP
Úd
##plex
Ivana
Tito
nejsil
Hat
širokou
americkým
Kit
Nas
##ářský
balí
držitel
vzniknout
##nina
Gri
bed
Zach
hmoty
připomín
##daje
Moz
sod
ryby
##valu
doi
střely
zdí
hereč
Jihoče
přišlo
zakladatelem
##EM
##tinu
protá
Mexiku
vegeta
Sdružení
nacházely
dolo
hektar
produk
##čeni
skand
Bry
Hur
Cale
Luci
mari
zauj
řeči
Richarda
##rest
Toho
Gard
Sbor
sprin
usnad
##čské
zasta
Navzdory
psychiat
intelektu
##jek
dro
sedí
##cových
zastán
celková
chráněných
zahrnující
##ate
##chaft
Kristi
pomník
přistání
zajistil
Rek
sfé
přijata
jednoduše
Scott
médií
rytíř
přinesla
Ges
Brook
bolesti
jihozápadním
##bre
##skové
najde
nominaci
Slou
holo
Toron
patra
Belgii
výcvik
svatých
pěv
začít
brankář
lokalit
umístila
##pice
##átem
Smr
pevně
‘
Firma
Maxim
##stupuje
silnou
Ari
KDU
TOP
angl
vlak
odrůdy
Benešov
Sad
##ofici
hale
Datab
kysel
pražský
Technolog
uživatele
##šný
Thom
amin
##nictva
odešla
##kruh
Amb
Beat
Plzně
Vnitř
rusky
zrych
Lokomo
snímky
tramvaje
Ústřední
Biskup
frontě
chlupat
záchran
důstojník
##AMU
##ftu
##omá
##mont
pevné
kytaru
Leopol
##jská
jízd
obal
změnou
posloup
IB
##rováno
lidská
studovala
dřevin
Alžběta
chemické
nejas
osman
Egyptě
tamtéž
podniky
navzdory
450
Článek
připojena
obe
úvě
radu
artic
čerst
Vznikla
Ní
osvobod
##syl
úkoly
##alizaci
autory
udržet
neobvyk
Plu
tva
blog
odtr
polní
uveřej
manželku
ano
##enice
monu
zesí
Senátu
Založen
investi
napodob
pracovníků
evaku
Život
##kovitých
letišti
sleduje
kvan
Stanley
následuje
Vary
uzavřel
hradiště
##iser
##moto
##lovým
Štef
svahy
Jeruzalém
##oná
Klo
otáz
rabí
Proje
Orlicí
Oscara
##ás
##áku
Sid
cha
##zeným
hlavě
jezuit
koleje
drobných
implemen
nahradila
společnou
##hledy
Tony
##cených
Těšín
dolním
vývojem
##žely
dát
##noval
admi
sedlá
normální
zúčastnila
##ove
WW
rud
učen
zpochyb
LGBT
forem
hrano
široká
snažili
sc
naho
Baby
ruka
různým
vp
##hali
mince
opravy
čtvere
individuální
##FL
##OM
pánů
Začátkem
##daly
spí
určitý
letectvo
francouzskou
záložní
vyhlásil
Rat
Ferra
posou
Morava
DS
pruž
umožně
zpracová
nejvýznamnějším
Fox
5000
mnozí
##letu
leb
Vlasti
Vratislav
##sdorf
1200
stáčí
loži
Slovo
Wimbled
majetkem
##lich
vlna
State
stříbrné
systemat
SD
##osau
Baj
zmínky
##bol
##eton
##škov
1852
prom
sion
řekne
Plodem
Poháru
nabídl
##aměstnan
##buch
220
Krkono
vrchní
lát
tito
proká
populací
##IM
brání
názvů
zlata
housle
procen
zvolil
bubeník
podlou
soudce
Celkově
OK
##gene
##spor
dělá
tamní
správně
třicátých
len
bohyně
světovém
##akes
fac
kau
směs
usedl
##telnost
ponech
povídky
Bé
Nanebevzetí
Ford
Jura
##mentem
dozor
Obecně
novými
zobrazuje
nastoupilo
##IL
ruku
podzem
představitelů
##etě
##arma
Barba
##stál
Satur
##stý
ovoc
Bible
Katoli
musely
přijde
kultuře
nemohou
prodalo
děk
Chap
armád
načež
zdokon
opustila
shromažď
způsobil
nástupiště
východních
sportovních
ST
Ye
##ečný
eur
vok
lokalita
Láz
místodr
tvořila
umístěné
##encem
##stanou
vyvíj
výstava
následovala
##ryt
##zit
Model
sólové
Švýcarsko
##cil
##toto
Fil
Pochází
kazatel
pozemků
dém
gravita
světový
stenografických
##sť
HMS
MHD
PČR
Britské
pozorovatel
Albá
členství
identifik
Švýcarska
##öl
Zoo
zkon
Place
magister
stejnojmenného
oběť
modelů
ohrožení
vyjádřil
box
deleg
##ráz
##bení
asy
Bibli
Ostrav
Seriál
svěcení
##hoda
Vide
ikon
sdru
obchodního
Fort
obyd
kulti
##iniho
1851
nájem
ruská
určuje
Římané
vodního
agentury
olympijský
##zav
šup
Novo
Boe
Agen
mobili
poslán
vybaveny
##polis
Whit
maso
východo
##lár
Blíz
zahradní
##wyor
Prahu
přítele
technických
povo
obory
stupňů
sňatek
katedrály
vlastnost
divadelních
##áb
##šim
##bulu
Apo
1857
plánů
šířky
zanikl
červenou
psycholog
NK
Good
kapele
##ör
Bis
##ziční
vina
Loren
rozmí
vlajky
DP
Oce
##utbal
herectví
studijní
Oficiální
##zány
##čnými
luxus
stříbro
teplotě
otevřeno
hub
ligových
##27
##bod
##urs
##bytku
nevz
newyor
příchodem
##lka
##zimu
bre
pred
řetě
eston
domácího
Put
Pohon
záměr
##životní
přived
sousedství
##lib
##álky
rozkaz
vzděla
Terezie
mláďata
evropského
##fá
AG
Chy
podobných
##dox
##chang
##rovna
Velkého
##berku
Bala
Strany
silnic
dřevěný
přistěhoval
##ão
faš
##árních
Moskva
zařadil
přirozené
paleontolog
##enka
katastrof
##rám
Laur
##nograf
pobyt
kostelů
ÚV
##icka
Sev
Sub
lar
vez
vyšly
účelům
##anátu
zamý
heslo
vstří
zvaná
Zdeňka
uloženy
##ény
Klat
řapí
nízko
režii
sezón
nastoupila
viděl
Soused
signálu
nejslav
Ukrajiny
Light
##váb
##cením
##jednou
bratří
hel
##ladel
Rada
Danie
polských
##gam
##work
poptá
inspek
skleně
##kovského
institut
transpor
##dka
Eis
patrné
konstant
realizaci
všeobecně
Absolvoval
Bec
Shi
Dokon
stupni
bojovat
obvinění
namal
Moskvy
##řiny
##iller
Kin
výkony
chronolog
##lye
##žba
Dev
usa
malém
vpravo
základním
##dyho
1847
pneum
sestá
pozorovat
Wik
uspě
##saurus
##ptý
ťi
Mül
##lecké
##žební
zachránit
sklo
látka
Chel
tajemníkem
##domí
Nez
dla
vozí
desce
řemesl
císařské
postavili
vojvodství
##ix
hym
herce
uživatelů
jihovýchodním
##25
##lari
Nord
##chop
nízkou
Štěpána
benedikt
psychologie
dv
##ales
Eliza
stimu
Košice
porazila
Amsterdam
Beroun
muselo
podpoře
Spojeném
přípravu
matematiky
##mské
##ness
Zej
výno
##region
žlutá
poškod
platnost
kategorií
rychlé
každoden
##iga
##jních
##inární
Hohen
##cz
##uru
út
##jilo
Sor
##graphy
obnoven
nazývaný
fyzikální
Organizace
biskupství
##tember
podíleli
##ments
havá
Disney
přizná
vodorov
provádět
člověkem
šestnácti
neji
prohra
srbské
zjistil
dramatur
Váno
nukle
změnám
výchovy
komplexní
jednotkami
francouzském
##jním
Lake
udělena
připravuje
současných
Ped
lem
moč
zjistit
církevních
Mike
Nově
Řádu
Evropská
##lenu
##omal
jednoty
intenzivně
##ohně
Žďár
probo
navázal
Tchaj
##africké
překvapi
měnit
proro
poslou
srážek
schopností
červený
Masarykovy
konstrukcí
##kladů
sady
skály
Ježíše
design
obzvlá
Markéta
severních
##čína
vzlét
ISO
##agement
konání
##kum
jímž
Třebíč
korunní
korunova
severozápadním
CHKO
Steve
daném
počát
tajné
pověsti
nejdelší
Burg
lovu
Oxford
sate
předeš
soupeře
Vrb
Francouzské
##oku
VŠ
Rum
Evan
děla
narů
nařídil
uzavřena
Of
##witz
##átním
stěh
formát
Johanna
Demokrat
nahradit
rozsáhlá
un
##inga
Lut
##obily
##berger
nároky
Sebasti
Zúčastnil
vládnoucí
##fiř
111
Band
Julius
počítá
porosty
ztvárnil
Retrieved
Království
raději
královský
##ann
##roid
Klá
mála
drama
French
historická
důkazy
Příbram
výstavu
##jó
Spring
stránek
turecké
nepřízni
##mand
ion
těžby
dominant
Ane
##etické
posvát
Vietnamu
umožnilo
katolický
samostatných
Indu
Rena
krev
DC
##hrou
##ountry
nejnižší
##yn
##arské
##řených
Výzkum
podílí
Vlastní
sledovat
Cir
##korej
sběr
##enberg
kulov
přáteli
maďarské
Das
##tista
dusí
náhle
pokládá
využitím
##pov
##žeh
##icus
##konom
spokoj
čtvrtém
BM
##žovat
vaje
technikou
lymf
Istan
hrálo
odvozeno
otevřených
chtěla
popsán
literatura
olympijskou
tab
Hned
Téhož
styku
Moderní
důležitá
nesl
pist
stavy
postavené
##livy
ner
Lewis
Night
Potom
##strukce
sociálního
##ère
Simp
dešť
páru
zpravy
postran
tropické
Cher
Lhota
celkový
mezinárod
Pie
synté
##lkov
deri
zařazena
stavebních
##mala
říci
kanon
umírá
atletice
##bem
##tun
Lav
ord
Řada
jedovat
smíšené
poslucha
##číně
##šela
Rim
IL
Zan
Duch
tématem
reorgani
##dectví
samci
Fotbal
nahrál
nechala
jedenácti
potřebuje
elektrárna
Moj
zdr
princezna
##inte
Hrd
##žívání
karos
kruhu
kompati
nejlepšího
venkovských
Leo
týká
Plody
farním
##cla
Št
Dur
Juni
Masters
tabulce
zavedena
vnitrozemí
##bot
##lenut
##rigen
Kant
nere
zatí
knižní
krátkém
svrchní
čtrnácti
##kas
Guine
udává
varhan
většího
existující
partnerství
##pera
jemuž
matce
přepad
##arů
##fest
##ople
##jního
skaut
vozem
##istickým
strategie
##jon
cs
##krat
Lim
1845
Hvěz
podmí
Řecka
doktora
##aktní
##bytek
nějž
navrá
baskytar
##att
##lonu
dolu
##gregace
krajině
Football
techniku
Vladimíra
Log
Památ
rozpo
přístroje
##ein
vyhy
desek
##cházeli
Hitler
Kladno
vznikaly
##clav
Dru
masa
##harmon
plzeň
Domini
pramenech
##czy
zaj
aristo
Ass
éry
kovů
Hamil
hmyzu
nákladů
nazývané
##álení
1815
Novot
trvání
udělal
vláken
Zlaté
lásku
studiem
systémech
Bio
Slo
elektronické
##čera
běžných
odpověď
přirozeně
nevi
zkra
jakého
Většinou
vydávání
##ranit
##rátit
poměrem
vlajka
zničit
CP
křem
vchod
Academia
obrovské
atmosféry
pul
Indon
odboje
Teplice
devatenáct
originální
bazili
alkoholu
##vej
##olka
Hip
nalezi
objeveny
panovníka
cvičení
přesunul
##pohla
Natu
nezí
radou
##ierarch
zpátky
##mála
##stři
gal
##itelem
zůstá
Alfred
angažoval
dospělosti
##alové
Ross
kampaň
používaly
Zap
##ající
Sama
Stein
bohatě
mongol
##atá
##ózu
##indu
Nym
Ras
oko
Fire
Irsku
nef
Úspě
Čínské
poštovní
zemědělských
##pper
hustě
problému
##bry
##šer
seme
prudce
činila
uhličit
reprezenta
##tění
fal
odvy
##tského
Starém
vrátili
alternati
správního
uvedených
Caes
kladen
postavila
ozbrojených
nedoká
zdarma
jednotkou
210
Dam
vojevů
Kryštof
kolegy
měsíční
koncertu
sovětských
komunistického
SO
Stalin
oprávně
##ralo
240
výlu
##skytující
podílela
##ráže
orb
záliv
Ekonom
řadách
Jackson
záznamů
jednoznačně
experimentální
##hosp
##view
heli
zdán
značkou
plánování
Černá
časté
vstříc
tvořilo
pokoušel
Juan
lázně
potre
##anského
poznám
1853
kytara
##osu
##sce
odpo
Carlo
řešit
jaderné
##ono
##měsí
##letad
Villa
bolše
fakulta
životem
diagnosti
##bere
chuť
Vltavou
teritori
způsobit
Boleslavi
Čap
erup
účelu
květen
předmět
##ovníci
parti
stavů
Otakar
rozved
zvlášť
neofici
jednotlivců
Nam
Dire
prozra
Švédsko
cisterci
producentem
uskutečnila
Sek
Sir
##avské
Mili
humor
zapla
pomáhal
Squ
pet
Corpo
šanci
úrovní
##ib
##šská
nedáv
bojích
střetnutí
##tha
Bow
Zeman
vítězů
povídek
chráněna
jednotku
rozsáhlou
##řek
ofen
##statek
Škola
frekvence
##vený
##voda
230
váz
##mutov
##ňského
Základ
povědomí
rozlišení
##vrh
devá
##magnet
opuště
trvalo
Francouzi
zkušeností
##íná
ČTK
Hand
skutečné
ev
dětem
klient
dirigent
Prezident
Plán
zpěvu
prvkem
projevu
opatství
Hollywood
rekreační
Bod
mad
Maxi
##servato
vedené
střediskem
His
Real
přímý
zform
senátu
vycházel
mimořádně
kategoriích
znem
##horské
podne
problémem
PD
gló
Zbra
chát
##fie
##ril
##kánu
vitam
racion
Časopis
plavidla
Institute
latinského
vyhov
vyprav
natočen
EC
hip
modli
##novější
galaxie
pacientů
vyhrá
hejtman
výcviku
kanadský
##tržit
rozptý
##lič
##řín
gene
nalezen
##nau
##dělí
Poč
Krem
neměli
stezky
husitských
##řin
Dag
##iness
Operace
důležitý
##eo
Jách
dopravce
koncentrace
encyklopedie
šlechtického
##waru
Benj
Ozna
Více
odstí
Helena
obří
důchod
přejmenována
die
##garet
##žního
ovál
portrét
námořních
připomínající
##dky
##schu
##habili
koruna
Pramení
kriticky
centimetrů
##rome
Cali
Town
rukopis
Nos
Thu
propojení
zabezpečení
zemětřesení
francouzským
##udr
zabra
##telnosti
horole
polsky
románů
padesát
bohoslov
postoupila
Hag
Zuz
Šen
##tivity
rytířů
metodou
sestavě
##uba
##busy
##genu
##ákem
kapelu
##tures
stěně
center
Křesťan
François
Kateřiny
Největším
Hug
cerem
Samuel
přednášel
jíž
dají
vlaku
fronty
čem
daný
Iráku
odmítla
kapituly
umístěno
týde
##ctva
##ryho
fotbalu
výrobou
rozděleno
spolupracovat
##chta
##hodu
##ňován
Bank
Hara
krajských
pil
evan
dobyl
masak
Problém
přestal
československá
##kovaná
facto
nedos
Švédska
obsahovat
poskytují
umožňující
Afg
Syl
dochovaly
speciálních
Guy
meš
domech
Zikmund
schopna
ukončen
následoval
specifické
##cio
Kolín
legie
štítu
délkou
zázemí
Antonio
Premier
fyzické
kontroly
chyby
závěr
vlákna
Maďarska
britskou
semináře
Kob
meč
Photo
nedoch
publikací
nastupoval
pohraniční
##zia
##logra
tras
##kacích
kurfiř
iniciativy
##ardu
##šník
moti
závaž
polokou
potomci
rozloha
významného
##mách
zuby
popisu
kontrakt
problémům
##mistr
přínos
##ios
##kovaný
voják
ukazují
přemístě
##úz
##ull
##štěstí
cestá
Church
jmenování
##će
Drá
raj
Greg
římský
Naproti
počítačů
evropském
vyznačuje
Jr
projed
novodob
zaměření
severovýchodním
AT
zásoby
Svatého
infekce
takovou
pojištění
##isc
operu
##rálních
jejími
##itim
shr
##ather
Camp
hřeb
Jozef
Lotyš
spoje
##čata
##čela
zní
1843
##istánu
##lovice
Montre
symboly
Williama
střídavě
Komenského
##dové
Žád
1842
Union
hřbetu
vodi
korej
Provoz
analog
zapsán
kvalitu
##mrz
morf
skli
zplo
využívány
hektarů
statistiky
pout
konkur
otázku
černou
příspěv
##rátu
ryt
##ovině
modul
Rodina
vojsky
gotický
těžkých
zabezpeč
Či
chů
Road
všim
hradby
přised
servis
výhled
soutoku
##čele
zaz
klin
Roste
Palackého
##tér
##ater
##rium
oboj
vent
tajně
##vedením
špatné
mladšího
klasicist
Práce
metodu
předal
trvající
rychlejší
##dáno
Walesu
milost
potíže
vertik
sledování
středoškol
##kládat
matku
užití
vulkan
navržen
nahrazeny
glo
kabin
tvary
##rance
Jacob
exper
##esearch
našeho
##lize
Hed
Termín
barevné
železné
##kly
##grad
Mlý
##ensko
mate
##ňovaly
Novák
Under
Arthur
dorost
hřišti
uherské
##bes
##táž
ropy
herci
vejce
Columb
technik
kongresu
##viron
nákla
Klubové
kampaně
umožnil
nezávisle
##jou
recept
označen
Prochází
##skev
omy
zbou
březen
napříč
vhodná
##ouš
##vač
##vist
Zav
##lička
1839
odle
hlásí
počítačové
##vín
##ránu
kurz
vyslan
Johnson
instala
probíhal
veřejnou
##hoř
FA
Kras
výpově
starověku
mys
zeď
##anský
uhel
##telným
neoby
nejhor
plnění
sestru
složek
střechy
představitelé
##něk
Sicí
krimin
těleso
##cor
##háni
##aceae
Free
Nort
sahá
primárně
sati
Hlubo
pravě
hodinu
určeny
staroby
filosofii
osi
synd
činu
Apple
obrně
licenci
památník
##nci
ose
víru
hrobu
jiném
prožil
rybníků
prohlíže
##neme
podal
sedad
překla
teplot
Elizabeth
Fridricha
Pé
##setovém
Heřman
branek
Jaromír
postavená
##sková
##skách
truh
násob
prolo
soudem
začátek
knihovně
uskupení
##lyn
##zdrav
okny
zpěváka
zastavit
žur
##líben
Stone
osobním
záležitost
Fon
##kolog
##ovitě
Ligy
Vláda
dohodu
krajského
Jeruzaléma
mig
vyvý
signa
##fikovat
Gymnázi
představoval
##NV
obtížné
švédské
##lky
##horní
demonst
hluboké
poruchy
úc
##oledne
venku
vyspě
Steven
chemie
lékaře
Spartak
kyslíku
fakticky
civilizace
MB
##pili
Kau
Linux
náboj
##ografii
určený
interpret
##cyc
síle
bylin
endem
finál
nechce
ateliéru
orientace
~
##anty
##ding
Cest
Irska
menším
sobotu
daroval
hudebníky
spisovatelka
oži
Trop
režie
stejná
směřuje
turisti
podezření
##pur
##taj
Kari
životu
Line
obraně
základně
##couver
vážné
Turecku
výrazný
zorgani
obsadili
kaš
jest
nahrávky
##vue
##niká
##zová
##řící
##ropod
Aš
##ovku
##rický
##šířen
opti
optim
zpívá
Harris
juniorů
borovice
přesvědčení
pravděpodobné
##kins
##wski
fau
vhodný
lidových
politickým
předchozím
##23
louky
Jersey
napsala
Maďarsko
Research
minulého
zjištěno
vzty
směsi
rozsáhlý
Brig
tvář
hierarch
izraelský
Pravděpodobně
##chové
Pant
všeho
zápor
popraven
dodatečně
prostorách
##ffa
##děné
##mera
ara
lesk
pravý
Přibli
najevo
spojil
fungování
nepřítele
##rix
Mlá
Ková
nara
výsky
Pražského
##fisk
nohou
Britové
Service
použito
kompletně
malířství
nahrávání
RAF
děd
##inská
Fred
testy
říční
##oma
Fab
císařského
##oti
Opera
Planet
stipen
obývají
nedaleké
výzbroje
##měs
##žské
potá
písma
sokol
takřka
slovenská
##jú
utvo
kopií
Američ
katedrále
##ogot
vid
##podla
Show
musli
nejob
právu
velkok
horizont
moravské
Světového
italských
příslušnosti
Tet
han
Ští
što
##livých
Strom
rozle
čeleď
Napsal
turistů
nepřetržit
Marc
krizi
zaveden
loděnice
##bb
##žného
Druhou
udělat
Chicago
prodeji
Ole
dab
Brani
možný
Moravu
místnost
slavnostní
##chet
##lovy
##util
##řina
Kev
top
Klaus
regen
prsten
efektivní
doporučení
##kto
bor
vak
Lukáš
Zélandu
kostelu
samostatného
##xo
##verpo
korup
Tennis
vojskem
vyrovná
poslance
Az
##ňský
udí
1600
Karlově
klimatu
správou
vicepre
##pora
##kory
##řeli
##cenou
Face
neuspěl
Chomutov
##gers
##ider
##číta
Sko
kopec
Wilson
pivovaru
tajemník
nacistické
protiletad
časopisech
prohlášen
související
##cks
##stské
Thun
krej
lístků
odvysí
vybral
transform
vrchovina
##atě
Pia
těs
##šťast
Asoci
přízniv
Oblastní
překonal
Gir
Vavř
rysy
vypou
Hudební
Zimních
projevy
setkává
##vete
osobu
mandátů
upraven
vyvinul
porušení
##ňák
Tes
Arts
Opat
komedi
Členové
probíhalo
rekonstrukcí
XIV
kelt
piva
Prachat
neustál
poslanecké
SM
Wes
silná
Central
jarní
značný
obchodním
USD
##vacích
Hradi
hvězdoku
##úr
Tau
pops
zare
žáky
pruhy
zaplat
##uth
##lámu
##mena
Nastoupil
##aver
1836
Chod
nepos
zneči
šesté
Berlína
##ovné
750
bílou
úpravě
přesněji
vyhlášeno
##nih
Svá
áze
keře
Vyšší
Posled
filmem
jazykové
##sahují
Jiřím
vězňů
##ovatelů
okresů
živoči
odchází
tratích
vznikem
světelných
##onos
horou
postupy
znamenal
##řadí
##vkami
Bron
ultra
ženská
budovou
kritiků
lesních
starším
Středozemního
##šeně
XVI
##alitu
Start
jater
národnost
Tot
KSČM
##stická
tlakem
proslavil
skupinami
životopis
##28
##skar
Pák
zou
pátý
dospí
edice
kamenů
průsmy
neschop
přijmout
##eku
Brian
Princi
svazku
##lového
složené
převratu
sakristie
1841
holand
písmeno
evropský
turnajové
Moto
Mexika
nadace
rolích
Těší
Staro
zapis
Jordán
odboru
pravic
apoštol
##ánku
komora
kariéra
japonský
rozhovor
základna
Alží
viol
Socha
hetero
lidskou
Hnutí
mlhov
Revolu
barvou
opouští
trolejbus
holub
písmo
Srbska
švédský
Ľ
here
útoků
mision
mluvčí
sovětský
##vlast
nosí
skrý
klobou
dominantní
poloostrově
varha
ekonomických
##hám
##znou
360
Sea
Pojem
témat
oblíbené
Lidové
Vltavy
arcivé
nemocí
schopni
Výsledky
připravil
##dig
##hop
břeh
jaká
bioto
nesmě
zůstávají
Bag
new
vře
uděl
němuž
rezigna
departementu
Nisou
Boy
Intel
Kříže
přesné
Zejména
snažila
přehrady
redaktorem
##haw
##ovač
povz
Vytvo
bojové
hasičů
kritik
##moni
Jav
Rand
##ační
##ilie
##reich
cirku
aglome
přednášky
##žít
Armá
Titul
moskev
opozice
Ď
ČV
##tína
Doub
mode
takovém
##aktivní
potomky
trestní
zpěvačky
oficiálních
ministerstvu
##žník
Cheb
Scot
##západu
scénu
Samice
bílkov
Poděbrad
městečka
zelených
Zeit
poma
závaz
sloves
zřejmé
signali
rozhodlo
velikostí
Fry
tvořit
galerii
sloučení
Františkem
##cur
##king
##stily
##rovaly
Téměř
Hlavními
Hard
Clark
savců
těžba
##hes
##viny
##álek
Arci
týdnu
volném
rozhodnutím
přeprac
rozporu
kyselina
právních
orientaci
vycházející
##ohl
Jizer
kaplí
elektri
kosmona
Severním
vyráběla
distriktu
##katé
Marka
front
učinil
Simpson
##antů
antu
napa
America
Městské
úspěšná
##host
André
rozšířené
##inek
##jezdy
kast
nepoko
poměry
Corporation
Ton
bytů
##čtější
kamera
prapor
bitevní
udržení
maturitě
ekonomika
pracovník
Nizozemsku
##dela
nezi
Byzant
Výstavba
nadmořskou
##inné
1844
tich
dělat
Zastupitel
##hodl
##vádě
osy
##presi
křesť
mučed
krátkých
Vancouver
arabských
##icím
##išti
používali
zavražděn
dokumentární
##dáním
Karlových
nar
Scha
plní
hlasy
chalup
Americké
spoluaut
parametry
křižovatce
obsahovala
scenárista
Lem
hraní
obdiv
##chovice
možných
celkovém
znamenala
$
selhání
lineární
markrabě
zaměstna
vnitřních
##daná
##vody
Bes
Blat
Erne
obnovu
ostrav
tenista
AD
Aleš
čeká
plynů
značí
pozemku
ovládání
španělského
##orm
1834
běží
snímků
##het
##histor
oběhu
pavou
Boeing
dočkal
arcibiskupa
##pani
##čeji
Jakmile
klasifik
seriálech
Washingtonu
cgi
pomů
Sklad
impul
vykop
zapří
definuje
bezprostředně
→
##litav
řeho
vraždy
plaz
faktory
ženského
pseudonymem
##tám
Found
anarch
ústavní
zastavil
filozofii
tradičních
vysvětlení
##anna
přehrá
Gabriel
pohybují
vstupuje
pozdějšího
##rovná
Gera
Zvol
pancé
tepla
srdeční
generaci
pozorova
zápasník
speciálně
následovalo
raketoplánu
##umbi
##ňová
##ničky
ukra
ukry
Afgháni
Bruselu
Meziříčí
využívání
vag
##munda
##mberka
##árního
singlu
sestává
Broad
osobě
osvěd
tunelu
držitelem
strojíren
čou
##fried
Bang
##kovské
Boris
Většinu
objevovat
uskutečně
arcidiecéze
uvě
úspěchů
##trop
##šilo
odhaduje
třinácti
vysokého
parlamentní
##berta
rovin
korunu
správné
režisérem
uplatnění
Společnosti
Československá
Dre
sum
Sher
kusy
cestách
XI
##jeva
##opat
term
prestižní
Fam
##šných
babi
Field
Water
znárod
Jugoslá
nynější
znalost
vyloučen
nezávislých
zaměstnanci
##idi
ort
čel
Pamě
Práv
herní
okrou
klášteru
Massachus
počáteční
##hera
ANO
Chlu
ČSAD
frakce
vojenským
##ов
##agan
Sbí
Morris
Liberci
radikální
týče
Ernst
proudy
zápisu
vzdálené
##při
##lash
tón
kvet
Etiop
Uvnitř
kaplan
rozklá
listině
průměrně
zařazení
vlastníkem
##dců
##bila
##chot
armé
odev
suver
##cházení
bolest
##rovaného
příměří
primární
poloostrov
##zejí
##monau
Legen
jídel
platit
účinek
celky
Čechů
nezaměstnan
Vid
Dvor
Sasko
mošav
sekretá
českými
nazývána
jakékoliv
prostředek
základního
velitelství
##oman
##test
ruky
finančně
moderátor
působením
výstavbou
důležitých
geo
háj
Vero
Sojuz
paliv
občané
zkoumá
pohlavní
taky
vůle
závor
říjen
Knihov
rozpro
dlouhým
krystali
ovlivnil
##ils
##bera
##roji
Hof
Queen
Kongres
##kli
##anti
ČVUT
Helsin
nazval
průměrné
banka
##26
##čák
##rantů
Ener
náře
scéna
měsíci
nástav
společní
zkušební
gam
nesly
statků
##wick
pasá
frontu
okupaci
povolán
hladinou
ovlivněn
##stku
úbo
##alita
Tyrol
silným
Nedaleko
vytvořené
republikou
vystupovala
##hren
##lána
##systém
Antar
kabel
Marcel
kultur
okrsku
porážku
##ško
Anne
pojí
tlou
zále
Matka
dobrou
testování
představitelem
##novým
Moun
Unie
##akespe
lezení
obviněn
uvězněn
vynes
podává
##cc
hyd
##kodob
##znala
daní
Force
větru
srážky
železničních
řecky
zdolal
kontinentu
Dá
láska
patriar
statistické
čo
##enky
##štěny
oxidu
mořské
taxonom
komunikací
##ivní
Fol
Ska
##ander
Situ
Volks
bonus
oborů
třídu
soudního
teologii
##jazy
Hoff
příští
kolonií
stávala
vyna
těžko
romány
součásti
dospělých
IN
##olas
Svoji
automobily
##ike
##num
##zist
Fle
##hradí
Bara
Hana
hradeb
diskrim
dopravních
Kře
Taj
útěku
prostě
osmnáct
architekturu
hospodářských
##slel
skle
rodným
Chrudim
rehabili
drav
##rovalo
protok
zimních
bojových
zaměřením
Eliš
hrub
krku
##ňována
stavět
vídeňské
přístupný
křižovatky
##pet
##lius
##žším
amp
hot
rodem
železa
pokročil
elektrotech
##tions
hmyz
záři
zmíněné
pracovali
##lul
##ckem
Lyn
Sud
Lete
temp
cenou
rozměr
epizoda
výchozí
zahynul
přístupná
televizního
zakladatelů
##isy
##íně
zm
##ello
Rio
##kovala
fronta
rybníky
spadají
ekonomie
tehdejších
Bell
Pres
pádem
poslanci
Princeton
Přibližně
zrekonstru
##ZD
Will
marx
Nadace
Liverpo
obdržely
##leli
lalo
vlevo
cestov
dohodě
kdežto
příčku
starost
nástupem
##än
##pek
Sú
##šově
##břeží
##jevič
válc
Sound
odrůda
typický
založit
průmyslových
Michel
příběhů
Tř
##issi
##lers
Kup
agent
teore
magazí
stával
tělesné
mužského
populaci
leteckých
přerušení
##tině
skrz
Větší
dojem
diváky
Osmanské
mocen
dosahu
souhrn
pracují
Alan
bydlení
samotná
soustavě
navazující
šet
Samotný
vnímání
##üt
##bali
Vnitřní
vyjádřit
návštěvníků
Letoun
##dově
1787
výtvarné
##29
##iem
##šeli
you
Šal
Opět
vstře
čeští
Andrew
rovině
##hři
SE
##house
##inovou
leden
Grammy
##tyl
Ek
tvrdil
vypadá
čtyřhra
abstrakt
konceptu
280
Ther
půda
kanón
kostí
zlatý
zvuku
kontakty
Univerzita
Ré
##ubile
Skali
export
spořitel
Palestiny
vyšetření
AI
Rh
Ear
Plá
##eckém
Bukov
obavy
Institut
spoluhrá
##chozí
synch
Kazach
záchra
##itativní
podstav
FF
JUDr
mluv
Chara
Bohumil
titulní
nepříliš
sovětského
##CA
Svaz
dalo
mnoh
pivo
schopné
rozvinut
Předpokládá
##dur
naš
Javor
obklí
přesu
minuty
Miloslav
relativní
vrchoviny
##nav
Gan
Hráč
vysíd
Soutěž
klenbou
plochou
tajemství
##nových
Vrati
léčbě
Berlin
cestoval
fotbalovou
Jeze
Okolo
Kanada
utrpěl
organismu
dni
Sním
katalogu
Tas
dele
dohlí
neleg
Povodí
Nejvyšším
vyprávění
hrdina
židovská
liberální
nejvyšších
Fr
fas
Thor
Trut
Čína
##bourne
major
pomezí
poradce
##iho
##gist
##ženými
reálné
útvary
Pravidel
najednou
smíšeným
klasických
vysvětluje
Kazi
Arche
autobi
humanit
mateřské
obrovský
financování
zed
##řáteli
Křtitele
přezdívku
architektura
##átních
pozmě
začnou
kalendáře
##éni
běh
hav
1784
Rein
Varšav
určená
čestné
habsbur
evidovány
##xem
##říz
##pilo
Volby
zasvě
stoupá
Letiště
oblíbeným
jezde
Sparty
naplán
signat
výrazu
horniny
kapacita
myšlenku
zmiňován
svědectví
zajišťují
severoamer
##edlo
can
Dist
Form
size
zása
absor
právem
vzápětí
rozděleny
ral
##ktech
Past
Muham
vlasy
silami
bohatou
##ense
hol
1832
zabav
kanónů
Divadle
teplotu
sportovním
##dus
##pot
##sada
agrá
pevn
Jamese
Prokop
správcem
##yho
Deb
1838
hlavi
Islandu
obnovit
Mr
Mek
esk
Páně
Chelsea
Patrick
psů
##etnam
loaj
zlik
příjmů
nejčastější
##ism
víno
chovu
linku
dohoda
jízdní
meteoro
medicíny
##zik
doty
##helník
kopie
Černého
hudebníků
##all
col
Cara
Olym
ukaza
Výroba
football
vedoucího
##kovu
##lerem
##mečtí
obvin
reflex
Douglas
návštěv
Standard
filmovém
modliteb
1837
##lované
Havel
Sedmi
úmysl
posmrt
sbírce
sloupy
Metropo
##etz
##žou
FS
brzd
česk
Adama
výzkumy
památkové
Nizozemsko
Ťi
Šar
Frýd
nechat
potomků
##ido
Bridge
místními
##ardo
##fiel
##rození
Sedlá
vzácné
British
planetě
##bla
šla
ohně
vůli
Allen
science
Průměrná
domácnosti
Inc
mše
##rendo
Arnošt
osobního
pana
vydával
odvolání
##eu
##bin
1700
Režis
nevel
nežád
world
Podílel
aplikaci
příslušníky
##padě
jud
ston
##tající
zvýšit
Chorvatsku
pedagogické
##bir
##čovat
1835
Hodo
včas
umělé
webových
##gramu
odes
říší
nízká
Pojmen
##zovaného
šper
zůstali
historickou
##usi
krva
neur
slit
Stutt
podnikl
prohrála
Dět
Hej
albem
ztoto
Turnaj
zásahu
gotické
##wart
##šejí
##lands
##skrip
Řeka
křeslo
přestavbě
##acích
1806
Julia
mokřad
občany
veřejná
Červený
##vezl
úmy
červeně
používaná
Who
zaob
nátla
pojmu
bránit
italská
metaboli
přírodního
##gnit
hala
##ovníka
islámu
obvodů
vlastenec
podporovat
publicista
Ústředního
Graf
domini
továrně
Velikého
kilometr
##leni
Rose
úpra
strav
jehlič
##meny
PhDr
tudy
stačí
Starší
známky
Francií
nositel
připadá
lyžování
Uru
Andrej
ochrán
táborů
Eduarda
##odox
dia
##ovití
Eric
Vran
šíří
Kenne
urban
Adolfa
Jestli
cizích
medail
udržel
soustředě
##fí
##talo
Brad
anglo
##telného
kompet
Barceloně
bombardování
##fotbal
panel
národy
jmenovala
krátkodob
nedostateč
sestup
uváděna
otevřený
Věž
##inaté
soupeř
pracoviště
vystoupila
Anthony
městyse
prosinec
##řez
očí
Mech
##stevní
Dunaj
Hotel
Ferrari
dorazil
demonstra
způsobené
##SK
##ürt
##řeně
šva
Byli
Soft
Texas
Metodě
zastara
čestným
Hai
Hob
jevy
Norim
krátká
podpořil
nezávislý
sociologie
ohe
Nizo
návě
ručně
lidová
nehodě
výprav
Německá
zákoníku
##ving
End
##dějov
nast
Lucie
porozu
tvůrce
souběžně
renesance
##ite
Vstup
hudbou
Zemřela
hostince
vztahuje
##zda
cháp
Norsku
vězněn
Nizozemí
##ktorů
Děčín
přímou
portréty
##hová
Čin
rozum
ústup
západo
požadavek
##štá
##berga
Wind
unii
cover
tanků
absolvovala
spojenectví
##óze
##tokem
Přit
##zovaly
odden
nastavení
elektrického
##idu
##žce
bůh
##čkové
Trať
jistě
spjat
frekven
AB
Us
Wang
kult
spik
##teriér
ruchu
Emanuel
podzimu
privati
Athénách
muzikálu
problemat
blaho
tlačí
##rických
ztrátě
pěchoty
debutové
příslušné
prostřední
arcibiskupem
##rná
##icil
##molog
Down
##lovými
##řípadě
sezon
záchranu
tob
Brun
proza
oceněn
řečeno
dvouhra
ponorek
příznaky
revoluční
nejznámějším
##ící
##tovi
teď
Frei
kostely
započal
univerzitní
##AV
Bejt
Frit
Atlas
Media
plodů
vzbou
##dajícím
agentu
stroji
##ting
##řelo
žel
Vati
diam
ocho
pokř
revi
Skand
Urban
pokle
Údolí
Finsku
výpravu
výraznou
##pii
Test
bohu
děde
##rající
Začal
dívka
němčiny
počátek
Jablonec
Vůz
##střel
Merce
fenom
##lárních
malými
působili
Spojeného
rozhodování
##inn
##ovkou
hygi
vyhý
Alice
##jednání
mnohých
vzhledu
uskutečnilo
archeologické
##tak
##emon
1814
##pho
##dává
##enos
##rani
##edice
odrůd
hráčky
katalog
kompozice
pojednává
Cyri
plný
##kánského
Alžběty
nemohla
závodní
kulturním
stanovení
1790
Wild
##fikací
nevyu
básníka
zajímavé
Et
##back
##řany
Rez
Zví
hvězdou
přístupné
##nán
##dátu
Ará
out
Sach
jmény
galaxi
filmovou
využíval
##ball
##růbe
##čský
##žoval
popř
##ujícími
Johnem
geolog
oblouku
opětovně
textilní
postoupili
##zig
##émě
rop
Hlin
Strakon
listiny
nasazený
##mak
##emin
pup
##stadt
bílého
faktor
Formule
Michala
Pedagog
potravu
souboji
vrcholů
vsí
espe
Přede
stálo
Člově
Studio
letecká
farností
zjištění
regionálních
##oder
Cab
##žíval
porod
velkému
##matických
##letr
##ones
##lující
Zlatá
ruskou
synovi
přepravu
##cek
IF
##vers
Beč
osví
zařízením
##žan
Fron
Jeff
bouř
skóre
vesměs
##ät
hr
Arm
Stě
Tig
##rická
Rafa
rybol
Madridu
pobočky
autobusů
grafické
majitelů
##St
##zol
##ónem
Měla
vyra
suché
fantasy
Vojtěcha
Středomoří
kolektivní
##its
HT
lim
sud
##šeným
Náchod
koncilu
kosmické
rodinných
křesťanských
Vé
##erra
odbě
Human
Íránu
obojživ
perspek
prvolig
##rostřední
vegetace
##hůří
##range
##čnice
Šest
marký
hokejové
německými
##amat
Bach
Gord
slabě
důklad
ledvin
##pohlavné
červenec
popřípadě
čs
klá
##rovský
nazpí
tvořící
vaku
barié
klenby
rozumí
vykoná
zapsal
zdravotních
Fed
déle
##čovala
odkry
pokoj
porodu
analýza
globální
Ázerbájdž
##pid
##ovském
regent
Masaryka
dlouhými
nespokoj
pravomoci
##kyni
ABC
upev
Chrám
bouře
Městská
kultivar
ovlivňuje
Kdo
##četné
vědu
Annou
Lubla
ukázala
grandslam
##ánka
Luft
osudu
obcích
hranicí
podloží
vyhráli
zlikvid
Dole
Jirá
strýc
Archiv
Přitom
anatom
křížem
mluvit
Uhersku
uprchnout
elektrický
připravoval
##stický
farářem
kuchyně
dokázala
určitého
Wimbledonu
pronásledování
##děle
##vami
ráz
Cole
Litomy
1831
Class
Tradi
dvojic
Shakespe
##líka
bohů
okno
čínský
stažení
extrémně
Vinohradech
##erů
Lac
juda
tank
##právní
Deutsche
spojením
##KD
##nig
##aron
poky
klidu
medvě
##ovských
Svatop
nestra
chránit
přivedl
Slovenského
##ript
šat
zlom
Adres
kroky
habili
pouště
rozlou
zrušil
obklopen
podlehla
klášterní
Nejvyššího
fr
##ceae
erb
chová
spojů
Philip
slovin
termínu
vozidlo
##valech
kopci
##středním
Německý
poločas
letectví
podobnou
Obyvatelé
záležitostí
##tko
aid
květu
žákem
rychlý
prvními
##lela
Polo
bavl
##ground
##šeného
vydělal
vyřazen
hlavními
uvolnění
Rie
Miami
divizi
silnicí
ceremoni
počítači
představitele
##účel
zau
cyri
Obraz
Proko
duben
pacha
prior
bohoslužby
občanského
##did
Andy
lord
normy
Norska
vyšším
dosahovala
intenzivní
##cs
Est
sté
Nále
Koreji
nahoru
odcest
ideální
Charlese
kontinent
připravit
rejstříku
##dio
Než
tuber
datuje
bývalým
DJ
ct
lor
pau
##dynam
1820
toků
kresby
advokát
impéria
pořádku
sektoru
komunita
zakázáno
##cci
##gradu
##ronic
úzké
těsné
zvýšil
Pražský
Benedikt
Johannes
vyráběný
výskytem
##86
##lety
##šili
NGC
##okyse
nešťast
zvolení
víceméně
pocházela
potenciál
uměleckou
ustanoven
jednoduchý
##ape
zně
zakot
Holand
příčin
přetrvá
opustili
Mä
##jeli
##instal
Evropu
redakce
likvidaci
probíhají
##vas
##táže
Vyrů
flor
Liban
chudé
stylem
zkušeb
nápisem
omezené
prosadit
##bau
mg
Smě
dali
nedů
posun
potká
jedinec
pochován
založeny
CR
##zerv
řeší
Power
obývá
srovna
dramatu
Columbia
zastupoval
inženýrství
##vená
kruž
sklonku
zanechal
odstranit
Stá
Venu
břid
Štra
matice
poezii
půdorys
molekuly
rozvíjet
pec
##bohat
kurzy
nezmě
vězně
rozené
vedená
návštěvě
rozměrech
Championship
Thaj
župě
klima
osadě
vlivy
Rolling
započala
Jeruzalémě
##letým
##advace
svatý
bílých
kombinací
podmínkou
##ado
##šni
Hau
Kapela
Semena
chlapec
postoje
zaměřené
##ema
##čna
dó
##zají
sex
1813
1833
Home
freg
anket
sound
mírové
podlaží
principy
znalostí
sloučeniny
Hřb
edit
vylí
kalendář
obsahoval
reprezentuje
mr
##riky
Best
nádrží
předpisů
##hausen
Opava
zemském
Jugoslávii
##anne
end
Víta
dostupná
židovský
vnitřního
##LR
##řáb
Mý
##film
vzít
kontej
μ
##skie
##řském
sporů
hrdiny
otázka
Rozloha
obvyklé
nejúspěšnější
spolupracovala
##liště
oboha
nárůst
měřítku
střecha
turnajů
členských
##lomě
##jském
írán
celov
příko
slavné
designu
##mují
sau
Husa
##ceného
stálé
vystavěn
vypracoval
ředitelství
##001
Slá
omít
##ropole
jimiž
návrhů
pařížské
věřících
nejrychlejší
poslaneckého
##šl
##ets
##nar
##pru
ese
Luka
kandidátů
zachránil
##ínů
dnem
##natého
drůbe
Hamilton
ohrožený
povinností
celosvětově
##nité
stere
naděje
pohřeb
schrán
vajíčka
dosahoval
dřevěných
BR
Kolo
Your
úmlu
vědců
zlatá
černého
svobodný
upravena
dobrovolných
ď
plech
Dvořák
Dánsku
Academy
parkovi
porodila
##kářem
1789
1825
vykonává
Libu
pryč
učit
osobou
knihách
reality
TC
##ždil
Fat
vyž
Glen
Rang
dobro
jízden
svatbě
zamířil
budoucího
doprovodu
##čic
##nity
Ont
ztrátu
nákladu
Francisco
##dií
SMS
dána
konstat
německo
uložena
informaci
##tiho
##zemi
zka
Ulice
tragé
obrazem
sochaře
pozdějším
zaměstnance
elektromagnet
##enau
##rici
Dolních
nabídky
Leopolda
technického
##labí
##omír
vzbu
Galerie
komorní
kosmonau
asistentem
lip
##craft
Dílo
Stro
odli
pásmu
odchod
starou
částku
dálnici
sídelní
Eg
Fy
##kánů
hed
tat
##línské
Taylor
ženský
nepřímo
závěrečné
označovány
rozmnožování
##not
Thi
Konf
aneb
úkor
oleje
záhad
volného
Ladislava
dinosaura
přihlásil
architektuře
##žným
Ort
obžal
Severního
Ota
MUDr
Trav
##grafii
Klubu
souvr
uvést
Znojmo
čestný
dřeviny
existoval
uměleckého
bezpečnostních
ZX
minor
kritéri
licence
nazvaný
převzetí
zakoupil
zásobování
##alí
##ark
270
Raj
učili
vodov
Jáchym
invaze
Tha
dár
opí
zničil
naznačuje
##moz
##otu
##gang
##mají
doly
Španě
##fikované
umělecký
Bac
Žlu
##inují
příp
ptáky
diplom
výklad
##kovaných
dostupný
příbuzné
předčasně
zaznamenala
um
##gium
léká
synte
trvalé
lah
Krej
##zovanou
výškách
dosaženo
stanoveno
##vey
Vej
plí
utvá
tloušť
celoveč
manželé
tramvají
##tery
Leh
Game
jaro
dobyt
bydlel
koupila
půlkruh
zrušeno
databázi
starosti
vybudoval
dlouhodobé
Wu
Jir
ero
odve
jídlo
##kajících
Východo
vyrůstal
seš
změnami
Olomouce
Encyc
Matěj
čtvrtí
školou
ekonomickou
##popu
psp
##lines
Alli
kostým
aliance
nechali
vstupem
zemřelo
územích
atmosféře
##hnu
Dej
Sobě
výchovu
kanadské
zachovala
čtyřikrát
přestavěna
##box
Dek
SME
##ziden
příru
vydány
schopný
hospodaření
Matthe
bratrů
propůj
spolků
královnou
spadající
příležitostně
##dik
##skot
šam
4000
poškozen
Uprostřed
Klí
mram
Arsen
dveří
##livosti
hmyzem
Viktorie
majitelé
vstoupit
produkoval
##hna
##uzu
##vád
##rnění
vynu
maleb
polích
uprchl
vybrat
Stadion
březích
pacient
prvnímu
typická
##ager
atp
##řenou
věnu
Objev
zážit
chlapce
spojeno
sestavila
zahradách
nizozemský
##ďa
oka
##stone
značení
novinách
organizační
vysokoškolský
##53
Mam
jam
Koruna
vejčit
výhody
tvořeno
vystupují
jednolodní
vznikající
nejznámějších
##čkala
Vyrá
exil
Dnešní
Přední
masivu
masivní
zaujímá
kapacitu
příbuzných
představovalo
Pil
##redit
##vením
##ponoval
Police
Rumunsku
britským
##vníku
lomu
Repre
##stalace
Pelhři
Orchest
kritika
##lích
Rej
kilogra
vědecký
nazývaná
hospodářského
##íř
##ču
Salz
lípa
keram
odstup
poskytl
sídlící
předpově
počítačových
##igan
blá
##ranil
topo
členka
nábřeží
tí
##něném
Hong
Bosny
Lisab
desít
##ovatelé
intern
častým
Rozkládá
vad
rané
repli
změněn
řídící
majiteli
nepřítom
Sportovní
##dele
##oper
##chání
půdách
sezonu
poskytnout
architektem
čtverečních
Mezinárodního
partyz
čtvrtá
právnické
kandidátky
Aj
##anům
##brán
sná
Vset
Louise
Charlie
dělníků
aminokyse
Ivo
sme
Bezdě
Smlou
vyslal
Jordánu
zdejších
obzvláště
odstoupil
##knout
Záhře
akční
probu
ruční
Varšavě
Věnoval
zkoušek
Obhájcem
eurofotbal
Žil
obil
Basile
Evropa
levice
strach
vypadl
zasnou
Silnice
dospělé
písemné
podcelku
koncertech
naby
Hraje
adresy
pořada
karoser
uváděno
##ain
OH
##hodný
Rail
##pustil
anonym
legion
městečko
pracující
##21
Tod
XIII
zdvi
Býval
pátek
kontrol
vyrůstá
změnilo
otevřená
##trem
##ánky
pouhé
##hradské
praporu
univers
Obchodní
označeny
sbírkách
umožnila
Posledním
rozhoduje
##ýn
žu
##perk
##zalo
Nau
Obcí
sklep
užívat
vystěh
Kroměří
žádosti
oznámení
##hůru
Dec
Jur
Ord
nechtěl
rozpočtu
##ismy
zóna
graná
návrší
oprava
nastává
propagan
##lům
##wich
bohem
loupe
studii
zapojení
zástavby
klasickou
observato
odborníků
##TR
##wel
sten
##telské
táhne
elitní
kataly
živých
dirigen
smlouvě
právního
významnými
##kne
##ück
##akce
##rány
Anděl
rybář
Doktor
panovník
inteligence
##fem
##šová
oceli
hnízdí
kapelou
objevilo
struktur
##cova
nah
##bíral
1793
utek
Znovu
křídy
srpen
zájmů
zeleně
legitim
následkem
##gno
učí
Hero
letů
Zprav
bakterie
obdrželi
architektů
zú
##heimu
akumu
planetu
vychová
neutrální
bezprostřední
LP
truhlá
hluboce
nevlastní
##dul
##fou
cla
tren
vyst
návštěvy
##fos
open
##štinou
Brazil
atribu
rozměrů
zasáhla
rozpadla
způsobila
nejsilnější
turistických
##skok
Cry
Fan
lůž
Žof
hore
Denis
nedov
upřed
Rachel
snížit
všeobecné
##kářů
Bech
nekom
prota
article
spojenci
##ronů
##inový
pouh
Řecko
Colora
Lincol
obsluh
polská
singly
Turecka
##ente
##inat
320
IBM
Mul
peče
##čeného
Defin
vzlétl
Farnost
výprava
městečku
souvrství
kritizoval
uh
##němi
try
ztvá
proku
##ovitého
Boston
neměly
Administ
MA
Hosti
Sýrie
jistý
novově
turisty
fan
Malaj
Moskev
Pomocí
palestin
realizace
modernizace
##alou
##zali
##ctions
Přerov
vložen
Ostravy
letecký
vydávat
ministry
##etts
Mex
##vostí
varo
##stickou
kompen
rozšířit
nejnovější
repertoáru
Pes
Rit
horu
ming
odně
##hrnuje
nepřed
přestavby
účastnila
##istu
mix
nárů
srst
vězeň
zasah
bezplat
halovém
kamenný
fotografické
q
Hní
Tis
##livem
trup
korid
kořist
Václavem
demokracii
##UC
##cts
Jit
1792
Over
Islám
Ondře
úseky
Prochá
běloru
trojice
vznikat
vítězstvím
##xikon
cítí
železá
Daniela
podčele
##incie
drti
inhi
Felix
návsi
palivo
webové
##hlédnout
Trenčín
horoleze
Parlamentu
operačního
##rák
Ami
kůži
potý
tahu
##stických
japonského
##árny
##život
1785
pána
##čského
Ústavní
řeckých
Asociace
Skandiná
Ble
duž
kloub
zabije
Gay
alge
světem
literárních
##žím
##sylvá
Palác
existovat
kontrolou
Jihoafrické
Koz
1821
Lady
výži
Aristo
působnosti
step
Bened
lidovou
člověku
představila
##43
##covou
Mess
cíli
pono
##inásob
nápoj
stříbra
emigroval
přátelském
stejnopohla
##atori
##lické
tibet
muzikál
jednotné
Jun
##light
1812
iDnes
mlýna
Předlitav
MiG
##dorfu
##oldav
German
Johnny
vítěze
sekundy
partnerem
pozemních
výtvarného
##fort
##icha
Java
Dream
kolik
případu
stávají
občanská
##fera
keř
bezdět
mužský
rozvojem
pojmenoval
##vier
Babi
zkla
činný
Miloše
Charlot
nalezena
mikroskop
politolog
můžete
nebezpečné
##enců
výta
nástě
Stříbr
McL
1809
Pohonný
pořádání
upřednost
##nič
##káři
štu
Jiné
Wars
Debut
přímým
violon
Run
nápl
Literá
zemřeli
Vídeňské
účastník
Protektor
požadavků
##hall
##itým
Fly
opy
Bruce
novému
přežil
vodopád
zůstane
vybraných
##ée
##ohlá
Emi
Luc
##átora
Bren
##přímen
Datum
Tyčin
dodat
Avenue
znemož
kapitola
litoměřické
pravděpodobnost
Tó
##elekt
##sburg
##šovat
pravdi
vyzkou
anglická
dokonale
správním
Bartolomě
##HA
##onia
ITF
bobu
mapa
Válka
vysvě
obnově
tvořené
Jednotky
přestala
Přemyslov
existovaly
##atre
Lap
dekre
##o
##e
##a
##n
##t
##s
##i
##l
##r
##v
##k
##d
##u
##m
##p
##í
##c
##h
##á
##z
##y
##j
##b
##.
##ě
##é
##,
##ř
##ý
##ž
##č
##1
##š
##ů
##0
##g
##2
##f
##P
##9
##S
##"
##V
##)
##(
##M
##A
##B
##N
##K
##8
##J
##T
##5
##3
##D
##4
##-
##6
##7
##R
##C
##L
##H
##ú
##O
##I
##F
##Z
##w
##E
##x
##/
##G
##:
##Č
##–
##U
##ň
##W
##ó
##„
##“
##Š
##ť
##;
##Ž
##ď
##Ř
##'
##Ú
##_
##%
##Y
##X
##*
##ü
##q
##=
##ö
##&
##?
##Q
##]
##[
##ä
##+
##°
##!
##ć
##Á
##ł
##’
##а
##è
##×
##”
##о
##É
##§
##и
##Í
##е
##ľ
##ç
##н
##р
##−
##י
##—
##ß
##Ť
##ë
##ń
##в
##ô
##Ö
##́
##†
##ו
##к
##с
##ר
##â
##л
##•
##ø
##>
##т
##α
##ė
###
##ñ
##ę
##|
##Ó
##ל
##<
##ה
##å
##ą
##à
##ś
##ã
##ā
##ב
##ă
##מ
##א
##ő
##ı
##μ
##‘
##נ
##Ľ
##д
##ת
##ο
##у
##Ď
##~
##ا
##м
##ş
##$
##→
##ש
##ς
##æ
##ח
##ż
##ע
##Ý
##ê
##ν
##й
##β
##ρ
##ד
##Ś
##ь
##г
##ι
##ș
##ч
##ː
##ן
##ū
##λ
##õ
##С
##я
##п
##ε
##ل
##»
##đ
##«
##π
##ð
##τ
##ī
##Ě
##б
##ə
##î
##γ
##ק
##ּ
##σ
##ג
##К
##ğ
##Ł
##κ
##ï
##ם
##А
##ы
##פ
##Î
##ț
##з
##ي
##М
##€
##ر
##כ
##Ü
##ָ
##ְ
##′
##В
##ס
##©
##Ż
##ַ
##δ
##П
##ò
##ˈ
##م
##η
##צ
##·
##ִ
##‚
##ō
##ц
##ē
##{
##ų
##Đ
##}
##Å
##ن
##±
##Б
##ί
##û
##⁄
##و
##Г
##Ç
##ז
##х
##Р
##ш
##ب
##ъ
##ź
##Ň
##ά
##ό
##ω
##υ
##ì
##ù
##ט
##Н
##@
##د
##И
##Т
##İ
##і
##О
##ŭ
##θ
##Д
