[PAD]
[unused0]
[unused1]
[unused2]
[unused3]
[unused4]
[unused5]
[unused6]
[unused7]
[unused8]
[unused9]
[unused10]
[unused11]
[unused12]
[unused13]
[unused14]
[unused15]
[unused16]
[unused17]
[unused18]
[unused19]
[unused20]
[unused21]
[unused22]
[unused23]
[unused24]
[unused25]
[unused26]
[unused27]
[unused28]
[unused29]
[unused30]
[unused31]
[unused32]
[unused33]
[unused34]
[unused35]
[unused36]
[unused37]
[unused38]
[unused39]
[unused40]
[unused41]
[unused42]
[unused43]
[unused44]
[unused45]
[unused46]
[unused47]
[unused48]
[unused49]
[unused50]
[unused51]
[unused52]
[unused53]
[unused54]
[unused55]
[unused56]
[unused57]
[unused58]
[unused59]
[unused60]
[unused61]
[unused62]
[unused63]
[unused64]
[unused65]
[unused66]
[unused67]
[unused68]
[unused69]
[unused70]
[unused71]
[unused72]
[unused73]
[unused74]
[unused75]
[unused76]
[unused77]
[unused78]
[unused79]
[unused80]
[unused81]
[unused82]
[unused83]
[unused84]
[unused85]
[unused86]
[unused87]
[unused88]
[unused89]
[unused90]
[unused91]
[unused92]
[unused93]
[unused94]
[unused95]
[unused96]
[unused97]
[unused98]
[unused99]
[UNK]
[CLS]
[SEP]
[MASK]
##je
p
s
,
.
##na
##ra
##ni
v
i
##st
##ov
k
je
##re
##li
##ne
d
z
##ri
o
##la
##ja
##no
##le
na
##te
po
##me
in
##sk
##ta
##ro
##ti
b
##an
##lo
##ga
za
##di
1
##ko
##ve
##ji
##to
"
se
##ar
##jo
m
##vi
##al
so
##se
S
##ka
P
##en
u
ko
##ci
bi
##ju
pre
##vo
t
iz
pri
##mi
##ce
##de
##po
le
##go
ki
##ma
##va
)
##či
(
M
do
te
##ru
##če
##ki
##ski
ob
##nje
V
de
##ke
##sti
a
K
me
2
A
š
##da
N
##ske
ra
19
od
-
##er
T
L
##mo
B
##sta
pa
g
##nih
##zi
##lov
ne
##lje
##pi
##bi
##or
ve
##lja
##ča
da
##udi
D
e
ka
##do
##nov
##ku
##si
R
##ži
##gi
##sto
raz
f
leta
I
C
##pe
vo
G
re
##ca
##sa
##pa
Z
##bo
##že
tudi
##tu
20
O
kot
mo
pro
##ovi
J
##be
h
##sko
##za
H
##nji
##nega
:
Po
##gra
##lj
##lu
F
##so
sta
##ran
bil
##ove
ta
dru
E
##ho
##ši
##ska
##kov
##lju
bo
pred
Na
##mu
naj
la
st
si
##pre
ni
##rav
med
##ge
pod
ime
##anje
pr
nje
ce
##ze
##nja
##mb
##ste
##ža
ma
##co
##ški
sa
svo
##du
##še
##nu
##nik
200
Le
##ha
##skih
##on
##ba
##nem
to
bila
##he
ga
##tov
##jih
3
vi
##nost
Ma
##gov
##nosti
##red
še
ali
##ur
##skega
sto
kon
di
##kra
18
sve
##čno
##ške
pe
upo
go
##zo
kate
/
##gu
##hi
##let
##blja
##mer
č
zna
##dar
kra
##il
U
##men
Za
več
##val
##lji
##su
ča
sku
Ko
Me
vse
##radi
4
ro
##hko
##ša
ter
voj
##man
tem
##fi
##tni
če
lahko
##čni
ži
ju
vr
##in
##lni
##lav
##zna
##pu
W
upora
že
##loven
##ver
mi
veli
Š
##dni
##bu
##anja
##stav
5
spo
##stan
##jem
##ravi
Ne
##love
##god
tako
##tro
Leta
##ško
##ter
pos
li
##tor
##ral
##čne
##dno
##ch
Ka
«
»
##00
##dob
201
nov
ima
##stvo
;
šte
##ova
##skem
##cev
nas
##rža
##ul
os
nad
199
##šči
##njih
pove
no
##prav
##jer
To
##tih
##cije
##ng
##arja
ja
vz
##rani
##šče
##led
an
##tno
pov
##den
##ču
##lan
##bli
Ta
##tev
##jev
Re
zače
ok
kjer
del
##tra
bilo
drugi
pi
jo
spre
števi
##cija
kar
drža
6
##tr
Ve
##ovo
Pa
##jši
jih
ti
neka
sloven
sk
##el
ž
Mi
razli
hi
ze
Ro
mu
##koli
Pri
##spe
stolet
##nski
Sa
Do
##meri
##nom
Bo
pome
av
##nes
zaradi
##čen
Ra
7
##lek
samo
##sem
##sne
8
lju
Č
##pr
Lju
##stva
##tiv
##mr
tre
##pis
##tri
or
–
Ja
##zni
Se
be
##teri
##čnih
##zu
prvi
##ljen
tr
zgod
gla
9
Mo
An
##krat
##spo
kri
##cu
n
##rni
fi
##nal
##redi
##jejo
##ber
njeg
15
##ven
##tek
##seb
##cij
posta
17
zd
##tre
##stal
Slove
##fe
##lija
Ju
svoje
Ljublja
nase
obli
Pe
##cijo
lo
mesto
##čna
De
##ška
Sloveni
##bolj
##čil
##šča
##del
##klju
vla
194
ba
##un
##zem
al
igra
kateri
##bra
198
##tan
##endar
bili
skupi
##olo
##ali
##plo
##dov
št
La
##pro
Fran
proti
eno
katere
##sni
of
##moč
##ren
njegov
##kom
Te
##kih
##sar
##im
##anju
##nar
njih
knji
##št
10
##kri
Be
##ških
##nim
##dal
gra
ar
Ob
dve
Jo
12
##stri
let
'
Vi
##hod
prebi
poli
pra
uporablja
c
tri
Ba
16
##čin
197
##pri
##tem
Med
ri
##ol
##žni
##vro
ena
svetov
##gle
*
##dil
##pli
##vu
##jski
Od
##gani
cer
Je
14
saj
##žno
In
##th
veliko
##tve
##anj
Da
##več
okoli
##lno
Al
##mbra
pla
##stu
vendar
prebival
##ten
Go
delov
##vr
Li
ge
ustan
##kal
##njem
dela
##vil
pogo
##jav
Mar
##tvi
vsa
##daj
glas
##nimi
##haja
##ner
zelo
196
dobi
13
##vaja
##for
Ca
##nova
primer
##šč
glav
dvo
##vanje
Pre
##us
zve
11
##met
ver
##rez
##vali
##jet
sko
zad
va
dose
živ
dol
tega
najbolj
Ar
##stavlja
So
str
##nija
##oval
času
##len
##pra
zgra
gle
pravi
zato
0
##sneje
##škega
stoletja
##ljena
##nsko
Mari
uspe
teh
km
##fa
##nika
##ladi
##tom
##sli
Ž
##stve
nove
zgodovi
##gla
letih
II
Ni
Di
##jen
gospo
nekaj
##rno
celo
##čina
fil
delo
195
organi
fa
Si
Iz
bolj
##njo
##niver
##ck
par
Lo
##iz
##sed
postal
##nil
du
mor
##tar
strani
kro
pomemb
##up
The
Ha
##ciji
##leg
nem
##der
voja
##lec
obi
##vni
Pi
ci
##čino
delu
name
##var
leto
##jše
##cer
##cio
193
Če
tu
##gen
##000
##pisa
##roči
dva
##logi
##zen
sli
fe
##ksi
]
##sno
kr
Co
[
Nje
##delov
Ti
##roč
Pr
ho
##stra
##kon
##mati
Veli
for
##ledi
druge
##tt
##pada
jezi
##mov
prav
##mor
politi
##lin
the
siste
nato
##rod
smr
##bor
##pravi
tek
Lu
##stopi
##stop
##jno
##stro
pol
njegove
##dela
192
mno
tele
##vsem
druži
vklju
191
naselje
##tin
osvo
##meni
ru
##rija
kralje
šti
##raj
##rb
zapo
##nica
##čnega
##ljub
##jša
##ton
obdob
dolo
fran
osta
##sla
Ri
##ultu
sred
##ved
##jš
znan
predvsem
##telj
ši
##tne
##mp
##cen
kasneje
gro
##novi
cesar
ji
Naj
ome
žen
##ler
##gre
sla
##paj
##žen
He
ple
Av
##tion
števil
potre
##pove
največ
cerk
niso
##stvu
Bi
šo
Sloven
##lih
##kovi
vpli
držav
območ
##gel
†
en
##kar
##nj
##naj
##ranje
nasta
Sta
##niki
##van
brez
bile
sezo
sredi
oseb
ško
##bil
čla
Fi
##rom
skup
Ce
sever
and
viso
##nec
izvi
##dan
izra
stro
##lom
napa
uprav
oto
razi
last
%
dir
slu
##bru
otro
mora
og
poz
nagra
svojo
kultu
##jske
_
slovenski
##dru
štiri
Evro
##rie
##dat
##publi
bese
študi
druž
##mber
##stavi
svoji
pose
##talija
njegovi
##nske
ak
##tal
poveza
Ge
ust
bli
##jek
nasled
##maga
##ljeno
##hu
##smi
##hov
##jena
franco
##ril
ste
##rja
manj
w
##deli
##nan
zla
prvo
Hi
##tera
glasbe
su
##pisal
Slovenije
##slov
vodi
##jskih
##šel
##zira
Ru
osvoji
##pera
skupaj
rim
grad
Y
##tori
posa
Vo
##lijo
ustanovi
##net
prebivalcev
število
##vze
mesta
Ho
obla
stran
nji
zdrav
000
ura
##hodu
vedno
povz
skla
##dali
Pro
##dne
##javi
##varja
svet
Ga
opa
področ
Ljubljani
co
##por
ker
##škem
staro
sre
sede
elek
začet
##dje
##jsko
albu
življe
imajo
##dr
##dom
mestu
##log
##che
Ljubljana
maj
##vet
zgo
drugih
##vno
##jših
pribli
##ster
##gan
mar
Du
##son
naslov
##sov
žele
##ktor
##daja
danes
##čine
##rva
razvi
oče
člove
##roma
stoletju
##mpi
odlo
čemer
##anjem
okro
podob
polo
##nju
oh
##prej
##dra
izo
pogosto
bra
##novno
odkri
obra
Bri
sodelov
dece
##pte
Dru
nadal
##tna
vseh
##cial
##kli
razvo
Njegov
Kra
pote
ozna
dob
##alu
član
Nem
letu
##nah
gr
nekateri
##rje
prve
##staja
plo
mož
##som
##vanja
##od
igral
##ty
imenu
##stih
Ki
##vah
organiza
Ch
##um
##nska
oz
katerih
pu
sin
regi
ameri
##hodno
##ss
25
spe
imel
Univer
##ts
vod
##per
##dri
pomeni
##stor
živi
30
sicer
##hodni
zas
##ard
##DA
##rov
večino
##nije
##sku
predstavlja
##bur
##ori
##kev
##ruk
##pusti
ku
##rne
pesmi
##mula
tra
glede
vojno
##šno
povpre
imenov
##lovi
##štvo
##memb
##mogo
2007
##ogra
dan
rez
Va
Sve
##cem
tur
##vlja
či
190
##nice
##tali
##ime
gene
##set
Ameri
prven
##rši
izvo
##sih
smrti
bole
##med
mest
##sel
Kon
##vih
arhi
dal
##vizi
Ze
##skim
Gra
okto
približno
##ron
##ry
janu
##tovi
##ks
vlo
##njega
ZDA
##nikov
he
##pol
katerega
##qu
##lozo
septe
##kaz
##pan
##kan
novi
##kul
var
okra
##jska
bar
##jel
umet
proiz
##ture
preko
posame
##čr
dveh
##par
##nali
##žil
##vala
##tje
prva
##trov
prese
##stega
doma
##sil
apri
##klo
različnih
##kro
bri
novo
Sloveniji
zah
pomoč
Ber
naspro
cerkve
##les
začel
##ljivo
##žje
##rbi
##is
zbi
##ala
##tere
##fo
velja
##sen
##vod
21
vojne
##šen
##ly
toč
zman
##kega
##sle
katerem
avgu
obe
dne
klu
poseb
splo
uvr
##tega
angle
svetu
italija
avto
##skoval
##dro
medi
##kor
##zan
hitro
ke
ozi
##šču
##ple
##gled
##line
skupine
Tako
2002
##žar
formula
##čan
Mu
man
takrat
##kaza
obse
časa
zdru
njegovo
ponovno
pisa
svojega
zma
poro
drugo
##kti
##mar
pis
koncu
##redno
Zaradi
##ment
kam
teme
oziroma
Fa
nahaja
stare
umr
fo
##sor
##chi
znanstve
2008
2009
=
##ib
podat
##ulta
cen
progra
Bil
##mbo
##cional
posve
vojni
majh
##ljeni
189
stre
celi
omogo
spada
zra
##ble
pape
mla
Kot
rast
pora
##metni
podjet
24
uni
##rej
Tu
22
##neje
##mpa
No
##kraji
koli
##unk
Pred
##vel
razši
##zor
San
gospodi
##nskih
imenova
izgu
dra
##nez
##nd
##dina
##žu
Gre
##es
treh
##kla
##dobi
Mon
febru
Bu
stra
uporab
2010
2006
##vla
skoraj
kla
učin
##tel
##lož
##tio
gre
Kar
priš
zave
##ger
##pen
poteka
##gh
##til
skozi
sestav
Neka
ljud
##ščini
npr
##gli
zu
New
deže
Kri
red
##publike
film
potreb
čr
##dol
seve
r
Ker
##jetno
##lar
govo
izmed
##naš
nastopi
ljudi
##gip
##pravlja
Ci
običa
##vajo
ozem
##toli
##stvom
##stre
arhitek
##čuje
poleg
##pad
##stoj
##rala
##čar
druga
gospodinj
##laga
##ščan
##nalni
##stni
##san
države
##meti
23
eden
##rec
začetku
##pla
položa
X
##ščine
##nove
pet
odpr
nek
leži
##ttp
Rim
##čal
##štva
##mre
dejav
##limpi
značil
zvez
Pod
ustanov
določe
##tura
opre
decembra
nepo
##ovega
Tr
svoj
duhov
##zma
##lini
##jan
En
Joh
oko
prosto
nava
Raz
##vega
Poleg
stop
prvič
##bili
##rana
fizi
##risti
dovo
zako
##mbi
gospodar
##tivno
##rijo
##govi
##vrop
cerkev
družbe
stav
uk
anti
##lina
kan
##kulte
##kova
pou
pojavi
univer
čas
lu
načr
##cha
svojih
##dna
vra
naro
večinoma
188
26
##dila
##čev
zem
površi
imenom
goz
##ologi
filozo
##jskega
##niji
dom
funk
##jal
konča
vsebu
sti
Su
litera
27
inter
##kah
##vne
spod
##šo
obo
Ime
##njen
vlada
##telji
zahte
28
##kle
postala
izdela
gib
##stev
##zije
##nskega
nagrado
##stem
profe
##ščen
posledi
##ob
sam
hu
31
popo
##forma
poti
##čo
Wil
sled
oku
##žja
glo
##kade
2011
sezoni
##gor
##govor
##ljene
##rije
roman
Nemči
##tnih
dobro
imenuje
mladi
ose
mese
deli
dosegel
?
Au
##ranja
ener
njegova
##javlja
bit
##mal
##čini
skupina
pozna
##lemen
##ovih
služ
##ak
us
##mom
slo
Gu
##kem
##šni
##gotovi
http
obdobju
Bar
narav
povelj
##dbe
kaže
verjetno
Cer
imela
proce
##jni
##nijo
maja
nav
rezulta
##cah
delav
##rih
##pisu
2005
sodob
medna
elektro
prevze
##zijo
##ser
##pelja
Os
tam
##skimi
2000
##pti
Bra
##mpe
##letnih
materi
vred
For
pokraji
obliki
##lil
##fri
2004
##čila
##gar
187
##vna
Gi
umetni
Že
##rali
dobil
##žne
jim
prija
krat
##rajo
medtem
##čnem
##naša
revi
Zdru
boga
##ent
##rob
osvojil
Hen
Fe
Wa
Man
&
temu
##stopa
##dustri
odvi
začela
Ke
čeprav
##zija
način
##selje
##wa
##mes
nekaterih
raču
vode
projek
##dele
##sh
Ku
najpo
##lia
##rek
srb
evrop
##nasti
letoma
radi
prizna
kriti
kole
obstaja
prime
Gori
##duk
Hu
##kr
We
izvaja
Or
##vede
##menja
III
##str
zašči
milijo
##šte
186
ide
50
ču
##sna
##vati
##rin
Prvi
##žev
katero
Car
##njena
sistem
tret
energi
nara
##zno
##ker
svetovno
prostor
letal
##dre
##gne
##lij
##kopa
##tru
septembra
izpo
##id
100
29
##nila
močno
##cal
veliki
žup
izda
Ang
preži
##dili
zbir
##krati
povzroči
viši
dolgo
junija
teža
Republike
ek
##ovin
##stru
mogo
presto
sv
Ste
sov
##čena
Srbi
##bej
##bri
##om
tež
Tur
poto
##50
tradi
jeze
posku
##ček
oktobra
kralja
slov
vlogo
Tre
##čih
##nisti
##tski
kralj
motor
stol
oce
življenja
karie
kemi
izvirno
##nen
vide
##raz
##rij
##rano
vzpo
##stov
##zuje
prejel
svetlo
zdravi
drugim
##ris
##min
##ljev
muze
deja
##jeni
diplo
##čka
edi
njimi
gledali
sledi
članov
Združe
40
##žini
potem
imena
##ley
##mbe
posla
2012
avtor
##nostjo
prispe
januarja
##traj
spreme
Par
##jskem
popolno
Še
njem
življen
##jeno
skle
ustvarja
##dova
##boj
marca
Pu
##nili
pot
##ravna
##rna
ženska
ure
oblast
fakulte
##nemu
album
ww
Sku
www
struk
##lie
zvo
bodo
##wi
vrste
psi
##res
aprila
julija
meri
uči
##ria
industri
izhaja
Her
olimpi
Spo
##stvi
tran
##jeva
##mini
##viš
premi
##mon
##metri
tak
##setih
prece
Itali
##ljo
##čnimi
Lon
izobra
Jugo
pravo
##dnja
tempera
##bora
Per
Sch
pridobi
##mih
življenje
##šal
Nor
Pla
umrl
zuna
osnov
##dija
špor
##cih
reke
področju
##dijo
običajno
četr
##ziji
##mpak
strokov
##nike
##ld
moč
pomaga
##ziv
##ssi
kmalu
Gr
spreje
##fije
pride
pesem
sp
dok
isto
razvoj
Veliko
##nir
##pov
##pora
njihova
medal
tvo
raziska
##kademi
##tvijo
##čajo
moških
##tran
##lago
uvrsti
knjižni
por
##nici
vodil
klasi
##ff
lokal
Tudi
avgusta
posebej
##temati
##gal
##pisov
vasi
glavni
Sto
##int
uporabljajo
##land
Har
##ščina
osred
on
##membne
najde
Ver
napisal
Fo
Con
uporabi
##ščino
2001
sestavlja
##čer
##vec
pomočjo
##nek
današ
##ljenje
zased
##sednik
##šla
teori
##nij
##čili
##dja
bolezni
##don
novembra
##tina
Alek
##ben
viš
bolni
različi
##mak
tov
Tri
IS
predstav
##leti
repre
##dnika
##riji
##ir
vrst
vsebuje
##rami
##čnim
zase
svojem
2013
okrog
velik
dr
kamni
jav
##zov
##šne
opera
com
per
zadnjih
števila
komu
doda
nadalje
##dia
##rane
##gri
vpra
šest
##jajo
ravni
2003
naza
##minja
matemati
srednje
##jene
utr
##tja
pala
malo
Naselje
sveta
##turi
1999
eki
##volu
##dor
##ya
vrsta
dele
ampak
razpo
##ph
##prva
leti
##šti
profesor
priče
##pravil
proble
opo
184
pozi
zlasti
##rili
##imenov
##nos
Q
deset
kita
reprezen
##tuden
mnogi
##boru
Dra
##tnega
jugo
torej
tej
različne
Janez
##danje
preo
polno
##bert
##dnih
šola
samostan
Evropi
dni
##novo
poško
gradi
eko
Lan
Hrva
uve
resni
imeli
postavi
Bel
potr
##liko
ukvarja
oblikov
##slav
##časih
##turo
##rati
poveča
kolo
reši
##dba
vodo
Egip
posamezni
preda
social
##časno
vojske
##javil
Glav
Vse
bro
popolnoma
uporabo
enega
##stare
##lika
##tz
biti
##skov
priso
elemen
##gaja
##manj
##tur
metrov
Fer
njegovega
Pari
##menta
imenovan
učinkovi
njegovih
Šte
Sever
##ovem
medici
vladar
at
Bre
dinasti
##imna
##sijo
Ivan
meto
more
prista
naprej
reprezentan
šele
bližini
kako
##slavi
zapusti
naselju
številne
nepos
##mpo
sedež
##kaj
##duje
##ing
mini
##žna
##har
2014
območje
Prav
visoko
družine
##gna
nor
vsak
sprem
škof
februarja
Kr
##tona
Saint
##kovo
##bar
stoji
sezna
krščan
udele
Avstri
##nskem
skri
Ži
železni
njim
posne
knjiga
šolo
starost
začeli
ha
mogoče
mnogo
pridru
Yor
rde
ustva
območju
##njeni
##telja
čez
polovi
astro
Por
|
dre
##škim
velike
vsi
priza
živali
##sob
precej
prej
##nejo
pomembno
upravno
prepre
zaklju
oro
gori
dia
neu
##tsko
##ljiv
val
zahod
trgov
lestvi
##sch
##fika
##nami
zmanjš
govori
igrah
##rab
John
##vin
185
svetovne
kljub
Čeprav
1991
parti
##cep
##rik
prepri
znana
!
1994
doži
temelji
zamenja
60
oba
##ndar
Han
neod
##tivne
spozna
##ds
občina
najprej
Kralje
Njegova
nalo
središče
##žan
svobo
povprečno
kapi
##nomi
Son
Kljub
##zil
hoke
##vami
##vine
spro
##feren
pojavlja
Cha
##we
svetovni
televizi
pripo
##rel
pozneje
##lagi
simbo
##dobljeno
enako
komi
##ljem
povzro
oči
181
Zgod
elektri
##nico
1992
spremeni
##kre
žive
večje
slikar
Jan
predsednik
##dih
vrnil
umetnosti
moral
St
Peter
tla
Pra
otrok
večji
tan
##rodni
##tske
##ciali
vsako
nobe
Vr
trenu
##cho
drugimi
sr
ISB
špan
obču
okvi
Jože
##fija
Jugoslavi
najviš
primeru
##rski
##nologi
naredi
##jema
1998
##meta
##mina
##dvi
##dilo
reži
Aleksan
napre
##sled
zdaj
čast
##tisti
Veliki
proizvod
##lije
ohrani
dirka
kmeti
##zal
ljublja
foto
kana
nes
reak
ISBN
##prave
lov
dvi
##vom
Chi
notra
Srbiji
informa
opravlja
##tnik
dolži
skupino
založ
jezik
roj
ligi
##stero
vojvo
vzhod
von
##hor
komp
##cia
##nic
vključno
oblike
raziskoval
uli
srbsko
##teli
množi
odli
kisli
občine
##mba
Wi
gimna
ur
180
odra
širo
istega
183
2015
zadnji
bre
1996
##gni
zbor
Ed
psiho
prvih
finan
dogod
##rila
##sija
Zem
##lino
##dovi
1945
##ograf
sodeloval
njej
njen
sodi
##ut
pogod
smrt
##zar
vključe
##stil
vrh
##ljenih
##zozem
##mani
vpraš
1990
Evrop
dokon
šoli
kape
posamez
##tis
##lon
##ranju
vpliv
zago
nastopil
##tma
nu
povprečna
##lili
prote
nogo
##mreč
##gy
##shi
doku
##dnje
niz
##šna
1997
tretji
##dek
neodvi
januar
zmaga
pripove
nare
##skemu
##šli
nena
nikoli
ženskah
##tok
##au
dobila
včasih
provin
##lega
##čiti
nemški
vidi
##dome
ljube
VI
predse
divizi
slovenskih
svojim
šol
##nin
obdobja
program
##rio
ab
avstri
##struk
sode
zlo
##ft
##kami
zaslu
Italija
##dbo
najpomembne
pesni
##kazal
produk
slednja
klub
učen
##tes
koncer
imelo
prepo
hkrati
namreč
študen
##slu
Gor
##ovala
prin
##fan
ameriški
začne
Vz
genera
##tus
najboljši
general
kre
manjši
##notraj
narod
35
##20
##que
sle
popu
sedem
##fini
mati
grob
ugotovi
##jevi
Afri
ostal
omogoča
izbolj
razmer
obravna
zo
##liza
##stopil
mednarod
##the
##desetih
zade
velika
##zer
aktiv
prišel
Cor
zav
sreb
##lišče
star
Maribor
napisa
##dbi
ured
podpo
doseže
Bal
katoli
##džar
nače
##slovan
objek
##sarja
##čem
slovenske
##štitu
prizade
severno
olimpijskih
##rus
##reti
##glo
nima
natan
postav
ustanovil
##han
okraja
obeh
##bel
Kasneje
Vendar
80
peho
upravnega
##dy
##tavlja
ohranje
##njeno
Eu
##žo
pode
kaj
osem
omenja
katerim
son
gospodinjstev
zmanjša
zgor
##rist
deluje
večina
##fu
##alni
rezultate
snovi
zapr
številnih
##miš
##kta
nadzor
##gral
gospodinjstvo
pokli
##danji
blizu
##tional
##rt
oblasti
##melj
Geor
tro
cerkvi
##fijo
Kan
vojsko
##las
ska
##db
mne
##gr
Vsa
odloči
vas
l
akademi
##gue
ca
nekatere
voli
revolu
##čanje
##pel
El
##tivi
##ovali
razgla
##alne
sposob
##tju
razme
nadome
ostan
##redo
##cy
nasle
nevar
45
Davi
prepro
1941
##ces
##govo
južno
prevo
Svetov
##kuje
##žila
##stavil
glavno
##liji
##ati
zavze
polnoletnih
Qu
konca
standar
##jah
Pridobljeno
Bla
morda
##rica
februar
##vanju
razre
arhe
komplek
cm
1995
vpliva
##alno
medaljo
odno
prene
+
uvelja
smu
podo
razu
obliko
##ganja
znotraj
zazna
sed
##cijah
ljudje
napad
Can
##cijski
##poli
ope
kne
##ovan
Bro
kva
izobraže
IV
##dnik
Nekateri
Mladi
gradu
##fici
Knji
##jeve
##mir
obdobje
proizvaja
sklada
##šek
##pom
britan
##bre
36
same
Bur
stolni
pretek
državah
skupnosti
kor
##partma
Kita
ol
zaposle
Sla
Ale
zgodovini
##ny
##kt
filmu
slovenska
kilo
sina
svetega
##hoda
pev
prebivalci
##pal
##riti
##sije
##vez
denar
temp
Mesto
praz
umetnost
hčer
pomembne
roko
književ
##sal
stru
znano
položaj
najstare
Fri
neo
upravlja
##stno
slovensko
klju
geo
##stitu
vzhodu
##čje
posledica
prika
diplomi
potov
državlja
velikih
republi
največji
Špa
prišlo
severu
teo
oblika
##mil
podjetje
konec
Inter
festi
##sten
sistema
uporabljali
##fer
Ško
##mena
potrebno
jugu
Svo
sami
tekmov
računalni
Tra
Dan
sme
##losti
njihovo
slovenskega
##dala
##tino
državi
klo
podlagi
besede
##gom
gu
##jne
podpi
izved
zi
obiskoval
32
##jna
##kel
voda
končal
##glav
hla
štirih
##juje
premo
francoski
##štvu
dostop
179
Mer
neza
##čevanje
##tivni
1993
izko
nosi
priljub
##čju
Gro
##najst
znanosti
odi
albuma
70
traja
popisa
##žem
polk
182
##lova
##čeno
Ana
tedaj
vojska
cesarja
ban
imen
zavezni
Večina
##des
epi
Slovenija
Willia
ža
##čega
Danes
##car
pomo
prek
razlo
poroči
##tti
para
##rože
2016
nemško
##lem
njeno
večkrat
##menti
hri
znanstveno
##kvi
priča
Amerike
marec
##šu
poja
prevaja
Char
domne
smeri
##goste
tiso
navadi
##rat
33
##morni
##oni
posto
izdaja
cesarstva
##čič
Brita
šole
anali
brona
##dij
telesa
38
prejš
##kteri
sveti
splošno
zgrajena
##vek
##sbur
obsega
##mah
splet
##lne
sezone
teko
Universi
drugega
lastnosti
isk
Val
samostoj
zgodovinar
spet
it
predme
naslovom
90
##jevo
regije
##78
41
Univerzi
##lip
##govarja
##sci
univerzi
sur
občin
takoj
1944
območja
študij
##tic
##čeval
letalo
april
##rine
barve
država
##gio
##tska
vre
Wal
departma
dedi
december
zveze
pokri
nazaj
sovra
preje
ostali
##mni
Najbolj
hrva
vsaj
pokaza
dovolj
odgovor
upoko
Koro
Wor
eks
oktober
časov
meta
ladje
Italiji
##graf
kralji
osvojila
podobno
sprva
povsem
pristani
##čenje
##ad
##tka
##jenih
##toni
dvema
fakulteti
poko
rimsko
neko
izšel
##tovo
listi
##ssa
##janje
##bila
pad
##ovolj
trgovi
dirkal
##ana
##koliko
##pil
prevzel
York
Grad
prvem
sub
##tranjo
spreminja
43
prevla
##nikom
##čujejo
42
organizacije
##as
dobe
načrtov
zele
Konstan
##zori
oltar
##stjo
zaposli
mole
sedaj
##pravo
izraz
Zato
Spe
lad
##denti
most
des
Franco
milijonov
preu
##tnika
##razu
kore
##čani
junij
##žji
tisti
1943
1980
1988
razde
poimenov
mm
poso
##cami
Bene
bitki
##jšo
##govz
##can
spremlja
1942
izku
##žili
demo
jezika
številni
Upora
zgodovino
##čeni
podatkov
papež
skupini
##berg
##stične
39
novih
treba
##dajo
vsem
##imen
##ns
##vnih
Fre
sestavi
ad
polj
##at
##ll
##ona
Ima
37
##vide
##cijske
primeri
Občino
Bru
34
##pelj
44
uspelo
september
avgust
##manjk
predstavi
ustanovljena
zemlje
razen
##čnost
podatkih
Bor
uradno
prihaja
filozof
pomemben
enote
°
Vla
zali
oddal
vojaški
##mski
##lep
naši
prepove
Prva
der
bla
##ine
pokopa
julij
Kor
prepozna
italijanski
ih
izjem
časo
vojna
##ford
Novi
##ksikon
1974
priti
priprav
november
##čja
kombi
manjše
##njene
##pisuje
poe
Jane
Prvo
1987
rela
okviru
tehni
imenoval
umak
##use
podjetja
##zij
1989
##ban
Nato
postop
zahodu
katerimi
##zon
##tnikov
seboj
bu
##topi
prihod
##timi
vrsto
podeli
##mana
##stveno
nekoliko
Kana
vsebi
indi
organizira
##my
Japo
severni
##žnih
Medi
poča
tru
##roza
nesre
##grad
sosed
njegovem
##ling
At
loka
niti
deloval
prvenstvo
##tjem
česar
bliž
prvega
Zna
reki
bio
##gro
Največ
##ye
University
ozemlje
istoimen
##it
Nova
energije
##čijo
nadško
##tica
##ther
poslov
dirki
izvira
##dge
teče
##ms
##zom
osk
Tho
jezikov
##dije
prebivalstva
##alna
pomen
jugovz
defini
Miha
toda
naslednje
##uper
nastop
hrani
uspešno
sile
mr
##ght
##cke
zapi
nastala
##jšega
Mor
meha
video
premaga
##vari
dokler
ustre
kažejo
moči
##mos
Tro
vzhodno
##kola
##metrov
##tskih
družba
##sse
##ted
##liti
##tvo
področja
Zla
uredi
##nari
##snih
knjige
vladal
srednjeve
##joči
kata
nepre
prisi
skupno
vrhu
Ger
pobo
koncen
##tologi
kme
##cijsko
sing
##ou
##lila
##gleda
usmer
otoka
500
zmanjšanje
##zili
2017
osebno
##ljive
kraju
mnogih
tehnologi
##rika
namesto
##teljev
briga
naslednji
##biti
enot
obnov
##vanjem
popula
največje
stri
telo
##mno
Duna
vrni
razume
##dnega
vir
kompo
glavnem
dinastije
Mc
kraljestvo
Franciji
notranjo
##dniki
reli
človek
ap
meša
objavil
##rnih
##čki
Sred
##tost
Andre
##maj
prvenstvu
njena
pobe
Ben
Gle
##stava
vrednosti
impe
##ovanje
##lah
48
stek
razdeli
Press
##10
sega
Cerkev
rodil
njihove
žu
##čke
##tivna
ponu
delih
##ward
tovar
družini
##tvah
eni
družina
organ
preme
##rbe
##čnosti
Drugi
zahodni
egip
izlo
vzor
izu
glasbo
Kraj
##ün
##lena
uporabe
publi
Zagre
ravno
Kran
delovanje
dogaja
Nemčiji
##rok
##ham
opravi
fan
slav
##kala
##mann
Slovenski
46
nastopa
##ljiva
zmo
nju
nanaša
pripada
najdemo
rastlin
poveljnik
pomanjk
Dol
kvadra
##tions
kovi
##niku
šta
##tnem
as
sprememb
178
Mariboru
##šnih
##story
pripa
##rina
##žnega
##imenova
pli
pomembna
značilnosti
##tskega
oglji
vrednost
Sov
##nskim
izdal
47
1970
tisoč
“
njega
brat
naslednjih
##stna
##žnem
preh
zaple
Hol
Obstaja
ša
##tinsko
Vol
##tosti
izšla
moj
delal
kasne
##žnosti
##rak
vrsti
##ženje
##nia
izrazi
stanov
globo
južni
latin
pop
##žal
mre
##all
Stra
##šan
Rimu
dolini
##ide
njo
zakon
##vana
Cen
sem
beseda
##rn
trdi
zapored
tradicional
##bah
##ljivi
##štev
morja
astero
##diji
1960
delovanja
1986
##kim
vodja
vzdr
Nasled
dejavnosti
Kali
##taljo
obisk
bor
kandi
enota
predlaga
##lišča
odšel
izve
osebe
gosti
##rske
nadaljeval
novega
igre
ženske
odkrili
oble
študiral
##ovz
kak
Samo
##stično
ostala
##stne
edini
pravlji
Evrope
smi
Win
##pole
Polj
##alnih
življenju
##cifi
misli
izbru
##merno
enač
sce
gov
##stični
Lou
##vaj
##lica
##stvih
##lna
japo
zemlji
neposredno
šved
ozemlja
Cla
Mil
povi
##ljenja
blo
mono
plemi
preki
žival
##jemo
zaseb
posebno
##prava
##leč
zagotavlja
temveč
et
##škimi
minu
bizan
Bol
objav
##dago
##rigi
##doval
Drža
njihovi
okrožja
kraj
tera
Ludvi
##chen
zahodno
im
##stana
##čilo
slabo
##xi
mine
mlado
naziv
člani
postane
identi
##19
obzi
severoza
##neh
##wer
pes
zmago
rezer
toplo
##tter
##zne
##stavo
150
obsto
dreve
znani
##voji
meji
itd
kopi
katego
##seni
mode
devet
delom
Zgodovi
##tnosti
##onal
arab
dosegla
##gija
##gije
mikro
##stave
##zujejo
izbra
fron
nega
bataljo
odločil
Medna
obve
pokal
##strani
Ši
##žijo
Njih
njene
jugoza
##kin
boj
tretje
isti
zveza
smo
arma
vozi
##lice
uje
igralec
##tte
inže
parla
podal
##tta
hidro
spoji
Biz
1979
Vil
##torja
1984
pona
dire
slad
##ščena
izb
knjigi
##ken
Col
Zo
Avstra
arheolo
sporazu
varnost
koncentra
1985
poda
našli
težko
filma
Tam
vodstvom
pokrajini
##dnji
inte
obali
Leo
Stan
Nu
##zacijo
##ire
kraljestva
##sek
##ljivost
##rum
55
otoku
naselja
Britan
kakor
vključuje
otok
upokoji
Formu
Novo
Cerk
Sko
##deni
##ell
pravice
Ena
##žbe
nasi
##katoli
1940
##30
##ksa
##nesan
namen
Nizozem
##ciklo
Gene
vso
##tivnih
Avgu
##yer
##žuje
uži
##cor
##vnega
pisatelj
Njegovo
kulture
bakteri
##tniki
1976
muzej
letala
ute
1981
##bla
popisov
inštitu
##rah
kvali
##diti
##malu
umi
1972
##rodno
kraljev
Roman
zapisa
nič
1982
državni
svojimi
##tim
##jala
studi
Rimlja
Statisti
##neb
Che
zlato
napove
poslan
trdnja
zgradili
priklju
spi
##fon
vlade
##ero
miši
##tho
##lej
razred
Pol
drugem
odkril
zagotovi
##nejši
društva
Del
astronom
##60
letni
osvobo
poročil
zahteva
##cher
##tnost
Kmalu
spremembe
##tine
##cijskih
##nolo
Ban
##deset
##stom
oddel
stari
morajo
podmorni
##zmu
nau
nova
velikosti
##lnica
Ser
razdal
posk
izdel
stanje
oksi
baro
veri
##HL
##neta
nev
zatem
##fra
odpo
Fil
On
##nis
slik
rimski
postavil
jugoslovan
lepo
izklju
Uni
Nove
veden
Slovenske
fina
##burg
##cien
##zel
Die
##joče
tuji
povzroča
##stili
##ziral
1918
skra
vele
delno
direktor
Flo
##ciklope
kombina
52
zavi
reprezentanco
##os
Is
vrata
poskuša
severovz
##tanski
oseba
celoti
opazno
kluba
##dem
##žena
##danja
Ter
##nine
avtomo
vojaško
##žju
Petra
revije
George
reše
##tami
jeziku
opaz
##lop
grof
kip
prakti
##pati
##vem
1975
2018
civi
##40
##tudi
##rsko
enem
Dunaju
različica
hiše
slovar
##lnih
fre
##tua
1950
Univerze
1968
koledar
##drav
VII
opu
sama
veso
##kali
knjig
trije
produ
300
vseb
##pek
1973
##mas
brata
križar
##gno
Hil
polet
levi
As
Lin
##scipli
priredi
urada
predstavljajo
##phi
Mur
vzhodni
izvoljen
seku
dalje
Ča
kardi
skladu
orke
Sy
živel
##ardi
Ša
##pina
sil
##morski
Franc
spodbu
##jenje
Sovjet
##čene
Kre
1971
##budi
reka
preden
poten
London
##ovec
domači
morali
Teo
slogu
slike
juna
očeta
pilo
Nekaj
##vino
zai
dvakrat
raziskave
##jali
turnir
bolezen
točk
voljo
obr
Phi
pon
vpo
1983
ocen
Bizan
Mal
doka
festival
##stali
Združenih
##bilo
preteklosti
obso
francoskem
gale
področje
gore
vzgo
kraji
zgodovine
##šev
nadalj
Šved
Zvo
Druga
kli
pridružil
##zacije
Londo
morju
gradnjo
Ab
ustrez
tempelj
ljubezen
pozor
zgrajen
gri
nepri
prvotno
##jstvo
povezana
##80
gru
človeka
Jako
hiša
Glavni
Jose
##torji
##tak
politično
dokaz
Filozo
smer
##loma
celice
Hor
ovi
patri
##ela
nemške
poudar
tekm
duhovnik
prodaja
razvoju
##nor
49
našim
velikega
##dnikov
##tana
trg
Beogra
možnost
močne
sestavni
##bal
podporo
Pape
izbi
meje
nape
pojav
##nel
Gran
Tak
žr
Anton
##strop
renesan
##ovati
slove
##tnim
##mla
zvezi
XI
##ovanja
Pesem
gosto
x
##bele
##vela
Gal
Več
1977
cesti
jezera
jezero
moleku
obnovi
nacional
večjih
##lci
krajev
strate
izboljša
##hom
1964
##cka
Robert
družino
začetka
1978
obre
Ange
judov
177
razvil
osa
glasbeni
dvor
poslal
figu
Velika
pole
##ljivosti
preselil
##eld
##fiji
Men
##šega
lige
##ws
pas
polovici
možnosti
kariero
tekmi
petih
odstrani
zapustil
##wn
štetjem
##bori
grško
1969
##cionalni
75
težave
Edi
želi
##wo
mestih
njenega
ohranja
Ara
Vladi
glavo
desetlet
cesarstvo
starosti
##polni
##kujejo
evropskih
##bin
primerih
prvenstvih
##dobil
##žel
Van
bodi
preve
zunaj
David
celotno
enkrat
geometri
##ok
Fride
obramb
novinar
razvoja
##cijska
opisa
razliko
##redni
polja
##mur
lestvici
##izku
##ljeval
začelo
Ur
Švi
##bni
žena
stolp
njihov
snem
rimskega
Toma
sinte
postalo
najpogoste
##ngen
##tiva
1967
pušča
ene
1914
Pan
Jezu
##tugal
glavna
inženir
doline
širi
##br
vite
opti
raziskov
obto
zanimi
opi
ubi
Dal
brani
spomi
Parizu
stavbe
##12
Kata
material
1948
History
ov
gibanja
ustanovljen
##šil
polje
njihovih
kilometrov
##TV
”
Pos
##niti
rekor
prejela
##vina
120
hitrost
čimer
pripelja
##slo
Karel
##ganje
sovjet
##glas
Medtem
##tum
popol
##dana
Gar
hitre
##hr
##sis
Sha
slika
And
njeni
stranke
1920
##her
nih
soli
##tomi
urednik
okre
##et
cesta
##vija
nekdanje
Ogr
1930
##zacija
plošča
opisuje
Marija
zau
Ox
nezna
##valo
Nikola
izkopa
William
##ars
##tela
pedago
diplomiral
Ex
##ina
Francija
konstruk
##dio
##ženja
Rich
##by
izredno
papeža
##hal
##šena
zaje
posnet
##rd
men
govor
skupin
Statističnega
##sin
Martin
##gs
Filozof
##pno
zavrni
organizacija
##tova
53
##tika
promet
pisal
##teljica
fara
Micha
prestol
predsednika
ladja
večja
##luje
##gnil
Com
•
##logy
##malno
prijatelj
rodu
##jci
svetovnih
##nci
manjših
glavnih
##dski
gradbe
zaba
fotogra
zdravljenje
##stja
Mno
Ura
mehani
##tive
Formule
##njak
uved
hotel
prišla
pirami
##čanja
##tolo
domov
##jevanje
##šnega
združi
sistemu
vojakov
Ev
spome
##lik
##rit
bomb
Jugoslavije
Sal
kap
vsebujejo
##hodom
plani
vojaške
##dujejo
politične
sne
končala
mesecev
Johan
Olimpi
okolje
##tinski
mornari
omre
##njenih
ravna
znameni
Sin
ana
1939
uporabljal
##mbri
proces
serije
##žina
1965
pada
partizan
##meno
##žnost
gor
Euro
društvo
cilj
drug
##ux
apo
tvori
hokeji
teorije
US
eksplo
Mladinska
top
##ciklopedija
navaja
zdravstve
Vin
##tini
madžar
##tila
regiji
prostora
službo
republike
Tran
prete
54
##tha
##hol
temelj
departmaju
##vka
1946
Zgor
wi
##tija
turisti
##ram
##šta
navadno
##letni
1952
prines
žensko
##ena
##spa
uporaba
van
##lis
con
Skupaj
gozd
izvr
Podob
center
gibanje
reko
France
##rien
Italije
##stnik
okolici
##vange
seznam
Najpo
osnovi
imenujejo
Pogo
upošte
vsemi
besedila
Var
##dah
loči
snov
večjo
##siji
1962
51
asi
rea
večini
##lnim
Trenu
ceste
poklic
svetlobe
##zmi
uspeh
enaka
magi
##redoto
povezuje
podneb
zgradil
angleški
šir
prekri
Valen
smučar
otroke
##sco
sklo
konku
Sv
##nese
poru
točke
potekala
##ženi
div
65
model
srednjem
želel
glavnega
##bov
##ang
##leni
vul
prito
pomena
odpravi
Zve
Obi
agen
##hni
##serva
1938
1947
1966
dvaj
org
##stein
trenutno
navz
zasedel
Dar
igri
sploh
končno
ostalih
##rata
##ed
lese
Mün
Toda
dolgi
nastane
Nemčija
1919
knjigo
Grči
##ct
stori
največja
##cil
##cus
Cu
Pen
zme
razšir
nosil
srednji
##tm
##jevega
Dom
You
1963
uki
Albu
1961
##hodnem
zmagov
prilož
und
ukre
##vir
##spi
##čali
##70
izdala
##gon
##oti
opis
tipa
funkcije
prostoru
##brov
Knjiga
plasti
prikazuje
Pov
slog
sestavljajo
sh
##tkov
nekoč
##nima
##govori
pospe
##und
##telje
park
400
##cs
##zah
##žene
Mont
##pila
znanih
Ita
Kate
musli
##ologijo
prilago
Izra
ostale
ozemlju
Rde
vino
primerjavi
##lca
##liva
Pove
refor
##nat
ves
tistem
oblikova
voden
prvaka
likov
##ning
kal
vezi
poslu
Kristu
Dvo
flo
Delo
rodbi
##urnal
nam
Či
##čenja
##ologije
##ranih
ekspe
nadzo
##zame
Film
morje
##lus
poraz
##stila
spomeni
##jati
zavar
opisal
odda
##mbur
##snost
posvetil
##vilo
jasno
Henrik
osredoto
list
World
##15
##16
Fin
dodat
nastopila
##pet
kardinal
jaj
##rich
Pala
navdu
prikaz
dobili
sprejet
francosko
##nko
##ljuje
častni
##ys
Vsi
Žup
##vke
Kla
jedr
kisi
##eno
##ščih
ruski
##kto
##lovec
tiste
temperatura
reda
##pustil
višini
Republi
##nus
##pter
1953
discipli
ogla
ženo
službe
komunika
njegovim
##šem
Bran
Nekatere
##dran
##tner
1955
1958
hipo
kratko
pogodbo
znak
učitelj
konkuren
verjet
pti
angleščini
##lovo
trener
njenih
angleško
sestavljena
nedo
odpove
mot
postali
Ky
sila
proto
slovan
zadnjem
uspo
portre
tekmah
postaja
##tij
tve
daje
odse
spominja
težav
politik
Slovenijo
##vale
dolga
nastan
Uporablja
desni
podoben
56
SA
rake
ekonom
##tah
##lnik
##qui
Ada
deve
##mišlja
Interna
Francije
Mariji
##zarja
potrebe
Er
britanski
##kedo
##sili
ilu
prise
konstan
staroda
mir
##18
meja
##yn
Umr
1959
naravo
Wo
spopa
razlikuje
##rka
Jean
Kro
Mila
##logije
visoke
kariere
Gali
##ljenega
kakovo
skupnost
1956
trans
objavlja
##kimi
Slovenska
članica
moder
1936
prikaza
Pomemb
##čnik
##mladi
veza
potek
Sam
točka
izdelov
kop
Gru
kipar
##ževanje
posred
Gorica
##litev
##bina
Stu
Šta
##čanju
stvari
##šer
pore
tok
vol
dobre
bodisi
dolžino
središča
pesnik
karieri
robu
bibli
nevro
državo
##nina
zbra
okupa
Ren
opravil
površine
Nad
imenovali
zgolj
##čala
Sim
besed
plošč
Madžar
starih
površino
y
##tili
izpostav
Ad
##ges
viru
centra
Fu
kome
##dec
##tacijo
##jnih
Akademi
am
pp
dode
Oto
htm
italijansko
gora
krvi
odre
odsto
visok
vredno
dese
nastal
mnenju
ven
##ročilo
sodelav
##nie
tabori
##stična
##ščeni
podrob
projekt
stoletje
##tral
##hodne
višje
sprejem
##rian
vero
Zgra
Sezna
ustanovili
nemška
##šnem
vzpostavi
##najstih
rock
izgi
58
gled
Glede
##14
62
##šnje
prei
Wol
predvaja
##gene
##tacije
sezono
Kalifor
pridobil
64
nag
situa
tistega
starejši
dejavnost
##jnega
prišli
##lost
napi
##din
##gah
##kaže
egipčan
kulturo
##bom
##dati
Potem
moštvo
ljubljanski
##hen
Il
1957
skrb
Lahko
prava
##rnega
plju
turi
Ari
mon
pobu
NHL
##blikov
My
ponov
posad
budi
Ir
grafi
pehotni
poročila
##13
smislu
##njim
##mentar
enostav
trgu
##vov
Glo
##ction
hiši
okolja
potrebu
É
žar
ustvaril
namenom
škofa
razkri
oborože
magne
najbo
neuspe
občini
##tike
Jer
##ljivih
##90
dolge
Ate
##ževal
intere
##fek
##ret
##teto
tip
super
obravnava
vrt
1954
Zače
možgan
specifi
Augu
odlikov
##ting
##dera
##poma
biv
Leksikon
##non
##jskim
Br
papi
omeji
##tney
Karla
Napole
izjemno
Šo
preživel
mestom
Italijo
označuje
##alec
##war
največjih
##ston
##stran
pogled
##cijami
celic
##ščajo
možno
nave
Občina
imenujemo
##polo
##tete
1929
samosto
##ale
kulturno
politični
##soma
Air
##narhi
1937
nazadnje
##ženo
cve
##bsbur
nači
Str
Franci
##vnik
oži
javno
Janeza
nizozem
pova
zapis
fev
izvede
##lor
razvr
##cro
85
poj
udar
zgodbe
##bro
##vnost
kopen
atom
dokaza
nahajajo
##rst
zim
Fili
##ding
blago
transpo
##am
plane
##nejše
Atlan
seriji
dolg
založbi
##sche
Mag
Sil
legen
Zemlji
63
Gri
polju
simp
spomenik
koor
redko
##jak
piše
količina
kali
Ustan
rojen
ponudi
##činek
Sveti
##šič
DN
biolo
Poli
Ameriki
svetovnem
Tru
lede
teorijo
rastline
##phy
živijo
##ani
ljubi
razširje
dediščine
##nt
Journal
##pela
bel
##litve
Josi
postavili
protestan
1951
Fakulte
povezan
95
kg
debe
znane
obdela
Kle
količine
##hel
##šar
uradni
zaščito
državnega
Zu
##hodi
književnosti
zavo
pripad
različnimi
sociali
##tala
alko
pravico
##jame
ostanki
Alex
povr
izraču
##ers
objavi
Pav
hrb
podpr
sestavljen
152
Bese
Mosk
1935
Glas
vsej
Marije
pripravi
##pus
##metno
geograf
isla
občut
vzdol
preimenov
978
##novega
četrti
88
1000
##rena
##ruza
##delek
prev
Organi
uso
##tični
176
James
koncep
simboli
speciali
Enciklopedija
simbol
razširi
nadstrop
##msko
moški
napada
1934
preosta
bronasto
57
zanj
##shing
poglav
vojski
teorija
tki
delovnem
1949
logi
narave
sprejel
##žnica
hišo
radio
ted
ugo
raznih
175
##cient
perzi
Takrat
rimske
##dano
končni
Red
Njen
sebi
##ročila
Stare
predmet
dokončno
javnosti
nasprotju
pripravlja
zapisal
Seznam
Mali
##tiven
pomor
mari
glavne
##ring
morala
nekdanji
##šol
##ščeno
predela
kraljestvu
ton
##presi
redno
posesti
##gol
160
##kovih
tipi
##arma
1925
reali
rja
nista
##jeval
Cambri
Rimljani
##bami
1928
guver
inten
Andrej
rimskokatoli
ljubezni
posledično
ang
Kanton
Paul
Pariz
proizvodnjo
##rjenje
stalno
tle
1933
Žele
##mentov
tisk
oznaka
Gla
miru
vpogled
strukture
razreda
##polnje
vojaška
##lcev
alp
status
kontro
poškodova
##ranjem
domovi
zgradbe
##tično
##jujejo
notranje
obstajajo
Moj
Sprva
##snosti
Stro
južnem
tj
##bral
Mino
##stopila
Aleksander
skladatelj
##moni
##čitev
majhen
Londonu
##čaj
##doma
Gregor
izkori
kulturne
##pt
##lene
pasu
##cht
nivo
uteme
dolino
okolju
slovenskem
Ple
Zi
##stral
##čenih
ogrom
zaščite
##pred
lasti
sul
daleč
Ken
stopnje
izgubil
dejansko
Študi
nebe
zadr
prenaša
Ul
International
doba
virov
znači
hokejist
živo
Njena
istem
določene
Am
bur
veku
Cerkve
toliko
aku
vojaki
Jor
##niški
enci
prost
##sy
##mat
Mini
pomagal
##svet
1924
pripomo
##uer
otroka
##ffe
potok
patriar
problem
prestolni
posameznih
##nata
viri
1922
matri
kadar
zajema
podobne
doktori
upor
Gospo
zbirka
tvorijo
predhodni
##tero
sredini
##nce
Hal
enaj
relie
##MS
br
oddaja
prehod
##gali
##ljih
War
menja
čin
##lnega
Trstu
Album
francoske
##dža
##šnja
zadnje
pravoko
latinsko
Dre
propa
Razi
mirov
96
značilno
bene
božan
ele
##dinan
počasi
začetek
##niško
skrbi
Mla
Michael
##ür
izg
##rice
razmišlja
Recor
Gorici
poloto
pričel
sodelovala
##lico
roke
dar
znaša
pojavila
##teza
kraja
središču
har
osrednji
dekle
manjša
uporabil
##demi
požar
Ran
Štefan
##thi
##tonu
##šnica
Cambridge
Celje
sposobnosti
Velike
kisline
00
##tuje
Frank
hrane
zasnov
Ferdinan
bazi
preveč
sedežem
imenovana
##terna
##šanje
naklo
glasbene
##kse
##vju
imu
##kajo
Spi
##logijo
stopni
##35
##ls
oza
Umrl
kakr
srebrno
vladavine
##ljski
pogoste
preizku
najboljših
cvet
edina
goduje
Eden
Pravi
Cy
##mpan
##lnimi
političnih
##solu
Prešer
##tnimi
zbirko
guverner
Maria
višino
menih
razlaga
mednarodno
##bere
Bolga
##škemu
TV
dvori
##ljakovi
Thomas
primerov
elementov
NO
Nemci
##LA
Viso
##ktorja
##voj
čim
##letno
##lišču
učinek
razvila
spomin
##fre
služi
##gram
ben
Mednarod
##mino
današnje
##pelje
korist
nemškega
nasprotov
jaz
##cyc
##ništvo
##bus
Kdaj
Znan
zmagal
##lio
##čko
##vila
dirkač
66
##via
##loge
upravi
ameriška
konferen
Sar
podobna
ones
##kora
King
letno
podzem
##cionar
razmerje
##njimi
elementi
ostalo
programa
##tto
72
##ville
Vene
bogo
##torjev
triko
nagrade
Kylie
rezultat
##17
##sic
raka
tema
##lomu
Spre
orod
##ise
59
##ović
meh
knez
dosež
zemelj
nabo
boju
hudo
’
##alci
##bine
mag
Eliza
Keber
vsaka
najmanj
by
Alo
bal
rib
videospo
enak
energijo
Kö
delujejo
divizije
razno
orožje
relativno
##sila
##tole
1927
##stičnih
Gen
Hel
##toma
dati
podpisa
Slovenskem
##anjih
pogle
pogre
##bol
1921
Okoli
Poseb
##loga
uspel
##ud
74
Star
znova
pomenu
volitvah
preno
prežive
študija
škofov
kristal
Neu
Anti
narodno
Sre
dio
odpor
tekme
##gove
raste
pomembnih
temperature
Sled
ocean
Tan
tik
prizori
teoreti
sklopu
prez
letom
##sec
##čnika
krogu
##lla
Lau
mogel
zahtev
##fen
vplivom
svetovnega
kongre
##čati
Ivana
zanes
družbi
Studi
naloge
##grala
Avstro
položaju
Oxford
kardina
najvišji
1917
ladjo
##vor
filozofije
odvisna
potencial
singl
sodišče
straneh
višine
vstopil
pristanišče
##cie
osi
##dese
emi
oprem
podje
naredil
Benet
vsaki
Šu
##cijskega
Elizabe
##wor
predvide
##pola
Egipta
vojaških
dramati
pričela
sovražni
gimnaziji
muzeju
visoka
slab
##cent
168
##janja
trav
namene
Najprej
dodatno
les
##berta
##tskem
Reven
oblju
templja
konf
izven
mostu
rdeče
ustreza
##11
ustavi
gimnazijo
1923
1932
spadajo
beljakovi
lon
kora
res
dežele
Oba
Frie
istoimenskega
##nskimi
Bavar
statisti
##linu
155
Nobe
boji
fasa
koordina
86
##alnega
stopnjo
Norve
68
Cro
besedilo
149
##alcev
plem
Rudol
umrla
Los
glej
##mental
tekmoval
##one
Afriki
izdelavo
zni
kazen
mnoge
##cionali
bogi
odvisno
Brez
##ES
##zmo
Dani
navede
poskušal
##cin
dro
natančno
##lujejo
izgub
zraka
Mohor
##ljenost
pretvo
##zin
1910
opazov
##ografski
svojemu
stvar
svoja
zdravila
##ult
Cal
Inštitu
##era
majhne
izpelja
nenava
funkcijo
različni
mejo
bizantin
gledališče
##ščanje
ekonomi
##nger
eli
mlade
podobo
mle
##misli
zaplete
napisala
obale
recep
##mercial
narodov
vojvoda
##lim
##sia
145
tekem
Stre
##tijo
valov
notranjosti
Bog
plošče
lestvice
osebnost
samostana
67
76
Egy
zid
imenovano
##vice
vede
pojavljajo
sodelovanje
##imek
##pijo
Poz
obrambo
##toriju
Dunaj
oblik
orožja
ledu
odpad
Len
##25
##dt
določeno
izi
Filip
##fil
##ves
Marko
lastno
izdelal
milijona
##ffi
družbo
stanju
##rad
Kos
župa
Dona
Scho
župni
Ljud
osnovno
##čkov
170
koro
poskus
politiko
1931
sebe
##gorija
##logija
origi
evange
##lub
delovala
seveda
opredeli
Vir
poči
vsega
Zemlje
denarja
zgradba
Juli
duše
grški
nastanek
knjižnica
##48
##alo
ogro
Angliji
zdravnik
Ol
156
šestih
##dnem
križ
hitrosti
##gun
ladij
Blo
sek
##stimi
hor
besedi
goduješ
..
##lona
##šeni
...
Indi
urba
dekli
##leta
gen
vodila
rešitev
sodelovanju
##lbo
##kup
Bon
Smi
lik
spoš
razpa
##žnik
1912
Bila
koloni
Th
inva
prite
zaposlil
Argen
99
Voja
dvoj
kantona
##AS
bru
Miche
žene
žensk
Severni
130
obro
okuž
zavr
teles
##tnike
primar
##ministra
zaro
##žek
##dnim
##stim
Vrh
car
belo
uvrstila
sen
Glavna
vključujejo
zao
črno
##jenega
obkro
znanja
Charles
divizija
Južni
asteroi
delavcev
##pin
##nesel
drob
obstoje
povezave
zaposlenih
hčerko
majhno
eksperi
nagrada
##plu
zado
načrt
študije
ameriške
primerja
##rol
##majo
samega
univerze
vključene
##kratni
alkoho
palače
##tia
iger
##časoma
žrtev
##mija
Papež
kamor
##fom
Savi
razisk
Svetega
ministr
nasledil
postopoma
dogo
potom
nastalo
opravljal
dav
##pušča
izse
American
##lp
##talni
##teran
odgovo
rodila
Jožef
Richard
kulturni
povezani
Kore
Antoni
Zagrebu
občasno
povezane
Jadran
RS
zakono
##rekven
višji
severnem
##ano
akademije
samostojno
General
Trenutno
##drža
bol
skuša
služb
arhitekture
##kula
bele
oprede
Tol
##plika
domo
profesi
##rag
Dr
raztopi
Ali
##ljenju
##hat
Regi
spek
stavba
##ind
Rus
šči
sliko
aktivnosti
Zvonko
posebne
zasedla
plano
##way
##pija
600
Pie
kara
Publi
tovor
tistih
cesarstvu
Bistri
dirkah
prevod
strokovnja
##37
Izraz
pokrajine
Tar
kru
bojev
polka
zvezo
plošči
##znih
gli
našel
nimajo
##BC
avtori
musliman
mednarodni
##rskega
Angle
Minogue
predsedni
preselila
##čij
140
Obe
tleh
Aziji
##gula
##tične
Thi
Sredo
švi
##torij
stopnja
166
##hodna
podre
proda
škod
vzrok
92
1926
bral
napo
##organi
##AT
##urt
Eno
Ili
delež
jeseni
najboljšo
šib
Škof
##fina
##tani
zadeve
Christi
odigral
Tay
##pedia
soci
Rodil
vlogi
bolnišni
##36
zvr
sekre
funkcija
2019
disk
Sredozem
Don
poimenova
98
1900
Pier
Prvič
vzdolž
Nemčije
78
Ala
zvezd
instru
ameriških
##ovič
##plja
Tom
Chica
glasbeno
##elek
##teta
služil
84
Maksi
Sredi
zgodnjih
široko
zgodnje
##skon
medse
109
Trst
pasti
mladih
97
iska
prede
Ap
Arhi
naravi
vladanja
informacij
Ai
aposto
nadaljuje
najstarejši
##mske
vrhov
izstre
mesecih
določa
partner
##socia
osamos
švicar
posvečen
ukvarjal
njihovega
RTV
labora
Istega
mlajši
najbolje
institu
častnik
leksikon
##arch
tukaj
visoki
Pogosto
Der
##ščene
1911
##žujejo
slabe
jeziko
polkov
čre
Primer
##xa
##ženih
klubu
Dva
ekipe
odbor
sestre
videti
osebnosti
priva
zbirke
pravoslav
##bita
##lesa
najvišje
postopek
Ama
taj
##jočih
izpi
Henry
element
tremi
nemških
razlikujejo
stara
##trie
Santa
Primor
marmor
zadnja
državne
110
##ković
redu
intera
Štajer
##pisujejo
##heim
pozno
Britney
zgodovinskih
##čeva
##bno
dneh
Medici
albumu
##38
##ditev
ženskih
##žjih
uvrstitev
##žejo
naf
metode
svete
pomembni
up
pono
##tku
Dia
1913
smrtjo
območjih
Posa
##tivnega
neposred
EU
1915
##con
##mili
sodobne
področjih
mednarodnih
##tec
Hei
Romu
Konec
stene
Jeruza
Sen
Barba
pravic
državno
##king
znanje
položaja
Kara
Špan
##verjet
napis
obvla
otroci
skladi
vpisal
##žjem
obar
starega
##39
tol
##tacija
Anglija
Muse
upri
podatki
uporabili
##noma
sorod
kratica
preprosto
kamen
povišan
teoriji
številu
grške
Gol
hiš
nogometa
izbran
tal
Skupina
naravni
##zmom
##miral
mater
književnost
##tki
from
plov
77
159
faši
določenih
resnici
površini
##kajš
##vidu
vesolj
priimek
Karl
imeni
dolina
Ludvik
Občini
prazni
skladbe
komercial
gi
Mehi
##jskimi
##vri
Francijo
postavlja
##risa
Whi
1908
158
nudi
vzro
Slova
##pali
Name
časom
bogato
##gent
Pru
zmag
fanta
svobode
vprašanja
fos
##nejših
aktivi
onesna
Sodelov
##stnega
parka
njenem
delovnih
fakultete
##IS
san
Slov
##slovje
##ovalec
Encyc
ugled
Records
Velikega
##sion
umo
deloma
##gijo
##tler
##ložni
##32
Polja
Mala
spoznal
pojavijo
najpomembnejših
faktor
doktoriral
##ras
odbora
izobraz
##eder
rezi
zunanji
kroni
predpo
psiholo
zdravje
##kav
hči
krog
ugod
zunanje
##dž
Un
##mona
Jurij
usmeri
končani
vprašanje
prostovolj
##šje
##ramo
##nicah
globoko
razmere
simetri
CO
majhna
socialno
##tik
Jen
Svet
Ljubljano
Vic
vulkan
gradnje
bataljon
različna
157
Evropske
##mus
razlogov
Vsak
vrat
vojvodi
udeležen
87
medicinski
##ew
digi
rimskih
monarhi
##danjo
sestra
stebri
is
##mskih
Osnov
doživel
prebivalstvo
dih
—
##jšem
##sablja
očetu
##dami
Pale
Sici
kvan
##mskega
gravi
nalogo
živeli
zdravil
82
##dejo
##42
Ancient
mitologi
Slovencev
glu
podru
##čevanja
izkaza
rob
vzo
italijanske
##ric
##hard
največkrat
vnet
opreme
rekord
uporabljati
##čku
79
au
Kralj
shranje
Filozofski
izre
naci
bistveno
##dju
##arov
luk
sobo
dogodkov
##dd
##tos
69
##nard
traj
dokaj
palača
spremen
##CO
##ich
##RS
##rji
##stin
125
iko
poletnih
zahodnem
razširjena
organizaciji
1916
pouda
Španiji
avstrijski
##án
##yja
Habsbur
razlike
zgodbo
podatke
##rju
##čana
Kel
lesa
tujih
osnovni
upodobi
Ea
Pon
absor
imele
pokala
vrnitvi
National
##uje
Tor
Egiptu
Julija
##nistične
##kana
##sona
Mau
ese
obiska
Alp
Zagreb
##dav
Makedo
zgodovinsko
kazni
vloge
kontra
##47
##joč
##šeno
izdali
frekven
##46
j
##nuje
250
poš
moštva
drugače
potekal
sprememba
89
znam
črni
pogaja
uvršča
predlagal
147
ruše
komponen
##ljenosti
aktivno
pokazal
najpogosteje
##teja
Fla
hrano
##šlo
Bli
##lnika
referen
##mato
pola
Grand
izvirni
kandida
SS
165
ris
prevzela
##kove
zrak
kolesar
##zai
##unda
fin
net
##jenja
##ziran
vgra
Kamni
selek
Pozneje
asteroid
nadaljevala
Scien
obstoj
Hun
zaup
odnos
Portugal
Jezus
scena
žužel
režiser
800
videl
Europe
zasnova
pričakov
##mfo
Aj
bregu
hiper
namenjena
##tke
rek
##ralno
filozofijo
alu
tujini
Pau
Zim
zgodilo
noč
Pavel
razvili
izkoristi
Henri
ogrože
seznamu
premagal
##žajo
Zelo
meščan
naslednik
struktura
Boga
prenos
romana
##žjo
##šili
Tour
##zirani
##cionalno
pojasni
##menje
##stijo
igrala
##rac
Evropo
Institu
zagovarja
Šti
zdi
##stala
##larjev
##tile
##slava
teden
##stičnega
zamenjal
##čica
libe
##dovanje
arhitekt
opazoval
koledarju
vrne
koder
obleg
prvenstva
razmeroma
zan
tesno
zbora
filmih
zvezde
značilnost
##ig
##cel
##čevo
naju
konti
osvaja
Lov
Narod
province
Lea
dvig
##bec
neke
sorodni
Sco
Zdrav
dosegli
kompozi
Koroškem
nadaljev
pretežno
Emi
Maj
Pal
nizko
osnova
prince
dodeli
pojavil
naravnih
vplivajo
posameznika
##dka
Proti
najti
razse
zanim
fu
Konstantino
Vu
##bijo
interak
stranka
Tibe
člankov
univerzite
##ps
##zaprav
poveljnika
##nino
pomi
teri
popla
##pih
##olog
Celo
##zemelj
rusko
osamosvoji
##likopter
arhitektu
dej
modro
besedo
delovno
Bizantin
usposablja
informacije
##gori
sateli
potrebna
##gih
##gnal
162
imata
župan
pozornost
Oče
1907
testi
Spears
kristja
praktično
predstavil
##pto
##rde
##čajno
Sara
Cesar
termi
stanja
##dnost
1906
dober
slede
##nadi
Que
with
močan
skladb
odrasli
pogodbe
Avstriji
izključno
ekipa
##45
##mali
##glavi
lete
redni
##skom
razširil
uporabljala
vze
uvrstil
zasluge
velikost
soo
Firen
dejal
Elek
146
Rima
##stitev
vzhodnem
##vam
alterna
utemelji
##tli
##giba
konje
##sc
##yo
##drom
voz
##stanje
drago
visokih
Friderik
povezano
strukturo
##jnem
Min
raven
dolžine
republika
##fal
##joča
obmo
cesto
glasov
Podobno
##ries
poi
igro
zemljo
fizikal
##stka
plin
https
oblikoval
izde
administra
opremo
odob
posest
zakona
##hei
##novih
orga
kislina
projekta
##mond
##tična
Alexan
##boli
##mala
imeti
zbirki
Maja
duši
rudar
mestnega
Epi
html
neskon
Zgodovina
astronomi
Ak
##ustan
klini
padel
kralju
transpor
##vere
odstopil
##zani
odso
virih
Edward
Joseph
osvojili
predmetov
##vijo
##stnem
neča
stal
opazi
serija
glasbenih
##wal
##ovim
ger
poznan
festivalu
##los
##mec
izbruh
poslika
organizacijo
1905
ideje
očitno
Ose
Ptu
Jakob
segajo
vrnila
materiala
##fizi
Dela
jima
Histo
mimo
trebu
duhovnika
Čr
##žnje
Turki
nižje
čisto
##hy
##chu
minut
bolgar
restav
štirje
##rbo
kneže
ostaja
poleti
predava
##čbe
##vobo
148
Roy
turne
Rusija
pomoči
##stina
Mark
nekak
priložnost
epizo
generala
telesu
strinja
##vile
City
Cankar
izgrad
omogočajo
##jenost
lažje
stopi
motorja
značilna
Black
Taylor
172
publici
ske
line
dviga
Ac
##giji
mete
reci
promo
zakoni
civiliza
posameznik
##try
krajih
odpelja
interpre
priznanje
krila
sedmih
izvedel
stolnice
pse
Aloj
izobraževal
hudi
poza
##wood
zakla
izvora
kraljevi
##vesti
West
preneha
spoštov
##zej
Njegovi
letalski
zapu
ekipo
odstra
pesmijo
udeležil
##dravi
##lumbi
oksida
pokazala
dobese
ip
meni
dopolni
spremenil
##ulti
poplav
sledil
##ira
##rea
sose
majhnih
##vki
Benedi
ljudstva
sredstev
samostanu
razo
zopet
gospodarsko
##vat
ostane
avstral
napadel
vladavino
##mene
Dor
prela
besedil
1909
trga
poznem
severne
##tol
##drov
pritr
konven
švedski
pomenilo
povzročajo
kultura
##ille
##stnih
Večino
imenovani
literarni
rav
Mr
##tice
Prve
golov
srednjega
##pp
UN
##jami
##ming
rah
##jevih
časih
pale
##tivnosti
celotne
##dži
##vdo
Kal
##ročil
člana
Center
pregled
ustanovitvi
##kso
Voj
vme
Združene
Monte
pisar
namenjen
ustanovila
Koper
temno
sezona
##riju
nagrad
direk
farma
javnih
osnovne
poučeval
##31
##ća
sistemov
Og
##čevanju
izliva
minera
##tiko
##janju
Janu
tehnike
osebnega
Af
##jenju
košar
Les
Mir
Egipt
sodeluje
biografski
##PS
##tago
uro
##zirana
šteje
##win
##pisi
lah
kerami
Mac
##snega
nujno
##nary
169
gnez
sedi
zgodba
določen
##drija
##stopu
##bran
##vard
usmr
stavb
mestni
moderni
##dej
ran
##tifika
##ščenje
posnel
zgodnjem
francoskega
##rita
sekretar
##lum
##bino
##kinje
##godovi
DNK
helikopter
##žič
Lev
Ferra
intelek
ljudske
družbene
##ón
Mary
mašč
infra
167
Dolen
pismo
tirni
spodnji
tamkajš
povezavo
Kam
motiv
filmov
upodob
vro
baze
Giovan
mestne
sodobni
##verjetneje
knjižnice
znanstvenih
##čimo
Arab
Norman
##fov
##tiki
##kanje
Art
ribi
areti
oklep
Sho
Tou
Anto
Cezar
rastli
uresni
Posledi
razstav
odločitev
##em
peri
strel
vseeno
##titi
126
bolje
zmagi
plemen
dogodek
politike
dokumenti
preimenova
##kemi
Kranj
vstop
intenzi
Klo
domu
poseben
##AR
Lei
miš
teku
vmes
dekora
nemščini
##rer
noči
Druge
dioksi
uporni
elemente
rad
##lične
razdeljena
televizijski
Harry
naprave
Ministr
prednost
imenovala
Septe
apnen
kratek
nogomet
Sledi
##stvenih
javnost
zahteval
Alpe
nami
##pustili
vstopi
družbeno
postavljen
##šene
pož
Stari
poškodbe
naslednika
oblikovanje
ev
##lišč
ipd
vsakem
##ses
avtobu
dobo
povez
Zadnji
propad
razteza
##tnica
pari
sprejeli
imenovane
##41
##OS
podmornica
##ek
##top
Far
publika
All
##burgu
dobimo
motivi
zdravljenja
##roni
##ant
##bole
##rino
##šenje
##danjem
akade
armade
španski
dolarjev
Ljubljane
##gena
##čevi
Gil
vzde
Albert
##tano
Diplo
izumr
sledila
sredstva
prijatelji
Dve
silo
##zaciji
Patri
redke
oznako
imperija
socialne
$
##blo
bob
central
zr
Skup
njemu
Gradcu
Rusiji
določena
##tena
privla
začele
vodni
povzdi
zgornji
##tip
temi
vsta
navide
filmski
Britaniji
prejšnjega
sposobnost
poimenovali
ero
##ročnik
zvezda
čle
##zirane
Zakon
spon
Novem
stabil
najpomembnejši
##port
toka
Beogradu
Obstajajo
lastne
živela
današnji
postavljena
##zali
skli
natančne
izobraževanje
##49
##bih
##žiti
Turči
mesti
začasno
raziskav
zgodovinski
Washing
maribor
trikrat
časopis
##rjev
Dne
Ven
izdan
preganja
masi
##šnice
VIII
Afrike
kmetij
##stel
Ču
1903
Ptole
diploma
##onov
135
uda
##tvami
Alba
Hein
preba
rekon
Oh
Nico
pokalu
pristop
vio
pone
segre
uspešen
nobenega
tlak
vlak
orien
rasti
prečka
uvedel
##lei
Dece
veče
izvor
obiskal
##rska
Apri
kdaj
odme
najmla
napadu
različno
ex
mal
cevi
Pozna
jedro
naloga
osrednje
številnimi
Nea
Louis
razko
romar
Nemčijo
ul
##jekt
Dou
##evrop
Jupi
drevo
vektor
podjetju
učitelji
kategoriji
južne
priim
reviji
Hrvaškem
pomanjkanja
kanal
manda
sladko
##slej
Yorku
61
Ry
tokrat
dobesedno
127
##lboard
navdih
doživlja
##alca
Mus
##ZU
##ranu
Ear
natri
predstoj
Mohorjeva
Jugoslaviji
##jme
korpu
metodo
##lami
##reja
flu
tar
##danjih
Henrika
intervju
##slova
Azije
oprav
##tropoli
hrvaški
##AN
Jese
mali
delovne
we
##meter
##motor
kovan
škofije
ponavlja
##kod
absolu
nastali
plemena
zahodne
količino
##ness
homo
katera
romanu
##av
Nas
Leopol
obenem
krva
umaknil
izgubila
Kategorija
##LO
##rid
Kir
kel
Šent
##34
##tej
##vica
##vili
##zmov
Plo
1904
Zvez
milija
številka
CD
##ščem
Spa
sple
tuje
kneza
118
pravzaprav
Leto
Rena
etni
edino
financi
ostanke
literature
Ram
Sou
Skozi
mn
goji
sredine
##rskih
minister
vladarja
ladji
narodni
porazdeli
vese
državnih
##gij
Sonca
sezon
119
slavnih
preoblikov
Napisal
##vre
##ščeval
zaigral
##šnjo
##gniti
Luka
Univerza
rimskokatoliški
##skla
Marja
krivu
Gan
beli
Friedri
varnosti
starejših
revolucije
##ros
105
Shi
Svojo
samou
kraljem
##tet
##gate
Jack
Bibli
Boris
vloga
Berlin
posamezne
qu
##well
##jevem
blaga
vztra
uveljavlja
učinkovito
##čah
deželo
lastnik
agre
glob
prou
forma
kupil
07
Živ
Josip
boljše
domače
kardinala
##mbu
Pin
1901
Najviš
Mongo
zlata
neodvisnost
Fra
dnu
rod
Sobo
Šele
##čevali
najman
okužbe
velikim
132
136
Blu
jezu
komaj
hče
kup
1848
zabele
Berlinu
povzročilo
##nk
106
Asi
roka
##tivnost
gledališča
##ttle
one
nale
nadmor
skakal
##bija
Sveto
moško
osnovnih
razglasil
tehnologije
##rup
##lesu
prinaša
##zijski
takti
Wilhel
medicine
##bn
##ščal
Oli
##žnice
naravne
sezonah
nevarnosti
##manu
##rnil
##zirano
finalu
sodobnih
##ščin
mase
stolpa
reforma
>
##uma
138
pač
žve
dala
nanj
nose
pravila
regional
##ère
##obla
Sol
potrdil
temo
Award
soraz
izhodi
sproži
učenja
študiju
08
OF
##rene
##gledu
Odpr
goriva
##wis
Vide
parku
zaliv
doživela
kompleks
##žali
sol
vozila
##tko
##močne
etno
##ševanje
dvorana
kapitali
kraljica
tisočlet
Billboard
misel
točno
##štru
Socie
lokalni
predstavnik
moramo
domačih
svetlobo
življenjsko
Bul
zob
alge
formu
samoza
intelektu
##ih
##ugh
Ty
uri
##ameri
potni
Svetovno
demokrati
poh
##grada
kamna
zoper
preiska
sodelovali
##bach
##vnem
psihi
pokaže
zaznam
moškega
##rur
##slen
Bio
uvo
##laksi
tekmo
toksi
##bile
##kakor
moža
mesec
rodbine
tekmovanja
##gur
##javo
Dio
oper
posnela
spodbudi
čete
enoto
zbral
procesu
##ralo
Območ
matere
misijo
vsakega
založba
poveljstvom
##ševal
Kolo
Plan
Južno
igralca
nastale
Naslednje
##sod
##jenosti
naklju
naslova
groz
sredstvo
kvar
otokov
mestnih
ugotavlja
Ža
##rilo
Prebi
Včasih
normal
spojine
notranji
spodnjem
reprezentance
##sso
##žba
##vini
skulp
sreča
mestno
zadovolj
##pur
vnu
ansa
post
Sodob
nakar
brigade
Vladimir
##telju
neda
desno
bratov
omenjen
atleti
zadovo
frankov
individu
##43
##jor
Ly
Jur
odprta
posledice
praviloma
##sca
die
##strov
Mati
Brazi
zmage
zaigrala
ustanovitev
##bon
122
129
1902
točki
napade
strupe
zasedli
evropske
##df
##ctio
hra
##manja
pobudo
Encyclo
skladbo
tradicionalno
Den
ledvi
##žanje
Most
išče
##spešne
delcev
Njegove
strelja
reakcije
ugotovili
peti
Gradi
plosk
komuni
obdaja
prihodu
Cent
##teljem
razne
motnje
uprave
sčasoma
##mila
##pili
##tnice
ribo
statu
zgodaj
izmenja
##mne
##uts
##ziva
##mentu
Peru
boja
Grčiji
ljudstvo
rev
vot
Belo
kano
##ološki
krono
Slovensko
Najpomembne
temperaturo
trža
naravno
##para
čol
##letij
##ralni
roma
##stribu
norve
dejstvo
Meto
Tele
Šmar
poznamo
igralcev
##rico
1895
evropski
Chan
Loren
##ologija
obdrža
##niškega
##num
##mera
pija
dimen
štirimi
ameriško
##rodo
Para
najverjetneje
gost
Egypt
Zgodba
„
##čanov
Kadar
narašča
##VI
##stry
1890
povo
obema
zlati
popravi
posvečenje
##mska
šel
razve
glasba
maturi
Običajno
zaključil
real
aplika
Severno
brigada
površina
zgodovina
uporabljen
##nas
##hote
139
##lka
##mente
##novem
levo
plovi
delavci
elektra
##letna
##ljica
hero
pilot
pohod
desetih
igralka
posvečena
profesorja
posamezniki
##goj
##zme
Green
obvez
Max
odprt
##teligen
lokalne
poslali
praznov
gradnja
trajala
energija
čarov
##jana
##tman
Nan
edin
vesla
kapela
dejanja
izrazito
02
137
kova
termo
Dostop
doseči
govore
palači
Aleksandra
Matja
dolžina
osrednjem
Najpogoste
##dež
##vski
Ein
kom
Gale
##ževanja
Najstare
102
kril
Radio
dodaja
napadal
##marine
Celju
Grego
Milan
Osman
grofa
plina
strokovnih
##cra
117
domi
obraz
osman
velikem
lokalnih
##lic
107
Avgusta
dokazov
##AC
Savo
nabi
Marga
civil
posneli
verskih
znanost
Združeno
dla
pevec
občutek
vodenje
Avstrija
istočasno
predstavniki
Jac
toku
##dnosti
Madri
mozai
proge
prenese
razsvet
električne
gledališču
##gia
##kani
##raču
Leži
poeno
##sycho
Arhe
pridi
vsake
zameno
spremenila
##deh
##nejša
pojem
metoda
posami
kraljeve
industriji
Sk
##ročilu
vinogra
zadnjega
organizacij
##jetje
kože
maso
karbo
##matično
upravo
kmet
krona
razpad
tankov
delavec
nadškof
Wolf
Drago
glave
molekul
polovico
05
##bioti
##ovalo
##stiti
ljudmi
preple
osvobodi
mnm
fazi
perio
točko
##trieved
avtoce
palačo
matematik
stanovanj
Gib
##dnica
člen
redkih
##fana
SAZU
Igra
##kovega
dinami
princi
podelil
##kati
Pavla
Svoje
pisma
razum
Hitler
##sey
armen
sedanje
zgornjem
##ins
Reka
Rudolf
kopenske
Apo
idr
skrom
velepo
nastanka
Ferdinand
upravljanje
EP
##movi
pristoj
molekule
zasnoval
##ller
Sur
poši
rahlo
skladba
##DS
##jcev
##vare
Nar
Viljem
odpravil
Akademiji
povzročila
##zek
##ših
zvi
1500
##ščenja
evangeli
mladosti
##ralne
Slav
115
##vetje
Leon
Avstraliji
##lage
žrt
serijo
zastru
Associa
drevesa
britanske
bog
##larna
Korzi
Museum
Slovenci
povezavi
povezanih
velikokrat
Osred
službi
reziden
##33
##reta
sinu
##ološke
Febru
prema
prevede
šolanje
inteligen
vojaškega
nagradi
##rida
olj
povra
##skev
slednji
portugal
##mun
##over
proga
deželi
povedal
##dini
##torija
jezeru
svetil
Kur
##risto
##toval
Smith
krimi
metra
Dy
Zbi
Hans
pevka
##zzo
drži
vere
tiska
pravilno
študentov
##ders
##škov
demokra
##sky
##rava
dija
ponuja
območij
predmeti
splošnem
sprejela
Up
##more
Stran
tehnika
tehnologijo
Ek
700
Kai
Budi
Opera
finale
produkt
Prebival
komisije
ustrezno
upr
Super
muzeja
cerkveni
Jaco
Črni
odnose
Chicago
Jugoslovan
128
kdo
Goren
pripoved
##žbo
SN
##zana
Tek
stik
##stvene
Celov
##škoslova
ameriškega
##pije
Seve
odziv
nobene
učinke
1899
##matiko
gasil
albumov
prinesel
ustvarjal
##sz
##cto
Fur
Frances
gradnji
Število
stolnica
mornarice
##kinja
##valec
1898
semi
Marie
##žala
May
##stvena
Kultu
izred
Srednje
najboljše
naslednjo
različice
generacije
poste
naročil
dvanajst
##nilo
108
konci
sloga
Rad
##njuje
##časni
pokr
##ščanja
Goriška
sprejme
##ée
##upan
peš
spa
Malo
ogled
oskrb
podobni
Poletnih
izkušnje
nadškofa
##rbel
Sli
žan
pano
Staro
nekega
pridruži
dejanje
napadli
industrije
diri
tero
Komet
komet
ulici
revija
vplival
konserva
proizvodnje
##44
##gova
##kalo
##šnik
Izo
##dnimi
Armeni
zgoraj
nastanejo
zgodovinarji
##cea
XII
kaz
North
gleda
sestro
revolucionar
niče
tednov
Giovanni
stranski
vzno
##čevala
kanad
širok
Pierre
nekdaj
stekla
Society
presene
Kraljeve
prispeval
##što
Sea
wor
Šen
prof
Nadal
Anglije
podjetij
09
1897
Največji
ona
##vrovi
atmos
četrt
starši
politiki
##litvi
barvo
padavin
pokrajina
Ei
116
četrto
proizvo
klasične
kulturnih
današnjega
##rale
pero
Colle
enake
Rusijo
lokalno
izpu
odve
##biteri
videz
oddelka
podaljša
Sel
Odlo
zani
amino
redov
Rimsko
pričeli
Hy
her
tisto
premer
dvorani
glasbena
##mund
zaposlen
dokumenta
premeščen
##nej
##plje
##nikih
Colo
Radi
polni
njihovem
142
trop
ukaz
##njenje
Vsaka
postale
##anu
##dena
##loni
Bun
rokah
Indiji
razpore
zastopa
najmočne
rastlina
dirkalnik
zgodovinske
##ppe
Ton
Krie
neki
sena
verske
izračuna
restavra
grških
nomini
Napoleo
##rbov
Wel
pal
este
nemi
kvalifika
##čenec
vita
zatr
prodal
razmno
Kristus
potekalo
nevarnost
ustanovljeno
##gona
##koma
žle
Delov
Švedska
rok
pres
##stopom
Toron
preti
kontek
zgradb
potrebuje
##žani
##schen
klavir
mnenja
morebi
Primorski
spremljeval
06
javni
##ovitelj
prične
Beograd
zavrnil
##trom
Ludvika
priljubljena
##RC
##chnu
##hibi
##zirali
Odkri
poobla
razvidno
avtomobil
##hin
##ques
Chemi
stala
steni
tretja
sporazum
najpomembnejše
##ney
##žice
enim
postaje
notranjost
metu
psevdo
obzidja
vzhodne
zahteve
velikimi
##feri
##gran
##pini
Založ
podvr
prometa
Japonskem
Imel
mehan
umrlo
Prince
giblje
mestna
spremenljiv
gospodarstvo
ch
##metu
ace
afri
zboru
inštru
poroko
Narodni
nastaja
vplivala
##ute
##vra
##sani
Sne
Skla
kirur
ljudem
Oddel
gorov
ocene
samem
številna
Sodeloval
1870
raje
Simon
obnovo
pravil
vidika
klasični
lastnost
##stei
Sti
##jšimi
srca
##kazuje
Sveta
dežel
##stavljen
verjame
spomladi
##geni
Aca
plu
Music
##ografija
Območje
staršev
Mol
Otro
mili
slavi
vozil
Walter
lastni
predlog
podnebje
prisotnosti
##zio
ble
bazili
dvoran
izjemo
Maksimi
celotni
operacije
preživlja
francoskih
Bea
Rez
1896
Montre
predhod
uvrščen
sprejeta
univerza
zgrajene
organiziral
Teodo
sklep
Ukraji
skupni
Železni
nastopal
starejše
##šala
Prek
##dinami
mnenje
polici
zgradbo
razširila
Geo
naše
##ološko
križa
najdi
volil
izdajo
ploskev
##lnice
cari
okna
pogu
bojih
dvoru
komunisti
pripadniki
Park
##čevati
barva
obrob
Beseda
manjšo
meseca
Gö
##dovo
##števil
križi
Izrael
izstopa
pogostosti
gospodarske
##chae
##tari
##zirajo
Archi
sulta
igralci
##mel
##etna
otoki
družin
uspešni
zgodnji
izdelkov
prevzeli
##žine
##ology
##ranega
odvze
premak
iskanje
potekajo
politična
##gis
##čnice
##ščani
župnija
takratni
71
Ah
##cker
##šitev
mani
razlog
spletni
primerno
arhitekturo
##thur
odpi
graditi
kombinaciji
Cho
##ktori
aktu
fizik
kritik
seštev
predaval
##odor
huma
sino
črne
Njihova
Nastopila
##mna
boril
orkester
uporabljalo
Cre
kle
novim
površ
uspeha
##gana
Bou
imamo
obala
motiva
vojvode
literarno
kisika
posadke
razlika
sistemi
uporabljena
By
Ya
JLA
okri
takih
ponovi
zalivu
Društvo
zanimanje
ustanovitve
##cci
mol
Life
cerkva
poslab
turnejo
služboval
tradicijo
bogov
poganja
Španija
parlament
matematike
##teti
112
Gon
##nalno
##čnica
navo
vple
Ustanov
izpopolnje
##čjih
ser
Judov
prire
slavo
##stavili
ploščo
članke
sedanji
cerkvene
distribu
mednarodne
Ten
umre
vidne
objektov
neposredni
znanstvene
##pev
##trovi
Love
vokal
akademiji
profesional
slovenščini
Manu
mrtvi
večer
ilustra
telesne
##indu
želeli
razvija
neodvisno
skrivnost
učil
zraku
uničen
učinki
pokazale
stranskih
Male
Tomaž
osvet
prvak
željo
Hrvaška
1880
Grki
jako
poču
Ljudje
izgube
prived
zapiše
sklenil
Fal
Svetovnem
##sus
##skop
Kru
bitko
skrbe
sredo
stadi
doktor
poljub
trdijo
uničil
Družina
##ens
ogle
sesal
preobra
##vani
duh
preva
dosežejo
trenutku
##pah
##pala
##teno
cest
vladi
špansko
Naslednji
najuspešne
znanstveniki
##té
##arna
jug
moše
razpr
račun
vodijo
spletne
stebrov
podpisal
##rip
She
masa
cirili
rimska
največjo
prisotnost
##ZS
Fon
lep
obu
odšla
uspeš
pomočnik
različico
##fij
ac
Fan
Franči
figure
izraza
Srednji
izgubili
posebnih
postanejo
Yo
##tiral
vhod
dodal
histo
vrstah
oddelku
vedenje
upokojil
nasprotni
##sij
##tch
##usa
Mai
kul
Bela
hoče
sekun
številko
konkurenci
materialov
sodelovanja
##unt
Em
gol
##stike
##tropo
dobri
javne
metri
njima
vlado
izbral
problemov
##tlej
jame
Južne
objavljal
Kalifornija
jugozahodno
##nad
liga
pobi
Cyrus
ekipi
zapisano
nacionali
spremenili
slovenščino
##dows
pritok
##oks
##mero
##žnim
Chri
Stru
najlep
##rejo
##tove
##žele
Pia
Akvi
dirke
nalog
Nahaja
avtorjev
##BA
##kona
osla
##tičnih
harmo
ljudeh
studijski
političnega
Encyclopedia
##lag
zavra
praksi
Martina
##sve
##čim
##bour
##lani
Swi
belgi
kroga
določi
pozornosti
##mbro
##šuje
##tenja
Doma
##stveni
Pesmi
podvo
provinci
trgovino
Kitajskem
zgled
podaja
zaporni
omenjena
celotnega
81
čo
##anji
##onir
##žnja
Komu
paten
avtorji
nede
zgodi
Klemen
sodišča
pobegnil
številom
##ljah
Sir
sliki
verje
konjeni
##žab
##šali
Aga
##diplo
##mpany
##torje
kipi
ubil
##bitiral
zaposleni
##wan
##veli
gozdov
zastop
##ctionary
javnega
podpred
svobodo
prinesla
trgovine
jugovzhodno
Slo
##datki
evolu
krvni
najdal
izvodov
##šila
odce
Marca
konstru
pošilja
abe
##tarja
Mihael
Prvotno
kulturi
velikan
##će
ptic
rabi
zadol
vrnili
človeške
##java
Pragi
Tukaj
ohranila
samostojna
##gie
##nav
##tji
91
##hara
##paci
svi
strah
strmo
Skupno
listov
določil
odnosov
verzija
verjetnost
SI
##ženj
Time
dobilo
štipen
tveganje
1894
Splo
ogra
večine
zakonu
##ans
##dwi
##tehni
veka
kosti
fronti
pridob
stolpi
Verjetno
Združenem
nastajajo
##hl
##vanj
cev
Okto
dato
Sonce
steno
enakov
linija
načina
zanima
ozemelj
reorgani
parlamenta
povzročijo
##hn
Eli
Sie
tetra
##elektra
Zadnja
avtorja
nesreči
storitve
teritori
povzročil
##gib
##vamo
ber
##tikan
pade
Disne
jedra
odmer
viden
prevoz
razpro
dogodke
kritiki
okolico
##idi
zakaj
Franca
invali
##vid
pdf
Kova
Rome
##dablja
fizike
menijo
pogovor
znanega
Podjetje
Fakulteti
##tula
Times
drama
obred
Avgust
hribov
dosežke
grškega
povezava
pisatelja
posameznikov
##hon
##jezi
Lee
Vele
hrib
nihče
ulica
navzdol
Retrieved
prezbiteri
pl
Jordan
School
gradiva
##art
##gua
##chel
Razli
mentor
porazu
Namesto
celoten
značilne
##yu
oddaji
Domi
učbe
nižji
vpisa
Kranju
Litera
večjega
športni
obnovljena
Es
##fera
lan
teča
oblet
poslop
dragoce
nemškem
svetovna
uporabljamo
inova
Kriegs
drugod
regija
obratov
##gala
##tenje
barv
osmih
izgnan
oblastjo
Adol
##tansko
Kočev
povezujejo
Bé
##mbru
Unes
Zapo
fiziko
igrali
zamisli
Osebe
najni
šolah
dokazi
podobe
stopnji
Evropski
Sovjetske
izgradnjo
umetniško
##bela
##search
Zlati
neneh
preus
Ogrska
strogo
desetletjih
Cir
##loški
1893
Nava
##dovala
##slovja
Festi
rimskem
tekmovanje
Ash
Dob
Rock
neiz
potro
pogoji
ustvar
napetosti
prestopil
severozahodno
94
Ye
HMS
hude
olje
licen
dogovor
ustvari
domnevno
polovica
##ščenih
german
ukazal
srednjo
pokrajino
tekmovanju
##ctor
##šenj
Bir
jama
##ljenem
koncept
ohranil
##fel
##fero
##jšim
Hon
sma
melo
##onalni
##vnosti
tumor
funkcij
posebna
Samostan
prihodnosti
razumevanje
##nka
73
##schi
##ralna
Dalma
##njenega
vodnih
Stanley
cerkveno
priljubljen
##nage
##zopo
Tere
##činski
prizo
načine
oddaje
razvojem
osemdesetih
##die
##mont
Pet
Beli
okle
Antio
multi
Hkrati
plemeni
Kriegsmarine
raziskovanje
##zes
Ira
Njeno
ženski
predmete
spremembo
Koz
##klica
##znega
##najsto
ostro
pojas
znakov
varstvo
zunanjo
pozitivno
nekdanjega
##ini
Žen
Miro
mama
ozra
##gnosti
delovati
sekundar
dirkalnikom
ustanovitelj
izobraževanja
#
Čez
nego
##vobodil
gotovo
odločila
zgrajeni
##fred
Boe
##peler
vrha
##ralnih
zvezni
sodelavci
##dam
##lod
Rie
bela
dali
srce
bavar
##grafija
občino
utrdbe
Hrvaške
pokopan
##ia
##pha
##morf
##nisa
pan
loko
Mnogi
zakri
zanjo
šport
dežela
vladala
aktivnost
##rini
##pitev
1891
1892
usta
ustav
vedenja
priložnosti
tja
Tone
prever
župnik
začnejo
antibioti
##ER
##dae
##teh
Bour
izoli
koman
talen
dvorec
Company
naselij
razlikov
##pine
##toro
Kol
Glasbe
morejo
Slu
Tal
članek
obzidje
dodeljen
preselili
zdravljenju
<
##sul
Sul
vina
##formati
programi
človeško
hitrostjo
1889
plat
##kistan
storil
medalje
okrožju
nasproti
ST
##žnji
vizu
skupne
vsebine
francoska
##pru
Kaj
Pisa
Herce
močvi
Balkan
mongol
Jugoslavijo
arhitekturi
##kol
##koni
##čeve
muzi
uslu
##peljal
odprto
prejem
regula
##ary
Miley
človeku
##pec
IX
##pise
##stiko
obalo
Johann
Značil
avstro
knjiže
koncert
naselili
začetkom
nadmorski
sosednjimi
##žica
Komi
dirko
umor
Jurija
objavila
Slovenskega
ljubljanske
##ot
Odra
spor
novem
enačbe
katastro
polotoka
ale
princ
trdil
precejš
bolečine
asteroidov
##fur
rep
frag
zlate
##zy
##isa
##ssan
##timo
humani
naroda
predlo
srebra
privile
učinkov
delodaja
peča
poži
Arthur
vzhoda
zavzel
koristi
narodne
tovarni
izvajanje
##davi
1800
feno
inde
##hai
Vid
endo
vojn
bitka
tehnolo
vodstvo
internet
proizvodnja
##−19
93
##stek
Cari
Vasi
čelu
Velja
dvajset
korpusa
najboljšega
Im
3000
Otok
sili
povzdig
##lea
fol
Vsako
višina
83
kolek
najem
Alekse
gorivo
zahtevo
finančno
ostalimi
prostore
nez
zre
##narji
##ročij
iste
romu
mogli
vodje
Aristo
motorji
predmest
literarne
ofen
Pribli
perspe
višjih
bolnikov
odlikovan
vključena
##hla
##dine
##genj
Čer
simfo
Antona
zgraditi
##VD
ed
cik
##letne
##nesli
metal
znača
Elektro
domneva
Kitajske
odkritje
zgrajeno
##lé
01
žo
kožo
##logiji
##činkovi
greben
računa
Windows
množica
vsebino
bronaste
kanadski
nadzorom
razglasi
##dora
##gami
krilo
nasel
privr
dnevni
splošne
kitarist
podobnih
prijatelja
arhitektura
##Po
vali
##stnika
zaprt
umetno
infrastruk
Upo
##mater
##indvaj
ljudsko
področij
ustanova
##serja
Bogo
Sama
##taplja
Social
ležijo
kritike
povečanje
programov
##ía
Iza
Nov
odpu
Stock
Tradi
Spodnji
porekla
##lat
##uda
##jeta
1888
Vero
ribe
unije
moremo
Francozi
Friedrich
dolžnosti
##rhi
ref
##čišče
idejo
pokriva
resnično
umetnikov
upokojitve
Association
pokopališču
##žij
##http
##piti
1850
##jenimi
depre
dvoji
signa
jezikih
odrasle
vzpored
končanem
glasbenik
##redil
opozo
Philip
vidimo
splošni
literaturi
prikazujejo
vzel
obrambe
observa
razredu
tretjem
##op
##erja
Nav
ume
##dniku
##jenim
Ozna
izzi
bratom
plinov
vzorec
potovanje
električni
poveljstvo
Idri
odbi
hoteli
dogodki
gradivo
odločili
vzdrževanje
##gin
den
Beau
Dimi
Schi
čude
Video
genet
nosijo
##rey
##zona
are
##nirja
Okro
lovi
zmog
plast
sodijo
zaliva
podpira
prehaja
prostem
vladali
avtomobi
prevajalec
učinkovitost
nespo
ozvez
##sm
1885
##dovali
Velik
Kanada
delijo
Nikolaj
nekatera
##ravno
Gore
vroči
Štiri
Naspro
objekt
ponoči
Rezulta
svetlob
zdravja
Williams
italijanskih
##qua
Spod
Dušan
obseg
tabor
krater
Španije
najvišja
naravnega
##zila
1882
apsi
bližnji
zagovor
določeni
ureditev
dinastija
temperaturi
##cle
AT
##mbel
Eng
Oton
obnaš
potoka
pregle
izpolni
umetnik
zdravilo
##rban
Coun
odprl
Njihov
maščob
stavbo
ostankov
ohranjena
Mednarodni
##bljen
##strak
mere
##narjev
##ništva
modre
prestolnica
##vim
Sp
##lete
sote
ženi
datum
gozdu
kanton
pozimi
lastnih
oddelek
označil
starogr
nogometaš
##ör
##dos
##čji
900
McC
sar
tor
upi
vne
Stri
padla
rešil
versko
želela
takšnih
delovnega
prestolnico
nadaljevanje
##col
##teau
izčr
sabo
Zupan
uvaja
izdaji
radikal
kritikov
zaposlov
departmaja
un
take
češki
Študen
##alth
reče
topo
ličin
Disney
onemogo
umetniki
##jka
Bolj
##enkrat
opati
el
Dun
angl
obdr
napadi
##AF
##ID
##zza
##likal
Veso
stiku
enostavno
Mednarodna
##liv
##pta
##ches
Wer
imi
##ovale
bitke
kultur
imperij
nobenih
pogosta
kraljice
prisoten
nadaljnje
##skal
##čane
hram
##rjenja
spopad
zadnjo
konflik
promovi
telefon
##ljan
Cra
##tonov
Igor
dopis
Severne
izhajajo
komisija
razmerja
Septembra
nogometni
poskušali
pok
vez
Isto
modu
urah
Politi
koncil
linije
pisati
videli
živino
ženskega
prednosti
jar
Hill
della
zavod
zgore
boljši
našega
podpis
starem
suvere
##pne
##uss
##snim
Smo
oken
svin
osebo
ulice
škodo
poznih
fakulteta
sno
Pose
aten
##ljivega
zvrsti
Državni
pravijo
stolnici
##arne
Cru
##ščica
veje
modri
brezpo
rojena
relikvi
inštitut
prisotna
značilen
proizvede
04
##gajo
Châ
Pop
delati
aktiven
vzdevek
cu
Ray
fun
oja
Naza
vege
širši
kapeli
osebni
okolice
Viš
##dnike
olja
kraje
bogate
habita
hčerka
kratke
razdalje
družbenih
pomanjkanje
Muzej
Tehni
arhiv
magnet
obisku
napadom
priporo
postavila
pravljice
železnice
##hem
##rier
glasi
pogan
membra
naslovu
rojstva
storitev
##mijo
##peri
##tten
##bergu
##snimi
cito
Šola
##tujejo
Royal
jezer
Ferrari
gravita
podružni
položaje
električno
goro
iran
Alber
poroč
stroj
turbo
Hambur
izdaje
modela
Gospodar
povečala
razprave
##vje
komo
glavi
Stefan
gozdovi
Nacional
Britanije
bataljona
Ji
##dane
##tico
vpa
Iran
legi
Evrovi
izgubi
konfli
delitev
osnovna
državljan
ustvarjanje
predstavljala
Rober
glasbi
podoba
ohranjeni
##cku
Ome
##talno
Wood
žrtve
##dovanja
fevdal
strokovno
Kav
##stale
Babi
bosta
odklo
virus
zauži
delega
signal
železa
pedagog
Avstrije
opozarja
delovanju
·
##lski
Lar
tod
1871
Parti
šahov
Kanadi
osebnih
nastanku
##EN
##gine
Eko
##narni
1883
Maro
indo
Primo
priro
ugotovil
predavatelj
Sr
kapaci
sodnik
uničili
##dice
Kapi
Moha
kine
peto
mojster
dokončal
vključil
Hercegovi
pristanišča
##fin
##kisli
Demo
Niko
Slovan
Anglijo
diferen
naravna
priznal
letališče
uveljavil
##wen
mg
datu
dlje
kuhi
širše
##ževanju
Viktor
izraža
preživela
##dino
Zma
hru
odz
obarva
sklepa
odraslih
bakterije
##wy
##deja
mer
1887
Avto
Izvi
Marka
dreves
kmetov
revijah
odgovarja
##vrov
Joe
##lacija
kajti
pogon
praznik
Nobelovo
##peti
Vas
tovr
zmer
##kratno
drugič
streho
sprejeti
pridružila
##čk
spu
1867
1881
Erne
##najste
pogoje
severovzhodno
Nju
Sno
1886
dopol
korak
tlaka
Švici
Župnija
Decembra
sestavljeno
##gg
##zbe
Nep
nik
pru
Šri
1884
noge
dobrih
medsebo
sledijo
seštevku
prejšnjih
##RI
Jar
ili
##hanje
gozdar
opusto
revijo
gibanju
ogromno
vznožju
izvajajo
nepravil
inštitutu
predstavljal
šlo
##talne
resno
##blikova
obstoja
ponekod
skrajša
Festival
tradicionalni
##kat
##čile
Raj
bistvu
prvimi
Science
Triglav
arabsko
galaksi
producen
strukturi
natančneje
##dik
Juan
##ovanju
geogra
struktur
arhitekta
industrija
koz
##ssion
Carl
News
jajče
##stavljena
eu
vrta
državna
izbrali
obnovil
Katarina
motorjev
programu
tretjega
predstojnik
Via
argu
malih
Moskva
morski
sestri
oblikah
povečalo
populacije
HC
Opa
ranjen
obdelov
politika
prispevek
vladarjev
objavljena
sodelujejo
##yl
Vipa
kriv
Barce
rdeči
učenje
College
dogajanja
kakovosti
##mm
##tisa
amo
Meta
štab
odide
prehodu
procesa
procesov
ustvarili
##lana
sva
vle
Pano
aristo
Sovjetska
pripovedi
prevladuje
sod
##brani
Feli
ogre
##zijsko
mreže
Zanimi
polotoku
videospot
Abra
lege
vidni
vodne
znaki
Postoj
stekle
subjek
razvilo
zračnih
odgovoren
nacionalni
najstarejših
##pul
gar
previ
profi
izvedla
založni
kontinen
##elu
##kriv
ola
Igna
mala
zbole
takšne
veljal
Andreja
Založba
klasično
napetost
zanimivo
Približno
BM
Uk
želja
##chester
izkazal
##pni
##tat
##zane
##zina
Cur
##dovan
##nitev
Loka
Revi
teže
prehi
Junija
raznov
prilaga
občinami
##kare
##slan
Sun
plan
omeni
Psycho
svetle
razprav
temelje
cerkvijo
Alexander
##wel
cepi
mobil
Letalo
Posame
dolžini
special
združuje
italijanskega
Sau
##jevim
High
Poro
##zijske
prezi
ansamb
modeli
odvija
omogočil
cerkvenih
sporočilo
literaturo
##tas
Avi
##ments
Kakor
abece
Povpre
predal
avtonom
vladarji
knjižnici
veleposla
##oro
##žka
ten
##silva
Jame
plav
nadar
odpre
sposo
vrhun
moštvu
načinu
premik
prislu
sestava
zapisov
opravila
cirilično
socialnih
##bini
##iner
##lilo
leg
Polo
ligo
ruske
Jožefa
formal
koncem
ladjev
majhni
želijo
Oktobra
Avtor
konzu
##ziranih
založbe
bombardi
materiali
pridobila
vključeni
pridobljeno
1868
##ljenim
Johna
pleme
vojvod
izvedli
množice
poznana
svetloba
trdnjavo
študijem
pomembnejših
##baj
##lak
##ngs
##gnili
poje
##lacije
zgodbi
cesarju
pripravil
jugovzhodu
Mé
XX
bas
##rence
mene
Morav
opere
zasel
delala
prired
tehniko
planetov
##jave
Kun
##navlja
Svobo
Zelan
močna
rekel
daljno
hranijo
trgovsko
kmetijstvo
poimenoval
sestavljali
strokovnjaki
##rial
1866
plenil
vojnih
Slednji
knjižnico
##buje
##tation
obsegu
izvedbo
prostori
stranske
odstotkov
Dictionary
dejavnikov
##ovac
oli
bazo
kran
Micro
Potre
Takoj
dejavna
porazil
uveljav
volitve
obnovili
matematiki
nadomestil
##čiča
dis
god
jad
gove
detek
oboro
##ljujejo
Wilhelm
režiral
uničena
krščanstvo
##zzi
03
HK
##tory
##formi
kosi
naboj
blagov
igrati
takšno
kamnine
premier
zasedbe
festivala
podrobnosti
##cchi
Teh
zača
Katoli
fotograf
raziskovalci
##oli
##často
Ober
wiki
##ksembur
pridela
turnirju
nasprotno
omogočila
združenja
Washington
##jec
ane
stu
Samu
ukra
federa
Münchnu
moderne
pogojih
povprečju
##nati
Zas
Otta
zaob
Domne
Raziska
okrožje
bolnikih
piramide
olimpijske
##far
Žu
##fere
##nini
##tira
##cioni
zgodb
Marijo
prizor
##fikacija
analize
ponudil
procesi
računal
besedami
strokovne
zgodnjega
prazgodovi
##ckey
tlo
##loško
hele
##zirala
barvi
mašče
kamnin
European
govorijo
katoliške
raznoliko
oboroženih
KP
Marti
dokto
našte
zlora
jezike
Industri
pripoveduje
##hih
BBC
ara
idej
Konji
sedmi
##cijskem
rodovi
Frankov
prevladu
atletinja
##tsch
Law
USS
uše
##narja
1878
##povedi
vodilo
Program
podpore
prostorov
razširjen
##jil
##cena
1869
Bole
Peri
##stanek
Jones
zvonik
Števil
impresi
Novembra
naredili
skupinah
zapustila
##SS
##ço
Mona
Roma
##jočega
izvir
oceno
zapro
trajalo
##mou
##pilo
##jutraj
Tedaj
##slalomu
United
tajnik
Avstrijo
kateremu
pojavili
odločitve
literarnih
##nev
##reh
##šir
Mel
1860
1879
ciljev
celotnem
zavarova
##žnjo
Ham
##gnila
##ladel
težo
centru
pisanju
omenjajo
ukvarjati
Avstralije
ohranjenih
##low
##liju
DVD
sten
Justi
Tempe
naprav
srečal
odvisen
poznega
podpiral
##skrb
Hra
Meh
XIV
izbor
Daniel
očetovi
pisanje
produci
Januarja
Aleksandri
samostojni
##ré
##hrma
##tain
Lor
Razen
gozda
klube
samosta
sedanjo
razvijal
Jeruzalem
PO
##zine
Otto
obole
fronte
uredil
zračno
veljajo
zmagala
zunanjih
##NA
##sing
žal
Pohor
Matija
pogost
preprič
Ustanovi
razpravlja
Jos
doi
zbe
Club
Uspe
solo
Massa
Antonio
periodi
španske
Britanci
medicino
sistemom
bizantinski
##lle
##zvo
##skar
##dskega
iskal
pošte
spojin
Pomembno
grobnice
pomagajo
prevedel
kazal
Aprila
enačba
predor
združil
kandidat
tradicije
revolucijo
##kir
##deri
##dsko
##čnemu
sobi
hokeju
orodje
egiptov
opazili
ustvarila
##žin
##dorf
##lari
Tem
1876
pionir
prenaš
srbski
fizično
bronasti
##dani
##ssel
Plu
Rea
Camp
neob
##nicami
avtoh
demon
Člove
##grafije
Proble
napisana
trideset
njegovimi
gospodarski
##IV
vdr
čet
##cation
vzame
Cerkvi
napadov
Evropska
hokejski
##misel
ambi
##dovolj
Roger
posre
napake
izvirajo
omenjeni
##afri
##geno
Cour
bomba
Pariza
dajejo
odkrila
Jeruzale
načelnik
določenem
angleškega
nadaljevanju
##thy
##demo
pen
Milo
neja
Rusije
portret
pripisa
naslednjem
##karja
##stern
Alen
Volu
kipa
prosi
branil
kapele
dokazal
študent
Kristusa
normalno
predelih
nastopili
mednarodnega
najpomembnejša
##zbo
Obse
ugra
hitri
okras
sveto
##grafijo
izgubo
rojstvu
prihodom
reakcija
namestnik
svetovalec
##ath
Rusi
varno
Sistem
poslušal
asp
Main
dobra
klobu
padcu
zagre
Indije
mojstr
München
navzgor
otrokom
formalno
japonski
priseljen
zavezniki
spomenikov
proizvodnji
##zih
##delo
Cou
Dama
Tech
ptice
uskla
zvesto
kislino
napačno
obrambi
pravnik
zmanjše
številke
preusmeri
matematiko
##ola
Hay
uma
##kopan
##toksi
##vitev
Tretji
dogovo
nespre
opazil
Zgornji
omrežja
pisanja
##ket
odv
##nalne
##niške
Črno
princa
ravnote
Pot
kamp
kota
nazi
izumi
leksi
nadre
celotna
poljski
sinteti
zasedbi
kasnejši
polovice
svetišče
narodnega
notranjih
pričakova
Konstantin
gledališki
##mag
##ater
Hot
Sami
Topli
minim
okolj
najbli
katedra
britansko
dogajanje
krščanske
naslednja
človeških
##stv
##zgod
Petr
Tega
lako
kogni
semeni
Francis
služila
obdobjih
dejavniki
kasnejših
##čmi
##žati
Gun
##gnali
Karo
Save
Atene
zakonov
izkušenj
najboljša
delovanjem
##kur
##psi
Aa
##sena
tank
Observa
sisteme
trdnjava
koncentracije
televizijskih
she
bloki
dikta
##jevanja
odigra
odprli
oblačila
pomagala
prebivalce
Ö
Isa
Dolo
filo
ohla
##torjem
Steph
##ljenimi
zraste
Gradnja
omejena
razvije
Research
ohranjen
inštituta
prostorih
##iti
##fori
Lyn
mrz
kaza
zati
posmr
tednu
dnevno
toplote
najstarejša
##sum
Cle
Matt
Drugo
Urban
spodaj
telesno
Evropsko
poslovne
krščanski
bolnišnici
gospodarstva
##ATO
##viden
Isla
izkr
črke
##erarhi
Janko
dneva
Bernar
Podatki
prevzame
omogočilo
diplomirala
##djem
kje
Nami
##tanije
Briti
Sigis
Zveze
kovin
rojstni
povečuje
verjetnosti
##ET
##field
Franz
Južna
ostri
črpal
Rimski
Srbije
ljudski
##tome
##lerja
Swift
doseg
ogenj
zakle
telefo
prodajo
aminokisli
##taj
podr
vtis
Germa
oddaj
veter
sledili
sovjetski
disciplini
##hna
id
##jočo
Köl
Lie
More
bivši
napol
Razvoj
bogata
pozitivne
~
##bica
sir
leže
stil
gline
levem
navpi
##ljenjem
veliča
verige
zapora
načinov
rednega
rešitve
družbeni
piš
##toria
spol
delci
hindu
reagi
načelo
uravna
##nistični
Štefana
Največja
postojan
sredozem
publicist
razporedi
transforma
##chte
Loj
NOV
ion
mav
##tniku
Arte
Stani
faraon
tveganja
republiko
##pana
Tov
kubi
zvok
prave
enajst
jeziki
spusti
zelene
sodobno
pritiska
razmerah
italijanska
ovo
trdo
Deuts
izmiš
##zijskih
desnem
pošlje
Osnovna
Osnovno
društev
nesreče
pristaja
vladanjem
##tici
Cel
1873
nukle
rdeča
ščiti
verski
religio
angleške
##cum
##gati
fri
hek
Anna
Elec
Naslov
nadzora
prvakov
##bna
##fat
##lič
##neja
##ters
Top
##stent
Rast
aero
neve
ledeni
načela
orodja
podeže
prenov
##ljevanje
poznali
tedanje
molekula
pridobivanje
sedemdesetih
π
##dalu
Adam
golo
potop
Hrvaški
investi
evropsko
pogosteje
devetdesetih
##AM
##teka
##pisih
dopu
zasu
štar
Vilje
dohod
Srbija
kapelo
kratkih
mladeni
Dostopno
govorimo
##ès
##poved
##čarji
zidu
smrtno
vrniti
hitreje
gradbeni
kolonije
poslanec
spletnih
Raziskoval
pripadnikov
##ua
##znik
Rib
##mbrom
1861
nebo
okno
Brown
grani
nekje
Župan
artile
oprema
polfina
tekočine
dovoljenje
##ill
##rion
101
Pho
not
##turni
##žnimi
grebe
tedna
Dubrov
Društva
skupnem
uspešna
radijskih
srednjeveški
##tei
Hri
##strui
Islan
marsi
šesti
##oloških
Babilo
Gornji
centri
dvajse
kovine
regijo
široka
absorbi
bližnje
obratno
svetnik
projektu
stopničke
##mbar
##sana
eta
oma
pohi
Alfon
amater
doslej
Mihaela
morskih
naprava
strokovni
##bury
##šnji
Bob
jem
naved
Glavno
dvorca
krajše
smatra
sodela
komisar
končana
kratkem
kriteri
##bek
##nimo
Goo
Stav
poža
sobe
morjem
Bernard
podežel
katoliški
q
1875
vrti
tabli
##vališče
Christop
Jesenice
potnikov
nadaljevali
−
##čejo
##čjem
##tveni
baza
House
prelom
povečal
srebrni
invazijo
navdušen
predstave
pridobiti
ukvarjajo
fla
lok
Frei
Poto
osmi
povze
zapre
prestolu
zagotovil
##cks
##mek
##gane
##scher
Zuna
odzi
seri
zape
##larnih
igrajo
njenim
dovolil
državami
kvadratnih
##mmy
er
##voda
##razse
1849
Adri
Hera
##zirati
diser
nekem
Irskem
Matjaž
razgra
prvotni
spodbuja
človeškega
zdravstvene
##RJ
##xe
##čice
Abu
rol
##polis
kola
pritisk
župnije
privržen
##jon
##dale
ange
Kopen
moške
morske
ozadju
Zahodni
omejeno
možganov
upodablja
izboljšanje
##ffa
Iva
Jaz
##torju
Aten
dosti
ofenzi
pustil
sinova
Ukvarja
tovarne
primeren
kompleksa
človekovih
pisateljica
severovzhodu
##ín
##dove
##stika
Salz
Temu
kame
Preko
hierarhi
Republika
projektov
##vac
It
fik
##sonan
1200
1830
Ladi
hote
pusto
turneji
##poro
##sson
Bay
##danes
##plici
##rizon
Načr
faza
jekla
vojsk
##ševanja
papeže
živčev
##nagement
analizo
zavzeli
ohranili
rojstnem
zaporedje
zmanjšuje
zunanjega
poveljeval
##zur
##dent
nesta
Astero
izbere
katali
ujetni
živelo
dobitnik
korenine
značilni
pripeljal
znanstveni
##kes
##cina
##ties
##šanja
dote
##vetnik
alumi
sinom
Archae
freske
Dolžina
Projekt
Kitajska
provinca
##dé
##cco
##smo
1877
Koli
cesa
Novak
##ustanov
konzer
poviša
strahu
obsežno
poezije
vrstami
merjenje
odkritja
univerzo
gledalcev
različici
##mie
SF
##rent
Cli
uka
begu
ples
Group
hriba
privo
želod
##letnega
dirigent
godujejo
hidroksi
milijoni
potrebne
sodelavec
sodobnega
potrebujejo
##miti
Nek
XVI
ano
Gimna
prero
rekla
povsod
Šrilan
iskanju
pobočju
avstrijsko
preimenovali
##ár
1859
UNES
basi
orto
zvon
turško
matrika
omrežje
poudarja
zmagoval
prepričanje
##jenem
Blan
veja
##tarjev
Vlada
mrežo
srečo
razoča
Pokraji
sladkor
prevajal
pripravo
Christian
Februarja
avstrijske
fotografije
##vič
##bano
##nald
##basti
Virgi
pismu
Mezopo
Perzij
prosil
Ameriko
brezpla
igranja
izvajal
zakonom
domovino
plemstva
standardi
zemljepis
jezikoslov
##lange
črte
kompi
sektor
vremen
britanska
metropoli
patriarha
raziskovalec
##bs
##kam
##gura
##nale
##žanja
Mike
ekva
glad
##lacijo
Holly
kipov
koali
sodni
Grčije
nadgra
potoval
rezervo
državnem
učitelja
prepričan
##HA
cir
inš
ubo
zli
Bazi
Gora
razc
Carlo
bival
preto
Postal
energe
##nistično
mladega
povezal
razpadu
sprožil
izdelali
komentar
umetniški
obveščeval
##MC
IF
##čkom
juni
upad
Vojna
izgra
trdno
progla
Studies
deželah
organov
površin
stranko
vprašal
potreben
propagan
registri
razvijati
pripravljen
##OR
##arno
##ravan
maksi
tkiva
Herman
najdbe
portal
Angeles
British
športnih
FI
gal
##delni
Polk
stališča
oblikovanju
##spot
Uro
kos
##čenega
vrati
Odprto
izrael
podaljš
ravnini
ustanove
vzporedno
mednarodnem
##gas
##zga
##tiku
Ble
Edu
Hall
jedi
dobrega
medseboj
temeljijo
jugozahodu
razsežnosti
##reni
ote
##merna
ideja
franči
primerna
dediščino
Obo
pali
Schmi
nemogo
poroča
Poljska
postajo
ravnatelj
napredoval
ohranjanje
##mis
##tskim
krea
tople
tribu
načrte
knjigah
Stockhol
ministra
okriljem
pripadnik
turnirjih
Slovenskih
Ern
las
1874
Clar
Indo
Mnogo
zanje
deželni
omenjeno
α
##vilni
Apolo
Engel
Namen
bitja
menil
##truščan
Filipa
vrhunec
kamnitih
kraljevo
pomenila
postopku
zahtevala
Ane
##tlika
Bohi
Igral
Stara
dunaj
enaki
hribu
nagrob
prejme
širjenje
gimnazije
premagala
preostali
novoustanov
##bis
##tikal
seme
veže
Legen
tista
biblio
izdana
dejstva
dvorano
visokega
obstajala
prvakinje
računalnik
tradicionalne
##gny
##atri
Coo
Psi
##pitve
konj
##ženega
Nagra
konji
avtobi
otokih
delovni
obsojen
kakovost
mladinski
##xu
##celi
Obra
##tivnim
borili
starša
##najstega
obsežne
reaktor
točkami
domobran
prizorišče
televizijske
##nc
##ghe
Svoj
draž
ioni
lega
India
mogla
dodali
dvojno
mesece
zelenja
Bistrica
nekaterimi
severozahodu
##MA
##cca
##rona
Pas
##cijan
ikono
Površi
atomov
Severna
kolikor
milijon
italijan
stoletij
Kraljevine
sorazmerno
raziskovanja
##illa
Rei
##mskem
##strom
##terja
1864
1865
zamr
##ološka
polie
odraža
ogrski
rešiti
dodatne
samomor
napredek
reševanje
zamenjali
##zia
##deno
##rodi
bron
Kasti
gluko
metod
okvir
porta
polkro
pretok
vokali
Leopold
košarkar
narodnost
##jice
Ele
Ander
prepi
radar
ukriv
čigar
policija
laboratori
latinskega
nadstropju
##py
##jar
##šle
Lü
##dona
fra
ekso
pusti
sonca
planet
domačem
govoril
Maksimilija
##čkih
Rou
Arno
Cvet
deka
##čnikov
Ludwi
podaj
učenec
vzgoji
zagotovo
dvajsetih
##cla
ep
Big
fer
male
obši
Premi
višja
Marjan
ločeno
pridejo
turneje
Olimpija
izvolili
povedala
negativno
##joli
##kelj
delimo
relief
načrtih
provinc
vodilni
osrednjega
izz
##worth
Zdaj
glava
radioak
zasedbo
krščanstva
##vey
##bula
##enne
hro
Preo
Spli
zame
pisec
pones
višjo
hotela
letali
spreob
bogoslu
nanašajo
NK
op
Inc
Pou
##cture
##landa
Manj
Salo
teka
Moder
oblega
verzijo
začetni
Nikolaja
trdnjave
pridobili
stoletjih
taborišče
šestdesetih
jez
Vodi
črna
izšlo
stoje
##ologiji
kombini
Institute
pisatelji
sporočila
direktorja
##AD
##snik
##sburg
Mars
jami
jabol
stike
mrtvih
nivoju
novimi
čudovi
podlago
ponudbo
izkazalo
kolonija
obnovljen
potovanja
preprečevanje
##dske
##stici
1872
Sardi
vidno
antični
poljedel
krščansko
švicarski
##beli
##ères
One
sej
##raval
odku
opiše
orgle
pozne
konkre
osebne
osnovo
preide
tretjo
pomagali
350
Kno
##metra
Sala
najo
vanj
##mirala
Lewis
Sicer
izrek
##čnostjo
Gradec
Skoraj
Wehrma
dolgih
linijo
množico
templju
nastanje
prisotni
Luksembur
generalmajo
porazdelitev
Sor
sati
Četr
prvim
ubili
##njenost
Poleti
pojavile
madžarsko
Življenje
italijanskem
##lit
##lun
##usse
bala
koru
krov
meso
karte
osebi
štaba
Franço
bojnih
hladne
korpus
Toronto
##inte
Arago
Petru
sinov
makedo
prikri
potekale
simptomi
perspekti
srednjeveške
##čić
Bau
##lovih
##loške
Boži
##nology
laser
Vatikan
poskusi
zjutraj
osrednja
nadomesti
μ
uvede
Alfred
August
grofov
obišče
stopil
povesti
diagnosti
uporabiti
beljakovin
##hode
##šenih
soba
utru
zaprli
asistent
razdeljen
imenovanih
##NK
##bije
##kono
Boy
lev
##ovine
##žitev
Andr
Lango
Ruski
sveče
vanjo
koliko
potreba
profeso
trditev
naseljen
umaknili
nadmorske
zapustiti
##cts
##ida
##dene
##kofa
##nikan
##čarjev
Dravi
##grafski
kemije
vojnah
faraona
medijev
vodenja
založbo
Španijo
narejena
obveznosti
##OL
##ons
##row
Pé
SL
##ksio
##štve
Ani
Ibn
Auto
Drav
Empi
##čakova
ekosi
severa
Spodnja
Zimskih
prevodu
vrnitev
obremeni
poročilo
medsebojno
##sea
##nist
##žilo
Ano
Jel
Wan
##njaki
##centri
Sankt
Atenah
Nemški
skušal
tednih
Nizozemska
Nizozemske
nasprotnik
oblikovanja
uporabnikov
Rob
Rado
ladi
inhibi
pacien
Standar
mnogimi
cesarjem
oblikuje
zahodnih
republikan
##sio
##tun
##krea
Izi
vlog
White
čreve
UNESCO
kmetje
uprava
znatno
Uporaba
poročen
posebni
zgradbi
današnjem
mehanizem
preživetje
najstarejše
##IT
##ovze
trp
##ritev
Chro
Bitka
ploskve
##gari
Tau
min
vše
##berku
nemo
vaje
Reich
##najstem
diskri
simptom
prisiljen
razprosti
##ore
##uve
##ggio
##hala
Abi
Haw
dno
##noves
Luni
Kenne
garni
ubije
vreme
zbira
štela
podeljuje
jugoslovanske
Ant
Way
paj
rit
Anne
Sche
Breta
Matej
kromo
rjave
namera
prejeli
zavzema
farmacev
uvrščeno
vključen
Republiki
dinastijo
##öl
Eri
Mit
##efici
##shire
Ansa
ujema
uvedli
obrambni
voditelj
narodnoos
Evrovizije
Mezopotami
pripisujejo
##lian
##tario
Boni
Unesc
arteri
odnosi
napadla
narejen
Japonska
podelila
prevladujejo
##mira
##nosil
nafte
nepro
Uradni
Zemlja
plesal
uradna
pogodba
reforme
Heinrich
gozdovih
blagoslov
##hka
##koč
##kale
##muje
Hla
Tin
Špar
dejala
vozilo
izdelan
ničesar
pogojev
rastejo
domačini
debitiral
Olimpijskih
SK
##peli
##tifi
Kin
divji
genov
prodi
oddajo
Dimitri
objekti
protite
odposlan
patriarh
opisujejo
razširili
industrijo
##dika
oran
##ščinah
dekan
živah
freska
primor
razlik
steber
Vzhodno
propada
turizem
kemijsko
legendar
producent
Diplomiral
##tič
PD
Py
##feld
God
Nie
##Pogoj
##magne
##tovih
East
vidna
filmska
formulo
planeta
poklica
Stolnica
dejavnik
evropskega
upoštevati
##EC
##gos
Goz
Hin
Wei
pun
##kovič
1863
izob
Serge
našla
Edvard
Evange
Hockey
učenci
Poljsko
devetih
gostota
igranje
integra
razpada
Najvišji
Francisco
omenjenih
uporabljeni
Sle
##ovina
Hart
Judi
nate
##tarkti
izidu
obroč
##kovanje
vojake
dvorane
oltarja
stoletjem
CH
KM
Nau
Rose
juri
bosan
nizke
prahu
armada
krajši
krožni
tedanji
identifici
reprezentanca
##gradu
##hodov
##mania
okraj
prepe
motnja
##fikacijo
prodali
pokopali
socialni
standard
Francoski
mineralov
življenjski
##chy
##arni
1815
moto
Astro
Orien
Jezusa
značaj
Hrvaško
nekdanja
lokalnega
rekonstruk
povzdignjen
##day
##guje
cikel
kozmo
Vietna
kaplan
letnici
Montreal
Rimskega
konstanta
psihologije
##snem
NOB
izbo
##lovega
Ajdov
agresi
imperi
Palesti
poglavi
pokojni
pravica
prejšnje
probleme
gospodarskih
##skan
Ambro
Model
Boeing
kanali
poroki
ljudska
##stanavlja
odpadkov
razstavi
dolgotraj
##masa
##ving
##šijo
Wat
ZRC
##stove
##tizem
liki
taka
trži
##nostni
Plani
izena
Provin
mitolo
popisu
samice
spravi
pehotne
antičnih
kitajski
razmerju
prehranju
organizmov
##vol
Sca
ski
##gmati
##rišče
sadja
nobena
pogreb
pravni
stalni
Vzhodni
Kitajsko
primerjal
Jugoslavija
##phe
Rol
Bliž
Klub
nere
celem
prije
unifor
soustan
valižan
naslikal
certifika
okoliških
Mik
##mirja
##stoji
Boru
Jure
oder
Pompe
dodan
tehta
Pregled
partije
povezov
časovno
prestola
prinesli
prispeva
kulturnega
naravoslov
pokopališče
##džu
Nepo
Zago
soav
Karan
Union
operi
podiplo
Francesco
izobrazbo
njegovemu
republiki
##gner
##nile
1862
Mira
Spri
vetr
Švica
štafe
privze
Poljske
izdelki
zavesti
kapitula
usposabljanje
tih
Brus
urad
Slika
liste
Češka
pojmov
drugačen
obnavlja
projekti
slikarja
nenavadno
postavitev
britanskega
Á
AC
češ
##craft
akro
zaled
člane
nižjih
pridel
zgodil
##fikacije
besedah
reševal
pripelje
človeški
napovedal
##pino
##stalo
##čarka
spore
vazal
sestavo
nakazuje
klasičnih
renesanse
spremenilo
##dus
##mese
##ženju
##mentih
pokon
Moskvi
nomina
tistim
omejitev
preprečiti
##IC
##kija
Kne
jed
##ditve
Irske
Spodnje
podaril
avtonomi
lastniki
naslovov
Knjižnica
monarhije
operacijo
britanskih
konstruktor
##vk
##tts
##ftwa
##sred
##šati
bomo
kopa
ukrepi
odlično
zahodnega
nezadovolj
rezultatov
##fordu
hemo
inci
otvo
varu
mehur
Andrea
Kongre
Lovren
dobiti
ekstre
prište
Ponovno
poljsko
strojni
zahtevali
združenje
##kop
##sts
Jul
Ron
izpa
odpa
Pesni
Rdeče
argen
izpit
časti
dobijo
pojava
slogov
športno
policije
finančnih
letalstva
preimenoval
##flu
Sh
##ccio
##čimi
Jon
##stoli
nakup
##hodnega
opusti
požaru
analiza
delovna
ljudskih
ohranilo
sosednjih
elektronov
starejšega
Fel
ani
1812
cele
Konrad
Volume
večjem
abstrak
komunici
zdravili
##arju
tere
vodah
fiziki
gozdna
vzdrže
uradnih
najmlajši
mednarodna
##vara
202
vdi
vna
##najsti
##slovec
Božje
pravno
vstopa
##cionalna
interne
preživeli
Sibi
Simp
gostu
zalju
zvoka
akcije
vodili
antropo
pristal
dvorišče
Posledično
MS
Sc
Poe
##hitre
Treb
Tren
soto
##jskemu
prepu
kampan
okrajša
marmorja
razdalji
skupnega
časopisa
##tai
##ence
##frie
Infan
konce
školj
nenase
novice
presti
Strokov
vojnega
pokazali
ruševine
odstranje
prepustil
##vić
Zev
1854
Sele
faze
remi
neena
semen
tragi
enačbo
Neapelj
history
obdržal
pravimo
priimki
proraču
industrijsko
##pij
##veti
Bren
Obli
cilja
gostil
utrdba
zlatih
župana
nacionalne
ustanavlja
##see
##bana
Jim
##jevič
##steri
izli
činu
celin
očetom
uspela
pesnika
podpirajo
svetnikov
zgodovinska
##gn
##rei
AG
##komu
##šnim
Ford
lepe
Water
enoti
obleko
uspeli
Barbara
Budimpe
Asteroid
naredila
prikazan
turnirja
nekdanjih
objavljen
pritiskom
poimenovan
osvoboditvi
##ship
Zdi
Jeff
Satur
ideali
ogleda
otoček
papežu
dostopa
odgovori
potrdila
zaposlitve
##bout
##vier
Srb
##dišče
##čniki
Luna
citi
mreža
opozi
##tivnimi
Potter
molitve
tehniki
galerijo
srednjih
##ος
##bia
##pho
jam
##lnico
Free
Kolu
Mann
Mono
poni
tiho
##taciji
Današ
Hamil
kolesa
##cionalne
odpravo
propeler
škofovsko
mitologiji
##ude
##čenju
vire
##narica
makro
plesa
stric
virtu
Stephen
glavnim
motorje
sevanja
prihodnost
##ravni
NATO
boje
kode
všeč
Bojan
Trans
kisik
Mestni
Zemljo
rekrea
tehnik
galerija
lokaciji
intervjuju
ا
##panje
Andro
Armen
Loire
močjo
Gustav
drugje
pohodu
zeleno
##čevanjem
Sociali
nevtral
dodatnih
Aka
##dnice
Kako
Long
dalo
odru
kartu
popis
uvedbo
Šentvi
Kolumbi
Ontario
filmske
izdelke
ponesre
potomci
Ameriški
kraljeva
odkritju
evropskem
namenjene
predavanja
problemati
tisočletja
železniški
##dvo
Ful
Agen
okus
orbi
vera
Berke
Imajo
vodno
Milano
kitaro
kratka
odhodu
Angelesu
dogodkih
Italijani
Michelange
prijateljev
jugovzhodnem
podpredsednik
##brž
##gru
fon
##nalna
##zerbaj
Alpah
figura
poškodb
samostojne
##cki
##nig
PC
ph
##razi
bom
škr
##glice
1814
roki
tovo
Vrhov
blagi
lista
vzpon
Anatoli
izjemne
napravi
alkohola
izdelave
razstave
##com
##dis
##dney
##tenj
Clo
1813
Chur
arte
##strski
poglo
##stičnem
truplo
zapisi
zemlja
prinese
zgornje
uporabnik
zahtevajo
premoženje
Ae
ES
čev
##nocen
Live
amfi
##tičnega
klubom
živega
integri
postaji
vrednote
generalni
režiserja
odsotnosti
arheoloških
Konstantinopel
##nit
SP
See
Tha
dim
avdi
boži
eska
Varša
škofi
obsegala
orkestra
scenarij
stroškov
##vio
##tane
##tury
Celj
Jezi
karo
oceni
vplivi
prvotne
##stavljajo
Svetovni
dokazuje
plemstvo
tekočina
posebnega
uporabniki
naslednjega
##štan
Are
##zorja
izje
čina
krize
hipote
kmečki
lokomo
stenah
končalo
organskih
glasbeniki
intenzivno
pisateljev
Sem
vži
želez
dvigne
ločimo
trajal
apostol
živalskih
##dile
##kins
##škan
Fle
Web
šla
##deljo
##ščice
prah
##čevega
Proiz
težje
kratki
oskrbo
Poznamo
splošna
preproste
predstavnikov
ira
##mični
monu
peru
voga
##vizija
Lojze
romanov
Aleksandr
Friderika
identitete
zagotoviti
##gui
##opa
##vij
##klop
mra
Pitt
##garian
opeke
zavla
Burgun
Jakoba
govora
posode
nadzoru
ruskega
stabili
množično
slovenščine
Zü
##jnik
##medi
##plet
Eva
##sonom
##stadt
##zemal
##štvom
1840
naki
slap
Origi
topli
menedž
nevtro
sinovi
Pokopan
kasnejše
nagrajen
vodilnih
izkopavanja
predstavitev
##arda
##lniki
##znost
##niških
##pravah
nekro
njuno
Mestna
System
kakšno
veroiz
dioksid
premika
spodnje
Predvsem
sporočil
stališče
uvrščamo
enakovred
##II
Open
Wiki
obrni
vedel
bobnar
gričev
podprl
tovrst
Central
prestop
diviziji
prepoved
problemi
odgovorni
zanesljivo
proizvajajo
preimenovala
##wei
##cken
##sica
##stanu
nevih
Ogrske
nosili
spopri
težkih
gostoto
prikaže
posredno
snemanju
tekmovanjih
##ürn
##rniki
niko
posu
##nalnih
Bosni
progi
trage
antiki
oceana
izjavil
prineslo
karakteri
tradiciji
prireditev
zagovarjal
Hud
Lui
Mara
luči
##kotnik
grofi
Canadi
dvojni
mesecu
skupna
Benedikt
dirkalnika
dokumentov
oblikovala
raziskavah
kombinacija
Gui
##kerja
1858
Port
navi
spra
olajša
nedeljo
usposob
kulturna
dvanajstih
preprečuje
jugovzhodni
##jn
##kus
##rič
##zul
Koc
Land
Pisal
junak
prila
progo
skaka
botani
mediji
motori
spolno
otrocih
polotok
izdelavi
okrašena
sposoben
Številni
pravljica
severnega
Nizozemskem
Đ
##ppi
##biji
##deka
Giu
Alan
debi
Cassi
Dobro
Dolgo
Enter
Hotel
##cations
pogovo
kamnolo
Inštitut
skrajnem
časopisu
današnjih
##FA
ZK
##gers
##hari
##vata
Sum
Bošt
letna
tolma
nepravi
pogosti
cesarjev
oddaljen
koncentracija
##bje
##rba
für
##ljana
Jeze
Pozi
##glasni
Paris
delni
noben
preso
Zbirka
kanala
krogle
petimi
slednje
zasledi
izdelana
poudarek
železnica
prireditve
rs
Ami
Zgo
##prevo
Blue
Caro
Govo
##njenja
Villa
bloka
tipov
vojak
Občine
prešel
Benetke
ekspedi
komiteja
namenjeno
zapustili
električnega
##duci
Des
nano
Imela
Udele
bazen
reform
širine
visokim
delavnice
umetniških
znamenitosti
učinkovitosti
##IN
Smr
sal
Čas
Mine
sani
čela
Zlato
služba
hrvaško
rokopis
stroške
postaviti
##mol
##vja
NS
360
Tori
obme
Natan
zanem
Arhitek
gradili
meteori
nasilja
sindrom
Firencah
najhitre
praznuje
vseboval
Fakulteta
cita
pasi
atlet
dosto
patru
soglas
prehoda
Napoleon
sporazuma
##ure
##nell
##šček
Klju
Magi
dvora
konju
sanja
Milanu
izboru
rumeno
opustil
živalih
določiti
posledic
trgovina
izdelovali
slikarstvo
eksperimenta
poimenovanje
Pij
zne
Phil
cene
liri
##dnikom
##manski
Lenar
Motor
ruska
uporu
škode
kadrov
kupola
reflek
igralko
pomenil
sarkofa
sledilo
lastnega
uporabimo
vzhodnega
glasbenega
##rar
EC
##čano
1857
Real
oblo
piani
delali
izbira
moralo
pritli
Château
horizon
uspešne
navajajo
potopila
razširja
obiskovalcev
srednjeveških
##ão
##bes
ekip
page
##sloven
Books
Svete
bateri
srebro
stavbi
izogiba
izpusti
delovali
templjev
vplivalo
univerzal
podobnosti
sodelovati
ustvarjanja
neodvisnosti
##nada
##rela
##snil
##tinu
sho
Zave
svetih
aktivni
avtohto
koncertu
petnajst
pretvori
pripomoč
nastopala
prihajajo
filozofiji
poimenovana
konstrukcije
##maja
Out
##časte
Vida
Kijev
Scott
mejni
sonce
težke
zniža
Izdela
razgle
tenisa
vodovo
pohvali
sestavil
izhodišče
človekove
gospodarska
##kos
##nea
##pzi
Bue
Zei
Libe
Roga
Rosa
##tinske
Prven
domiš
pomla
branje
gledal
morsko
antične
rezultati
Najstarejši
ljubljanskem
##neu
##lopo
##sley
##alnem
##šitve
Ener
Črna
##čanski
Bolog
evrov
podol
zasli
Celovcu
celicah
spopadu
grobnica
piramida
upošteva
Britanijo
predstavila
##TA
##meda
##sser
BMW
Funk
aspx
neso
pouk
vzpe
oporo
redne
cestni
delajo
kamnov
žalost
Turčiji
dnevnik
slalomu
izvedena
stolnico
arhitektur
hidroelektra
##ory
##jega
Goe
Oro
Band
Umet
osam
prodr
stabi
tečaj
ulico
zadru
Indijo
dejanj
odkriti
pobočja
postati
Benetkah
izvajali
mešanica
Kraljevina
vključevala
##fran
##ople
zaj
centi
grobi
nekdo
norma
prsti
vozni
šibke
Santia
studiu
krajine
odstopi
cesarski
slikarstva
tridesetih
zavezništvo
civilizacije
##tekar
Bell
Jana
Mili
cere
vase
vest
Radov
gorski
kemijo
##nologija
Oddelku
scenari
združili
kristjani
##mik
##dira
##kers
##seksu
##vnica
Nila
fevd
plen
zasi
##jenjem
babilo
diaman
zbolel
koefici
naslika
povabil
krščanskih
##US
##rs
##trop
Zor
grb
##koval
Gala
Pore
##deseto
##produk
André
ročno
kemika
vidijo
America
Columbi
likovno
razisku
Poljskem
Pomemben
letalske
##kh
##ky
##gus
##ceni
##rand
Kim
##burga
##šanju
Maha
prera
tanka
Landes
odstop
polari
zahoda
širino
Hermann
Zahodno
nenehno
oboževal
podložni
prepreči
Inštitutu
##stol
##ziti
##talna
##časti
Aero
nauk
rabo
Živi
Antho
Kopru
Spada
Vklju
živih
Jeseni
lesene
##nadstrop
interna
prenovi
Organiza
bazilika
galeriji
akademijo
ekonomsko
simptomov
##mela
Kli
Kom
eva
1852
luna
ugan
volu
Azijo
Haute
Stone
bogat
spola
ultra
Microso
Tempelj
televiziji
samostojnih
##loso
##than
##ovari
5000
Cali
Angel
Great
Slavo
jekle
padal
hčerke
gospoda
Površina
napisano
vertikal
štirikrat
bolnišnico
letalonosil
##rada
##tung
Phy
Vita
čase
Gabri
Giuse
Prote
oboka
šesto
Afgani
Vincen
kitara
ruskih
zvezne
posveti
Kraljeva
bazilike
kitajsko
napredovanje
utemeljitvijo
##chuse
##menka
##valen
mino
toba
atomi
prive
koreni
oznake
železo
dokument
predhodno
tradicionalnih
##doc
##lyn
SD
450
##ralci
1806
pare
Dioni
Klasi
Lokal
bazal
božje
želje
Sobota
datote
metodi
dekleta
doseglo
spremljal
odgovornost
##dant
##spon
čebe
servi
izmeni
ločuje
naroči
biokemi
nastopu
učencev
Langobar
domišlji
pripisuje
temeljito
##ED
##cou
##nosa
##šiti
daja
dona
trak
zdra
ognje
Amster
Pojavi
boginja
južnega
Univerzo
nenadoma
pokrajin
sodobnem
zemljišča
mitologije
zaporednih
##dad
Dro
raj
tuj
##landu
##valih
Kala
Zveza
nasil
Buenos
bratje
davkov
epidemi
Slovenec
katoliško
razvijejo
##RA
β
##šin
##veta
Bry
Gua
Hali
##torica
Cultu
Euler
hidra
Bonifa
privede
reformi
izkušnja
najvišjo
poročali
svetnika
uničenje
rastlinskih
##xt
Pel
Vul
##nović
Cilj
modi
banke
hebre
javna
nižjo
topov
daljše
temati
legendi
odprave
problema
predpostav
prestolona
železniško
beljakovine
##mad
Kni
bali
žrtv
##striral
alpska
konver
krogih
kupolo
valovi
narediti
razdelil
vitamina
upodobljen
izpopolnjeval
##nio
##haus
##tary
mio
##stven
1600
nebu
##zijska
izpod
mrtve
otoke
sopro
ekstra
Korzike
pravilo
odpotoval
Avstralija
Massachuse
zmagovalec
železniške
postavljeni
##ery
Ey
Aman
##bljena
State
litur
Evropa
Herodo
daljši
potuje
primere
medicini
pedagogi
poškodba
predhodnik
Mü
##limi
duha
naje
Allen
Kamnik
Leipzi
kolegi
posplo
plovila
poletja
kristali
presenet
Raziskave
dovoljeno
namenjeni
diskrimina
določenega
ustvarjanju
}
##dum
##fekt
##vele
##zala
Bern
Drug
aran
nasa
Sedaj
razbi
biogra
mandat
odnosu
telova
vzbudi
Johnson
snemanje
tehnično
mornarica
odpeljali
imenovanega
##ose
##šah
##liki
Som
Ptuj
atri
kanalu
klubov
najbrž
Douglas
izredni
znanimi
bakterij
ravnoves
visokošol
zmanjšala
avtomobilov
Tel
ved
##tonski
##topisem
bogati
marksi
pregra
dobrodel
##like
##žale
Ame
osmo
Julij
ostre
Jernej
obnove
omejen
Antiohi
spletna
pobočjih
spoznala
akademija
nizozemski
obiskovala
##nak
##tla
AS
##ratu
lai
pig
1846
Maga
##vanjih
cilje
glago
goste
konja
rdečo
Empire
prišle
Hadrija
podlaga
Zgrajena
latinske
Študiral
pobegniti
učinkovite
sestavljene
raziskovalno
##PL
##ène
##šica
Wis
Vale
Madrid
Provan
izposo
ogrske
Ugotovi
Vojaško
prispev
uprizori
sovražnik
##žb
OH
##zigo
##federa
Magda
Petro
Steve
Takšna
konden
zavest
dosežek
ličinke
sodišču
strelec
substan
vzhodnih
Elizabeta
vsebovala
zamenjala
##žben
Bee
paro
umik
Davis
Dubli
zbudi
izbiro
podpor
plemiči
zasebno
zastare
priprave
nameraval
bolnišnice
guvernerja
notranjega
priključil
ustvarjajo
Kaliforniji
##ppa
##cula
##rjem
##usan
Vel
##ledge
##mberg
Pear
Trža
kori
zate
##nskemu
Preše
lovec
Murska
Preden
stopen
mestnem
orožjem
planote
kapitala
razstavo
označujejo
zgodovinskega
##IA
Dur
Old
thu
suho
ciklo
finski
učinka
##zijskega
Zgornja
poezijo
sodobna
stojijo
priznala
kontekstu
Češkoslova
prvenstvenih
##vle
##fore
##guli
##sina
##nifer
1851
bojne
karto
odsek
zapor
letnik
zlahka
izhajal
Zanimivo
brezposel
elektronski
predstavili
prepričanja
##mfi
##nau
##phia
gno
sor
Mihe
Sina
ceno
neže
naših
Inocen
izmeri
prešla
sintezo
Večinoma
lokacije
ogljikov
prehranje
taborišča
ustvariti
sestavljeni
##DP
##žino
750
From
Nike
empi
naku
Edvar
krone
izvoru
porast
steklo
transe
čustva
Koroške
dolgoro
spopada
preuredi
raznovrst
Filozofske
zaposlitev
##hra
##vnim
Play
Sava
jazz
bratu
knezi
razte
Island
natura
povest
romani
končali
ostanejo
prenesli
starejša
trgovske
nastopajo
kategorija
SO
##delj
Zra
##turno
##čkega
1856
Braun
Istri
vratu
diagno
trenin
kalcije
poslala
prekmur
članice
obljubil
vplivali
produkcije
upokojitvi
organizator
Rimskokatoli
komunikacije
##än
##ray
DNA
Ska
upa
##vnika
mesa
steb
Brani
Liver
Večji
pozla
zaporu
razgled
kritično
operacij
nadaljeva
neskončno
revoluciji
##lers
Gab
nog
veji
Valva
Dolina
Konven
motenj
presku
preven
zbrali
angleška
izgublja
literarna
razdeljeno
predhodnika
##ele
##hne
##gnan
Aha
Hero
Spor
robo
sija
##ovodja
simpa
naboja
navija
okvare
prstan
zaprta
##ological
Frideri
Zgornje
boginje
kratkim
razpolo
stadion
Japonske
Kraljevi
premagali
pridružili
življenjem
državljanov
arhitekturni
##run
##gang
##zano
144
can
kur
##pisan
Gold
Hora
valu
viša
##kovski
kakšen
prašte
zgledu
nosilec
milijard
prepelja
Povprečna
Združenega
filozofija
uporabljale
##mije
##wski
Golo
Loki
holo
pnev
##menski
South
meril
stili
vodjo
zidov
##bilnost
ukraji
tovarna
etruščan
reakcijo
češkoslova
upravljanja
industrijske
pristojnosti
##mari
##dorja
Kari
Judje
Trbov
Zatem
slova
vetra
skrbno
drugačno
finančne
negativne
##rko
##tle
##niška
1855
pope
Korin
nanjo
parki
zares
rumene
služab
Belgiji
Roberta
prošnjo
škodljiv
Američani
duhovniki
partizani
##pape
Dža
Deže
mlad
Pirene
kopnem
naučil
povpra
razvit
Sebasti
habsbur
izbruhu
škofija
agencija
vsakodne
neodvisna
latinščini
nepričakova
državljanske
##nitvi
##ranski
Ljube
Rdeči
mišice
varian
zagreb
zasebni
bolečina
motorjem
vprašanj
družbenega
TO
il
##džan
##ener
##cikli
##vetja
klet
utri
##talnih
Nicho
grška
hrana
kompe
gradov
menihi
mlajše
zraven
Jacques
dodatek
slabega
Giuseppe
Nekatera
nepresta
Jadranskem
izkoristil
Eco
Ide
dei
sou
1845
Klav
XIII
aler
kari
moli
okci
vile
Misli
nizka
tekom
Galile
Krajev
denimo
modelov
štejemo
srečanje
uslužben
prikazana
bibliotekar
prestolnice
##ći
##ggi
##ddle
##selno
Deli
Digi
Posto
drame
močni
obrne
Pedago
ločena
takšna
intenziv
nameščen
njihovim
svobodno
prenašajo
univerzah
župnijska
medicinske
jugoslovanski
é
##tty
##anali
##arjev
Oson
izle
lice
vaku
Kmeti
jeter
treni
dosega
teorij
vmesni
Oddelek
sestave
dolžnost
posestva
povečali
prehrano
izvirniku
maturiral
sistemati
skupščine
načrtovanje
pokrovitelj
sistematično
televizijska
temperaturah
##hau
php
shi
##roben
žvep
Jacob
izpra
poprav
sekund
ustavo
Jackson
plačilo
ribolov
izseljen
priznanja
imenovanem
predstavljali
##ily
##nujejo
##čanjem
Google
opazen
uradne
Češkem
širšem
stroški
upoštev
elementa
pomagati
Chemistry
odstranili
življenjske
zdravstvenih
##PA
##ep
##bij
##fro
##thu
##tit
##boju
##nevi
##tene
##wart
Amo
McL
Opo
##klesa
poče
Helena
globino
pravega
vzorcev
izročilu
programe
dolgoletni
opravljanje
veleslalomu
##cebo
Toki
akva
tibe
##stavah
artic
funda
usodo
Afriko
Austro
Glavne
League
fronto
izguba
načrtu
prakse
društvu
grofije
napolni
trajajo
trgovci
Jennifer
japonsko
transport
umetniške
znanstvenikov
##aux
##nei
##mone
Joa
MTV
##čnico
Cele
vnuk
Dravo
kopij
senat
spora
zatre
##dovanju
Awards
švedsko
duhovniško
Ape
##tizma
1853
Este
biro
mlin
##genera
okupi
##duction
Heidel
južnih
športa
cerkvah
ravnino
stranki
urejena
Ptolemaj
vendarle
Prebivalci
polkovnika
##gode
##šper
##žana
Tav
##ranim
pato
davek
dekla
figur
rodov
Indija
odprla
agencije
arheologi
mladinsko
pogajanja
teologije
valovanja
kategorije
zdravstveno
Dü
Jona
Jude
leve
neba
vrtu
##landri
Chris
ofici
Študij
manjšimi
obalnega
poglavje
religije
Britanski
izobrazbe
Publishing
opazovanja
##én
##eri
##gore
##šina
Aba
##diral
##stone
vzbu
eseji
jezui
nizkih
ugotov
pomladi
umakniti
desetletja
konferenci
Štajerskem
istoimenski
proizvajalec
##mit
##cond
103
104
Posne
neraz
stika
celovi
duhovno
gorskih
nemškim
obzidjem
združila
Wehrmacht
koncertov
duhovnikov
##pes
chi
##govih
##thers
Hugo
odvr
riba
##polkov
intra
ognja
hepati
klavia
krogla
strank
vpelja
zadrža
odličen
služijo
športne
cesarsko
eksplozi
nastopom
sistemih
Naslednja
smučarskih
odlikovancev
Gir
##tural
dirk
milj
meste
odred
preob
razpu
thumb
kitari
morale
sužnje
kamniti
župniji
Antarkti
močnejši
prenehal
srečanja
revolucija
upodobitev
Ust
psa
Voda
Vzpo
Preži
Teksa
prebil
pričajo
terapev
princesa
Sovjetski
nenaseljen
ljubljanskih
##In
##vsko
##wald
Zah
mli
##ganih
Bara
punk
##figura
brati
lotil
navzo
izroči
izčrpa
takega
trajno
spojina
##formation
Kranjske
krivulja
avstrijskem
##Cl
##sp
SV
##bari
##lonu
##nate
##šajo
##šana
Bele
deci
##tovega
Ernst
Georg
nedol
sceno
Online
prosta
sluzni
znamke
članic
Harvard
aktivna
mineral
nasilje
razvita
srebrne
tovarno
količinah
prizadeval
##bard
##piji
DZS
##turne
##čarja
Neda
izte
ljub
mehi
##njakov
valja
napisi
odlaga
gostote
nedokon
Columbia
domačega
razumeti
verjamejo
##sak
Of
SH
##dalo
##gund
##ljak
cel
##lijem
##manov
##večal
##vinah
Deja
Skri
Zbor
teži
Edini
Morda
limfo
pobra
čisti
Artemi
kaznov
štetja
najstni
posadko
sestoji
zgoščen
šolstvo
filmskih
zasnovan
Prebivalstvo
Najpomembnejši
##ов
##pič
##glia
Tim
##harmo
##ljsko
1821
Temp
pere
gorah
svetom
zborov
nedotak
zamisel
Podmorni
kongresu
Metropoli
fakulteto
spretnosti
elektronske
postavljene
uporabljene
##bat
##ljice
##manom
##ovana
##habili
##tonsko
filme
predi
sklad
Search
tekoče
vzorci
žuželk
aktivne
poročal
stopinj
Pakistan
razdaljo
razvijajo
študirala
svetopisem
organizirali
ML
##zami
HIV
##šenja
Jaro
July
Šest
Mario
Profe
Ravno
Trije
dogra
major
napak
##tovanje
Centra
globus
nasplo
zeleni
kometov
povezav
prizore
zastavo
otroštvu
smučarka
sprednji
srečanju
zgradila
Inštituta
predstavo
teoretično
koncentracijo
univerzitetni
##sper
apa
vdo
lagu
Ville
mišic
Člani
avtoma
grofija
izdelek
zgodila
Prešeren
radijski
izkorišča
madžarski
posledico
znanstvena
##oi
##tam
##velo
220
##mbasa
##zator
##čitve
1834
1844
Last
Torej
kemik
smemo
Revija
Visoki
junaka
podrobno
prototip
zemljišč
Številne
industrijskih
##BS
##žaj
Dose
Reli
nama
Tirol
deter
njiju
##dovalec
Krišto
Lamber
Ogrsko
Street
samomo
Posebno
harmoni
količin
Spomladi
bogastvo
sprejema
Prvenstvo
generalov
tehnologija
##AG
##she
UK
##viti
Ore
tka
##hotep
José
njun
Billy
bitje
regij
tekma
vzoru
Antwer
medalj
pevski
tovari
premoga
poročena
neuspešno
frančiškan
opravljajo
zaključila
nasprotniki
strokovnjak
##bit
##furt
KPJ
edu
1843
File
doli
izšli
odmak
proče
Leonar
Nekega
prosti
strehe
seznama
Nazadnje
nemogoče
tematiko
zbiranje
ohranitev
programske
bizantinskega
##bul
##vci
Day
1300
bana
jamo
moti
##trover
kamno
nečak
padec
prozo
ureja
Branko
Mehiki
Novega
dolgem
narodi
##discipli
prepusti
svetišča
zemljevi
disertacijo
nasprotnika
razsvetljen
profesionalni
##Tu
##bie
##hun
##iro
Ata
Kip
Mei
1797
arit
drog
izid
##ziranje
Donave
doktri
možnih
najraz
Corpora
vplivov
dogovori
njihovimi
prenehala
teroristi
zgrajenih
pripeljali
##cz
##kna
##nora
##vane
Nel
cep
web
##rator
Post
Tita
pisem
urbani
Primeri
presega
latinski
skupinami
uspešnica
literatura
##EL
##NO
##ane
##chia
##hana
133
Cin
Comp
Tipi
zaži
Njeni
Vojvo
mirno
Levsti
odkrit
oklepa
rakete
zavira
dvojezi
omeniti
ostanek
varoval
angleškem
IA
pH
##cing
Bad
bok
led
##merne
Fort
Kole
##gramov
dnevu
prefek
opazuje
slikovi
veselje
žuželke
privedlo
trgovskih
vsakdanje
španskega
́
##sty
550
aka
##nerja
Inte
##jočimi
Michi
Obdob
Ryhol
zvrst
Wagner
celove
turški
Liverpo
izvedbi
mladino
osvojitvi
razpolago
komponente
raziskovanju
##yd
##fli
##fos
##rnim
ato
lat
zaž
##žnico
Arma
pret
trom
##stanku
Bella
Power
archi
ekspo
izrez
klavi
odlom
stere
vsota
zadel
##ktorija
potres
uspehe
verjel
Slovani
kamnite
neenako
potrdili
prekinil
uvrstili
organizem
pridobitev
Ope
##berga
##kcija
##rough
1805
1808
Theo
foru
soro
zasa
Delav
gliko
klima
rožna
Srbijo
Zürich
absorp
legije
pretre
Viljema
dominan
izbrala
najdejo
nepreki
dioksida
boleznijo
severozahodni
111
Cri
hle
##novim
Ever
evro
heti
Miran
inšpe
sanje
##stvenega
Njihovo
razvile
opravili
prisilil
prometni
podpisala
razdelimo
Akvitanije
geometriji
odvisnosti
poškodoval
severovzhodni
##vab
##dvom
emb
arka
cela
rent
Sedem
bakra
carja
praši
redki
sliši
ubiti
zrcal
##ljevali
modelu
močnih
plezal
črnega
resnice
slovarji
petdesetih
prostovoljno
zagotavljajo
generalmajorja
##piše
Fou
Kil
##igral
##ovimi
##tinci
Doda
Nürn
koži
##jšanje
##vskega
Nekoč
smuku
celica
slabše
spušča
kvalite
objekta
François
osvojiti
potaplja
rastlino
um
##ovci
4000
##lavlja
Merce
Zavod
vasjo
Jezero
Michel
optimi
pesmih
najljub
sedežev
Ansambel
dostojan
dvomotor
ljudstev
nastopov
Madžarskem
Psychology
##bio
Kü
Lé
ibn
pše
##letel
ubit
##loških
bakre
never
sumer
##therine
civili
zmerno
Londona
razlago
pomorske
Britannica
samostanov
##dbu
##him
AI
JG
##siti
Din
Kva
Zan
Lune
Shan
Turk
duna
fazo
očmi
##ščanju
March
belih
konzo
primi
zbirk
Geschi
aktiva
prakso
veslač
vreten
šolski
kontinu
močnega
uradnik
zaščita
Historia
Valentin
lokacijo
ohranjene
cesarstvom
obravnavajo
profesorica
odgovornosti
osamosvojitve
severozahodnem
##22
##vie
AM
Yu
##teni
Bus
##časta
Benja
Zlata
izbri
jedru
mučen
plača
poteh
##elektri
izjema
oceanu
Viktori
oblačil
soavtor
Središče
prepleta
provinco
trenerja
pripadajo
zmanjšalo
nadomestila
‘
sl
##ttel
##marja
Agri
Berg
Glej
Okra
opus
črto
Alojz
Znana
pogoj
Povelj
slikah
zvezdo
premalo
templji
Istočasno
oddaljena
pogovarja
sovjetsko
##ovom
##tual
NBA
##pisne
Arta
Gior
Impe
Show
Vali
Zako
okta
Lenin
dizel
petin
ujeli
Stavba
blokov
smisel
apnenca
izgleda
Johannes
železniška
Io
##nity
Baj
1809
Dole
geno
Furla
Toulo
izpol
konta
nadna
Mojzes
paradi
virusa
skupnih
bližnjem
kraljico
nasledniki
resničnost
slovanskih
Ag
##lier
Kha
##chaft
##derni
##vanji
##šilec
Semi
Taka
pete
Brian
Petri
prelo
Bundes
Dogaja
Franki
Ludwig
artefa
cister
poroke
sultan
zbiral
Azerbaj
ključno
štejejo
ključnih
narejene
označena
pojavilo
posestvo
pripadal
kvalifici
navidezno
cerkvenega
osredotoča
##cid
##arji
##fata
##znim
Sky
##klasi
##ksida
##vitve
1839
Bilo
animi
natis
teren
Bohinj
kislin
manife
nevtra
palico
prejema
skladbi
občinski
takratne
umaknila
fotografi
gospostvo
pravljici
Medicinski
nacionalno
parlamentu
spreminjajo
##RO
##gge
##inov
##mara
##ridi
##side
Flu
Pad
##grafi
##jočim
##zdrav
1810
Ross
beta
Hitro
Mozar
Sedež
opero
Bridge
alpini
vzgojo
medalji
napravo
odvisni
Miroslav
kemijske
Elizabeth
humanisti
egipčanske
##UC
Kä
Čo
##ganj
##vske
emo
##mento
1847
Debe
plez
modra
Andalu
Marcel
enotah
kupole
poiska
singla
skrbel
tisoče
Zahodna
delavce
prenosa
veljala
Williama
bližnjih
razpolož
demonstra
učinkovit
Ski
via
mara
poša
Gasko
Light
##staviti
Ekonom
Ernest
Turkom
izidom
svetni
članku
##kazujejo
poskusu
Pomembna
cesarske
postopka
prenesel
občinstva
smučarski
avstralski
socialnega
jugozahodni
avstrijskega
prizadevanja
##pg
##pna
##urs
Gy
##brej
##rald
##skus
230
ATP
sum
##njaka
Esto
Adolf
Otona
preli
Jersey
razpon
srbske
Frankfur
vsekakor
zasebnih
Britanija
letalskih
odpovedal
poskušala
svetilnik
Svetovnega
##dava
##pula
##stad
##dnico
##rijan
Jere
Pana
Rafa
Sali
kanc
najv
prid
##tivnem
povod
Prekmu
poznal
veteri
Teorija
mladine
pogleda
pogledu
reliefi
stolpov
verjeli
Pomembne
govorice
kitajske
Švedskem
Posledica
opazovanje
razglasili
istoimenske
##cit
##gger
##mile
lika
Irska
Sainte
enotno
Osnovni
dogodka
ravnine
redkeje
nameščena
nominiran
tradicija
##ae
##dou
##sma
##dlje
##harma
##nanju
Aleš
Muze
Spar
Bosne
River
dolin
možna
Castel
Država
hetero
ločeni
nekako
porabi
zmeraj
zračne
potrebo
vnaprej
vojvodo
judovski
obdelavo
socialna
nadomestili
proizvajalca
##jaka
Oce
ela
##ctive
mamo
sive
##bljeni
##dvomno
Baldu
Jorda
stena
varia
Ostali
mostov
napisan
ogljika
okrogle
Valvasor
omenjene
povečano
spomeniki
turistična
##das
##hil
##sie
##sian
Got
Mun
Pli
##brary
##citov
Army
Good
kase
lego
mezo
roba
##klipti
Ciril
Slavi
utrdb
vhodu
Pietro
Siriji
krompi
slabih
terenu
urejal
četudi
Lorenzo
korpora
površja
ekosiste
obletnici
snemanjem
pripeljalo
razglasila
stanovanje
bizantinsko
##hof
BC
##sede
240
Haa
Bogu
test
vira
##sonali
Boston
Himala
Review
folklo
liniji
obrobju
poletel
travniki
predmestje
slovenskim
##AL
##EM
##fena
##stle
123
Dam
Odi
Wea
1831
taki
torpe
travi
Proces
Schuma
generi
očetov
večjim
debitan
nasledi
počitni
tuberku
kompeten
poklicni
pritlika
strelska
ustrezne
Kranjskem
Videospot
zatočišče
Mednarodne
enakomerno
okcitansko
preoblikova
CS
Vese
duhu
oplo
opro
topi
##šenega
Becke
Alenka
Classi
Davida
enakih
##tinskega
Sčasoma
Vsebuje
značaja
šolskem
ogrskega
predelov
zakonoda
razglašen
kristjanov
slovenskimi
##ev
##fs
##eli
##mem
##tita
##tors
Mah
Net
Book
Schu
##stanka
Kidri
Notra
zakra
Egypti
Health
Tretja
odvaja
zaveze
zračni
štajer
Belgije
izveden
opisana
središč
rezervat
znamenje
zaključku
Bizantinci
Schumacher
turistično
poškodovana
Najpogosteje
ljubljanskega
##rici
##rius
##tanu
##karna
##nesla
##ovica
1820
coun
sivo
vemo
črko
izgna
vrhom
znake
zvezdi
##stransko
Nagrada
Posebej
drugemu
površje
procese
razloga
volitev
zapisih
galerije
ladjevje
združeni
Vladislav
Marijinega
Predsednik
Predstavlja
strokovnjakov
##zla
MW
##madi
##mega
vid
##dobij
##kespe
Alfa
plod
Denis
Romeo
Tribu
bivše
dragu
enačb
marke
najhu
prizi
tokov
Seveda
ozadje
grenadi
nasploh
govoriti
zavrnila
Microsoft
različnim
največjega
##IG
##last
##zvez
##lnici
##vidne
##čevih
vrvi
žita
arhai
koles
krizo
podča
resne
belega
postaj
praksa
##stavitev
filmsko
pogodbi
konzerva
listinah
konfedera
##cino
##tale
Hou
1811
cone
tole
monar
pobar
vzpen
Master
Mestne
fasade
pisala
potoku
odpelje
ostalim
poplave
Gregorja
lokacija
posvečal
prejšnji
glasbenikov
predstavljen
{
##cas
##lish
##ritve
1801
Mada
Špor
##cessed
##ranimi
Madža
klopi
mavzo
nabor
vhoda
Andrew
Teodor
popoln
premiš
ukrepe
nevarno
turizma
primerne
imenovalo
potovanju
zmožnosti
spominjajo
Ljubljanski
državljansko
##nič
##ject
Abe
##turna
1400
Teža
Vite
graf
##stopen
paleo
Pacifi
stresa
verska
vnetje
delavca
obdobij
podpora
Pojavlja
prisotne
pustolov
razpravo
svetoval
kandidata
sestavina
ugotovila
Christopher
ministrstva
##nga
##tie
Sz
##lici
##ščak
Piro
Shor
žalo
iztre
##ftwaffe
Materi
Rimska
tranzi
rentgen
vzrokov
opozoril
radijske
uvrščena
zaključi
##foni
##jica
Hum
rov
1700
Iber
SFRJ
Skan
psov
ulic
malte
nadle
petje
predo
Družba
Elemen
podobi
takšen
izbrana
rodbina
zaslove
Trenutni
aluminija
konfigura
psihiatri
rezidenca
bolnišnica
kmetijskih
relativnosti
##čle
##šić
##bona
##celj
##vnimi
Deve
ozko
stož
Stane
griču
ionov
poklo
Slavko
rdečka
izrazil
omejuje
današnja
dandanes
starosel
diferencial
simbolizira
##lur
Fox
##kovna
Bili
Masa
Stop
Tole
Topo
##tskimi
##šnikov
Trubar
bolnik
gospod
naboru
opisov
semena
zasedba
avtorica
dolgotra
letališča
ljubitelj
štirinajst
##ene
##ila
##gina
##selj
mil
Bala
Take
Kanal
Vedno
oboje
vampi
Grčijo
Primož
Samuel
endemi
presli
vlogah
Celovec
Portoro
Pripove
slabost
veljalo
dunajski
keramike
naročilu
portreti
preprost
helenisti
interneta
odgovorna
preprečil
zakonodaj
umetnostno
kombinacijo
##lins
##noza
##ngenu
1832
fant
mane
Istre
hodil
magni
samci
Arabci
Carlos
stalne
usmrti
eklipti
gledano
krvnega
evropska
odvetnik
poznejši
občinstvo
ukvarjali
vključili
spremljajo
vključeval
Corporation
##ac
##bir
##bič
##žki
##gnac
seg
Eric
Gott
Rela
bere
dalj
koša
zači
##mujejo
##rescen
hiter
Metoda
močnim
vzorce
najzgod
resonan
rehabili
sosednje
študenti
odločilno
temeljnih
Ministrstvo
organizirala
predstavljena
##kec
##ppo
Rai
mrt
##rison
1826
Hiša
anor
oval
ujet
zlom
videla
zakone
papežem
predelu
srednja
nezakoni
potrjuje
varovanje
Prešernovo
nadškofije
prispevala
rekonstrui
##dli
##cock
Ave
han
##provi
##žanov
1816
Casa
juga
##zemlje
Ivanu
ravne
spred
umrli
osnove
premaj
spletu
##ljevanja
prometu
vsebina
zaslugi
artileri
interese
narodnih
omejitve
trinajst
raztopine
dokazujejo
oblikovali
političnem
##24
##jk
SC
##ciju
##doks
Chu
##rizem
##zniki
Alja
udej
uvod
evaku
brazil
gotski
vratar
zasled
zelena
alumini
globine
predmeta
zaprosil
nekajkrat
posebnimi
pretvarja
razdelili
Primorskem
obstoječih
preprečili
spremeniti
Jugoslovanske
##gl
×
Б
##nož
##naly
jpg
1842
Bona
simpo
vsemu
celične
oskarja
sprosti
zahodna
Norveška
Shakespe
razdalja
povezoval
situacije
ogljikovega
##cta
##dul
SG
Rey
Sed
##sbour
Niki
Work
spri
znaj
Roche
begun
obleke
Pripada
Slovenj
pojavov
popular
poskrbe
direktno
naturali
študente
organizmi
podelitvi
umetniška
interakcije
nasprotoval
##bne
##ury
##pper
Ivo
##kovim
##tacij
Make
Pont
stis
vise
Psiho
atoma
baron
index
južna
medve
Oznaka
zavoda
deklica
upravni
vrhovni
izdelani
osrednjo
tretjini
prepričal
spoznanja
uporabila
desetletju
Konstantina
nacionalnih
najrazlične
shranjevanje
##als
##chau
Bis
Ere
aro
Špi
##kljub
Evan
Nata
bota
krmi
Mavri
kosov
padlo
sedmo
Zdravi
grofje
kometa
legija
napako
sporov
zaskrb
živeti
Anthony
navadni
odnosih
razviti
Osrednji
izdelane
predpisa
projekte
trgovini
kneževine
Ferdinanda
kapaciteto
premoženja
preostalih
##ix
##ön
EM
##goni
Age
Jak
ore
izro
##njenim
Finan
sporu
dvojic
pravne
Koroško
Mohamed
dražlja
podatek
predsed
družinsko
Gorenjskem
razširitev
industrijski
##tou
fur
##dimen
##lanju
Cala
Fred
Grob
Kemi
Marx
maju
Listi
parov
query
vodna
codice
dialek
merijo
stadio
poravna
stražar
Besedilo
notranja
prikazal
razvelja
sposobni
komercialno
##hani
##idov
##ssen
Slom
eksi
##heimer
##tanija
Corse
Mount
alban
mokri
odplu
##jatelji
Ludovi
Steven
komenti
toploto
visokem
ekspresi
finančni
funkciji
končnice
objavili
opraviti
skakalec
zaslužil
Madžarska
deželnega
sestrelil
strateško
nadstropje
srednješol
udeleženci
parlamentar
##tmo
##demy
Šle
##darja
1100
Apol
Nara
##tralje
##znosti
##ljivimi
Afrika
Wilson
fosfor
pastir
takojš
English
izgovor
turških
zadnjič
določajo
različic
severnih
Management
dokumentar
##TC
##ан
##hre
Aš
FA
HD
MP
##dium
##jici
blu
dna
##kcije
##light
##nikar
##vedli
1835
Ogle
divja
odšli
pozni
##jevanju
Planet
anarhi
dvorišča
umetnika
pripadala
zemeljski
filozofski
identiteto
##28
##gma
##liga
Anu
Fro
mdr
Arts
Bill
niha
poga
Robin
grobe
hčeri
misle
mlada
sklop
##ščanjem
Grčija
Middle
ločila
narava
obstre
uspehu
nesrečo
popolna
četrtem
dostopna
Luftwaffe
odpravlja
poljskega
zaposlila
elektrarne
##izo
##cema
##ffen
##zilo
Taj
##ovemu
1799
2500
loki
##berger
Early
Prese
cikla
recen
##grafsko
##njujejo
German
organe
Alberta
dogodku
Največje
diplomat
potrebni
priselje
Justinija
mornarici
nadaljnji
perzijsko
pripravljeni
##ay
FC
IN
SZ
hr
alfa
obok
##strsko
nekon
slovi
Palača
debele
podpre
uspeva
vodika
##najstimi
minutah
upravne
minerali
mlajšega
obiskala
pisanjem
termania
zmanjšal
gimnazija
posnetkov
zdravnika
astronomije
astronomska
potencialno
najpogostejši
##hio
##illy
##mine
##oseb
1838
Offi
##šujejo
Wales
filmi
geode
strop
Jamesa
izumil
predvi
točkah
široke
škofje
Belgija
Gledali
vodnjak
judovske
sosednji
izoblikov
obstoječe
operaciji
osvobodil
središčem
gledališke
učinkovine
bizantinske
priljubljeno
##eni
##isu
##list
##oker
##rone
##malne
Brow
Sher
Vpli
ugri
##ništvu
plače
Jožeta
Milana
polbra
žarkov
prodala
Rezultat
Slovanov
poslopje
izobražen
prispevke
poškodovan
sodelovalo
mikroorgani
##tva
Lt
##mura
##rbet
##cijam
##čanom
Edin
Ocen
zadu
##dovati
Borde
First
Human
Physi
Holmes
Russel
medved
Boštjan
mojstra
moškimi
regijah
simfoni
spektro
zimskih
metafizi
aristokra
skulpture
zasnovana
Nizozemsko
angleščino
računalniško
zagotavljanje
##cre
##ded
##ssy
##jila
##novič
1829
doča
neči
rada
znal
##škodni
groba
reduk
odnosa
otočka
Starega
dodelil
lokalna
opozori
dokazati
opustili
označili
zavzemal
strokovna
združitev
Cambridgeu
prebivalstvom
rimskokatoliška
sy
##tric
Oči
1828
Hipo
Napa
##mansko
Albre
Bayer
časni
načrta
ustoli
bogatih
najnove
spektra
spomina
##cionalnih
dokazano
kontroli
negotovo
obrambne
Transilva
družinski
koncentri
voditelji
zaporedja
Geschichte
specifično
kapitulaciji
##zeli
ogr
1807
Aške
črta
Anali
Briga
Sarah
Stein
aranž
neura
nižja
rasto
##tonskih
Cooper
Finska
Rieman
Schwar
knezov
obraču
stalna
bombnik
potresu
interval
izločajo
nasprotje
ohranjeno
tekmovala
geografsko
učiteljica
vinogradni
življenjskih
##onu
##fort
##leno
##tima
##tore
cor
zalo
Črne
Mnoge
Monta
encim
jesen
sreče
Second
bivali
dotlej
obrnil
obroča
ponovni
tistimi
vojnama
nogometu
poslabša
projektih
sladkorja
državljani
vzpostavil
ustanovitelja
##26
Ou
##raku
Grb
pul
##merni
##skozi
Brad
eleg
popa
Josef
Zmaga
maščo
razso
rjavo
tanke
Izvira
ambasa
izkaže
žirije
medijih
pobegne
sevanje
tekstil
ukrepov
zaščiti
zunanja
štafeti
določili
napravil
ohraniti
Konstanti
Sovjetsko
pričakuje
podmornice
##are
##dla
Bag
dri
##morfi
1825
giba
Rojen
Space
antio
hrast
krili
regen
dvorni
obnaša
odprte
Aleksej
menihov
severna
Egyptian
Slovence
kampanje
prodanih
razpadla
zavrnili
širjenja
mladinske
četrtfina
avtomobili
izbruhnila
mladinskih
potopljena
##cky
##kina
##mane
Dir
##ljske
##strel
1836
Civi
Home
##centra
##letnem
April
bojni
izpad
žarki
Goethe
Pokopa
načrti
opisan
pisali
Histori
lesenih
objekte
sultana
domovini
pokazalo
naseljeno
položajev
nasledstvo
takratnega
elektronskih
organizacijske
121
Trg
Von
##tonom
Lake
Tuni
memb
suhe
used
Karta
Krško
Vlado
bombe
kladi
ogrod
##stičnim
##zgodovi
hčerki
teolog
troben
kritika
naposled
reakciji
besedilih
ekonomije
perzijski
prijateljem
ustanovitvijo
##zda
OZ
##beth
##ščni
Era
Tea
##malna
##sinte
Inns
Prix
Wind
peči
Hidro
Moore
poizku
recimo
reguli
retori
združe
želimo
Ljudsko
podprva
današnjo
dramatik
grobnici
primarni
Rimljanov
dvoranskih
opremljena
učinkovita
Sredozemlju
obiskovalce
predstavnika
##meh
##šak
Cr
PM
##kijo
##rity
Fau
Ian
KPS
Mou
##viron
Chal
kodi
Nasle
Night
Pahor
Regio
Young
okužb
polna
tanki
vidik
##ference
Nemcev
odprti
zasede
širiti
Academy
Znotraj
legenda
obramba
omogoči
spadala
tipično
pesnikov
poskusov
posodobi
Braziliji
načrtoval
pojavljati
preteklost
razširjeno
električnih
predsednica
računalniški
jugoslovanskih
##eu
##pot
##muli
##ppen
Nil
Pun
Wri
new
zbo
##dnici
1789
##njenem
##nostno
Compa
Josipa
sedeža
Alessan
odpoved
popolni
govorili
posebnim
izboljšal
zanimanja
pristanišču
udeležencev
uporabnikom
##53
##uld
##yon
##citi
##ksid
##repe
ABC
Das
##zajem
Inde
kuha
##ration
Dobra
grmov
ilega
njuna
celoto
zaokro
fizične
drugačne
uporabna
hektarjev
spominski
usmerjena
oblikujejo
istoimenskem
##ite
OS
nm
##witz
Jug
Ral
Rok
##dalje
1817
Fire
Okta
lune
opri
piro
##magnet
Jabla
divje
masko
čemur
deseti
menili
čustev
Mongoli
arabski
namerno
razvite
razvito
rezervi
zanimiv
izročilo
posebnost
konference
##bac
##soni
##voli
##zbor
Met
cha
##nitve
##rjeva
Džin
Melo
pris
Avguš
papir
sulfi
##ovanjem
Ryholt
samica
Bolezen
Ohranje
bivanja
inciden
##vobodilne
naročila
porušili
prostega
stransko
uspešnih
koncertih
podpisali
prepričani
##klu
##site
113
Gia
##znimi
Ster
Teme
dozo
##ganjem
Halle
anglo
dnevi
Oliver
plitvi
slavni
vitezi
civilno
jedrske
matrike
odkrita
sporoči
violini
Aircraft
krivulje
vojaškem
dinastiji
skupščina
magnetnega
jugozahodnem
##chta
##loze
nun
skr
Šve
##loška
##tolog
Alži
Tomi
deri
##lanski
Media
Priso
iznaj
nezmo
Manuel
hudour
odprav
akumula
kritiko
magnitu
okrašen
nekakšen
spopadov
enakoprav
popravlja
spremembi
festivalih
kraljevega
latinščine
produkcijo
okoliščinah
##cis
##vca
Az
##jevu
##mnil
##riat
McD
SNG
##lniku
1837
Lang
mela
skon
Emanu
bojno
glasu
okusa
##kratske
zaljub
Ljudske
dihanje
kapital
odkrije
Japonsko
sredstvi
Evropskem
Strasbour
protipape
pripeljala
standardni
raziskovalnih
##99
##sah
##gelj
Res
USA
##kovec
1833
hvali
nasve
pamet
redka
rudni
empiri
mobili
nosila
Campbel
Velikih
konzula
naslove
prispel
propadu
puščavi
odpeljal
odškodni
upokojen
zanimiva
potreboval
prehranjujejo
##ab
IC
##ghts
##mere
Hur
Tex
noče
Borut
Jonas
držal
hladi
rival
češko
Christ
Hannah
Nemška
Princi
manjka
grščine
Kopenske
namerava
trgovski
izgradnji
organizma
ogljikovih
##jino
Las
Uru
vti
Fron
sola
##linger
Borov
Grosu
Musso
Ostan
Pedro
migra
vodik
##ševanju
Miller
Tretje
stebra
zidovi
Atlanti
Oxfordu
Prostor
spekter
##ljivostjo
japonske
naenkrat
Madžarske
temeljila
učiteljev
Kraljevino
razprostira
##hou
##fine
##tele
Wen
črk
##ženec
1790
Etio
June
vonj
Queen
marki
vsakih
Califor
Patrick
Problem
anorgan
narečje
puščave
Bližnjem
primarno
čiščenje
indoevrop
muslimani
najbogate
odpravila
operacija
podjetjem
ugotoviti
zmagovalca
skladatelja
srednjeveško
organizacijah
##yr
##est
##mid
##zol
##čut
##plju
##čami
Ros
ame
hun
##rnimi
##čevar
Bach
siro
zrca
čaka
kleti
komor
##movanje
##stavila
Zadnje
bogovi
krista
plemič
prerok
teksti
šolsko
kakršno
pogojem
skladno
Egipčani
Ladislav
ansambla
konflikt
posnetek
rokopisov
sestavine
spomenika
svetlobni
vojvodine
Evropskega
kompozicije
##vis
IP
Pur
Sub
##janci
##tarne
Nase
Your
mrav
Enako
fosil
jutra
mleka
mleko
antike
iskali
konzul
ledvic
izvidni
papirja
poznajo
pričelo
šolskih
Wolfgang
kontrolo
postopno
letalstvo
milijarde
nameščeni
razširilo
Ministrstva
konstrukcijo
pripravljena
osamosvojitvi
##lot
##jina
Let
naš
Fore
##ljivim
##ransko
##tonske
Produ
Začel
izrec
izziv
plašč
revij
slabi
##govanje
Borisa
oskrbe
sinove
vhodom
vlakna
četrta
Ozemlje
Sodobni
klasici
luteran
napisom
nevarne
preživi
zbirali
Gaskonji
igralsko
izvajati
nedvomno
tehnične
zgornjega
filozofsko
Ljubljanskem
##anom
##lard
##obra
##steh
##zare
Kaš
hon
##denje
1798
kuri
nika
zida
črka
hudih
pojma
##logical
Little
leseno
pisnih
pohoda
turške
utrdil
Celotna
Karavan
Narodno
baročni
legende
eksisten
predniki
skorajda
Državnega
gostitelj
preteklih
podmornico
demokracije
Ustanovljena
##nul
##gues
##mlja
##sula
##tton
Ltd
##media
Pote
hole
koka
vedo
##častih
diver
načel
pevke
prisk
##tinskim
polemi
vstopu
Augusta
dirkači
letalom
prodaje
uničila
Perzijci
Siciliji
Zlatibor
doktorat
izhajala
majhnimi
visokimi
kemijskih
poslovnih
turnirjev
opredeljuje
eksperimental
##ghi
##kie
##lls
##sol
##yle
##elom
##ffer
Hau
Isk
rak
##telli
Cher
bogu
reči
ujel
Hilde
Praga
oktob
želji
akcijo
nadvoj
pisave
polmer
zvečer
Constan
bratran
iskanja
prestra
zmagali
grobnico
magnetno
navedeno
obdobjem
postopki
premerom
priznava
ekonomske
izražanje
podpirali
desetletij
skakalnici
gospodarskega
##mei
##klet
##tant
Mia
Not
oni
##malni
##člove
geni
tira
##tmandu
Homer
Posve
Radia
Versa
možem
plini
skale
zbere
acetil
odseka
posvet
zastav
Alojzij
Georges
Legenda
Palazzo
poklicu
stopenj
strežni
Skandina
priporoč
Argentini
poznejših
povzročili
prispevajo
preimenovan
Organizacija
##ara
##sre
##ccia
##dehi
1841
Rade
Caste
kapla
steze
trdne
zaved
Kanade
prosve
silami
skalna
vplive
zaloge
zanika
##tologije
odločno
spletno
študiji
aritmeti
lastnika
ameriškem
kmetijske
premierno
časopisih
avstrijska
matematično
##ła
##igh
##jur
DC
##dukt
you
##novac
##stani
##tnico
1822
Avre
Brah
Here
Mani
duša
okon
vala
Pojem
linij
lovca
šibko
Karlov
funtov
iskati
spolne
vsebin
Hrvatov
Innsbru
improvi
pesmimi
urejeno
divizijo
izkazala
pozdravi
ekonomski
prepričati
razmišljanja
znanstvenega
Î
##vska
270
ora
##šniki
1824
Gian
euro
nemu
Proce
Ptuju
pelje
domačo
novoro
ustave
Dnevnik
Formuli
jezikom
varstva
Hamilton
Katmandu
bogastva
gledaliških
##nimom
##snejši
Arena
Mirko
obrat
##vnejših
ocenah
Babilon
Celjski
Herbert
benedik
duhovni
kongres
uprizor
železne
pomorski
interesov
potrebnih
poudarkom
voditelja
̋
##žko
##lung
280
McG
žol
##fried
##goval
##manju
##ujejo
1794
bori
logo
poln
lesen
londo
režim
stilu
vitez
člena
##litvijo
Marina
Takšno
Verlag
fasada
hladno
talent
Oddelka
reakcij
vestnik
šestimi
Architec
Maribora
nespreme
odgovoril
uporabijo
ladjedelni
Zgodovinski
nasprotnikov
Zlatiborskega
enciklopedija
##ea
##sac
##sun
##tist
114
Jun
##našal
##vojil
1818
koni
leva
sloj
ugle
Baker
Porta
Under
Vojne
desne
nordi
tarča
upada
Lombar
hebrej
režima
skorje
vozili
##stveniki
označen
veščine
vojskov
španska
Victoria
aktivnih
igranjem
interven
posnetke
September
belgijski
posvetila
preprosta
reševanju
katoliških
spremenijo
fiziologijo
##mul
##woo
##dvaj
##hemi
##peta
##tics
##tiji
Gau
Lip
eri
spr
##vador
Hudi
Lock
Mori
plaz
vzne
##linski
##mentom
Silve
irski
megli
odboj
retro
vibra
živil
##ography
People
komite
naviga
sloves
vratih
Vzhodna
gradovi
Divizija
mešanico
norveški
petdeset
vsebnost
božanstva
hrvaškega
relikvije
angleščine
nadaljnjih
uveljavila
psihologijo
Fen
hal
##leksi
Raču
Road
What
dajo
##kinson
##tinska
Karlu
Trsta
hibri
obdan
obele
volje
Šempe
##ralnega
boljšo
celine
gradom
kupila
videoi
široki
##tainment
civilne
gorovja
zbornik
delovalo
filozofi
otroštva
peščenja
tovrstnih
znameniti
Manchester
sodelavcev
Archaeology
spoštovanje
konstrukcija
##27
##lli
##prs
XV
Zaj
cla
žre
##bilni
##fanta
##hidro
Jama
Kazi
Podo
ital
jetr
veda
Toska
dojen
Diokle
Langue
Pelopo
tovora
zvezna
Hamburg
meritve
opisala
plemičev
Posebnost
starodavne
##uil
##ull
##čalo
##čico
RNK
Zlo
bun
mit
Žal
##delje
##skrip
Fizi
##jevali
Alban
Cesta
Guide
Marsh
humor
odten
snega
Nemško
Razlog
Takšen
izsred
satiri
vzgoje
Firence
kiparja
rezerva
sklical
uspehov
dostopen
organske
ravnanje
težavami
tretjino
Hollywood
Obiskoval
Sigismund
oborožene
pehotnega
zmanjšali
mentorstvom
pomembnejše
postavljeno
jugoslovansko
##21
##ON
##cko
##hek
##lone
##mnih
gan
##njske
Boli
Desi
Nika
Simo
Atlas
Madon
umiku
zelen
elegan
izjavo
katalo
okužbo
takšni
cvetovi
kmetije
načinom
primera
častili
kraljevih
obleganju
Napoleonovo
##hrva
##letu
Ves
##tinen
Baby
Popo
Rudi
Tina
depo
kruh
tria
Vzrok
fazah
težka
vroče
Skupna
celico
neznan
Deloval
Philoso
article
jajčeca
mešanih
opazimo
prototi
zasnovo
širitev
šolanja
Philadel
Ukvarjal
izpolnje
določitev
ponazarja
postopkov
rastlinah
situacijo
publikacij
vzpostaviti
Fr
PS
##lius
##pani
##zade
Moč
Over
Rout
ekvi
izsu
rude
trup
Messi
cilji
islam
pomni
##nebovze
Carter
Stanko
Watson
otroki
pomeri
požara
strica
zvezek
Človek
Frederi
Kennedy
Korzika
odvetni
slavolo
zmagami
Švedske
Magazine
magistra
zastopal
angleških
kvadratni
omogočili
promocijo
raziskuje
teologijo
neprestano
##55
##kha
##mma
##mut
##ovr
##dska
##kine
##njah
Reak
Soči
##racija
Liber
Uprav
njuni
##ljskega
Simona
bližje
dobile
streha
Century
admiral
uredili
železar
Notranjo
Santiago
koncerti
napisali
skrivnosti
stabilnost
##ah
Alu
Gel
##thern
1550
Mane
Teri
gola
opat
spal
##ženjem
Proto
ptica
Visoko
fasado
krogov
obnova
pehote
pisava
stavek
Vzhodne
naselil
pustili
Kraljevo
Margaret
razredov
zapisana
Frančiška
izražanja
okupaciji
sporazume
tekmovanj
egipčanski
nominirana
objavljeno
slovesnosti
komunistične
Massachusetts
raziskovalcev
Konstantinoplu
##gau
##meo
##zje
Ig
##tivo
Eve
Lai
lob
##kalni
1804
1819
alpi
potu
Cleve
Globo
Pravo
nanje
težki
trium
večna
##fenauer
regent
vožnjo
vzorca
Barbaro
Imenuje
Srednja
deležen
izvedbe
nikakor
okrogli
reagira
Kitajski
milijone
katoliška
načelnika
pozitiven
zamenjavo
Jeruzalemu
Podmornica
mariborski
pojasnjuje
veroizpovedi
državljanstvo
€
Cé
ae
##ping
##rusa
##seno
##tata
260
Hru
Oly
nazo
news
ople
##slovno
Hispa
opomo
Mediče
Ottawa
Rimske
dodana
ostati
plazil
režiji
vodnik
vztraj
Objavil
Braunsch
biološko
imperiju
obdržala
zapišemo
varnostne
regionalni
##är
##200
##ror
DD
##chie
##gano
##tkom
Bha
Hea
Kap
Rin
##tiran
Witt
tram
čuti
Seine
Vinko
jutro
višek
Beloru
Janezu
basist
omemba
Škofji
Flandri
avgustu
interni
kronika
mladost
okoljih
protein
stalnih
Ameriška
snemanja
##troduction
Routledge
ljudskega
oddaljeno
odstraniti
preostanek
sovražnika
##bad
##čas
##sted
##tent
##work
124
Qui
##stija
##čitvi
Mase
Memo
Mole
stali
preure
skriva
utrdbo
vegeta
##indvajse
moralno
najdlje
satelit
trgovec
ustavil
vpeljal
Starejši
svetlobi
vladanje
udeležila
skladateljev
zgodovinarjev
##gonu
##jeti
zru
zur
##terie
Blaž
Rona
anga
morf
Basti
ciklu
kredi
ločil
meter
rebra
samim
uprli
Claude
odpira
vijoli
bolniki
kemično
koncila
najdeni
resnico
Nasledil
akademik
filmskem
lestvico
membrane
podelili
poslanca
zmožnost
nekaterim
geometrije
življenjska
komunikacijo
##kve
##gata
OZN
##guage
##znica
1802
Joan
Loga
Drave
Hiero
bitij
kotom
ocena
pesek
rekah
tkivo
armado
gotske
motive
načini
udarec
odvisne
tirnice
volilni
majhnega
potomcev
povečana
izumitelj
kontrover
kovinskih
podpirala
prvotnega
zasledimo
generalnega
ministrstvo
tradicionalna
##mej
Gé
##sour
##trol
##wing
##zong
Leu
##court
##vedel
1803
Mate
vila
Dekle
Neptu
baroč
pivov
poime
sakso
docent
Škofja
Brežice
majhnem
mlajših
sledeče
Mercedes
Partizan
nemščine
Kakorkoli
obnašanje
valovanje
kmetijstva
Uporabljajo
raziskovalni
vzpostavitev
##BM
##ät
##keta
##klic
##tkih
Oku
Rož
Nord
babi
pošt
Earth
Farma
delce
radia
slaba
črnih
##lopment
##pravami
celici
odziva
pravih
rojeni
Ženske
analizi
mnogoko
namesti
češkega
Benjamin
bolečino
metaboli
povečajo
šolskega
krščanska
najlepših
neodvisne
poskušajo
trgovanje
institucije
izpostavljeni
##bot
##uri
##star
##vano
##vimi
Cul
Ege
##gresi
Nena
Sale
Križa
jarek
kriza
sveže
začen
Nadalj
Svetem
družab
nedolo
posled
arabske
gladino
odporni
besedilu
izvajala
prometno
razstava
seznanil
notranjim
družinskih
pravokotno
spremenjena
priljubljene
Ä
##zgo
##eval
##hovi
##pelo
##trih
##kovci
##strez
Dres
Izpo
Timo
##vision
Matil
Regen
Srbov
nazna
nesmr
oksid
Illino
Matthe
celega
kripto
rečemo
hrvaške
univerz
Švedsko
Chemical
križarji
nastopih
priznana
takšnega
dokončana
izločanje
odpravili
California
gledališka
preživljal
pripravili
slikarstvu
elektronsko
spremembami
##fol
##rium
##tije
##vest
PDF
Rio
zdr
Île
##harda
Guil
Maxi
uklo
Kaspi
cikli
garde
mejah
vdova
Koncer
Sezona
vodoto
koncilu
mandata
težavah
čitalni
Romuniji
poklicno
misijonar
preostale
razlikova
oblikovana
razstavlja
##EG
##né
##nesa
##rado
##škom
Aja
##letal
##prise
Octo
Uroš
okni
ulom
##letela
##strska
Carac
Greek
dotak
zdelo
ljubim
lovski
najpri
osmero
sklicu
uvedla
Balkanu
Najvišja
premirje
ureditve
Akademije
ogljikovo
priporoča
Dolenjskem
Grafenauer
dvajsetega
objavljeni
pripomogel
centimetrov
državljanski
laboratoriju
Bizantinskega
srednjeveškega
##eta
AD
Ec
af
fr
##ktivi
##čniku
Pija
bobni
listu
najte
udoma
##landski
##rjenjem
finala
gostov
vlaken
epizodi
listino
materjo
papežev
filharmo
indijski
narejeni
nogometno
sorodniki
vojvodino
definiciji
nadaljevalo
##ai
→
##enu
##lita
Mul
Mare
agro
dušo
efek
gose
zamu
Edina
Iranu
Thomp
media
moril
možne
rakom
Področ
beogra
osebna
sester
Črnega
Prekmur
Stewart
delitve
ključni
nedaleč
okolica
pravili
pogovori
podedoval
zadovolji
specifične
umetnostni
prepovedano
elektromagne
##haw
##jte
##nai
Ré
##minu
##rnem
210
Džo
mej
apne
hodi
humo
majo
vzdu
Jessi
drami
grupe
kloro
ljubo
radiu
usnja
Matere
ciljem
darilo
izgled
moskov
netopi
odcepi
proste
studio
vpraša
Gabriel
liturgi
prihoda
Michigan
Trbovlje
prizorov
smučanju
določanje
neodvisni
odsotnost
zavaroval
nepremični
komercialni
računalnika
##SO
##rem
##sons
##sonu
##vici
##znan
Efe
črn
##ovano
##štiri
Beat
Fara
Hono
lepi
lipi
mega
zrna
##čenjem
Bapti
Nefer
Okrog
Družbe
Kapela
lesena
sončne
trombo
narodna
navzven
odkrito
sovpada
vrednot
obstajal
pogledom
ponujajo
sesalcev
srbskega
Rezultati
kristalni
predstava
uspešnosti
MO
##velj
134
Run
kult
zmes
Alice
padli
vsoto
Indone
predel
vojnem
Thomasa
bojeval
listini
nahajal
oltarju
virusom
zabavne
Regiment
Sarajevu
cerkvena
kovinski
upočasni
španskih
izgradnje
prepovedal
prispevkov
kombinacije
psevdonimom
raziskovalne
##86
ć
##umu
PG
##mper
Hai
Ing
Lah
Hoke
Slam
Sode
cena
sanj
##tirajo
Bruce
Marse
Nepal
hrepe
izpri
nitra
čelju
States
Umetni
eviden
kakšne
luknje
otočje
sužnji
amonija
najvpli
podpori
prijavi
prvenec
verzije
prepovedi
človeštva
štirideset
Prešernovega
prijateljstvo
##ball
320
Ath
Cau
Eki
Rhe
##gnilo
##rance
frak
Tisti
Znano
našem
##ographi
Anasta
Bukare
Parker
okužba
povrat
reduci
tiskar
tokovi
Filadel
duševno
izpodri
karolin
letnico
plovilo
župnijo
določila
odstavil
podjetni
posnetki
urednica
Argentina
Bolgariji
ukvarjala
obravnaval
preučevanje
severnoameri
##dir
##mum
##ura
##kota
Fol
##munda
##ndvaj
##rjevo
##taine
Bled
grmi
moje
sopo
Force
deček
Murski
Spreme
gorske
leseni
objavo
Kamniku
dalmati
domorod
kariera
krajini
moderno
podstav
serijah
strojev
izginila
knjižnic
najdišče
poročnik
Princeton
antičnega
biologije
prihajali
slikarjev
francoskim
kandidatov
kompleksne
Entertainment
##KA
##tea
##šku
##dens
##sile
SLS
Sci
##hidra
izum
Magne
hčere
istim
razce
stres
Temelj
omenil
užival
##janskega
Obdobje
Slednja
kanalov
planoti
premera
skrivaj
dvorišču
podporni
pravljic
pridelov
sklenila
trenutek
elektroni
okupacijo
podeželju
raziskavi
slednjega
narodnosti
televizijo
gospodarstvu
srednjeveška
##erra
##xico
Osa
Sue
ode
Fall
Levi
Span
Znani
gasko
globi
nefor
presa
Miklav
rešili
##sonality
brezbar
plačati
posadka
razcvet
služili
Franceta
temeljil
čustveno
predavanj
prekinila
Univerzite
aerodinami
pravoslavne
prestolnici
##bl
kW
141
adi
nos
sob
##merja
##tarna
Capi
Komp
Nogo
Oseb
Thor
stan
##krščan
Leona
Paula
zasto
##jemanje
Hannov
sinago
tujino
Bruslju
Poljski
izbruha
izjemen
obsežna
okrožij
seminar
povezali
telesnih
produktov
spominske
pomembnost
matematične
zemeljskega
##zena
Whe
##noval
zgle
čoln
Plini
Stutt
aroma
obrti
polku
vihar
Austra
Soboti
encima
starše
streli
ulicah
##e
##a
##i
##o
##n
##r
##l
##s
##t
##j
##v
##k
##d
##p
##m
##u
##z
##b
##g
##,
##.
##h
##č
##c
##š
##1
##ž
##0
##"
##f
##S
##9
##2
##P
##M
##)
##(
##A
##V
##K
##N
##T
##L
##B
##-
##8
##I
##3
##5
##4
##D
##7
##R
##6
##C
##y
##O
##G
##Z
##J
##H
##F
##:
##E
##w
##U
##/
##W
##Š
##«
##»
##;
##Č
##x
##–
##'
##*
##Ž
##é
##]
##[
##†
##Y
##%
##_
##q
##ć
##ü
##X
##á
##=
##ö
##?
##&
##í
##Q
##ó
##ä
##è
##°
##|
##!
##+
##“
##а
##−
##α
##”
##•
##и
##о
##É
##е
##ç
##ο
##â
##’
##ā
##ú
##н
##р
##à
##ς
##—
##ν
##ô
##ρ
##ι
##в
##$
##đ
##>
##ō
##π
##μ
##ا
##„
##ß
##λ
##τ
##ñ
##с
##к
##ø
##т
##ε
##ê
##ł
##л
###
##<
##ă
##σ
##·
##Ö
##×
##β
##ı
##ë
##κ
##æ
##~
##ã
##γ
##ل
##ř
##у
##ș
##ò
##Á
##ī
##ر
##η
##Đ
##ş
##ý
##ί
##å
##}
##ē
##д
##́
##ό
##υ
##ن
##€
##‘
##م
##ě
##δ
##ά
##м
##ū
##Б
##{
##ц
##و
##г
##ω
##ա
##ي
##θ
##Î
##φ
##̋
##→
##Ä
##ń
##ì
##ğ
##ő
##ب
##î
##ə
##د
##£
##ζ
##ч
##й
##я
##б
##ˈ
##ː
##ь
##ï
##ś
##п
##С
##Ć
##′
##Ü
##س
##ð
##י
##χ
##ύ
##⁄
##з
##Δ
##М
##А
##έ
##К
##ή
##ו
##ш
##ț
##ù
##û
##Σ
##ר
##Π
##ი
##Ç
##±
##ه
##^
##ы
##ة
##П
##Å
##ն
##ی
##ा
##ה
##ა
##ј
##ր
##ق
##`
##ę
##ت
##ع
##ǎ
##х
##ξ
##ћ
##И
##ъ
##@
##İ
##œ
##В
##§
##ո
##ɛ
##्
##天
##་
##大
##א
##ḥ
##ж
##ش
##Κ
##ש
##Α
##ح
##Р
##ŕ
##Μ
##Д
##ב
##מ
##ɪ
##Γ
##Г
##Н
##ל
##Ś
##Ó
##Т
##®
##ż
##ի
##皇
##ف
##ת
##र
##О
##ز
##‡
##子
##ą
##ň
##Ş
##ώ
##Ø
##َ
##ե
##Λ
##Ł
##ج
##ك
##Ú
##Φ
##Ἀ
##ʃ
##љ
##Β
##ს
##ṭ
##ɔ
##ʿ
##ط
##Ω
##Ε
##Ν
##Л
##خ
##ἀ
##њ
##ւ
##Θ
##რ
##Ч
##נ
##ص
##ṣ
##ů
##Τ
##√
##ġ
##Ι
##ד
##ე
##≥
##ţ
##ɑ
##ψ
##≤
##ф
##У
##أ
##न
##ʻ
##王
##Ā
##Ц
##ע
##ɾ
##ם
##ɡ
##Х
##տ
