[PAD]
[unused0]
[unused1]
[unused2]
[unused3]
[unused4]
[unused5]
[unused6]
[unused7]
[unused8]
[unused9]
[unused10]
[unused11]
[unused12]
[unused13]
[unused14]
[unused15]
[unused16]
[unused17]
[unused18]
[unused19]
[unused20]
[unused21]
[unused22]
[unused23]
[unused24]
[unused25]
[unused26]
[unused27]
[unused28]
[unused29]
[unused30]
[unused31]
[unused32]
[unused33]
[unused34]
[unused35]
[unused36]
[unused37]
[unused38]
[unused39]
[unused40]
[unused41]
[unused42]
[unused43]
[unused44]
[unused45]
[unused46]
[unused47]
[unused48]
[unused49]
[unused50]
[unused51]
[unused52]
[unused53]
[unused54]
[unused55]
[unused56]
[unused57]
[unused58]
[unused59]
[unused60]
[unused61]
[unused62]
[unused63]
[unused64]
[unused65]
[unused66]
[unused67]
[unused68]
[unused69]
[unused70]
[unused71]
[unused72]
[unused73]
[unused74]
[unused75]
[unused76]
[unused77]
[unused78]
[unused79]
[unused80]
[unused81]
[unused82]
[unused83]
[unused84]
[unused85]
[unused86]
[unused87]
[unused88]
[unused89]
[unused90]
[unused91]
[unused92]
[unused93]
[unused94]
[unused95]
[unused96]
[unused97]
[unused98]
[unused99]
[UNK]
[CLS]
[SEP]
[MASK]
##ie
w
p
.
##ow
##st
,
##na
##ni
z
##ch
##cz
##rz
##ra
s
##ro
o
d
##nie
k
##ny
##ał
##sk
1
m
##ne
##li
po
i
na
##go
t
##ar
##dz
##sz
##rze
W
##je
P
##er
##le
##at
##ów
##ię
##re
##an
##ci
b
"
##mi
S
do
##ka
##or
##nia
##ku
19
za
##ła
##on
ro
u
##owa
2
wy
##ce
##wa
g
)
(
##cj
M
##ko
##rzy
prze
je
##la
K
a
##ki
##en
##wi
##cy
##ry
B
##ty
##ją
się
##no
st
##da
A
##ej
##ski
N
##iej
##em
##wo
##ta
##ści
##dy
R
##ło
-
C
##po
##ru
20
##owy
Po
##ja
##nych
D
cz
od
–
##tu
##dzi
##ost
##cie
T
l
##ier
O
J
G
Z
##ia
##ego
nie
roku
##ca
L
##czy
ko
f
##al
##cji
##wie
##zy
##cze
by
##as
##to
##że
##ała
I
##te
##lo
##tó
##nej
##ma
##skie
##raz
pod
##ży
##sta
któ
##si
##łu
##am
##kie
##du
F
##gi
##ró
##szy
##pi
##ły
zost
##nego
:
ob
##mie
##owi
re
H
li
##dzie
##ach
przy
ty
##nym
##ob
ś
##ga
##owie
##lu
##owo
ja
Na
##pa
##ek
r
przez
jest
##owej
in
sz
##mu
##cho
200
##il
E
##ował
U
##skiego
##ść
dz
##niu
roz
wo
##ak
##in
##ud
##ną
##es
201
##za
##un
oraz
##sy
##dni
został
##ół
jed
##niej
##bi
pro
c
h
wie
lat
mi
##fi
##de
##sa
##ur
##skiej
##ęp
e
3
##wy
##ub
##ona
##ków
##ska
##os
„
”
##stęp
pra
##gra
##sty
##sze
ma
##by
##om
##sza
sp
##wó
##um
##owych
n
pa
##el
##kt
##ran
mo
##rod
miej
18
##sto
##ut
zna
##sp
##ri
kon
199
to
miejs
##czą
##owe
##ez
##et
te
##gu
##ierw
##skim
był
##kła
##ed
##ony
##ało
który
##sie
Ko
##ad
Pol
jako
##ały
5
##jąc
##ano
##ent
##ery
##cza
##skich
##ono
##mo
4
##cja
##cu
##ii
##owego
##and
##zna
##jący
##pie
ok
##nika
Ch
Mi
##ol
##bie
##ju
##dze
##ję
tak
że
naj
##rowa
/
##cki
Wy
##ności
latach
##kiem
ch
które
##cyj
##rzą
##bo
ra
##su
tym
ni
gru
jego
##my
##owany
pierw
##one
sam
go
de
wz
St
##ck
V
ze
le
##dzy
##czas
dzie
##aty
##owym
##wią
woj
##io
ar
me
197
194
##ali
##nik
##rę
##ul
pi
##ji
dzi
pow
mie
są
Sz
6
195
przed
op
##łów
198
dla
X
##ter
##dział
spo
##uk
##cję
##jące
Ja
sy
ka
czas
także
##wię
##bu
czę
##wiat
##cia
##łą
##ba
##ze
##stwa
Od
##art
mu
##cznych
Ś
dru
##dob
Za
rów
ce
##czne
Ra
Pa
##sko
##rza
pol
wi
Ro
##men
##do
Wo
7
##ców
##00
##niem
An
wła
Ma
##iel
##ct
##ary
swo
Do
##zu
##ową
##ór
8
In
##nii
##eł
##sła
##mia
fi
193
##ory
##nak
##iędzy
Ka
##ęd
stan
II
gmi
bi
##kład
Nie
##się
Li
##lej
sta
##pra
##wia
we
##nę
powie
##kiego
##sku
##he
czy
##rem
##sią
17
##cznej
gra
##stra
##ką
##ec
War
ta
##rez
ur
or
os
lub
##nież
##kań
196
##ot
##wódz
##jewódz
znaj
9
##ral
ut
##is
sty
##owania
##us
15
##erw
jak
Je
##ża
192
##ist
Mar
##nt
dy
##nię
##strz
##gani
również
##cznie
poz
wsp
naz
co
##unk
świat
##for
##czył
##ge
sk
tra
##szt
##war
da
##ers
##koń
Re
Le
##czny
##im
kra
Ar
##kow
##stą
##roma
jednak
##uro
##dza
##gl
##cha
##óź
16
##nek
##lem
##pu
##kę
##zie
tego
##ście
##py
ży
##rą
Prze
##pe
##ubli
ż
##ność
By
ot
##cą
10
mia
##so
for
Warsza
wię
##róż
##leż
jej
okre
następ
Bo
została
Mo
;
nad
##ato
##ól
##we
12
ba
##óźniej
zm
##onu
Fran
##owane
była
##co
mar
##doby
zes
sto
##spo
##czę
191
##dnia
gdzie
##ród
##di
##dził
kom
wieku
miejsce
Sta
pierwszy
##bud
znajdu
##ód
##ską
bra
jedno
##zi
sie
##tów
kolej
du
wyda
dnia
##ług
##prowa
##ron
##atu
##kiej
##wał
al
##pad
##dzier
Ł
##cje
Cz
##kona
##ździer
miejsc
paździer
ter
##cznego
##ób
##rzym
pół
występ
14
bo
Pod
później
##łon
stanowi
##logi
##czo
Bi
##prez
rze
spra
wrze
##ene
rozpo
głów
zdoby
##oru
##ti
stycz
##szcze
##strzost
##sia
między
##bra
wrześ
##ing
kla
##cząt
##stąpi
##cer
Al
##owana
##tem
##owano
Narod
##owanie
rodzi
##dnie
bar
11
13
##owała
##wiet
##kich
##kach
##ckiego
##cią
bez
##stat
Uni
pop
no
ich
0
##ńskiego
##ński
ru
##wer
##ńst
##nymi
##bli
kró
##łoż
Kra
##dzą
zawo
##szcz
prac
powo
części
##szej
##leg
##wiąz
##kaz
ju
##fa
an
of
##onie
podczas
##szą
##ata
##nem
##era
oko
##ort
##pada
##ktu
kar
##szyst
miesz
poli
Ba
października
wojewódz
##jących
##chi
samo
czerw
##lko
war
##szych
##mery
listo
organi
og
##pis
też
##ha
##der
##kty
##chni
##ok
##edług
raz
##pnia
##sł
##lan
##dmi
##lin
##rzu
##ber
sier
fil
tej
##tor
im
działa
##nistra
kil
##sce
##rów
Euro
##łuż
##ym
sez
tu
##nict
##zji
lip
grudnia
Te
kie
##ster
##noc
województ
##enta
funk
szko
człon
stycznia
##oł
##mii
##dzenia
września
miejscowo
##rot
były
stro
##se
Ob
##mina
klu
##wór
swoje
##cznym
ry
ale
Sa
uży
si
było
##gry
##ckiej
'
##rząd
##ników
czasie
##ąd
##dzo
Ż
Pra
##jął
zespo
##cześ
hist
kwiet
wszyst
prowa
Rady
##stan
praw
##wan
##sław
pre
groma
moż
trze
##ciu
##wier
Wi
pla
Da
Kon
wal
która
##stem
współ
##uch
##uje
ser
##ować
##mach
##od
##wersy
udział
reprez
ten
##usz
należ
##cach
##hi
##roni
km
##orów
##ryty
##wersyte
bud
##tora
##nad
##nicy
##łe
’
wzgl
Au
##lek
stud
produ
par
listopada
##cją
sze
##ńskiej
30
połu
Polsce
##chodzi
##miast
##owarzy
czerwca
począt
róż
ek
wojny
Pro
So
##wę
##rzę
maja
niemie
##nku
zało
ostat
##ard
Polski
To
mistrzost
##lim
##ciw
##vi
Pi
Wie
Ta
au
zwy
ws
##szego
##II
miasta
dział
sierpnia
##zacji
##mier
##stru
##cjal
##czną
##cię
lipca
##strze
##wal
##ształ
##rach
dw
##ste
##nią
##lą
peł
De
tytu
##dministra
lu
##czna
##nach
##now
##tych
Or
##ng
Wiel
marca
##res
The
osob
##uł
##łę
odby
Naj
##menta
pozost
##kar
##nu
##języ
##pły
##ństwa
##ner
położ
##kim
##szym
##dów
##czu
para
trzy
kwietnia
Woj
polity
1954
##lit
którym
znajduje
dwa
powst
##dł
podsta
już
##udy
##stwo
##więk
##stawi
ofi
##ara
gdy
_
##nosi
więk
osób
##ater
##wiąza
##gie
tylko
Był
##kowo
uzy
##gro
##ckim
licz
wraz
koń
zakoń
obec
##onal
pom
##pro
##ew
Uniwersyte
La
##per
Jo
##kry
##śli
##sti
kości
Me
skład
muzy
nauk
##ment
25
Narodowej
##merykań
następnie
190
##kami
przeciw
utwo
##stytu
północ
powi
której
##szo
jednost
dro
lo
##dziej
##tek
##man
##nił
##śród
##tra
tere
otrzym
pozy
Mu
Jest
arty
##th
być
##dar
wyso
których
##kcji
##czenia
języ
##cił
administra
##owanych
##gen
druży
posia
##mis
##czes
lut
wyko
Przy
##ium
##wach
wa
##ktor
on
la
##den
2010
##wem
##tera
##lar
około
okrę
cy
Dzie
lutego
##len
Fi
##wali
##ckich
##cka
##niku
XV
pły
##zo
odp
dwó
2011
tam
pomo
zam
miejscu
##redni
Co
nr
zamie
##dem
##dniej
stos
powiecie
##che
##łowie
poja
amerykań
Ju
##dal
%
##słu
##stu
2007
##lep
świata
Warszawie
##wała
Pierw
zach
Ha
22
Sy
klasy
Jed
2008
##trz
##ces
pił
##waż
cał
21
zacho
##lę
##ńskim
##ve
##pol
##bur
2009
Jego
##nicz
ist
bie
tem
śmier
##row
zie
Y
##cych
związ
św
Ni
2012
##ultu
zak
fina
Wil
##niesi
Wojewódz
##gą
##ler
##ługo
##ver
##dat
##grał
##lii
wsi
którego
##jąca
dow
##stąpił
dwóch
##let
ucze
miał
##wą
powsta
system
może
ła
##kowie
##gól
Rze
Według
2006
24
Se
##żu
##działu
##stów
zostały
środ
jedy
Nr
##fii
23
##niczy
światowej
regi
pot
skła
ele
##czął
##atoli
##cła
powierz
##mal
##fika
mło
We
##pół
Jan
##mian
ang
część
##rab
zaj
nato
zło
##ate
##ial
natomiast
##kal
samym
##ord
mieszkań
##me
Kości
1998
##czenie
##ckie
##kości
##ren
##dno
##be
##wiad
##owski
##owały
południ
##tar
##oła
pię
łą
kier
rozgry
publi
spot
ponad
wojsk
##wany
##syj
bada
gene
##bro
cie
se
nim
##ser
##chodzą
##torem
zmie
##jen
##niec
two
##ir
Ber
włas
fa
##pisa
##cę
##ństw
nich
innych
ksią
##czeniu
pie
##nikiem
##min
##żej
##szczy
##pij
met
##oną
wscho
##żył
Bra
posta
kraju
##orii
lud
poprze
##ich
189
prof
##chu
star
##wane
##wój
##rzenia
##biut
2013
##wodni
##tal
tytuł
##it
wykona
##bior
##kowa
kat
28
##nica
spe
##kra
ci
wynosi
##les
##licy
2005
Par
##asa
##dał
Wa
##limpij
##par
zdobył
He
Be
##szedł
##arów
mę
##ati
społe
Lo
2014
tych
##niki
narod
XI
##czony
##cej
##wskiego
daw
##wania
ukoń
##grzy
##land
kilka
księ
##łow
And
2004
##pej
##jącego
cho
##ho
v
ku
##któ
##mów
okresie
proje
nau
XX
##amie
Wojewódzkiej
27
##jedno
##log
szcze
##łości
##liz
względ
##dach
##zd
poś
26
Lud
##atun
##tro
służ
kad
fran
##jącej
##rek
szy
aut
terenie
##narod
sil
sezonie
Gra
##bum
uzna
ją
III
otrzymał
zawodni
##rotnie
##bar
Szko
obie
##czonych
##rony
##gh
budy
Si
##dzenie
##kowi
tur
##stro
29
##ant
np
chara
zaś
Ga
wieś
miejscowość
osią
Bar
obsz
początku
Niem
rok
##gna
Dy
##ówczas
##jem
zd
##dzia
stra
bardzo
##ns
zamiesz
zwycię
działal
##fe
tele
Kar
##mula
wers
##praw
##logii
##bę
##qu
województwie
##rytyj
por
sprawie
rozpoczę
można
##rii
##cześniej
##nienia
##nio
posiada
##owali
##laz
##osen
##000
niż
progra
##kade
##nami
oś
polski
rodza
##anów
##czyła
##ciel
zat
administracyj
31
grupy
2015
sztu
konku
##aną
##aru
##żą
1945
lot
##ięki
gminy
2000
długo
reprezenta
mieszkańców
Ca
jeden
Roz
Zost
Ste
##tym
zespołu
odpowie
##ścia
##nictwa
##bor
##tr
##prze
siedzi
##mar
##muje
Go
Francji
##dę
sob
Fe
rodziny
2016
lata
##ęg
Pozna
głównie
mają
##pli
bisku
the
##lat
wykorzy
gatun
##ńskich
188
wielu
Ho
Krzy
grani
##rew
zawie
##łowa
1990
##grzysk
##lenia
##owskiego
##rocła
##anu
względem
każ
wśród
2002
##forma
formula
miejscowości
##rum
##wski
##ria
okreś
##owymi
##owało
przeprowa
sek
związa
inter
śmierci
##żenia
##wały
Ge
kiedy
##sów
##cego
Ok
uro
##fia
wówczas
francu
1939
##ołnie
##fer
##któw
kieru
##szech
##brze
Ros
ha
uzysk
Ty
##grani
Lu
ponow
2001
Kró
gospo
występu
##rzęd
sprze
##ciej
##rezy
2003
##wat
##niesie
Stu
##daw
przypad
sku
##szcza
##ią
##liwo
so
Ry
ozna
archi
Su
##br
##entu
kultu
Hi
##jącym
uczest
##ont
US
powodu
Stani
##mienia
##encji
oj
Zjedno
kraj
film
gło
ramach
kilku
sa
1975
##lia
##sława
##ere
##ńska
kobie
dostęp
najlep
##nął
##tach
##ędą
##bą
Wło
jednym
przedstawi
zw
gmin
part
##gar
spos
dowód
zostało
właści
##zw
Podczas
życia
prez
Świat
##scy
##gii
pracy
##ałe
##kształ
##III
Ne
##lni
Sam
niektó
##jącą
##szpa
fir
dwie
usta
##nim
##giej
Bry
Joh
puł
##form
często
##pozy
##cześnie
##owia
##gów
współpra
at
##chy
drugi
wprowa
tran
##byt
spraw
ga
2017
##cin
Polskiego
##kwi
pró
zosta
##rowi
charakt
##zj
jeszcze
##nes
##ph
profes
nowo
powierzchni
celu
##rom
wspól
Sie
##kom
rozpoczął
elekt
##óze
Bu
cią
klub
wiele
##zuje
Ży
186
Sp
według
su
wcześniej
żołnie
##podob
##szu
##cent
##ans
##star
podob
]
##leks
##lach
należą
##kowej
album
cent
zaję
wybra
wpły
położona
##onów
##ly
będą
mat
##grafi
ak
zespół
obecnie
##ons
uwa
##tt
[
##stwie
zap
książ
Stra
##śnie
##niz
##lom
Cent
San
roze
##cen
Józe
połą
50
##więt
##rócił
##owaniu
Europy
##dow
Ru
syn
wiel
gmina
kierow
wojnie
ponownie
##leży
Mat
##zja
##tyw
Jana
cze
tzw
##rzem
Instytu
dzieci
##ńskie
spotka
##wana
##nnik
Następ
##wyż
##ular
ne
samolo
pierwszej
członkiem
##ger
##lega
##wanie
##szenia
osiąg
hi
Car
miała
słu
ź
em
Sto
Op
##gę
1999
##cjach
##dopodob
najwięk
##czej
187
Am
##dą
którzy
Zie
1972
##sied
##ke
umie
##ódz
dwu
historii
budow
##onych
##iece
gór
Ser
ul
prezy
pozycji
funkcję
##organi
województwa
drugiej
Rad
danych
Hen
olimpij
Kat
Warszawa
##racji
##nętrz
##cym
##nisty
zbud
wszystkich
pomiędzy
podstawie
koniec
##twa
obej
Wła
##dziel
Związ
doty
##wać
Ku
##niach
czyli
##fik
wyniku
suk
linii
Rob
Pie
osa
gospodar
##ina
##kcie
For
eksp
Mie
##son
istnie
history
utworz
wypo
typu
##ton
##ędu
wło
##tery
100
##rzyma
pierwszym
turniej
##ang
Polskiej
##czaj
2018
większo
##und
##tom
Gór
##va
XIX
Sch
##sem
##nal
##debiut
Pe
Akade
Th
tre
przewodni
niej
Wrocła
komp
Obec
##ote
brytyj
aby
##żenie
meda
innymi
mniej
##rami
Poz
trzech
dowo
awan
##tami
Part
miasto
studia
##ld
prawo
Wal
wielo
organiza
Tu
Gu
##peł
rozgryw
średni
rez
and
Gru
Głów
##nar
##got
ran
##cami
##karz
mistrzostw
rej
grup
##cyjnych
Puch
tr
##fikacji
##usza
zajął
##ff
##pisał
pun
zawiera
lecz
Poli
##dniu
##del
strony
##kali
meczu
##mite
Towarzy
Kom
Du
koncer
##zyj
##rych
byli
##wet
##ój
swoją
##ęsto
zwie
##cenia
niego
##kaza
##mentu
Pio
skrzy
##owią
Fa
##czności
och
##czono
my
ogło
Krakowie
zasa
rad
swojej
##rąz
##wicz
##rządu
##łem
##lew
Pow
cór
##nister
##lei
jedynie
##ałym
funkcj
Di
Lon
szyb
utw
Uniwersytetu
wice
zgo
##stos
##ierę
strze
sposób
czym
##nd
organiz
##ósł
pracował
1997
gminie
##gło
którą
stru
Mistrzost
względu
pier
dzięki
##waj
rek
##rie
Gre
razem
rosyj
##lenie
mecz
##ciem
##erwo
gro
##rój
liczby
męż
pan
##las
##nictwo
Ślą
znalaz
Chi
sce
niewie
mater
##owanego
krót
##rót
stop
Pół
mm
zde
##niósł
##atali
nazwę
zadebiut
##ięk
1996
członków
##ator
##andy
##czone
##twór
##cjali
##misji
piosen
pozosta
##chow
##choty
Zach
##tę
##rysty
##dami
reprezentacji
El
##lił
litera
##sił
pomoc
świe
ludności
sko
mogą
##czyna
Zjednoczonych
##cyjne
##pospo
Groma
##wu
znajd
1994
##czni
##onej
##biera
1944
40
reprezent
wol
Został
##atunek
##ecznie
zmar
ge
okaz
pojawi
wysokości
##dziła
##publi
##zeum
1992
karie
jedną
##omo
##pera
##nios
kształ
##moż
Przed
##ten
1991
stał
##cem
##tnie
mas
##bry
1995
##kowe
Aleks
##parta
stat
gromady
uzyskał
##dgo
Her
rę
##łat
Paw
gry
pat
##chał
Hist
obraz
Następnie
dom
stanie
komu
##fek
międzynarod
opera
Cho
Sk
##dent
##owanym
##rzył
Tur
##ństwo
##dań
##car
państw
##chód
##pospolit
wysp
plan
Uniwersytecie
Przez
ud
Ki
##ya
her
pochodzi
##reta
wyd
##dziale
igrzysk
##dzono
konty
##wiąty
Wojsk
rząd
##szko
##net
połowie
##ortu
##bardziej
związku
1989
ona
1993
kamie
No
studi
Rzeczy
##kół
Ze
##rac
ki
##are
produk
Świata
##erytor
##ałych
Zna
wyzna
##ros
Mia
katoli
szero
różnych
mał
tek
##two
decy
##nów
60
Ło
Między
##ciela
czter
##owanej
##maga
##rzenie
nazy
kons
autor
Iz
##esa
##amię
##pospolitej
kry
Vi
##lub
##ralnej
niektórych
pl
poje
am
telewi
Franci
stwo
##krai
stronie
##ks
podstaw
mor
twór
##wnętrz
##kowy
otwar
##piero
wyści
IV
Dz
obo
nada
dodat
składa
Kor
Aleksand
znajdują
szczegól
punk
nawet
okoli
Akademii
1973
##ologi
Q
pobli
##lina
##dzna
Cze
Obecnie
##pita
Amery
##dzony
Wsp
przedsta
stanowisko
##tel
Para
przyję
czasu
biskup
włą
informa
zni
##wało
dziedzi
##tą
reli
##ari
##nich
##wając
##ora
Zak
Ri
stanu
##zio
Tra
##gł
##ktyw
##sięcy
oficjal
kościoła
##arówno
##mniej
##miany
##mencie
##ędzie
80
##czyz
rzym
konstru
Hu
parafii
##RR
184
##fry
sym
medal
należała
##dium
##lony
##krotnie
lek
##cyjny
2019
##lacji
##czyć
Ci
zadebiutował
##czych
trady
końca
specjal
awans
USA
wielko
##ble
kościół
ukończył
niewiel
##owiec
dotyczą
##kowych
##szenie
##cieli
##oria
pierwsze
klubu
Ed
##żyser
Cy
Ostat
##pisu
##dyna
prawa
##nic
katego
pełnił
Nor
Pu
Henry
##lot
Pla
Anto
działalność
##linie
doku
Ada
eg
##stanowi
Os
należy
##mieni
zastęp
źród
Miej
metrów
wygra
Sh
musi
##nieważ
swojego
Gó
seria
Połu
swoim
##ura
swoich
zakre
Okrę
regu
tys
Ol
aż
pocho
##szło
Jako
fe
##sh
Niemie
##pew
bli
zapro
##por
##gan
przeciwko
terytor
założ
##tychczas
Fo
uch
pas
##cep
przemy
Spo
##możli
Lw
##tej
cztery
##dnich
##siębior
Ang
inne
185
rozwi
bram
##lum
Karo
New
dokona
are
krzy
czar
następu
pis
szczy
##tedy
per
szkoły
##dyn
##śni
konkur
Armii
wszystkie
##czka
wystąpił
nazwa
70
pozna
##ktora
takich
Andrze
##tury
##tua
poprzez
Szcze
uni
##ięż
papie
##all
sing
bardziej
państwa
##owiada
##kość
powstał
Dziennik
##nością
Bel
dni
##cką
organizacji
sre
trakcie
ludzi
długości
mistrzostwach
euro
Biał
##eri
wybo
##kro
domu
mieście
Har
zbi
zaczę
żad
##onomi
##int
podzie
poch
Fil
oficer
regionie
wojen
wybu
króla
##ien
##cyjnej
Dzi
##zm
##jach
niez
Com
min
Dru
##obec
turnieju
Inter
##mit
##tości
Pary
##rowin
one
Nauk
sobie
##fo
powiatu
popular
sport
183
Jednak
tę
pew
towarzy
prawdopodob
bit
pochodzą
polskich
##niego
##liwości
Naz
##owod
brąz
##szka
##ściu
##cyjnego
Prezy
zarówno
##ill
##menty
##gó
kontra
iż
##organiz
##wod
##ech
Północ
angiel
nag
Jez
jednego
filo
przewodniczą
Mon
##kle
von
Jej
En
wynosiła
kana
##pat
Ws
##nen
##dyj
charaktery
mian
##lnej
wywo
postaci
król
Rzy
rozwo
swój
##fina
Hol
obowią
miejsca
ów
##koła
kierunku
poświę
obsza
staro
mocy
niepo
rolę
Pet
osoby
materi
zali
nauczy
zamieszki
##ward
teren
sprzeda
Komite
##nin
Gdy
Kościół
pisa
dotychczas
władz
wska
##raż
Pan
Europej
90
num
wyposa
Południ
##ham
##sługi
##ległości
##czki
obro
##wano
##poś
cmenta
##ralnego
##czona
##lij
poza
##rat
mili
uli
najbardziej
pracę
wybud
żołnierzy
poda
struktu
tłu
świę
##iecezji
kur
opie
##ret
000
##pia
aktor
Gi
##czego
##wskim
zajm
##erem
##denta
ziemi
Con
Poznaniu
odkry
Kościoła
##iera
##ściej
##łych
Wol
polskiej
##ell
##ezpie
amerykański
Tar
Związku
##sch
##niesienia
przygot
##wej
lokal
um
Wielkiej
obszar
##kowski
Księ
występuje
##owców
##mor
##gn
Bydgo
##łowy
1920
drew
Uro
siedzibą
projekt
j
##atych
pierwszego
1918
##czyn
##onego
Urzęd
parla
reali
nor
świąty
mal
przypadku
sukces
jednostki
gromad
##kowym
181
##wskiej
1988
run
##gij
powoła
##SRR
##ńczy
nap
serii
##ft
Man
pry
##cielem
sezonu
##eru
##zem
broni
gwia
potem
##dia
więc
meto
##gnie
##okra
##kazał
pracow
Pola
mom
##cko
##dzone
cięż
##widu
genera
##staw
potrze
##imna
podziału
35
gó
wspo
##iad
oprac
ści
mó
Star
Bryta
##cznymi
##strza
reda
Gene
duży
oby
samego
##atem
1980
kap
ana
maszy
##ley
zajmu
##kał
##onor
teat
Republi
zwo
Lub
Stanisław
##szty
prakty
Kazi
##rona
użyt
przej
zre
Mary
dniu
##dnim
wyróż
chło
##lement
##ślin
gatunek
##szła
fo
##broj
osied
czyn
##gru
kryty
dra
et
prowadzi
1940
techni
tru
##ose
##chwała
##lnym
całkowi
##nienie
##bs
Włady
miały
1946
##formy
Kraj
##lnych
##kacji
1959
godzi
nagra
zapew
Są
##cenie
kolo
opu
pokona
##wolu
Kazimie
##rócz
##wizji
1919
##rzędu
##cyd
##giem
pe
produkcji
##dnienia
rzecz
węg
klasyfikacji
prowin
warun
ego
##stry
wier
My
przyzna
kam
Ponad
cm
##zależ
##lnego
##RN
&
syna
wyłą
karierę
wyborach
człowie
##inter
wod
brze
##stka
##alo
##nicj
##łonek
odzna
##ejm
##klu
ulicy
ZSRR
##ctwa
54
##lone
Urzędowy
samocho
drugie
batali
##ąt
fra
warsza
nar
##anta
##wego
Wor
jednostka
Kana
niem
Maria
1981
nowe
##unda
wojska
##wanych
Począt
1984
##duje
Char
##ion
sytua
pła
##ille
##rand
przedsiębior
##krót
przeszedł
gdyż
kontro
obu
biał
mężczyz
Bud
##dywidu
##katoli
gminę
##rob
##niczej
1987
##pisy
umieszcz
departa
##czeństwa
typ
start
##ert
dal
1943
Austra
##czno
oku
pos
##lne
gre
##jów
szla
wtedy
Towarzystwa
gi
medali
jezio
przeniesi
##owice
roślin
##liny
##emi
dopiero
##orą
##wają
##duk
Wscho
1941
##stal
oznacza
1986
##żynie
natu
dwo
bezpoś
będzie
sła
##kazu
pł
##dnio
##jekt
1985
At
nagro
Łodzi
zmieni
##ału
##wiu
##gła
zabyt
##rześci
##serw
##wyczaj
up
##rea
powstania
rodzaju
spowod
Londy
Józef
opubli
##ation
pierwszych
powstała
kadencji
##bliote
pułku
kontynu
wersji
waż
##ela
1982
świecie
182
Pri
oddział
##dania
##dź
##groma
##gach
1961
##knię
przestrze
drużyny
hand
ciągu
tar
ziem
##pla
##działy
##dywidual
Ła
1968
##gdy
takie
przezna
##rzego
##atów
##stw
179
dyrek
##wen
##krótce
służby
Muzeum
XVI
auto
reżyser
drze
##spek
##ss
pobliżu
Ad
poko
##pień
##cal
##stria
kor
rzeczy
anty
Bie
walki
##łach
przedstawia
32
Ponadto
##bia
1983
piłkar
##róci
Zło
szta
Dem
##moc
wszystkim
##tz
Chri
zmarł
1942
en
##ance
##tyka
nazwy
Teat
##dzki
##ong
zbior
##kowego
przebie
ple
##wych
Ter
##owicz
##owaniem
##fie
Świę
##stał
szere
ani
##nist
tworzą
psy
zakończeniu
kolei
1970
armii
ówczes
##ens
chi
##tur
##dro
rodzin
##rzysta
władzy
uz
edy
proce
obszarze
bio
1976
Państw
kobiet
Qu
Zam
ilo
Minister
##eksy
Międzynarod
tech
jednej
kolejnych
prawdopodobnie
##żem
##niejszych
Jor
finans
pt
##źnie
Mor
##ciec
wzro
początkowo
Col
czterech
wyco
środowi
Bur
##Uchwała
Mari
##cio
zorganiz
powrócił
siebie
wyb
przyby
ostatecznie
działania
gen
tygo
aktyw
##ght
wody
##versi
bu
Gro
wyra
wobec
##ńca
zachodniej
##ult
##rium
trafi
##zmu
grupa
XVIII
Fer
ośrod
nazwą
doprowa
kandy
filmu
kompozy
najmniej
kol
rozwiąza
piłkarz
ruchu
tro
srebr
biegu
Kolej
Is
przeby
##mer
##ałości
##częściej
opar
filozo
##skiem
wydaw
Czar
Ludwi
##śla
zastos
klaszt
##wala
##rzymy
stopnia
gatunków
##sach
spół
objął
spad
1938
konkuren
##lny
zawod
Hiszpa
wę
kategorii
Ce
##wor
form
ogól
##nice
dwuk
najwyż
##emu
każdy
##lona
fizy
gęsto
Występ
grał
zawar
##plom
##zan
##kładu
##czek
45
##zdy
Brytanii
Cie
1948
180
centrum
koście
znale
wybrany
##usa
Niemiec
eli
##danie
##wym
miało
##ńską
działalności
element
jedna
odci
1978
zarzą
zniesi
##lian
granicy
młodzie
##mien
czego
ciała
tor
##pon
stanowią
Komisji
reformy
Króle
##dzić
1928
polskiego
##panii
Partii
prę
##cyjnym
Mal
piechoty
##poli
zab
1921
fak
he
##konu
indywidual
Japo
Zmar
turysty
igrzyskach
##sunię
telewizyj
Samo
istni
efek
Sal
##świad
1956
##kował
znany
pierwo
wiej
życie
wykony
1971
areszt
reak
##wange
Zakła
Pierwszy
##dera
##berg
europej
instru
punktów
1979
##tow
założy
Lubli
zdecyd
partii
Ti
##niczych
Order
##dzkiej
prace
com
Universi
miesią
##edia
występował
określa
Szy
Film
artysty
dem
przyja
wydany
1947
##cony
Zacho
dziel
zaw
szkole
Bor
wyż
uzyska
##nera
##uber
odpowiedzi
nazwi
przyro
sztuki
proces
Początkowo
świad
ks
Bru
wywal
##gląd
##onym
##dniego
większość
rozegra
##stąpiła
##szto
głę
1974
##ies
funkcjon
odbył
Wyż
##cował
##woli
Geor
Polska
doktora
mężczyzn
radzie
styczniu
Pat
pu
##ps
##glą
36
przede
mistrz
ligi
RP
Tade
Stanisława
wej
urzą
wyje
ponieważ
33
przyczy
ata
albu
1960
Ukrai
uważa
Afry
Mło
zapo
Zas
wzię
jednocześnie
##tion
Europie
zmian
Zes
okresu
Win
##sc
di
zalu
##fy
rady
mieszka
wschodniej
Augu
##wienia
##pt
transp
Yo
Kie
1969
##atyw
Ke
olimpijskich
World
##kowskiego
umożli
dia
##zacja
forma
ho
Święt
budynku
pomocą
##gre
##tycznej
##mana
##tok
mand
czoł
##ling
##miera
dzien
##iego
prawie
##nast
trzeci
rzeki
Ek
##vo
cesa
##ple
1977
foto
nowego
Wydaw
Józefa
##rześcija
przeło
drużyn
budyn
większości
Rów
John
##stości
współczes
Pucharu
Piotr
pierwszą
wrześniu
ucie
sekreta
stylu
Nazwa
zakresie
choć
zakończył
mów
dołą
##oba
1957
Kultu
##żer
cel
stosun
twier
nowy
Rol
departamencie
##bit
prywat
Wydziale
178
lidze
##rad
##zjum
Rosji
składzie
##pal
Narodowego
siost
##rodę
##owca
##padzie
zwięk
boh
budowy
zależ
Pierwsze
stwier
##20
Per
1952
arcy
##anga
##nowa
##szek
1950
Organi
Mikoła
Pru
##dra
34
wykorzysty
Kali
rz
##czech
##raca
##omy
pełni
##landii
Sztu
##cow
cer
##ciar
##stych
pojedyn
Niemczech
mode
Wrocławiu
powszech
obję
rzeź
try
Była
okres
##cznik
##zów
##strzem
##nis
powro
południowo
wysta
rzą
Cham
##use
##kładzie
##dor
##aksy
przegra
specjali
projektu
ener
Bri
1934
sza
geo
Saint
##burg
Ot
##blem
wido
dniem
wewnętrz
trans
więzie
stacji
Im
Dol
serialu
Dla
czasów
razy
medy
języka
prób
Cor
##wicza
program
zda
zabi
FC
uczestni
##noszą
lotni
rozwoju
1922
zagro
##imnazjum
doszło
czerwcu
Nowym
dotar
odcin
##pen
##suje
pokry
##czeń
##łość
##grafii
##łó
##kazy
##miar
maju
##dli
zatru
wschód
zaludnienia
1937
##ługi
##cea
##zję
##str
zja
hiszpa
##żyt
##jaw
##kana
Cam
bezpośredni
spę
##owań
ad
zale
##wajcar
śre
##owskim
##owskiej
juni
1958
Pier
##skokatoli
Toma
wytwór
diecezji
pia
##uka
##uter
##źni
Pre
1936
słowa
##ęt
każd
Lot
więcej
##50
Fre
##ścił
##rozu
##owaną
języku
##ąb
##grup
powiat
kolejne
Mart
##gal
##interes
liczba
grudniu
Współ
##omb
poru
oto
polityk
inicj
##liwość
równo
prowadzą
##gli
##czyk
Dob
Regi
temat
1967
czasem
##strzy
dziś
drugim
nią
##stę
rezerw
mis
##rin
##owości
##posto
Komitetu
##que
##dzona
##kuje
trój
sierp
rzeczywi
tłuma
##dła
##łaszcza
odda
##tego
##mon
##asi
frag
gęstość
marcu
1949
##trze
Przemy
##tacji
1924
##rucho
pała
stopniu
##kla
pręd
##ami
Bro
pięć
lipcu
elektry
Wieś
dniach
##tycznych
Straży
kultury
##kre
charakterysty
##edi
choro
1930
1964
Eu
systemu
Ele
zaczął
wartości
##dan
zgi
−
##au
##gue
##ralny
wchodzi
członek
##ńców
Mc
wpływ
prowadził
##szczenia
?
##szły
Mosk
##cyjna
skier
zostali
podję
rol
##loty
zachód
Gdań
północno
Wydziału
Wojska
powieści
pasa
Zmarł
karierze
tworzy
kapi
przekształ
przykład
##sion
czaso
prezydenta
Gromada
Igrzysk
najczęściej
Nowa
1965
Węg
liczne
##dłuż
niemiecki
##tna
utworzono
polska
Olimpij
listy
przeję
Instytutu
czerwo
##tero
Jedno
duchow
##cyjną
rywali
wykorzysta
##ine
ide
asy
ds
październiku
Kur
sub
##prezent
Stanów
VI
##spi
zwłaszcza
sch
dowódz
##dzeniu
rejonie
spa
##gazy
Bydgoszczy
##orem
tysięcy
##kon
pojawia
##łta
Zy
badania
Powi
łu
1933
Prezydium
uleg
Nad
##wił
##żony
##owicach
debiut
##obie
udało
##ori
##żek
1966
instytu
##sis
##syw
zmiany
pochodzenia
##ln
hrab
Andrzej
##kłada
##dne
##ath
##gram
38
1962
##ematy
wyp
ruch
północnej
zamknię
##stiwa
Szwe
Ale
##deł
##up
konf
symbo
występują
stre
Paryżu
rzymskokatoli
Wojcie
pta
##tyczne
Ban
artyku
paraf
Micha
##tan
Londynie
##kończył
##ralnym
listopadzie
sło
!
wzią
Urodził
Stowarzy
przer
##stym
władze
religij
##hel
cywi
##lip
prote
##giel
##gał
nowych
mecha
prowincji
##andii
potwier
##skar
##nić
obowiąz
wykład
##śl
księcia
##gły
##zowie
Środ
##wz
młod
##id
Fry
##ven
##wczy
##owę
Adam
Tak
Warszawy
rodzaj
stała
##win
budynek
Mich
ca
Cmenta
##burgu
znacznie
Stan
ło
##pisany
kontrakt
Czerwo
zawodach
pozio
XVII
Anglii
##bów
##ryj
inżynie
Park
##gne
ojca
sierpniu
powierzch
##dae
##zację
tempera
##dzeniem
punkt
##jącymi
##nąć
zainteres
rozegrał
czwar
##rzeń
Tam
##wód
zagrani
wygrał
Oś
Znaj
Cha
niezależ
##szony
pomocy
myśli
##prawy
Puchar
Jam
pocią
programu
obok
ł
##szczegól
=
177
Mad
jesie
##techni
##rygi
##szał
##ralnych
Grand
##onem
##nęła
##wangeli
okręgu
robo
końcu
częścią
Trze
Puł
sieci
Ludowej
drewnia
złoż
stacja
1935
##rzbie
stara
##eryj
zdobyła
37
##graf
stopień
narodowej
roli
##żnej
Er
1932
pole
Stanach
sur
Mimo
##czyły
##onar
##waler
kwietniu
##dzkich
archite
##taj
żydow
°
mógł
bezpie
##ństwie
budowę
niepod
kwa
##siej
##ntów
1914
stad
##piera
ska
firmy
##lis
Później
Lin
University
ros
Ab
1951
Spe
Davi
postanowi
##lera
##kową
##wart
znalazł
##bił
wyłącznie
klubie
zamieszkiwało
iz
japo
Centrum
badań
niemieckiej
##dek
Ten
całej
Muzy
małże
##iadomo
samej
##cina
południowej
##dzkiego
nadz
Rom
siły
##gon
##jąt
mistrzostwo
##tuł
##hy
##niż
wią
##żeniu
dyplom
trakt
dowódcy
##went
1963
Dzięki
##czność
##mimo
des
1929
##bre
człowieka
##kin
##niosła
Publi
##wienie
lutym
ć
##nicznej
##lam
Ziemi
Han
mln
Gar
kro
boj
##bisku
kated
1927
most
działacz
##lerii
plasuje
wchodzą
##jan
brał
oba
pozi
Izra
zy
##sen
##gia
1955
szczególnie
1923
##nątrz
wypad
oddziały
##uth
Sło
grze
##ując
drogi
##kiewicz
wybor
##dnik
Dow
wą
rozpoczęła
uniwersyte
##tość
##skimi
szybko
##niczego
tymże
##ręb
##dziela
Mistrzostwa
dź
szef
konta
mianowany
Archi
meta
magazy
najstar
Ofi
+
liście
##nne
przeniósł
Studi
##tes
1926
kariery
cały
elimina
let
drodze
##ralne
##nikami
39
zajęła
głębo
Marii
zmu
##waniu
##ologii
Często
żół
podobnie
##niony
zniesienia
Zo
##latego
Spraw
Jerzy
wyja
reje
##tura
##kan
koło
sobą
synem
Tom
##czeniem
port
Kraków
Mas
koncert
wspólnie
głównym
kr
##ning
akcji
##ts
moc
Rok
filmie
książę
albo
doświad
##niejsze
##dale
brak
wymaga
Bal
##mio
wokół
##kcja
##mieniu
dzisiej
43
##miot
##hip
1925
czele
Arty
##ase
bry
układ
##aliz
500
As
przebud
##łowi
Mał
dzielnicy
regionu
1917
Nowy
otrzymała
##naj
muzyki
1931
Parafia
postać
nacze
śpie
##żd
zostaje
możli
nowej
##rzeniu
1953
Ben
##val
wspom
Brytyj
problem
profesor
żona
Praw
obejmu
ojciec
firm
##ung
##remier
rundzie
eta
dziesię
rządu
zawodnikiem
nieu
##kazuje
podjął
be
##kowany
lekko
##alne
odbyła
ekonomi
formie
##lik
osiągnię
utwór
Francu
chwi
41
Jaku
wstąpił
stanowiska
pamię
czasopis
party
zagrał
zwykle
##zer
##kol
Polskich
Chry
działań
zb
Szkoły
##lami
nosi
Wszyst
funkcji
##gip
Ir
ban
nadal
dwukrotnie
##lie
polsko
Bla
przewo
chemi
Krzyszto
Radzie
##mentar
zim
barwach
posiad
##szuki
Wz
##stiwalu
##dzonej
##watel
##angaż
Sport
isto
##bach
uda
południe
wzniesi
narciar
##kimi
krą
##uri
szwe
Hiszpanii
imp
##śle
austria
poszczegól
płyty
biskupa
Por
handl
sił
Matki
rzad
##mentów
nauczyciel
pozwala
TV
następujące
arcybisku
Tat
poe
##esem
hu
związane
##kl
##owość
wziął
##ted
##met
150
fabry
ukaz
placów
Ange
Cel
nauki
##hu
##genty
##broje
##can
temu
zabud
mala
42
##ciele
Łą
##logia
imię
najważ
##jny
nigdy
##loka
##wojen
Powie
mimo
wyro
dawna
sezon
przemysł
##nat
Powiat
prezydent
brązowy
##kowane
bur
##ńcu
##listy
Tele
wyjąt
##cznika
Pas
##twarza
Aust
Słowa
przyj
Dro
Demokra
podpisał
##maty
punkty
##nocy
Pau
Południowej
##stwem
wydał
bohater
##zupeł
pierwsza
położone
##dzonych
##niami
##cono
##kłady
##gmu
stand
##ana
dr
Wysp
finale
Try
porów
##oważ
wład
##ździe
bieg
##liam
##pusu
komen
##nicza
##siem
##jo
ograni
mistrza
rezy
##gat
##nati
PR
##gres
##ll
orygi
obejmuje
kg
Ex
Pawła
polskim
##ure
##rich
Meksy
akade
Białoru
##noś
ostatni
Wilhel
##ął
albumu
magi
##alny
Ham
##czości
Jak
GRN
herbu
SS
chrześcija
Champi
współpracy
rozgrywek
##nicze
zajmował
##zwyczaj
wypro
##prawi
Niemcy
##eli
Piechoty
Bryga
Tour
urzę
##com
##migra
wybrze
rośli
##szki
##ńsko
duże
##kowano
Kla
##dziesią
parafial
pią
##cjami
Tym
charakter
##mat
##ądź
44
##zdu
uczestniczył
##ttp
Gmina
##nastu
Republiki
Pił
Wielko
##zur
Ksią
zalicza
##aków
radi
utworów
Władysław
Gos
narodowych
176
##łami
zas
ścia
podej
Mag
Rec
pozba
połowy
wio
Zespół
miesięcy
trzecie
##kiew
ląd
Strze
upad
VII
kształt
ołta
orga
##nale
##ostęp
##niowej
wczes
##bsol
##cle
##ęb
oficerów
##naście
ochrony
##łał
Sza
uroczy
zakład
Jose
Rich
bądź
##dery
zostać
leś
##pów
wspiera
cech
##10
położony
premiera
48
Super
wicemi
rodzinie
dywi
Jorku
Kamie
ode
Toru
Gal
Mona
##skach
##chowy
polskie
Kam
##kupi
rozpozna
inte
Ich
##puszcz
Krzyżem
terytorial
##terze
wrócił
nagrodę
Dom
##mem
Och
minister
##polskim
##bina
dzień
okupa
Północnej
młody
nomina
ww
##rodzi
##deracji
grzbie
celem
występujący
sześć
utworzenia
nową
Ur
Miasto
Dra
ataku
kos
Kry
##udo
##rzut
##bel
histor
##dzania
właśnie
##hr
##unt
prawosław
niemieckich
##prawia
różne
edu
momentu
guber
Lwowie
Zygmu
rozpoczęto
całkowicie
##dzili
średniowie
dobrze
popar
Więk
##dago
całym
##ore
krę
##dnią
Konstan
##fan
##stki
lep
Robert
Olimpijskich
##wnątrz
##szono
nazwie
pracu
Let
wyścigu
ude
służył
William
zgodnie
popu
leży
zaprojekt
północy
##żyć
wielkości
Lublinie
Oprócz
niezna
##lonych
wspar
możliwość
komunika
maszyn
Wis
rozbud
Włoch
Los
##miu
Brazy
##bin
konkurencji
History
Pal
##czyło
Australii
łączą
odległości
##aksymal
##pii
poziom
Fin
##ys
87
Ist
rozpoczyna
Nowej
półfina
##start
##óz
Michał
kierun
komór
##bri
##bus
scena
obrę
przyjął
##obi
ilości
głos
##port
konfli
bitwie
Aut
wro
##działa
##zempla
materiał
##trza
terytorium
meczach
swego
opowiada
##pierw
szpita
samodziel
##tne
##nnych
odw
gatunku
Mer
zewnętrz
studiował
Kiel
zagra
##pan
oce
świątyni
##lica
możliwości
Ogól
obserw
Ukończył
plane
osiągnął
##miana
##don
##lana
dach
##wki
niemal
utrzyma
zawodników
##grze
##ctwo
profesora
##szość
łącznie
##kur
47
powstały
Wśród
kapli
obra
##fini
##nina
##ped
##undu
egzempla
##wacji
komi
słow
Thom
##rzo
jednostek
75
studiów
pochowany
szereg
wywalczył
mur
dostar
##tona
wybuchu
pięciu
##owska
zwyczaj
Najwyż
Dywizji
##sic
królew
##nowi
sytuacji
przypo
##entów
Scho
www
00
PK
##bert
wokali
Champions
400
##illa
##szył
##bili
Podob
##stąpie
obwo
model
pancer
odzy
okręt
##cone
mało
Czę
nieco
otrzyma
##ędzi
##lus
##pole
Nati
zmniej
autorem
##ktury
ofiar
dotyczących
##feren
Zbi
Świętego
55
##skę
uszko
rewolu
##czem
##tycznego
konie
Pia
##put
Szwajcar
Gali
Najwięk
Wyso
tram
leżą
##czym
##rzch
ustal
rozwój
##mos
Zarzą
##dzeń
ście
Formu
jas
##OP
mecze
##święt
spotkaniu
der
zdo
zbli
zdję
dowódca
##wami
##sługu
Komu
grupie
##polu
##tyki
mająt
##anna
finału
pło
proto
psycho
sukce
urodził
us
rozgrywkach
wzmian
odwie
kolejny
##alnie
mandat
zawodów
Miasta
techno
wzdłuż
kwali
Sze
spotyka
zniesionej
lig
spi
związany
złoty
Kultury
##niżej
##ceum
##szłości
Tre
mieści
informacji
##AN
siedem
Nowo
59
tabli
##hol
postęp
maj
##wol
##żeli
Ucze
polega
zaty
dek
osiem
trafił
##owatych
##ił
46
dokład
##har
przyłą
##nione
wybuch
drużyna
Wydawnictwo
##ciąg
niep
Kata
zau
Ana
powołany
##fra
##strowa
uwagę
wszedł
wyraz
pozycję
juniorów
oskar
Mil
##czyli
##kowana
zdol
Colle
spotkania
arab
##żna
Szkole
##arstwa
##ón
Norwe
300
przyw
##bsolwent
del
Została
Frydery
Kro
Politechni
szlach
służbę
##atorem
blo
1915
mieli
epi
głosów
Piotra
umożliwia
Ameryki
Pom
Wielkiego
przełomie
Bole
Val
Ostatecznie
obrony
zaangaż
język
podróż
węgier
##rezygn
dziennika
przeniesiony
głównych
niemieckiego
Ver
należał
gatunki
bezpośrednio
Wraz
płyt
Słu
Kated
##para
Tri
wersja
opi
kali
##bii
##owiem
Sano
podwój
komputer
pomie
pru
Królestwa
Japonii
zaczyna
Gda
kre
mię
nimi
##chodził
##bal
inicjaty
Berlinie
##west
##szczenie
sygna
mono
Las
gwiazd
zespole
##szymi
łaci
Niektó
herb
XIV
##sło
##zwo
Jagiel
Azji
##charze
##pływ
fol
##IS
##van
Port
Karola
Tro
Bre
##pres
cyklu
trud
honor
##lender
Record
Czech
##bezpie
Ameri
wynika
tytułem
Roy
##onach
Tadeusz
podium
Jerzego
##rus
##żyła
Lea
masy
oni
Kazimierz
##anka
utra
##obraz
drugiego
założył
Lit
Brze
asyst
Rz
Hel
uchwał
lubel
Sej
##leń
##cjonal
wiadomo
powy
##ułgar
pomor
zabytków
walce
pasażer
przebiega
liczyła
kandydat
producent
##rowia
##typ
zajmuje
61
##dników
##rzony
proble
##daniem
##rzyst
Książ
##59
czasach
##kli
pse
##mienie
Piosen
konsek
Aleksandra
metro
##sków
Rzymie
##dwie
zbroj
mary
dość
ukrai
wnę
##not
obrębie
Unii
urząd
##wencji
51
tutaj
Oko
Air
City
ster
krajów
konstrukcji
py
Igrzyskach
Sc
stanowisku
ministra
walk
akademi
it
zbo
wyjechał
##nny
##BC
skar
ustanowi
częściowo
Va
siedmi
##waża
##mil
bomb
##vy
##nator
##tąd
##gór
49
kościele
ol
##dr
wystart
uzupeł
pomy
zasię
poważ
Zgo
Jaro
francuski
trwa
Pierwsza
wyspy
zajmując
parafia
##liza
odbud
ponadto
oryginal
kole
znane
##skry
##kładem
Rozpo
okrętów
obszary
wil
coraz
uczelni
utwory
dat
##zda
zbyt
##ład
miast
##nel
tereny
istnieje
##gno
sąsie
cmentarzu
##gami
blisko
znaczenie
##pina
##cti
Warszawskiego
##ąż
organizację
##lacja
52
bibliote
##80
1912
zu
Cer
Instytut
maksymal
zazwyczaj
##nionych
Gdańsku
wios
Bibliote
##wska
eksplo
Paweł
wydana
##wszy
Mont
wkrótce
Pomo
nowym
przetr
ciem
Lip
redak
##dano
probo
##karza
##iecezja
krajach
Stefa
57
kardyna
rynku
znaczą
##nna
##nęło
dokumenta
56
##jazd
tematy
##zz
##bas
autorstwa
pozostał
##rząt
Znajduje
##sami
study
strzelił
##postol
Tran
System
Sejm
napisa
kapła
rzu
##ford
nagrody
Występuje
zebra
nawią
koncep
##denty
dwor
spotkań
Administra
Pozost
stopni
y
internet
##oby
64
dyrektorem
Wkrótce
zakon
obiekt
matematy
Najświęt
##czonej
krzyż
zasia
sprzę
pary
szczyt
##her
Wielkopol
Żydów
##kazany
Gospo
prędkości
##fre
krakow
Ind
kolejowa
Dar
zato
Ruch
Nau
naukowych
świet
poło
##stycznych
Lou
Internati
ciąg
##lną
Dąb
ab
Kle
srebrny
pal
Rzesz
##wiek
rodzina
odbyły
muzeum
Instytucie
hy
artylerii
wynik
##pus
Ve
Anna
Orderu
##porząd
reorgani
śmierć
mini
##amo
napisał
mon
piosenki
grzy
##cząc
odrzu
Dia
53
zgroma
##owani
dystry
Szczeci
gita
ukazał
głównego
##sin
wykształ
##mię
##spon
##turę
##żone
ukończeniu
ślą
##kiet
obli
zrezygn
medalista
Długo
##mir
upraw
dyre
zastąpi
książki
##SP
zawsze
##ville
Dywi
##dio
liczbę
Austrii
65
##czając
okrą
dzieła
zjawi
zespołem
zi
Prix
utworu
stolicy
West
##ław
##ują
króle
przestrzeni
jeziora
Em
##rei
koncent
konstruk
szkołę
##ńcy
##kwid
Tomasz
##rodzenia
powrocie
##king
zatrudni
Kiedy
##ciaż
przebywał
##znaw
##rator
##chów
XIII
##lig
drużynie
bowiem
Henryk
poto
bro
Prawo
##tus
##kolwiek
##ństwem
obozu
stron
miesza
##alnych
zawodnik
oficjalnie
##żar
młodzież
Wszystkie
dalej
##cs
służą
rozwija
kampanii
##zę
osiąga
cztero
Ger
zatwier
operacji
jeśli
zdobywając
##chii
Szwecji
Większość
##god
dużą
kapita
Ró
Siedzi
har
pola
##lna
##owskich
opisu
regular
nocy
mistrzem
##lców
##lec
dowódcą
obsługi
##leniu
##bio
speł
##wzgl
1910
stronę
zamord
##nieniu
##stycznej
zbudowany
jesienią
kolek
##styczne
##gs
rzędu
kolum
Championship
Mistrzostw
Mikołaja
##mont
Bożej
odwo
nastąpi
żoną
##lety
Jagiello
##dło
##minarium
numer
sły
zamku
##lizacji
Czy
Karol
nieo
VIII
zao
zwierzę
Zwy
urucho
##lomet
##nerem
1916
##osto
Kazimierza
##pp
##szar
##krot
Jezio
całego
##cona
##dom
##spa
długość
Pucharze
##łym
##nan
Zgroma
dużej
Wyższej
spędził
zniszcz
koszt
reprezentant
uczestniczy
ofer
połączenia
Sil
reżyserii
parlamentar
##noty
Klub
Oj
wez
Kas
pory
ewangeli
##dzkim
Węgier
wycof
72
##rzyć
Cla
budowla
owo
##szcie
Pale
finał
Polaków
National
Ost
##ront
##turze
##ceae
pojawił
Dwa
Gol
George
korzysta
##czania
Kos
przyrody
powiecieUchwała
##zją
przypomina
Album
Miejsc
##słowa
Społe
ogra
##bru
##ciół
epo
Rud
##wii
potrzeb
zmienia
Tim
singel
zwa
##jewo
##ame
reprezentu
##line
Afryki
przemian
##lić
ostatnich
##oni
##gla
Koście
fla
sami
dlatego
##rób
droga
org
napis
Hal
układu
##ction
jakie
Raj
##rzymu
odcinku
ochro
zob
Poza
International
Vo
##wości
Rumu
##brzy
##ise
córki
zwierząt
Część
bru
Kil
Zim
wyj
skut
160
Plan
##waniem
Wspól
PRL
poci
##zują
##szone
odpowiada
##lli
Że
##minu
szach
póź
dług
##nei
status
##dge
Angeles
Cal
far
PZ
IX
Niemców
przewodniczącym
rozp
##gni
awansował
tytułu
Henryka
zli
szó
1905
średniej
##cku
##atora
gości
pocz
##amięt
Nar
samolotów
gimnazjum
dekana
##30
łat
okazji
wynikiem
##chot
##lokaliz
##wiera
174
Już
zaprezent
120
doktor
##nta
pok
##łego
##fel
##iem
podat
##gosła
poszuki
##wers
##mann
##vel
długi
##PR
##dry
Bob
aktu
##dziło
Fl
##toni
soł
Techni
##cyfi
prosto
grający
Parla
##rest
##tania
Nato
##prac
##rio
milionów
##alu
##biter
zależności
kasz
oddziału
##ome
##mianie
dyrektora
##lop
Nag
Prawa
dziewię
dwudzie
charak
atak
##fikowany
Łu
##szewi
licznych
##szel
Dział
Obie
Swo
portu
Gospodar
wymieni
Frank
linia
Peł
podwod
urzęd
##rasta
szefa
##nictwie
Lek
##raw
lite
Rosyj
odszedł
Jas
znajdował
##rzał
papieża
Lan
##nień
oprócz
##grywając
drzew
minut
Uczest
Natomiast
##rzone
Ligi
góry
tygodni
robot
Ministerstwa
zaraz
##dziły
##rzyja
mówi
województwo
##ronu
##skał
odznaczony
dłuż
sięga
##czonego
Okręg
brata
58
Klu
okolicach
niektóre
##cjon
Władysława
##sek
Bir
rekord
Poznań
charakterze
zespołów
łac
kobiety
##sar
wzgó
lekkoat
##czonym
generała
Alex
starożyt
Frie
szkół
skutek
##olog
##tory
Sek
wierz
wych
batalionu
##lon
udziału
##nau
dwoma
znaleź
polu
związek
##skona
zrealiz
##ey
brat
Historia
Czer
odbywa
wystawi
##dt
niebie
##ury
Nagro
##żeń
##CA
opozy
Wojciech
kata
wypoży
uzyskała
pilo
cesarza
Król
skute
##lonej
podda
##zach
porówna
##urt
gar
##chosłowa
zakresu
##mami
poję
samolotu
regional
Olszty
jaki
##strono
funda
Hy
Wę
kilomet
poszczególnych
Portu
doj
Atlan
Records
1000
skon
Stefan
##larów
##rabi
##raj
##antów
chroni
##skiemu
znana
architek
##encie
1913
Grupa
Korpusu
uwagi
serwi
##stoku
##KS
Legi
łódz
gromada
zwycięstwo
Okręgu
United
wycofa
Franciszek
najniż
##atak
teorii
##gur
najpierw
los
meczów
Argenty
##ródeł
Igna
drob
Bogu
##głę
wygranym
napa
medale
chłop
Tor
Trzy
aresztowany
Danie
fron
##rol
krótko
Ali
##pty
164
bazy
Kolo
Met
##án
Związek
##wate
1908
tj
League
##łowe
pozostałych
Narodów
edycji
głównej
Ministra
klasztor
stało
##ziono
sąd
kano
międzywojen
##ciła
Nowego
India
##ległość
##ris
niepodległości
Krzysztof
##ish
inicjatywy
##jąć
wyniki
Spi
is
Polo
przewi
Prowa
chci
Katarzy
parku
Świ
emery
straż
Moskwie
Antoni
poślu
brytyjski
zlikwid
wyróżnia
XII
##ls
założony
brz
elementy
Af
##leb
począ
Min
Andrzeja
##ena
taj
Egip
pierwot
dolarów
uczni
źródeł
##AT
szkoła
druga
ucz
legen
Każ
pokonał
67
Obo
dynast
##cus
obser
każdym
##wodniczą
oz
Flo
arche
zlokaliz
str
standard
stosunku
##żeniem
drugą
Straż
Stary
tle
umiej
##ield
Grzego
Syn
##tka
##pital
Adama
##prawie
Ochrony
Open
papież
##tuje
Wrocław
1900
domów
zaczęła
Yor
pełnią
##AS
Stat
##owiska
zare
##ower
1911
siat
chwili
sztuk
##anki
stały
##miej
filmów
Zgodnie
ramienia
klim
Paul
końc
ukry
62
##riusz
kierował
##żego
Zbignie
##cjona
książek
##stała
170
sześciu
##litar
potra
rozsze
metra
##ścić
Rodzi
firma
Istnie
śle
powstało
##pływa
Royal
prawdzi
kopal
##żo
Mis
Pły
##bilit
anali
Stre
córkę
uzbroje
66
166
##ander
Ly
ture
##rzymał
okolicy
Funda
165
lok
Najlep
obron
##noślą
##mował
Holandii
##czer
##bet
##żow
156
##grafia
##ciąż
baro
##róg
76
##szyscy
Europejskiej
##cić
najlepszych
największych
Białym
##mus
stowarzy
Jes
ostatnim
trener
##śnię
interes
skom
##stej
porozu
167
Franciszka
zaatak
##uba
pseudo
bezpieczeństwa
bazie
##rabin
##heim
konkursie
##nnego
##krę
##dagogi
##ann
geografi
północny
##gię
uchwały
inten
Juli
Oby
kli
całą
Włoszech
##entem
całości
klasztoru
samorząd
##alnej
Towarzystwo
Litera
poniżej
Pierwszym
generalnej
moder
żony
każdej
wybiera
Edward
##ude
kadry
##fen
Rez
##gół
CD
##odow
##berta
##ctwem
super
oczy
##ott
##gor
tom
twórczości
Sko
ogrom
##deo
68
duch
zle
przywód
okrętu
##nnej
Pomimo
tamtej
symboli
##mierz
Zało
##styczny
środowiska
162
##cyk
63
##wskich
154
1907
swej
##tyczny
Meksyku
grupę
związanych
obroni
175
spośród
owa
Maciej
##des
źródła
holender
ono
##ałę
##nistrów
##mią
##niał
Jean
ugrup
potrzeby
dotyczące
zaledwie
##komo
Rober
Katoli
##los
##burga
rodu
##ON
##MS
formal
niemieckie
##ür
##perium
życiu
promo
##ziony
Sak
##ciąga
działał
ćwier
##rak
ogro
##spozy
tow
##tomaty
elementów
##sun
Katowicach
bryga
dystan
główny
czą
włoski
niewy
Peters
You
bol
##way
powierzchnię
Obrony
stanął
istniały
administracji
##niczym
pojem
modelu
dobra
poraż
##asy
1906
przegrał
##niowych
Aleksander
##nemu
##żbie
Ram
##sę
##cel
węz
##phy
literatury
rozbi
materiału
samolot
##ré
##ston
bitwy
##czyków
Cmentarzu
##atorów
Królew
Die
musiał
##vie
stu
Słow
Un
niewoli
wieży
Stowarzyszenia
Zd
weszły
×
funkcje
ustalenia
Wojen
znajdowała
Dodat
naro
##orth
School
bło
odpowiednio
71
utrzymy
każdego
##niesienie
osiedla
ślu
formy
władzę
zamach
politycznych
##ire
Fu
mikro
usunię
##zje
##ionie
sztafe
Biel
##ban
AK
##bow
##waną
van
##szona
pośredni
##mieniem
Mel
piłka
emigra
okupacji
Powsta
Divi
otwo
mieć
koszy
dawniej
##wien
##kowania
pojedy
##skutek
pali
##pem
Red
ostatnie
ton
##kony
##nizmu
silnik
##pha
Pracował
Bez
Michała
granicach
dziedzinie
obszaru
publikacji
istnienia
Ośrod
Tek
skle
##ins
dotarł
Mistrz
##kąd
Bio
##śnia
tradycji
##lent
Boh
##itler
licen
##ese
##arka
##czycy
157
zamów
macie
Geo
##stia
wydarzenia
włączono
nowoczes
##lasy
Kru
weszła
wyspie
##onuje
obiektów
Bał
Krajowej
Skar
pozbawi
##yer
udziałem
##mara
Art
Che
wyproduk
##stusa
74
Edu
bibli
##fu
wyścig
##niom
wystąpi
znanych
Medy
używa
znalazła
01
##xi
komite
podział
Mur
Szwajcarii
sak
##gium
poziomie
##nior
bł
Soli
Mę
1909
not
amerykańskiej
##riar
Ogólno
przekro
kanadyj
plu
##biega
173
energii
eki
Can
Elżbie
##ker
##częszcz
puch
Cza
ką
pracowników
norwe
Zarządu
##bol
Komis
Club
Music
##ema
##dziem
prezbiter
##unkowo
tymczas
rock
likwi
zareje
archid
odcinek
wojskowych
fazie
wszel
##bami
choroby
zarządu
konstytu
śla
##osta
brzegu
##cyjnie
budynków
ogłosił
##ałość
##natu
opuścił
komis
##niowe
skali
czemu
wrocła
grafi
Ponieważ
wielokrotnie
sol
kan
Rada
opiera
wysła
##cymi
##wad
Sim
odpad
Batali
Kielcach
##niła
##ówka
##sel
##łowo
zarządza
Chor
Wene
##niono
College
##ktry
1904
##eno
David
momencie
Zdoby
##nnym
prą
dużych
##kała
Hand
konsu
##konując
Białymstoku
rozkaz
Bene
##biu
163
nazywa
##ero
klubem
amerykańskiego
##kownika
ustalono
Kło
##szczeniu
prezesem
##rzyła
walkach
All
Pała
##ras
Festi
dorob
##rzymuje
ćwierć
rozgrywa
##nki
zwolen
przedmiot
##gby
Jos
imienia
przekona
metal
wytwórni
##nnie
tysią
ustawy
terenach
159
opis
gu
premier
zdrowia
##biego
zasadni
transport
Krakowa
##czen
##bat
punktu
##anda
Zwycię
rzeczywistości
zagranicznych
Czerwonej
zakończyła
powróci
##rowo
osobi
##stein
Niepo
##narki
Panny
##wców
południowy
Ces
##dzając
Buk
inni
uzysku
polityki
kandyd
##ges
##ląd
klasie
Blu
teledy
Wier
##polskiego
terytorialnego
##twem
braku
dywizji
##PS
Pers
przedstawicieli
przet
Granicznej
członkowie
święt
Award
Gromadę
niszczy
##dać
Stefana
egzemplarzy
##hen
zbiór
##rego
Budy
##rael
Bat
unie
zachodnim
obywatel
dynastii
##nizm
bolszewi
dziesią
bog
Podstaw
Miał
ogranicz
##pią
Sejmu
startu
siód
American
##mion
##tari
##manisty
zgło
rozm
odnale
amerykańskich
##rządzenie
przekaza
Posia
konserw
wschodnim
##stego
Zaj
##nowie
Johna
odniósł
##walerii
Sar
stylem
##miona
wytwarza
tramwaj
wpływem
##óg
wypeł
##torów
szerokości
##zia
##pania
Krzyża
Maryi
chor
skupi
włó
Góra
sprzedaży
zapa
europejskich
opa
zro
##wic
boi
nazw
##westy
##wiając
##ferencji
dotychczasowych
sen
Gimnazjum
Smo
Men
noc
sal
##hn
pisarz
Studiował
rzeką
##względ
użytku
Les
propa
podporząd
##zującej
sprawował
Liceum
Francis
152
##nikach
##ołów
Powiatowej
gromadzkich
synów
Ameryce
Chrystusa
##szeniu
Tru
seku
Roman
##ds
##chan
dzieł
Jac
ozdob
##śmie
więzienia
85
próby
##łej
##ryt
161
rezer
Vol
##ingu
Dan
##lanie
##dri
córka
mod
##tana
emit
Parku
profesorem
wewnątrz
komunisty
metody
Europejskiego
##choł
Mot
KM
kore
##yo
generał
##ownie
pw
pers
##pre
sowie
dosta
Politechniki
##BA
walczył
Pen
##skami
Auto
bel
uj
Ź
##tacza
krwi
kolejno
główną
##kowanie
Autor
Maj
Konkur
Niektóre
szczę
Wiedniu
zastępcą
wojennych
dyrektor
Białorusi
rejestru
zapropon
krze
batalion
Opera
mazowie
decyzję
rośliny
wystąpiła
Rock
##lla
wizy
Polskie
Emi
stoli
Głównym
administrację
Whi
Brazylii
99
dołączył
Młodzie
##leni
matka
oddziałów
##rozo
##letni
ciep
kierownikiem
własną
odróż
##szyn
likwida
upamięt
On
Wydział
##try
miejscach
opisa
172
gal
kru
##op
##iz
Van
Kier
reprezentował
Szta
post
drogą
prezent
innego
Hor
##stanowie
##set
załogi
##ralną
zaa
poseł
spek
James
Ara
płci
kory
##tki
wyru
przeprowadzonej
tamże
##ux
obsa
debiutan
##lity
innym
##spie
Phi
171
odręb
pomnik
gali
większych
##źnia
wybudowano
77
jedyny
Brał
Śląska
##nizacji
pułk
Kost
kompanii
##FA
##sona
##ralna
odzyska
majątku
##kowskiej
##omet
Kalifor
##scypli
listę
Krzyż
postanowił
Trybu
panowania
Jack
pozwoli
pamięci
Broni
96
promieni
##nicznych
Tadeusza
założona
moty
możliwe
Bibli
##owce
##ktorów
Sztuki
WRN
poby
Nacze
##bil
powietrz
##łos
wartość
Ludwika
169
psychi
Najświętszej
Fili
ogłoszenia
proboszcz
##trow
list
##łod
##kien
Uniwersytet
lider
##arda
potę
wymienia
##cław
Don
właścicielem
Mistrzostwach
King
minu
wysokość
informacje
130
jaski
##rzona
Ala
Michael
trzeciej
tą
reform
Pop
dobre
Gatunek
Kara
##chium
zwycięz
Sha
##dle
Fir
udzie
zabezpie
Robot
wstęp
zwyciężył
sej
porusza
umieszczono
następnym
Dal
Sob
##niejszym
kwest
##con
Bill
Pierwo
##ming
pomi
ćwierćfina
elektroni
odbi
podró
Sił
Ak
hipo
##jusz
##pora
##nieniem
Wew
inspi
naukę
trium
Należy
Sand
Sztuk
Are
##ięcia
Podobnie
69
najlepszy
##wczych
kolejnej
dochodzi
czer
należący
Projekt
Konstanty
Jad
docho
##ES
posł
##kowała
Powszech
##óbr
pierwotnie
odnosi
dane
kwalifika
kadłu
Land
sprowa
Pana
Del
serial
Państwa
cerkiew
powieść
prezyden
Mark
##iny
##zdów
posiadał
73
piel
##niona
Wielka
zamiast
mieszkal
Pracy
##szli
##muni
cza
Również
Mak
warunkach
ekspery
kolejowej
dodatkowo
##owcy
eska
zez
niemieckim
staty
dziej
środków
zbudowano
przebo
IS
tabe
zaga
Sier
stałe
##pach
##jonal
ps
dużym
##rzec
##fil
##miąt
gaz
współpracow
##cro
##szta
będąc
polską
firmę
zatytuł
społeczności
Kot
strate
roman
zawody
zła
##pel
przywró
poleg
funkcjonowały
liczą
##chen
barwy
nadzwyczaj
karabin
historię
##lor
Monachium
Bułgar
zwolni
##ełm
##amy
##zuł
wojskowej
Szkoła
atmos
siedziba
##lak
wypiera
Miejscowość
##lio
dzielni
wyś
zakupi
późniejszych
Trój
Marian
Historii
Lubel
Palesty
wiat
##fery
##gera
##styki
Black
komend
##órek
Wielki
##lita
Lewi
##han
nastąpiło
południu
##NA
Dre
Komen
realiz
podkre
##ych
pozostałe
zamek
uprawia
pałacu
taki
##wory
Źród
przejął
##nicę
styl
dywizj
powyżej
##mawia
napęd
##dnika
startował
##arę
intensyw
Ministrów
baz
kal
Góry
##cien
przeci
##nó
Latem
Leży
tworząc
trasy
##dzów
Utwór
hote
Far
pałac
ag
Sol
Pis
krzyża
##pę
##fon
powstanie
zmo
mąż
##fr
ó
Daw
##gene
Zel
##bine
pisma
84
podpisa
##rzeniem
filozofii
osada
młodych
##ąk
opowie
mistrzostwa
czwart
żyd
braci
##alnego
É
##ball
Ira
Anny
podaje
Sing
FI
168
Marek
dokonał
obja
folwar
##stitu
austra
##stycznego
x
##żne
jednakże
##ast
bran
malar
##prawdopodob
Taj
lewej
##gas
##ódź
Polskim
zmienił
fakt
uważ
Pon
##ostra
##owicza
perku
Poto
##ue
##owskie
81
Rzeszy
Jeden
##ściem
Szczy
koron
##pela
art
zespoły
MS
używane
francuskiego
pięk
mogła
Tech
rozwinię
1903
recen
plat
Jednocześnie
imprez
Blo
własne
ilu
Łuka
kapitu
##dzkimi
wyprze
##jona
unik
inżynier
Ai
nakładem
##lista
normal
97
Py
##nęły
Sym
god
bas
kontynen
Que
rozu
##wów
Brygady
młodzieży
identy
Szczecinie
78
wprowadzono
duchowny
amerykańska
Domi
rzeka
##dliwości
Martin
automaty
sekretarzem
##ves
bydgo
zako
międzynarodowej
##inga
##ksy
04
##zało
miejscem
obiektu
Pięk
Wito
chociaż
##cuje
158
wypadku
##stre
got
wiejską
osi
upadku
95
kierunkiem
Vir
mogły
skó
skrzydła
##rzwi
turnie
francuskiej
pacje
powięk
klę
##dzkie
Kole
##mistrz
katolicki
##andar
##nien
Nowe
Jeszcze
współpracę
##czał
82
używany
##edy
ner
orbi
Eri
##jeżd
UE
##stian
napast
##łano
stary
niezwy
potom
siedzibę
Luk
stąd
##ologiczne
katastro
Jezusa
as
wyna
kolejnym
procesu
Chica
zesta
##tny
ryb
88
zdecydował
zain
znajdowały
matki
raj
nożnej
sołe
linię
habilit
wskutek
pę
córką
##sport
społecznych
Jedy
obywate
bal
Około
##stek
mona
udał
udostęp
festiwalu
sześci
kontynuował
deput
win
jedynym
Monte
misji
##dzka
Włodzi
większe
pojawiła
dowództwem
Partia
Thomas
medycy
biorą
cześć
Festiwalu
walkę
substan
Rus
główne
##miny
NK
##dowi
##jskiego
poten
obowiązki
Pło
naby
organami
urzędu
05
zasi
Filo
pozytyw
##cek
##gum
140
##gio
##gorz
Zbroj
Administracji
##niesieniu
tekst
dawnej
silnie
Bet
podleg
większą
wyjątkiem
błęd
ses
formacji
##uszy
Polskę
##żona
Aby
Janusz
##łowę
Bon
Austria
stosunkowo
wybit
itp
olimpijski
szczególności
PW
dziew
zaopat
##logiczne
obrazu
pp
biskupem
usług
##szyła
##waku
Br
izrael
##kowatych
mieszkańcy
Grupy
wzmoc
##syła
Działa
##czak
zapewnia
Oficer
Dopiero
und
przemysłu
##dowych
cmentarz
Produ
australij
##prawdopodobniej
Gor
Rej
##alnym
sposob
koali
szefem
kryzy
Budow
samoloty
1902
##ash
Pomor
##dziesiątych
więźni
##http
wrę
wzor
dowodził
kształcie
cen
parlamentu
Wilhelm
Jakub
##kryty
lekarz
Radio
linie
propozy
##ówki
##kiedy
wciąż
interp
Richard
Stru
sędzi
Celnej
##rzono
##należ
Czas
niedo
będący
Norwegii
rangi
##gle
skąd
Kobie
##olf
##kor
Pres
nazwiska
##stecz
York
Leo
Drugi
bratem
##dowo
##owal
Spół
Pułk
kart
posła
##obój
wolności
wierzchoł
Parlamentu
Two
##vin
nomin
##gwa
najmniejsza
dóbr
odebra
granic
Jerozo
skrzyż
zanie
dar
ogólno
konkursu
##ney
Czechosłowa
trenerem
##wum
wygląd
cesarz
##szewski
Chicago
##owanymi
Rado
doskona
##ciera
##ian
##kingu
Sła
##wca
##tycznie
równoleg
##lacje
studyjny
terenu
ludność
przegranym
##ake
rąk
79
92
Licz
równa
Konstytu
car
Służ
Zato
przysta
tuż
Marcin
eduka
wystartował
##roz
98
Sre
decyzji
Peter
86
##łuma
##żenił
błę
##kowska
powoduje
France
starsze
najważniejszych
Lar
Kre
uczniów
Zygmunt
##won
Gli
wąt
warunki
##zar
##alną
Fal
godzin
Toruniu
Mazowie
prawej
Glo
krążow
Irlandii
Boga
ręce
terenów
ex
scho
Formuły
artystów
##siła
Gry
##skryp
##puszcza
Wer
##osob
uję
defini
##tain
##bliż
250
##gr
postawi
wygrała
kul
##dorf
międzywojennym
##kari
##ide
zostanie
##gy
##kownik
wyborów
Bernar
partyzan
narodowymi
statu
Izby
gola
##gencji
kultur
rosyjskiej
##dian
##vers
mody
zginął
zabu
technik
autora
populacji
—
systemie
naukowy
83
poez
dostał
Charles
##rur
##tic
ręko
Solidar
muzyczny
Letnich
nabo
magne
rządów
swych
Karierę
Most
##jnych
ostrze
ciało
głowy
##ctor
##ão
Staro
gospoda
późniejszym
rosną
1901
ujaw
##AR
09
PS
muzykę
wykonał
przydzie
archidiecezji
powią
##wans
##tyczna
Kal
Ken
##ętności
triumf
Odzna
##wiaty
Należ
91
móz
partia
##jski
Kolum
ilość
##czkę
wojskowy
Wojskowych
środkowej
celów
##WD
##owsze
Ul
zrze
kaplicy
##haus
Mikołaj
obrońcy
powtó
##sus
przeszłości
##cera
1895
wzrostu
bla
red
Druży
##basad
Pułku
podlega
uruchomi
rewolucji
Honor
wago
nur
Gwia
planie
cerkwi
Lam
##zny
##tował
##pier
Górze
ścież
kilometrów
##ałą
placu
tekstu
Gil
zbro
najwy
okręty
wypierając
##nawia
##chę
##mysł
##ryg
##lania
##bour
dol
Fla
opan
##nięcia
##inform
inwesty
Bad
struktury
146
Gri
fun
zabra
samochód
Rio
Ludwik
Antoniego
tajem
przeciwie
zbie
poety
##rzyli
początek
nieza
##ścią
flo
##ic
August
##spektora
Ren
Rosja
rywalizacji
153
Gromady
Fryderyka
Et
zwany
gminną
neo
02
najniższego
Sur
Były
przestęp
elektro
##onomii
płycie
##ugh
pojawiły
##czeki
wydanie
cesar
soli
doliny
skró
Kij
dorad
narzę
Kongre
Danii
obcho
telewizji
szeroko
sztafecie
##dygna
dą
Portuga
komisji
mieszkał
ulega
##dzał
ukazała
państwo
##kańskiej
Dis
północnym
pokoj
Wiktor
##ezon
Kir
eko
opada
grunt
##lany
##pisów
##niczne
seksu
##leś
hal
znalazły
Poch
Alba
##kiewicza
transportu
pamiąt
Augusta
Jeśli
fragment
zł
##osenek
Izraela
stali
ratu
wiek
spoży
przyjęty
Der
Rzeszowie
miastem
wykonu
przyjaciół
Fun
Morza
okręg
600
Generalnego
Cra
wysoko
Wielo
Herb
##jskiej
podziem
##cher
Bisku
problemy
Socjali
historyk
Cu
zdob
radami
piosenek
##mę
piłce
orze
##enty
Belgii
urządzenia
Sąd
##ör
monar
##sche
sumie
zmieniono
Europe
kończy
Mieczy
trzecim
oper
##lakty
wzrost
##przewodniczą
1898
warszawskim
protestan
##są
ery
pomocnika
Rek
##nictwem
Oddziału
rozpoczęły
##hire
##częszczał
##plo
##kowice
floty
stosuje
##zujący
rejon
znajdujący
seminarium
##cjone
niewielkie
110
Tymczas
##bera
Santa
Budynek
WW
wysł
##vis
##alna
kot
skazany
reorganizującej
znaleźć
porząd
wszyscy
wykonane
gromadzkimi
Piosenki
06
gaze
##kracza
##wice
##dencji
popeł
##niowego
założenia
Duch
związana
deko
sztabu
ir
radio
Reprezent
małe
Rumunii
ulic
ładu
dale
powiąza
Eli
##żonych
torped
##kształcą
Bart
potrafi
resta
apostol
opisy
Tem
silnika
służy
Przyja
##formacji
kosmi
##urę
wspomina
pracowała
Bezpie
wydoby
szer
bramek
podróży
zrezygnował
##sud
wojną
arcybiskup
##tnych
realizacji
##dząc
remont
twa
##stawa
Sara
obiekty
03
filmowy
Wali
Medi
149
Fra
##terna
sate
zastąpił
Stron
własnych
Ap
wróci
budowie
zachodu
Program
##czyński
Ję
największym
właściciela
##czar
prom
##niły
swą
Zasługi
Spa
żadnych
##stami
systemem
##hl
południowym
155
##tację
trzydzie
studentów
figu
Wyda
propag
marszał
##onę
##stach
##pin
węd
Imperium
grupą
obozie
##zel
Feli
następnych
tyle
dróg
zbiera
##mistrza
organizacja
##AP
poziomu
Ant
##MP
1897
Arab
nied
Zarządzenia
Alfre
połączenie
Cup
sum
wielkiego
zarejestrowa
zwycięstwa
##ofi
prezbiterium
Koło
Funk
ewaku
##mani
przysz
naukowe
wykaz
pomocnicza
##tyczną
Chin
##dzonego
##ER
nazwisko
##ов
##logicznych
##puł
Ph
ostatniej
##prawa
siedmiu
kompozytor
Gaze
doda
Urząd
Członek
tworzenia
Il
##kowskim
kurs
##owisko
zatrzyma
ON
przechowy
programie
Love
trasie
naczy
grzbiet
gier
sama
kolor
##pany
skal
Mac
zbudowana
Fron
pełno
lokalnych
produkcję
stanowiły
Oli
naci
kontu
Prez
wykorzyst
##tos
93
kola
##wiał
##miary
ptaków
materiałów
wież
publicy
##gier
Oprac
odcinków
opublikował
Długość
##twie
##zajem
węgla
##owiedzi
Słowacji
147
przynależ
##jnego
151
1896
Kanadzie
wywia
Brow
##ild
1899
##łowego
rundy
języków
Jednakże
800
małych
zobowią
##niosły
##ye
##tyk
edycja
Hein
boku
chciał
przełę
dysku
rzadko
małżeństwa
aktorka
pienię
publika
społecznej
http
Teatru
rozgrywanych
##jne
##eremo
dzieli
samochodów
republi
zaro
Jednym
gromadzkiej
różno
drugo
uplas
##piec
fazy
szlache
łączy
kost
ós
##cjaliz
Grecji
światła
prostoką
forte
Gran
wyt
zasady
94
spółki
piosenkar
##atera
kapitana
Vin
08
Louis
piłkarską
Odrodzenia
##gel
##alność
##owem
rankingu
Koz
dzieło
##szów
Departa
astrono
odgry
wielki
komplek
##wood
zarazem
hra
pobytu
dźwię
gle
któremu
##lenda
Komitet
##new
Zi
##czką
pomimo
straty
##bić
Kilka
##dnicy
Świętej
Dodatkowo
przewodniczący
Prus
Raci
piosenka
##zował
Języ
spoczy
dawnego
##dowa
##ńce
##chowie
sprawy
procesie
lekkoatle
##kul
granicę
89
telewizyjny
poro
Barce
jazdy
warszt
Wcześniej
zoba
goty
dźwięk
ludzie
śmi
Gam
##ug
##nda
##nał
miesię
##szem
##tycznym
malarz
125
Bitwa
uzyskując
ostro
oparciu
##niczka
prędkość
##enem
Max
##fera
przewa
tekstów
pale
numerem
Warszawskiej
##lnie
PAN
metropoli
Organizacji
##cąc
KP
Nagrody
imieniu
##wentu
pokoju
przechodzi
politycznej
ary
przywi
Najbardziej
całe
podod
szlak
Zbigniew
Bawar
litur
granica
##łom
Narodowy
powietrza
powstaniu
dowództwo
##śc
najlepszym
Zgromadzenia
##nicą
Wir
##ken
Ober
filozof
własnej
miejskich
pospo
sklasy
złożył
gwał
Ostatni
sh
Zamo
NS
absolwent
Olsztynie
sceny
Cas
dyscypli
przedmio
zadaniem
##OS
staje
##niejszy
Dziedzi
kapłańskie
jezioro
Współpra
Stowarzyszenie
inny
rezult
##czość
przybył
zakonu
##pienia
wydarzeń
Prace
Epi
statku
Inne
usy
##AF
codzie
##fund
##jąco
##kanów
##ńcz
Prawdopodob
##mand
##tymi
zaprze
##dała
##ring
1500
Świad
miejskie
koncentra
##mai
Wyb
odsło
domy
Oba
##prawę
8759
formę
Jadwi
serca
pomorskim
płat
##wskie
##romady
wiedzy
##pas
największe
##erii
TVP
ada
lotu
Kosza
chory
policji
zamieszku
fre
Mickie
##czach
##dzień
wydania
Pancer
Obywatel
wschodzie
bok
reaktyw
wód
Institu
wschodu
żołnierze
katolickiego
żadnego
##ktem
Cri
##szczę
pojedynku
UN
planeto
poeta
##Gromady
##rotny
dużo
przeciwieństwie
##cili
144
##AM
##own
Mali
piłkarski
sekretarza
Kad
Okręt
junior
miejskiej
warszawskiego
uroczystości
##młod
ziel
Demokratycznej
Sty
##pto
##kura
męża
mianował
płyta
zupeł
##tum
Cmentarz
Ag
Wit
drzwi
termin
wojewo
##niny
Roberta
księży
zarząd
osła
##conych
Zygmunta
cier
brytyjskiej
synago
angielski
##lesa
określi
ubo
majątek
wystar
Island
posiadają
demokra
reszt
zwal
ostate
cechy
przekaz
Prawosław
Łódz
Bli
nieli
powszechnie
##mą
właśc
gwiazdy
dziennik
ust
autobu
pozostaje
młodo
takiej
Kol
zano
socjali
Ya
Shi
##dakty
##zując
ryzy
Leś
wpisa
nadał
wikari
##stolet
##obra
Srebr
Ate
Wiele
##nicznego
marki
ordyna
##té
##łyn
stoi
##TA
zachodzie
relacji
##ond
Jezioro
Dowódz
instytucji
zremis
stworzył
Š
rokiem
##ista
##gatyw
parafialny
Ukrainy
##chowa
wnio
społeczeństwa
##ślad
terro
współpracował
wprowadza
Filip
warunków
sform
słabo
Główny
handlu
podstawowym
##kł
##cówka
Regional
Doliny
krajobraz
Euge
##tokrzy
ożenił
poinform
##atorium
otacza
którymi
kontroli
Piłsud
Państwowej
park
Bran
ustawi
przeniesiono
wiary
vi
nagród
Of
uczy
hodow
stosowane
##dzonym
##nęli
##mień
07
odmów
has
alko
##sługuje
powierzchnia
##list
##eme
rakiet
SC
##dziesię
przedstawiciel
##czeństwo
Wojciecha
odnot
front
Wojennej
1890
wszystko
##ologicznych
uznał
##sau
strzelców
##ródziem
zasad
ewolu
##mag
Bog
odej
zarzu
neuro
##ess
odbyło
lw
##niosek
ham
kup
cuk
##run
zakwali
magistra
ostatniego
żywo
Bezpieczeństwa
##wce
ły
swobo
##dmira
odzie
##dla
tera
Absolwent
hitler
wersję
żonaty
Hele
hok
##zeku
krew
zakłada
Mach
Sezon
Liczba
większej
pseudonim
##zylij
kło
##niczą
##ralnie
Finlandii
trz
współczesnych
selek
rodziną
##chami
rekor
parlamentarnych
##łania
Ameryka
zamieszkiwały
zaliczył
puchar
Korei
mogli
Med
##ceniu
Lite
pewien
Hali
##więcej
Bol
chce
magazyn
laure
wspomnia
gnia
szac
klucz
przeży
teore
el
Krze
niebezpie
premie
diecezja
Copa
pokar
biz
She
drogę
##dują
brazylij
##graficznych
142
budynki
sąsia
##pomor
##różnic
##cht
Ut
podejm
rządzie
ap
##wieniu
wojna
egza
zakła
##czeb
niedale
##jami
członka
Afryce
Fizy
ubie
przeprowadzono
znajdująca
Akwi
##tychmiast
##nistów
natychmiast
czasami
##logię
piłki
##stąpienia
Mora
##col
gda
pokonując
gospodarki
##stanu
##odo
żydowskiej
##nowo
Głównego
##rica
128
1863
Rzym
##stron
##mierza
##formaty
Lee
mały
Elekt
wyklu
duszpa
ośrodek
komunikacji
##ołem
Jugosła
Ekonomi
##szard
126
związków
Hans
##bular
świątynia
prz
szwajcar
koni
drog
ambasad
działanie
Siedzibą
rosyjski
Miesz
kaden
zazna
konspi
##zanty
podp
wydała
własnością
ss
Chinach
##ida
Rzymu
gabine
pojemności
##szyć
##dż
##cedo
daje
podpis
obronił
właściciel
podło
obserwa
##czanie
Edwar
Jakuba
miłości
minist
obrazy
widzów
płytę
##wiec
##jskim
Łódź
schroni
największy
spekta
prowadzone
Mało
filmach
dziennikarz
Wel
kadrze
Mit
Małgorz
##lonym
obronie
Grab
such
##będ
1889
Tal
emeryturę
##ben
mito
jaką
żołnierz
##mur
##honor
spotkanie
##niło
Socie
##field
Turcji
stopniowo
pierście
Gen
dotychczasowej
ćwi
Śląsku
Bil
Alpy
składu
##liana
średnicy
sieć
Osied
sla
oblę
osady
polityczne
High
zasadzie
Hall
orkie
##stycznym
##dney
pływa
zaczęły
wsie
stracił
##ień
spotkaniach
zastępca
filozofi
test
Chara
prezesa
##fal
Prawdopodobnie
##samo
zatem
chorą
dob
##lonego
lotnictwa
żyw
Łącznie
trwał
Wschodniej
Ran
sukcesem
##gard
wydzie
mówią
Stacja
warmi
królem
przedłu
##bl
Poja
dokonano
bramkę
indywidualnych
##atę
Armia
scenie
warst
byłego
dekanatu
Zako
wspó
producen
Ani
Podla
Paryża
wykry
nieprze
zwolniony
Wola
suger
bak
ochot
Gdańsk
Studia
takim
##zon
129
pięcio
Bas
##mith
nazywany
lubelskim
strona
pion
##istnie
##TP
##wiar
Wisły
liczy
##rzchnia
granicą
##udi
nastąpił
publicznej
Pięknych
One
napę
##stanie
Opolu
Sanoku
Ny
trenera
Grzegorz
##vil
Bul
osiągnęła
Den
Joseph
Gie
korespon
1894
ośmiu
przystąpi
tury
##board
##natora
samych
Sos
Tytuł
termi
wyraźnie
najlepiej
Bazy
bater
promu
##wić
Ji
##czami
##niejszą
krawę
##kowanych
Posiada
Wilnie
wiernych
ukończyła
pewne
##wka
życi
średnio
zginęło
rumu
grun
Marka
##hat
##eria
José
hipote
Esto
lasy
trzykrotnie
##macie
Wers
użyciu
problemów
uczył
ber
Pierwszą
Net
wojnę
synte
Sztabu
##tm
##ones
uległ
pogrze
kierownika
kompleks
Rem
czwarty
wykorzystu
##tet
##niak
muzuł
pozostawał
czu
san
##onstru
Oddział
data
Świąty
muzycznej
patriar
mężczy
Jacek
godziny
zdobyli
Kanady
zaczęto
skierowany
##pię
##rodziny
zajęli
maszyny
Pusz
podobne
gmach
zbrodni
XXI
teni
##stel
swym
południa
cyfr
występowania
przeprowadził
Bank
Francisco
##phi
1888
wywiad
czasopisma
zastosowanie
zbio
zadań
Kolejne
wul
##onymi
okazał
143
##oli
dyplomaty
134
##rd
walczą
jakości
sukcesy
fal
##ranie
Meda
karę
dziecko
dopływ
zadania
##lav
Foto
Beski
##uszem
zróżnic
wyraź
145
angielskim
gromadGromady
##uel
redaktorem
nastąpiła
pasażerów
##steru
wilgot
dystansie
okoliczności
układzie
szczegół
##rzej
fundu
wniosek
Wojskowej
klubów
szpitala
ceremo
poślubił
Poznania
##ppe
przeciwnika
takiego
1870
porzu
obni
występów
##taż
##regu
nowa
sklep
logi
ojcem
Hit
meksy
przyrodni
##elek
przeja
spotkał
szcząt
Wówczas
tabeli
osiągnięcia
##tonie
Psy
Bund
##szczeń
Cieszy
es
posa
płk
zasiadał
##dex
czarno
obecnej
Zawo
Linia
Ire
wewnętrznych
Zawod
określenie
##ume
konsul
zachodnio
brygady
Mem
największą
Prezydenta
##granicza
Mater
eksploata
dobry
Księstwa
Uru
porównaniu
mniejsze
Es
##wcze
wzięła
##edii
mone
figur
##bara
Powo
muzyka
właściwie
więźniów
Można
hydro
##dam
##ronów
duża
##pola
najbliż
Cre
Rena
##hal
proś
##lopedia
jede
Papie
Teatrze
##lią
Pierre
zmianie
najmłod
Osa
bramki
##ownik
North
Konty
zabój
technologii
Dw
hrabstwie
zdołał
##liński
##skop
##jeżdża
prowadzenia
Ama
śmiercią
##CO
##ńczyków
wzniesiono
Wtedy
Cur
##dziesiąt
##RD
stule
hrabiego
Sun
##komu
Gabr
tren
wejścia
SA
sekretarz
Ple
con
Wykona
Ewangeli
##ik
własności
skał
Wewnętrz
Pierwotnie
muzycznych
Obok
likwidacji
funkcjona
Radia
stwierdził
##niorów
wybudowany
##owic
Ryszard
Poje
spełnia
Waw
miesiące
przystos
Leon
przegrywając
mając
tytular
Fried
##tnym
pobiera
##tnej
rannych
Ogólnokształcą
barw
zadanie
NKWD
##TV
Jab
własność
rozebra
Got
1893
kwar
dydakty
kolejowy
##wed
oporu
konkurs
##dzę
obejm
Wilhelma
##czyka
prawnik
systemów
domowej
##lię
##mera
gracz
odbior
##pop
konk
Daniel
zastępcy
kierownik
##trzu
popularność
zo
krajowych
Mistrzów
słów
łańcu
gr
fragmenty
Hon
##skute
rozgrywki
tronu
sekcji
istniała
opisał
##spekty
##niowy
Natu
broń
##jeździe
pisał
##graficzny
latem
##lację
okazało
Jerozoli
1892
reakcji
Wielkie
drużyną
Burg
amuni
##strakla
Galicji
adi
utworzona
poży
reelek
##uti
upamiętnia
##pą
ochron
Bolesław
Ita
egzeku
niekiedy
językiem
syno
Polską
##przestrze
odcinka
szczycie
autobus
umieszczone
Wą
złotych
Chrz
Rezerw
trzyma
uhonor
##frastru
##utów
Wojskowego
grubo
Federacji
zatrudniony
##atą
raczej
Londynu
fał
Potem
##sji
##sing
kara
pojazdu
dowolnym
101
obwodu
wskazuje
spowodowało
zaba
sporzą
angielskiego
##sky
zatytułowany
##ktery
rysun
Droga
Przedsiębior
Gdyni
##miarach
studen
partner
##get
negatyw
##zą
Ari
##soci
porta
##olo
niemiecką
pras
zapis
prezes
stoczni
apli
dwór
katalo
sukcesów
##ważnie
pozostałości
tka
Tan
Buda
##karzy
##łanów
opuści
Manu
przeszła
kontrol
##pami
Peru
rozwiązania
Cru
Top
anim
Zachod
własny
##iss
124
własnego
pokładzie
##siaj
umowę
drzewa
profesjonal
paramet
ró
bronią
zaku
kontrow
Placówka
Powierzchnia
dzisiaj
##cker
Iza
niemiecka
uniemożli
wspólnoty
danego
##najmniej
##cial
popraw
wcie
##pki
Razem
otrzymy
141
wym
##tanie
uwzględ
uczestników
1885
jakim
wynoszą
uczel
liczbie
Mickiewicza
lokali
fanta
ówczesnego
##lice
Aca
wst
Muse
wyzwo
RF
##jnej
wszech
Sądu
ułat
##dzię
##berga
##ecka
nierucho
kiele
historia
przyczyną
127
ufund
Reprez
Rząd
##czce
##qui
##tle
strefy
reprezentacja
##antem
Navy
##ściami
Akcja
aku
trudności
białosto
zwiększa
przebieg
Pię
##rowany
morza
niedaleko
wyżej
przystanek
podg
toru
South
Seba
wymie
Premier
kolonia
Uz
hali
Portugalii
Lista
mil
skupia
reż
Lwów
dynami
brytyjskiego
pojazdów
górnej
zapas
##śnienia
mające
nagrob
następuje
Chile
znajdowało
dozna
Dor
zamian
##lane
Mecha
opisany
kaszte
cele
Metro
utworzony
ża
zabie
Młodzieży
##sil
##czają
##tacja
##ńsku
Starego
##zin
konferencji
Wios
kwiat
Szkocji
budże
kombina
polityczną
##czoną
1880
należało
##rodą
##goty
ślub
##tas
##gnął
Śre
Series
ściany
religii
imieniem
##macji
Słownik
otwarto
137
Chło
Każdy
samobój
przedstawiciele
dziewięć
rodzajów
Magdale
równocześnie
##wczego
renes
##lonie
Hill
kupi
Bay
panu
##nięcie
odczy
towar
wysokie
boga
##biła
miastach
Nico
Edwarda
Środkowej
##obo
posel
temperatury
##tacie
architektury
Było
przyszłości
Dzien
kilkanaście
##cena
##ella
##styczną
następnego
zasługi
Pałac
##okrotnie
zachowały
dokładnie
AS
##fikacja
statek
umoc
London
umiejętności
##nista
chę
##urowi
Ac
##owską
obwodzie
elementem
innej
Sprawie
Des
148
##kinie
Karl
139
##rzami
skra
Hei
budowa
ołtarz
##deks
God
obrazów
##ness
##mentami
##atur
artykułów
więzieniu
##ele
Św
morder
księż
umieszczony
Team
Obszar
get
kto
Proces
słucha
Deut
częstot
lasów
wnętrza
alterna
placówki
Ża
katedry
DV
zwyk
##dana
fr
##ranu
bó
Wybor
wieża
gnie
Lwowa
właściwości
105
1891
##wanego
##spozycji
wzór
##ić
##nicki
użytkow
Fri
odbywały
próbu
dawnych
wykonany
loka
adap
przypadkach
nadano
osoba
##płat
Prof
Badania
Białej
zachowania
eliminacjach
Kö
pozostały
##logy
dotąd
Katowice
##oz
Dę
doli
##wicy
Orderem
“
##żyli
legi
eliminacji
##dna
nominację
ugrupowania
##via
pienią
##nistycznej
##bla
Równo
Gło
##die
mani
stolicą
przeszko
drewna
rejonu
osiedle
książce
##strzega
##tał
apara
##szonych
Pełnił
garniz
##mas
##nału
##szyng
dysk
Maksy
oczeki
Bułgarii
##woju
toż
ofen
doro
różnorod
wiceprez
##nota
##sters
poglą
kontakt
stacjon
dzisiejszego
Skrzy
biały
pusty
praktyce
razu
Pedagogi
rodziców
##tną
Zachodniej
##ep
swoi
źródło
##dyk
napo
uwię
zjedno
Indii
mistrzy
wykorzystywane
Słońca
przekazy
obyd
opro
opozycji
Dowód
lasach
Techno
posiadała
Gio
##lizmu
danej
Zwie
Urzędu
osadni
portugal
PT
rynek
##naczej
##żnych
Clar
Kowal
adwo
kompa
##szości
rodzaje
koro
modlit
patro
##US
świ
indyj
opieku
środku
Tego
obecności
zmarła
##BS
Gnie
Federa
Mü
Nauki
##gowi
##atury
##ckiem
Andre
siedli
Ska
modu
wykazu
3000
##ui
Enter
##stość
##kański
die
pewnym
trwały
wielkim
istnieją
138
obszarów
##oro
Pradze
usytu
powołano
media
równowa
Krajobraz
uk
##jechał
autorów
niezbęd
kawalerii
takimi
##day
sos
Twór
Dywizja
szczeci
##rzech
wydaje
Ukrainie
dostępne
##zdo
swe
żonę
mazur
przebojów
##ffa
popiera
związkowym
##vić
wadze
Archite
pojawiają
Napole
##KP
136
Pamię
Pad
##ktura
goli
Celem
Produk
Przełę
presti
##nosząc
##hor
Kri
Zbrojnych
SP
##ée
Manche
Budape
paliwa
białoru
wywodzą
Lei
bezpośre
glo
korzy
słowia
zewnątrz
teor
oświad
##atunk
##tokhol
uważany
Bałty
praca
doros
wschodnich
##padł
##ienie
kosz
otrzymu
edukacji
Gon
śród
trwała
##ding
publicznych
najwyższej
komitetu
##hard
śpiewa
znanym
albumie
siostry
Szczegól
odbywają
##ira
wprowadził
##ruje
stal
wybory
dzwon
Up
Bundes
wybrzeża
założyciel
kl
stronach
służb
zamieszkał
francuskim
konkret
odz
Studio
##ky
##zen
Cat
##nieść
Testa
grę
artysta
interpreta
##niczny
Inżynie
122
Window
niesp
zamachu
##ceń
132
Hot
noszą
##logicznej
urodziła
neut
Associ
razie
Ruchu
naukowej
PO
##niając
historycznych
##chem
Syna
wkro
trójką
naw
wyboru
Dąbrow
inwa
##ccy
PZPR
literaturze
rosyjskiego
##torzy
rozleg
zasięgu
historyczne
belgij
strzela
koła
##dnikiem
rezerwy
pora
zamont
##omier
Mate
liczeb
przekracza
wywie
Kras
wyglą
##styczna
humanisty
##prowadził
##ryw
1848
Wybrze
wojskowego
##formu
ante
##ime
Czes
kategoria
wyło
pracach
prowadziła
kaz
spisu
Przemysłu
ranny
koncertów
##arki
USS
słone
Christo
pochodzący
wyszła
Zale
##założy
104
siedziby
Kub
zupełnie
fut
znaczenia
##fur
stacj
dystrybu
##gin
cykl
zwane
##uli
##kańskiego
102
Iwan
Sydney
dodatkowe
spadł
##ćmi
komisa
pracuje
##glu
##gród
pogo
Inspektora
Zakład
przynajmniej
Nu
plany
teksty
##łda
Zamie
##jawsko
powojen
##czyńskiego
##limpia
insta
gorą
wyposażony
##sten
Biały
1887
Abra
Obraz
socj
pięci
Pochowany
komórki
wypożyczony
Neu
Liber
##HL
treści
wydawnictwa
##mira
133
1886
profi
człowiek
przejścia
Plat
##kowanej
szpitalu
pomaga
analizy
brytyjskich
pli
trybu
deszcz
awansowany
złota
##OR
Istnieje
##bridge
nieistnie
krótki
ONZ
torze
135
Kli
mieszczą
##Ma
Kan
Wał
urat
dominu
Play
jury
zniesiono
opat
##dziesięciu
Jar
skoń
występy
dolnoślą
zamieszka
##fał
Barto
ulica
Company
brzu
stanowiła
##nno
Pin
##perów
nagry
komórek
##jor
narodowości
Johan
specjalnych
budowli
Amerykań
coro
##niczył
epoki
starcie
konfliktu
1884
zajęcia
##różnia
##witz
poezji
usu
wzajem
następująco
##gun
podstawowych
nasi
sprawą
##dzieli
przekazał
Pracow
majora
krajowej
Lie
podstawowej
słab
ogłoszono
krótkim
##drze
##łany
poet
wersje
##zui
now
##rzchni
##iach
Habs
Press
Charaktery
##cke
Smith
alian
orien
##arskiej
uczestnik
Centralnego
lod
kopu
francuskich
prowadzenie
zachodnich
Kim
letni
nawie
zaczęli
Zelandii
Atlanty
##lińskiego
##cra
Głównej
kolejną
oznaczenie
Kawaler
skoczni
Siedziba
towarzyskim
autostra
##cał
napędza
##blą
##niusz
##inte
Radzi
nic
wra
łamach
##chać
Gwi
mocno
gwałtow
połączone
##zaur
rugby
rozstrze
Jeh
silniki
##ía
koł
wydłuż
Fabry
##ross
Aka
sojusz
urządzeń
programów
##zania
dramat
Apostol
składała
odległość
rodzinnym
miliona
napastnika
otrzymuje
##óp
lekar
Żołnie
Powietrz
deka
metropo
specyfi
It
umowy
Czechosłowacji
##tak
##zione
1867
stawia
architektoni
audy
Nagrodę
##doch
Sum
131
labo
zwień
##ńscy
opusz
pilot
efekcie
##mund
##kształt
Szkołę
##kało
Antonio
Kasz
##jna
##tyn
wydane
##AC
pożar
irlan
znaczeniu
produkowany
CS
##sena
powinien
##TS
##kara
ben
przepływa
wezwaniem
Res
##lizm
##unku
prawnych
##dzią
##ffe
KOP
Wat
tryb
mężem
dokumentów
narciarskich
##vá
bizanty
lecia
podrę
zdra
przełoż
odmien
fabular
##giczne
Aposto
złote
##gdyś
jazz
namal
109
świętego
##zmem
Wen
##zjaty
Patri
komer
atom
zysk
strefie
##eksu
półfinale
kod
szkoleni
sand
##tonu
##zujące
##jek
będące
egip
##tropo
Society
regularnie
Pl
Micro
systematy
wyścigach
przeważnie
##ig
dziewczy
##neiro
widzenia
przydzielony
Dwuk
##leryj
##manna
1883
Dnia
mart
każda
reelekcję
##water
WP
otwiera
wykonano
##var
Dlatego
fali
gigan
samą
Ziem
##stokra
##ckimi
##liama
władcy
argum
wiejska
Tel
Pochodził
nawiązuje
##the
##żny
fu
zauwa
Cerkiew
108
##cks
nakrę
wojskowe
##tyfik
żeby
ministrem
##ques
okup
zała
nadzor
przetrwała
##lili
May
reprezentacją
##zow
Senatu
dot
Ostro
próbował
##ondy
Not
portre
kontynua
poświęcony
Poś
Oficjal
stanowił
należąca
##nental
chirur
Windows
działaczy
Anders
twórców
żą
Zespo
stypen
teatru
Sztokhol
formalnie
##stadt
zba
##cience
##biny
DVD
Ulica
kapitan
Hil
umiar
miesiącach
rosyjskich
##dion
Chan
Luksem
technicznych
##cyna
##nieśli
##stką
wiosną
należących
##stole
White
Bydgoszcz
magister
wojskową
Zu
nawi
szpital
Mes
szczytu
należały
określ
##mania
pogląd
wydano
Jeżeli
krakowskim
SD
##odręb
##entacja
tytuły
izo
adres
krakowskiego
##ulary
macierzy
kwat
podporu
Hum
alpej
wolno
techniki
chodzi
Dio
##ierar
Mała
zarządzania
zagrożenia
##grzym
Eg
##dzają
powodzenia
sportowych
sąsiedz
muszą
uznany
wir
Ye
##nili
ciał
grzybów
morskich
klas
Zakładu
##ID
##lé
Marie
Stara
dorobku
opinii
Agu
Waszyng
stosowany
Uczestniczył
##cjum
Ojciec
uzbroj
hor
kaplica
Jugosławii
##hausen
kolejności
prywatnych
103
Liga
zanu
dworze
wielkie
zdjęcia
##posa
przechodzą
Warszawskim
amerykańskim
ciemno
che
Zawodni
wyprawy
przyczyn
##owcem
##budowano
doktorat
##jki
generalnego
##cept
jeżeli
Albert
zapocząt
warszawskiej
Dawi
skarb
silników
pokaz
uległa
##mac
1815
Meto
państwowej
wyników
łódzkim
prezentu
##żach
zaplan
wspólnego
μ
Billboard
akty
światową
obecność
oprogram
##ciach
Jour
pozycje
zdobyć
ogół
##polski
Człon
Kalifornii
##zacją
kary
jezui
Miejskiej
Radzieckiego
##działów
Polacy
mle
Dzień
Jim
##pusie
Soko
gimna
skompon
zawodnicy
##rono
1860
amator
Ośrodek
wyświet
123
700
Odby
rower
jaj
##towej
##owszech
konfe
##ratorium
Uzy
##dniki
##ńczyk
Egiptu
cała
##rąg
deleg
Williama
prześlad
##bó
##ńczycy
Berlin
Wielu
mający
Ludowego
starszeństwem
Bolesława
##IA
odmian
krytyków
Sad
przo
imprezy
przygotowy
1882
lasu
spod
prestiż
zbudowane
Koper
matką
115
Floty
Świe
##wiązał
teologii
praktycznie
##jew
##sor
mni
lam
##tter
smo
##szczone
Położ
kierowca
##niania
Fundacji
##kse
wielkiej
##bela
powod
lokomo
wydziału
rezygna
Wolf
wid
zmianę
wykładow
stadionie
##dzieć
czytel
Jaski
dokony
własnym
widoczne
114
##owate
##ms
znów
Rodza
teraz
##cjaldem
##popular
duszpaster
Księży
##kat
##ądu
HMS
##niała
turniejach
Gminy
cyt
koryta
drewniany
##demi
##rant
Chal
występowała
##ture
1864
posłu
pozostała
wydawnictwo
stę
##polis
Kapi
rebe
##nium
spor
zastrze
Zachodnich
##MA
##wła
mak
Ministerstwie
rocznie
stadion
żela
##owiedział
poprzednich
pokład
żydowskiego
Ener
Wzgó
Mieczysław
hiszpański
Otto
##dl
Agnie
magazynu
trzeciego
wapie
wioski
##inę
kalibru
Ryb
hom
epar
Zamek
##leniem
brzeg
integra
dziecka
społeczne
Sen
projektów
dysp
Teatr
##grodzie
##iła
##ping
Sant
uzyskać
arystokra
dziejów
państwowych
##tali
Niepod
wywodzi
ligowych
uniwersytecie
##gieł
remon
istnienie
powiedział
##feld
##cielami
przewidy
Źródło
##spraw
towarzyszą
##eld
##amery
Leopol
##logiczny
Mieszka
przedstawił
##stor
armia
pociągi
Live
Domu
##logicznego
##żon
Bis
melo
Czarno
Jehowy
rozmie
doświadczenia
##omości
##szczyzny
arcybiskupa
Frontu
najlepszego
Międzynarodowej
Jezus
Wię
Niemcami
polo
zagi
gałę
płu
wykonywania
PL
Oce
pośrednictwem
##rey
amb
analiz
##łową
1881
Dr
niespo
królowej
przesunię
bohatera
Chrześcija
##zn
Ły
Tury
nego
##sztorze
##polskiej
SG
Marynarki
różnią
zatytu
przejści
##nor
wspina
zależy
Mazur
Gdańska
patrona
kujawsko
Organizacja
##szer
Dzieci
Stos
##listów
Śląskiego
wyższych
##wne
##pikal
rzeźby
źródłowego
##plan
Pową
masa
posiadłości
pisarza
2020
112
zremisowanym
##gona
wychow
statków
przewie
żu
##kowanym
zajmowała
##rowie
artyleryj
McC
gwa
##wanej
prem
tegoż
Formule
Strzelców
roczni
##wcy
znajdujące
architekt
##nom
111
muze
Wybory
Powąz
zwol
argenty
##more
Przyro
##isa
Decy
bom
##owników
ziemie
##kło
wzięło
off
Złoty
##czów
BBC
Dzieje
Legionów
umieszcza
Płyta
założone
116
Druga
przod
Kr
Kształ
wyrzut
wykonania
współczesnej
NRD
odpor
cmentarza
podrodziny
najlepsze
Green
##wiła
Stare
##gacji
eryg
##nowski
przeprowadza
##żka
gli
oddzie
Dub
tri
posze
specjalne
##cci
gę
Filozo
Zdzi
demon
zatopi
ściśle
nawiąza
biegną
następujących
grupowej
Nord
##drat
Mały
medalistka
pomó
Sakso
ile
Obiekt
Artylerii
Debiut
przyjm
uczu
Trans
Wierz
##cyklopedia
łatwo
##graficzne
Kel
złoto
otwarty
zdolności
godz
sołectwa
zachował
włoskiego
##robo
debiu
większa
singiel
set
##bergu
Izrael
biegnie
wielkich
MP
##dzielono
referen
##lau
##prost
alkoho
sytuacja
trzema
##fikowana
##grzyska
##wina
Dun
##czasie
Amster
wzbu
pozwo
gatunk
##chodź
znanego
##szp
liści
Wielkim
Mos
moto
Klasy
zabija
Przeciw
dziesięć
mark
pieśni
klasztorze
##niowa
##racja
mogło
ekspres
##zyn
med
##undia
Biura
obszarach
##krotny
dociera
kardynał
zę
chorych
zasob
Zawody
podwójnej
zyskał
Mają
niezwykle
przeciwlot
przeła
Katedry
ref
##nit
Gold
ewentu
zbiorów
elektrow
##gol
##stety
Jacka
KC
seryj
Boskiej
doprowadził
taką
Górna
Turysty
Tomasza
kalenda
##łąd
dostos
##uss
KS
Specjal
czołgów
Doro
senior
inaczej
##manie
długie
ukazało
Start
zainteresowania
Petersburgu
##czyzny
czynności
kilkunastu
Johns
Ky
Street
lekarza
serb
##urch
twar
Jen
Lor
Association
106
kontrolę
telewizyjnych
##hem
godzinie
##fic
metodą
piersi
wyodręb
koncepcji
Piłsudskiego
121
spółka
nieprzyja
##ois
##ient
##leya
##ęła
##lika
emo
zrozu
Festival
##alności
##owszechni
międzyczasie
Madry
dolnej
##nas
kandydatów
##sep
order
Sud
##uda
##niały
##olfa
podpuł
wyraża
funkcjonuje
Wrest
uniwers
##źnik
infrastru
##bój
Staty
należące
Łot
Life
zakładów
próbę
medycyny
wyspa
1866
organ
znalazło
##beth
sportowy
Haj
##cowała
święcenia
##chała
sprin
łączności
oświet
ochroną
Najstar
sądu
zasięg
dotyczy
##jon
Len
tron
Zagrani
częściej
naboże
otwarta
Śródziem
przodu
nazwano
Prin
pionie
stowarzyszenia
##niosło
nacjona
Swoje
współzałoży
PC
Stam
Krysty
zmuszony
oka
##andra
utru
Komisja
ośrodkiem
Polonia
##lektu
Fort
Az
nagrał
Mala
##wiło
bank
Bożego
cit
szes
Półwy
czwarte
dalsze
Jarosław
##lda
proboszczem
##ino
##tru
zamy
hrabstwa
##żych
##ninie
wile
opowia
froncie
niewielki
cha
wpisany
piłkarskiej
##mej
filmy
Center
krymina
Książę
zmiana
##ziem
samochodu
łyż
przemie
piłkarzem
Opracowano
spok
związki
Zakopa
Turniej
Może
natar
##cas
Jona
##jewski
las
zdaniem
##siół
formu
##łuje
##asady
Indiach
Gmin
ciśnie
hrabia
porucznika
poznał
zakłady
Cana
nazywane
rzek
Motor
zwrot
Informa
przecię
szerokość
wodą
dokument
przeno
Syl
Milit
oddziela
kolejnego
Koszalinie
zakaz
warmińsko
AC
##karpa
##indu
służbie
fili
uprze
##liwe
rejen
stworzenia
##żną
środowisku
rezul
męczen
zer
prefek
naczelnym
rezultacie
Prezydent
Lake
trwania
rozprawy
centralnej
Pry
żadnej
zdobywał
publicznego
Paula
##xa
##waje
Opie
Fryderyk
potencjal
wraca
wzmianka
wycofał
##ube
Sul
znie
Narodowym
Seminarium
turystyczny
ogó
Friedrich
społeczny
samot
##rzadziej
Ignacego
Has
boczne
nieleg
posługi
włączony
same
Eurowi
wynosił
odkryto
artykuły
##dowy
Nat
Człowie
oddziała
rozpoczynał
PPS
##asad
##cara
skaza
czarne
głębokości
##In
kursu
Bohater
kolonii
Wyspy
##ota
remi
Dziedzictwa
|
ogni
metod
mózgu
Division
propor
tożsamo
wydaniu
muzyk
Wrocławia
Agar
##karzem
##ín
senator
##anci
Rejon
ziemia
odsłonię
Rosyjskiego
szos
117
##rabia
1878
dworu
Janeiro
##cken
##bią
##mum
How
sejm
tyłu
dał
nosiła
skonstru
##nitar
##arium
Zielonej
starszych
zanim
News
dalszych
men
##ère
##soli
mianem
##dum
produktów
Swoją
stref
rośnie
##elle
dziad
opisuje
##dźwie
hierar
otwarcie
##niczna
białe
oparty
Istnieją
leczenia
recep
Tymczasem
przeznaczony
Model
szlaku
Rezerwat
dzielnica
Krzysztofa
stację
podobny
Ole
Woły
##ations
jasno
liczb
Museum
struktur
najwyższym
##kowanego
poświęcił
Law
Twier
##lewski
Medal
ścian
##kańskich
uzbrojenia
szt
##rotu
szans
##kiety
Także
BE
##idy
Pole
Roku
Sec
Reich
Przemysł
##aria
##dzoną
1875
Skład
sprzy
ryn
energe
bogat
wznowi
zagrała
Pła
Choć
czci
występujące
##ич
stając
dolinie
##cjaldemokra
##chorą
##ędzia
Łę
Brit
Uży
UEFA
Jesie
bułgar
##omen
użyte
##isch
##żono
Walter
niewol
redaktor
specjalnie
nazist
odnowi
wymiany
mostu
Najczęściej
Big
zakończenia
wywoła
##riusza
##arch
starszy
zapewne
piosenkę
pedagogi
mniejszych
##kowymi
rozciąga
przyjmuje
##wek
malarza
studiach
Wielkopolski
przew
szuka
kadłuba
militar
#
113
Rodzina
wygrywając
Ah
##towych
Rozwoju
przymus
Eurowizji
##nionym
sprawę
premierę
wielkopolskim
##powie
Dane
##niczną
bakter
powrót
Batalion
##rali
guberni
piętna
Pozostałe
##ric
Cro
myś
slalo
kobieta
określenia
podofi
klasycznym
Ministerstwo
wizer
tematyce
sprzedaż
kondygna
kryter
osobist
European
roda
cieszy
korzyst
wielką
listopad
powrotem
Lublin
średnią
Usta
tymi
instrumenta
##cyjnymi
##głow
##eni
wiąże
Wersja
podstawy
częstotliwości
##lowej
##uszki
koor
opóź
##ariatu
zachodniopomor
lotniczy
Institute
107
##kować
dziesięciu
towarzyszy
odno
powodzeniem
Lat
szkie
pułkownika
Biała
podla
Anth
with
Akademi
albumów
pil
powta
wykonana
przyznał
zaproponował
GP
Pomnik
alfa
zaka
ucieka
łącznej
Barbara
niegdyś
Piosenka
wielolet
perkusi
atmosfery
Biblioteka
Rosjan
miejscowych
Est
skraj
oficera
źródłem
wysokiej
strukturze
##wny
##ligi
dalszej
##licz
opo
Biblioteki
amerykańskie
zajmują
funkcjonu
przedwojen
przygotowania
oli
mazowieckim
Róż
serię
noś
118
But
wyrzu
światło
uplasował
podzielone
Kap
Główne
chó
material
składają
religijnych
granice
1861
1868
niepeł
sali
napię
Klubu
Dolina
##unek
Steve
współa
lotnisk
Fol
##mując
wystawy
Elżbieta
##eter
słup
Eng
Sin
Duchow
pielgrzym
Such
wrześniowej
Day
kwo
uznaje
Należał
##lich
##losa
##towy
rzadziej
1871
Kongres
dramaty
Katarzyna
Marcina
Wolności
zainstal
Wschodnich
##erze
##ścig
młodości
kompi
Berlina
książka
Litwy
nieuda
##mych
uko
##niczo
Rodan
doży
##elimin
Franç
ślady
żył
wybór
Maksymi
Pogranicza
Festiwal
małżeństwo
##mym
Ker
znisz
komendanta
zadebiutowała
##gos
Otrzymał
1879
manew
kopalni
politykę
skrzydeł
uczęszczał
##arski
Party
krawędzi
##nka
##jnym
taka
##stiana
książkę
zaprojektowany
##see
Chmie
##pienie
ważne
imigra
Philip
Trójcy
##magał
domi
płyną
Macedo
kompozycji
##ningra
strzel
redakcji
##lino
Ferdyna
Archiwum
cylin
Synago
udzielił
błęki
##niejsza
oglą
temperatura
##gałę
##arskiego
szkolenia
okolice
językach
##party
##wanym
##czeni
Starym
liczył
sekun
poparcie
##stina
##szeniem
istniał
rodzice
świętych
marynarki
##obserw
Jagiellońskiego
##PA
Nob
wye
##cyjno
Zimowych
119
Nas
biznes
fos
nawy
Giovan
##nickiego
##czało
Zjednoczone
materiały
##decyd
Korpus
atrak
Sub
ryce
##wica
asystent
powstaje
PKP
sma
Łom
małej
trasę
dworca
wzięli
Syrii
delega
prowadzić
Kin
Sobie
##gg
nam
stanowiło
sesji
oddziel
używana
##niają
##niebow
Cztery
sandomier
natury
pojedynczej
mnich
bohaterów
AG
##kując
Argentyny
Maro
1869
sztuce
Tatrach
Wiadomo
prototyp
finansowych
##dzin
przypada
##oły
harcer
Jamesa
Zarząd
mierze
kilkakrotnie
swoimi
selekcjone
ukazu
##reżyser
##atry
pana
Wyniki
jeńców
East
Tay
Kościele
##ust
indywidualnym
Č
Leonar
##kono
topo
bet
##stern
gład
usługi
wykładowcą
galakty
##rm
sprawach
Fina
##reszcie
Wiosną
ścianie
asystentem
##jka
frontu
##ned
stadi
Rak
liceum
rejencji
##biscy
Indian
podjęto
trzecia
pierwszo
produkcja
##nóża
##ronto
dopły
wyposażenie
Słowe
Najważ
##dzką
##koma
##bourne
##wardii
gor
postanawia
Coun
transfer
Izrae
substancji
podstawowe
znaleziono
htm
##cowej
Badań
niena
podwo
zwycięstw
włoskiej
znak
Arth
olej
ówczesnych
ocenia
Wystąpił
wykorzystuje
arenie
naczel
rozwij
rozstrzy
Przedstawi
Mus
##zująca
wicemistrzost
żaden
##bier
1865
##ńskimi
śmiertel
##ett
##stracji
przystąpił
wiadomości
Serie
ognia
rodzinę
przejście
Pew
Koła
##paty
silnikiem
jedyną
następcą
rozprzestrze
Son
uzd
##atami
Sopo
kibu
okolic
aktywności
##low
zwana
##tując
##riuszy
reguły
unika
Drze
Banku
biała
Profes
##ae
Hun
Woli
Rewolu
miastecz
użycia
zorganizował
większy
wyelimin
##gwaj
Woło
stanowisk
konsekwencji
Dą
Toki
szkol
Bos
nauczycielem
##shi
Cyp
##nasto
Oslo
Journal
1872
##onoś
rezerwat
dopuszcz
Państwowego
akt
1873
Małe
gminnej
##ima
Stand
wykładał
utworzonego
1830
nazywana
Cle
Posta
##ZS
##cjom
udziela
miejscowej
skoku
powodów
twórczość
architekta
wyposażone
Ev
hab
stosunków
wodę
wsparcia
##pali
Bło
Wspo
Awards
żywności
bul
poż
słowo
##ario
##tainment
przystan
Musi
Materi
planu
##bem
tan
Bach
Miło
##szę
kpt
drukar
##brew
##stus
Lech
Książka
repres
przeznaczone
Eksp
uzyski
wodnych
procesów
##top
Szczecin
##bury
##rzeć
sprawia
wyposażenia
##towa
biało
bokser
##wolni
wokal
##rzyły
Miejsce
Edukacji
występować
Song
rękach
Jesienią
niewielka
osobników
akademicki
wymar
rzeźbia
zbrojnych
leż
ost
##dnych
wskazują
##olu
ubra
franci
zwraca
##iną
##usch
ogon
Divisi
nauczania
UW
Vil
##tyzmu
zada
Rzecz
obywateli
##owemu
cieka
Rub
##żyły
Jastrz
##jr
dzier
powyż
wysied
##ńsk
tenisi
emigracji
##widł
Bost
Kolonia
sąsiedztwie
publiczności
nasa
Harry
Lotnictwa
Współczes
WWE
Szyb
Floren
Nan
Cambridge
luk
##chowskiej
alternatyw
odpowiedzialny
kwadrat
wek
Stany
rozwoj
##mił
##wiły
wyz
1876
przeszło
zachowanie
Mid
motyw
dziewią
trzecią
##yne
rocz
kanale
spotkać
zmniejsza
##gua
##tani
Hart
kontek
lepiej
Osiedle
##boga
Kami
Wniebow
mających
##nos
##pisuje
rozegrano
Wes
Lubo
strategi
##nicach
##wiast
dekre
chrom
skalę
zaawans
starszego
##uf
##lad
jo
bywa
podoficer
Wood
konflikt
##TK
##dysk
##asada
koncerty
niezależnie
cu
pośmier
##tten
##kówki
późno
##ancelar
##ica
1877
##enos
elek
Życie
dotarła
działała
restaura
Amé
pieniędzy
medi
*
##wań
dekora
zasied
Reda
Scott
miłość
konspira
##łam
młodego
owoc
wystąpili
następne
wiecz
Konserw
Ozna
ziemię
nieja
ustro
zmody
Nea
##bienia
##łowski
##blu
wejście
muzyczne
zakry
fabryki
##oma
##żąt
moskie
śledz
States
rozpro
Kolegium
porozumienia
Laure
upły
kluby
wyjazd
##szewskiego
pkt
Stanowi
##12
Wyko
Szkół
startów
stosowania
##ktorem
Księga
##deksu
siostra
chary
##rześcijan
Przyczy
qu
Joan
piask
zakwalifik
wykorzystywany
osia
Group
przeniosła
Show
Virtu
##EN
##szczyźnie
emitowany
greckiego
##kir
główna
##damie
wybrano
postanowie
wykładowca
Śród
sezony
znaczne
Czechach
zaak
Jedna
zniszczony
Tr
przepły
odróżnieniu
##nier
narodowego
średnia
rezerwatu
chrz
standar
kamienia
kompleksu
ow
##brąz
Awi
bun
Palestyny
sprincie
Świątynia
właścicieli
uto
Dostęp
ówczesny
##logicznym
powstań
przedost
sezonach
olszty
##sięwz
wolność
Strzele
koncertu
okład
Święto
najdłuż
obserwacji
Katarzyny
naukowego
konferen
##cum
myśl
szkołach
er
##rent
sprzed
SK
alba
żyje
Zwycięz
Erne
Komunika
napisany
MŚ
Cli
radom
kontakty
Juan
Chemi
Radom
skokach
Entertainment
dojrz
wprowadzenie
##ladel
Pogo
wodzie
biskupów
poparcia
polityczny
House
obecny
Francja
##EC
pedago
średnich
##dela
##tina
Słup
ubiegał
Prowadził
patrol
punktem
najpopular
Aktu
##otball
Śląsk
debiutancki
##nian
##dynami
posie
rosyjskim
1831
zgrup
uzależ
Syno
bracia
partie
zapisa
charakteryzuje
Media
##wicach
zniszczy
Night
oddano
otrzymali
zawodowych
Sku
blu
##phe
PG
##ther
Stadion
katowi
ubezpie
##gaż
##grafię
końcowej
Ori
hol
Klim
wieloma
lokalnego
##nionego
##niane
plac
podgatun
##uer
postacią
##pet
graczy
wał
##kwizy
Book
scenariusz
##goryt
przyspie
##tany
##bile
turystów
stwierdzono
BM
##hama
federacji
##wald
znajdujących
rzę
zawodu
wojskowym
##łok
firmie
lokalnej
fik
mły
Davida
pilota
Pil
eksploatacji
##liła
Andrew
Średni
Medalem
węgl
głosu
wycie
gościnnie
niewielką
##iara
Zadebiut
##towe
Miro
pociągów
##manów
aktora
##stały
Paulo
Zofia
brzmi
##rzonych
powołał
São
głosi
##graficznego
bierze
Prawosławnego
ciężkiej
prawem
politycznego
##ror
Bara
zbiory
mniejszości
maryna
wychowan
dostarcza
Występował
##wiąt
##ione
czwo
pismo
górach
węzłów
procedu
wroga
dziedziny
Przyjaciół
##wską
pociąg
przygo
wyniosła
uzyskania
pieczę
rządy
Wacław
dostępny
Dż
Agen
Dari
odleg
##dowe
żelaza
Katy
Ped
##beryj
Sali
##uropej
##prowadza
Niektórzy
przegrała
##stii
Wawrzy
korpusu
pieniądze
północnych
międzynarodowe
etapie
katedrze
Gr
##łała
ważnym
decyzją
najstarszych
powinna
Kolei
etap
Som
##gwaju
##styka
Mike
Pozy
stóp
tygodnie
sprzętu
Sami
role
Dywizj
zakończenie
metry
zlecenie
najwięcej
Środowiska
Zgi
nosił
dostępu
##dol
Konstantyno
przyjęła
DP
Roma
poprawi
##blo
##andor
Bory
Male
Budowa
##cky
zdał
nerw
nadwo
reklam
wydziale
##RC
##ington
Trady
pochodzenie
kwatera
Świętych
##asu
Bak
kape
drapie
drzewo
otwart
gole
liter
nauczycieli
##liki
##zior
##westi
siłami
##cając
zmieniła
kategoriach
##kular
półwy
wysyła
poznańskim
wzniesiony
##kują
pri
europejskiej
##ings
wcześniejszych
przebudowy
##ffen
radzieckich
odziedzi
##łąb
##erów
##etry
##owuje
wodach
zabitych
##cto
Kwi
Poni
pochodzące
stosunki
miejscowością
##wodaw
Chociaż
Brygada
rocznicę
obóz
##ficjal
odbywał
doprowadziło
Reprezentacja
##lizowany
fer
oficerem
wnu
##eta
malarstwa
założycieli
Ford
ptaka
##esy
eskadry
1874
##aux
antropo
perspekty
##iów
Regu
Nagra
kredy
wyreżyser
dosł
sportu
##fikację
wyprodu
##penha
działalnością
podjęła
autonomi
utworzenie
Blue
strzał
otwarcia
połączeniu
##GB
włączając
##óstr
uchodź
płynie
Hie
##wczej
line
geomet
Frances
Pró
straj
Marszał
przydom
Dam
hip
##wień
##wiony
komplet
producenta
Moskwy
Montre
Walki
##unkt
Okres
korona
śmy
koleg
dorosłych
kampa
żydowskich
Mah
opracował
efektyw
##hou
play
Blan
piąt
Toronto
##IN
Lau
serw
wzmianki
##oseksu
brytyjskie
##kowało
lewym
##polskie
będąca
środki
Rugby
przysiół
zaobserw
kolekcji
Pacyfi
Chorwacji
występujących
północnego
Socjalistycznej
##iu
Nied
chorób
sprzedał
wyspę
##eja
Przykład
wojennej
rolnictwa
##kowskich
koalicji
małżon
Wej
stanowili
##ан
biegów
##urs
ryby
uznanie
związał
podkreśla
wytwórnię
zawi
##nianie
Sprawiedliwości
##soft
spal
tune
Renault
decydu
##chaft
##nowskiego
Wspólnoty
##jer
Rozkaz
ekspedy
wicemistrzostwo
##reś
głowę
Zdobył
nominowany
Włodzimierz
Mły
zgody
kanał
zachę
##FC
Tygo
cerami
##owując
obrze
południowych
piąty
##ślu
##rzów
Wyzwo
Kwa
1862
##ull
Buenos
zakres
eparchii
Hut
forty
oceny
lotniska
kościołem
ówczesnej
zainteresowanie
dę
śnie
odwiedza
Strażnica
humanistycznych
##gana
seg
##ferze
Mans
##gow
##tyków
idei
wyznania
##sera
wodo
Studium
środowisk
##nese
uznawany
##więci
dzielą
wysłany
kolejowych
Rozporządzenie
##ujące
Zdro
Colum
strzele
##inicj
mięk
inskryp
Aires
Teren
Grzy
Olym
skóry
Serial
rozpoczęciem
##fizy
##eryna
zwierzęta
wad
Rośli
NBA
sejmi
wyjści
pochodzących
Band
powrotu
##odor
sekund
singla
wsparcie
pseudonimem
grać
wysunię
królewskiej
##łek
Fede
efekt
##okracji
przesłu
Ignacy
bojowych
..
Gö
informaty
zobowiąza
...
najnow
##mona
intern
##lego
konfi
opieki
dostrze
symbolem
całość
nagrania
przejęła
członkami
Oh
Lang
minucie
Ukra
spokrew
komenta
organizacje
poprzedniego
skrę
Jednostka
pacjentów
##mino
Opa
tat
klat
Konfe
##mb
##mes
przedsięwz
##urze
napraw
Metal
przykładem
##uj
##szczony
Złotym
##utor
pułkownik
wschodnie
##łk
Dęb
włók
wokalista
##ua
afry
żywi
wyższe
Rę
funtów
zbioru
najwyżej
Cheł
jaskini
sprzeci
policj
proboszcza
##gine
przebywa
kościołów
##ława
wyemi
##vice
Holly
stabil
pełniła
zachodzi
pokarm
przyłączono
bil
uchodzi
graniczy
Magi
##conej
##ement
##harmo
wykonanie
miejskiego
##kto
Young
kosza
repor
pomnika
urzędnik
drużynowym
##biec
architektu
sztab
nauczyciela
##tatyw
Chełm
Witold
Sztokholmie
##ump
muzułma
ostatnia
##dnienie
okolicznych
##ars
##rop
##stwu
##emat
Młody
Zabyt
zbiorach
utrzymanie
etno
Best
##nionej
Brook
##pom
##rok
osobowy
Firma
kontuzji
negocja
spoczynku
obywatelstwo
okazała
spoko
głosowania
Haw
Doku
##gania
##kanie
Front
rozgrywane
alu
5000
złożone
Walen
##sio
man
rycer
tygodnia
osobiście
##tico
Męż
Ocea
base
Gazeta
doktry
przebiegu
ewi
Komor
Klemen
czarny
prawidł
posą
podwyż
wierszy
##hala
Nowi
##koznaw
twórca
Wenecji
British
homoseksu
drugolig
administracyjna
##ita
Pojezie
portalu
##kos
Kierow
Reżyser
księstwa
dzisiejszej
Dyre
kuli
naft
piast
teolog
badaniach
##ulu
##wczym
1842
Nigdy
zastosowano
##unki
Boy
##wiński
utworzeniu
organizowane
##demię
##ronie
szwad
##niowym
naukowo
czwartej
##gura
1827
lewo
habilitowanego
Bus
kół
Williams
przylega
##kanem
sprawiedliwości
inż
##ratory
Junior
zachodni
intelektu
##hana
rozgło
burmistrza
##bon
UC
wicep
zabudowania
Wewnętrznych
zgodę
Synagoga
Szpita
komedii
udaje
awansu
inżyniera
święta
##fikowane
korpusie
##żając
Adolf
zmaga
stosowana
##dis
rys
stołe
bokach
medalu
niewiele
Święcenia
zastosowania
##ZSP
##czników
nagrany
Tokio
odmówił
##19
naru
wytwo
serwisie
strukturę
##kina
Time
saty
GT
Jur
osło
##sat
reper
grecko
Katedrze
##onald
parę
Elect
##marańcz
##minacji
Johann
odmiany
Węgrzech
zamieszkuje
zamordowany
Ath
Dwo
fizj
szan
Racing
miesiąc
nazwany
lekkoatleta
Gir
przypisy
zawierają
elementami
##dai
chorwa
książąt
pomieszczenia
##tech
bitwa
podobie
skompli
##ESCO
samodzielnie
##omość
jądr
patrio
prawym
Ostatnie
Hong
wpływy
renesans
znaleźli
dało
wielkość
Australian
División
Matematy
zawodnika
##usze
dobro
Joe
wskazy
zakładach
##gara
udo
##miarów
systemy
struktura
##oty
Ster
den
strz
zwróci
##fak
Carl
wkład
metalu
region
bombard
##idal
Apo
wymu
##kowali
postul
wzboga
pocisków
powróciła
lotniczych
dokumenty
naturalnych
wskaza
uruchomiono
ciężko
dyspozycji
##grad
odtwo
motocy
szwedzki
wchodził
Muzycznej
rozbudowy
średniowieczu
mała
##europej
silne
fizyki
Jazz
Proto
zdjęć
przetłuma
Gard
rzemie
wychowa
Premiera
##kseli
spadek
##rzach
rodze
muzyków
twierdzy
##ISU
##solu
##roniki
Budowla
ostatnią
Ox
##szeni
State
Największe
Leg
Mołda
kanału
##wencja
Kraju
Wielką
cud
podwodnych
wykształcenie
1800
liczbą
równolegle
Typ
sędzia
klubach
osobą
władza
##zujących
Pańskiego
otrzymując
datę
inną
pery
szeregu
##tw
zbrod
uważał
gubernatora
południowego
##szyna
Ochot
wygna
##PN
##wary
zarzut
generalny
rozpowszechni
More
woda
##kowaną
River
różni
członki
małą
Psycho
ofiary
warstwy
bocznych
Nauczy
pojęcie
##lea
##dykt
wer
##owisk
##kowate
wyprodukowany
Legen
pracą
UNESCO
gwiazda
postępowania
##dny
reg
bene
nale
zdrowo
lesie
Wietna
wysłał
wysokim
Ö
kina
Gusta
jezior
mobi
##asadni
transpor
letnie
dziedzictwa
##etro
podt
##gresyw
miarę
ksiądz
trzeba
krótkie
odpadł
wysokich
##mel
masie
jednozna
wspomaga
##rował
błogosła
Biblii
Zasłuż
##RT
wątpli
bliźnia
rozwiązanie
esk
posłem
działający
##cri
wersjach
Stronnictwa
Departamentu
Meta
Waty
graczem
##rzyło
##łub
##rady
pomysł
danym
festi
wyruszył
##szeń
Was
##eckiego
Gun
show
Urodziła
Kawalerii
##nowy
Michaela
kandydował
środkowego
zniszczeniu
radziecki
prezydentem
##skrzy
Ron
francuskie
gospodarczych
1846
numery
##niczki
Dek
lar
kolar
bły
uru
Berg
Leona
##zor
les
szczątki
Śląskiej
przyczynił
przestrzeń
SL
sin
1859
manu
wsią
astro
zawodową
##ATO
##wis
##ZSPISU
brązowe
BEZSPISU
rozmowy
kilkadziesiąt
tytułów
dywizjonu
kardynała
##nną
André
linią
diagno
Serca
armię
przedmie
trening
dokumentach
##wcą
dyryg
koncie
Bronisław
fotograf
przypadków
umieszczona
karabi
biegach
##stle
##jęcie
odde
londy
plemienia
wprowadzenia
##pl
##rowej
Mand
uwol
major
obecnego
Christian
Brak
##far
waha
wiąz
klimaty
Out
dora
wynalaz
PWN
##komen
Obej
Morzu
piw
lecie
położonych
kas
egzamin
finansowe
turystyczne
konieczności
##sług
Grał
taks
Przyby
wystawia
##bej
Włochy
koloru
naprze
zdobycia
szlachty
wykonuje
##view
Wile
narko
współtwo
dachem
czasopismo
##nito
Ewa
głoś
Okręgowego
gleby
Cali
ira
##cana
Kory
from
płet
czerwonym
##vent
##lotu
##wsko
ofensy
##lez
OS
Dawniej
mez
Force
stanów
uchwałą
poł
Barb
Biuro
Iraku
karty
spada
##mego
ogłosiła
##stali
##niusza
społecznego
##itz
Long
krwa
stałym
Puszczy
RFN
##cjusz
##chta
##ters
Arme
radykal
komendant
niewielkim
hrabi
wystaw
angielskiej
##mun
papier
postacie
Rat
Zab
studio
tworzenie
Gua
##mentem
Pacyfiku
ukształt
wybrzeżu
##nikom
poglądy
zmarłego
teledysk
Najwyższy
Clas
oparta
rosyjskie
programy
han
tarczy
wyemit
pracownikiem
##hof
Rey
##lidze
##onami
Soju
Augusty
szar
##tać
generalnym
Kopernika
wspomnienia
##mini
Dale
ścisł
ucieczki
##utej
Pic
##stapo
##steczka
nieruchomo
##ienia
Dach
sprę
mechaniz
nazwiskiem
##niany
zdefini
traktatu
##ńcem
Dum
Filipa
osiadł
prezydenckich
Kijowie
Sel
dło
gazety
##chia
Tony
ziemiach
##ologicznego
##sławie
oparte
branży
naja
Największy
niewielkich
Wych
Alber
##cou
##kum
Isa
##ciami
Dziel
folwark
Powszechnego
Tarno
brała
Spośród
sytuację
otrzymały
autory
daleko
Var
smu
połowę
##cowe
słod
Felik
zjawiska
robotników
hek
symbol
wyobra
plebiscy
międzynarodowy
promieniowania
##źmi
Włocław
Pocz
korea
##wiercie
eksper
prostu
Białego
projekty
mete
Wyspa
starego
greckiej
rozpoczęli
ano
##rzysty
inspek
planów
potoku
przedmiotem
nieko
inteli
gospodarczej
##psy
##dina
ekipy
popro
Bardzo
spowodowały
jakich
przekazu
ustanowił
Praca
biega
lista
utworzył
Centralnym
##dnej
chór
##szonej
##podal
umiesz
przysię
porośnię
wojskami
Wój
obszer
techniką
wykształcenia
mnie
Żona
##sey
##ulti
Moskie
niepodległość
Dur
##dzielni
Budapeszcie
ger
Sala
rozporzą
##emy
woli
Nikoła
archipela
położenie
bloku
osiągnąć
##szk
##bija
tzn
##ałach
Jones
kierunek
##RP
ole
wodzą
organy
stulecia
pracownik
Pire
zwanej
Zajmował
ekstrakla
konstrukcja
zbu
wagi
Chrzci
dzieje
Yu
Ern
Siły
##ombard
Inspektoratu
Times
ojczy
wybrzeży
dziewięciu
konstytucji
Personal
komendan
##fin
##gią
##spu
apo
##rowane
Fle
##wione
Właści
Solidarność
##pka
stale
widać
trafia
##skutecznie
##IC
Mir
moderni
##rost
Róża
Joanna
General
jednostką
powietrze
Zb
##less
##órka
##derniz
populacja
##aryn
Woł
Zen
posił
muzyką
Harcer
kwestii
Lui
##jskich
składał
wystrze
posłów
poznańskiego
medycznych
Sus
Gram
##rzymała
reorganizacji
mięśni
##piel
podmiot
pokonała
zachodnią
Żu
1850
uzbrojenie
##Ar
##kala
##ktory
Vict
zapisy
Rusi
##konuje
użycie
##kop
##likat
kursy
fortepi
wschodni
##wita
Mol
Index
##ierów
kompu
##wieniem
admira
lewic
defi
ostrz
Narciar
księdza
odkryty
elektryczne
wzrosła
##dyplom
Działalność
zniszczenia
##pul
350
ewakua
poświęcone
##arem
brą
Sycy
Genera
##jn
dawny
##ei
Ery
Had
białych
dziesięcio
DJ
##czków
Mana
otwarte
Częstochowie
biel
dyplo
Kolejny
Swi
dachu
Odznaczony
zastąpiony
##df
##ciły
##kaut
zwolenników
Równocześnie
##owiadał
##rzeź
##sili
Guber
farma
organizacją
Kaszub
Prowin
Pomiędzy
Główną
zajęły
##zami
##saurus
zorganizowano
##tho
Wyd
Walii
Południowo
un
wóz
Artur
Myśli
lotnisko
##cząć
Litwie
##cowych
nakazał
okna
reży
Łukasz
ośrodka
stałych
turniejów
##boli
##ior
##równa
przejściu
##wiade
##graficznej
muzycznego
zaburzenia
zakończono
##sznie
Niko
agen
czwór
kongre
minera
odwiedził
utworzonej
doprowadziły
chrzą
rolni
korpus
##rian
##logów
zwró
##centego
endemi
ujścia
wzniesiona
gospodarcze
##sić
Wojskowym
radzieckiej
##ujący
obcią
rządzą
##żnym
itd
lokalne
wyznaczony
Arno
opad
rodzinnej
th
kaszub
##sum
pozwoliło
szeregach
##gospo
Mada
kult
Ducha
Kazach
amunicji
fundacji
Jer
awar
##szowie
torf
Szczyt
końcem
##rię
staw
śmigłow
##ventu
spły
ułoż
ukazy
morskiej
sportowe
użytkowników
ćwierćfinale
af
Ewange
pełne
różnymi
##ktuarium
procent
prokura
fotografii
Politechnice
##zienia
Syber
kin
##mond
Kun
bliżej
Działał
##nona
Beł
planety
pogrzeb
wykłady
Melbourne
##czała
cien
Samolot
Katolickiego
##ujących
zwanego
Frankfur
stacjonu
Powstała
##sal
Kryty
Sikor
Sowie
ukaza
powinny
sukcesu
Jęd
zjawisko
##St
Chart
Stone
małym
wpływa
ATP
podał
kompet
dziełem
czwartym
Wad
ptaki
dziecię
Robotniczej
przedmiotów
mjr
Bóg
Zbud
Narodzenia
1858
##czewski
wojsko
##lski
##szyb
NATO
manife
rozkazu
zapach
załoga
Pekinie
für
lotów
bolszewickiej
Brzo
##remont
dorze
byłych
specjalizujący
##karze
gazu
##słowia
okazuje
##mowy
budową
##rzest
Game
śląskim
zbiorowa
Jeff
wysił
letnich
Mongo
Zawiera
wywiadu
mór
Beat
Matka
skoru
widzi
zestrze
Madrycie
900
Wobec
Janusza
zdolność
Ferra
##onta
##sztu
doszedł
głębokość
gitarzysta
##Wo
##coną
Państwowe
warian
neogoty
Izraelu
##sień
lin
##stawia
##kały
mórg
##andyna
charakteru
przeniesienia
liga
Począ
##kać
ji
Bed
##andarmer
stworzony
oficjalnych
##demy
Albanii
ranking
wschodniego
wzniesienia
Międzynarodowy
Fio
ogród
Alo
##stało
płuc
##stąpienie
pasma
dwiema
znaczy
Republice
pojedyncze
##gnię
Podo
Wacła
Rodzaj
emisji
##ini
##char
Tytu
Flory
kłopo
wiąza
zaufa
Zdrowia
miesiąca
podstawą
»
##dane
##szewo
trasa
ulicą
Śmier
ciężkich
##Li
Jawo
precy
##gowy
ero
Każda
prowadzonych
nas
Lata
habili
Pomorza
dźwięku
zawarł
pasy
##termin
potok
Franche
Najwyższej
hiszpańskiej
##ette
Tekst
##kowaniu
Julian
klasycy
slalomie
generacji
przyjęcia
współcześnie
Cesarstwa
przedsiębiorstw
##bienie
Proje
nieod
Militari
Niezależ
Comté
Madon
##orze
Pala
Jedną
##trzeb
Osią
spis
ogóle
Składa
Kolumbii
Niepodległości
Koncer
społecze
##zeru
świer
postrzega
mistrzowski
##skowy
wyraż
tylnej
wywalczyła
Jord
akcja
typów
##letu
Wniebowz
mieszkało
pochodził
religijne
Kacz
Poko
grob
preten
Virtuti
ważną
skrzydło
##AD
##tór
Kut
ziar
Nazwę
organów
##sieli
tkan
Estonii
chłopów
zawierający
##linę
mundu
powoły
wszelkie
pozwal
Francuz
platy
naukowym
##ix
Christ
relacje
wzgórza
Testamentu
bp
Coo
Ora
##cznia
Ukoń
Wiede
kombinacji
##wich
Suk
zmia
##regular
grupach
##finans
wiodą
wprowadzony
kilkudziesięciu
html
##zerunek
gruntow
SM
##gowa
##dzu
##stone
Króla
istniejąca
##arek
##iers
tworzył
producentem
##centy
Hrab
##torami
Henri
Alfred
wykupi
mitologii
Małgorzata
podano
Organiz
Solidarności
międzynarodowym
List
domin
liczyło
zrzu
walka
oświat
występowanie
##dzeni
##well
##mouth
##obacz
##rodku
François
sklasyfikowany
##mocy
229
teoria
Akademia
Zagłę
rola
Język
misjona
gospodarstwa
Grod
Nadz
Paris
Serbii
Tylko
wrest
wyścigowy
spadoch
##onso
wpływu
drużynę
zabudowy
stworzenie
rozryw
obiektem
##bek
heł
cechą
hebra
olbrzy
##tta
wznosi
##miaru
Old
##czące
Żół
##żonego
Odkry
dużego
zajęciu
japońskiej
##chani
##kacje
Unia
klie
##cot
Konkursu
górskich
przyniosła
##ße
Tram
Wojna
populary
##gowych
wchodziły
Anty
Radę
Pomocy
przekład
królestwa
dram
##rowski
zwrócił
rzece
Zdaniem
drużynowych
##vens
małego
Arts
modeli
nagrań
wojenny
Boj
bał
Ower
Roze
obozów
Gospodarki
202
net
mosza
mistrzyni
biblioteki
##ciło
Microsoft
miejscowego
Union
Á
Dwór
będącego
spowodowane
Encyklopedia
zakładu
Gą
##gina
1792
Oscara
Rośnie
przedszko
Gib
rat
tło
Węgry
DNA
Kul
chcąc
górze
wymiarach
##óż
wodny
poszczególne
spła
wysoki
rywaliz
##wil
##gospodar
będących
wschodnią
Bona
Phil
##pur
1840
##dentów
Społecznej
stosowanie
szyi
biura
ekonomii
Województwa
new
poważnie
Brąz
podzielona
Skarbu
traktu
jakiś
rozmai
##czących
Mod
spodzie
dwudziestu
##wymi
orto
porządku
##HP
##wiej
podobnych
##fem
##iro
##mowa
Krakow
jedena
podają
single
pośmiertnie
ścią
##sterze
skały
polityka
tropikal
Apol
ścis
pokryte
miesiącu
Ląd
##padła
##nospraw
kancle
gnieźnie
biur
«
##dnię
fede
delikat
powraca
rebelian
telefo
personal
pomieścić
##źć
##nitor
tragi
katolicy
wyścigów
##czorem
Pamięci
mazurskim
Jun
Orze
chemiczny
obejmował
Eliza
spłon
ogranicza
##tacje
bota
##szonym
wideo
América
##fü
hebr
harmo
świętokrzy
##ön
francuska
Pel
Plu
murów
##cznikiem
ryba
Diecezja
##gers
Orkie
Toruń
Dziennika
##ula
znaczną
##dea
##nial
Lew
persone
historycznej
Kopenha
najstarszy
opracowania
obecne
antenie
##ukle
fałszy
prywatne
eu
##łaty
##ździ
##ety
Grodzi
objęła
publicysta
spowodował
Pho
Rynku
opart
##cor
##hist
Odry
musiała
żydowski
Reprezentantów
##iana
Wim
Heart
Powstał
Zarówno
Komunistycznej
##cyklo
pozyska
Baran
Liz
żuż
##wiązy
rozpat
wydanym
zachowała
Królewskiej
##loga
Ral
różnic
siedzib
obrot
kolory
siostrą
Kongresu
rodzicami
##rough
buddy
krakowskiej
dopu
##grafie
Mauri
monum
Progra
konieczność
wejści
##gena
##pton
pato
reżysera
tygodniu
wykonaniu
Joach
odkryta
pewnych
##eo
daty
biblio
różnego
katolików
badaczy
dzierża
odniesieniu
Konstru
utworem
Obejmuje
kształtu
##är
##tywy
legendy
Juliusza
zanotował
##lonii
Academy
##ram
Squ
Władi
algoryt
kolorze
sięgają
Lut
pió
##ersey
kwan
podz
Nagroda
##wale
Młod
Potok
wydanej
organizacyjna
##bione
obiegu
zdobyciu
##ag
##had
Izbie
latar
##szyński
źródłach
stać
##rowana
środek
##ET
wyższej
##komi
het
##stolat
Teodo
Atenach
specjalny
MTV
rzesz
metoda
Świętokrzy
popularności
WS
Jul
parze
światowego
dostaw
zostają
##cjan
tęt
kilkoma
rzymskiego
##cinek
##dowym
Australij
IF
SRR
propozycję
dyspon
przybli
sanitar
reprezentuje
dobrym
Zadebiutował
rozgrywkowej
##czew
##ologicznej
jednostkę
Efek
aspek
Europa
##Wy
Football
inwestycji
formą
zaowo
Elżbiety
Niedługo
ulo
Wyzna
Romana
skrzyp
Kolonii
wagonów
agres
minimal
rezyden
ceremonii
oficjalnej
##żyny
Cez
WOP
poczu
żeglu
niedaw
zestaw
wyemigr
jeziorem
położenia
zatytułowa
##rada
obowiązy
rozdziel
Naczelnego
rywalizację
przedstawienia
##uby
jedyne
oddziałem
eksperymenta
##mad
Kuja
##łowych
##śników
Anato
Hay
Eska
uwie
##GC
##ción
Sho
ety
Pożar
Indone
kolejowe
UK
Thor
Asy
rozegrane
Wehr
ogień
Akademię
kadencję
rozpoczęło
opublikowany
##vera
czynników
rekonstru
wodnej
węgiel
##dowskiej
oficjalnym
chełm
nieba
piąte
Żydzi
różnice
znaków
klimatu
nieregular
##luje
kibi
puła
cząste
Central
otrzymało
##ias
IB
Teks
kontr
##end
##tte
Grun
obfi
##kowaty
kawaler
NAS
inf
górę
Kapli
wysoką
włoskim
Przewodniczą
wicemistrzem
Rie
Osob
twórcy
tysiące
Road
historią
##żania
Dwukrotnie
Cir
cykli
dwoje
Kobiet
renowa
zastępując
parlamencie
Ogro
aktywnie
godzinach
indywidualnie
dwój
miedzi
niepowo
Mieszkań
##sja
polecenie
##dena
lęg
Glas
rewan
Grudzią
##40
rela
jakiej
##dora
##fali
Terytor
porówny
bieżą
starych
##lara
cegły
niewielkiej
Głowa
Siera
litery
prowadzona
wyty
stylisty
temperaturze
Wojewódzkiego
##anowie
##rej
##press
Choj
Wei
Sanok
##ńskiemu
przenosi
rucho
ruchem
pozostali
##atre
biorąc
odbiera
wybrana
najwyższy
Służby
dorosł
##tyzm
trenin
skrzydł
Najlepsze
##siło
licencji
С
faktu
wojennego
nieoficjal
techniczny
##IT
Heinrich
prędkością
wybudowana
##RA
wor
##chowski
wiersze
zbrojne
Przełęcz
AM
Ec
##rzyn
cara
niedzie
wyniósł
uniwersytetu
musieli
Feliksa
Uchwała
Rosyjskiej
docze
prototy
wpisane
rozwojem
##szyńskiego
radiowych
Inte
pokrywa
wnętrzu
państwowe
Południowa
powstańców
uprawnienia
Mości
widnie
zimowych
mężczyzna
zdecydowanie
##uset
kryzysu
srebrne
mandatów
wreszcie
##nicznym
modele
##bir
Real
IT
określił
##czany
Sławo
niektórzy
dramacie
przepisów
Elblą
RS
##ropo
##rzeni
Swój
zaple
##chorążych
administracyjne
zegar
Publicznej
##arys
##ałów
Ogół
Utwo
nadania
założono
##pni
Sky
wyszedł
Pochodzi
Zakopanem
##Na
Chłop
samorządu
zuży
nakry
dolnośląskim
zdobycie
##piona
Wash
Średnia
nazwał
przepisy
konserwatyw
politycznym
##istów
gmachu
naukową
pewnego
##vey
##wei
##szowa
Niger
numera
spadku
czterdzie
Ein
##głego
Janem
Ziel
Jawor
Thomasa
krajowa
popularne
ekonomicznych
##łoki
##ziona
##fikacje
licznymi
hotel
Komendy
jakiego
oddziałami
zniszczone
Sla
sile
##sząc
##bileusz
Edi
czerwony
Współpracował
##dura
##mios
płó
pokój
azjaty
Alberta
Egipcie
dalszym
Grzegorza
komik
Poniat
powstałe
##conego
Gwiazd
wolnym
##ün
Gy
zanieczy
urzędowych
##fli
##kel
##burskiego
Przegląd
hym
nowojor
##ersyj
prośbę
Radomiu
przeniesiona
##11
##ED
Cara
teatralny
ABC
przyniósł
prawdopodobie
wł
Caro
Jeziora
Hugo
##komunika
młodzieżowych
zwyczajny
sprzęt
otoczony
Wrestling
##uz
##pak
##Dzie
##mart
rekla
##fs
Jork
Zamiesz
czechosłowa
Grego
brytyjska
zmoderniz
Carlos
zainicj
półfinału
katastrofy
ośmio
żadnym
##cjo
##uta
##biorze
##cowego
dziob
polityczna
zaangażował
Mk
##nent
##nikę
Hitler
##das
Uważa
ciężkie
karabinów
Kai
Królowej
##gwi
zaok
Trzeci
muzycznym
Kawalerskim
##tis
##szków
##micznych
charytatyw
##edle
wysy
powtarza
szerokie
piosenkarka
średniowiecza
1837
Arka
zawdzię
stanowić
##żę
niemiecko
Najświętszego
##ansu
poty
##chodząc
Samuel
osiągając
##rią
Marię
zniszczona
funkcjonowania
Czerw
objaw
wieżę
Ogółem
Post
rozpa
Primera
ważnych
Chrystus
Kościuszki
ograniczenia
potencj
uznania
praktyki
Ges
Oksy
nadaw
Radziwił
wykorzystaniem
Koby
Spring
trafiła
##lory
##leje
ulu
Mini
doznał
obecnych
dekanacie
współpracu
##BP
Bukare
uznano
polityce
##żegna
Kontro
Ziemia
Leszczy
seniorów
społeczno
modernizacji
##deri
tamtym
państwie
Ski
Hitlera
##stok
Good
aero
Stutt
dokumentu
otoczeniu
przełęczy
Dź
kij
##stero
1200
Dolnej
Humanisty
Przewodni
emis
Napoleona
##gowie
odzyskaniu
Jagiellońskim
UJ
pej
##ttle
ciśnienia
Kolejnym
podniesi
nakładzie
##ск
##czi
Szwed
począwszy
zaliczany
określonych
##Roz
produkcją
brązu
zachodnie
##uts
EP
władca
Zajmuje
kierowców
Barcelonie
##ffi
##szania
Zakładzie
honorowym
Soł
Zja
dykt
siłę
##chaniz
metali
pęt
akcję
przyjęto
późniejszego
##ownika
prawnicze
##syl
Hom
Hohen
kaplicę
wewnętrznej
Boe
Sytua
grona
odnoszą
Fren
Strona
odbudowy
wygło
Drużyna
##ologicznym
najlepszą
1812
rytu
opiekę
działaczem
założycielem
gospodarczego
##ib
##mistrzem
ochronie
##gich
##jska
Gera
wyku
wczesnych
coś
suł
tane
fanów
Poprze
odmiana
##cyc
tortu
zezwo
450
sano
##dentem
przesu
Policji
##dował
Macie
zakończyły
zawodowej
Moż
Pok
Luba
ogrod
##żał
przech
kompania
powstają
spowodowała
Poznańskiego
EC
##obil
Ash
##borze
Uzna
##rzonej
Księgi
naukowców
paso
wino
Czesław
##rzel
Rod
zapom
dostępna
konkurencjach
urba
ratow
ośrodków
##źli
kraje
mieściła
zagadnie
zjeździe
Sor
Church
lidera
rzemieśl
znacznej
austriacki
##lora
przybra
niemożli
rozpoczęcia
Trz
raka
##dzieścia
wojenne
Występują
ustanowie
późniejszy
1857
Urba
Brukseli
Gord
##dukcji
Dolinie
pojęcia
większym
Rafał
okien
wersją
Wschodu
Camp
Gwardii
odniosła
utworzone
zwycięstwie
zaprojektował
Układ
Alexander
##woz
##niejszej
pełnomoc
wyjątkowo
Morze
ówczesnym
Chrzciciela
##ved
##cjusza
Jacques
Wszyscy
##ving
Sama
racji
wpada
wydat
obydwu
Fundacja
##tung
Ach
wiru
Dolna
lotniczego
Fundu
##boju
Kop
Zawa
wyrok
##uschwitz
leczeniu
odkrył
Bernard
uszkodzenia
Anne
odzwiercie
istniejących
PA
święto
powołana
włoskich
kontraktu
opublikowana
##morfi
teatr
internetowej
Finans
przecina
Pisa
matematyki
największa
##tonem
Dwie
Reli
Sound
uciekł
##szkiewicz
gałęzi
wybranych
holenderski
##bes
Sea
aktywny
rozkład
##niejszego
najwybit
przeważa
uzyskaniu
##zienie
##naw
##omi
groź
##ctions
ciele
Wehrmach
ścianach
FK
Bea
nieobec
podkarpa
##rzyż
Boli
Carlo
Jersey
##OM
Fak
Hieroni
gromadę
Zajął
kopii
pomarańcz
Katalo
Szczególnie
maksymalnie
gwaran
hum
##skotor
Leszek
skraju
pracowni
Kono
##czonymi
kamień
Bou
##sztor
Rach
środka
dziesiąt
przyjęta
konkursach
rodzinnego
losy
rasy
nieprzy
opracowany
hiszpańskiego
uczestniczyła
##ña
pielęg
społeczną
##dża
Goo
spr
Naro
##tarkty
Trakt
obowiązków
zwyciężyła
ustęp
naziem
bezskutecznie
Mé
ocal
Saksonii
redakcją
pdf
##łosier
monety
wiosen
sprzyja
##nasty
Power
będącej
Auschwitz
Rese
narodu
publicznie
sformu
złożony
austriackiej
##Ch
syl
##czyni
##atorzy
większego
poświęcona
##24
##vor
emi
usły
ochronę
ukazały
zwiększenie
##pust
zawartości
Albre
##gary
dzwo
##dowego
Stąd
Sław
##ice
finansów
czasopism
##ев
Jr
Stro
umiera
Kodeks
otworzył
##godne
pedagog
Leningra
nieopodal
naczelnego
Cen
najp
Steph
górskie
uczniem
utoż
Lidze
Ei
ST
Sas
pojazd
samochody
wiejskiej
##tew
Sok
##śmien
wysa
##bn
##omyce
##elie
tenis
Jadwigi
północną
##kcje
##pper
1600
Agaric
Zmarła
stacje
Kanadyj
Villa
srebro
Miejskiego
Następnego
chrześcijan
RPA
1856
wręcz
żelaz
służyć
kosztów
Wschodzie
Jele
Spotka
granicami
demo
libe
Naukowe
artykuł
ekranie
wielokrot
##atka
Basi
osiedli
zaczęło
##łan
##ciągu
##zaurów
Zbigniewa
pojedynek
##ár
zaliczane
potwierdza
wulka
malowi
parlament
dż
Fed
kras
księgi
Bawaria
uhonorowany
##dad
##dykty
##wisko
Wasi
zamyka
ziemią
Phy
Sien
świade
godności
niejedno
Krakowskiej
##gorum
lokatę
Medio
plutonu
ukazuje
Jaskinia
komisariatu
##śń
Hea
Sach
obyczaj
wiejskich
##vat
1849
Marco
Zofii
Górnej
Wszech
miejski
marszałka
IO
1807
Franz
##vier
pokazy
##fort
zwar
liderem
władców
działają
osadzony
FIS
Branden
Patriar
USD
##niana
Brown
Słowi
kontynental
##onka
##gowej
mogi
Dobro
wiede
Macieja
Zachodniego
##lima
##mują
Schwa
##szczona
ukończono
##una
##żnego
etat
siedzą
America
Świadków
specjalnym
wyląd
siłą
wzmac
stawał
trudno
użyciem
Samochód
nieprzer
konstrukcję
Legii
najszyb
wychowankiem
Ray
1855
##chowskiego
##mik
syryj
Dystry
zabiera
Medycznej
typy
Samocho
kamieni
kolejową
ścię
singlem
zakończyło
interwencji
specjalista
NSZ
##stora
1795
tworzeniu
→
Wacława
##tażu
NMP
##Dziennik
zrzesza
1794
Kanał
Śródmie
względów
UM
##ssen
AZS
gubernator
##ubi
##udio
##ware
pilotów
sprzeciw
wychodzi
obejmujący
dożywo
częściach
##onda
##unków
nieś
państwowego
greckokatoli
##cowy
##steina
Fungorum
wydziela
##nictw
Indu
##cil
odwoła
kierowcy
poślubiła
zachodniego
##wiają
śmie
czasy
##eteryna
Konrad
głowa
gospodarstw
Kenne
Trybunału
opowieści
Master
Jerozolimy
>
##gini
skór
Arche
strat
cechuje
Republika
przemyśle
Jacob
Wenezu
inwazji
najlepszej
Stwo
##lowa
Paryż
hindu
namie
zgodził
Offi
Ruda
przeprowadzone
jadą
osobę
skrom
przełęcz
Konkursie
funkcjonal
kontrowers
zwierzchni
##boru
pól
##szczu
Games
Research
kolejowego
łę
##chro
##pedy
Ful
wątro
jedenast
dwaj
skry
Puła
duet
liścia
określone
zapobiega
##rans
##uela
Paki
gdyby
Zakłady
##35
islam
Francuskiej
Ó
##dało
##omie
##ktach
##cyny
##żonym
Osie
mole
Liver
Gwinei
zielono
Light
jedyna
Corpora
Zespołu
zapewnić
##gowe
Gabriel
parafię
pojazdy
pozbawienia
archiwum
Holand
wyświę
##opo
dub
umy
1845
obaj
Zatoki
królów
##mańskiego
##ou
fry
##dok
Fox
dodatkowych
październik
1793
pisze
Święty
absolwentem
##lag
Wojny
##kańskim
metropolii
##mul
##szając
odejściu
wykazały
południową
dłu
##czniki
az
##godni
kwasu
prądu
odcinki
czołowych
dyplomata
przynależności
##leci
Gabrie
Wałbrzy
Akwitania
Główna
ataków
chrzest
##landia
Algier
Helsin
białym
Studios
murowany
rozegrany
macierzyst
##ckiemu
Lekko
tutej
zamiar
zobaczyć
ras
lekkiej
Wielokrotnie
Diego
federa
##szyce
Luis
drewniana
wiceprezy
##dé
##led
klasa
grzbiecie
rozegranych
niepełnospraw
##erson
niezwyk
napisana
Konstytucji
historyczny
zem
Data
parafi
teatrze
zachodzą
Line
sięg
organizował
##OW
##bul
AP
##tkiem
##miczne
ulice
absolu
Zdzisław
##syn
rozwiązań
górnym
opuścić
Eugeniusz
‘
##ily
poj
##manem
lutera
##osi
mld
Austro
połowa
Dowo
mistrzów
wykorzystanie
Tol
pobra
ładun
wybrał
zbliża
powinno
##nij
##stymi
wydaj
kolegium
wystarcza
przeciwników
##tago
anar
ogólnej
##masz
##nięciu
Richarda
##ełna
chemii
założyli
##arskim
ssaków
Jel
##nięte
##pedii
listach
pokryty
Charlesa
Niestety
utrzymania
Wniebowzięcia
##rowy
mro
minuty
warstw
podzielony
##urn
##szach
kamienicy
##pri
Uzyskał
olimpia
przejść
przyjaciel
ciąży
hokej
brutal
poprzedniej
Poniżej
Uczęszczał
duchownych
jeź
##formie
lokatą
##polskich
wzniesienie
due
rzut
Waldem
gracza
francisz
kulturze
##logią
##wiska
Zobacz
opieką
świadczy
dowództwa
administracyjny
przedmioty
urządzenie
Pos
##logie
Aero
Sude
inspira
Wyróżnia
##ceniem
Belgra
Fernan
Petera
##ith
##vad
##knął
##lator
Mario
samców
Now
brow
past
##unkiem
Science
sposobu
Północno
Hollywood
kanadyjski
##trwał
udowo
##necie
##ńczyka
wodne
czerwone
Samodziel
Loren
długich
przesta
lądowania
Scot
używano
zagrożenie
amerykańską
funkcjonowała
Mam
##wieni
znaną
doktorską
przedniej
##szwi
dino
koszty
XXX
ryt
sar
Bogdan
młodszy
przełomu
opowiadań
metropolita
##couver
ilustra
dwukrotny
producentów
##niać
TVN
##szanie
kątem
umysł
możemy
##DE
wtór
masyw
##lizacja
próbuje
odpowiednie
podporucznika
statki
sędzie
Młodzież
pozostało
##nig
Dona
nadaje
fabryce
przyjaciela
artystycznej
odpowiednich
Jabłon
turystycznych
IN
##cień
##orty
MON
dół
Fire
stałego
imperium
niższych
Telewizji
prasy
nadzie
sportowej
czterokrotnie
Chris
Deutsch
sekundy
Współcześnie
stanowiskach
SN
##liną
zga
rekrea
karnych
włączona
archeologiczne
słaby
polscy
problematy
prostokąta
Kob
Obserw
dziele
Lis
##iensis
zlikwidowano
mno
##ownicy
tenden
narodowy
poległych
##orym
Odzy
arch
Znany
trybie
rozdzie
Get
##czymi
Labo
baterii
##przewodniczącym
##iago
zdem
##rowania
pomiar
zawarte
wypowiedzi
grą
Azer
Hos
brytyjskim
katolickiej
See
zapisu
filmowa
nagrodą
starszym
Elizabeth
maksymalna
##ison
Hotel
Margar
zwanych
przywrócono
##arth
##kano
Wspom
głową
grając
okazały
enzy
koment
istnieć
kończąc
utworze
zasobów
##czane
Ciało
rzekę
Autorem
porucznik
Zat
lubu
oddał
Bogusław
Specjali
Zdroju
albumem
Mro
Wnę
faktycznie
miasteczka
doprowadzić
przewodniczył
Pot
odczu
grubości
##chali
opór
Marce
Zgromadzenie
##orup
##riana
komedi
pracować
przegląd
powszechnego
armat
ciężar
##cre
##wel
##owcu
wój
##nięciem
obejmują
##sam
##orum
##bonie
1839
dnie
Sankt
produku
wspólne
komendantem
skrzyżowania
##tko
Babi
Mone
ludu
Neapolu
##lic
Uroczy
aktywność
pozbawiony
doprowadziła
Częstochowskiej
Pogó
konwen
utrzymywał
chemicznych
kontrowersyj
Georg
termina
##ussi
Ami
Your
nadmier
zanot
Wprowa
stałej
włókien
wizerunek
techniczne
##omor
Nel
zasko
podłuż
bezwzględ
В
Web
klawi
opance
##szczyzna
dywizja
urzędników
##rera
Bieg
młode
kieleckim
##cyn
##owrocła
Władze
wpływów
Brytania
##IM
##yd
##ędni
zamoż
Rudolf
sklepie
##logicznie
##inie
Komp
Obro
Bielsku
##wiała
Forum
traktat
starosta
przywilej
kwalifikacji
chan
##lińskim
Szpital
decyzja
##ppo
##kier
Gorz
##sławiu
zaśpie
niespodzie
##ito
cało
napięcia
Centralnej
wymienionych
nowi
muzycy
Mariana
uniknąć
oficjalne
ośmi
zapy
gabinetu
##mp
Tę
##szlem
Stanu
##rzonego
znacząco
przyznano
##ili
kręgu
##angu
tań
##zowane
Spisu
Vancouver
drewniane
##ор
Av
##czół
##lary
Takie
legal
kryzys
naprzeciw
##zdem
##nięty
##szczęd
bronił
Liverpo
Awans
odpar
ogniem
##kuł
Ary
komputerowych
##owni
Cięż
Telewi
Północna
departamentu
##dez
##jga
##księ
##rowych
szwedzkiego
kierownictwo
##ingen
##tnego
winy
Johnson
odebrał
Standard
wyposażona
##cul
jaja
Górach
##graficznym
wykonywane
##dali
##łoną
##lotów
rzucie
gigancie
Inicj
Adolfa
Giovanni
stowarzyszenie
##stera
Bour
Gdynia
awansowała
##fów
##uke
cyr
Rajd
Wiej
radar
Taylor
Lekkoat
frakcji
zagadnienia
lit
Etio
wygry
Popular
Początki
najwyższe
Zad
albumy
Ć
rach
wbrew
##jęcia
1854
##lomera
promocji
teledysku
zamknięte
najstarszym
##czący
Afgani
środowisko
ssa
Drew
Jackson
Ukończyła
prowadzonej
należącej
wewnętrzne
wykorzystać
Norm
Anthony
podstawową
przekazany
samobójstwo
organizatorem
##jana
Ras
Cywi
##nea
##zew
Hes
portal
stokach
handlowych
##parat
Home
prag
dowia
Termin
choroba
##pani
##względni
Przemyślu
##sha
lasem
złotym
inkwizy
220
##uracji
autorzy
zewnętrzne
przeprowadzenia
godność
##LS
taś
głąb
Dyrek
Niech
zaakcept
portret
praktykę
stwierdza
##yu
mapy
Stadium
Najwyższego
##łomiej
##cinie
Postęp
wprowadzeniu
##lów
odwa
niewi
rozmów
##łymi
mag
1852
Rose
pomóc
stopy
Mieszkańcy
Baj
Zap
siostrę
naturalnego
wrocławskiego
fabu
##produk
zostaną
wielkoszlem
##hra
##rowe
Wrze
Rozwój
czołów
Theatre
Christoph
wykorzystania
##gus
kawał
produkowane
Satur
Nożnej
zgromadzenia
kierownictwem
##litz
chwy
##zyjnej
Simon
Women
Dream
##rzystów
Johanna
królowa
telewizyjnym
wykorzystywana
muzyce
Jane
kodu
Nobla
Chopina
wypowie
przybyli
gatunkiem
oficjalny
Marią
Daniela
§
##eth
wene
urodzin
językoznaw
hotelu
Naukowego
##wacja
upro
mened
##emo
stoczył
sędziego
podbi
pełnej
szósty
marynar
sezonów
wyborczy
filmowych
А
Naci
Staw
rzeźbi
##andarmerii
Najlepszy
przetwarza
Bła
##iller
wirtu
Univers
oznaczało
duchownego
##gowym
Anti
mniejsza
problemu
elektrycznej
##iser
Bang
Arena
każdą
Little
wniosku
kapituły
##cat
Og
ulep
starał
jeździe
Pancernej
ćwiczenia
przemysłowych
zlokalizowany
czeski
podyplom
zawodowy
świątynię
najważniejsze
Budowę
sezonem
płasko
spółkę
Doug
Rozgry
szlaki
olimpijczyk
kwalifikacjach
##wit
##kraj
##robów
1847
flagi
hiszp
leków
końców
filmowej
prowadzono
##owne
Cala
Problem
zamknięty
##świet
wziąć
żadne
wybuchem
regionalnych
Bres
##siński
Under
dawnym
pełnym
Wri
##system
dowódców
przywódców
wystąpienia
łacińskiego
##tat
##nowe
Tarnow
narodzi
punkcie
Obywatelskiej
##rar
Tuż
gła
namiest
stypendium
małopolskim
##cale
wykazuje
serwis
twarzy
Corporation
##ałami
Duna
grób
znik
korony
lubelskiego
204
Tere
randze
Przykładem
podstawowa
##siu
##scen
ruiny
schro
Instru
socjal
uległy
wieków
powołania
##rzyw
Komi
wymy
Miała
napisem
podzielił
Państwowym
skutecznie
Największym
##liwa
Kronika
układów
Ponownie
oprogramowania
Odz
beton
Australia
pruskiego
##ske
Slo
ppłk
##tologii
1818
Boże
Libe
Jastrzę
Agnieszka
powstałej
##illo
Rut
##raldy
Pałacu
tydzień
austro
zmierza
Ž
urodzenia
Funkcję
kongres
wróciła
odtwarza
wszelkich
powietrznych
##ør
##kins
sed
Lind
obsługu
zgłosił
wiążą
dokumencie
online
trudne
bramkarza
Cały
Roger
dawne
Rosjanie
Wisła
alkoholu
rocznicy
Mili
rolach
##tin
ataki
saperów
zamówienie
Śmi
Górnego
owi
##iotr
karcz
gitara
języki
typowe
Kompozy
##ancelarii
##60
##afry
Zawi
relik
tarno
szturm
pograni
Scha
głosy
tworzyć
świetle
szczytem
Białystok
##TC
##tei
PD
bob
szpie
twórcą
Dąbrowa
kolejna
poszukiwania
##EL
Juliusz
##18
ekra
węzła
Mieści
##san
Buch
Kielce
Ustawa
Hrabstwo
narzędzia
publiczne
Porto
Wimble
handlowe
trag
Drugie
Niewie
rozważa
egzekucji
Bun
pejza
remis
napędu
wolnego
wzgórzu
wykonywał
Augs
Hamil
Dowództwa
pochów
Czerwonego
##med
##ray
##nerów
podar
koordyna
zawierające
##tacją
stolica
wychowy
konkursów
stworzona
ról
##untry
Atlé
Ever
umiejsc
czterema
odnotowano
pomocniczy
Ea
##śnik
##letniej
wrażenie
Taka
Filipi
komunik
tablica
warstwa
##szew
##gowego
rozmiary
specjalnej
##rel
Raw
##dowej
##terów
nawiązał
Gdańskiej
##asie
##mański
partię
tradycyjnie
##lah
##zeł
Mediolanie
największej
##RS
Nov
rękę
ołtarza
Królestwie
pancernych
##regi
silny
uznać
powodem
otwartym
węgierski
ISS
buk
okru
naturalne
##kobier
dwukrot
narciarski
pobo
Lille
Zagrał
Włodzimierza
##ute
Tes
Dziecią
Polonii
Amsterdamie
Mapa
piętrze
poprowa
DS
rada
Lecha
dwadzieścia
świadomości
##sul
##ells
Miel
zauważ
eksport
określany
##OL
##łku
nacisk
otrzymać
organizowanych
##sea
##funk
##szką
pełną
Gruzji
granicznej
zagospodar
scenarzysta
Wu
##ryka
krajowego
##rena
wysu
##dation
żółta
wojewody
##fikowanych
kandydata
nurtu
zająć
posiadanie
1820
starej
radzieckie
budownictwa
bezpośrednim
Rafa
##jewicz
Grzbie
Złotego
Igrzyska
Montrealu
##на
##licą
1786
##miesię
akcep
obcych
konieczne
szkolenie
samorządowych
regul
Galerii
Kuba
dwunastu
potwierdził
prawy
Waszyngtonie
atra
##dzanie
Rosen
Wybra
Wschód
stacją
##logiczną
sejmiku
Krajowego
nieruchomości
odro
Pozycja
muzyczną
popularny
rezygnacji
##dus
##bora
##kacja
Korea
Wirtem
głowie
kolekcjone
trzę
lotnicze
wojewódzka
Robin
Cał
Who
##inger
idzie
liturgi
węgierskiej
##work
modlitwy
zbiornika
DC
Rea
wprost
katolickim
Konferencji
Lubelskiego
Piłki
samic
Mediol
Służył
miejskim
##łowej
##letnią
##natorem
##fikowano
twierdził
prawosławny
##frie
wari
kolega
nawiązy
księciem
przerwie
Bartłomiej
Ano
dodatek
nazywano
przypuszcz
zakończone
nu
twarz
szansę
statusu
Krystyna
tradycyjnych
##komp
czuł
Pirene
gwiazdo
##nomor
Wieża
kiedyś
tytule
miejscami
mieszkania
Wrocławskiego
##buch
Mię
Brat
Isto
##zionych
Muzyka
market
planowano
wystartowała
CF
Pozosta
przesłucha
AW
360
przykry
##dacji
marsz
Moskwa
buddyj
Atlético
pokonali
wydawane
1832
następca
archipelagu
Tok
wes
brunat
sześcio
##czuk
Cos
kate
opery
Regionu
kolumny
produkty
zostając
wiceprezesem
##bau
##ryczne
gruntów
debiutował
instrumentów
zewnętrznych
przeprowadziła
kąt
stadionu
działaniach
XL
Bośni
Uzbroje
zjawisk
Najpierw
marynarzy
współrzęd
nielicznych
##dany
łodzi
alfabe
Martina
Normandii
śląskiego
kapitulacji
ogo
osad
żyją
mężczyźni
Clo
##zaura
Marty
Rządu
samca
##né
##nianą
spalin
Socjaldemokra
##oth
oferuje
selekcjonera
Lubi
Atlas
kapitanem
historyków
##łało
##derlan
klien
Dotychczas
Zarządzania
sygnału
utracił
religijnej
##cowa
nek
##gował
samorządowiec
##KA
##cane
##plin
Internet
propagand
##szyły
1853
Major
getta
dziećmi
początkiem
dźwi
Anton
dowie
chcą
Teresa
proste
pokolenia
fas
Odznak
restauracji
##rym
zimą
Tabela
osiedlu
Hou
##szkod
nastolat
odcinkach
##borg
Szla
ppor
zalesi
Tatr
rewi
zdomin
wyznacza
lę
abs
klasycznej
przyszłego
działających
Gla
##nowej
Feliks
Dariusz
chorobę
Pierwszego
żar
##atach
Alfreda
Maja
Filadel
duchowie
japońskich
##ree
##conym
tłum
gazet
proro
##hai
śru
Filharmo
zabytkowy
całkowitej
##anora
Mazu
##towego
Ośrodka
profilu
sędziów
opolskim
przybrze
wnętrz
istotne
powietrzu
miejscowym
Niemieckiej
##żyło
dete
wskaź
łącząca
dowodów
naprawdę
funkcjonariuszy
dystrykcie
tożsamości
##ov
Obecny
chromos
szlachecki
piosenkarki
##kuli
Abu
mel
##torze
wejściu
Jednostki
Brytyjskiej
Kontynental
##nity
Uwa
wsia
niechę
nadzwyczajnego
szk
1772
##cov
Sma
homo
okry
pośrodku
zwycięzca
##ий
nara
motory
poważne
Komandor
##ctwie
grała
Słońce
efektem
posiadaniu
prowadzony
Zw
wygi
Lokal
funkcja
stworzyć
Publicznego
Maz
dedy
Sokół
wyraził
zbiornik
Wspólnota
królewski
głosowaniu
Lem
##letyce
pseud
ciężarów
##kr
##osa
Sports
biskupi
Johannes
obszarem
End
Bezpoś
trwało
Josepha
aktorki
##ole
##giew
Uch
masak
Wielkich
stosunek
Społecznych
poszukiwaniu
mont
trak
wytwórnia
##omych
przywo
ukraińskiej
##rzyna
Brun
Foun
opty
rolą
wraż
##lności
Zdrój
##lington
ludźmi
święty
Tarnowie
##zol
Ae
##dice
wyczer
Członkowie
##kov
##fran
Lod
Stał
inna
koja
morskie
##iale
Nap
Cesa
Szlak
odtąd
nominacji
przyniosły
К
##enu
wywar
pisarzy
Światowej
Żelaz
sformuł
podwodny
publikował
##arstwo
##zowany
Davisa
Powstanie
porozumienie
Gh
##binet
osza
usił
##pisano
Piast
Francją
##niejszymi
niepodleg
Bronisława
##lotte
trawia
##ар
Hard
pospolity
Ret
diale
##szemu
Mecz
podłoż
obejmowała
##rone
nadziej
utrzymać
założeniu
Germa
Hanna
kwesti
postanowiono
Hai
Reje
anato
skrót
podziale
nabożeństwa
##rence
##czynie
pleba
kibucu
1844
zapła
Santiago
kła
drobne
powoli
hodowli
Brytyjczyków
używać
Zagranicznych
kW
##ampi
##sian
przemocy
państwowy
człowiekiem
ję
pociągu
rakiety
piaszczy
rezydencji
Ostr
nukle
Michel
Barbary
lekarzy
prezenta
czerwonej
dziesięci
##stad
jaw
zaczer
referendum
##gent
miano
czynny
kapelu
1809
pokaza
wiedzę
Washington
kontekście
М
##ola
##zai
##żeni
##chroni
prasie
funduszy
graniczne
zwiększenia
##tions
nieroz
dziewięt
zdecydowano
##ener
piosenką
aplikacji
Pur
zrealizowany
Cin
Hub
Broad
Herce
należeli
poprzedza
wykorzystał
##gart
Dwu
##spira
mediów
przyszły
zamknięta
##dii
Wan
##graph
masę
Moder
dolina
litewski
widoczny
Nam
##atura
akcje
Trzech
##mentacji
uzupełnia
ocea
biuro
naturalnie
##nae
##ardów
Karpat
Olympi
Rocznik
bezpłat
Hamburgu
następcy
##spe
##litów
Górny
Stein
Francuzów
miejska
repertu
imprezie
powierzono
##isen
zał
##zacje
szki
głowi
boisko
komand
Wewnątrz
marszałek
powołanie
Miami
rocka
kwater
tłumacz
wnętrze
posiadały
##onom
Stras
banku
##górskiego
prowadząc
##vas
##ższe
wymag
Oświęci
Uczestnik
corocznie
brazylijski
Architektury
##mark
legendar
społeczność
wykorzystano
##dens
##zdami
Choro
Szero
Wiednia
##żyna
Flori
Indiana
narodowe
opowiadania
epoce
Odzyska
grzbietu
osobniki
Wincentego
##Hz
##ssel
zgła
Pedro
Budownictwa
Pé
##iolet
Tune
uciec
zjazd
intera
japoński
twierdzi
wejściem
sprzedany
powstrzyma
##umy
##logu
##dzała
uchwa
Prince
reprezentantem
##ansas
nikt
Podsta
osobom
zdania
odpadła
##laty
Bag
Pomorze
uporząd
Holender
1810
Armię
Breta
radnego
##OT
##ович
flu
Zasia
Zakonu
##stąpieniu
rozpowszech
wykorzystując
##iak
##naty
scen
##właści
celach
sięgnął
wydarzeniach
idą
##dzący
nadając
##sfor
1838
Gala
Singa
Kamień
Czu
Alek
dobę
Helena
utrzymu
Fis
pens
##vision
matkę
Zagrze
współau
obiekcie
punktami
szczęśli
rozgrywany
##zał
planetoida
##dają
##vina
Bah
Ołta
Zapro
towarów
wyjaśnia
##wość
Miche
sposobem
Kamienica
wyborczego
Madryt
przepływ
nieprzyjaciela
##jewa
##asami
##Informa
leżące
zmarłych
##sztą
filozofię
francusko
społeczna
Nauczyciel
oży
##leran
położonej
Bes
pota
ekspo
włocła
Byto
wina
Świer
obrząd
##RL
##tha
1841
##piński
oblężenia
##kus
##lno
##stom
##tale
1834
kuch
ropy
Julia
niżej
ryzyko
redaktora
biblioteka
prowadzili
##atuje
przesła
##16
##nuk
Innym
Islandii
Dowództwo
##pła
rektora
wyprowa
siedlisk
Oto
boisku
procesy
Prowadzi
Magdalena
##neum
ukr
zaokrąg
Aktualnie
Produkcja
dziewczyn
##öl
##but
ram
inau
##państw
##resta
Mode
powa
żegl
Queen
ustaw
wzorem
Informacji
przynależność
##kau
##aktyw
Schmi
inform
##żności
uprawi
Inc
znanej
nowożyt
Oksytania
##żki
##lność
##ninem
Lady
domowych
placówka
aran
##pancer
Biela
Rzeź
Fanta
Benedykt
zdarzenia
##lono
##ciany
##dnego
samolotem
kontynentu
##ès
1851
Byli
nogi
festiwa
##koli
Dina
Schu
platformy
ado
1814
esto
Koszy
ściga
nierów
Źródła
zyskała
odnaleźć
udowodni
poinformował
##wani
Sem
Słone
uwolni
miejską
##ane
sio
##syjnej
Edmund
białego
podnóża
Śląskim
narzędzi
ochronną
Międzynarodowym
Water
zysku
nagroda
oca
Justy
Całość
materii
wyborczych
##órki
##ranów
Katedra
gabinecie
zespołach
Blues
Sportu
##rowskiego
rezerwowym
##TM
Cry
dwume
wolny
dolnym
podoficerów
prawosławna
sztukę
turystyki
ubar
wybi
Siedl
wytrzym
przemieszcza
##weł
Tow
Ostrów
Ryszar
umieścił
ind
ruchów
ludowego
projektem
straży
testów
jesieni
wygrali
wyjaśni
##onki
Dża
mine
epizo
pojedynczych
##tony
##onale
##arskie
Macedonii
elektrowni
hoł
Florencji
dostępnych
##jną
##przy
Egi
Kit
Mun
Num
bazę
lotnisku
recenzje
arcybiskupem
wojewódzkiej
##gazi
przerzu
łąki
turze
Astrono
Owernia
pistole
pochowana
##bis
##nowu
##onne
krea
Koł
PKW
Str
1843
stare
Jagieł
komory
##słyn
byłej
burmistrz
białostockim
##żym
Szach
telef
zboczach
zabudowań
zaatakował
##bahn
##ienne
##tidae
stłu
##arskich
zmianą
gramaty
znakomi
lotniczej
rozmiarów
240
ojcu
Brand
niezbyt
zdobyły
obsługuje
dowodzenia
odpowiednik
##strój
Fortu
monet
znakiem
gałą
żużl
niech
Poland
Porozu
przyjęcie
##ologia
Muham
##kowicach
##czewskiego
rozegranym
##nois
libera
energię
uzdrowi
naczelny
samochodowych
istniało
Królestwo
##din
Bern
##owickim
Marine
Opieki
Znajdują
Najwięcej
Brytyjczycy
przestał
współpracuje
nieprzerwanie
Prote
terrory
wywiadow
animowany
austriackiego
PP
nun
Dwor
Bruce
obwód
licząc
festiwal
koncertową
kompozytora
##niano
Będą
##pana
złą
składający
##volu
Biało
poster
wzrasta
mieszkała
##pez
Mez
wizu
Bayer
Dawid
beaty
musica
średnie
żyjących
spadkobier
Fur
1836
rapor
##turą
Witolda
zwycięstwem
Krajobrazowego
PTTK
dodano
Francuzi
znacznym
##richa
Bren
opła
Założy
dywizjon
budowlane
Arm
zezna
regula
HD
radnym
sztuka
nadawany
##gom
Kalifornia
##iony
Wól
Śląski
bydgoskim
##bab
luź
##dując
pięt
Uzupeł
dokonali
infrastruktury
##dki
##dzano
Piusa
myślą
Opubli
klimat
Pomorzu
autobio
opisane
Francisz
przebudowany
ri
zwę
Śnież
cywilnej
##czały
1821
owadów
Deutsche
osobowości
##łując
##fej
##sada
opra
srebra
agresji
bezrobo
ręki
nagle
dziewczyna
fragmentów
TS
oświe
kieruje
1806
Mono
norm
pogłę
Disney
starania
fortepian
##AL
##trafi
Lipsku
Archani
Habsbur
wyremont
Personalny
zwyczajnego
##dun
Nową
położonym
zasięgiem
zaprezentowany
młyn
porażki
Narodowe
osadników
Tex
Mount
sowieckiej
triumfował
literackich
przeznaczona
mem
angaż
spons
reszta
ojczyzny
osiągnięcie
historycznym
##szoną
Biskup
Studiów
plemion
Hugh
Stor
French
komunal
wspólno
mniejszy
kościelnych
skło
akwar
Słowenii
zachowanych
##zak
Tłuma
królowi
serwisu
ekonomista
podpułkownika
Cath
Czter
próba
rektorem
przypadek
Kow
Beau
wypadek
Ewangelii
laureatem
popularnych
Wale
##polita
letnim
niższej
przedłuż
regionów
określane
##lion
Hercegowi
AL
piecho
wydział
zabroni
AD
cheł
kuzy
##słodaw
##czykiem
działu
##zara
posługu
scenę
kawiar
lodzie
zlokalizowane
innowa
nietyp
Bystrzy
działać
ludowej
obliczu
Czarnego
monarchii
Kni
Dominika
osadnictwa
Ata
Illi
Massach
Zaangaż
premierem
##hrer
Kres
sztyw
spadła
letniej
sporady
Ryszarda
##wóz
##zującą
Azerbej
australijski
królewskiego
schwy
Wyposa
grecki
przypisa
szlachet
informacja
##BI
Wska
bogaty
rozpocząć
wysokiego
szwedzkiej
ph
rap
1835
Słowo
pewną
##nickiej
minimum
wczesnym
##czko
odłą
rekru
##zyjnych
Gestapo
krytyki
Krasno
Wiesław
Niedźwie
czasopismach
objawy
Mołdawii
Massachuset
starożytności
przedsiębiorca
ste
Dubli
gitar
stoki
odstęp
kontaktu
Kau
##glądu
##schen
Śpie
Spółdziel
##EG
##łóż
##lena
Goł
montaż
współorganiz
Massachusetts
##lines
Cała
Zazwyczaj
erygowana
Gui
sala
Meksyk
kolarz
błędnie
prywatnym
Gości
Informaty
cal
Drogi
jasne
wypuk
Ziemię
plików
Service
dymisji
Zasłużony
budowlanych
pierwszolig
rozwiązaniu
ustanowiony
rogu
##warunk
dzielnic
dzielnice
prywatnej
koncertowej
##arm
##ściach
Nadleś
ścieżki
początkach
Górnym
laureat
niedługo
centralnym
Olim
baza
Kwiat
Wychowa
konfron
potrzebu
Duże
Salom
decyduje
instytucje
##ern
granat
sensie
badanie
ogromne
czerwono
uderzenia
Swe
unii
znaku
Korony
terminu
zbudował
Transport
Indywidual
opracowanie
Chy
Szu
gol
pul
Arthur
Sierra
osiągają
pojawiał
Sebastian
Moc
##grała
zatrudnia
opublikowane
##woo
Sco
##lenge
Nieu
nokaut
ludzkiej
fizycznych
##maj
##pek
Chel
Romu
Skier
Centre
obronę
dłuższy
służący
zainspi
Columbia
mechanizm
otoczenia
lim
wzy
##rować
Bada
##prawił
Davis
teorię
obozach
mniejszym
wyborczej
pism
bydła
Londyn
Okręty
##zującego
poglądów
pozostają
założenie
olimpijskim
postanowili
uczestnikiem
##glo
żółto
artyler
zmienić
greckich
dorobkiem
Konfederacji
##iew
##cjoni
uchy
Antio
przydomek
Rh
plam
Walczył
nazwana
rzymskich
PPR
Great
##logiczna
Polityki
zachowane
##rzew
Dnie
jaka
powtór
ludzkich
spotykane
sprinter
koszykarz
##łki
##reau
Wsi
Rein
Fizyki
aktualnie
kasztelan
podlaskim
##13
Opole
Mirosław
Dzier
Lewicy
Mariusz
##szkolenia
określić
budynkiem
warunkiem
parafialnym
CON
Masa
Nort
oboz
imigrantów
laboratorium
col
tejże
##syjne
piłkę
wyemigrował
interpretacji
białej
współautorem
##świat
Dąbr
Will
##rzynie
nisko
owoce
Stambu
pozostawi
działająca
fote
przemów
dzieckiem
1789
Transp
złotej
Douglas
domowym
Frankfurcie
Sche
Mińsku
przewagę
stosowano
Jerozolimie
##ting
Rang
stałą
niepew
obecną
ulicami
rejestra
tłumaczenia
Sprze
Rozpoczę
skończył
organizmu
zachodnia
użytkownika
##adow
From
##dricha
##etroit
skrzyżowaniu
studiu
zidenty
##ors
OP
##deli
boli
ludz
First
wypły
Nicola
obecna
zwierzch
instalacji
Pta
##rzały
Cour
Bruno
Malta
armią
stają
##szczeniem
Cit
Fro
##inten
1813
Antwer
Dąbrów
brzusz
zmniejszenie
##etów
Głu
pojawiło
wyjechała
basi
znowu
przedsięwzię
Sir
klej
zagła
Jordan
Frederi
Koza
woły
Aktor
wymiar
zadecyd
wojskowa
##iner
siera
remontu
szeroką
pozycja
wyjścia
przeszły
##mala
przę
##sławia
makro
zwanym
Detroit
Klasztor
istniejące
##rową
Bey
Żyd
oczywi
protoko
ścisłej
spotkała
Burgundia
wicemistrz
Hell
chełmi
psychologii
wrocławskim
##14
##bieg
##gody
##gital
Over
##romagne
Spółka
komiks
ołtarzu
reformą
halowych
organizuje
##atra
Szt
1833
cię
##naste
##worth
1828
Josef
Wieli
aktorów
benedykty
przedstawiono
##KO
##Ka
IC
Inno
mnichów
Kołobrze
##rzają
Bade
Cruz
Głos
nadu
kupił
Głównymi
wojewoda
Rolnictwa
odnaleziono
##owu
##ledo
niefor
rzymskiej
hiper
ustala
wyroku
ordynariusz
powszechnej
##ariat
stam
informację
Pul
pon
apte
##entarz
wiersz
Jadwiga
zwycięzcy
społecznym
cenę
kabar
dokonać
wspólnej
przypadki
##nn
##cco
##zdni
czyni
codice
trenował
oskarżony
gospodarczy
##osty
Urzę
rektor
czarnej
Ukraińskiej
Dziś
łote
Santo
uważane
skoncent
współtwór
##ás
##wast
##miarze
Zginął
Urugwaju
Foundation
##ст
katy
ksiąg
dziejach
potocznie
uwzględni
przeciwnikiem
##hua
ZHP
acz
ulicę
Wychowania
RAF
Gren
mury
##clecia
Napisał
nieczyn
eksploat
##ryk
sensa
zachor
korzyści
systemach
Wag
##lingu
Cher
Grzyb
ciepła
Pireneje
Helsinkach
bydgoskiego
##court
##peona
zwaną
##szczono
oddany
typowym
wystawie
WKP
ciągle
П
##kot
##czaka
gitarze
swojemu
bohaterem
bęb
łom
##diego
Bato
##stycznie
lokalnym
mety
Video
Zamku
fawory
powiatów
widnieje
przetrwał
zapalenie
##lung
Marsh
bomby
ogrze
udziel
monitor
szlaków
założyciela
Um
##strem
nawo
różnym
automatycznie
Aga
Mężczy
Agencji
Stopień
dziennie
wchodziła
##cta
Rum
bab
Kochan
używał
Narodowa
opracowy
podstawę
zagrożonych
loja
troje
wypar
stolicę
występując
##ffer
PWS
Bawarii
działaczka
##szała
Vegas
Powązkach
krakowski
##muno
Kultura
powstałego
##bec
Mara
Hansa
baraż
wymiary
popularnością
##ersch
lini
stanę
wodnego
gwiazdoz
doświadcz
##pr
##bad
NHL
handel
##wcześniej
Antarkty
jednoczes
działające
##illy
Ostatnim
monasteru
tal
##cania
Gott
wart
Oceanu
krytyk
wojsku
autorka
ekspans
miliony
karabiny
Niepokala
##uge
##liwy
Karai
stacjonował
dzieciństwie
##ер
SV
bara
pobi
Wodzi
chrono
##graficzna
kościoły
Magdaleny
panowanie
przydział
używanych
##letów
koli
Scena
przyszło
realizację
odpowiedniej
210
Athle
Czart
zasila
odznaczenia
##IV
##sły
##tch
SE
hop
Zury
ormia
eskort
platform
sportową
wywiadzie
publikacje
##lady
rano
pewnej
olimpijskie
seniorskiej
##ceu
Otwar
##szonego
Kaplica
Ven
kwas
sygnał
##nistyczne
Ekstrakla
niedzielę
Asz
Oskar
Wnętrze
doradcą
funkcjonował
##ен
##ners
Avi
Dri
##niaka
koza
łagod
walczyć
opuściła
obowiązek
uszkodzony
##ça
##sted
byłym
singl
figury
naukowa
Rozkazem
krótkich
##rald
PSL
mio
Cele
filmem
przerwy
wybierany
Maksymiliana
Powietrznych
Lü
##arska
##czano
##ciński
sławę
transak
norweski
Gas
Hat
Giuse
odcię
##kładach
Podział
Sytuacja
odsłonięto
Act
Ści
rent
zapra
##prawidł
jednoli
wykopali
grodzie
dziekana
##ла
wia
##kurator
piśmien
powrócić
fizycznej
Ey
bramy
Handlu
Siedmi
propon
##niesieniem
##range
##wychw
każde
ulubi
przesied
odziedziczył
##BO
zdą
##niczką
Sędzi
Sparta
herbem
rywala
Konkurs
##oznaw
ważny
sióstr
pierwotnego
##cota
##kazano
dobrej
Łódzkiego
##trol
brzo
błąd
Merce
##mowanie
chcieli
wolnych
Bezpośredni
##woj
ikon
##czaniu
Małej
Szymon
silnym
Państwo
odgrywa
recenzji
lokalizacji
konfederacji
Głę
Osi
Lesz
Zrze
kazno
trafie
Superpu
zachowało
Inżynierii
nizin
użyto
Singel
Miłosier
klientów
Francesco
dowiaduje
1791
diece
grozi
Postać
Zastos
talent
KL
kuchni
Wyższego
Argentynie
posiadający
##fit
##szak
##nięta
##watem
wymo
Koron
bojowe
kwadra
przechwy
synagogi
Międzynarodowa
##eng
Lewis
ogłoszony
sierż
gdańskiego
Bundeslidze
##kwa
FM
##kury
Angel
Ostatnia
skamieni
pełnienia
Ferdynanda
poznańskiej
łomży
dwanaście
pozwalają
##ślar
Ohio
stry
barwę
Wilson
nakład
aresztowania
##UR
##pł
##siły
gorz
##mskiej
Depor
migra
wykazują
pocze
uczelnia
ukraińskich
##box
##regul
konia
okiem
trofe
stanęła
ewolucji
konwencji
państwach
##nistycznego
indywidualne
przedstawiający
spu
dworzec
zawierał
asystenta
świetlnych
1825
nisz
##nentów
Olimpia
zaczerp
Bot
GUS
##rzysię
Burgund
leczenie
Four
Grunwal
rolniczych
##ttps
budżetu
Śląskich
##dzko
draf
##centem
dogry
porno
zwery
Google
natura
Wiktora
uważana
przednie
finałowym
rozpuszcz
wytwórnią
Seria
wzoru
kobietą
Apostolskiej
##GP
Godzi
##siewicz
ryzyka
podejrza
przewidzia
Gl
Przyrodni
Manchester
jakoby
##Za
##light
Stri
Trasa
niesko
drapież
przybiera
##dową
230
Gall
izby
psów
siar
##letniego
certyfik
przekazano
niszczycieli
##isti
NGC
##dając
Zali
terapii
wyspach
literacki
instruktor
Podchorążych
prawosławnych
umar
pożaru
Państwowych
specjalnego
##lewicz
autobusów
Zmiany
anonim
drobno
szybkie
historyczna
utr
Ernst
radia
obrotu
zatoki
połączeń
##gri
##iste
naroż
słowe
witra
Ludzie
projekcie
scenariusza
artystycznym
##łka
Moz
##łynął
gleb
motor
obecnym
mniejszą
cywilnego
dziekanem
kandydatem
pierwotnej
##km
##jskie
1819
Pracę
nagrała
Srebrnym
przeciwpancer
##gui
##nton
##stkę
##sując
Space
pogor
mieszcza
definicji
Wyzwolenia
Mek
bre
reszty
zaprzyja
zmiennym
Gubernator
##wczą
Osada
wrócić
przywódcy
Rost
Potoku
naszych
Mistrzostwo
dołączyła
opuszczenia
mieszkalnych
przygotowanie
##netu
sygn
Czarne
Sekcji
prefer
terrorysty
##UL
##cają
##lend
##jście
Huta
siła
akademickim
doświadczenie
orna
szkla
##burskiej
koncercie
##żół
##ciad
Inde
Inns
pusz
Dunaj
mieszkalne
##dh
UB
Lad
glu
Umiej
epide
jednostkami
rozpoczęciu
Mai
##rowans
deklar
Gha
Michi
Wilna
klasę
Przeby
krypto
Andreas
dziesiątce
wątpliwości
##onto
Dobra
wędrów
Elektro
Archanioła
Sé
WTA
1790
##kument
Chiny
abstra
obsług
rozsta
ugrupowanie
telekomunika
##poko
Box
Way
jaś
organizowany
przebudowano
przedstawiciela
##ík
##ubie
szwa
sąsiadu
najwyższą
##sora
Plac
Salz
Dzieło
maszynowy
##słów
Dora
multi
pełna
uprawy
wizyty
##head
Ilu
Mau
##poleo
Połą
wypu
Grande
Wykład
pamięć
wykonać
napisane
środkowo
Słowackiego
##ppa
##sla
czarna
zapowie
kamienica
##owny
##świe
Owo
Main
Wyróż
adiut
domach
Zurychu
zapozna
Hoch
rzeźba
wielka
przycho
ewidencji
regulacji
##UC
minial
półtora
rzemios
konfedera
problemem
szybkiego
niezależne
Litewskiego
##ulety
Szczę
dalszego
##sik
##nici
##tivo
##lecki
1829
Poło
##ialnej
##kierun
Lublina
chiński
Fas
Wład
zakłó
położono
szkolnym
poprowadził
##roth
##andro
jakość
zakończona
pomieszczeń
Bow
Jol
Kore
##szynie
mająca
aglomera
poprzedni
spółdziel
Politycznych
wyk
##rządów
Conne
Nagrania
##atki
Hir
komo
##poracji
Heleny
resztę
zagrożony
wyle
##dorfie
Poniż
Matthe
odznak
ludzkiego
przeniesienie
$
##czać
##kologii
Victor
KW
##centa
Town
odgałę
parter
ekspozy
maszynowych
##tics
##ginia
1816
Army
Lincol
imiona
rozumie
Wojskowy
francuską
mazowieckiego
wczesnego
##än
Vel
Ambro
Uczył
Liberta
kolejki
krzyżem
mieścił
##Po
brali
pokonać
akademii
serialach
prowadzący
kształcenia
odży
toku
pasmo
gniazda
Kelly
protek
obroniła
rozdziela
uzyskanie
zaprezentowano
Hera
zasy
zacię
objęty
wywoły
Network
pisarka
pozostawała
piór
junio
narze
członko
tworzących
Mieczysława
zdecydowała
##UN
Indyj
Wincenty
określony
posiadania
Kano
zablo
wykazy
sugeruje
niespełna
zarejestr
##tują
sceno
##anowski
pseudoni
kontaktów
drewnianych
Dü
hoke
liry
zapi
Aj
750
Bom
##cerzy
uzasad
pochodziła
##dala
Hur
##house
utożsa
dotarły
kosztem
odkrycia
jubileusz
pozbawione
kontynuować
oryg
ręka
##nowskim
uznana
Mieście
największego
##gha
Lt
##cice
Mów
Fall
Łotwy
czołgi
zabytki
Margaret
perkusista
przeniesione
##dul
##rządy
Hoff
kanałów
utrzymuje
niekorzyst
artystyczne
##dną
##jom
##reo
logo
tańca
monumenta
pojemność
przedstawiony
##aris
Gut
incy
Czarny
wyjeżd
piosenkarz
Komunikacji
przedstawiające
##ownia
Arch
wyciąg
Powieść
pozyski
uznaniu
podjęcia
komunistów
Mul
##niści
ujem
oszac
dotrze
efekty
Normand
siedmio
Środkowo
internetowych
##tto
##dapt
##nóży
Agui
Nowak
##mentach
sposoby
Giuseppe
używania
kierunkach
telewizyjna
##ets
BMW
ate
zlew
gminą
morzu
raper
##restaur
medyczne
komputera
niezależnych
##eman
##gora
Jon
vol
znaki
podmio
utraty
gospodarzy
postawiono
teatralnych
##vre
impul
Artystów
placówek
locie
Alexand
pożegna
przesyła
ato
Alice
etapu
toksy
##rowanie
ceremonia
zakończyć
##biór
Vas
##lerem
siedle
Metropo
Sycylii
Wehrmachtu
obowiązuje
Pomorskiego
hiszpańskim
##trem
##attle
Frei
Pismo
szkła
nastro
wzięły
współczesnego
##pil
##oster
##lojęzy
Miejski
przydat
odnosząc
dzieciństwa
Lib
##szowice
Żonaty
fabryka
komedia
płaskorzeź
Konstantynopola
##orda
Toyo
cechu
tylne
fabularny
niszczyciel
Zjednoczonej
Î
ochrz
utrudni
wybitne
Techniki
prezentuje
dotychczasowy
wyprodukowano
##lazł
##Rozpo
Moham
Heidel
napoleo
objawów
szeroki
mniejszej
dziewczyny
Das
Grze
poża
ponie
Manuel
##stin
##ziął
Hero
hamul
sakso
uznane
przyjąć
nieprawidł
##mija
##łęki
##owaty
Kowa
Karla
Rzeka
ostry
symfo
moment
piątej
ułanów
autobusy
elewacji
ważniejszych
Skarb
fortu
Janowi
Galeria
Pewnego
operację
wschodnia
ela
##ralno
##wnego
Beach
zakonne
pokazuje
wykonała
##rzonym
galerii
ułatwia
##red
top
Lord
maturę
opadów
##prawdzie
najlepsza
następujący
Ton
Chemii
##rzyk
polityków
reprezentantka
##neta
##part
##jowych
awarii
czarnego
popularna
sterowania
##rance
Kate
Nick
Poly
Carla
Wokół
della
Turynie
zawartość
wykonawców
##ea
##sson
Andy
rzęd
Krasi
jurys
tygodnika
wyróżniony
artystycznych
przeznaczonych
##anką
kocha
lepsze
szóste
zbocza
muzyczna
rodzeństwa
wychowania
##syjnych
Muzyki
równie
##wierciad
brakiem
porasta
siatkar
operacja
##IE
Run
Człowieka
IP
Sm
lą
##elli
##oshi
##atego
##lików
Arse
Sena
poga
tlen
Wiśni
##żeństwo
grodzi
rysunku
Fernando
patronem
##yi
##nitz
##lanty
Rail
spory
Sosnow
Teodor
Doświad
początków
wycofania
##fę
Fan
Bali
białka
kultura
złożona
postanowiła
Dąbrowskiego
zatwierdzony
##gny
##niało
laty
Kaliszu
pracownicy
przystąpiono
Lec
Chro
Eman
Obja
kilo
prekur
hrabstwo
Wywo
nasta
##a
##i
##o
##e
##n
##r
##z
##w
##s
##t
##c
##y
##k
##d
##u
##m
##p
##l
##j
##ł
##g
##.
##h
##b
##,
##ą
##ę
##ó
##1
##ż
##ś
##0
##9
##W
##P
##2
##f
##S
##"
##M
##K
##)
##(
##A
##B
##ń
##8
##N
##I
##5
##R
##4
##3
##C
##ć
##D
##7
##-
##6
##T
##O
##–
##G
##Z
##J
##L
##F
##H
##:
##E
##U
##v
##ź
##„
##”
##V
##X
##/
##Ś
##x
##;
##Ł
##é
##Ż
##'
##’
##_
##Y
##%
##q
##á
##ü
##]
##[
##ö
##Q
##í
##ä
##а
##&
##о
##и
##−
##е
##?
##!
##è
##ō
##=
##н
##°
##р
##š
##+
##в
##č
##л
##к
##с
##ç
##ø
##ß
##×
##т
##ú
##Ź
##ñ
##ë
##É
##ã
##—
##ý
##ž
##Š
##д
##ū
##ч
##й
##μ
##ā
##ô
##α
##â
##“
##å
##м
##у
##à
##ă
##ŏ
##я
##ř
##|
##Č
###
##г
##ь
##ě
##ο
##Ö
##*
##ا
##Ó
##С
##і
##י
##Á
##А
##»
##ς
##В
##«
##ş
##п
##ê
##б
##→
##К
##Ć
##>
##ι
##М
##‘
##ы
##ν
##Ž
##ı
##§
##æ
##ș
##ل
##ρ
##П
##ò
##ו
##ð
##τ
##ī
##́
##′
##⁄
##з
##Б
##ε
##ė
##$
##λ
##Î
##ר
##ő
##<
##β
##ي
##И
##ц
##х
##م
##σ
##ē
##Н
##ر
##Г
##•
##ה
##Р
##κ
##η
##ל
##î
##Å
##ن
##Т
##ľ
##ə
##Д
##О
##א
##ň
##ب
##ב
##ш
##ğ
##מ
##π
##υ
##γ
##د
##ï
##Л
##ʻ
##و
##ת
##õ
##Ō
##Đ
##ж
##ש
##δ
##~
##ț
##Ü
##נ
##س
##ί
##`
##ά
##ע
##Ø
##Í
##ד
##ф
##ţ
##ό
##Е
##ω
##±
##Ф
##ा
##ع
##·
##ì
##Ç
##Ú
##ŭ
##ů
##ù
##З
##ح
##ة
##û
##†
##Ş
##İ
##ן
##ё
##ა
##У
##ი
##φ
##्
