[PAD]
[unused0]
[unused1]
[unused2]
[unused3]
[unused4]
[unused5]
[unused6]
[unused7]
[unused8]
[unused9]
[unused10]
[unused11]
[unused12]
[unused13]
[unused14]
[unused15]
[unused16]
[unused17]
[unused18]
[unused19]
[unused20]
[unused21]
[unused22]
[unused23]
[unused24]
[unused25]
[unused26]
[unused27]
[unused28]
[unused29]
[unused30]
[unused31]
[unused32]
[unused33]
[unused34]
[unused35]
[unused36]
[unused37]
[unused38]
[unused39]
[unused40]
[unused41]
[unused42]
[unused43]
[unused44]
[unused45]
[unused46]
[unused47]
[unused48]
[unused49]
[unused50]
[unused51]
[unused52]
[unused53]
[unused54]
[unused55]
[unused56]
[unused57]
[unused58]
[unused59]
[unused60]
[unused61]
[unused62]
[unused63]
[unused64]
[unused65]
[unused66]
[unused67]
[unused68]
[unused69]
[unused70]
[unused71]
[unused72]
[unused73]
[unused74]
[unused75]
[unused76]
[unused77]
[unused78]
[unused79]
[unused80]
[unused81]
[unused82]
[unused83]
[unused84]
[unused85]
[unused86]
[unused87]
[unused88]
[unused89]
[unused90]
[unused91]
[unused92]
[unused93]
[unused94]
[unused95]
[unused96]
[unused97]
[unused98]
[unused99]
[UNK]
[CLS]
[SEP]
[MASK]
##en
##er
d
##an
v
##in
de
.
##et
##or
##el
##ij
##st
h
##aa
o
##ch
w
,
van
e
##ge
t
##ie
b
in
##on
##oor
##is
m
##al
##it
##at
en
##de
het
z
een
##ar
D
1
s
##aar
n
ge
"
k
##ing
##den
##der
a
##re
##ro
##le
p
H
op
g
S
##am
##il
##erd
-
De
be
is
##cht
2
##ig
A
(
)
##ol
B
##ijk
##te
ver
voor
##as
##id
##om
##uit
M
l
##ot
C
##ijn
##and
##ur
##gen
##se
I
19
##ee
##sch
st
##oe
20
##us
te
al
##ver
met
aan
uit
N
T
P
##ra
##ic
on
werd
V
##ken
zijn
E
##un
c
f
G
R
door
L
##elijk
##aat
##uw
O
##he
In
##eer
##eld
##es
##op
W
##la
##og
##ste
##ven
##ap
j
hij
die
##ers
##ik
F
##ent
was
##ru
##ad
K
##ok
dat
als
wor
:
##aan
##eg
##ri
##ct
##em
##isch
##ou
##oort
Het
##ier
201
tot
J
re
##um
of
##aal
##iet
om
eer
##sen
##erk
Z
##ub
##ed
onder
##ist
##ft
##rij
##ul
bij
##ond
##ia
##aam
##ze
waar
##ele
'
200
sp
##ant
##ien
##ber
##oo
##ion
geb
##schap
over
##land
##ang
##dt
##ter
er
##ische
##os
##elijke
##im
##oen
##ingen
##ies
le
##sp
ook
##ige
naar
##ich
/
##kt
pl
##ae
sch
##eel
##een
##wee
18
##ag
##len
##est
##eerd
##nen
##ten
maar
##ind
##ep
##uur
##eten
##ei
gro
pro
Ne
niet
soort
##ab
r
##icht
ze
##iek
naam
##art
zo
wordt
##schapp
##orm
af
##ut
##aren
##ug
##ran
3
##atie
wer
##ander
##ak
##idae
##ater
##ale
gep
##ubl
St
##amil
##eren
ont
Hij
eerst
##ouw
##ië
twee
vol
worden
##amilie
##oc
##aats
##ell
U
##ir
##mer
zich
weten
Ch
##ec
##eb
##ijd
##ve
deze
familie
##od
##ens
gem
##ine
##ublic
##chter
##heid
wetenschapp
##ip
geld
An
##io
##ac
Neder
##ation
##org
199
##vol
##ron
##pen
##els
Al
##oord
##eeft
heeft
##zen
##ort
ter
##af
##ieuw
gepublic
gepubliceerd
##ger
##aak
##amen
5
##ast
##je
##ne
eerste
4
Nederland
geldig
##ite
##elen
best
##lo
##ont
##omen
meer
##igen
ander
##ust
Mar
jaar
plaats
##lijk
##sten
Op
na
##rie
##won
##tal
##be
daar
had
haar
##ari
Sp
##elf
##oet
deel
##vers
dan
##00
##erde
##ud
##raa
Fran
##uid
werden
##ov
##van
beh
##men
##ussen
the
nog
##sla
kw
com
##ctie
beg
##ard
##ert
##aten
##orl
##amp
##uis
gen
##oek
##oed
##geb
##gel
tegen
##rijk
##oren
##gev
198
##ann
##ruik
##ek
Van
ro
##racht
##ijden
##of
andere
##au
##ke
dit
##sl
##int
##ef
##uc
##per
##iv
##acht
##onden
##gens
to
##end
##kend
6
kan
ap
##aanse
##ire
##rouw
##ocht
versch
##onder
##oem
##all
197
##innen
##rop
gebruik
toe
##we
##aad
##ings
##oog
mee
werk
##ill
##del
##ment
##aakt
alle
##ere
##ster
&
##pl
##dat
Een
##ide
##ass
zou
##ax
##als
nieuw
##ren
per
##man
##ong
tussen
##itie
waren
##inder
The
kun
##ma
Amer
##if
;
17
196
org
stad
bez
##na
men
##ied
##oof
##ple
##iteit
7
Br
gemeen
##vin
hun
bed
##ijdens
##gt
bel
##ember
besch
##ost
inwon
Na
##orld
##oon
##res
##ben
8
World
vl
bet
##wer
##ink
##wij
##ay
Sch
##eerde
gev
##elt
##ank
En
##ood
verk
##egd
Ar
Jo
##ilm
##aard
16
samen
Deze
kon
##me
##iden
Er
gemeente
##oop
##anden
=
##ob
kle
land
el
##kken
ar
194
tijd
##urg
##eiz
speel
##iss
bo
15
wel
veel
9
Duit
verb
later
2012
##ille
hem
##euw
##ern
heb
##alen
##ce
##lub
##omt
km
con
kl
Eu
hebben
##ram
##hou
##av
##uni
Un
Ger
##ool
Dit
jaren
##ker
##werk
terug
##ecies
195
##qu
##igde
inwoners
groot
aantal
##oofd
##ow
Ze
kwam
Ver
Amerik
geen
gez
Le
Am
Bel
##jes
zij
##uz
10
##unt
staat
drie
##sk
##th
##slacht
##ry
eeuw
##ian
lig
bl
##voor
##mee
##illen
eigen
##ord
##bij
##ister
we
mar
kre
##iel
##tt
moe
nieuwe
Car
##wel
echter
##aken
##anu
##ff
reg
##ib
nam
##aakte
##strij
hier
193
toen
bekend
##ina
gesch
12
Y
On
weer
##ha
via
ex
##rond
zoals
Bij
##ym
##oemd
zelf
##ss
##ude
##uk
##ach
vier
##yn
do
lang
Ook
##gende
##aast
laat
##aag
##uren
##inds
##ioen
grote
ten
ged
ww
www
##ders
##edstrij
geslacht
##ijf
ru
vorm
##anuari
januari
0
##rad
##bal
Ro
film
Daar
her
##ric
##ath
Par
##igd
##aadple
##tre
##ph
##kel
2013
##aadpleegd
##ium
verl
##huis
13
Europ
ri
Nederlandse
tweede
##eizoen
##deel
192
hoofd
##lak
komt
##are
##ces
##burg
seizoen
dec
tijdens
##oten
won
##eft
tax
##our
sl
voet
##und
14
##iding
Belg
##uiten
or
##ult
##ril
hoog
kunnen
##stell
bev
##aart
##aande
inter
##tem
191
maart
gebouw
min
##gest
man
##zet
##ampioen
eind
ger
##ade
pol
##orp
##oeg
##ieke
belang
##yp
par
##uss
##ader
##ui
##omm
##reven
##weg
achter
##nel
##ucht
##allen
##bum
##age
##rik
kreeg
wat
verschillen
##oer
ke
comp
gebruikt
##eter
##ellen
juni
##enten
2010
ging
club
##ttp
##stand
##ure
der
zw
gew
vrouw
##ck
##erdam
##ans
11
##zelf
##sc
##ines
rond
Th
El
behoort
mid
ligt
wereld
##baar
–
Geraadpleegd
water
##nam
vrij
maakte
##ail
ble
##ius
##beeld
Bo
gele
Be
##kele
april
http
##soort
##inn
Joh
leven
kerk
##use
laatste
2014
ontw
##les
##woord
##geven
##anis
speelde
##dere
mei
?
binnen
Amerikaanse
Vol
verschillende
##vl
ne
Co
mil
##du
Reg
ch
##én
december
vert
##ugust
##ica
##ins
##olog
##elde
##raf
##aties
##par
##mal
##vis
et
##ate
##000
##tember
ber
he
recht
##ieren
dien
##ler
##ober
sep
##erie
Voor
##enn
##sh
##aalde
Ge
Ant
##ief
%
##ons
##uli
boven
ben
##oorl
num
##ieden
##atuur
uitge
##ds
##onom
30
##ula
##az
##act
##up
##ah
begon
september
##rand
##genomen
Franse
##ett
##gem
##rug
##uziek
di
pers
groep
omdat
190
bestaat
##ktober
2008
elk
belangrijk
##vinc
##ys
##its
Gro
##kende
Re
##erm
oktober
sla
gel
enkele
verd
Zijn
##berg
gek
##stelling
##lad
##abidae
##eert
##vlak
Met
##agen
##king
##yc
juli
even
wil
nov
##iging
##lijke
##oot
cont
##over
ongev
maakt
##yl
aange
##nem
loop
##ugustus
album
me
##open
verm
##ode
##alt
##alis
sle
##gro
##anten
Me
volgende
gesp
##eem
##door
2007
##osten
##sb
Amst
weg
2006
é
gebied
voetbal
augustus
opper
##ationale
Af
fin
##vangen
ongeveer
##teur
##artij
##omst
november
##rom
ph
##istor
hand
##eek
vers
get
2009
verh
2011
kevers
Duits
##olen
##amb
##oorden
##erv
Duitse
##eling
genoemd
pre
II
##tera
mo
##rum
##ive
##rist
##bert
189
##zelfde
##raat
sinds
Te
##volg
He
’
##hia
één
##ijst
waarin
provinc
Hier
Ph
Species
##edstrijd
Or
##aur
##iz
##dien
Onder
28
##aire
##ails
bouw
bep
##iode
Bra
##pt
vooral
Marine
meter
Als
Amsterdam
meest
##ogelijk
##ata
Wer
maken
##itel
gest
oppervlak
id
tre
##rit
West
alleen
and
Ol
##ebru
25
keversoort
vanaf
Veren
buiten
##oud
##det
##olle
vijf
opge
plaat
##ome
php
##anc
##ebruari
waarbij
car
##rijf
##asse
Sh
februari
##raaf
##zien
##heden
besl
##ende
##och
##aans
Register
keer
bezocht
ontwik
Frank
ontst
aut
marines
##useum
##isse
##kelijk
stee
##details
##vel
vaak
##pecies
marinespecies
aphia
taxdetails
am
Om
2015
##duc
tro
Pro
Ber
oor
##gele
schil
Zuid
off
##raagt
nu
##raal
slecht
Ind
oppervlakte
med
##ess
muziek
hoe
##epen
##onde
##deling
Twee
komen
##gram
geh
##ks
sc
New
verz
hou
tra
##gesteld
verw
Jan
bas
Brit
##gericht
##versiteit
ra
##inde
bevol
verv
##sche
000
nummer
2000
##bouw
polit
zoon
##att
188
##oorlog
Noord
##orlog
##bo
##deren
##ott
##ator
snel
Ital
Wereld
##loop
##spron
Kon
##old
##ue
huis
##aald
##amer
gaan
band
mensen
overle
##nieuw
##one
##iep
Ste
elkaar
##bu
telt
2016
vast
open
##ooi
mogelijk
2004
##aste
spel
dag
##off
##co
##ange
##leug
goed
Nederlands
##houden
onderz
rol
2005
##gang
##roeg
Engel
bron
##optera
cent
##tor
art
derde
ed
##komen
##sel
##gde
gaat
##ity
lid
Uni
##rag
##eiden
##stad
rel
ad
##ident
##mat
##oll
##orn
periode
net
bro
##ect
koning
21
##sis
vin
##enk
richt
##ruk
##igheid
##ors
bestuur
##enen
##iland
Tijdens
##sm
Pa
krij
conc
leeft
Sint
gehe
Door
##ton
Con
##ijs
##ijnen
kinder
regio
vader
steeds
##ore
187
acht
Bar
##staande
##oci
##volgens
du
verder
form
ste
hel
dood
##rat
##ork
gebouwd
zeer
fig
kop
grond
##ject
##adat
waarvan
##ris
##oms
##pel
2018
##onomische
2017
##olf
kampioen
opgericht
##ucces
provincie
##oge
##slag
##lag
##ase
moest
dus
##indelijk
##gramma
gemaakt
Carabidae
##loot
##pro
24
##eks
je
22
waardoor
begin
##vens
##schappen
bleef
Ad
##richt
Q
Europe
##ret
##ith
##arm
##rin
ac
##gebracht
Aan
ruim
186
##val
##isten
sterk
##dom
titel
afge
X
##aris
actie
Sc
Vl
bew
dorp
zet
hadden
##igh
##komst
##uizen
gewon
hal
##ère
west
##form
##ific
succes
##iële
La
##omp
gelegen
##iez
Nieuw
voormal
##ock
##ble
Sa
zien
offic
##dig
##assen
team
tele
##ymp
##ral
##oeken
fun
##reef
mon
##aas
##ider
kleine
##wijk
##leugel
##bel
23
##zicht
oud
##ruis
##oth
##zij
##orte
##riek
Her
Afrik
bur
##ana
Zo
ind
bere
vlie
orde
stond
toont
enige
##stru
Hol
Tweede
##itt
##recht
##eeld
##red
Pl
werken
partij
boek
noord
Zij
lich
oude
intern
##onen
##itu
bre
##plaats
moet
opnieuw
##ositie
##ga
klein
##istische
##chn
rij
Den
##anger
oorlog
##ragen
##idd
##unten
geme
##sect
jon
Jac
grootste
dire
zes
huid
vo
##icus
zeven
Wal
oorspron
Staten
zowel
zuid
##oph
##con
##tern
Verenigde
##son
kunst
##naast
Is
figuur
##get
##tijd
slechts
##ick
gelijk
2001
##yst
##wege
gezien
John
arch
Kar
##maal
##ees
##ley
##voorbeeld
##iende
##ving
vond
Volgens
Zw
##edstrijden
##ernooi
##aars
##bed
##pe
##rol
organis
##gebied
##aarde
##bare
_
Vanaf
kant
##inen
act
inge
##wijl
produ
##atal
Har
##ational
1999
##oss
uite
bevin
##orst
Wereldoorlog
Je
##cent
##emen
##kl
##oel
##otor
soorten
##voer
2019
##oerd
##ame
an
pres
##atus
##woordig
##ole
##oorde
Bl
volk
lichaam
nab
##eur
res
##ding
##isc
zonder
##arige
bijvoorbeeld
pop
doel
Frankrijk
##ijl
##iën
##ogen
##ner
##ix
milj
##ureau
trad
##itter
##rift
##ates
spec
Rome
bedrijf
ple
##rijs
indeling
landen
echt
##vleugel
##air
##tes
##rokken
185
station
##ën
##zonder
##raag
comm
##parte
plaatsen
26
##rijven
##partement
natuur
##veren
beide
zal
##eth
stud
im
middel
onderzoek
dier
insect
##ield
verg
serie
Sinds
##ïn
##issen
##ited
##roken
##ella
##oos
##ozen
wedstrijd
minder
Gu
##unde
##ict
27
kinderen
##ensus
volgens
België
Europese
##meester
##ign
##iaanse
blij
##gemeen
staan
waaronder
tw
##stre
##ering
##vorm
2003
##uurt
licht
##kings
beste
##leiding
Jap
##punt
geboren
##raad
##ubliek
prof
Belgische
bete
debu
Duitsland
##iem
##apen
##ico
##ts
##ikt
##werp
gespeeld
##ress
##hal
##ument
ontwikkel
##verse
##anen
##bre
##werpen
Cent
basis
Fl
##bl
Hy
nabij
United
2002
##vier
##ring
##ara
##ish
##eng
Europa
##laat
zu
##teerd
Mon
##ice
##ilip
##gebouw
taxonomische
##teerde
einde
Bro
vri
midden
Ed
FC
##eeuw
184
Cal
Tur
finale
Man
##rip
Ac
Cl
##atief
geheel
31
leeftijd
##ene
eiland
rijk
##ologie
##kampioen
50
ou
nl
Toen
##ain
gr
##aille
##illa
gener
den
voort
Wille
##reg
rest
bedraagt
##ai
##anneer
##ux
huidige
stand
gaf
##ane
##elden
Cer
Konink
##vat
##eide
##iets
verander
##gent
Paul
lag
29
vroeg
##fin
##lijn
Oosten
##iedenis
##min
##issement
##rek
##sloten
schreef
##yr
werkte
uiteindelijk
And
Christ
##iale
##hank
lucht
vele
at
Museum
Eer
leger
Britse
##raven
##verd
##ract
volgde
Willem
school
##lin
lijn
##mers
Mich
##ensoort
##ationaal
verde
##straat
##omb
fe
televis
kil
Per
Ale
##ets
##wez
volle
cir
opgenomen
co
##ho
##aw
vervolgens
dochter
bijn
sing
##ulp
terwijl
##eil
Russ
##mar
tien
ab
liet
nemen
beschreven
##ule
departement
##vleugeligen
##ival
dienst
##uwelijk
##ile
Wil
##iaal
Olymp
100
Ter
##ivis
Dat
##eens
meestal
##ierd
reger
Se
kn
##oemde
##udeerde
Char
daarna
lange
##ca
miljoen
Ab
##li
speelt
##ling
milit
bestaan
bevolkings
mede
meeste
##tegen
##era
ele
##iter
top
Afrika
actief
##rondissement
spelen
##ysteem
##zaam
##ash
##atur
##zitter
vinden
##rak
##ald
##isme
##leg
##eizer
rec
Vlaam
Daarnaast
##tu
des
leden
Die
Will
Dav
##orden
##iers
Haar
##ung
##athol
Qu
gere
##wijs
Col
diverse
##ieken
bracht
Frans
kwamen
zee
##kw
Aust
Fre
beteken
183
stu
leiding
arrondissement
##torren
zelfs
##dicht
Hoe
##aj
##hand
gevolg
##ball
##ieel
##raak
laten
##rab
##vloed
vij
##ham
schilder
Can
kap
Em
aand
##gevoerd
##jaar
##schop
##ette
tek
gedeel
plan
Mo
bevat
wit
##rière
ant
##oede
Universiteit
leid
verscheen
vrouwen
nationale
##orie
##echt
stem
beeld
Japan
Ap
toege
belangrijke
klasse
##schijn
histor
dezelfde
##ouden
toernooi
##urs
vern
##iidae
##uld
##slagen
Tot
Oost
Mid
##schrift
prom
mag
dist
rad
##dem
zouden
vlinder
##elm
##ante
Bureau
##spel
Mart
onderdeel
programma
elekt
Rijk
##ward
States
eindigde
##opsis
vanuit
##aven
##rys
##ograf
minister
##iam
York
##iveau
kilom
dicht
##ellingen
##ino
##arte
##ugd
geschreven
##landse
trouw
##tjes
##50
##adem
mod
Gen
San
valt
##orth
Histor
bis
geplaat
vanwege
naast
bla
##vallen
start
##dichtheid
moeder
##elle
studeerde
pas
1998
##port
##orpen
deed
##fl
bestaande
##out
Cor
Census
regel
##wes
hoge
##uil
belangrijkste
aanwez
##trecht
##iken
##iezingen
##inter
noorden
##erg
##estival
edit
##anks
president
wij
##lop
Hen
##omer
eerder
1991
vlies
##itect
colle
##aand
delen
ken
Over
We
gedeelte
Utrecht
Bruss
verloop
##lement
Intern
##ames
Uit
bevindt
##ije
ec
##ging
gevangen
mis
##room
regering
##ars
40
##aden
##roe
##gemeester
##spre
wilde
maan
Syn
At
ontde
hen
soms
1995
##midd
langs
##que
heer
##ican
##plaat
zuiden
##ora
##ox
##ini
181
##ooit
##zijde
Pol
zit
##asteel
kilometer
mom
##kant
voormalige
vormen
cult
tran
##atalog
th
typ
##onie
uni
1990
overleed
##hankelijk
##ept
##gelegen
##etitie
positie
##urende
Eng
hoogte
##stal
soci
##geving
inwoner
sn
gehouden
Val
##arch
##kle
doen
Port
##enko
##ijen
verwij
wein
##elingen
formula
##aatschapp
tevens
Men
##stant
##west
##weest
zodat
duid
ol
behaalde
##ommige
##vo
##oden
##ged
omvat
moeten
bijna
##organis
geweest
rivier
##aus
reed
afkomst
la
1994
Saint
vierde
nadat
groter
##worm
1996
1997
##rid
macht
##dracht
Maria
##ime
kort
straal
ronde
Parijs
waarmee
Later
geven
##iger
Sm
##angen
altijd
Oostenrijk
for
gegeven
persoon
lijst
medaille
##wespen
amb
##rict
voornam
##schijnlijk
##ogel
Olympische
##oma
waarna
Bre
##uze
meerdere
ster
##ichting
##uin
##ama
##ensis
##scri
##NS
int
Ex
##omin
##yd
spinnen
versie
##ight
##naam
##zer
brug
##vang
bren
Austral
##gelegd
##utie
vriend
“
zorg
##ise
##lever
##dag
Eerste
korte
moment
bok
kwal
Pal
Pet
##wegen
enkel
##entie
Maar
##usic
##ona
##ente
geïn
##familie
##veld
web
mond
##kevers
verhaal
##heer
exp
public
Johann
taal
voornamelijk
dagen
##urn
##ertog
konden
wedstrijden
##rich
Hymen
Brussel
gewone
##etten
ie
uitgebracht
zeg
##werking
nooit
teken
##stem
single
burgemeester
motor
##kerk
sec
”
wapen
##groep
##ola
compon
Lou
1992
##ld
##gaan
Ben
Land
##ych
techn
##roduc
vest
broer
American
Sal
##urt
produc
##verk
##fer
##iteiten
##rijd
Lim
##EE
##chenko
Hymenoptera
Haag
jarige
geschiedenis
totaal
woon
blad
iets
##ftal
##erkt
graaf
slag
geplaatst
wie
schip
##uro
##ace
##estigd
##issie
##orge
##blad
‘
loopkevers
##uper
proble
editors
paar
gebeur
##ichtchenko
Anichtchenko
benoemd
Mc
verzam
##oegd
jeugd
##unst
Dan
##lus
Chrys
Ag
##lands
carabidae
Rott
uur
Comm
##des
schrij
##derd
##schil
##20
##winn
vlucht
##uik
hoogste
Count
beschouw
##leven
vervangen
un
##ition
##atieve
1993
spinnensoort
plat
pat
huwelijk
geeft
krijgen
##ida
##ial
keizer
fl
wist
Onderstaande
wijk
verkocht
Hend
##erse
##ries
##sluit
voorzitter
sub
buurt
##actie
doc
gec
verkl
productie
mens
##va
##orf
Londen
pri
Engeland
##baan
Rotterdam
ontstaan
##rale
bestond
##ming
ontwikk
toch
weinig
Cole
bevolking
Gron
Mel
##werkt
##abel
##onn
##goed
lijk
##inse
sym
##treden
nod
eveneens
gl
Mex
##ikte
inwonertal
##grond
functie
loopt
Kl
##ersp
##ones
##stof
##ffen
Lo
leg
##mann
Mil
druk
##stel
##ycidae
direc
Ceramb
Mac
boktorren
Cerambycidae
##inding
gebas
debuut
ges
##vaart
stam
##oemen
##oep
gevonden
##ieve
Mad
Nadat
##staat
Mont
##tra
spoor
stop
##band
tem
punten
Mer
leer
Az
1989
namen
Verm
Alex
lok
Span
mocht
sh
##ute
##omel
INS
Sim
invloed
##elding
contract
link
blijven
opdracht
Gar
hele
##ierdoor
tellingen
INSEE
Bou
liggen
##uig
##wezen
Italiaanse
heel
bekende
ton
kol
##school
Piet
##ooster
Gra
##etter
brand
veren
Verder
architect
1980
1970
##che
##uwe
veld
voorkomen
maanden
stre
##club
##rein
##rok
vre
verdw
internationale
Hoewel
Robert
##ennis
competitie
##sloot
Jean
houden
Naast
##hol
Don
##leden
daarop
gemeenten
##hem
kasteel
182
Bla
##wedstrijd
1988
bos
red
blijk
carrière
gemeent
##intig
gra
slakken
gebaseerd
##yt
Mor
politieke
Ts
name
mannen
wereldkampioen
Engelse
schild
ide
##verde
1965
Hong
##spinnen
stuk
Luc
##ierf
gede
##iber
person
##inae
##oy
Noor
##chten
onaf
##stitu
jonge
##rant
##za
grens
Alle
hog
kracht
##abriek
##alk
richting
dub
punt
Min
III
voorzien
##eder
daarmee
minu
lied
algemeen
179
Rec
##genaam
kruis
##ras
bar
Pri
##ielen
universiteit
##matig
##ction
##doen
bi
George
officiële
reden
Hendrik
ruimte
##ack
moder
verst
duidelijk
History
waarschijnlijk
60
##ada
descri
##ratie
County
Kamer
park
##vankelijk
volkstelling
trop
pr
nacht
vak
Ke
Mag
##name
vastgesteld
auto
Peter
geworden
##station
thuis
cons
Vla
##iner
##sters
##ano
##osa
waarop
##plex
1986
##atholieke
Coleoptera
##oto
##stuk
Natur
Amerika
##anderen
Chrysomel
##own
##voud
##ijds
##ieten
Vlaamse
prob
##esse
##keur
##elling
generaal
Chrysomelidae
woord
world
##werken
stijl
Italië
##vent
##azz
oost
##water
##stellen
sport
##ka
Lat
Synopsis
goede
##cties
slakkensoort
Rep
Med
dieren
kleur
##opend
##eemt
handen
wet
##erland
described
##pers
tal
##ullen
##iste
##oorn
##oom
mater
##formatie
##ros
ob
##waar
##lay
##iër
kar
krijgt
##hof
Mal
##ijnse
centrum
1985
district
##gar
Eg
##by
##umenten
##weging
##eed
fil
Rh
bleek
Del
William
180
Univers
spre
##bin
##stellingen
neer
leidde
volledig
oosten
kregen
##reden
##ael
ontstond
bijzonder
1987
project
1984
term
daarom
westen
##ose
Gre
Kerk
beschik
David
##let
val
bescherm
##kelijke
Bur
vertegen
Tour
God
Omdat
strijd
##ities
Antwerpen
##mans
35
viel
##ipl
ontm
##seud
staart
liter
##ement
Eind
profess
##erende
##baller
90
Sam
##ctor
Vlaanderen
Sant
geval
zanger
##roon
hoofdstad
##ville
feit
Daarna
##ël
keerde
##way
gekozen
voormalig
wanneer
erg
bepaalde
##zak
bezit
##ectie
IS
##delen
stap
##ague
nabijgelegen
loc
##uip
aflever
Gent
gewonnen
Ten
half
tekst
vlak
Du
##axim
##mon
besloot
##ringen
av
genomen
##scheid
##ski
oudste
##oest
##uigen
##sz
Zwits
mann
For
##lav
##aut
1945
brengen
War
verloren
##ois
Pas
80
nodig
##ivisie
Rad
##arde
Rus
Ven
##oes
Russische
##houd
part
uitgeb
onderfamilie
Nederl
Jacob
militaire
##rus
hertog
Grote
##bro
afkomstig
1982
Chr
##vest
1977
schepen
##ket
##aring
artik
##inus
Filip
elke
Holland
!
verhuis
##ura
Stad
reeks
1981
Walter
berg
steden
##han
gevestigd
zil
##ologische
##sn
Com
Engels
Wh
##ants
gebieden
##ün
##cel
Jose
##otte
onderste
##eerden
1983
##ense
##orgen
##orde
##cc
##gere
hetzelfde
##stein
geopend
##iele
betrokken
result
straat
Spaanse
qu
eff
kampioenschap
##vlie
stads
kunsten
ontwikkeling
catalog
Natural
Hal
Tussen
##kund
##ruiken
systeem
##ides
worm
##hang
gast
vindt
betekent
Lijst
##ilanden
##onk
##uist
##film
namelijk
##tje
##veel
##aria
##roduceerd
##aatschappij
financ
##ford
zwaar
verover
aanv
##eries
Spanje
boeken
nummers
manier
hulp
beslaat
##haven
##oda
onderstaande
inc
1978
leng
##oft
##ots
##ja
1968
y
Dr
sommige
verspre
##elder
optreden
##kte
jong
vis
aanwezig
plant
##zil
##kom
Groningen
Griek
verbonden
##gesch
##lei
##album
bedo
##aap
##her
##helm
verloor
Ham
prijs
As
##erij
1979
##eest
##gew
##antwoord
1971
films
70
Brug
organisatie
##ney
League
IJ
Grand
##genoot
##uurde
##pa
##fen
1974
##ko
Comp
vor
##boek
vergelijk
Nic
Dem
##ias
36
bisschop
##itz
China
rep
##steen
au
direct
hit
##hoek
Bern
Cup
Karel
editie
betre
##ilige
##uzik
##oit
Pe
##ony
zomer
##iddel
##standig
##ary
bek
##stra
zogenaam
##hes
uitgevoerd
##iga
##ii
Est
los
defin
##arn
##danks
commun
Mexico
von
ieder
##wik
##alist
1940
prem
##ré
##sych
##rem
##ords
##iat
popula
activ
##ira
publiek
1972
Rich
##eleid
500
troepen
overeen
voed
zat
graf
##merk
##anders
Art
##ly
1973
staats
##enden
Thom
Tegen
Unie
##uy
studie
syn
succesvol
##lem
Open
Groot
##past
##iew
##onidae
tegenwoordig
del
Camp
helft
Club
lengte
Sur
##nes
##erend
moesten
version
Fin
##wijz
##oz
1960
1976
trouwde
##neum
##gra
directeur
Brazil
##komt
1975
Cop
Net
1969
latere
welke
trok
jaarlijk
##erden
paroch
Mat
omgeving
museum
verkiezingen
Tom
##osaur
Tra
oorspronkelijk
##iezen
overwinn
proces
overheid
twintig
##utt
WK
##kre
##ote
begonnen
ontwerp
laag
Koninkrijk
kwalific
##eelden
##ical
uitgebre
zest
blijkt
personen
ploeg
##aamd
beschouwd
##ark
##eef
afstand
##ustrie
toren
oorspronkelijke
Ma
##nemen
kust
volgt
##rice
##ift
ker
City
##ba
##middels
beter
Tim
speler
Albert
markt
veil
Samen
##jet
##lan
##uurd
Vermelding
##ury
gebracht
##waard
vijft
aard
bestuurlijk
Freder
##site
diens
Ren
##gelijk
gingen
##zett
##otie
32
##10
##oorlijn
Tw
spider
##ance
dert
##erspelen
Elater
##yth
##mel
Spelen
##aalf
Air
Pat
##kens
##heim
1944
##ike
bru
Elateridae
##ita
##oond
Philip
Phil
##eck
##gevoegd
ervan
##voering
##outh
##achtig
##oost
Louis
Brab
gedaan
vliegt
Wanneer
sol
klooster
##andid
gebruiken
Rob
##ook
Gal
prote
em
daarvan
##ademie
reis
##sport
draagt
##uv
studen
Champ
Plat
##ges
politie
fus
Sov
want
tri
Arn
geschat
zogenaamde
##ografie
zichzelf
##ormd
behoren
gren
##ür
veroor
as
##eid
aller
##ichten
Sport
##apt
onderwijs
##achten
disc
##ekt
acteur
##gez
##met
haalde
##ouver
Boven
verlen
##ogels
norm
Belgisch
##iere
##nst
opricht
##gezet
georganis
Bas
##pp
##strument
##hr
##volger
Bos
vijfde
reeds
genaamd
##oegen
##tende
##iano
Romeinse
##ilijk
##brug
##wn
##schrij
week
1967
gedurende
lokale
Kle
Rusland
##ementen
##ient
prin
Charles
halve
##net
##go
verantwoord
Jer
post
Award
product
##kers
onbe
parlement
begint
##chen
rechter
cm
##ake
##mond
##heen
geraadpleegd
##okken
rug
anderen
oog
Berlijn
terugk
bepaald
politiek
vormt
##heven
Wit
##akken
##TA
##unn
Johan
Ich
Pier
##nemers
##igin
hield
combin
baan
Kn
Cast
##otten
Li
##iment
##asc
Wat
1964
plek
pra
stierf
uitgegeven
stelde
##ici
Hun
problemen
Franc
Cla
Amerikaans
voetballer
contact
##oul
##inet
##uff
Gem
##rig
Tri
##kest
Roy
aanged
Raad
zaken
minuten
##osp
All
trein
heden
regelmatig
klass
witte
ontmoet
Orde
les
Mos
draa
Colle
##aker
National
##igie
dro
##iana
##aster
ca
voorbeeld
Chine
##dienst
toenmal
Top
kent
##oh
vlag
Frie
daarbij
spelers
##kunde
vermeld
##anus
##trek
ontwikkeld
sluip
##ull
erf
45
##empl
gereg
Limburg
Vic
verhuisde
liep
##ses
cor
Park
Johannes
Ann
sm
##cer
##oven
opl
##aling
lijkt
maand
breed
##ront
definitie
##omium
steun
International
##voet
James
Isra
##rest
##punten
stro
adv
officieel
onafhankelijk
overl
borst
neemt
##entoon
Lin
My
##wedstrijden
##iemand
##ourn
##ages
##wijd
##ón
oper
Jul
Hierdoor
##ilis
konink
radio
vaste
behand
Rode
##dij
leef
Ha
Joseph
34
Turk
moeilijk
##otel
vrije
god
##oosten
echte
##ala
##wet
1950
##gegeven
muzik
aanget
##80
##rijke
ontworpen
##ager
opleiding
1966
##bond
groe
doet
bezoek
##iro
Anton
Form
##sf
##igingen
Sk
##hoven
##low
Zwee
##ctuur
ald
idee
ontdekt
tropisch
1962
bereikte
ziek
werkzaam
##30
##jarige
eens
ass
gesloten
winn
##ya
opvolger
##wa
Ichneum
seizoenen
twaalf
##gl
##rische
kind
ooit
bloed
steen
planten
nood
##uel
geë
##festival
tekende
vertrok
bewon
kanton
georganiseerd
##uch
waarde
##ialis
##nis
strip
##da
schrijver
##ahn
##zonden
alles
straf
##70
winnen
##ilde
exempl
kolon
raakte
Europees
##oeden
Lode
##uele
samenwerking
Ju
spons
1963
Brabant
##ps
doordat
##cip
Arab
Atl
groeide
sold
Uite
weken
44
git
vrijwel
sur
pal
Bru
Uiteindelijk
##daag
maxim
Thomas
Cap
inf
zie
##ats
Sovjet
geest
##uter
bouwen
pass
Sl
componist
zetten
gebruikte
lief
Alb
Marc
##akter
##inkel
gouden
hoewel
Bor
Arch
##spraak
VI
Carl
extra
niets
moderne
bond
vari
mm
Nieuwe
##gemaakt
tram
##hout
Ca
##imeter
##oorte
aanvankelijk
##streeks
##xt
##ipp
Beg
race
##iti
##cul
US
##ergie
goud
School
Bracon
Zwe
##FA
uiter
##toe
debuteerde
type
wonen
##macht
##oepen
grotere
University
##scheiden
ij
Soc
##westen
maal
##rim
zevent
##anth
tijdschrift
##ique
Lodewijk
##oef
Angel
##inst
uitgezonden
1958
##oi
##com
##inger
Bal
niveau
##igt
auteur
Rijn
verzet
##ory
Bill
spoorlijn
blijft
##ions
##bren
raad
resp
Gl
##aaf
Pan
##pass
##uvel
richtte
bezig
1939
Japanse
##omat
##vert
Berg
##stenen
##regen
molen
model
rechten
##ops
Oud
inmiddels
##been
Zee
zeker
##elijkheid
##ummer
paus
ouders
volt
kandid
bevinden
stellen
cl
merk
zwarte
informatie
##gemen
Hans
##gr
Veel
restaur
overst
##MS
##doende
Ott
Mic
##ago
##sels
##zi
##ua
blz
toneel
diep
circa
##line
haven
1961
##role
hiervan
monument
kans
1956
werkt
Heer
relatie
gehele
IV
##tussen
Frederik
euro
cultuur
gevormd
situ
##oster
sluipwespen
Chinese
veroorz
Vervolgens
Serv
##ör
##tens
Cro
##stituut
##beelden
Station
##ibli
##ics
33
hof
promov
theater
hard
##gensoort
Ichneumonidae
##bos
Australië
Il
Hou
##app
##abase
groepen
beelden
##ema
volks
Sw
Oude
platen
##ota
Richard
Michael
historische
opt
No
##namen
##risch
overzicht
##yg
##leraar
ontving
Israël
Ga
Records
1942
Ri
overleden
Oran
##volutie
##lam
hoger
##my
Music
stij
Pr
##rieken
terecht
##kop
##odes
landbouw
##aliteit
##iforn
##12
##heids
Vrij
wegens
##bei
178
Sen
politicus
besloten
##onds
##idder
vallen
gebouwen
negent
##rouwd
aangelegd
Pool
Wel
horen
Midden
##agne
##aleis
mos
##park
##eller
##roffen
neder
##ous
teams
##stu
symb
##eraad
##rië
relatief
Egyp
##ais
##any
##antie
##view
##sem
bedre
lopen
sloot
##gemene
1946
toenmalige
geleid
rood
verded
kennis
##igden
##ete
kwart
##geleid
vissen
zin
##roep
cil
Hand
filos
anders
zeggen
##ivid
mach
verspreid
Ass
##beek
1948
woorden
psych
##lijst
spra
aandacht
wiel
##aft
origin
##onomie
##anning
veert
Braconidae
Water
wiss
##retaris
wo
schildwespen
zag
verkozen
beroep
1959
##offen
38
1955
negen
dubbel
##inden
##gebouwd
gerekend
vogel
Sy
Tran
overwinning
##verb
##eland
##iaans
##druk
Rond
1930
vernoemd
cat
1957
##pol
Rom
zond
Di
##kundige
tegenstelling
1920
karakter
ervoor
Che
vle
var
Zweden
##dering
1941
bal
Lam
##gend
zeen
1954
verschenen
##raafplaats
Tor
Martin
daardoor
Oorlog
##plaatsen
centrale
Euro
##wood
aanhang
##60
##ani
É
##ocrat
##web
uitbre
artikel
##umb
##beid
Verenigd
geproduceerd
schrijven
eilanden
overgenomen
vocht
##40
geboorte
website
geve
gewoon
behoorde
leider
##stalige
insp
##zing
tradition
##gave
sele
1938
##kening
beschrij
hart
##oernooi
##haan
clubs
gemeenteraad
langer
popul
1949
##ande
studenten
vide
##eiken
##ution
bedrijven
##bank
pla
##uck
##vi
##derij
##án
religie
##ams
mass
verdeeld
rode
Californ
i
onge
zwart
mel
1943
deelstaat
##chest
Andre
Huis
##ario
Nap
zeeniveau
begraven
1952
verlaten
1936
gevallen
Koning
complex
Jos
##iërs
##ooien
##dige
##ronde
Super
bereiken
katholieke
overlijden
elftal
burger
##do
Binnen
tel
parochie
zette
orkest
Red
Gener
sociale
##schak
##tendeels
kat
pog
##emb
dem
promoveerde
Middel
##car
##huizen
North
vroe
studio
##ior
port
uitgebreid
grotendeels
scoorde
##standigheden
1947
##ato
vereniging
famil
stru
belast
bus
1953
##rick
##schip
televisies
voordat
##78
Slag
voert
Nij
krit
Polen
toegevoegd
##abeth
effect
tegenover
Aut
letter
##opt
verhalen
Leeuw
##aph
kab
kijk
##uven
gouver
Ser
prakt
zitten
Jon
##ype
artie
##schreven
don
39
##gre
##ales
##ova
partijen
rom
+
##ateur
42
zicht
##rijzen
##hed
verbinding
besluit
verschijn
brie
Koninklijke
##press
zieken
##ington
##OS
##verkiezingen
##75
##volgd
ogen
profession
##spl
##etje
verband
##kwam
##rouwen
Maast
Brugge
cap
Andere
##aff
Soci
##ria
honder
aart
doorg
##lor
houdt
##kk
##gever
toek
##plicht
##ionale
##uge
voedsel
Volk
Victor
##icul
Neu
mat
dw
Bart
Flor
verschil
tit
##iae
Rijks
afst
ziet
##appen
individ
##lang
prins
Alexander
militair
##onne
##best
Republiek
Marie
##bach
verzorg
collectie
volg
Im
eenvoud
terrein
handel
levens
##wiss
##ijfers
Cong
##isen
bank
Po
Fe
instrument
##oodse
##houder
elf
Part
zand
##gh
prest
ik
Pseud
Maastricht
Bol
zware
ep
boer
bewaard
rijden
gelijknam
hor
sen
##ques
rust
##agn
leiden
##vereniging
opgeheven
fabriek
##aller
meteen
kern
##iaan
Tsje
super
onderscheiden
tentoon
golf
prie
wijze
Radio
inst
##osc
zullen
Griekse
##houw
Tro
bodem
43
1951
nad
##laag
getrouwd
##atorium
##anda
Leiden
Leg
##gelijke
soldaten
Enkele
Ec
Stud
Fort
geldt
##zel
##centrum
platworm
Sn
##igheids
1932
##vliegen
televisie
Bir
plannen
1933
mic
eigenaar
versl
kapel
aanval
##lingen
##zoek
middeleeuw
##anken
##veen
vroeger
##igent
Maur
1914
Sil
kam
sprake
So
##11
Ath
##ament
1918
You
bedoeld
##raten
aanleg
gesteld
roman
Tib
beweging
##yste
hout
Inter
cre
hoogleraar
meis
populair
##gin
kaart
##ser
speciale
##otheek
##ductie
##egorie
mijn
Alf
verniet
standaard
##zee
aanzien
activiteiten
##ta
Nederlanden
##achtige
##ask
1935
##iop
verliet
confl
##zw
verkeer
oudere
Fries
toer
stroom
Lib
##ave
##stijds
opstand
vertegenwoord
jazz
speelden
South
sterke
spoorweg
Kort
verbet
##etting
]
kru
##oloog
zen
##ière
##bas
##anaal
stonden
##ima
publiceerde
Bul
erv
##annen
materiaal
Stand
kla
priv
##key
Ba
Les
##BC
150
##ena
##wassen
Georg
energie
##uning
kleuren
##aagde
Tsjech
Os
Meer
gelijknamige
Od
vroege
geluid
##ally
1937
Sak
vraag
53
onderscheid
aarde
Res
klim
Ul
ontwikkelde
##ild
slacht
betrek
##schilder
database
status
##ellijk
1934
pap
aflevering
Sol
##ios
##bedrijf
College
heet
##spro
hoeveel
Ep
weder
gericht
journ
##raken
beschikbaar
Mark
keren
##eden
fusie
##aux
##gelaten
begraafplaats
##shall
Lang
klassieke
Luik
##ractie
##neur
genoeg
vormde
##une
Partij
regisse
##15
##ello
1919
zesde
sticht
46
##klasse
India
mot
vuur
Canada
##ieur
Wilhelm
diende
##akkelijk
economische
Lux
Fer
Hem
aldaar
jaarlijks
kom
1925
Hoog
Black
##aagd
Ru
Star
##ruim
vrienden
vertal
Zeel
Niet
zijde
gebleven
48
##anische
Los
daarvoor
Sar
[
##ité
Vlaams
##ows
Prin
Ang
##ila
talen
Zweed
vonden
##hi
Des
opzicht
toekomst
Surin
##orus
Centraal
stof
Schot
55
##bon
##una
175
stadion
##iedt
##fab
heen
##bla
Pieter
trans
lie
1910
##72
##dan
##agina
gezin
1929
anal
gevol
Gr
gesticht
##haantjes
Lee
##slid
se
bladhaantjes
##oopt
oorsprong
Maas
music
Norm
##lopen
zang
Pierre
kost
hoofdrol
Haarlem
49
Zom
##ijt
##bergen
400
1900
##oni
Bay
nationaal
##ijde
x
##dent
##elftal
##rec
##14
meth
Smith
##orps
##ulden
Verd
stemmen
uitzonder
##rukt
##aalt
##stemming
##ife
rechts
aangeduid
##19
##oa
##ertijd
##onnen
##prijs
bleven
kenmer
##ugh
##oederen
combinatie
Leuven
##iens
##wacht
##unnel
##weer
FI
Oce
voeren
##reerd
trainer
##deeld
##ieu
##trekken
Vier
Mün
##heb
Kat
verle
##NA
camp
##alisme
##meer
duur
##zeker
##ön
1928
##schappelijke
not
Kore
totale
gevolgd
##zie
test
##cher
##kracht
Atlant
regen
filosof
Nicol
1924
##volgende
resultaat
oe
Hart
Royal
woonde
##oekt
orgel
exemplaren
telde
##gebruik
betekenis
dik
Drie
iemand
##ouwen
##kort
Mur
##slaan
##randen
internationaal
Bon
##ues
Av
##orven
##iddelde
1927
##aalden
##igers
dank
spon
1912
financiële
situatie
Tegenwoordig
geg
##aarten
ident
gekomen
37
Anna
May
Tibet
America
Zeeland
wis
rock
Simon
##sky
willen
Nass
52
albums
dragen
afdeling
eigendom
thema
literatuur
dipl
##18
King
enorm
bereikt
vertelt
grenst
##icatie
##cia
##olk
selectie
##smon
##irk
Bob
##acul
ko
Nationaal
slachtoff
Dag
Nationale
Zweedse
##sproken
##cil
##comm
bot
##urr
##ardin
actrice
maakten
heren
Zwitserland
##rof
Argent
document
##verh
weet
##po
Box
Ele
##odium
##13
foto
nauw
zorgde
##dra
Waar
##houding
elektron
##zetting
ziekte
##iller
1931
##othe
winter
##apens
1913
jur
##lusief
##ée
##ume
##vingen
75
cd
Der
##alistische
gezet
Ondanks
Duitsers
##iënt
1926
betreft
pp
##elaar
uitger
Bovendien
beginnen
winnaar
Cornel
1922
##loos
Ged
dir
##adering
weig
kleinere
industrie
##uth
##yclop
wand
Bat
##elsel
Zomerspelen
elementen
00
categorie
Zie
##bar
Tevens
volgen
Dam
Azië
hom
##orter
##cy
##peratuur
Stone
hierbij
Rog
oprichting
##raagd
1921
dichter
##komsten
locatie
##emar
nieuws
uitgever
Hof
Tre
##sluiting
##SC
destijds
##bus
daarnaast
record
Ly
##med
initi
bak
fre
##lig
##teit
Begin
##uldig
Stre
volledige
##eep
Wo
geï
nr
reactie
Cour
vrouwelijke
##bet
Cons
1923
##alm
##haus
##lijkheid
##BN
bisdom
vermoed
Ros
Cas
##16
##kreeft
present
Deense
census
deels
vliegensoort
##yse
Hierna
behulp
Miss
sterren
##iff
VV
##ór
gesproken
Hall
gang
Ur
ring
Vin
wind
overd
kennen
Russisch
knip
Jong
inv
opgevolgd
Cre
Just
47
gevoel
Dre
ingezet
Bert
##eta
hiervoor
##oeder
Oranje
bekendste
beleg
##rucht
zuidelijke
dyn
Arm
beheer
ontsn
voetbalclub
route
algemene
noordelijke
##haald
##volging
Low
opv
col
August
Luxem
##otische
aangenomen
##ukte
omstandigheden
##ão
up
##aai
##ero
metro
##gebieden
vogels
traject
huizen
toegang
##itaire
##merc
christ
Jack
beë
##vlinder
kr
Ray
##programma
Francis
stelt
04
##uber
##gaande
##chet
##loze
54
##stro
##waart
##acteur
##bor
afgeleid
kende
overtu
concert
originele
##amm
Buiten
CD
bevel
Dip
zilveren
##arts
##zaak
koor
Mus
##zakelijk
##ène
##igit
##cour
##ids
Han
Stichting
Max
doden
##ienst
Pop
Franç
theorie
geloof
verleden
log
##okk
##nige
59
##hen
##nemer
NA
ernst
juist
##onia
Dor
boom
##ship
toegepast
##kten
probeerde
startte
noem
koningin
gemiddelde
bestem
##sluitend
aangezien
Hoge
gevangenis
##riet
stat
##achte
afhankelijk
##gebroken
Mol
vlieg
tuin
##ations
riv
divisie
##25
arm
##akte
Hel
artiesten
##iegel
##rix
Tel
##iol
1917
##zo
fot
##wongen
Off
##yer
hoek
rand
Prix
##neming
und
halen
##molen
zoek
Sommige
herinn
Beide
houten
##bes
65
gevaar
##seg
Oostenrijkse
advoc
Ronde
vorige
verdwenen
ontstaat
gouverneur
##SV
##hoe
##kap
##ibliotheek
respectie
1911
zaak
1908
##ietsen
beeldhouw
##vinnige
##maken
specif
##hoofd
##sbis
leverde
##gte
Laur
##emaal
Veil
Golf
doorgaans
##uster
##muziek
##structie
##etjes
straalvinnige
cijfers
##fect
##ongfestival
trekken
maat
eigenlijk
176
aanleiding
1907
Gi
chem
##vor
##istisch
Latijn
respectiev
##rijden
##izen
feest
lage
veroverde
Sing
verbl
blauw
##alve
##zame
Wind
zegt
##ror
vertegenwoordig
160
Mosk
long
hang
##genoten
contin
##opening
Film
hum
prec
##ieën
concent
Gerard
##stukken
##win
Luxemburg
##ves
leggen
vergro
##leur
##field
Rud
volwassen
##ermen
##risten
Hil
##lie
voltoo
broers
zwem
##edt
beperkt
prost
##UC
##gn
rot
##hard
##ning
##lecht
##urele
##oorten
Hierbij
zondag
300
Rock
Pruis
sim
ontvangen
##nik
voorlop
##jar
drum
spin
Afrikaanse
overige
##rac
##wiki
fort
Californië
verdedig
It
##aming
##ondheid
##orten
##cuit
1906
Bus
voerde
zilver
##pad
princip
sign
##jessoort
scen
Kro
##aarse
France
##zend
Vir
moord
Bi
1905
mer
##kampioenschap
bovendien
##ppen
##RC
##ssel
Indones
164
To
VS
##aarden
Ox
Adri
instant
Brazilië
##ares
stenen
lib
stil
Poolse
##raph
##logen
toepass
##interlands
##igens
##geen
mier
##oordat
voetbalelftal
##itan
##arist
zangeres
Wint
##ulen
geweld
ouder
##elli
past
vliegtuig
##derheid
Carol
##oniem
Kunst
##genote
assist
Hoofd
##gers
##bur
exper
mogen
##74
##ye
command
Volks
Hu
Wol
##VB
##ela
##RMS
dak
##ologisch
##emarken
##elijks
tv
##indingen
Catalog
traditionele
##rot
schoon
##ili
##isp
ziekenhuis
##oure
Denemarken
biedt
Katholieke
1909
##ki
graven
##kreeftjessoort
WoRMS
##otus
helemaal
voorkomt
##aill
teksten
##asp
zorgen
##90
Heilige
gebeurten
prijzen
afleveringen
begrip
##schaft
landschap
##ét
Pap
Camb
erop
https
regie
Canade
schade
Indi
Pla
respectievelijk
##rong
##inidae
##oordeeld
dergelijke
##ieerd
tak
treinen
##ultuur
##zijds
##rod
##will
Edward
hiermee
##35
nat
adel
ongel
##76
##halve
##kamp
##iety
achtergrond
##riend
Gord
anten
ang
liber
Dom
##eform
##rib
##uen
media
##ïne
Ken
Schw
##zuur
concurr
##cus
commerc
##pot
Brits
gekregen
58
##iph
zevende
##geerde
Lu
kamp
Vit
beëind
kabinet
##uwde
opnam
##nog
eeuwen
Meg
##ocratische
olie
Harry
ann
Waal
mierensoort
groen
Provinc
Tex
motorf
hogere
Gemeen
onver
Au
##yll
dram
Ker
muur
##teken
##oper
##grade
eeuwse
Mes
##24
##schakeld
verwijst
Wash
allerlei
centimeter
zus
Antwiki
Antweb
Dar
glas
Grieken
Ram
vissensoort
kroon
Hill
Henry
##dijk
verbouw
##ures
wijn
waarvoor
vijand
##arre
##getrokken
SS
pens
wegen
dr
pan
kniptorren
afbeeld
Daarom
Brun
aartsbis
gewijd
250
stukken
bronnen
Amsterdamse
burg
kathol
##nummer
Lab
probeert
Divis
legde
##feld
neg
enig
eenheid
64
##rechten
Jim
##unk
acc
secretaris
##loopt
166
tegenst
Aj
aangev
1915
Bri
aanb
dirigent
##wereld
Bab
56
voorkeur
natuurlijke
##RO
ha
lijnen
##ated
Hum
##inge
##ossing
##ston
uitvoering
Kal
medewerk
bood
bronzen
verkrij
1904
165
Gran
Bad
veranderde
##ommen
Angeles
##ulk
achtste
##ephal
last
conserv
mogelijkheid
streek
Oor
erkend
beker
##ays
##ny
brief
##ology
Sab
geste
Som
fab
definitief
beïn
Moskou
##kunst
kamer
resultaten
Herman
##ni
Kam
conflict
Tem
##gemeente
premier
personage
kocht
##yle
##menteerd
Myr
duizen
##ystemen
bede
bewoners
rijksmon
graafschap
behe
Indiase
rem
Champion
##arth
##17
##comp
pand
winkel
Ierland
##vd
dient
##leid
##athon
kosten
opening
borstel
gehad
mult
##dier
##erkte
tegelijk
##oude
koos
linker
kritiek
Gelder
ISBN
Henri
##chus
##ommel
##volution
Dis
Gel
Barcel
Ak
1903
Toch
##asm
Ik
Feder
##rukken
Zaken
snelheid
##ongen
object
raakt
##plic
##cess
dre
ler
Ra
##vormige
IUC
donker
##yan
woning
verwant
gegevens
verscheiden
1916
Vers
Hann
kunstenaar
dertig
IUCN
noemde
##vig
##partij
opzichte
##23
Friesland
herken
train
openbare
##ridge
##itische
sporen
evenals
Minister
##ji
##zetten
bereik
praktijk
##borg
da
##hu
Bourg
geel
Cath
veranderd
gelegenheid
dorpen
vloe
iedereen
##sverkiezingen
Mi
##gewerkt
sche
piano
rap
hierdoor
Bond
Portug
vermoord
bloe
Britt
lager
##igensoort
allemaal
##waarts
oef
inclusief
controle
##baarheid
1902
Bouchet
Noorwegen
##vere
##wagen
##hoog
##olly
##yph
Naar
mate
vestigde
uitvo
avond
u
##lim
Dou
cilind
koninkrijk
1000
Barcelona
stichting
##verg
imp
titels
##ogelijke
Mary
Wolf
function
domin
rondom
altern
##vader
regionale
po
##és
droeg
Cont
brak
Wenen
##omineerd
##ellidae
##ulde
Hit
Karl
Ander
Brand
##plaatst
Not
ondanks
hetgeen
Nu
portret
Kre
##arct
##minist
probleem
economie
gezamen
##ador
##rede
##uwen
##arije
##scheiding
televisieserie
##kamer
structuur
##bele
misl
Nassau
Academie
pseud
##73
##tm
##iest
daarin
sluit
dateert
gedrag
##dert
vroegere
##plein
Groen
kwalificatie
minim
geschikt
pil
westelijke
pian
##ianen
verplicht
verwacht
aangebracht
amateur
##phen
Boxshall
##uiden
##din
##duct
##rust
verslagen
gespec
##ware
regisseur
fact
bevor
##iend
gevecht
Portuge
gepaarde
ridder
##dy
vermoedelijk
à
##adel
Gedurende
betrekking
seks
##unsten
att
smal
Nik
bijzondere
Hongarije
sem
Hug
##mont
poging
kerken
kanaal
Band
kunstenaars
##uwelijks
live
duo
##eff
##ogn
##ites
##hedraal
perist
duurde
Alp
##indt
##plant
##etters
so
zestig
veroorzaakt
##speel
behouden
Kir
bladeren
vernieuw
aanhangsels
##schouw
mondopening
##maatschappij
kandidaat
buurtschap
Hor
170
beschermd
Veiligheids
##bat
goederen
Eurovis
Portugal
uitst
Elis
##sd
Da
Washington
Michel
Ther
##21
XI
duel
meerderheid
behalve
promotie
villa
##BS
modellen
##skerk
cal
Sus
Go
by
cilindrisch
RT
##ueel
ontb
##liggende
stations
Hein
verdere
Christus
##ci
##dur
$
Joodse
denken
Wet
journalist
##79
verzameling
##the
174
##rang
tijden
borstelworm
mannelijke
##ava
instantie
antennen
##osities
##awa
koop
uiteen
##stukje
Formule
Rosen
gewicht
Rou
##fabriek
Mee
geseg
woont
palpen
slot
voldoende
##wit
presen
hol
##osaurus
toet
Lud
Arth
totdat
##edia
Best
##rogramma
Vel
ball
##ado
beleid
cirri
series
herst
##gs
SC
gezicht
ingang
Fransen
heilige
gesegmenteerd
##uwd
vrede
speciaal
krab
doelpunten
##beker
##fonie
prostomium
aangetroffen
##appe
Stra
##beiders
##etische
Egypte
voornaam
peristomium
tweemaal
Platy
Eindhoven
NS
##maat
##ws
dankzij
##uken
Nov
##lengte
aangesteld
sk
##laan
Vrouw
liefde
##ianus
##arden
dia
succesvolle
rang
##dieren
wacht
##oning
uitgeschakeld
Ron
verwoest
##óór
Italiaans
##28
##gress
##uilen
sluiten
ontslag
computer
##cont
##edel
##opter
opvallen
malen
grootte
uitm
##atting
rit
##kn
##sson
##ijven
nauwelijks
staartstukje
Techn
islam
High
Fried
gas
##iënten
Leon
Prof
abdij
professor
##wal
wapens
gebeurde
asp
Gordon
Via
priester
Bock
##eringen
hiel
##erdag
spreekt
song
loopbaan
vijftig
scenario
##öl
jacht
##vels
##66
zichtbaar
EK
doll
Neurop
##ierp
##ersen
vragen
producten
vir
##onte
AT
Post
##chem
Rod
verkoop
##opleiding
##ips
kader
gef
bouwde
coach
##menten
##stijl
krant
##zijn
##hel
gepre
strand
##ilig
elektrische
aangesloten
vic
Slo
##ronden
onderdelen
twintigste
##akers
scholen
##basis
##oleon
Gil
wint
##ograph
lagen
##orkest
##itein
gemeenschap
iedere
##oides
buitenlandse
##FC
plaatselijke
produceren
125
tweeslacht
##iform
##sburg
temperatuur
1901
##zeg
schilderij
Spaans
hervorm
Chic
zeld
vielen
Anth
slaagde
jongen
stab
Gol
Conc
podium
handels
deelnemers
stoppen
##osf
##rank
Wim
lever
olymp
##megen
kies
##aringen
##schepen
##akk
##stit
##last
zon
ill
Vanwege
Arnhem
helpen
sindsdien
##ania
initiatief
##gestelde
gedeelt
daling
Tal
versloeg
voorheen
beurt
toegekend
##danig
##riv
zeventig
Beat
centraal
##ced
volgden
##gekomen
mogelijke
##ruit
163
Do
slechte
##istan
##daagse
##teg
##olis
oostelijke
beschad
aanwezigheid
omvang
Anders
##dorp
##graaf
overstap
functies
##opp
luid
geleden
plaatste
zei
Festival
##hankelijke
wijz
jongere
##vormig
##oire
Dol
Wood
Green
voorber
warm
Bijbel
##zels
noordoosten
Nijmegen
Veiligheidsraad
veroordeeld
Jez
ser
##roc
conf
##handel
sal
Dec
Love
Kenn
120
voorbij
##zoon
Ob
Mas
bol
##derde
##dragen
Brittann
lagere
##gek
##weten
##ional
Lie
links
regels
##22
##organisatie
##poort
kenmerken
bijeen
Ou
Otto
##essen
Brittannië
vervolg
bezoekers
Lep
François
Lowry
leidt
München
uitgest
Christian
Oceaan
vermogen
ond
fys
Lond
Sj
bedreigd
##var
compositie
##teel
##än
tweeslachtig
##astie
aank
groei
##ope
##uer
Rol
##voeg
##schild
##iesongfestival
1899
proef
##aliseerd
##overd
Pers
Parlement
1898
Long
Cha
##har
##iensis
pred
gevolgen
Society
netwerk
##geme
gitaar
##ript
Lei
list
168
bier
boeren
##odel
christelijke
##beren
1896
from
lint
Cir
Hond
##sec
##oris
verdiep
Delft
rollen
grondgebied
##inderen
##icaanse
##wikkel
label
advocaat
deden
##waarde
ontwikkelen
eenoog
##jan
aft
internet
Myrm
##vlucht
Sand
Kap
André
religieuze
Constant
##uters
Alleen
brengt
oorlogs
##iefd
##richter
national
festival
datzelfde
##oder
##ison
Daarbij
erin
##achter
##OC
feder
##gelopen
Jacques
##eters
tand
spreken
bevond
slotte
Barb
##opl
Koninklijk
Gab
1895
Saksen
with
##scherm
She
Hiermee
Filips
##rob
bevatten
fir
tijdelijk
Sec
degrade
tempel
##histor
gemeentelijke
Rem
Herm
Keizer
Naties
bloemen
##tel
##licht
eten
zorgt
machine
##voorzitter
echtgenote
1890
Cost
gespecialis
Championship
Matt
Santa
beneden
##26
##oedd
Bernard
66
Sin
Nord
Aanvankelijk
Mech
##omy
##ernooien
##braak
vervaard
##akker
show
East
winst
verboden
KN
##rep
ref
Prins
##loit
heuvel
foss
€
indruk
kwaliteit
stapte
##29
diensten
##vaard
Madrid
158
##osm
Fa
vervoer
brede
staten
miljard
Web
##eksen
veelal
##kwart
Mount
##ekend
city
##ensie
##mir
mill
##olo
Journ
buitenland
##aeus
Gh
Ree
##systeem
##oli
##zy
gal
ene
Hert
##erings
heette
Academ
zelfstand
Mass
##vangel
stijging
##afel
Lit
Bron
achtt
Bell
kool
uitsluitend
Staats
erken
##iella
##esc
Yo
dollar
##rass
Elisabeth
tachtig
Instituut
tur
buur
Oek
##rel
##istiek
##rane
hotel
SV
vloot
##steerd
##bosch
vliegen
Ober
collega
##sper
##rint
##rateg
Drent
McC
wilden
Pres
By
Arthur
ongeluk
London
verscheidene
leefde
##lijnen
afgebroken
##mede
Copep
doelpunt
reizen
gedwongen
Kruis
richten
##ferentie
première
##SA
##brengen
##groepen
overigens
dans
Conserv
zoeken
Company
schilderijen
ret
##ockey
Leop
techniek
Copepoda
##helmint
kiez
##chester
meet
ondergrond
1897
##nus
##well
UE
abs
Scott
eventu
##speler
redenen
##helminthes
Platyhelminthes
##acc
Cornelis
##gracht
Sun
grij
##gedragen
Ferd
Tar
##gevonden
##anne
Pot
##elier
##oï
pagina
boerderij
vooraf
aanvallen
##yb
Ajax
hect
arbeid
zuidwesten
##aka
betaald
1880
Ta
##lein
Cat
##jer
##markt
159
Sym
Ooster
##bru
Ton
traditie
##raan
Til
verj
hyp
wederom
Jones
honderd
alt
Oorspron
Suriname
uitzondering
##zef
##ootball
Turkse
werking
Act
kleiner
leerlingen
##broek
1894
prot
##beg
##lex
scher
##ymn
Gust
bomen
Vooral
##iri
##str
##regel
troon
##ografische
##ochten
Oekra
##RA
##yen
Greg
imm
bieden
vertaling
Deut
Bred
alsnog
hoeveelheid
##alect
##uzen
##scar
Far
##ér
gevraagd
zaterdag
Kant
##ube
##oken
##gevaard
Zwitserse
Jord
##eesk
Villa
aparte
geïnt
generatie
##ificeerd
##uf
Big
Britten
studies
Chad
methode
taak
vrucht
persoonlijke
bloem
Brown
verzoek
##opus
Slow
historisch
##ulus
jaarlijkse
dienen
##sco
ast
##ati
##ound
##vrij
est
finish
63
Nor
51
##board
Napoleon
##leider
Diptera
1889
ontbre
##erts
telef
##owel
Rio
zuidoosten
##voetbal
solo
Team
appar
##undel
##AF
neef
##leugels
noordwesten
Sav
85
storm
##orpor
Bunde
noemt
##kust
hoop
##olutie
genomineerd
north
gestuurd
exc
##beweging
gewijz
##allie
##gestaan
Turkije
gezondheid
aangepast
##genoemde
Roo
##eri
Fred
Indië
viss
vreem
beiden
##inand
##raden
tijde
##ijken
84
##mach
aangeb
Stock
scheid
onderhand
uitbreiding
##gd
##velder
protest
geheim
cel
##wijzen
Fern
Daniel
misd
populaire
polder
boot
privé
dialect
filosofie
ris
##ilen
##nelheid
vertaald
Lar
mor
Anne
Hay
State
verwijderd
##even
mark
gescheiden
Oorspronkelijk
exped
Achter
directe
##ombin
Margar
verslaan
##vogel
huishouden
1500
ren
enorme
belasting
##lit
bescherming
##oks
pad
Hau
wed
##reerde
Zowel
Cyp
Hab
##richting
##ER
openbaar
play
sat
##risis
Ross
bekle
organisaties
1870
##uiding
1893
muzikale
UEFA
leek
toon
##geslacht
hoof
##ocl
800
White
Chicago
stroomt
landgoed
##atten
interview
##rimin
missie
Vereniging
##aagt
opp
vertrek
Es
minst
Williams
Stu
omstreeks
Fab
##aciteit
##VV
deelname
##onië
Joden
Noorse
zuur
##ating
Kol
68
##kleur
##unct
##issaris
leerde
trom
bezetting
gehaald
Venet
digit
VN
##matige
##edie
##icinae
Play
Dal
gerecht
maatschapp
##aantal
##periode
burgers
##rypt
ambt
Geb
1892
Grieks
##eense
##uitenant
##hn
gezag
##rouwerij
vrijwill
Mit
onth
bewust
##iddeld
##reeft
gedragen
mand
Ferdinand
Peters
akk
steeg
namens
opera
paarden
htm
weigerde
inh
gebeurt
Call
droog
spring
Et
169
##merkt
##27
Bank
##hy
Soms
autor
130
huwde
ondersoort
##wijze
lijken
##eton
kiezen
##vlinders
Tru
##isters
Jozef
##stelsel
Adel
gedeeltelijk
##oir
##wiel
vóór
##usc
##oppen
keuze
Internationale
##ijsten
##ić
ir
##onische
##quit
Kim
uitgave
##arium
uitv
rekening
ons
groene
##ector
lanc
##kson
Monte
plein
vecht
aandeel
##ffende
##rans
gegaan
Mem
Voet
Catal
Cra
Jans
toestemming
##arius
waaraan
culturele
betekende
Ast
Doordat
##arina
eerdere
Gir
##oenen
1885
##able
out
##oogd
##geld
##gren
harm
gecon
seconden
Winterspelen
173
wereldwijd
##chi
##alisten
gesloopt
wetenschap
terugkeer
One
##lazen
diam
aangek
slachtoffers
libellen
95
Ir
Press
corre
##arta
Tha
Associ
zetels
##eln
##jaren
boord
menselijke
indust
##icidae
Penn
arche
VII
actieve
Coll
verdween
overw
gelegd
vlok
provincies
##leving
##otyp
minuut
41
bem
##boeken
jongeren
##ificatie
pot
passag
Pont
Ko
##ience
invest
Joe
verdrag
##toren
UN
##ublieke
##middellijk
toeg
bedrijfs
poort
principe
regul
klimaat
##gor
1891
vraagt
vlokreeft
##uls
##weet
ven
##techn
benoem
##carrière
##rap
Pre
Commun
commissie
##dam
##atum
##spelen
##bers
Group
##inea
Of
1888
Friedrich
Eth
bijnaam
Tok
##oria
##zaal
140
Vaak
late
Jezus
Steen
advis
mochten
##jaarlijk
assistent
daad
Arabische
vertol
List
##elings
beschermen
huur
##asie
versies
Nad
bevestigd
verlies
##die
blauwe
##industrie
##oidae
Bu
##ischer
variant
pensioen
Canadese
##landen
Py
plaatsvin
decenn
Stan
tient
hectare
##mes
been
Gesch
uitgere
Australische
Hamburg
##ito
##aine
lab
Witte
middenvelder
Nog
##skampioen
Palest
woningen
spits
##graven
##lich
eigenschappen
det
opende
Bergen
betalen
Vis
vlo
gebeurtenissen
Ku
negentiende
##zig
Even
benaming
Wester
##teren
etappe
Griekenland
maximaal
Street
ingedeeld
Cle
##erten
personages
##71
luchthaven
##scoach
##beh
verklaarde
##wig
besliss
interesse
sup
zonen
##vloeden
behandeling
schaal
all
Kor
fase
##acties
##outen
##holm
vorst
##atische
lichte
vracht
tank
laatst
155
Lad
BBC
##hagen
Las
##är
##urch
##geschiedenis
##aja
my
administ
##usters
oplossing
##aga
74
voorgang
##kker
noemen
Ari
##vrouw
tonen
##versum
##aval
Bach
##ruimte
eenvoudig
##reeks
Trans
Bosch
Fel
Stef
Pter
Korea
##zending
extre
##opper
##sing
Lamb
Natuur
##inten
online
bepalen
studeren
##ped
geregeld
rijdt
bekendheid
##zorg
gras
##hausen
verkiez
architectuur
Let
Terwijl
degradeerde
##schot
##stoel
Goud
docent
##leef
lood
##omet
bemann
AC
##kere
Pra
Breda
marathon
##teert
Ernst
—
Mah
anim
verklaard
Braziliaanse
dal
##wart
opnames
medailles
##bra
##orum
eenmaal
##ission
##otype
reken
beoord
stammen
Chris
langzaam
##icale
geallie
tropische
##asten
optredens
Rac
Tay
##sprong
veiligheid
73
600
##bron
Moor
##velden
verblijf
verliezen
televisiep
illust
1878
##pret
crit
vluchten
##waarden
Law
##motor
artikelen
Bes
zodanig
##ijns
##icum
Klein
##agement
opnamen
symbool
schak
##ardo
leren
Ti
##iseerd
beïnvloed
gebrek
onderwerp
ofwel
##azine
zelfstandige
Gold
geïntroduceerd
##don
Mun
zetel
marine
Lucas
##mot
##finale
ingesteld
1886
##ulf
stopte
cong
##gas
##assic
tweekle
##uim
149
1860
tunnel
Burger
immers
##team
arts
##rium
front
vormden
##stoffen
Francisco
afwijk
fict
##bergte
##ograaf
meester
##ross
Viet
##anië
Day
Gouden
Pic
aandelen
kapitein
##elschap
Ondertussen
Eric
Young
Latijnse
##arten
Daarmee
##reeg
spann
Tet
meisje
ambten
Texas
Centrum
kunstschilder
vijftien
Math
Veen
geleverd
Laat
anti
sprak
discuss
dynastie
liedjes
##structuur
How
##pool
normaal
beroemde
Island
##él
##furt
##iver
Generaal
afgebeeld
ontmoeting
##ried
##szins
geraakt
tweeklepp
ijs
Dagblad
##izoen
1884
gewerkt
69
aartsbisschop
concerten
Alfred
##rons
Colomb
soft
##utter
156
voren
element
##nest
88
Boek
##ori
voltooid
veranderen
##ariteit
##ialen
tourn
##voerder
Hongaarse
##boven
Cou
huishoudens
paleis
##volle
Columb
##rog
Gall
zaal
Breuning
ontstonden
##lagen
overeenkomst
Finland
zuidelijk
##maals
##oeddh
##aking
jongste
kardin
##br
gaven
Var
##ès
Chin
Rail
Staat
Schotland
##ptie
Kunsten
verkreeg
toepassing
##no
ing
gereed
Onze
##spire
automat
normale
##inck
##ugen
Kem
kalk
dun
gemiddeld
tanden
cc
##jaarlijkse
##odox
Satur
Indische
gewijzigd
##ista
##orb
##amo
##arische
ei
aangeboden
precies
schrijft
##ogie
78
mech
##ampen
onmiddellijk
Plan
technische
Eliz
##rica
Sem
rijks
overgang
protestant
bedoeling
Real
Steve
##fe
Main
##geleverd
gespecialiseerd
Sha
##uta
Hub
##ammen
Mars
eindronde
Heb
##eker
Mot
geëx
2020
Paulus
##ße
##enis
Alexand
##avel
##letiek
##cohol
##RT
komst
dubbele
onbekend
##iool
##ía
##amera
Hugo
neus
Leopold
##hl
gene
##complex
millimeter
hern
Rub
##omenteel
gran
##alem
Prem
ere
restauratie
##woorden
gearre
zuster
gearresteerd
##anon
moer
##vervoer
herk
Liber
##sens
rivieren
##spraken
##bi
76
christen
Graaf
creë
##under
Aarde
wonnen
Zelf
ess
verschijnt
voorste
onderd
Salt
##rijding
ma
##itus
##ycl
Seg
##ornis
hoort
enz
Sten
verricht
##gene
kantoor
studioalbum
##atoren
##inkels
Zwolle
Hot
##scher
middelbare
1879
##rey
kond
##to
1887
House
##straf
##iereiland
afscheid
##mogelijk
meisjes
##vertegen
Nob
##uste
kleding
Mike
WTA
57
Lan
##kking
##ellicht
vleugel
##amin
Stat
350
##lucht
aansluiting
Zeven
verbleef
##grens
##oslav
Center
Tan
##esp
##ssoort
bereid
VA
Rosenberg
middeleeuwen
Windows
compl
Voetbal
##aki
##stud
monumenten
Fr
##zone
##banen
opgesteld
inhoud
presenteerde
gitarist
##osus
TV
Virgin
##stadt
treden
##vle
AD
##ouder
##sdienst
negentig
kor
maj
code
ve
Fle
##otieven
toegank
Lew
insecten
##EC
##onica
bondscoach
##jo
##aya
Bour
indien
##assade
wee
##cyclop
##antel
##activ
##uda
strateg
##vard
Theod
##verkeer
verkopen
uitgeverij
Ach
rijke
Union
##schrijver
benoemde
Teg
##ône
##delingen
verdien
##ism
specifieke
tiende
uitgereikt
Ple
noordelijk
Fir
##verdeeld
geregisse
##uï
99
program
bibliotheek
##alia
##hebber
verplaatst
##ray
##ilia
##iteld
lu
##regelen
sponssoort
negende
##schillen
evenement
Jak
ur
Sindsdien
Provinciale
maatschappij
ideeën
Argentin
vergelijking
José
##iev
##scent
Mill
Mr
Wall
Aziat
gepresen
passagiers
##stroom
documentaire
luitenant
##lob
Rein
##ieg
##olie
##streek
gehucht
gerest
##ifer
zui
persoonlijk
onafhankelijke
##bell
##idea
Dun
1882
stoffen
bad
Echter
##orium
strom
heerlijkheid
ingevoerd
Ont
Pil
zoveel
Jaar
##sblad
##boom
##ormde
##other
Ierse
schrijf
##plan
##itaal
##aatsen
##elo
98
Hoo
##ingsver
parall
zout
##ocol
1881
transport
##dtra
vergelijkbaar
klaar
bossen
Bry
##wan
##ester
##heorie
zoog
Amstel
professionele
Pel
##aks
faill
Aange
toel
##egde
uitvoer
##iete
bedacht
##ogne
Oh
##grad
FIFA
proberen
ov
Vill
Zoals
gerestau
##ika
##rent
##wek
resul
provinciale
##uay
eenheden
voornaamste
##ough
Antwerp
hert
##museum
Twente
kaarten
wal
gedood
##ochters
Roemen
procent
##spoor
oom
gol
scheep
wereldt
##aps
##inson
Mechelen
##ape
##zam
Ball
Derde
##ners
##fgoed
##45
##zin
96
personeel
##uma
Cru
wol
omroep
geluk
Hollandse
ministerie
##ión
eisen
paard
##ittingen
gemakkelijk
Ring
Wis
Holly
Jackson
vandaag
89
bewijs
##zit
##ül
##sne
uitb
alfab
nig
Mul
##utch
aangewezen
Fal
zong
voorst
leraar
##ospong
##lid
gram
verdediger
##col
vooruit
ontvang
Mann
Mong
1864
Tele
hierop
fen
frequ
advies
Life
video
Pruisen
it
Song
kerkgebouw
##mid
inspir
qua
Ash
klin
bevest
kathedraal
##kreis
Ö
Nat
##shire
72
Tony
stamt
publieke
##arl
##laus
Org
##zinn
geregisseerd
##row
Son
Normand
motorfietsen
Weten
inform
ontwerpen
verdediging
prinses
##iders
opmerk
##lon
##arie
lad
##kingen
opgerichte
Molen
Argentinië
##wegingen
Pek
##rijpen
Hass
rechtstreeks
TT
##enties
werkelijkheid
Lieve
vrijheid
Bot
Kaap
ontdekte
##ilj
##geroepen
Din
arbeiders
##ree
toeschouw
gepresenteerd
Eug
koe
voordeel
##cl
myth
passen
##ando
opgebouwd
##ça
enigszins
##kru
Margaret
onderverdeeld
bijdra
Academy
79
verbindt
gulden
achtereen
hertogdom
prop
##AC
1865
leerling
gedichten
##rachten
mac
no
##verwege
afgesloten
voorsprong
tentoonstelling
Werk
Boe
##ördin
begeleid
##TAT
##igr
1850
overge
ingen
1863
schedel
##vezels
##werper
toegewezen
##lac
straten
##riel
keur
##bureau
beschikt
##stan
Def
stuur
##gebleven
families
##reb
rac
graag
Journal
tab
1848
Id
singles
Sic
orth
Klasse
motoren
##anter
##aardoor
Commissie
avont
zender
beschrijving
Paris
##riciteit
##utten
Ster
bovenste
Seb
##elende
individuele
getekend
110
##groeid
Petrus
lar
dome
Muziek
meld
##polder
ontsnappen
Ye
##cteur
concept
##zon
mob
betreffende
Ve
##ther
buik
telefoon
Revolutie
##bahn
Joeg
realis
landskampioen
genoemde
lic
vulk
vorsten
vleugels
##uiste
AS
gre
Town
##product
geïnspire
##ronen
ontslagen
Guy
##agers
fran
ware
alcohol
##edy
Handels
waaruit
##boog
fuse
doctor
ontle
uiterlijk
##idge
1883
Ever
Rand
Beieren
SP
daaropvolgende
voorjaar
1877
echtgenoot
hersteld
uitspraak
Nou
##ootschap
Philipp
ambassade
#
##AP
1871
Arts
##iliteit
ontwierp
##unen
##bol
Dire
bijdrage
##ogram
Dijk
horiz
##oeding
vertrekken
banden
vliegtuigen
Pac
voorbeelden
Su
Maxim
##boot
Loire
volkstellingen
Link
particul
##werkte
dochters
##geh
##iction
##roepen
vervang
Dirk
Elizabeth
##fort
1830
Lake
Vos
Gö
Daardoor
beschrijft
strafschop
middeleeuwse
mogelijkheden
hals
Oxford
Lig
hyd
Ridder
zelfstandig
##vertegenwoordig
gereden
##ipes
Lind
nederlaag
predik
##tische
aanzienlijk
##rast
klokken
Rena
races
##waardig
fractie
leveren
veilig
Aal
Theater
##afé
##dex
Verk
betere
##alts
##gaat
##uiker
##aro
##etis
mus
dagelijks
akkoord
populatie
##bestuur
Bed
Ent
zwak
Bil
Out
##iefde
ingericht
Lé
##ienne
##raling
Oscar
##AS
Friese
verschijnen
##odont
Inf
neut
organ
datum
##ridae
wees
trokken
Jazz
##avor
##elijkse
apart
##kwartier
##wand
##uten
pel
##etta
##oegde
Cub
##chtend
install
toestel
Dist
vand
senator
Borg
##oke
Champions
onderwerpen
##ureel
Adolf
Taylor
belangstelling
##urus
Disney
86
##ffing
constructie
militairen
##lage
Kaz
##kruis
1876
##dorf
Dur
Lem
##jev
##oca
Benn
##skrant
##kantoor
tienjaarlijkse
afzonder
pe
jongens
##sver
ISTAT
Henk
opname
demon
83
British
noodzakelijk
Conf
woonden
brachten
Dia
##istieke
##raft
##ardi
Tsj
1874
hangt
River
Athene
##iva
##else
telkens
computers
non
Motor
##onderd
1866
rooms
Orchest
stren
##rink
IJs
Vanuit
##eiro
Roger
Times
##gegevens
Adam
deur
##oureur
1875
go
##wijn
mening
Len
drug
micro
Ala
Hom
##ky
kik
##roond
allen
CO
auteurs
war
knoop
Hierin
Indonesië
verliefd
Zwarte
Lept
herbouw
town
Tilburg
plaatsv
Kasteel
firma
partner
toernooien
decor
krachten
08
Edu
Cass
##isa
aangegeven
##race
Nem
##horst
wezen
##maar
zestien
minstens
Maatschappij
Cambridge
##kla
medewerkers
diepte
##ih
perman
wisten
kal
##veil
##oker
opst
design
baron
zoekt
##reeuw
versn
inzet
Studio
snelle
boeddh
##kanaal
##tocht
##verbinding
Esp
##wijf
lot
Joegoslav
BM
Zuidelijke
mole
Aangezien
Wie
##irt
##gaand
monotyp
vochtige
expeditie
Association
##uggen
Mu
Blue
stuurde
##selen
European
##itte
##unes
schijn
Mach
tournee
alsook
groeien
Liv
##halen
##iëren
nest
Nederlanders
Amph
##wisseling
Ot
Nam
bedekt
modern
##dad
garn
feite
papier
Enter
##ido
wek
bewind
getiteld
##ères
hits
adellijk
wiskunde
##moord
geïnter
##48
Vrede
eindigt
Leo
gerestaureerd
##mater
Show
##zanger
Chap
wereldbeker
##pels
begele
##umin
NOS
##77
lijf
##record
##rongen
talrijke
##arp
verklaring
samenstelling
##deelde
aud
beeldhouwer
##aneet
Awards
commerciële
waarnem
weergegeven
lezen
##elend
##versie
arrest
Mir
##anna
Veg
##ylvan
##36
##jarig
wijken
Juan
Maj
Keulen
05
Brad
reiz
##ijp
landelijke
Erik
fiets
koninklijke
##fried
##roduceerde
honderden
restaurant
##osh
##ulaire
tientallen
count
hierin
Juni
##range
1872
verjaard
Lange
stadsdeel
##vissen
levende
stichtte
Ministerie
Nag
##iscus
getroffen
##lust
ATP
schrijvers
Dall
Dick
verlengd
Wales
onderscheiding
vaker
Eén
##maker
spong
Cur
Roemenië
rub
##elec
kandidaten
Arnold
Standaard
overleven
onze
##asting
##wagens
##ondanks
wh
##diensten
Up
Ho
Vik
##velle
##hoorn
Charl
kardinaal
diploma
musical
##court
frag
afbeelding
##atra
1861
##jectie
##oridae
sponzen
tr
bedrag
Bis
##ittel
##alitie
Gon
uitgeroepen
makkelijk
Series
fac
eieren
verre
uitkwam
##http
##vogels
gekocht
##38
zom
ploegen
##ollis
Vijf
##illeg
##asa
trekt
Moz
##uan
##rikant
meren
bebouw
##orh
Leger
veertien
##zeren
Oper
beschuld
risico
Tijd
medische
Roe
aanvaller
1867
Elke
besp
Romeinen
##erson
afger
groeps
##zek
##immer
ochtend
##uum
##keken
##hm
##rif
GP
Dub
Pen
Cam
146
territ
tor
cit
ernstig
grenzen
redden
##gevel
##unning
##buut
Madag
verzamel
##iki
kg
cur
Dord
##itting
boog
bezet
Hitler
verwierf
slaan
termijn
etn
experiment
krabb
def
09
middelen
verdedigen
Aur
##kante
geplaatste
##cu
skel
zekere
##DR
Had
##umm
Bet
koff
##schal
wellicht
##eps
zwemmen
ervaring
##ombarde
beland
Algemeen
schad
##stitute
nadien
symfonie
voorgesteld
##iler
Vand
moslim
bevonden
##ylus
Rap
##oedig
fout
veertig
##ingsgebied
##luit
##ossen
voer
Venlo
koppel
massa
##lopende
##akije
antwoord
vliegveld
campagne
capaciteit
##ches
Corn
officier
##wintig
geken
##spartij
sociaal
verkregen
Kru
armen
Kleine
beperkte
deelnemen
##inie
##serv
publicatie
geïnspireerd
Jeff
html
##erkant
dertien
dis
wijzen
##anker
##ratis
Alt
Oct
benoeming
##vering
##staten
##dal
##pakt
klok
cer
##colle
##39
##vall
Sel
##asser
oprichter
hoogtepunt
##ijer
resten
##atic
##ospongiae
Demospongiae
IC
reisde
tegenstander
##paar
jury
wielren
Gram
62
krist
verjaardag
kever
gered
spoorwegstation
Gor
soc
gestart
##auer
Bow
vlees
onderzoeken
ondergebracht
Spec
1869
Test
produceerde
##VI
##elly
voorgaande
midd
##kin
Chem
Por
Praag
oever
##inevezels
gezegd
gelijkspel
##lasse
##iot
kiezeln
##cken
verslag
gebruikelijk
kiezelnaalden
##schien
letters
verru
##anga
Vincent
sponginevezels
Kh
Football
mislukte
Lewis
##bak
exploit
Florida
##uct
1873
Great
juiste
krabbensoort
Paus
##ils
dames
RTL
interieur
miner
Night
werkzaamheden
##zingen
toegankelijk
##vuldig
ag
##orende
##ns
##dis
##onken
Berlin
sneller
blok
brons
samenleving
slaap
##ES
##vre
##ban
Beer
line
##foort
mode
##ivier
verf
Pu
##sted
zak
Church
pir
PSV
Johnson
##ozoa
##plos
dim
##GA
locom
figuren
##graad
elektriciteit
##breng
##ilus
Sig
Senaat
NRC
vooraan
##zj
##odie
behoe
##roductie
##schrijving
literaire
148
##uzalem
onderhouden
##staan
Aud
Cu
Amb
wagen
61
Lor
Time
Lucht
Nieuws
Maarten
comple
circuit
Hollywood
##snelheid
opgev
##igan
Japans
Jeruzalem
##utel
Marcus
Victoria
overleef
Cin
Sle
Good
Helm
gedicht
##mund
toestand
Vrije
projecten
cla
commandant
##ucle
##ilië
##ody
Live
Gri
Road
zingen
##orteerd
Sat
##illy
muren
grondwet
Davie
behaald
bevoegd
##sluiten
##ariidae
Noordelijke
Voorbeelden
Manu
##glas
##vaar
1868
Bahn
trap
milieu
verbouwd
bezittingen
##pak
Pak
bruin
##BA
##tus
##houders
##cha
Tak
Marcel
gekenmerkt
##pan
nazi
onderzocht
samengesteld
gift
steken
werkten
##icola
Franz
omw
##ommigen
schrift
vesting
toeschouwers
Glo
Costa
Hieronder
uitvoeren
bass
poten
verbeterde
##ypen
##itair
##oonde
##imus
##omys
##athan
intens
##IS
67
kopen
Leeuwarden
afloop
oorzaak
##entegen
Wilson
beschikking
##sre
dwars
##uts
Wedstrijd
145
Johanna
set
##iswaar
##oont
##etering
Institute
##34
##shof
Racing
degrad
##rigade
Valen
Verdrag
bruggen
Win
##schriften
##illes
levert
##yx
##gener
monotypisch
Roem
##jon
Elect
##tuigen
Gemeente
rob
mij
geslachten
##ippen
##etto
##werg
pijn
##middelen
debuutalbum
bands
##onus
Ford
vastgelegd
##acte
##wapen
##udeerd
Recht
lichaams
bless
##bruik
ts
01
##gaven
##ploeg
Line
verhouding
beroemd
process
beschadigd
nachts
##gerecht
weduwe
hoofdzakelijk
##rup
Gast
##itat
donk
wett
##aculteit
Hiervoor
##ocent
thans
Belang
René
##bericht
Centre
bevatte
##zag
gar
Patrick
##week
Sir
##label
voertuigen
daadwerk
ox
verleend
aff
paras
Boer
##wen
##greep
katholiek
schiereiland
Berk
Iran
Atlantische
##oever
Vroeg
cilinder
##ti
bergen
hedendaagse
uitste
##strijd
##ulatie
graden
Hard
tour
##ittle
##assa
##fun
##uut
##oogde
jarenlang
ontmoette
patiënten
Jud
Harm
prima
nadruk
##etti
##middel
Schotse
gelden
##ea
uitdruk
voorwerpen
##slam
endem
##aurus
interpret
onderorde
Aziatische
Davis
drummer
EU
##rode
Sul
deelgemeente
pk
135
pak
##ez
Bommel
##eformeerde
bericht
Inn
Helen
##TM
Ama
Jas
Portugese
##di
##avan
metaal
uitgebreide
##aea
Hyp
viool
##etisch
veranderingen
waarom
text
jurid
donkere
154
legt
06
droge
rijksmonumenten
##aceae
twijf
##plat
KV
finales
operatie
##MA
Tob
tennis
Hertogen
1857
##ricten
Raymond
bedroeg
##kwamen
##outer
Alpes
verval
beschreef
Nieuwsblad
1859
Caes
bekleed
rechtbank
getal
aspect
##ocer
biosc
Way
kondigde
Manchester
bezat
Ori
poë
verwar
schilderde
##rach
gevel
onvol
lieten
##reinen
1862
°
vernietigd
##houdt
##zaken
voorsp
harde
##schen
Golden
geschil
##ikk
##bek
##EN
##zijd
Inc
overbl
##pin
Cab
aanwijz
##odon
##bs
##zers
tegelijkertijd
wijd
Groep
absol
ditmaal
##anje
spir
archive
##agnie
houd
systemen
eigenlijke
bor
organiseerde
Lyn
college
Leid
##imenten
talent
Anderlecht
Str
3000
##onata
gezelschap
Ban
varen
voortaan
##spor
rijst
##onderzoek
geestelijke
##rijn
geleidelijk
Ni
stoom
beslag
##nex
Ses
##kapel
##ologen
Drenthe
medio
oefen
##oets
wiens
heil
##ather
*
##ém
##akt
taken
harmonie
zonn
##ilt
Ferr
nek
zijk
fund
##oveerd
duizend
behoorden
afgekort
onderneming
##zant
genre
natuurlijk
##lijsten
##aagden
##rouwde
archief
##geverij
verving
gevangenen
Nick
eenvoudige
##vy
Tu
driehoek
##vige
vorming
chemische
discussie
hy
gratis
Heinrich
##ami
Ret
##kundig
##leidingen
zelden
bekendgemaakt
Allen
Media
##derijen
overgebleven
##cks
##blemen
Volkskrant
vertrokken
integ
uitgerust
##vak
##kaart
bureau
##gemerkt
analyse
degradatie
##atha
stappen
##ierde
Myrmicinae
Orchestra
Glen
reserv
vriendin
##put
Lut
##afdeling
gekleur
##ey
##oods
##ieven
versterk
Behalve
Nicolaas
Gib
Burg
##oorts
ijzer
leeuw
waarsch
Eugène
Ludwig
formule
Mast
astron
getallen
denkt
alsmede
IT
##iton
exemplaar
Das
##idion
Frankfurt
Bang
Vries
##ali
Ped
tu
##sbe
Reich
Gerrit
##eeskunde
revolutie
##ín
effecten
Bost
godsdienst
PS
##rou
##ush
##kas
##itis
tev
##aarn
Occ
arg
Brian
##meesters
Abra
Filipijnse
Mis
koers
Vo
kranten
voorganger
##war
wen
hierna
##ocratie
##aco
##trekt
identiteit
cab
##gevende
Geschiedenis
##tijdig
##sid
##anisme
merken
depress
##wijde
German
opgezet
Virginia
Dank
instrumenten
Elk
Democratische
##icip
sted
zoet
##askar
##sliga
##achel
Trop
1840
Standard
horizont
##ublike
bestuurder
pen
##inner
##waardige
Disc
Pass
##ionele
Financ
##edo
##wald
uitgesproken
Perz
favor
uitmaakt
##eman
treedt
Suz
94
##attle
##stijd
werknemers
Chinees
inkomsten
1858
gold
##uider
slaven
niemand
Amerikanen
verkrijgen
Ered
objecten
Hon
leeg
Von
Teleg
##elijken
##republiek
77
##riële
schub
vierkante
##kov
##rison
##register
Filipijnen
waterschap
Geert
kast
publicaties
veronder
##ives
Marg
Sid
Pad
Heter
raken
nederzetting
128
pogingen
mannetjes
##rez
Copa
platform
##groe
zagen
1846
##oman
administr
71
onbekende
##phus
tabel
Johnny
Nep
Old
##chin
Brusselse
verandering
Hertogenbosch
professioneel
Nar
##anny
Gio
##redacteur
achterste
##stond
communicatie
planeet
Bourgond
bewee
pants
Carlos
Venetië
bestand
Lok
Jacobus
grot
Roll
beheerd
##secretaris
illeg
##undige
##eper
Sum
wild
vrouwtjes
Wa
##deur
Georges
DNA
belangen
verwerkt
Ps
##ulpt
Bud
##semble
##ska
adellijke
##ocephal
dok
rele
hab
##alensoort
Kroat
joodse
Antonio
civ
staf
kijken
metrostation
KNVB
Science
tafel
gedacht
Graven
vervulde
##wend
Mand
ondersteuning
dingen
scheiding
##universiteit
##eira
bemanning
Bah
Aquit
Version
maximum
autos
attractie
Moder
##scentrum
stelling
interlands
Cross
atletiek
##tz
##agon
##ondigd
mes
kolonie
##head
Wij
Sebast
jar
##illon
anno
Rooms
wetten
Carolina
producent
##erve
Rudolf
achterzijde
##cor
rally
Stockholm
##hoff
toezicht
samengevoegd
Cec
klassen
producer
Haut
opkomst
Anderson
letterlijk
##fst
Finse
ins
reeksen
positief
continent
##itsj
Det
dijk
afwez
tekeningen
##zettingen
Meloidae
##eende
##ontwikkel
##alender
##led
Mede
##leggen
##voeging
organiseren
##ikel
Vil
Guinea
##oppervlak
##obi
opeen
hond
Gn
uitzending
gezamenlijk
krijgs
Moham
##ymnas
draait
uitgestorven
Tien
onderhoud
hoofdplaats
Sé
##tain
dvd
Dordrecht
Offic
McL
##urf
daalde
omhoog
romant
maatregelen
##proces
veroveren
##text
ernstige
vrouwtje
bruine
##acter
Pieters
Rhône
winkels
##alin
digitale
populariteit
700
für
Internationaal
Kamp
Meestal
Syd
ped
##iëteit
##roegen
stadsb
bussen
##attingen
##ping
##inte
##isatie
Rij
Odonata
##AN
##verlen
##eeps
##burger
##issies
behalen
reguliere
weliswaar
##wol
##icon
Division
zelfmoord
cyc
new
Madagaskar
Bent
romp
smaak
##geleken
Alpen
Baden
econom
betaalde
metalen
voorloper
burcht
trouwen
##elp
##igny
Dev
Rab
toenem
Ges
##diertjes
bewoond
Slowakije
##hoewel
##vliegt
deuren
verlengde
gezamenlijke
overgebracht
##imm
doelman
ras
##jaarden
gevechten
Int
breedte
koolstof
##atom
##feer
staal
##spiegel
Milaan
##oogle
##archie
onmogelijk
82
##lessen
##rijving
##rapt
Ric
roof
trek
##stitel
inzicht
##brand
Zweeds
slachtoffer
acteurs
republiek
Kab
1853
Palts
##CI
##imir
##instrument
1815
Honda
Landkreis
din
##ugger
Koen
libellensoort
##nod
tol
grand
##klassement
Kan
positieve
Buitenlandse
aanslag
##auw
##ingt
##eloos
Vietnam
geheime
veroverd
##odoxe
Arabisch
verkiezing
rijksmonument
##pat
Leb
##euren
software
instituut
verbeteren
Zand
Roland
##academie
##gy
##vey
Amers
cover
reizigers
aqu
Roman
Lambert
bijdragen
##oestijn
Haw
Room
Aren
Balt
Leip
Eduard
verminder
##paste
prestaties
Kw
Sac
scherm
mandaat
##uvre
Fen
instelling
##staart
luchtvaart
03
##akes
##odigd
haak
struct
evangel
139
##iviteit
voorstel
pag
special
documenten
93
place
schat
##vorming
Mans
Alk
Broad
##utatie
beurs
wijst
Eredivisie
##imb
##aaien
##eemse
sneeuw
##verl
kolonel
##productie
##asy
Haagse
dertiende
##aanval
duurt
sprint
fant
subt
##rollen
toonde
Cultuur
misschien
reage
voorkomende
voorstelling
138
Sher
barok
##verhaal
compleet
duizenden
Amersfoort
beslissing
##nij
##perk
##phia
melk
pseudoniem
##ouders
News
lukte
minste
AM
1855
verbindingen
##house
##search
suiker
herstel
División
Normandië
Handelsblad
##ights
schiet
Overij
##uidelijk
Abraham
overwinningen
ak
##leet
##beheer
##resent
##uffers
overal
verruilde
Zod
fasc
##venter
tekenen
##bit
Sub
mug
##ididae
sloeg
herstellen
hoorn
##openhagen
##aret
noch
korter
decennia
WW
Westf
Spring
geselec
coalitie
zeldzaam
1852
Domin
mooi
kwartfinale
Anto
##yo
fra
##ateau
zijden
langere
vrouwelijk
Ottom
brandstof
omgezet
##Bij
Jam
federale
##cerway
erfgoed
•
Aug
coördin
waargenomen
Gill
General
twaalfde
vervo
Kortrijk
##omus
crisis
mosdiertjes
alternatieve
##okko
site
schuld
##ruchten
besluiten
toegelaten
##eget
Soph
ruil
##raties
##kig
Java
Bak
zuurstof
riep
##arin
lat
Dra
beek
##enez
##elk
univers
##offic
overgedragen
##riter
##alth
Byzant
verzets
natuurgebied
Loth
wachten
daarentegen
##work
##wervels
elfde
##mus
##eler
Fair
Beau
Congo
Stein
Mexicaanse
Congres
##onome
Premier
Philippe
Aar
vet
##oelen
##route
##bis
Gru
zeventiende
Catharina
Bosn
Lyon
##issance
gebruikgemaakt
##itst
Cult
data
Fox
Has
07
##rivier
automatisch
moorden
##uiven
stim
medic
Heeren
patroon
##reed
spect
atelier
Tai
##olens
rots
videocl
voldoen
brouwerij
##ards
##verdedig
gecombin
Sup
##imen
ther
gezongen
westerse
##produc
Saar
Châ
##avond
##cke
##oofde
Peking
technologie
instellingen
##estiv
Ivan
explos
##aca
##heffing
Pin
##lakken
hoorde
##kee
Hilversum
Liga
rapport
##oedan
ontsp
aanpass
negatieve
##pop
Va
##axof
Theo
fuseerde
bestuurlijke
##ymnasium
nieuwbouw
zestiende
san
eet
crimin
communistische
beoordelings
##odi
Ty
##duizen
Niger
agent
##geling
adviseur
Light
gunst
regent
##sa
Cob
Got
vice
##terida
interland
Kanton
formeel
Verg
Ka
plots
olympisch
Neuropterida
Cem
##uleerd
##ipt
##rame
Liss
vloeist
##dens
##part
opvallend
Kopenhagen
##hor
Ey
specifiek
blik
##anterie
aldus
##bury
##uki
Lord
##osidae
vervaardigd
plaatsvinden
brieven
Verschillen
##IC
strik
Billboard
waterstof
dru
veen
##motten
nomin
Samuel
uitgang
##ovo
bab
##dagen
leiders
Mess
Pink
kogel
##cte
##ève
verdwijnen
129
Melan
Middellandse
Merc
##neemt
##oging
##arend
manager
camera
pracht
concurrentie
Kr
gehuwd
draaien
##entwintig
##idus
Louise
##gehouden
Ble
##eltje
opgel
Boston
##ffer
##honderd
##cert
Squ
Aven
verandert
Assen
gebruikers
##kam
##etery
Jenn
Adams
Saturn
##iod
##edict
Kent
fijn
Oekraïne
toegestaan
##kampioenschappen
Boy
Pur
##gevers
Oostende
ingenieur
opgeroepen
netvleugeligen
doop
Cand
Little
Rel
Koningin
##keten
##oseks
aandoen
Neuroptera
##ultan
Indien
pianist
wolf
##iering
moeite
spanning
Barbara
behorend
##olor
Isab
bestonden
composities
##films
##ijm
kenmerk
commissaris
Tr
waard
maximale
##bour
cellen
mannetje
##roeders
##zz
echtpaar
ondertussen
##wicht
Thor
Heilig
##hart
Lomb
dacht
effectie
getrokken
bezoeken
universiteiten
benader
aangevallen
##hai
##ovatie
##planten
contro
Lyc
Ax
##ades
Asp
interne
##ahl
##bescherm
academ
sturen
verreden
##46
Emil
voetbalbond
##ctu
tegenstanders
##VO
##icten
##cin
sier
formatie
Huber
##cilinder
##mijn
lux
Oliver
sne
daadwerkelijk
115
industriële
Micros
##Bijgewerkt
duidelijke
##éd
##cker
najaar
##ulling
Party
##illerie
getoond
##aardig
##miraal
Log
mun
Gelderland
##lu
one
Veld
bekl
proced
discipl
SA
fol
Horn
##grenzen
achttiende
##temin
doorbraak
weerstand
elektronische
##sbeen
beken
##etities
locaties
samenwerk
Uitgeverij
##ely
nag
warmte
toegeschreven
##anese
Irak
ingenomen
EC
kron
geren
regerings
Herv
biografie
##ularis
glad
Force
1849
ontwikkelingen
elders
Bog
vaart
##ental
##IN
81
Chili
regime
comment
vestiging
verwijzing
poly
Hierop
##ocon
##woud
##roph
domein
volgorde
##koop
Att
##heater
##oez
veer
##ylvania
Petersburg
##machine
##rens
##iness
afgezet
##linge
1856
goden
smalle
Joegoslavië
Polit
##eke
Fil
##igend
Marokko
##bode
Hotel
Christoph
Utrechtse
invloeden
##mere
agen
cirkel
waarden
Mov
Dankzij
Nouvelle
verzorgde
strafschoppen
groeit
##num
AV
##itor
##ness
dek
stek
skelet
##sey
But
jr
##mis
##unda
nak
varia
hoogst
105
geden
Verschillende
Tol
##elson
schuil
##igranten
##ital
Central
manieren
protestantse
1851
muggensoort
##annes
zover
wiskundige
São
Leipzig
successen
##vet
##geerd
kerst
starten
recent
##gevallen
##meth
##raaid
Eur
##ersey
Jules
gebeuren
92
klank
score
Hamp
##gebouwen
Maurice
invoering
##asi
Hubert
##cle
Krist
cou
##vanger
##ografisch
##oefte
joden
Israëlische
CS
##overen
##derdaad
##organ
arriv
##elta
Deventer
1844
voertuig
prestatie
Mort
majoor
ontbonden
ontbreken
lokaal
recre
##commissie
inspiratie
toneelstuk
Cher
Four
manusc
hemel
##iseerde
liederen
appartement
##oens
##eon
Overijssel
Kom
1800
slaat
##IA
##49
kwest
oppositie
Gert
Branden
varianten
opvallende
halverwege
Fu
zone
Aqu
machines
##ansas
##burgh
onderte
liberale
##alp
##cho
System
##avia
XII
altaar
bewegen
sed
langdur
1854
opnemen
##gevangen
DDR
Bouw
Antwerpse
lo
vervallen
##anal
Kas
Wild
##eltjes
##project
patri
Vi
##ians
##gemeinde
theologie
plaatsvond
##rief
Germ
AP
Pir
cond
##ompon
Ali
##mogen
kwaad
SK
##aert
ertoe
##gevaardigden
diezelfde
##motoren
##St
hoor
##rock
Penns
omvatte
oplever
##rade
##vleugelig
##ijdt
##heers
Mario
##icornis
predikant
##ocus
##worpen
Alger
parallel
##athus
Eerst
Sydney
verheven
##som
##erzijds
afgelopen
##tainment
opgetrokken
televisieseries
##owski
fans
Hels
angst
##imp
Nie
##ionaal
##gressieve
Cant
gelijke
hedenBijgewerkt
##mate
las
christendom
springspinnen
mal
Wilhelmina
activiteit
##lee
Algemene
hersen
##chel
Vor
Groene
stroming
##git
##pet
edel
inkt
klassiek
landelijk
Boys
##bladen
##test
herkennen
##fig
##alidae
luidt
##cellen
##ronken
Cemetery
eventueel
mannelijk
##gemeenschap
Salticidae
Dy
##ual
##rost
Wür
corresp
##ër
Rose
leen
zwanger
const
bijbeh
bundel
vervanging
##gbaar
Nederlandsche
Sü
##umen
constru
AG
##amine
Steph
1842
Last
Comité
ligging
rechthoek
Pvd
##icaal
Prot
Wagen
types
junioren
geschrift
Á
Pale
##moeder
geselecteerd
Online
legende
##31
student
Reb
##schau
erkende
koningen
hoofdpers
##erne
Hog
fan
sac
Hoek
sloten
##orpha
Card
Bryozoa
##bedrijven
verbrand
vit
vrijdag
Columbia
afstanden
##ellus
invasie
Kampioen
Venez
islamitische
##65
1843
##rassen
keert
Aley
##ateurs
Camer
technieken
bezorg
behandeld
moo
onderwij
Google
Kra
oct
Mang
schep
##osition
terugkeren
koper
wissel
Tegelijk
gerealiseerd
Philips
typisch
##liep
##volutionaire
stort
Hebreeuw
zocht
vermelding
gevangengenomen
##harm
Master
Microsoft
##ioc
Pag
tweel
gepland
oostelijk
platenlabel
Pennsylvania
##wich
##stalle
Ernest
##gart
##loyd
dam
##uiken
Gouda
architecten
Get
Corpor
vallei
##eda
Are
quad
Giovan
versterkt
Beek
unieke
Justitie
vaderland
muzikanten
##ukken
##atteland
##atiet
Walker
ervaren
Dutch
momenteel
veertiende
Conservatorium
ent
patiënt
##ukt
##steek
##zendingen
vluchtte
Dave
Arane
graad
oranje
##keurd
pijl
##acu
tweet
Gele
Militaire
##32
Fra
cast
##hangen
##aer
ban
vee
acties
hangen
##geer
kerkelijke
Mey
Peru
portretten
geïnteresse
##apie
leed
##older
##ifest
schatting
class
gesne
Albrecht
##mars
##nement
Daarvoor
aanduiding
voortgezet
##arkt
##otto
##ragon
Salv
nogal
viol
getuigen
erkenning
binnenstad
materialen
opbouw
chron
##eiding
apost
##wat
hage
Winter
districten
kopp
Russen
opslag
Emp
##ipennis
opvolg
Colombia
relaties
##alus
##navel
Ny
##osfeer
overwegen
##inf
eth
denk
##icollis
olympische
Floren
beperk
##ls
Hoorn
nucle
Miller
##ird
Vader
##krachten
sterven
toenemende
financieel
zaten
spellen
deelnam
##berger
##straße
##seizoen
herfst
verdieping
Orth
##leed
tru
##uvels
5000
PvdA
vakantie
Vlak
Schip
inderdaad
##ikken
##ubile
Alan
stadje
##hus
Lenn
Bull
secund
tracht
Resolutie
Down
Haute
Maced
##uiv
Kees
##ijft
##atieven
breken
Hogeschool
##TV
##ctief
afbeeldingen
##odor
##enter
##lande
velen
betrof
vertrekt
verzeker
verfilm
Hannover
tam
vertelde
Syr
Herbert
97
Syl
##iekerk
Jersey
##actor
snuit
##achtigen
##AR
##bruin
Feyen
##beke
Vlad
##ells
zoons
##stadion
aanvaard
##egio
Aleyrod
##reë
grijs
##aman
##osis
ramp
recente
lim
tijdelijke
herden
##kol
##opel
som
uitgen
opzet
##komende
bevriend
onderling
Margaretha
Waarschijnlijk
Chi
ruf
bestemming
toekomstige
87
koren
##terrein
gewond
liedje
bombarde
Junior
training
fer
naald
names
Courant
Surinaam
##daal
##oles
##ènes
Lepid
##kins
Mogelijk
geslachts
omged
##gekeerd
herop
Airport
Inmiddels
##steden
##ør
Maurits
openings
##schappelijk
perc
Lac
Rhe
Ing
##resident
plekken
herd
kevergeslacht
|
##oule
Profess
End
bewijzen
kleinzoon
Ré
Rut
##cast
Bapt
aanbod
onderk
##ople
Bac
etc
NP
middels
evenementen
autoriteiten
##ashi
Lag
Spoor
##quet
##affen
basket
toeristen
grootvader
##ieert
##denten
Markt
##igratie
hielden
Claude
officieren
voorwaarden
fa
brood
herhaald
recl
##iten
##naar
omgev
##ziening
dateren
rechtsz
##inton
wens
estaf
Sep
Cart
hers
tril
##vergne
dwerg
kwijt
sleutel
verbond
SD
behoeve
##isser
aangekondigd
##iks
##sex
economisch
##winkel
snelste
wereldtitel
Hasselt
Sier
Kevin
##onderwijs
platteland
gebouwde
veelvuldig
westelijk
vijftiende
##tie
lit
Urug
##ouri
##weef
vechten
verhoogd
Zü
Loc
Grond
munt
Vrouwen
geregist
trof
designated
ruit
Ut
contacten
curs
Pools
Psych
Hessen
Auvergne
Feyenoord
##bourg
kortweg
##niken
Douglas
fel
Power
verzameld
opget
Ah
caval
redacteur
Si
alb
##kring
Krij
##iac
##sin
Linn
Namen
organische
##mo
Cy
##ifera
hielp
strips
eventuele
vertellen
ondersoorten
##onisch
Daarop
Thailand
kalender
bescheiden
gewoonlijk
Š
Egyptische
vi
Baz
Barn
bese
##mannen
Found
bloot
Bez
Jur
##right
theor
##centage
gekend
Ce
Gren
satell
##eeën
Hertog
dod
Stephen
109
##undtra
Zeeuw
##uez
Opper
Challen
##arg
##bord
##andin
##alo
banen
streep
Caesar
Charlie
Joost
verdwijn
offs
tijdschriften
##appar
Laurent
afgerond
##lof
gecreë
##reserv
Beste
Liver
dorpje
minimaal
Architect
##rio
Bast
vent
##durend
brigade
Arc
len
conclus
typische
##reet
Parad
technisch
1814
Maa
down
91
##oute
dom
jarig
Sparta
Jimmy
gevoerd
hoofdredacteur
mart
##ipel
café
##standen
Ethiop
uitgenodigd
Nab
geple
##epte
1845
flav
Wiske
dorps
geschied
Jeugd
Steven
nul
##ublin
Aquitaine
##vorst
nogmaals
##werf
1839
Anthony
achttien
verzamelen
goedkop
complete
evenwel
Blo
##iliek
1838
Illin
romans
termen
voltooide
bijbehorende
##schede
redelijk
pij
1847
IJssel
##teau
Hoh
##ires
gedefin
wetenschappers
##avië
zeldzame
RK
Lijn
Slot
##alta
eng
108
##ristenen
geheugen
aanwezige
verken
Uruguay
diameter
##elat
sector
Rey
Kroatië
overdag
verdiepingen
verkrijgbaar
Jun
spl
behoefte
##59
Dj
Gy
Kong
##acional
afkort
poëzie
Illinois
Deutsche
verdeling
presentator
##gat
dubbelspel
##100
Telegraaf
##rov
Arg
lift
lessen
voeten
weinige
##reren
chef
gekopp
Fischer
congres
beslissen
omliggende
Rotterdamse
##neder
119
Dres
wieler
##bb
medewerker
1795
Hipp
mieren
Encyclop
ontdekking
Cit
vluchtelingen
##loo
Koe
atl
Space
afval
##bun
##ophia
##olische
wandel
Zuidoost
Kos
##zburg
##gegaan
Grant
drijven
vertrouwen
##afstand
voedings
##chis
##alisatie
USS
Siber
fruit
Ry
veroorzaken
##tsj
##bevol
veget
Vierde
homoseks
anderzijds
##itsing
achteren
##reis
Bulgar
Julius
NC
##iche
Bran
Moore
traditioneel
beroeps
##eleens
Goede
##usa
honden
verzek
weleens
afd
Antonius
Nederlander
##deed
Claud
CF
Stutt
houding
Bonn
overnam
##uminium
##usea
Mob
Concert
omgeven
Pé
##worth
Ohio
staande
Brabantse
##itanie
Brandenburg
##ET
Wang
heide
noordoost
##spunt
##indelijke
##grote
gedeeld
##eesten
Micha
labor
##spanning
gevoegd
##ouse
Sla
regist
videoclip
##laas
Pow
you
Wijn
kabel
##gedaan
##oefend
Nadien
Magazine
##rill
Beach
creëren
##list
Deel
schaats
118
Wes
##vormen
Frances
Mak
Buc
oce
##cours
ambassadeur
##immel
Bret
Zürich
##onna
Poes
autom
drugs
Howard
gestaan
beëindigde
##archief
geslagen
mem
1831
Maleis
bestemd
verklaren
Rick
kanker
##tek
Pep
Chal
Khan
Tsjechië
##33
##dek
##uring
Fire
Grande
##alistisch
bestuurs
verborgen
uitoef
tweetal
##beck
intussen
kruising
PD
onzeker
##ynch
978
vangen
##bep
AN
gevierd
aantallen
##indeling
beslist
Charlotte
driemaal
Cham
uitg
afsch
##dist
inval
##itch
Tokio
eiwit
##anke
middelste
##can
Wik
Zuider
legers
##lers
CDA
transf
uitkomen
##eeg
##vloe
vloer
wraak
##gewicht
teleur
Renault
##aldo
verple
##BO
tenn
potent
pion
voegde
steunde
##hield
Matthe
extreem
Ay
broed
mont
burgeroorlog
##umn
Front
diepe
lijden
vestigen
##hanger
##yi
zend
scheeps
voortdurend
##anch
onverwacht
knooppunt
##ferent
mix
##VP
##wick
Lanc
##eeuwen
##anceerd
##dro
##aton
Nobel
takken
##verenigingen
Florence
##kar
Brook
drank
danken
raakten
Hell
ult
Burn
Hout
Maximil
##si
##uiz
First
Syrië
Ost
Haven
lading
verhuurd
##erner
renn
Trin
##TC
##ulair
trams
##splan
vertoont
##uela
Schn
hoeft
##uif
Hed
cultureel
schilderen
Luis
vloeistof
onderzoekers
DS
Roc
Tab
##speeld
zusters
1829
uren
Vander
vergeleken
##bad
achteruit
##usta
##eelt
##idde
1834
##voetballer
schrijfster
##elia
slang
Giovanni
nauwkeur
Reeds
beton
keten
definitieve
overname
vermoeden
voorbereiding
PC
##ringende
##srechter
es
Boed
blijken
Liverpool
Dyn
snelweg
commando
##AM
Ral
eenmal
##wetenschappen
##jacht
dict
##rook
Toul
##passen
draag
opbreng
hockey
keuken
02
sil
Arist
Lambik
gesprek
tekenaar
##atter
gedet
tellen
Eerder
##ht
##oceen
Anis
Leuc
bioscoop
monniken
BMW
aant
componisten
hek
sin
Schwar
gebruikelijke
##omon
Matth
overleg
##materiaal
Spanjaarden
##hyd
##icap
##anner
Param
debat
afzonderlijke
136
##mb
schilders
##box
Rot
Daarin
vijanden
Bag
Exc
##mas
fem
soe
##ulata
Cari
##vorens
bouwwerk
##less
##eonato
dagelijkse
##daan
##halte
Tong
bevrijding
##cef
RC
aanmerk
tanks
Nicolas
buis
uitkomt
Occitanie
##ringt
1816
raam
Grave
licentie
##rastructuur
Campeonato
##arter
Game
kruist
resulteerde
Wag
pakken
uiteindelijke
##eti
dou
##schalige
muzikant
##ân
##schalk
##competitie
geïnteresseerd
##antes
##blik
##leger
##bellen
gebruikten
##bevel
Clark
terror
##geschoten
Corporation
##winning
Bulgarije
##ious
##ative
1835
Plant
Castle
koraal
specialis
onvoldoende
##doel
Gam
losse
Slecht
##ideo
reacties
sommigen
vondsten
##ooft
misdaad
componeerde
wijs
1200
just
##prof
Cock
vere
script
Schelde
##pr
meub
haalt
##vallend
##TS
##sal
bod
kart
##plaatste
bekroond
##üller
herbouwd
Desondanks
Lier
Philadel
Limburgse
zoogdieren
##blok
##sporen
strijk
##gi
Project
##aving
torp
Queen
ministers
Engelstalige
Fall
Genève
Tibetaanse
##arissen
##geheten
schonk
control
##ours
VVD
tar
##lines
gewest
zogeheten
XX
zuidwest
##eir
##kes
##see
acteren
gemeten
##aï
Dak
Prijs
Indian
baby
adres
Dienst
##contract
##splaats
vruchten
gecreëerd
geëxp
kerkhof
introduceerde
bord
Olden
Symph
##ellings
vasteland
spanners
Dü
Jar
##endam
Oslo
##ores
Six
##kering
##verein
IJsland
klanten
Bundesliga
##ubb
##sprink
mooie
Janeiro
hoofdrollen
##aduct
Bulg
Trich
##iddelen
##etsjer
geïdent
verschilt
##imo
1841
##gewoon
##igende
duren
glazen
vreemde
##imar
##vision
rotsen
Andreas
##42
Acanth
gecompon
geallieerde
vergadering
ion
dikke
jaagt
bestuurd
Gemeenschap
bereikten
##entoonstelling
##engd
keel
etnische
ingeschreven
##stil
##thers
leefden
Donald
reputatie
Armen
raket
##iy
##sluis
Publ
exec
Trouw
talloze
ondersteund
##ices
Vas
gemat
##atre
natur
##scholen
##ificeerde
Felix
rechte
##mech
##oton
##ophora
Kelly
emot
aangevuld
prefect
tramlijn
katholieken
Geen
Marco
Robin
gemengd
toetsen
jeugdopleiding
##eldoorn
verwezen
Heerenveen
landschappen
##etsj
##inct
##verzam
hoofdkwartier
alsof
Montre
liepen
Wy
zitting
Coen
scien
Estland
overtuigd
##these
Bever
##liantie
##arc
roe
Cyc
behield
##estuur
##ipedia
geneeskunde
##atier
struik
Bernhard
klas
Lil
uiterste
proefschrift
##leer
Sud
##ophorus
alweer
endemisch
faculteit
resolutie
##idia
##urige
punk
##datum
heten
gehand
Stuttgart
opgra
noordwest
Christiaan
overwegend
##ás
##cir
##ventie
spoedig
zuidoost
President
verlenging
Research
Maz
##ikkel
##midt
Gul
##oefen
##hebbers
aanhangers
gedefinieerd
Glas
Tsjechische
##horn
##kong
1837
Font
Pruisische
NK
ment
Famil
eindelijk
##37
##okt
##matische
vissers
dj
##teer
##itatie
Vitesse
verenigingen
##dewijn
onderv
nader
Linyph
Philadelphia
##aardige
##organisaties
##reken
Enschede
##vast
##voort
Jonge
voorbereid
##ancy
Ongev
gewap
Andrew
gevolge
verzorgd
Dro
Bruce
human
Proc
darm
isot
##boer
##poot
Wor
dete
##uleren
900
Riod
##ualiteit
##undtrack
##idi
Spen
plus
##cessie
scherp
##oux
##ione
##cultuur
landstitel
Dic
equ
moeras
##igings
meng
rekenen
zeil
myster
drin
signaal
##egel
##ibel
Chen
Serie
##olit
zwaard
voorlopig
##yne
##teams
parkeer
##apest
##fonds
Turn
##ventaris
soccerway
geallieerden
##abe
##igo
Apple
Libert
Gemen
inwoneraantal
Ein
##voeren
gecombineerd
##etts
Lov
Benj
doek
Binnenlandse
meg
greep
Valley
winnaars
Bath
claim
stadhuis
Diet
failliet
Eem
##enste
##beleid
draad
Apeldoorn
vrijgelaten
##gingen
Adriaan
Ongeveer
Suske
sluis
##aure
Ereb
stromen
introductie
126
opgeslagen
wetenschappen
Geme
Willy
Commission
enth
mini
geass
Manuel
gezocht
gronden
Hongkong
##ár
##manuel
gecont
bezitten
vestigden
ondergrondse
Tam
oeuvre
Willems
Ottomaanse
geschilderd
##yla
eu
##ieuze
##udget
duiden
##wind
Dublin
waarheid
##oro
##achus
bakstenen
Rat
hoofdkantoor
uitmaken
commercieel
Ev
##post
Seine
ramen
sfeer
omgedoopt
Instit
gebroken
##eppel
##schoten
seksuele
Lü
accep
##owa
##cole
torens
stabiel
wethouder
##iinae
Bomb
Billy
##burn
aankomst
Pyr
##oosters
diplom
dinosaur
##ermond
koepel
synoniem
##half
welk
magnet
Bekende
bediend
resident
##idel
Oss
Wien
blues
betrouw
uniform
Jes
songw
woonplaats
##inki
##ooid
serv
plast
Alkmaar
bebouwing
##igl
##ichte
gesl
wort
##ubileum
behoud
bewerk
Ald
pet
Testament
gelanceerd
boerderijen
##RI
Pach
Norman
apparaat
gestorven
Saturniidae
##oka
termin
##44
##cé
##gronden
Scandin
schaatsen
##uri
Rijnland
enerzijds
historicus
Zes
Heem
Jordan
Roomse
bleken
##loc
##iast
##ymph
##lah
amf
##onist
inheemse
conflicten
##sfase
bedien
geschonken
##etus
Lex
##parade
##geleide
##ompen
##zamen
##isseur
Evangel
Mohammed
redactie
##etterk
##essel
Veer
Album
annex
visie
Habsburg
wetgeving
jeug
Website
alvorens
##issa
ruzie
moslims
ondersteunen
Sicilië
Onderwijs
##lis
##uige
Dream
Human
konings
geïnstalle
bisschoppen
##ïs
BV
Foundation
##bod
dra
##eria
##meren
Tenn
Hamil
Rally
artillerie
##erto
Bruno
bloei
nakom
drukken
##bie
##ryp
##stone
krom
##ikking
##architect
Bourgogne
estafette
##iak
##olus
Hap
Belle
verkeerde
wille
wielrenner
Clar
Hauts
Vroeger
fietsen
luchtmacht
Acht
Bird
##aanduiding
opgepakt
tempo
##geef
##hanen
afgeschaft
Sz
##ivisies
helling
parochiekerk
aluminium
##ulke
##iekte
vermen
##nemingen
##pas
verliep
probeerden
Warschau
frequentie
##opidae
Carlo
langste
kleinste
omschreven
opdrachten
organiseert
Walt
Paral
afkorting
##gon
MI
##stede
##iqu
##jord
koffie
tekort
verwijzen
Cyprus
begrens
California
juridische
split
verwer
CA
Roemeense
elektronen
##ON
Fac
Onderzoek
##inga
##front
flink
kikker
openen
##code
Rang
bang
vredes
sten
radiop
spinner
vertonen
held
Women
onduidelijk
vrijwilligers
##rise
##zijl
Evan
Minn
autonome
evenwicht
graan
##itters
optim
Gregor
achterkant
Sky
aardbe
sterker
ruimt
##ols
##oriën
hoef
##broken
Bates
nicht
##alingen
vergez
bom
Bras
Comt
dode
Marshall
oorlogen
##iven
##igste
##beider
##nemende
verster
opeenvolgende
omwille
Entertainment
##bands
Eisen
optie
aantrek
Koreaanse
materieel
christenen
##velt
beden
gestopt
hangmat
ingrijpen
hitlijsten
ontg
##ović
Esc
XVI
chrom
Coc
Zon
har
Beth
koloniale
##voudig
Ieder
##gezicht
gesteund
##poten
##camp
factor
alternatief
##roef
gat
##vliet
FA
##annel
##oons
Frit
Midd
##ulidae
##drukt
##kerij
Guard
Beatles
bevrijd
Bec
##indings
##eleinden
##woningen
Brussels
gu
##ofas
##verkl
##ieleden
Bridge
Ult
##assel
##eizers
Griff
Sound
##maatschap
##run
Bonds
##splitst
hoofdt
stalen
tienpot
AZ
Bod
Eul
Cura
tocht
diesel
kunstwerk
Sophie
intelle
##rash
##script
gekoppeld
Gereformeerde
atm
Ouden
Sitt
halte
kanonnen
##lect
Waalse
hierover
##idium
voegen
Ted
##elles
zenuw
Afrikaans
pantser
bereikbaar
##ev
##uh
tante
mythologie
##platen
fictieve
agr
##count
onderkant
Office
vergroot
##varen
ving
##verslag
Orkest
sprong
##gebergte
uiterst
schouder
##genootschap
Tomm
Crypt
zeventien
vriendschap
##ipe
Carter
##isering
Raf
1818
Gofas
Joris
##uitsteek
##gemeesters
Jerom
Taal
Erebidae
beschikte
profvoetballer
##urger
ered
##liga
bocht
##woning
Hermann
wissels
##gal
Whit
Express
bassist
Constantin
Valent
droegen
Pf
##ride
Hur
Zut
benad
uitzicht
Compagnie
alfabetis
Loren
klassement
##sj
rena
negatief
spinneruilen
behorende
vulkaan
##auto
Cad
Yama
banken
beschrijven
##erke
Kath
##producten
Bass
ofte
vicep
basketbal
Linyphiidae
uitdrukking
Dum
Alice
verkeers
verovering
##ghan
Hul
Kurt
Antoine
##OP
Dead
Benjamin
##iëf
##oney
##atius
adem
goedge
##ibliothe
##eider
Blok
Sara
origineel
geschriften
##ex
AB
duik
omzet
gebruiker
toestellen
##OR
index
steek
Public
Serge
fluit
enthous
hangmatspinnen
##onto
##visie
bezette
Slechts
organist
##god
Aph
##tegre
Ja
humor
gebonden
hieronder
symp
Comté
effic
voorwaarde
Dim
filosoof
##ms
##taal
Paulo
opgeleid
Tj
Wee
Term
Color
autosnel
hoeveelheden
##Tube
##aturen
lossen
onrecht
Pasc
doorsne
geïnstalleerd
##zens
orthodoxe
MS
Alc
gasten
nodige
106
Emma
##scellen
Franche
kwestie
101
absolute
DC
##yrus
express
##maakt
oudheid
scheepvaart
NV
sets
##odidae
cerem
korps
alfabetiserings
1817
drama
Burgeroorlog
##ijse
gepaard
##kan
Tang
onderzee
Napels
munten
balling
gerucht
aspecten
zekerheid
bewegingen
plaatsgevonden
Myc
##flank
Gard
ritu
Curaça
Edwards
Georgia
tijdperk
onderlinge
##nie
##kool
Moe
##buurt
complexe
##geschreven
vergelijkbare
##esia
##ralis
Jama
Roth
Kennedy
eindigen
gecomponeerd
Stevens
standbeeld
##oerde
verzamelde
##ramer
Prom
platte
Pict
##fond
1836
Alfons
verwond
##aders
vermoorden
##afilm
##bossen
omstre
woestijn
aartsbisdom
gebeurtenis
##droom
kaas
##smuseum
omring
ronden
##sler
##sterven
transp
1832
##oj
##arus
##loon
Jav
meegenomen
overeenkomsten
deb
bommen
besteed
neog
prim
##ratiek
Hohen
Shang
socialistische
Back
Barry
wereldrecord
##gangers
##MI
##akel
##ieri
##iper
##alling
##sector
Broek
beetje
##ivel
Linnaeus
Noordzee
pastoor
##stemd
eiken
stopt
##oping
##orial
boet
Boudewijn
Sach
proc
##feest
Arct
Langs
verlaat
verticale
locomotieven
CE
##rence
Martinus
Ky
##esis
Lady
besm
sens
##rekken
Wetenschappen
##apel
abt
##ooper
Gelre
onsch
afgest
uiteinde
Beelden
##tuig
116
kenn
Boliv
Proven
geheten
Centrale
praten
##sess
##stop
##smiddelen
##werkers
##ensief
Pt
begraf
##iels
lente
afwezigheid
Vele
levend
Delf
##rouwer
fossielen
##vir
Mod
Fame
##bracht
metal
subsid
##df
##isd
##weig
stelsel
voorwerp
##schrijvingen
##round
prooi
zachte
dagblad
uitgaven
##zake
1813
Anno
afdelingen
stedelijke
##shand
uitbreken
vernietigen
Aken
breuk
eindigden
Stadion
##été
Gilbert
##elderfgoed
Neders
##aye
##uto
##yon
##agan
##osit
sculpt
ontleend
sto
formaat
keizerlijke
##sher
Sarah
Asc
##boten
CR
Zen
##iaat
##culus
Stads
Servië
veronderst
##aafd
Hud
##okkel
##erence
Litouwen
verspreiding
Nich
##estivals
Classic
ervaringen
##witz
consul
gebeurd
menselijk
750
buit
ketting
aanzienlijke
FM
Under
textiel
ballingschap
Mé
##ssen
Prote
passe
Voordat
##ocera
1825
##rijders
wateren
leefgebied
gevangenisstraf
##heus
nas
##illo
##ioni
Who
Jakob
Airlines
Omroep
bevorderd
Ok
##ieerde
aanvang
##sberg
##duction
spiegel
##In
##umer
##ebest
##otief
Born
inkomen
seconde
##iepen
1833
Cler
##oeid
Dend
##bourne
observ
snavel
##gebouwde
Circuit
krijgsgevangen
##ump
Sah
vandaar
Hes
Kil
hon
##ichter
tuinen
##osof
moed
rook
##breken
Danny
wonder
waarschuw
versterken
aangedreven
Vf
eleg
##staand
##verdeling
deeltjes
rebellen
Tegelijkertijd
##abon
##ases
##inth
Nev
Sloven
voorstellingen
Kau
##inker
Yamaha
intell
##aters
1600
Model
Fish
ontp
that
traden
artiest
vertolkt
Hamilton
##EG
##ogh
Cond
Arden
scherpe
soldaat
Roermond
holotype
én
##etty
Doc
Lip
bele
begrensd
veroorzaakte
##De
##leen
Boedapest
opgesloten
nationaliteit
Jansen
##bul
##melo
##ingse
trio
##steking
Schone
##beuk
##iago
Andy
##debuut
Isabella
tekening
gaten
Missouri
can
##uvelde
##zender
Hob
Mond
##idders
Afghan
groepsfase
bereken
huisvest
##EL
##äl
Oekraï
ambtenaar
beëindigd
##ijfer
orden
spoorl
kantons
transfer
cavalerie
Cameron
allereer
Mam
UNE
##partijen
Omstreeks
aangetrokken
##ads
produceert
Exp
##coach
##ecteur
Benedict
belandde
With
##wijken
vergeten
erna
Ng
##itas
Marse
genoot
maandag
bekleedde
##winnaar
##centrale
erachter
Germaanse
Anc
Gott
zaad
Deens
aangekocht
##kor
Ark
country
slangen
Operatie
##ylon
##yclops
Gustav
Besluit
##etz
stadsm
renovatie
Hat
Vre
##agens
##ether
dynam
##springen
Bartsch
##beurs
zege
dokter
achterl
Groninger
Tub
gedep
scoren
Studios
context
geslachtscellen
Graf
##ragers
stier
Valken
Cuba
##ological
overstrom
minderheid
teruggevonden
##cla
##cell
cart
eiste
Singap
depressie
soundtrack
Bj
weef
##verdrag
critici
processen
verdreven
##ogl
##iata
##quin
Mig
Krim
Forest
##ilatie
##iekenhuis
zodoende
Australian
Gaul
Mens
Challenge
##imal
1822
donder
gracht
YouTube
herinnering
Scar
dunne
feitelijk
##ways
Fant
uniek
voelt
schoot
verwante
competities
##makers
##wormen
edities
FK
##onotus
##mm
onthuld
CP
zakte
village
##star
Lun
ovaal
tijdje
verwijderen
UCI
Genk
Riet
RA
tap
1758
kostte
verbinden
##fase
weekend
motorfiets
voorstellen
##rijp
Fro
##genen
Turks
arrange
##nith
prior
avonturen
##ück
Noorder
ambacht
Aub
##instrumenten
##fus
Cry
verliest
verbeterd
toeristische
Kinder
##eph
##uizing
oftewel
willekeur
Carn
##erkerk
##niveau
schaduw
Kanaal
Defensie
##entijd
geacht
overtuigen
verbetering
##uka
##osoma
Mountain
botanische
verp
##ailles
Stefan
meldde
evolutie
gig
onbew
alwaar
gotische
verteld
Michigan
Valencia
ev
##broer
interess
bio
Gene
uitnod
songwriter
##iani
Engelsen
Bourgondië
Hop
omgebouwd
##dez
##tea
inn
##oeten
musici
platwormen
Civ
Merk
Masters
##47
Jane
VIII
##asen
hersenen
politici
opvattingen
Storm
droom
schijf
coureur
management
verschijnsel
schilderkunst
Jay
Baker
Gentse
zijnde
##43
Opera
ruggen
##vluchten
bewezen
##historische
##SCO
Laz
##oxide
beleef
kloosters
##rar
AR
Ess
Smit
details
##oedt
Bohe
habitat
Grim
exter
vervanger
##lok
Wen
dramafilm
Rain
##grepen
Diego
plaatsje
Zyg
gehoor
larven
schulden
##DA
##lov
##cum
##urd
Anh
end
##slied
Nort
zuiver
##ocal
>
Sea
scène
gedrukt
geregistreerd
##asmus
zaden
laagste
verstre
gepleegd
are
Marne
factoren
bekeken
##ellow
##voert
beer
Terug
master
Singapore
Read
Turner
Laatste
Eddie
therm
updat
Technische
IX
Home
Shar
Zutphen
sig
##fa
##fre
##lep
##oien
McG
diss
Ronald
categorieën
##back
##schat
##oureurs
##stations
ontwerper
Byzantijnse
voorstander
Queens
##ław
Beck
Palm
toenmalig
Geest
toepassingen
Lev
Mou
Malta
Dennis
liever
artistieke
bevorderen
Vest
honk
sciencef
Lob
Spir
doelen
voelde
seg
Zonder
Westfalen
goedgekeurd
Neg
##wijls
Eigen
afgeb
Organis
voorzijde
##oring
Mijn
helpt
Graham
Helsinki
uitmaakte
##ontwikkeling
beschuldigd
Ruim
mijl
Reform
varieert
##hage
ork
bruik
##laatste
stemde
Bestuur
versierd
archeologische
##ved
Bé
Your
doch
academie
strandde
##verf
Conus
musea
##zinnige
inzake
Lombard
natuurkunde
Ede
mit
Nacht
waartoe
verleende
##activiteiten
##gras
##velop
Heneg
bemoe
Brig
Arbeid
verbod
Jup
What
##orer
##model
baai
Wapen
scènes
affaire
Broadway
kwalificeerde
parad
reliëf
Service
wegrace
Afghanistan
particuliere
GT
Pi
neven
Dresden
aangetoond
IF
##mark
stuks
##soorten
Direct
kamers
Stewart
regeerde
1828
Arsen
Marokk
afstamm
tweeling
waarnemend
##rama
Gest
plaatse
##ublikeinse
Würt
##temberg
scheik
##irurg
Dolich
Sierra
##optreden
hernoemd
##afer
nit
1798
Nymph
herkomst
##lab
##grim
Sof
Boeren
Country
##ingssysteem
horizontale
Tat
Halle
verste
##verhalen
bepaalt
verbannen
naz
Tram
Charler
##stok
infanterie
##doet
##ostoma
Abdij
noordzijde
handschrift
##day
##orax
perron
primaire
permanente
stok
##utters
simpel
Middelburg
##scomm
Mind
Sociale
twijfel
bovenaan
referend
laboratorium
##ourt
##olten
conservatieve
##sseld
slagen
toerisme
Run
##amide
Lamp
Scot
Witt
pakte
Tirol
kwets
blessure
tevreden
##via
##zier
##ertoire
nature
zwaarte
eigenschap
spion
vacht
distrib
schieten
##hoden
Pakistan
##LS
zorgden
oprichters
##ography
PGA
dif
Braun
Heide
Charleroi
Roma
typen
..
...
##omson
##ageren
##sole
##depen
toed
##oteerd
impress
Jen
Somal
brev
Islam
bezetter
Opvallend
sj
uk
Pok
sultan
Nobelprijs
ziel
Denis
Nelson
budget
monding
toegenomen
##ppe
##loor
##show
Wad
##ischen
temper
ontbreekt
geluids
Clo
helik
##lax
Hills
Kroon
##ctoraat
bacter
Bea
sect
Economische
Gas
Dark
daartoe
vermeldt
##oga
##icle
##quis
1824
Serg
computerspel
Sven
##genoeg
afwiss
Nacional
uitzendingen
ta
Carp
Brach
Statist
mobiele
koninklijk
pul
vro
##often
geprom
hoofdstuk
organismen
Mall
##struct
vergader
monumentale
Apol
Verl
boeddhisme
Hag
Naz
##gedeel
##regatie
dent
fiet
##volgen
kanten
Russell
kapittel
IP
##dalen
Anat
##stalig
draaide
verenigd
conclusie
Eva
##lieden
energ
refer
Oostenrijks
Tag
Diam
Point
golven
indoor
Holstein
overblijf
gemeentelijk
omringd
##uador
rijtuigen
##kir
Rup
##attan
Free
Games
Westen
geboorteplaats
venn
verou
Prop
mist
vlek
Müller
renners
diplomat
LP
fr
##werker
Sankt
Intussen
Aa
EP
##ocraten
##zonderd
geloven
leidden
##ßen
##ertje
ermee
Grammy
Christopher
Week
##ensies
Book
winters
aanvoerder
Württemberg
##zand
##lenburg
behoor
Romeins
gegeten
concentratie
schen
dialecten
##lacht
paren
Prince
gevuld
Christen
individuen
symmet
NU
Ful
saxof
sterf
Bakker
stukje
##anningen
##mera
Jaap
staatsgreep
BS
##ouds
##heide
Sund
mast
Beatrix
burgemeesters
##inks
Claus
linkse
geïsole
fabrieken
handhaven
logo
UNESCO
stichter
Put
Sie
Toronto
Brothers
Gods
That
Wright
##rina
Gonz
##klasser
Stanley
verdienen
##ften
Euc
nou
Léon
Common
Mensen
gevaarlijk
Franstalige
##ettist
concentratiek
##eers
##olem
##ovic
ergens
ondiep
respect
admiraal
Kop
Lis
hob
kampen
##zaamheid
sporten
Perzische
groeiende
interpretatie
##oeld
Dus
Hind
grijze
mantel
geassoc
##schrijven
nabijheid
satelliet
onderzijde
##ivo
1811
gelov
zetelde
Jonathan
##constructie
wijzigingen
##ña
##ted
Cic
Thomson
gekleurd
vernieuwd
##anica
##kanker
kring
syste
streken
##houdingen
tamelijk
onderworpen
##oid
Leidse
Franken
baksteen
##aba
##azerne
Earth
Morgen
associ
sugger
##eto
Dog
mol
holes
resterende
uitsterven
Indonesische
Pius
##steken
warme
Schmidt
gewricht
voorzieningen
##scop
Fol
##eelde
1820
gam
Nash
Silver
##ouch
Loe
pau
##matisch
volkeren
Portugees
##sprinkhanen
beschikken
voc
##schappij
##iko
Sad
pale
Baarn
Network
getuige
installatie
concl
##loride
wereldwijde
##waren
##gie
IN
Ela
opgevoerd
gevormde
##por
##trent
Neer
Rijs
##itieve
Kok
gezond
armoede
mineraal
Kreis
Turijn
verpleeg
gerenoveerd
##ters
baas
sess
##voudige
velden
enkelspel
##itels
Past
Remb
Ralph
##delijke
##idiidae
##ible
AFC
Garden
manifest
##idden
Phyll
Franciscus
Surinaamse
voetballen
sterft
regiment
Row
##anthus
elektrisch
nakomelingen
Yam
Muss
Onaf
Hervormde
treinstellen
Say
Bush
permanent
Toe
bestu
Franco
beschouwen
##nacht
koel
Laura
Indust
incident
achterstand
##gg
##omorf
uilen
Andries
hypothe
gedachten
plotseling
Vogel
vlaggen
geplande
ondernemer
wisselslag
##BI
Ek
dienden
Lawrence
roze
stak
Korte
match
##keuring
##ïde
##usse
Gary
Bremen
##diend
helder
##aatschappijen
##eley
Leonard
##DS
##rine
emer
##heuvel
Konings
frame
opmars
Sittard
inrichting
##DE
mijnen
##oorlogse
##matiek
##igieuze
zwakke
bovenkant
##ypt
##wees
Cerat
Paleis
continu
##huisvest
wortels
generaties
##asis
##rain
##ermeer
##opende
Horst
verward
ontdekken
Cô
Kur
kolonisten
1812
##gevoel
##uïeten
Berlijnse
geur
##verbindingen
##ов
Coun
Lion
##haling
linie
##ogaster
##pectief
plaatsvindt
##iël
1806
illegale
##lyn
Pomp
Aalst
bekken
kok
Does
Krijt
##tte
Boom
##ubercul
##book
##geest
##voorde
##wijdte
Heren
ingel
##functie
##onteerd
##41
UK
##igon
Hey
Ran
bast
vlekken
zogenoemde
Mant
gevoelens
Oer
Riv
Sor
##culen
##imens
##bundel
blokk
##rh
Dod
Nak
vind
Ecuador
gestolen
fabrikant
Ryan
Leven
Hongaars
Venezuela
piloot
Amerikaan
Ib
hertrouwde
##provis
Phill
worst
##ropisch
stadhouder
##voc
Cten
##banken
Eugen
##wall
Neb
cha
rib
##wolde
Brugse
Linden
##producent
rockband
manschappen
aanwijzingen
See
Toy
Joan
lastig
ontvangt
BN
##ippi
Moon
Class
##phy
##clubs
Henn
Rest
feiten
##ingsverband
overleefde
mas
Heart
diagn
springen
Gemenebest
concurrent
Aru
Lau
rat
onderweg
bandleden
Middeleeuwen
##unie
eindpunt
##sprogramma
Sou
Geel
##ationele
360
##geert
1819
Saoed
berichten
onderzoeks
biologische
##reen
##utes
begrafenis
##58
ye
balk
Kampen
Potter
Gabriel
high
schol
##duizend
gevoelig
##iekt
Wei
mut
##tekening
Düsseld
cru
##spoort
March
Veronica
##asia
##rell
##antha
##inente
kopie
autobi
Parijse
doorliep
##insel
##olpen
Hunt
gebogen
richtten
gymnasium
bedreiging
Curt
synt
profit
recreatie
##dor
##ulc
pur
ruime
Curaçao
Aleyrodidae
##zang
dial
stuw
##wachting
handelen
beveil
individu
##ogo
Hir
bun
##bomen
procedure
##fact
##kels
Was
ondergaan
Chan
Istan
Raven
legend
Chel
##ariaat
genee
hyper
Tsjecho
Azer
vrees
verworven
##uite
Lub
##arisch
benadering
##éné
##quel
##fenis
##metsel
Ig
sympt
Taiwan
wervel
wortel
Huy
##ostom
##icolor
Werner
Um
Lap
maag
##betoon
##spelers
Straat
nagenoeg
veiligheids
aust
volume
Financiën
toevoeging
sciencefiction
Ki
##ribu
Tod
spiritu
verdwijnt
##lot
##etes
##ikstof
##perken
##nummers
drinken
directie
stationsgebouw
adj
dikwijls
progressieve
Sele
fysieke
Rembrand
Marseille
Lec
degene
ambtenaren
Hold
##blijven
verzorgt
„
##ebed
semi
Kansas
kunstwerken
Rö
verschillend
##breuk
##scriptie
##verdediger
Ville
zingt
tweeën
visserij
Kay
Luz
##zette
pall
nauwe
##vuld
##ziet
Lincol
##èze
##ederatie
melodie
detail
##ognathus
oph
##woners
dalen
Latijns
Kön
##xi
##acea
##pend
Emer
psychiat
merendeel
##ühr
WWE
Tach
sloop
omtrent
Kais
Sainte
reserve
meermaals
##rado
Neil
comité
##techniek
Holl
kwant
Weer
elite
Harris
Santos
Ie
Cook
##oba
hot
##bloem
jubileum
##mit
##olië
gauw
Blues
kanon
Bosnië
verklaart
Jr
leken
##ecklenburg
opgedragen
Lotharingen
Pon
Weg
Aleks
geïntegre
Liter
Montreal
gebergte
##webspinnen
beschermde
exploitatie
Pent
loge
raads
verhand
##vlo
##itre
Child
Morgan
VP
##skaja
overwinter
##esh
overde
##orfbal
##houdende
buitenste
verbouwing
##OM
XIV
Jess
calc
wegge
##zal
1810
lama
Meester
monster
romantische
DB
##lace
Kiev
haft
overk
Zwitsers
uitvoeringen
Jason
Münster
##rox
but
ruw
1823
koude
##actieve
vieren
stelden
stemming
international
lith
Ieper
##omorpha
squ
Afgevaardigden
ham
nutt
##anz
##isk
##ombe
Army
Cors
Noorden
##storm
Zelfs
branden
fungeerde
verdedigde
##olia
Gez
cant
grondleg
favoriete
Jag
Vladimir
##aler
Å
##hent
##nium
onte
##leiden
opgravingen
##idad
magn
##wapens
krijg
heerser
historie
Socialistische
NM
demonstr
opheffing
##entje
##studio
invallen
infrastructuur
1803
Manh
indianen
langwerp
<
Fat
Whe
Schoon
##inc
Fry
Fun
geacc
testen
geliefde
Federatie
Iron
##gedeelte
Keizerrijk
1826
Puerto
steekt
effectief
##icz
##opa
gaande
kelder
middag
Lincoln
rechtszaak
herindeling
vooraanstaande
Roel
Carib
afgevaard
1794
Mitch
##lichtingen
##lar
##nez
big
##intendo
Robinson
Transport
##mp
exacte
Hoch
Place
##eenkomst
opgemerkt
Nav
##lington
kapitaal
##anj
fosf
gepl
Court
Secret
wezens
afgewezen
##for
##dire
##oensis
bewoning
Düsseldorf
##desh
##omie
##wing
pdf
miste
Augustus
lidmaatschap
stadsbestuur
Brink
licham
begeleiding
Saf
##entuin
Lloyd
##schildpad
garnalensoort
Trip
##amingen
rector
Massachus
DJ
doorn
gelaten
plaatst
schildpad
verhoogde
##ffic
sympath
ontvangst
##isi
##valu
nederzettingen
Dik
##barst
##commun
Santiago
partners
vergroten
##iene
##ieze
Wiel
hevige
omgevormd
gij
gemen
meten
Ét
wets
boten
steenkool
##oise
Anhalt
Monaco
voorkant
tentoongesteld
##RS
RS
##ogon
Ian
punct
##issingen
##las
##smacht
Arena
Indiana
Scheven
Dance
Archief
Nintendo
variëren
referendum
##elux
Xen
##delijk
Tommy
zulke
boekte
naburige
gevangenschap
##villa
##iveaus
Landen
atleet
formele
landhuis
##eca
Mau
Calais
schaak
gerelat
uiteraard
KB
Two
Verb
rent
drums
Western
##gelegenheid
##idem
##rier
Cord
Soul
kringen
Internet
##lia
tent
##leybal
Metrop
Vanden
kilogram
herinnert
bevelhebber
deelgenomen
Massachusetts
##anie
godin
vereist
Vergadering
##ég
mr
Pia
##orming
Parag
##oensdag
padden
faillissement
Bun
occ
Zwart
Gun
Camil
##wo
driet
dansen
grootschalige
##cap
ballet
geassocieerd
##ija
##igne
bul
Lies
##ieraad
##gestuurd
Landbouw
verplaatsen
##EA
Pedro
##szijden
Société
lintworm
achternaam
Zil
muz
##gebra
Moto
##NC
##ioren
aansluit
reuzen
Provence
klachten
OS
tet
##monument
##hab
##avilj
democratie
##acker
rijen
##ju
Apollo
landing
krachtige
verwarring
##ED
Oliv
waterk
Erasmus
Bretagne
App
##stedt
##mieren
zuilen
functioneren
##LM
##wekt
Sau
wolken
McD
##actylus
Benelux
##øn
##oter
Zag
cum
luxe
Blanc
##leidings
sluiting
Calc
Kazach
Monten
##lé
Terry
corru
opgelost
weerszijden
thuiswedstrijd
##wering
machts
support
Caroline
##rada
##zwem
Mend
Patt
Phys
bekrit
allebei
##ïsche
Mira
Moer
groeve
##vliegtuig
##odus
Pul
More
radi
diers
daaruit
##eik
Kin
##ospel
vermijden
IA
##onny
Abd
Pit
Balk
##ilidae
Dender
Sports
##acy
##gio
milie
dergelijk
doeleinden
Bek
Eag
Noctu
reclame
fundament
Vall
##ampton
Antarct
aangrenzen
Lepidoptera
Jef
Wilde
gedem
Momenteel
opgedeeld
Nymphalidae
terugkeerde
experimenten
Viktor
geconf
##cen
##bleem
Tunes
Wolfgang
##HC
##ová
eeuws
aangrenzende
##zine
Cos
Pod
##agent
Heil
Poly
Spin
bijk
Wonder
Grondwet
eindstand
moeilijke
Andrea
coureurs
##muur
##agoge
This
Trom
Emmen
restanten
verhuizen
##mens
esc
Noors
##identen
liggende
misbruik
eerbetoon
heerschappij
##undig
Bruns
breidde
##DP
##iba
VOC
##actyl
##merken
##veland
verlieten
opgeleverd
##sse
##alom
##aculata
gedraaid
gebroeders
Wedstrijden
vat
Winn
Pacific
brandweer
##abl
##keer
Nations
regeling
##ijver
##uteerd
Marian
familieleden
Ara
pac
wier
Vereen
Kamerlid
##EM
##lau
##wong
Amé
Dion
Dort
Year
Professor
##odia
Pant
dankt
moskee
Studenten
##ohn
##core
##kast
Mik
##andra
##weven
veront
communic
oostzijde
##auff
##groen
##kaarten
essent
straling
gesteente
werkelijk
Graafschap
Duc
Rev
kernen
##VA
##iox
##loch
##otti
Süd
Hoff
Colorado
##acup
177
afmet
vloog
genera
Argentijnse
Duitstalige
geografische
##olt
Slav
spier
Bohemen
afgenomen
Lage
Wageningen
jez
Kron
opbrengst
discipline
mensenrechten
Hav
##sproces
##aaldem
gewelddad
onderscheidt
##86
Metz
Evans
kiest
From
##orteren
##verband
Record
##instituut
psychologie
##ennes
disp
Spart
##looster
Jeanne
##gemeenten
Aer
Tas
Code
Crist
Watson
stuurt
streven
zoektocht
vorstendom
##ims
McK
##groei
Vert
Stuart
deelde
cabaret
##roy
##emat
Boon
cell
benen
rassen
##rikanten
Spencer
spoorwegen
Lt
air
##omeen
Waals
gebed
profiel
##iliteiten
MP
450
Bois
Tall
##ynchus
Titel
Noctuidae
##imer
##pens
son
monnik
uitgele
Alten
repertoire
SG
Els
##eswijk
Rik
Seven
zoute
hinder
Monument
##iles
##main
##mende
Cooper
export
Helmond
gelopen
##aliseerde
##reservaat
IM
##keting
Shakes
Algerije
##vas
##ocar
##onis
Ref
virus
Henegouwen
verbindings
Cum
Pau
amp
spanningen
##üh
##cat
##ifte
##bodem
1801
Pitt
back
zeek
##ogische
oevers
Erfgoed
komende
Alhoewel
presentatie
##apte
Sib
medicijnen
##ural
Mog
Harvard
aanmerking
manuscript
Girl
sectie
opvatting
##voorziening
uith
##splein
heuvels
levensl
##verklaring
vergelijken
Now
##andering
Martins
Jacobs
##iveerd
Olivier
steunen
##ofte
Lot
Sed
##rekers
Death
kansel
derhalve
organisme
##agoog
##ralen
Cele
Julia
landgenoot
##koor
##oshi
Buff
klap
Beker
Schil
Wrest
##legging
##uvelden
mission
stikstof
##istoernooi
##mad
KP
ISO
Story
##toernooi
##uisteren
geroepen
##zamer
##oofden
Tennis
##goederen
kruiden
Sebastian
situaties
##ekte
pest
pool
hoeven
Atlanta
beschouwde
##udes
ner
Buss
Powell
agenten
radioprogramma
##ompson
##want
##rukte
##shoofd
##speelde
##tekeningen
plaatsver
##load
Merce
Porto
##izz
Led
##verlening
Sesiidae
herkenbaar
uitwedstrijd
##mak
##stat
##jagers
##kosten
antrop
Slowaak
kijkers
##ules
Loo
plot
##elsior
##insdag
Shakespe
Shanghai
##lass
Lom
##iteerd
##spreken
Review
gemengde
gestoken
opgelegd
ST
##ylan
##financ
kristal
##ocratisch
Database
posities
invloedrijke
##arum
Thü
##apper
##ovina
dwang
Family
verloopt
Bijvoorbeeld
Rhin
pond
##otisch
##racties
justitie
amateurvoetbal
##ists
meen
rede
##vlakte
dwingen
allereerste
uiteenlopende
##rata
ITF
Soe
Route
herberg
Fernando
prototype
hervormingen
##urb
Dob
Kun
##pagina
staken
gegraven
atmosfeer
verdiende
prominente
##lander
scheiden
fotograaf
##idius
##uties
Baby
Stru
##ionidae
##verzeker
monarchie
Edin
heter
Almere
##VD
##rish
Num
Boul
##inchem
schrik
##speriode
Lissabon
omstreden
burgerlijke
opleidingen
corresponden
CBS
Bobby
##aphosidae
Maleisië
harmonieorkest
Deur
##aanden
##raking
Atlas
speeld
q
jo
##eger
Thé
Milan
zakenman
kwetsbaar
variëteit
deelnemende
##gow
##pez
us
##bouwer
Cyprin
Pom
atoom
Avenue
methoden
volwassenen
Zoet
##teridae
breder
Libanon
uitspraken
##olith
Titan
Albanië
Artikel
regionaal
Mim
Loon
##idatie
Houten
conferentie
spoorlijnen
verspreiden
Gaz
Koch
betonnen
gevaarlijke
##wist
1821
drink
instru
dreigde
zoogdier
belastingen
##onic
duels
##oïde
##borst
helm
fragmenten
##gard
Medal
Modern
ijzeren
vervoerd
administratieve
##eet
##appel
gedachte
Melbourne
betekenen
##FM
##dings
Helder
bladen
onderwijzer
##hond
sam
##seweg
Belgen
academische
autosnelweg
##IL
kub
##banden
##phidae
stille
ontmoeten
Riodinidae
##acus
lin
##atiek
##delige
##üm
##leeuw
Vatic
akoest
Deutsch
avontuur
neerslag
deelnemer
Goo
heilig
Palestina
theorieën
thuisbasis
woordenboek
##ieurs
stel
voerden
inte
Minnes
Suzuki
orgaan
merknaam
miljoenen
priesters
gemonteerd
tsaar
bevoor
streng
spelling
talenten
vertaalde
##rekte
erfde
valse
zwemb
Slovenië
sneuvelde
##verkocht
Mercedes
constant
boodschap
wijziging
kinderloos
binnenlandse
tum
##vecht
eruit
impuls
buurten
lichter
promoveren
Ley
##ocamp
Field
schuin
##machines
producties
Constantinopel
##zona
put
1789
Chron
Wagner
##amus
##dale
Ins
##anners
##opbouw
Julian
dringen
liberaal
Order
Parker
Indepen
Meyrick
lezingen
werkgever
apparatuur
##uca
1700
Wegens
##gebonden
##not
##andro
##ikker
CN
Kö
MA
Gom
alp
nal
##repen
Azerbeid
##hardt
##loper
venster
overheids
##imin
##raam
##geefs
filmp
Helena
onderdak
Manhattan
##warm
650
tong
Bundes
medeop
betaling
220
Spe
Scher
Guilla
Jeroen
tiener
Nigeria
bevrijden
##yser
cas
Warren
onregel
Business
##alte
##hasa
gevlucht
aanraking
aanpassingen
conservatorium
##lap
##neem
##iking
Acad
Excelsior
bewerking
##rene
Campbell
##maatschappijen
soortaanduiding
Chir
Delta
##leveren
bestur
Michiel
Special
Bh
##ents
##othy
Peg
bon
##marus
semin
Primera
verlenen
nachtvlinder
##sbru
repar
report
Historisch
Kad
Guid
Klaas
release
muzikaal
voorronde
##anto
Cruz
NASA
Digit
leert
paste
authent
juffers
veldslag
##volutionair
Mecklenburg
wielwebspinnen
Cather
schelp
convent
arme
bachel
##stilstand
Marx
##bruine
aankoop
##speelster
notering
##akov
Bae
1791
Spar
Frederick
aanslagen
##rijder
daaraan
weigert
beweerde
##ize
##urk
##vari
##cijfers
overeenstemming
##asso
Else
Fins
detect
externe
##rion
##icher
Stalin
##klooster
keerden
##phis
Rum
wan
onrust
confront
##aac
bewustzijn
##oko
kapit
virtu
Econom
zuidzijde
verblijven
##II
##kade
Mys
##ioneel
##analyse
Valkenburg
vliesvleugelig
Frits
Natal
krachtig
##griek
1792
Wikipedia
kenmerkende
##iza
Daw
##ontein
Gabri
##mingham
chirurg
##89
noemden
herkozen
##BM
##egal
##krab
Haz
Staf
stoot
panden
wagens
Rembrandt
##iami
Magn
PA
Cool
##install
gewenste
Bie
track
navolging
##ceum
Chang
Inform
Minnesota
opvolging
vicepresident
lichaamslengte
Conn
opvoeding
##boel
##irus
112
Gou
Almelo
meters
Fortuna
pension
Araneidae
##iformis
gedoopt
grondig
ridders
NL
##rary
helden
##uurtoren
schreven
kalksteen
##sed
Ces
##osoph
##reding
koste
Eilanden
schubmieren
##apolis
trappen
##belasting
Macedonië
##ythe
##ionisme
olieke
parken
Formicinae
##ining
Borde
opgeb
oblast
mindere
erkennen
geholpen
inschrijvingen
Jung
Tempel
##vaarders
erfenis
verwerken
Î
rapp
shows
Marvel
zussen
##cup
##icks
char
##gevend
Volume
zinken
##illus
Leer
folk
erbij
Heuvel
rustig
England
Estisch
besliste
bevestigde
##olas
Rosa
grac
Collins
luister
regisseerde
##kerke
Bram
Nice
uitslag
Baptiste
vierkant
industrieel
##oea
rh
emp
##aksen
Roesel
##ospitaal
kruisen
aanstelling
##anka
##olph
##volu
Graves
Voorts
metrol
##mag
1300
1793
fouten
donderdag
##reta
##handelaar
naakt
oliekevers
##ôme
Haï
Parma
Arabië
##regisseur
bijgezet
NO
##achim
Dame
District
vertrouw
Birmingham
##veer
Ves
Sile
Galile
##alisering
verkiezings
versterking
##elsea
touw
Jerry
georiën
strepen
worstel
Tennesse
##iceerd
valid
Zygoptera
afgeleide
uitstekende
##zan
##ceae
##vallig
Miguel
batter
komische
werkelijke
##actief
##ziekte
cyclus
territorium
##üs
##uve
Clem
Floris
Franklin
ingewijd
commentaar
##69
##eli
##olds
deelt
della
aanloop
typesoort
gemeentehuis
##ains
Lav
hef
NAVO
Region
geringe
Beweging
##aily
##rete
##ijlen
Trum
vaar
Marit
Prinses
symbolen
aansluiten
structuren
samenwerken
##icaat
##groeide
omvatten
CC
##amon
##augh
##mex
##wone
Vent
Tower
amateurs
schuldig
##lena
##roen
Did
luc
aren
lead
##bruggen
Chinezen
lob
##olang
Belf
Quint
##velopment
prestigieuze
##pid
Fritz
herald
divisies
verstand
Guillaume
##erb
MC
Wels
kosm
gravin
afkomstige
perspectief
Kelt
##robeerd
vreemd
Chelsea
heiligen
kampioene
Palestijnse
##avy
##ache
##iceps
##kleuren
anderhalf
praktische
BW
twe
##omyia
Carth
##gelegde
algebra
##stedelijk
afgevoerd
afwisselend
##anti
berucht
Tennessee
##keld
##Station
voorgevel
Anisoptera
##amar
##hold
##ossa
optrad
schors
Letland
aantreden
langdurige
Maximiliaan
Alas
Mult
Miami
noten
Toneel
vinger
Sporting
fenomeen
##oye
aang
Toulouse
Overigens
##oodt
##itaat
##overn
Lisa
liturg
##vermogen
##fil
Barnard
genoteerd
plaatsing
Oe
lof
##ielden
Stadt
secret
Bijzonder
##fare
##ispa
##oires
emig
liefst
Auguste
##atem
104
##leken
Kirk
prik
column
kanalen
winkelcentrum
Ltd
Duke
Race
natte
Memorial
gewonden
testament
experimentele
##spra
Ket
##dtrainer
##loopbaan
##zaamheden
gelukkig
strijden
##ieme
Urb
1807
Arag
Kate
Donau
deleg
duidt
Heerlen
hierboven
##brü
pa
Luke
##vriend
Major
arist
voorzag
Bibliotheek
##US
Josef
Musik
doorheen
geprobeerd
kilometers
Gewest
##iona
Ocean
basgit
constante
##lain
bit
micror
stadium
Salvador
aandoening
realiseren
soortgelijke
##LA
##inda
Sony
Gelderse
industri
Yang
Elekt
bemacht
Wend
Zool
ontv
peil
##erecht
##omo
##eeks
dol
Case
Cott
Haan
snoer
##slijn
Afro
##stemmen
elektrom
wettelijke
102
Isaac
König
amper
Opmerk
Doornik
Michaël
bouwden
geaccep
gedetaille
revis
##gelingen
##officier
##dev
Harp
vondst
strenge
Oudgriek
woensdag
scheidsrechter
##journ
Bijn
Bres
##raging
zacht
dieper
waarover
versterkte
Burgemeester
##enne
##rieg
Mut
bag
1400
Spel
Wassen
bloeit
##reiz
spor
Chile
reist
mengsel
species
Edinburgh
bovenzijde
##log
##enst
isol
##speelt
Kempen
spraak
##gan
py
educ
gevest
vertolkte
##85
##amba
obl
rak
riet
verstaan
westzijde
aanwijzing
##lat
##alon
##ators
##iseren
##entertijd
PlayStation
##iang
##rive
Pun
Guer
loon
verrassen
Daniël
zwavel
tegenwoord
##adi
##hove
Vermoed
Thompson
contrast
identiek
beschuldig
##mod
##osia
Engl
Baron
Corps
binding
programm
##bew
##born
cass
ontplo
heft
binden
archipel
rechtvaard
##igma
Werken
ambitie
verdacht
Hebreeuws
overheers
neogotische
diplomatieke
##ysis
aur
Gray
Hawa
Venus
jagen
havens
Europacup
Apost
fossiel
Ear
ful
##regels
##iso
##sers
##iences
planet
sprook
Monteneg
senioren
†
Kel
##itjes
##ortus
Brid
Wies
pist
kijkt
ib
thee
Amphip
orkaan
roepen
Canadees
eindklassement
Ign
Luk
Tell
##inella
##ingham
hecht
treffen
##ranglijst
controvers
componenten
##olisch
Check
Nearct
##streekse
elektro
wervels
markgraaf
strategische
##LO
##haw
##lio
##uor
Fo
##ricus
Geom
##odigde
##auffeur
Glasgow
historici
universum
opmerkelijk
→
##alli
Indo
Pick
##college
##plement
bacteriën
unan
recept
Geograph
concessie
erfelijke
knie
Ellen
jurist
schapen
##gaard
dame
Alles
##concert
##uteerde
Panama
propag
Batavia
Theatre
##ocephalus
##alie
Jura
Hawaï
schet
Turken
variatie
secundaire
Kerst
Visser
toerde
Symfonie
alliantie
mechanische
##boy
##how
stra
kanunn
tezamen
verdelen
medewerking
box
sab
##atrice
Leeuwen
individueel
Fly
##ichus
##woude
Annie
Bonap
Silva
hoedan
vestigingen
##sequ
##haren
soeverein
Fri
Coel
Africa
Dup
Koop
##plicaties
##kopp
reë
minimum
Rijksmuseum
Fut
giet
oren
uitsteek
residentie
temperaturen
##ières
Reyn
##bledon
explic
beëindigen
##uj
Iowa
##asoort
##haalde
Warner
##andel
##odrom
##tonen
Cort
Joop
blind
tracé
Philharm
onderaan
##aasvliegen
ontwikkelings
##pta
##holt
##uiving
hervat
bewerkt
##stip
Hagen
Silez
begro
##gezinde
immigranten
##pre
Nikol
Wayne
oplage
Janssen
VVV
alk
Rost
lees
stuit
Joachim
tradities
microregio
##avo
##gels
Emile
##iensten
bedreigde
Volksrepubliek
vervullen
Bourbon
Sevilla
symptomen
gelijktijdig
Vern
teruggebracht
chromos
Olympisch
240
Deb
haast
Rangers
culturen
Wimbledon
beeldende
##IM
103
Eun
##wealth
edelen
##orgel
1802
Abbe
##ahr
1827
have
rept
tact
Coast
rijkdom
##ollen
##aptain
##heimer
Stade
hervorming
CB
Aart
eend
vloeib
durende
lopende
Spoorlijn
gecontrole
Us
##iques
##ramen
Beng
Linda
Série
dwong
abstra
Arsenal
legendarische
Ov
1808
Goes
##ontwerp
Southern
##ichi
Senior
Vie
ongew
precieze
geslachtsnaam
##uilt
history
bestuurslid
##ovi
##uga
##vie
pont
##couver
##hoogte
##istent
Mainz
Datzelfde
beschikbare
bijeenkomst
##anes
Afric
verhogen
ic
##aude
Rib
##vlees
Battle
interim
prooien
diplomaat
richtingen
renaissance
kwalificeren
##raai
anc
##arder
##strom
Licht
##ataljon
Angels
archieven
##bev
##bez
HMS
gun
##entin
##aliseren
Council
kantoren
Christina
stopgezet
provincieraad
Bemb
parcours
##soci
##öper
##oordt
##studie
bende
klant
Galler
Symphony
Genootschap
Commonwealth
##lied
Sever
beperken
##zeer
Rica
period
doceerde
versloegen
##uitsteeksels
Geomteridae
CH
##erth
run
1797
Ware
Dylan
Londense
rechtstreekse
Nova
gehan
magische
##ellingsbak
Roeselare
Nes
##iefilm
opgegaan
##eken
Enkel
gedenk
##lez
##arij
Loch
##amenten
letterk
##ellschaft
inventaris
betrekkingen
Mec
penn
##loosheid
muziekt
##iker
##wang
##ignon
Morris
blokken
breiden
achtbaan
##ixon
##stische
Ferrari
woonhuis
##heren
boor
##district
winnende
behoorlijk
##urm
Côte
Nico
##sprijs
matig
meedoen
intellect
Vlissingen
##erda
##ucky
Feb
flor
Creek
kwartier
reageren
##ungen
##bronnen
Patric
Mongool
Publish
expositie
##onderneming
vijandelijke
intre
Christelijke
1790
Spect
École
Letter
Philippine
##igg
li
##duit
##ellum
gead
##eridae
##zijdig
Aster
Cinema
gevestigde
##opol
210
##ondel
Roch
##omidae
zonne
oneind
lichamen
ontwikkelt
Hoop
praat
berekend
integraal
verdachte
##sie
##icia
Leen
heruit
##schikking
##stichting
waardering
−
vel
Bolog
Chart
verkle
Constantijn
##ality
##yrmex
##verlies
##wett
goo
1492
Keith
Mississ
karpers
vandaan
Dir
Oeg
##rella
Rhein
Bayern
schans
alhoewel
verzorgen
bestuurders
##ührer
##gering
Poort
private
represent
verbinten
Kroatische
uitvinding
##irs
##strong
Bijna
Regiment
veroverden
TR
##aland
Bier
aftreden
##waarschijnlijk
##face
##jager
Buen
Vecht
Herzeg
nadeel
Volendam
terugtrekken
Poe
Shad
Tort
infl
time
##maakte
berust
romaanse
protesten
buitengewoon
##ng
##nood
##ogene
hoorspel
kunstsch
garnizoen
prefectuur
uitgesloten
ongeh
plegen
bouwwerken
goedkeuring
##ät
Litouw
Soedan
toename
Francesco
onderbroken
Dij
kaak
Soest
##ossingen
##golf
Île
##iciteit
Beeldende
##aals
boe
cin
##abdij
beweegt
onderbre
weekblad
stamnummer
bra
##assis
Data
Trad
Nancy
stortte
beleefde
artiestennaam
##iny
PR
Fur
lam
##undels
Bonaparte
onderging
fla
hieraan
isotoop
gewaarde
Hoofdklasse
verhuisd
veldtocht
vrijmetsel
##iran
Chor
Forum
Marin
kolen
Kassel
Fré
dij
1809
Norton
wielen
Sleeswijk
##bia
##nect
gri
Haus
##sneden
Insect
Westelijke
hoedanigheid
1796
Iers
Sophia
##oorlogen
##problemen
##MC
##eile
##nomen
gesitu
natrium
gebleken
Herzegovina
##econ
mad
##agnes
##aspis
##vlieg
##genaamd
Chamber
Château
Dortmund
tegenwoordige
##otes
Doel
Essen
Kenny
dinsdag
zijkant
doorsnede
Aff
Dean
mang
haren
##straten
vereen
oorzaken
Cosm
handbal
komedie
corruptie
verminderen
overgeplaatst
##kige
ABC
Nas
##derik
Pyram
Schul
naged
autonomie
bestuderen
Nedersaksen
##time
##jaars
##szorg
borg
clan
##dissen
Bene
ingeh
Design
Eenmaal
kortstond
Gravenhage
stellingen
##AA
##igu
Ae
gif
Milit
Austin
Houston
##arest
##serie
Murray
rapper
melding
##ificaties
opgelopen
vermeende
uitoefenen
Fed
standpunt
waarnemingen
##asma
Zap
Garc
carna
beïnvloeden
##lesse
##lating
herzien
overtre
viering
eenmalige
ongebruik
Haarlemmer
plaatselijk
##imes
##inia
Bee
ket
##achen
##iphop
Stol
Vegas
songs
Alaska
aardbeving
tennistoernooi
##eor
##uba
gekleurde
gelovigen
grafische
##axa
##more
##dheid
##ongel
correct
animaties
##pis
##meden
1799
teleg
verlopen
##ów
Guz
Viv
Head
Rood
pelgrim
veroord
Onafhankelijk
##idis
Lum
bil
##zucht
##hertog
statistiek
Wir
Atlét
Fransman
bevoegdheden
Boris
amfib
gering
haalden
##rone
brom
##wijding
landings
theaters
##ingel
##andaal
##oftware
##gekeerde
Ethiopië
eenzelfde
geschikte
##agh
##uras
lan
##ories
reus
##icisme
afrit
gedat
vleerm
gletsjer
stripreeks
##ilo
##ados
##olini
##vrijheid
Martens
drietal
##esa
##prins
Poll
klei
Edgar
Fonds
Imper
verpl
Bloemen
viaduct
##bok
##lach
Lod
dar
koud
onen
##figuur
##streep
Bergh
Cohen
Armenië
tubercul
restaurants
betrokkenheid
Acc
##ivoor
1804
pour
##erdijk
exact
Segunda
ranglijst
##ermo
kara
Speed
Boeing
Harold
sterkte
fragment
##ophila
Match
##ificeren
##annon
##ified
trend
Strand
##stitution
kritische
uitvinder
gesprekken
verwachting
##aver
##aves
Pays
imper
communisten
uitnodiging
PP
Gay
opd
##labor
##rator
volksmond
hop
Krak
flex
##anicus
vroegste
##ilie
##making
medisch
Bordeaux
vegetatie
##ovski
##illing
stief
Winters
mensheid
hellingen
##leans
Josh
draak
missen
equival
ensemble
Cyprinidae
democratische
boeddhistische
Wu
Alab
vrijk
Newton
Scheveningen
##lekt
Navy
Navar
Hengel
reageert
rechthoekige
trib
##mijnen
Myrmele
Profiel
##heel
##rage
##edert
Hope
kozen
bekijken
intermed
voortplant
revolutionaire
karakteristieke
Köl
Mei
Cram
Crit
Must
##mingen
Esper
lands
strikt
##odontidae
opperbevel
Koer
desk
Parool
·
cy
##ibus
##ungs
Page
Valle
benodigde
##card
##iane
holle
under
calcium
honkbal
Electric
patriarch
vuurtoren
##utus
juw
##spits
boos
##mering
Schum
##kundigen
Marathon
##iji
Ned
Worm
tuss
county
commune
Armstrong
afgewerkt
##sbed
##zege
Elf
Gos
##igheden
aanpak
concep
slapen
Juliana
kikkers
lidstaten
##feu
##amps
agress
breekt
overhand
Mississippi
Kramer
bewaren
verdubb
bezetten
zeespiegel
toentertijd
Abb
Gob
##ummerd
Strat
Moeder
vakbond
geschrapt
##rs
Lek
USA
nut
verkeerd
##homa
vuil
##eilanden
##rekening
Matthew
bezicht
Atlético
gemeenschappen
Tip
##sende
1787
Beeth
People
aanvullen
##vraag
Fren
goals
consum
Divisie
compress
geruchten
maatschappelijk
##IT
##gangen
Rolling
Studies
aangedaan
gebrouwen
Labor
Thijs
##kijk
##riep
##kruid
Blauw
Global
Salzburg
ES
##agel
Borne
duinen
##illennium
uitbrengen
medeoprichter
lp
##atar
Alain
Genesis
gepromoveerd
##jen
bran
Meyer
Alberto
##uidt
Gamb
uitgev
##voorstel
illustraties
oer
##laten
##zetel
oork
Regio
morgen
Catherine
different
wereldranglijst
##sta
##gier
Gün
VRT
Buck
Stern
beloften
stabiele
Aga
Kob
fles
Edwin
Duitser
operaties
##ïsme
##onium
Agnes
spont
Social
acteer
aangekomen
geboortestad
##200
Lj
107
Pard
##geschikt
Roberts
##aamde
##eeper
Arri
forten
keizers
Sciences
voorlaatste
Zh
##ussia
##ández
Grac
XIII
Mexic
##rome
Sas
rif
##ature
hoopte
ontdek
oversp
protocol
seksueel
trainings
aangepaste
geïdentificeerd
##ulum
##ource
##ulatus
vernield
begrijpen
##erta
myst
##klahoma
gelezen
violist
synthese
Thüringen
veroordeelde
##fec
Pis
##ieter
##opoda
Dale
autoc
##mandeur
modder
nation
besturen
sediment
verbreed
vervoeren
overlevering
parlementaire
persoonlijkheid
lip
Buch
Herr
##centra
Iedere
Turbon
compens
##haen
Hee
Eddy
Vlag
deal
schot
ongeval
Harrison
Turnhout
muziekped
vormgeving
voetbalclubs
##werby
waterd
munitie
notaris
Oklahoma
##stregeling
##aribo
VARA
fraz
##erveerd
Bachel
Gezien
Saoedi
zwembad
##sproblemen
verzorging
Communistische
Bib
stevig
##geslagen
medaill
##bescherming
bekendstaat
vaz
##olven
Peel
Stro
##schema
##treedt
Banks
##positie
Vancouver
festivals
grondslag
principes
##aardigheden
bestrijden
ondernemingen
##fter
eed
##groot
##lager
Muse
eraan
kostuum
football
verhuisden
voorouders
##lev
Ner
standaar
filosofische
strijdkrachten
##lange
##ubbel
Lande
toven
perfect
Jol
##https
onop
Justin
hagedis
##hin
##udi
##ught
##kenning
mijnbouw
weergave
publiceren
##kat
##steam
Isch
Palace
geëxec
Bolivia
peloton
Godfried
Japanners
BR
Oz
##soni
Lys
Joods
jonger
koopman
doorgang
Hetzelfde
desondanks
##ckel
##emer
##rett
Haas
molec
remix
diamant
uitbarst
behandelen
uitgeleend
##DF
##ssa
##atory
sedert
unaniem
NH
##klim
##opte
Pand
obsc
##lopend
Micro
Mathilde
voordelen
teamgenoot
##chez
Goet
##aviljoen
kritisch
vensters
bijgenaamd
sy
Set
##staal
Cycl
recher
voeden
Turbonilla
Heel
##blokken
achtige
christelijk
natuurkundige
##yclus
uiting
trachtte
##gezondheid
##onsin
Gogh
aanm
Rodrig
opgest
verlichting
Chaud
Dekker
Thomis
Most
Nest
Diverse
Frankische
##vill
Kla
roy
##acher
##methode
oceaan
oordeel
verwarm
gegroeid
religieus
presenteert
Fla
##escoop
artsen
Paramaribo
fal
##resco
Metro
##akkoord
contra
Universal
##ility
Schm
oplos
Julien
gehoord
verrass
omringende
AJ
##ffect
##gorit
1805
Sneek
Voort
Zhang
ongen
Contin
plecht
uitleg
argument
##wars
AVRO
Orleans
Aleksand
opleverde
moeilijkheden
Maan
spit
##apping
matrix
meende
##gerekend
arriveerde
Fitz
luidde
tweeta
tevoren
Magdalen
dichters
##iman
MTV
##ioden
Wijk
Work
full
morf
stal
##itisch
exclusief
afmetingen
##DI
##ryl
##dera
Carel
Schön
Schied
dichtst
ord
oogst
tenzij
praktisch
##loog
Roos
Capit
pleeg
stamb
Nathan
Territ
Straats
##optredens
locomotief
Typ
Benny
hoeken
spreek
contain
postuum
stierven
##ège
##iser
##ronk
Pab
bef
Chlor
tempels
optreedt
aangevoerd
##niet
Jed
han
nom
##yllis
##aadjes
aanleggen
theoretische
##ocke
Ward
##lopers
danser
normen
pakket
Georgië
account
volgend
voorgangers
appartementen
sabel
Académ
extreme
pleegde
schacht
percentage
##spers
1750
Levi
Mold
hevig
voelen
stijlen
verbeter
Istanboel
##abele
##breed
Kings
robot
verdedigings
##kroon
Wouter
Clemens
gemaakte
consumenten
Rue
Zar
bots
plun
gedekt
plaatsten
1100
##inaire
##ishand
Beier
##schreef
Juvent
streef
##ationeel
verwerven
##trekker
Kameroen
moleculen
111
Kaw
Wals
roep
##andant
gematigde
buitenkant
statistische
##yes
##aagse
##teurs
Schl
roept
Dakota
##arbeiders
periodes
Tibetaans
ruimtelijke
teruggetrokken
##55
Rw
##vuur
##regio
news
##uleerde
slaagt
integratie
Aller
geliefd
##ionistische
##wi
Alph
Drag
##aughlin
supporters
vernietiging
##ochter
##juffers
avonds
kenden
Germain
broeder
Limburgs
McLaughlin
##sko
##weit
Sowerby
stengel
Regering
##aards
##eders
##icula
##zinnig
neuro
Meijer
Summer
Gerardo
voorafgaand
Fem
Hudson
##ensl
CVP
Ort
Daily
felle
##ducties
##idingen
medium
Brooklyn
bondgenoten
##uti
ADO
##ermis
Athlet
ogenblik
Brouwerij
toneelstukken
navig
##beenderen
Groenland
Amstelveen
hyb
##bezit
Laus
Mons
hoed
Plato
reclam
Gauliga
vervuil
overblijfselen
##uses
Namib
zweef
##ermuziek
negentien
moeilijker
ps
Ligue
tekens
bibliothe
schoonheid
Straatsburg
##cs
1775
basale
poppen
gestaakt
vertalingen
##roit
fat
##ittee
##stechn
Bazel
slank
blanke
oproep
transform
randen
Library
intrede
afgevaardigde
Bald
Tobias
opgeven
wekelijks
Belangrijke
das
Half
Perk
Sang
promin
rijders
symbolis
gewapende
##omi
##buis
ext
VPRO
vangt
##reiking
Spider
finishte
gouvernement
##ega
##ooiing
Canad
onaan
stage
##zwemmen
Schiedam
##apa
Scha
##netwerk
##othrium
comput
##ronteerd
Jamaica
inspecteur
##99
app
lukt
oversch
Schiphol
begrippen
gesitueerd
helikopter
wou
Rico
Siberië
aangehouden
beslissende
dé
##oote
##spec
NPO
Sri
Anal
Malm
##voegen
##iculata
##landers
jaartal
Oekraïense
##orno
Gla
##odore
##stromen
botten
gewezen
ontspringt
dienstplicht
Coe
##ouard
minor
geform
Channel
doorgaande
##music
bril
Uitge
##isconsin
##ostichus
fabrieks
begeleiden
uitgewerkt
##him
##anium
Benz
noot
##ervrij
Lille
revised
##bier
Spa
inch
Evert
Mathe
Northern
##conferentie
Technology
Kiel
porte
##anteles
##unction
Management
melan
dichte
voordracht
##iost
Boc
Hern
Wars
Geoff
cross
Dragon
Landschap
Shakespeare
230
IOC
Tac
Emmy
##unnels
##ftallen
##orpioen
English
grandslam
zitplaatsen
vennootschap
##hum
Lop
Guin
##unctie
figur
zegel
Gregory
beoefend
##alty
##tend
Servische
Wisconsin
Vermoedelijk
verschijning
HC
miss
span
eitjes
Bologna
sterkste
syndroom
keurvorst
bombardement
Div
cogn
Beleg
Giuse
level
##vechten
lander
eigenaren
##ular
##sleden
##gehalte
Informatie
##anta
##istes
geladen
legioen
openlijk
planeten
groothertog
##chy
##muggen
Echin
Luther
Magnus
anarch
uitgedrukt
enthousiast
##nick
##oornis
keram
stelen
overheden
##vliegtuigen
afstammelingen
##zt
Fok
##sites
##wekkende
Verbond
Brunswijk
geaccepteerd
##asar
##koming
Origin
×
SO
Bug
Mozart
schoen
##sma
##velde
harp
Susan
preek
Vandaag
missies
Stedelijk
hagedissen
##ïnes
rouw
##ebo
Kit
Wed
jap
##onnis
Gang
##enburg
confrontatie
##bem
Tax
##letin
##umont
Versch
wijdde
collecties
dinosauriërs
##huy
##uigi
Santo
Unter
alfabet
gesplit
wetenschapper
##IP
##etijd
Kuip
gesc
##altaar
##status
##roerend
expert
vergift
Castilië
afwijkende
##sje
dev
##bergt
opus
Kleef
poorten
vergunning
##ilius
Parac
Halverwege
basisschool
MG
##oeste
zeem
erfgen
puntig
stroomde
Louisiana
spp
Audi
marin
Report
ruimtevaart
##spark
Wier
expans
plezier
radicale
kortebaan
interviews
geëxecuteerd
##kern
##pauw
bei
roer
##anisch
Kenia
##vorsten
piraten
Klooster
benoemen
doodstraf
##doorn
##icana
Goed
##axilla
Arche
##sterren
sleepte
begeleidde
verbintenis
gebruikmaken
##nia
Ank
tij
Nation
gereduc
voeding
Guardian
Versailles
##ksel
Dio
##castle
opent
kansen
decreet
machtige
##olp
##rokod
Aless
rente
vingers
magazine
vooruitgang
Auto
Eeuw
##udeert
rivaal
installaties
Cyr
##iance
Brom
##gensis
Velde
Paraguay
verdragen
##oform
mondt
mineer
Tongeren
ontkomen
uitgesteld
##bels
##graf
##sterk
##moorden
schermen
Lycosidae
besproken
stromingen
Gand
ingev
edelman
geïntegreerd
##BB
##dia
telg
##buiten
entre
##erklaas
##ommeren
bijrol
##achtenis
verhoging
##elis
olif
##inning
crash
katal
##vlakken
Kenmer
feesten
biologie
gekroond
opgevoed
kwalificatier
##ieck
Bren
Sart
page
driek
bovenk
margin
concern
Giuseppe
vrijwillig
##jana
Agen
Emir
mest
Friend
Candèze
zuidkant
Biografie
Production
stadscentrum
ell
##rales
Sluis
crass
Deurne
vlakke
Hollands
verzamelingen
Dana
Doctor
Wetboek
##wetenschap
verwondingen
##igi
##opers
Sign
Machine
Pyramid
componeren
Hex
Doll
Shin
##ifrons
##uridae
##ooppunt
knopen
metrop
behaalden
hypothese
schakelen
##hon
##hals
VTM
pit
##begrip
##quette
getra
leverden
geëxploit
wolfspinnen
uitdag
Seattle
Canc
Nero
kist
##riller
camer
examen
##plaatsing
sa
Krom
##inkers
Phoen
Termin
Koenraad
inlichtingen
administratie
muziekpedagoog
##mos
##mani
##scon
##eizen
##enson
Fore
white
aanpassing
distributie
##sby
##sbel
Tiel
Zoot
smee
##albums
Finale
bedevaart
gedateerd
overdracht
geconfronteerd
mail
##kamers
Berry
Guido
rugslag
»
##ylo
Cow
##iodes
##rique
aannemen
golfbaan
lineaire
gestation
##emy
Ris
onv
##ogeen
Herz
Pete
hind
##rienden
Myster
voorbe
antieke
afzonderlijk
##vlag
Age
NSB
##akking
civiele
achteraf
getijden
vlinders
##scorer
Nepal
boete
terre
anatom
campus
hunebed
onderzoeker
georganiseerde
PK
Anj
Tap
Dorp
demo
game
##abilis
##etidae
Reeve
veter
musicus
Wrestling
herinneringen
laatstgenoemde
##eiste
##roman
goal
##iploma
dader
##sklasse
druiven
gelooft
oprichten
verkracht
##rae
4000
Cees
Mats
plateau
diagnose
verfilmd
##crit
synth
balans
Beethoven
Bembidion
1470
Bian
IJss
##ballers
Beiden
TM
Dys
##spelt
##omende
##schule
##trokken
grammat
verzocht
advocaten
journalisten
##pit
HS
doorb
melod
scheur
serieus
geluiden
verdiensten
##sle
Dé
##abas
Donna
voorh
Schwarz
genezen
geblesse
ontsnapt
slaagden
Nol
Want
##eteelt
##zoeken
onderkaak
Lombardije
Marokkaanse
##ulu
##seen
##ynam
Cav
Mare
uitmond
nagedachtenis
Bey
Pay
Zoom
gerichte
122
aas
omm
Vuur
voordien
binnenland
opmerkelijke
1648
Verh
##affing
##osofie
Perry
federatie
handelingen
##outs
Lamas
Selen
Arizona
Manilla
##ogs
##obius
Wald
##bonden
##eering
Egypt
##utherse
beklim
Theodor
ontdekkings
vernieuwing
transfervrij
##gast
Lock
Pros
mits
Autom
Bayer
Blood
Poker
Three
Claire
raketten
##GC
##schi
Oak
doos
Marsh
##ermarkt
Comics
Hiervan
Stadium
##bende
Dert
Mick
##zakken
geleg
##groeien
fotograf
##aner
##wort
clo
imago
ruïne
##vergeefs
grotten
Akademie
reageerde
samenvoeging
##⁄2
Wells
advert
waters
atleten
leraren
veiling
verticaal
MV
##imbab
coup
roem
Aires
Antio
Clara
zijsp
hiphop
Gerecht
Académie
defensie
catalogus
bemannings
verrichten
##neus
Ler
Rath
Thal
step
##raanse
organen
gangbare
verwantschap
gereformeerde
##umi
Punt
braken
gemeld
voorkwam
##capaciteit
hartaanval
OV
clip
stevige
Chironom
naoorlogse
£
##vreden
Matte
ingeb
ondertekend
bijeenkomsten
##draa
Lug
indire
trainen
Antillen
gesplitst
splitsing
##68
##uskerk
Blauwe
katten
giftige
perrons
gefinanc
overnemen
combineren
provinciaal
voortzetting
achtervolging
##rub
love
##atoria
beweg
Holmes
chemie
Hampson
Lon
##laden
hole
##iptera
Dallas
frazioni
onderdruk
gehuisvest
##hey
Hosp
##ytische
Marianne
kunstmatige
##LD
Non
nergens
##ocy
Rie
##onnie
##atisch
antis
##zoekers
modernis
ontvanger
uitzonderlijk
##ove
##aaid
##fred
Sug
leuk
##vallei
Thorn
Trophy
kreeft
aankond
dominee
degelijk
wisselen
omgekomen
opstellen
dienstregeling
##meis
Gia
##bless
hoeve
Groote
machin
Pictures
##IV
##ynes
pict
bijen
Sumatra
Institut
koloniën
belegering
Elz
fur
Ling
strak
##amander
Orange
América
Diction
ontstane
stichten
lancering
relatieve
##ookt
123
##uldigd
Linux
García
Knight
Paralymp
##osse
Eus
Liu
ers
##gilde
Geer
Luft
trav
##jecten
capit
wensen
verwaar
volkslied
Sieg
##certen
##vernij
Chamb
klinkt
dagboek
##collectie
creëerde
passeren
uitgekomen
fusiegemeente
Pauw
##verbod
femin
vermo
Guatem
ondernam
beperkingen
uitgegroeid
vlindersoort
Tit
Side
Colin
Osaka
Fabric
##uize
117
Gijs
kastelen
schoenen
##vergadering
##dec
##atti
Oreg
##contin
Honor
broek
tafer
vicek
Nevada
kortere
vergezeld
hu
##rath
##getal
rups
##ground
daden
speelfilm
Ord
gist
politica
Alexandre
##meel
##llust
Freed
Detroit
##jov
##kab
##ijten
Mein
Warm
Checklist
doorgevoerd
##gate
slak
will
doping
Honduras
Mongoolse
Ontwikkel
personenvervoer
##opro
##zuren
Edmund
Empire
Sidonia
Jennifer
Pterostichus
zwangerschap
##AT
##oera
Spr
Aruba
##eerders
##othorax
Roosen
schaam
vullen
genetische
strafrecht
##nay
##agnet
cycl
##ichaam
asiel
menig
schok
Hansen
zangers
afspraken
Kenmerkend
overstromingen
sau
Tosc
cert
kruid
Buenos
colleg
Volkspartij
volgelingen
inspanningen
geëxploiteerd
##oku
Hö
Kid
##appes
##ochie
zeep
duist
Zimbab
Alabama
ruimtes
gastheer
liberalen
vervolgde
bijgestaan
bijgedragen
vaardigheden
Dud
Lym
naa
Doesburg
Mitchell
Wallonië
vertoond
##rö
Č
##ayat
Vle
pomp
zodra
Lauren
gevaren
Bachelor
kogelspinnen
##endel
Ghana
Familie
spannen
verzoen
Boekarest
dichtheid
##temperatuur
Republikeinse
##zjan
##rough
Mari
brut
ruwe
Balkan
Nieuwen
metrolijn
vermelden
omvangrijke
verhoudingen
##dak
Ms
##bles
##kwal
Seren
Cannes
##toon
Crom
stri
Karol
gegoten
gezinnen
wettelijk
tegenhanger
##aso
##yss
tox
##atoom
##prise
##srecht
artistiek
Opmerkelijk
stabiliteit
##ifa
Edition
Onderweg
bemanningsleden
Pav
##crisis
kijker
Zeeuwse
niveaus
ondersteunt
Lö
##émon
NAC
Ons
Hist
gemeentes
##gerechtshof
Cé
sr
##juist
engel
bezwaar
##verzameling
equivalent
Yor
##issing
Hardy
Kolon
stere
motieven
ongelijk
opvolgers
Bö
jud
fauna
feestdag
##mi
Pim
##necht
##versn
Somme
familien
objectie
jezuïeten
##rí
##type
rup
Bowie
##heilige
Alphen
giftig
Moderne
##ombinatie
Braziliaans
##werkzaamheden
##idon
##osum
loy
Kool
Zeit
lamp
lege
Prest
##anensis
Gallery
##wijziging
geslaagd
herhaaldelijk
Gij
##romis
Buil
##ossier
koets
vaard
ontvoerd
vzw
##ienste
Birds
Trier
schijnt
omgekeerd
##yra
turf
Klaus
Octav
terreinen
rijstroken
middelgrote
##kters
robu
mooiste
aangeeft
middelpunt
filmfestival
##eën
##zaï
##uwer
Hod
##ropus
Julie
##werpers
Angola
filmmuziek
herdenking
inscriptie
controleren
Orts
Wehr
Dubai
honing
verzen
geleerd
regelmatige
protestanten
Gur
Oxy
##orgaan
Opius
schuur
volken
##systemen
kerkleden
arrestatie
##otre
##muzik
Boch
##oseerde
##provinc
aaneen
executie
keizerin
Bulgaarse
aardewerk
##brugge
##orteerde
Vandaar
aangetast
apparaten
Theridiidae
kwalificatiet
##imon
Dru
key
##langs
glob
##result
Schiz
Rubens
compilatie
bv
Fres
akte
##atiefilm
trompet
herstelde
##EP
##uigt
Joy
schut
Hengelo
beweert
ziekten
Noordrijn
##ugel
##malen
##inique
alias
Peeters
Chaudoir
voetgangers
Sex
zons
##binnen
##ension
dalai
##omyiidae
Tachtig
vanzelf
oplossingen
vlinderslag
##arine
##itude
soul
##zijdige
Conrad
heiden
fossiele
hoofdtrainer
##ís
aus
orig
Stars
##stoelen
Tallinn
plafond
##anni
María
Straf
Hebreeuwse
agrarische
filmregisseur
Mae
##oïden
Arend
##oestand
vaders
Juventus
oplossen
Committee
##itage
Petit
champ
Single
beloofde
Volkskerk
sociaaldem
##brief
##ffers
Hoen
ideaal
lanceerde
offensief
strategie
hoofdpersoon
##amph
##blijf
Globe
enter
geweig
##ontsteking
inzichten
langdurig
opstandelingen
##gu
Prim
Erwin
##patroon
barokke
heerste
tevergeefs
vernieuwde
televisiezen
##ID
##omme
Pië
Sax
##electie
hotels
beschil
uitkomst
##iu
##rysa
##bloed
Cres
Shaw
##underd
flora
##gaarden
bachelor
planning
Gregorius
nachtpauw
sportieve
##yna
##ulte
Equ
Ruy
##vlies
cruc
farm
##etende
Board
Lager
torped
voortd
inktvis
rechtse
##mande
Larry
##vallende
hieruit
delegatie
Kampioenschap
televisiefilm
##aise
##onda
Oregon
synagoge
Flag
Typh
motto
nagel
Rachel
Roberto
belofte
oudsher
##hesiz
##weken
##drecht
Concil
aanvoer
compact
haakjes
leidende
Sportpark
rechterhand
##jas
BC
Sap
basiliek
Catalonië
Newcastle
Statistics
##heil
##kent
Cuyp
reek
tast
Blake
Trump
blaas
bediende
digitaal
verkoopt
##RV
##fur
Kaukas
afspraak
##kon
Ist
##bidae
##eloze
##iereg
Arna
Sovj
Stok
merkt
Mannen
Marion
register
schubben
deelstaten
opgegraven
nachtpauwogen
##önt
##ijke
##ishi
##orgd
##spin
##uttle
##diging
##schade
##rusting
##schwitz
Fisher
binnenste
decennium
vliegende
onenigheid
##non
##reizen
##schijf
kolom
tromp
Garcia
Italiaan
gedreven
moordenaar
Vak
##eldak
##offel
Fras
Erich
enzov
rende
##wijfeld
heersers
hardcourt
stedenbouw
##arao
Toon
kred
##veense
Walde
carbon
dictator
inzetten
juridisch
organisator
Uitgezonderd
##ckx
##yrin
Farm
Saks
##inderd
Gross
gooien
licent
##ymb
Bok
Woods
first
##blessure
lijsten
##inrichting
thuisland
nauwkeurig
schoolslag
##Hz
##pur
##hoop
Rita
##rouwers
rusten
geweten
bemachtigen
́
##oco
Fus
woede
geëind
uitgek
materie
Má
##haer
##jaagd
loof
werf
##groeve
Weber
Zodra
lezing
Truiden
regelen
vervolgd
##hulp
##unus
liv
##strook
Beren
Woman
plastic
Maryland
geweigerd
grondstoffen
##95
##tak
##sbouw
Batt
Pall
Doorn
##iformes
Depart
opgehangen
##abus
Agost
stoel
##erkorps
herinneren
populairste
vrachtwagen
##ango
##imate
1650
Huys
Melk
Tanz
memb
##molens
Movie
relig
Watling
verderop
gestationeerd
##fd
Ø
##adal
##enius
econ
##roonde
Miles
param
Bataaf
Sanders
improvis
##pton
##rien
konv
Diana
enzym
spaar
##iom
##arag
Jah
##linie
##video
##olling
Edmond
schoor
variab
infectie
uitstekend
werkplaats
TC
Urs
##ëffic
Para
##anidae
##dimens
Notre
Tunesië
Openbaar
Monumenten
##zu
##år
ut
##ials
114
Iber
Pearl
##rologie
fresco
schimm
steile
##andidaat
gunstig
Keltische
zwaartekracht
##duur
##roek
Emb
##osauria
Succes
fictie
Thunder
gekeken
karakters
fotografie
gastrollen
##onse
CIA
##geeft
##usden
Tiber
##dertijd
gewaardeerd
##afte
##essa
eis
##vrije
Sofia
implic
singer
Beveren
behandelt
geschorst
law
##iatus
Woud
##ambten
Qatar
atlet
##ization
##opterus
Mongolië
slechter
westkust
abstracte
##AL
##otis
Vog
bie
Made
##person
Magic
Mater
Kerken
lezers
##standers
varkens
zad
##ripten
huishoud
##gezelschap
##assicistische
Chironomidae
##peld
waa
##lijks
Lost
grof
##skunde
Century
Ardennen
overkoep
papieren
plantage
dominante
kunststof
horizontaal
##anca
##elsels
##itieme
##ollege
##wonden
Weimar
Maritime
Villiers
omgekeerde
noordoostelijke
##duik
Xav
##bogen
deken
Bau
pter
Nieder
Stille
##omgeving
##schutter
Elsevier
dierentuin
verschuilt
##moot
##ński
kilo
##antische
kenmerkt
zogenaamd
gelijkenis
professional
stroomgebied
AA
KRO
Lox
##atica
klav
Moren
dreigt
getest
gezeten
beginjaren
lichamelijke
departementen
revolutionair
If
gan
##ijker
tick
##zangeres
noodzaak
ingediend
Cox
Zone
dief
Herac
Madonna
bewoonde
marketing
financiering
##wyn
AI
Cr
lem
##ransp
##ondens
gladde
versle
algorit
goddelijke
presenteren
##irac
Mek
Weert
Invest
tijdrit
##oki
##vit
##wisseld
passage
langzamer
His
Ruth
work
##bussen
Hilde
Libië
ruïnes
hoofdperson
nationaalsoci
##unc
Bü
EN
RSC
##orhynchus
gastland
woonwijk
Amphipoda
handschriften
Ras
Mees
Schots
Phoenix
Montenegro
##wold
Rah
Mini
Thuis
IJsselm
scheidde
Camponotus
Gnaphosidae
ondergronds
achtergelaten
JC
Raj
##asmat
Kuif
hiër
Engin
shirt
omloop
Lorenzo
afgeplat
parasiet
##bewegingen
uiteinden
Anti
ijsh
accent
Groningse
populaties
grootmeester
##conc
Mits
##feuille
dodelijk
grondlegger
##oct
iP
##annex
##ioxide
April
check
moeiz
##verschil
Theresia
Verbands
Azerbeidzjan
##opot
Koo
Tin
Sonic
Wallace
dijbeen
mishand
Benedictus
opleidings
kamermuziek
ovaalvormig
##schilderingen
##WS
Jet
Duin
Delph
knock
##leiders
Waters
##apparaat
gewoonte
ouderdom
speeldag
Luchthaven
##64
##zaakt
Hugh
repl
Sweet
Neuren
Captain
afgelegen
Development
belangrijker
##agin
##ambt
144
erger
Sommigen
##ск
«
##vals
gla
##polit
Cats
##nieuws
regeer
zwaarder
##icit
##einde
##entjes
Caraï
Hemel
Paolo
Trade
Winst
##vergoed
bedragen
Organisatie
##uke
Duck
##otoren
Heinz
Monter
##splitsing
particip
bin
Aard
Fest
Shen
##ampier
Butler
melden
zolang
prostitu
schimmel
verbleven
volleybal
gefinancierd
##aku
##oogt
##otiek
Zamb
##derson
Mulder
##opodidae
ondersteun
##ibi
Hé
##zoen
##istry
##itief
trol
##inners
##itieken
uitgevonden
Dipl
Trek
canon
Barbar
fabric
routes
bezichtigen
##ason
113
Sardin
##strueerd
##elementen
veeteelt
erfgenaam
##jachtspinnen
##icker
1780
Mega
laad
##ranken
##aandeel
geannex
beschouwt
##abi
##ancier
langst
benaderd
Noordoost
Oudgrieks
##TT
wesp
Patri
chore
zalen
Zoolog
Railway
slavernij
225
Bors
fron
afgel
speer
##circuit
uitbreiden
Scandinavië
Sinterklaas
wend
##anking
##ieland
##profess
Britann
Administ
voorstad
reekshoofd
##aud
Bem
Boh
Cul
Wan
##apeut
##obbel
Riss
zink
Zaand
Dieren
Geomet
gezorgd
##fabrikant
dusdanig
##yro
##eems
caf
Diep
##gemoet
onbet
legden
stijgt
Beierse
Kentucky
encyclop
literair
verbroken
##balk
Luigi
essay
divers
katoen
Brabants
opgetreden
BK
##chia
##unis
Hale
Lane
Wein
ling
##brücken
##stitutie
Pommeren
eiwitten
##gelegenheden
staatshoofd
##bied
##urop
##ivels
Chev
Take
Torn
Clath
##rekking
##teerden
cijfer
ringen
gracilis
Alexandrië
voorlopige
##perus
Schoen
knaagd
##handeling
##overeenkomst
gezondheids
##rana
##utte
550
Beeld
Iraanse
Silezië
Woorden
Auschwitz
Christine
##dé
Gis
##blauw
##ijzer
##sbaan
heks
##aliste
Bloed
weiger
zomers
##anselier
##generaal
##levering
verwarren
bevoegdheid
##oya
Kemp
Koude
Moselle
Prinsen
bondgenoot
##azar
stoff
Lymant
heksen
verden
stijgen
##hit
Gmb
##Links
##names
Kras
Nina
ammon
aardgas
geschut
goedkope
geleerden
landgenote
Imp
Bijl
Göte
kelk
turb
Brist
Metal
woeden
afbraak
orkesten
simpelweg
Federation
Afhankelijk
krabspinnen
Bai
dos
##emans
verzw
Garros
Microp
collabor
wapenstilstand
##rente
Fiat
Snow
Armeense
Destijds
achterlijf
Vereeniging
##emd
Ard
gor
1770
Isle
Vlie
Strip
honger
illegaal
aanspraak
geografie
124
Books
Irene
ribben
hertogen
##uzz
SM
spot
##orting
duikt
Gaston
spanwijdte
##ems
##guez
##icut
##uiver
Hiro
suff
strook
postzeg
Thomisidae
keizerrijk
akoestische
##zaad
Fig
Hyd
##asaki
Fact
##kleding
Pokémon
##ontwerper
introduc
Cornelius
Nür
GmbH
kook
##bisdom
Evers
golft
##terende
stekel
Maagden
verhuurde
vertraging
vrijlating
doodgeschoten
##ramp
##arinet
##undigen
Harvey
genood
marmer
Senegal
voorzitterschap
##thal
Deep
##versch
##borough
##stratie
Bijbelse
Göteborg
Rijswijk
momenten
vervaardigde
ziekenhuizen
Rü
##itta
##roll
##usen
Tuc
paal
parv
geomet
opging
mineralen
emigreerde
Ci
Ola
Sob
##strijder
kwantum
##vergelijk
duurzame
explosie
bestudeerde
##pap
Bin
##cheur
Hamb
geboden
mevrouw
Schneider
##ereis
##bekken
##bestaan
Guyana
beslissingen
Vid
##rande
##vings
Drum
Stem
fisc
##brengt
##routes
Volvo
vereerd
Aristotel
kampioenen
woningbouw
Hi
##viel
cod
##skern
Orlé
grasm
Eagles
##chloride
Musical
Concilie
gehanteerd
##atz
Nan
Milne
##oniemen
tracks
jaargang
basisplaats
samengewerkt
Wi
Dep
##e
##n
##a
##i
##r
##t
##o
##d
##s
##l
##g
##h
##v
##m
##u
##k
##p
##c
##w
##b
##.
##j
##z
##f
##,
##1
##0
##D
##2
##"
##9
##S
##H
##A
##y
##-
##B
##(
##)
##C
##M
##I
##8
##N
##T
##P
##V
##E
##R
##5
##3
##L
##G
##O
##4
##6
##7
##W
##F
##K
##:
##J
##x
##Z
##'
##/
##ë
##U
##é
##&
##;
##q
##=
##Y
##ï
##è
##–
##ü
##?
##%
##ö
##X
##’
##Q
##ó
##á
##_
##ä
##í
##“
##”
##‘
##ç
##!
##ø
##ß
##ô
##É
##à
##°
##+
##â
##]
##[
##ã
##а
##ć
##о
##ñ
##ł
##å
##ú
##š
##$
##и
##€
##ê
##е
##н
##ō
##р
##Ö
##—
##č
##в
###
##æ
##к
##с
##л
##*
##•
##α
##ā
##ń
##Á
##ı
##т
##î
##Š
##−
##|
##ο
##×
##ă
##ς
##ş
##ž
##>
##ا
##ș
##ν
##õ
##„
##ð
##Å
##û
##<
##д
##ρ
##́
##й
##ò
##ι
##→
##μ
##у
##Î
##ū
##⁄
##м
##†
##ğ
##ý
##ř
##λ
##·
##τ
##ل
##Ø
##ч
##я
##Č
##»
##£
##ε
##г
##ь
##σ
##«
##±
##ę
##Ü
##ś
##ī
##ě
##С
##β
##κ
##π
##б
##ي
##œ
##~
##م
##ț
##ы
##п
##А
##ر
##К
##Ž
##ő
##ą
##η
##İ
##ē
##ن
##§
##Ç
##י
##ż
##ί
##γ
##з
##δ
##ά
##ب
##و
##`
##ό
##د
##ù
##В
##М
##Æ
##Ł
##Ó
##υ
##Ä
##ė
##ì
##Б
##П
##ə
##Đ
##ω
##ÿ
##ו
##@
##Ś
##φ
##Н
