[PAD]
[unused0]
[unused1]
[unused2]
[unused3]
[unused4]
[unused5]
[unused6]
[unused7]
[unused8]
[unused9]
[unused10]
[unused11]
[unused12]
[unused13]
[unused14]
[unused15]
[unused16]
[unused17]
[unused18]
[unused19]
[unused20]
[unused21]
[unused22]
[unused23]
[unused24]
[unused25]
[unused26]
[unused27]
[unused28]
[unused29]
[unused30]
[unused31]
[unused32]
[unused33]
[unused34]
[unused35]
[unused36]
[unused37]
[unused38]
[unused39]
[unused40]
[unused41]
[unused42]
[unused43]
[unused44]
[unused45]
[unused46]
[unused47]
[unused48]
[unused49]
[unused50]
[unused51]
[unused52]
[unused53]
[unused54]
[unused55]
[unused56]
[unused57]
[unused58]
[unused59]
[unused60]
[unused61]
[unused62]
[unused63]
[unused64]
[unused65]
[unused66]
[unused67]
[unused68]
[unused69]
[unused70]
[unused71]
[unused72]
[unused73]
[unused74]
[unused75]
[unused76]
[unused77]
[unused78]
[unused79]
[unused80]
[unused81]
[unused82]
[unused83]
[unused84]
[unused85]
[unused86]
[unused87]
[unused88]
[unused89]
[unused90]
[unused91]
[unused92]
[unused93]
[unused94]
[unused95]
[unused96]
[unused97]
[unused98]
[unused99]
[UNK]
[CLS]
[SEP]
[MASK]
с
.
##на
##је
п
##ра
,
и
##ни
##ко
у
##но
је
о
##ст
д
##ре
на
##ла
##ма
##не
##ка
##ва
##ли
##ри
##та
##ве
по
##ро
##ви
##ти
##во
##ди
##ја
г
##за
##ло
б
се
1
##ме
##ци
ко
##да
##те
##то
##ле
С
П
##ки
за
од
а
##ру
-
)
(
са
2
##мо
"
##се
##ју
##ји
##ње
из
су
##ке
##зи
##ку
##ста
М
##ско
##си
##оди
да
К
##ље
##ми
Н
до
годи
##де
ка
##ну
##сти
Б
би
##го
пре
##га
20
године
##че
##па
ра
про
##ски
19
А
к
де
##ту
##би
##вни
##лу
##ња
##по
ста
Т
не
##жи
##са
Д
О
##це
##чи
##сто
##ца
Р
В
при
У
ве
На
ре
##ба
##жа
ф
##пи
м
##ча
ш
Г
##до
##гра
в
з
##ља
насе
##ду
##љу
т
ме
##же
##ном
ви
##ске
##ор
који
##ће
##шти
201
Л
ма
##пе
##ног
И
##an
е
##новни
мо
##ћи
##ђе
s
становни
##бо
##ан
те
По
##њи
##ги
##гу
##бе
##ржа
Ј
##лази
оп
Х
##je
##ар
##ној
то
:
као
жи
p
та
##ше
##тра
##них
##in
##ској
##ска
##ву
З
Е
}
{
##није
##ши
Ме
##зе
##er
Пре
##ком
становника
##пу
општи
Ф
k
##en
налази
##зо
##со
3
##ског
##or
Ка
##ћа
##вр
об
гра
##ција
##st
##су
##јо
х
држа
##ним
во
##on
200
„
пр
Ма
ње
све
насеље
##цима
##ран
био
##ша
##му
Ко
сво
i
##al
##сте
ос
##ге
##ђу
над
##вез
4
но
##ције
има
па
##њу
##кси
Према
пе
##мор
##ред
##она
##re
##чки
раз
дру
o
##at
си
нај
виси
18
d
ли
n
под
##рија
##хо
живе
Са
##ar
Бе
##дни
##ности
##ском
општини
пода
5
##фи
надмор
ди
Ми
савез
##om
пу
m
“
Ср
##сту
висини
пред
насељу
бо
надморској
##бра
##зу
2010
##сле
ин
##цу
За
држави
##љи
##ских
##нта
ми
кра
t
које
S
или
##зна
пра
подацима
че
ју
му
савезној
##ra
која
u
##бу
##реме
што
##сеље
Ш
##кон
##вић
ок
јед
##сла
##шт
##00
##рије
ни
##чко
##li
##став
##ха
бро
Насеље
##нти
6
Мекси
##вом
Ц
##ште
A
фи
ку
##он
##тив
/
##лан
je
##чу
Ве
живело
Па
##ro
Мексику
##нт
##ci
##ja
##ску
Ра
Сан
##la
I
Ч
##ti
исто
##чке
##ni
ст
Ба
##фе
##ство
##шта
чи
M
Ре
7
њего
##вање
ја
##ника
##ri
P
али
##дно
ус
стра
##ov
##ван
199
Ви
вели
ле
8
бе
Пе
вр
Се
Бо
вла
##вог
##вер
##ђа
није
Та
ба
##вао
До
##вен
само
ц
##og
##бли
##le
##ским
##ман
C
Не
То
##ност
око
##пре
ро
##тим
##огра
##od
вој
ду
била
Срби
9
Ла
##ник
тако
##онал
T
ва
##дан
ч
##рва
;
##хи
пи
време
пла
га
цр
##ства
b
зна
кон
це
##вима
##нија
Ју
##sk
##рио
##стра
##нији
B
##пра
кори
##лико
го
##дио
##he
спо
##вања
##чно
поста
ср
ру
код
пот
от
##род
тре
194
Би
дана
њи
##ju
##нг
##цију
Је
ло
D
—
##вих
Те
поче
же
##врши
na
##za
Ни
##лек
17
зе
##рт
##писа
##et
##кми
##гла
f
##ma
##ром
##ница
10
##том
##лија
гла
Београ
##чка
ту
ти
срп
година
оста
било
Мо
v
ис
Си
##es
##бог
Но
15
##нова
Да
##штва
после
игра
##носи
окру
R
##јом
ор
a
При
##њем
##јући
ће
више
Ру
N
##вој
12
уче
##тно
”
Ро
##ol
##is
g
##ер
##вио
када
##ic
##ћу
ла
##ставља
према
док
Ва
доби
##тни
где
##вали
Де
##no
##it
гру
##ji
##сло
јо
шко
бу
##нда
број
три
изме
##пада
##тро
km
se
##нски
тра
Све
##вро
љу
Ха
##ој
##куп
16
##при
##тер
O
може
два
##вје
13
G
##вим
L
##ed
##ционал
други
со
Од
слу
##гани
11
##тара
град
ком
14
##вља
поли
H
##ству
ар
пар
након
##вље
##кра
##тор
##el
сре
198
Цр
##ом
Ли
међу
po
Бу
c
име
Ри
фа
##ak
##сно
##мери
Ле
##кре
између
##мбра
уз
наста
Ку
##нд
могу
##цији
Со
E
##лом
Про
Ја
Ту
зем
##лика
##нске
свет
##хва
живо
због
Кра
књи
##вор
##дом
црк
Џ
Њ
Пр
##публи
једи
Лу
##вије
##вара
##сни
ши
##роди
ге
0
##чког
##ранцу
##лта
један
##риј
становништва
посто
##рији
позна
##рак
197
ау
F
јези
##нима
били
Го
##пису
Ло
_
##рен
фил
##кљу
##000
сло
##руч
##мира
фу
##шко
##фор
Јо
za
Ж
##пад
##сније
##ati
##нице
##ru
оба
неко
##воји
посе
##из
2011
K
тр
током
##фа
##лне
–
износи
ца
сва
##спо
##чких
##and
##va
део
против
века
##гле
реги
##вине
Ди
органи
##ници
успе
##јем
први
Ду
##једи
##vi
##ступ
нази
##жу
196
##матра
рата
##ђен
гу
првен
of
још
Ал
##чна
Ста
##вај
ko
ча
V
приме
su
одно
Ти
##вају
J
##ka
##рта
како
##em
in
##вне
##вала
ал
Су
Након
##хе
кри
##шки
иза
##чкој
##бро
Мар
Ки
##кла
ци
##про
##us
своје
##лим
##лни
заје
тога
осно
разли
њихо
##нера
##кри
ак
полити
стране
193
Гра
##вана
##il
уме
фе
%
##лије
##im
##бар
Републи
000
191
##узе
##шао
##чај
Југо
##гао
##шће
такми
фор
##na
обла
##мен
##ran
Евро
сред
сезо
##лту
јер
обја
##гре
##кс
##da
нема
сна
Срп
сту
##лно
Пи
##вори
деце
re
Дру
##шка
sa
Фи
такође
место
их
##вани
Хо
##тка
касније
195
od
##што
##вно
бра
две
ки
##води
бр
##воре
Га
h
бор
побе
##нског
##тре
велики
Годи
##љен
##насти
##бру
Ел
преко
##дија
##шње
##јој
систе
неколико
##тар
192
##ne
##рват
##ent
##вића
##љено
Међу
хи
вра
нове
##ut
##чне
##вна
већи
пове
поја
перио
##zi
##штина
Србије
##зије
метара
##цио
одржа
##вод
породи
користи
W
##гар
##рито
представља
без
Ђ
##веде
среди
влада
##тица
##рни
Из
##чни
произ
U
ри
делу
##os
##ара
##ine
##кло
града
проце
##мена
##нци
култу
пут
одре
тада
попису
pro
##di
мора
##вном
већ
##ху
Године
##чар
##as
##рти
##мије
##нска
##кту
##пера
освоји
подруч
##ђи
##лима
сле
25
Нај
##дра
право
##стру
2013
чла
округу
##ce
##чком
##пло
##sti
нау
##рију
прет
Ар
Ин
национал
##сје
сла
Југосла
##тета
##зулта
##op
##логи
Београд
своји
##тет
##нк
##ot
помо
Хе
уста
##ul
##вина
упо
##време
##так
##шњи
сти
st
##дник
##ch
Ње
ради
Ау
##кти
##нио
##лна
##рима
клу
##am
##тора
##твр
друго
##рна
##лова
Францу
21
##вила
кре
Ан
хе
##ek
коју
##роз
##ако
##тио
општине
сматра
нису
терито
он
##лог
##вног
da
наро
имао
##нтра
##зија
the
кр
##рита
пос
##вора
бити
##лади
изра
Ге
##пте
##вгу
саста
Кар
плани
ше
30
Чи
##вија
једна
##ve
##ur
##um
##ристи
##тељ
##вац
##ing
обра
попу
##шу
iz
##вних
##вши
др
најве
дома
кла
см
##нских
уда
'
##нер
##ного
сте
##бор
људи
##рова
изда
Зе
области
##чку
сме
##orm
##ori
површи
После
##љо
Ху
##вар
##тих
24
22
просто
хо
дела
##дова
##сија
парти
##пштина
##лазе
##дника
##нка
2002
поло
##јски
Му
цар
укљу
##три
авгу
уни
##тна
Че
##вла
мног
##si
II
and
##вре
##шке
послед
##сије
ra
##тог
упра
коме
2005
##чан
##новић
##ђена
им
покре
одлу
##рек
##ao
##вена
обе
##нте
оби
##јени
постао
##ok
иде
23
Тако
##тку
##ter
##бно
pre
начи
##чким
данас
резулта
Београду
запо
Током
сви
септе
##зента
##рао
##тне
##чо
окто
##vo
##нама
фина
##њој
сли
шта
##un
цркве
##ове
##лиза
##такми
сто
музи
##мини
ове
Ке
Хрват
##кова
ауто
##каза
различи
коман
##врше
##риш
##жно
уло
пес
##презента
припада
поно
Пу
##фика
ост
##ома
##штво
мате
инте
најбо
мај
##ваја
дело
југо
Во
##ob
##ali
Фе
неки
пута
##нови
##спе
пози
##им
којима
190
Ита
##te
утакми
##сне
народ
организа
##ступљено
члан
##дба
хра
рад
##верзи
Нема
e
##ina
##пан
пле
##тком
##рне
свој
апри
Међутим
##ал
##ковић
н
##мати
кроз
##лимпи
општина
##рно
##бри
##тири
Нико
предсе
##нгле
##нди
The
дел
##de
##кле
врсте
обли
Ву
##зима
врста
Југославије
јану
гр
генера
##роб
##стро
живје
следе
учество
уби
овог
друге
##вању
тек
него
функ
##ih
##бер
којих
##кул
##ден
бли
Хи
27
##град
##мом
домаћи
##сли
веома
живјело
##пли
Приступљено
##мента
##стина
треба
##бр
##ation
своју
##јан
програ
##дру
de
тро
##љена
проц
26
##ступа
репрезента
Сте
bi
##тера
pri
##вјет
једно
пости
рас
Кон
мје
##лног
осо
амери
##воје
профе
##јске
Србији
##бле
Тре
којој
##става
Бра
##жио
утица
истра
##гну
север
чу
филм
граду
##тле
потре
##као
##лној
живела
Гр
висо
##лних
##бур
непо
ne
##нском
##пис
севе
јуна
односно
w
лока
уну
често
Љ
процјени
##вра
##десе
значај
28
четири
##тима
овом
##sta
архи
##ндар
зашти
Републике
манасти
##рање
Њего
моде
##стве
писа
##мпа
рат
##рске
##чења
уве
##ког
одго
##чио
Исто
Це
z
имају
##пла
прво
воде
ша
Сло
награ
заврши
месту
##мбар
својим
поку
Као
заједни
Краље
заједно
она
групе
Хер
албу
##лекса
##кто
Амери
Ова
##исто
form
сад
правосла
Дра
потпу
##кедо
тај
##ko
Општина
спе
полу
##више
глу
##јн
кру
189
##дне
koji
##дије
теле
књиже
##чење
фудба
##ist
епи
##нтро
##ula
##мени
просе
много
##тке
##дна
Био
##једиње
##тивни
2012
фебру
##št
##зма
фо
Ово
##када
##лих
##ije
угла
Свет
Вој
мла
##мина
августа
29
##van
X
##дро
##кта
##тивно
државе
##ag
##ква
насељено
радио
ад
##писао
твр
првенству
2008
укључу
##сна
затим
биле
##зду
##хвата
##тко
##тету
##бора
стру
свог
##цијама
Када
периоду
Гла
##ћег
добио
тех
##ружа
##ke
##бре
##фо
осло
In
бри
ско
##ћем
боле
##ad
##вољ
2014
карак
преда
група
##џи
тим
СА
прва
2009
пора
Ран
##лар
обу
учи
умет
ум
његов
##сан
##чних
##цијом
##сци
ави
густина
елек
##тина
формира
##дови
Вели
посла
##пас
##дера
##гли
центра
##мир
поново
септембра
том
углавном
Алекса
запа
Гор
маја
##јског
зи
неза
поде
овај
ова
1991
францу
Фа
имала
трго
##вео
истражи
##сио
##тан
старо
##чара
насеља
Град
##eri
##стар
##лији
округа
начин
Вр
мили
##краји
Дана
Џе
освојио
2007
поре
##могу
2006
]
октобра
##ону
##шња
##њима
употре
Друго
спа
Пар
ствара
других
Пра
l
100
##нуо
лу
свих
##мија
времена
добро
##чном
Вла
зат
њих
јула
ob
пробле
села
##словен
##id
шу
##бија
Он
марта
еко
слика
40
##сом
светског
ve
помоћ
[
меда
##вис
Први
језе
тео
##лка
##зни
постоји
##јским
краље
##јека
##мет
##шло
напу
сезоне
слобо
интер
##слу
187
##това
опера
Ша
##нију
kao
188
служ
##nog
Фран
50
исти
##зује
вазду
ово
##чног
2015
окви
укуп
домаћин
##сира
екс
прили
St
Уни
Санта
Ос
##вну
власти
Сре
##цего
Српске
##каде
Жи
Македо
##лина
покуша
##пер
##ђења
##вца
вред
реке
смрти
вер
##лним
Ча
##вањем
крају
##чуна
##ђење
земље
постоја
поди
##био
##вроп
меди
##ac
живота
живи
квали
##лном
Тур
god
априла
##волу
жена
запад
поједи
мушка
Север
1941
##cije
конце
пло
налазе
##ver
предста
случа
##тија
кому
##цом
31
места
томе
карије
жу
##тон
нео
##дује
##годи
осни
do
Лос
користе
##пак
##ститу
Ор
##чен
##чним
##фри
##гне
##nih
##up
дирек
сара
##дигра
јуж
веку
##нга
Такође
Иако
##њен
Мило
##вини
новембра
##ђени
##руз
##ген
##форма
чини
уг
прија
саставу
Руму
поред
##sp
##ap
##пр
##тен
##ir
скуп
##џа
##љени
2016
месе
пет
звани
č
##du
друшт
##зију
једног
##лини
контро
##гледа
одбра
његове
##th
##дер
основа
САД
реа
децембра
##вник
##ani
пита
##нце
Европ
заврше
син
##лер
Због
еки
##ovi
коло
диви
српски
Z
##тних
##рес
##така
##зам
самом
једном
огра
##нке
##lu
дода
Љу
##зова
##ната
одигра
Сто
Нови
Ранчо
##ski
186
наме
##мбо
региону
оства
##рски
даље
##ћен
formula
##лица
тран
##циона
сам
##дри
##нак
##ora
##cija
језик
##вним
##листи
свом
пример
материја
##шћу
##спи
дра
држава
##вили
сада
часо
води
##кови
анти
##нисти
##ћан
кне
##јева
##сао
највећи
неу
прогла
једну
##ig
##рана
јануара
##нов
зла
##раца
##ск
чита
##лац
озна
Херцего
посебно
##бла
почи
##lo
##лио
факул
##оте
посло
они
##тлан
##теља
Миха
##ala
##est
постав
ако
##њо
отворе
##лошки
добија
потом
##ena
титу
брига
породице
европ
##рена
историј
Re
##разу
##народ
##гије
##стоји
другим
доба
производ
##веза
откри
##кро
##позна
##oj
##јска
зау
трену
##ис
##нтар
тради
##pt
прису
##тски
##дам
еле
Држа
##рка
pr
2004
оквиру
њега
крај
##лин
##тин
##вин
##занти
##кор
назив
##ђар
школа
насле
испо
2003
згра
чове
##нијих
регионал
чак
##министра
##рина
##сим
зах
Налази
##сник
##дор
##над
успо
чега
буде
##нове
##пред
северо
распо
##вет
коми
##блиоте
војске
##ini
2017
##ков
каракте
обо
Марија
##јских
##лен
завршио
олимпи
зако
Кара
нови
језика
утвр
sp
##вати
##бина
борбе
омогу
##ђене
краља
##рма
еми
ниво
црква
##чној
оку
##јна
четвр
Кри
пого
напра
##воде
##oni
буду
Сара
зад
земљи
положа
пое
Поред
##писи
##дар
почео
мање
##шла
##рин
Гу
долази
Мон
речи
Ше
живот
проду
постоје
##tion
напа
комп
уго
##ub
физи
руко
тру
атле
систем
##ab
Површи
##ману
краја
инду
al
желе
##фини
бога
Јуж
класи
остр
##кар
школе
Овај
сце
##гађа
усло
приро
објавље
##фу
##бран
##вљу
##они
##зији
##50
хриш
Ну
##мон
##мене
##шку
крити
2000
##туа
##ku
##шту
##ta
##ari
##жење
спре
##me
##гија
његова
##сон
##рају
споме
призна
Народ
Површина
ну
проте
позо
листа
##сам
##вало
Једно
јој
компа
32
2001
60
коришће
##ржи
##смо
##стри
главни
мини
прона
ана
права
Под
##мпи
##шен
##шког
пописа
to
ха
Другог
Пла
пошто
##кан
184
##мин
##зом
сезони
##нос
мањи
власт
##лине
Универзи
рим
захте
##прија
књига
##лит
ел
##штен
изгра
стр
jed
##бије
фебруара
Бер
км
многи
милиона
чланова
унутра
снага
осваја
Пред
разлику
##ana
##тиче
повећа
чији
##se
система
света
##сор
уре
играма
основу
##рхи
Коло
ново
##талија
авиона
енгле
иако
пара
##лити
прода
виде
велике
##лозо
##ксима
компо
##ca
броју
најбољи
њема
изгу
##шава
##мана
дужи
српске
изве
дуж
снаге
претхо
##руж
суко
mo
започе
сма
пер
суп
образо
носи
клуб
проје
оде
посве
дуго
##чну
##стан
веза
##лну
##тске
Никола
дола
Француској
звез
##кама
##пио
укључујући
##кад
##тељи
Бар
улогу
разво
##графи
##ata
##тла
##нике
обично
десе
успеш
уо
исте
##vl
##ako
##кције
Ши
##дила
##anje
рачуна
##ss
постаје
актив
##лски
##дина
##мент
##ницу
##вцу
on
Анд
Брита
мета
школу
##времено
##рака
Лас
подручју
##ђено
попула
друга
##менти
##шли
##лд
godine
##жан
##eni
рату
##стриј
ограни
raz
којим
повеза
средишта
догађа
##ђује
##ži
шиф
акаде
##kt
##брзо
##зер
врло
##фан
мало
селу
Оа
Петро
архите
##aj
2018
соција
##жен
Же
##ske
тур
an
##слав
увек
својој
атлети
путе
##nim
##тори
напада
##диште
##бља
##вени
народа
##јм
доне
##мену
италија
##сен
избо
острва
културе
##њег
имали
команда
Кор
##гом
##кт
##тово
свим
##бом
дефини
наред
##чешће
тог
администра
прве
наступа
##рења
Луис
познат
##ki
##že
##тац
##чина
##рон
Ne
33
##ova
##рту
##fi
##ством
изузе
te
##рани
35
##нским
прави
свету
##olog
ода
An
##лога
почетком
##нзи
##лаз
дво
Ђу
неприја
##вски
##вника
##ove
##хака
његовог
##љења
кило
ili
територија
##стио
##боди
##вале
##рица
дија
Оахака
Срба
живео
##тији
##чине
##нат
отпо
##ct
##лић
мето
ових
људ
##рем
com
рођен
Y
##ђан
Сла
AG
престо
ж
значи
##бург
електро
библиоте
енер
##сре
##ara
##ксу
##јима
Пор
имало
##вач
село
di
уметности
##шњег
##сједује
##ge
режи
##сника
##нац
њему
редо
броја
регионалну
Загре
##рез
##сјечна
краљ
Ch
састав
##кса
прости
##вета
кор
телеви
Енгле
##вица
|
својих
шифру
руму
##сова
Просјечна
брита
којем
мјесту
##вене
##ska
Три
југословен
##мокра
председник
чине
##рој
Кали
##имна
##љене
##риса
њемачкој
Посједује
постала
##će
AGS
припа
гре
револу
##кција
поми
=
Зем
јединица
##сципли
##мера
##gi
Пари
Италији
медици
##oli
36
заузе
Шпа
##тије
назива
зема
партиза
##њом
##стоја
гроб
неке
##чито
брзи
en
њима
##трија
развој
##збе
##мер
Верак
##толи
почетку
приликом
рада
##bi
##џе
Гру
1992
##ze
##лти
Веракруз
земља
степе
ули
##mi
подручја
Влади
повра
жене
највише
##чава
##вред
##rom
##мпера
Рим
##лага
износила
двора
183
површини
##мпо
рејо
укупно
рекор
34
важ
кућа
првог
##стер
##нде
универзи
здра
сина
центар
##нца
говори
##јском
тер
свега
кана
##гло
li
близи
чет
##били
Фу
##јни
##мах
##љиво
##штине
##нута
##лов
крајем
##нско
могућ
185
српског
##ферен
##логије
првенство
##циони
##таљ
or
##кви
река
##тивне
Њу
##tp
##вности
##била
##орђе
осе
##пек
##вари
##шком
наз
Аг
##лаго
##сионал
недо
стату
##чности
##жена
##20
међународ
широ
оне
pod
верова
ап
Тра
##вода
зада
току
##мп
##ene
##кр
болести
##тура
турни
Алба
##кли
##рања
обухвата
##ким
##миш
једне
Ана
прихва
Нор
##обра
седам
шест
##nu
##тну
максима
албум
45
знача
ослобо
Поче
структу
##red
ван
љуба
##вед
Спо
##кој
kon
сај
##тила
требало
##тног
80
посеб
играо
Олимпи
конти
##ga
1990
делом
##њена
##бама
##наца
реда
Хуан
##вде
##њих
##нси
1999
##кос
38
1944
јавља
Светог
Доња
дисципли
##жења
##име
скло
специја
овој
добила
##дове
Ара
##соб
симбо
Београда
дипло
##товао
##вити
Лон
Анто
##лаза
Кр
##ph
##ктор
##мар
карактеристи
Ци
Румунији
1995
Мај
Хосе
##шић
37
попут
прика
Александ
##ers
##вске
##дници
кате
напад
години
##глед
почиње
уметни
##нае
##ланд
Република
називом
службе
##ксо
Јован
##леда
1942
доку
##фици
Виља
##ip
##једно
изво
##ći
##пом
##нској
прити
хришћан
##стао
односи
потпуно
Ман
темпера
##логија
републи
коли
језику
учествовао
##гина
le
земаља
лос
pp
изград
##jen
##љење
39
најчешће
суд
##мова
##ћена
Михаи
Фо
##ндо
крста
грађе
Руси
царства
великим
##дили
Тео
мре
kom
постигао
##ниште
Шко
односу
дове
##кве
институ
##ard
III
иста
##парт
скла
##тине
##ug
савреме
пси
##рома
ам
пуно
##нто
близини
Пер
пона
Има
##ел
##дима
##ona
##лију
Како
хрват
бици
Кру
##зво
капи
##кте
почела
Ћ
Бугар
нешто
##što
##бине
##зују
##era
##мбе
Ца
дан
пока
доде
преду
друштва
##тили
De
##дама
##беле
форма
периода
подр
изабран
показа
##gra
##шо
изло
музе
Хали
студи
лого
##нин
41
животи
филозо
os
##њује
цара
dru
180
економ
обзи
##гна
Ер
500
Пан
##лос
пру
##iz
отац
##мбру
оно
181
Афри
##мпе
кад
рели
вредности
усле
1998
почетка
##вљи
губи
осам
куће
##pe
Гран
такмичења
кона
њен
##хуа
велика
допри
##фина
траја
70
##метара
простире
Црвена
##ган
бив
##рала
##колико
##мију
годину
мона
##љем
sv
##ice
##ogra
остао
Зла
##ктури
Ги
Првог
##сма
##купља
војска
гимна
##лиса
организо
префе
42
вратио
##ure
природ
Већи
једин
##nom
серија
##ili
бора
##тру
проши
обје
страни
##дног
Кана
заме
##мје
##lan
првом
некада
скоро
##мови
##рке
Пала
иско
гор
44
##лена
обезбе
Мила
многе
##ловић
##дал
##ort
##вског
стре
језера
##II
изја
op
Босне
##реро
43
##бан
##стре
покрета
##чић
кога
##ber
упу
##шкој
оти
подручје
могао
##зације
##men
Ауст
##qu
Горе
Сараје
##шења
##зем
раније
##odi
Ar
##рење
пову
1943
следећи
1945
Црне
опе
песме
##ogu
успео
одговара
дошло
конку
минима
##ких
##рска
##uje
умро
##граф
тј
Фили
##врш
##њим
информа
Але
сми
##anja
утакмица
побу
мушкараца
##све
Сва
Европе
нарочито
##уз
Лаза
##лм
напо
брзо
националности
жупа
пада
становништво
Совјет
Лондо
именом
##рила
дели
неде
борби
пресе
кли
спро
##сред
Мађар
Она
случају
##чена
##рали
##ary
департ
вероватно
поги
ову
##ay
студе
##лма
Шу
неким
покраји
Прва
##ate
великог
средњој
##чари
управља
диза
првих
##тним
Рио
Светском
1996
##мета
##nosti
насељености
Бран
мења
зави
Кла
##запа
облик
совјет
Али
овим
Новом
##art
онда
садржи
имена
новина
оруж
књиге
##пти
Al
зато
изнад
председника
свр
Пото
последи
стандар
##шење
изд
##ment
Пољ
дожи
##довима
историји
##вољно
##edi
Ско
Еги
ом
1997
Пошто
боје
Европи
##десет
##станти
изу
другом
##стом
##новића
##шар
##јор
##љопри
##рку
##туре
##ica
становник
##тном
његово
##дном
Јова
+
##вији
облику
прото
Агва
млади
##штена
##тријар
спорт
војника
##гел
48
Радо
породица
поне
##оло
što
садржа
##вној
података
кар
##сног
Be
Запад
споразу
##ворио
медаљу
Најве
Савез
територији
##стоје
##сама
Чија
познато
&
професор
стари
глуми
##лаца
квалифика
Пав
Гереро
47
филма
захва
Гва
испод
Калифор
##tiv
##кали
трећи
смрт
кисе
##кав
лан
##кључи
шампи
династи
зло
?
##вачи
r
манастир
готово
супру
наре
процени
тела
резултат
преузе
##ost
##oc
##лес
Косо
##сак
лиги
независ
ке
Uni
##ks
Уче
Дан
##тска
фото
Хрватској
састоји
Кан
90
теме
рела
убрзо
различитих
##ven
Велико
освојила
друштве
пола
иденти
ht
##љујући
Други
##гара
Осно
врши
позната
##mer
Халиско
Тада
##ciju
Један
развија
приказа
избе
припре
Раз
##man
пружа
одређе
##ин
##стима
Око
##мима
##жени
46
##лега
угро
деби
##мената
румунске
програм
for
kori
вези
дозво
Мора
атлетици
Они
старе
налазио
којом
##ada
!
написао
##cept
доста
инстру
##сну
индуст
објавио
КП
ква
потвр
##дје
1994
Сједиње
НО
окупа
бивши
обавља
грађа
водо
етни
низ
одмах
##ограф
узро
филму
##тропо
##вача
Le
фон
##нску
Pre
##рили
Ваље
Данас
##родно
снима
преки
математи
##še
задржа
##рине
Ако
Pro
зби
##ђењу
констру
##ult
подржа
поз
секре
публи
##ore
ima
Уједиње
##лита
Ипак
Велики
Осман
##лео
Спа
Балка
враћа
En
уговор
биљ
вози
веро
професионал
ае
##жила
##skog
##писује
награду
##вајући
##вљен
##ров
батаљ
##лови
vi
испи
##кује
##ud
последња
koje
##вљује
##чел
најста
гро
одра
##лину
супро
ек
##тео
другог
утакмице
дости
Јевре
утицај
##цифи
##ava
##шан
традиционал
широм
##тепек
себе
његовом
##ord
развије
##gov
Попо
##јекат
Француске
Зо
##десетих
##чени
2019
висине
такмиче
Хрватске
ит
##жда
Бре
повла
ву
цент
ху
’
бол
департману
Федера
##кин
одиграо
јединице
ww
##берг
##вину
међутим
свеште
коп
Рођен
##сфе
подигну
опо
##важ
Касније
владавине
1993
www
Гвана
контине
клуба
Српска
одговор
##бодила
##вци
Александар
титулу
ску
истори
Аустра
североисто
179
префектури
област
осу
бугар
##вка
бан
гледа
простору
владе
штампа
хиља
седиште
Игра
ситуа
убије
интере
итд
сваки
Чијапас
##či
већина
##жо
##бој
особа
премије
##шена
пома
оца
##ране
брат
##рену
југоисто
офици
игре
##oci
сарад
најбоље
##тиза
##ригина
Колонија
капе
дошао
уна
паро
Његов
##ване
Мини
##oz
партије
##ste
грађан
техно
планине
проле
прибли
##ow
182
##чила
прео
струч
Гванахуа
пољопри
Константи
Мла
инди
##гру
he
авио
##чили
територије
##пле
дивизије
кине
Ката
Стра
Se
Гванахуато
##јер
изаз
сачу
простор
##sh
активности
1980
##града
Анти
##мит
##40
##сима
фло
##80
##our
секу
##рени
55
нао
осим
naj
оду
##ведена
me
СС
koja
оче
##запад
зароб
ог
компози
меха
ствари
Ај
##ћај
org
##дних
##баци
зара
##тити
реч
општинских
изврши
##леко
##60
##мио
извор
организације
фести
Тр
ипак
##рице
тешко
##хопло
војни
предузе
чиме
југу
њихове
извори
зо
облика
непосред
##шњем
##вице
##дну
роди
цело
првој
##ly
византи
##хом
лиге
##вачке
једино
бло
експе
Хрватска
##дним
Код
##мора
Херцеговине
дао
постављен
Бого
другој
Византи
##лске
Црква
бави
придру
програма
хеми
49
пото
прево
##ole
прима
Србија
##ces
Нуе
самоста
путем
иску
обеле
##рета
истраживања
##скоп
Тај
сате
Њи
##пова
тен
генерал
##ктора
његових
##бје
##рони
##ласка
##шњих
Краљев
ура
##веден
##пркос
Бор
националног
Сту
осталих
##чено
##значај
патријар
##риста
##one
Ен
Потоси
серије
##лс
##тић
##лко
Стефа
##лез
Фор
страна
##жили
дје
корпу
катего
провин
##пта
##10
Чу
велику
Републици
албума
Србима
##вачки
новог
манастира
Национал
##end
Јан
забра
јужно
крета
Јапа
забеле
просечна
##kl
##дећи
400
једини
површине
##ust
ико
играча
Нова
покри
300
нпр
дете
##skih
тих
свако
техни
кљу
школи
српска
##реј
##рних
##дин
##гура
##ксе
##тови
краљев
##милија
могуће
заузима
##пија
Војводи
соп
дре
период
саобра
првенства
##зор
Савеза
старост
##јевима
Партиза
Бр
многим
##тског
зали
напре
типа
српских
53
Прво
Вар
1970
лета
организација
Дуна
Цари
##ката
##tic
прву
##кну
##лице
ги
наука
кола
ефе
Слове
##вљена
даје
војску
електри
##тивна
Сад
##фт
плас
##вило
циви
каријеру
##јеви
##ЕЗ
1989
позориш
##лета
##пове
##жено
##мски
ist
путу
Зи
Ради
врху
чему
##мани
гол
ФК
Држава
##jih
Милан
бивше
##нила
##рног
##стала
мушкар
##ba
##шких
##рено
##лама
првоби
максималној
амерички
прича
истоку
recept
Џон
сликар
кће
паж
New
Русије
##кас
##чани
Тама
жа
помиње
##eta
##стр
##pi
##кија
најпозна
##воља
маши
понаша
мар
основан
учеству
##ical
тала
унутар
кошар
тврђа
минималној
брон
##hi
pred
##вера
каже
различите
##оград
##ory
бази
##бова
види
##лили
##гледу
##нго
52
##рић
испу
сах
удру
##дити
##рис
Фер
обали
##ана
омогућа
психо
њеног
следеће
странке
nje
at
##лског
##ствима
1918
засе
##дара
##ару
так
изабра
##рит
##nost
##гује
##цем
способ
##њени
тамо
очи
##sa
БЕЗ
Почетком
75
позори
његову
министар
Центра
##далго
сео
##ницама
##тиви
њој
##ity
##кове
сцена
51
Идалго
уместо
##дана
##штај
уред
најма
дворани
150
Петар
окло
##cij
Мигел
##нет
циљ
Крајем
синг
##дији
Вер
просечан
Босни
километара
##đu
Пуе
каме
Свети
пуноле
одли
Оп
Његова
сваке
транс
##бло
##цо
##вајца
##бље
##ристо
познати
##систе
исла
##чак
##rans
ара
опту
##лности
##шћа
##штини
1940
##нео
##водио
##јску
поена
##фија
повре
планина
северу
великих
одлази
##мији
##чност
##чини
##пархи
Буди
њене
65
фабри
авион
##леј
##če
Неки
##ale
претпо
##мила
члана
http
упозна
проблема
остали
Калифорнија
оригина
##зму
š
београд
домаћинству
##вност
##of
##ant
##зне
##лда
зву
Њујор
студија
близу
обно
##њено
кући
резултатима
##КН
учествовала
može
армије
омлади
сопстве
##ron
случај
изо
олимпијским
1960
Гори
Li
tako
демокра
##рује
##čk
ваздухопло
j
деј
нас
лига
епизо
Св
Македоније
посматра
Министар
##сена
поза
сазна
Италија
БЕЗКН
##eb
архе
репрезентације
листи
57
једној
Пара
тежи
64
услед
репрезентацију
post
Тро
Сле
svo
западу
такмичара
побо
веће
##слава
челу
##штено
тиме
мада
##рос
Франси
дока
групи
Нем
Васи
ката
##мба
Док
лати
##дију
својом
##нча
Лан
политички
Com
границе
pos
##jed
##ђују
##гри
##клу
пли
##мама
##dae
процес
непријатељ
Осим
##пила
177
##vu
Сви
орга
утакмици
63
представљају
поља
##pa
54
##ковића
Фло
Шта
мајка
##органи
##тур
Na
##нијим
освоје
провео
светло
Учество
##јеве
Тома
Mar
иност
отвара
##ry
стри
##vanje
недоста
факултету
##јана
оште
##сора
##вести
грани
успех
десет
120
prote
ar
im
Me
Само
##жбе
##јера
пеша
аутомо
71
механи
прелази
гео
промене
гло
##вору
бого
знатно
порекла
оз
спада
Рај
##рба
тренутно
1988
парла
шампиона
##тива
Послед
пис
Дубро
##рског
мали
мани
дио
Монте
##дора
тој
финалу
рије
укра
ci
##слободила
православне
##рене
##vr
ствар
никада
започео
be
разу
понекад
глума
развоја
##mat
рекорд
##рати
насло
варија
Уз
задо
месеци
конкурен
сагра
беле
језеро
##дад
##ence
ука
нових
КПЈ
62
проу
Џо
##родни
##тана
От
##јско
##простра
мађар
врије
налазила
моћ
написа
##вид
јануар
групу
##ith
Главни
потиче
Свето
Педро
мјесто
званично
метра
пило
равни
Деј
сигу
Гар
Резулта
Србију
принци
Сред
БиХ
Село
Швед
Ђорђе
##кић
сами
##ht
Краљевине
la
пријатељ
##ast
њихов
##led
##рме
##кер
Кне
Мето
студије
континента
##тности
историје
телевизи
##ћено
Хар
битке
##жни
сним
једним
56
већа
пала
селек
заштиту
##хија
нова
##дена
светском
прете
сусре
долара
чиње
ан
Немачке
прешао
ТВ
полуо
наводи
састава
##ворен
немачки
##роши
Мари
станиште
подршку
избор
радни
којег
наоружа
поти
##ковима
bio
##нула
##право
земљама
mogu
пољ
потпуности
##бича
прива
градова
##ровић
чија
##цама
kod
##лт
пору
##oš
##per
IV
##ријски
1939
бомбар
довољно
миш
Изра
##mo
##нора
сматрају
девој
друштво
омогући
##az
pra
##onal
##строу
##жене
дне
поједина
##хан
тз
##логију
##љака
Космо
норма
Слобо
##ća
59
изврше
боја
##форми
играч
СР
Сер
основана
##ослободила
Te
његовим
Ст
канди
##руса
шпа
могли
Мног
стање
митропо
аустриј
97
видео
делова
Th
58
полуфина
##ou
стати
минута
##тице
пад
раду
фро
1987
резер
##ational
тело
можда
##берт
Рајна
смислу
статус
тзв
земљу
потребе
##lav
Di
1986
песама
##рла
##носа
Иван
класе
##đe
чланови
##ули
1984
октобар
##udi
функције
Моск
72
ro
##ved
крила
изне
мери
препо
узе
##говор
безбе
бригаде
цркви
човека
војне
##ld
##воро
Бел
##min
##вела
затворе
1920
вода
et
nek
Гвада
очу
оклоп
Бело
породици
##нина
On
сед
мемо
##штву
духо
противни
##ниор
##њака
##зерва
човек
##строугар
##uro
##ode
пропа
наставио
Јоси
Велика
##кру
##ča
Франсиско
##нс
отишао
комитета
Космос
1985
##стали
##oma
##нистичке
##дак
Украји
опсе
Јована
прошло
дије
српском
пону
Народно
##рте
католи
различитим
Con
##30
острво
##enje
поса
лето
Антонио
##хап
опре
путо
##ниција
Бавар
домаћинстава
##кате
##ovan
Хен
хла
##фанзи
закљу
##део
опас
поставља
плане
напусти
##лон
##сних
##влада
тера
државу
положај
Мексико
устанка
##ens
француски
Палатина
Вене
##lje
##рет
финанси
##вска
##рним
Универзитета
##fer
племена
коле
четни
тума
##али
материјала
сведо
##пен
вје
везе
нат
уки
заједнице
Ум
##фон
чије
##кат
##тира
##нито
up
Црној
##рну
##виле
##пије
##љива
Вилија
##all
регу
специфи
Паризу
народног
Блан
##ћих
насту
##фико
март
##мно
источно
завр
остале
великом
Филм
закон
##рона
##вели
##рац
##ija
поп
моно
животу
кале
Већина
његови
##gu
Хрва
каријере
дубо
аутор
##џу
##вођа
купа
Палатинат
најзначај
отвореном
зграда
испред
##чује
споменик
##логији
Италије
Европском
брата
сајту
спољ
изузетно
put
Меди
производи
Вал
##гер
аерод
командант
Карађ
##тских
обаве
##мона
реду
##нић
заслу
вредност
представни
##стог
стању
захваљујући
##сер
помоћу
mm
##бера
61
##вено
побољ
маги
месеца
предви
##вал
##њење
књижевности
##av
##мске
преу
##lič
##ћима
##тивног
промена
##везу
поте
северно
наставља
Ад
##uju
##фије
##ology
##rž
средње
Хуа
звезда
Манасти
##son
komp
Бања
изборима
награда
арап
одред
осећа
август
Александра
Била
остала
##ren
1981
160
гради
лете
проблем
##ck
##нду
Бри
##нку
тима
жрт
##снова
предло
bro
споменика
Бру
Тан
Univer
Такми
##сници
свака
СП
##сију
Хај
тржи
Гре
Прве
практи
##fe
могла
функција
чести
##слима
експло
април
##тона
оси
кратко
основни
простора
здрав
##und
ета
##њове
главног
##skom
##лазак
##ral
Напо
неће
географ
##слиман
Ед
зра
њена
династије
##рској
искључи
Посе
неких
најви
реоргани
приста
железни
НА
Вије
Ново
септембар
##oh
##јској
Ати
1912
##нерал
Скоп
##вано
баца
Вра
##тел
##ризо
Бур
рејона
популар
најваж
1950
Бан
1974
заста
пише
линије
178
Чива
значаја
##inu
распростра
##лска
Књи
Ала
##листа
ja
конта
особе
море
##гију
одбране
°
##писима
екипе
##јеката
политичке
1983
##говара
немачке
Клу
влади
комуника
прежи
73
1914
заи
наја
Петра
##АА
1979
последица
##жава
данашње
основао
пореме
##зио
##спа
лако
Полити
рекао
Саду
##nika
##жна
Тла
##чева
сни
1948
настала
брод
##тник
роман
##ond
Ниш
бронза
херо
##tern
1982
покрет
##лност
објављен
Чар
плу
Сантија
Новог
многих
ek
##сион
завис
награде
Немачкој
##ell
##be
ска
распоре
Кал
Еу
##гби
Хан
##нту
масо
одлико
##ubli
новембар
1972
Радио
Највећи
разлога
реци
радом
обале
анга
средине
бригада
1971
##nik
изгледа
Загребу
##uk
јул
водио
##нили
Швајца
зао
себи
##vlja
Лука
Нуево
пери
»
треће
природе
##пхо
хидро
дивизија
1975
Море
##дона
Лет
Об
Холан
СФ
95
конферен
астро
Русији
##ae
##кула
Шо
##нити
Чивава
##љених
67
нову
јако
Фри
њеном
66
кнеза
Чо
Њихо
могућност
истовремено
сусе
историју
Скуп
##дности
незави
1968
нивоу
##зар
Кине
фебруар
##дре
mu
Херцеговини
узима
толико
##лизо
##rit
##њене
Гвадалу
настав
##носе
борбама
неста
##oda
улога
енергије
транспо
##нован
##ницима
постигну
##enti
92
тренер
##лизам
##лф
инжење
игара
арти
##мби
лица
одбора
Запа
форму
потреб
##шића
Није
музике
vr
met
дина
Северне
Постоје
##раз
##рови
Кому
1938
##oga
личности
##жне
ухап
Врхо
нега
условима
архитекту
ели
ужи
јапа
##рано
Сантијаго
конкуренцији
еконо
острву
##тал
верзија
Народне
Саве
1978
##шно
гдје
микро
##vis
уређа
значајно
##noj
слике
бројне
##рами
мисли
служи
куп
Лондону
кандида
опште
##јс
85
колек
анали
Леон
##пала
##број
Др
директор
dob
##степе
благо
шти
Драго
такмичар
##ha
84
клима
Гвадалупе
Крагује
год
Аре
лице
gru
револуциона
морна
##јт
«
вријеме
вид
##tor
##сана
91
систему
##рише
децембар
Нишу
##поте
del
најбољих
госпо
природно
1976
центру
##сања
##чене
Ове
##товима
проме
потребно
##пушта
средњове
##кцију
чвр
Руске
69
Још
пролази
компанија
прије
Поповић
ele
раке
линија
утицајем
1936
западно
Македонији
хро
Лома
виду
пуко
дрве
султа
зграде
##вак
1930
Сал
почели
могућности
99
##nji
Ама
68
1973
врхо
Саксо
потписао
##скопа
Bi
хоке
##les
##ционе
##emb
најстарији
страте
Карађорђе
XV
обзиром
##љиве
зу
##ствено
кошарка
деловима
чин
похо
##чоа
##стичке
последњи
пласира
##шњо
cm
тени
приступ
86
Круз
наведе
Бро
одвија
нов
мале
y
овде
Марко
XI
1953
1969
77
оже
##гор
##шњој
директно
##tro
релативно
##тенција
##лаже
нају
високо
ni
погледу
##пира
##кара
партија
Југословен
81
##хије
нека
Анђе
армија
СФР
капа
годинама
##сара
равно
##кна
##enja
сер
##вском
Фели
српско
##pre
уво
њу
краљи
##lik
имати
74
контра
##bo
споља
Фра
##rat
батаљона
репрезентација
њихова
дуга
страда
##ys
развоју
##генти
изван
радова
нити
колико
će
130
##њак
##ction
морао
##cu
ak
манда
мир
##лила
##rv
Роса
двор
Ван
Сме
добије
##шио
уједно
магне
национални
##ere
##хађа
##цент
##стова
питање
Олимпијским
Џор
песму
##ular
##сила
прати
##биљ
##вију
##графија
Угар
##ič
напустио
управо
одржано
одреда
##тој
gra
борбу
прито
шо
sist
пећи
##наест
Интер
односе
форми
муслиман
##мић
Брази
неопхо
##чевић
следећег
##vor
ћелија
времену
##пту
76
оке
извора
мала
препозна
јун
ed
Ниша
хиљада
##чица
одо
##љује
Слу
самоу
висина
1964
вођа
неуспе
##рик
непозна
сезону
позицији
1967
Велике
Југославији
врата
1919
##шњим
излази
Баварска
земљо
##orld
Слова
послова
Стефан
младо
комплек
##љив
учитељ
##љом
лет
офанзи
успешно
дебитовао
Ехи
##тика
Sp
ali
топ
словен
федера
серији
орије
питања
одлучио
територијалне
описа
сезона
другу
опа
Позна
Једна
Северној
##ћој
граница
гар
заба
Турци
x
Тек
руски
Коре
већину
##стла
јесте
основне
победио
хране
песма
интензи
екипа
последњем
##lin
##рата
светски
окон
медаље
унапре
##mu
Сти
остаје
##bu
##рпе
настао
##ваца
##шким
пје
87
побољша
такмичење
82
##пште
ника
88
операције
##јевић
мно
##жја
Колу
факултета
народне
пољу
##ira
##тома
животиња
сирома
велико
коначно
Музе
команданта
##ђених
Сарајеву
1977
његовој
Име
##тивних
Пуер
финала
осве
##form
Обре
##јић
89
##чана
енглески
Q
##vanja
1946
by
гори
извешта
##isel
план
ефика
фудбалер
улази
96
##зара
нагла
библиотека
##skim
Бог
Миле
иниција
привред
ok
користио
боље
говор
тренутку
##ћом
приближно
##сање
половини
Постоји
компаније
##сани
Јовановић
јез
##рских
kar
професора
годишње
потенција
##мак
##ura
делови
Вил
проуча
##лизације
проглашен
par
Мир
наси
потписа
##сији
примећен
##cy
црного
експери
##ниста
##мично
нивоа
надморске
##пласира
зове
Немци
покло
Ph
Пије
трци
Хуарез
##чити
бројем
##НА
Зу
Ехидо
##дере
алго
складу
начел
означава
врати
Жу
1961
##зан
једностав
моћи
прера
НОВ
Жа
дужности
Зна
##ус
##тније
преци
##ork
функцију
83
##чењу
78
крви
послу
koristi
појављује
истом
искључиво
трупа
##бину
моле
јевре
напушта
изгубио
отпор
представ
##јев
морају
сукоба
називају
##СР
##nje
ноћи
tre
настаје
пласман
##дини
доводи
##ite
епархи
савеза
станица
##лошких
##писак
сила
##тује
1963
ap
Карло
артиље
њиховог
##rane
##ново
##љани
##rin
##лак
##сним
њихових
00
школо
Француска
дистри
##ћени
Исте
победе
##vaj
површина
##њења
манастиру
ег
саве
Међународ
##дела
Српски
Митро
Већ
одсе
##мирања
##нко
##сме
опет
##III
купо
факултет
површину
околини
носио
сигна
лас
1937
1962
##тмо
Am
##тивним
тип
Сина
разне
манифе
##kon
заду
##нули
##граду
подразу
##бови
##шне
drug
##бљи
Универзитету
##њују
Милу
домо
вре
##ништа
задатак
спаја
Џејм
имале
##чин
79
религи
најпознатији
поду
##val
огром
осталим
##чер
Акаде
Мичоа
Турака
поље
дужине
##ši
Шар
вијека
промени
Петровић
рођена
##шњу
Друга
децу
широко
комбина
##вачка
царство
##čki
inter
Коа
средњовеко
176
##ativ
инва
##тације
94
испа
говоре
избора
потра
Мичоакан
доказа
Америци
туристи
самог
##туга
##виг
##рже
Ови
логи
##ментима
креће
културно
##лет
уништи
##stup
финале
Владимир
Резултати
Уста
th
gen
##лације
##zn
93
##ТО
шири
1900
##хра
He
Земље
##aka
Дуран
ter
Оба
Право
закона
##рика
конста
највећих
науч
##uri
постојала
Med
капаци
народни
православна
##ts
Удру
меша
цркву
##штајн
услу
Убрзо
победу
##киња
##хар
1905
шуме
диплома
освојили
хар
Леско
##нут
ђа
nap
Тамаули
најмање
##sku
##реа
##валу
индустриј
##ун
учесника
Ска
1965
изви
Совјетског
##гона
##једна
##лове
##сада
распада
Тамаулипас
послао
##сном
њим
##дион
##нес
##tra
изази
##ane
стања
предме
Рад
истог
скупштине
##стрва
##времену
догађаја
свога
##тела
Ива
трке
##менте
колу
Кад
Клима
mi
##рама
Више
науке
##зација
звезде
почетак
98
##odice
територију
##ина
посао
##сеља
омогућава
озбиљ
Српској
конгре
старији
##тури
вије
добили
1947
##јум
вароши
разних
##che
##нику
##ath
##ill
##поло
1966
Ам
Божи
возила
##новац
сексу
медаља
похађа
171
јужном
књигу
рагби
##јно
лик
сваког
величине
Гри
непре
##гита
модел
Предсе
con
Hist
књизи
1929
##lat
реку
tri
1921
учествује
Саксонија
Врста
Мартин
##lob
sk
##водно
nov
стро
сахрање
присуство
##oph
часописа
сати
Португа
највећа
маса
разре
значајан
СК
фудбал
Великог
140
првим
ученика
оце
Број
политичких
##бичаје
заправо
Pri
##мирао
образовање
##шле
Мор
Цар
пусти
писац
Univers
контролу
оснивања
##гова
знак
остаци
radi
кома
Димит
##лера
успоста
створи
La
##гро
1924
однос
Дуранго
бре
##ђивање
##ern
оружа
учешће
##бору
##tim
улица
преузео
##зад
концеп
стаби
најпре
Многи
Мала
Солу
округ
користити
##вљено
кампа
800
филмова
идеја
испра
Или
приче
##лде
просла
саобраћај
##anu
ате
Мата
##ријске
пунолетних
pol
Оста
разним
##тиван
бораца
ограничен
канце
Сада
уза
un
175
учесник
##las
мајке
лико
највеће
##леп
##ilo
##рном
##тове
##лизма
асисте
спра
Загреб
подразуме
##лоа
Горњи
укључује
сум
Кори
##ović
кнез
зависности
##lek
##ћује
##гон
богат
Хол
##нау
Далма
литера
Дија
девет
Соко
изрази
Упркос
##дање
табе
корпуса
тки
Хор
захтева
улоге
##сар
##rop
стигао
зависи
##ind
одржава
источном
110
Иза
##ела
гене
генерала
аку
суда
правила
завршава
пољопривред
остварио
por
1952
1956
неког
Манастир
##дност
прези
великој
средиште
Џа
бес
разно
Богороди
најбли
Вилијам
јасно
Сматра
теро
иностран
Мали
деценија
##џер
uz
##ome
кро
већег
краји
##шени
##новима
реорганизације
##21
наи
Славо
pop
првобитно
Фре
базе
власни
1935
употребу
##тмосфе
Словена
кали
##кују
Алекси
расте
Супер
седи
нукле
уједиње
##gen
предсје
странка
четворо
600
смањи
првака
1915
pot
ранг
председни
##ase
##гент
ред
објављи
средином
##испо
коњи
секретар
##рове
Влада
оних
командом
Висо
димен
зеле
njih
довело
производњу
##штени
употреби
заштите
грађевина
##мских
ништа
симбол
##чем
процеса
##нијом
учествовали
орби
доступ
прего
Ол
Воји
##лација
издање
компле
налазило
Сарајево
хришћа
стално
домина
Немачка
##age
Зему
независност
концентра
Епи
везу
нашао
Институ
##грама
##мског
##ћења
смо
жели
сеља
##ia
##пар
кућу
##менту
lju
##довао
1934
Исла
искористи
колонија
претежно
Геор
Факул
птица
##жег
##ААФ
прева
Умро
носа
рома
архео
##сној
##ew
Два
лист
створе
##тност
победи
Sr
конзу
новим
изнена
Сонора
јавности
Стефана
документа
Ђо
##чину
Par
там
##сона
питању
vre
пан
прикљу
чинили
револуције
упа
старог
ot
##нцима
##тском
преба
Гале
Душан
Прије
уредник
храм
устанак
Соција
Члан
мотор
покрајине
температура
Ap
##међу
ути
допу
Викто
1958
Грчке
Николе
каријери
јужној
##рс
##лике
ИААФ
источној
Над
##92
Јужна
наћи
имену
атмосфе
Морелос
урба
помену
рок
##ert
1910
##рал
филмо
локали
Ma
Зим
##графије
оружја
tra
северном
##зама
лигу
Краји
1959
##nal
##водом
Горња
временом
##шевић
инспи
аутора
ошт
ушао
145
радила
##рити
dok
Ареал
коре
тражи
завршила
##вици
буди
запове
изворима
СССР
##стор
свети
Дар
proiz
##мед
Норве
Михај
северозапа
##цеп
Сар
Тер
nije
четврти
##ciji
страну
Архи
наше
сателит
скра
##морска
Михаило
подигнута
Закате
us
1955
##ђивао
супер
Кроз
Сава
заједница
постали
руке
јединстве
век
Дани
пораза
##ћим
1949
грађана
##љима
Пуебла
државне
последње
Буе
##ОЈ
присту
завршетка
ови
доноси
људима
##ших
лежи
људе
далеко
ћелије
##нче
северној
##тов
Запис
Кли
грана
Димитрије
Бечу
сингл
истакну
Кре
105
##љана
##lji
##шни
траје
мито
Милош
Бал
Сау
стекао
##tis
##ations
Нау
Гранде
хор
њихово
137
делове
##jan
комунисти
##тнае
Sh
##inal
##воја
заступ
##ese
##рди
##нита
парк
##зора
Gre
ратова
постепе
западном
Између
главна
##диону
##клопе
фудбалски
##ime
##тки
деве
спи
покушао
##жња
##нела
Мате
укључују
Субо
пажњу
преузима
codice
окупља
1954
сваком
Закатекас
тврди
правцу
жупанији
173
дати
перси
производње
##đen
неда
битка
односа
компоне
##гови
ангажо
##90
##стој
Црве
Мили
свјет
одбија
користећи
##ich
stru
НАТО
алба
софт
Укуп
гласа
здравстве
осман
објављена
##зде
##мла
Зако
##елек
мају
##go
опти
непосредно
споми
Становни
УН
##собно
циље
World
пројекта
##nov
ži
##sko
Алто
##дић
мрт
млађи
љубав
170
писао
позоришта
нере
##шавање
голова
##ons
Следе
главне
##жује
Срем
##кл
##рош
##шавања
схвата
Bo
припрема
##зно
удаље
Цариград
Ака
Љуби
вођ
1913
националне
##СК
бродова
1922
Кари
Земљи
##unk
подаци
прикази
Ac
радника
##лост
начина
##чиње
1933
бројним
јављају
Vol
циљу
fil
истоиме
ju
##стен
Куп
отк
СФРЈ
1917
1928
другачи
вероиспо
графи
кнеже
##народни
Sa
сама
1957
војсци
такмичењима
##нциклопе
општинска
##моћ
Коми
реди
##меро
Америке
социо
савезни
##rani
##пови
##љачка
осла
разо
Трену
##бде
дом
супруга
улици
западној
##ксион
##лошке
уколико
рода
прошлости
##нц
250
Овде
##тација
гво
елемената
is
јулу
двоји
повезу
заснова
унутрашњо
поставио
##ријама
македо
лекар
порек
##ano
##куа
##тињ
##стови
1951
појача
тачка
пације
ере
Битка
утицаја
Универзитет
Вол
Филозо
муслима
симболи
излож
ru
pa
тока
##тање
просве
Затим
##даго
##зме
циклу
користили
њено
Beogra
пољопривре
##БА
##сп
врх
остав
##сус
##дран
kisel
##берта
##ћене
умје
фами
Кампо
резултатом
##јне
##чима
парламента
##рур
академије
поко
Федерације
овога
Звез
певачи
мр
##шови
југозапад
with
ризи
републике
лоше
описује
am
главних
ослобођења
sve
##виду
1931
разуме
новац
силе
коали
очеки
половине
запосле
бла
кот
##хосло
уско
мотора
напред
Гон
##тским
##листичке
ваздуха
##бах
08
бавио
дужина
титуле
##for
масе
етнички
Gu
Клуб
шире
заузео
последњих
хомо
Теле
##ću
##ise
##роа
домини
разлика
сматрао
##лса
##јка
##čke
лак
објеката
спорти
епизода
студент
васпи
Рин
оружје
##ff
1932
##lov
Хитле
Ужи
##фра
припадају
Бије
парале
састоја
изграђена
деко
раде
Зато
надо
теорије
##ставни
наступао
показује
Маса
jedin
Време
Миро
спор
##лси
опса
терену
##нгу
Ge
инфе
одређене
џе
##ријом
смештен
споразум
##ang
##љуб
Ra
du
свакодне
##рп
књижевност
Сам
Пиро
##вачког
мото
догоди
Ква
израз
05
1923
Press
резултата
##зак
циљем
војвода
свеча
убија
дату
##сексу
тачке
апо
ваздухоплов
##нути
изба
термин
Ае
југословенски
џа
истои
савет
Том
##lika
међувремену
Car
хокеја
Da
##мишља
стил
миро
преми
ретко
угроже
јануару
одвоје
наредне
информације
##дел
Мексикали
##лози
Побе
квадра
##ous
извр
##вљују
успели
Мале
усме
##дорф
енг
нара
##сми
##okom
воду
Санто
лансира
##јл
Гранха
Прву
привре
ски
##лици
градовима
успоставља
национа
ad
већим
##ира
##пор
тури
приси
##тско
##ty
##тној
##тек
прими
формирана
сје
турнира
##теро
сру
немачког
њиховим
стадиону
##vom
Група
Светско
илу
раздо
##11
мушкарце
##мино
##вином
Риму
југозапа
своја
професионални
универзитет
obja
симп
статисти
##нцу
леге
Старо
samo
занат
нација
носе
##ведено
емито
##ola
Аба
јуну
##kom
република
аутори
организова
##кцији
плоча
##рад
успеха
данашњег
Иси
обећа
##гно
Дос
филозоф
вешта
музеј
##ans
испити
предмета
идеје
Државе
##ton
168
Пау
новине
Бугарске
poli
фронта
наредио
##зив
поремећа
##сет
поча
одакле
погре
##ris
Потом
##esto
уку
Гора
часопис
бар
убр
##ФА
заве
сукоб
универзитета
прене
хероја
загре
нада
трупе
##ret
помоћи
Демокра
174
остало
##alo
поступ
mnog
Вук
такмичи
##твор
РТ
прим
даљи
финан
гласова
септембру
Co
Летњим
немачких
европских
сачи
Заједно
##zim
##чака
уопште
част
политике
средњег
Пуерто
појавио
музику
одржаном
такмичењу
##католи
Неколико
убе
штаба
Милана
##беј
универзитету
ноћ
ослободи
Војводине
1878
trans
августу
##дов
помор
##кци
распра
објекти
##бађа
Стари
величини
##сећа
##vod
романа
##гори
##нтно
##зда
постане
шума
новца
Ринкон
Оби
кости
праве
##тања
takođe
##omen
##сов
фази
коња
Роберт
##to
bole
##ung
родитељи
##шим
кренуо
Оска
преме
изјавио
зво
р
##рои
1916
1925
схва
победа
##хајм
двоје
демон
међусобно
Сједињеним
##skoj
веру
успела
објавила
владара
##вда
Окру
Историја
одговарају
##радо
глумац
камена
појава
Спли
предмет
##ble
примерака
бенд
Владе
Š
Мин
##рском
1927
Аустроугар
аген
фудбалу
##село
ver
нару
несре
Народна
местима
University
укључи
Ферна
писмо
сребр
познате
Две
##ics
конзерва
##хији
svet
изводи
једина
америчке
##кен
пост
Макси
Гро
батаљон
##зен
Мађа
уметност
##ктив
##etri
воза
Филип
праз
аутома
##сера
Ави
клубова
##70
##баса
Тран
избија
Сли
##stit
134
радика
упркос
##ong
прате
>
Упра
Фелипе
развио
Пале
преста
Ђур
типи
Кнеже
##раних
старије
Вука
црве
Intern
##juč
Едвар
receptora
um
##nije
ног
##штвом
Ричар
Африци
одржан
ri
купу
убијен
пројекат
##лизова
Русија
октобру
притиска
##тици
##бал
Душа
првенствено
##тери
##клања
одржана
ослобађа
установа
##пили
комер
Фамилија
операција
структуре
државни
политику
мреже
ost
двадесет
##дине
метода
промен
Сије
српским
##kaz
My
Фудба
стилу
убрза
служио
Прет
титула
01
Мер
##роватније
уметника
##бин
##дања
##где
##edia
##ликом
više
Ис
##шено
прихвата
дошли
Државама
##угао
речима
##зин
##фер
##љка
областима
угар
обича
пресу
положаја
##наче
slu
деца
sistem
Јужно
индустрија
одељења
Мађарске
##lf
Стоја
српској
##штима
Неке
##тогоди
Париз
нуклеар
##мај
##терна
Дел
##ember
основна
глум
западне
##тала
##ријум
деспо
канала
##јих
ba
Гер
##тију
Белору
##nici
##чића
вари
оконча
Госпо
from
гробљу
њиховом
култура
##ep
##мисли
бива
##cional
Аустрије
##nos
ug
##пију
Лазаре
већином
температуре
##круж
гита
Азије
радови
Такмичење
Уме
поле
Њен
погину
##љењу
стварање
135
дужност
цео
##новог
иконо
##жње
структура
##ple
Каса
des
Црвене
Учествовао
мору
Другом
италијански
марту
профи
календа
##цен
приступа
##жног
##стрво
Грчкој
Москви
топло
долини
Филозоф
окупације
дота
##land
##солу
Шпаније
квалификација
##јак
оженио
сениор
##зона
засни
Ђор
##дбе
##тници
##cl
француског
##olu
класифика
##стин
турнир
##raju
kor
погла
тачно
##vih
Лео
гне
##нована
постепено
дисциплина
138
гимназију
VI
##метра
модела
порекло
комерција
##сур
мечу
рођа
слова
обзира
теорија
##гипа
Аро
##констру
##ен
##лизација
Пет
активно
уобичаје
##чник
##фикова
Четвр
канцела
погинуо
живели
##вићи
болест
Смедере
09
##мовић
скри
акције
употребља
rs
##чице
Рома
Словеније
##шина
швед
Круше
Is
Бли
1903
децембру
улози
06
Sch
преноси
##шна
Првом
ЈНА
произвођа
dva
клубу
римског
1926
притисак
манифеста
##тску
улаз
огледа
##ranje
##вница
Аргенти
##бл
##вил
бројних
##горе
Еми
наф
Обра
##ide
тема
монархи
иму
појаве
03
садрже
потпред
##ходи
иска
##нтес
отвори
исту
нор
мати
Павле
Косова
br
##вљени
опози
албуму
##нги
##тике
Каза
њених
секунди
новембру
Константин
Бла
укло
одбио
сложе
официра
направио
рејон
Западна
најбољег
скупштина
дого
коор
претходно
резултати
##bog
Fran
Црна
Ve
разд
младих
Енглеске
отворена
војног
источне
библиотеке
##жним
Чер
сја
pov
Лит
Дома
##onom
листе
друштву
поступа
##свим
ставља
одбрану
mat
##гари
##нода
Спе
послове
##oji
101
стара
##стон
биљака
слободно
региона
Правосла
поседује
средњем
мира
балка
новинар
##гос
##деро
лука
Косову
пешади
Вин
Пле
125
већу
Коста
пораз
одлука
##новао
Пасо
слично
знања
плаћа
хоризо
утакмицу
случајева
155
порт
затвора
##гама
godina
првенствима
##ila
табели
##тама
заврш
ане
најбољу
издања
подиза
##дски
вулка
##жем
##vlje
sin
Пру
храма
априлу
##кохо
##стић
гимназије
##соција
најпо
фрон
смештена
средини
средства
Јеруса
глумица
присутна
грчки
ž
хирур
Кристи
фамилије
НОВЈ
владао
Ира
наци
ватре
показао
изграђен
медицине
брода
резултате
образовања
Органи
Ju
мањих
усвоје
##љава
##вској
гола
07
Ока
досе
доктор
Ђи
##реса
јесен
часова
##alne
##љиви
слабо
словена
америчких
делимично
##ood
ch
новом
Репрезента
04
делега
Љубља
Библиоте
##шавају
##нтна
##годишњи
целокуп
завршетку
##jom
##лик
##osf
Кона
турниру
соли
pozn
Аустрија
пето
снагама
##ћење
Sci
##ђењем
школ
главе
##лени
уса
царе
канад
Вуко
немају
##теље
завршена
##рети
sad
парка
мере
Č
кримина
predsta
Џу
дис
расту
##рци
Or
Ex
минера
##сност
надле
осталог
Бога
модерни
Марковић
турне
брзина
прилаго
##til
активи
sr
министра
##rid
бира
ког
Петер
основи
##među
њихову
Политика
##мска
Ser
педаго
дисциплини
материјал
Хрвата
##џић
Пољске
дају
угра
донео
Ком
##штава
чете
могло
изградњу
водом
Карлов
народу
Будимпе
##јен
посвећена
случајевима
##стара
Бела
видети
##пске
Ари
Доњи
одлуку
четврт
индивиду
северозапад
##reb
Серо
аутомоби
снабде
##вест
Индија
##гиња
Бара
152
кисео
Било
Краљ
удружења
##nja
fi
Љубо
будући
Керета
дигита
команди
протиче
No
144
тешке
bila
паша
##stan
##верза
##форме
трка
америчка
разликује
##12
целе
положају
##teri
венча
избегли
##јала
128
отпоче
Африке
сасвим
политичког
Среди
љубави
пролеће
##визије
промо
супрот
епископ
Приликом
reak
војних
Керетаро
##eno
##дон
Паз
историјски
Албу
објекат
Џи
##пора
почело
верзије
бомбардо
##vot
rad
замени
методе
Чехосло
##сности
врсту
двостру
as
##вама
##жних
već
фар
непри
##хни
##нтана
вече
Комунистичке
скул
Опера
играла
коришћење
700
per
Јор
1908
Sc
##пима
##рско
подељена
хер
Сици
саобраћа
јавно
станице
одбор
##јача
Јужне
припадника
Pa
Захва
улице
државама
гувер
млађе
мешови
вите
##бију
Меса
Града
собом
провинције
##јте
172
aut
удаљено
посланика
малим
njegov
Мери
запре
##рд
##тину
##дница
1000
опасности
##руп
сателита
##lad
став
издао
Лето
постојања
издваја
Бје
руске
постало
##мрт
зауста
Партизан
веб
војском
ma
руковод
##сел
ток
##вањима
управе
169
146
сан
Нове
трени
Ник
##јми
Rep
1904
фрек
неком
карактера
египа
##јко
##нета
логор
рекла
дрвета
Европско
##19
Стру
устав
војводе
##рода
Иса
популације
Сом
Фон
есе
History
02
Одлу
дрво
Ља
##чније
funk
Атла
музеја
културу
##лте
кас
опрем
##nač
Теодо
градови
суо
##ционих
турске
горе
##зуе
##чево
пожа
Аб
цве
слатко
становници
Тренутно
Sy
##пара
anti
двије
позив
покушава
устано
представљао
organi
долазе
униште
##ess
IS
ада
Маја
спомен
политичар
Египа
isp
Оно
добар
164
увр
Месе
пријатељи
##чују
Боса
органа
оснивача
појавила
представника
##ослободилачке
фан
резу
1911
Обја
сани
##НУ
текст
струје
između
##ум
британски
предузећа
аутомобила
сабор
Њујорк
##лис
алкохо
северне
криви
Српског
способности
##idro
##мато
Бранко
разликују
##рока
одлуке
количине
##афри
broj
склопу
##ue
##der
Куа
нер
pove
космо
појам
заузела
прикупља
Хра
##бургу
њену
иностранству
Za
##бини
предлог
##фију
Најпозна
##aliz
Col
##траље
аплика
веге
Барио
остатак
француске
165
hemi
североисточној
употребе
Друге
болесника
погу
тона
elekt
високе
##chi
интелек
килограма
##рок
109
уми
Мр
##зербеј
информација
##шене
Папа
мага
предводио
оставља
разлике
##vio
важан
Црного
службу
ала
дође
##горија
оствари
##стана
prim
Дипло
попра
##ври
##нтне
##стички
владар
изглед
епископа
##пут
##фији
гале
Nov
Муха
##ријског
##томи
nazi
Мадри
смештено
sm
##лише
демо
крат
орке
Кала
spe
емо
##тас
Осо
род
мрежа
служби
oko
производа
##нки
Ђе
стреља
##oje
ула
фра
Касти
болни
такав
Покраји
Кини
чланица
##венције
##alno
Заје
Домин
157
папи
##кола
##тацију
илега
привла
фестивалу
##лошким
razli
песни
организацији
функциони
##бн
##дол
чува
стварала
ФИ
деле
лепо
препору
повратку
1906
уписа
одбрамбе
Ni
Грб
војници
реконстру
imaju
Енглеској
удаљен
##штину
допринос
изумирања
Оли
примо
историјске
##чило
биљке
открио
Amer
Реј
Христо
добило
наго
Америка
Сексион
фебруару
tip
##њених
услове
арте
средишњем
##ita
##stru
зам
назван
сне
##ланда
Дије
##stva
маси
nakon
фено
топо
освајања
Твр
доласка
##гез
Елек
Пери
Шлез
малих
рано
##лапа
Најбо
непријатеља
##лци
139
планете
##ктори
административно
##тали
118
пој
##тивну
дистрибу
##зацију
стога
тести
Рафа
##рску
Купа
Mus
zap
логора
##бела
штафе
Добро
архитектуре
##кава
Споме
државља
Po
Дри
мања
опада
степен
Администра
Позо
Тамо
##ау
аспе
еволу
постојање
##ovima
Мало
Музи
нико
једа
Џејмс
позориште
Јерме
To
##тиву
Шума
оставио
податке
##НК
##мни
дуги
нижи
##ришу
156
ума
Радни
Тор
##мберг
Јевреја
##борник
подразумева
##лића
##логе
Наја
##титлан
Дунава
стварања
Становништво
Наиме
настоја
##феј
##љеф
Wh
##тону
доживља
##зијом
бројева
интересо
претпостав
Захваљујући
Наред
успостав
##aktor
Јапан
изража
граници
XX
##узда
Каме
Мада
Аројо
Јадран
сестра
спомиње
##ournal
##иса
##љивост
играли
##шинг
Вале
Кола
фоку
сигурно
започела
##лона
##деном
Soci
мост
описао
решење
квалитет
##čin
##грам
корисни
##вце
##пољ
107
ukl
примор
##ološ
166
Бил
Дио
##кије
##ft
окси
Свете
карактеристике
##пела
##нтима
корист
приказује
115
енглеском
референ
Брани
досеље
двадесе
Хал
##ign
Јер
##жина
##теран
војну
Викторија
ске
њеним
Драга
Богородице
Инди
низа
апсолу
полици
protein
##епи
##жењу
сцени
119
##пљи
Живо
Шлезвиг
организује
##кета
##њаци
Бен
моч
##стим
рачу
струја
холанд
Гло
poja
Кате
##вју
##дило
mod
##тској
ex
##тје
sup
ухва
##ведени
постају
приказан
прогласио
##are
York
Сваки
отворен
шан
##mp
Звани
повукао
земљишта
##iro
##шом
наводно
Ћи
Гали
Дими
адво
Сједињених
Ауто
Трес
јужне
strukt
животиње
Сиу
потпредсе
##lic
етно
никад
степена
оријента
##рих
##јица
најмла
<
biti
дизајни
##čka
ac
снагу
поводом
спадају
генерације
недеље
песник
већих
политичка
доче
дотада
##ртика
полиције
##стора
##ђеним
судија
безбедности
##след
1896
агре
##мокатоли
133
##мирала
Коавила
групама
догађај
биску
играју
званични
припадници
##војио
##довић
##чавају
сећа
Баден
свемир
##stvo
моби
##драг
lek
подзем
припове
##гена
црта
ћерка
##рус
највероватније
Авгу
руског
милија
Успе
игру
осмо
1907
##борато
процесу
активност
cent
њом
тврд
##тивном
Школа
непро
*
##ator
публика
глоба
основну
дисциплине
##duk
##теа
##јим
##нтан
Гоме
План
##ler
##туру
Стан
златну
##водна
листу
самим
родном
##тес
критике
количина
Фридри
Сем
посетио
именован
Југославија
Сен
ими
Спарта
Мау
овак
Андре
##пне
Гонза
кретања
карактер
индустрије
Joh
##чника
бодова
Мађарској
##вел
Азији
Барсело
посебан
##лизацију
границу
држи
убио
споразума
Лау
саз
целу
преде
светлости
полуострва
##voj
##рас
##крца
квалификацијама
##збур
136
нам
сао
##ционог
бенда
акција
##io
##сић
med
будућ
сличан
преводи
производња
##вљене
##que
Ev
Сиудад
затвара
сарадњу
феу
опра
##нзиони
ислам
комуниста
153
Дина
Вирте
Марка
младе
старих
##нбург
##венција
##мос
хап
племе
дошла
лично
подно
Марије
##пусти
афри
132
Дон
Стога
##bum
Ed
##тасти
Кале
атлетичар
##хен
лат
шеф
##ric
домаћинства
##var
Кова
жеље
пука
##чавање
брзине
власник
свештеника
##тежа
окре
техника
континентална
мор
Карлова
##bor
##мна
159
добри
херој
наводе
##зон
Кир
##alni
član
Запо
трајала
##зел
Тар
kada
##line
ора
Поја
импе
јача
бакте
стоји
142
прош
немогу
наследио
стар
круни
154
##vog
архитекто
ванред
представљала
103
143
##log
истраживање
##oks
##логу
фаши
изла
пријатеља
Национални
Op
##зоди
изди
Министарства
om
##хова
ser
научно
савлада
##ins
##зина
терена
сарадњи
одсу
желео
независности
вино
##13
база
сиро
појединих
##жак
124
##ner
научни
Премије
алгорита
##ša
пројекто
##jek
бројни
изврш
моду
Шпанији
објекта
##нис
св
реал
штаб
Euro
хоризонта
##rana
фазе
ратни
језиком
затра
магистра
##товић
Поли
прину
технике
транспорт
ставо
дуг
производе
жан
Лагу
целог
притока
преселио
##лошка
гласник
##ремо
##ђивања
аеродром
ште
Елиза
Често
тексто
националних
##чје
Загреба
многоброј
##жећи
127
Великој
патријарха
смр
непра
преоста
клини
отпора
##њска
већини
повезује
Od
Тиме
Стани
унутрашњих
##ида
представници
108
кара
делује
изградње
изгубила
Жо
ćeli
узди
##шије
меч
Јапану
коришћен
боса
деси
тиму
Ивана
главну
##zu
##бара
Mon
интерак
##ђеног
прекри
##лва
претвара
##рком
Кур
повећава
Бугарској
Титу
читао
контину
##15
Марина
филмовима
##ley
Wil
##нтере
брда
пија
путева
представа
учествују
контек
посвећен
##oliko
Her
147
једнако
pom
##au
Ovaj
разлог
прекида
историја
средстава
Рима
149
Мио
##вцима
понашања
##вршио
висок
потро
подмор
Албум
иначе
##пје
Перу
Његово
Удружења
поме
посу
тече
данашњи
jedan
довео
канал
##сеу
##лином
леду
сајт
одређени
##вско
gde
захтев
проблеме
сата
ткива
123
Симе
смањује
стадион
##тос
ваја
Јапана
дефиниса
Прете
Ro
Тру
грчке
скија
амбаса
геомет
##жба
ама
Аљен
Ad
##лорес
одба
proces
Синалоа
bilo
enzim
ратне
##ђо
iza
дета
такти
Карла
Беч
##лмати
Journal
болнице
европског
##ose
окупи
Катарина
пореклом
сахрањен
##јена
104
значење
разновр
##доне
##нгви
плем
спек
њихови
Њујорку
централне
##сени
##денсија
Михаила
повезана
Виртемберг
##јес
биће
доди
језици
Без
Џорџ
Наполе
можемо
##век
it
##ктима
мулти
америчког
em
околине
директора
вока
##fa
##шој
##њски
##грани
Аљенде
интереса
представник
зоне
Илија
предво
##spe
##зну
##jski
158
крст
среб
Коман
слави
##тс
Vi
непокре
слободу
##14
##тере
унутрашњости
##тип
Сала
Берлину
указује
значајне
Карл
Обла
глас
експеди
програму
##јао
prvi
прихо
владају
деценије
##пула
Per
брак
##чвр
##лости
Уколико
државног
димензија
претпоставља
##редо
Ману
Култу
двори
нападу
оснивач
Еко
прио
подвр
It
пао
##метар
кора
Вај
Санкт
основних
##нтни
dis
срца
##сина
војно
раство
Џона
Лорен
уговора
фронту
117
Комон
Наста
објављује
аустроугар
kri
Бон
храбро
природи
налазили
грађанског
##хри
##лига
Оне
студената
##ograph
свије
##фен
сву
Comp
удара
##шин
мра
##навља
Буду
ваздуш
Тепе
зида
Унион
понавља
позицију
природних
kla
sle
Чика
Мара
лека
уније
Генера
Турске
##vid
грб
сваку
##цки
Man
Бол
алу
nala
екипу
Египта
##16
116
одваја
српску
##пто
##дског
особине
##kri
драма
лечење
претра
Надморска
1899
Могу
##вачком
клису
шесто
Пло
саме
светог
##спеш
Азербеј
централном
ниједну
показују
такмичио
##вачких
услова
просеку
тврђаве
##ster
114
зате
трговине
ћи
околности
##врата
дуже
život
Инде
аутоном
иду
хипер
наступ
##савље
божан
##res
списак
##вита
већине
##ual
чо
настају
##old
##јање
106
Уну
zbog
##ранза
вере
подне
успева
основано
##sion
протеста
крајевима
Cent
Луј
расе
Хари
мину
учио
дресу
неуро
динами
заро
ep
##ight
Холштајн
##чија
моди
незадо
##joj
Оро
Јагоди
Елизабе
боји
копне
ресур
водила
алтерна
Син
##стану
употреба
bu
потпо
омладине
Тим
придружио
1909
инсе
Мур
Шан
studi
првак
Јелена
prom
опора
##itet
##виће
извиђа
ga
##jima
167
Mic
122
месец
извођа
морала
разлико
Драгу
друштвене
##тети
Павла
радник
ани
##љеним
Центар
покушај
##бен
ск
Сент
истој
подсти
##ote
учење
уписао
годишњи
интегра
Ах
Eng
делима
лекара
Емилија
подсећа
pes
odre
детињ
##дницима
##бић
доно
##љивости
Вашинг
декора
историчар
##две
##ђани
##тетом
Француску
##view
##мула
апосто
##цка
Ste
приву
##пола
шпан
извршио
одлучује
свештеник
Проце
скулп
позоришту
##бни
##тића
реф
##лошког
истакао
британске
енциклопе
институција
163
##jenja
претрпе
##18
Тирин
изашао
Beograd
наче
##đa
kako
Подруч
обавеза
uni
##ванђе
задржао
књижевни
##ТА
##нијег
припо
умрла
заштити
Америчке
148
мена
родитеља
баш
Каро
израчуна
секретара
126
##вољан
##љеног
Може
##зних
детаљ
дијалек
обављао
крећу
трећег
##lom
ратних
сестре
функционал
##леу
##неј
Свака
локалне
наба
напао
епизоди
елемента
Албаније
Pe
tokom
Европске
сценарио
##nica
цре
обалу
Слободан
градове
заузели
##vel
##клапа
##тника
1880
утиче
##вором
Бланка
ускоро
как
наредних
Gra
скупштини
##национал
научних
романти
понашање
##зови
##мбре
Неза
лега
ушла
залива
чијем
Милоша
Прогре
примје
##ume
veli
бранио
##ger
Њена
мандата
подигнут
способност
Алта
сматрали
Река
##доначел
vis
Имао
##fek
Отац
osnov
започиње
основали
појављују
таласа
трошко
папа
писма
учења
колони
Сједињене
календару
решења
фигура
страних
##жују
такоз
почињу
##rš
сл
ул
##крет
ori
руку
фронт
позива
митраље
##BC
уто
##ваних
Језе
подигао
International
хипо
наставак
##тао
заробљени
италијанске
Кле
креа
групом
##дала
бело
##ктивни
седмо
##uč
Пал
узо
1848
Марга
постављена
четвртфина
Мил
бољи
неку
удар
##ствена
синте
Основну
реп
strane
##кленбург
језицима
##њске
Доње
војско
рукама
##шева
1897
1901
Јужни
обала
Лењи
Браво
Бланко
##тиве
Најваж
настави
##clop
кул
лаборато
##сове
##трај
Бау
настало
чињеница
карактеристика
##ведене
##šta
nas
Сво
недеља
ступио
пројекту
Аустралије
тенкова
фол
наведена
јединицама
##ža
##lis
Основна
Музеј
Палма
турски
боравка
Станиште
хрватски
Лопе
фре
rast
римски
Павловић
суб
##храње
потичу
##17
112
повезан
светске
##СА
##зга
##пски
Закон
корпус
редовно
##rod
##мне
прилично
Роман
целом
истиче
покрету
народних
Балти
издаје
пласти
Иде
##гности
Отворе
археоло
самоуби
##by
uk
##ријска
progra
парт
слободе
флу
##ril
Родри
разматра
једноставно
##ican
Оде
Зграда
##љан
##eved
##рским
##ism
##ама
##пулар
Округ
обавез
највиши
објашња
повреде
Хесус
ваздух
постојао
##ломе
ције
Кристо
ha
Гради
терен
ослања
предност
Пос
muzi
Алва
либера
народи
##kov
нави
средњо
праисто
енглеског
делатности
##нову
Канади
начелник
##ндез
јаја
##фикације
##торе
опу
елемент
концепт
музички
прихватио
And
Еспи
##држа
bez
необи
##метри
Стеван
интерпре
##lay
##нома
##ријских
koriste
вертика
пролетер
осигу
елементи
Османског
Сје
Јужној
располо
##ксија
##несан
трећем
немачком
1890
Гарсија
Os
Чла
свето
##дске
##жити
tem
рођења
тражио
##рша
113
хек
гробље
##arch
##cion
Аустрији
##мил
УЕ
reg
углед
Египат
Do
Јако
Назив
Николић
Френ
##тани
потреба
долине
посаде
периоди
Томас
Медици
пракси
завршен
градског
##bol
##чаре
Охо
##хрони
борба
крајње
##фил
Зара
Драган
серију
##oksi
##даци
брани
наставила
шеће
привреме
##пише
sred
zajed
##тели
признања
##anju
мане
Следеће
капетан
вероисповест
##AD
##хел
НД
Мона
реше
##туал
rez
линији
религија
##дозем
##бовима
nekoliko
саграђена
падавина
##jem
##гни
аси
идео
Зоран
повремено
1902
главном
власте
##форман
##мине
kas
Жан
Песма
морали
##вачкој
радове
John
##вођење
истим
ухапшен
cr
##дују
Вир
бори
класа
друштвених
технологије
услови
турског
Кло
##внику
##проду
Хенри
одбрани
самостално
##риште
Висе
импле
##ford
##stav
formira
Крагујевцу
##bit
гвож
Играо
##море
вила
плат
##писују
Аустралији
##нијем
Буена
жртве
Римљани
##NK
##кана
Треби
мужја
вођством
For
Тимо
номи
фаза
црно
Тирингија
проглашена
Рат
зони
пилота
##бове
##сили
1898
плану
##lja
##rži
брака
лакше
##золу
Вики
чека
uključ
високим
##cijom
неиз
улива
##ato
##lfaktor
формиран
##рми
добре
Гонзалез
организовао
гле
размишља
##дао
##zije
##бана
Спи
odgov
значајна
##рово
суве
##кау
##хер
Део
Првој
метала
вратила
раста
Аустриј
демонстра
Добри
ланси
Ричард
настанка
контролом
129
Поља
римске
So
Жив
онај
војна
парку
занима
##змом
##сиона
##рки
ваза
моста
Европу
познатих
##sed
ta
##бзбур
Јеле
радили
##вачко
смеру
uč
102
Пол
Његови
##љивих
зона
Стара
##гал
##cent
kat
Чак
Ђорђа
мента
мешта
номина
недалеко
трансформа
Стаљи
казне
##ографија
National
притиском
совјетских
Ото
Пано
музика
##ктивно
спушта
комитет
наји
Потре
Флорес
учитеља
породицу
премијера
Ав
1895
пребаци
путовања
овла
принце
европским
добра
записа
неутра
одређује
mag
Монго
##жом
Што
формирају
слатководна
Lu
##штене
југословенских
##ie
##дној
##бурга
дешава
згради
мјеста
посебне
рекорда
##cyclop
стигла
социјалисти
##сала
царству
најближег
Lond
Посебно
телевизији
##лана
##фере
Дави
мањим
оближ
порту
друштвено
kg
Иг
Берна
##бљу
pe
Желе
аван
Хенерал
##снае
##сница
Молда
путни
упознао
Атини
реакције
Mo
Бенито
инжењер
највећим
##нели
Италију
Дре
##јовић
срод
тежак
##љко
Вест
петнае
knji
Куе
Рејес
архиепи
категорије
ћу
Милоше
Српско
верује
економске
##гда
##ура
презиме
хектара
##ID
регион
победом
организацију
успје
УЕФА
НОП
Игна
Мира
##roz
##alna
162
победила
савремене
##co
##тр
##бији
ока
##ходно
Епархи
убиства
светских
добровоља
Нов
студирао
Rob
просторима
Севе
круг
##tih
Палан
открива
дала
отпу
кошта
Подручје
##чане
##јали
Кора
molek
одлучи
ознака
##ovo
##бел
диско
феуда
одржао
софтвер
показала
рачунара
популарност
искљу
старости
нес
селима
одиграла
баве
игри
рећи
Николас
Народног
филозофије
##кет
##алне
сврхе
разреда
##шћи
Хон
левој
народна
садржај
шпански
##vez
Лазар
најду
деведе
##цена
##сеудо
интервју
руководи
забележио
##потре
Црно
слава
Војске
жупанија
Ул
Che
izra
важно
Споменик
Брод
Лондон
комплекс
Ћо
##čkih
Мака
ископа
посветио
Лај
доћи
медија
Мех
Бели
Преко
постати
Met
Pop
Уро
ожи
кабине
заинтере
Глу
чуве
преиме
Југославију
синд
Застава
добијају
дипломирао
##tič
##зове
буб
прошлог
различита
Pet
Немаца
одређеним
##њић
Pr
peri
svak
такве
сличне
id
Гвине
##ten
##рајући
владу
Висенте
економски
Помера
пласману
##пска
Књига
заснива
личност
северозападу
Мел
лични
побје
поузда
садржаја
220
кал
##ловића
##uz
##рли
југ
Жене
Мекленбург
градске
##леме
фаса
напредо
##hv
##мпу
##нату
зиме
узор
ушћа
камен
El
Устав
музичке
промови
##вољни
##ртава
##прот
НБА
##вићем
радија
заједнички
##ack
##erg
1885
звање
##лијентес
предању
vez
1870
Раде
основе
##форд
немачка
премијер
##шили
Приз
горњем
прилику
одржавање
исток
атента
Јевреји
##рео
сек
##зивање
Просе
непреки
православни
##лује
сир
Пољској
God
еска
хумани
##кому
малом
ратовима
молит
народно
уга
Канаде
мишљење
##jući
Mat
Тијера
##ars
##љак
коже
прои
Корзо
направљен
школовање
##нал
Даније
бившег
мисије
Агваска
We
##пина
перформан
##вану
подручјима
##гене
##гове
Апа
веле
држао
ситуација
удаљености
Агваскалијентес
кано
среће
Окампо
средњу
теорији
Мал
обнавља
термина
Средином
##rvat
Таба
створио
стотина
кисеоника
ен
tak
одабра
сачиња
Мија
главу
фактора
седиштем
Кол
Лом
Кућа
њеној
London
позиције
потребна
ослобођење
плеј
удала
кретање
Евровизије
тврђава
Последњих
пат
Антио
попла
слику
Румуније
##дент
##дину
Har
војво
наврата
Хам
дато
Publi
патро
Исидро
затвор
помаже
Колорадо
##вљење
Алек
водото
планини
етапи
трећа
Највише
сор
ћерку
помага
изазива
zem
бели
##ion
Бори
сину
доспе
поставила
формирања
##амери
Еско
фигу
опреме
Прогресо
унутрашње
вести
златне
SS
##стера
Иста
Томи
Маска
поезије
светским
Одмах
вође
јуниор
ј
##нар
##нција
1846
Министарство
узео
европске
##љас
##дени
##тору
леги
узасто
sek
Ису
Окто
Поре
примио
Долорес
оставку
пензиони
карактерише
##ire
Списак
довела
##бус
дро
забора
##тони
ото
Сама
свакој
сексуал
утврђења
##зми
тор
Себа
хрони
избори
##дура
rep
Драги
заиста
официр
##лас
##vodi
следи
доживео
школске
Gen
кур
Првоби
културни
Британији
##gre
ојача
уједи
##mit
сег
Фернандо
полуфиналу
hip
креч
ljudi
десне
певачица
Репрезентацију
##ark
мле
##европ
раст
##мота
атом
##торија
Истра
гарни
кругу
Косово
##laz
##зног
сино
славе
Пиједра
##sy
Екс
Тито
светска
##jum
##вата
Беј
здравља
##ance
имо
олак
posta
наследник
наследника
1876
Словенији
##жаре
тере
##има
##кне
дла
Горње
##сексуал
правца
Вијетна
дејство
локалних
##џбе
Tim
##динама
Главна
Карлос
болници
Аутор
Банат
аутоно
препре
Шведске
##СС
Бај
предвиђа
Уи
Конг
увео
тадашње
насељена
##arod
влашћу
дефинише
енергија
##нема
##мском
евра
инци
Серија
облико
асоција
##рике
##таџ
mon
жену
Дунав
изградњи
Iz
##жавају
интели
искрца
додељује
опасност
екипи
##rus
##фера
##forma
jezi
##AN
min
##нство
грчког
затвору
искуства
традиционално
желез
Едвард
фабрика
предложио
Дом
##преме
православље
##lazi
##шица
гласи
подељен
продуцент
Ора
album
рањен
форме
функцији
Cam
прсте
објасни
pog
украји
острвима
историјских
##шија
##днице
склапа
представљало
##tica
##пери
Тита
##супрот
жесто
помогне
примену
Апо
покушаја
птице
Индији
далмати
објашње
катастро
прегледа
##vet
Kar
Смо
Породи
церемо
Припада
спомени
алгоритам
##als
##ute
десној
прелаз
##лагање
издању
назвао
Доби
Индије
сукоби
практично
##роко
##зоко
##тивац
Босну
ефекат
Кинтана
међусоб
Остро
стамбе
публици
##нака
##рада
Најста
цм
##станбу
Службе
модерне
превише
повлачење
главним
координа
спортиста
##гено
Tra
VII
deo
Гимна
повратак
##внице
Осни
фонда
уништа
Краљевству
Мле
Сми
glav
стрелац
шез
##рици
XIX
Плу
обнови
Луци
Египту
здравље
##бац
##вачку
глава
оболе
доктора
осигура
Фар
цеви
машина
учествовало
експеримента
најо
одје
Орден
Константина
1894
Сото
избега
ренесан
сакупља
Цркве
играчи
−
##љке
ље
##сови
осуђен
објављено
1892
соло
оријенти
##por
старом
##љед
Нена
Темиш
крајњем
следећим
представе
##uth
екви
Бошња
керами
лингви
машине
њиховој
такмичили
историјској
##stra
нашла
узрок
политика
НДХ
уклања
команде
грађевине
##ктура
##ланду
добити
##зулу
Грчка
додатно
победник
Председник
##ik
##чез
##јон
Топли
##графски
позвао
људске
посебна
репрезентацијом
##tu
Ане
причу
привремено
##јза
призем
антро
Qu
ph
1860
прено
служе
повратка
премијерно
##ХЛ
##фин
##неар
##чењем
крва
клави
оснива
покренуо
##гији
Обе
##нуто
##тетима
тврде
регула
контролиса
vla
Једи
Квау
Лопез
губитке
снимљен
##јци
##џан
##ents
намера
погледа
патријарх
православних
##inom
Ермо
душе
пети
Подаци
интернет
##ah
Ур
Фро
American
одржавају
Mag
листо
Норман
мотори
изложбе
римокатоли
##br
Go
гране
назад
##електри
поновно
контроле
савета
шумама
квалитета
##ink
Fe
jer
круга
краљица
прилика
##lj
РТС
##ношћу
##жности
авиони
Британије
међународним
Кеј
епо
Крај
Сунца
појављи
умерено
##кију
##линг
дер
признање
провинција
Уа
##хаузе
рачунар
проценама
##fic
##пана
1867
концерт
бронзану
угрожена
##ОС
Ab
њени
Балкану
изгуби
турском
receptor
преминуо
##iji
##рању
Цве
Црк
##amili
Есто
Свој
Дијаз
накна
елементе
реакција
sim
Уер
Апри
ниже
Сабор
регије
проводи
##ОР
##let
##вака
350
делатност
користила
Луд
##ature
вита
дизај
primer
културне
начелника
истока
сребрну
политичким
махом
##ima
##новом
Пана
сјевер
##ференција
##AS
##oč
рањи
идеју
поход
трајао
Encyclop
рези
##шковић
плоче
славу
увећа
лекови
експлоа
југословенске
htm
##jedin
hemij
Скупштине
Уе
##дска
man
ибн
##стија
трку
епиде
комента
државних
дали
скре
опста
субје
дијагности
проф
младу
шампион
Истовремено
најзначајнијих
Бад
двору
сцене
Светска
Померанија
француском
##ms
##жених
руше
важна
пролаз
Уједињеном
##lor
Перси
браћа
термо
njihov
##зеф
top
величина
dom
побуне
путника
полиција
културних
##alk
##бна
дејства
mas
Произ
прела
предгра
средство
пато
лечења
покрива
Bar
toga
Непо
Мајкл
жртава
ослика
Игнасио
црквене
конструкције
одговарајући
комби
услуге
Истанбу
##мац
##stri
Мој
настале
Аустралија
##yp
Af
##систи
Ђура
беде
уџбе
зграду
почеле
##берто
##сетих
акту
##строва
Преми
кандидата
##oft
Аи
СД
May
Грци
##elj
##нових
облици
контакт
ситуације
најстаријих
Фла
##ракте
четника
Ћу
##лтепек
Друштва
свјетског
##ros
##zija
##писе
You
боју
краљу
флоте
Андрес
Најчешће
пуковник
изле
одласка
филмски
##ћених
груп
законода
##хор
Трећи
нагло
комунистичке
1888
одма
Нуева
##fika
Уно
декла
##ično
Rec
Бло
Јулија
дубоко
спорта
хипоте
људских
стварању
Шап
##стрем
високог
če
диску
Христа
Метохији
отворено
##зила
##низма
бића
узра
odnos
публике
изградња
Здра
Тодо
Хаџи
истица
##пао
хетеро
##варе
##физи
пак
Завршио
статусом
појединим
краљевства
##миру
бој
##тички
плућа
линију
оштећења
##ваног
новоо
Скопљу
Светског
##чених
Веле
Retri
чешће
иконоста
познатог
освојених
густи
управљање
##ame
##дели
##венти
сјеве
висора
градско
религио
национална
Dru
љуби
Спорт
пилот
закључи
достигну
##cip
##ish
##блу
наиз
##жавање
тврдио
Премијер
##јице
##стичка
Марти
праву
проти
саврше
##ришћан
Парла
наставе
оснивању
Фру
##морос
виши
Босна
предао
Последњи
следећих
##нел
##бљен
Цети
инде
Благо
режима
одређен
студијски
##шеви
рање
##zam
реви
Титулу
прошао
псеудо
постиза
сликара
покрајини
аргу
##мбри
##ћева
зид
опко
хармо
политичку
At
##нтла
izd
##вјета
злато
аустра
поступак
##жју
##јке
нена
istra
инф
Беле
теорију
најпознатијих
##isu
nep
циља
брзину
##мфо
##боја
##њама
##стром
врха
Плани
умире
посланик
Матаморос
1893
##фикација
##вери
сен
Напу
анализи
##iti
##lag
##рол
дикта
Израел
##mena
олта
##товала
фестивала
Краљевства
##тпу
##нега
заменио
##stem
##ћују
Post
претходне
##AM
qu
##чије
читав
Сахрање
900
##лошком
Retrieved
Ес
aktiv
Савреме
сиромаш
мм
исх
Претпо
земљотре
##kad
##тус
кућ
десно
младости
немачким
централној
##oti
##џија
Јев
Литва
дизајн
навија
важи
загреба
традиције
##bli
##ukle
Сарајева
##лагао
Парк
пуца
трча
цркава
мишљења
##виста
tran
израду
названа
целој
окрену
##мбу
изум
задру
тексту
Зимским
##urg
##eral
Тју
стварају
##тари
XIV
svi
хроно
тест
prema
Угарске
##AT
##тена
Вор
испору
боравио
локалном
спроводи
##cen
##вници
леве
прат
алгорит
##vaju
Љано
Воде
кода
drugih
милион
шеснае
енергију
значајну
##ings
ноге
примљен
##брије
Бене
Рије
доказ
стица
Укупно
самоупра
##int
##пити
Источно
злочина
Библиотека
##деј
певач
донела
најуспеш
##uc
Ји
##шила
Њема
дуге
дакле
одлуком
Ној
##федера
сједи
##роватно
избаци
покази
санитет
формално
присталица
##IS
Адам
културног
технологија
Кај
радо
стила
међународни
парова
##uta
##дес
##димак
постиже
##jim
маха
могле
архије
продају
Бугарска
##хио
pok
Лиге
Реги
Un
##enta
шаље
канто
Северна
верзију
породицом
##терију
Вален
излаз
домаће
$
Клау
според
##BN
Dis
Mac
цирку
погоди
посред
тадашњег
конференције
Моско
најра
седми
помогао
Dž
##мили
Марин
Мески
Насионал
развијен
##ser
kra
адре
раско
синди
Мартине
похађао
међународне
пони
тадашњи
молекула
фестивал
##жном
##лагања
зрачења
Реал
гала
Салва
Западне
производњи
##jenje
ступа
разара
остварила
храну
Душана
##čet
хло
црте
испла
прешла
##јд
Ha
цари
Систе
компју
комисије
синхрони
станишта
поремећаја
def
bili
Роди
слој
правац
изгубили
Македонци
Дор
нац
grupe
Младе
корак
писаца
дванаест
светлост
Fo
ева
изву
##љеника
свакако
земљиште
##алко
Tri
##водња
градска
уређаја
стопа
академи
одељење
седишта
##ekt
САНУ
##фиције
Асије
Железни
##inski
Хајду
пруге
учини
##прилике
укупне
фактор
говорио
Представља
##тис
системи
различити
##тику
стабла
##тљи
Југословенске
##ema
##фре
##рањем
исхо
Квали
Ђорђевић
##ino
##мским
Рођена
научне
краљевске
##РС
##бос
svoj
Голу
Охри
##кцијом
Europe
совјетске
##cima
упоре
Острво
Највећа
капетана
књижевник
##анг
Џек
##рењас
линеар
Орденом
активан
епизоде
митрополит
##џо
##нички
жени
небе
vreme
блока
податак
простра
изду
Карта
јапан
локални
##дишта
1868
мигра
прире
пропу
##мијенто
побегао
Краљевство
националном
##ele
teh
сена
знање
самој
грађеви
школама
##стила
нади
неве
депре
проуз
променио
аутомобил
##čkog
vol
кич
spre
##бица
Дам
зову
тале
Доминго
особина
олимпијски
Мануел
висока
горива
Маскарењас
240
Oni
музеју
##диле
##магне
##јевића
сагла
kiselina
последице
распрострањење
##osa
уте
1889
##зована
океана
пеш
##ствен
vred
Озулу
банке
Русију
остане
Озулуама
Сед
Поло
опро
чета
Маној
реформе
Ил
Mil
нез
pose
Етио
##мирање
##ционим
госто
Бањалу
перифе
формирање
Боле
врше
тренера
положаје
победника
повлачења
##čno
##серо
##ваном
##њског
Дели
Србе
метод
реформи
сарадник
##скр
##дери
Еге
Хју
заступа
примењује
##јк
co
Поље
Кина
ћерке
Оскара
##enz
##тенти
Неде
hidro
племи
пирами
bolesti
##кина
оми
##низам
текста
##atus
##бала
##ђеном
израза
граничи
јапански
##плици
upot
Ђурђе
Генерал
Родригез
Атлан
визуе
обуку
##стичког
кћерка
##anc
kult
Кума
одбој
пријем
планинама
##рнае
##gle
ev
Најбољи
новости
Василије
Византије
##orija
двојица
##vić
варира
универза
комплекса
#
##iju
##tive
1882
тему
залив
Јанковић
религије
корисника
##dio
##rist
##биску
једни
сабора
примене
развила
фантасти
##rag
film
Тибе
порта
Врховног
##ank
##жје
носач
издржа
преводу
War
мера
Ирске
Лагуна
Хрвати
одбаци
грамати
овлашће
##ib
Кома
егзи
малог
Атланти
гледалаца
##нор
dov
ih
##fici
Фина
новча
Уместо
транзи
законом
Вите
Тере
рато
одржи
искуство
равничар
академији
Циљ
ендо
противника
##ТП
sy
Сиби
Савета
стигли
предавања
пуковника
недостатка
##ward
пошта
мисија
истоимене
Nak
##ement
песмом
управу
критико
познатији
деведесетих
Ber
##свете
Врба
пале
Индоне
Шпанија
##виса
##лово
Њихов
заставе
##син
##стих
базу
копну
племић
Персија
члановима
лива
вијеку
јавног
одређена
dve
риба
одобре
Турској
продаје
тачније
Историјски
det
Аги
##жност
Коза
Многе
парохи
Кро
еро
ISBN
теже
##ock
##пру
Уо
бара
кризе
течности
hr
##ално
Сил
pozi
саму
тиче
роману
##мунд
Мен
Ода
Стре
катедра
КК
ов
##iction
Турцима
постави
убиство
##пље
##liko
Сур
Алварез
Председни
202
кухи
Енсена
пљачка
позајми
послије
##витељ
дужини
збирка
Совјетски
##дуна
##шине
Dec
Деби
##ловима
slede
Авион
Окруж
Значај
Енсенада
електричне
##днике
очигле
природне
последњег
репрезентативац
##дос
##рда
kl
##меда
креи
вршио
избору
Постоја
аустрали
Bro
увис
nasta
Гомез
##ardi
##шака
##војила
Краљевини
##рној
##ograf
osob
неми
##хаузен
браће
Пожаре
капита
побегне
султана
покушају
часопису
##долф
Ага
црне
бубре
засно
пруга
болница
емисија
песника
покрајина
рече
ства
хтео
Млади
никак
младог
грађани
некадашње
##ors
##шани
Арсе
Прича
Друштво
износио
предаје
Украјине
наступио
##anas
##шима
пен
1891
Алжи
Капе
Овим
##лопо
1881
##чарима
обухва
Фердина
епархије
##we
##bije
##ђену
##ћани
Реч
конкре
једињења
##рину
Испо
обзир
мушкој
узастоп
Факултету
Дипломирао
композитор
##гоза
net
Мак
Учи
конфи
тржишту
честица
News
kroz
Компа
завод
скупа
одређених
Лагос
режим
Санчез
борила
поглед
Најарит
екосисте
##šte
##шља
КВ
зашто
јужни
стилом
јавних
ваздухопловства
##vre
Bu
ОШ
Уру
Тера
preko
Треба
центи
ликова
##тант
доласку
потписи
Јужноафри
##oth
##raz
ul
оф
sam
##вских
бије
преди
Светом
пренос
учешћа
обалама
Мађарска
академију
pris
Гаври
припреме
##ick
##osi
1875
1884
динара
Индепен
режирао
US
##alog
##кала
Мета
низу
ученик
инвести
еквивале
посебним
хрватске
Еј
##чару
Абу
борио
Ломбар
градом
усташа
насловом
оснивање
капацитета
##ны
210
##ake
##сеј
Ев
Кања
##говима
локалним
метео
таква
##графију
Красно
култури
поготово
коришћена
##рко
##јука
Фило
##пресио
војвод
предсједник
##вело
##ксем
Ass
анализа
династија
##бне
medic
социјалне
##ted
Мос
угу
smat
Рељеф
војним
природни
заним
тргови
црвене
ширине
Електро
проблеми
референду
##мс
##alis
енгл
авија
Пољска
векова
тријум
усташе
годишња
индустрији
ослободила
теа
смје
браку
ријеке
богосло
команду
категорији
##AR
##ER
##теј
##ames
опис
музичких
der
speci
Земља
скром
датира
застава
материје
Љуба
направи
Ће
##juje
##тило
Вечер
Леона
Света
изведена
Индепенденсија
##гма
##куре
##фора
Кер
##деква
umet
Библи
Новго
инфра
##стичких
Симо
поро
подела
ЦК
1877
##новићи
задуж
усавр
##пског
1883
Пало
доњем
торпе
кандидат
институције
vod
пам
Комп
дивљи
Главне
Соледа
ожењен
##нон
##ријан
арми
нападе
Главног
анализе
елимини
Швајцарској
међународних
##ght
Sup
Црни
битку
најмлађи
генерално
Централног
##дс
Ада
Бито
Ваљес
Соледад
довести
подржава
##кона
кула
прос
послат
Себасти
##дици
VIII
бродови
концент
народном
осамдесетих
##дуго
još
раза
Укупна
калибра
политици
Владимира
##atri
##браја
орган
преглед
равноте
Уједињених
##šć
Изврш
утичу
брзином
непосредној
зага
Најви
чисто
домаћих
хришћанство
Архе
бела
угао
глаго
стена
подршке
правоугао
##дари
##креа
##јења
##днику
grupa
библи
Зарагоза
селекције
митрополита
југозападно
##nd
wh
##гања
##мове
##фаши
Rus
Сај
фабрике
Резултат
олимпијских
Рафаел
аристо
језгро
комуникације
inf
Бора
Јосип
Профе
родом
Специја
емисије
краљице
чланове
људског
представљен
југоисточно
Ox
##поли
##тница
симпа
строго
изабрана
Словенаца
1857
Дејвид
орбиту
одликован
ограничења
Бео
Филипа
учинио
##ebru
четр
Студи
Језеро
поделе
власништву
ЕП
##гени
дух
санџа
слична
снимио
1886
Poli
Били
Минхе
датум
језеру
страница
конференцији
karak
Аполо
попри
прово
руских
Енглеска
неопходно
заче
##степек
svoje
заменик
иницијативу
Дол
суз
року
##жавања
Мартинез
календар
повезани
супругом
кан
Баја
особи
Јабла
Хитлер
супста
istraži
изразито
Османлија
партизана
пунолетна
##тиста
беспла
онемогу
##рало
Хил
Доми
марке
Хабзбур
института
наставили
командовао
va
биљка
броји
##денција
##листичка
институт
bo
##шала
230
актуе
антропо
административни
##ota
Бир
повр
Прагу
стиже
начине
##ково
пишто
напали
вишестру
континуи
недостатак
##сфа
ази
Богу
зуба
Злати
усваја
хиљаде
##скез
##тинг
potp
крајева
научници
Најпознатији
ЕУ
##прода
fosf
kontro
мечева
Британци
pon
исц
тка
Inter
putem
најја
полако
контроли
успешности
##ll
Еле
растоја
редитељ
Уједињеног
градоначел
ћели
оптуж
Матија
богата
рејону
савезника
Стано
новој
famili
##ety
##ranja
буџе
вештина
Краљевина
угрожености
##rav
гаса
мајо
##медија
удови
постојало
Mi
##игра
муни
бугарске
структуру
predstavlja
##зана
##anjem
##лдемокра
критичара
##куи
##фел
Ta
drž
пау
рет
диск
##спекти
##листички
генерација
меча
злата
прести
претвори
##вич
Res
njeg
##наесто
##гаја
##стрву
грба
кафа
превод
архитекта
традицији
Вега
државном
границама
##њон
ране
емигра
мишића
жупаније
присуству
најпопулар
##čni
Хајн
Je
троје
Војводини
Цариграду
##unt
##ital
Пекин
Наполеон
Французи
##ћевић
opis
Дуго
одузе
празни
Немачку
заједници
фрак
јавне
женској
односима
бер
фла
учеста
инсисти
редовни
омогућило
телу
метал
поруч
Њихова
Франци
везује
побуње
##đutim
##зоване
матри
рудар
Бугари
женске
протера
##тик
Острва
Милошевић
Међународни
бур
dire
Гала
западни
изложби
mili
##ass
руском
свести
приказана
џи
Саму
Књиже
придо
Старог
##сављевић
Sk
Пто
тлу
описи
спортски
##хол
ud
##рисана
Бранден
погинуло
системом
испитивања
Учествовало
Дер
океан
##вик
пук
1869
##годишња
верзији
реформа
##тељу
Aug
Cor
Гли
бен
##мирал
есте
близа
стрип
физички
једноста
Крагујевац
zn
подста
указују
пројекти
Америчким
коришћења
становништвом
##ild
Wi
##сиљо
1879
маче
свира
помињу
##тју
Ред
##тицај
пева
цела
##терија
Зрења
Основни
Партизана
Bla
задово
Северно
боре
животне
астроном
установе
италијанског
алфа
атра
звао
Његове
говора
трговац
освајање
##olj
игу
важну
дубро
језгра
постале
чланство
##монт
##рида
str
dija
##ријеру
često
везана
учитељи
присутни
Гору
Седиште
подножју
капацитет
##ates
мозга
регру
севера
мол
сази
слаби
Турска
деловања
##рану
##ринг
##сели
оса
##načaj
СКОЈ
Горан
сигнала
##тогодишњи
Шведској
##jal
##ковићи
prost
kasnije
аеродрома
##wn
РС
##ником
подру
Мораве
извршена
просторије
партизанског
##ace
CO
ku
no
##ални
##села
Атана
носилац
отворио
морнарице
будућности
југозападу
##лском
дисе
суге
закле
северни
Дубровник
преселила
eksp
екстрем
притоке
ученици
proteina
енерге
сукобу
Скупштина
##su
атома
беско
сточар
надимак
чињенице
олимпијске
##жну
##љски
hist
изједна
питањима
просечно
бомбардовања
Нобе
нуди
нашли
обнове
##sch
##леа
##рат
##мско
##рација
раски
докази
својства
##буна
ran
Кнез
грешке
дијелу
другачије
незадовољ
##ват
Mu
##туда
##брана
малу
рока
конститу
##ree
Лењин
губитак
фудбала
раздваја
Паки
икона
##mm
##кића
Gro
Колум
опљачка
Каи
##тости
Роми
аристокра
Аустроугарске
##вче
ka
##фелд
разго
каналу
људска
Великом
падинама
##anov
Лар
Хау
Пове
Црну
раног
Луксем
импера
криста
сарадње
направљена
##тиле
##ujući
mora
##електра
Аристо
##плом
Ирак
прописа
##комо
Нумеро
San
Акви
Поже
крило
пиони
Звезда
капиту
одрасли
милијарди
књижевника
##leks
рибо
Завод
гаран
темељ
партнер
##лари
##ндина
1830
Јасе
онима
искори
тржиште
одлучила
##јам
##jske
##шењу
скупља
судова
планински
##гана
##цује
Еди
##ционо
физио
Карловци
бугарски
академија
360
##диона
Trans
тридесет
##фли
Агу
1866
##ларног
утврђење
##ат
Ог
1887
Импе
Четири
узвише
фотографије
##чеки
450
Отон
шахо
посебну
варијанта
Македонија
истоименог
иран
сели
недељ
Дијего
Немањи
верују
Сахрањен
истраживањима
##gor
Of
иг
Паро
двог
Првен
звука
песми
повећање
привреде
совјетски
престонице
##amp
##мас
##луђе
##јака
ove
Рас
јак
##тичке
Најзначај
полуфинале
византијског
##сад
Крста
унија
честа
##формира
музици
Hol
Aust
квар
рука
нафте
одговори
значајних
првопласира
Чехословачке
##OS
##čko
##ated
seri
Studi
пролазе
комисија
потписује
историјским
##ču
##дану
Ган
воли
незна
сигур
женски
нације
##elo
##бори
Bri
Маза
најни
посје
храни
помоћник
ору
dana
Аран
Поне
ками
##нијума
пружају
##пин
##мака
nad
хромо
терористи
Боја
научника
##пић
##тром
Ele
dod
Srbi
Кармен
##чом
Oct
oksi
Виста
поређењу
##веј
Fi
##нком
Пје
##ginal
истичу
надбиску
brz
изре
##cijama
сматрати
југоистоку
рађа
начину
ограниче
Јерусалим
##uman
260
Листа
Услед
Обично
количину
интелектуа
tr
Ver
Оре
Дужина
Констан
физичке
##alje
Вел
##писац
раши
вечери
Истражи
Награда
одлучили
подстица
традицију
фотографија
##љују
Пље
Луке
преуз
опсаде
покушали
финансира
Цер
Илић
##боли
##њача
voj
Лигу
Соло
реши
sluča
Андер
Химене
мањина
дну
##menom
##новим
улазе
пронађени
најстарије
гер
##љеном
rasp
Кије
теоре
братом
новије
##зону
Kon
fak
##ensis
Brit
Indi
драго
задовоља
Води
Nakon
збирке
Суперли
Преминуо
заснован
принципу
краљевство
##vlj
Ато
##ковац
1872
Лиса
нађе
носила
##вко
Џеј
жита
Фридрих
отприлике
og
икада
ракета
муслимана
Nje
неспо
пејза
Москве
хелико
чврсто
##нен
Mc
##линд
##раним
nisu
гробља
продуже
системима
политичком
##поља
Јак
спу
знао
##тнички
poseb
дебљи
краљем
другима
##их
##нус
ag
##гера
##ниса
##нцем
прочи
Анаста
припра
Следећи
##лову
ned
ДНК
##ничке
круп
луке
Алфон
Анђеле
##веру
сат
усе
алге
Манче
мишић
попис
ниједан
##вицу
##зним
slič
срце
дјела
Табела
похода
контровер
##једнако
модели
колоније
##шног
Инду
депо
срча
саоп
Сулеј
Вијехо
конвен
кренула
кошаркаш
планинска
##хај
##tera
Ски
Мина
zavis
бране
мрежу
Чланови
коришћени
Серге
Франк
Економ
офанзиве
одликовања
северозападно
##vima
1864
јест
drugi
срећу
Авгани
гимназија
телевизија
##AC
gov
##вљења
каса
драме
nalazi
чиновни
најважнијих
##poz
Пај
##пенди
бана
прого
Балкана
заслуге
прошири
данашњих
##хас
Sim
Гај
ика
разме
спрема
упутио
телевизијска
##тују
уља
бежи
боги
адапта
синова
Караџић
укупног
киселине
приступљено
Луи
крв
##шењем
семе
istori
главно
писање
Асијенда
##фти
##elja
##ворац
##споди
Пабло
негде
слуша
правде
урадио
вратили
снимање
придружи
##поље
##ницом
1861
##ровића
počet
предра
Кардена
баштине
пропага
проблемима
успешан
инвазије
##los
##vrš
Бразил
циклуса
коришћењем
Цу
Nor
Изда
Кампа
освет
флота
црвено
ширење
резерва
припадао
##пији
##ксије
##шница
троу
ликви
sistema
инфрастру
##цер
скок
##градња
##зацији
podat
некро
руска
Стадион
издвоје
легенда
општинског
Неве
фило
тежине
мађарски
##lam
##чла
Spe
sast
комада
Николај
Филозофском
##ул
Ђако
догађаје
мушкарци
војсковођа
##vat
Чешке
полица
Габрије
потпуко
Далмацији
дозвољено
##čne
Аерод
многа
##ES
omogu
блага
одатле
Војислав
независно
обновљена
##рују
фонд
експо
клиза
повуче
џамија
pristup
високих
поражен
присутан
##ero
##вску
кле
Марк
Баран
знамени
историчари
##ram
##тман
сље
аматер
глумца
девојке
европски
Стојановић
##њском
Мати
##ксиона
Барто
резолу
рањивом
ret
Еван
materi
Бистри
Унутра
настали
скокова
спољних
локалног
##хеми
Изу
звук
згло
##ergi
##ровог
куле
изборе
тешким
Михајло
налазиле
##lim
##вке
pet
Мач
папе
Борис
онога
Science
стадиона
Обреновић
идентитет
Пен
##нтних
швајца
organiza
складиште
##заи
некад
улаза
одбије
таквих
економије
##eld
##пота
car
##рисан
##повима
обезбеђује
византијски
југоисточном
##ruž
235
Жар
1862
нера
Варша
Остали
Милутин
##слов
##јања
Топ
хит
Моде
Стар
амби
реље
клије
бродове
olfaktor
Димитрија
##ords
Диз
сврху
##формати
висину
предсједника
сем
Сток
спри
аутобу
четрнае
развијена
полуострву
##šnje
##гнут
##ливу
##inska
прав
ветро
диска
факто
Бијељи
Москва
сисара
утврђено
Будимпешти
Туз
купио
топова
Пекингу
развијају
Федерацији
sh
бру
избио
убили
Златни
Примор
оптере
спречи
сазнаје
киселина
предузеће
руководио
Ob
kodi
конзула
краљева
правилу
Карденас
##сео
bol
Будим
Уерта
федерације
седамдесетих
##ОИ
##нами
Инте
Термин
помера
четврто
објашњава
хуманитар
##НР
##zima
##чином
отку
учвр
najve
овако
неправи
##jama
##нину
##ative
цару
црна
повези
Споразу
предмети
Јуна
https
Савезу
апстра
високи
појаву
усвојен
Ž
##iss
##ves
##крета
брже
Хименез
аб
##rali
ата
Носи
Роме
наје
скоку
Republi
Палести
десетак
математике
митологији
француских
##гр
евен
конвер
фабрици
серијала
Фраксиона
душа
Старе
##киње
Јоа
Ову
##gn
##дица
бел
plan
Бањи
Звор
поша
formi
Плаја
америчком
##дас
##stitu
конгресу
инструмента
##гроб
фраг
##ography
режији
##хла
зре
Купу
лево
најче
везане
репроду
докумената
идентитета
##глу
брду
сала
Јусти
везан
##народно
проучавање
Исти
падо
анимира
##rt
##rip
##рених
neza
ушли
вјешта
обухватају
Нео
1871
пораст
##РО
Hy
##месе
##дрома
1873
фокусира
наелектри
##ћев
Em
Naj
Лати
жеља
Букуре
замену
супруге
партизански
СН
##куле
Каре
запле
извео
циљева
Словени
населили
управник
##прије
Теодор
архијере
популарна
Административно
Bra
Ђури
активни
супротста
Si
##пило
##стика
nivo
razvi
препу
Васкез
тешких
језике
градских
заинтересо
отро
Наполео
државна
Средозем
одлучују
окружењу
напустила
компоненте
##rao
Кња
Шер
доз
изго
запосли
турских
парламент
##чићи
##avaju
служба
управа
кинески
грађански
часописима
##cus
Ље
otkri
Једини
##бона
##дака
##cijen
unut
Давид
мајор
принцип
повезане
проширио
Ђа
##ћеве
new
бек
##стран
tele
Атине
десни
родила
##там
##liam
1850
##ђивала
тенка
терми
међународног
..
##гора
...
Min
АТП
Ере
печа
Трећа
Морено
детета
свештен
важности
позиција
трговину
Британија
Фести
Користи
заштитом
Претпоставља
##мов
212
koju
##новање
телефон
потврдио
просвете
традиција
Up
##биле
сфе
1500
заљуб
слици
највећу
класичне
степеном
француска
##ilj
##нтара
јавност
Институт
услуга
херцего
Себастијан
превази
Георгије
ликовних
хришћанске
##шал
Cr
Аси
Пли
укр
миле
експан
različi
бод
шоу
stab
градње
логору
кренули
Пресвете
домаћина
централни
##сити
Оже
Јере
плана
поште
сведочи
Албанији
##виде
##нген
неи
Бањој
обоје
пошту
смање
превла
##ђана
изгуб
женама
преговори
##ont
југа
druge
nukle
visok
песмама
доминира
остварује
##low
##фона
##лиште
Дама
sadrži
##копа
Иран
ногу
редова
Западно
адвокат
открића
подељене
контексту
##lavi
All
Десет
Матице
појединачно
##ОК
Него
Стој
руком
грчкој
##xt
Једин
Лазара
Источне
аеродро
морнари
окупира
пословима
потпредседник
##лука
##шице
ovog
североисточно
##зном
##лајн
##писом
##тором
жлез
Милен
имигра
средњи
најбоља
##vil
##tima
##бари
Аки
Мра
уро
Живи
дири
##вачким
##ковски
##ђивали
Greek
Своју
Хелси
реста
Мађари
Монтес
сабору
јунака
напредак
популаран
догађајима
хле
društ
блоки
Холандије
##oka
##rot
##фро
еди
##љског
удата
Oxford
одреди
султан
Табаско
самоубиство
##тете
##љену
Mod
рати
глави
одуста
Птолеме
отварања
представи
##дука
##нуло
Људи
Шибе
Младо
емитује
развојем
203
uspe
Патри
##ference
надзор
обезбеди
гимназији
Сити
Наран
Устава
Муслима
елементима
полуфинала
Ука
##ласком
водећи
еписко
илустра
Азербејџа
Швајцарске
произвођача
HT
dop
lan
Зби
траже
најлеп
сврста
Патријар
##igh
##nju
Medic
Добитник
раздобљу
текстова
##пл
##ozi
Кљу
Хад
ати
##пских
Вилхе
апсор
рачун
остају
трофеј
чувају
потребан
Станковић
##šu
##ХС
##хта
##вере
пређе
Панчево
девојка
перспекти
регистрова
КС
Пуебло
испита
сељака
kan
Дакле
Чарлс
##вановић
direkt
Виктор
Развој
##лца
280
Блу
окри
Дирек
Земун
акцију
дисерта
примена
америчкој
1840
допи
привиле
затворен
генерални
##fes
Zag
рит
дале
лети
##зовани
Локали
непријатељске
##мара
Шти
html
nagra
Кампе
радње
proble
Мадеро
довели
долина
Rom
Сна
Стри
муче
##шавању
Канада
Поједи
писања
стекла
##eme
Пола
огла
репу
важне
проро
Удружење
достигао
мушкарца
престала
преговоре
композиције
##јаца
1874
##лизован
Godine
запада
Вечерње
Светске
заштита
изведен
одлучено
једначина
претходног
##сес
##јића
nego
улогама
управом
##ictionary
##пса
Sm
##чеве
мер
Михаиловић
##ВО
##тијих
veka
карти
##стављен
учесни
##ater
Ваља
теку
Софија
бројна
телевизије
##бек
##пси
##веле
##lasti
вина
##лопоне
снимања
честице
препознат
##лук
##лијом
Режи
мара
шефа
Котор
парох
гвожђа
Шведска
секунда
добровољ
најбољим
Обреновића
##TP
##ksi
##пул
##дању
Pol
1800
Атле
Одно
Треће
кампање
тврђаву
омогућио
поједине
##њава
пче
Вара
##ларних
писца
Католи
уметник
receptori
end
##ловао
водили
Бразила
околних
Метохије
муслимани
##net
Ак
Села
робо
измиш
кугле
повољ
рекур
##крип
Mor
##чавао
soci
мужа
инова
грчком
доприноси
одржавања
Бата
neuro
вакци
изузев
мембра
минуту
осећај
пратио
сусрета
##obi
##неу
IX
покро
пушта
тимова
покреће
професо
партизанских
##ила
##čkim
##ноци
##техни
##тељем
духу
издат
убијено
вио
Луја
##ступан
Times
приказ
убраја
Милорад
Наредне
смањење
##нтер
##тека
Обо
Life
Црног
##ционално
болницу
радовима
хришћана
богатство
##đi
##лијан
Лига
Општи
отвора
црквено
прикључио
пацијената
електромагне
##кову
Хеј
Стје
Веома
Своје
Вавило
кратке
старијег
извештају
сарадника
Еспе
деци
фазу
симбола
степени
локација
стандард
монархије
##тл
##шир
ређе
цена
бескона
архитекте
централног
##orts
##чници
##фикује
норве
грчких
пећина
Крајини
##пци
##џера
десило
опреде
оправда
лансиран
##јела
204
##embra
2400
осет
широк
Постао
старим
##соа
Bel
Jul
##ралди
##раног
стазе
politi
Данило
краљевине
‘
##гва
XVI
Ери
Нека
Часо
вери
фран
Далмације
##menu
Pra
Лав
Боли
угле
гребе
јавни
поделити
Буенависта
##usa
##жњи
##сму
Оз
##сари
Jap
Смит
апси
дому
Војно
босан
одржане
##рил
Уг
1815
Бање
Hrvat
примир
Еспиноса
Станишта
меморије
Комунисти
унапређен
##vni
##klop
##љивим
efek
ракете
трећој
португа
##OR
Lit
Мек
##ктуре
Месо
гроз
XVIII
Марке
аналити
легенди
празник
искористио
##гић
##ндро
ширем
чланак
источни
##uru
##чеви
##чиште
Ибра
Храм
одло
пера
rezult
Лесковац
##шних
111
nema
хума
јаке
##торима
Муста
прели
ранги
##чанства
висоравни
fe
##мити
Play
бата
смер
##винама
имови
погон
##ријском
прелазе
конструи
шездесетих
##ML
умр
ноћу
раном
Терито
Трећег
кћерке
тачака
клубови
предају
отаџ
##ционом
pokaz
upotre
колега
царске
долазак
организма
##EN
##хт
##oro
270
фле
##преси
uzro
већем
карта
##јерархи
месног
фолкло
Бразилу
изазвало
Америчких
##пих
978
##рисао
стене
комесара
скраћено
##фар
обре
Област
оптими
промену
безбедно
саобраћаја
југозападном
##чја
еу
имплемента
##cc
##рдо
##atno
Jed
pomo
вирту
мајора
светом
##лизацији
Албанци
настанак
##МС
##iru
##гој
##неа
мело
Техни
склоп
делују
мењају
стални
НХЛ
Капи
Кахе
Коса
velik
теста
аутоматски
Ist
рје
1849
sign
Ameri
Абахо
иконе
Будући
Стивен
пореза
пролећа
Encyclopedia
##86
##женог
Куба
Јосипа
следбе
Љубљани
Галеана
популација
традиционалне
Ke
гроф
млета
енерги
астроно
мишљењу
посвеће
преобра
претходних
##јама
роп
намје
типова
државним
друштвеног
Бранденбург
##гела
##теру
уру
##аутла
аеро
морфо
дневно
мандат
пољски
Окозоко
туризам
саставни
паралелно
историчара
литератури
Окозокоаутла
##sia
##врат
##мули
##ниле
бог
лидер
посљед
Врховни
признао
##arma
zna
хемо
Тради
Европска
Мирослав
предавао
##РА
Неу
геј
Маха
Фила
раса
носили
Народној
старијих
##uli
##зић
##чеву
Мом
исе
##сбург
##сирао
Ната
куку
obično
изасла
опрема
##лизована
листова
коалиције
##rem
##кол
1865
дата
Насле
подели
Каранза
компила
примери
Приштини
Службени
истакнути
##љуби
Sam
red
zad
##пским
Tako
poče
безу
круну
спаса
новооснова
##боса
Нил
##нијум
Греј
Берлин
Закона
знатне
промје
Народни
западним
потписан
заједничке
##ришта
трпе
синови
сусрет
улазак
Америку
доктори
Бах
1863
Ники
црвена
следећа
Норвешке
Уједињено
напустили
пројеката
сопствене
хрватског
провинцији
##шак
ge
sc
##вским
Тема
свему
вилаје
прилог
омогућавају
##пол
Ђиро
мекси
снажно
тумачи
Петровића
међународној
##df
##горије
вешти
гвозде
постигла
одређеног
Лока
стале
правни
радници
доживела
документ
преузела
Холандији
##IN
##мица
гри
упи
Живот
Радња
обичај
побуну
одликује
диференција
##љос
##enih
оли
туризма
саветник
друштвени
финансија
железничке
##dition
Мајка
студију
погрешно
стипенди
критерију
партизанске
##мбер
Уда
##нтера
Биле
ниско
дужину
одређеном
средњовековне
Ата
Еква
Куна
повећања
упознаје
распрострање
##ГБ
##tivi
##роса
Зев
amin
борили
уведен
корпора
трговачки
##fera
Амо
ишао
ултра
потомци
предности
сликарство
##хови
206
Ори
##цијум
Пећи
бина
##торију
борац
скока
геогра
заоста
писани
сеоске
Понекад
prin
подо
пуштен
победили
претходи
##lož
##зас
Ter
граде
таквим
epiz
лету
povez
ризик
Енглеску
##гену
##дору
Блеј
побр
sinte
бродо
климе
Буенос
Сребре
изазвао
половина
##inske
Сунче
раскр
вегета
потрази
Совјетском
представио
Ca
Тол
лоци
Оскар
вештине
Породица
откривена
ситуацију
Херцеговина
##elje
##мети
Fil
##чавања
лекси
прекр
економи
Академије
правилима
##rand
пас
Макс
гађа
Чешкој
здравствене
##дис
##ваним
Пења
Хани
##ђивању
радне
превоз
цивила
градски
латински
удружење
америчким
последњој
Капа
Руко
оцем
исписа
путовање
Цариграда
некадашњег
##нића
Зво
Леј
родо
##andard
Калво
Познат
европском
револуција
##зик
Ba
XII
бај
кое
парце
указа
новинара
Републику
##ural
205
##ловац
јабу
Подго
##новићем
##ријским
мотива
разбије
Института
##ogle
##дира
рај
Запата
водама
изводе
правом
врхунац
зависно
зборник
наслеђе
улицама
квалифико
филозофију
##ДП
##idae
досто
угљен
##кал
Уско
лика
океа
оспо
бивша
довољ
дрвећа
издала
повлачи
##aca
##нује
mor
##ктору
snim
саби
način
мошти
обрну
скака
облике
потока
пронађе
заснована
##мњи
##новој
Каба
##зијски
##тивној
Номбре
војном
обновљен
манифестација
##штра
##ларни
Биха
Сера
бања
леде
обраћа
снажан
Каракте
извештај
појавили
природним
Олимпијских
византијске
Сне
коза
Цинца
сребро
студио
доприне
каснијим
инфекције
независна
##јац
##роман
Дело
хард
јуриш
фавори
пресеље
располага
##тост
Evro
Прос
Теко
палате
Амерички
нападима
##zer
сјај
писму
рецеп
мотиви
романи
Аеродром
Салвадор
заробљен
слободан
заузимају
##сај
##encij
##мерно
екра
жељи
koris
Филипо
ћирили
Миодраг
прихвати
североистоку
врт
Милути
Кастиљо
главној
дозволу
proizvod
престоница
##пља
##зема
##vljen
igra
značaj
Финске
##BA
##зов
Мике
спон
толе
ратног
Комонду
филмове
познатим
предводи
школовања
Демократске
af
gl
##вару
Ерна
прогре
меморија
народној
формирао
Јустинија
британска
Јовановића
конструкција
##uni
320
Ger
воле
Јастре
доводе
принца
тражили
##шем
горњи
непокретно
##vin
##atim
Ova
Tur
vari
виру
угља
radio
Нерет
подре
царски
женских
успехом
равнопра
полуострво
##ily
##vara
##ктом
##воран
Андро
Барба
posled
најзначајнији
СХС
Седам
раних
##чанство
двадесетог
Ек
каза
ниске
јесени
бројеви
преноса
хришћани
уметнички
хијерархи
##тум
Гол
##стици
vezi
Ариба
Ракета
Учитељ
##ological
Мухамед
пограни
служила
##irst
воћ
Бала
отка
ватер
фирме
корена
обраде
арапски
показало
постојале
документима
##доро
Дела
тешка
упозо
батаљо
Коначно
протеина
##mon
црни
##љковић
страх
оксида
прешли
сећања
степену
симптома
образовању
##гин
##рај
isk
Хри
učest
Панте
редом
##нумента
ширења
драмати
мен
##ларне
Бока
##мислио
библиотеци
медицинске
##кир
##тапа
Јон
Одре
##дијске
Вазду
Србин
чинио
посада
регији
километра
##јло
tim
Пот
афи
##ovanje
##зијске
Сомбор
глодара
Претежно
управљања
насељавају
##gan
Иво
кња
једва
protiv
бацању
фигуре
послера
трајања
употребљава
##oi
##trans
Бошко
Доктор
Некада
пропове
интелиген
националним
##jev
##шићи
като
прови
Филипи
издиже
порије
утисак
катастрофа
стварности
умјетности
##ET
бољ
Зави
свима
тврдо
kojima
##гл
збор
Носилац
захвата
Академији
##уна
##rati
##граде
##проми
пари
Место
табли
Instit
Пуенте
Скопље
војник
речник
котлине
асистент
догађаји
одређено
слободног
Pi
##кера
Сали
##чанима
Симон
Текса
непреста
прикључи
друштвеним
интересовање
##пс
##tain
##tics
##јело
tek
азо
Коле
зале
publi
храму
Данске
губитка
Православна
цивилизације
##ury
##мала
насиља
натера
посете
мајстор
вековима
одређену
трговина
утврђене
крстарица
споменици
##brid
##osta
##дско
блу
##шћење
Мехмед
закони
кућама
Римског
поражени
##манд
##стал
Sun
##новца
Дода
рангу
Пример
низије
пропор
наслика
сјеверо
критичар
варијанте
##arni
мноштво
намењен
обољења
северозападном
##ON
##jn
##сане
Њих
уводи
приоба
забележено
савремених
италијанских
##ua
##боју
##ријем
1858
Десе
Сочи
леви
veoma
Јосиф
ватру
репер
ћерком
значило
формирању
најстарија
средствима
##ћо
Ом
kap
sub
kral
почев
слоја
тамно
целини
састоје
извођење
##kuje
##изам
pdf
Шве
Ерлер
уништена
Ковачевић
информати
##ham
1839
indu
траг
остати
данашња
књигама
племени
филмска
Пелопоне
храброст
##филд
Пећ
жива
Војне
протеже
интернационал
##ос
##љни
Kom
##нтија
дебе
возило
погорша
природног
најважнији
фудбалског
хришћанства
Ота
##лошко
Егип
саку
##ведених
једнака
космодрома
##хов
##niji
##дају
215
Шту
##вније
Предраг
владала
католици
##liz
##синго
брдо
покој
израде
локације
највећег
господара
енциклопедија
##uka
##alth
ува
Херо
маркси
научна
дијагно
достиже
Каријеру
сарађивао
уметничке
si
##ella
##брио
Tre
Ден
Архан
шупљи
Поповића
британских
национално
##пел
##шци
##book
Руски
битно
забри
психи
цвета
Златна
Факултет
откривен
##мр
ер
##бити
Изна
споро
екипом
рефлек
данашњој
преговара
##кари
посед
Амстер
трудно
повезано
##соли
Рос
Clin
##ктивне
Диони
Илије
инспе
принц
##логијом
Годину
Подгори
kiseline
иностраних
архитектури
##šti
Ri
fa
НР
ома
Janu
Урош
рибе
Конго
Мирко
трофе
Костић
обради
притом
Агустин
значају
летелица
принципа
##шел
##тими
Ава
Босан
тинеј
identi
Осваја
проток
Источни
правило
##asa
1847
Тустла
случаја
подељени
припадала
заповедник
GP
##дића
zah
Гваја
гости
Велику
дубина
позајм
секвен
циклус
Написао
остатака
##лај
##ugos
##vila
##нгло
Меј
Раду
коно
престола
##кур
Чешка
##ulation
Пирине
Словен
богиња
оружјем
центара
Фле
идеа
стоје
Арсена
побуна
Израела
интерва
прихода
захтевају
аустријски
##ид
##цк
##eth
##зити
1859
Грка
Спомен
законе
звезду
разред
Љубомир
Митропо
Светозар
акцијама
распоред
управљао
Европског
##osti
мал
фер
суду
Дејан
круне
најза
збирку
земљом
Послије
вратити
##vim
##сау
Ag
##ning
207
oba
Бои
##рство
1774
блок
геоло
намет
##olution
редове
затвори
операцију
сликарства
##ald
Еста
Часопис
задовољ
одступа
Већинска
допринео
конгреса
појединца
##ete
##кво
##ulti
Cro
Султа
аутенти
наизмени
пронашао
регистро
oz
##ртна
##утла
Web
##циону
regi
Одра
мјесе
структури
британског
##нције
масу
##рације
траги
Тамазу
натпис
присти
утицао
##хију
obu
srp
##нтије
that
Санџа
злочине
критика
предмете
Операција
##hani
##нету
##рову
##гента
Абду
спора
фарма
жандар
врстама
задатке
трговци
извођења
електрона
учествовале
##генда
inhi
Грани
упада
Команда
дизајна
погодак
прилике
странице
компјутер
последњим
##jat
ab
##wood
##зован
Myth
Јоха
Сави
касе
Венецу
Тласка
црквеном
##enu
##ober
DNK
ide
силу
##стакну
David
Истла
горње
распу
недељу
поднео
Богосло
комедија
##isao
##новцу
##ровом
Рајн
##барске
klasi
Заним
Изнад
врате
темељи
целине
доступан
организована
прес
Кабос
мисте
мртвих
римских
гувернер
хришћански
историјског
литур
радиоа
чинило
Теодора
додељена
експлози
сједиште
##ФК
##tle
##цег
Мори
лоја
орто
своме
Систем
испада
господар
##ВН
##elu
##штат
BBC
Love
##ријско
штита
Париза
Роберта
деспота
подршка
студијама
##ugh
Буга
##ријску
##чинама
имања
рукоме
музичку
Просечна
полукруж
##жај
stud
Тихо
лије
Месна
бомбе
брази
ресто
дворац
Објавио
осматра
снимила
Dictionary
##par
##vno
pl
Тепа
несу
ансам
уређај
ширина
Северни
надокна
Стефановић
Аквита
војној
враћен
крвних
William
наставу
састојала
најпознатија
##cid
##кус
##meni
ратним
музичар
осећања
стотине
модерног
немогуће
софтвера
ситуацији
штити
Музеја
ликови
примар
стража
обавезе
заједницу
Најстарији
##ИС
##bia
##ored
##дали
Полу
Фирен
казну
инвали
чланака
отварање
саграђен
створена
##čna
##СКО
leč
##зност
Верде
белги
Robert
Земуну
Ромеро
мајком
Потреро
масовно
Анђелесу
Непосред
безбедност
центиметара
ано
resp
Осло
Рами
баци
poveć
Кахеме
системе
Раднички
градском
обавештај
α
##јани
mar
pla
##женим
Анго
личне
тајне
флоту
доктри
лекова
темеља
правима
емитована
##com
##вида
Ико
##zitet
##ксида
Ливер
краће
ритуа
траге
Билбор
одбрана
основала
поседују
##vao
glu
доб
Млета
какав
речни
чувени
комесар
претворе
слободни
одговорни
##ami
##rum
##пео
##ther
##сица
##товање
метар
смрћу
Којука
Скопља
ретких
Владислав
##šao
##ring
##нуле
Агри
##formes
Питер
Фабри
бизни
утеме
слобода
Источном
најважније
##ИН
fot
Поди
Слика
Николи
Međutim
odgovor
договор
хералди
вјештачких
##berg
kre
осци
пишу
мајку
Банату
судије
шпанске
задатака
црквених
Првобитно
противник
разговара
indi
Глас
вест
месо
венти
подло
сумња
држали
једнак
комбинација
##пском
Вода
##љавају
Казах
Проду
Прото
попре
похва
Архите
свирао
сестру
земљора
преузме
црквени
одбранио
##lass
oni
Каде
##зионал
талас
глумицу
изванред
Социјалистичке
##cep
##рер
fizi
чело
poput
Богда
Мађара
Милица
проузро
ослобођен
прилагођа
Салто
потребу
престао
претпла
нападача
прихватили
интелектуал
bak
интег
бележи
возача
замена
израел
научног
примењи
тренутка
Дубровнику
##ban
##јин
Ели
##мској
Марта
раним
хидра
четврта
медијима
смештени
стручних
променила
##форму
među
Франц
физике
повреда
сведоче
Темишвар
мајстора
##32
##рн
ФНР
але
##lobod
Кинг
засео
##јановић
васпита
чланице
применом
редовима
лансираних
##вича
##мори
ужа
леђа
хоро
Music
Ненад
Нешто
екстра
драмских
скулптура
##исо
##тех
##ума
џез
1804
удаљ
##ђујући
суспе
Домаћи
Лазаро
универ
##ИК
##зиго
Баната
постро
podataka
јединства
околностима
Карађорђевић
Tom
otp
Дне
puta
дугу
stran
пусто
Револу
тржишта
затражио
слободне
бугарског
спортских
специјалне
комбинацији
##pro
##гас
ut
One
Sal
лицу
таксо
organiz
једанае
агенције
зауставља
##ад
##uma
##ћни
##силе
оног
мотив
увије
Srbije
помажу
понуду
##ил
##ини
##мок
##рент
##jskih
поту
Херак
агреси
Баутиста
Украјини
средишту
поремећај
активностима
кв
пор
##ografi
ускла
армију
унапред
јеванђе
Белорусије
квалификације
Авра
кћерку
богослу
повукли
оцу
узне
гасова
циљеве
јапанске
Војводина
Реа
##метру
##нгапу
prip
сакри
станицу
признаје
Вашингтон
Француски
конфедера
##vanju
1813
Tech
vide
Ниге
буна
гнез
накло
богате
животом
значења
понудио
опстанак
оркестар
странака
330
Гара
##лацију
Указом
добрим
Државни
такмичарки
##хим
##вост
Гој
пох
узбу
##војени
популарности
##SP
##вец
##мпан
##сали
dist
Беча
изради
кратког
надлежности
##erap
rat
##tical
јесу
##традан
моско
списа
Остале
данима
размно
данашњем
пречника
владавина
организују
##бице
##тову
леп
анђе
јачи
прику
сцену
деловање
састављена
успоставио
патријаршије
##els
##рве
Аме
##ничка
Руса
казна
услов
богато
молеку
палата
нестаби
Тласкала
случајно
Ep
##жине
##сека
sna
сав
замо
заузме
надмоћ
сигнал
Гласник
Минхену
одржани
написала
међународном
##ослободилачког
##gin
МиГ
obli
Атина
играти
поруке
центри
Society
postoji
једрили
Емилијано
војницима
вероисповести
Гво
креди
адеква
interak
изабрао
именовао
новинама
##enom
кви
тла
##гнута
Лије
Секу
Чове
духа
домова
доносе
жирија
мотором
догодило
Лазаревић
##orum
bend
исцрп
Стојан
отишла
Мексика
капитен
нападне
околним
Олимпија
гувернера
аустријске
##шче
##вова
##пута
und
##edija
воље
екип
проз
Перез
drugim
лечењу
мајсто
радило
црвени
Крајине
ресурса
фактори
##cts
##тли
Уне
Нава
Нике
валу
пали
Japan
тачку
Андрија
четници
контролише
##пуа
Du
##блем
##њаче
web
деч
Стен
енти
зиду
пажње
Поново
посмрт
ваздуху
филмских
дозвољава
уд
ako
рођ
1812
Пско
припрем
муниције
економских
##71
##хау
##љци
Arch
June
рура
Сезону
Данијел
оклопне
##ysi
##бон
##лпа
PM
##вакан
весла
шпију
omoguć
Насеља
високом
свечано
Маргарита
једначине
##реш
##alnih
Mari
tren
трбу
Лукас
владари
објекте
медицини
народним
Представни
##бере
Ким
##cioni
svih
##тирају
##цијски
vrsta
Прези
дечак
закону
заливу
спрово
описују
резулти
станови
укупном
уништен
књижевног
Кос
УНЕ
Копа
March
Union
Арија
бавили
млађим
немачко
пребачен
постигнут
Железничка
##ama
##any
August
очување
karakteri
Prin
Торе
organ
узору
монаха
резерво
##пласирани
студенти
приказани
##cil
##ugby
Mer
оме
##iteta
##туром
Дуга
евро
најте
сребра
original
деветнае
Карловцима
присталице
##жих
##жњу
##aliza
##alnog
Брати
матер
одуше
Африка
променама
##opis
##лону
жељу
миру
свје
Свјет
књижевне
ослободио
Char
Вила
доле
jedno
Разли
ближе
предо
стаза
nezavis
висинама
серијама
запослених
унутрашњост
ov
##nosi
драф
трам
##лизује
напона
преносе
прозора
##дика
Веј
inte
Нада
зрна
бошња
женом
кичме
масли
споји
клубом
епархија
##lima
duž
Баи
луку
##зујући
обога
плаве
слово
трага
Грађан
долину
судећи
облицима
статистичке
југозападној
##kin
##бино
sig
ure
##stven
Лепо
охра
поже
барок
наслов
стабло
читаве
географске
истраживачи
##сака
##зовано
Руска
порно
одлазе
сматрало
грегорија
манифестације
##гур
Опа
##кримина
Review
филмови
западног
избијања
дефиниција
##ced
##елу
кг
209
##ризам
Анте
десетина
програме
Османлије
монумента
Оди
апа
##тован
##ologija
##грађена
informa
Драгутин
Угарској
ограничена
##pu
##ach
##ony
##жде
##сано
Plan
ovaj
оним
отежа
навига
Анђелес
сазнања
одраслих
окупатора
освојивши
##gy
##шним
208
dem
ују
##гради
Geor
Лици
##duction
Сјевер
секрета
истоимени
преговора
инструмент
одговарајуће
представљена
##бс
##шер
цен
kont
pren
Меда
хиљаду
Августа
завршене
категорија
##рењу
##јене
225
Pos
danas
Небој
заслуга
Румунија
редитеља
доживљава
латинског
uključujući
Ани
Дрва
Кава
Јохан
мушке
некој
Милова
досеља
личних
Највиши
лансирању
##АФ
##купа
Фол
Коњи
свео
Анхел
Другу
писме
јужним
одржала
Федеративне
одговорност
##њској
рака
субо
Осије
идеал
Associ
копија
претен
сагоре
пореклу
одговоран
савезници
131
Обу
star
деда
ameri
свест
слива
штету
Војска
Евроли
поздра
рођака
Хришћан
номинован
##ленд
##штају
1842
Сома
топа
трајно
zajedno
замењен
међународно
Дона
Ками
Сила
liter
Извор
Френк
мисао
Утакми
гледао
October
Легенда
глумаца
очекује
Василија
некадашњи
џу
##atom
##ništ
удо
1856
Сидне
карте
причи
точко
Јужног
обраду
Пољопри
показали
проучава
Међународна
##нуте
tur
##тивши
1854
Rugby
синта
верске
кардина
планове
офанзиву
појединачној
##olo
##вку
##жима
##ндер
лов
Матео
имање
temper
##ционална
алумини
научним
ситуацијама
##skop
##tiri
Сел
##раном
nauč
Деспо
прозор
Зборник
Немачки
примера
увођење
достојан
значајни
познатом
поједини
пропасти
композиција
##češ
##бит
##гов
##љске
##бладо
##торни
доње
банка
усред
чароб
System
Андреа
Римљана
Свр
##atura
##нства
##нкција
пробу
путеви
успехе
оружаних
позитивне
демократске
##зили
##спра
Вит
неа
2020
корен
мозаи
##графији
##нтаркти
Гутије
January
опсерва
шпанског
конфигура
приказују
обухватала
објављивања
##65
##ash
##лој
TV
уба
##водни
April
сином
јермен
##родинами
Оригина
заставу
школски
##цента
##контине
изласка
озбиљно
уведена
власника
истоименом
Међународне
београдског
217
tom
вице
##ворова
Прима
млада
фирма
заклет
господи
Новгород
изградио
olfaktornih
različ
остави
поседе
Савезне
намером
резерви
окружења
Славонији
температури
##žu
##ann
##збу
dec
Тел
пун
уђе
Анхе
вежба
дивља
##венцију
садашњи
јединици
компоновао
постављени
##stu
##enzi
##ovao
Des
Тон
пећине
наслова
програми
комбинова
италијанском
##жани
##лило
niz
vek
зоо
##говић
лоба
Грчку
Моста
почне
Куатро
опрему
Баранка
Максима
насупрот
спортова
четвртом
Манчестер
jedinjenja
Београдске
организовању
##AL
##рете
##цита
##хабили
Магда
рекреа
Сингапу
гравита
планета
синдром
независне
Територија
локалитету
уметничких
##vek
pi
##velop
Гера
прило
агенција
операцији
покушавају
постављене
Председништва
##lub
##леан
##хват
mak
деба
Глава
макро
добиле
гледано
суштини
трајало
Народном
Крагујевца
инструмената
пољопривреде
213
Енка
коруп
Сијенега
варошице
француским
најпознатије
##ott
##тини
Nek
##скога
Топо
доњи
отказа
учинак
додатим
Хрватску
Холандија
сличности
потенцијал
##act
##ball
##ties
##линама
појас
унутрашњи
доминирају
##ps
##сја
zd
van
робе
барем
укључен
подељено
јединицу
библиотеку
Cri
##снији
Моха
ветра
науку
хотел
Средње
басена
јавним
отвореног
очигледно
##носу
##зовао
July
држе
тира
##денцију
ставио
Словачке
заменика
спречава
заједничког
##бну
Art
сра
еруп
površ
густо
дјело
Управо
слојева
хромозо
савремени
##vač
##зву
##лфа
horm
запис
круна
ободу
камени
психија
састанку
##dom
##inc
##elli
##зање
Bul
sez
##стике
##њских
##ћност
Проте
Савић
имамо
копља
мушки
храна
желели
стакла
потребне
појединаца
##IC
##oru
##vali
218
мач
пол
Дубо
Мајо
биро
##њацима
Канта
анима
извла
Мадрид
видели
девоја
Шпанију
надгроб
##рк
Er
Уга
##anija
##нанго
ушћу
Врање
Много
Ирској
Српску
геноци
мерења
речено
Западни
прототи
Пројекат
београдске
##sor
Mak
Ovo
don
поу
алер
грешка
залага
наведени
наведених
##čkom
Int
Упо
Боро
егзо
##дником
возио
Квауте
стакле
комплика
раздобља
поштовање
Непосредно
##зани
Бој
Пеј
бег
##стили
Изве
хоте
етапе
изгла
##кцијама
бирају
Лесковцу
датирају
надгледа
подизање
откривено
престоницу
хомосексуал
##вдан
1852
Mart
Ирана
Порфи
звала
прота
популарне
##ЛА
добу
коморе
обнову
енглеске
мађарске
локалитет
##way
##хове
заре
Могуће
омогућила
##po
##баца
eng
was
##шавши
Рада
##штајна
варва
занема
фемини
скупштину
стандарди
хрватском
##bed
##onu
##vori
пуж
узме
razvo
Чачак
проди
човје
сребрне
филмске
Студирао
етничких
поражена
националну
произведен
пролетерске
krv
оте
аква
Књаже
period
обавезу
Вилијамс
непознат
узрокова
Гутијерез
детињства
хеликопте
es
ime
Тау
##лометро
Валенти
Милутина
Километро
бродовима
##чев
##лажу
##шњом
maj
sur
Бона
##бијање
есеја
палео
прозо
прора
богова
владали
командир
Мега
Цири
леже
грофо
##стичким
целина
##стављена
научник
историјска
##веко
dej
Гал
дат
ети
лит
XIII
паше
тром
налик
омета
серти
уживо
будуће
упућен
отпочео
##ljen
рани
сазнао
поклапа
својевр
доласком
технички
##куло
##родна
орна
Балкан
ратови
физику
##листичких
Златибор
инвазију
покушала
Есперанза
одређивање
##ноа
##лому
216
ЕАА
##ктиви
чину
Ваљево
Монтре
изашла
огроман
поразио
пропада
Ернандез
Карактеристи
ОК
##јуар
##јуће
Аде
##сијом
##шавао
nast
удео
##ovanja
навео
шести
Маркос
Слично
најавио
највиша
северног
Јерменије
расположи
##emi
##nic
##була
tro
гас
цене
њиме
оптима
праксе
темама
kataliz
program
Састоји
наслеђа
Ломбардија
##ћне
##тоно
mal
пашња
скупи
писању
списку
Реформа
додатак
добитник
потврђује
наставника
##lju
##нтним
1844
Грача
тачки
Белгије
водитељ
савременог
Ec
Севи
убед
убла
унук
proda
замиш
звали
отвор
примени
састанак
Chem
Михаил
Осовине
веровао
фудбалске
##đena
121
вод
Нара
вођена
страха
именима
користиле
праисторије
##jet
##кио
##nice
##ript
Psy
hem
Бит
3000
održ
упут
сумпо
Радови
дечака
конкур
почевши
изненада
коњаника
освојену
преузели
##pr
##динг
##рића
nar
расу
тргу
УНЕСКО
Користе
потроша
средину
станици
западних
сачувани
хрватских
североисточном
##laza
Val
Рам
олу
Боло
пасти
мушких
извршили
Кваутемок
одговорио
једноставни
ваздухопловство
##ксом
Јар
уље
1806
Веро
Грал
Паља
обим
брежу
срезу
Живоји
бавила
женска
Алберта
Србијом
имовине
повећао
Барселони
##МА
##ль
##ксид
##вљава
sing
Каси
##градске
##имнасти
Основа
авионе
хотела
одузима
Антоније
веровања
сопствену
Пинк
Редо
макси
нераз
погуб
сумње
јунак
завода
Records
називали
временски
Константино
##šn
##voji
##јума
Хла
##нтног
1853
Томе
##манске
Торон
мајци
отварању
преводилац
Љи
##бери
##ксио
##ларном
Кавка
Петри
науци
пушка
штрај
радног
Скандина
дугогоди
започели
пронађен
трансформи
##пама
224
pis
vaz
##штаја
Тара
моти
паса
слем
јаче
##чевића
transp
угледа
додатне
половину
рестаура
IP
Лор
##љевић
isto
руда
##терије
везани
носача
етничке
интерес
Суботици
апостола
##ici
##jskog
Клар
Касас
дивље
улазу
Младен
гитара
pacijen
Немцима
открили
поезију
преживе
Живковић
значајним
##MD
##УП
##thod
##јицу
мју
##љењем
Откри
бубња
доведе
Лондона
Југоисто
коефиције
књижевних
процењује
##dam
##oku
CD
##рале
чели
mehani
Европа
глумио
могућа
полази
развили
обављају
једанаест
##MS
##жана
##жури
##шићу
ела
##реним
1797
ljud
##одишњи
Ужице
Лудвиг
спонта
стациони
Тодоровић
продукцији
##hem
ФА
##hvata
##ћеног
Вера
мрежи
poznat
Кањада
пракса
крајеве
милијар
официри
извршила
наставни
погинулих
службеном
##доча
##фила
##манти
Јану
Соли
Клара
додаје
никакве
Милановац
првенстава
асистенција
##вит
##лене
Хро
##штење
##довање
##зности
Black
utica
Краљи
позван
пронаћи
шведски
компроми
посетила
##hu
Окс
Есте
Рога
Стро
ваку
нама
крене
грађена
железнице
наоружања
пласирала
Учествовала
340
СРЈ
Физи
окуп
Браун
Броза
Песме
Попис
плато
Вилхелм
проналази
Национална
Михаиловића
##šk
##мур
##anih
##jeva
##жиле
Тех
кло
1833
Sept
##тељима
Принц
замје
рукопис
смањења
астронау
војвођан
##ćih
Ori
mot
Ефе
##стави
Поги
гран
копа
стан
##ничких
##товали
Савет
криза
javlja
Алберт
зидова
сликама
заштитни
четвртог
механизам
imp
1200
Бато
регио
руским
статуса
наређење
састављен
позицијама
просторија
операцијама
##шну
губе
energ
Виндо
Хесен
порука
челика
положено
апликације
индивидуал
##жим
НК
##olja
муж
1835
меса
млад
kojoj
Петру
насла
несла
Volume
калуђе
одрастао
прототип
##гава
##зања
međ
1834
Ерик
неја
пате
репа
##vljena
jedna
Софије
##ционални
specifi
Светски
војнике
именова
дисциплинама
##кеа
važ
Гео
Чоа
##aboli
norm
венац
повише
регија
припадник
Азербејџан
##љон
бас
##гаска
Моно
кажу
осми
уочи
Исуса
Палео
Светој
одбила
приори
донекле
интегри
прецизно
##сову
West
Хоја
гаји
грофа
разум
##ковићем
Незави
Пацифи
Стаљин
блиско
добара
конфли
малоле
посети
повукла
Месопота
алкохола
дебитант
мушкарац
награђен
муслиманске
##CO
##тња
##жалост
потешко
судбину
трагови
текстове
наоружање
композитора
##AP
Kao
Еду
тан
Маре
Неда
Никшић
извире
златним
редовног
слободним
архитектура
##нај
##пча
Ot
Ear
##ментом
измене
прехра
јужног
настава
Вилијама
Бранислав
налазишта
објављени
уједињења
DV
tal
ира
спасе
Јелиса
звездом
насељен
стадију
##own
##ljeno
Пино
Саха
Шампа
задње
партију
рудника
##мензионал
Окружног
митраљеза
##bin
##ија
##шум
Суд
Добио
белог
Највеће
ратника
слабије
уништио
црквена
пласирао
##њани
Блек
Поку
##терана
прила
##зацијом
борцима
захтеве
проститу
сценариста
##гио
OR
##лева
##лошку
Брдо
наки
тенк
Вирџи
Прису
рефере
природу
спектра
задржала
гитариста
протестант
Калифорнији
##ам
Ерма
Комо
ветар
женке
изото
##графске
Britan
Пуерта
додељи
зелене
vremena
Административни
##зао
##able
##кида
sti
##линас
јеро
Фонда
монго
државну
задужен
извршен
околину
петнаест
службени
стандарда
##itam
##шном
Кви
Мах
grad
Елио
коди
узети
добротвор
gu
мед
паси
##lavnom
госту
замак
црног
Сијера
донета
певача
Николаја
##тун
##жило
##меном
##чнији
Кама
##мовима
Одржа
##десетак
армији
записи
Publish
сестром
руководство
супротставља
##тиби
##вости
Маги
средња
увијек
започета
латинском
##sc
##ling
Кен
1838
Маро
Обли
##фикују
рељеф
Средњо
ренови
устава
Источна
летелице
насељима
разумевање
##дња
Ko
##даму
rod
Вуе
##orije
Time
цито
##ктивна
##рисани
луксу
продат
зрачење
старосе
светској
уследила
прославља
сопствени
##монд
##нило
log
Acad
шуми
##ствени
Џорџа
Online
Разлог
Сирији
анализу
боравак
укључио
братства
објавили
чињеницу
позоришни
Парламента
Карађорђевића
##зло
##чун
Ами
##menta
Нићи
интра
мудро
formiraju
домаћинство
организовала
##пата
##ћево
one
ССР
Ура
##вницу
##јућих
vodi
Капу
Квин
Кики
лежа
##новања
##рацију
заигра
Паласио
служили
Временом
законима
наведено
рехабили
овлашћења
приписује
администрација
##ните
##лских
##скија
Rese
импу
Берли
целину
доделио
формула
теленове
постојали
идентифико
финансијски
телевизијски
##etu
##срп
PC
##бедо
##лпан
##рино
214
##собан
##гледом
Класи
Распо
Шабац
омота
разви
Црвени
горњег
дубине
редним
зидовима
преласка
регулиса
политичко
југословенског
##воду
Фил
Саша
пату
Испод
Шапцу
подви
prikaz
груписа
властима
доморода
направили
статистику
##ages
##нешти
Прео
Кариљо
изведе
усмера
Српском
читавог
Немањића
Колумбија
комуникација
фру
Сима
Јозеф
консу
мирно
Франко
пољске
телефо
огромне
Албанаца
припреми
артиљерије
покровитељ
произведено
Хел
XVII
Аеро
двој
ђака
stvar
Божић
Франс
храст
United
донели
кинеске
##eder
сон
Анда
цену
Уроша
плеса
Серито
напала
потисну
December
накнадно
рањеника
Дубровника
атлетичара
##ng
##пози
Гил
гове
сова
чвор
добру
разбо
симфо
Ускоро
интерна
решавање
издвајају
супстанце
##bil
##eks
##лот
##рпа
ери
Уруг
produ
##ologije
напади
Франсоа
завршили
католичке
апликација
##ures
750
Mark
Абра
Онда
пиро
dijag
Дрине
вечер
Коалко
хладно
написан
троугла
European
изазвати
поклонио
политиком
представљали
територијама
##arna
##oria
##ципи
##стити
вене
Febru
Власи
Месец
мокра
нашег
prisut
Софији
житеља
уласка
Наранхо
Привред
Хенрија
турнеју
будућност
направила
подморница
успостављена
Lan
уви
Транс
едука
потреби
секунде
трећине
Research
режисера
састојао
Коалкоман
потребама
Португалије
Aut
zas
Сао
##ument
##брија
##зница
##ревић
вишим
отишли
широка
информи
утицала
Последња
величину
медицину
прогласила
православног
##lex
ПА
Вје
oper
Мана
Наро
Окта
оштро
Чоапас
комуна
Паљарес
пристао
теорети
хемијске
наступала
јединство
археолошки
распрострањена
##бил
##ines
##rila
зма
Баку
Родо
Војни
бомба
буква
клавир
Општине
општину
појавом
рагбију
природна
компанију
##ут
Алф
##њеним
1841
Лиги
Попу
собе
##сткиња
Преда
виртуе
литван
млађег
слични
узгаја
уследио
насељених
##нтри
mole
Артеа
карика
ризика
подигли
председа
кошаркашки
Тем
##днији
##рејта
Анта
ФИФА
terap
Рамос
##фикацију
Артеага
турским
достигла
посебног
интересовања
Ђер
zvez
Вито
Мост
Елена
истих
univer
Кореје
званична
обележја
тадашњој
дугогодишњи
##ool
Kod
Red
Адол
фара
##ћности
разни
profes
Аранђе
кошарци
педесет
уписује
презента
трговини
Кадерејта
Фудбалски
##Би
##lit
##ria
taj
##брани
##ченог
1845
Бече
анто
Сутје
бицик
врсти
сорти
Бугара
укинута
штафета
контрола
##bout
##ligi
325
lok
izda
Хонг
напон
стиче
Џејмса
Сирије
домаћим
парохија
северним
Истанбулу
успостави
деценијама
четвртфиналу
##вол
##enog
Ибе
чуо
##шених
запу
увод
Валча
грави
Москву
источну
немачку
##zvan
141
##ences
##реном
tada
Власо
грама
родио
Другој
Херцег
пошаље
џамије
обновио
антифаши
институту
##DR
##фом
##ceae
Ште
наг
пше
1855
Поса
брвна
давао
звона
какве
чијим
турска
почасни
Смедерево
откривени
селекција
подржавају
конференција
##asc
##icus
Џоу
vode
##употре
##њивање
Кошар
дугим
Динамо
Дубров
Норија
бивших
оклопна
Енциклопе
##cit
##hol
##ђима
тло
задњи
косми
Zagreb
зелена
болесни
дискримина
непрестано
222
Сон
Коне
##новски
апара
књижа
масти
Средња
мерење
Правном
режисер
дипломата
медитеран
Швајцарска
219
Tele
##ковној
Исток
Напад
сахра
Дејвис
Принци
Сплиту
спољне
помагао
круговима
београдском
##cer
##кља
Su
Срб
1832
gena
виле
Пирот
četiri
Бранка
Дунаву
неочеки
страдао
претходни
екосистеми
непрекидно
категоријама
##ras
##гму
##псу
Fre
Rad
dug
Аја
Пут
хај
Арте
упам
##bridge
##линдри
##торски
сумњи
Андреј
женског
најбога
чворова
Званични
симптоми
стручњака
финансијских
##дат
##шћен
Ино
ЛГБ
Пси
фри
##дском
Уред
неод
рази
шогу
јака
uglje
Сплит
броду
леген
фунти
Палмас
преовла
претражи
уметници
забрањено
прихваћен
Cy
bub
gro
сно
##стлан
skup
Исус
асте
овоме
тајно
##кардија
радију
римско
ударне
Предсје
смештај
изазвала
продукци
##IT
##уче
ce
##ниша
Inc
Јај
трг
##менто
Stati
Јанко
Ирска
Тејло
Кембри
Подуна
адмирал
странку
запослио
сениорску
АП
##исти
заго
рана
Дагла
писци
јавна
управи
Освојио
тражећи
гимнасти
модерних
сматрала
финалним
парламенту
##ox
##рум
1814
Пјер
Задар
касно
Румуни
важних
прстен
признат
сличним
By
##ална
##хиби
234
tki
Зма
спот
parti
разра
мишева
одбили
тексти
тенисе
евентуа
мисиона
музичка
градској
критичари
обезбедио
предузима
##ya
##dex
380
пса
1820
prot
Мага
Нила
Трифу
живих
##мановић
##ционалне
светско
vrednosti
Првенство
министара
слободних
географски
концентрације
##гавши
imenom
адапти
molekul
sastoji
друштава
локацији
музичара
племства
Савремена
##чано
Bos
Амп
čime
Торо
изну
углу
##струки
Prote
Пинос
већој
Горњег
ударац
електра
November
Изградња
Дебитовао
Митровици
##vili
##рант
Риб
дуе
##тичка
gener
потчи
##ктивног
појави
прошла
расподе
римском
устанку
хапшења
доступна
племство
коришћене
свештеници
организацијама
##шај
Чал
##ковица
римска
Црвеног
босанско
говорећи
наредним
позадини
##зал
cre
usp
##совог
##шеног
1836
##vanjem
Турке
обиље
репре
сестри
подноси
туриста
учесници
економију
власништво
индустријски
##лн
sla
Аби
хип
##графа
индо
Корне
Сунце
вајар
##главном
najbol
Најпре
излазе
неутро
Стевана
природа
сачуван
уједињење
технологију
##мита
##сице
##ativno
##embran
##ловање
Имала
Проје
траке
пољима
једност
димензије
##orn
уде
Аген
Даље
Лади
Сеге
испит
опере
##стрирао
prirod
кратак
правне
будућег
дворана
могућих
данашњим
задовољи
Италијани
Локалидад
последицу
железничка
уобичајено
Министарству
##nis
fac
токси
Симеон
Стјуар
савезу
дневник
пописима
престаје
Факултета
##yl
##ЛО
##ito
##zma
BM
##валд
##дуну
уко
##вреда
##стове
##дијски
##зерват
Арена
монах
реаго
старт
откриће
Домингез
наступила
површином
планинског
јединствен
Националног
##asi
##ict
##шево
ben
##довића
сушти
делфин
донесе
емигри
завере
таквог
империја
оригинални
Покрајинског
##mis
##цин
Ап
Don
##сфере
Star
##визија
Бачке
гренд
голман
походу
Колумби
просторе
Мадагаска
самостална
##гме
##риди
##сито
Грин
##vision
поток
stanov
бољшеви
мештани
сачувана
Аргентине
победивши
Најважнији
стандардни
организатор
##do
##ez
##čun
##сава
Bru
Mal
rit
##unarod
##војили
кардио
postoje
изолова
Алтамира
градитељ
задржава
медицина
променљиве
Јава
Сели
моли
Артур
дугог
градњу
злочин
конден
пожара
Стандар
конгрес
uglavnom
Пијемонт
отворени
рукописа
трговачке
Нормандија
локалитета
планинским
црногорски
квалификова
најзначајније
##pan
##јане
Bur
res
##зијама
Guide
Лекси
Песми
морем
раван
naziva
Господ
колоне
медији
тврдње
везаних
дестина
Последње
дешавања
универзу
##прес
Sur
##ovana
Гроб
Мани
boles
manje
Трини
доживо
корака
чување
posebno
одрасле
трофеја
Западној
повезују
Београдског
Међународног
##рел
##рим
##vent
not
tum
##ловом
либе
наги
досада
називи
скраће
Законом
емисији
склопио
Углавном
бронзане
партизани
истраживању
опи
заде
Избор
Компо
преле
##херцего
nastup
Оснивач
Програм
комбину
намењена
Централни
уметничког
##ls
##vala
##морф
##нине
##берга
##ington
Земљу
нижим
пушке
##сеп
kup
Рок
tome
##новине
десна
писали
избегао
спортске
изазивају
педесетих
докторирао
##лицу
Осе
воз
##штаба
4000
Јела
дона
курс
штет
одлика
Белгији
пензију
скупова
Интернет
Суботица
примерци
Компанија
##уну
Gi
СИ
##јлер
вру
Крис
Паска
Једино
путује
oblasti
Амплија
кампању
послала
##метријске
узрокује
македонски
најистакну
##čku
##arne
##вика
are
##куаро
##љивог
Open
Paul
енде
##вљених
treba
јаким
вектор
Шкотске
сличних
наставку
злоупотре
организам
интензивно
Амплијасион
##ТВ
##жић
##зала
Pal
Шарл
Рагби
Корона
патрио
ходоча
западну
путовао
страним
типично
иконостас
хемијских
##јало
Џере
Виле
бару
наде
##дијска
одећу
очију
Немања
славних
Габријел
Лесковца
инжењера
нападају
освајањем
скулптуре
##sian
уси
чам
Вида
енте
Марио
Човек
бакра
korišć
Пољску
Црвену
играче
нацрта
читаву
Основне
верских
северну
авионима
долазили
створили
##ird
##мео
223
голу
одне
Весте
плава
Награду
бицикли
Beogradu
дворишту
обавезно
ослобођењу
##gnu
##enju
Сеј
Лоте
##кретни
North
defini
компак
топлоте
феномен
странама
Занимљиво
Словачкој
званичном
организму
Шле
Мрко
изли
mesto
инциде
Основан
животни
симетри
источним
напомену
Скупштини
подржавао
аеродинами
специфичне
успостављање
хидроелектра
##cop
##рањ
АР
Вре
Фан
Сена
Угље
оску
##ставио
##њавања
Роџер
исеља
potreb
Верује
намене
узроко
Билборд
филмском
Византија
Словенија
организатора
kr
##over
##зали
Гав
1837
Тула
Archi
zahte
Велса
белих
стиму
Богдан
господа
провела
доношења
саградио
суверени
непријатељских
##inis
okt
ису
Part
Јаши
Крсти
Тесла
испре
прола
трећу
јавити
##ографски
водећих
недавно
February
Сицилија
прошлост
##gro
##чек
UN
650
жал
bude
dela
Вран
##isease
Групе
Совје
Тоска
повео
Хелсинки
музичког
инструкција
##веж
##зира
##сита
238
Лин
novi
бода
икак
##љавање
децом
резул
клубове
спреман
дивизију
културна
покушавао
достигнућа
социјалдемокра
##isi
##јат
##пољу
Jan
1831
плен
##нијски
Сарди
ловац
комплико
одиграна
терапија
September
Кристијан
дипломира
управника
Херцеговину
свакодневно
##цке
бола
Itali
најбр
аутоби
значењу
гробница
саставља
побољшања
##стур
Can
Хоа
аран
воћа
усам
##тивности
врховни
народну
супстан
таленат
Америчка
Македонију
##кине
Maj
##ченим
Врло
ензи
обло
паре
Ванку
Стање
рибар
савла
Зеланд
овлада
дужином
трајању
Cambridge
##цина
##љиву
Етно
вида
##cessed
Почео
Скада
среза
франа
Јелене
продуци
proteini
играјући
Бранковић
насељеном
тридесетих
##ouse
480
mož
##маном
Јупи
лева
цели
Проле
имуни
мастер
ријечи
изабрани
изражава
окружење
синглова
физичког
приступио
##ђеш
420
Азу
sept
upra
##чарски
аутох
велик
глине
мајму
сливу
светили
схватио
приморан
спољашње
Аустријски
##вира
713
Dan
##бином
Коли
Либе
Употре
гориво
могући
уређење
снимцима
инфекција
централна
подједнако
претходника
##jska
cit
јела
##менски
Остатак
остатке
снимана
бактерија
##aru
##сав
Jo
##đene
заљу
svoju
борци
Тројице
Венецији
Ескобедо
Извршног
народима
напредовање
##75
##inje
##љуба
боља
часа
##љеност
биран
одеће
силом
Раније
Судана
златни
Институту
опозиције
остварили
организовали
##use
##like
##ской
трај
знали
изоло
плати
Транси
капије
враћају
окружен
тенисер
импресио
радничке
персијски
##бир
Хр
##ogen
##штет
1809
култ
##тичких
Ломас
досло
потез
бацање
Каталан
Росарио
захтевао
Америчког
међународна
##wa
##vati
psi
Џер
Чита
##stival
Копри
Google
најмоћ
отпада
пронала
Сицилије
упориште
потпредседника
col
пља
##жењем
Нами
Олга
Тене
Цеза
волу
копи
раси
јони
наших
Мајкро
Одбора
темати
црквом
човеку
бранила
Отворено
споразумом
##СП
1810
Afri
гаје
скро
сочи
objek
диста
лошег
мислио
поруку
краљеви
станова
Ермосиљо
дивизији
уништили
многобројних
×
Кве
##risti
1600
Rich
обру
Посла
тренд
kompon
дрвене
припала
постигне
Славоније
комунизма
објектима
##ит
Аф
##buma
##бета
Иго
Сир
##atori
Обер
Госпи
бомби
глуме
мисле
снази
богиње
Мадриду
удаљена
водотока
расправе
употребом
новоформира
Ye
##hael
dig
Веи
Чан
каде
леда
пару
Танза
златна
Зеланда
детаљно
Насупрот
румунски
proizvodi
Литваније
##жоа
##чео
##bert
##дице
##зита
mog
ona
Фал
##istry
##купан
##реног
##динами
Боинг
Ивањи
##стијано
регент
##лизовани
Ерманос
Франкфу
рекурзи
интересе
атмосфере
компонента
политичара
##tik
##лиле
##посе
##ћање
Енд
Баха
Саво
Тана
гена
слаб
чију
тешки
колона
нахије
радити
Драгана
Студент
судбина
kompleks
Галерија
процесор
италијанска
југословенска
##мут
##ћана
255
DVD
fre
rel
чар
##ђеној
Тото
Jugos
колеџ
прође
Сентро
продор
терапије
Ваздухопло
Association
ПО
550
vid
Вид
1305
imao
Јаро
зиму
Ратко
успра
процеси
стварно
основним
затворена
##etra
Џин
##шеним
Игња
Чико
важе
фикс
Браћа
амино
драми
ожени
##графска
##чанског
albuma
velike
Христи
задржи
сељаци
чинила
Крусеро
одредити
кнежевине
побољшање
проширила
београдски
демократије
##стел
##тиса
mre
Фјо
##знице
Вену
алка
зана
фоси
##бројни
##чујући
вируса
Мартина
средњих
васпитања
издавачке
наставник
финансијске
##22
##čnih
##рило
mik
Дње
божа
допис
топли
лидера
припад
прогна
другачији
остварења
продукције
фреквенције
комуникацију
##ЕН
##čan
##бних
##јтед
228
тао
##перка
Зеле
Кину
аудио
климу
медве
##лонасле
мањине
тенков
знакова
изгледу
поврати
увођења
телевизијске
##СД
##тума
##форт
##цког
Лов
comp
Типи
усту
Tokom
монар
паузе
плате
рунди
творе
хинду
Цинцар
ријека
нападом
сектору
технику
презимена
прелимина
споменице
ископавања
Ti
Hen
Апе
Phil
Алпи
Норд
##номија
##рилица
Петко
особу
симпто
хокеју
цивилне
одржавао
офанзива
оперативне
организован
Баји
ЛГБТ
Ника
Осам
Раси
Трно
реком
нумери
##графских
Градска
трансфе
трговца
присутне
регистар
богатства
културним
истраживач
независних
Демократска
##ladi
##ople
##гран
##кати
pat
Ера
наш
##onika
Вељко
грчко
наран
##зованих
Солуну
дајући
локално
поједно
империје
спајањем
досељеника
означавају
Sv
256
Поа
Теа
Бургу
Стату
energi
Старом
глобус
обрада
подије
процеду
стварао
фестивали
забележена
##100
Ci
##лара
##ресу
Сол
излу
јуни
избје
Милану
Стартна
сарадња
Антонија
нормално
правилно
пронађена
средњошко
словеначки
##иди
##хте
##ниоре
ФНРЈ
насље
радња
успон
налогу
синове
симпати
Елизабет
експлици
примењују
православној
##бног
226
##ranič
Thom
штит
лепти
лопта
сунца
кратком
европској
објављене
популарно
спровођење
карактеришу
##мбл
##chen
##пско
Лер
напе
Лоара
трака
##ктивних
Takođe
Горњем
ескадри
прехрамбе
##gla
сет
уне
##штења
algor
десио
јефти
онлајн
племића
сектора
Балтичког
алгоритма
доприносе
изграђене
фудбалера
аутономију
успостављен
Димитријевић
##den
##сце
##гата
##џије
Ben
Ади
Којо
знају
најраз
додељен
играчке
редосле
реперто
Европски
недовољно
четрдесет
##ruč
##ова
##ута
##osob
##жица
##кији
Рено
сион
##гујева
Краља
плочи
руско
Власти
Радова
мужјака
одредио
потпуну
узраста
Кнежевине
Становници
PD
##ampi
##mann
##њско
non
##ковог
Двор
Пали
Сопо
Тулу
кише
##стичком
штампе
условом
органима
Ов
##мску
290
1818
Велс
Мемо
Твер
##кратко
Борба
Драже
Преса
Прија
филија
наравно
Георгија
Фердинанд
постојећих
специјализова
##ХФ
Đ
Cl
##изма
##кинг
1843
жуте
Award
Кипар
Монта
очима
knjiga
Помора
десном
тумаче
Грузије
Планина
Филадел
кисеони
планира
школска
људским
гледишта
светитељ
Слободана
унутрашњег
јединствена
успостављања
##rać
##печа
Hel
Sec
Деце
Пури
чина
Конти
кћери
орбита
добијао
сматран
толеран
говорили
шпанском
избеглица
наглашава
родитељима
снабдевање
заробљеника
остављајући
##cel
ti
335
##лијум
Арно
Фера
насу
Врања
Напре
лична
метро
тубер
Ристић
сваким
спрату
razliku
Венецуе
Познато
музиком
одлазак
кисеоник
одржаним
обележава
постојеће
формирали
дефинисана
##мка
##ндра
Fri
npr
Anti
Iako
кожа
небо
соба
хеле
Скоро
искре
##денције
jednog
Африку
Невеси
опсаду
владика
кантону
пустиње
Антаркти
Османско
пределима
црногорске
Венустијано
публикација
##hes
##бол
Клео
нома
Задру
miliona
кратким
устаника
Норвешкој
Обрадовић
добровољаца
интервенције
грегоријанском
##ов
##аре
##сену
245
440
Air
Кам
##дских
Пере
лага
нећа
Ђурић
стуба
razvoj
Паланка
четврте
позоришне
руководилац
концентрација
dr
229
kad
##штање
1851
Хана
арит
##ничког
глуко
##тивност
капија
остатка
Мајкросо
извођача
##континента
##никс
##љина
233
sta
Ајн
Сео
test
opera
Ђурађ
Улица
Омлади
постићи
јединки
Словачка
Вероватно
компанији
олимпијског
##ym
`
##сис
Љо
Југ
fran
Жупа
пуне
упла
##цијума
kojih
Срема
апоте
projek
смањио
Почетак
деловао
побеђује
поменути
уточиште
различито
расправља
одговорности
##дуж
##миза
sar
##замби
Gene
mode
##ничком
Арђеш
Новој
варош
потоп
Апосто
Данска
партне
пјесме
Божидар
Слобода
двојице
##листичког
industri
Математи
отворене
временима
настављају
Партизанске
пријатељима
##OM
##шн
##hed
##цко
лек
##зозем
##родне
ваља
napra
ангаж
свуда
штете
Истори
активна
Бугарску
највећем
освојиле
пирамида
Марковића
дистрикта
међународну
супротности
##so
##дово
##лско
##мице
Gal
час
##ризма
богу
зону
posle
извоз
назна
герман
научио
узрока
укупан
Анхелес
глумила
правник
Кристобал
амбасадор
грађанском
милиметара
држављанство
##др
##лус
Уре
##верде
Мајк
здања
ефекте
кречња
odnosno
путевима
укључени
Азербејџана
##yn
##УД
##неи
##цују
пиће
касни
prepoz
стрипа
##ндамента
догодио
домаћег
магазин
ранијих
празника
преосталих
медицинских
##CR
##лур
##vora
##шана
Sty
Rock
бале
klini
испао
распа
Бориса
Недуго
евакуа
Едварда
молекул
открије
појавиле
супротно
поставили
IB
ђу
##нтну
Ali
zat
Њено
Вили
Помпе
Синко
порти
Холиву
компре
добијање
извршава
изговара
прилагоди
аустроугарске
##ull
##vode
##гине
##морфо
Рефу
##чански
zatim
цензу
Текпан
издају
Режирао
секција
борбених
ћелијама
такмичари
традиционални
How
Ona
жив
Аугу
Деве
Цвет
осје
спој
##ограни
James
velič
ратом
уради
Ваљеву
Кулија
екстре
кванти
суђења
излазио
ставове
ефикасно
написана
одговора
забележен
постојању
такмичила
комерцијални
становништву
•
hom
atom
Јука
Хусе
зими
чудо
##тацији
Јаков
тајни
шумом
Јовану
Мостар
анархи
капела
јавном
авионом
странци
Квалифика
максимална
министарства
##TA
##icu
Bre
##васти
Шекс
Студе
postao
Хајдук
обећао
Сремски
аргенти
важност
тврдећи
изградњом
радионице
литературе
најважнија
##25
##зит
##гмати
##после
##прови
1829
Швар
Септе
гљива
слепо
грчким
држала
Милован
замисли
крилима
одбојка
Аустрију
одиграно
регистра
повезаних
економског
##зором
Њени
Сола
акро
акце
заси
##чковић
спрем
стоке
ногама
резона
Кампече
метеоро
околина
седници
успешна
Арсеније
дипломати
скоковима
стваралаштва
##уа
##nia
##хара
##шање
МОК
дар
Бенд
лака
мању
##лазећи
добром
смисао
Француском
филозофија
архитектуру
##жену
Рен
арт
кти
##alnim
##саних
1826
Ауре
Види
Волф
Хара
асфа
игно
Норма
корек
славо
хебре
Џексон
листови
оптужен
полетео
источног
Атанасије
предвиђено
заповедника
##bar
##bon
##нђе
ЈА
##anti
##atic
##клоп
##нада
##нтом
Bal
##ološk
##моста
sada
Бари
Изузе
грчка
ланца
Овакав
делила
сталне
израдио
имовину
турнеје
књижевно
минерала
Подгорици
листовима
температурама
##čnog
227
акт
tehn
##мандри
Colle
Камен
стани
бојама
Примери
изјасни
именује
пливању
Венеција
проценат
службено
математичар
јединствену
##erm
##зау
310
Exp
бит
1793
1821
emit
Плеј
ажури
возач
прома
moleku
termin
младић
спарта
троско
секције
сарађује
Кулијакан
формација
једноставан
##ктно
##номи
kol
čet
##трибу
Перо
Смрт
##страна
Group
Вараж
женка
монта
оброн
Финска
дијела
индија
морске
сатири
Одлуком
Позната
насељава
одређују
##ворт
##рини
Ате
Змај
##ционој
vrste
Елија
Тлако
ватро
Алеман
Брајан
говору
лекари
старој
Белгија
Рефухио
окончао
поредак
ученике
наређењу
партијске
315
реј
##чанин
паму
##стрија
Азију
Клини
оквир
dolazi
калифа
угледу
заустави
аеродрому
максимално
присуствовао
##IM
##МП
##ule
##ћка
##lova
##рава
est
##стање
Џејн
Луна
Тона
Хуне
##товати
Војна
бакар
посте
ривал
чвора
##agement
svojim
Попула
обједи
јачине
Енкарна
лиценци
совјетског
##vari
##њање
##ljivo
##култу
##славу
1807
Хипо
Имали
Симић
зрака
одувек
тимови
шећера
заузеле
повреме
концерти
земљотреса
el
##а
##и
##о
##е
##н
##р
##с
##у
##т
##к
##в
##ј
##д
##л
##м
##п
##.
##г
##з
##,
##б
##ц
##ч
##ш
##a
##e
##i
##1
##o
##њ
##љ
##х
##0
##n
##ж
##r
##2
##ћ
##t
##С
##s
##П
##9
##-
##)
##(
##l
##ф
##"
##u
##m
##М
##К
##d
##Н
##k
##Б
##ђ
##j
##3
##А
##4
##8
##p
##5
##v
##Т
##О
##Д
##7
##6
##Р
##c
##В
##У
##g
##Г
##h
##И
##Л
##Ј
##Х
##z
##b
##Е
##:
##З
##Ф
##}
##{
##f
##„
##I
##S
##A
##y
##“
##Ш
##Ц
##C
##M
##P
##/
##č
##Ч
##T
##B
##D
##R
##N
##;
##w
##G
##š
##O
##—
##E
##L
##џ
##H
##”
##V
##F
##ć
##K
##ž
##Џ
##Њ
##Ж
##_
##J
##–
##U
##W
##%
##Ђ
##x
##X
##'
##đ
##Љ
##]
##[
##Z
##Y
##|
##=
##q
##Ћ
##°
##+
##&
##я
##?
##!
##’
##é
##й
##Q
##»
##«
##ь
##ы
##−
##á
##α
##Š
##Č
##>
##<
##ü
##ο
##*
##ó
##í
##ö
##×
##ν
##ς
##$
###
##ι
##ρ
##ä
##λ
##Ž
##μ
##ā
##ا
##‘
##τ
##ε
##′
##β
##ъ
##π
##κ
##σ
##ю
##è
##â
##Đ
##`
##•
##γ
##η
##ѕ
##à
##і
##ل
##æ
##ر
##ă
##ë
##э
##ί
##ç
##ن
##δ
##ω
##→
##ō
##υ
##⁄
##م
##ό
##ı
##ñ
##·
##ά
##щ
##ː
##́
##φ
##~
##ī
##θ
##ú
##ب
##ł
##Ć
##€
##É
##Ö
##Э
##ё
##ي
##▼
##Δ
##د
##و
##ş
