[PAD]
[unused0]
[unused1]
[unused2]
[unused3]
[unused4]
[unused5]
[unused6]
[unused7]
[unused8]
[unused9]
[unused10]
[unused11]
[unused12]
[unused13]
[unused14]
[unused15]
[unused16]
[unused17]
[unused18]
[unused19]
[unused20]
[unused21]
[unused22]
[unused23]
[unused24]
[unused25]
[unused26]
[unused27]
[unused28]
[unused29]
[unused30]
[unused31]
[unused32]
[unused33]
[unused34]
[unused35]
[unused36]
[unused37]
[unused38]
[unused39]
[unused40]
[unused41]
[unused42]
[unused43]
[unused44]
[unused45]
[unused46]
[unused47]
[unused48]
[unused49]
[unused50]
[unused51]
[unused52]
[unused53]
[unused54]
[unused55]
[unused56]
[unused57]
[unused58]
[unused59]
[unused60]
[unused61]
[unused62]
[unused63]
[unused64]
[unused65]
[unused66]
[unused67]
[unused68]
[unused69]
[unused70]
[unused71]
[unused72]
[unused73]
[unused74]
[unused75]
[unused76]
[unused77]
[unused78]
[unused79]
[unused80]
[unused81]
[unused82]
[unused83]
[unused84]
[unused85]
[unused86]
[unused87]
[unused88]
[unused89]
[unused90]
[unused91]
[unused92]
[unused93]
[unused94]
[unused95]
[unused96]
[unused97]
[unused98]
[unused99]
[UNK]
[CLS]
[SEP]
[MASK]
п
,
в
.
##на
##ро
##ст
##ко
з
##ни
##ер
##но
##ні
##ра
##ва
д
с
##го
т
на
м
##ен
##ід
##ів
##ль
##ла
##ри
##ли
##сь
##ня
##ов
##ка
і
1
о
ро
б
##ти
##ки
у
##ці
##лі
##ло
за
по
##ку
##во
-
##ся
##та
##ть
##то
а
##ре
##рі
я
##ми
до
)
(
—
та
П
ви
##не
##ста
##ча
##ере
##ле
##ди
##ля
2
##ма
ко
С
##му
##да
В
##ви
від
##ру
К
к
про
##сько
##ві
«
»
19
##ний
##мі
##ну
##ту
##га
У
##ення
М
##ді
##по
бу
##них
##чи
##кі
##ого
Н
г
##ння
Д
20
Б
##па
"
##ор
##те
мі
А
щ
##сі
не
##хо
при
ф
З
##ного
##іль
'
##ши
Р
ма
року
##бо
##ться
роз
що
##ті
##ськи
##сто
##ува
##со
ста
##до
Г
Т
##мо
##сти
ц
О
##сті
##ної
ві
ч
##ків
##жи
##си
пере
##лу
##лю
:
##ду
##ар
Л
ра
##пи
мо
##се
##кра
На
є
##са
##за
##ови
й
ре
##кла
під
##сть
об
ча
##нь
##же
##ського
І
##ме
##ції
##ць
##гі
##зи
##жа
##бу
де
ін
се
ш
##би
##краї
х
201
го
во
##ється
е
##де
##ської
3
##пі
ка
##ше
##ера
ст
##це
##ве
##су
##бі
За
##ський
##лення
ме
##ним
те
##ють
році
Ф
200
як
##он
##рав
##ря
##пу
##ній
для
##ба
##мен
##рів
ба
ї
##ері
##че
5
##ому
##нів
##пе
##вся
##ові
рі
си
##ця
##тя
По
##іс
##кий
пра
##зо
##зі
##ан
##сту
##фі
##она
##тів
##зна
/
ді
##хід
##ною
ж
18
##ери
Украї
##нов
лі
су
##три
4
од
Ч
скла
##ська
був
##ному
##ем
##ден
Х
##цій
па
##ном
##ово
##гу
##ран
##ман
Ко
його
Ма
##зу
##еред
чи
##ними
##нови
Ро
сво
##вання
р
##ги
##род
##ке
пов
##кож
##ха
##ком
##гра
##тив
то
0
6
пер
Ка
##er
пів
##ей
ли
##ци
##шо
кон
##лів
сп
са
вій
му
##зь
##дів
##селення
ди
зна
##чі
##ник
було
##лек
##ські
міс
Ц
ти
Ш
##тра
##тич
##ісля
##ін
осо
##оло
##ських
##дя
##ких
##ніч
ве
##ші
##ром
##спо
##ція
також
199
##аль
км
вико
##вав
ос
бі
##сл
Е
час
да
;
які
##йо
пре
##an
##ття
##ження
років
##тво
##кого
S
##сте
ку
##тор
##роб
##in
##вали
##ність
##ніст
со
##or
бо
##ву
##ходи
##віт
він
##ню
##ності
##ез
##тро
##нд
##від
7
##ерез
C
##вер
##рії
10
##ючи
##on
##ур
##ша
8
##єю
лю
%
##ень
##пов
жи
I
##ються
Я
9
ор
##ування
із
сто
України
##чення
##цю
га
##ол
обла
##нії
##мп
Та
ар
До
спо
або
##ника
най
який
##ваний
A
##ун
##хи
Па
поча
но
##ців
##тку
##рист
##дин
194
коман
кра
була
##ar
Є
гру
##en
##ще
Ра
##дар
M
##кт
##фе
##жу
##том
##кри
були
##кої
ні
##вані
##лася
##ержа
##ших
–
ру
##кою
зі
фі
##лов
##ках
##кре
##щи
##вати
сі
##лися
##ському
##нг
##ства
##їв
##сіб
##країн
##про
части
##сій
населення
##блі
##ут
##йш
Про
##ональ
198
##лен
##es
розта
##ниц
місце
##чні
##дна
це
біль
N
ав
вла
17
Ки
##став
але
##нні
##сла
##ову
##час
T
##слід
Ба
ць
##трима
наз
P
ці
##бе
##ників
серед
##чо
україн
ва
##al
після
дру
дво
##ент
ми
##кан
осіб
##at
Са
##ща
##при
193
##кови
##бли
##фор
Ви
15
полі
Мі
між
##тер
##ціональ
вели
##мер
##повід
##біль
16
мат
станови
197
##ступ
##кін
##ряд
розташо
B
Бу
пла
ство
її
Мо
##лося
##вого
ду
їх
Ми
##тами
12
##зе
##ципа
орга
##чу
зо
три
пі
##вро
##пер
##чних
##ic
196
фор
нау
##стро
##ніципа
істо
Ві
райо
##літе
##ньо
##цію
##ство
Ва
14
кіль
##вана
сві
##ській
##нього
##ніципаліте
держа
##вя
особи
##хі
##дом
чер
##ков
коли
##логі
ци
##шу
без
ге
Ме
ком
Пер
отрима
Ве
##дій
##кту
пи
##дов
##00
##рен
##бра
Во
різ
192
##дат
##is
пар
##вши
Ж
##тов
##ерито
##бір
##кто
195
##стані
##лан
Бо
Га
бли
авто
D
##роди
фа
ю
через
коро
річ
області
11
##зько
бага
##рія
##мого
##лом
##сподар
##рю
R
Ста
змі
нав
Фран
##ерх
відо
##бува
##кс
яка
хо
клу
мож
##нок
сер
терито
##ками
##емпі
ву
робо
##сну
##дина
##ську
кар
X
191
Після
##he
##тися
##ший
При
тому
##пня
став
##трі
##ким
гра
##вів
півден
свої
##ге
гро
краї
яких
має
працю
##вою
##чний
##жі
Ре
##бер
##la
##гля
май
прожи
північ
2010
##шення
ак
##дян
того
L
##кому
ни
кі
відстані
##мії
##пис
##вої
Ку
Від
ле
##нення
Й
Де
військо
міста
##СР
пред
уча
дія
13
над
##лій
використ
Ю
гі
G
##ових
яз
##зом
шко
##it
##стан
Се
##ерів
##нівер
##що
захід
##рій
F
Пе
ри
##тва
##чного
чемпі
Ін
##писа
##дії
##яв
##єм
муніципаліте
проти
##дав
Ле
Не
##рон
##тин
близько
##нія
##прав
дов
зб
складі
цього
органі
СШ
##ене
##сли
##важа
США
##йма
##вано
##сите
Со
##ху
H
Ні
##мов
кла
так
##ана
##сії
пе
рік
##ніверсите
Він
##us
##алі
рів
схід
визна
##кіль
##клад
##тні
зу
голов
##увати
систе
##галь
Бі
всі
##вих
##йня
допо
То
E
##дини
##om
##ової
Роз
##ським
##ністю
##ники
##ував
##сом
##ське
f
##щі
##унк
ла
сіль
##мери
##рення
##сів
пові
##ництво
##овий
##кова
##ститу
##ска
##дні
##чно
##ником
##пад
##ток
##рах
##льо
моло
##єї
##el
##вала
спе
##того
Ар
столі
жов
##ol
W
Су
світ
один
кри
##гом
трав
##олові
##лії
зали
t
висо
2011
збір
##стру
##чної
##тур
вони
Ру
##утбо
##льний
##ціаль
куль
участь
зав
##вича
філь
Му
##ніше
Лі
війни
національ
##пада
##сно
##тера
##ходить
Пів
ще
V
вироб
##лова
##et
село
##чен
цент
грома
держав
чолові
села
##ван
розви
No
тех
##раз
університе
##ерес
дослід
##ліз
##клю
основ
##ерк
##поді
##рт
##льних
##ступа
Си
##мага
##од
##ох
двох
Чер
p
відповід
##льта
##коно
футбо
##фа
стан
навча
##стра
##лови
Ла
роках
лише
s
зем
##РСР
представ
##гор
сту
воло
##стрі
##йшов
тра
##чів
##ск
##ською
##стя
складу
повер
вона
##рахо
відкри
бра
Під
##ur
##нського
##ion
##льного
##тою
слу
будів
стар
вер
25
##нами
_
##зво
##лені
оп
Ав
##ністра
##ляр
Вели
інших
Населення
##мент
може
##дж
##ктор
2006
##чна
##дження
##дмі
Да
c
ху
склада
##станов
чемпіона
##кар
##тім
Дж
верес
##il
##ване
##йон
##нської
гу
##шого
##слі
##овою
##графі
Київ
місця
Мар
##мець
закін
Те
##вид
Олек
##вий
нап
берез
квіт
Лу
##тах
них
##вар
##ільки
##чина
##ували
30
##публі
ті
##ково
ім
тво
роки
інші
Ді
##тий
##зації
народ
регі
##ологі
захи
##as
імп
ха
##пар
##слу
Ан
обо
Євро
Го
черв
##тт
##тури
##ген
пері
##гів
ши
району
##раховані
##ско
нале
##ніх
початку
##ch
##кси
якого
##кти
##нах
аль
##зульта
##льні
##ниць
життя
##ління
росій
##пли
##спі
##оні
##кли
d
зро
##ордина
##ров
##ro
Серед
багато
##ed
##шим
листо
захо
команди
##кру
o
##вичай
##лід
музи
Ль
н
##зя
##кість
перед
компа
шта
100
кор
##народ
##ентра
##санд
##тар
ОС
проце
пло
##ель
##пра
ту
##ерії
##над
ки
координа
##кон
існу
##пису
##рім
кни
Кар
вида
##стання
##нський
##жен
##налі
##дже
щоб
влас
##гід
Це
##дня
здо
##слав
місті
доро
##дія
чо
##лений
Ос
##ra
##мін
зв
##тей
##тня
місто
результа
##форма
рід
мор
##нки
елек
два
##леж
##кові
##цією
##носи
Пре
##піль
території
##чив
кін
че
століття
викона
разом
становить
##гій
Україні
##езпе
##лено
сезо
##зії
##цу
##сія
2014
худо
селі
##тягом
##льно
##дміністра
##льної
заб
Кон
##поча
##стій
Ге
одно
радян
проживали
можли
профе
for
програ
Пі
ша
цьому
21
дея
##льна
церк
##зиден
офі
##нець
22
утво
##кола
тільки
право
O
віці
вже
##він
##єн
##дь
призна
190
##рита
##жива
##and
пам
##чня
використову
##мів
##мерикан
пу
Воло
##нова
склад
координатами
##ович
##дійс
##клада
німець
розмі
##бор
наступ
##тен
комп
##діана
бути
##re
тран
##le
жі
вважа
загаль
##лей
##бро
II
##триму
##ництва
##біт
##ат
##веде
##мку
##об
##каде
##ляє
##води
грав
##mu
24
##кономі
бать
одного
##лось
##ia
##рь
##ht
##вед
відбу
більше
##вич
##сер
##ньої
##лем
##ступи
##хів
само
##ньому
##крема
Ти
випу
спів
##зів
Пра
Ло
вересня
##рей
K
худож
##нен
світу
ан
екс
вклю
##ган
можна
цей
##чений
прое
##сло
##ктив
поса
##лена
нови
здійс
Ри
U
той
J
##бур
и
сучас
##спа
січня
##чини
виступа
район
піс
##міна
##ськ
##дови
Фе
23
займа
єдна
##ing
СРСР
ради
розташований
березня
серпня
##бив
##дей
Лю
неза
травня
найбіль
отримав
свя
меш
Сі
##жли
##мені
липня
яза
грудня
##am
##зер
Франції
Най
Рі
шля
##тті
одна
##клика
##лян
істори
домого
усі
комі
домогосподар
нази
мисте
##un
##вод
знаходи
##гли
швид
##вели
жовтня
##чає
##різ
of
Олександ
##фо
##еріа
##кових
червня
##рту
Ли
##родився
Кри
все
2015
свою
##нову
тур
##щення
##id
##стер
##лок
##твер
##стю
Як
діяль
пока
##ок
##ракт
##будо
місцях
особли
##тій
##матич
окру
керів
прав
функ
євро
26
діа
##кій
##mula
##яви
бере
##пози
теле
##ходя
сти
##готов
викори
##тії
##гро
вули
##стос
охо
##енера
тор
економі
formula
архі
##кими
квітня
##ріб
тре
пода
Анд
Національ
Бе
даними
##спублі
##стві
##голо
##ниці
##хе
Дру
листопада
28
літера
господар
2009
##чне
інститу
поп
Ди
більш
##город
##куль
##зичні
Пере
##чка
##жить
районі
##нан
##гідно
##тора
Щ
кому
##мон
##коли
27
##ac
##дер
похо
##дою
##нку
смер
##лія
жур
##відо
##II
##грав
##жина
##пла
##віль
пара
осві
чоти
поді
##стів
дозво
##мови
клі
##щу
мистец
прави
проте
##овні
стру
2012
фо
##нє
##ового
часу
американ
##бю
дві
вирі
забезпе
чле
Сер
##цького
##дими
розраховані
електро
опера
2008
Верх
##годом
##мет
дола
роботи
##ter
перемо
2007
Хар
##стей
політич
впли
##ізичні
Ор
поверну
ят
клубу
розроб
##Фізичні
відді
відстаніФізичні
Кра
##ie
створе
Кі
дуже
людей
замі
Гу
фран
фе
сім
чином
2002
##шої
##жуть
свого
##нням
мар
##кільки
189
##os
лютого
мають
w
заліз
трен
пол
Сан
характ
спі
##дині
The
##рію
##кції
країни
##хай
##зніше
##лась
##мий
історії
клуб
##цем
використов
##дміністратив
продов
ен
##приклад
анг
##ску
Також
Пари
Для
зокрема
особо
Поль
##рони
Аль
часто
раді
##еріга
дося
Ха
мен
2016
ід
схо
##ллі
кіно
##чки
стала
насе
##чну
обра
тер
Микола
това
Ду
Гол
##бом
##тних
Ту
застос
спри
нада
яви
2013
##мати
йому
##мом
##ent
офіцій
якому
##рьох
мета
різних
прийня
встанов
##спожива
##жений
помі
особоспожива
##ств
остро
мл
переда
кількість
себе
##шими
працював
інформа
50
Фі
ніж
Але
##кро
##вості
команд
потім
##гре
режи
##ниця
форму
##um
##бою
##нові
’
Ша
перебува
сус
мм
##вість
своє
##тон
північний
служ
29
Ше
##пей
Хо
##чої
m
##нська
окре
можуть
##сив
##енні
дере
актив
міжнарод
##мб
імені
##ктора
##фер
##фіка
##вах
##ціа
##рем
Півден
##ot
тим
нього
Володими
##гії
##тві
##ца
Киє
##ктич
°
##цький
залиши
Васи
##пута
кож
##тура
##тував
період
коло
управ
Бер
перева
##звичай
##зму
##ad
сай
південний
##кор
##парта
колиш
31
Бра
кня
##рід
пози
зни
пись
якої
росли
##рою
частина
##iv
##вим
##зем
##рин
рр
запро
відбува
спеціаль
##нув
##ян
кілька
випад
n
числі
мето
мав
##ереж
##мою
жите
групи
акаде
зустрі
збірної
річки
медіана
напря
біля
188
стрі
##кості
наві
Львів
боро
2001
поль
##хом
XV
завер
ек
2005
Ради
##лених
##нологі
##перше
належа
##віа
##лля
би
##дно
2000
очо
##цями
учас
поши
the
##op
##мки
організа
##ir
вигля
##оте
##ut
##йн
університету
##хов
перший
##лін
армії
40
значення
##вець
Його
Росії
назива
##чого
##лись
Німе
##ристи
Ча
##ляється
францу
00
##тру
##тель
Північ
Німеч
пита
друго
диві
##тно
моде
маши
гре
Михай
##мпі
генера
понад
розпоча
соціаль
##дон
##мента
##приєм
провін
2017
##ськими
##od
проду
##лка
##сона
такі
успі
проми
##сон
хі
##могою
допомо
пое
таких
оста
дітей
##ваних
широ
Жи
##вало
##рма
##ходів
гур
Одна
Но
##йшли
оз
написа
##im
##ec
протягом
школи
муніципалітет
регіоні
##ation
поперед
опо
тро
сели
##em
невели
##ig
##дри
b
Ґ
##ведення
##пів
тися
попу
##чені
справ
яке
гір
архіте
##роз
##еру
одним
##мпера
кори
##нка
губер
муніципалітетів
зе
провів
цих
##пара
мовою
відзна
системи
Че
своїх
почина
##йшла
2004
пунк
##лта
##реш
##вій
тис
тео
In
яку
кора
чоловіків
дебю
##ографі
##ціалі
##поряд
спіль
зайня
становила
мона
всіх
дав
розвитку
##ом
##поділ
St
##рун
##рої
##дера
##ону
остан
спра
створення
##ктів
автомо
см
навіть
біблі
прис
##валь
##єдна
##зм
президен
##чному
цієї
##тету
ло
Іта
]
знаходиться
##ow
поло
зазна
##ковий
Основ
стали
##лл
хви
##бле
яв
мали
втра
##вин
##нутрі
Тер
##пен
війська
Свя
Перша
##лах
##туж
комплек
65
##tp
##тики
##джа
##нутріш
##цен
##бов
багать
##чено
свій
дире
галу
пови
зобра
інтер
депута
повіт
декіль
##тре
in
допомогою
заги
підприєм
Гі
##никами
[
сим
стра
зга
розді
знову
##шою
##http
наук
##лами
майже
перепису
##щини
культури
Дні
центра
письмен
громад
Коро
літа
син
ниж
##st
Ни
##гар
особа
##тний
футболі
##чих
ґ
здобу
##трів
частини
млн
Моск
##волю
##чий
вда
##ью
тоді
гер
управління
##ul
##тки
##дяки
викону
частині
##сор
Дже
Сте
назву
##сков
##німа
##шки
Іспа
промисл
засно
кур
гли
хво
##менту
проводи
необ
авіа
еле
жінок
##чили
спору
##чним
##ag
воро
##ває
Віль
ска
##зон
##рами
якій
Чи
водо
тру
##сього
центр
землі
наприклад
##мані
збере
голо
поверх
тут
##ріаль
##пере
##шта
колек
Однак
##чити
матеріа
вияв
тради
##шість
поля
##ходять
186
рішення
##og
##ттю
##їха
##цької
дж
##вався
гол
Верхов
##лімпі
відно
##шому
бой
2018
французь
язку
1990
кан
зміни
меди
оскільки
будин
##рок
використання
187
##мія
##анта
##нією
Брита
фон
доходів
найкра
обох
##буд
міся
##мель
вір
##ланд
віком
команду
департа
##дами
2003
##рив
пря
турні
озна
and
##кового
внутріш
##мах
пле
доларів
роль
##цер
поста
##вами
##налу
помер
##ерій
взя
вив
##зно
##пні
тан
60
Пу
##ове
природ
незалеж
##гла
##пор
же
##нал
чемпіонату
Муніципаліте
##жно
деся
здійсню
доку
корот
просто
##бити
##валі
потуж
золо
Росій
смерті
##сить
фізи
Розподіл
##лив
##чаль
Муніципалітет
бібліоте
35
поселення
Чор
Крім
##ніка
південь
чор
##чними
##ляють
верх
Все
##лин
##ряду
мало
Кор
##чин
##таль
Захід
##сні
український
залиша
необхід
##чається
примі
Згідно
##увала
контро
##бира
мови
Народився
заво
##кло
##їз
слова
транспо
##стом
філо
##сель
##рно
меха
щодо
англій
##джу
іде
##стрів
##бри
зас
Ї
##дах
збіль
розташоване
Республі
робіт
бороть
..
...
##тного
##ержав
матчі
класи
стату
фільм
##юз
##жень
пев
##бут
публі
Дов
##лки
Нью
##мих
Оде
пізніше
Проте
джере
##жив
##сю
буде
темпера
##дра
хре
##тан
Вона
місцевого
Іва
##нович
Між
нині
структу
##ходу
тощо
адміністратив
твор
експ
чотири
Черво
багатьох
##кур
##вір
кам
##oc
назва
влади
##ймен
##міну
періо
прин
єди
##ходив
імпера
##толи
=
r
іно
старших
##ist
чого
завда
Фа
##мна
своєї
кольо
позна
##спе
Через
##кування
хра
усіх
##лень
##шко
##мові
##гий
постій
##гово
##бів
згодом
##нес
Май
##каз
Парижа
світової
проживання
##тна
Бар
1941
трьох
жа
##дан
Біло
мешкан
##коло
технологі
1999
цар
перетво
##чок
молоді
місти
ско
права
##град
саме
молод
складається
статтю
##увався
##шив
особливо
мала
##тори
підтри
оці
##руч
Пав
XI
старо
##лює
межа
діти
Харків
Гри
Європи
суспіль
##пини
##зова
1998
##кової
##мок
поя
фло
?
##нути
45
мас
ять
##повіда
##бто
потра
g
##ментів
будь
##серед
уз
собою
популяр
Йо
навчання
##ov
типу
##рін
##слідок
фрон
##лла
a
##сних
відноси
дослідження
##лго
якщо
1944
##шка
Вони
закінчив
важли
Ново
товарист
результаті
Ке
імперії
вид
##чем
##лях
монасти
релі
гри
почав
енер
##тери
досяг
гід
культур
повітря
кафе
##фри
департамент
вза
##торів
видів
прода
Гер
##ріан
##тет
техніч
##різня
мешка
родини
тва
лег
Ці
оголо
основі
под
рада
спро
симво
32
черво
компанії
назвою
##єв
Зна
##ційних
##ew
1992
запа
зберіга
організації
##ers
реда
перші
ана
##лювання
таким
шо
Село
##ліс
1991
Петро
моря
ува
приєдна
газе
##тв
##йти
##крі
вперше
здат
світі
контра
##нім
належить
##ктором
ону
##чах
##вигу
##чя
вибор
Пор
##вом
##береж
компози
##това
##поль
повід
000
##ватися
галузі
важ
намага
##світ
церкви
полови
##валися
держави
##менти
ефе
##овим
хоча
##сного
коле
жіно
##тої
теат
Діти
##гає
факуль
##зей
##овніш
єр
u
Об
##ництвом
Пар
##юр
виді
##лер
честь
Ch
##ce
метрів
##йну
##сок
##вчен
сере
фінан
##ны
віді
довжи
##лого
##енко
секре
##тай
Гра
##рович
##тому
сам
сте
партії
Польщі
##ючись
української
єв
##сний
##пре
Схід
##кінці
##дну
уві
зако
Ті
80
сил
переважно
Голов
Протягом
##ього
##док
Анг
##сах
дина
##тих
##маш
дра
##талій
сезону
поки
##сут
##ступив
##цею
1989
##писко
вияви
Біль
##прикінці
##рова
сті
ним
спост
Італії
роду
Мон
##пону
##ковим
рослин
##III
заступ
звіль
арти
кінця
185
Коли
##близно
роботу
Ци
дивізі
рівня
+
com
##писом
v
лів
##кох
##ерія
іншими
Гре
сце
##тина
##тика
сільська
звичай
коза
побудо
##чених
1997
##цо
діяльності
титу
1945
##тини
дебютував
королів
1996
##кта
##жя
обме
70
реа
область
##нію
##кладе
станції
води
Із
##бка
##годи
підготов
##пло
часів
столи
капі
включа
Верховної
люди
##уванням
Мініст
звер
почат
мере
Василь
##льну
Цей
##чена
##тором
##довж
корпу
##міг
лан
одну
віль
##мей
1994
частину
жителів
##ктично
l
Дніпро
підви
людини
##ЕС
##бре
музе
##наслідок
брав
дій
Шве
##даго
Йор
Ана
обі
##роду
##знав
військ
студен
##рой
##ночі
2019
1939
мініст
##ess
##мана
##ay
тисяч
Іван
33
кро
36
Япо
##подіб
залізни
пала
Так
##рити
виклика
відомий
тек
Гар
Єв
регу
однак
хро
Ген
##ніки
вчи
відвід
Y
##нет
форма
зовніш
1980
тобто
вулиці
##гія
пробле
1995
альбо
Нор
приз
брита
Центра
підписа
стало
##ційний
Україна
член
дорослі
Вар
голови
началь
##сна
володі
!
##льним
##увалися
відомо
територіаль
вигляді
##сан
##лями
##мію
сла
завдяки
останні
сільського
першого
двигу
##тації
діяльність
оку
вибо
зву
##чині
єднання
виноси
Держав
Черні
одини
##фи
Амери
##ємо
1993
част
виробництва
##іда
журналі
архітекту
віднов
професій
##гані
64
розташ
##білі
канди
слід
Станом
Шевчен
яким
відбувається
##лімпій
місці
##туа
##лово
Радян
народився
звання
##рона
##ферен
##нений
анти
##чною
##ub
Вер
бе
єру
муніципалітеті
там
Друго
##зій
меда
Ал
##тія
##цька
вийшов
реалі
виготов
##ard
виклада
1918
раніше
повернувся
неї
Гру
нагород
##дується
бри
група
отриму
змага
##мар
##робіт
онуки
європей
1943
##стри
##сної
тренер
##зав
Зем
##йде
Олександр
дерев
кер
##зан
враховані
міст
оподат
ряд
##еро
##йм
184
бан
філосо
##рд
суд
метою
##рож
числи
##чній
##жує
виносила
приблизно
констру
пси
розу
особоспоживача
##вен
Кана
##ляються
##ванні
досить
педаго
Ши
бла
##est
1970
90
день
розгля
повіту
особоспоживач
Інститу
Руму
отримала
1920
католи
##мір
національної
деяких
##гато
##ксима
##ri
самов
Міжнарод
становило
III
##логії
відповідно
##динок
числилось
спи
кос
матчів
Ву
##полі
зму
http
прива
##сс
XX
УРСР
##прави
##тної
Києві
освіти
##ційного
деякі
лікар
наф
країн
заго
транс
Зі
стати
радіо
стає
інстру
розши
##ціями
револю
34
##щих
чу
##нули
ґрун
єри
Ху
засо
тон
посаду
##чатку
ян
##гна
##20
##юзу
##вому
##пив
система
##ap
##стрій
дода
Гор
38
походження
створю
персона
жін
характер
1960
демо
присвя
1930
здоров
мистецтва
опублі
спеціалі
цю
повністю
зня
##чува
“
ета
##важаючи
порів
новий
Зе
фото
##лював
боку
##дного
склика
##леку
Полта
##art
зазвичай
Кам
дів
Володимир
##овій
республі
##ством
зіграв
Гали
спочатку
Донець
безпе
##ковані
різні
Дми
Воли
українського
##ine
##мій
мов
##мир
нев
Істо
##фу
сріб
И
декілька
сайті
мати
сприя
італій
##близу
нез
корист
##вими
утворю
хто
видав
лінії
яти
##нін
одноймен
##тне
дружи
подаль
провінції
оби
##sk
##вшись
##зького
державного
рівні
ад
##вського
##льному
матчах
##зує
##лий
37
уряд
проведе
руму
засну
короля
захоп
##зок
свід
фести
##мор
плану
інституту
##мим
виро
розподі
##лік
чемпіонаті
автор
відда
виступав
працює
##тка
даних
виконав
##рого
розташована
##талі
додат
ліс
міль
змо
тепер
Москов
членом
##льній
білок
##ae
торгів
##сур
##гру
дис
##ччя
##кованих
Другої
вка
мате
##зований
проекту
##нем
&
##має
##ьогодні
КП
теа
Три
забо
##ерков
наяв
потре
пос
##кову
концер
##ях
кордо
183
Довжина
дохід
##льною
найбільш
Народ
межах
самовряд
##рена
1940
##дово
руху
##чому
середня
##ab
лу
низ
одне
цій
домаш
##кція
пору
##жні
##цеп
відповіда
конкур
Рей
кру
університеті
##щен
характери
геном
An
гар
орде
Голо
##вань
своїм
дії
виробництво
подо
##ant
Пи
перших
команда
Спо
Лон
підпоряд
Ман
першим
гідро
сезоні
вз
передба
тих
##ріо
Був
##нера
Згодом
*
чоловік
числ
##тування
перейшов
спад
h
фільму
Z
гори
слов
##ud
Вій
брига
##ep
школа
япо
нового
недо
почали
Вла
##чку
##рені
українських
##сім
##чер
Ця
##шений
##вести
##розді
можливість
##тего
кош
Поді
##ріа
академії
футболіст
##тю
##нив
обов
тем
##ct
##сила
##лон
##літ
##бору
##пти
##ео
школі
подіб
механі
лід
##тріб
##сію
вар
поряд
серії
##бок
##пом
##міно
закінчення
НА
прибу
##ландії
інжен
голова
спор
прото
Угор
##калі
ата
Якщо
##щині
літератур
зло
##бля
##станови
##часно
55
біологі
видання
Терно
Президен
нових
тварин
Фор
##ak
головним
молеку
питання
ww
##гою
##гні
##разу
##нер
підтриму
##зен
лей
##педи
яс
##дуть
##нено
штату
майстер
www
##чови
##лою
##ort
населених
пун
університет
діяч
Найбіль
300
Зо
поле
ря
змен
1919
самоврядування
##ian
фінанс
супро
призначений
спа
##стави
Золо
##тичних
успіш
порівня
XIX
громадян
##льне
чита
##форму
##ски
Джон
закри
компанія
квар
##зація
##стем
часом
##воє
75
різно
39
майбут
1950
##ційної
поблизу
відрізня
географі
своєму
Республіки
Розта
пунктів
500
##ліна
спільно
варіан
##ченням
##ційні
хімі
церква
##дру
##шості
##ill
організ
альбом
умо
науково
співробіт
школу
кінці
Петер
церков
1917
стандар
##av
їз
##бель
Григо
##пусти
форте
##початку
воє
існування
##10
##ber
##нити
тя
ніч
ця
внаслідок
комуни
Пло
станом
писа
рей
сили
рай
##ik
##дова
повідом
праці
виконання
Української
вистав
собі
пісні
Оле
губернії
##ттє
переписом
православ
учили
днів
швидко
##нна
христи
##ходили
##мках
шкі
##вський
дня
нові
##лих
##кріп
##слов
##чує
##щений
##щина
Анто
Румунії
180
двома
##овується
##пера
розташовані
ресур
##ксу
інте
1988
рим
сина
Іспанії
Дина
##дця
ото
столітті
бід
##all
##ip
більшість
професор
Білору
##сами
##тропо
початок
титул
##if
Пов
Медіана
види
молодіж
актор
бор
дитя
хар
потріб
селян
книги
зви
розі
k
вплив
##валася
##нені
1942
наго
##жів
##зької
##мат
сму
Закін
Перший
Британії
Основні
##ваним
юри
Середня
ран
згідно
##їхав
місте
##онів
##сса
##лаш
основному
Мак
проведення
##ord
##тви
великих
##стики
зру
площа
правління
##лай
##лому
виник
##віта
Сен
військово
Шо
##фії
ше
##ev
Член
союз
Акаде
##дю
##кував
##гір
максима
##чук
форми
роман
Розташо
хло
##шів
Al
наукових
Пла
##ради
мікро
епі
поє
центру
##ціона
підрозді
##кона
власти
##жо
Німеччини
Тут
керівництвом
##нських
басе
установ
##нува
шляхом
##зах
##відува
сол
Запо
середови
всього
питань
їм
Джо
півночі
Ір
##жені
середній
колго
чисель
будинку
##рам
завод
##луа
поз
##сажи
##рений
будівництво
##вка
##ціях
Було
##нику
пошу
##вається
##пуска
покри
##нює
##ктом
##орва
забезпечення
##вської
значно
Церк
Рим
##гну
ланцю
люд
44
духов
##баром
Нау
шлях
42
Пізніше
ігро
закла
ал
спортив
##уватися
##бург
сході
катего
##крім
єписко
ус
сполу
##вають
43
одру
##джі
пояс
Королів
музей
ними
відмови
конф
полку
##кульп
зображення
##кає
Європі
родині
політи
непо
льо
апара
##хії
##ляти
##зується
##жди
##ней
народи
ІІ
1986
Афри
Японії
буд
##ології
##тчи
березі
##дрі
нака
Рів
##орів
##ційно
##літку
##ньою
ua
Крі
de
Що
позиції
##гами
команді
##up
своїй
„
##які
обладна
##our
ну
##ями
##шено
іні
віку
Іра
##кове
##мена
господарство
Адміністратив
торго
Міністер
практи
##цьких
парла
відео
речови
матері
релігій
##раї
пото
принци
бро
комітету
##влення
##кер
Фер
179
класу
транспорт
Сергій
прито
скоро
##під
опа
##ванта
41
##див
##сен
##тацію
ката
захисту
цим
##броє
залу
##тичні
##ченні
Мор
вдалося
товариства
##ok
залеж
Ган
батька
автомобіль
можливо
затвер
випадку
вмі
центрі
1987
програми
##нети
твер
схи
розвиток
##бай
гово
узбереж
##били
Тре
Помер
першої
контракт
дозволяє
методи
Івана
піш
показ
##вато
тіла
ат
Загаль
великий
##мова
добре
##лити
##няття
Російської
##рина
Кан
##зький
спис
Бол
Наз
##пат
##несе
уро
зібра
##фікації
систем
поверхні
##цев
відбувся
психо
бло
доступ
Федера
Бори
##паді
генерал
##люб
##ум
аеро
ньому
сезон
##чень
##кторів
##галом
##сп
Бого
кількості
Тернопіль
##день
##падає
##нний
Бере
##стат
##ell
Алек
##ході
##воро
##жена
##eg
пор
фра
Ком
48
архе
##брав
існує
педагогі
Кара
іспа
спостеріга
##чила
##посеред
експо
Нова
травні
частиною
бій
##лерій
науки
##ляли
##філь
1985
раке
i
показа
князів
1975
##тичного
гурту
1984
проект
##єва
досліджень
течі
Вол
заході
Потім
вище
##працю
провід
1946
батьків
порт
##пора
##хун
дріб
Києва
Хмель
скульп
Фо
шах
Sp
##терна
Моло
періоду
181
представників
юна
відсут
Ер
Таким
відділення
##кістю
1938
стилі
ступен
##зія
інт
назви
уряду
автомобі
назвали
##шує
Кур
Нав
сю
навколо
річка
раз
немає
##кл
Калі
IV
##ючих
Ен
##тарі
##льського
ситуа
пораз
продовж
іноді
##соціа
Кла
Англії
одному
178
проходить
прийма
Спочатку
брон
Національний
##ляв
плат
##сією
династі
##нних
Ar
записа
##сник
##ченко
рад
IS
Ще
маса
вересні
150
поза
ванта
##НК
##різви
увагу
невідо
##цях
брат
##тичної
річна
##мбар
пасажи
членів
жер
Com
1983
##щий
театру
інформації
Тому
Un
Осо
##нос
березні
будинок
поба
центром
46
##th
прем
великі
Союзу
різномані
зір
##нському
місцевих
домогосподарств
##нці
радянський
зберег
47
зато
##дро
першу
ігра
Ат
січні
діапа
Чемпі
Працю
захища
реаль
Комі
##eb
дані
##лет
##метри
інститут
момент
чере
##кордон
використовують
ділян
##стоя
країні
Київського
сьогодні
спря
182
чолі
##дба
взаємо
аналі
1937
##увалася
##водя
##віду
сф
##куп
##ліп
грудні
дос
##чання
##жних
##io
##сили
називають
напів
господарства
##ens
Кре
належало
1933
національного
##тків
формі
##und
##сера
повіті
##шен
рома
оброб
Коло
##чаються
входить
##чав
створено
##йно
містить
Тара
##ex
послу
дове
заяви
заснов
##най
становив
вог
ней
1932
їй
##льє
Мін
##сування
вини
президент
##рус
високо
##турі
умов
аб
Дон
1979
Джа
Кубка
бю
##овими
першому
##qu
##дки
##реста
##безпе
лік
глиби
Бог
поми
чотирьох
##тим
Бур
мене
консу
##рією
вод
Світ
працювати
праців
##ob
от
військових
##ran
##клі
Андрій
##бами
##НР
добро
менше
правило
пункт
підтвер
безпосеред
##стих
творів
тиж
##йних
##чиною
##ґа
##мість
бажа
1982
округу
вихід
##дві
Ай
країнах
виклю
оподаткованих
##лини
однією
Буха
родин
Михайло
1934
збира
суб
##роні
співа
##петро
кре
серпні
Австра
##сова
Чернігів
##стий
##мами
другий
##вез
##зар
колі
##чить
1972
##шт
знайде
Шевченка
демокра
ефектив
##чився
Хмельниць
Великої
жовтні
##ленні
червні
##туру
##нин
##кам
програм
електри
##слава
##оном
Чу
батько
депутатів
##ity
повстання
##мос
##сере
вип
##нську
прізви
##родов
гла
##тись
Бор
##хунок
Кита
оборони
крім
чемпіон
баталь
футболу
обер
відділу
гімна
налі
розгляда
рамках
ші
кіло
рахун
1976
##гно
вигра
площі
нас
послід
##жею
Її
##панії
##кут
зупи
##50
Автор
##тувати
місцевості
іншого
завжди
безпеки
статус
будівництва
див
##добу
утворення
ново
експлуа
##чався
Олімпій
довжиною
марш
входять
1921
сімей
##роя
літератури
окрузі
##сою
##онах
Ниж
##рювання
##ленням
адміністра
головного
другого
родови
01
статі
оке
нор
вимо
поверта
Відо
##тивний
жан
заслу
разів
##кса
базі
##ug
##ьо
служби
##вові
жит
1974
альбому
південно
кафедри
Шу
четвер
Ара
нім
##бування
Гро
##хво
##теля
стосу
теорії
вийшла
загально
моно
Більшість
1965
##ністи
краю
##ступу
##україн
еко
часи
##рили
піхо
американський
Бре
##жна
ролі
радянської
кандида
липні
умовах
окупа
процес
зи
Тоді
1978
пора
1967
ігор
##гіна
вбив
моделі
##сне
1947
##цар
##дію
Входить
земле
операції
##бар
##мени
озброє
1971
станція
##слот
законо
розпочав
##тований
доктор
наступні
Бать
##тості
вихо
біло
колектив
##вок
Катери
97
рух
##стану
здобув
XVIII
##тс
яті
довго
##ус
ініціа
1981
##тона
зміню
177
Азії
збірну
промислово
відміну
зраз
вимага
1973
температура
##уре
найви
квітні
Mar
використа
##штов
##зні
епо
чергу
дивізії
застосування
##тех
одні
##стями
Київської
Зав
Тур
жіночої
En
Хі
зада
Лан
капіта
##стки
професо
пан
##фія
##рит
1968
Бен
нео
##плі
бою
циві
молекуляр
##жний
##силь
1977
хромо
запи
участі
##пінь
вина
вибу
залі
заповід
##ляції
фігу
твори
збудо
Ско
діє
премії
##льський
сайт
##йшло
підсу
жор
встанови
перепис
49
громади
будівлі
##стян
переви
діапазо
Саме
52
напрямку
народу
##хови
сумі
##мато
дисер
##рних
сусід
вважається
##чають
мешканців
##ційна
самостій
використовувати
1969
##щено
замість
Pr
нар
територія
##рієн
##30
to
1966
головний
##ніс
##метрів
середині
спосо
Європей
завдання
вступив
##лене
якою
загро
##жність
пункти
##біна
державний
гео
##ціону
походить
##сов
листопаді
відправ
крити
боротьби
##мбі
ліній
паро
академі
##нена
Дніпропетро
обраний
##ский
розумі
##шин
Багато
##шені
змін
1964
##два
Запорі
головою
Миколаїв
Цент
дні
Перші
1958
острів
##діа
ймові
54
підприємства
Деякі
##дор
Геор
ліги
єдну
##жується
##стіше
Наприклад
##нам
півдні
400
описа
маршру
сторі
номіна
Оль
годин
дипло
промисловості
Олександра
1956
1948
1959
##тичний
Разом
##лович
китай
##тін
Генрі
хоке
##зов
ск
1963
##ллю
##ксо
##тним
Площа
1962
формування
дово
##ge
фун
1961
ске
міг
магі
означає
##цям
ході
##уванні
живо
Степа
Анато
##бку
##бан
практично
##риста
##60
історію
##бора
наприкінці
рідною
послідов
##гін
##щені
отримали
інозем
термін
##люва
маси
Яро
##щена
##ТО
Жито
99
витра
Крим
##ry
Фло
Робер
велику
експери
##гах
##йт
##шити
мистецтв
##стив
нега
Жу
ствер
музею
біз
##форм
##поля
##рний
треть
##ям
1936
попередніх
офіційних
проголо
роди
жод
рахунок
Закінчив
##ходяться
гравцем
##ph
юриди
|
сцена
##ером
1957
New
техні
проблеми
Наступ
хворо
перемож
Пара
язки
околи
прямо
заступник
1929
угор
##ской
##рий
##гель
менш
посе
відкриття
акти
донь
Наприкінці
##сар
Існу
##нівка
Марія
Перед
поро
мину
##ust
випуска
51
Америки
функції
##оз
Національної
супер
норма
аміно
граф
##гер
острова
##слуго
думку
##міни
грі
##оря
##рні
Авто
герцо
поко
##рих
##чину
шу
своєю
перша
##лим
##тком
Ак
парку
лютому
Середній
систему
##гле
##гент
фір
##лювати
Велика
##ництві
включає
##номор
Землі
ютер
Рід
Дмитро
леген
міжнародних
85
Неза
##джений
##фон
##лку
перекла
зроб
благо
напад
відбулася
вів
##люється
1923
крі
язані
58
включаючи
іграх
службу
Москві
гвар
книж
спорту
вис
##ne
відомі
##єр
навчався
##тського
##рене
ау
тип
##льф
год
прису
Черка
стаді
##руд
95
##шенні
Юрій
ном
ори
Хоча
озера
орен
музики
взяв
змагання
##гри
##лялося
##ies
##ньові
кількох
декількох
почала
охорони
Петербур
Луї
##нених
втрати
##жжя
театра
фільмі
##рону
##йович
рівень
політики
z
Університе
справж
##рові
##лині
##тр
освіт
##ссе
Йорк
штабу
57
одночасно
##йом
##женні
вимі
мистецтво
Тим
##цькому
##леного
матч
край
опі
##лера
щи
##хан
діля
деко
випроб
Q
##цент
Сам
##сві
владу
груп
##зня
ГЕС
місць
захопи
Би
Шта
Хер
мільйо
Військо
##чим
##ive
північно
придба
аміноки
підтримки
місяців
захво
##джено
пове
##люють
62
освіту
залізниці
ступеня
##родовж
християн
##жити
біо
1935
більшості
селище
1949
##зують
білка
народження
огля
##бага
120
##граф
Зу
1954
одя
відмін
астро
хромосо
відобра
конферен
мережі
жителі
##az
##лог
аку
вулиця
96
##ляда
##BN
##вай
якості
мініма
##ind
мова
##Вт
Івано
Усі
заводу
допомага
Жа
факультет
##ich
##німи
##блів
рас
мінера
війні
дозволи
складали
єврей
забив
Всі
От
Над
запропону
воєвод
теп
##форми
нової
король
справи
##валося
хлоп
умови
##чко
молоди
запо
Авст
Бухареста
Аб
##дам
космі
слово
написав
Хорва
##захи
зда
клю
##end
Полі
свяще
##ляни
лізі
урочи
##щим
##льними
інженер
Генера
користува
виступи
напа
Бан
фанта
події
жу
Рада
останній
##ss
##ніз
пропону
Лів
Львові
широко
обслуго
ара
##зві
повинні
1914
бойових
##дує
поїз
основним
величе
##чості
самого
##ччини
##цикло
РСР
##там
конфлі
##ont
##вей
кольору
приміщення
53
поразки
##нічних
могли
демон
ступінь
##рець
вті
1922
єктів
виборів
однієї
основних
зробив
Особли
Тор
Ед
роби
приєднався
природи
процесі
Джор
Лондо
##чик
династії
зроста
Мер
##тання
ISBN
Спі
єм
зале
ланцюга
Німеччині
числа
Сто
призначення
Збро
56
гурт
називається
61
квалі
ній
##продовж
##ідер
##вії
##ходження
1925
##совий
експеди
##цієн
1924
військового
Міс
##бах
бомбар
президента
велика
далі
##тину
##яр
мешкало
частин
прихи
окремих
##фра
відкрито
##зумі
##ft
##діо
##ния
##кіна
##тір
альтерна
знаходяться
1955
постійно
кг
1953
##пою
земель
чин
##женням
##констру
уго
кожного
##ib
##ходила
##міка
Мол
##ваного
наслід
амінокислот
##дка
створений
##телем
проб
##дає
предме
музикан
Єги
федера
##порт
замок
партій
##скона
##зька
остато
своїми
графі
інди
міського
Нез
##дель
воно
чов
частково
##стань
єра
освіта
##ванням
директор
##рного
опису
Pro
полков
нову
площу
##діння
гляда
##тові
Оста
Ян
вира
розповіда
стріле
герої
штат
##воду
Костян
1931
1928
гор
обласної
засу
встановлено
замку
рівнем
##шень
межі
повинен
євре
##графії
версія
##нили
вби
зараз
1926
##ніна
##чується
доби
разу
державної
розташованим
##овує
##сси
теоре
десяти
##пут
##йоми
океа
серіа
##нські
птах
Ам
Фу
половині
завідува
##ціон
##лав
##стях
##чами
товари
ваго
регуляр
##віда
##ОН
виру
Бал
пісень
Мен
##жено
однойменним
##телів
##ссі
##пепти
архів
##кцію
##ючий
##міні
##ВС
##тична
таєм
##org
##лод
##лур
будівель
столиці
1952
флоту
бригади
препара
##40
перебувало
##ностей
##мено
цін
коре
довжина
st
Вір
київ
виника
##ect
порту
##дить
##ступово
імператора
Бель
теро
##одно
замов
особисто
роботі
повно
відома
нижче
##ci
ква
адміністративно
допомога
##панія
відповідаль
вивчення
сюже
##мка
##шили
дає
ru
запис
опадів
техніки
модель
поме
##шні
##tern
тка
видат
##лектро
Історія
XVII
уря
постав
$
##гази
##тинен
належать
шту
відправи
63
Великого
##хва
поширення
піво
клітин
молекулярна
нею
українців
поліпепти
##ского
законодав
Віс
Сіль
резер
перебував
язок
офіційно
вік
журналу
59
глибо
Казах
визначення
##ice
Am
##тині
розпов
##хання
Кру
пропози
випуск
шість
Th
##ast
##ary
##нових
нова
Житомир
колишній
скликань
##зою
##телі
населені
верши
кодується
словами
##ницю
волості
математи
Росія
##пев
##ou
##надця
створив
##ld
кана
міської
##нічного
фар
Інтер
моги
##кет
очолив
інтере
списку
міні
Їх
міністра
##ерв
Тро
##aw
##новою
##лео
щорі
Старо
малень
військовий
жив
##скі
тимчас
Брази
князя
неви
##товане
комплекс
поліпептидного
синг
##ory
Коман
##зькому
##стка
##кувати
страте
против
Чемпіона
##пові
зад
Один
погля
Іванович
конц
Лей
Пан
потрапи
займає
архітектури
округ
очолював
Москва
виграв
##кцій
набу
##рки
##лина
приро
рахунком
##овують
Виступа
##ck
Індії
повернення
##80
припини
помешка
прикра
on
виду
уста
##слова
російський
досягнення
патрі
##бен
##спу
Там
##щої
Туре
1927
напру
поче
даний
старші
єпар
влада
припада
секретар
##ish
ціка
Олімпійських
Sh
##дува
метро
старший
соціальна
письменник
##решті
очі
##ue
економіки
уч
##лло
версії
спорт
мон
Красно
консер
конта
Кни
04
поси
1951
##вільне
охорона
##ченого
автоном
Бли
##стами
##бін
осе
Без
пристро
потужністю
##ff
##шена
##ет
пісня
небезпе
170
відпо
Нідер
храм
##дити
05
епізо
статті
цу
свобо
##леко
ятник
відбулося
подій
##тенан
##суль
брали
пласти
уда
сільської
##гілля
Право
Першої
##рових
виня
##тну
Порту
створена
##тивні
Висо
долари
##лею
монастиря
176
концеп
##ведений
процесу
узбережжя
##кати
сан
яскра
теж
Гон
завою
межею
стоя
оповіда
##ica
Завдяки
регіональ
Петра
книг
72
Александ
солда
великого
корпусу
##таря
##рка
##сним
другої
165
##метра
компо
УП
аж
ліка
##льд
магази
орган
Фін
Болга
##тували
армія
##зацію
працювала
екра
Пен
сіл
оф
Кер
##ational
серйо
активно
De
ман
йде
вирішив
бідності
##щину
річці
закон
рішенням
транспорту
##ond
нагороджений
підготовки
##формо
надзвичай
точки
прихиль
##мона
Франків
##htm
Сум
машин
Марі
фер
орієн
зайнятості
##ліб
копі
##лиця
Ізраї
звід
##солю
підтримку
нес
ги
Володимира
##ly
Стані
##овому
сезони
##чкою
##дований
Пала
потен
##ареш
реє
робота
молодші
кольори
бібліотека
##гло
Син
##ние
##тніх
Санкт
звинува
гарма
людина
жінки
##нат
поміч
посаді
художник
командою
67
острові
##нт
##ствах
##ang
австрій
Чар
Швей
зробити
якими
##цевлаш
Похо
##лію
польо
тов
ремон
другій
Академії
можливості
160
Загальна
працевлаш
дружина
Тар
учасник
мешканця
коричне
##ight
режисера
припадало
місцевість
Оскільки
Кін
відносно
Інституту
присвоє
храму
революції
ям
Вален
числен
виступами
побуд
Тео
##ведено
загинув
проблем
76
Швеції
лейтенан
допомогу
##комен
Ван
##дові
фронту
Кіль
число
Павло
лек
Незважаючи
Клу
##крип
Слова
##ost
Львівської
##бет
першій
Варша
наступного
такий
ринку
портре
03
##тній
газу
##ain
одиниця
геть
##нічний
##сени
обся
такого
газети
##дночас
припи
матеріалів
результатами
догово
оригіна
##никам
Місто
перше
творчості
головних
Ленін
зер
асоціа
##стого
зброй
Криму
##лять
Бю
##нула
л
брати
Вене
битві
##кіпа
02
визво
сучасних
віднови
Свято
##сьому
зброї
незабаром
клубі
чому
##їнів
вось
отримати
Стра
стри
##сіння
збільшення
імен
##шній
бого
сильно
філософ
схе
хвилин
план
чемпіонат
##ork
##кав
імператор
учнів
символі
Мат
Українська
вра
нага
Сон
контролю
віру
батальйо
фахів
##льської
##номовні
агре
пали
##гнення
мову
XVI
елементів
програму
Карл
розвід
Збройних
відпочи
Поча
Тра
Радянського
##жного
Сво
російської
Air
територію
волода
##рес
Bo
Олексій
##самб
починає
обчи
##вини
перемогу
такими
інду
##увалося
організацій
пен
шоу
Воро
документа
завершення
##гти
явився
Окрім
##трий
68
Ель
швед
домашнє
діапазоном
баз
бар
ЦК
##сев
лабора
##ey
відповідає
бронз
найкращих
історія
монастир
посади
переклада
##діяний
Кро
вважають
98
пово
Роман
##кр
Дер
##берг
війна
##bo
##будови
##клав
##цькі
шлю
##живання
##нею
газ
66
##юн
позба
##лінд
кварти
Президента
турніру
перене
164
Назва
табли
ряду
##тиви
двічі
машини
мільйонів
начальник
публіка
піді
##менів
Федо
спосіб
Зокрема
##джи
##вова
##май
періоди
Лін
відразу
вул
Мекси
Динамо
##ква
політичних
Австралії
##тує
підня
##сять
підда
повтор
Червоної
##нету
##шується
Расовий
партія
дев
комер
Гай
невда
обладнання
математич
починається
підтрима
давньо
##міс
Сла
пост
вне
Нідерлан
##фом
порядку
комісії
##рено
коме
віковим
свідо
заснований
мно
69
поведі
##ate
##щею
Голова
Іспаномовні
##тності
заареш
Цивільне
##хар
##зербай
автобу
сен
Міністерства
1000
##лд
##альних
87
##iz
##лам
Південно
колишнього
##зербайджа
пропа
весь
пого
##вор
##увань
містя
розподілялося
хи
##ціалісти
Норве
кожен
сформу
учасників
Тома
заснована
##вела
розро
військами
##нини
Прем
Бла
перей
##рово
працевлаштоване
органів
##пля
##ючі
##АТ
диза
кандидат
e
Працював
супут
74
бур
##галі
наді
стави
фіналі
Джейм
моди
неодно
виборах
атмос
лист
служив
дуб
Задіяний
##тський
більшови
селищі
фос
москов
яй
##лком
модер
суду
Остро
отримання
Шар
Віктор
Вико
вино
різними
re
дитин
трохи
##12
організація
потрібно
швидкість
##man
знайти
ся
Дра
VI
безпосередньо
Од
сум
##тового
будуть
77
Вперше
175
##дино
стану
військової
##ith
містах
##ментом
06
Джу
дізна
покоління
Має
##чати
запу
сторін
ура
фільмів
перемі
##тивно
бота
Слу
одружи
Каліфор
Локалі
другому
одній
збереження
##тному
поєдин
останнього
##ницею
##нування
максимальна
удо
веде
проходив
##ковими
відстав
внутрішніх
фабри
зростання
парале
##ври
сері
92
##мбра
реконстру
##ець
українська
##ристів
##бій
##вська
Слов
##жда
07
Сара
ніколи
рекор
##orld
АН
млрд
всю
бази
##ред
системі
менедж
##ал
переміг
Йоси
категорії
82
суспільства
##ктори
поступово
##фф
Того
вуз
##зеро
##казом
засобів
декора
сучасної
##жливо
відігра
Локалізований
Спи
##жених
Філь
штаб
провінція
##ковою
впливу
ядер
міц
##іді
##тивних
##ская
відомих
ізо
орке
студентів
вугілля
лікування
##ристо
##ys
##тість
учасником
зігра
ХХ
парк
08
середини
південному
птахів
шести
діамет
##дних
Відповід
співпрацю
десан
##кований
продукції
крей
синте
сучасного
##нській
підписав
##чують
річку
відновлення
допомоги
виходу
Втім
разі
цілому
ет
зніма
виробни
##зами
стій
північному
заборо
режисер
##твор
Макси
##торії
використовували
Сучас
чі
війну
##річний
Великий
величез
##логія
поняття
російсько
інституті
##енти
Сполу
##грі
губерна
93
численні
Загалом
командир
розд
##оми
##ленд
Святого
дорів
легко
##трополи
посла
народів
крає
Швейца
##дення
супере
600
##чою
Остан
##вере
##ливі
брата
плечі
розпа
реш
голів
##лену
##багато
зва
##бори
енергії
Закар
##мінь
селища
найбільших
##ари
розповсю
ув
ір
Тру
воєводства
районів
##відомі
зміг
функціону
##11
##ківського
Армії
регіону
Білорусі
##КА
Піс
##нар
підвищення
заре
##ніших
Австрії
##olog
htm
шляху
писав
09
73
випа
86
##щого
розробки
літо
абсолю
Бру
##севдо
Марії
світло
Жов
розрах
греко
##верд
Констан
збі
театр
малю
##довжки
телеба
##шок
науков
88
##бера
##середині
бібліотеки
Офі
Національного
харч
##нічні
великої
похід
##родження
##жува
Алі
друга
проводя
##ницької
орденом
визначено
аси
уніка
Кодований
семіна
відби
##чуття
досвід
84
члени
##ical
##ФА
##тови
вугле
середньові
екіпа
руко
##чей
94
##ковому
пошко
радянських
Німець
##ковій
##борі
Федерації
##стина
турнірі
##ure
##ment
##ліч
положення
тривала
офіц
володіння
Атлан
компанією
##енер
##щує
запла
контроль
##фро
##служ
займався
залишається
Това
фунда
##нге
##даль
єкт
комуна
завдовжки
прийняв
250
поже
станов
отримує
##жують
здійснюється
республіки
##щува
західній
головної
##кома
##стою
Пам
зго
удар
пля
гравця
##прова
продю
пішов
передачі
Центр
книга
парт
кладови
навколи
Конститу
##дебіль
термі
скар
##товано
Іо
##лівка
хромосоми
##реї
працюють
1910
виходить
##тність
застосов
##ace
Орган
##крови
середовища
вру
магні
скликання
##зію
##ближ
##тується
створити
директором
##охо
наса
кількістю
біологічних
заверши
##органі
##стори
Фрід
присут
язків
##разово
потрапив
##нувся
Брю
##мно
Доро
##ницький
##еремо
”
†
доросло
Bl
Тан
переїхав
мембра
1912
утриму
концентра
##перед
##лові
Керів
являє
79
ке
приго
фактично
##ek
історичних
ігрової
##рини
110
наци
немо
дружини
##жливі
Фон
постави
Новий
німецької
директора
охоп
рідкі
##вал
##лгорит
подат
початком
кімна
корабель
##довзі
##нуло
##далік
##коп
##овуються
##гові
##міню
1906
Парижі
представники
##їн
основні
зору
явилися
##дину
російського
Ска
торгівля
рок
міністр
89
згадується
##ковано
##ріс
##age
заявив
##рування
конкре
##дебільшого
Хорватії
##бло
##ach
сма
виступ
1915
##ear
##логи
Єгип
етно
##рський
сторони
достат
штур
78
##ству
поєдна
##кида
драматич
розкри
1905
тера
ймовірно
німецьких
Джи
##мією
##йс
опини
##15
точ
##idae
перехід
##ального
##дили
заяв
##єць
моду
комбіна
успішно
Ph
археологі
##тових
праць
тривало
Br
Мадри
притока
лінія
##знавства
##дучи
полягає
##клу
пари
фестива
горі
##ium
Шот
130
переймено
##син
##йського
Органі
##тік
вря
##стити
видобу
Будів
##рода
призво
##логічних
Всього
плав
Гран
владою
континен
##ходити
елементи
зони
##гим
повідоми
соло
інший
##слення
##стр
знищи
повстан
Філіп
медици
клубів
##стен
##старі
влаш
1913
обслугов
##цьку
##ial
премію
##тоні
Том
##стре
використовує
##вело
боло
##дування
підприємств
емі
орбі
прикла
торгівлі
горизон
##нню
83
уже
##рьо
фестиваль
##лле
##віст
друге
##зовані
##хре
артилерій
СС
зник
##rom
##шнього
##кована
націона
кара
Соло
окремі
бол
##хами
архіє
##кордонних
посів
східній
осна
куп
островів
привер
увійшов
гіпо
компонен
водос
Борис
земля
територіальна
руйну
Op
##iss
піло
Українського
діста
Грома
Перемо
наймен
##ліку
##альні
##тація
Миколи
порушення
новим
муль
##стон
Михайла
стародав
##ново
Почина
автоматич
##сером
державних
адре
##тними
##писи
кисло
##мості
виступає
j
Ад
##гай
##сем
##ass
білору
поступи
півзахи
Ей
##разі
починаючи
##овсім
увійшли
ані
перевез
##сел
Валь
обли
сади
відносин
##сад
журна
##дана
зли
Ap
комплексу
УНР
єдиний
являється
набли
йш
##ОВ
журнал
##мбу
училище
операцій
здатністю
Вікто
Угорщини
тренером
повинна
забезпечує
org
Шах
моменту
індивіду
Рай
бен
Ігор
підзем
Влітку
районах
##творення
дещо
зустрічається
Сар
##19
досі
підко
Учас
Південної
##КП
море
всьому
переслід
прихо
першою
##стов
захищав
##кен
##лювали
##штей
Напо
студії
псевдо
соня
##голь
відвіда
перемоги
Дар
##щів
##ung
обласного
##рку
захист
парти
осі
##бивши
очи
Сту
слаб
##ong
конститу
##ath
російських
##ваються
спортс
віце
##тву
місцем
##тта
чим
##мими
язана
##сника
виста
##лої
Чо
##чене
джерела
річок
зобов
##глі
Греції
задово
заснував
королем
сиро
приду
##ire
Мета
системою
пом
громадя
чоловіка
Москви
випадках
нове
біл
Дани
Франція
півостро
##віз
##пет
##зьких
національну
перероб
інтен
Есто
стані
Бай
Co
Анатолій
експер
1900
##ah
##ницького
майдан
міжнародного
##ock
добу
167
лауре
пройшов
технології
тонн
Біблі
іншим
##ern
проті
криміна
султа
##нюється
масшта
##пова
##жне
##несення
##стика
спла
Північної
##тчизня
президентом
##тяг
короткому
рекомен
гірни
Рома
вдо
Стан
навчальних
Товарист
розташов
##вантаження
напрямки
##товані
##фан
166
##кладено
престо
стов
працювали
##доб
запропонував
##тє
ама
наст
##тивного
художника
житті
Союз
залишив
олімпій
##лере
Сент
залежить
##свя
всти
##ліття
Стар
##ult
зовсім
##кували
румунську
пта
Le
##тію
##альної
направ
Ірландії
гіта
##зована
дерева
140
Арген
приклад
Ro
фонду
мілі
відгу
потрап
##йні
кабі
##пах
робить
##менті
Влади
образ
автомобілів
філософії
спільноти
окремо
незна
пересе
рази
великим
начальника
##рай
життє
Intern
Кей
##ренні
ля
тривали
##ючого
цен
результати
деякий
кілометрів
Виступав
палац
РФ
взяли
конку
##ore
##ide
##ence
спрямо
##ный
##13
гравців
цвин
##тувала
факультету
Львова
173
##ванець
рекла
Кубок
ділянки
##анні
зам
##гам
риб
постанов
командування
Андже
Бей
українською
##джує
##нське
грамо
метод
прості
##воль
самим
##вері
Церква
##ных
##міт
здебільшого
##плав
##тино
семи
##нев
щіль
##рат
національний
напрям
Клі
##йна
роздріб
англ
Португа
клас
яни
незалежності
##йми
явилася
1916
впливом
пога
Жан
Бразилії
відносини
керівник
##нья
##рос
автори
##мало
листя
відіграв
Дослід
чемпіоном
Відкри
##жили
Заслу
вигляд
Євге
##рев
174
мовами
Фільм
##ев
розширення
##yn
допов
влітку
Апо
процесах
силу
заклад
##стота
мемо
магістра
цилінд
відкритий
##тарем
##мур
футбольний
##18
боях
##міль
Іллі
##16
німецький
корпус
ава
логі
Леоні
##баль
турнір
##lin
тен
Джона
грати
Сім
армій
впрова
##дний
говори
Смо
перегля
репре
євреїв
тіло
церкву
поруч
Кремен
##пуск
Олімпі
третій
Comp
дисци
##вока
Батько
такому
##тити
Кому
Pol
Похований
народних
сон
судно
колір
переїха
##шей
чисельності
досяга
активну
зареє
аген
форм
Нов
прила
Ура
##ivers
Пред
##лас
шкіль
##ict
мер
##ляція
короле
дисертацію
письменників
Моги
сезонів
технологій
##важливі
групу
##ерами
ріди
військові
##чать
заказ
Вихо
##номі
куди
розгор
швидкості
політичний
звільнення
##тк
наступних
використанням
##зидії
##гію
мінімальна
стріль
монети
##жджа
##хослова
святого
##АН
зра
##ереження
необхідно
Ната
##цей
гло
алгорит
депутат
бізнес
клубом
висотою
Всеукраїн
##ier
канад
квадра
##сток
століть
##тень
статей
##пін
традицій
вте
професора
##лових
ХІ
##рюється
висоті
##соль
##дцять
гравець
роману
Колу
дета
##гун
##тек
опис
поет
лежить
араб
утвори
##гне
фосфо
телека
розпоряд
Канади
практич
##провід
список
св
##кович
##ріння
беру
##бії
##чевид
Вільям
Інститут
##uc
##болі
##частіше
##альний
э
дого
нагороди
y
##17
##лейбу
мусуль
техніку
ілю
Першим
Різ
Болгарії
Китай
яні
супрово
Ex
##щем
зві
всій
##ros
##нату
##жем
інформацію
аналізу
електрон
матеріалу
ятка
Харківської
куле
укріп
впадає
латин
окрім
подру
газо
##грації
площею
172
аналогі
повідомлення
1911
##ack
залишився
письменника
##будів
##довго
##кладав
літаків
##нина
перебування
Великій
американського
##дового
Істори
##стим
##ics
Сло
ареш
попере
втор
157
Бюро
кораблів
опер
еска
зоні
прина
автором
Вей
##буває
відноситься
Китаю
##лес
слів
виявлені
##онами
керував
##14
німецько
ісла
структури
останніх
Хре
спроб
парламент
царя
##кол
##зерка
Тере
##шина
сор
живе
сні
баро
смерть
168
##росій
нічого
фіна
сфері
Інші
Вал
Тай
##шку
##кедо
зби
татар
Американ
Рима
##спон
побудований
Донецької
встановлення
##ons
подвій
Відповідно
1907
Незабаром
##ходило
напо
учи
Америці
800
вертика
НАН
Спе
Rec
геро
дер
матеріали
книзі
мужність
розташування
##щенні
нафто
крові
родина
##форд
ресурсів
неподалік
Динаміка
Азербайджа
Go
роздільною
специ
Мала
##коване
##ненні
##тіс
##жене
##рим
обл
вказа
чут
##фрикан
змушений
ідеї
знак
енерге
##ver
Кен
громада
##бід
##лець
намагався
факульте
##лана
##зантій
Найкра
##візій
##ann
Чорного
голосів
159
промі
##рур
вісім
##ментами
піз
Ек
кінець
претен
155
окупації
кіне
##комо
мові
##ваку
##ina
остаточно
##фей
мото
##мма
##лега
Вільгель
бас
інтенсив
##теро
гімназії
здійснив
водосхови
##ктами
кінце
народного
МВт
##мба
перекона
##рував
наси
запобі
морських
курс
полк
незважаючи
бік
серце
##льність
процесів
##шер
##різа
Україну
Карла
##РС
>
Західної
##весні
набагато
##вістю
литов
125
адміністрації
##жер
незалежність
##синг
смт
посу
корабля
існують
##стин
##цтва
мир
руд
митрополи
живу
сказа
національних
##ючим
язаний
вздовж
залежності
##шій
підвод
##жий
##нон
національному
творчі
називали
народної
163
##зад
посила
театрі
лікарні
чисельність
власне
батальйону
Херсо
сотні
##ett
поря
важко
джерел
Ну
ООН
World
##ron
##змі
музеї
криста
половини
прийнято
мора
##yc
##тими
пісню
триває
науковий
##зю
нафти
##зькі
основу
##тили
##реа
##ттям
воєн
серій
##жності
відомого
##КО
Найбільш
##чір
Аф
врах
випро
апо
Френ
будинків
##УН
##ліні
церемо
командува
##спонден
105
хоро
1908
злочин
заснування
Леніна
португаль
169
Німеччина
розстрі
язування
основи
заходів
Ря
Щоб
Патрі
наявність
Одно
найпо
зайняв
збуд
художній
гроші
##тною
погли
дружиною
дію
паль
##чали
розв
наща
фоль
забар
##мпа
##лими
Фрідрі
##порту
військову
уяв
зміц
народилася
художників
кола
відповідь
ван
чіт
##sh
Волинської
монар
страх
бл
наро
опи
Мель
тепло
загалом
War
копа
##правді
зане
глядачів
Сол
##кону
Гей
Хе
##їни
підпорядковані
##віс
##кті
##галу
географічними
виготовлення
##нською
Єли
##фера
Сві
##споли
Брав
відсу
секу
загинули
кораблі
всередині
Лос
##ick
корпора
162
la
вступи
##pt
виступив
Луган
##кід
Дю
хреб
##сити
котрий
##нізації
##снов
споруди
##єра
##цькій
##ект
сином
##станції
товариство
заступником
Бон
Вже
##per
##вард
нія
##нічної
Миколайович
##товий
##жать
озброєння
генерала
варіант
##леним
держава
стро
##сав
Мей
ризи
Демо
##дому
внесок
тіс
запису
відсутність
##che
змагань
знамени
фай
Re
пір
повнова
межами
Полтавської
Тран
французький
Фінлян
##тип
подальшому
Ля
колгосп
температури
сама
##ваторії
##ує
комуністи
жорст
Сін
##шан
котрі
тю
середньої
##дміра
шкіл
перегово
Бел
Дніпра
містом
українські
захоплення
Col
##правління
Сева
перер
динамі
##проте
бюдже
версією
##зовано
##джується
басейну
ща
ключ
самі
al
місяці
відрізняється
##сяться
##лили
танцю
переважа
тролейбу
##плення
середньому
VII
європейських
руки
дорівнює
трима
причому
течії
##нським
восьми
підсум
##ефі
Нині
тропі
вкри
Бой
покра
Юго
Кири
вважає
html
##тря
обидва
##леної
гніз
156
##ківський
металур
бара
ланд
##кува
кожному
So
раун
прояв
номер
##МІ
яна
туре
оголосив
проживало
##ite
перетвори
позначення
рослини
надання
##ПС
##les
##пії
селищ
воду
традиції
##ru
Василя
студент
Дан
цілком
міф
усього
##тем
Зи
порівнянні
фантасти
відзначився
цито
##бла
x
середню
Куль
ль
непри
безліч
##сною
##цтво
##рання
церкві
рідко
конференції
альтернативний
##лоні
##лізації
Ката
перешко
##декс
руха
сільських
##ціо
містять
Львівського
металів
##дін
великою
##няє
виникла
зітк
політичної
хвороби
інтелек
статисти
##act
Be
ІІІ
##леті
гвардій
перспе
командуванням
відокре
##чками
##orm
Робо
зворо
Густота
речовини
закордонних
наказом
боротьбі
редактор
сиг
противника
прі
украї
мембрані
##ліо
Існує
намагається
Сю
зустрічаються
##ят
брала
##кує
туне
роками
серія
солдат
керу
результат
порож
технічних
завідувач
виключно
##тримання
Вихованець
працівників
землю
ам
черго
медаль
##кза
##тіна
користь
населений
адже
Терито
Церкви
проводиться
вищої
кордон
обгово
Стрі
вису
сплай
##тером
присвоєно
−
##лик
##водом
##рьома
##чивши
діалек
дівча
доктора
##one
назад
озеро
##няється
##ніверса
зрозумі
назвав
гене
яток
картини
знання
районного
##овича
складе
Пау
Тараса
Північній
##шують
Супер
нарах
Була
Посполи
##зку
##так
##мара
дові
єпископ
дивізія
Францу
роздрібна
медалі
налічува
погоди
околиці
Само
Донба
молодіжної
проектом
заводі
##ski
##фікація
опти
Вен
сло
промислові
фу
Car
постра
печ
Всесвіт
кошти
галере
наукової
продовжив
Останні
##мову
Гла
ВМ
керівництво
символ
німецького
##пол
Бах
аби
Вулиця
причин
##ail
Український
Значення
pp
протилеж
неодноразово
##била
обира
##ляла
пери
поєдинку
кві
порід
##ковський
##тик
дорослому
настільки
прися
спадко
##відно
##yst
##слови
верхній
Київський
визначається
##лакти
##нень
вулка
збага
поєдну
нена
##фт
загальної
##ows
зне
одружився
посад
розповідає
молодих
##шинг
##ведені
Vol
співав
Кос
##торами
##ase
трьома
співпра
Mus
перебуває
##мера
протистоя
115
##джені
##oh
##рештою
Альбер
родовища
He
##хова
відмовився
##шова
##BC
введення
вода
проф
визнання
захворювання
атом
суході
природних
##пав
представлені
битви
##дап
##діан
нер
Рад
підста
##ляга
##їжджа
Ярослав
<
Лондоні
шпи
##дують
лав
##кві
##дену
##рак
##еріг
Par
##спода
ген
фізики
бал
існувала
##жан
пли
графа
дати
##тал
Кубку
приму
входили
торгове
Васильович
Э
займається
зйо
документів
ar
1909
будіве
Поче
##land
Вважа
##ліза
зруйно
Жо
##ччі
князь
##ано
популярність
центральній
##ефіцієн
##циклопе
Стату
CD
##ченим
##миш
##лісти
##зованих
##ара
Маль
##чій
течією
еваку
тисячі
##лінг
Африки
##АЗ
##шенням
Ліги
##гон
їхні
XIV
##тивної
Рівнен
##поверх
Авгу
Музей
агент
розмір
силами
запов
застосовується
поліп
студій
екологі
винищува
##овуючи
взагалі
НК
породи
властивості
##діб
почалася
зустрічі
журналіст
зареєстро
Водночас
фортеці
закладів
##дцяти
ден
Леон
текст
Олег
##увались
Букови
Тем
Президії
драма
онов
##ціал
##ковського
Сіті
##турою
заміж
артил
##шенко
суходіл
##гих
вся
дору
пропаган
порівняно
ніби
вірмен
Богороди
заці
Севасто
Міністрів
низку
##іди
700
##sp
сверд
кордону
Каль
мисли
трам
152
єкти
здобула
аспі
зару
##дати
водою
єпархії
Північно
лісо
соба
річчя
Стів
патріар
речовин
сплайсинг
##джена
болгар
властиво
побудована
пагор
міністер
Місце
бата
втратив
вибір
##томість
Wind
нако
##рського
призвело
ліцен
оподатковані
економічних
резиден
краєзнав
перетворення
любов
спога
випуску
вока
фронт
наукового
єдиним
##ny
косте
Поло
Ство
продуктів
Univers
Ах
більшу
підприємство
суттє
спеціально
##нко
дворя
ред
психі
##ведена
##нета
боже
складає
Край
надзвичайно
##тингу
Мона
Тернопільської
Tim
тему
##структу
##пити
##ata
зміша
##ленко
шлюб
Пол
##ной
Президент
жорсто
угру
собор
клуби
Імпера
ДНК
галь
землях
##сін
колгоспу
архієписко
##пан
##силля
##ційну
поліції
Хол
діаметром
створені
золота
вважав
Далі
Головний
серйоз
##ткування
ОУН
виправ
##дьми
зупини
найближ
##шня
##шть
хрест
різнови
тиску
взявши
договір
острови
##кину
подоро
матери
##ччині
функцією
класів
Східної
розслід
Cl
##шила
таке
повертається
стиль
##пень
шар
герцог
##ubl
##нічна
##подібні
сухо
хан
години
##пуль
океану
##яна
посі
стратегі
власності
##далі
##нюють
дека
##лялися
Розташоване
##зель
Sch
##тично
вислов
отру
##хто
##відом
власні
іншої
трі
Московського
Ері
зверта
дель
Тю
беруть
продуктив
##лізму
Норвегії
серіалу
##сків
158
веб
Сей
##тягну
еміг
##АР
Заслужений
##ствен
еволю
##ХЛ
сказав
Вест
##ске
соціальних
конструкції
обстрі
##ленню
НАТО
Русі
##цьким
ступе
Лео
успіху
селяни
Швейцарії
послуг
Річа
ворота
оформ
союзу
Вашинг
собору
Державної
1904
Литов
аспіран
така
успіх
##нівна
Павла
обійма
мете
ліквіда
##iev
масив
сформо
російською
дю
етапі
делега
стилю
Польща
##кцією
##ФСР
##ював
загін
множи
розби
розва
засновано
воя
фірми
шири
фолькло
участю
подорож
авіації
темно
методів
ефі
зла
Record
групою
##мперед
каль
Роберт
конкурсу
Миха
##ої
Ad
змаганнях
інфра
пова
голос
фраг
запрова
рецеп
##СТ
##гей
грою
спец
помешкань
командира
гон
##тері
христия
Ірану
надає
познайоми
##лився
групі
Йорку
Осман
##літу
могла
вжива
охоро
нижній
парламенту
зазнав
винятком
покинув
запропо
##водить
##увало
##жка
Афі
сви
фіналу
Шотландії
Югосла
Дей
майбутнього
власну
##ax
##луб
покла
споруд
училища
найкращим
Римської
конкурен
епохи
Починаючи
потужність
##веден
вираз
##ix
сингл
Центральної
кано
аналіз
Кавка
культура
протікає
книгу
Тех
першості
диску
Григорій
Луга
##amp
каналу
світла
знаходився
##дять
ранні
морі
найважливі
потребу
##стила
гвин
ставши
##нта
at
##валась
Кірово
солі
значну
##кевич
Список
випроміню
##AS
Ніко
уваги
##бру
Музи
ціліс
РС
Лише
##жки
кера
численних
гир
##шків
Македо
опози
твір
мережа
літак
висота
крила
зоря
##їть
воді
почалося
Дебю
роком
такої
басейн
очок
хірур
кожної
Розташований
захистив
думки
##пуляр
надій
росія
активі
##електро
тренера
дипломатич
зосеред
відбулися
Емі
Євген
##тран
Тимо
РР
територіальної
Ленінград
##стові
##уд
ае
музику
коротко
##брати
##перерв
×
Каро
оборон
консульта
актри
всієї
розрахун
Чехослова
##уна
живуть
жили
##ментах
Китаї
імперія
by
Нев
компаній
Чорно
Верхня
база
##нии
##ністів
Білок
виявлено
##мика
Анна
##леними
виріш
Останній
заходи
##льов
комуніка
наступному
розігра
єрі
клієн
Герб
##опера
##old
мит
##ваної
##дання
цією
виконує
##edia
Мюн
профі
реалізації
Колумбі
функцій
найвідомі
керування
експеримента
Покрови
Навчався
ятки
загального
телевізій
вжи
##жіння
колоні
Te
призводить
львів
##ювання
Дво
##ливий
спроби
спостереження
##нда
##везе
відставку
виникнення
##нків
##ходячи
Вірме
##люд
виконував
##поло
Міся
Wh
індій
Учасник
боротьбу
кореспонден
Римі
прапор
місцеві
вірші
##цьке
дороги
проку
літака
##тичну
##чував
##брі
Вор
відомим
лока
Народи
##au
туру
тури
##lay
##стром
представи
місяць
бакт
продовжував
##бек
ліси
довелося
пише
метра
зумів
межує
пряму
Михайлович
повіль
закінчила
##ные
##сни
##женого
##КС
друку
падіння
наступний
програма
##ївка
Con
Mic
##orn
##вія
УЄ
стіни
перш
інтерв
##son
третього
Ау
##тири
співвідно
##тана
проектів
відмі
##тивна
банк
1902
виса
Заліз
манд
завдань
##неті
УЄФА
##лявся
##страції
ансамб
смі
французького
спов
##int
##фести
замо
##річна
Уз
##станція
из
Каза
##ors
вийшли
##дією
реформи
##чувати
полон
водойми
##сей
бюро
##зьким
жодного
Ков
##рівка
Футбо
чвер
##сомо
фонд
##топ
метри
печі
##ліка
Дів
Рідною
ово
одразу
##etr
Бро
1903
здатність
автономної
представлена
Фео
Велико
##здат
Іно
обробки
Прин
склав
##iew
вилу
дерево
авіаком
переписна
1897
крим
Наразі
Станіслав
автора
Канаді
броне
##рна
гіпоте
##службов
заду
типів
##мира
International
new
##стили
кладовищі
145
присутні
Португалії
##знавець
стабіль
Лен
Мері
гірських
##зив
##споді
##леї
плей
язаних
154
##люються
ЗМІ
Засно
##ел
інформація
Лор
адап
##протеїнів
##строю
Press
Оби
рестав
хвилині
Sc
Дані
##рієм
метале
рослина
##гіль
##ii
закону
##нину
гумані
Біля
Стен
волі
свердлови
спеціальних
Харківського
моли
судна
аеропорт
банку
Or
##льська
вести
##тику
режиму
механіз
Бога
залишилися
українську
інфе
##графія
аматор
##губ
неру
райони
дорі
скан
велике
##ogra
герб
функціями
Гур
прийшов
гаря
капли
клану
опублікував
зал
Речі
бізне
появи
##белі
перекри
Індо
УПА
візи
вело
кампанії
##ційне
мід
мірою
81
##чука
північній
матір
колись
проведеного
невеликі
прибув
князівства
##unt
##тована
Вид
випадків
##плом
закріп
спадщини
природного
##бував
Наступного
##чала
ігри
здійснює
Зазвичай
sp
##нік
##yl
##вропей
ch
Ама
взаємодії
##зуються
первин
приско
затоки
недостат
збірна
єтна
прогре
похи
прийняття
специфі
Спа
Добро
відстань
уник
сприйня
утворюють
Мака
заходу
##они
стороні
##жок
померла
перевагу
Хан
канал
##освіт
Склад
заміни
Ed
ліквідо
##хія
зрі
Чорномор
Прав
Представ
##шев
ауди
узбережжі
##щенко
##лізм
##никах
універса
Зараз
##хен
приді
Windows
композитор
##пто
пусте
збереглися
VIII
супротив
##ванню
##терів
соці
##чика
відносяться
обслуговування
Іль
РРФСР
вигна
треба
##тують
своєрід
##скар
##жної
втру
Ала
Спів
Систе
Отрима
##літа
електроенер
легі
Такі
Латві
мусульман
обу
1890
102
територій
зусилля
дан
Алба
дири
економічного
##ливість
91
тексту
курси
71
зага
##ою
відсо
карбо
справу
взяти
##ka
адвока
обрано
149
##стої
картин
Управління
##деся
верхів
медіа
##ційним
двигун
##рації
являються
наказ
Дрого
виснов
##чність
ситуації
ЄС
Архі
політику
польського
Берез
вож
республікан
##чими
займатися
газета
зберігання
##кров
Одеської
Екс
##ально
##мових
хоче
##паки
Мадрида
Діа
ес
День
##зимку
Сполучених
135
американських
козаків
стате
пасажир
Кабі
характеру
спу
дозволило
сьо
підоз
представник
##тед
угоди
Походив
Eur
Герой
обчис
проводить
##льфа
поета
двигуна
лейтенант
##ВК
довгий
ордена
##зеф
##маном
зберіг
південній
Чика
військовій
##нома
язи
##тланд
відмов
##сня
румуни
керівником
Одним
засоби
спілки
##логічний
Російська
109
##альна
проходили
##унд
107
##сена
випущений
Дія
Бельгії
##ґрун
##ляри
блаки
обличчя
побачити
##пати
визначає
областей
будівля
##шті
кінофести
знищення
достатньо
Man
дивізіону
ландша
вкра
##проду
людьми
африкан
причиною
матчу
молодший
кожна
хвилі
одержа
проходять
професі
кордоном
достав
священ
виникає
капітан
##ані
##єві
стоїть
регіонів
містечку
##джо
ков
Пові
вибори
вогне
характеристи
здіб
##пами
тяж
королівства
дорога
##нак
сад
камен
##бові
рельє
названий
You
Чернігівської
##дував
##новича
відхи
Другий
належали
переписній
•
середнього
et
сигна
Народний
коефіцієн
композиції
##заве
маючи
поселень
представлений
братів
значні
меморіаль
##ерах
##мером
історик
основою
##фар
##ction
дизайн
дочка
##рея
##льності
зниження
кінемато
речі
викладав
##тиме
##гада
Харкові
Ind
##нівського
##ram
##риф
експедиції
Андрія
структура
код
Сьогодні
Завер
Литви
оповідання
Ser
Кіровоград
1886
камер
далеко
Горо
Крісті
##огонь
сюр
##нками
##сові
Червоного
сполучення
засіда
##ос
КПРС
свідчить
професором
виступів
##жає
подія
розлу
цукро
відділ
другим
лівому
Комітету
1901
власний
##000
##are
усклад
грає
##kra
демонстру
##uss
##ченої
##вану
принцип
##горо
боє
непов
побу
футбол
La
##тської
асоціації
очевид
Св
благодій
##ціан
##тово
мозку
похований
XIII
Джеймс
підкре
вислови
найбільше
рівно
польський
поран
успад
туристи
Асоціа
Африці
планети
презен
##обра
фосфопротеїнів
фін
дале
##чували
розміром
Карпат
візантій
реоргані
153
Чемпіонат
##сбур
##тати
миру
чорно
##разовий
##шти
оборо
діагно
виконувати
112
створює
##мета
pro
довжини
##лового
##oll
вві
##блу
##дзі
##жила
стадії
##гова
Імп
1880
єги
язниці
##йський
синів
гаран
розміру
Британія
веду
Records
##чці
поміщи
##гляд
тривалі
Слід
палацу
будинки
полковник
урядом
Коза
справах
##лег
слуха
власних
володар
##att
часі
карти
катастро
національній
##тав
викра
спожива
машино
##будування
US
Австро
господа
##ward
досягає
загибли
Богородиці
зростає
швей
Укр
становлять
хлі
Ac
міно
ФК
##рюва
##ливих
##вались
Філа
##ПУ
армію
міністром
Доктор
високий
відбуваються
Франк
літературі
науковці
##ловий
загальною
справа
Gro
##ґу
півфі
Така
волос
##краи
##ктивні
диферен
##шенню
Джер
##руса
доросли
найчастіше
усу
говорить
Олександрович
замовлення
##пря
##джував
вхід
холо
ємом
англійською
Два
телебачення
Марка
прову
##івер
десять
##пізна
історико
##рет
щоден
позицію
##слан
Лев
наукові
Еду
##ристокра
автомобіля
солдатів
##жих
##мування
##ember
цілі
##any
захопили
##таман
##na
Цю
топо
існували
##пела
яйце
відокрем
Стру
Hist
Лука
героя
##нного
1898
плані
вантажів
##чник
сна
Гала
Гам
розмов
простору
Кем
Гаррі
Джей
буль
флот
Франка
вартість
прізвище
складають
сестра
заро
селя
останнім
стосунки
авторів
Міжнародного
насправді
##року
Юрія
Використ
Миро
проведено
вулиць
їхніх
Кількість
діль
Середзем
##ману
нерухо
вирішили
забарвлення
діяльністю
Галичини
іноземних
Вов
106
одяг
загальноосвіт
##ican
аспе
прине
правому
перека
містечка
Південній
фестивалю
Хмельницького
##ода
Бара
трап
##кладений
навчальний
##гда
Кле
заклика
тиждень
Фар
математики
вважати
старшого
Санта
##пущення
блок
чимало
##ґо
Гміна
займав
ґрунту
видань
поезії
тепері
##льському
джа
теорія
Єлизаве
зменшення
##лове
Кай
Данії
##менко
хорва
таку
соціально
##ріт
##лягає
голи
Pl
лісах
увійшла
Православ
Сергія
##ссо
Повер
зібрав
договору
##лья
Друга
органи
політик
Gr
краще
чемпіонів
##спорт
спадкоєм
##ченню
##АП
пройшли
##сець
геологі
людиною
##co
##сіїв
Грузії
кава
креди
##тива
соціалісти
Мати
матеріал
##спи
Будинок
##воло
стають
бомбарди
донька
ВКП
вчитель
другу
телес
##дим
яко
створили
політичного
##стора
процеду
##nal
спричи
##тової
гармати
інша
дворі
експлуатації
Бос
##ненням
каналі
основного
скасо
1899
128
поширений
програмі
##фіку
грошей
тюр
Розташована
відомості
##ook
пацієн
ірланд
довжину
додому
відкрита
1885
батьки
##дір
Парк
сільське
en
##борів
виходив
включають
документи
побудовано
##ДР
забивши
Італія
Книга
350
Уж
безко
Дрогоби
##європей
##ровий
рекорд
##подібних
результатом
##iet
продовження
сувере
двоє
Антоні
##ood
122
зберігається
залишки
##ton
##зькій
результатів
висоти
вирішує
морського
Закон
ініціативи
##бки
##ччина
льодови
одиниць
147
агро
янець
аристокра
повернутися
Дире
Gu
##фери
Пет
вокза
Ел
##логу
інтернет
XII
Amer
політичні
Чере
збудовано
коштів
##шне
Іго
переїхала
дворів
Me
##iel
Марк
спек
комуні
Єди
політех
впродовж
найкращий
робітників
##низ
французької
##стими
##олог
радянського
104
Віл
грош
помил
справі
виховання
Державного
103
##тинг
##увалась
зробили
прикордон
Рен
мешкали
обмеження
Франс
##уз
вищих
##джень
дзві
сексу
допоміг
люби
новому
##совно
Вілья
живопису
співпраці
##чам
накопи
використовуючи
Ліс
самому
##чан
сцені
143
##шем
дя
таки
##ківської
американська
інше
Кня
жити
великими
архітектор
##уса
ап
##oy
##друге
інспе
стрічки
оголошено
##жуються
##ливості
##ском
Джек
персонажів
підсумками
відрізняються
братом
##хам
рис
відкрив
технічного
##джують
Естонії
таблиці
он
вважали
Петербурзі
##нівці
Ім
##шель
1895
кван
Нагород
режим
##тиків
класі
засе
інтелекту
##OS
факт
прока
зафі
Олімпіа
##циклопеди
діють
невдовзі
завершенні
освя
адміра
##повіді
##лину
##вален
##водиться
інвести
Іоан
Одесі
Керівний
штаті
польських
##ллер
теми
вирощ
Дуб
вчений
натура
насамперед
позбав
сукуп
##нині
##пала
створенні
вов
тексти
вторгнення
робля
фронті
Париж
##ai
Зоря
простір
наш
обіця
музичних
виступати
каз
##oph
кров
пасажирів
мону
вирішення
вибух
утворена
##бода
##стає
футбольної
проє
надано
##цько
Компанія
1896
Профе
іншому
герой
Катерино
змогли
невеликих
Is
th
##торія
##ньє
##бували
палива
Мало
майбу
алю
Под
Спілки
конгре
секретарем
спеціальністю
Норман
монастирі
##дона
намі
тере
##стини
лісів
##дена
випробування
##ym
Гера
Сонця
Священ
Met
суверені
##ile
тест
запере
процеси
##AR
Тетя
міська
кален
бух
Франци
##нців
прова
Петрович
##пій
##феро
ефект
заслуги
способом
##РА
Спарта
частіше
Каліфорнія
правила
функціональ
##їна
робити
##іду
мобіль
глоба
причини
джерело
##рався
Одночасно
##ark
історичного
##колу
експлуатацію
схожі
##uth
Посполитої
Хай
огляду
звідки
##зити
австра
вказує
At
гора
рап
##дила
124
хоч
Mot
угоду
розміщ
громадський
згадка
##хімі
підго
Михайлів
Кот
##хвали
водя
підсумку
закрі
Теле
##жним
Жур
##легли
містечко
архітектора
##туро
певних
належав
уклав
##жець
сприйма
нагороду
##рівна
єпископа
##oft
Обо
вивчав
перебували
Риму
опір
організацію
##ler
тренерського
##ціонер
долині
комітет
весі
трибу
щорічно
фільмах
оч
проспе
##pr
Депута
польської
Пенсиль
##щиною
фаса
нарко
продовжує
сержа
ідей
##нно
Гіт
Програ
##рної
захисник
##тифіка
взаєм
несподі
земе
##нав
гарні
тенден
дому
невеликий
##тьє
матри
доволі
володарем
##ківська
факультеті
##кінчен
напис
оцінки
Едуар
жертв
гвардії
##ition
жінка
входив
##ніші
138
медицини
особливості
Зали
зало
соціальної
підставі
Замок
битва
польоту
сфери
##льник
Республіка
Нар
вапня
закінчи
транскрип
запропоно
137
117
професійну
Указом
Гір
іденти
загальна
будучи
ed
конкурсі
гіпер
голову
формою
господарств
Гель
контр
ландшаф
розташовано
юні
режимі
##te
українській
##чності
For
громадських
Gam
##rad
##щується
##зин
127
принце
рівняння
##дама
півзахисник
##рад
ближ
##рним
конфлікт
139
##зованої
потреб
виборців
нападник
норве
Віді
##лар
##їст
Північна
##шніх
##мани
відтво
здійснення
виробів
розчи
Володимирович
##дож
##торі
Нової
моделей
Сергі
автомобілі
##кали
##додні
##ноко
грані
ясо
єкта
протя
перетина
дозволяють
Кли
редактором
##ченка
##its
##ous
##ворі
##ogle
росту
##сіон
вито
колонії
кВт
Дере
Юнай
племен
Cor
вихов
Покровитель
герцога
значний
депутатами
інва
Полтав
роботою
##ґі
##ванія
боїв
##сіс
##ційному
Частина
знайдено
##новий
звільнений
сходи
народний
півострова
##ньї
економічної
Дніпропетров
##aj
залізниця
назем
кваліфіка
радянські
##нової
Боро
річний
німецькі
переймен
##польського
##щою
бук
##нор
Бє
Олена
політ
##ze
складався
призначено
цілей
чинов
знайдені
виграла
розроблений
вогонь
рішень
самостійно
Tr
кло
слави
англійської
Єгипту
вдоскона
##ляться
лицар
місцевої
пропонує
##erc
лідер
Юнайтед
інтерес
переворо
застосовують
##мед
##метр
Люд
охорон
https
Кореї
##вні
##новський
названо
надру
голланд
короткий
118
978
доміну
Константино
володіє
власного
цвинтарі
##зьку
сторо
бажання
підніма
Фінляндії
##ale
##ченими
музика
##ere
108
Ісу
Поши
різко
##ктивних
##ope
##own
знань
привернув
144
Пале
114
виму
Держа
робітни
багатьма
фахівців
єднує
начальником
Ур
сталі
##тичне
префе
Нідерландів
##щій
##лятися
карто
зірок
офіцерів
резо
##дану
змінив
Міжнародний
неба
нападу
пру
Stud
Часто
##ology
Йоган
##кладені
звичайно
##дрів
##тиву
##стера
знахід
##няються
білків
збірки
збільши
медичних
провідних
123
руках
пошире
провести
підруч
##ейза
##ографії
районної
##гається
##женим
домі
гастро
чорного
переклад
##муля
##спор
знаходить
##ash
Гві
найстарі
відвідува
вчених
природо
##мене
думка
котра
офіцер
створи
партиза
лісу
Особливо
постражда
Дружина
забезпечують
залишався
Нові
поширю
минулому
керамі
##сма
ери
вимагає
York
запози
пошуку
просторі
переходу
фла
Open
забезпечити
##торин
Близько
##міся
фаши
муніципа
All
нагадує
лабораторії
розум
радянська
Одеса
нацист
##фре
119
отримують
##AT
##бні
уза
небу
ph
заказник
аеропорту
##шно
силою
Максима
Квіт
обмін
складалася
##сними
грив
змогу
Qu
проводяться
поо
Кора
##кони
##ations
очолює
міжнародний
інфраструкту
Тихо
історичний
Коле
колишніх
Бала
типи
##мовірно
Розроб
передбачає
яч
КПУ
знятий
Чі
##стоє
148
серб
переходить
##ans
вдається
##щують
суден
брази
автомати
##щених
машина
порядок
безкоштов
##летів
##AN
основний
##колі
Шан
піща
Ольга
деякими
чагар
113
утворює
поширені
дивізіоні
Південного
найбільший
And
Мав
Мешка
спричини
##ляючи
сами
міських
статусу
потужності
##yp
цикл
побут
емо
ца
ссав
##леному
помешкання
Яна
валю
##лювала
##тичному
Проект
спеціалісти
дотриму
##льова
Зустрі
приводу
Ев
##лерів
інтерпре
Вважається
термо
морської
##ельд
патріо
##рювань
##товому
Героя
правах
починають
##заї
IX
##ніку
виявився
перейшла
##вишки
входило
##метрі
Ірані
батьком
University
ВПС
бої
талан
пато
вільного
##пір
##тська
гармо
курсу
їзд
холод
льотчи
шотланд
їхнього
Сток
короб
тієї
залізнична
необхідність
озер
хворих
##американ
Західного
УГ
Фред
##ологія
міститься
передмі
Закарпат
охоло
##rit
##фаль
західних
схва
доводи
примір
##лли
часо
##ницька
тижнів
Чехії
Лондон
##прі
Лауре
засто
літ
мети
займають
pr
##мату
кожній
терміна
##граді
призер
реакції
показує
мело
##пустити
##кладення
Державний
##лією
Буда
##тичним
Закарпа
##сності
нейтра
Se
стадіон
##нс
##дес
Збір
певний
написана
білі
спостерігається
заввишки
прийнятий
1870
Єруса
споді
музичний
виїз
більша
ане
##нкою
Дві
учасники
##льда
хокей
номером
одино
##ert
##oz
космо
знайшов
функція
Територія
фестивалі
1500
яний
116
членами
##ien
##тиною
колекції
##чало
San
самої
##тованих
Бір
бру
офіційний
посту
чоловіки
бомбардува
індіан
стор
майстрів
##дих
##дям
довід
нарешті
Джордж
Результа
Казахстану
Глу
##село
рин
білий
лінію
опери
Віталій
##змом
невід
країна
танків
le
Внаслідок
різноманітні
Тей
##цькою
##юк
крово
гміни
прапо
твору
майбутньому
сторіччя
загону
Іноді
Нікола
єднані
вимірювання
керівництва
літніх
##союз
розпо
доступу
визначити
вірність
##дво
Сумської
мані
літаки
Sk
##лума
##ріїв
##ідко
##ux
яних
подола
промисловість
командиром
Маріу
Яр
австралій
встиг
##ius
Кол
попов
Характ
Чай
мандрів
заборони
Вай
Лав
##ань
##тто
##фізи
островах
Літера
почуття
Трен
відклада
політика
героїв
опу
бун
##ційною
Електро
НБ
орденами
Сільській
восени
потреби
іму
Христи
ТОВ
Пісня
Подо
##uk
Тав
Валерій
повернути
відпочинку
насо
прив
##ландія
смуги
Максим
батальйон
енерго
знайшли
Хмельницької
дух
##охорон
их
##пія
кома
##шир
Міжнародної
Анти
товарів
##сній
#
##ванге
Віктора
відношення
різноманітних
Gen
повний
Перемиш
Зб
Сті
імпері
Богдан
##зда
лібера
##гати
Щорічний
ділянці
перевір
Національна
перебувають
електроенергії
Імператор
хотів
лейб
##ystem
існував
Ge
зміну
належала
описує
Європейського
іншу
##дженням
Дуна
законів
посіб
Кожен
тиск
режисером
древ
степ
атаки
цитопла
##ливо
зая
##чалися
Волині
шляхів
атмосфер
Київському
129
##тувався
##por
##зір
бойови
допомогти
установки
##гання
угрупо
Вінницької
My
друкар
Прі
##держав
законом
газеті
1894
##вісти
боги
##ign
##pl
##вой
Демокра
фортепі
підготовку
Росси
##люк
куро
трон
верто
практиці
бойові
рідше
випромінювання
зброю
прояви
поховання
Куба
Канди
охоплює
##повідь
німців
педагог
критиків
майданчи
##нівська
фізико
золото
захопив
Товариства
металургій
Відіграв
відсутні
Чарль
певні
проник
схилах
резерву
Сай
складаються
Своєю
Христа
творчість
проро
1892
справед
боротьба
##тоді
кубку
швейцар
Костянтин
ядрі
дослідників
Клуж
##цеві
зао
берега
осеред
представляє
полю
низки
засновників
Києво
Ізраїлю
##рює
серію
обумов
Gre
перві
переві
клітини
неста
дорозі
посеред
Сід
арт
циклу
Югославії
Адам
##хт
We
146
племін
простя
##атр
Тол
134
акту
##їла
##ватись
хімії
прикри
модерні
##гау
поступа
##ліа
швидше
пункту
героїзм
##нила
Перу
обидві
психологі
зуб
Касти
нерів
виявляється
Шер
##ходом
бака
продажу
побудови
##Се
фільми
##зувати
державою
Юр
Восени
навпаки
кандидатів
відсутності
рук
нерв
виступала
чар
темати
майор
##яд
сприяння
##ank
Кир
отримавши
Соціалісти
встановлені
зберігаються
сходу
заклада
залежно
свідчать
##ренко
насиль
Депутат
медаллю
##чут
Софі
фізі
щось
заряд
136
Марга
Вірменії
Відомо
депутатом
##дора
132
особ
##кретарі
##ненко
боків
бригада
##брали
погір
препарату
##ену
відродження
руди
Відстань
Сез
тай
ліви
##тиці
Леонід
середньо
##фільм
тимчасово
Попри
Тепер
коопера
##IS
стаття
елемент
тварини
Пенсильванія
харчування
Московської
Mag
Геть
могу
##лювався
##різняють
потрапляє
імена
Туреччини
високу
142
надав
##нус
Bla
Тільки
сільській
допомі
тені
перевезення
##лад
##eral
дозві
спеціальні
##хта
вимоги
викладач
ступенів
##нях
ВМС
структуру
Fo
Люк
праг
##жої
переможцем
вийти
тлі
експози
##ківському
конфе
турбі
припущення
##таж
краси
важливим
перевищує
##біж
агра
##леною
областях
ринок
гр
джерелом
##сподарських
царства
проживає
бель
етап
Чернівець
Південна
##дені
коалі
незалежно
##зацією
Інституті
нашої
богослов
західному
Народилася
##чю
Іса
потя
герба
зазнали
удостоє
приміщенні
заняття
перейшли
менеджери
соціального
дорослих
Чикаго
Військово
гармат
поділ
##надцять
Цар
##річчя
Пото
підтримує
##бря
El
ліри
стосовно
##нівський
головну
розміри
нащад
оренди
##цві
набір
оберта
Степан
черепа
##ott
Lin
уль
виявлення
змінюється
##гана
забруд
отримало
ЮН
##лайн
##тарних
завершив
1893
уби
Девід
природно
Пресвя
дро
контек
##муть
транспор
наявності
##ваю
плани
кіноте
навантаження
Поста
ведення
gov
глу
##skie
обіймав
антропо
лідерів
Конгре
Сербії
збо
середовищі
Пері
Наполе
існувало
##няти
пейза
релігії
поверхню
кандидата
третє
##зованого
згада
##нувати
публіци
витрати
##чею
діячів
консерва
##ДІ
Гли
##часті
заступника
##града
бай
Саль
аніма
розвідки
On
армією
точка
##берта
1860
##жувати
засід
допомагає
Ск
Ростов
##йона
ворога
розпаду
Білорусь
поворо
##еля
Воз
1889
забу
небудь
попереднього
збу
дисциплі
феода
ракети
Ус
акції
користу
##сторо
доброволь
СН
##мобіль
підси
віршів
друзів
вбивства
медичного
##нять
стадіоні
наступа
інструментів
Окре
парафія
##зор
##мас
станцію
Карло
правда
чемпіонатів
##ome
становище
Квін
частинах
Термін
установи
серіалі
Петербург
##ES
##ции
епід
минулого
Коно
верхов
стане
програмування
приватних
##бія
Широ
саду
підтрим
##ій
Держ
полювання
##демі
оболо
Трі
винахід
##довий
здобуття
прибереж
Опера
особисту
вступа
регулярно
занесе
Мур
Вітчизня
##ner
Брашова
Можливо
неможливо
даль
землероб
Йому
розміщення
Торон
Покров
виконанні
Сем
##ктах
Пана
чоловічої
окремий
кубка
маг
коліс
оренду
дете
##гал
Ші
встановити
укла
НХЛ
відпочинок
##тове
Ріо
колекти
##слом
##se
##ife
126
городи
уздовж
##аз
свято
службов
околицях
##вет
окси
звича
сучасні
видо
##ournal
стверджує
суму
гетьмана
платформи
##як
Жер
циф
старшим
##руг
133
червоно
##сам
##плив
Худож
фірма
країну
колективу
заарештований
##ідо
##etriev
##неного
академія
Університет
##мору
##шись
Андер
##шкі
Fran
металу
збройних
Min
дока
більші
перебувала
ФІ
##вілей
ендо
##бара
повідомив
##матичні
версію
##коро
піхоти
безперерв
пропозицію
##воєн
риба
вбити
##цов
##надто
скле
симфо
виставки
##ские
Таї
Нале
##тівка
Бран
ідея
загибелі
ro
АТ
Слово
Фра
Монте
конфлікту
##нував
наказав
абсолютно
характеристики
дають
##ймні
##новим
волость
Бава
Треть
Res
значних
##єро
Гаври
наших
Афгані
лауреа
##щан
британський
##лилися
номінації
##лев
##еріал
Сибі
Відомий
цілісності
Sci
Займа
місії
служба
єднаних
візу
Альпи
першо
такою
відвідав
становили
Украи
взяла
Володар
уникнути
Університету
власної
сцени
##ena
фре
##etrieved
видно
Ней
неа
оздоб
Аквіта
Королівства
берег
##тос
пострі
220
##графи
##ковича
перего
##ana
автош
виробництві
##тельно
Канада
жупанії
незакон
сесії
пропаганди
проводив
Східній
підві
розслідування
посоль
старих
Георгій
екіпажу
колишньої
Ґа
усе
Капі
приймає
##тинського
##варі
боці
іншою
Яну
приту
компанію
установа
вежі
горах
дзерка
сестри
##ских
Пін
зумов
##гування
поділу
родовищ
центрів
акцій
користувачів
##гала
бійців
надалі
бізнесу
випустив
засноване
чисел
Гло
артист
##кос
розмно
##викон
Гід
гілки
Богдана
##amb
##пець
##карпат
Форму
тира
підрозділів
Art
монет
всесвіт
державному
найбільшим
явища
майстерні
високі
##кладена
мешканці
людину
Раді
##чалося
розко
складні
скорочення
Острів
поліцей
Ag
фіні
трудно
##мум
Примор
державі
перевер
драматур
розмірів
шкіри
Смі
майо
табір
Micros
організував
престол
сучасний
протестан
злі
##матичних
Мир
їжі
передав
фру
НКВС
вага
фізичної
Int
from
медалями
моні
тривалий
прекра
малих
британського
світовій
їзду
загинуло
православної
##жував
обґрун
спект
розряд
диплом
заслужений
##чків
навчального
##ric
900
неді
зроблено
елі
репер
кору
випущена
##ріна
шляхе
автома
It
втрат
сталося
інтересів
пап
брен
##біг
Семе
дали
оціню
загони
##вина
тисячо
чоловіком
Ґі
білого
центральної
набрав
захисті
##тією
##будова
припинення
струм
використовував
##цин
долар
почався
муніципалітету
##ij
Dis
підрозділи
Західній
##вився
свята
доцент
німці
Батьків
бельгій
друж
англійський
есте
зустрів
Індоне
коледж
##гових
доля
впев
язане
розвідува
спорудження
бароко
почалися
перекладі
внутрішньо
##AC
носить
писати
Основна
Оскар
##жування
Золота
Черкаської
занадто
##суд
ніхто
##лога
##циклопедія
##go
гран
Пон
рит
##ube
##тських
виходять
вагі
особисті
##ЛА
Сил
Арсе
задні
італійський
співробітник
суверенітету
маєтку
найдав
розвитком
стрілецької
правил
Розви
відбулась
віри
кінців
військовим
##їл
Система
українському
траге
станцій
##сному
цими
лауреат
українці
УкраїниСе
предметів
соро
голосування
уні
##рувати
Костянти
##ins
##гов
##філд
провели
Прус
вдруге
західно
##ple
Статус
##мари
news
Конституції
коміте
семінарії
нала
##пель
Сау
##номії
метео
Катерина
викликає
вітри
закладу
невелика
des
##тівки
моти
марки
прими
воїнів
припуска
##тору
##обереж
викли
широкий
ветера
завданням
##era
Йосип
##ild
Soc
Утво
вночі
кардина
Житомирської
##нене
Перше
1888
Кова
коміса
трикут
Ред
повітряних
промислових
##тацій
гіган
населенням
Комп
Стефа
сайту
##щик
передач
російська
Ран
Флори
прізвисько
##дових
ймовір
Лауреат
компакт
Google
Світової
полковника
підпіль
Стародав
Чилі
Раніше
названа
##лени
рухо
апосто
##ена
##ance
балан
гомо
риби
cod
##пустив
чверть
ліквідації
Mac
Габ
вищого
##шини
101
##гової
Узбе
Group
висоту
виступали
##целя
проби
нат
популярності
одиниці
1861
пізна
руйнування
##ЕН
шлу
єктив
##ów
діяли
Нагороджений
##жуючи
функцію
Ele
Трої
встановлений
##ючої
Іде
лікаря
діяв
##блення
##політен
дитини
Федір
##берга
академію
навчально
Запорізької
патро
селом
Пресвятої
свят
налаш
##рень
зірки
##ings
1891
фельд
Пірене
свободи
Будівництво
Берліні
Енд
єктом
громадсько
засла
практику
живопис
мірі
затрима
проводити
##ная
ширина
територією
Дмитра
покарання
##рада
пройшла
##ницьких
проводять
зон
Таун
##магні
Отже
призначив
урах
##сипа
Торонто
волосся
Же
Ся
net
кільце
поли
сила
##бувати
вогню
загальний
##щому
напра
Шевченко
молодого
написання
свідчення
розроблена
##ковець
вітчизня
кух
визнав
Були
досягну
організму
Award
заува
намір
Sm
##тками
Бібліоте
##виться
Дем
хоті
##кають
Дени
народні
Франківської
##тари
Фла
їхній
двору
запаси
Воно
дату
коней
останню
Ден
вершини
супроводж
очіку
Запоріжжя
скі
##лону
збори
зайняли
узагаль
цифро
частинок
Music
двана
бакалав
запрошення
##que
##гера
здатні
дослідники
риси
виникають
музичного
##няв
##пового
##дерланд
двигуном
Rev
##метрії
імові
наміс
Ne
мотор
значна
##рда
сар
туди
##лє
##ников
Прапор
будівлю
поранення
##новського
структур
##мисл
Майкл
швидкістю
##ньйо
чол
багат
Майже
Народної
намагалися
всім
апарат
невідомо
СП
Томас
педагогічного
Fl
##bert
борту
одягу
програв
хвиль
нейро
##мовою
Вікі
опору
мобілі
американської
Бри
Жовтне
##ації
випла
поведінки
регулювання
секретаря
##пок
1887
Алжи
##ланови
напов
випадок
Поруч
##зькою
##штейн
##шував
регіон
повторю
Ап
##бат
##зером
##блю
дрібних
##зьке
Зро
обсер
континента
##ER
##нюк
високих
Луганської
##сол
Тен
розваги
ята
##морфі
відкрили
розробив
Діє
попро
важливу
шлюбу
Економі
##манського
Microsoft
повного
східних
##неї
метал
послуги
##ксі
шан
блоку
ізраї
вокалі
важливих
північного
360
Існують
Харкова
суспільстві
##кле
ходу
майстра
артилерії
Північного
МВС
Мед
Гал
Джере
Gl
ски
спер
наслідок
громадського
Вироб
костю
Київська
супровод
ети
Важли
стосується
Im
ВО
підрозділ
##никає
спокій
утворюється
вики
загальним
відповідають
##нтер
обертання
плу
шосе
##міст
спон
внесе
патріарха
##sch
пух
##гран
тече
члена
Тради
культурно
відомостей
фундамента
пісто
країнами
серця
Молоді
збро
##тинський
опри
видобутку
рука
##вівален
проходження
1848
суво
радика
##комп
урод
властивостей
##гене
бах
##белів
1884
Відні
##мського
велоси
ділянка
шкід
змогла
Клуб
коха
співачка
##шов
знайо
базується
релігійних
Річка
показав
єд
пізні
вказів
головні
двигунів
принаймні
відзначений
кис
##честер
стиму
чорний
##йов
пане
Річард
Наві
##гляда
ятника
звичайний
історичні
##лива
##ряди
Час
##лум
##ккі
##поста
##льників
Балтій
долини
епіде
##шає
##надцяти
as
розрахо
екзем
дитинства
##альну
баскет
ссавців
сягає
Оре
важливі
старого
потрапили
##жня
частка
##лету
##цена
Печер
місяця
базу
##тець
півдня
фракції
партію
східному
центрального
Em
розгро
##берт
Кал
отво
актора
поспіль
уявлення
необхідності
##IN
Головна
жар
Актив
##йому
Кази
Can
##ensis
грузи
даного
1864
Філі
будди
водночас
##шування
військови
##риву
профспі
молодіжному
вель
двір
яче
Теха
Азов
450
оса
1859
закріпи
ресурси
##мети
Кло
##глу
##кевича
отже
Король
відчува
відносять
##зву
зіграла
різного
засновник
Адо
упов
королівство
##логів
шану
Генріх
сприяє
Арі
ато
вирішено
міністрів
is
жо
##менами
інтерфей
Альбом
військове
##ренню
with
Цього
роблять
##рк
##ківка
Мето
міжнародному
##вери
диск
зверху
art
тричі
кислоти
вірту
##пки
епоху
Україною
засідання
фінансування
захопити
##рантів
внутрішнього
##ma
##юча
листа
зафіксо
підкрес
##На
садів
зустріч
залізничної
губернія
##лісся
##писів
Тулу
Бун
підхід
ранніх
##кну
розуміння
ставлення
Ukra
240
Людві
нідерланд
розподілу
##zy
служб
висвіт
паралельно
##ул
імпуль
##шна
алкого
середніх
загиблих
зруйну
вистави
Sup
##реного
залізо
іконо
резерв
доцен
виявив
пропор
##жин
прийшли
Mod
Земля
Скоро
Невдовзі
одер
Новгород
зовнішній
партнер
an
вкрай
окупо
орна
Завершив
Долина
сег
Богу
тісно
##щень
Аргентини
опла
інколи
персонажа
мол
Група
продюсер
ex
забити
священика
##графа
шириною
публікації
ВІ
Найви
##тону
ідею
неможли
турбо
задоволь
кордоні
встановлена
уве
Пітер
присвячена
госпі
засіб
настоя
прохання
##ilm
##row
Пуш
листів
Кап
Донецька
##ючими
пару
##кистану
показали
Патріар
акторка
##пілля
плавець
поляків
варіанти
вміст
новоство
##itt
компен
прогно
Команда
практики
der
старі
Металур
обслугову
пристроїв
повноваження
##ують
розпочався
Серії
вчені
Нижня
##ам
Фрі
оки
навесні
зберегти
Південь
залишити
codice
Одеси
службі
будівництві
Брод
рибо
##ove
скри
заліза
продукти
##нішим
додаткові
Поля
несу
ярма
галакти
Дніст
теорію
стін
атаку
вироби
##вілі
вечір
дівчина
Більш
уклада
батьківщину
Сівер
припадає
##ноти
ХІХ
роти
включений
вы
Напоки
##ari
Лар
парафі
помічником
встановили
повноці
футбольних
##ологи
Григорович
Суд
платформа
Візан
Софія
свободу
##дані
префекту
каліб
Берлін
Будапе
футболіста
210
кут
##рядів
відображення
закони
досвіду
рейтингу
сутич
червоний
планування
соціалі
знав
комах
вулицю
##рять
школах
міжнародної
Університеті
##гард
худоби
вірос
виявили
ситуація
розвивається
заради
##жим
сино
Геро
чисто
гостро
походу
випадково
##зією
збірка
нашого
посмер
язання
подібні
##бей
Флорен
премія
відгуки
##las
##рика
Пру
німецькою
присвячений
##ral
##нгів
опіку
хреста
комісія
##бал
##стор
Сере
римо
якість
київського
##ise
тиском
західного
переведений
Times
довгі
##манд
круп
Company
Інформа
столицею
##пур
Боло
долю
Феодо
Хор
##демон
сцен
Андре
язано
високою
державні
наре
лінг
##бн
аце
Сици
старовин
##ттер
##чену
Порт
Навча
придат
журналістів
##йова
##стерої
селах
Смолен
комсомо
російські
##яс
##боро
##кала
Прилу
примірників
Південний
заміну
передні
тогочас
операція
затверджений
##ger
відновити
союзників
національно
співробітників
##цьо
точно
##сіо
молодий
##нати
##тивне
Play
симп
сухи
деталі
уся
Cent
Ману
палео
язнення
##ліан
текстів
синд
реабілі
вибра
повста
Іспанія
контакт
##MS
##ЕСКО
обміну
Незалеж
##iat
##біо
##люс
командував
відправився
загар
Олекса
зразок
інтегра
1878
побі
тижні
посіла
парафії
зміна
Пили
Аквітанія
Дені
зорі
діяла
провела
римського
тижня
хвиля
медичної
спостереж
Мики
захисника
Розпоча
Her
Шампа
##лета
державу
відкриті
ядра
##ograph
знаряд
встановив
одружений
##РН
Смер
горизонта
поранений
##rans
##скре
суті
зборів
##єрар
Звід
пішла
пошт
##жого
хор
Видав
Великі
##TC
##шип
##буть
чен
сепара
перенесе
розподіл
##Пере
приєднання
##ve
##нича
лідером
##виконкому
##графій
культурних
англійського
чітко
джерелах
Міністерство
##дніпро
еквівален
##хого
зона
кого
берегів
News
##нології
##ліє
одина
методом
побудовані
пас
1882
раунді
Tom
називаються
інструмента
налічувалось
капе
відсі
давніх
##ела
досягла
Холо
співвідношення
визначають
##ткою
##бурзі
Матві
трубо
##тепер
Успі
Навесні
власність
##hem
оде
оточення
покриття
пристрій
громадянської
##лева
Joh
Заги
##ДА
##лети
##никова
вугіль
капітана
Хло
потоку
##гією
##чило
##носить
##ровича
десятки
значною
вику
##ографія
притаман
проблема
Одеського
подальшого
Людови
Піренеї
віросповіда
шасі
нерідко
Ем
мені
пробу
реконструкції
жанру
можливих
##зін
Фрідріх
нападника
Дор
##альним
попри
емб
##way
взво
рідного
##гує
хокею
берегах
1867
Галі
іден
##вози
##фана
переду
боя
Сибіру
##тьми
Яків
округи
керівника
ескадри
##говий
ладу
##тивним
ЮНЕСКО
нарахов
##фіо
##няють
кіносту
##вагу
концерт
алге
важких
мислив
кохання
##af
##рожа
230
##лс
##ism
##ual
РНК
загрозою
##гору
вою
скуп
склала
збудована
Арте
роже
##дної
Стокголь
адміністрація
Хи
саму
Юлія
відоме
##ас
Люди
скас
кваліфікації
успіхом
подружжя
##фів
спіл
Штатів
Retrieved
цитоплазмі
##ters
##ходиться
спеціального
Одні
хана
##лт
ігрову
##ited
Радіо
##чуються
публіку
назв
фінансів
Сти
аре
вимог
вчення
##бувають
##ційними
спільного
Гори
Служ
un
настав
##тува
зені
схови
продемон
Do
Анджеле
сані
Револю
ДП
Нового
дисцип
утримання
відступи
червоного
сена
насіння
##дос
зава
заванта
східної
водосховище
Неа
дивізіон
##enn
імператором
ЗС
присвячені
історичної
##мід
дім
станціями
терористи
Сино
##туватися
оголосила
мед
тій
училищі
вільно
полег
основної
удоскона
останньому
Херсон
Мексики
##чері
##22
##кеан
конкурс
терміну
прос
Загре
концепції
##кара
характерні
повернулася
проекти
хутір
відзнакою
закінчується
##бова
зарубі
російську
##давно
прес
музичної
##нди
Пря
года
##рового
особистості
родов
Золотий
предмети
викладачем
##гідь
##ліві
референ
розпочато
##національ
дата
блиску
картина
фортепіано
святих
##джер
Publ
сюди
розміщено
вояків
рідини
легендар
ВАТ
##тивну
##лектри
суспільство
##вшир
Тарас
методу
Музе
##ions
Основними
італійського
камі
церемонії
##люючи
сильні
здійснювати
камінь
входила
документах
представниками
нари
людям
##канської
потрапила
##фін
XXI
Орі
##дум
облаш
##тичними
Кандидат
3000
Bill
Хосе
кораб
аерод
##вширшки
розробку
##ces
##цова
каска
видами
річкою
##ull
##режи
ставав
сільради
сторону
деге
вищу
Радянської
Аеро
виго
сержант
Григорія
необхідні
познайомився
##ВП
##чеві
удару
##вера
##водять
##нером
недолі
західної
південного
##сля
HD
##чилися
Люксем
романі
завширшки
десятків
истори
сучасному
uk
##нора
оцінка
системах
елементами
рейти
Роберта
Закону
тканини
1871
##воз
Леона
марму
проходила
традиційно
французьких
використанні
##ріату
Брі
Калу
підклю
Сим
1883
етапу
Віскон
другою
зацікав
майна
подорожі
##РО
небе
Сталін
##точ
нагоди
виникли
рекоменда
##amm
Монго
Рона
дочки
Собор
##тте
нам
заса
##центру
давно
##цева
відре
шоло
##чувала
Відродження
католицької
хвороб
міський
Угорщина
консерваторії
Сезон
телеско
Львівська
##тнім
Гора
обстави
приходить
Петрів
розвину
##нового
Проце
читання
##льди
подов
продаж
Фре
віта
American
враження
головною
##rop
##фері
##хані
табору
механізм
##ree
##бків
голом
##дають
Чемпіон
вченого
##yd
Баку
##ширені
племена
Жі
##єнко
##єво
Тетяна
##жав
##віна
Госпо
Австрій
художньої
гали
активності
##rat
##енте
##тані
Епі
ліку
##дець
двері
Соня
##далеко
Сибір
спілку
гривень
##маль
##пру
##тану
Мари
Сирії
доріг
АТО
##альне
кафедрі
##зьо
##ris
Journal
свідомості
застосовуються
Поро
редакції
Головного
Сала
##ницькому
високої
розробці
врятувати
##дме
##сильні
System
взимку
нагрі
змінити
науковим
##тент
телефон
Охо
Сході
художніх
Сою
##льських
масової
таланови
##лером
лікарня
описав
##дку
##низу
дощ
душі
задля
струму
залучався
##дне
##ктору
Уель
##нічному
критики
Брат
екрані
мотоци
поклика
Ab
воз
Масса
здобули
внутрішній
##чак
аро
персонаж
відповідних
піти
стражда
##ФК
вперед
Республіці
##ттен
засуджений
##суа
As
Ов
спектра
розмірами
відзначити
УПЦ
реміс
коледжі
скасування
футбольного
організацією
переговори
##фур
кв
невелич
захворювань
виїхав
##бон
##зол
Ст
##чаючи
ознаки
колишня
##йд
власним
давньогре
Ass
Яко
кадрів
дитячий
##гона
##ріори
потік
Висота
##зни
Ца
відом
вийшло
##ровський
лиши
Сходу
##AM
##ella
дядь
мереж
символом
виконавчого
##шувати
скарб
Основним
відбувалися
##гового
Такий
усіма
століттях
##тології
Росією
виданий
інтереси
##no
Щи
стояв
Заснов
сумнів
##пали
збірній
Кали
майбутнє
##доволь
платфор
##дий
зара
визнаний
прихильників
нов
Головні
дирекції
постачання
##юї
Перева
Головним
архіпела
Вільгельм
##нея
військова
співавтор
##нове
прапора
##гс
нахи
раннього
селянській
створювати
##erg
##пси
Ціка
закли
Характер
##cy
живих
МО
##писі
##тичною
прести
перемогла
##денса
пірам
Зрештою
монумента
##бері
##ксів
нібито
##25
Люблі
скульптури
##TV
##du
##лівна
глибині
##чор
Січ
1876
регіонах
скульптур
Внутріш
посилення
захис
комента
приналеж
Інтернет
##дженні
Вашингтон
##ненню
коль
дівчат
Bi
Кожна
ордену
досягти
популяри
втім
##працював
випадки
дружину
Кабінету
##тіо
Публі
інвалід
сот
ділянок
званий
хімічних
ремонт
хокеїст
Генріха
зібрання
##ливим
Буча
гідроелектро
Анни
заку
##брався
##реної
Дону
Нови
дзво
образо
1863
німецька
Рівненської
чемпіонатах
Слове
фарма
Інша
знає
Комуна
Херсонської
##неді
##ранці
Семен
програмою
продукт
##ты
Уряд
високим
величини
Став
написані
##ley
##вари
погра
десятиліття
##ліст
академік
Ірина
дітьми
ремонту
північної
Саха
Третій
просвіт
помічник
фено
приві
##веденні
##ївна
мережу
найбільша
політичну
##oth
позицій
##вори
побачив
##кіо
##щами
сусідніх
##дексу
суці
надати
наступним
панування
ночі
секції
лиша
##полков
звуко
корисних
зовнішньої
##рана
спира
##діна
##монт
und
іслам
пше
рос
зросла
ворогів
##неними
замінив
поглина
##бігу
безу
Монасти
гравіта
зрештою
випущено
##вов
Викона
фактич
вбивство
##лялася
##мового
плато
Джерсі
бачить
вирішила
НБА
проха
альбомів
урахуванням
##rid
##ніт
Яку
судин
зайняла
##велі
Дави
корін
Одру
яєць
ієрар
##стичних
зверну
туризму
високого
напрямок
зовнішнього
решт
іоном
наголо
утворено
Боб
Лота
ресурс
загальному
Чан
решта
Навіть
Сели
яйця
розір
дрібні
самогуб
представником
Холм
Варшаві
змушені
органами
##никові
Катеринослав
Ес
##rag
Чолові
##женою
Лебе
хребта
подібних
Генерального
##cess
фау
Сучасна
справжнє
турнірах
Літератур
##нга
##пили
Rep
Мах
##чників
зміст
зовнішніх
Руд
##манів
ноги
##нованих
їхньої
зай
##бачення
налічує
перетворю
бір
зброя
Латвії
##ool
##льники
город
ультра
квітень
аргу
фізичних
історична
##ровим
танк
шляхи
прийняла
біологічному
шиф
##кації
Кала
Натомість
##томо
споруджено
СССР
##вара
бога
##шками
##тичній
Визна
завоював
остану
##гував
ухва
органом
Федорович
виконують
лейтенанта
Грін
долу
білих
##будований
діяти
розпочала
##чинки
##логічні
##увалось
смертю
Мал
родів
##сяк
самих
Парла
заколо
оприлюд
##нокоман
оптимі
Реа
написаний
обсяг
великій
##AP
третьому
##нциклопеди
зусиль
деталей
Середньові
ПП
призначена
##шах
Абу
каже
наймо
іменем
##метро
сучасній
економічний
православна
Червона
королеви
Мазе
однойменного
##ID
Почат
державами
Мелі
точок
процесо
культуру
вважаються
повстанців
Жор
бібліотеці
##ini
BBC
Давид
видано
каналів
впровадження
pl
##льоту
викри
граду
дворових
##їзду
хід
зберігся
##КЦ
##ья
##тве
бер
трагі
##лема
територіях
копій
##кай
смо
##сексу
1881
Соко
голами
прямоку
Лорен
претенден
спорід
основною
викликало
розміщені
##лор
Jan
подав
##нований
суддів
тривалість
губернатора
##ks
сировини
здійснюють
спортивних
проводилися
Har
покинути
поставив
князівство
МП
Див
##гають
сканда
Західна
видавництва
##жку
Мід
поїхав
транзи
##нато
чорні
Австрія
молодшого
угруповання
турець
весілля
##пле
попи
грала
History
Вікторія
Star
Волин
##газ
виставці
громадські
Конте
##клео
Храм
##St
підпорядкування
яно
паке
носили
зіткнення
психології
##дзе
##грів
озву
опинився
передано
ситуацію
найпопуляр
Наф
юнацької
ідеологі
Регі
Надалі
##рової
втік
пішли
посіда
Ок
Black
бахші
скориста
підтримував
танка
переселен
##уа
Цу
мешкає
метрополітен
##діл
Дре
Пле
маршрут
прийняти
перемігши
сли
віддав
незмін
призначені
##ya
азо
##припа
кулі
Мартін
##сельність
##лової
вибира
політична
##женню
Арка
язково
законодавства
##TS
##БУ
ціль
кафедра
міді
зброєю
володінь
##НИ
sh
незвичай
нере
##стичні
загальних
##line
Людина
актриса
##логічного
Російській
Лем
явище
320
лісі
Апосто
продоволь
публікацій
набо
1873
труб
вибору
лівого
Словаччини
##няли
Ква
##нився
банду
праця
залишаються
Корне
##inal
секунд
принципи
##клади
Сталі
##елі
націй
центри
##пеля
##oj
долі
єдина
професійної
##мович
згадує
Антоніо
##зв
##ктиви
пожер
перехо
прокуро
творах
певного
культурного
##накше
Горь
інве
Софії
##рований
ведуть
обчислюва
Вітчизняної
##лінні
глини
підліт
введено
асистен
Подаль
Молдови
Шампань
National
заповідника
##eth
Сріб
##IC
Тя
##aria
екзо
##венції
реклам
словник
навколишнього
##тям
##нічним
Громадян
##ваючи
Секре
коледжу
Казахстан
захистити
##сподарського
випробувань
лекси
##ery
Грі
мотивами
поверхне
натомість
##соном
##центри
##йок
відкритих
звернувся
##добув
Богда
витіс
суттєво
##пп
##малі
єдиною
Барсело
апарату
зоо
##чар
серві
Дослідження
Франко
компонентів
##тці
##штовх
Гіль
Малай
росте
володів
##сиха
Біла
племені
література
банків
Абра
жанрі
дозволив
індустрі
комен
східного
##чова
Прави
майно
Католи
міліції
факторів
церковно
##зне
лекції
##тир
дорож
чотирма
Ата
##світи
злиття
1830
камери
іннова
##form
ось
виділяють
Чисельність
1874
версій
символів
музикантів
##серів
храмі
мовлення
##ктура
дикта
Єгипті
магазин
##чев
подару
Суперку
прикладом
##дського
Центрального
Mon
##генів
їзді
яскраво
живлення
вежа
шахі
агрега
вчителів
НС
залишилася
спеціальний
ас
вечо
декла
легкої
тракту
широкого
програмного
##жну
знаки
йдуть
чарів
##неним
індо
Стенлі
##ДБ
склали
швидкі
##вальників
Марті
Філо
##знавство
випустила
повідомляє
мосту
підвищи
сильний
##формування
сек
надто
орден
працівник
##АК
##доба
стрім
##out
грн
Швид
ліво
вікна
морський
1868
##ав
ер
купо
##OR
тлума
цілий
##fer
гім
сучасна
учня
низько
Життя
Район
інженера
##aur
марок
невідома
##шту
##бурга
##світу
руси
##лістів
окремої
світових
##PS
новими
Наталія
підполков
сільський
класифікації
розповсюдження
1879
##Перепис
відмінності
можливостей
##oss
##вити
кли
Людми
включно
шай
1869
крем
паву
відбір
Ізраїль
Сімферо
ділянках
##фен
масиву
маєток
Мисте
пожежі
туристів
##глиб
утворений
Ужгород
погляди
рідному
землетру
1877
річного
експорту
світового
Фед
Катерини
соборі
##натів
витягну
зазнала
id
сою
Мора
дією
миль
##тському
Ага
мече
Індій
##hel
##rav
1875
юсти
самий
##РУ
##женими
спілкування
##цина
том
John
Росли
пошири
дозвіл
спробу
групами
рейтинг
половину
найвідоміших
##псу
блю
Матері
Поділля
Належить
оркестру
##хем
280
ПАР
кви
Міха
місцевий
Офіційний
класифіка
##деться
План
Спор
##лінь
1850
записи
Фердина
Вой
різь
арген
Зеландії
боєприпа
розташовується
схожий
перемога
розробка
урочисто
повну
присі
власником
Олександрів
##ченому
кількома
##номов
пану
смуга
Партії
називає
##chn
Лондона
останньої
##ino
утворюються
французькою
зразків
єси
##board
Жене
підвище
##lop
гирла
місту
##кля
##ater
Анаста
відобража
##нести
##ніший
вищий
католиків
буря
знищити
податків
Хоро
розстріля
##вель
##aceae
англо
низка
неправи
##ліній
##ato
УС
увесь
посмертно
протистояння
Кіно
Поряд
Англія
федерації
дізнається
##ый
##зми
##ффа
##TA
культурної
військовому
залізничного
Той
певної
морські
##гляду
депо
губернатор
художнього
DV
шир
консо
дегестані
##бран
##фікова
самців
поєднання
##вину
##утво
ютера
Кастилія
Окса
ракет
##службовців
##гром
Єре
Тече
біжен
Асоціації
Мой
##ссель
##тизму
##АС
##кка
##льц
зану
кризи
екземпля
південних
##icz
##сило
загальну
ніг
Отто
дала
стер
Герце
розчин
##ony
##шар
##lass
##кувала
принца
образотвор
##хах
##ничі
голу
непро
дійсно
Ймовірно
департаменту
##дала
Кузь
ваги
новіт
двигуни
##ченою
янка
##ake
Орле
дало
Europe
половина
температур
небо
зелені
виконані
збереглася
страхування
Av
##німом
козаки
##лості
діях
символізує
скрип
##пс
##ios
Nov
##мовий
тривав
Станція
споруда
трамвай
##ta
##кера
##наль
##сований
оборону
Дебютував
##проти
##воєння
застосуванні
##кель
еміграції
споживання
телебаченні
мін
рішу
мекси
галереї
##enz
Грав
##родина
патру
документ
суміш
Pe
еро
Марко
допуска
записав
##вний
переліку
Ніг
##фігу
монго
вибуху
вирушив
Владислав
плати
продовжували
##EC
##жному
аван
відки
служить
Македонії
##ківці
Сама
гравці
рублів
серіал
Крайови
активність
##дський
човен
##нувшись
вчителя
##няк
мовах
столицю
Кременчу
британських
могло
покуп
кулемет
перемог
складом
столиця
духовної
буква
єпархі
коду
прочи
рецен
спроба
Червоно
ураження
розпочина
побудувати
Мука
##ON
ліва
##овувати
##рову
добри
Команди
життям
виникло
показник
1800
Бене
шіст
оцінку
астерої
рестора
провулок
перейменовано
підір
Червоний
конструктор
##гем
1200
Бага
Бургун
підтримав
##розумі
пік
водних
капіту
гетьман
європейської
Товариство
##їзд
яру
##дай
Франш
##ппе
Уль
тож
стале
Стри
##шували
Бордо
Волинь
зробила
прибули
заснували
українське
Jun
ях
2020
Ганна
південної
##ement
схеми
or
фортеця
медичний
священик
хромосомі
Рудо
звані
першими
зроблені
фотографії
##меном
головна
##жоу
оповідань
відношенні
##пка
транспортних
##існу
шов
##зімен
троє
радго
пріори
масштаб
сей
1866
##ДУ
##чусе
великому
звичайних
##овець
зображенням
##мбо
лідера
сотень
Департа
аварії
##лила
прізвища
вал
Cont
Inter
товар
##комплек
впливає
колегії
представлено
Ох
##ital
##мак
##ффе
використані
##нас
їжу
лопа
нероз
потребує
Каліфорнії
##шкіль
грали
остання
присязі
імператри
Маха
Архе
Автоном
розташованих
##70
##нювати
1872
злочи
Олексія
##права
прозо
напере
##ox
трансформа
неща
українським
##ime
##систе
##ловський
зображено
шагре
місцями
##ссен
пласт
##лика
1865
Стро
Марок
виділення
керівників
Волинського
##За
Рейн
обкла
дослідник
художником
Rad
Бет
##кистан
зразки
##канського
моделювання
##кура
ацети
загарб
вступила
проведені
коливається
##кус
Bar
домен
видавництво
Антар
260
богів
довіль
сприят
##ТУ
золоті
вересень
стандарти
##сорів
##жували
січень
Малі
Хро
1862
Ісуса
сприяв
травень
опублікована
##рує
Cr
жила
пошуках
японський
Верховного
##дову
Фей
принц
Фредері
Дя
КО
тіл
Вороне
##ры
Хуан
##голов
ряді
торпе
загост
Sw
Ґо
пнев
##пору
Єванге
більшої
##лль
стрільби
категорія
Іс
продав
здійснити
##ke
осман
перевороту
пале
Коваль
Комісії
реформа
технічної
##реса
##рінь
заціка
займалися
Чехословаччини
бре
зможе
##чуючи
Осно
колонія
засобами
польською
природний
##ґе
##мав
##гани
правого
Приблизно
докторську
фору
Enter
величиною
їха
скло
Антон
відста
родовище
Миколаївської
##ska
закриття
##air
увін
додаткових
присутності
##ЧА
##erm
##меда
##сіль
недалеко
прийняли
асо
Енер
Іраку
Свобода
повернулися
##тропі
атле
Школа
протесту
новій
запе
##ческий
запуску
##кладається
зміцнення
##пр
Тек
якийсь
приходу
державна
повне
вогнем
палаці
Лені
кампа
розріз
##нним
кафед
хе
юстиції
Ярослава
Сміт
Землю
наступу
реставра
визволення
##цьк
найкращі
##сновок
папер
комбі
номіно
реформ
##мби
костел
телефо
відчуття
IB
депор
набув
перехре
видобуток
Дін
Бориса
володаря
##чування
інтелі
комедій
присутній
##лоді
Очі
вагою
зосере
портрет
завоювання
##нюва
вторин
ендемі
##будована
##кія
##orth
php
Старий
##дт
Мали
Першу
погро
Єгипет
Четвер
##нгель
Таке
розділ
УК
єднана
##домору
Філадель
##ution
##ливого
гміні
шагрестані
Сайт
дистан
##нівської
Харківський
генеральний
заповідного
Eng
##зував
Inst
Лізі
додаток
Буд
##женої
щастя
Святої
невизна
Знаходиться
Остання
жаль
пристрої
усієї
##тинської
кінематографі
##21
вступу
людства
##ологічні
відновлено
##ллін
Азербайджану
##ower
речей
##mun
учитель
виконується
##гав
гено
общини
робочих
депутати
праворуч
всеукраїн
##чатися
Герцего
роботах
мільяр
поселен
##нау
Прото
##24
966
виїха
##ередині
##бус
##стах
Таш
##стрії
коруп
гостри
внутрішні
##бл
##рне
Маса
зображень
акт
підні
Лотарин
півтора
##РК
##тлі
марша
примус
промислового
##гені
Палац
землею
співак
державну
функціонування
##тни
діли
заводи
економічні
мово
дочкою
втратила
##atur
Мір
Макс
складних
прагнення
професіональ
звичайна
переслідування
йо
даної
Истори
Війська
Центральному
##ВО
##щими
Дуже
клімат
основними
пропозиції
##гара
Рафа
дизе
узго
цирку
напередодні
Найвідомі
композитора
##стін
##махту
машину
Стефан
юридичних
узя
Кель
Клер
Мемо
придбав
Балка
##тко
##монд
##цизму
ефективність
##зефа
Гва
духовен
супротивника
Вида
халі
Массачусе
здійснено
постійного
громадської
сенсі
німецькими
##рик
винят
ур
корей
Обидва
внутрішньої
стрілецького
циліндри
діб
єдиного
проповід
##ca
Всесоюз
вертольо
##sz
учні
яної
##ванців
гібри
окремого
літературної
основна
Угорщині
відповіді
##lines
Кава
крізь
неофі
рівнів
##тром
видом
зважаючи
єпископом
be
##завод
велосипе
чвертьфі
майбутній
хв
держ
##їжджає
наслідків
переміщення
Костянтина
Швеція
дитинстві
Закарпаття
CDP
середовище
##зіа
Еліза
Молод
інформаційних
Кю
фара
Стамбу
пройти
потенціал
завершився
варто
змісту
##OM
##igh
можливе
очевидно
Соціалістичної
вузлів
Джеймса
значень
копалин
повісті
численними
##тиза
портрети
##бського
глибина
негайно
проводом
перевезень
Карпа
наполя
акторів
вільний
частинами
золотий
Закінчила
##обла
##наймен
щороку
Коб
##ницькі
##монав
марке
надають
##смер
Токіо
Вільяма
ділянку
Праці
особливостей
ате
хол
Зірка
рангу
храмів
Майстер
Хей
##креди
султана
##iam
Бло
писем
варіантів
##атра
Османської
Національному
нати
довга
Миколая
залишили
джаз
погано
більшою
зупинний
##ничий
зону
Марокко
##рених
шахів
Стівен
Японія
закоха
##шньої
новою
##ное
Браун
Нобелів
космічних
намагаються
##лям
##щук
##коль
##рати
270
Окс
Твор
штра
щеле
єднань
ac
Ада
Billboard
##раді
##стку
##шуючи
Перея
домов
макси
малий
філії
Різдва
кільця
стався
діаметр
May
фунтів
##ївського
розгалу
місцевим
збудований
проектування
ути
Франсуа
грудень
футбольну
##lo
##соб
Забар
Відтоді
поліпшення
твердження
править
кавалерій
pol
бараба
##ция
1840
Проб
Сена
індекс
##rem
##res
вдома
Королівство
найсильні
найважливіших
##океан
заохо
вважався
називати
##рови
контролем
рев
##сип
Вив
док
Свою
родом
зменши
березень
засновником
глад
Венеції
центральна
##зд
##пінча
Обра
кристалі
інструмент
##єдну
нуль
почу
покрови
Дол
Мая
астрономі
передати
##con
Брон
моне
жодної
містами
##варда
##альному
трамва
короткі
стабілі
залізничний
##port
##ксом
колії
твари
комедії
Хри
##тивою
зарахо
професійний
Ev
витрима
скульптор
дозволили
##ффі
дитячих
їхню
любові
Гетьман
##мут
теренах
кольорів
щонаймен
зап
##водів
сторона
нескінчен
Net
шиї
прийом
уперше
##кіл
Нас
висока
наслідки
виявилося
##ola
Газе
проханням
північних
партизан
Автомобіль
Red
ота
##куляр
Колек
Едвард
екстра
господарстві
##ird
##зуї
Весе
дитиною
##діє
##ливши
притоки
міжнародні
##ское
Мані
буржу
##лійський
технічні
стартовому
вікон
##доров
поду
висновку
заклади
##ляцію
гекта
втратили
##почат
іонами
##23
One
Захи
флоти
конфедера
четвертий
викладачів
йшли
майора
##вецького
вниз
Тбілі
##дуються
віданні
природі
Київській
Гем
Comm
##жену
Боснії
Кілька
липень
срібла
літературо
інформацією
Меди
мабуть
кандидатську
##чай
##кання
Будин
Віден
газів
князем
шукати
виконавців
центральний
збільшується
Примі
певну
поступив
відповідні
im
##хові
Прос
Генна
поміж
родиною
умовами
геометри
бакалавра
коефіцієнт
##жився
Кале
##йської
дворян
доброві
розмірі
природні
Каре
Станіслава
ціле
пресі
##зування
інакше
Північний
півострів
приготування
##мала
##стар
парі
страй
назвати
прийшла
несподівано
##гіє
шляхти
романів
зникнення
##МУ
##жання
1648
реме
селек
спершу
спортивний
##ink
Ліві
продовжити
пошук
вигада
Георгія
кореспондент
перейти
дисертації
півзахисника
##лга
досягли
активних
##ніша
Вороши
ФРН
уряді
втручання
Орден
Проти
послідовності
##нної
Позна
клаві
розуміє
повільно
##шний
Кве
спону
національні
Мюнхе
##дали
видана
гуманітар
##earch
Олів
птахи
світлі
соціальні
Замість
особливого
агі
голові
розкоп
опубліковано
венти
карту
листопад
знаходять
##робі
офіс
просте
провінцій
##ссон
неу
обста
палив
##ific
врожа
Airlines
японської
##женером
бібліотек
##їд
переста
потенціа
##90
ВУ
Стю
Амур
органу
повітрі
продемонстру
##ept
##твою
##нічну
журі
субо
Другій
мешкав
Іванівна
міфології
СК
Гого
ячів
Мешкає
показники
Жін
Клю
Застос
фронтах
запросив
традиційних
ind
знайоми
норми
приче
Вікіпе
кістки
упоряд
Френсіс
Спеціаль
раціональ
##маран
##чалася
##rist
ХІІ
его
рівнова
журналів
виступили
виступають
##зями
ятий
студійний
##лівська
реєстру
святку
бюджету
##ровського
Манчестер
освітлення
влу
Нове
Українські
цинку
стовбу
Вірд
##ЕР
##валось
Журнал
травму
прокура
тренерський
синх
бетон
фінал
зібрані
звинувачення
##ак
Пом
##фектив
Одного
фігури
Середньо
вказують
структурі
ближче
концерти
##ream
##дура
витрат
зйомки
##ava
Віта
домо
датується
залишилося
популярним
професійних
Донецьк
офіційному
бачити
обставин
Найбільше
створюють
перебрався
Рю
мульт
червень
Забарвлення
##овер
##новок
поляр
##джувати
особин
##дієн
##пери
330
Крав
##dz
скільки
TV
Лук
##стину
русі
макро
Фрідріха
Тка
немов
донець
човнів
пошкодження
Пей
проя
Благо
Найкращий
Міт
хліб
Першою
національна
повноважень
УН
Кім
Грей
Однією
зустрічає
російській
##нутий
##пус
амп
##метів
наче
залози
явилося
сукупність
##отех
явищ
Тобто
сказати
##сал
срібний
призвели
Іслан
пристос
##дове
##тали
Пір
інструменти
##yr
втекти
прийнята
митрополита
##ute
##стям
ано
усвідом
Уруг
Брати
слабо
постанови
параметрів
DVD
присвятив
запобігання
Ол
Папа
ведеться
##гову
Полтава
відношенню
Севастополь
Кирги
каменю
фашист
Останнім
власника
##сенко
підписання
##ara
регіональних
скля
##ровані
популярних
##ET
111
Ога
масою
клімату
висновок
Центральний
архієпископ
##каза
##десят
Хмельницький
##illa
юго
Галь
Архіте
тканин
відчу
погодився
рецепторів
##жній
##слів
істотно
педагогічний
Боже
розглядати
Віте
##уванню
стаціона
відтворення
ібн
##зоване
ролей
Mo
низови
оптима
##err
co
##телю
шару
манев
виграли
ad
##швид
вша
Чотири
##86
депре
перелік
екології
адресою
укріплення
стверджував
##шке
Крісто
##цла
do
Марша
##падають
язують
Прапора
фабрики
успадкував
водосховища
натх
раку
зізна
техніка
##AL
оформлення
##de
##йнів
Слобо
експорт
людського
##uch
Inc
Непо
Нормандія
кіностудії
перекладач
##нгу
##дору
##циден
виявилася
літературу
культурі
таборі
Жив
рештки
утворенням
міністерства
Мара
##носець
Празі
ознак
старий
Колумбії
операцію
постановою
лон
Обла
анон
гера
знаходилися
приніс
##дс
##ликів
Більше
Сні
Джим
##магання
десятин
Австралія
місцевому
офіційного
##стам
##тивів
Elect
надмір
стипен
доступні
Надзвичай
Андрійович
юн
збли
##бської
набула
баскетбо
африканських
##ай
Насе
##дувати
оцінками
##ora
##ційній
##чиків
бала
врешті
рибаль
Румунія
пристра
припинив
перспектив
Битва
онлайн
різновид
Індонезії
Центральна
##хін
Аре
шахти
єгипет
вживання
Голь
Колі
поширена
МТ
пуль
власник
знаходилася
переважають
##лову
##шене
Тон
зрід
літературних
ранку
сухопу
останнє
невелику
поверхня
ютерних
популяції
##СА
##нне
Dec
вектор
студенти
##гувати
звідти
Tw
Божої
протест
Павлович
Спіль
##постачання
Book
Мура
владі
Ver
##овом
##овід
Вино
обліку
будівельних
##йшовши
Центру
консуль
Клімат
голоду
Західний
відомими
спрямова
сімейПерепис
щі
Соро
їхня
##щувати
книжки
обрали
суміші
династія
інженером
хлібо
Вірджи
##грами
##der
##слави
##стери
Merc
вене
ґрунт
Постій
Почесний
Вільгельма
##неві
основну
перенес
янських
проживають
##слен
РСЧА
вела
хижа
##телями
імпер
лікарів
радянсько
затвердження
##ision
##сенка
заробіт
бокс
поділяється
##чики
##кладом
збору
Георгі
Вин
гну
##стова
Владими
поздовж
помірно
##нька
лого
натрі
способу
Національній
el
Бря
Тов
##пуску
повсяк
мікрора
будувати
компоненти
турі
кафедру
виявилися
Шен
Дале
Стюар
уповнова
розпочали
##бина
іншій
проводили
космічного
виконати
збагачення
флан
радник
##da
##славі
сюжет
Амстер
приймати
розпорядження
європейського
##BS
AM
##куруд
радіа
токси
щасли
музикант
Авіа
конфіс
присто
Сь
Ход
плями
вмістом
упродовж
більшовиків
завідувачем
##atab
Сус
Будучи
Місяця
##рійського
відкритим
гірничо
помітно
обкладин
редактора
співробітництва
##деш
##atch
дивер
Східно
нуклео
університетів
ев
яну
абстра
третім
притоку
Вісконсин
##нокомандува
користування
проголошення
##гоні
##трибу
заболо
сигнал
Сад
зайняти
професіона
вбиває
установка
Чемпіонаті
##зка
Успен
прототи
мезо
##винува
увазі
вельми
Академі
кордонів
приміщень
завершено
Кіровоградської
дід
кель
широкі
застарі
бібліотеку
автошля
формально
московського
нави
циклі
Зовніш
тунель
##ates
Луїс
Пого
Фернан
плавання
займалася
трапляються
енергію
температурі
генерального
електромагні
##клів
царство
викладання
##рована
читачів
Вік
говорити
Med
Тауншип
проживав
відвідувачів
##ЗС
Очо
##ondon
служити
авіакомпанії
меж
щонайменше
Hot
Комуністи
Народного
##бад
##фюр
ЗО
##ловича
##правда
Першого
##цілі
Rock
плів
переможець
##мя
##ave
##erv
ліга
жовтень
Сергійович
Дея
пригод
двадцять
розвиваються
сторінок
контексті
концертів
археології
##пове
##жається
багаторі
розмноження
##єння
##затор
Європейської
Плу
сума
вивер
Володи
збільшити
центральних
підтримувати
##Роз
##овен
Конго
розбі
футболці
Пись
Західному
виведення
Life
Зако
старої
направлений
Tel
кіст
ювілей
коливання
##гена
Блек
переваги
##ney
##тья
##часто
Олега
розшу
лікува
тракта
ухвали
широке
серпень
##AD
реєстра
найбільшою
##лармо
Маре
зведення
зсу
калі
раду
Локомо
фортецю
співачки
##дої
##зові
Сур
успіхів
Валентина
отримані
півострові
видавництві
1812
шкоди
еволюції
забудови
стадіону
РП
##нент
Щер
лежа
екстре
##шевського
проблему
##ject
поч
##лімпіа
полів
##ole
воював
мініат
називався
спалах
Північному
##yt
##нген
Bro
##ничих
Баль
бабу
Старший
біографі
##eph
показано
Mc
##літь
Дав
##тоном
носія
синаго
##чинський
незалежної
##хор
##сери
даху
плац
доньки
пустелі
включені
##ops
Юпі
##ценко
плавці
##тож
##звін
##ліну
Албанії
##ury
##atus
##гими
бензи
книжок
правом
класичної
##df
##прое
##чники
Абду
батареї
громадяни
розпочалася
##ніці
##скопі
убитий
вигляду
наукову
робили
поведінку
зерна
Тулузи
крейсер
##уму
Подіб
існувати
доба
##лізація
звернення
сценарист
цивілізації
концентрації
##езар
Брен
устрій
вчителем
механіки
Міжнародна
опублікований
Мю
горо
##iction
відвер
дозволу
електронних
гроб
листі
предмет
святкування
композиторів
##кії
##хара
годину
солдати
мільйона
містяться
тисячоліття
##гове
##льця
яного
видатних
технікум
навчальні
займаються
представляють
##значні
##увавши
вгору
модифіка
здібності
##По
##ємець
виступу
бойового
##лозі
вказ
тютю
всіма
##тичності
природу
принципом
Велику
Джованні
СА
##вальні
трудя
перемага
Цим
біла
будови
Львівський
виробників
Організації
Куп
##26
Off
##канський
Елізабет
виставка
##грам
Лева
Любо
працювало
se
Хто
##доволення
Галичині
авіаційного
Arm
морф
вдалось
##делі
прийо
##лягають
Love
Крей
пори
ілюстра
джерелами
задоволення
папе
цари
Столи
рахунку
частинки
спробував
четвертого
Шахтар
Леополь
почати
пошуки
порівняння
##жет
много
корона
філармо
започатку
##мунд
Кві
Опа
1856
черне
головній
##вних
##ерео
убив
бачив
значи
точні
морем
Поблизу
перевірки
налічувалося
НТ
дизайну
поліція
кінофестивалі
аніме
стара
хвіст
##шевський
військовими
Запоро
оголосили
Подільського
##стичний
##нованого
Твер
норм
греблі
##комі
океан
##леність
##нологія
сполук
сприяло
гімназію
Сун
окрема
Основний
побудував
отримувати
##ые
українсько
##вки
##їда
встав
засіданні
Петербурга
розроблені
удостоєний
Закарпатської
##isch
Тоні
Тимчас
музичні
##зас
##ents
співробітником
##чева
загонів
історією
грецького
колективі
німецьким
##регі
зумі
кукуруд
командувач
вирощування
коричневого
##ката
світо
третьої
доли
вступ
##ren
##родю
Arch
війною
Початок
##tain
Sec
метрополітену
##li
##ментар
Ліона
золотих
##ппо
am
##феру
око
##els
##регу
одержав
##ючу
IC
##бирає
##дували
Сінга
привабли
ціну
Sport
республіка
##ливу
Per
окис
буває
загальні
залізничних
##лот
##рської
##нью
##мерів
мистецтві
парламентських
гей
сини
Звідси
алгоритм
виданнях
рідкісних
##ште
акціонер
##ha
##сди
##рену
Aut
##чість
зйомок
хресто
##морфізм
Випуск
приводом
технічний
цивільного
##рська
Film
ікони
указом
Вольф
праву
дорогу
французька
##дери
іран
##йний
##мський
радіоа
канадський
##НУ
санітар
Wal
Ігна
реген
##atabase
становлення
транспортування
##anc
##гуа
##дорф
Марти
фінансових
волю
рота
суди
Чорний
розважа
наймолод
##лея
поряту
Габсбур
диплома
можливі
церквою
викликав
Нідерланди
##зний
Cap
##мової
есмін
терміни
ансамбль
географії
автоматично
організовано
Спору
Любов
товариств
##35
##Про
зразка
Польської
додатковий
##бин
Повітря
математичних
Ber
зні
##вички
Надія
перес
Єрусали
країною
Леви
Гонча
регла
світи
London
Романа
колеса
фізичного
дар
ростуть
космонав
Fe
васа
Вишне
задачі
сертифіка
##бич
##лак
Шрі
Ерік
рога
чаву
Голови
пояснення
##45
##рому
Кома
комісар
внесення
Олександром
##пила
Тіло
Нижній
основа
здатний
верш
##матики
Архан
приєдну
розпізна
етнографі
отримували
розглядається
##зона
##ступом
##вському
навіга
підтримка
релігійні
розроблено
позбавлення
##ука
віросповіданням
na
##піння
Першій
розсія
музиканти
Природ
знаків
принципів
яр
ірл
срібло
Народна
аеропор
Основною
створенням
##нівському
біології
Тип
Країни
напряму
##реня
Літо
Морі
Катего
відріз
бойової
##нду
hist
арте
пенсії
##лювалися
##вел
дол
небага
сервер
con
прохід
Найбільші
лін
##сторон
виконана
препаратів
##ko
##чках
агресив
просування
##ура
##горі
##щуються
виногра
##чинка
##польський
##уро
##icle
Рок
##ления
Тімі
настро
закладах
передачу
улюб
календар
імперією
Олексійович
##РМ
##цездат
створила
##томі
вища
##бувала
більший
просить
##uf
сонця
задній
##ator
##ляло
Саксо
прохо
розла
страти
вагонів
картину
застосуванням
студія
прикріп
##ологічних
сір
Бібліотека
##мк
AR
##дика
380
##нозав
Венесу
Звичай
дитина
оператор
інтеліген
модифікації
намагаючись
Православної
Гю
жах
Рене
Фелі
Стрий
Перемож
Професор
цінність
капітаном
японських
##ade
##орф
Tour
волок
##IA
лім
облі
##ництву
зірка
##шуються
Андреа
нагоро
зимових
зігравши
історичному
Змі
Сухо
пересиха
##волі
##фалі
##ваними
верст
шкіря
поверсі
Ясс
рубе
поетів
Розпочав
очищення
призвела
Українських
ефективності
##нічне
Артур
Меліто
##мс
вітру
наукова
повсякден
##ресі
Сор
##сбург
Awards
розгорта
сторінки
включення
##виця
Татар
красу
дорого
екіпаж
прикраша
##мора
вищій
мільйони
місцевими
To
##adem
журналістики
##нуті
Фонд
Степана
керувати
учасниками
Ой
##ures
##нічно
карт
погляд
барабан
лікарем
червоні
входу
Візантії
Мере
вбито
загрозу
передані
##нсько
Лід
енергія
оголошення
Програма
##ki
Режи
зама
##льській
готовий
##чани
Гін
конди
Німецько
наявного
проведена
##чуть
Класи
естра
імі
єзуї
Стати
родичів
параметри
реєстрації
зменшується
Кун
Киев
крок
нічи
утвер
календа
Перебуває
використав
випли
колишні
переробки
##шева
руш
##тивними
Чернівці
Річ
1858
##джених
##EN
##пром
Функ
точці
##льовані
налаго
Федерація
злов
##витися
Ігоря
реакція
##кана
##лятор
Реал
жодних
плацдар
призваний
переговорів
##яни
Des
печа
Таджи
скелі
Загинув
закінчився
походженням
печери
контракту
##бані
Jul
глі
друг
типо
##города
збірних
еліп
весня
цикло
продукту
##umb
Форма
5000
простих
користувача
##бас
370
##нич
Нан
Brit
виконували
млин
планет
Західно
##ниж
взу
Арно
драматичний
відповідності
Pet
вига
автомобільна
Ніжи
позаду
дебютний
сприйняття
##ых
div
диригент
##ame
##чище
##нерів
Преобра
Ось
кубок
Комітет
препарат
Коз
юрисди
Чорноби
##ML
IP
##ючою
міо
Святий
майстри
Ерн
масу
##ломера
Новій
Вільню
Освіта
повної
олімпіа
включено
виділяється
##ford
підпис
хвилини
повітового
##дак
##лівського
житлових
стосуються
громадськості
слі
яса
##ллера
cont
обговорю
Франциско
##стині
Сами
прор
самій
посадах
Зустрічається
здається
##рими
Зірки
сюжету
стрічка
політиці
престолу
імовірно
фінансові
корпорації
британської
##джен
340
##дості
використати
поділяються
королівського
##дорі
##заря
##тські
десант
Сталіна
Заснований
Результати
ієро
##зькими
Залеж
богослу
##ane
дия
##логом
сатири
Дай
Сва
крам
керує
порта
Науково
православних
##мео
##логію
Кари
звук
кислот
яблу
нації
тріум
Джорджа
калібру
культурний
згадки
Антаркти
Чемпіонату
єврейського
##нтів
##чальник
ніяких
піснею
подається
##33
##рували
Мілан
розма
мільйон
звичайного
##ДП
##awa
##lex
Part
Нехай
ненави
Рішення
діапазоні
Британської
рент
сучасну
##рає
Dr
##тістю
Замо
фаль
листи
перетворюється
робив
мульти
композицій
##iem
особливий
складання
митрополит
ареа
палати
правових
##ріє
##теп
qu
кону
окремими
телесеріа
російським
##валю
##неви
##нуто
Аві
правля
Дмитрович
##ball
Індія
повинно
Чернівецької
##fo
##rol
##совані
##чилася
зроби
суспільно
##we
##ДЕ
легендою
представника
застосовувати
Друж
Едуард
опубліковані
Коста
конфігу
зя
крил
##динамі
##IT
##ene
Ги
дум
##шених
Боле
зазначив
азербайджа
pdf
##жними
##кладання
Польського
обговорення
##йська
трій
Пое
1857
Євгена
обсерваторії
##ouse
Tra
спортсмен
командувача
велико
крипто
призером
##от
##івка
молока
півфіналі
##гали
Шту
вих
##стона
##читися
балету
хвоста
іспанський
Фи
##сара
##рахун
звідси
лейблом
Уд
##чком
слю
несе
дочку
Констру
примикає
підводних
##ets
##пта
Зла
форматі
Оме
потрапити
спортсменів
##філ
##дячи
##равлі
##сленні
Trans
геральди
##ues
##ромі
мозаї
Карпати
обрання
фінанси
колекція
Коре
Арден
##нськими
багаті
діаспо
стільки
грецької
виступила
спрямовані
##rib
##сьє
##торію
танкової
націоналісти
ГО
щит
старт
поїздів
##вач
##лма
Хреста
замінивши
відро
вулицею
послідовно
ланки
геноци
жертва
квартира
підпорядковане
Крем
Модель
множини
##реалі
Ісла
АРСР
басейні
попередні
царем
ядерної
вартості
##градського
викликати
Ас
сліди
короткометра
Enc
ВВП
машині
експерти
аварій
транскрипції
##ada
##СРР
##енка
##ерію
виглядає
тренерську
віде
##заснов
Лівер
Стара
дрібними
пояснюється
##маа
##живає
Справ
спрое
оновлення
створюється
##партій
інженерів
##inc
AS
Кут
Will
ваку
Стандар
Стефана
започат
Дунай
пород
глибоко
знищено
відвідував
Мюнхен
показують
Всеукраїнського
Po
ДЮ
кохан
приці
виявляє
правителя
##ОП
варіа
почало
підозрю
##IM
Sol
##бургу
меті
##контро
##славом
ютерів
##ссара
станцією
Семи
Парале
псевдонімом
Science
перекладу
Подільський
італійських
##чника
залежність
електропо
здійснили
закінченні
американські
куля
льоду
хоре
Нижче
зарах
сонце
Швейцарія
Німеччиною
підготовці
образи
Йорка
обсте
##туються
тривалого
##дило
Cal
рухів
охорону
єтнам
монета
зеленого
##мої
##зуючи
##шенка
задач
даному
заплано
масових
королівської
прямує
важкі
буквально
продовжувати
##ula
##зню
Reg
ведме
лівій
сприяли
##карі
##твір
Aust
третя
запові
інциден
відновив
залишивши
##пота
апте
весни
дистри
Берліна
альпі
водія
жінкою
наразі
викликала
##цип
##гізму
Себа
Слави
##ціонерів
Наукова
колишньому
##квіт
##ницьку
залишає
мислення
##двічі
майя
Super
лісових
воротар
сигналу
конструкція
290
блока
дітям
фантастики
##чов
##льців
УГКЦ
янського
машинобудування
##ГО
Кінг
батьками
показати
трудящих
##28
Клав
Сверд
Миколай
##нциклопедия
Que
мір
##носців
Галина
нагородження
##27
Поп
мету
значу
океані
зелений
сценарій
єму
україно
офіційна
##вив
##блею
засвід
тропічних
##віту
##мінг
Біл
кібер
колони
єдиної
##ames
UTC
ого
Вере
східно
Третього
Радянська
господаря
свердловин
##ЕП
піон
званих
##лані
##шани
##версі
віро
готель
вершині
##МА
танки
Спартак
дитячої
записів
Дід
маніпу
розпочалося
ЦС
руку
знизу
відрод
категорій
педагогічних
перейменована
1849
##нічними
державним
організмів
##цит
##єєв
##рест
Sal
стр
техно
цегля
струмок
##ційо
Елі
мерт
##ваному
стилем
ліворуч
повість
здобувши
кінорежи
Драго
драми
судді
Будівля
відправив
зрозуміти
розіграшу
підготовка
ініціативою
крит
Європа
рукопис
журналах
зазначити
##одор
єдину
партнера
підтримують
гай
Доку
набра
телеканалі
##ota
Pa
per
диха
Мухам
видає
Августа
доскона
верхньої
опозиції
випробува
##кордо
Берн
усім
кавал
підйом
##zer
Свої
середні
навпроти
помилки
Просвіта
##гета
Рам
афі
євреї
##рійської
Мексиці
пацієнтів
Нер
##цвіта
Game
Викори
пізнього
цивільних
Правобереж
##кір
##дено
##шува
минуле
##товарист
довкі
##графічна
труднощі
невеликими
обіг
газет
взводу
знайом
премій
##зян
Іл
Hol
вивчає
вузько
відкла
Переяслав
Повернувшись
єва
Саму
Алекс
заводів
пояснює
перемогли
технологія
археологічні
##ni
ХК
##бари
Найпо
доньку
Східного
відкритого
прагну
відправлений
Оз
##berg
Цезар
конструкцій
##берку
Муха
гіль
землев
Людмила
Іза
Рік
австро
запасів
власників
інфраструктури
ПЗ
Dev
##карпа
Ford
свин
преси
фабрика
етнічних
записаний
##тіння
Франц
актів
Нік
Алта
Віра
##паду
зма
оми
ескі
щита
Горба
важливе
укр
##валий
##швілі
##хою
UN
Аля
куб
Чарльз
рейтин
числом
##водяться
братами
Найчастіше
Нідерландах
Чен
##yclop
масового
1855
доста
сільському
##ловим
Раду
вокзалу
найменування
##ield
кот
фігур
істориків
750
стовп
Студен
доводиться
##зях
Чернів
##шкою
Ste
блід
Петру
епізод
219
##ливими
агента
Отримав
подібний
напрямків
обчислення
перешкоджа
лютий
впоряд
концта
##чорномор
лісництво
перенесення
Буе
кімнати
перерви
приладів
відбулось
машинобудів
##борах
Будь
##центро
здобути
проживала
заборонено
театрального
Середньовіччя
PC
бы
піа
##ломов
Кори
Турк
штатів
припинила
##немо
web
гміна
характеристик
##овик
коня
жовтий
альбоми
121
Ліса
Берди
Тихого
пенсію
резонан
допомагав
громадянин
##маро
##дився
Меді
##переда
водоро
виділити
репертуа
функціонує
мінімум
асистентом
Сове
##вченко
Кропив
метало
селищна
збереглося
Шей
##тверо
очей
##льника
селами
бронзові
бомбардиром
протилежному
устаткування
##вили
появою
письменниця
Українському
##джува
спіра
вільних
лісосте
приїхав
літературно
##TP
·
##хий
готов
важкої
хімічної
##жар
##томи
Шлях
рано
терміном
Категорія
##сієм
1600
алфа
помсти
достові
компенса
##єт
##iation
демонстра
християнства
##носять
башти
срібні
Флорида
бувають
музично
урочище
трапляється
##тул
##тано
Mart
Якова
найбільшу
заби
черні
Тбілісі
правитель
##red
##жами
Іні
музиці
філософі
Ендрю
Листки
пожертв
Московський
##олк
симетри
дистанції
наслідком
##дого
міто
поява
ризик
перері
##родинамі
знахідки
взаємодія
##коні
##чись
Мате
цеху
величезний
##зеля
сестер
студію
змінила
діаметрі
протитан
##nia
##тизм
душ
турне
грають
передній
відбувалося
мг
Саудів
полково
способи
конденса
платформі
спеціалістів
##als
##нута
##вардій
збірку
стояли
золотою
переказами
##прості
травми
ансамблю
клітинній
суспільних
перейменований
ЗОШ
##мейстер
гостей
парази
майданчик
спостережень
##ТР
Віт
топ
дисло
Відзна
Сал
виши
випускає
##рове
Char
оригі
цілях
завору
Червоній
проводився
охолодження
Іран
Гурт
пана
виграти
впливають
Євробачення
натя
плід
##тлерів
Відень
Туреччині
Вів
##нутих
репута
моделлю
звучання
Лівобереж
##ala
Каї
побою
Герман
успіхи
активним
##ext
##ode
##умі
##флек
йти
Русь
неле
графи
підтримкою
##жною
Розмі
наука
довести
конституції
планувалося
активні
Академія
написано
##lam
##везли
Осі
##штейна
тепли
епізоди
##льт
##дінг
Адріа
поспі
напруги
оркестр
проголос
відображає
##ura
##urg
ядро
станів
##матичний
жіночого
##круг
Саа
влашт
Газета
вказано
королева
статистики
представляв
##жах
нама
гризу
Александр
поступився
##сай
##work
Дитя
перо
Гвінеї
Середземномор
##za
Іоанна
профіль
навколишніх
малі
мінералів
Степанович
##тацією
##рійський
католицька
##різно
Водо
допи
висловив
послідовність
Чорноморського
##дем
##тус
##лона
##трав
народила
монографій
придушення
російськими
##лики
##лярів
##ївський
Джоном
приїха
OS
мю
УСРР
Трохи
запрошений
планується
##46
##ськом
тема
Linux
Процес
Найближ
музикою
прийому
верхнього
здійснював
Ефіо
Литовського
організаторів
##водні
чорних
приватні
ступенем
проведений
еста
комфор
набуває
частоти
Web
##гломера
шер
Швед
грани
локалі
##візі
єдине
говорять
##бр
Er
Ast
гіл
1831
##євський
розгляду
виконаний
відсотків
##схід
Жана
Робота
польсько
##of
##ats
1820
висе
лежать
людських
підземних
##29
##ступі
стерео
постійним
##працьо
Націй
нащадків
Сигізму
громаді
розташовувався
Sim
сук
##глися
потрібні
##пускається
Ілля
##метрія
стінах
частку
дипломат
викликали
додатково
##НО
##inn
1854
оран
полях
акреди
##зрі
##реві
Транс
Партія
соціал
Запа
діяча
тепла
Дністра
Одружений
виконавчої
механізмів
##єми
Змагання
літературний
##och
##неної
##тович
ґрунті
зберігає
основній
Del
Ори
згоди
##вальних
збірок
формат
Старого
повертає
Фун
росіяни
сестрою
можливим
##уер
##дміністрації
повна
правив
кальцію
увійшло
підписали
стандартів
Центральній
Фрей
Бунде
викон
Упродовж
дисциплін
стверджують
ВР
біт
Вищої
необхідних
недостатньо
##ТА
##вон
Кракові
зразком
забруднення
ора
арку
пеналь
демократії
##кулі
Дель
##водних
Джонс
балів
Штатах
ячеслав
сьогоднішній
Королівського
##цвіття
звуку
котро
росіян
мешкають
цінності
підтвердження
Тир
біат
найкращу
Адміністративно
##мину
методо
Криворі
дозволила
науковців
управлінням
di
Ґе
Tur
адмірал
знаряддя
підпорядков
##дром
Ріг
##нізму
зняв
##ундтре
##беркульо
##гори
канцеля
обстанов
організаціями
магна
синтезу
призу
Corpor
таємно
почесний
ФІФА
наші
конвер
маркси
донькою
##фій
##пети
кате
нечи
Перво
глави
жовті
обігу
написом
швидкого
##ona
##нках
озері
Рівень
поштов
виноград
гвардійської
##eng
##omb
Труд
Родина
розгроми
##мали
Post
##матика
нейтро
##ja
стя
Паль
Вадим
зареєстровано
Юлі
##леній
максимально
##нель
Сіле
Роботи
Служив
районом
невідомі
прус
співу
половиною
придбання
смузі
композиція
літературного
раб
##щенка
відеоі
Залежно
фільмом
каза
аудіо
знято
Велике
##стичного
##lag
їхнє
звиви
знаком
акумуля
вимогам
галузей
піскови
прогресив
звіт
Впродовж
тестування
##36
Ет
##револю
Кароліна
видатний
маленькі
польські
Чорногорії
археологічних
##двя
##госп
Анджелес
##ІС
550
СНД
Mark
Скан
конве
патен
ліквід
продовжувала
##корист
давні
юнацькому
чисельністю
##бол
Робін
перео
Теорія
безімен
гірські
гітарист
##ОР
##тун
1846
рису
цибу
хотіли
прибуття
Відмін
вивчати
спогади
##селя
##вальний
цінних
##тивність
виділено
покращення
##бана
дефі
##сторів
істин
доклад
##tainment
Болгарія
радником
##ida
Помі
акула
осені
найбільші
телеканалу
облвиконкому
Af
##довим
Тель
Відня
літній
визнано
поклада
залишалася
Сав
##кторії
руїни
ефекти
йдеться
розібра
перемогою
##армій
Інший
Головою
замінити
повітряно
засновника
доки
смуг
курсів
збірник
відступа
##беля
орбіти
##сум
##ript
##тівку
дошку
Міністра
цінностей
##зур
##меру
фах
хору
##альними
Держави
мешкала
заборону
##фта
310
Рух
фрагменти
Московському
##ugh
##press
язнів
ударів
анек
корене
набору
реактив
фотографі
##ева
есе
##любле
насі
гірсько
Анджелесі
модернізації
оподатковане
призначається
витон
Іваном
##ych
Gra
Рон
колу
запас
суддя
прослу
жовтого
альбомом
експозиції
##нейро
Можна
позбу
##станцій
спекта
##джуються
називалася
##атрі
##гону
воріт
хірургі
пенальті
радянській
##кіно
##тена
Вип
кисню
вершин
літери
АЕС
йшла
Grand
Буковини
суді
акушер
предметом
Aug
шпа
Серія
Відомі
назовні
Колумбія
знайдений
вимер
використовува
##уе
Гіл
##альній
##хаї
купе
Італій
Гаміль
Таїлан
##тованого
відкрити
розрізня
##леності
дівчину
утворюючи
##sc
знаті
натов
Буенос
завіду
апаратів
показником
вірш
##самблеї
кузова
місіон
Тимошенко
##нти
##гану
Лесі
Болгар
орбіта
Додат
культу
спусто
втрачає
пристрою
Кулі
##льські
Бургундія
атмосфери
Султа
торгов
##oria
##вілл
##спів
Mas
іспи
##городі
бавов
Москву
##альність
дивізій
активний
нами
Java
скеля
мальов
спромо
визнали
Українське
папа
скром
Посоль
новини
комплексів
Оп
##цлав
виявити
##ловського
довкілля
Донецького
підрозділу
драматичного
українськими
##вечері
майстерності
##лери
##кторі
##токси
Мсти
раунду
##носиться
Словенії
культ
ролях
вологі
##ологічний
##mer
міру
базою
рельєф
##щах
поєднанні
літер
Виступає
цегли
могили
непере
Сви
Форт
##подібна
другом
##able
##шами
діо
дроб
Метою
Озеро
Галаца
донині
визнати
маршрути
##льок
##москов
Паулу
варію
Європу
особливістю
##сіа
##ship
##гену
очіль
ветери
консул
могилі
наванта
Львівському
##фті
Город
обрав
адміністративна
##боди
Мілана
res
раси
випов
молодь
значної
области
складовою
катастрофи
російському
Глі
бей
##ляцій
Розвиток
домашньому
##леві
##такси
Гідро
Твори
##писаний
ятники
лісового
Александра
##щин
##дним
танців
нижньої
державними
Використання
загальноосвітня
##ril
##iety
Дого
Криво
фахом
России
аудиторії
отримував
перетинає
продовжують
промислової
футболістів
##НА
##дре
Таєм
Війна
учень
атрибу
янистих
комунікації
##жей
обмі
зовні
Ава
##ристом
затри
кутом
запропонували
Техас
греблею
Великому
##75
##lav
Оса
вокал
грецьких
##нішою
подви
широкому
шведський
Кір
Хво
Юхи
сиді
офіцера
терористів
переселення
it
650
del
ритуа
вивезе
найкраще
працівники
Організація
##ллс
##Tube
Городи
глибини
захищає
німцями
розрізняють
співпрацював
Time
Квітки
єктами
Полісся
Сучасні
недовго
пасажирських
##гони
рівни
літопис
військом
##ald
відстою
здатності
побудували
територіальних
wh
Кас
##фельд
1853
Киши
деше
папи
домови
переро
##нян
##діон
##лиці
##тьох
##чжоу
Премія
являють
вої
##тивною
##техніки
дівчини
злочину
значного
вимушений
Голодомору
##йте
##icus
Чел
##джували
золоту
галузях
серйозно
Указ
святи
##електри
дійшли
оселився
практика
працездат
##вол
##зма
##дене
##будову
бронзи
бухгал
верста
підтвердив
Аба
##гуляр
Крив
викоп
виріс
малого
заявила
скороти
відкритому
знов
крива
кухні
кількі
проекті
##льці
##тань
СБУ
Шля
##нувши
славу
затоці
методами
розповів
вимагають
майбутніх
приводить
регіонального
BM
##нями
флори
досліди
Аргентині
формується
Пап
довгих
торгівлю
Gal
##дської
Христ
Бессара
дільниці
нагадують
Харківському
маке
Самар
відпу
##логічна
##подібний
Америка
відомої
збирається
традиційні
Залі
мереже
невисо
збірною
ознакою
реальності
висна
увінча
гарнізо
традиція
МС
Хра
глю
##ленка
мрія
##лилася
обстрілу
походять
ій
Die
Ске
##рійці
увага
Кембри
вживається
Li
дійшов
поодино
##зки
##ress
Вави
падає
сильним
зупинити
##риди
засновані
##городського
американським
##ele
##lad
##меха
##радо
ящі
чорна
окрему
виконала
магазинів
##жник
##проект
Слобід
полотни
премією
церковних
авіакомпанія
Банк
Воль
Дунаю
контей
##лат
Ая
ПС
##гиня
чиї
гази
водах
##обладна
гірський
позитивні
##км
Детро
Фонду
коаліції
Волинська
Corporation
SS
Roy
##бетних
поїха
##різномані
спрямована
##зержи
1847
##завжди
реліз
Воскре
Великих
раптово
утримує
закритий
спеціальність
Орен
екскур
Верхній
подібно
сталася
Єрусалим
Головною
закономі
##дви
Шекс
друзі
Мюнхені
рівнянь
важливою
##тере
їде
безхре
Східний
озброєнні
Баш
літро
Бернар
Роджер
жіночих
одночас
окупова
##новій
Захо
слан
особу
словом
Валентин
бронзовий
##валу
Leg
##пенко
Марса
##маранче
Ломбар
повітряного
громадянство
Горького
найбільшого
Сел
канц
Виконав
величина
Наполеона
фази
Голлів
людської
припинити
напівпровід
1845
##ївська
зароб
частки
історично
використано
католицький
національним
рухом
відряд
поїзди
Паралельно
##земе
Ідея
язує
кліти
Нижньо
Нарешті
вільної
Артем
##толе
чай
##https
##класи
вузол
##валість
правий
коріння
скасовано
Уро
дах
здійснювали
Заха
Металі
вдосконалення
##ват
Еш
##мура
##стря
руб
##дська
гумо
лати
кВ
павіль
поясню
Балтійського
##ano
##теса
##страх
Період
Франче
ґрунтів
загальне
англійська
##несен
Трав
Росію
квіти
щодня
##⁄2
##ival
##парат
жінку
розкі
##фікований
володіють
предків
припису
відсутня
Єлизавета
стандарту
##сподарської
##ряді
трофе
нелегаль
визначаються
##min
##ллон
225
Майк
ціни
знявся
Державна
двадцяти
елементом
doc
##станню
змінює
молоко
хребет
трактор
судноплав
клубах
YouTube
Комплек
землями
виставок
відіграє
Поступово
##мис
##пак
голосу
звичайні
променів
##SS
Права
потер
фенте
Донбас
друком
призем
##чівського
володіли
доповнення
пасажирський
каплиці
розширю
інтеграції
##85
##ют
гау
Блан
Apple
надії
шлюбі
##ваючись
особливих
Russ
Коль
друзями
##ваторіаль
важливий
проблемою
японського
##uck
Dav
##каючи
##стент
посили
Виробництво
##важ
каталі
вступає
наведено
культурні
батьківщині
єю
вишу
житла
##градської
договором
Entertainment
##uz
##атри
алма
Греція
Ukraine
продано
централі
найпоширені
книго
талант
музичну
єдності
##ксен
Пуа
Горі
Касте
Працює
Східна
відтін
субтропі
пасови
Будинку
метропо
Аш
##давна
##подоб
arch
банди
видов
прибі
світом
негативно
історичну
природоохорон
##edes
Моро
бурх
жанр
двоповерх
Ліх
Live
Луара
Брай
Ґілян
##щодавно
вуглецю
обласна
Кубі
гнуч
Залізни
спортивного
##гр
##тес
Che
Pal
col
Уже
##ологів
Боліві
власними
деревини
сторінках
дебютувала
попередній
Ані
##ктиві
Донбасу
розрахунку
##РЕ
##гю
##хана
Дев
Фай
##цитів
компі
покло
фауни
продукцію
корі
курорт
образу
залучення
відмовитися
архи
халіфа
відділі
зведений
нуклеоти
стратегії
##ктива
вигід
здатна
учителем
персоналу
середньою
##inus
##irst
Ang
кшта
Завод
пережи
вийшовши
невелике
польська
потрапляють
##ico
##єна
131
блоків
організатор
спеціалізується
##лос
лиси
глибину
різниця
вуглевод
італійської
військовополо
##кас
##леп
##iter
Зай
Запис
огляд
проєкту
демократичної
продуктивність
##тома
лавах
##duction
##фіковані
передали
видається
комбінату
козацького
Видавництво
губернатором
##манні
душу
##нічною
Правда
##РНК
##цевих
споряд
відбору
стародавніх
Щит
Лиси
Фести
Бондар
галузь
гендер
Українки
закликав
контакти
новоутво
номіналом
електричного
Il
клан
дочір
масові
митців
могила
‰
##гині
Фур
сучасне
назавжди
сходження
Анрі
Еле
##грама
Roll
висла
плане
1839
История
костелу
виконано
досягається
##lem
Rh
суми
Збере
доктри
##фікованих
Перемоги
Пролягає
обвинува
Відкритий
координат
незалежних
зарахований
співавторстві
Грод
опра
##гістра
##леглих
етапи
##пування
Селище
заліку
земної
різний
зберегли
популярністю
амі
кожний
Повнова
##ype
Яс
##ріал
Пал
ятого
прибут
легенда
відділом
популярний
правителем
##трод
Жак
хвост
правди
стояла
хрестом
##діяльності
Туреччина
показників
університетах
##рян
420
440
Бек
Біс
Провід
дитину
ветеранів
подарував
управлінні
Массачусетс
дослідженнях
AP
лам
Черня
Імперії
округів
градусів
асоціація
післявоєн
заповідник
##льї
Sil
Оксана
Верхньо
організувати
##ды
‘
##рук
##смо
##нивши
крило
##тинська
виходити
Розрізняють
затверджено
Уе
##мото
дна
##сових
воєна
початкових
##39
Луар
лівий
ефекту
кшталт
Вікторович
фінансової
Севастополя
Радо
карті
потому
поєднує
активного
##iej
##хей
Гео
Скі
General
змінних
Чернігівського
##рну
##писав
Боль
Techn
новин
решти
схема
##фора
##шань
Рез
губ
##зання
##стері
Щодо
доступний
##лтон
##оброб
##річної
Лицар
блиска
побуту
головне
Бразилія
журналісти
##тіно
печер
набули
альбомі
каскаду
англомов
розділені
називатися
архітектором
##ццо
актива
водойм
зведено
випустили
спортивні
Володимиром
##raw
##вна
тата
##альною
подачі
репресій
підтримували
##me
##ature
Граф
Камен
уника
Зелений
актором
зібрати
шве
##ebook
сузір
текто
ювелі
##ваторія
засобом
турбіни
##зам
Дня
поеми
історі
Баварії
відомою
механізму
##ЛЬ
##незій
осла
легіон
Мартіна
Навколо
колишнім
напрямках
суші
Теоре
судом
єднати
##34
##штаб
##ньйон
Sant
казах
перемир
адмірала
спеціальної
ПК
##фред
1832
##водити
репор
точку
водами
способів
посилання
найдавніших
##ero
UA
##пенга
Театр
планом
Філіппі
ретельно
відсутній
##вуд
типом
цензу
передусім
хімічного
перекладається
##fl
сумні
білими
гетеро
Хімі
читати
Вінниці
величину
AC
##чнем
Day
яки
потяг
коштов
тренував
1851
щоби
котри
##стеріга
включала
правилами
##ts
##сот
Діви
найу
світову
скупчення
співтоварист
##мену
олі
атак
хати
редак
кандидатом
архієпископа
##ng
ГУ
##кторами
локомо
Основне
світова
економіка
відповідав
##ливе
розме
струн
написи
##лівський
червоних
Новоросій
іспанського
AG
##erson
##ваною
1852
собак
храми
минули
Польщею
атлетики
бактерій
суперечки
характерний
##ранта
Огайо
дитячі
старожи
Генеральний
енциклопедія
дослідженнями
##біця
##става
Лари
десь
близькі
##гур
##олі
##нджер
##сталь
колю
Решта
##чившись
Федорів
підходу
пояснити
продуктивності
ТВ
##aris
##женка
##плане
званої
привів
турецької
зупиняються
Представники
ляль
##ничого
спала
залежать
Радянський
##гують
управи
Скоропад
Франкфур
переправи
##фель
кажу
ідеа
Томаса
виборов
електронної
виробництвом
географічних
Уа
Ірак
полу
факти
ціною
магазини
складності
Причорномор
середньовіччя
##ндр
повним
Комсомо
гітлерів
##ima
##тян
Гуд
1772
звана
рейси
розгром
принесла
представив
##ira
пиво
висвя
Бороть
цивіль
Арденни
характерна
властивостями
##oda
Еллі
Скотт
румунів
хворобу
контакту
евакуації
##89
##td
480
слуг
Фактично
колекцію
перегляду
Чарлі
розча
автобі
влаштов
##64
##коле
##шивши
Альян
Іванов
подоба
біженців
офіційним
підтримці
відсутністю
##рік
Ger
Сера
вража
Федора
планів
прагне
освоєння
справжній
однойменної
1795
застосу
критику
зроблений
угорського
##юрід
тюрк
##циклопедії
відповідного
розташованого
Лип
##верей
Champ
кріпа
радянськими
Спро
ризику
##тувалися
Пруссії
повідомлень
##кал
Рах
реші
Media
клапа
##довський
МГ
Val
##компа
санти
Донбасі
вважаючи
усунення
звільнити
замк
Священної
концепція
##ider
Йон
Камі
очки
##довіль
Доміні
екрани
спільних
турнірів
іконоста
прискорення
особливу
Краснодар
виробничих
Oct
##чинок
двори
##женість
волого
людині
янської
спільної
систематич
##рум
Наступні
залізниць
мінеральних
##ee
du
##хідні
ректор
картині
хвороба
навколиш
суспільного
Up
##др
IBM
##зумів
підніжжя
Аве
##нівки
##ськра
##ченій
війн
дороб
ампліту
колишнє
селянських
сва
наста
замови
фірмою
двоюрід
урочищі
роботами
приміські
Тира
греків
перера
деформа
бажанням
Ma
##дара
ель
лихо
міські
перелі
вирішити
мультфіль
найстаріших
Фро
##ливою
скорі
##пустили
Альфон
початкової
##каль
##кіні
Glob
облогу
Першими
зачи
Генерал
графіки
включена
##65
##РАЇ
##што
КК
##веду
Дана
муче
заважа
обласних
почесним
відіграти
зображений
обслуговує
ймовірність
##бота
Моно
##вальну
авторитет
Спорт
таборів
єднують
##план
Лод
##дорож
##товим
Хіро
інфек
Заступ
трубопро
черговий
поранених
регуляція
##ita
##гніч
##тках
Act
Queen
глава
##ристами
вівтар
агентства
залишалися
китайської
продюсером
призначенням
ів
очере
схожа
сповід
символи
астронав
збігається
##лість
Наука
мирного
поділяють
повнометра
##АМ
##шну
##ling
##хонд
1842
лігу
##новані
##писець
Ольги
яткою
камені
носіїв
відмову
сидіння
виходили
досягають
полонених
конструкцію
##лз
Міке
читав
Біблії
званого
німецьку
ОБ
##зовий
водню
найма
Остато
Валерія
Черкаси
твердих
##uv
##тає
відданий
скульптура
австрійський
##хій
кабе
піро
невро
планеті
повному
зазначає
приєдналися
##eta
##легка
Обидві
маршрутів
перейменування
ob
Вул
##ніння
##повів
звукоза
односель
користуються
te
ЗУ
##кава
Уго
єна
Торпе
човна
достро
лінією
Францією
громадська
bl
молекул
давньору
фармацев
##длі
##ллу
інер
обрана
говорив
названі
##гора
Осе
кузов
королю
гомосексу
##колій
1700
##сність
вчини
жовто
дістав
сполуки
місцевій
КНР
##левич
Свій
уточ
язич
сприяла
наявністю
Pan
ску
##будов
##лянка
зміною
трагедії
зберігати
небагатьох
співзаснов
ушко
Габрі
справами
Подільської
Кав
нано
знизи
виданні
ступені
використаний
##oman
Рот
хіт
##рному
Алма
палом
органах
берегової
мікрорайо
навчалася
революція
##мось
Діс
Скар
одної
сцену
портал
різної
каміння
печінки
сигналів
головному
##переч
арені
##стичної
популярні
Вілла
знали
очима
Мішель
військам
домашніх
хлопчика
надходить
Радою
солід
човни
вмісту
знищив
улюбле
робочої
згадував
реставрації
##kt
##ану
ЧС
##борг
олив
мігра
риболов
механізми
спортивної
he
Аса
##дової
стос
Події
атомів
Поперед
комбінат
саундтре
Лотарингія
→
##ike
Меца
Здійс
артефа
ініцію
американському
##НС
доб
##тижне
Рости
додав
некро
варіанті
графство
соціології
##телей
язів
вітро
любить
епізодів
##шею
##ціоні
1837
еконо
##ченість
##манський
техніці
виробляє
відмовилися
##рація
збіга
сектор
штучного
зазначено
відзначається
##MA
Ant
Don
КДБ
Мова
доці
Encyclop
молекули
поглядів
арешту
вищому
подріб
принципа
періодично
присутність
##хви
##raft
труби
##ностями
Аравії
динозав
туберкульо
##уючи
Mov
ґміни
носять
маршруту
поверхнею
супутників
пони
гітара
званні
ототож
сподоба
проголосив
##ели
дефе
окуп
розпові
Карпатах
##кей
##раса
##мував
праві
спере
юніор
Церков
поляки
Гітлера
вирізня
дійсності
##ґи
##тео
##мбер
##ната
Еко
Кафе
страж
атмосфері
~
##пері
Мун
уще
асоцію
Копенга
дитячого
притулок
МКС
воєво
Internet
##тікає
1815
Спер
стика
Напере
народна
##чинського
представлення
##йомки
Ліді
Білий
дебют
колій
Світлана
міському
музичному
вазі
боротися
Максимальна
##о
##а
##н
##і
##и
##р
##в
##т
##е
##с
##к
##л
##у
##д
##м
##п
##з
##я
##ь
##г
##,
##б
##.
##й
##ч
##х
##ц
##ї
##ю
##ж
##1
##ш
##0
##є
##2
##9
##ф
##-
##С
##П
##)
##(
##—
##щ
##e
##В
##К
##a
##«
##»
##o
##У
##i
##М
##5
##8
##3
##Н
##r
##4
##А
##Р
##n
##6
##Д
##t
##Б
##7
##"
##З
##s
##'
##Т
##О
##l
##Г
##Л
##:
##І
##u
##c
##Ф
##d
##I
##m
##h
##p
##Ш
##/
##Х
##Ч
##S
##g
##Е
##C
##y
##Ц
##A
##f
##;
##M
##́
##k
##b
##T
##w
##Я
##%
##N
##P
##v
##Є
##B
##–
##D
##X
##V
##R
##L
##E
##G
##F
##Ж
##H
##Й
##Ю
##z
##O
##ґ
##W
##ы
##_
##U
##K
##x
##J
##Щ
##j
##И
##’
##°
##Ґ
##]
##[
##Ї
##Y
##=
##?
##+
##Z
##!
##“
##&
##*
##q
##Q
##„
##é
##|
##э
##$
##ó
##ъ
##ł
##”
##†
##Э
##á
##>
##−
##<
##ü
##×
##ä
##Ь
##•
##ö
##ё
###
##í
##α
##ę
##ń
##ą
##ś
##ā
##⁄
##ѣ
##è
##·
##ο
##‰
##‘
##š
##à
##→
##~
##β
##č
##ż
##ρ
##ν
##ç
##λ
##ς
##ı
##ć
##ι
##′
##τ
##ε
##}
##`
##σ
##ī
##ë
##ž
##Ы
##ў
##μ
##å
##γ
##±
##{
##ú
##\
##Š
##―
##É
##ə
##π
##ō
##ă
##â
##€
##ا
##ј
##ø
##@
##κ
##ß
##æ
##£
##η
##δ
##ý
##ñ
##ã
##ē
##ş
##ě
