[PAD]
[unused0]
[unused1]
[unused2]
[unused3]
[unused4]
[unused5]
[unused6]
[unused7]
[unused8]
[unused9]
[unused10]
[unused11]
[unused12]
[unused13]
[unused14]
[unused15]
[unused16]
[unused17]
[unused18]
[unused19]
[unused20]
[unused21]
[unused22]
[unused23]
[unused24]
[unused25]
[unused26]
[unused27]
[unused28]
[unused29]
[unused30]
[unused31]
[unused32]
[unused33]
[unused34]
[unused35]
[unused36]
[unused37]
[unused38]
[unused39]
[unused40]
[unused41]
[unused42]
[unused43]
[unused44]
[unused45]
[unused46]
[unused47]
[unused48]
[unused49]
[unused50]
[unused51]
[unused52]
[unused53]
[unused54]
[unused55]
[unused56]
[unused57]
[unused58]
[unused59]
[unused60]
[unused61]
[unused62]
[unused63]
[unused64]
[unused65]
[unused66]
[unused67]
[unused68]
[unused69]
[unused70]
[unused71]
[unused72]
[unused73]
[unused74]
[unused75]
[unused76]
[unused77]
[unused78]
[unused79]
[unused80]
[unused81]
[unused82]
[unused83]
[unused84]
[unused85]
[unused86]
[unused87]
[unused88]
[unused89]
[unused90]
[unused91]
[unused92]
[unused93]
[unused94]
[unused95]
[unused96]
[unused97]
[unused98]
[unused99]
[UNK]
[CLS]
[SEP]
[MASK]
a
##sz
##el
,
.
##et
##en
k
##er
m
##gy
##an
##at
t
##és
##al
v
##ek
-
##or
h
A
f
##ol
##on
##ak
##ár
sz
##ál
##es
##án
##eg
n
##in
##ar
b
##ás
##ez
##tt
1
az
##is
##em
és
##ik
##ok
l
"
##én
##os
##egy
el
##ül
##ett
##át
##ég
##cs
##ér
##ban
r
p
##ít
kö
##oz
s
##ott
egy
##ág
##bb
##ét
##ad
##él
##il
##om
M
meg
S
##ap
j
d
##ék
##szt
##ed
)
(
##ai
##ben
2
##agy
##us
19
is
##it
##ul
E
##ut
K
B
##as
##aj
##ák
##ely
##ép
##ész
##ig
##ség
##ja
##ag
##ól
##olt
cs
##am
al
##int
köz
##év
fel
ki
T
##ány
##ev
##ot
##ent
##re
##ra
P
##áll
##ör
20
##id
##og
H
##ta
##áz
##ogy
##ény
C
volt
F
##ől
##ny
szer
Az
##az
##ep
##ci
L
##ám
am
N
nem
##od
ben
##ni
hogy
:
##ság
##ált
##art
G
I
##ur
##ir
##end
##nak
##iz
##ában
D
R
##áb
–
c
##nek
##ell
##ött
J
##ej
##szer
##ön
g
Sz
##ov
##öl
ny
V
##um
##te
##ud
##un
##ab
##ber
##ind
gy
##ír
##ch
##ont
ak
##ály
ut
év
ú
##hat
##erül
##ia
##öz
##ső
##ért
##oly
##ető
ez
##ös
##est
##eh
áll
de
18
##len
es
jel
##ök
##att
##ve
##agyar
##ében
##áv
##ill
leg
##orsz
elő
##ók
##alm
200
##asz
##iv
##uk
##ént
##eti
er
##ország
##im
##öv
hely
val
ban
##áj
##öbb
tart
nagy
##kez
##ára
##ei
##kor
##op
##eszt
rend
##esz
##ők
3
201
z
##ug
##ának
##ert
id
szám
##av
##ri
##ette
##ős
vég
##ín
##ított
##áros
O
##ód
##eket
kor
/
##ém
##ult
##ása
##ember
##ba
első
más
##ív
tel
##hoz
tör
amely
él
for
##ran
több
##ük
##ajd
rész
mű
##ebb
ad
nev
##ése
már
be
##ének
##zet
ter
##olg
##ád
kap
##be
##ím
hat
##elt
vagy
##ony
ér
##éd
##ic
között
##ort
##ült
##ikus
W
mind
után
##okat
o
mag
##alál
át
Ez
##elm
ös
sor
##ang
##ző
két
mint
##eny
„
##ább
i
”
##ció
mely
4
tan
köv
új
##ély
##unk
##ilág
##ható
##ére
##ász
##úl
cím
magyar
##and
##vez
199
kül
jelent
an
pr
5
ép
##árt
##ond
##ával
U
##st
##osz
össz
ig
##aszt
kör
##ob
##zs
##old
Egy
kez
alap
##ikai
majd
fő
##ítás
##je
##ület
##ers
##ból
##ozott
##ót
##erület
ellen
csak
##ozat
ját
##iszt
vis
kép
##elő
##nok
ker
##ház
##öld
##nál
##kal
##íz
##va
##ló
##for
foly
##nt
##ást
##obb
##tat
Z
##éz
lett
##omány
azon
##árs
világ
##eng
##isz
vez
##mény
##00
##eb
;
fog
##ing
##ített
vált
em
##pl
##ként
##köz
még
##iai
##erült
##ést
szerint
lak
város
ped
ír
ü
6
van
##ével
##ták
##ió
mi
##ből
##ilm
##esen
##tak
##utat
##kel
17
##na
kezd
Al
##mer
pedig
le
alk
##hez
##őbb
én
##ábor
ok
##ális
leh
##ják
ah
##által
##mány
##árm
##ked
vissz
##őz
##tén
##elv
tud
vál
##ázad
##all
##etlen
##alom
szerep
csap
##öt
szem
##ati
##uszt
terület
##ozó
##erm
##epül
##kol
egyik
kis
e
##ezt
Magyar
##ró
##he
##őr
ir
##ck
##ellett
##ások
198
##etkez
##ip
kir
##aság
##ésőbb
##óg
által
talál
##abb
15
bel
##őd
í
##leg
##ába
7
ered
né
##ossz
valam
kész
##őt
##ján
##alád
An
##ját
8
##jel
külön
##éter
##áp
##alk
Á
##öd
##áció
így
##any
ért
biz
fej
század
##émet
ar
##hely
16
kat
király
##pont
tag
##let
hasz
197
El
##almaz
csapat
##ási
##etett
ill
alak
har
való
##út
as
ó
##hető
##enek
azonban
##enc
aki
##ekt
in
##ölt
##ogat
##ajnok
történ
család
##odik
##észt
munk
re
##árom
ahol
szín
##ütt
lét
##tó
##erc
##óp
194
##elet
##ani
később
##ivel
##ári
##szak
9
##onal
alatt
##ítés
##oh
című
##ezés
##arad
Cs
fi
##ája
##ezett
##ikor
u
##gat
##esség
ind
nap
##ovább
##ról
játék
##atal
##ezte
12
##ist
##eli
##ező
196
idő
É
St
##ost
film
##ekben
st
ol
ország
##önt
##ub
##ant
##osan
##ait
##ef
együtt
minden
##usz
szak
került
ami
##űv
10
##ög
##éld
telj
##ából
##fel
##nök
##uár
##ását
sok
mér
##ata
nép
##fi
azt
következ
14
név
miatt
Gy
195
lát
nyelv
##cia
valamint
##tek
##up
##étel
##azd
term
án
élet
sik
Mar
##ván
##gyan
##nyv
##ozz
##etés
##áború
##val
##oll
or
13
had
ember
##emény
tovább
%
##lt
##ay
##atok
fal
##ac
##ard
##etve
##zett
eml
##só
##elem
##ter
##köd
sem
##etem
ház
ism
Ch
oszt
vers
települ
szab
második
három
##egész
##plom
lakos
##le
##sal
Bud
##ács
péld
##ne
##rend
##szerű
##alak
##ium
##után
től
##ro
##uróp
##észet
tem
ész
##óm
##rit
##ológ
##csol
##eni
##apest
##nő
##vény
dél
német
szint
oly
191
##sor
##ési
kon
tám
##oszt
##fog
##gg
##ark
##inek
old
haj
##ről
##vány
##etség
##ször
##ói
##ította
193
mellett
##alt
##otta
##form
illetve
##ib
##omb
Köz
##ós
sp
ő
form
##ették
##ához
##ex
köt
von
##kép
gyak
##ója
##ass
##ések
rendszer
egész
út
##jt
olyan
##oport
során
##ius
##ki
11
##atl
használ
akkor
műv
##óz
##ór
##ess
##irt
192
##ec
##ord
##arl
##szín
##ános
##ügg
int
##adás
##fej
##ón
hang
ur
dí
jár
Er
Nagy
észak
állam
előtt
##ion
##ern
kereszt
any
kapcsol
##ozik
##ens
megt
##ich
eset
##ozás
Nem
nemzet
megjel
ugyan
seg
##ották
saj
##ontos
szület
játsz
jelen
##ong
##iget
##eres
##ah
##úz
hossz
föld
úgy
irány
II
##vel
verseny
##rancia
##ául
##ista
##zel
##ika
##izs
##szám
en
faj
##ason
igaz
marad
##íg
##abd
fogl
dolg
teljes
Budapest
##ánd
Ar
##elen
település
##ezték
##öm
rég
ön
itt
##véd
választ
##ram
w
##eit
##jár
lehet
fél
##olit
##ajnokság
körül
##ün
##ején
társ
szolg
voltak
megy
##ították
##tól
##úg
##ept
##ító
kell
##ron
található
of
##ast
lev
kiv
##éb
zen
di
0
##lat
##af
##elmi
##okban
nyug
bet
##ését
része
Or
kom
dönt
határ
amikor
működ
##het
visz
_
##ow
##emez
fejl
##ily
szöv
##nyi
##orv
##kül
közép
##dul
részt
##enger
négy
In
##inak
##ződ
pály
##íl
##nev
##ánt
jell
egyes
oldal
kar
##zi
vissza
##sége
##enn
##ete
mód
sorozat
##atk
Magyarország
##műv
##nagy
##erceg
víz
jog
##ívül
létre
min
dal
templom
kit
##erikai
The
##ocs
##irtok
##ekkel
##ármaz
amerikai
##pus
tér
##omán
öt
##ver
'
tiszt
magas
##bum
##város
ezt
cél
##ka
##föld
##mus
Fer
ap
##űr
költ
elm
akik
##ula
néven
Európ
##essz
saját
##ilis
##sága
lép
##lás
##of
##mér
nő
zs
ma
össze
##őket
ha
##haj
vezető
##vis
moz
különb
##ereg
##adó
##ori
##ll
##ors
##fél
##zés
számára
##jában
Y
kl
növ
##ari
Ist
##ejt
km
##azdaság
##lov
hiv
közel
megsz
##észeti
##ür
En
vár
##ítette
hagy
##jai
kil
például
hason
szervez
##erg
hal
Egyes
##eség
##séget
Szent
##mad
tanul
##közi
##ájus
##ew
kapott
##ann
követő
nek
##iség
##tár
csoport
##gol
##tóber
##ébe
##arúg
##eked
Mi
érd
született
##abdarúg
##ermek
ár
függ
hegy
##ügy
elt
##cius
##eptember
véd
közül
##ester
##ezet
test
##almi
##áról
hozz
származ
kormány
személy
nov
fér
##iskol
##eken
##ce
##iában
tagja
vas
##vonal
##ilyen
halál
##okon
##hány
##ték
jan
könyv
ezért
##okkal
##úr
Am
##elés
sziget
##lő
##kőz
##ha
Pr
szabad
birtok
május
fek
##ással
bar
part
##uguszt
##ására
katon
##sel
alapján
X
##nius
##urg
október
##övid
alkot
ör
##ly
január
##ugusztus
falu
ek
áp
megh
##ink
mert
##imp
##éhez
##zeti
##álló
segít
vett
##ie
készült
##únius
először
következő
##ózs
##juk
##gel
##uc
szeptember
bizt
pont
##atot
##idék
’
alkalmaz
háború
##rás
angol
túl
körny
par
##ebr
aut
album
jelentős
ismer
##úlius
##szik
osztály
##vár
##ábbi
labdarúg
tal
men
##olna
közt
##ech
tenger
##ítették
üz
Ny
iskol
március
##ine
dec
ismert
felt
Sp
##ottak
##rilis
Br
polit
ment
rendel
augusztus
jó
25
tek
eredmény
##ékeny
pár
június
##orn
189
különböz
##jed
##áját
##ehér
mivel
ott
község
francia
méter
##kod
bizony
amit
nagyobb
190
hu
##udomány
##kész
tár
óta
december
herceg
János
számos
november
épület
##incs
##ünt
##gyel
július
30
nyom
besz
folyam
##oc
felv
And
2011
pl
érték
Ú
##oni
##ulajd
##nél
táv
##nagyobb
##rom
##áló
április
kel
##ulajdon
gyermek
míg
kev
##séges
másik
rövid
##anak
##assz
##jának
raj
##áig
##lát
keres
bev
##ítő
közös
##ina
Áll
##űz
kér
szó
##mal
##pen
utol
##ársaság
egym
haz
##úly
##almas
##ey
elnök
188
nél
győz
##son
évek
nyil
rendelkez
##ismer
mell
##izmus
##mel
##ómai
##ock
emlék
##kori
érdek
##háború
szél
##átt
##odalom
reg
##sér
##író
legnagyobb
vesz
##esek
teh
##ozta
tekint
##ebruár
lesz
mérkőz
adott
annak
változat
hivatal
##aként
##und
csat
##ogram
2010
folytat
erős
han
##ian
##000
hasonló
gond
##la
##écs
##elte
mutat
díj
elh
egyetem
jut
István
képvis
lehető
hosszú
##olikus
##vas
the
##atos
néhány
##erek
##ób
##ánc
##itt
##ogatott
elv
erd
##ászló
##éről
újra
##sp
##rá
február
egyház
szerzett
repül
mond
##élet
labdarúgó
követően
években
ismét
2008
harc
##edik
##ust
##qu
kutat
mod
##uz
##izsg
tulajdon
Th
tól
harmad
##ítása
ének
##őleg
Amer
kisebb
##atlan
##eri
##ípus
##ebben
foglalk
##alkod
haszn
Ferenc
187
Kár
##űjt
volna
##eum
21
megv
##elked
történet
Mind
##arab
##ákat
folyó
##önyv
ekkor
feleség
kiad
különböző
hanem
Már
központ
##irály
utolsó
hír
elfog
##bert
##országban
tanulmány
##raj
nevű
végén
##éj
##űn
2007
végül
##ancs
római
felé
vel
##ától
anyag
##acs
##lik
##ettek
őket
##orvát
állt
##vezető
24
nélkül
Le
##har
bár
##ozs
##tor
os
186
Állam
épít
kívül
tölt
##amar
##né
22
szintén
##org
##ísér
gyakor
##ull
mai
##if
szól
##apán
##ca
##ics
lég
megk
##olta
Em
##sági
váll
belül
ide
##ágy
Józs
##nia
megjelent
mill
##árd
##esebb
bajnokság
csász
tervez
##határ
uralkod
melyet
2009
világb
##ságot
##új
##itk
évben
ügy
##foly
ezek
kult
##ork
amelyek
2006
##ábban
##ezik
##álták
##faj
tartozó
török
##lovák
József
##atták
##osa
ab
##ttp
##érték
Sch
##fr
##rel
alá
##lag
Joh
len
Bar
Int
##dig
##io
megfel
##iss
arra
bej
184
##ándor
##örög
##ileg
fontos
Ö
évi
Ha
nemzetközi
##rany
bem
lány
Ol
felh
világháború
amelyet
##ere
jellem
században
##ású
Fel
száll
##róf
törvény
kifej
##színű
Mik
##edett
biztos
23
Egyesült
##keszt
##ou
##oci
hát
szár
##étől
##üz
##eként
elér
támogat
legj
szük
tartalmaz
##énz
fut
kellett
harmadik
##erte
##nap
##onn
##telen
##rad
magát
##oztat
185
fest
gép
##ry
tev
##oj
##ációs
kik
##lal
2012
elem
##ölgy
maradt
érkez
and
##ármegy
##ünk
##inc
##ier
Meg
##fal
eredeti
ezzel
élő
##ásra
Ezt
visszat
vasút
##ae
##etű
Egyetem
##ásban
##ítja
##za
##óri
##jabb
neve
New
##oss
ford
szék
éves
tor
##ományos
orosz
##ógy
megjelen
szez
válogatott
##apot
##ík
##örös
Német
##burg
##var
##ökk
természet
26
melynek
##azdasági
fiatal
De
ezen
##orm
Ad
területén
##olták
##ásával
=
##ox
álló
szent
helyen
##ment
##anyol
szolgál
##űl
##ide
ed
##red
2000
nagyon
##onban
gyors
##atban
olimp
szövetség
##rák
##andó
kerül
fenn
##ségi
szerepelt
esz
##ikk
##ini
##sereg
Király
egyetlen
##ásár
##eztek
##ral
kialak
elején
Fran
megny
hall
##leges
szen
##jú
##oztak
román
Tan
Új
vármegy
##echn
Ant
konc
bud
##ődött
##ítani
tevékeny
hét
vizsg
Károly
##üt
ál
gyakran
fok
jav
melyek
28
##ajos
ős
100
##dí
##től
##omás
##ach
##ségek
találk
Ap
##átus
negy
##our
##örgy
rá
!
Ak
http
##ológiai
##alan
tárgy
legy
írt
jobb
##éből
szerepel
lel
##jegy
barát
Ed
indult
##ecs
kísér
##akat
idején
##évő
##igaz
megfelelő
Ezek
##ülő
helyi
##ton
katolikus
##ung
##áni
fehér
##au
##ókat
keresztül
##úcs
##ali
##ézet
at
##ff
legjobb
program
bal
közl
felad
27
op
László
##mag
2005
##beli
##állítás
Európa
gyárt
fr
##lemez
részén
##anyag
bajnok
telep
Zs
##asznál
épült
##örtén
Szín
##ilag
régi
2013
bék
viszont
Kr
időszak
##országi
##enged
##adém
##ásának
Sh
2014
dolgozott
##mű
##uló
##ségét
darab
párt
kapta
olasz
típus
##pr
fény
fia
fejleszt
##rat
nincs
##sorban
##óbb
legt
2001
##jet
korábban
egyen
##ölcs
töm
##oknak
ilyen
szav
bemutat
Í
többi
Kis
neh
közv
##oy
##olc
végzett
együttes
##uh
vette
tartozik
neki
fegy
ennek
Magyarországon
##éli
##iós
2004
örök
Első
üzem
Lajos
##ílus
?
lemez
görög
általában
##ője
##nem
szemben
korábbi
##ma
##átor
pénz
ked
##alat
1990
Ennek
##urópai
tró
Kar
sikerült
Kor
lap
fekszik
##ítése
et
zenek
siker
brit
##gal
##őként
tiz
Ma
maga
hozzá
fiz
##elték
megb
teljesen
##ovjet
##ukat
##esi
Har
##fordul
##ái
házas
vannak
tartozott
helyett
##atra
közé
##nny
##elek
##mond
##szk
fordul
forg
Leg
polg
##jét
akar
viszony
gól
##úzeum
további
##ation
formula
##th
növény
##nyug
mozg
##erl
##álaszt
őr
küld
ell
##íció
őt
##ona
##zal
férfi
##álta
segítség
##lott
##íti
európai
##űnt
##osztály
##obban
##vers
szerződ
hív
com
##lós
hón
Szer
igen
kín
közötti
figy
##alap
játszott
alakult
nyilván
##rán
közep
mot
dr
29
kett
##ométer
ellenére
Cl
##par
##adt
##ita
##ala
##ga
színész
legtöbb
##illag
elk
##etek
##ath
##őben
2015
##áltak
##rab
##oló
met
György
##nie
vonal
kéz
##enz
szabály
##féle
##két
##igazgat
##etet
szob
##ötte
##abad
##csak
##szerep
##ven
##irág
lévő
száma
egyed
sport
valószínű
##ítmény
Nemzeti
##üket
tört
arany
hi
##ájában
látható
##gép
##vő
újabb
##ián
egyre
politikai
Ebb
##etben
##övetség
##zat
dok
##atlak
##ésével
jól
##vári
mérkőzés
##apja
##atív
per
millió
##adta
##eknek
déli
2002
##arlang
##tart
ink
##kezd
hon
keresked
környék
##ésére
##oznak
##irodalom
##iát
##ke
évvel
katonai
jelleg
##eged
Is
csökk
nyugati
Fő
##ford
##ottság
független
élt
##usztr
tur
stílus
vél
Több
császár
hadsereg
##berg
kösz
amelynek
##eje
##éig
##ört
csatlak
akt
##áci
világbajnokság
nyert
##akt
##szor
erő
ám
tett
Észak
##lan
2016
##nal
föl
szakasz
szerkeszt
##ozni
azonos
tesz
##úd
##újt
##ánya
beteg
Dr
hónap
Mag
##ázs
techn
helyez
Dél
gazd
##ese
##üsp
31
##imn
királyi
északi
helyzet
bor
kol
könny
mintegy
beszél
intéz
lakosság
##lev
mező
kilométer
egyéb
gyűjt
részét
ö
##csap
Ek
Gr
reform
mindig
##cz
képviselő
##ity
##li
##land
##ódik
2003
##dolg
##hy
##ává
ww
John
www
on
cég
gróf
##földi
orv
pap
##jával
##ekete
Ő
ra
krit
##met
súly
társad
##ódott
##sze
##II
##ítottak
##óban
Be
##ítik
##rész
50
##uth
##men
későbbi
##per
fejlőd
##láv
vad
azaz
##ica
ci
##ítettek
##igh
tanács
##díj
##man
közleked
meghatár
##iszter
##üspök
##oda
prób
##mun
##ttal
elleni
inkább
##vér
##elep
##ságban
írta
zenekar
kih
##erd
szolgált
Föld
##okra
jelenleg
Tr
##jába
Sándor
##vé
utóbb
##etileg
megszer
##sék
alkal
elekt
vidék
áb
ne
##amp
##hetően
##ack
##osság
##ői
távol
parancs
183
tartomány
##einek
keleti
Később
igazgat
köszön
Francia
Ind
##eml
spanyol
jellemző
Péter
##ügyi
értelm
kevés
mad
nevét
Man
önálló
ex
##ús
##vált
2017
alkalom
szor
űr
tartott
mély
lov
##nep
egészen
seb
##lak
##kívül
bek
##marad
ev
visszav
##ozása
szöveg
vezet
Ro
ep
##ülés
kény
elsősorban
med
##fed
40
##obl
##zó
kezdett
enged
adat
ver
japán
##film
hom
III
##ulat
fell
dísz
##ősebb
##uni
##ezni
La
vit
##zék
hit
000
##ler
##kör
##olja
hí
foglal
felső
tr
Ki
gyógy
perc
##elmet
esemény
követ
tábor
létrehoz
ebben
hisz
nemzeti
akár
kezdte
##talan
összes
Mivel
##inn
##gyűl
vall
kérd
##attal
barlang
im
történt
##óta
##jük
lépett
##ulás
##min
##ékony
kő
elve
játékos
##eszer
Színház
kal
vármegye
nyit
lakosa
Ugyan
##ekre
##ráz
San
ág
##odalmi
nyolc
##erv
##ora
1991
Erd
számít
182
##úak
&
éd
##jából
felett
folyamat
jegy
##ásos
##amos
püspök
##rendszer
üt
##álás
olimpiai
##udvar
##hatók
##SZ
##utt
szenv
különös
egyszerű
női
##úra
Pet
##ue
Re
sokkal
fil
oktat
Q
állapot
Ekkor
##ner
keret
mester
##ilk
##éssel
Val
mik
miután
##atak
Biz
##ázium
múl
##ence
##imnázium
##vidék
vizsgál
##tan
Itt
##előtt
list
##ánál
##osi
iz
Ge
##ásokat
tömeg
##atin
elég
legf
többek
páp
utaz
klub
Pa
kup
fed
##világ
tűz
##ezése
##ettel
Bal
vill
kelet
##ésre
zsid
belső
másod
##ezi
hivatalos
igény
cent
##játék
##endő
1998
##áty
képes
közben
kiem
eszköz
segítségével
tizen
Car
zár
Tudomány
Gu
Mon
##szék
Mária
##üst
##oblém
##ápl
##társaság
Im
tanár
Dun
##evíz
##nnep
művész
ég
azok
következt
##bel
##eiben
##vei
regény
hid
jutott
##íteni
járás
##era
##ivál
##se
##ítvány
Com
utal
osztrák
megáll
édes
szlovák
Kol
cser
ant
##ellem
népszerű
alkalommal
viz
Uni
poz
érint
Pál
Ph
##ene
Nap
##essége
##úsz
vegy
##elent
York
ist
2018
olvas
mon
aján
1910
Bár
repülő
esetén
szerepet
##pal
völgy
Két
##őség
kin
##özben
##szint
megyében
##ick
##avar
##amb
puszt
##atem
##ráf
180
##jeszt
##örök
##enci
ideig
1980
ellent
főleg
Horvát
címmel
hamar
##aton
végre
vele
##adi
főváros
1992
##hi
sug
lem
elnev
utc
módszer
helyet
ünnep
##ésének
1999
##ikában
András
un
##ájának
##olland
##dönt
ideg
koncert
adta
költöz
rang
műsor
##almat
területe
járt
##ereszt
##ament
Bel
száz
tette
szok
vonatk
##sa
let
##reg
##ism
##jára
##atott
##ásai
halála
döntő
##ssz
pal
tudományos
Nemzet
##alma
problém
felhasznál
szezon
##ozták
##adék
módon
támad
##csoport
##rist
##ct
megye
##ikl
Vas
##akor
tav
vér
azzal
csúcs
##ore
bír
##ítják
##ítél
din
író
horvát
kínai
menny
lehetett
##evő
##van
1994
csillag
##ipt
Miklós
1997
##ozza
##helye
jelöl
dob
akit
prod
##co
eltér
1970
1996
Ezen
tény
##gl
##isták
##ológia
##zetes
Pár
181
rak
Hen
##okból
##ves
He
sereg
Di
rom
gazdasági
addig
feltétel
részben
Más
##mények
táj
Miután
szinte
időben
gondol
lengyel
hagyomány
##élyi
megtalál
##écsi
általános
Ir
ábráz
##érium
##nyire
##ura
közvetlen
##irat
##50
##fér
##ih
Will
##sen
##rik
##évé
##terjed
##enni
vallás
Ebben
##áns
hajó
##esztivál
##ya
##kelet
Mich
##erős
megl
trón
##éni
tém
ugyanis
##ságát
##iméter
##dal
Un
hatalmas
##onnan
vezetett
##ith
##fer
##nyt
Ezután
1995
##jelent
##uális
##ázis
1945
forr
utóbbi
##elnök
évig
gen
fegyver
lény
port
##ument
##acsony
##FA
##idae
kapcsolat
##eth
készített
forgat
terv
Nép
##urális
##mán
egyszer
jött
diplom
##arak
bő
rek
nak
##udományi
felk
szül
címet
semm
##rand
keresztény
##esk
##lap
keletkez
##jébe
##ara
sír
nehéz
menek
kór
##jon
##okk
egykori
##szolg
##eci
##edék
közelében
szervezet
tanult
nevezték
szovjet
összef
##ood
##ge
##hon
##ainak
##név
##ítva
##óként
##ice
##aik
idők
szom
működött
virág
##ana
fekvő
##lőd
##jének
Né
##hal
tap
mellék
Akadém
##ival
kötött
]
Pl
##kedett
valószínűleg
1993
##álóz
vide
tagjai
szív
fekete
vezér
tíz
##rec
##áplál
##öny
##űrű
emberek
néz
Ben
Nev
kb
Így
##ően
##gr
korában
1989
ezer
tehát
##dő
szerb
if
rög
##orszak
##sch
vezette
Bl
##észek
vezetés
Mad
ber
US
te
Col
##hatott
[
Mih
##szág
##építés
modell
sár
akkori
elnöke
budapest
kerület
Lu
végezte
mer
megold
énekes
##ain
alábbi
##hang
eredetileg
Amikor
állandó
példány
##anad
mérték
##jut
elhagy
##20
##ultak
felfed
##rian
##endég
Kon
előad
felsz
szükség
áld
##ley
nevet
Ér
##ódó
##erő
ról
titk
széles
179
hiszen
elterjed
##ald
összesen
Len
Ab
hasonlóan
szereplő
csökkent
##részt
előbb
felesége
##atárs
azért
budapesti
törzs
##ológus
##itás
##zése
##usztrál
negyedik
1960
hő
##áris
##raf
1950
stb
fran
elkész
+
60
latin
indul
energ
##eltek
##ílt
szép
utas
visszatért
vet
##ásában
terjed
csapatok
kislemez
Olasz
inform
##éves
##éri
Közép
##ky
het
##da
##oln
##félék
felel
Bél
##közel
benne
szoci
szóló
bizonyos
##bor
évad
##omi
##eik
apja
##állás
érte
tisztelet
kezdve
televíz
##ham
abban
főszerep
szim
érdekében
##str
##ésű
##ésben
2019
##ella
miniszter
##ary
##exik
többször
mög
forrad
modern
látt
ül
uralkodó
gyerek
Ter
##átum
veszély
ezután
díjat
számú
veszt
##rób
színház
utca
szerezte
oldalán
gazdag
##akk
Román
##rét
##ontosabb
##puszt
egymás
cikk
Per
köszönhetően
újság
##issz
zenei
##zik
##évén
##védelmi
iskola
##ádió
##orl
fogad
##ins
láb
rajz
##ans
##elj
##oha
##ektől
##szl
gyakorlat
parancsnok
##tebb
##atikus
rossz
mm
At
##álja
##esült
jöv
ellát
##széd
##astély
##rid
hazai
Con
##kormány
köztük
##üzd
##ájuk
kommun
##arch
bele
esetben
##oltak
##ente
##olás
##arm
##leszt
vörös
tet
különösen
##one
hallgat
##pár
##külön
rendez
külső
egység
rendkívül
éj
befoly
Japán
##rem
Kl
level
irodalom
kötel
elfoglal
Ig
alacsony
szempont
használt
Mihály
egyetemi
##ino
##ris
nyerte
megbíz
##emt
178
Sa
##ized
állat
leír
erre
##biz
centiméter
##riszt
Term
oklev
##prób
##magas
##osok
Vég
##iam
##ash
##olni
Sc
Ország
##ight
megalap
mar
##ilt
##pon
32
##atta
rét
következtében
zsidó
emberi
Nyug
vezetője
##bán
##ank
Intézet
Birodalom
##nőtt
patak
##alék
hajt
##oszk
As
befej
családjába
bajnoki
Elő
megrend
kív
repülőgép
Min
##iac
##szich
kiz
átlag
táplál
##áján
református
ezüst
Orosz
##éve
szükséges
származik
köl
##jait
Budapesten
Hat
##der
sík
szét
##upán
##szeg
Co
állami
visszatér
Ur
töltött
##orf
nyelvű
elismer
##olog
kísérlet
fogy
##ila
udvar
##akkor
Fl
Gábor
Mű
mikor
prot
Minden
##afut
##össze
Fri
vendég
35
80
##belül
##ítve
szellem
Köztársaság
IV
Bo
##ory
Pest
egymást
kateg
##ségben
szavaz
Amerikai
Mus
megs
##raz
szeg
akinek
jelölt
##élt
##ötét
továbbá
környezet
##olf
mennyiség
ebb
##ronz
##óval
##óni
##vére
fokozat
szomszéd
komoly
nyújt
##edelem
Kom
##tized
legal
##hajt
forrás
assz
Dav
##vá
Szövetség
##dony
Lond
hol
1944
##eteg
előfordul
sugár
##áért
##lét
szárny
szerző
száraz
játékvezető
amelyben
Múzeum
##zők
Jam
##oth
##rich
prof
deb
munka
##uel
##encs
cm
Brit
társaság
Tam
Párizs
adomány
##mód
régió
##ánk
##öp
híres
##ean
Bor
Mart
##hetett
Georg
klassz
nyári
agy
bejelent
meggy
motor
Sal
hord
egyben
tó
alsó
kiadás
##tes
mezőg
##odott
##izód
Fi
ahogy
Nemzetközi
összek
##etést
Jos
##maradt
##verseny
bronz
rendjébe
húz
tudott
szerkez
##ney
oper
##ael
##eleg
##ird
rokon
1988
##etni
évtized
##óc
rep
nyelven
Kat
országos
##aival
##ereség
##ábl
kerültek
##etséges
##ph
##zás
##üm
##elik
##ítását
Világ
##atát
evang
ot
##nyom
Bécs
fellép
aktív
Szab
pol
##jaként
Államok
domb
intézmény
kics
##szög
történelmi
##aki
##zen
megelő
##dh
##ányi
##údió
##ákkal
epizód
##ccs
Ezzel
nyílt
##társ
##súly
##szervez
##ti
hagyományos
buk
kiter
##ítt
cseh
##emok
##mérsék
Szám
Hab
kastély
##ota
érkezett
##könyv
##usok
##mai
##ped
##ama
híd
megerős
Kín
városi
##ish
##történ
fiú
##ésében
Béla
Mc
átv
bűn
rendőr
kont
korszak
felvétel
##ávol
Jack
##de
termék
mindkét
csata
##etét
##emlék
1984
ellentét
révén
Park
meghalt
Kül
elhely
nyilatk
nál
Ó
Par
központi
##hossz
Szék
főként
##eznek
av
löv
Királyság
##űk
filozó
választották
##rajz
##ova
megvált
Rich
kedv
FI
eljár
helyszín
lehetővé
##övetkez
##üntetés
javas
##ola
##adály
kölcs
visszavon
kelt
rag
éppen
##kap
Li
tudomány
##nen
##oszláv
fű
Ár
magyarországi
megállap
##ógép
alkalm
körülbelül
csupán
jén
##adott
Jan
adták
##izál
mérkőzésen
##vető
##sorozat
##olják
##ennyi
git
részlet
sikeres
kés
használják
mégis
##kan
zöld
építés
közepén
látogat
##művészeti
munkás
##ötő
kulturális
##ezést
Róm
helyre
legfontosabb
halad
ók
Eur
##egyetem
Os
##rop
##rajzi
Ham
##szent
kezdődött
idej
177
bi
##olgár
1920
vásár
##inál
most
teljesítmény
munkatárs
zaj
inter
küzd
hull
Kolozs
##leti
legyen
korlát
##elni
##bar
kölcsön
társadalmi
speci
rendező
##ónak
tanulmányait
##pusi
..
...
arról
tartották
hoz
vadász
pub
##ítható
hiány
##jától
Ne
magán
hű
1956
áldozat
##ságú
##éseket
##arlament
közön
származó
##hetetlen
Ber
Paul
feny
káp
hatására
területen
matem
partján
##ace
por
járm
to
##ítására
bíró
##alog
súlyos
##séggel
##étt
vagyis
For
##áit
osztályának
##esszor
1986
lényeg
sötét
tapaszt
45
elkezd
##ulása
egyedül
mut
Mil
Tim
csatlakozott
##bo
mindössze
##ein
##ezve
jelentése
ifjú
Fr
36
döntött
sér
##enő
##hatatlan
Imre
célja
##mérséklet
Sok
állomás
nyar
##már
##höz
##inkább
##fa
##ostor
kém
##óra
##váj
mentén
Gyula
sőt
33
Had
##órium
arány
##besz
korai
érvény
##iskola
kategóri
bizton
sk
Iz
Tom
70
tánc
hasonl
William
##úttal
##ational
fen
Sim
vereség
tudta
##kedik
északnyug
##pad
kapit
fl
doll
átt
külföldi
kényszer
##abban
hib
készül
szolgáltat
##git
##ić
##utas
torn
Test
1987
ge
felnőtt
vállal
méteres
##szó
esetében
##isztérium
der
Film
##ekből
melyben
megfi
Med
legyőz
##ré
##uzs
közigazgat
vi
##ítást
##rog
Társaság
ítél
megyei
##fut
Franciaország
Műv
##uss
dokument
1930
Zolt
ebből
##ocsát
90
érz
századi
Tor
pontos
Könyv
Var
##ger
##ons
engedély
##port
##ehető
##tér
##ác
##ényi
##iről
##cel
##ölte
funk
természetes
##mutat
Ut
##onyi
folyamatosan
pléb
Deb
MT
íz
##sh
##megy
Európában
Ott
közeli
##ebbi
legalább
##ered
1985
bárm
sikert
##zséb
erőd
##rát
##zott
1918
##ria
##ólag
##örtön
##ödik
##keleti
páros
##kozott
emelked
Charl
kereskedelmi
források
erdélyi
##ele
Att
1976
róla
Gl
lass
áram
1982
lő
leggy
költözött
egyéni
kilenc
##isch
##nyal
kocs
szenved
eddig
##ápoly
Lip
népesség
Németország
Van
##jében
Mont
##uper
##ise
##egyház
##eld
megprób
##állomás
##nes
ún
világbajnok
du
elny
alakú
##attak
változ
rendezett
módos
irodalmi
##óság
Zoltán
##atokat
autó
svéd
utód
megkap
elpuszt
városban
##iatt
##ültek
felelős
házasság
##nim
##ukt
mozdony
1968
##din
##alista
Alex
Lengyel
##uj
##yel
keretében
előadás
múzeum
busz
származású
adatok
##ődik
ellenőr
egyike
##oli
iránt
##etése
megfelelően
pir
Felső
Alap
1978
átalak
főh
elmélet
##akter
alapított
##pe
kód
##fok
##olyg
So
villamos
kíván
ideje
sebesség
típusú
említik
##veg
halt
Sy
##űnik
##umb
mögött
lemond
Lak
##ződés
##aránt
##tein
rendelkezik
kiállítás
Szeged
Munk
történő
1972
##ológi
##sburg
ost
rajta
Gar
műve
##ukció
##ények
bőv
##elve
Anna
önkormány
ás
##rier
Qu
##eph
##gyek
talaj
kapcsolatban
##öltöz
Jelen
##almát
körben
pszich
##ismert
1983
##ect
org
kib
Michael
##pály
diák
It
##elme
negyed
jég
1974
Lov
óce
##res
Afr
Kap
nevén
továbbra
##nevezett
##jog
megkezd
pályára
##tab
##emes
Il
##itív
Tovább
kid
Robert
klasszikus
gyeng
##ugoszláv
rov
kop
##orú
testvér
akart
belől
##enes
##age
felb
##ikát
##aiban
##ivat
##ákban
Tanács
hozott
vasútvonal
működik
előre
felül
##ure
##etes
1979
##ikat
története
##cion
##éh
1948
összet
előző
rab
##ille
evangél
##itz
egyaránt
##tatták
##ítést
támadás
##lok
34
kert
tárgyal
alkalmas
annyi
##ezz
nemzetiség
##kar
teszi
##hatnak
1975
Akadémia
Pal
életét
##esett
Európai
esett
oda
##iga
hangszer
kifejezés
feldolg
##illa
megalak
ősz
1977
##érm
helyén
drám
##felé
filmben
elveszt
##víz
##űek
Államokban
kultúr
1981
jelentette
##ric
Erzséb
##agóg
lehetőség
ritk
##akkal
1940
polgár
pápa
kék
##akció
várost
ágy
Hu
##mester
##fő
##unt
produc
hálóz
##ászt
##ida
Port
gólt
csom
##bé
##hol
Duna
növeked
délnyug
használták
holland
ezeket
##asi
Sam
##szaki
írás
tartó
tartotta
##já
tudós
madarak
közút
tartóz
##ációt
ipar
##eccs
kisz
##árólag
idegen
37
leb
országgyűl
feleségül
kiemelked
Gal
##száml
##kett
##10
##III
művészet
úgynevezett
hosszabb
##magasabb
szór
##sé
helyezett
38
##esti
Kelet
Nov
##lovén
##ázat
dinaszt
létes
##növ
Vörös
##assa
nevezte
fa
##ságos
USA
##elmét
Pi
mit
##rav
tran
végig
rögz
leginkább
hegység
maguk
elmond
##etik
##arkas
var
teng
##élyes
többnyire
szobr
##ous
rit
pályafut
rem
vád
Isten
koron
##éért
Bill
it
##énél
fogyaszt
1973
##ódi
hatalom
folytatta
##oft
150
Rák
szabadság
lakott
éven
##előd
##ttól
Jul
hím
véget
rock
##sziget
kiadott
felkel
Ex
##akar
##ano
##városi
park
##ajor
##ical
sejt
##forg
hamarosan
##anyja
gazdaság
176
Her
tartják
##oldal
##orna
számítógép
##keletre
Tudományos
Három
##harc
##ij
Szovjet
stat
vág
legk
fot
játékokon
##huz
##usi
hadjár
##hegy
##csk
##elése
##que
orvos
bány
öv
megf
Még
##ntart
parlament
jelenti
##ájú
##are
országban
Angl
Tamás
##munk
##ate
üzemelt
1971
létrej
1941
igyek
##ozva
délre
##des
lakosából
##xim
##part
eredetű
Jo
pozíció
kötet
kam
bir
költő
jelentkez
képest
##ásd
forradalom
Országos
1969
##kat
szén
időszakban
lakó
##kodott
Ü
##itel
konz
##ugál
úton
##entr
##ovács
##vi
kinev
##ward
##aur
##oldog
Azonban
Tur
##ava
##pt
éjszak
##század
##kő
ik
##rád
lehetséges
buddh
egyházi
##elemben
David
köny
koll
azóta
Erzsébet
br
stúdió
Amerikában
##gyár
kétszer
Christ
leány
man
viszonylag
JB
gener
szülő
poszt
##ars
##család
sel
szub
évesen
Mor
amik
Végül
##ezd
legend
##helyi
becs
aminek
##onok
réteg
Központ
elind
foglalkozott
Bizottság
rendezték
##app
bejár
1949
##oph
eszt
debüt
alapvető
Ált
Párt
gyógyszer
zárt
Form
Szak
tevékenység
##anc
érdeklőd
televíziós
##zője
hercegnő
tábornok
elnevezés
##sek
Lev
##működ
gyűjtemény
Wil
meghal
ger
fin
##ux
th
##emm
Egyetemen
Berl
szig
karakter
##alatt
napon
Cseh
ob
##orvég
##vég
Don
talált
proj
képesség
1964
börtön
hátt
für
1938
##hagy
alig
napig
Jak
eső
Által
beszéd
rádió
Frank
állít
Som
megegy
500
Rom
##utató
aztán
azokat
válasz
szil
##művész
útvonal
##ramm
elektron
##nik
la
téli
##ációk
##orld
Hal
##últ
##szövetség
töltötte
##ográf
kizárólag
##fin
működő
gimnázium
##ömb
kritikus
helyezték
##inte
1967
Budapesti
##ena
szt
##ezhető
minős
dalt
##ciók
császári
##aszk
szót
nehez
Angel
tit
ing
##zió
Te
repülőt
zeneszer
##ázott
Univers
felúj
##akban
1957
##ítója
FC
teszt
Cr
valós
##azin
##ozók
1848
megtart
északra
gáz
óri
felében
ötödik
##áson
féle
##heti
matemat
ostrom
békeszer
##ax
vitt
vallási
pill
ők
múlt
előtti
##abeli
Ily
##szky
##sy
log
gyorsan
Néhány
anim
Rend
elvég
1939
Go
gyár
##ényes
tü
franci
Mal
párhuz
Nyugat
szezonban
lez
Ac
##di
levél
projekt
##ecsk
bőr
felszín
vonatkozó
fajt
filozóf
Számos
vélemény
##éket
dokumentum
alakul
##írás
Gi
mondta
##ítási
Art
Albert
Henrik
meccs
y
##ételt
48
FIFA
##adik
kettős
##eleti
##pát
ox
rejt
politikus
futam
fém
Bu
Debrec
Ver
##pari
toj
Szabad
belőle
Met
különféle
##etnek
ezred
Rec
arch
##száma
kevésbé
##30
Mo
szolgálat
ór
felép
hajl
##kó
Phil
zene
Bi
##ümölcs
fáj
hód
##ítésére
járásához
##ile
##ege
##központ
temető
tervezett
##uház
##szki
Zsig
rendelkező
piac
ac
szenvedett
elektrom
##yn
tavasz
ből
kivétel
42
pálya
lovag
Wh
afr
honos
népszáml
##lav
vették
publik
##eresked
ném
követte
##odás
ütköz
Bro
We
eg
szerepl
kórház
far
nemcsak
##tus
##chen
##TE
cig
##isztikai
középső
pil
pop
konf
##osabb
##atórium
##sk
jogi
középkori
##különb
megtalálható
##rep
##jává
Vel
térkép
##onc
megszűnt
nyíl
Me
##ivatal
x
Kép
összeh
##szab
##hajó
nőtt
##meg
kolostor
figyelem
legmagasabb
##érd
közvetlenül
##ezők
Zsigmond
Tisz
##érkez
##éppen
hullám
norm
talán
kiváló
James
elkép
erősen
##40
tév
bécsi
ler
Ázs
Spanyol
##ándék
nevezik
##olv
hőmérséklet
kiegész
##onyol
gyalog
Erdély
##ismertebb
##eon
maradvány
idény
##ite
óra
elérhető
miközben
39
Ausztrál
##aw
1966
festő
##valós
hős
szerepe
ismeretlen
fenyeg
Kál
##űköd
hatás
újjá
##mann
egymással
tudja
##éta
hum
időt
##egyik
1962
tábl
ch
1946
Természet
sorozatban
Szil
könyvtár
Reg
januárjában
##okba
Tib
szigetek
jóval
##rof
##eljes
Mint
##osaur
##och
jelentek
berend
##ezred
##értelm
##eivel
1919
hivatalosan
unok
##hatja
evangélikus
vezetésével
49
szől
##formes
kapcsolatos
változtat
##enti
##állt
169
##ame
##ball
Mexik
##reműköd
miniszterelnök
##jen
##rég
##tabil
kegy
##ros
komp
változata
has
Se
##őj
1958
1965
kiterjed
hold
jobban
lettek
jellegű
összefügg
##iter
Jelenleg
##ool
megközel
Pozs
afrikai
Szlovák
forgalom
isten
erdő
1963
##del
##almak
Vi
felület
##folyam
bl
##adja
Dom
##öket
magasabb
Édes
gyakori
Bur
különleges
Ok
171
megvalós
nélküli
sl
##íthető
##ater
utáni
##alizmus
##tm
tért
polgári
ugyanakkor
##anni
jelentősen
Carl
Id
##ressz
##érmet
##les
##ettől
Franc
megkapta
##eset
nyugat
győztes
Kriszt
központja
##uf
##képpen
##azon
##álni
Péld
Vilm
##ügymin
##ászat
selejt
##rov
##rak
168
lelk
##essé
##rk
nemzetség
London
##ix
##isp
els
Eszt
##moz
##sztön
vállalk
##övet
fesz
üzlet
##line
##okhoz
harm
leveg
létezik
##ale
Rad
sors
##ésen
közösen
##korban
bizottság
társadalom
elől
bank
est
##hír
##vétel
##astag
viselked
XV
web
Ag
Arany
Ezért
Sm
75
nők
Ah
szakmai
##gyes
uk
Szovjetuni
##ski
##riai
Thom
történelem
mutatja
##60
Kör
##ipp
folyamán
kut
Fül
fenntart
Olaszország
##pád
##zák
alapították
együttműköd
##ugh
vonult
települést
haza
husz
folytatott
óceán
fegyv
urad
meleg
kaptak
választotta
élén
pánc
vállalat
vége
vasúti
Mac
filmet
Gre
függvény
körében
felől
ókori
##nép
ko
##ektor
felügy
##arc
érett
élete
leggyak
intern
1961
##test
1947
##ami
##nyel
Antal
##uv
anyja
napja
kezdet
zong
Kolozsvár
Lou
##ombat
1943
környékén
##ania
##hold
Attila
végrehajt
lelet
##égium
megnyerte
segéd
##hetnek
valójában
##adion
nemes
gyök
##cső
##vil
##si
kiadó
közösség
##epp
##árok
##bl
arab
170
Jon
bíz
állom
gyümölcs
korabeli
##echan
bevez
adtak
44
##ései
ejt
Andre
próbál
igazgatója
nős
Csak
helyettes
tőle
műfaj
vív
sokat
##ies
nagydíj
Cor
##els
|
Ferdin
azonnal
41
váltak
##jekt
##szal
##állal
közreműköd
##ico
alatti
##áték
##ster
##ekhez
##arnok
ort
bölcs
versenyen
Tudományegyetem
uni
##ement
Los
Ered
innen
feletti
##enet
Árpád
tengeri
1942
front
1954
Miskol
##lin
1952
##gazd
nyarán
End
irod
##plex
nappal
békeszerződés
múlva
##aja
építették
Ros
cselek
fölött
300
sorrend
kemény
##párt
##édia
##gyűjt
On
##épett
Ág
küldött
##foglal
##észett
##iába
felszer
1959
Jugoszláv
##atai
##ókönyv
kapu
birtoka
otthon
##üd
##böl
elhu
Vol
lek
##ászati
Egyesület
##tani
gyilk
épített
##21
##iskolai
##földön
Élet
kettő
Tel
évre
My
népszámlálás
##ima
##gyárt
##term
nevezett
alkalmazott
##őri
majdnem
Dan
##zést
##vai
elej
Habsburg
bolyg
Intern
##rt
##erny
kur
##rianoni
terjeszt
##üv
lánya
kedvez
teremt
erej
csatorn
amelyeket
##zsa
##eget
arc
Török
##aga
##ázó
##életi
Oszt
ahhoz
##óba
szándék
adja
színű
°
szür
védett
befolyás
ösztön
építettek
htm
##encia
##ónia
##jához
##ségének
##éséhez
Holland
trianoni
évszázad
##uch
mél
##amis
hozzáj
##alakúak
abb
levő
kezdemény
települések
rendszeresen
Jean
cigány
##esse
csapata
készítette
1929
1953
##rap
elvesz
Koss
mellé
mások
##uck
##vásár
Hung
##iptomi
##perc
47
elé
##ozzák
szal
fajok
meghív
##jal
Jer
##ien
##omba
mértékben
üveg
olaj
megőr
175
Tót
War
rajt
költség
hadi
folyt
##tori
Berlin
Cent
művészeti
43
##elők
oszl
##album
tiszteletére
Do
körüli
szerepét
válik
##ozások
autób
##SC
Ste
65
##ezését
##tudományi
XI
Külön
##elmes
##mar
##kodás
szar
Vik
látta
##mérkőz
irányban
munkát
Ilyen
Szabó
All
##jelentősebb
1936
##ft
160
##úgy
##me
versenyt
állatok
##alifor
Alsó
Tar
lelkész
##odox
területek
méretű
csatában
igazi
##olása
elképzel
##ekezet
Richard
##függ
Gen
jelentő
55
World
bér
hangsúly
tes
##ozást
szek
alkotmány
színésznő
végéig
milyen
kormányz
Géz
rel
##szem
hozta
elterjedt
##nyelv
##íni
##fehér
##álisan
ősi
kezdték
##férés
##ációja
##oham
Hír
kora
kultúra
szeret
##isc
kevesebb
főt
Record
##ánia
tük
találtak
til
tanítvány
##ákon
Eg
George
eny
sokszor
Mak
##encei
aszt
fejedelem
##iver
éve
##ésnek
néha
##ításával
verzió
kore
előny
lehetőséget
adó
mág
kr
##ipar
City
##enként
mozgalom
disz
##ezs
jelenlegi
Kossuth
Szem
tartja
##ármester
##szül
##ign
Air
közönség
rendezvény
slág
melyeket
forgatókönyv
https
##ker
hivatk
mutatták
1900
1955
létrejött
Mur
fesztivál
akadém
dinasztia
általa
versenyző
pozitív
Wal
tétel
##köt
##ínek
##we
oldalon
TV
del
##anti
lej
hozzájár
##énnyel
győzelem
##uma
1951
érzék
haláláig
elhunyt
##adták
##ulcs
graf
##özt
Iskol
olt
igazgató
Bak
##br
Sport
robban
##ze
elsz
erők
##ásnak
tartoznak
##bány
##járó
formában
##éria
##fajta
tartalmazza
Fehér
##alkot
##ezer
Gimnázium
torony
táplálk
##anna
Emellett
játékosa
emiatt
fak
lenne
lázad
##essen
##íd
##polit
karrier
mes
Hon
Érd
##napi
##opron
Kanad
##ádi
##októl
##kereszt
imp
terül
családi
Össz
##elhető
##elési
keletre
##pa
##ui
##enk
##vad
gőz
Vilmos
Pat
##ésük
##inus
érsek
megismer
##abor
betegség
erdők
Hely
##jebb
##erk
##apcsol
királyné
Kal
emellett
fizikai
Németországban
ipari
területet
Máty
##aba
##eve
amíg
kivált
helyezkedik
Apja
Dzs
##ero
Katal
##ítését
##oszl
eltérő
hav
##usa
településen
Pol
##ítók
helyére
nemesi
Alexand
semmi
##rány
##ványos
védelm
örökös
##szerkeszt
Oroszország
##ótól
valódi
Peter
alapító
##tag
Először
Vár
##szerint
esk
forint
gl
##rix
##izált
##janak
bejelentette
##igit
##ellyel
DV
magyarul
csatorna
##emmis
értékes
##ájára
elődönt
állás
##lók
##ea
1921
##car
1914
##ild
1937
##fejleszt
You
helyét
##alit
magazin
sh
főút
nyitott
##ror
##áborút
Bart
kiemelkedő
legjelentősebb
##ovics
orvosi
ellentétben
munkatársa
##own
történik
legfel
székhelye
##átyja
speciális
##gent
csökken
alakban
mindegyik
szerződést
minőség
állnak
##íték
vastag
Sar
tün
##fesztivál
##80
mielőtt
##udv
végső
##írt
##hatta
174
kárt
gyermeke
Ty
##kedő
évente
tri
##urt
##BC
pontot
##szlovák
mérnök
##jei
alakja
##váz
rajong
##its
maxim
##állított
egyiptomi
##érmes
zavar
doktor
##upa
tulajdonság
1935
tengely
lep
1928
zászló
West
friss
munkája
kapitány
tök
tüz
Farkas
ortodox
részes
lovas
##19
oszlop
Mark
##way
Fre
##árny
nyugatra
##szerte
##lack
körülmények
stabil
sokan
sokáig
ból
kever
szomszédos
##úk
kitör
könnyen
##ffy
éltek
Szerb
énekesnő
Fülöp
##áltat
csont
kaland
##stant
##ited
páncél
64
##vegy
##mérnök
##etlenül
##hatjuk
Formula
##ozási
trópusi
térség
megsemmis
##ésekor
szempontból
##engeteg
Kárpát
kiadvány
soha
zsin
keletkezett
VI
évet
jelzés
asszony
résztv
##elnek
gyakorl
##fekt
##elést
templomot
159
##rai
milli
52
uralom
##álat
##aut
apró
közigazgatási
egyesület
##ekről
anyagi
Zen
Szt
Ger
##bur
állomány
hunyt
Géza
Cap
##óczi
155
hasznos
des
szerencs
##edek
oka
No
Rob
##70
tartalmazó
##éch
halott
##vidéki
nyilatkozott
alapította
##ítások
jelkép
##éje
bot
##olek
##lám
Rud
Bern
hatékony
kontin
színpad
civil
akarta
Pe
##viz
nyomán
##elyik
zongor
értek
atom
##ásokon
kezelés
##pontja
átmen
kolozs
köztársaság
akció
azután
##apor
nézet
könnyű
##den
Saj
##járól
ült
##ópály
annyira
boldog
kár
##iny
kezdetben
##32
Bab
##einte
##űnő
51
##umi
korban
##jék
ruh
hird
##ília
számított
szervezett
egyetemen
elektromos
madár
Pro
##efon
Hall
##dék
1933
Halál
Ill
nyúl
találkozó
##orth
##értelmű
Dal
##onikus
1934
ablak
##éseit
##gyal
Frigyes
##tel
vettek
férje
##jével
##emi
##jön
##ásokkal
##prém
Győr
##asszony
kommunik
1925
tapasztal
Hozz
legismertebb
##akon
címer
Martin
##gressz
CD
megak
fogva
##árton
King
##szerűen
120
##áh
Egyipt
##isztikus
Kereszt
ötlet
erőszak
elkerül
##egr
Maros
okoz
magukat
se
ba
##döz
1857
kard
Ang
##édi
##cikk
Aug
Rock
##vin
rendelet
kidolg
apát
##rev
##omp
egészség
proc
##enny
Lor
értelmében
amivel
##ezések
##ásához
##rukt
Mátyás
mindkett
Da
díjas
eh
nőst
Város
bünt
##ződik
veszi
nagyjából
késő
46
##ítanak
járó
Ebből
mezőgazdaság
hatása
előd
Hom
építkez
tehetség
##áron
##ane
##fest
Raj
bes
Hot
##tté
fénykép
ék
1924
tekinthető
##ukor
világbajnoki
##ren
##erni
Mel
Bék
Po
##oktat
feladat
otth
Nic
1931
##különbözt
debütált
Kovács
részére
szeptemberében
palot
##ire
##cu
##ókkal
átmér
búcs
##birtok
##etében
##elle
152
tünt
egységes
1913
kolozsvári
tették
##hatunk
Es
400
májusában
##otor
személyes
dzs
##ipari
energia
##ménye
erőt
ügyvéd
Mat
meghatározó
élnek
Jéz
könyve
bemutatott
##gyilk
használat
finn
önmag
##kos
szik
Azt
##wood
Társ
rekord
főszereplő
szűk
Ferdinánd
##igur
Moz
kerék
##regény
neg
1912
tanszék
##háza
eszközök
megfigyel
##ásuk
félsziget
másodperc
megtám
fokozatosan
Haz
igazság
##legesen
októberében
párhuzam
távolság
szoros
kijelent
gráf
szán
1000
Év
feladata
kanad
Charles
mezőgazdasági
védő
UE
56
lél
Moszk
egyet
néző
indított
##veszt
márciusában
ph
##ájával
##vonalban
hatással
##olly
személyiség
##von
decemberében
többsége
eur
autóbusz
egykor
közvet
##ulmány
sajtó
fordult
fős
önt
##cser
##yl
##izsi
Fej
##bach
támogatta
vereséget
##yom
##eles
1932
Jenő
hip
beh
menekült
építt
titkos
rák
##air
##eknél
##opter
rovar
##ánok
gyűl
kanadai
##ősök
Marc
zeneszerző
Mün
pontosan
menet
egymástól
##NS
jármű
elrend
lakossága
székhely
magyaráz
Állami
maradtak
##inkron
##ratég
1926
gát
##olaj
##inger
öböl
Thomas
##ocsi
repülőtér
##rogén
ug
halmaz
Például
válogat
##abda
##kány
Gerg
##ington
Records
inf
##artóz
##ext
sárga
1922
Gold
játszik
##szerűbb
Sl
kilométerre
1927
sark
##rabban
változás
Johann
##umot
dom
gramm
kutató
##dok
##ret
Hol
1890
katonák
##vesz
bonyol
Fekete
##éc
Svéd
kapcsolatok
##ástól
kezdőd
##rael
videó
##étele
##irány
Atl
játszotta
##hette
Grand
##száll
cikl
műhold
méltó
##felv
##ili
Szat
ló
pp
Debrecen
##jev
##terület
eltávol
németek
Ép
messz
##edzs
felismer
szerv
novemberében
jelenik
kincs
##hossza
UEFA
##enyészt
megszerezte
egyértelmű
elb
##erték
fert
rendezte
##inkban
##néz
hideg
régészeti
##elvény
végére
##ülly
##seg
Igaz
Romániában
Tri
koncentr
##ever
elsőként
ugyancsak
dollár
tartottak
##atér
Gra
hossza
##ásilag
tanára
időre
rendelkezett
##pót
szlovén
megakadály
Sváj
##eire
megkülönbözt
olimpián
megöl
##ódnak
országgyűlési
falut
Tak
használta
##35
meglep
##czy
életében
Stat
királynő
lit
bont
hatodik
mutatkozott
fül
rec
magyarok
tanított
##idő
terh
akadály
Zala
##ubl
bán
érdem
156
##gar
##örg
##falu
mész
##ikon
##ításában
játékok
édesanyja
kg
Vic
kath
Székely
megnyit
Bon
értelemben
Elek
##no
##hid
##óknak
vándor
megjelenése
osz
utána
összeg
##sággal
Lengyelország
May
gal
Tibor
megelőző
ellenfel
városa
##ada
##azz
angolul
rendszeres
##off
mem
##izáció
attól
##erman
##sej
bajnokságban
1917
készít
54
Tag
##étlen
Ház
intézet
NA
1880
mak
Aut
kapcs
tűnik
ausztrál
kapcsolatot
hitt
megment
gyakorlatilag
##iak
##por
jön
pillan
##che
autom
földes
aratott
##heim
koz
Egyiptom
transz
Ör
##erem
Királyi
megérkez
érvényes
területeken
szex
##ászok
megszáll
bekövetkez
homlok
Hivatal
találhatók
##ket
Vesz
##választ
##ozását
tekintve
visszak
ifjúsági
portugál
##edi
##három
db
tökélet
diplomát
##cl
Tran
említett
Széch
##emokrat
bajnokságon
##ulnak
mocs
##odor
##atart
testvére
funkció
nekik
rengeteg
sáv
##ajzs
megszünt
átk
##szerkez
gr
##onna
udv
csapatban
1923
családok
##12
Margit
mechan
Katalin
Japánban
gitár
Auszt
plat
törek
háttér
##őleges
rendezés
##ánci
##udi
##ibl
##hattak
Jac
előkész
##sik
megter
Comp
XX
Jézus
szolgáló
látott
törökök
alól
hús
##apt
rez
polgármester
paraszt
##egyes
iv
esetleg
##jén
felte
egyszerre
##olva
környező
##ys
Karl
Kő
negatív
ajánl
Dar
Pécs
sar
##kiadó
túlél
hátsó
nevezet
Sk
##ristály
épp
##17
##ézia
gyarm
##alis
évfordul
szerződés
##osta
kialakult
##osszú
körzet
Kálmán
amelyen
indiai
hez
sakk
##csapat
Egyház
önkormányz
járat
képesek
bomb
Tem
Louis
metal
összetett
albán
velük
##gér
##élék
##my
140
kissé
##aján
megválaszt
##szav
dán
##közben
kommunista
címe
##ulk
Uk
jelentett
elérte
öz
Bra
űrhaj
legrég
##ois
szabadon
februárjában
##vös
##aira
##ázsiai
elutas
Tok
szeml
homok
megmaradt
##rata
Braz
vevő
##áld
##sá
154
idősebb
58
##anda
tűnt
kormányzó
kori
Közigazgat
Del
Balat
##edés
lig
Kir
szegény
kivég
utazott
folyamatos
##áth
##umok
producer
További
sikeresen
##ows
##elmiszer
embert
##omet
úr
##atty
Rég
közti
dall
kif
eredménye
html
Hozzá
Part
mand
International
Márton
műszaki
szerinti
##pel
University
Roy
bez
szuper
##ajt
00
##jeként
##hass
Red
##uttat
DVD
következők
lond
##szel
betű
piros
készültek
kikötő
Ír
párizsi
Wind
Mikor
munkál
Ram
##zések
százalék
##ráfi
írták
megind
tudták
Alk
ajándék
feltár
Ent
ezúttal
##isztr
bajnokságot
idéz
Ca
edző
utcai
egyébként
megr
koreai
##olható
pan
Mod
pre
bizonyult
kv
barokk
mindenki
##állom
57
Játék
Kiadó
tat
##fokú
Sopron
birodalom
Ser
Cal
kock
ét
mez
mért
feszült
ív
elhagyta
legfőbb
##agi
Luc
forduló
62
##aszn
jelentőség
dem
Music
##öngy
londoni
veh
lakosok
1911
Pozsony
hatóság
166
United
Hit
##board
Black
levegő
85
##itenger
folyóirat
##ago
figyelm
##polgár
augusztusában
index
vagyon
formájában
##vak
kulcs
hogyan
##tern
##adni
##tech
listáján
munkáját
kiválaszt
Ró
Lig
hozták
172
eljut
egyenes
állította
##olnok
hadműv
##ölték
##ápolyi
meglehető
Rákóczi
und
53
Ath
kérdés
kí
##más
járműv
egyez
##ezső
Hill
bemutató
MÁ
Amerika
Dor
##árták
ugyanaz
Saint
magának
járásban
Közl
##bon
Ausztri
Kiss
Ra
tető
##ccse
csal
Angeles
melletti
##üh
li
##ict
ahonnan
elnyerte
Svájc
légi
1908
stratég
##etési
Miskolc
##field
részében
Mer
hab
összefog
##AR
szabadságharc
##bír
újságíró
sváj
Oper
Bán
##even
Sár
##orozat
kiáll
objekt
fennmaradt
##enyi
##utak
149
rendes
167
##edt
##ancsnok
torkol
Gergely
áprilisában
megrendezett
álltak
pro
##ágó
bázis
eredmények
kortárs
országot
##usztria
letartóz
belga
harang
ritkán
elismert
Star
remény
valamennyi
szinten
győzelmet
jelenlét
##ilit
##íts
##éka
kupa
##ezzük
Top
Ausztria
szigeten
164
##ságának
##gi
Any
Párizsban
erk
technik
aj
##ellen
foglalkozik
konflik
svájci
##emét
méret
válogatottban
##gyűlés
szigorú
Pass
felszabad
foglalkoztat
##burgi
részvétel
öreg
Hold
betölt
nagyk
##jainak
lassan
##változat
##ions
##község
fer
hev
Jugoszlávia
eleg
##ográfi
változó
mérkőzést
szövetségi
birtokos
látsz
veszteség
reklám
életben
##out
kró
##ici
szobor
mindent
74
##adása
Pan
hegyi
ritka
“
##erson
júniusában
elért
barátja
plébáni
##állam
városrész
művei
##ato
Dob
##szabály
bizonyíték
kompon
##ódtak
Királyságban
katona
építész
Mát
csod
Egyik
fogadta
##11
Pető
okozott
Át
dala
##zy
##asa
Ál
milliárd
mexik
érkeztek
##égy
elhelyez
##bíró
##járás
sűrű
nemzetiségű
délkeletre
párhuzamosan
jellegzetes
gör
##ségű
##SA
bolt
játszottak
##ová
##rum
pályán
##anyelv
##jenek
##iri
MÁV
Erdélyi
üd
találkozott
##lés
kifejleszt
vetett
finom
molek
##ókl
nagylemez
csapatában
##ulását
végeztek
59
temploma
Simon
bit
165
használja
hajót
állították
##34
##oszlás
iskolai
68
vont
érkező
Gab
##tatta
házi
ten
##egyen
##szkij
If
éghaj
faluban
pénzügyi
valamilyen
##izett
##orok
##szob
ellenáll
##ezési
##tette
javaslat
##olnak
##helyen
130
Oly
fejezte
1906
lemondott
##ségre
##endes
##iták
ideiglen
foglalta
Hozzáférés
alg
##cionális
##ikusan
##áng
fejezet
95
##számú
Miss
##beszél
ehhez
Lap
komb
##ispán
lőtt
változott
##rópusi
elkészült
Maria
##ase
szikl
szult
húsz
##őkép
kaz
reakció
felkész
igazolt
Szovjetunió
##szöv
akivel
##lo
Labdarúg
lakói
üldöz
##alja
##színház
Bécsben
halak
bevon
legközel
önként
emlékezt
egyszerűen
##16
##ágaz
Des
Közben
energi
Mic
1905
##ionális
sikerrel
Ka
Pop
szinkron
##vezet
konk
kezdtek
##eződ
##ezésére
következett
megjelenik
##tain
##kai
érettség
SZ
Pály
újonnan
sikerül
Seb
városában
digit
Való
art
Cast
Balázs
rakét
##áli
66
onnan
Tra
##ódás
menekül
középkorban
##iratok
##elmélet
alelnök
##ua
szentély
norvég
átlagos
használnak
őszén
##38
##odó
Jud
##falva
időn
opera
##vöz
óv
szög
túlnyom
képviselője
Tanulmány
##tör
Bay
99
kerek
##mon
feljegy
##rus
lehetnek
medenc
megelőz
alkotott
kémiai
országok
napi
##18
##való
ned
nyújtott
##15
létrehozott
Luk
##száz
bíróság
háborúban
##uli
##anyar
valóban
##ozásában
Horváth
kiemelt
##ance
Dani
##stantin
##ságba
akkoriban
rendszert
##oknál
meghatározott
négyzet
Kam
jelölték
##örny
##zár
72
kivitel
szerkesztő
##agon
ukrán
szórak
pat
##allgat
foglalja
bur
komplex
##zsi
##ennyiben
pót
Balaton
##ásba
akarja
##ouse
Kína
##elváros
Szal
szert
Ul
épületet
##alóg
Por
autópály
opt
dolgozik
papír
Fil
szavak
selejtező
Négy
##intézet
1916
vizsgálat
gót
nembe
##ecskemét
hajók
kiköt
kan
alkalmával
NB
##ings
integr
##vizsg
találkoz
##iller
Ezeket
Bad
Terület
##eszi
hajtó
édesapja
##ague
szál
Kezd
Kong
tükr
##órészt
Oscar
meglehetősen
Endre
##iket
ren
toll
##együtt
északnyugatra
nád
fedél
Han
főherceg
##37
Kaz
enyh
##osszabb
##zését
műemlék
ettől
felmér
##etését
találták
stílusú
Labdarúgó
élelmiszer
##olcs
használata
##éjét
##atőr
##sem
Ev
##ájába
vasútállomás
##tön
metró
írja
##orit
hagyta
##erb
mus
##ellel
megfigy
mexikói
157
nyelvet
németül
##esfehér
valami
Jim
Pap
testt
Történ
használtak
őriz
##zési
kijel
Str
kab
Jackson
csaknem
utat
pályafutását
bassz
##szlám
telefon
ázsiai
##eksz
##ánsz
##ága
részeként
csomag
élőhely
##rei
Ön
élett
számban
##une
visszavonult
épül
##okról
kívüli
##mi
döntőben
Spanyolország
hoztak
##ákra
##ukra
##történeti
1915
##adásul
Mexikó
egyenlő
##éseinek
kiderül
egyenlet
buddhista
Ker
lakosságának
határozat
##üsz
Nevét
művelet
Bert
Rádió
lista
Főiskol
Joseph
##elője
rózs
bejegy
pápai
Love
Bir
mára
férfiak
##ko
##ade
##dor
##irtelen
délkeleti
világszerte
Tóth
szláv
Általános
Fo
Gro
elők
##ferenci
Stan
hasonlít
##lása
##ígjáték
színes
önkormányzat
##gium
fogja
##uri
kénytelen
Napól
gerinc
eljárás
harminc
Kn
VII
vegyület
##archia
1907
tevékenykedett
meglát
##művészet
forgalmaz
Dis
bizánci
##onóm
##értve
##hát
##láb
##oba
ök
Billboard
##cht
##egyűjt
hatást
##ciós
csapatot
uradalom
Hist
szubt
Camp
##ello
##uláris
Finn
hárm
Can
Batt
rendőrség
Bol
anyak
##kodó
foglalkozó
od
lánc
##ítésével
szerzetes
##bér
##tekint
##36
csapadék
beszám
Rod
München
##kóz
sav
nyak
özvegy
előz
óriási
##épület
Erre
##estáns
##agn
stadion
televízió
Jelent
1909
júliusában
1870
benn
##ulni
zenész
kategóriában
##hettek
elmúlt
##lők
Haj
Š
sen
nehezen
##dy
idős
peri
bocsát
palota
##sav
esik
állampolgár
hadművelet
##dám
##annon
1896
növek
##atur
##áknak
ezáltal
Kop
##14
jövő
természetesen
Kur
gyan
Sir
minim
Ugyanakkor
árny
kapcsolódó
számok
északnyugati
##aras
képző
közülük
anyanyelv
##csa
##idej
##oldali
befog
Bíró
írásos
állapotban
Édesapja
##onosz
##für
ként
igazán
családja
##lett
fész
technikai
felszám
résztvev
megalapította
beép
##ála
árt
##umban
versenyszám
baz
olvasható
##íliai
Horvátország
melyen
szerkesztője
##mos
96
Dec
##úv
Gyak
gitáros
Eh
##ilap
bí
Mos
másodosztály
fele
vállalt
kivéve
megvéd
##her
Veszprém
Ba
##oid
##assó
Fér
##hajtó
függően
pad
##enberg
##ösen
1899
##chester
események
##tos
skót
említése
##bi
##had
létezett
##ive
nagyb
##ámi
csel
követi
##álása
Tisza
illető
terem
##ellenes
stílusban
szőr
##áshoz
67
Ga
Fried
alkoh
takar
##tő
ráj
##una
##ican
elmenek
##katolikus
##ásáról
##ászl
vágy
kritik
##obot
éri
megúj
ellenség
képviselte
közúton
1849
##szert
vak
##onstr
##ításának
sikertelen
##uan
##házy
##áram
##csont
figyelembe
szoft
kivételével
##ülése
##egyver
leszármaz
##hatják
Tour
legsz
venni
##med
Vit
co
##almú
##ályi
##39
##íp
Jakab
gyűrű
varázs
##ítélet
##lor
trag
akiket
férf
##szol
Rep
Görög
találta
##gazdasági
kutatások
##seb
egyházmegy
##ense
valah
##eredmény
háborús
National
sajátos
##amin
Fényes
oklevél
Róbert
basszus
szubtrópusi
top
##rey
Nyit
székely
Hadsereg
tudtak
ezelőtt
zajlott
jutottak
##ales
báró
elhatár
Úgy
kristály
számon
mondja
Mot
zsák
##ikailag
##AC
Matt
tájék
Bul
##álly
egyedi
##ower
Sil
tég
használható
##nel
Szint
tanári
uj
biztonsági
##kert
Sol
képregény
Öt
szintű
táplálék
##ália
Mah
agg
kataszt
##önk
népi
nyomtat
Open
megjegy
hálózat
professzor
145
Press
##védő
nagyrészt
Cz
biztosít
részesült
##nőt
##eskeny
Ass
76
okozta
teszik
Play
torny
alkotó
tavaszán
##ensúly
Rev
##szülött
1904
megvásár
szellemi
Sw
125
##bázis
##vezér
>
ügynök
szilárd
sorozatot
Petőfi
tengerpart
##act
##omer
Bod
88
tagjaként
##onz
felder
##atlanul
amellyel
vidéki
világháborúban
romant
számot
albuma
##rí
Gyermek
##edő
Gall
IS
porosz
felekezet
szász
##rah
lásd
jobbágy
szakért
jelenet
mérg
kuty
élvez
Napóleon
Jog
tol
mérsék
eleinte
##ítéssel
északkeletre
##vit
Nyelv
##wn
##bev
lenni
alapul
##emokrata
##csat
##ifik
Kim
tervei
147
158
neves
##MS
elsőd
Eml
##ual
##gond
146
tetsz
##aff
##ítési
legnép
figyel
lejt
Római
Krisztus
szerkezet
béke
ásvány
##lel
használni
##yt
elf
konzerv
Max
##esta
turné
többség
szervezetek
uralkodása
réz
összecsap
megép
##osaurus
lezár
cserél
működt
##anya
##ograp
Lud
Mir
##TA
##nai
helyes
##korong
korszerű
##elli
induló
Merc
Rog
beszélg
##hálóz
eszm
aktiv
megalakult
hetedik
viseli
##ellát
világon
##iás
történeti
##mod
érettségizett
##álják
Av
pedagóg
##kék
szokás
magasság
támadást
div
megfog
Feleség
évektől
megoszt
lelki
tartanak
fegyveres
##játsz
Vall
Ádám
250
##csi
jogot
##úton
1903
máig
rögtön
szőlő
##ator
megjelenő
interjú
helye
kitünt
Si
##eter
elkülön
##icz
MTA
##cional
görögkatolikus
##rot
Reform
mutatta
kihasznál
##eszked
Arch
##parancsnok
alacsonyabb
##ttől
Cart
címen
1902
vegyes
League
##edtek
hirtelen
Minisztérium
alakította
##yű
Megy
600
szel
fennható
92
megszervez
Pier
##óf
##ekor
##asonl
legfeljebb
Alapítvány
—
##ling
##ttel
végleg
##neses
Smith
kápoln
Angliában
To
Alp
tiszta
szök
példa
##olsó
Dezső
szerepelnek
Vez
információ
Baj
##essel
mang
dalok
tenni
ragad
kiép
##érte
lakosai
pajzs
##ology
magával
84
káros
férj
##forr
Buk
szerzet
##roc
Ly
Wash
Temes
délnyugatra
##ömege
nyer
történetét
erről
1860
szapor
Horvátországban
öl
##ességét
összev
Fred
##hetjük
##iana
Francis
##ánus
méh
Kalifor
##rod
##inát
##használ
##olyai
esély
Központi
dics
August
##nyit
##ejtek
##áinak
hívták
Club
többé
rabszolg
polgárháború
##óklip
egyén
minél
##etta
hajlandó
Soci
dolog
különbség
##ute
szultán
##igr
139
szempontjából
##etn
##jav
megtud
##ook
##techn
Belgium
megváltoztat
##ezésre
69
szün
döntés
Cla
alul
rendszerben
##zésére
magába
öltöz
her
újból
EL
gyenge
dolgozó
nar
tél
1888
kérte
Szász
erkölcs
származott
pontja
processzor
legény
Men
##úri
sos
##onnal
vékony
dolgozni
##erdők
terén
##utaz
Szintén
időpont
##ple
szur
Csillag
##ues
##örő
1898
##fordult
világos
várat
##enzív
számát
kikép
##ásokban
este
városok
fenti
elfoglalta
Lee
Nob
pénzt
##váltás
területét
##elég
hadjárat
Vir
amiben
emelet
##ékek
fiát
Edward
trónra
86
##ségnek
említi
századtól
Eredetileg
##keresked
nevéhez
##étert
szakember
baj
cit
##usk
##ekven
legel
no
rendszerint
braz
szülei
természeti
##iki
##ácsi
1850
törekv
##áma
Far
emleg
kőzet
kilogram
romb
településnek
##verz
működését
ellenséges
Főiskola
szertart
Színházban
##elését
profi
csoportok
##inal
beleértve
134
##hetők
##általán
##ukban
162
##ansz
figyelmet
##31
98
megszak
Víz
megálló
##ágr
1895
Sci
útján
Henry
beav
##állalat
légvonalban
Róma
Enter
89
Ven
78
Bank
kiny
földrajzi
##ükben
##ady
##ehet
menedzs
##aték
királyság
##árius
bolgár
##éses
129
földi
##ámp
díját
elköv
kifejezett
##ovin
##isebb
oktatás
elbeszél
##don
Ann
##ilván
##bit
Hor
Inter
##over
##vezetés
elpusztult
##oribb
##élkül
megért
életet
produkció
tanús
97
Szép
##hogy
Bre
megnev
többen
történetében
##emier
folyók
##oper
##ottsága
fertőz
87
1867
##eszánsz
online
Norvég
nőstény
hallható
##TO
nyelvek
##ye
Vill
Ukraj
##ternatív
videóklip
##átsz
hónappal
nyilvános
bab
tartani
franciák
##lép
##ulf
lex
Szlovákiában
Tal
##kutató
alapú
bíbor
időkben
festmény
##ekély
észrev
##orid
77
alt
futó
kezdődik
tulajdonos
Berg
##emp
tagok
immár
iránti
udvari
Eszterg
##afélék
tengerszint
fogalmaz
1901
Koll
##emokratikus
##eff
##ességet
##gé
##ásából
##koriban
##hard
kies
miszerint
##lim
Anglia
mennyiségű
##ream
növények
##zsák
bekerült
használatos
##ibb
##adal
egyáltalán
Vl
étel
tartalék
82
tettek
bejut
kiderült
középiskol
tervezte
Herm
termeszt
##alj
Kft
Sav
harck
tiltak
Unió
##ety
##ória
fü
##ettebb
##ológiát
##ozására
vonz
politik
ismertté
##rac
##stit
hajóz
teher
tudat
Zem
##jukat
Mr
##ézis
##eiből
South
tüzér
##király
torna
##OS
fájd
rendeztek
kamar
szintet
alag
fon
megnöv
Bors
Herceg
Viktor
##ekedett
Du
##ésbe
142
leggyakrabban
községközpont
##eret
##lány
110
keskeny
##ekbe
##ierő
Általában
##niuk
##nén
ismerte
##olk
Boy
eltűnt
veréb
szörny
##oi
by
Lipót
szövetséges
##gyilkos
csapatt
eredményeként
Széchenyi
orr
terve
##isztán
##kit
##sík
osztályú
##ésekkel
amin
nyilvánosság
def
testület
##gás
indián
iszlám
##önyve
nyugdíj
ly
Vis
részének
kontinens
animációs
##itengerészet
##hetik
téren
értéke
délnyugati
1894
északkeleti
##pap
fur
protestáns
hur
helyezést
Magyarországra
Mező
##tr
kongressz
pi
Jász
doktori
határában
állítólag
konfliktus
##gin
##nit
##aster
Északi
#
viselte
magában
folyik
elvesztette
oxid
feket
színházi
kivon
terjedt
vír
##darab
tudják
vallású
kocsi
1892
Huny
albumot
elfogadott
veszélyezt
Bas
Bat
Cam
csoportos
##csarnok
##cal
Lég
##rek
##zmus
egyúttal
életmód
oktatási
pot
velencei
kötelező
##unior
messze
sportág
Na
148
Lin
135
79
Aust
Buda
háborút
kísérleti
##ükk
Határ
dep
##emelked
közz
Somogy
##kov
dik
##anács
##áliai
száj
barna
Nyír
átvette
Cas
Szlovén
nincsenek
Hogy
##herceg
Érdek
búcsúz
Fir
Fal
huszon
szociális
India
##éi
Könyvtár
##hő
##atik
##aid
kán
rájuk
##itány
##ogó
##list
Que
1891
tanú
##íj
##képző
jogos
##szakasz
Mindkét
táplálkozik
váz
Kass
1861
mult
Osztrák
##oszi
##ítsa
##edelm
Vad
ülés
tudni
Ep
##nevek
alakultak
##éland
##ásait
váltotta
Rövid
Adam
132
felépítés
rómaiak
parancsnoka
Második
pilót
legyőzte
Harry
Szoci
beoszt
szereztek
Ám
nyelvi
anyagok
szezont
##ugár
1881
felm
üreg
tulajdonosa
kezdő
Testhossza
Tör
hivat
kiind
94
heged
legkisebb
144
##műves
mire
sérülés
Ped
besor
127
Kev
gar
többet
fordítás
foglalkoztak
bill
hány
megír
végződ
gyártott
VIII
Műszaki
kamp
feloszt
fiv
koronáz
Kun
Europ
##ife
valaki
Hy
Vers
##ívum
asz
##ensis
látja
Londonban
##méretű
felvon
rendelkezésre
##úp
jelenség
állított
pál
##ásainak
##utsch
szoftver
##ole
Rh
##odtak
Af
táb
közre
##enekar
##almának
Dem
akiknek
##ná
kos
EU
Bog
##hetünk
exped
megmutat
képzés
békeszerződésig
fázis
belép
szélső
God
Ellen
new
Od
változatos
##ude
Ob
##akadém
Sand
##forrás
frank
Argent
harcok
háromszor
gyül
iskolát
csatolták
##híresebb
Ugyanebben
rad
reggel
Békés
címét
utánpót
mesterséges
##gen
Eöt
##béli
##ságok
nevek
oklevelet
##aboratórium
Fog
ágaz
beszélt
rövidebb
##NE
##eriformes
könyvet
Eötvös
##etti
kiesett
Bell
Award
ellenzék
Dáni
Fest
ötven
függetlenül
qu
##arth
##nője
1884
##öző
##éshez
##öttek
##szerző
készítettek
trónörök
Mindez
mal
##álnak
sosem
itteni
születés
##niük
Míg
Szolnok
festett
##pi
##ításra
Ford
ingy
end
##várad
felaján
igyekezett
leggyakoribb
megm
##öder
Egész
szentelt
##niai
##átri
Orv
segített
aláír
professz
öröm
##önny
Madrid
termékeny
font
középpont
Páp
látni
##olnár
1876
##rick
strukt
##33
##ovíz
kutatók
##fiz
szarvas
Bál
text
halálos
segítséget
##űri
Kult
társulat
##óka
##jobb
##etésre
egyfajta
költemény
hekt
játékosok
800
határozott
1885
1893
látták
megszűn
##őre
nyugalom
##eiket
##ations
sivat
MA
leánya
hor
##ántúl
cirk
gomb
##ária
Sur
1889
Szatmár
romániai
nála
alternatív
##orum
területeket
1873
pesti
közlekedik
1897
belváros
építészet
Afrika
##íci
acél
napján
##kun
##ekint
céljából
Olaszországban
Mari
folt
##ibr
Seg
##eszköz
vihar
##helyett
otthont
műszer
irányította
csík
felirat
##mező
##olya
kud
##ript
##rol
előtte
bok
katolikusok
gyerekek
##row
##tették
##eresebb
##szintes
parlamenti
végez
tip
hamis
##úszó
szimból
##uzsál
házasságot
Mary
Hason
évforduló
##völgy
American
##lagos
imád
##ükre
Komárom
Művészeti
##viselő
változása
##szárny
Land
kiterjeszt
következik
bekövetkezett
megjelentek
felhív
alakították
cár
Anton
internet
Utó
##opp
Gyul
elfoglalták
digitális
##ülnek
nevezzük
##iae
Schw
háborúk
tengeralatt
elegendő
reneszánsz
Ko
##ossá
gömb
hátra
fűződik
verébalakúak
##estek
Részt
cselekmény
szk
folyadék
North
Kan
Rem
Rudolf
alapvetően
124
Beth
ítélet
feláll
üzleti
##kodik
fejlett
épületek
##ké
1886
lebont
formája
##bem
senki
Korábban
##ube
##sikeresebb
ösztöndíj
##repülő
kicsi
Hav
##őtlen
előseg
Dub
képet
Kecskemét
php
amint
##cím
tót
##gazdaság
Santa
előadó
alkotta
Nád
létesítmény
##iája
138
Hét
Eger
##ügyminiszter
rajzfilm
észl
Emlék
indok
##ecz
##rális
1500
##uláció
ident
##úti
1871
területére
##chi
nyers
eddigi
színek
##alált
kutatási
főszerkeszt
128
rát
##ru
##lege
építő
honvéd
sí
##szabad
koord
Passeriformes
##előhely
hordozó
csapattal
##13
##észettudományi
##lem
##udós
##idősebb
számtalan
tartományban
Vissz
kért
harcolt
szocialista
##ársa
száml
November
Act
##kutat
##oxid
Dam
étt
légkör
összekötő
harci
Zrt
szerves
##ulus
magára
*
##őző
##olvas
űrhajós
alapítója
##köv
##ásból
Majd
kering
segítette
dupl
##ébb
##eder
Ray
bátyja
évében
buddhizmus
<
pon
pályáz
##iszi
Zempl
Sta
darabot
##evel
##együttes
##elődési
szülőváros
##mill
##ózis
úsz
##ela
##bolt
Lo
1872
csomó
utasítás
##egen
fejlődött
##világot
##beszéd
Ahogy
iskolában
1883
##egység
##airól
eskü
Windows
##mosz
kanyar
##fű
##by
leletek
##etők
alkalmazta
gyakorlati
na
meghód
műhely
Eközben
mor
Bp
tömör
képviselői
##enev
akk
##otípus
egybe
művészi
Svédország
##ötték
##ike
kim
elemek
feltehetően
##dr
Lásd
Cy
Royal
óriás
##latot
Református
##ágráb
Tiz
##atikai
főnök
##aiból
felgy
Tat
nit
védek
államok
##arn
af
##rez
1828
emelkedett
fők
##win
dátum
lomb
Ágost
##ury
Mai
gondos
##iák
Iszt
musz
##atkozott
##esegyház
közösségi
Coll
Ázsia
Szombat
állatt
##vét
##eger
Gir
##ektív
területi
tapasztalat
##anta
Williams
##dorf
záró
##köztársaság
lényegében
kezdeti
arányban
##iti
alcsalád
1882
vígjáték
telepedett
munkái
ítélték
történész
1878
lélek
Ho
fék
oxig
közölte
vizsgálatok
gyermekeként
slágerl
##őv
szimb
Szül
##ukle
ölt
##imenz
136
halálát
##umbia
mintha
Fid
kony
Victor
Emiatt
elmondja
##ságában
elsődleges
Bosz
Ifjú
##éttel
##ükön
Valószínű
##onk
legsikeresebb
##györgy
##szolgál
63
##ardo
##jéhez
semmilyen
matematikai
báb
kollégium
tervezték
##anov
Super
farag
Hungar
legkor
Portugál
##cher
Times
##adást
részei
Ross
ígér
##szentm
fejlődés
basszusgit
##rikus
nemzetek
választott
fent
##aikat
tönk
XII
megteremt
off
brazil
színeiben
ür
nemz
megeml
állást
intézked
háza
várt
szeged
jégkorong
csapatai
##ókép
Robin
##jaz
koncep
jelentkezett
tevékenysége
##várt
##igo
kétség
tökéletes
##hatták
Munkás
pályafutása
##etikai
Polit
egyezmény
##ía
##képp
épülete
Románia
régióban
egészségügyi
Scott
fajta
##ovíziós
kápolna
Net
##bajnokság
Sant
addigi
vezény
jellemzően
##arag
Kezdetben
EN
kilogramm
napjainkban
miniszt
##onként
agyag
MTV
káv
##aktérium
kialakított
##ületett
vonat
Zsuzs
oldali
perces
##rag
vulk
díjra
felfog
kapcsán
126
nyomás
##jak
írott
##anz
##zött
Sup
szobrász
emelt
##iff
rendszerek
Nor
##ásakor
mutatott
ellátott
##jain
1869
Szilágy
##ítót
előbbi
Mér
DNS
előáll
##korában
szin
Teh
Gyakran
fordított
##űvé
filmje
##barna
jelzésű
részre
bármely
##ER
Ni
##anci
támasz
szerződött
káb
mérete
si
Pak
legidősebb
kerületben
##uct
ciklus
szeretett
##öly
##onta
##házban
adatai
ábrázol
##álva
kerülnek
##zata
##lán
sajt
Cser
Iván
felvette
Vályi
erősebb
ráadásul
##onya
##ezete
Hum
##ancell
közlekedési
1887
megköt
##uny
1851
annál
Tit
Keleti
látvány
családban
kiadta
expedíció
Lot
vitte
magasságban
végleges
##cy
##ogle
Hir
gab
távozott
nézve
bolygó
elméleti
##fesz
##fegyver
##aknak
mérsékelt
romantikus
felr
temették
elektronikus
átmérőj
rendkívüli
változik
testtömege
összehasonl
Ren
elérni
Ivan
ellene
pilóta
eszterg
történetének
pih
anya
abból
##stem
szolgálatot
adatbázis
Gran
szánt
évfolyam
1868
játszották
Kutat
##ush
Pir
sci
klip
uralma
Et
rug
##allal
élére
kifejezetten
konstr
leszármazott
berendezés
##agan
vonatkozik
##ásán
##álható
királya
stúdióalbum
##elly
##pénz
Liszt
##ménnyel
kalap
éjszaka
##ömör
##ásokra
Steph
felsor
pet
ennél
problémák
##lu
##szál
##ohány
Eszter
elmarad
Jones
hidrogén
részéről
mellyel
érzékeny
##aját
##orvos
Klub
irányába
##ítse
##mentes
háromszög
karács
kombin
megőriz
##oros
Utóbb
ismerték
McC
##ezeti
egyértelműen
Ernő
Molnár
ELTE
prop
másfél
liber
listán
Főiskolán
ih
##olók
egyesült
Konstantin
Est
##felvétel
tab
##ítással
automatikus
regénye
##szolgáltat
##sért
szerte
Stre
roham
##elésére
kimond
számítógépes
Su
művében
tulajdonképpen
##tárgy
##obbant
adják
Leon
érkezik
szereplők
figyelmezt
##ízis
##ulást
tisztség
##ulta
##stein
fák
##ellig
post
##sár
gólját
fiatalok
Csehszlovák
indultak
##árium
láthatók
elemi
Barb
Csász
1800
riv
Innen
§
##rin
Sik
számának
várható
##junk
hajd
lakossal
##ülést
úszó
maradék
##yan
jelentősebb
61
tej
legut
kapcsolódik
mos
percben
Ted
##óniai
szóból
tervek
Chic
tükröz
elfogad
váltott
Aba
1875
##úny
Zsolt
##etésére
##eser
ham
olv
probléma
honlap
későbbiekben
1879
kedvelt
statisztikai
Éva
##ville
szerz
küldte
Nik
##ingen
##ána
faja
tölgy
találkozik
##atokkal
házában
dur
##letet
##onald
##oma
137
leghíresebb
szembe
nagyherceg
Esztergom
tág
fark
fölé
Ferr
községben
BBC
berl
védelmi
##ikum
Wolf
embereket
##üs
##iával
##ítésre
szakos
amiért
ellentmond
Nagyvárad
jót
bales
irányba
ottani
##ávid
ret
##harmad
Székesfehér
da
szócikk
Dok
##ilton
Képző
##kát
##evízió
Október
szerzője
zsidók
kutatás
fiai
alfaj
kiszabad
melyből
megtan
Sun
Rómában
kapcsolata
helyiség
##ffer
fedélzet
##ime
##lex
##ril
játssz
Band
listája
##adója
##uer
tilt
##ítenek
életének
kislemeze
bec
pozs
abszol
##fesztiválon
ideiglenes
##arap
##ollywood
gyermekük
szexuális
hadosztály
lehetősége
győzt
örmény
##ázni
##ósz
##reng
perzsa
lakót
Daniel
##tartó
fürdő
##atemplom
1874
kilát
##ridge
##éber
##növény
Aleksz
eltérően
élénk
albumon
##ince
##sw
csehszlovák
##őrség
##etty
##mund
Szegedi
##océn
Clark
Felesége
háztart
##énes
##űvész
##áva
személyek
irányítása
##odi
Mike
##ezsu
kapcsolatba
##AF
Afrikában
építészeti
Ast
##apság
tudnak
Zemplén
felkelés
##éval
##osp
##öng
másrészt
##vet
Roll
jelzi
##aka
##ativ
tartózkod
Stud
szegedi
tizenegy
éles
##pontos
fagy
építése
##olo
biztosított
bosz
Lang
vezetői
közlekedett
belsej
folyton
Olyan
dráma
negyeddönt
Csák
##ethető
fára
elnevezése
vita
támadó
bizonytalan
következmény
nevében
Irodalmi
Ku
Amerik
gonosz
admin
##dög
##közl
Hajd
tartós
kimutat
##tal
Ri
miért
alkalmazzák
Pesti
valóság
külföldön
##ison
alapja
temetőben
##letek
##váron
with
filozófi
tekintik
##sok
holt
hitel
##zus
73
Day
szélén
élőhelye
létező
##ítések
Izrael
Dávid
leromb
##gá
##idák
érdekes
költségv
meccsen
##orban
##őknek
Brand
löveg
sikere
##ee
érdemes
##essék
reag
idővel
##függeszt
szállt
debrec
ismeret
##uki
Alb
##ásoknak
##forgalom
Argentín
##mo
éveiben
##obil
elítél
fordulóban
##csökk
##aurusz
cukor
Ausztráliában
##közép
medence
Friedrich
##árty
Mam
Pierre
valamely
##atus
##őrös
Nar
vívott
évekig
jóvá
alapuló
##örténeti
Fontos
tagjává
Ern
##áti
alkohol
belépett
Not
##ition
Angol
berlini
##inam
Habár
##adására
##iszony
Eurovíziós
öccse
fontosabb
Ox
Hang
megalkot
népek
##telenek
köszönhető
rendelkeznek
bajor
tervező
Sem
vonalon
üzemanyag
##ezen
line
véve
fossz
terj
menti
Utolsó
hangja
Real
Burg
##ozható
Bálint
jellegzet
##ON
Č
Hamar
School
Eb
##ekvenci
##rendező
zón
gyerm
Honvéd
##adtak
oltár
idejében
maximális
##övő
negyven
##olgári
Orbán
neveztek
hozzájárult
##ájt
##ulva
fiók
##ianus
kapták
##tudomány
##mát
szerelem
debreceni
őrzi
lányát
Tw
elöl
zászl
húg
adnak
##ibli
##pest
teológiai
menedék
Haw
hangz
elnöki
számító
mozgás
zsákmány
»
ásat
mandátum
robot
##járat
##ikusok
rivális
alkotása
megfogalmaz
How
Les
autópálya
elválaszt
nemzetiségi
##üdt
tanító
tárgyak
##uta
##eszél
Wat
##erülő
vizet
dallam
dolgoztak
##isi
Bah
mong
##éséről
filmek
völgyében
##aire
##endszer
adományozta
##enh
szigetén
Összesen
regionális
jelentősége
Sel
vesztette
det
red
##istó
##ular
Marosvásár
filozófiai
##idd
##etter
##virág
Arad
szokásos
eredet
##kl
##ún
##itu
Barcel
Osz
büntető
Ugyancsak
terep
kudarc
legrégebbi
##eller
szat
vajd
biztosítja
##onda
szerez
szerette
ható
hívta
novell
Post
köti
amatőr
Továbbá
Pas
kongresszus
székesegyház
##ogén
Ilona
##ációban
vitték
trónörökös
##oo
apost
remek
rendelt
##oztató
húzódik
##aktív
országokban
Cir
érzelm
döntőbe
Függ
##haus
Kore
##otikus
##omlott
tanítás
##alax
gyilkosság
##ops
##okol
105
Déli
##asztal
magánt
tartoztak
##entális
##ado
meghosszabb
táp
jellemzi
##otel
mel
Ehhez
Kh
##iban
Neve
plébános
játszódik
képződ
kereskedelem
SS
túlnyomórészt
##dob
alakítottak
önkormányzati
Washington
Div
##nos
##rib
baleset
hard
Instit
Leh
jezsu
alakított
##okém
határt
Hasonló
ponttal
##gyűjtemény
minisztérium
felbont
Ausztrália
Manchester
növekvő
1877
band
Telek
templomban
Gabri
nővér
mil
billent
##iából
##városban
változatát
he
Hosszú
aty
dar
mikr
Katolikus
##hire
technológi
földön
viselt
egységek
Emil
Törökország
##ogány
##péter
geomet
##eki
1830
Fiatal
kihalt
valamelyik
szam
tatár
##MP
írtak
emlősök
fiatalabb
##kin
##üssz
budai
hatóságok
##ajz
Jour
nedves
kedvező
kézil
##becs
járásában
lépés
korona
népességének
baktérium
##házi
fant
fe
ütem
délután
##bizottság
##aránd
##ump
Sziget
hatalmat
1865
##oszaurusz
##ures
Pod
##oe
Annak
véletlen
##oka
nyomd
sc
##ációkat
közelebb
birtokosa
##iano
##egyed
show
kampány
népszerűs
Disney
High
##bal
##ózsa
Terézia
holtt
megegyezik
birod
##aszám
sziv
játékot
egyensúly
1863
konferenci
sért
assziszt
##éra
nyolcadik
##ences
##FC
##galom
##idejű
##itása
##TC
Tay
Kapos
Techn
##vezetője
##érek
##átorok
##lete
##alizál
gépek
Bajnok
legenda
nagyban
Erdélyben
##feld
minő
hívják
Benedek
futball
71
újságír
csapatához
tar
##kh
felkelők
szárazföldi
muszlim
##gyógy
1866
1829
domin
##eződött
visszautas
##ővel
Sám
mozog
##kocs
1808
elad
neur
##állomány
##iratban
Zal
##fia
##iót
Arm
##nevet
##park
Dol
tők
##ander
##ozíció
Trans
költészet
##enna
Der
jelentőségű
Fe
Publ
Mass
fogly
körülmény
05
##állyal
itáliai
nyelvben
előállítás
##őtt
##zete
inn
##itkár
##cus
##szar
missz
anyanyelvű
Pécsi
csend
sör
tanítványa
##okatlan
Ottó
győzött
##éke
határa
##árnap
beavatk
legnépszerűbb
Hegy
lassú
Tanszék
teljesített
##lór
tornán
December
tizenkét
##igi
autonóm
vb
igénybe
##őlt
Kiv
vallásos
szürke
idényben
##IA
81
##adár
##eneg
##lalt
##áciai
dalokat
##lást
##politikai
##ürk
les
##ekkor
jelző
aranyérmet
világi
fogadták
##latok
Hein
héttel
Ettől
tized
futott
fegyvert
##ji
##usta
feje
választók
Tu
Kosz
Monarchia
Tagja
Megyei
##ográfiai
cserébe
Ázsiában
átmérőjű
##alíció
tehető
élvonal
##avart
##asszal
##időben
Napja
figur
##http
##földre
##vezetést
##kes
##onos
Mit
leny
színe
##imb
##isa
##atonai
##őbe
3000
##tainment
Lew
##MA
##őn
##ray
támogatásával
parti
videójáték
«
##ökkel
Antoni
ball
élmény
visszah
csapatnak
##anus
##ügyminisztérium
Ru
Kínában
##eszk
nyílik
##entől
Szülei
állítja
##helm
##obi
##ásától
##ozással
gyermekek
sal
Yo
állap
gyöker
esztergomi
Csaba
mat
##tét
##fogó
spir
partra
összefoglal
##aszín
Csík
hó
##oter
bejárat
veszélyes
napvilágot
109
világban
mozgat
##imir
Albán
Szeptember
Szűz
##élemény
kritikusok
##áf
Ud
##ságuk
perem
adni
esetekben
földreng
Csap
##SE
megél
végtelen
Dur
from
értes
rangot
bevétel
megoldás
regisztr
##uzz
##ációját
Egyetemi
kibocsát
matematika
##etője
hozzájuk
IX
defin
##eton
##radi
##kil
##icus
##metsz
##estaur
forma
sárkány
grafikus
alkalmából
nyilatkozat
##összeg
falunak
vezetése
One
dinam
Könyvkiadó
##HL
betűk
asztal
defini
##gan
##szöveg
számítás
feleségével
##amon
Aur
##olást
Hort
diszk
művelt
##újabb
Ball
tényleges
Nobel
farok
királyt
helyezte
vallotta
szerepeltek
ENSZ
haladt
sét
gazdál
##gáz
Tir
korosztály
kval
flotta
Ign
művét
tevékenységét
összegyűjt
Hid
Báth
tanulmányokat
##vent
töredék
szívesen
forgalomba
gyilkos
all
másnap
bál
bukása
Christian
tagozat
Bibl
nyár
##ozót
##ques
Ű
noha
dohány
támogató
eredményei
##ogh
Die
kívánt
##dha
próbálk
választás
alapítvány
##élly
Brian
hagyott
megszállás
pécsi
megsér
Britanni
megelőzően
hajtott
Bolyai
konkrét
felfüggeszt
szállították
ára
Alfr
##otten
1864
kedvenc
kitüntetés
##icc
##ülni
éjjel
szünet
súlyosan
kereskedő
elterjedési
tonna
Varga
Bartók
laboratórium
Sec
Wood
zenét
##hosszabb
szüksége
##oto
lic
recept
győzelm
egymáshoz
##igl
##cselek
Kle
##ische
alkat
csoportba
tib
izom
##spir
hazánk
könyvt
##ilkol
Ipar
célra
amiket
évezred
Up
éghajlat
területének
házat
Hitler
felosz
szabvány
##lata
Bour
termelés
##ME
##rendű
alkalmazása
115
Közel
##önyör
Szír
vért
Lét
##ányos
egyrészt
##inae
##sort
biológiai
##ságra
Rá
sim
sejtek
##sebesség
követett
tok
média
művek
##aliz
700
Lind
alkotják
olcs
##biztos
##gyermek
vari
lemezt
szülők
felajánl
Opera
feladatok
Rt
Cont
kiadása
##baj
##ösz
Hug
Hans
orvost
rangsor
##vező
Mars
vízi
családot
Gimnáziumban
AC
##őrinc
Lux
##uay
1840
##ugl
húr
##etikus
vírus
##uld
dém
Fort
helyette
##iszta
védelem
keletkezik
##df
##gő
Just
alkotja
partbír
##ezéssel
aránya
##wig
jelentették
művet
Google
##szervezet
színvonal
laz
Bethlen
##ákból
amire
áttör
mellette
Corn
##andard
##eszterc
anyagot
Jó
oxigén
Magyarországi
Fővárosi
##asy
fájl
választásokon
##kozó
122
Közös
feljut
illetően
##tlen
Bund
mondott
melyik
##igazgató
kezdetét
##uda
Lit
Liv
##ogatták
elindult
##ágai
erdei
közönséges
ref
csoportja
koncepció
##ider
gyakorolt
doc
héten
sülly
Pu
##work
##eihez
bog
városba
##lánc
levelek
Beck
Május
emigr
Szar
Wall
Steve
várak
kötőd
közepes
államban
Entertainment
##ograph
Bukar
##gimnázium
küldetés
##ister
utak
Angli
lesznek
helyezked
##ather
Ausztriában
##ítsák
Jelentős
ellenállás
##iverp
falvak
mezőny
Joe
04
##ohan
füst
##éül
106
Sáros
Micros
Perc
kand
flott
szokatlan
szerkesztette
##uly
##emplom
bevándor
királynak
ezüstérmes
##odást
Maur
Brazília
Tony
##iához
másol
##andin
Dániel
érhető
##enie
nukle
Nagyon
prototípus
##patak
1859
##okatest
belüli
nevelő
felment
##ukk
Ura
szerzők
felügyelet
##onát
##ébred
átlagosan
91
határán
Kollégium
helyzetben
ajtó
akarták
ajánlott
legendás
##má
##mir
Inn
Teljes
Berlinben
##ović
oldala
1862
semmit
##gó
##vág
Jar
Plat
nagym
formátum
levelező
Arn
bármilyen
érm
Flor
Marsh
ily
avagy
főiskol
középkor
Bizottsága
Gor
##menet
Pályafut
legjobban
##anszír
életre
##efánt
##ingham
##utatták
##ódus
##barát
elfogadta
függőleges
Chris
élől
kerékpár
##élyeg
klin
zsűri
érmet
állítottak
##szegi
##ükkel
##állapot
Iskola
##ats
hármas
##ikó
lend
##oki
harcos
##OR
ről
emberiség
83
személyesen
főbb
Szabolcs
követelm
##ékkel
Karol
kiejt
hatását
##iport
kígy
##övetkező
feladatokat
##yr
##nák
Laur
hegedű
##kom
##well
Mári
biztosította
pozsonyi
figyelmét
Sin
sportoló
éjszakai
készítették
feldolgozás
##onyos
kiterjedt
vállalkozás
##DP
jeles
##árda
alelnöke
felszerelt
Arth
Televízió
##erej
üres
mágneses
##artam
Bulg
részvény
egészében
olykor
##letes
##hálózat
tudjuk
bü
sztár
játszó
alkalmazták
##raeli
stát
énekelt
##ames
célba
felvált
hozzát
##réteg
fennáll
##szeres
repülés
univerz
megváltozott
##erto
MSZ
Win
eredményt
Moszkv
Atlanti
önkéntes
látszik
válogatás
##érem
##főnök
##ukkan
titkár
viselő
légit
időnként
elhelyezett
##zim
kitűnő
öngyilkos
legtöbbször
Szél
restaur
próbálta
Független
107
kihív
lelkes
##ruh
##ítők
letölt
vármegyei
##OL
pia
kosár
Állandó
elhelyezkedő
##vál
##jévé
léptek
nyilvánvaló
##ho
##ega
##isak
Hay
Marie
kerületi
osztották
útja
Yorkban
gén
Bru
nyáron
tényező
írók
Bob
##iratot
áthal
hónapig
ag
##iro
01
##rang
Fab
Balk
##özpont
tenisz
órás
megerősítette
benz
kiált
hangulat
Augusztus
Tud
házak
megszok
Elsősorban
##bánya
hátrány
##kák
##ulladás
Nápoly
henger
régebbi
könyvben
tömege
Ung
korr
Csendes
sivatag
szeretet
##viv
##ender
Most
vízben
aktuális
földbirtok
##ásztor
College
világot
utánpótlás
rájön
##iel
gondolat
normál
##ekr
Long
lágy
mozik
vidéken
legújabb
legelső
oroszul
gondolkod
XIV
kiegészítő
##ojt
Brown
ugyanebben
##történet
feszültség
egyedülálló
##rip
Eng
bátor
költöztek
röviden
horg
konzervatív
cső
Live
katasztróf
eldönt
fogalom
tevékenységet
##ennel
Maga
letelep
##aux
Legjobb
Lar
feltölt
büntetés
##tanács
##ode
bírói
társaságában
##ató
Op
Bot
legközelebbi
Zene
##szerzés
hivatkozva
változatban
##IC
ágyú
üzen
##ámadás
Deutsch
foglalt
##ách
##attól
fővárosa
##ake
írni
Család
síkság
helyeken
támogatja
Valószínűleg
##ításához
##edia
átmeneti
Lord
bejelentették
##env
minőségű
gyom
mongol
apátság
emlékére
szótár
SC
tax
Előbb
##háborút
##vándor
merény
űrhajó
irányzat
természett
##ürg
Tol
Liga
korlátozott
##aö
##aig
##landi
Kra
##oszkóp
kórus
puszta
titokban
továbbjut
Company
találjuk
Világszövetség
kre
##ermelés
Ide
Mold
bites
szimf
##edy
Zéland
07
Sus
ízben
Osztály
Alt
időközben
magassága
##ítésében
kultusz
leghosszabb
##enyő
##művelés
távoli
játszani
képzett
##mat
1847
mark
##ellemző
valaha
titkára
folyamatok
munkájában
##táv
06
fellépett
szerzemény
kezében
terror
szigeteken
találhatóak
##asem
Balt
eltör
eredményeket
merev
kezdetén
09
##falvi
##üvely
Alkot
eleme
többféle
istenek
tartózkodott
útt
Vide
Milán
Játékvezető
teret
bukkan
megseb
szentelték
Pannon
jutt
irányú
amennyiben
Mez
##eta
##unn
##mot
Deák
Judit
szemb
tetején
##hőmérséklet
említették
bezár
##cio
##roll
Philip
##ókban
hiánya
##ecsét
elj
körű
intellig
versenyzők
•
##engely
napos
param
vezeték
töv
##szavaz
püspöki
fedezte
##SZK
##ring
hatvan
##ols
Ali
uralkodott
##rie
Rész
##mok
##yle
Sky
hadtest
mérkőzéseinek
családból
hatású
##üzem
ajt
rendszerváltás
bonyolult
turizmus
könyvében
##ká
##jére
dis
##raszt
Taylor
feleségét
párhuzamos
terjesztette
képezi
visszasz
sikereket
építtetett
##szláv
lyuk
ural
különbözt
##pálya
középiskolai
##szél
Tart
halálra
##oria
gyarap
építmény
döntöttek
Wilhelm
##engeres
History
részecsk
119
maj
##arándok
kicsit
számukra
Bag
zöm
Life
Kanada
internetes
##ogen
##intéz
kibőv
engedélyt
kifejezést
dinoszaurusz
Kéz
Maj
##RA
##cirk
Dev
##ogyaszt
##zene
Walter
felkerült
##iság
szurkol
##jaiban
lapos
tibeti
csapatával
Dalm
##mes
Lakói
hátul
kalóz
parad
objektum
Miksa
##eps
##telenül
területre
##iek
délen
##ekedési
lépcső
##élete
##ólyom
##védelem
##IS
##iger
##úció
##felület
Kanadában
radik
gótikus
jugoszláv
Vinc
építését
pu
fennsík
kvalifik
##oon
Kub
Vid
Night
megbízható
##ulla
dollárt
származnak
esetleges
részletes
08
##elin
kancell
Gener
táblázat
Pav
metsz
jelöli
döntetlen
##hasson
##takar
ábrázoló
##TS
Kit
átír
##ájátsz
matematikus
##arin
Roger
Batthy
##ességgel
stratégiai
visszafoglal
##itások
Koz
##olyan
diákok
fennmarad
##neve
##ision
fűz
Journal
szélesebb
Űr
illet
karrierje
Azóta
hétvég
felszól
Microsoft
ilyenkor
unokatest
etn
Kil
vesznek
birodalmi
települése
##abeth
kilép
döntőt
homlokzat
Jap
erőteljes
##ötel
Giov
##ohasem
kiegy
pályaudvar
gyönyör
sóg
##atért
kikap
kizár
Gh
abszolút
jelennek
választó
választja
kényszerült
##akes
Ib
##atom
veszik
bűncselek
##ektus
Time
megnyert
És
oszmán
megkezdődött
Brassó
kockáz
##madár
nevének
csomópont
megoszlás
##kedv
##iának
Kelem
korán
Debreceni
##wa
##tető
104
Újság
jöttek
úti
határozza
Big
Gyöngy
molekul
meglátogat
##nék
eng
Juan
forró
krónik
kijelentette
93
haderő
kárty
##étlenül
helység
kellene
államos
Mas
hany
Adolf
zárta
export
##ferencia
legkorábbi
Tex
Bajor
ruház
##ográfia
írásai
Társulat
rád
akárcsak
##fiatal
britek
##sd
##épp
gu
mete
megcs
mozdonyok
##eck
hétig
unokája
adóz
keresztes
##padi
glob
védte
értékű
ismerkedett
némi
hozzáfér
szakasza
Alexander
helyezkedett
Guy
jártak
festészet
amelyből
inc
Virgin
kormányzat
##ito
Jeff
zsír
Uraság
építette
Áp
##ucat
hercege
népessége
észt
Bihar
##ando
Lyn
Bács
##olását
##hivatal
tenyészt
raktár
ezredes
könyvek
elár
finanszír
Fern
osztályban
##edv
EP
##őről
##beteg
győri
körbe
hatály
diplomáciai
kihal
jogász
SE
##repülőgép
pályaszám
##can
##esar
Den
Gil
Brun
##cserél
divat
játékvezetést
kasz
szorosan
rájátsz
Vál
##abella
##ovszky
kihagy
ellenfél
##escu
Szep
Mill
meggyőz
billentyű
összekött
kapac
kupát
fából
századból
keresett
##ítésének
hónapos
vonalat
##ömeg
##kozik
##őkkel
Ember
##elepül
körök
családba
System
102
Kert
##adem
sűr
tanít
ötvöz
cuk
halász
továbbfejleszt
házban
lakótelep
közölt
1858
Stock
Prot
bízta
publikált
felét
szalag
szabályok
##olási
kén
csoportot
köré
Saját
ahogyan
zenéjét
kinevezték
megpróbálta
Of
bél
csip
##ésszel
főispán
végétől
elnevezett
##jan
##abbi
vitatott
##íve
Sum
##anyagok
producere
##vállal
körülv
Kór
tagállam
fejlesztés
folytatódott
tekintetében
##nős
##unok
Július
##fejedelem
adatokat
hár
Gazdasági
##ullám
##ürt
vid
##ikája
partn
narancs
Kod
partvidék
##gyűjtő
kielég
unokaö
érintett
hagyományosan
##fény
gyártó
érinti
Hunyadi
lehetetlen
szed
atlét
juttat
cseleked
helyeztek
##zavar
állapota
lim
étől
macsk
esküvő
dek
##képzés
áthely
termékek
köztársasági
##anár
##észi
cod
Gyógy
mindketten
választáson
eléri
##lói
##kong
##aceae
azoknak
megint
tizenöt
esőerdők
Szic
erődítmény
##du
FA
oklevel
rap
##ution
híve
pinc
Kommun
Nyitra
kollég
állomása
fas
##jelölt
##oks
118
##forma
##házat
##fiatalabb
kialakul
José
Arthur
hazatér
művészek
tiszteletbeli
##észe
##program
építeni
ismertek
nyilvántart
Cre
Vág
megszól
szakaszon
hivatalnok
##ume
Russ
jétől
Liverp
egyidejű
kereszténység
visszaszer
##figy
She
Associ
02
##ennek
Ti
##iként
Greg
ahová
évadban
Harmad
fejlődése
##ovi
szorg
##eking
##ógrád
##ánnyal
akitől
##fül
##álók
tudom
riport
árnyék
rekonstr
##aly
Út
Őr
##ányai
##ilágos
Green
Másnap
alapítottak
Aqu
akn
##házak
bibl
##tatott
okokból
Franz
pdf
betör
##ukkal
Plan
békés
##mérő
##iára
108
Husz
lányt
junior
vezeti
legszebb
##kam
Oh
##művek
Jane
amelyik
holttest
definíció
filozófus
##oktatási
rosszul
helyreáll
Ők
##igeti
gall
##típus
piramis
használatát
##lemezt
##jogi
bom
kapnak
vezettek
szenvedtek
Cél
prim
Stone
fiának
beleegy
##con
##MD
##iva
##ételi
újjáép
Johnson
közlekedés
col
ext
Norm
argent
Magn
mennyiségben
##ázás
fürd
Street
északon
tanácsos
##inai
betelep
nemzedék
##ivált
News
Monte
##esch
elesett
sohasem
létesült
helik
Antonio
hétköz
szenny
vonuló
emlékezet
programot
##asok
##óját
##aihoz
Nagysz
mélyen
robbant
##cse
fekt
legfiatalabb
Kid
szigetet
különálló
enzim
habár
épületben
bronzérmes
piszt
magához
megtekint
szerzetesek
műford
Society
Stadion
##ome
érezte
iskolába
részvételével
ent
inspir
helyzete
##küld
Volt
##gyártás
Alf
adapt
Németh
##mp
válság
##avy
kitart
##üveg
vir
##örténet
gyűjtött
112
##enstein
##öltözött
##táb
##tatás
összetétel
Good
előír
dolláros
zenekart
Ip
Tro
Hírlap
kötelezett
Hev
karmester
útvonalon
játékvezetéstől
##etsz
##árad
épültek
Budapestre
##annia
##szabású
Son
##ellék
##ikkely
Stein
lemezen
Uj
Lewis
szakon
lí
Nyugati
tudósok
Hart
hiba
hind
##szereplő
turista
Ke
átép
Tanulmányait
##iew
Golden
ellenkez
századig
##IL
##ájáról
tartoz
szerelmes
##errel
Buddha
##nó
keny
szemlélet
bronzérmet
Él
##oldalú
tudás
att
##hették
hegyek
##bury
Lam
##oszlop
filozófia
optim
szállító
gondozásában
Skó
bazil
csill
nevez
növényi
támaszt
sorrendben
ura
Jeruzsál
csapatokat
Cop
Lei
##ájából
munkássága
visszatérő
Pont
prím
eltelt
érintkez
germ
hölgy
##ody
##ajtó
##kult
Bajnokok
leggyors
Hollandia
összefüggő
##őtől
Máté
Április
tulajdonában
XIII
bord
főhad
elsülly
csatlakozik
Charlie
##obe
##okl
evol
nyelvjár
slágerlist
Görögország
##bah
##szár
Kék
Anth
születésnap
Comm
Gord
forradalmi
fiúk
drámai
##ask
Férfi
nevezi
iskolák
vizsgálata
feltünt
utoljára
alagút
Katonai
törvények
##ványok
nézők
létszám
szerinte
feladatot
tartalmazott
vezették
sima
moszk
elvár
düh
##helyek
betilt
##szerkezet
PC
Champ
maradványai
Képzőművészeti
kant
##onnyal
képek
Gás
##ságosan
Wilson
csig
diagn
járatok
Visz
beruház
##ezze
##anná
##ossága
Bukarest
hallgatója
támogatott
Andor
kiadták
liberális
letartóztatták
##óv
##lad
##éna
1806
alkotás
forrása
meglévő
frekvenci
##umul
##szerek
Lőrinc
fővárosi
sorolják
Vajd
##ozásra
##szi
##urn
##mint
Kup
Guszt
levelet
##eda
##ador
Virág
változások
javára
##ezésével
##művet
genetikai
##edző
Gramm
White
Édesanyja
egri
ital
pályája
Guine
Varsó
jellemezte
megszokott
ariszt
levált
Kelemen
valamivel
Múzeumban
munkálatok
##cium
Rei
##árend
Nagyk
Pilis
egyenl
Group
szürk
vasárnap
ítélte
koalíció
nyugaton
követelmény
Franç
magyarnak
borító
szakán
Március
biztonságos
határát
ábrázolja
##vert
méd
dobos
##esp
kál
mont
AT
##odr
ib
márvány
operációs
##fik
barn
szír
##lási
Jord
botrány
##ija
Fac
rendezésében
betét
Polgári
##ességében
Hamarosan
dun
##erseny
Fidesz
elül
reak
##magyar
Zágráb
tudunk
##DF
Museum
##kedés
büszk
hagyja
##irodalmi
##kás
eff
csin
meny
##gazdag
##ájához
leger
sincs
károkat
##löv
Camb
Moszkva
zarándok
##veszi
próz
meggyilk
##allas
##emont
Kenn
##feldolg
létrehozta
dokumentumfilm
Június
monográfi
##endők
Károlyi
bíboros
##harm
grán
mégsem
növend
információk
2020
Henri
indítottak
117
képz
Sámuel
csinál
halotti
Ori
1854
Borb
településrész
##akra
sely
Egyéb
Ágnes
##etésével
##epl
szántó
Fesztivál
megmarad
##szól
##vész
burg
alapon
összeköt
##orkány
nom
1846
műveit
kilépett
elveszett
##hét
##ámaszt
##aro
##vén
segíti
net
farkas
édesany
számában
Csehország
házzal
##jelen
Felt
tank
foglalták
történetet
cip
zuh
illír
földet
mutatják
Britannia
kilencedik
Rac
##enburg
Gaga
kvant
Korn
codice
Hát
vám
feld
írói
hatalm
nápolyi
honfoglal
pók
##üld
jelölte
kislány
együttest
##elkedett
említette
##ional
befekt
vol
blog
illeg
fiaként
ugyanazon
helyszínen
##mart
buz
gum
##ozzon
Prod
terjedő
végeredmény
##eting
##cip
##ibi
fedett
jóváhagy
Kate
mondat
rakéta
Queen
Hamilton
környéke
gyakorlatban
Zsó
fresk
kézzel
##éhoz
Ric
juh
##ítású
Island
Pesten
kolost
Gusztáv
Szövetsége
##égett
Ester
mérföld
főszerepl
##obor
férfit
színpadi
Sha
Athén
héber
választások
Hard
politika
##övény
Stef
ábéc
városát
Vállalat
történelm
LE
##váradi
Bereg
Bölcs
Dénes
1600
Alekszand
##hajók
társul
megszök
Fa
##iasz
ága
Kutató
többiek
megbízásából
Tre
##üszö
##ancia
Gond
fejt
antik
környéken
##ject
1856
könnyebb
ugyanúgy
Móri
lapot
##éma
##cheni
Eliz
fosz
##kód
##ichy
##sőbb
##árban
SP
napló
idejét
völgyben
Természetes
##esty
##járm
##tiszt
megindult
színpadra
Ken
jogát
emelkedik
minősített
támogatást
jós
barátságos
fejlesztése
##aitól
##ekedés
##ológiában
összeesk
építkezés
birtokot
játszanak
elnevezésű
##önyvez
szólt
megism
fiatalon
##szün
drog
születtek
##cska
##inni
Mand
leszám
elvégzése
álláspont
foglalkoztatta
Gáspár
Velencei
##rajza
békét
Loránd
hül
##ps
Ta
Fox
##isten
sérült
##íves
##ókai
törp
##andináv
Területe
##hű
##organ
ritmus
##uty
##halmaz
Mester
produk
könnyed
potenci
plébánia
Liverpool
anélkül
légierő
Bow
Las
forgó
##anyagot
Batthyány
tetej
leszer
szerkesztett
##ii
##aku
##szór
Mann
javasolta
##akör
##rácia
textil
haditengerészet
##ogi
Ron
East
mögé
világra
ang
##elések
régiójában
##fen
Mess
jótékony
##ischer
vezetők
##arát
##elleg
Eric
##pályás
napot
pest
félre
erővel
vonatok
virt
láz
keleten
moszkvai
gyülekezet
##nali
világhír
##vat
Index
képessége
csuk
élte
Székesfehérvár
##öre
##ázta
Way
báty
nevelés
##énak
leáll
Oxford
menetrend
##ingt
##ciókat
Szolg
passz
küldték
platform
##óti
isz
##ikkal
tegy
románul
Gép
Law
Rol
függő
erejét
##agen
tévé
tekintettel
##rón
##ájukat
telepedtek
visel
alkotnak
egyházmegye
##hu
##zon
##ereket
##adások
piacra
formáját
pillanat
Jur
kaszt
bekapcsol
##venes
Gard
##etések
##álog
##előre
##énekes
legközelebb
##ogl
##amand
heves
##itárius
algorit
nyertek
vállalta
Andrew
kiszám
rendszerű
tanulmányai
Államokba
##DE
Mór
közli
hiteles
##újtó
Tap
környezetben
Zöld
dial
szimmet
világháborút
##nya
izraeli
##iben
114
con
##álódott
előzetes
##éllyel
szerk
általuk
##ségeket
csapatát
Ezenkívül
síkvidéki
elhal
##óly
Spe
##mérnöki
építési
nevezetes
##éző
Ug
##tató
préd
Olimp
Tizen
hatalmát
ingatlan
Ze
süt
fokozott
##ravit
elszak
lelőhely
fejlesztett
##neh
Nick
##rezent
##értékű
##ítéséhez
helyzetet
problémát
motívum
elmondta
véletlenül
humor
útját
eléged
emlékmű
mechanizmus
akv
fogják
házból
győztese
családjával
Pad
##bin
##vall
hímek
Nógrád
Marshall
##umer
##ínium
feküdt
filmes
látványos
irányított
díjjal
Szövetségi
##zőként
folytatása
Cip
megtag
generáció
születésű
nyilvánosságra
##ient
választókerület
##IN
##ule
po
Sor
kamer
agressz
területein
##ókusz
##zer
##arkt
bevall
##nyák
##ánosan
Császár
naponta
##érc
RT
##furt
##millió
napilap
##oton
emelte
haladva
##lapja
közöttük
Gott
elágaz
##onták
Kiskun
tagjainak
##irata
Old
Foly
avatták
jutalmaz
térségben
##ozásával
##ote
##gyakor
kommunikáció
##wald
Idő
Andrea
lejátsz
törzsek
legerősebb
megpróbálja
személyében
##ML
##ulin
Zrí
1815
Luxem
beáll
legelő
festőművész
főparancsnok
erkölcsi
betegségek
mezőgazdasággal
##így
képezte
végezték
véleménye
Női
tünet
##akespe
elrab
görögök
hanyatl
személyi
##ckép
##astrukt
##krit
Mans
hangot
franciául
je
##ercs
elődöntőben
##eiről
elfoglalt
személyzet
##hai
Szerep
Giovanni
próbálja
##éstől
megsérült
Taj
##irigy
Magas
annyit
Báthory
Csoport
bejegyezve
alp
Korea
csekély
Oliv
##icista
##acher
##uther
labd
fognak
##ston
ráb
1845
szan
megkezdte
programok
birtokában
##azek
jazz
eközben
koncertet
##eman
rendezője
mindennapi
##erjed
órán
France
kormányzati
Kamar
hallgató
irányuló
Hollywood
##adva
isteni
##anth
##zöld
##helyzet
##almasabb
állandóan
vagyok
találkozás
##ets
##mári
lakás
magatart
szövetkez
##épít
##jesztő
módja
##akespeare
Napjainkban
##csúcs
1844
##helyet
főhős
Teleki
Különösen
tonn
visszaj
királyok
##ülve
##annyi
##fogat
eredete
Földközi
Nyíregyház
##akép
1855
feud
kitört
osztályába
##aty
Gri
Alfred
##úf
##vasút
Ignác
##ras
##tud
gyász
##rendszert
Ban
átdolg
felmérés
járművek
paraméter
Repül
vízil
felügyelő
##Hz
kötő
Center
##itekt
komm
##ításokat
semleges
vásárolta
nemi
kritika
játékban
vonatkozóan
Chi
nőt
##euma
milliméter
orgon
dolgok
argentin
struktúr
reprezent
##SCO
##ezuel
euró
XVIII
fenyegetett
##érés
##örzs
Forg
##olására
##ione
##öves
muz
telt
##éseken
tornát
tengeren
telepesek
adományozott
##énk
##áival
nővére
illusztr
Pot
zsold
fogságba
##eges
##vard
izrael
hadifog
tartalom
##rangl
Itál
ellenőriz
Lim
Mem
vízszintes
Eug
tanév
folyos
haladó
bevezet
##iskolában
##órum
116
##mában
infr
hiába
##vezeték
Amennyiben
fordította
karrierjét
azelőtt
népszavaz
##szerv
szag
Awards
munkav
bánt
##csökkent
befejezése
előforduló
káptalan
sch
félig
technológia
Ism
1838
##névtár
Oszmán
helysz
partner
példányt
Peru
Párizsba
statiszt
nyugdíjba
rögzített
fesztiválon
##ère
Véd
pontszám
Esterházy
##híd
##eműv
##iszk
Boh
elismerte
Pel
##zatok
Cur
##assák
##izáló
táján
Hamburg
követve
algoritmus
forgatókönyvet
##olas
becsl
bűnös
Kristó
szemmel
##bank
átsz
##ogn
##egyesület
választási
Ell
##itást
##írója
összeesküv
##álin
lux
1852
Pict
Noha
meredek
házassága
Finnország
##ukáz
##ásról
Blan
BM
##iált
lip
képez
Sv
##ibér
angl
liga
szomszédságában
##AS
##adnak
kiszolg
##enne
Cat
1200
küzdelem
kétszeres
látszólag
megszületett
900
Moh
##enegró
lakták
elenged
előkelő
születési
##BS
##ucs
IP
dand
csodál
megfoszt
vásárolt
támadások
##tam
Abb
szűr
##evékeny
##aft
##menny
1700
felmerült
ellenőrzés
váratlanul
foglalkozni
prom
beszer
leírása
jelentés
Fut
ult
##erdam
legr
kapus
##hetőleg
felvették
visszavág
Debrecenben
kommunikációs
temetkez
elkezdett
hangsúlyt
##alaxis
felderítő
##ejár
##nyolc
Show
posta
kötetben
megtiszt
szlovákul
változatot
##TK
##etro
##level
Eper
láng
nőstények
human
##enst
németországi
##raft
##végig
##zatot
##éveszt
Közlöny
IC
lefelé
lányok
díszített
##endi
##uárd
1831
differ
kötete
felhaszn
Dream
hozza
harcot
kötelék
arisztok
szerezni
dalszöveg
szimbólum
Főleg
anyakönyvez
intézmények
##iról
##ódása
##ántúli
kutya
Nyelvtudományi
rádi
tájékoztat
Shakespeare
##oke
Mol
legutóbb
##pil
##fort
##sztr
érintő
##ertől
1842
5000
hist
kéri
elődje
naptár
közepétől
emeltek
Harmadik
alkatrész
XVI
lehessen
fam
##bizony
##ésekre
Zrínyi
Beszterc
##egő
##este
ornit
intenzív
Vil
tű
ken
##shire
tv
##forgat
behat
télen
Michel
bélyeg
##aring
Pers
okok
Eduárd
évszak
Írország
##óczy
Rov
Game
Kasz
birkóz
felbukkan
rendszere
ellenében
megfigyelhető
Júl
##jaival
##otball
szülővárosában
tüdő
egyenesen
művészett
előadásokat
változatlan
rág
indította
##épző
láp
Utóbbi
ezeken
napjaink
Rub
dalai
##igazgatója
tanfolyam
Koh
##eries
Kupa
Nádas
csecs
##szelvény
búcsúzott
értelmiség
##ekly
##jánál
Hell
bányász
történtek
Szó
máj
automatikusan
##bben
##ensek
teráp
sorban
kijelölt
komolyabb
Jag
uralkodói
Hun
##other
Ober
kezdete
elejétől
##ift
Res
ülő
Valam
Szegeden
##ão
Várm
Újpest
küzdelm
szélesség
##tation
lexikon
méterre
irányító
##clop
##űvel
##pir
tark
céllal
sárgás
oroszok
03
örv
##enben
próf
Front
Körös
kabin
rovarok
állomást
felekezeten
##oyd
Latin
hüvely
licenc
nyelvre
esztét
Ukrajna
szegély
##gart
##ulási
munkan
célpont
krom
krát
kerülő
##őlegesen
Christoph
elutasította
##áry
órát
Squ
##ifilm
Studi
bossz
fellend
Bizottságának
Bus
Litt
őslak
Fam
fiút
kört
##formák
minimális
##än
ka
mát
lakója
##erty
##itől
Páz
kond
államt
szövetségesek
kút
##ope
Lock
##viszony
##pedig
Walt
Vasút
##ségük
Schm
botan
nemesség
Cass
##ombati
kiszor
kopony
ov
Lát
Szom
beli
amiből
archiv
tavaszi
##cai
Esp
##jegyzék
gyermekei
punk
gépet
karban
nemesek
harcokban
Hong
Városi
főszerkesztője
##uszin
##EC
Heart
minta
angyal
propag
gyönyörű
képtelen
##aim
anat
Eperj
kézirat
nyel
közúti
ezüstérmet
##evők
kikiált
komment
tesznek
jogszabály
350
szup
Hossz
sugárz
délszláv
megelőzte
Inc
Bruce
Online
persze
##sea
Balogh
latinul
püspökség
megválasztották
##ttá
##holm
Kov
##ítsék
húzódó
##mérkőzést
Elect
elmegy
munkák
ty
McL
##annel
##német
##erületi
Japan
##fürdő
Lukács
pecsét
száműz
forrásokban
közreműködött
##hessen
ereje
##imenziós
Network
nyolcvan
Beat
##honos
##oszex
elvált
Frances
felkeres
##hiány
##ikával
Jacob
találkozón
földrajz
hazatért
Corv
irányt
##OM
Sír
news
ezeknek
működése
##iói
erőszakos
##vények
esztend
mindkettő
Off
bút
isp
határozta
maradványait
Ariszt
kötöttek
különbözik
##iklós
Márk
rangú
folyón
oldalról
##lón
Tab
##ecske
Mész
Lí
Maxim
határőr
beépített
biztosító
nagydíjon
Kalifornia
Demokratikus
##AL
##bizton
101
témája
szerver
helikopter
terjeszked
##bergi
öccs
##izikai
alakulása
nagybátyja
##rejt
lír
titok
##iterrán
Mura
névvel
Helység
kérésére
csapatának
##ery
do
megrendezésre
falusi
helyszíne
##afaj
Sig
##igazd
blokk
Brüssz
Dep
##attyú
Apoll
amelyre
##die
##hord
sürg
leford
lényege
közlemény
cl
box
Linc
goly
kezébe
musical
nagyapja
családnak
nyugalomra
tudományok
kialakítása
Porosz
litván
ugyanolyan
vik
remix
Borsod
##méter
heti
köthető
tűzvész
közigazgatás
Phy
Izabella
győzelmét
összpontos
##rim
##ugor
##ödött
radikális
hegységben
##koz
példányban
koh
készülő
modul
sérül
kovács
szállod
krét
##essenek
oldalára
Fin
technika
vitéz
##űvös
Rév
nagyszabású
Kai
##zenei
##etette
##ereként
##hor
NASA
Puszt
üzenet
hangját
tankönyv
weboldal
##anty
##falak
óceáni
emelték
maximum
eredményes
tehetséges
##éf
##iók
vigy
megkérd
sebességgel
##rig
##folyó
Mach
hosszan
Roland
lövedék
legyenek
basszusgitáros
Tav
House
##hetőnek
Keresked
növekedett
Grammy
megdönt
Miskolci
léteznek
települt
mindvégig
csoportkör
##ET
só
torkolat
##izz
UNE
melly
vonul
panasz
##mennyiség
hozzáférés
függetlenségi
1813
doboz
lineáris
Kulturális
közvélemény
wh
tükör
képerny
##pressz
##ájaként
##szalag
##kapitány
Pt
Toront
alapját
jövőben
##uary
Ost
##entin
szerelm
##fri
tra
1839
szók
Bundes
megnyer
étterem
rajongók
menekültek
##onat
##vant
Bach
Walk
elvégezte
Call
Abaúj
British
képviselet
##AN
##odnak
1843
filmekben
##cast
##korát
Young
lebonyol
hiányában
##igrán
##émánt
bombáz
szépség
utalnak
tanuló
torped
örökölte
meggyilkol
##EK
##idéz
kínál
csarnok
helyezés
1853
Alan
Szam
Broad
dupla
tekintély
törvényhoz
##tere
Vác
gov
órák
Budai
##csillag
elkötel
szolgáltatás
tartalmaznak
Bil
Indon
provin
prefekt
kifejlesztett
Hel
cell
főre
Carlos
megtört
egyetért
nacional
sugárzás
megd
földre
pozíciót
felvételt
filmrendező
általánosan
##zor
##lati
##atika
1836
amerikaiak
##gát
Bri
Wag
méz
Francisco
infrastrukt
##hassa
##talanul
oroszlán
Nat
##ekció
AR
1797
tisz
lennie
felek
előadást
fővárosban
másodlagos
felszámolták
##aris
Szen
farm
rács
Speci
Premier
cselekv
Angliába
##lon
sláger
asszisztens
Helységnévtár
részek
##umentális
igyekszik
##go
##uti
##itor
búz
üledék
önállóan
ornitológus
##öh
1837
céget
testvérek
uralkodója
felfelé
feltűnt
győzelme
##hangz
előtér
himn
tőlük
mozdul
értéket
kidolgozott
Hont
nyilvánította
válnak
tudatos
Lady
##ívó
##ájer
ebbe
Harris
fizika
méterrel
városnak
##inél
Firenz
övezet
##box
XIX
##jaira
##hangzó
##jegyző
##nyomás
##éjében
épülő
fészek
Stephen
Ins
hátr
##éjük
mac
Elekt
kibont
kosárl
felhasználó
##col
##fejt
Hér
Szap
barátai
##athan
Andr
részleg
tagjait
központjában
CS
halvány
mutattak
teljesítménye
közzé
tölti
kerete
hadnagy
##ném
##özi
Barát
Great
##etették
elkezdte
Szentpéter
##isk
alv
jegyzet
elsziget
mozifilm
kiadásában
dolgoz
pogány
elődöntő
##zá
##idi
háló
tojó
dombor
hegyes
Svájcban
képviselt
##őződ
Boldog
elülső
Szabadság
rendi
teste
állítják
fokozatot
##ebek
Gem
##isztelet
fajként
tizedik
főszereplője
Schum
##egyedik
##szállási
Bertalan
##vásárhelyi
##ove
díz
avar
immun
legelt
alakulat
alakítja
fizetett
szakaszában
##mez
##avig
##ütköz
##etéssel
fejlesztési
##ukon
Rav
Song
sorolták
határolja
csoportban
##eron
Csep
##ection
##éseként
pályát
angliai
futamon
harckocs
Szlovákia
##ID
##költ
Bos
pole
ellentétes
##jául
dolgozta
manapság
Volán
véres
Eleinte
hatalmi
##ióban
bak
Norvégia
1841
sújt
téve
Gömör
merült
valamit
kezdődtek
plébániatemplom
##tur
félék
UNESCO
##korú
lok
rev
bővült
megalapították
Rand
vész
műtét
igényel
részein
délkelet
készülék
tekintették
##ázas
Sony
tucat
váltó
##eztével
##csei
##ányok
Jobb
Jókai
Atlant
erőfesz
hiányzik
veszélyeztetett
zsinat
vizsgát
megbízott
##mb
##otep
Fell
Texas
Megjegy
összekapcsol
##ée
##mit
DC
wal
Trencs
hódolt
Barlang
műsorvezető
##ego
##pia
Tehát
világrangl
##ázza
rozs
régen
felépült
kegyetlen
végösszeg
ei
##hosz
##nyíl
krón
náci
házigazd
Arab
ismeri
frakció
feltalál
##PS
Budán
alárend
Amerikába
szabályos
vezetését
Jeruzsálem
identitások
javaslatára
elit
peng
előkerült
nagylemeze
professzora
##hegyi
elemeket
kereskedők
fényes
Hermann
tizenhat
lop
birtokába
##egl
##owski
##ürich
belt
turn
zenés
##büntetés
íródott
Zalaeger
Pri
##eitől
Stra
lába
átszervez
##kupa
érzi
malom
Bécsbe
rajtuk
otthagy
Konstantinápoly
~
##kora
ugr
##ográfus
megvásárolta
##fl
ól
Idők
jelű
gyöngy
fordítása
földrengés
lényegesen
##nevét
##opot
##ártól
bást
korong
Central
ezekben
Érdem
táncos
folyóiratok
##reszt
trónt
edzője
pikkely
építtette
jö
Log
##szász
##bányai
portré
periódus
turisztikai
franciaországi
##sűrű
Din
tűzolt
egyidejűleg
helyezkednek
képe
Kevin
felszínre
Oroszországban
##dísz
##usza
##éséig
elhelyezked
##csom
##lottak
angolok
fejlesztette
kúp
Char
##adásra
Vannak
részből
szeretne
tárgyalások
##izálta
Zichy
csatár
herald
gondolkodás
kilométeres
##óna
Móz
megrong
##történész
Heinrich
kölcsönhat
Rim
lár
ingyen
egymásra
##azar
Stu
Lett
memóri
##rendelet
Kristóf
próbált
évei
segély
differenci
##ser
##omen
Asz
Felv
##nyelvű
tavak
csavar
nagyhat
Jel
##ünnep
szic
##alízis
ruszin
##cess
##ough
##ovai
##sárga
Hagy
végét
célokra
##tív
moderni
Association
Arag
##Station
elefánt
ideális
Jellemző
folytatja
izraelita
Láz
1820
inváz
sokféle
##asztották
alkották
magyarság
Fél
hier
vélte
kedves
kérdése
dat
regg
##kodnak
hangok
elmenekült
Well
takt
Davis
hegyen
##arat
##iction
##ital
Irán
felkér
lábánál
##han
fejed
Caesar
ragasz
fordulat
##urch
##levél
tehet
nyugdí
egyesül
Indiában
közlekedő
viszonyok
lehetőségét
##udy
##ario
##otte
##ontin
Town
Albánia
alkalmazás
boszorkány
játékvezetőnek
Bost
sorra
Parlament
Fejér
Brazíl
mészkő
hercegi
nyilvánították
germán
egyelőre
turisták
csőd
szimbol
követték
Let
Out
alakúak
Nemes
csatlakoztak
Filmművészeti
##gyani
órakor
##őny
fir
férjhez
Ifjúsági
##sza
##ézs
alum
alany
tűzte
akkumul
szicíliai
gomba
Ash
vmegy
országgyűlés
irányításával
##yc
Aki
diad
főnév
hangul
kezdődően
kísért
##nemű
rém
##enyom
Chel
kated
demokratikus
##wer
##közös
Eredeti
kastélyt
egyéniben
##fejű
##futó
gravit
kormányt
eredményeit
##aló
rám
Észt
telek
##álására
faragott
falv
ivar
Állat
Szilágyi
városokban
leggyorsabb
Bull
Nyik
Ákos
##adalom
##gyanitt
Jacques
amelyekben
emlékeztet
##igg
##ósa
Üz
##elyett
##nehez
##íciók
kiír
##adását
Barcelona
##aru
##uka
##faja
Kínai
gondolta
Németországba
Claud
Szlav
##asztó
Serv
spekt
Program
hosszúak
fennhatósága
##tex
bas
kült
##ose
##resz
##átrium
kitalált
PlayStation
##adr
Chicago
##bus
vaj
Békéscs
folytán
##lődött
Szerbia
megállóhely
Dánia
Cambridge
##odni
moh
publ
árvíz
##oztatták
sportágban
öm
Köl
##fark
Cel
kapható
nagyméretű
Lovag
Your
közzét
rendbe
alkalmazható
##kon
##sejt
Ady
mít
##napos
Horn
régóta
műanyag
belsejében
##igris
beind
tizenn
Nápolyi
##mikus
Legf
távolságra
##motor
mesz
##azekas
utódja
##ságára
nádor
helyről
egységet
módszert
páncélos
nevelkedett
##pá
##irod
fájdalom
Power
képvisel
beolv
kapja
Halála
##agyőz
Media
névre
Austral
elismerést
feleségének
##ship
vul
szerbek
utcában
biztosan
tekintette
Hur
Lab
Globe
enyhén
Ágoston
adminisztr
##őke
##round
##ályos
Moham
négyszög
##árdi
fekv
Vlagy
találja
##áin
##sokára
gyártás
Columbia
munkások
résztvevő
szentelte
fejét
csónak
felfedezés
×
##esés
Régi
japánok
gyalogos
szembeni
alapanyag
Rákos
termelő
tisztséget
thr
##álási
kedveli
sorozata
Neh
Nincs
eladott
folk
Biblia
helyben
##onso
Bem
röp
##ákhoz
Együtt
őshonos
valamikor
kísérletet
tulajdonsága
##ovo
AP
adag
stílusa
ferences
jezsuita
hegyvidék
AS
##adel
##prof
##ugró
Syd
1832
függetlenség
éh
##arum
##ophy
őszi
gyűjtő
egészséges
##gor
Sab
Conc
motork
sós
túlzott
legrégibb
##ents
jogosult
mutatnak
felfedezett
Kőrös
szobra
Institute
##itól
Bang
játssza
leszáll
szerepében
##essy
felbom
##unc
mis
##gyűrű
##AP
##össz
eseményeket
versenyzett
##kt
Zag
##entúl
Anat
betegek
légitársaság
sur
testi
logikai
valóságos
rendelkeztek
##itter
Prim
alát
uralkodók
##yth
Ye
Krist
étkez
Wr
##ally
Napló
Inform
visszam
létesített
elégedetlen
Mu
##press
##torony
szimp
kevered
##igan
Villa
##gróf
tengerész
fellelhető
##átora
évekre
felhagy
életrajz
ellenfele
##olat
##űzet
Mozart
mindez
némileg
megtartotta
Ján
zajlik
Velence
harcban
##szeben
szombat
bajnokok
átmérője
megtalálhatók
Rey
Buddh
mátrix
összeom
megoldást
##ókon
délről
nézett
zászlóalj
fejlődését
deleg
írása
Ukrajn
lőszer
kalifor
Délkelet
németnek
találunk
walesi
határos
Hi
##koron
jobbra
Egyetlen
templomok
törvényes
biztosítani
Kin
Vin
szállás
hivatásos
autóverseny
szakosztály
##jas
Lau
##árseg
hágó
gyanús
mutató
futamot
következménye
egyesek
globális
Szombathely
##ubil
Whit
##iptikus
Ludwig
epizódban
községhez
Közlekedési
méteren
ókorban
Argentína
karácsony
##elben
Java
##itását
Balkán
rendet
megkönny
##ias
dug
NATO
##ációval
Civ
##feszt
nyúlik
prédik
##ates
Lib
tét
##hullám
hektár
##csapatok
csecsem
gyermeket
ától
Science
családjának
EM
ru
apját
uniós
korszakban
Aves
Chap
##intend
csepp
dobog
hindu
kuruc
Kisebb
miskol
keltett
premier
Kad
élen
Warner
becsap
testét
##forgalmi
mestere
ekkoriban
Kád
fejében
szokták
Mindezek
befejezte
megfigyelés
Marosvásárhely
##ényt
zajló
##oktatás
hátter
hatalma
születése
##adási
egysége
időjárás
megszerzése
Győri
mozaik
témájú
bíróként
börtönbe
nehezebb
##wart
Brad
vára
embernek
Legnagyobb
##esc
##oan
rost
Karán
szállít
##ócz
bízták
továbbiakban
##vey
birtokosai
megállapodás
##készlet
Aladár
kívánta
közgazd
ütközet
láthatóak
##éban
Cry
##ergia
Ency
tégl
sisak
szóval
szereplője
Szocialista
házasságából
eredményeképpen
##alógus
eléggé
társai
Viszont
Gyöngyös
állítása
jelentőségét
##azott
indulnak
házassági
anyai
##játékos
megvan
Miközben
##ozású
Best
cons
kiűz
hadvezér
megfordult
Johanna
Ž
##őnek
iráni
grófja
felsőbb
sebesült
feltétlenül
##jeit
##szoci
kisb
alaprajz
számjegy
tanúsága
kompozíció
lef
címvédő
áldozata
megtámadta
tengeralattjáró
foszt
oktató
határon
##keres
Rómába
Igazgat
kaliforniai
közlekednek
##idó
kav
##orony
Kemény
rokona
leégett
vonalak
dir
##terem
architekt
katonaság
kihasználva
mérkőzéseket
##ener
##özte
részen
aktívan
elsaját
fizikus
##otóp
Web
szeme
értékek
##ökké
##ődtek
Érdekesség
bűncselekmény
bennük
##opol
App
felold
megenged
hazánkban
kialakulás
bocs
vizes
##ításban
egyetemes
ű
##ácia
##ector
##lását
##ávolsága
tanulni
normális
legénység
túlságosan
Ry
Úr
##ikip
Erős
előr
nincsen
baloldali
jelzéssel
1790
##esztett
nyugod
alakját
környéki
információt
Nyom
ördög
Het
gyorsabb
##egi
##nag
##iens
ion
repült
eloszlás
egyedszáma
##cell
##ilei
##opor
##annes
##idátus
jegyzék
Kent
kezét
Táplál
kapitánya
Göd
##éziai
torz
szind
önélet
##ilia
##torny
Pictures
Középiskolai
Rap
lök
##ervez
##atainak
Ezeken
századra
##orda
üdvöz
apostol
fedezték
##ree
##orlás
elemei
tipikus
alapjait
levéltár
készülnek
##wy
beny
fokos
Marcus
pestis
ismerős
rövidesen
hosszúságú
##ipsz
Tenger
eljárást
létrehozták
Színházi
köd
fogadott
ingyenes
alkalmaztak
gimnáziumban
együttműködés
##iner
kiinduló
Juh
Say
küzdött
##sugár
Butt
##kapcsol
Litván
helyzetét
tengeralattjár
##bár
Ikar
elűz
benc
nagyság
világűr
##net
##edón
##arista
Mammal
tanárseg
tüntették
területéről
##tábl
klím
kicsiny
kritikai
családtag
tanácsadó
alkalmazni
##ück
But
Hand
mobil
Ezekben
tekinti
megjelenését
##ska
om
##csere
Rang
Sing
felem
szemin
magasan
##okoll
##ublik
Cour
Rena
abba
maros
Katona
villám
elhagyja
tüntetés
Gróf
csendes
##udzs
1809
##ozattal
##oul
enc
##ságnak
Viktó
mértékű
elkövetett
##BA
##inz
##írók
##útra
1787
elrejt
bajnokin
Pázmány
##áta
##számok
utcán
tervet
megítél
megtudja
Elizabeth
szigorúan
ax
megöli
beszélő
Franciaországba
##sztikus
Kormány
találni
ünnepség
##oa
##uke
##aria
Als
Kem
kot
Math
albumuk
Pozsonyban
fáraó
műsort
Testvér
##rox
##okig
##ersey
##nének
##usszal
Teréz
major
Zsófia
nyelve
elejére
Encyclop
másodszor
Éj
vok
##atiszt
##ágában
##icle
##abilit
fronton
megismert
##ökös
ráv
Penn
harag
##ességek
Horthy
##aiak
##inter
bosszú
elemzés
szereti
François
pályáját
védelmet
##asd
##űlt
##kerület
géppus
vízzel
##értékben
seregek
csatornán
##olin
Cro
kitér
lever
Roz
hibrid
##hof
##nyira
védelme
támogatását
##use
Jimmy
hűbér
ágazik
diplomázott
ML
Nord
tróf
Európába
községet
vonultak
Fia
pra
##atokban
##források
visszaemlék
információkat
##ehr
MI
tő
Nep
kem
szótag
moderniz
sebessége
visszaszor
##antó
##uter
Luj
1715
Gordon
mérgező
állítás
elterülő
Thor
összeállítás
összeáll
vmegyében
##uba
##pill
Rag
Afrik
utazó
kettőt
tábláz
etnikai
északról
változtatta
##hár
##ines
Lomb
visszal
feltűnik
végződött
##esztés
hidat
piaci
szerzői
kiterjedésű
essz
helyig
kísérő
ismerik
közelben
elveszítette
Áb
fogadja
keletről
Bet
##ásáért
életbe
##asorozat
törvényt
adódó
hozzák
Dolg
Szim
füzet
##technikai
időszakában
##ebel
déd
köly
pusztán
mindhárom
szerződtette
##ager
agr
termés
kétségbe
##erőt
##műve
##izmust
verzi
tanította
gimnáziumi
Pil
Szemle
##DK
##haz
##tuk
fűt
Legfel
feljegyzés
környezeti
szórakoztató
##odása
Germ
Marx
Csong
túlnyomó
##álását
lehetne
miskolci
valósult
bűnöz
szőlőt
##rádi
házaspár
példányok
színdarab
nagymester
##uci
##ilatk
Ever
sikerét
vizuális
akadémiai
megszabad
egyszerűbb
megsemmisült
##är
##stadt
szűnt
csatát
##adásával
fellázad
##ken
##ártya
Vietn
kódex
##hív
Szu
##tatja
végzi
##ápa
##ront
##adják
életű
férfin
##ológusok
nátrium
neveznek
##atú
köre
##állomása
Studios
bejárata
megjelöl
látogatott
##recht
Elnök
cégek
főszerepet
##ns
Fire
eljutott
földszint
teljesítményt
Mis
megtilt
ideiglenesen
##ámia
adatt
burkol
selyem
szerény
##afal
zal
##felől
mold
szövet
Ferrari
beszámol
főiskolai
megnyerték
alrend
Football
##SD
Dy
IB
##ugrás
lakta
albumról
fordulnak
##díjat
##ikkel
jogok
lévén
Velenc
módszerek
megszüntették
##ido
##kér
##ítói
mün
Heid
részük
énekel
vetette
debütáló
folytatták
érv
##ezésű
Gusta
Zenei
Miller
közepéig
helyreállítás
##fajok
pale
##itkára
kezdi
Salamon
vármegyében
##EN
##TI
hett
felvett
Akadémián
Nam
Thai
számolt
felvételek
szolgáltatások
##cc
##odva
hívei
sorsa
Élete
deport
Templom
szezonja
##sír
##ánja
##akból
full
élők
##agógiai
Szerkeszt
készítenek
##jász
kevéssé
újraind
kancellár
hagyományok
Rio
Luci
##negyed
##számot
mentő
elküld
hatalomra
nagyváros
##AM
tany
Baranya
rózsaszín
##bban
##elői
Tíz
##térkép
##ítania
Sev
szobrot
honlapja
szerződését
##sák
bűnt
húga
skál
hibás
Sebast
keresi
Viktória
Kereskedelmi
##mas
Forrás
frissen
Kath
Prof
adót
hagyták
egyedüli
nyilatkozta
apa
mikro
Kazinc
elnevezést
esetenként
főszereplésével
##őver
Nig
1814
lezaj
kiránd
örvend
feltűnő
##mérkőzésen
játékfilm
##umber
Fium
Vagy
kávé
Dougl
vietn
##inki
Kab
Viz
##ramat
Egyed
Modern
mennyire
kórházban
mennyisége
kapcsolatokat
##ilóg
flu
Salz
álom
költői
végett
bejutott
##cél
##opl
##atának
Júlia
pátri
katonái
egyszerűs
földbirtokos
##eibe
##erék
##onim
városának
színművész
üzletember
prog
járnak
tartva
filiája
hosszas
kincstár
szövegek
rendelkezésére
##itch
Vasz
##évesen
találkoztak
##húz
sub
Hels
##tattak
Kijev
mítosz
serege
rugalmas
állattart
##ES
##afa
##bahn
##esnek
észre
analóg
##izm
##váry
mecs
Illés
Mario
hasáb
ismerjük
felrobbant
Chelsea
##nának
neut
védelmére
##rosz
##aszent
##kezett
kedvel
műsorban
bajnokságra
##vo
##etz
##nay
##szülei
galaxis
kialakuló
##ergy
##ulja
Pur
Chem
##kodtak
##változás
Richárd
koordinát
##lach
##obby
Kommunista
tartományi
Bark
mennek
időszaka
amelyeknek
egyházközség
kart
##tatása
napra
##atlanná
döntést
kandidátus
teljesítményű
##úló
##inom
##sport
vert
##ségügyi
Többek
szöveget
##ao
##ivi
BK
Sco
##érdek
téma
horvátok
tanulmányok
Magyarországot
##gót
Papp
nyír
##éséért
híján
Venezuel
##eus
Him
Dick
kagy
##izálás
Stúdió
karszt
meghallgat
részletesen
feldolgozása
hir
##őképp
kiprób
standard
##osh
##ivár
asp
1835
edzés
##eléssel
Guinea
diagnoszt
évtizedek
Hollandiában
##als
kétélt
Bourbon
Törvény
utóbbit
segíteni
##ław
##plit
sárg
igyekeztek
félszigeten
##óból
tranz
olimpia
tényezők
helyezettje
Blue
Erik
Girl
Wien
Lincoln
kvantum
##átra
állatk
példája
alátámaszt
nehézségek
##penh
halm
viszi
utólag
gyakorló
lakosságot
##adar
Cos
Digit
##esearch
energiát
##úvár
útra
megemlék
##kari
Rab
rett
gyémánt
##felügy
demok
társa
felkelt
kétféle
énekelte
telepített
versenyeken
előfordulási
##avi
##sáv
Maz
1825
Samuel
##éder
grúz
Vasas
aznap
ellop
pontok
##akadémia
Kutatási
megépítés
szolgálta
HMS
1834
##ásként
lépcs
##plement
Academ
emberei
kolostort
##ов
##aph
Hód
képeket
herceget
##lep
##ikák
##ájék
mezt
kellem
##atz
eb
Def
cer
##rában
ahova
szikla
határja
maradnak
Frankfurt
repülőgépek
##ezője
##szögű
##zatos
nyitotta
pillanatban
függetlenségét
##atja
Dán
bort
mars
##irányú
cserj
Wagner
ugyanazt
helyszínek
történetek
tulajdonába
##imer
Road
Light
March
##ítésben
##eművészeti
folyószáma
reformáció
##idéki
Dean
jele
Radio
Barney
Ulászló
kötötte
működési
módosított
Haditengerészet
TC
##ardi
##élte
Cer
Cant
téri
konzol
megölte
felújították
##vani
##széki
##áiban
koló
közismert
bizonyítja
Ób
rúg
kosz
győzelemmel
##eto
kelta
szárazföld
−
üst
célú
csökkenti
elhagyták
##adók
##ílust
##elésre
alumínium
Ernst
kötődik
##áldemokrata
technológiai
pszichológiai
beb
Rain
megfelel
Politikai
##kapu
##mouth
##épost
Tall
elvon
akuszt
Isztamb
zsinagóg
foglalkoznak
##icum
##apart
offenzív
##po
##fát
talp
mentek
vidékén
északkelet
autók
##ításáért
részeit
elrendelte
szövetséget
tekintetben
→
##fai
##enzo
buszok
istent
bibliai
##felt
Rail
##étellel
Önkormány
##apa
Eis
Ügy
Ikarus
dioxid
beszélni
érintette
Keresztény
Leó
##evics
##vonala
Indiai
homoszex
megpróbál
##lar
ABC
Diós
termő
fegyverek
##cker
Are
Witt
##lására
Mózes
egyetemre
munkájának
telepítettek
##öve
tűn
segítő
átfogó
Középiskol
##St
Sarah
idejére
parancsot
##ánta
Kre
kak
##ánban
mégpedig
ismertebb
készíteni
Oz
##ásért
Rick
Slam
Space
##színész
Orvosi
faktor
veszprém
állambeli
történészek
##esítő
autót
##ságokat
Marvel
ügyvédi
vezetést
ejtő
gyap
##berend
Helen
kanonok
kibontak
##arto
tünd
Liber
hengeres
##imi
Rózs
Anthony
alkotásai
karbantart
élvonalban
##burn
eti
Gill
születetteknek
##opt
1833
Palm
szónok
Akadémiai
csillagok
megnyilván
kaj
Gazd
szir
##szállítás
állítani
Krisztina
szabványos
többszörös
Cikk
Házas
nyitották
jelentetett
##repül
Otto
kézi
##kanizs
##esített
segítségére
##árka
hűt
##ászon
készen
mással
##edése
írást
olvasó
dolgozat
irányítását
börtönben
pedagógus
me
##ságával
formájú
Portugália
értelmezés
##téri
##olnai
Carol
nőnek
##emet
Kla
Pic
##optery
díszes
régens
elindul
vitamin
néprajzi
##pan
##ogató
lejtő
legalábbis
képzőművészeti
##közön
Nyolc
összej
korszerűs
növényzet
##értek
Bécsi
profil
Johannes
keretein
##ürke
##ropolit
alakít
borítja
fölötti
örökség
emelkedő
ellenzéki
központjától
##ape
RTL
elhanyag
szolgálja
résztvevők
##páros
blues
amelyhez
száműzet
felállított
kontinentális
Dí
tür
##ettet
Pénz
##alálták
diktat
kérdések
befolyásolja
##bour
Klára
Sztálin
mondható
müncheni
képviseli
nagyváradi
Anne
##úszott
meteor
Om
##orszám
színészek
Hil
Bány
Levél
feloszlat
##ephal
Team
cikke
magyarázat
##cho
##yes
Andy
XVII
##ügynök
hadsereget
Ferencváros
klubmérkőzést
Cit
Ten
##építő
elmoz
kukor
lapok
sűrűn
anyaga
partiz
tisztáz
medencében
##csú
##őtér
Anj
Wales
kötél
Mercury
ja
Dózsa
viták
antrop
formák
címzetes
Stockholm
##fáj
##alack
Count
Sydney
furcsa
érvényben
Zalaegerszeg
220
##elemek
##árk
133
##oszóm
elnép
falak
kifog
góllal
Douglas
akartak
optikai
tanársegéd
##tah
##ürn
##orny
##iment
tüzet
várát
piacon
Vármegy
folytonos
megérkezik
fennhatóság
Lad
ihl
szoba
várja
megírta
bevezető
előtérbe
Dalfesztiválon
##vát
##úzió
##kocsi
##ékben
##zéssel
listák
szerelmi
##gyilkosság
nyugatról
hangverseny
##rok
Szel
mozi
idézi
ötlete
amilyen
populáció
partbíróként
##illy
##őrök
Tanár
##kiállítás
CP
##párti
mélység
ritkábban
##kup
##aver
##utin
Eth
Tűz
emészt
társas
szabadult
marosvásárhelyi
MN
1720
Racing
elnéptelen
tanulmányozta
##odon
##oven
Evang
Sound
ciszt
Bánffy
aláírt
elnökévé
illegális
##fried
Magd
##szerepl
elhang
felszíni
magukkal
ragadozó
műfordító
car
zálog
hangos
működnek
Mexikóban
nukleáris
##úrát
##műsor
melyre
Rolling
megörök
vulkáni
bankjegy
férfinév
vállalatok
Dave
##ényben
Rendszer
##amo
Fall
pártok
szorult
Irodalom
említést
gyengébb
szavazás
idegrendszer
##esh
Élő
teli
Paris
Johnny
melyhez
kísérletek
##ss
##ebbre
##iklop
Corpor
tanítók
pisztoly
páratlan
hallgatók
##átust
drág
járási
ajánlotta
##övek
##arján
4000
szulf
elmélete
##íthatatlan
mellékfoly
támogatták
folytatódik
##VA
##emér
Von
Zsuzsa
percet
közösségek
Cons
ajánlat
alispán
kereste
virágok
Ju
Lujza
véges
##szállító
anyagokat
##eu
##wen
By
közeg
##ozásának
részévé
Intézetben
Münchenben
földművelés
ti
##ayer
akkora
Ős
tábla
Mammalia
megnyílt
import
Patrick
ugyanott
ténylegesen
##gömb
##asági
kiür
Olimpiai
##iratkozott
##aiba
Arsen
##almazott
községi
kezelésére
kitüntetést
eloszt
spirit
hulladék
##dom
Vo
##mély
pént
harckocsi
próbálták
felállítás
közgazdász
##ema
zak
##vörös
##áradt
átkel
megsért
területei
állomások
Mid
Szik
##kodni
adós
Lakossága
Természetesen
középpontjában
PS
Cav
##iszent
laktak
##alizmust
jogokat
sikertelenül
##has
##ress
kők
díja
lánd
kistér
##ártak
Mong
joga
##erin
##hamar
Gell
##vadász
mozgó
elnyom
lefoly
##terjeszt
fogalma
okozhat
szállított
alkalmaznak
##oku
Aja
Ort
Tang
##gyártó
utazás
kifoszt
ezenkívül
generációs
interjúban
ifj
##fém
Moson
kőolaj
formáció
régebben
Időközben
Toy
##ésből
motorv
tárgyakat
összefoglaló
##ésén
Dark
null
##lettel
jelek
akarják
kitörése
Mindegyik
melyeknek
kerületében
játékvezetőként
##okos
##ouch
Ari
Lan
bef
mini
befolyása
szakemberek
Sokan
start
védjegy
##able
non
##séghez
Szamos
emlékét
vállalkozó
többségében
lat
horror
manőver
kézilabd
várostól
katedrális
##öngész
népdal
akadémia
##ubb
Ll
##emen
##arend
főpap
vitorl
őrnagy
nemzete
szakaszt
##aco
##emb
##ukott
eladta
megkér
számokat
honlapján
parancsnoksága
##get
##ante
##jáig
kub
cont
Julian
Little
lendület
folyékony
miniszteri
Iparművészeti
AG
Sid
Tod
##szarv
##ámpír
szintje
gyártása
írója
előrehal
felnőttek
##BI
balra
fejlődő
kek
##korcs
Országgyűlés
##kán
Andrássy
kórházba
elliptikus
##áik
##koló
##roid
##átta
Cup
Has
Brid
Feder
Nándor
sugaras
tengerparti
UN
Sen
bin
1805
halált
önmagában
megérkezett
##érett
nyíltan
##ste
##aktor
Lily
felgyújt
##pesti
benyom
jelentettek
##alitás
##esztin
Apple
újrat
##fokozat
Cooper
Mindkett
könnyebben
##ști
1810
Költ
comune
Kolumbia
szigetre
cigánynak
##RI
##áncs
##orosz
enyhe
indít
Apollo
ifjabb
levélt
írásmód
szeretné
szolgálatba
##enko
Moon
orient
zárójel
Kongressz
Heves
rendelte
veszprémi
Che
rej
##helyén
Carey
Hajdú
General
rejtett
megtörtént
szerkezeti
Egyiptomban
##alia
Bran
vize
Belső
baráti
huszár
okozza
hónapban
játékvezetők
##olem
fiuk
Ipoly
betart
eszközöket
eredménnyel
másodosztályú
##atib
őrzik
##uttgart
Földön
állati
közgyűl
összeír
népcsoport
munkatársai
ro
##kins
atl
##haszn
Mell
fenyő
kijut
##szerűvé
##ubileum
kifejt
általi
magyaros
papi
##szegény
változtatták
##üzér
Pre
Evan
##listán
zárták
darabja
##eo
Church
flamand
leányát
szovjetek
##antasztikus
Jól
##nyugat
##mozdony
rádiós
készítő
megnőtt
indiánok
kiépítés
##eyer
##uguay
##ünket
villa
oldalt
Bundesl
visszany
elkezdték
meghatározása
megközelíthető
##fur
priv
hátral
Parkban
szürkés
felvilágos
Zeneművészeti
fotó
vacs
Izland
Koszmosz
megismerkedett
##86
havi
Szlovénia
protokoll
##wi
##syl
##lény
##abbak
##üller
Samu
fosszilis
##mozg
Jah
##ative
térd
kupában
jövedelm
helyettese
civilizáció
202
Rose
hangy
végző
##örökség
fókusz
várának
robbanás
##anyi
##udat
perm
Bolív
Lázár
##bíróság
láttak
vágány
kitelep
Nyikolaj
felvásár
forgatott
visszaáll
csapattárs
##agos
##hárm
##sagi
##usch
Ani
Ret
muzs
közepe
átadta
korának
megkeres
nitrogén
szervezte
csillagász
##olid
##urak
##ódva
##elius
1784
Card
hangzás
##do
##gárd
##eball
##érkép
Eddig
jelölést
szántóföld
ejtőerny
kezdenek
családját
olaszországi
##dön
##élked
Reich
készt
rezid
galamb
Fischer
háttérbe
##stone
Story
esetek
korrup
köszönt
számmal
ismételt
##szentmiklós
interneten
tend
harcoló
gondolták
támogatása
Christopher
##ésről
adath
dicső
hadak
visszakerült
fúv
követik
elkötelezett
radio
szakadt
szindró
megtervez
horm
átlép
ébred
partja
##művészek
sereget
disszert
##esik
##onia
Hop
##ratív
nélkülöz
Sas
Peking
előadások
írják
##resszív
járvány
bebizony
telepítették
##EG
##lót
Ecu
patk
##erland
térfogat
legyőzték
visszatértek
##ióta
##ódni
210
Pip
mam
Anyja
Savoy
bukar
Steven
legkev
Karolina
Vlagyimir
Aj
kiválasztott
görb
nyitó
zenet
nevével
zenészek
vezethető
munkásságát
go
##óhoz
érvel
##izációs
Stanley
választják
centiméteres
Oreg
Kaliforni
bukaresti
egyenként
##ród
##gazdál
utaló
becenev
vallást
megölték
sorozatú
##edes
##győz
##ánch
ron
szep
denev
fivér
feloszl
Művészet
borított
bemutatta
szélessége
##féra
bol
cenz
dikt
útjára
jelöltek
megerősített
##AT
##lé
##ende
##undi
##ékos
Susan
törmel
Szakközép
tüzérségi
szakirodalom
Disc
rendezik
szervezeti
véglegesen
lehetőségek
ige
##ozója
Örmény
forgatás
pontosabban
Ezeknek
egymill
megvizsg
nyugszik
értékelés
Gál
##hajós
Körül
csapd
erdős
geszt
##szabadság
felhasználók
tömb
dolgot
doktora
egyéniség
Arisztotel
bizottságának
##eper
csíp
gabon
filmjében
kutatásai
jelentkezik
##űg
##ils
##ovac
bos
##üknek
Szár
Akkor
parton
dolgoznak
szabálytalan
##úró
##abíró
##tatni
hívja
motort
Én
##ujsz
konstrukció
Pin
Szob
Renault
jórészt
szervezete
szolgálati
feltehetőleg
##busz
MTK
##ccsal
sorol
összhang
##ated
Kön
1824
Down
Nich
iraki
Alfonz
ugyanabban
##onai
Leop
Kádár
##izálták
Donald
elejéig
sportol
tervezés
megtalálja
##edni
long
##vállalat
rendőrök
marketing
##fit
##fikus
European
fenyegető
fedélzetén
hozzájárul
emlékeztető
résztvevője
##uja
bibli
##ira
##bourg
legtöbbet
harmadosztály
##TV
##ideg
ujj
cipr
elfel
kozos
##íttatta
utalva
erejéig
látogatók
Moszkvában
##hul
hág
hál
esti
##vándorlás
időtartam
lebontották
##bél
Wei
Class
Grant
hatásos
keletkező
szakaszán
##ofil
##üreg
USS
MSZP
teny
fárad
hírek
bevezett
megkísér
utóbbiak
életéről
tökéletesen
hy
Tenn
tisztán
forgalomban
világháborús
##occ
##leccs
leírt
Lipszky
mindenféle
szerelvény
##GP
##borg
##tári
ath
1773
Figy
Petr
##alatti
##anként
amihez
státusz
nyilvant
korosztályos
##bet
##atás
##aurus
Bobby
vonta
útnak
Kisfal
barátnő
agresszív
menedzser
nagyszerű
##aren
##emann
##átlan
édesap
elszenv
ellenőrzése
##ucc
##ache
##udai
Gam
Jav
sekély
turnéz
Mielőtt
kupagyőz
helyenként
##auer
auszt
érzelmi
oktatott
tavasszal
hallgatott
Ot
pól
##szesz
##átony
Áron
##ításáról
nehézség
Pályafutása
házasságköt
Wald
lényeges
párosban
##bog
260
blok
Motor
címere
lemeze
eltekint
színpadon
szerkezete
1792
Rajna
estek
adjunk
embere
előadók
lakossagi
érdeklődés
különbségek
##áda
Ég
##ottan
##reform
világhírű
végrehajtó
nyilvantarto
##ovich
Szin
Juhász
Pszich
fiával
helyek
komolyan
Miskolcon
##fejlesztési
ismeretter
jellemzője
##ányú
léz
##otter
Bocs
##elődés
kekkh
##személy
döntése
legujsz
nyelvtan
honfoglalás
legujsznevek
Elm
##váltó
fűszer
ékszer
##fil
egz
absztr
métert
modellek
240
##forduló
Margar
ugyanezen
AB
ibn
##átort
átlát
hetilap
kísérte
##ten
BL
Laj
Holl
Igen
Épít
##ágneses
Bernard
selejtezők
elhatározta
##dzs
##gyá
##oro
##utc
##éit
kW
Für
1821
Luis
turb
vízbe
Galéria
##emű
##agáj
##igen
##tervez
völgye
Over
asszír
Gazdaság
Corporation
Hend
borv
nedv
tradi
vétel
indító
Uralkod
##azonáltal
felépítése
elkészítette
q
##jaik
bul
Pusk
##öderáció
fennálló
hozzátart
Legismertebb
Svédországban
iroda
mozikban
spanyolok
bemutatták
##erdő
##itte
##öllő
végi
füves
Vezető
típusa
##űjtemény
Bosznia
termetű
funkcion
szétszór
†
Szir
prov
stílust
Ilyenkor
közéleti
meghaladja
##özös
Alice
újonc
Stewart
altábor
##gráf
Sza
1817
Hann
Lapok
hitre
szervek
léptették
Gur
##fontos
prágai
mérnöki
városától
kommunisták
megerősítették
##ize
##volt
bag
##vitel
spor
##ernagy
Allen
Zürich
létrehozása
arckép
##gótarján
könyvét
##versenyben
erősítette
1827
Diák
Roman
halom
##ots
Assz
##afehér
Bíróság
Temesvár
érettségi
bevezetése
Rak
##eszám
pasa
növekedése
Earth
beill
fellépő
kivégezték
vélemények
elkezdődött
Szerencs
megsebesült
Lug
Ném
vét
gúny
Linux
elzár
##iosz
##ániai
1812
pappá
cikket
sopron
Research
iskolája
Mezőgazdasági
Ödön
##állító
##örvény
##almakat
docens
előnye
férjét
trónon
Február
versenyén
1826
Domin
nyelvész
hétköznapi
beszélgetés
##omit
Rel
Juli
Kett
##fejlőd
körút
maszk
szesz
megszil
élőlény
jelentésű
##cske
##eztette
##erjedtebb
##oca
Psy
##esztő
megmér
keveset
elfogták
##ívta
Meh
Nag
##kísér
##oltár
Boys
Szud
iparos
kézilabda
evangélium
fejlesztették
##követ
Keny
eredményét
##atch
##szen
##gomba
##ingap
##ódást
barnás
Határai
személyt
jelenléte
##lése
##olis
Who
szu
Hugh
hősi
Trian
Korunk
levelei
értékét
Demokrata
menedéket
##ovány
elav
##ultabb
gyülek
klorid
tünetek
lakatlan
Bh
Ana
puc
Abban
Alonso
Légierő
oldalak
találmány
##ájk
##óműv
nal
##ollét
Rozs
mász
##izálja
Ismer
köznyelv
Isztambul
hordozórak
Tár
##elson
##ónusz
gyújt
becsült
hercegné
Hoff
Ladó
élni
kitölt
látják
Bok
##iczky
Anim
Körny
népes
űresz
gleccs
tömegű
eredményez
hangszerek
nyomtatott
Cec
Szul
vagyunk
követség
fejeződött
##fajt
számol
kontroll
kategóriába
bo
Billy
State
##etettel
színészi
előrenyom
##zati
##arian
Mall
felir
hipot
vértan
kialakulása
##bes
##emelt
Gary
vonták
##ehabilit
felhábor
hódoltság
megőrizte
##rh
MP
Jason
fűződ
nulla
##ibériai
ünnepi
tanulók
váratlan
##eke
##őrű
dalát
derék
Jersey
olvasók
királytól
labdarúgás
##enye
##eppe
##plic
Lel
mah
With
##ságáról
csúcsa
mentes
hódítás
szektor
zo
Ult
tüsk
elhár
próba
##alisták
tájkép
tartalma
űreszköz
##ócs
##hatóak
katal
##elméleti
Product
irányítás
mintájára
Arc
dolgozók
üzemelteti
##upp
##arit
négyes
Nádasdy
klinikai
##ebook
Amszt
##korszak
Rotten
keverék
osztályba
360
##ősköd
Gyur
##éjének
##vonalat
képező
elérték
hercegnőt
felemelked
természetben
Sang
pályázat
##edve
##lalk
Gör
##rendi
Ryan
Freder
Anderson
elérhetővé
##hail
konv
zenél
Schwar
sajnos
teljesít
hajtottak
torkollik
Kolozsváron
következőket
##rahám
YouT
##esvári
Belgr
Arnold
tárgya
pedagógiai
##fiú
Cu
DJ
Moto
navig
felelt
megtalálták
megnövekedett
borz
feszt
látva
##közileg
zárult
göd
pomp
Beach
végzik
mediterrán
sajátosság
##hew
Kos
##ahagy
##attan
##ásánál
verseng
rekordot
többségét
létrehozni
##ődő
##entes
lakók
elmaradt
csodálatos
árk
eltűn
karbon
Munkács
hatások
##gye
up
##almár
átnev
hatott
végezni
Bulgária
##wick
Bev
Pra
gyík
Gyakor
versenyszámban
##éki
##uber
Tánc
arag
##ozásban
erekly
##alg
What
elcs
Hotel
belet
emlős
koordin
párbeszéd
viselkedés
##özön
Cin
##ésétől
Costa
régész
hajtómű
Lotaring
rögzítették
##pas
sín
hung
Barbara
Igazság
otthona
tekercs
Londonba
vízszint
Előfordul
merénylet
##uto
##ajev
##etil
##rófi
elz
ral
1789
Sankt
tojás
kavics
jegyzők
szomorú
legutóbbi
újjáépítés
eszközökkel
ai
##core
##halom
1818
##ségével
tervét
műveket
##FL
##idt
##atni
##enza
Domb
##árnapi
Claude
szíriai
Mészáros
vietnámi
diplomáját
Jay
Pul
##vágy
extr
nyál
félkör
rosszabb
évtizedekben
##okká
cikkeket
működtek
ügyvezető
##róz
gál
Másik
kráter
rendre
Angelesben
kereszteződ
lerak
megíg
ültet
rangra
típust
mocsarak
szerencsétlen
##jabban
ponton
bosnyák
dolgokat
fegyverszün
GP
Lj
##tánc
ket
ser
képét
liter
##függvény
szövege
hatáskör
Schumacher
polgármestere
##endr
lib
##igény
##oment
##tatják
Junior
javasolt
melyekben
kíséretében
dokumentumok
##élek
##ülük
kalif
futtat
díszítő
ellenes
450
tobor
Ciprus
Különb
püspöke
kifejlett
mindenütt
leszámítva
##etl
##óst
##eltség
Matem
helyiek
virtuális
unokaöccse
##vid
mg
##oker
érő
víztár
Kolozsvárt
kormányzója
##ereje
1819
fészk
Batman
Stuart
őrgróf
csakúgy
képezik
élvonalbeli
bű
led
##ulmán
##ottevő
fokoz
Ligája
időjár
evolúció
járásának
határozták
sas
Shar
Volk
Koszt
elkob
Diplom
vélték
kétszáz
literes
Bizonyos
növekszik
##éry
Doc
##néven
##uknak
##űrész
kifiz
levág
Series
síremlék
részleges
##atti
##icsi
Kik
trófe
Howard
zavart
közepére
fejlesztő
költségvetés
MK
mú
##ilor
Szk
Born
ront
##edzője
szerelt
sötétebb
következőképpen
Alg
köp
nevéből
vöröses
önmagát
felújítás
NO
##artó
Agr
medit
becsül
összegy
özvegye
rendeznek
szolgáltak
1300
Pann
Arsenal
kezdetektől
felhasználva
kip
##kozás
felén
fogoly
felfedezte
találkoznak
évfordulója
##útt
Ft
Báb
Inf
beton
démon
tévés
##ségesen
##cos
SA
Kas
Mond
##ektora
hajnal
Trianon
románok
Ekkoriban
ins
Hert
YouTube
helybeli
keresztények
Csehszlovákia
##aza
Tiv
##erőmű
olaszul
államot
kormánya
oklevelek
képviselők
Arisztotelész
Riv
kőt
##olygó
##senek
Theod
főnöke
forgatták
térségében
ünnepélyes
##iza
Lep
Poly
Wild
jogú
lecs
tromb
strand
térben
állkap
##öderációs
kinevezett
teljesítette
népszámláláskor
céh
##innel
##range
veget
bencés
megszólal
engedélyezte
##eben
dicsér
osztott
legelterjedtebb
##tav
anatóm
romjai
##ológiája
korától
tragikus
rendszerét
győzte
kocsik
meghoz
##atherine
növelte
külföldre
mezőváros
forgatókönyvíró
##inói
verte
romboló
titokzatos
##agú
##eno
##omat
##ómunk
Prix
belőlük
védelmét
figyelhető
irodalomban
szerkesztőség
##éti
OS
##ezésének
megform
##nd
us
##elje
közpon
##asztotta
bosszút
Ábrahám
##orp
##szkrit
Moore
feltűn
sajtót
elmondása
együttesen
##illo
##bejár
instr
nyerték
vadászat
dús
##icsom
balk
sora
hiszi
kémia
országból
kristályos
Sub
1698
##németi
menni
Történelmi
##futam
Adri
Grúz
népe
Nintend
évfordulóján
ispán
Jánost
##NA
##koll
##uári
##verg
##aljai
##inson
1332
Becs
massz
##alitikus
féltest
igazolta
##szeretettel
bővítették
részecskék
környékbeli
Anjou
Szerg
kérték
tömeges
Francesco
feltételek
szerkezetű
területekre
FK
##üzet
árok
klubot
keresztmetsz
##ülését
Tolna
cerem
lexik
névadó
székhelyű
szenvedély
jelenlétében
##vari
Barn
adás
Veron
címén
America
fejezték
mérkőzéseit
unokatestvére
Alak
Aszt
Bord
Dead
ólom
eredő
alatta
kábító
marsall
sorolja
halálának
karácsonyi
Szovjetunióban
pak
##aiosz
ISIL
filmv
finál
megmenek
folytatni
ábrázolják
ábrázolása
##rann
intenz
emléktáb
hadjáratot
kiállítása
Va
Ors
##assai
1816
Kocs
Erről
szakma
termin
ügyben
középpályás
##anne
##enov
##falv
Syl
##eserű
jogait
nyomon
Philipp
ismerete
létszáma
##uban
temp
##kedtek
Kaszt
Keszt
elmes
orvosok
jelenetek
leszármazottja
##uszk
Got
den
Pres
##óművész
Legmagasabb
álc
##feletti
##aszkodik
##munkatárs
kategória
transzform
Szövetségének
##ips
##agok
Szív
##adelph
búvár
Közülük
teremtett
döntőjében
viszonylat
főgimnázium
regisztrált
##mih
##rác
##hesse
1802
stúd
##jeinek
bárki
hűvös
##alföldi
teológiát
Népköztársaság
##hib
AM
NDK
##arius
Ének
é
eltölt
részeket
betöltött
Lac
említ
Püspök
indulás
kikapott
##urc
##ossa
mob
elsők
Kaposvár
gyártási
alkotások
betegsége
##ces
##ókus
vicc
##eletes
dallal
bármelyik
szerezték
##hős
Ian
idejű
soron
Madách
templomát
változást
sv
Ral
##itest
tartalmazta
Ild
bírt
elment
Máramar
alkalmi
erdőben
polgárok
##omo
##ölő
##uszi
nel
som
Metal
mintáz
Többször
abbahagy
tulajdona
feljegyzések
állattenyészt
Pent
##ischen
azonnali
##ajk
##ontól
André
Intel
érintik
alaposan
főiskola
legelője
beiratkozott
##évi
##elettel
szervezetet
##gott
beik
kréta
dalban
ketten
gyártották
játékvezetője
tradicionális
##inj
##oby
főp
ven
##zenek
1780
kőből
homokos
##ügyminiszt
##25
##wich
##cient
##éskor
Etió
cári
gyep
libr
tele
##alföld
balett
eleget
dev
##ovits
Hern
sort
Level
szerű
##eztetett
munkanélkül
vármegyéhez
##emikus
Amint
valak
esélye
jönnek
lények
rövidítve
módszerrel
##éjén
MHz
1822
Gius
Belov
használva
##BO
Ay
##ószer
Color
Földre
##örténész
fantasy
illeték
viszonya
megbízást
##ásáig
##mirigy
Alkotmány
fegyverzet
otthonában
állomásozó
összeállított
Jr
##ozóf
bent
szétt
állatokat
dog
1400
Ajax
Iron
feles
híressé
szerető
támadta
zongora
elteltével
Hod
1770
bizott
dzsessz
vizsgálta
bennszülött
Album
Dance
érzés
beszédet
mandátumot
mérkőzését
összetettben
Sn
cáf
lab
Cross
célból
feltárt
modellt
viszály
Helsinki
##vir
Konf
szty
##optera
Móricz
órányi
##arendszer
##dimenziós
hegyvidéki
megtartott
##erre
buj
izg
##üszöb
bútor
kript
kézik
mentális
követelte
##erh
TE
##kerék
elérése
kiválóan
legfelső
nyitottak
gyűjteménye
kiállításon
megszerezni
##icht
fig
Hugo
Konz
Népi
Felad
athéni
grófnő
Belgrád
kieséses
jelentést
találkozót
tartományok
##entus
##lista
Amad
ősszel
Kennedy
kérdést
mondván
bevezetett
indították
##bell
280
König
Bayern
cserép
eleven
feltüntetve
##itta
Csan
Színpad
felfigy
kastélyban
szanszkrit
##cki
Lie
dor
mesél
##eljesen
pásztor
újszülött
##ensen
##gondol
Krakk
gyári
##nyugati
fivére
áruház
##kór
##atio
Kelly
Marco
##iformes
nevezni
tragédi
forintot
hasábjain
jelenségek
szarvasmar
évszázadok
végrehajtott
EC
##ages
Wol
1760
morf
belát
##csatorn
igazol
Vincent
helyzetbe
rövidítése
##osty
##hajóz
##istak
Back
Hunt
##onális
feltételezett
összességében
##NP
##egel
dék
usz
##agaszk
##ekrény
pászt
szóba
többes
működés
ellensége
gyakornok
##cha
##oza
##inst
őse
Graz
##mozdul
Victoria
megépült
billentyűs
μ
##mács
Pam
lejár
##vidéken
mészár
középen
összeházas
Hud
jer
##eznie
gondot
ügyében
ismétlőd
##gang
Mig
1793
Fant
##kilenc
##számban
sy
##ráci
Alpok
Locke
ugrás
trilóg
soproni
udvarban
##autó
##ilon
Gun
die
lám
##atnak
##zettel
Diego
Egypt
Zenekar
ártatlan
filmsorozat
##jó
túra
nyolcad
##sebességű
barátság
százaléka
elképzelés
népszerűvé
##acht
Amph
senk
spin
##almában
Balass
lázadás
Nintendo
##fontosságú
##kereskedelmi
##fic
##ware
Tas
hidrox
kihird
lelepl
üzembe
ezekből
lakóház
Művelődési
##tanár
Glen
megrag
legelők
nagyságú
helyezése
csillagkép
kénytelenek
pa
NHL
##efélék
fényt
popul
jegyző
Hungary
társának
bevezették
##IV
##uca
Oc
Kész
Közv
érem
díjaz
irányít
motoros
##olgármester
elvesztése
csillagászati
##egas
IBM
végtag
tévéfilm
ábrázolás
személynév
Kot
heg
##jüket
plak
##könyve
count
dramat
elnyer
jószág
##állóhely
katonát
fogalmát
csapattársa
##št
UR
##idens
Bibli
használó
partnere
meghaladta
tetszőleges
##ítésű
leendő
Champion
fejlődik
hálózati
mocsaras
beválaszt
irányítja
biztosítása
nagymértékben
rajzfilmsorozat
##ugr
##ajár
##achus
##ákról
szop
##szenek
falai
kezelő
emigrán
hónapot
kimenet
becsület
depressz
szakaszban
székesfehér
Home
időz
szpon
##veszély
##hit
##ński
Wür
Este
merül
évadot
Koppenh
gyarmati
maguknak
dalszerző
komponens
minősítést
családjához
sorrendjében
##enda
##itim
Lav
Pom
Vietnám
csontváz
tagjának
szórványos
használatban
elismeréseként
fik
##elekt
1804
bükk
miatti
Hongkong
szerelték
barlangtérkép
##arts
##nyik
##állyá
Hipp
kiágaz
olvasni
szavazatok
használatával
dol
##erner
Krit
Zeit
##adarab
megtör
Publish
Jol
túr
1799
Arts
Major
manip
Manuel
alkotói
hűséges
meghajt
elváltak
eltekintve
Díj
##őnyeg
Kurt
prépost
férjével
ütközött
Amszterdam
##alka
stáb
hadit
izotóp
ugyanez
alkottak
verziója
dinamikus
felfedezése
űz
##utód
Dim
Vám
##sberg
1803
Jank
stil
Oregon
koronát
megadott
valóságban
székesfehérvári
##ng
##olet
##piac
Lag
##házas
fája
apjának
jelképe
számottevő
testhossza
államtitkár
előfordulnak
íg
##klub
CON
1807
rizs
##ítőleg
##olution
rejtőz
cserélték
gyakrabban
művelődési
szerveztek
tizenhárom
választásokat
##sm
##zási
lob
belek
Bakony
gyűlöl
memória
misztikus
##LA
Alm
Sund
csőr
##hassák
Krasz
állni
művének
ismeretek
számítanak
##rer
Raf
##ajáték
edény
hozni
hüllők
##szövetkez
##versenyen
ugyanitt
pszichológia
##eraut
##jéről
##uszok
##állása
Tatab
filmdr
nevelt
magasra
domináns
hatalmak
tengerbe
mennyezet
tizennégy
##abbá
##osak
##osztó
##rence
##ciális
olcsó
eljegy
néprajz
tekintett
gyártottak
tisztviselő
fat
##illes
nemet
tatárok
anyakönyv
biztonság
mérkőzése
pszichiát
látogatható
##nye
##véért
Azok
kompatib
##sylvan
Lucas
elkap
##asztott
szokott
Stuttgart
##álok
tál
1598
Szib
##ériában
fogság
Channel
##epsiszent
minőségi
mindenképpen
szerkesztésében
##rett
Kul
2500
apai
fantáz
oszlik
úttörő
fajtája
távolabb
beszélnek
##lyn
##eing
Mov
Talál
bazilika
epizódja
kisebbség
megbeszél
kisebbségi
parancsára
##ézi
1750
##úszójú
emléke
pihenő
Virginia
lakóinak
ásatások
örökösöd
legnépesebb
menyasszony
##lich
##eteged
kinézet
ausztriai
##elo
il
Pos
márt
hivatott
kápolnát
lehettek
kinevezte
##sky
##ofon
1796
##ációjának
jegyében
keze
Josef
Video
padló
rektor
temetés
Levéltár
erdőkben
##cin
##ütő
##abiz
Gas
cor
kun
Stars
papok
##vizsgál
Kaukáz
közélet
Trencsén
osztályt
##atis
##idők
Laz
Rába
##bourne
##egylet
Death
oldalas
elérheti
megbeteged
felügyelete
##egye
##ento
103
##jármű
Four
Benja
birtokát
becslések
Ci
##ritz
##artama
vízfoly
áttekint
fejlődési
##led
##ablak
eltem
állott
gyarmat
szenvedő
##táj
Víg
##oster
##ságai
Néha
Mohamed
értékelte
##biai
##erde
##etbe
vend
Ecuador
eljárások
##raw
Bond
Bükk
April
death
fizetni
##acsonyabb
Operaház
##jós
##ímél
230
##azine
Oliver
ligája
relatív
szenátus
megjelenés
alkalmazásával
kov
##ajdzs
fogságban
elnéptelenedett
kápl
Force
##unizmus
költők
istennő
vezérőr
térképén
rehabilit
##övi
##esetre
Newton
őszint
birtokait
egymásnak
elismerés
támogatás
Wy
##iton
sztr
árus
vessz
dandár
Fernando
Mes
##áskor
nemzetközileg
##epsz
##annal
##erton
##ületek
megnéz
nemsokára
mindegyike
McG
esp
loc
Nagyb
lépése
máshol
mélyebb
tartály
délelőtt
##nica
Unt
##halmi
semmis
zászlót
fogyaték
osztotta
mindenkit
##ness
köb
##strom
Mast
sert
közöl
formát
##számítás
Russell
albumán
gyarmatos
##unda
##oznia
célt
##ességi
Szülő
Kiváló
Elsőként
Ráadásul
Gyógyszer
vegyületek
szabályozás
##DI
Tes
jók
1795
Mára
hurc
Örök
konyh
Morris
időered
irányult
láthatjuk
különbséget
Amb
Kut
1783
##bevétel
Dunántúl
konstrukt
DS
##iser
##talál
##ázist
##ződést
hajón
Szepes
veszélyt
tizenkett
kellemetlen
uralkodásának
##vák
we
Ede
##ezető
##sejtek
végbe
Orvost
megbecs
szénhid
tartózkodó
létesítettek
##TP
##vízi
Ned
kron
rand
##endorf
##álódik
erdőt
kivág
közbe
nevük
ítélt
oldalát
##esztették
négyszer
halálával
megváltoztatta
##fák
Comics
hettita
meglepő
parancsnoki
##24
##ges
Cab
River
bónusz
felőli
növeli
húzódott
vetették
##epsiszentgyörgy
##nic
750
##etics
Lake
Talán
##osságát
nemrég
Mozgalom
csapatánál
##félek
Szoj
kölcsönös
spanyolul
szimbolikus
mérő
külváros
Ferdinand
változatai
##pali
##ódási
Schl
Petrov
liturg
Harvard
Karrier
helyébe
művészt
előnyben
Belgiumban
##űs
##agne
##umin
##dőjel
##áltai
egér
##enciát
##inburg
##munkás
megrom
egyikük
menekülni
Legfelsőbb
napjainkig
valószínűs
vasútvonalak
külügyminiszter
##uff
##lekt
##átok
Kard
Canad
Ptolem
fogott
Keleten
Fed
megal
átigaz
városból
gólkirály
ismeretes
védőszent
gyorsabban
##gyök
Rig
##ődnek
zseb
##iumban
Klein
heter
látás
##hatóság
Kórház
rangban
elbocsát
légvédelmi
átmenetileg
##iója
Bac
gam
Work
havas
##vonalak
bírósági
intézett
lengyelek
molekuláris
versenyzője
##uin
Fur
##ehely
Amíg
##aművész
hajókat
ajánlatot
legrosszabb
##ejük
##éles
pán
Koreában
fordítva
különleg
ellenkező
fejlődésnek
konferencia
##ingi
##kinek
##állalk
Torna
grófi
iszap
megvilág
megelőzve
ütközetben
alapszakasz
##fogy
Vig
álm
##kezelő
reduk
újdon
rajongó
menekülő
univerzum
közelíthető
##inó
##eira
##járt
##ople
1786
ezalatt
repülőgépet
fejlesztését
Abu
Gand
túli
##világi
jelölik
reakciók
nagysebességű
Anti
Erdő
porn
szünt
Müller
##erbajdzs
böngész
##vest
Actin
Boston
előnyös
érthető
megkezdték
stúdióalbuma
találkozhatunk
Fu
##étól
hírt
durva
alábbiak
együttesek
PhD
##ermin
1791
savany
üzemel
keveredett
szolgálnak
vetítették
rendszerrel
##ezős
##rica
Isz
##estyén
Pápai
viszonyt
megegyező
tapasztalt
változatok
##erth
##ókra
Férje
igényt
mindennap
Név
riz
Újabb
##bitális
alkotmányos
##uro
1811
herny
áramkör
Ramszesz
egyidőben
áldozatot
spirituális
szélsőséges
játékvezetői
##asse
Köln
lámp
sírja
hangvétel
rövidfilm
állatkert
megjelennek
##eredményesebb
##aji
Iv
Lő
taj
##iától
##kodva
This
vonós
Europe
Mintegy
Valójában
végrendelet
versenyszámát
##itus
##olib
rub
##atoes
##finom
Pant
Milan
##alizált
##ességének
felvétele
koncerten
elvesztett
##ezőt
##rint
kimagas
##liget
Emma
Vegy
avat
Gyűrű
mulat
súlya
veter
itthon
lenyűg
peremén
Britanniában
##ánuel
Kőszeg
Pécsett
expressz
szelvény
##lelt
##iumot
Nelson
kiterm
szövegét
erőforrás
lerombolták
111
Borg
##orvosi
Boeing
Kodály
tértek
osztrákok
temesvári
áldozatok
épületeket
öbl
##andós
##naggyá
okból
dimenz
megölt
Önálló
##engedett
barátnője
körülvevő
baktériumok
csoportokban
magányos
kapcsolatát
##bia
##úria
Roth
Egyen
##óniában
Karács
##emeletes
emléket
sorszám
villany
formális
bizonnyal
integrált
mérkőzésén
következtetni
##yk
##aker
##asága
pusk
tilos
legegy
Hazatér
alezred
vidéket
eseményt
könnyedén
könyveket
rekonstrukció
##eva
##opod
1823
Conn
ikon
átjár
##kastély
##averseny
Körülbelül
publikálta
OK
##icae
##hozzá
##emberg
##zékeny
First
hatót
Értes
##etésben
Pálffy
pontján
leggazdag
csatlakozó
##négy
Bros
##egyenl
drága
jutni
##ezésben
fordít
macska
posztot
korlátoz
tömegközl
##ÉV
##több
Sat
cir
res
Kyle
Ring
Jerry
üdülő
##elemmel
magány
kisváros
megtelep
mindenhol
##hen
tot
##iális
##kincs
##lenni
Lenin
vulkán
emigrált
festette
szavakat
alaprajzú
diadalmas
labdarúgója
##pol
Kri
Muh
ivó
##nevelő
Vásár
Wikip
##hallgat
akarat
Borbála
előadása
bemutatása
kedvezőtlen
összefüggésben
##aui
##som
##engő
Buck
Spar
bors
Aztán
Szisz
##emények
Karint
vámpír
ügyész
pozícióját
UK
##inda
##reich
Ferö
Pink
##hellyel
Szojuz
élőhelyei
MS
Káz
STS
pur
Beatl
fonal
ösvény
Jonathan
magaslat
receptor
Kisfaludy
törekedett
##nam
ca
##enei
##tára
Led
##andro
Ganz
Grad
Fland
##törvény
Matthew
emlékek
átépítés
megkérdőjel
##akl
##első
Kém
Tot
Tun
##omorf
árán
Szentl
fizető
jellege
alkalmasak
felújított
visszavonul
sugarasúszójú
##ántó
##írói
Ras
##ukból
Marg
kliens
folytak
Manapság
beleszer
nagyszámú
visszhang
javaslatot
##rell
##ákba
kötés
futama
##helyettese
klasszicista
megszüntetés
sup
tin
Adel
roma
óvod
Union
Hazánk
sorsát
vektor
ostroma
Constant
Csongrád
közgazdasági
##esete
##ülési
6000
Prov
Kassa
terveit
felgyors
##aii
##etté
Esz
Lem
Cand
esős
hívott
széria
órával
növendék
találnak
Különböző
Asp
##elefon
helyt
eltilt
lázadó
szólal
megtest
Kazinczy
területű
látogatta
segítségét
##ät
tőr
Engel
básty
vidám
Julius
##achusett
kiképzés
##áé
##gii
Lex
gyökér
lövész
betelepül
ragadozók
terveztek
vezérkari
Beh
not
##álást
Cher
filmnek
szórvány
dinoszauruszok
Ami
Parad
della
kinek
radar
##almatlan
ciprusi
##fici
Ext
##akadt
##szoros
Indian
szemét
perccel
összevon
balesetet
Salgótarján
előfordulhat
##kul
##adrág
##ogyor
Pomp
pers
dagan
főkap
Kassai
levele
irányában
feltételezések
##lam
##uum
##itán
##ületi
hírh
derül
utóda
Mihail
erőket
tagját
világa
hajdani
helyezi
bölcsész
összeolv
nagyközön
szimfonikus
##főz
##ige
##eszék
##hajót
##völgyi
konflikt
szerszám
értendők
gyártmány
Kolozsvári
folyamatot
változásokat
ri
##ólia
Hoh
WTA
##ockey
megér
gyerty
zenéje
emlékei
##opterygii
katalógus
akusztikus
Vármegyében
alcsaládjába
##bek
HT
Rád
##ednek
Fish
Külső
Chicag
altábornagy
hőmérsékleten
##nők
híre
prav
trad
multi
##templom
lekérd
utalás
kedvéért
látogató
felfedező
északnyugat
##öjt
Dre
##usnak
Pall
disc
klán
ősei
anime
hátvéd
betűkkel
közbenjár
dekor
zárja
Érsek
árnyalat
császárné
rejtélyes
szakaszát
Ugyanekkor
Átszállási
NSZK
véli
érik
okozó
munkáit
kétharmad
előfordult
népszerűsége
biztosították
1794
##rekord
Laura
##őjeként
szivár
##uzsálemi
arányos
polinom
kutatása
szervező
októberben
kutatásokat
Itália
termelt
tényleg
hagyaték
jubileum
stílusát
labdarúgók
előszeretettel
##kut
Rä
rezg
##felszín
képlet
mérleg
gépeket
jelezte
Salzburg
verseket
évenként
Venezuela
botanikus
szigetcsoport
##US
##éja
MC
##arai
fedi
lakt
számuk
Herbert
pártfog
muzulmán
vesztett
endemikus
##icon
seh
Helm
Princ
fajták
##ítéseket
olaszok
regiszter
##IM
##íló
##endy
##téren
1774
##iparban
##ography
Skócia
jóvolt
rajzol
Szergej
talajon
életüket
királlyal
megtalálhatóak
##owe
##ench
##enge
Bes
##ségére
##osztályának
kritikákat
##ilop
Pitt
##odinam
Lloyd
búcsú
motív
fehérek
virágzó
bevételt
hivatali
épületében
##otechn
akarnak
ellenben
irányból
katonatiszt
koncentrációs
Actinopterygii
##arka
##ober
##estől
Irén
Serg
kellő
országba
adjunktus
jövedelem
kapcsolódott
kok
Szah
##osztás
Eleon
szkít
szomb
fogadtat
mindenek
motorral
Indonézia
közgyűlés
stúdióban
kölcsönben
megfigyelő
##ókor
Pep
Atlét
plusz
alapos
viking
alapult
arattak
nyomozó
kényszerítette
##eith
##ikkön
Jess
Ildikó
érdeklődését
Gorn
Slov
That
Crist
falán
vehetett
költségek
unitárius
jóvoltából
progresszív
##eoni
##művesek
nyitva
Benjamin
megvédte
munkákat
beállítás
körmérkőz
Nagykanizs
fantasztikus
támogatására
Fáb
##mechan
Heged
admir
##zenekar
Nyilván
megszüntetése
##ivé
IT
##icin
1801
hobb
Képes
megalk
másikat
belföldi
##biztonsági
Dalfesztivál
meglátogatta
tulajdonságai
Nu
##szerűs
##ítendő
járta
Herman
párbaj
parkban
szorgalmaz
játszhatott
##via
##ulata
gyám
Senna
Dragon
szobrok
működésének
tekintélyes
##orr
Aer
jóg
##ervall
Dallas
kezére
nyomai
páncélt
szigete
királlyá
műveinek
##agram
##asson
Apol
Görg
More
sánc
Skóci
elvis
lázadók
tükrözi
Tomatoes
felszent
##szolgálati
harcoltak
##aha
Lesz
elhúz
zuhan
Alföld
Nagyobb
fejedelm
##edo
##issa
Jogi
Thur
kenyér
kerülni
cserjések
jeruzsálemi
##boy
##ozo
MO
##cikl
Sip
Balti
Carlo
Miami
##ozzanak
megyék
darabok
kapcsolt
felsőoktatási
##iko
##sey
##entő
##erior
Grim
bánya
ügyek
kitüntetett
megszerzett
##iley
Tiszt
##szállás
cikkek
halászat
átkerült
kritérium
##ázd
##sora
Dog
Fot
##berger
nyoma
##indulat
Valent
folytatás
zárójelben
Poroszország
foglalkozása
##back
##épes
Pen
Ran
kob
McLaren
karossz
keresni
keretek
töreked
Fejleszt
Zsuzsanna
gyulladás
töltötték
##mák
kevert
Dalmáci
engedték
meztelen
indulhatott
##ómű
Nad
fix
##ogatta
megte
kazett
eretnek
összege
kellemes
állhatott
Észtország
##aven
Lév
Trin
páci
radi
Elemér
Public
vontat
munkával
épületét
ES
##inci
Sier
##ismeret
fejezi
szerelme
katonákat
könyvtáros
##folt
##ental
##jelző
Fodor
lírai
miként
zágráb
Project
kiadásra
Australian
gyártásában
McD
##eiért
gumi
eleje
felég
pihen
nyerni
tanárok
távozik
Brazíliában
Utód
adók
bogy
##eletet
Kongói
támadt
##etésének
Tivadar
operett
tízezer
lezajlott
szereltek
##64
##társa
udvart
zaklat
hatvanas
legalacsonyabb
##ceum
euk
áru
##kedvel
Prága
derült
##politika
érdeklődést
##redit
##unkat
Chil
##pontot
konst
egyezt
zéland
élőben
##meghatár
fertőzés
lecserél
fiatalember
főmunkatárs
##ency
sin
##árral
##érzék
Pong
távú
##stúdió
előret
‘
Rai
##ansas
marx
fórum
Magnus
Stájer
reggeli
lakosságát
elkövetkező
Zw
##ikán
fri
##állást
Márta
oldalra
Dalmácia
bebörtön
közelébe
kasztíliai
gyógyszerek
megfelelője
megállapodást
Imp
Fény
tápl
Ismert
Kázmér
kálium
szakíró
tábornagy
fejlődésének
Navar
medve
Marokk
szörnyű
öbölben
barlangban
osztályában
leggazdagabb
unokatestvér
##ívták
mást
írva
##avirág
kifut
lándzs
tollaz
teheraut
kezdeményezés
orvostudomány
Giz
Jas
##részes
országában
területeit
##emin
1785
vitat
célkit
csapathoz
közepette
sakkvilág
##tar
Lat
Suz
cap
Parker
egyéves
közlekedtek
lehetőségeket
##GY
VH
##head
Bars
Selm
##isszab
hadrend
kalcium
kiadását
zenekari
levegőben
összeírás
figyelemmel
##hone
vés
Kant
Danny
amúgy
ingad
fogadó
Sebastian
ellenálló
Megállóhely
nyilvánosan
űrrepülőgép
##itis
##evény
Nílus
kereső
Leopold
lemarad
mértéke
##rendszerben
Beszterceb
Montenegró
##e
##a
##t
##l
##s
##n
##r
##k
##i
##o
##z
##á
##é
##g
##m
##b
##y
##v
##d
##,
##h
##.
##u
##p
##j
##ö
##ó
##ő
##f
##c
##A
##-
##í
##1
##ü
##0
##"
##9
##2
##ú
##S
##M
##ű
##)
##(
##E
##8
##B
##K
##5
##3
##T
##4
##7
##6
##I
##P
##C
##H
##F
##L
##N
##D
##G
##:
##R
##V
##–
##J
##w
##O
##x
##/
##W
##U
##„
##”
##Z
##;
##Á
##É
##%
##X
##Y
##_
##'
##’
##q
##Ú
##Ö
##=
##!
##Í
##?
##Q
##Ő
##&
##ć
##ä
##š
##]
##[
##+
##Ó
##č
##°
##ă
##Ü
##è
##о
##|
##а
##ș
##и
##ç
##ł
##ë
##е
##н
##ž
##“
##р
##â
##Š
##×
##ß
##>
##с
##—
##ø
###
##в
##α
##−
##ñ
##*
##<
##ț
##л
##к
##§
##т
##ń
##Č
##»
##ı
##Ű
##ş
##«
##à
##ā
##•
##ã
##ο
##å
##ا
##ý
##ς
##æ
##Ž
##μ
##ρ
##ι
##~
##ô
##ν
##→
##м
##д
##ř
##ð
##î
##у
##λ
##ε
##ː
##σ
##†
##й
##τ
##ل
##ō
##ě
##õ
##ч
##ê
##ś
##ğ
##я
##б
##β
##ę
##‘
##К
##ī
##$
##·
##г
##ь
##ر
##С
##π
##ə
##κ
##đ
##م
##ū
##п
##ي
##‐
##ن
##↓
##γ
##υ
##М
##ы
##η
##ب
##ò
##و
##А
##↑
##İ
##د
##Đ
##Ç
##{
##Ș
##φ
##ţ
##δ
##В
##́
##Ł
##′
##ï
##ˈ
##ą
##з
##ż
##ω
##ň
##ά
##ί
##}
##ē
##Ş
##П
##\
##û
##ì
##і
##Р
##י
##ḥ
##⁄
##ό
##س
##Б
##ц
##Å
##±
##θ
##Δ
##्
##ù
##་
##Ø
##ו
##ш
##Д
##ỉ
##ा
##Ä
##大
##х
##ľ
##О
##И
##χ
##∈
##ت
##Ś
##Н
##Т
##ḫ
##Æ
##Г
##ع
##@
##ة
##ح
##Î
##の
##Ż
##र
##ė
##ħ
##ה
##א
##Л
##ه
##ύ
##ר
##Ω
##ー
##ź
##ÿ
##ж
##έ
##€
##Σ
##ל
##ή
##£
##ġ
##ů
##ɛ
##天
##ف
##子
##ť
##^
##≤
##ʿ
##ش
##ン
##Α
##ق
##ა
##œ
##מ
##ی
##ج
##ש
##山
##‰
##З
##ф
##ב
##‚
##Π
##Ф
##‒
##ი
##神
##Ț
##म
##日
##ָ
##ա
##王
##न
##ɪ
##ּ
##ك
##נ
##本
##`
##人
##Κ
##त
##中
##ि
##ת
##ɔ
##Ч
##ʃ
##Þ
##国
##ю
##ʻ
##أ
##У
##ע
##Ħ
##Е
##ز
##ǎ
##Ć
##Ľ
##ё
##ξ
##道
##Μ
##Φ
##ד
##क
##ˁ
##व
##イ
##ζ
##》
##≥
##《
##三
##ス
##ψ
##一
##̯
##ְ
##ј
##文
##Х
##э
##þ
##ַ
##Λ
##स
##ル
##À
##द
##®
##Ġ
##ص
##ط
##ラ
##田
##ร
##ʁ
##Ḫ
##य
##ṣ
##خ
##・
##사
##이
##ִ
##ى
##ն
##り
##า
##海
##ъ
##√
##ɑ
##ώ
##國
##Γ
##い
##ћ
##新
##რ
##ď
##ṭ
##和
##Ε
##Ц
##Ш
##Τ
##ח
##प
##明
##ק
##ე
##ु
##寺
##ņ
##פ
##ी
