[PAD]
[unused0]
[unused1]
[unused2]
[unused3]
[unused4]
[unused5]
[unused6]
[unused7]
[unused8]
[unused9]
[unused10]
[unused11]
[unused12]
[unused13]
[unused14]
[unused15]
[unused16]
[unused17]
[unused18]
[unused19]
[unused20]
[unused21]
[unused22]
[unused23]
[unused24]
[unused25]
[unused26]
[unused27]
[unused28]
[unused29]
[unused30]
[unused31]
[unused32]
[unused33]
[unused34]
[unused35]
[unused36]
[unused37]
[unused38]
[unused39]
[unused40]
[unused41]
[unused42]
[unused43]
[unused44]
[unused45]
[unused46]
[unused47]
[unused48]
[unused49]
[unused50]
[unused51]
[unused52]
[unused53]
[unused54]
[unused55]
[unused56]
[unused57]
[unused58]
[unused59]
[unused60]
[unused61]
[unused62]
[unused63]
[unused64]
[unused65]
[unused66]
[unused67]
[unused68]
[unused69]
[unused70]
[unused71]
[unused72]
[unused73]
[unused74]
[unused75]
[unused76]
[unused77]
[unused78]
[unused79]
[unused80]
[unused81]
[unused82]
[unused83]
[unused84]
[unused85]
[unused86]
[unused87]
[unused88]
[unused89]
[unused90]
[unused91]
[unused92]
[unused93]
[unused94]
[unused95]
[unused96]
[unused97]
[unused98]
[unused99]
[UNK]
[CLS]
[SEP]
[MASK]
##er
##in
##at
##us
##um
##is
,
e
a
.
##it
##on
s
##or
##ae
##ic
##an
##en
##st
p
c
##ar
"
##un
##em
##es
##qu
##li
m
##am
in
d
##ur
A
##om
##ti
r
1
et
##al
C
f
n
##ol
##ri
qu
I
##ul
##ati
S
est
v
P
##ec
##el
2
t
##et
##ia
##im
M
an
(
)
##ut
##bus
##os
##id
##ent
##as
h
##ed
##unt
##oc
pr
##op
##ac
19
##und
R
L
D
con
B
##no
ad
l
##ter
##eg
T
F
H
G
##ius
##il
##ep
##ud
##ab
##ens
N
##od
##ation
E
##orum
##ant
##ie
##ra
##ta
##gn
##iv
##arum
##alis
##iae
ro
##ibus
##ov
##ir
##itat
round
##ion
##ist
##str
##ium
##eb
:
anno
In
ex
V
##que
##uit
##io
An
g
##ell
or
##uc
de
-
##ip
##ot
##ub
O
##ili
##ali
per
##av
##atur
sunt
ma
o
un
##ing
##tus
##ica
ab
##og
##ii
##re
##atus
##omin
##ch
##per
20
##ig
##ost
##onom
##ers
##aec
U
##enti
##ran
sol
com
##ap
ap
##iss
cum
b
##icae
##and
3
##est
##rim
##stronom
##end
##ero
;
##he
##atio
Pr
su
##cc
##ator
##bit
fuit
##ort
##iam
##ere
im
##inc
##uli
##ad
inter
hab
quam
par
##ris
##ita
ann
##fic
##tion
die
##ib
reg
prae
##ex
##itur
##ect
##erat
Q
##lic
op
##eroid
##steroid
##cri
18
at
asteroid
quae
orbit
ut
##irc
##ess
di
qui
##ata
##erum
##ric
fac
Qu
ep
##erunt
##ob
##se
rep
##isc
##ann
non
##ag
ter
##atis
circ
##atibus
ali
##itus
Mar
##ian
re
min
##ime
'
K
##emp
Rom
st
Un
W
##ign
Fran
##och
ar
##crip
##itatibus
sed
##tiam
##ensis
200
cons
##ult
##ug
prim
li
aut
4
Franc
##ore
##stit
reper
##ph
##erv
##ust
##icus
##ine
pl
##urb
##te
mon
des
Al
##ari
##ill
vel
##ebat
apud
Anno
##ina
##atum
i
Astronom
inc
med
##ux
magn
##avit
pro
Ch
se
urb
##tor
epoch
us
##th
##ans
##ingu
unitatibus
2°
##alem
##ionis
Ar
##aris
mort
al
post
##erm
##ro
##unc
##icum
##itatem
##ern
##anc
ac
Con
##ice
##pos
201
max
##olog
etiam
##ept
##ici
5
nomin
lib
Roman
199
##ulo
##ert
astronom
##orm
##ard
es
Ma
##ula
erat
quod
of
198
Inter
comm
##eri
Ita
0
app
eius
##itum
sy
Ang
##ico
cont
##inem
##lim
##emb
##rib
sp
##iter
##ff
##ea
que
197
##lin
natus
##oci
##itud
##incip
Die
##le
##ass
Am
##bs
##ivers
gen
St
Gr
J
##ione
civ
prop
6
ecc
##antur
lingu
##omn
##are
##itatum
circa
The
constit
##istor
ius
##ast
##alia
Br
##alium
mortu
temp
De
sub
vers
dist
sec
##ani
scrip
##itatis
##tum
Itali
##stem
##icarum
the
##ato
##inis
17
##all
##oris
25
##su
Car
##issim
omn
##up
##ini
##oll
##ationalis
##ebatur
saec
7
am
sc
##oph
att
##oed
##65
Inc
##ev
##tim
/
leg
##arii
Io
system
olim
##ana
##tio
##rat
##ationem
appell
##de
##ific
##ationis
ins
dic
esse
##les
Reg
##erc
8
##ribus
##ieb
##eli
oc
15
inv
##uius
ed
Nov
pub
##utus
##ate
9
##quam
##omen
atque
er
co
quo
ig
##ationibus
Lat
##isp
##la
##embris
##era
##oss
acc
##icis
el
pot
##ath
imper
du
usque
Intern
abs
dies
##to
cap
praes
X
media
##erman
mov
##untur
design
maxime
ph
##bserv
##atione
##ale
monstr
agn
##itudinem
Unionis
igitur
##olut
##icam
mortuus
##aria
##ovinc
comp
##omina
##anus
German
##etur
cond
##itas
##posita
iussu
##ior
ratio
fili
##erb
attrib
habebat
##tis
Ioann
Ap
##esc
Graec
Princip
16
##rest
nost
en
autem
systematis
Rerum
##oli
Qua
Internationalis
dec
nov
##ales
*
Nomina
fl
##eris
num
Ab
minime
homin
##ectus
res
absolut
monstrat
asteroides
Ax
##iebatur
solem
ob
##iis
terrest
magnitudinem
##entric
nostri
distans
solaris
opp
365
sole
##ram
##linatio
po
repertus
constitit
epocha
terrestribus
##omalia
asteroidum
imposita
absolutam
orbitalis
attributus
unitatum
eccentric
epochae
orbitalem
astronomicarum
incol
movebatur
Inclinatio
anomalia
reperiebatur
Axem
Astronomicae
eccentricitatem
Astronomis
orbitalium
asteroidibus
mod
loc
annum
agnitus
Sanc
Amer
Th
##olit
secund
##ensi
##ang
##bservator
form
194
II
195
##inguli
##anum
##ach
Anglic
##uv
##ulg
Observator
pat
##rum
##tin
Principalis
##lis
##entes
Mon
Cinguli
vic
##ide
rec
##erg
##aus
##urg
cl
commun
10
##ano
##entum
mun
Hisp
##ym
##ionem
Ad
##pe
12
##rad
##anu
##ubi
Aug
tr
193
##ident
Civ
praec
##ura
11
##itate
##rans
designationibus
196
##anti
exp
##tiqu
occ
##ulum
##raph
oppid
ubi
mult
##ores
sic
##eti
##tionis
##ilia
Com
##aes
##inus
ne
##ong
ip
mil
##ationes
mag
##ord
–
##isse
##icip
ind
ag
##ies
ch
##ton
##tr
fu
ill
##ond
Hispan
##ich
fam
##ulus
part
Ph
poss
##ane
Foed
##ys
##itter
##arius
##inae
car
Sept
##inum
hod
##etr
stud
##eni
super
14
Ex
div
##tu
Eur
cr
##ociet
Iuli
versato
##istr
cre
bell
saeculo
##uss
##ino
Univers
##orem
inf
##ulis
##ulae
potest
##tae
##epit
pars
antiqu
Oc
##son
##ism
nomen
histor
##lig
##ense
anni
##ung
Im
spec
gr
terr
##rion
Z
public
##ovincia
##rav
##ron
Di
cuius
##sit
Sch
duc
##entia
cor
##ive
##ui
mus
##idem
col
Pl
maxim
##ue
13
Fl
##rid
##oth
it
vir
Post
doc
voc
##min
and
##eph
int
##iscop
##ax
w
##00
Ne
imp
trans
contra
incolarum
Europ
##ebr
nul
##ret
consul
##enn
##arium
Observatorium
##ativ
##tionem
Sc
192
adh
ord
sign
##edit
##onis
##ient
Dec
##erid
conf
mat
##ograph
Anglice
disc
##rag
##iones
Pa
Brit
cur
##itor
sim
##enta
Le
verb
##risti
##enses
##yp
Aust
nomine
hoc
Par
sive
sae
Ge
##inde
litter
iam
sit
##ister
Or
##pp
nec
##ario
imperator
##org
vi
##ress
191
##ias
coll
Ann
##uti
una
ante
##urae
pu
pop
annos
##ei
##oni
annis
vol
##ind
##iac
Med
Cor
Su
##aen
##entis
Cam
praecip
As
##iti
##ibi
factus
Ianu
Ur
sept
situm
##one
lingua
univers
tempore
##II
pertin
Britann
Carol
##amen
coni
Americ
##oniae
Luc
Christi
astronomo
as
def
La
Theod
##lam
##rig
ev
Augus
##ow
Gu
municip
vulg
##imus
alia
not
Imper
habet
polit
vid
Sp
Iun
Ind
##ox
##anae
iur
praef
Y
##eret
phil
##ok
##ria
##oh
qua
dux
caus
##ola
##elli
primum
##osoph
Prae
##entrion
##ienti
##ma
hum
auc
conc
##ente
Ecc
##tii
##adem
##oribus
Lib
regn
##yl
sicut
secundum
rerum
##dem
##ando
##yth
nunc
##ilium
no
Sancti
##ecit
si
mul
Italiae
princip
exc
prof
ips
mund
eccles
##imo
del
oppidum
##ons
##atae
##elm
Cum
##bi
oper
conv
publ
quin
fab
vit
##alibus
Ed
##aud
##lia
Eccles
urbe
Ac
##ios
arch
circiter
sac
##int
Marc
dom
Is
##onia
Ianuarii
##ech
##ene
##tione
##yn
##tibus
##abat
Ioannes
sch
##ebant
Cath
##atu
Italiane
hodie
##ire
##ak
sen
##anis
seu
##idit
##az
urbs
primo
eum
##asc
##tav
aed
fere
##itates
##tius
Cl
aliqu
val
##endi
societ
mar
##entur
mor
red
##eta
##rem
##ella
aliis
und
to
##act
##tob
##olae
##ith
contin
milit
quibus
saepe
##ucc
Foederat
##icorum
##ay
##rev
##inn
##itio
vari
##atia
cult
erant
##tiv
gener
liber
##ilis
Val
Octob
Col
famili
##averunt
exemp
Pal
long
##tium
##land
Prim
philosoph
ven
Europae
serv
##iana
anim
##atem
##ariae
Er
ve
##usc
##ito
Ag
At
##lo
##yc
##ile
orient
episcop
th
dem
pa
sex
##osc
Cons
met
En
occident
##iorum
##lius
##esis
##entibus
id
##xit
##itis
Augusti
Apri
em
##uta
##yr
fin
##equ
facta
190
##ena
Pat
huius
vulgo
Iulii
##ffic
21
lat
##ensem
plur
Lud
##ania
quia
eff
offic
compos
postea
##ologia
##art
##tiones
Decembris
fr
Provincia
Georg
relig
praeses
##res
scriptor
Ter
##ecta
sep
natur
##aci
tit
Russ
lab
sum
oec
sem
deinde
Maii
lud
##iarum
Pol
signific
solum
##erus
cel
Af
fort
ge
##hi
alter
quoque
Sec
##atorum
homines
##ier
tum
admin
00
##ebru
Novembris
Iunii
rem
Bell
legatus
aedific
El
adi
Alex
exerc
Tur
##ilio
##inam
##itt
mut
eo
22
Octobris
nav
Febru
##irm
##crib
##ori
30
##ora
##icas
##ellic
Comm
municipium
It
##olis
Cap
pap
##rium
nomina
##ubern
And
ess
Septembris
bellum
##lum
Hen
##aur
Martii
##arch
Ins
##erit
##allic
possunt
sua
##na
Caes
Re
##erd
Alb
##ne
##ara
Regione
ul
rebus
ref
flum
##go
rex
succ
regione
##ioec
habit
omnes
##essit
trad
189
##berg
caput
ei
Histor
Bar
sod
Aprilis
filius
##burg
Cathol
adv
Magn
##antes
##entiae
##emor
auctor
praecipue
##iensis
aet
merid
Lut
000
##ace
24
##ulam
##attu
##ont
Mus
Sed
k
aqu
23
##ald
quas
class
##dam
##amp
sal
##ates
##uerunt
Sh
proc
ux
Francog
##icet
##uum
pag
dep
##rae
Francisc
Il
##ins
frat
##ona
corp
enim
##ih
##endum
##odem
causa
pellic
##ones
##ah
fuerunt
sita
myth
27
prog
Sal
##asse
instit
##oseph
Pub
Hel
primus
##utum
Const
ita
urbis
duo
Iud
appellantur
##iit
put
modo
Eb
##ionibus
person
propter
pugn
partes
##ianus
viv
Ber
pos
##riae
26
##if
Lingu
III
##eo
Ven
Februarii
28
oeconom
##antum
Alexand
Haec
Guli
##onem
Theodisc
##riv
##co
species
##reh
fi
Gulielm
iterum
##attuor
##ite
##endit
##ni
##iles
Anton
##rop
ipse
Henric
mortem
cogn
eorum
cui
Nic
maior
Per
##ima
##tific
##ua
##ramm
##sch
rel
Iac
188
condita
Etiam
gl
Har
Circ
electus
fer
fund
carm
minister
cop
fecit
accepit
sine
##lus
##eunt
Cr
##sus
linguae
##strum
septentrion
##rix
##eth
Ioseph
Petr
##ibli
Coll
Max
##issima
Ludov
gubern
commune
##ilv
##onum
##bo
##liqu
Romanus
##iem
##essor
##uxta
##lar
##ecim
##iern
Ital
prima
Ga
orig
##eum
parv
##ectum
const
##otus
ded
Germaniae
29
praeter
vis
Gal
cert
##rali
la
provincia
trib
August
##oqu
Pet
Secund
##ationum
Ca
provinc
##abant
prod
##ilius
He
##ento
factionis
haec
##entem
##onium
_
Sax
Rh
dedit
##urn
2009
##iani
mense
Ori
tamen
Latine
Cal
merc
##ix
ibi
nar
Gen
##uper
Inf
discip
181
Romae
##ki
quattuor
Bo
Ath
Es
org
Cast
inven
186
tab
##umb
tot
Mat
scienti
—
circum
##ante
Ben
##atores
Thom
parte
##be
opera
Societ
Domin
Occ
hon
2007
tres
mom
brev
soci
multi
ten
Annis
Sam
##of
##iet
aest
Hoc
hodiern
##struc
iuxta
foed
familiae
ordin
publicae
administr
Can
opus
publicus
##gr
##bis
##orn
Arch
##entium
31
adhib
##aret
##iano
##erumque
Vic
propri
##torum
##inta
##anorum
is
gratia
Dem
aff
scripsit
Nomen
Hispanice
aequ
gest
nob
##tur
Mich
##andi
##ros
##ioecesis
Romani
Tr
##abatur
elect
Sic
##ecti
Chr
Phili
Rob
grad
187
arg
praefect
##icos
grav
##ularum
saeculi
Lond
pec
Co
Non
iud
%
##enae
hominum
##ologiae
##itae
ext
]
##anam
2012
##ihil
##atim
descrip
add
duxit
videtur
rei
pic
##ulas
deb
##etiae
##III
suam
##itu
ea
quad
##egr
dicitur
greg
##lica
##ulit
sing
##ych
prot
urbem
Graece
can
##ler
##unti
Civitatum
##ka
##ver
Francogallic
plerumque
[
fuisse
##othec
Ep
##oria
Ioanne
Aeg
genus
suum
##estig
esset
y
civitatis
##eunte
##tt
##imi
Italia
Sac
suff
##num
tantum
vet
der
Po
soc
Pap
##vit
neg
z
labor
##tes
Vol
multis
divis
##ines
##eder
for
##esco
##ke
formula
domin
##ulos
tam
str
##sum
hic
sedes
##illi
Leg
compreh
prom
Philipp
##etae
##ianum
##dum
Foeder
plus
##tem
185
##ocrat
##nus
##pl
##uo
##iali
##eld
##tam
##atam
spect
Ecclesiae
&
av
ultim
Lus
##oti
ca
##itatus
Res
2008
Corn
##aed
habuit
##yd
##old
Go
##enda
unum
regis
nata
sequ
coniunc
fortasse
quem
##ebantur
cer
Finn
Carolus
quamquam
exs
cal
sodalis
##isset
##inister
Man
quidem
1990
##mi
Mag
tex
##ulorum
prope
Praeter
minus
Observatorio
##enc
ser
2006
generis
colleg
##ardus
Aqu
appellatur
Francesco
##mus
##ugn
miss
iac
Et
habent
##ael
suo
plant
quorum
##lav
##tic
eodem
Christ
Fac
fem
terrarum
IV
mer
##illa
sibi
2010
loco
Merid
prob
##idis
partem
creatus
Mac
##liae
##ary
vig
Incolae
##sych
Mor
eam
##omo
sanc
Dic
##oniam
tel
vide
##man
intern
Bel
##onae
2011
maxima
cas
Franciae
##inarum
ecclesia
##enis
Foederatarum
##mo
##aniae
stat
##arc
dum
##ioris
lac
ing
##entiam
rad
Cat
##ector
##uth
180
184
##ity
XV
familia
Ebor
rev
reliqu
Quae
##endo
##ole
man
Cla
##ravit
quinque
##ralis
##ertus
##ular
Academ
##ibliothec
Vir
cant
momenti
imag
numer
Cur
##ariis
indic
Colleg
Nap
Pers
scil
##opolit
propos
Lingua
publica
omnibus
Ho
Her
resp
2005
Quod
insula
den
183
Orient
##iz
Constant
##imae
Sy
##andum
Est
Aur
Camp
##rac
##endam
2016
##entus
2013
##ett
##issimus
Imperii
Septentrion
Iap
##ularis
constitu
operam
##50
nam
Liv
##imum
omnium
sui
##ertim
##ialis
Occident
schol
##ilii
erud
##erius
##istrorum
##ianae
loqu
Min
Tum
ped
1999
paen
Mal
Inferi
hac
Duc
eiusdem
Secundum
Pac
adm
##isi
Arab
on
##ha
##uf
##ivit
##plic
quos
velut
Lutetiae
Nor
##olu
=
##inti
sup
1980
educ
##rand
obs
ost
Commun
iuv
praed
##20
##oman
cog
##ford
##ement
quar
Afr
hanc
tempus
mater
##erant
dim
perf
##aster
Marcus
##erent
defin
bello
Novi
Latin
multa
factum
aux
Hung
Dav
diem
2004
Cant
exter
Ol
##iensi
Aegyp
coepit
adhuc
peri
##rius
##perant
Arg
##hann
metr
##elio
pul
scilicet
New
1989
quando
##uris
scrib
##ry
Romanae
##ik
##rom
##itionem
libro
##iens
1991
Quam
1979
semper
##tia
pac
##idel
tract
##amm
##eps
##issime
matrim
Iohann
##uch
libert
##ure
Mo
il
Lang
Ecclesia
Frid
luc
senator
praesertim
##isch
Lucius
interf
##lor
##sequ
pon
magna
suis
van
occup
##60
##iunt
vita
regno
Claud
oppido
alii
?
##itam
Petrus
imm
produc
suae
Liber
##90
ministrorum
##ical
##idum
equ
Francogallice
Bor
##atium
##ulc
2000
##fer
##exic
plan
Gall
memor
##ese
40
diss
##ge
exst
camp
##omet
1982
##elius
unus
##itia
##echn
sent
Dom
Berol
Sin
##ardin
##lae
##si
Phil
Maria
1981
##ly
pal
Lac
Pic
sens
Itaque
Americae
territor
1978
Sa
Frider
terrae
Bas
necess
2014
Londin
##lem
litteris
XX
Pro
effic
##men
tur
##ber
cred
vitae
pertinet
1992
Pop
Praes
Port
##ala
his
Cas
##ismus
2001
Paul
diff
mox
iuris
duod
muli
##issimum
ang
##ida
ww
182
Ev
www
cens
iudic
Fr
##rorum
magist
fre
Om
septem
dir
##non
flor
perm
compl
pecun
Deinde
##ts
Latina
33
cast
##rah
Flav
civitas
Hic
32
XI
##10
Em
##inqu
omnia
Helv
##ortus
Super
libri
##enit
variis
Ibi
##eh
##ou
##uram
ass
##tura
Praeterea
Gl
##ipp
##osa
Pom
##utis
eos
vitam
temporis
nominatus
vocab
capit
##inibus
Pon
Prop
Vind
##ild
##enum
Op
##ellum
fit
regnum
uti
##cribit
##iol
##isit
Cic
narr
##ionum
phys
Fab
cath
linguis
##emat
port
nesc
Ioannis
Num
##ariorum
Hod
Ord
2003
Temp
forma
1977
pet
##80
##ele
##ock
##umnus
##evis
Dac
Romana
2002
Mil
nihil
geograph
Esperant
pellicula
##ites
##anda
varia
Urbs
##ulp
##idae
##ique
Der
Mun
50
##ecto
inveni
investig
Nova
1986
##mann
frequ
##ardo
Ali
##eres
##antibus
praefecturae
##ner
Joh
2015
Ver
postquam
##andem
terra
##utt
Sen
intra
Cali
##itione
centes
intell
versatis
##orus
ergo
flumen
civitates
Av
##istae
1988
amp
priv
Catholicae
are
##ectiv
test
##els
45
Se
##endis
Instit
Germania
Bal
Be
Bl
cat
35
sym
##egor
##epta
##au
##iei
eis
1994
pauc
optim
hominibus
##riam
1998
Oce
praeb
trium
divers
nuncup
Quin
eg
astronomis
commerc
##nis
37
Si
##aeae
magister
Theodisce
minist
militum
aev
##91
1974
##entius
Bat
Iosephus
fug
##inas
##atura
provinciae
##idi
Gaius
##etum
psych
##mium
usu
1972
artific
magis
advers
tribus
36
celebr
##ellae
Nation
scripta
Steph
##ille
imperatoris
VI
Crim
Australi
Historia
linguam
mythistor
Carolo
##ativa
Bon
interp
locum
regio
Conc
##ensium
annorum
##iep
Paris
divulg
victor
peritus
Anti
titulo
versus
studebat
##owell
comment
##imis
##tore
1987
##ariam
##urum
fic
##onice
magni
me
1993
Titus
func
cet
##ila
##vis
Mel
##antia
serm
##graph
nova
##athemat
nominis
##mum
Pater
Sim
matrimonium
##ogra
prov
historia
Franciscus
Ro
Flor
Tib
##abantur
extr
incip
locus
milia
##nae
poeta
38
Andre
34
##uae
Civitatis
##omi
aestim
numerus
alt
1976
##ientia
##rio
Bern
Iacob
regionis
##pha
ret
##iliae
Ies
Ox
Belg
appar
struc
##obus
bi
mach
Eboraci
Qui
haud
Caesar
Georgius
##osp
##andam
##emper
No
Cass
##uri
disp
##16
1996
inscrip
Civitatibus
##omar
##raes
##utio
##itudo
papa
supp
Graeca
Rei
Postea
pol
Iudae
meruit
##ismi
aud
ver
America
sor
Suec
##abil
##errim
##itionis
Ul
rest
##allis
bene
##iepiscop
##aro
##ides
Turc
episcopus
dig
##aliter
Gulielmus
magistr
abb
##edic
numquam
cent
##idam
1983
necnon
##tionibus
Mass
##ema
43
Henricus
Dioecesis
simul
Sol
aer
doctr
cit
fec
San
##lud
usus
j
47
##oro
##rit
Ra
1946
##va
arc
pers
Regnum
novum
Americanus
significat
litterarum
Ut
##zion
sti
medio
instrum
##rog
Universitatis
aust
pater
mot
##ensibus
rege
Diction
44
##ultus
1975
##opolis
1997
Vindob
mal
Aem
Saxoniae
##ulti
verba
Londinii
Foederatis
valde
##aph
Ha
##ices
Eng
##onica
Fuit
##ek
##uk
##red
finem
42
##92
Europa
##ott
mundi
antiqua
Universitas
##eries
Saec
obiit
pp
ecclesiae
##greg
##ilibus
epist
universitatis
chili
##raesent
##atoris
##eperunt
Sunt
Iacobus
##alog
programm
##ucle
2017
##antium
comput
##ophys
##urs
Trans
Hodie
##idarum
Palomar
##ibit
eth
Astr
moder
Bellum
arb
orn
1985
silv
don
##yt
##atos
professor
##omm
success
cae
##ologus
sin
tunc
##za
##by
adiuv
clar
nescimus
##rex
##elium
##eptus
fieri
mathemat
##ition
100
tribun
Stud
genera
##kh
##arm
##hib
Urb
exempli
##ela
Democrat
chem
##tid
41
##form
Boh
Iam
paene
##ars
Ric
##inorum
cresc
secunda
sint
generalis
Francia
##ack
##etus
##eretur
##odo
##etud
domus
##ba
##acc
##emo
##ttp
##onym
##umen
televis
1973
##istica
Sab
##ht
+
observ
propriet
imperatore
mans
##opoli
Veneti
##ederland
Inferioris
insulae
1984
1995
Livius
quaest
##nes
ir
Michael
religios
Bello
filia
secret
##issa
line
##lop
Universitate
##fico
Hier
della
belli
populi
Nederland
##gard
accip
##30
adhibit
##bergae
nisi
exper
##olf
Imperium
##yg
Exemp
situs
consilio
lus
##ington
scaen
Met
##ressus
det
##obard
motus
Mariae
##97
fut
Comp
adf
elem
##itudine
##ello
statu
Rec
bas
aper
##oma
agric
celeb
##ger
perc
vero
Sanctae
Vi
ti
##zionario
pond
##yst
Canad
Victor
temporibus
##enus
ren
opin
1969
archit
musica
exeunte
regionibus
##aut
1945
Bras
duas
host
politicus
Lusit
conserv
##uro
##atas
##ider
Atl
Brun
Dacor
mortua
##alter
Thomas
Alp
##embri
Sm
nup
Crimaeae
imperium
Han
Rep
Ip
Nam
##etica
explor
Fer
communis
nullis
##agn
imprim
Foederalis
##dic
##uto
von
fung
##78
Hol
iter
monaster
48
Div
dam
temper
##12
##iat
##angu
##erto
Kon
intr
##enique
constat
##ste
Sub
saep
Langobard
##ares
perv
##atore
imperii
##anos
verbum
km
##uxit
1933
insign
Quamquam
Nicola
Dizionario
##ationi
Boruss
viginti
frequent
##orf
IS
illust
##sa
##ymp
ant
Heidel
habetur
##age
1950
Conf
period
duos
##reti
Berolini
appellata
##ectis
Mons
sust
indust
cell
laud
##95
##rob
Aet
homo
##ografico
studuit
pisc
Ludovicus
pass
##umentum
60
Sep
separ
##ve
##eno
##anta
##endas
regni
##14
##tra
Cro
doctor
ads
suas
praefectus
##ava
regem
Tar
aug
##elle
Vis
West
##roc
##lu
ib
contr
aliquando
##esi
Dan
fav
civitatibus
##PD
##nul
amb
ign
nulla
Astrophys
##antem
son
##achus
Laur
suffrag
##amb
parlam
Romanis
condidit
##93
##chi
Char
Virg
alias
##entio
vico
Str
lim
Afric
expedit
##98
46
##onius
##trion
ov
178
decem
quarum
App
1970
musicae
##omb
Hib
veh
##94
##eus
##los
##mar
Ast
milites
occidentali
Universitatem
Core
##yz
deduc
omnino
manu
##itiones
consist
1971
Oper
##entorum
##tas
mol
Mund
##inceps
Antiqu
Conv
“
##ence
Municip
##hr
##igr
Iov
endem
techn
repraesent
##tionum
medic
secundo
##ho
Edu
##iores
##osto
magnum
##eck
nulli
maximi
##acum
Camb
##70
por
##11
##ley
VII
fis
le
Postquam
archiepiscop
##ectionem
regiones
Jo
##ology
Vide
typ
##licae
Cent
Martin
systema
Astrophysicum
hor
##atom
canc
episcopalis
##elis
istor
frater
Anglica
##inos
Gro
##actus
John
David
Augusto
##let
##atica
fest
Id
##ostol
foeder
mo
ille
comitatus
be
Bohem
##40
Calif
peric
##gardiae
convers
##ook
Hor
mediae
partibus
peregr
##iore
accus
##ibliotheca
Ta
prox
vera
dicit
multos
interpret
Bur
aliae
antea
dixit
##ionalis
artis
Gregor
##ardi
quasi
##alid
nota
filiam
##15
rect
Romam
construc
##BN
operis
##uten
syn
dall
diurn
##itium
alios
Napoli
illius
Os
Ser
Soci
filium
geografico
Heidelbergae
##atiae
hunc
##iuntur
fig
duce
Africa
Paulus
dis
1949
##ologica
Ass
Nav
##ellus
vici
Fanum
Pompe
explic
pleb
##elic
invenitur
orbis
Serv
primis
Mediol
Ant
Pot
Benedic
Novae
altera
##tavit
##13
##usp
via
redd
52
praetor
saeculum
##18
##ute
poet
##endae
verbis
##96
##atic
manus
Pictav
##ll
##sted
fundam
##ocr
Ros
ipsa
vicit
decimo
Anglia
arm
illa
##75
Sacco
sacco
Mc
ger
##exicon
##ca
corpus
honorem
##iebat
volunt
##aginta
supra
vicus
Constantin
##una
posteri
Doc
Ham
Septem
##vi
##our
lap
ISBN
Romaniae
composto
##erem
Mes
aur
venit
declar
Hispania
##ham
Abate
fisico
uxorem
Regni
Primum
partic
istorico
partim
transl
ineunte
Praemium
Lig
human
cardin
mand
Fa
Del
populo
Saeculo
Gi
Press
nucle
dei
Paulo
libros
Sum
Tra
Prot
carc
aquae
mortuo
culturae
##lov
Hum
pros
Alexander
##uctus
Stutt
Nob
Columb
Antonius
Terr
dict
igno
septim
55
societatis
dign
##las
simplic
Me
##edia
urbes
modern
Mur
##idium
1930
Ob
Bav
Gulielmo
historiae
Arc
##eribus
socialis
##ain
##onii
1953
satis
Romano
cultur
intelleg
##anov
##atius
carmen
numero
utuntur
Francicum
##inet
noc
##stris
Petri
conscrip
Nationalis
##ör
##cyc
dev
##ianam
confirm
appellatus
Angliae
##antis
Argent
munere
##erae
idem
duobus
civitate
##tica
demon
sacerd
##atoribus
Sov
1918
aetate
inferi
pri
viri
her
superfic
##17
aetatis
Dacoroman
##fac
##uer
CD
Pacific
##isque
1968
Apud
##rud
speci
potuit
Californ
Ba
##amus
opere
##enia
!
53
##issimi
cogit
gessit
Kar
Praec
ibidem
administ
Hispaniae
AA
Hungar
subs
Wh
##erson
##uisse
titulus
fluv
illo
regionem
Aev
##ismum
scriptum
##ista
mansit
nation
profess
70
##orth
theor
facult
postul
##ismo
Tab
Plut
Te
accur
Dei
Burg
numerum
##alc
##ten
##ensimo
undev
uno
##ks
##ymn
Ing
Des
Rad
cup
Angel
Cantab
interdum
##ioni
librum
##arent
certam
##af
##ogle
Tex
extra
milli
primi
Sanctus
imprimis
politicarum
mens
Had
Parlam
archae
potius
Cel
##burgi
##ogn
SPD
Ste
Rhod
mundanum
adhibetur
sur
1952
Francice
designatione
##ment
Mex
vest
pertinent
54
##ya
##ertit
1960
University
##ker
Arn
http
Soviet
scholam
gramm
poë
novam
170
hist
cinem
Academiae
##als
##egit
perd
##ule
##itiv
1951
officium
##ld
##aeus
##esia
##ulta
Capit
Gre
##itati
exercitus
historica
##tos
##onte
alla
nobis
Orientalis
##aem
##arn
Tro
dub
##sk
##icit
##oduc
theat
decenn
linguarum
##ama
##turae
Islam
##99
pertinuit
##bol
Societas
comprehendit
##lium
memb
susc
consulatum
bis
##iderunt
consec
Civitates
describ
Long
cong
perp
65
Litter
toto
##onensis
So
alumnus
58
80
nat
Batav
Atlant
academ
libris
Eius
vinc
Houten
habere
Castrum
##abor
##itata
divid
fabula
Consoci
Flavius
##ips
##sal
175
initio
##throp
##issimis
##gar
hom
expugn
Romanum
Romanorum
##ota
Nig
top
Internation
##her
eadem
##itudinis
internation
##25
Buc
Edw
Mer
Wil
navig
##iograph
laboravit
##lio
arte
##enes
##igst
##olph
Tor
sat
Nicol
Hibern
##atograph
persona
90
1920
evolu
##ologiam
incolae
praeterea
Asia
Dion
Mont
dial
##itz
Quo
etc
Nihil
x
Silv
duae
Eodem
edita
iussit
textus
Nationum
##rup
rur
Maxim
Insula
centesimae
itin
simil
Maur
nunti
Ped
locis
Graeco
##ilus
Fre
composuit
##ectio
fabric
primam
American
##iebus
Stuttgardiae
##67
##arg
##urp
1947
inde
Ger
vix
VIII
Caput
Konigst
On
Konigstulae
octo
##ami
Ipse
munus
##68
##ade
Tim
diffic
##zo
rub
1919
unde
orientali
Por
Tol
##enter
verbo
plantarum
Naz
##itavit
ordinis
consilium
Verb
fines
civium
##onam
all
subi
ipsum
matur
denique
Fridericus
##enam
Iuda
puer
Mense
decret
multas
##opolitana
Leon
uxor
quant
##occ
compar
Loc
##inium
Robertus
Pis
exemplum
##ume
faci
##mae
##tag
scholae
interreti
Septentrionalis
##acus
Not
1948
##inensis
Caroli
##eng
All
Iohannes
Mult
##uus
##ring
cand
subst
##istarum
corporis
1955
usitate
civitatem
##tores
Scienti
##ón
##uni
Ov
Sex
##ellis
Henrico
Adm
leges
multae
##23
##enas
Filius
Vallis
comprehend
150
##enius
Neue
Sae
nig
##undus
spir
compon
Langobardia
##wa
”
Lun
Berg
##laus
pres
usum
posse
ecclesiast
damn
##ood
##erio
##erti
Bud
##ulari
1962
gradus
conditum
continet
##ebra
##etam
##ido
##pect
1964
Ante
Quintus
chiliomet
mythologia
##orp
##ras
Bro
##isprud
Francisco
##ish
##olem
rip
bore
Pauly
energ
multum
denuo
Publius
##gio
##aliae
aqua
inveniuntur
Lug
1957
##22
##che
##stin
asc
##aturae
domum
excog
philosophiae
carmina
Gualter
mir
##byter
grex
##abilis
distinc
ratione
cinematograph
##74
ipso
##aretur
##atoria
successor
Societatis
pulch
63
Sev
##arios
##itiae
enum
studium
##ilb
operibus
##we
Ren
societas
155
Agost
tandem
é
##uis
trig
Cicero
senatus
##ugh
##trix
174
Arist
Abb
##itorum
quodam
##aco
##ipl
Pel
##eland
mare
edidit
ide
##stein
Plin
viol
##utae
Ferd
sump
##umenta
Museum
##76
##yri
##icem
##ustod
Class
##issimae
’
##orld
tri
imperio
princeps
Sta
orta
terram
vocatur
Hom
Bulg
Fort
superior
poem
coniung
Factionis
##73
1966
late
minor
Ferdin
disput
##ean
Form
egit
Dietae
cathol
Nicolaus
Att
Pag
##ermin
Iust
##yb
##lish
Montis
##vens
Fam
##85
Us
Don
Ern
##onibus
diebus
inclus
rationem
Democraticae
##ai
computat
Sar
Goth
Iesu
comit
##isticae
##itore
demonstr
Christoph
##lag
##urr
Ot
##osis
##urus
Byz
##eburg
iura
sensu
##cribitur
Francicus
##ater
##eric
Prima
##etia
Agostini
##ster
1938
series
totius
invenit
iurisprud
##72
agricult
##hibit
variet
institu
ic
##esta
magnam
pauper
##VV
diu
##uitur
1965
Google
##ús
Papa
hort
##uam
Rev
rap
Archid
##unxit
Frat
punc
facit
Germanicus
Var
anti
AAVV
Iulius
essent
fluminis
Americana
Vindobonae
Dio
1954
Plur
Guine
ordine
adeptus
##iri
organ
totum
Latinum
Augustus
politica
scientiae
administer
##da
Herm
mores
Septemtrion
Eli
1961
2018
reform
schola
duodecim
electron
##ze
##eat
dol
Eric
##cyclop
consili
particip
plures
500
For
1958
Prag
foli
##arb
75
eas
Galli
Saint
suffectus
##21
##24
Vit
Palae
Merc
editor
formam
solent
Aegypti
##ectae
dedic
sangu
»
Gab
prol
##ionali
notus
distric
Mart
Hanno
serie
Austri
Latino
System
orientem
##abeth
Roma
Verg
novae
Primus
distrib
reliquit
120
##andus
##anice
patre
paulo
refer
creavit
negoti
putatur
«
Sig
XVI
1934
Miss
Reli
Maced
nuper
##eria
Alc
##acter
##annis
##ianis
1967
data
Olymp
160
CDU
XII
socius
Administer
##ontes
mundo
aliorum
##sv
1936
aevo
ambo
neur
unam
Michae
Mod
frag
vident
publicam
##aei
Vasc
sap
Thoma
omnis
Praeses
Britanniarum
64
##elod
Cod
Mare
peti
sese
atting
colloc
editio
##lad
Hab
Pyr
##atorem
creata
##orium
##ramma
consoci
Plat
capite
Socialis
indig
Cantabrig
##hinc
##ling
regim
##anensis
defend
historiam
Ach
ampl
narrat
cf
##imas
infra
quinqu
librorum
##arr
##anas
Vas
Lexicon
cancell
1940
dissim
ferriv
Catholica
##63
Du
##esper
loci
Magni
cathed
maximum
recenti
Rub
Medio
Willi
miles
Antonio
hominis
IX
##onio
Tusc
communic
Occidentalis
##19
##64
Eo
1944
calc
Africae
Kal
soli
summ
trop
facere
missus
Vet
Lips
insulam
origine
mm
orb
nationalis
##acta
##erny
##heim
scientia
aë
1931
Wolf
with
##averat
utitur
##anth
##istis
ortus
refert
Cornelius
societate
##haus
##inia
165
Bad
inst
Lowell
1959
crit
facto
genere
commemor
##ono
alb
dex
signum
scriptores
##ko
##sis
##stad
Iulio
cuiusdam
oeconomiae
Monte
occidentem
iurisprudentiae
1963
##ymph
1929
inventa
meridiem
magistrat
##fam
Tell
fide
##fi
##atii
Tac
Norm
##liv
##oviae
Dictionary
##gen
Ott
norm
Gener
##rus
fasc
quidam
##ij
##utem
154
has
obtin
habitant
principalis
##iva
vex
radi
cultura
##34
status
Pe
Tit
##endos
metra
##ectione
##tif
Lex
tim
##avisse
Satur
Scrip
Collegium
##aniz
##opat
Hon
suos
natum
Insulae
##uz
Eug
cam
more
##ernykh
Chernykh
##vir
74
Mosc
##archus
itaque
nupsit
Hispanica
##ais
##par
Terra
Schola
maximus
spatium
##ork
##rica
Rem
1939
##iebant
nullae
Agri
condic
internationalis
##uic
clav
Multi
##ectorum
antiquae
##35
##ski
Hannover
##62
##ga
##aeo
Od
1937
1956
Urbe
Graecis
antiquis
Pt
##fred
Cong
respond
cepit
videntur
##ose
##eptum
mass
sola
Circa
differ
##tig
od
Inv
Harv
Dionys
tamquam
fecerunt
linguas
similis
progress
Novum
##esse
##onus
nun
lign
Regio
maris
genuit
patris
Oec
##eptor
depos
tertio
quaedam
85
##quis
##esiae
##ologi
rust
inform
successit
libertatem
philosophus
We
Corp
Dani
Claudius
Septentrionali
##opt
hi
##enburg
filii
custod
rh
##stedts
Nicolao
litteras
##not
wh
##assi
Fin
vend
Natur
modum
Carant
Norstedts
##71
##ump
##idio
fuerat
##uere
consc
##inius
##antiae
##super
##ymnas
##ulares
parva
##ialibus
Constit
discrim
pep
##itatu
1935
Hadri
gentes
##pa
##so
##aev
##eptis
sexu
ath
clim
ordinarius
septentrionali
##olo
##tiae
commut
William
consistit
##acearum
divisa
officio
proelio
}
##ome
##eter
emp
1932
agnosc
civitatum
##32
##andis
##ische
iacet
Aequ
Barb
mediaev
##38
Nunc
litor
classis
Philippus
##ash
##eae
68
##over
obl
faut
##itania
structur
##lib
##rich
##thod
##alitas
Civitas
gestarum
triginta
occidentalis
modi
Volume
##arem
deriv
unius
tertia
potestatem
##lev
##iciis
##opter
activ
Romanos
##ilem
##ecies
2019
tota
novem
docuit
##alitatis
##iro
Lab
Rod
##essus
##tarum
Chron
Octav
Britannia
exercitum
bibliothec
##olv
agit
hosp
##itibus
foedus
##epos
Men
ben
dur
ori
quid
Atheni
Publicae
Britannica
Rich
iure
gradum
Exempli
vicarius
praesidis
##69
##fici
liqu
cives
Ernest
praeside
interfuit
Bibliotheca
##mer
##inth
Hal
##ralia
procons
##nam
##ogen
164
Tel
##opere
pron
Public
centum
natura
terris
chiliometra
vixit
rursus
Harvard
Cornelio
naturalis
Via
hyd
##iorem
##overs
ampli
mensis
orientalis
##opo
158
Lem
Mad
Orig
Tamen
Alumnus
Stephanus
##ings
Acc
Matth
magno
praest
nos
Arag
plac
##thodox
Astur
Domus
Disc
Lugd
Homin
Lusice
##Book
##iret
Aliqu
Camer
incipit
rationes
presbyter
Archidioecesis
300
Les
##ophon
Vers
nerv
##atarum
fidem
tabula
anthrop
universitatem
##28
##aw
##eto
##nia
vul
Slov
##oniensis
##atrix
Vita
Media
lacus
templum
specierum
##stro
##andae
##ellam
orbe
##iterran
gregis
Andreas
Valerius
mis
colon
solet
Minister
Australis
84
##ques
Ari
##ensus
Vill
fran
cereb
eBook
filio
##61
##emus
##othe
Lov
Anna
ethn
term
Agripp
Byzant
Francica
Italicus
##abus
ist
Brunsv
possess
loquuntur
##79
##ette
elig
tria
oppidi
saecula
triumph
Christian
##zi
##ois
95
deg
Mess
##issent
consu
copiis
possit
necatus
architect
militibus
Wat
1941
salt
##itores
Riv
Tri
Ves
##elles
##ür
fon
Opera
Comitatus
ha
##osol
##ulla
Mah
Voc
log
##opl
##amin
Let
##anica
##arias
Schw
Aureli
Maximili
constituta
##iph
##unic
Asiae
Pictaviensi
##eur
##esch
Dal
omnem
philosophia
Opp
conl
Primo
Villa
Praecip
cognosc
maiores
electric
tribunus
archiepiscopus
dat
char
Ptolem
studia
Hae
##ographia
praedic
Collegii
societatem
##ick
##ien
##oec
Fur
cod
XIII
##ulm
by
dia
Rein
##issimo
factae
studios
##escu
Imp
Clar
litus
pictor
##uh
##enarum
monte
Anatom
enumer
invent
terras
metropolitana
licet
Alexandri
Massachus
Philosoph
sententia
##edi
1943
##osolym
World
comes
multo
##33
reb
##umque
Samo
##ations
Nobeli
Latinae
continu
##osi
hiem
Magna
accurate
da
Lyc
that
##enberg
actis
summa
includ
undevic
##26
##ters
Cer
1928
Aevo
Cult
Gran
Hipp
foss
Imperio
religionis
##ics
118
mig
##idius
1866
ludi
artic
constr
praeclar
88
##luit
168
Aut
Rex
sax
sig
inim
Smith
Carantonis
Sem
1902
liberos
##aca
##nov
Cub
cib
appellatum
##ce
##igh
Ful
##ectam
dipl
Marco
sculp
Pontific
hodierna
Hierosolym
##ago
##ors
Pla
Test
candid
Academia
Germanica
Mas
vim
pugna
totam
adversus
magistratu
um
lic
##inger
##ontem
Book
##erna
Brix
Terrae
##uria
##ative
Petro
##29
##án
##ets
litterae
Germanice
##FA
numm
##entina
Aed
adul
Mexic
insulis
disciplin
Cert
Gnae
##ublica
##erentur
Europaeae
multiplic
natu
Pauli
duabus
History
Maximus
auxilium
##lan
78
Kle
Rud
Proc
##itarum
fiunt
testim
medicam
secretarius
mac
Mort
praem
Linguae
valetud
Seb
Manu
Magnus
operum
statum
grammat
Encyclop
hodiernae
400
Armen
Exter
statim
circulo
##27
##ada
##eles
Neap
firm
##aculum
dicta
usurp
sustin
impress
##ef
##ink
Ir
Iv
vert
duodev
numeri
1942
quot
frust
Francorum
##amo
Lar
##ricis
Vatic
Campania
##uel
##odum
Pan
cec
Dist
Iacobi
destin
filios
regina
peregrin
##36
##ades
montes
restit
uxoris
classific
##31
##vae
##Nomi
##unda
Hit
Slav
morb
vesc
Episcop
Henrici
Italiam
Propter
##37
Hug
Iuv
Lap
dil
Bucar
honor
argent
factio
##alitatem
Caesare
Ludovici
originem
magnopere
geographica
##osm
##ures
##naire
fragm
extrem
Iosepho
Inde
##ativum
animi
domest
symbol
imperatorem
ty
##quir
Amb
##atiam
orbem
exercitu
generale
##enb
##idus
##oeder
Dies
humana
circuli
Una
##libus
frig
necesse
Lic
Mir
breviter
scriptis
discipulus
Christianae
insp
Hebra
Erford
medicus
vocabulum
do
##ilud
Bab
##aldus
##andas
Birm
renov
comoed
Historiae
##eda
To
rot
##aribus
Apostol
Ottoman
supplic
Caesaris
Francogall
##hem
##onit
bot
rom
##utsch
patri
poter
formae
Georgii
musicam
titulum
##exus
##umus
lex
##iliam
##lorum
Scot
pluv
animo
preti
perpet
oriente
continent
ecclesiam
nominatur
territorium
##ος
Arm
##ulare
##ativae
postr
copiae
pontific
XIX
##aniam
##iliter
integ
ostend
Antioch
provinciam
Cop
carb
rite
longe
marit
verbi
##atorium
autonom
Eduardus
auctores
##alo
Bos
artem
Napole
Russia
##rata
Bap
Evang
Saepe
##oda
##ectu
Dum
invas
papae
Iacobo
metall
##ja
##bur
##ames
Aene
Opus
Vinc
obsc
Provinc
express
Anderson
manuscrip
constituit
Sor
Tir
Tul
Sant
Omnes
Regno
Cathar
captiv
Anglicus
factionem
##jo
##eau
san
viam
verum
Nihilo
coloni
##erta
##port
fur
1813
Prog
prosper
Graeciae
cardinalis
##tioni
illum
patron
Christum
militaris
##der
Bib
bin
##atorii
medium
praecl
fabulae
Ludovico
##usa
His
Scip
urbi
Cicer
virid
Graeci
quarto
Consilium
proprietates
##eced
Salv
area
eleg
felic
ortum
solis
menses
Londini
Numerus
conatus
habitat
distingu
Germanici
##me
##wn
Pul
Wal
Elis
crim
stir
Bibli
Memor
nonnul
quadrag
1914
1923
Belli
modis
controvers
##cra
##erata
Caec
from
##ialium
increm
##entionem
##feld
##ules
Arth
Cond
trag
Groen
insequ
##sen
asp
obi
1924
1925
Hind
Trin
tran
earum
naves
Lo
Bri
Stat
datum
Tacitus
composita
Hi
##elia
glob
hered
primae
personae
magistratus
editum
corpore
Australia
Ke
##ance
cad
Calv
Clem
Fest
Novo
Thur
impos
magnae
Lipsiae
iuribus
##cl
##etis
ini
1922
Ergo
illis
monach
initium
exemplar
nominata
##di
ae
##osum
##vers
adeo
prist
Bucarest
speciebus
Dictionnaire
##66
##osae
Alia
omni
##ried
dram
past
Sedes
illud
verborum
##ci
##kin
##erii
ingen
voluit
##dh
##do
##gi
Bus
Sib
Brux
novas
abhinc
compositor
##asch
Nat
##aedia
##raverunt
Eph
pen
##entii
virt
Exerc
Orbis
longa
exprim
recens
##ectiones
##77
##yer
##inska
congr
facti
##utionem
Portus
adiunc
Cassius
exempla
patriam
proclam
##sh
Na
##anif
##issus
##ument
Epist
manet
occas
civili
ipsius
antiqui
consuetud
##adis
##omat
Anc
##essum
##icius
Dioc
Gehr
Marci
##ulerunt
Municipium
##ave
meli
ingeni
patriae
Francicae
potestate
##val
Dor
Ruf
lev
##vensk
musc
octav
uxore
imagines
animalium
##39
##rh
Flum
Land
Iunio
iurum
quinto
metrorum
regnante
##bok
39
Hist
Serb
caer
solv
Visig
conduc
Georgio
Graecia
naturae
##tm
##unn
Vel
mix
1926
Pars
Vall
phot
India
veris
volum
democrat
archaeolog
##ws
98
##iente
Vest
suad
##ilborg
Apoll
Ducatus
Edwardo
Europaea
Christiani
##ren
Etr
vac
Deus
vult
ludus
novus
varias
##ectionis
Oeconom
Jac
Lam
cursu
Bowell
elementa
Dam
Taur
coron
magnus
vestig
effectus
promotus
Europaeum
pend
##onicae
Offic
sexto
svensk
introduc
1927
##xerunt
legem
extern
ordbok
apparet
Mediterran
##otum
ars
##ericus
Catal
notio
exempl
Vilborg
propria
Visigoth
latinska
ministro
##aet
##elph
Sur
propinqu
compositum
##til
Dur
cul
##abiles
##erique
praet
Gehrels
##uci
##rice
Tunc
atom
Helvet
exstinc
Austriae
Francisci
ax
##arae
##ivis
therm
praebet
ponderis
##adi
##itos
##liam
Red
did
meth
misit
prius
defens
congreg
quoniam
Carolina
Scientiarum
##ase
Bac
##tifex
Germ
nati
novo
##illelm
Polyn
Nonnul
alterum
saepius
94
te
##andos
Alii
Suet
lege
Circuli
Russiae
frustra
praesid
theoria
##rii
##line
##olia
Cle
herb
donec
insulas
respons
Luneburg
milliones
Atr
Rog
Virid
exsist
maiorem
Christiana
Institutum
Consociationis
##aure
##iturg
Mari
##ellarum
Az
Tak
##ralem
legit
descri
urbibus
##elo
##asis
Cre
Sid
XIV
Norv
Ucra
desc
apostol
capitalis
##ira
tu
##chen
Carm
anter
Gallic
feminae
nominibus
propositum
##oto
Dar
somn
arbit
English
auctore
proconsul
##orph
teg
iust
seri
vere
brevi
debet
relic
cursum
rediit
saltem
ordinem
##är
##ün
##imb
Meg
##zione
Step
affirm
oritur
Ioannem
relinqu
49
voce
Martio
patric
aliarum
instituta
scientific
magistratum
dé
##irot
Lep
Scoti
Usque
Sebast
termin
reperta
##itionibus
fons
Psych
paenins
##dom
##item
##ucis
##undi
Plan
Lacus
##rep
Tu
##aldi
lig
ult
Trid
Navar
origin
sancti
recessit
##way
Eg
##mila
Gar
illi
vast
Alter
Maior
gubernator
##DP
1921
recus
Sancto
Thuring
circumi
Bavariae
praecipua
monasterium
Ea
##agog
Tam
Herb
Praef
signa
oppida
##den
##odi
##ote
##erap
##revi
##uerat
Alfred
Ianuario
aedificia
Gus
Mic
##ometr
Bore
ducis
Island
fratres
animalia
Theodisca
##aeum
##arus
##oper
1917
deus
Iulia
ident
Romania
faciunt
tractat
##icia
##ugur
aeg
##strae
Mand
##hausen
autoc
##anovich
prohib
Graecae
exercit
Gulielmi
Britanniae
##ps
##fica
##muth
Isa
Sil
dulc
fert
vall
Frank
emend
artium
litore
storia
tradition
##any
##imam
Auc
Cab
Mox
off
##iales
Mark
bella
similes
##ES
##exu
##ull
ru
Gior
Herc
astr
mamm
Plinius
floruit
Ricardus
saeculis
##dae
##eget
##oleo
hae
##ertum
novi
##ienses
legis
ultimum
Consilii
pugnavit
51
PD
cm
Gaz
Alph
phon
promov
australi
mythistoria
66
Basil
##abiliter
Latinam
tempora
antequam
dicuntur
coeperunt
##és
mons
susp
Domini
Gubern
portus
htm
Psal
Austria
Ordinis
Parlamentum
##aker
Sav
inop
finit
lucem
greges
coactus
spectat
communia
educatus
Stepanovich
##ticae
Ruth
patet
castra
fontes
machin
Imperator
##ittà
oce
hero
servit
Aristot
##erp
##olam
Ius
tra
##esaur
##ittit
1913
ipsi
ordo
Sinus
dicunt
petivit
populus
amplific
nominavit
saepissime
##rov
Pu
Ner
##ativo
##ecimo
coqu
Oxford
putant
subfam
vivunt
Russice
mercatus
descripta
É
##entu
130
Eth
Shak
##ensimi
consp
Libert
Pyrenae
sermone
Terrarum
Plutarchus
septentrionalis
##agi
God
1905
Bost
cael
Milano
maximam
montibus
quotannis
Sat
Carib
Valle
Flumen
Norveg
Arabice
hominem
##thag
fruc
##aturam
morte
novis
pacis
##ioribus
publicis
rog
Mill
##abulum
Buddh
modus
navis
agitur
alio
recip
vetus
Hitler
ultima
humanis
incolas
56
##ippe
##olum
Bah
Cyp
Mos
Sent
Associ
aliter
copias
aedificium
Cf
##enna
##icium
##ommod
##ricum
Mesa
Prof
Schm
anal
Demet
causid
nondum
Orthodox
##ral
##rea
##uras
Def
Pin
mech
solus
possid
iuvenis
descripsit
##ectig
1912
calid
quadam
colonia
Germaniam
Nobelianum
##use
ur
##epto
les
##illum
migr
capta
coniunxit
religione
##zer
##undis
obsid
visit
##met
Mol
Vig
err
##onici
Maio
plene
Zeland
ignoto
sinist
insularum
##out
##idas
##urgi
nit
##edere
Admin
gradu
pacem
nullos
sollem
amplius
fabulam
##ensa
Contra
systemate
à
Hir
gem
tut
##anifest
describit
##reg
##orae
vener
##eruntur
Oceano
procur
castellum
Christianus
##aga
69
##ulini
Cret
Stam
##ularem
cursus
suorum
##ologicae
aliquot
praepos
Parisiis
conditor
Meridionalis
##ru
##zz
Mi
1911
grat
Herod
Margar
posset
senatu
eruditus
fontibus
Elisabeth
quibusdam
##ilig
##osus
1900
##ativus
Iovis
duces
Factio
plebis
pronunti
religionem
##att
##alli
Aer
sta
1760
Bian
coniur
accessit
##ovic
Ram
##icula
Hann
Rhen
Artic
##ularium
quotid
tenuit
praemium
transiit
115
Ars
reges
repet
sepulc
Dominus
##ww
57
##turam
1815
etsi
paul
vill
##onicus
facile
Stationem
principio
universitas
dea
mur
##omodo
Penn
pagi
exhib
Spring
consult
##seud
nub
sel
huic
March
evang
Daniel
Unione
Protest
affectus
habentur
aedificata
##agna
145
Dev
XXX
gas
##ingae
1916
pert
sect
##enerunt
erecta
libera
mundum
mundano
Monaster
National
Confoeder
Do
Sup
mic
##erint
domo
subd
coniug
Europam
legibus
conditus
u
##uls
##plex
##tuum
124
Adam
regi
regum
amicus
collig
externis
sententi
statutum
substanti
Massachuset
##ages
oss
Domit
Ultim
Urbis
città
Latini
Valent
dictus
mentis
scriptus
victoriam
##elii
Bra
cav
Gott
diei
agunt
celer
effig
morbo
transm
Roberto
Sicilia
Hieronym
pluribus
Mediolani
Orientali
meridiana
Britannicus
UN
##omus
125
Kir
Leo
York
##imenta
Canada
posita
auxilio
organiz
##Cf
##uj
##ado
##uan
##unum
Wall
syll
turb
copia
demum
nihilo
septimo
Gualterio
##eis
##emis
##inio
Pun
Mundi
expos
England
Scholae
proprium
publicum
dioecesis
foederalis
##noc
##oem
##www
Li
Bir
Lev
hyp
##ordin
situ
admir
colum
Italice
Iohannis
confecta
Vasington
Kr
Bol
art
##acula
##epend
Amst
Vand
mili
abdic
recte
persec
rector
doctrina
inventum
##abo
##anni
fal
fun
iug
##ialem
##ities
Ferr
Ordo
glor
##onicum
Brand
actor
excell
patrem
incepit
popularis
programmatis
ecclesiastica
##ía
##ovia
Sod
Theb
vect
##anensi
Polit
chron
Aprili
Robert
mortis
poetae
seriei
possint
Franciam
Hungariae
Ah
##exit
Nord
pago
trah
##opolim
retin
adulesc
secundus
scientiam
pelliculis
societates
International
Ze
ox
##idea
##lina
##erium
1810
1908
Soph
cord
Codex
accep
sacra
partis
suprem
Antonii
consilii
diurnarius
##uno
##aliz
##eniae
##ianorum
vectig
contrib
industri
vescuntur
##win
##iacum
##omata
1885
fals
virg
##ificum
sedem
utrum
Gustav
Portug
Congreg
commiss
##ulph
Oth
iun
##ophyl
gente
ludis
persu
captus
capitis
indicat
occidente
Exterioris
##uce
##agus
grege
Termin
topograph
argumentum
quadraginta
Dacoromanice
##ön
##ank
##alla
Sym
##assus
##urnal
Marx
mill
prec
scel
XVIII
minima
oppugn
Guillelm
Borussiam
Foederalem
##mon
##ove
##unae
Apr
lusor
Foedus
cultus
Giorgio
medicinae
reperitur
##aea
##iew
##eros
Sap
Tempore
pervenit
##otis
##aceae
Serg
ausp
Natus
ducta
duorum
Aemilius
Reinmuth
constell
pecuniam
profectus
##ky
##pi
##elix
##part
600
lam
##libet
Sign
Trib
inqu
casus
demin
dictum
fratre
finibus
proelium
##han
##ues
##yph
##retum
stip
##utione
Libri
fidei
##issimam
Sancta
##ologicum
Iosephi
##enz
Hac
Alta
Quia
Rand
Lucio
aquam
horum
causam
Augusta
fructus
decennio
Aquitania
Hispaniam
collegium
Constantinus
##ng
Led
##abile
petr
quis
Cuius
Nicae
claus
##criptio
civile
sodales
Ei
Ost
har
##rific
Myth
sicc
##itoris
##ecerunt
exclus
scrips
versio
Venetia
habebant
fa
CFA
##peria
Sing
male
##antiam
Peruv
tyran
##ectitur
Urbani
Westph
gentis
generum
Circulus
generibus
municipia
##ise
##raf
67
##tere
114
Pit
Soc
iis
##annes
##aviae
fine
myst
##itatur
Huius
mille
Gallia
patria
Italica
Species
musicus
Finnicum
fid
##atrum
##etiam
Colum
Adolph
legata
videri
element
monarch
suscepit
Graecorum
Theodorus
##asi
##lid
62
na
##alus
Web
##ingen
Sequ
Gabri
matre
possumus
Germanicae
bibliotheca
casu
paucis
Athenae
tertium
Ferdinandus
quinquaginta
##abe
Bi
##acia
Dep
##novit
Mach
prote
Reform
victus
pecunia
certamen
Alexandro
descrizione
##avi
##eca
##emn
##own
##rap
73
Lim
##omine
erit
##astica
artes
notum
prisc
##ratorum
gregem
gymnas
Iaponia
diversis
doctrinam
##lii
##mos
nom
##timer
##iculum
conte
motum
quaer
##alismus
Magnum
Patric
Martinus
factione
Superioris
celeberrim
##ez
##onc
##illo
##well
##yram
Kaz
Quad
##eniunt
bassi
index
liturg
incolis
endemica
districtus
theologiae
simpliciter
##rod
83
##field
1906
##onensi
##overno
Museo
Septim
fuerit
magnis
consequ
Mortimer
Americani
##oen
##uck
##istas
##istim
Brut
mari
Israe
secoli
Annales
Brasili
culturam
praesenti
studiorum
##hor
##urt
72
pin
sper
##ioeces
North
infin
Ingrid
deorum
habens
Latinis
Latinus
undecim
adhibita
collegii
episcopo
magistri
Castellum
Europaeis
Nationale
administravit
##ete
##uda
so
##abit
##anes
1907
Raim
diac
spett
##amentum
Gnaeus
paroec
Burgund
Journal
governo
natione
Borussiae
110
800
tax
Fund
functus
accommod
consider
spettanti
California
Californiae
War
cub
##stulit
##uribus
fidel
morbi
Monach
ceteris
insuper
substit
Decembri
##hal
##kov
##ileg
Cit
1903
1910
Holl
Alien
Magno
adiac
sedis
Verbum
implic
syllab
Giulini
gentium
instruc
tragoed
Ly
##ester
Educ
Indo
Peter
emiss
finis
Dietam
Ducatum
Systema
mercator
Stamperia
parlamentum
##asia
##ipel
140
ram
1901
gign
mart
util
nepos
##utionis
Etrusc
habita
Alpibus
Bianchi
quamvis
campagna
notiones
singulis
Fo
700
Vim
Jack
alta
frac
Abrah
James
illam
quarti
recogn
meridie
promulg
verisim
politicis
|
##irs
Did
music
interv
Atropat
conclav
Territor
Friderico
adhibentur
##silv
heb
King
Unit
Forum
album
consilia
damnatus
iudicium
provincias
##elt
61
##lice
1803
neut
ambit
corrup
naturam
Albertus
carminum
manifest
originis
praetore
Brig
Hell
Karl
aevi
alum
##ientes
##endorum
Artium
electa
planet
##ariensis
Athenis
pedilus
causidicus
Latinitatis
undevicensimo
morph
Statio
incend
spatio
summum
##esserunt
Iaponice
dividitur
##hiop
##iniae
burg
Erico
fugit
tulit
##arentur
Multae
deperd
Carthag
Circuit
postremo
institutum
##essa
##idia
alg
cli
##eveld
imped
melius
simile
tempor
Octobri
Publica
plurimis
Groeneveld
Ux
##ivum
Alt
How
Org
Tom
Top
mit
1898
Multa
genet
turma
##ientiae
existim
quomodo
solebat
adiectiv
praesens
secundam
vicissim
maioribus
structura
Francogallica
Ak
##gang
##ilae
Bis
Tres
##onorum
Vicip
alius
birot
nullas
Regalis
circumd
Septembri
elementum
##oco
##sump
Mam
bap
##ridge
##worth
1890
nasc
harum
terre
Freder
cetera
pondus
Concilium
commercii
Provinciae
Bé
Int
Iter
alph
##anarum
##emberg
dilig
Verlag
auxili
interc
curavit
Helvetia
coniuncta
fundament
municipii
descriptum
praefectura
testimonium
##anz
##pas
bl
Syn
##estis
##ifica
Aliae
linea
Fabius
integr
longum
propag
quippe
Romanam
peperit
nationis
Michaelis
principis
constitutum
°
May
Linn
pace
##endorf
aliud
soror
Mercur
femina
##occident
Aethiop
exstant
pecuniae
Observatorii
##uca
##ulia
Ign
Syr
bal
1895
Fland
Palat
##acensis
athlet
##itudines
Normann
oeconomica
##SD
##ji
##alp
Ni
Vo
Exp
naz
1915
lect
##utiones
Mediae
Thomae
sponte
studio
Francof
minores
instrumentum
##gu
##odus
134
144
tub
arma
caud
marg
##indecim
Textus
collega
maioris
##pere
##urch
Alg
##ratis
##ratus
Crem
Elst
veloc
eventus
##ometrorum
##partement
ostendit
Francicis
##ces
Va
##arie
Sus
1516
Cost
emin
Plant
gestis
aetatem
flumina
laboris
familiam
accusatus
##ney
##enio
##etor
##issae
Paen
Index
##alitate
ostent
proteg
revers
suburb
studiis
comitatu
fabularum
habitabant
##fe
77
##manu
Hof
Rav
##ville
imit
tred
Pelop
certe
exsec
immin
notae
comitiis
convertit
historicus
59
82
##ival
Omn
dup
##actum
Hava
clam
ludo
##onicis
Laced
Mater
Doctor
Rudolph
Sinarum
civilis
nationes
habuerunt
universitate
sh
Duo
agg
##itiam
Spir
lati
psal
viae
iudex
perman
littera
histrion
orientalem
96
Pi
##aire
##eram
Win
was
gran
##iensem
Asiam
Repub
ducem
##issimas
defunc
Indones
Alexandr
auspiciis
département
fe
##frid
FDP
##ellig
Regis
eandem
mechan
museum
Castell
memoria
nobilis
Superior
oeconomia
potuerunt
pelliculae
Occidentali
mathematica
topographique
Hy
Je
##etti
Lup
Ross
item
##iscons
Panam
arter
spiritu
ultimus
Brasilia
ceperunt
Vocabulum
occidentalem
##oso
##olium
Mars
Sand
Parth
actrix
liberi
Aegypto
Oppidum
restitu
Lacedaem
sequitur
libertatis
##pt
##une
##orio
##augur
##europ
Coni
##aticae
melod
reduc
vices
videl
Indiae
anatom
calend
circums
proposuit
scriptorum
frequentavit
##lix
##acti
##undo
978
##olvit
##undem
1904
Virt
##erorum
vicum
contex
procul
Familia
Homines
Iohanne
problem
Anglicae
mensibus
scribere
videlicet
electionem
##CO
##sc
Mr
Ts
mi
##avae
##eant
##ires
##otam
End
Ist
Grad
expul
legati
maximo
statio
Germani
numeros
Amstelod
instituit
##vo
#
ol
Cae
Ein
1896
cerv
fron
molec
##ariarum
##icensis
Corpus
pagina
Capitol
Gazette
creatum
episcopi
vixerunt
##én
##arz
##udi
Ib
Um
##isus
##abili
##ensio
Sulp
vern
vind
Techn
actus
parvum
variae
permult
Germanicum
148
Lux
Lind
aure
##iderat
Separ
certi
origo
gestas
Comment
Insulis
finivit
##ool
##uff
Da
##otes
Old
Pos
Anth
Prov
Aulus
Marti
Shoem
##minibus
Cathed
clarus
Lemovic
Novembri
linguist
Castellae
Shoemaker
##ye
##ée
97
Ard
Sel
usi
##iscus
Comn
Times
Alphons
Conserv
Hispani
multorum
receptor
Exercitus
humanorum
politicae
Foederatae
##lich
Art
Deo
Lor
oct
1909
##iverunt
Saxonia
religio
secutus
imaginem
numerorum
Foederatas
instrumenta
br
##avia
##itul
Iug
1894
Loth
dens
phyl
evolv
iuven
##optatus
editus
ludorum
Ernestus
momentum
Februario
candidatus
Westphaliae
cancellarius
„
##ial
##uld
108
Gaio
Holm
Pass
Relig
alibi
innot
alarum
filiae
materi
Aedific
artibus
populum
Litterae
Americanae
Trinitatis
##ife
Dr
Asc
Bod
Gem
Kim
Hass
Ille
abrog
basil
praen
senti
Mexico
hostes
region
Distric
cerebri
director
notionem
##eras
influ
oppos
fictic
urbana
##ularibus
humanae
virorum
interretialis
##cher
Arb
Tok
Utr
Kleť
Peri
aegr
cosm
nobili
##ensionis
carmine
communi
plantae
reginae
##asa
##upt
My
105
obt
##oldus
Brem
Caus
Hill
Succ
nund
##italia
ipsam
abeced
extend
dominus
quoddam
Stephani
hodiernum
appellavit
##BC
##ül
Gir
but
Vulg
democr
Theodor
plurimi
speciem
magnitudine
##oca
##iale
##inea
But
##emata
Hels
cith
mont
##olarum
Maris
Sardin
urbium
Commiss
publice
Philippi
adhibitum
centesimas
septemtrion
septentriones
##umi
##icul
Mog
##ollin
dare
raro
Musulm
decrev
elabor
vulner
Oceanum
Instituti
Suetonius
maturitatem
Christophorus
XL
135
Cav
flu
##avere
Fons
Pres
Wood
deae
motu
pecc
Human
ultra
Austro
alphab
Deutsch
colloqu
speciei
Americano
hodiernis
legatorum
Americanis
##dal
##eam
UE
##enii
##ysis
bar
gal
##itana
##olith
##ullus
coep
##icibus
Silla
laure
ornam
##issimos
Tuscia
hebdom
mortui
variab
##ological
partium
Anglicum
Coloniae
vicensimo
Maximiliano
he
Dol
##undum
bona
centi
fieret
maiore
subter
papilio
Helvetiae
televisific
##yli
UR
##aldo
##elae
##tern
Lag
eae
##ricus
1848
Cord
Trad
aere
antec
color
meret
oport
stric
Hamburgi
ministra
theoriam
Gregorius
sententiam
Ec
Oh
##idii
##isci
##itch
##ocum
Exc
Gor
ent
##ellas
##sburg
##utius
Gold
carn
ducit
Finnia
defini
humani
fabulis
materia
moribus
pellicularum
chiliometrorum
99
acta
lata
Wales
argum
oblig
papili
specie
Letters
Nicolai
eruditi
inaugur
Municipia
Laurentius
administrativa
##ao
q
##enne
##enob
##ulli
##unia
Bay
Bot
Dis
Edm
Fal
bib
pel
barb
pate
Fried
Locus
campo
credunt
equitum
physica
solebant
Sententia
Benedictus
educationis
##cho
Sw
##inii
Mut
XVII
hier
nimis
##alensis
Guinea
Maxima
pictur
Anglico
chemica
iudicio
Augustae
antiquum
moderator
##ér
##rot
##dorf
Matr
Sans
gens
html
retr
##ologicis
destruc
apparuit
79
##acis
##este
##iner
Sti
Cyri
Jean
Sall
negl
omne
Cantu
Postum
experim
reditus
Alienora
supplicio
agriculturae
##ER
ː
Ki
##ovit
##ander
Fron
creb
exar
stor
Quinc
France
accept
Constat
antiquo
innotuit
describitur
81
##ilum
aem
hos
##onico
##histor
affic
chrom
revoc
Camera
Conrad
Samuel
cladem
Charles
decreta
efficit
flumine
legitur
scholast
veterrim
endemicus
quindecim
Cantabrigiae
93
zo
##icio
Ges
Xen
##ectos
##ricae
Erat
domi
Antig
botan
##inarium
Africam
Legatus
mulierum
difficult
Virtemberg
Lemovicensi
philosophiam
##led
##ray
##wood
##ynam
Equ
hym
nim
nut
##tigit
##ischen
sitae
dicere
Claudio
discrep
Gazetteer
appellabatur
auctoritatem
87
Fi
Bre
##ernum
Cris
##istere
press
Ioanna
Turris
formas
recepit
Collegio
carcerem
Florentiae
rationibus
cathedralis
probationem
##èv
##omp
##tiz
##lust
Van
Iran
##antius
##ection
Novam
caelo
vires
fabulas
histrio
perturb
publici
vestigia
##NA
##ats
Dux
rig
##illus
##ricem
Eliz
Mong
Plac
Origo
mulier
accipit
fratrem
recuper
Fe
##oire
Ten
abd
inh
##artam
Pugn
Viet
aliam
amore
assec
franc
induc
vehem
Declar
Mexici
deline
magnas
carminis
proposita
Bibliothec
Brunsvicum
Cot
Lee
Rab
Som
##ephal
##alismi
Situs
explan
milium
Napoleo
Polonia
Richard
desider
singula
Poloniae
Tiberius
versione
Iudaeorum
illustris
territorio
Dacoromanicus
##öm
76
os
##utam
##wald
rup
Conn
Fulv
alim
socii
##uxerunt
Marius
abbrevi
binomen
statuit
Philippo
classica
memoriae
fungebatur
##app
##kel
##irus
##olus
cunc
elev
iunc
tram
##aticum
Agric
strat
Tabula
morbus
munera
crescit
decimum
coloniae
migravit
sacerdos
commercium
exploratorii
septentrionem
##ylv
##ère
US
##enom
Cad
Eis
##anter
1806
Linc
Phys
##onicam
##ularia
Carmen
Mariam
nostra
Abbatia
Memorie
christi
poemata
tertius
mulieres
feliciter
industria
disciplina
politicorum
##hu
##ivi
Ae
##lino
Sul
ard
lar
1870
Olim
Vlad
enar
optime
parvis
planta
quarta
tabern
datorum
officia
dictator
ministri
Administr
discipuli
Meridionali
##hol
86
##arth
104
Pad
Deum
erga
suus
##ective
possib
Suecice
contrac
divisum
impetum
perfecit
Naturalis
incrementum
societatibus
##ilo
##lot
##uva
om
pe
sag
##enium
##entos
##sitan
##uriae
Barc
corr
paed
##ientem
##uisset
certo
salut
Confer
nullum
pagine
vindic
Theodos
antiquos
Elizabeth
praetorio
antiquorum
Hannoveranum
##dis
##iot
##etta
##mata
Adv
1888
1897
Frib
Star
Unio
perg
datur
depend
Denique
Graecus
habitus
Americam
loquitur
regionum
divulgata
gubernationis
##atz
##rici
Sci
anc
##iform
1861
Borg
Nept
Pons
Praem
conex
effug
glaci
lucis
nobil
nostr
occid
tribu
deping
exspect
auctoris
circulus
dissolut
Columbiae
fundamenta
scientiarum
##ope
##osh
sa
##ange
##hard
##imos
Dub
##ultur
Amph
cort
Grand
Minor
Simon
exstat
summam
aliquid
pedilud
editione
monumentum
Abo
Arv
Noc
##ensum
Hall
Resp
frum
masc
##abilem
Liter
pedes
ostium
centena
oratione
celebratur
##sp
##ega
##ery
Sk
##anto
##arag
##urti
138
Emp
##antha
##atice
Pomp
rock
##inaria
agens
comme
Andrea
Sueciae
arborum
navibus
publico
duodevic
paulatim
tredecim
Academiam
Litterarum
condiderunt
##ova
##Vide
Lou
Chem
Hans
crud
ferm
Sicut
bonum
##averant
applic
orator
sacram
seriem
##ographus
Schwarz
cognomen
independ
medicina
theoriae
Shakesper
systemata
Britannici
temperatura
##XX
##ude
Ru
##omon
Che
Quar
Rusc
deos
Black
Helin
divit
exist
##ientiam
Frater
Hannib
Musica
conviv
dialog
posuit
Vitelli
aliisque
circulum
insigniter
consiliarius
Philippinarum
##ecc
##har
Agn
Cyc
Fel
cla
Extr
Hort
##utorum
denot
tales
viris
Quinti
Aemilia
ferrivi
planeta
scholis
potestas
versibus
Insularum
Archiepiscop
Encyclopedia
mythistoriarum
##ede
Eu
##iosa
Oli
Viv
cyc
iub
vox
##erici
1889
Life
Math
nupti
valle
Pellic
congru
intest
Iudaica
maximae
membrum
regimen
Italiana
fragmenta
libertate
Bucarestae
##buch
##stru
alc
##ature
##tista
Cech
nemo
scop
abund
grand
itali
ludos
decern
montem
resist
Cleopat
quandam
personam
numeratur
Hispanicae
reperiuntur
##ey
##nu
71
##opol
Bul
Pri
##iense
##orsum
vice
##endarum
Minore
latina
aestate
plenius
Belgicae
plerique
praecipu
nuncupatur
conscripsit
##mis
##iora
##leti
##osom
128
Dun
Grav
Vetus
indag
plena
secur
Auctor
Montes
Oceani
Propos
animum
attinet
inventi
Ecclesiam
scriptura
expeditionem
universitatum
##asm
##vum
Ka
hy
##rico
##ichte
1871
Fris
Tong
dein
flux
clara
spati
crevit
factis
scimus
machina
Pompeius
Portugal
Telluris
occupatum
industriae
Britannicum
##idd
##alae
##erim
##ivid
##rale
1886
Bert
ideo
Herac
Miles
Watan
dicti
##anenses
Editio
Newton
altero
centur
mensem
perfic
Apollin
Arnstad
ducibus
Iaponiae
Quattuor
monachus
servatur
provinciis
##PA
Lu
Lad
Mis
Nun
1884
Bach
Deux
Hild
adop
etym
stim
##ierunt
locos
Larvae
Scipio
Belgica
adiuvit
benefic
rationis
Catharina
particeps
patriarch
communibus
mutationes
Massachusettae
##alum
##ethe
##ords
##utor
250
900
sil
##inone
Books
Felix
agere
fluit
##attuord
stella
Roberti
contemp
corpora
Pacifico
planetae
Friderici
programma
##oln
##ecom
Bau
1892
tutt
##burgum
Eryth
morum
recta
confer
montis
fratris
locorum
Asteroid
memoriam
Separarum
iustitiae
auctoritate
##mam
##echt
##sunt
Cui
Son
imb
##urrit
1893
Anim
pati
##entino
South
adduc
insid
pseud
semel
Sabaud
quinti
Lugduni
Ovidius
tempest
dederunt
energiae
philologus
tenebantur
tuttitalia
##än
##kos
92
##ally
##reto
Gib
Nec
Sud
Sèv
##istri
Leop
subm
trac
##ortium
nocte
conson
transf
vertit
Aprutio
Martini
Palaest
Utrarum
Lutetiam
Samantha
character
Britannico
Esperantica
scriptoribus
up
##ocom
Ili
1867
Alger
Pasch
Thess
calam
ludum
tabul
certavit
consulis
exceptis
temporum
traditur
Studiorum
studiosus
utebantur
carminibus
Parisiensis
interfectus
Esperanticae
##iaz
##sky
1860
Otto
##abilia
##abitur
##ativam
Brown
Cardin
Ledain
Luther
bellis
dispos
matrem
matris
comitis
mutavit
vocatus
Republic
confecit
determin
tradidit
Popularis
AT
cy
##arte
##ensu
##init
##ward
Hag
pre
##rices
1865
deum
solo
incid
maius
##ellmann
Iustin
metaph
provoc
convert
itinere
Columbia
Consilio
Palatium
Watanabe
nundinae
habitabat
##CI
##cr
>
×
##nod
##icii
Cha
Cos
##oniis
##ticum
##uerit
Bald
Malm
Morg
puta
Elect
grati
vidit
Israel
Sèvres
caelum
confic
officialis
##aequ
##alii
##asso
##obrem
##ondam
Innoc
Urbes
alium
impet
poema
##atensis
cantor
##rocinium
Dominic
accidit
iuvenes
montium
sepultus
Pictaviae
Sovietica
monasterio
##zen
##roph
Far
Sua
##other
Cand
Gand
adip
stad
##iginti
Barth
picta
tenet
Church
Philad
Secret
adfuit
archid
primas
Markets
Society
Unionem
consump
invicem
maximis
Aurelius
Europaei
intellig
plurimum
sacrific
exemplaria
gubernatio
superioris
##hof
##ken
##iche
##otae
Ron
Tre
fib
nol
##ennio
##ucius
Cauc
Chom
Mant
glac
Davis
Fairs
poëta
##lisaire
Potest
Jackson
Scotiae
conform
persuas
praepar
secundi
magisque
factiones
historici
theologus
Atlanticum
##ode
##oly
Ic
Cyr
McC
##eriae
##illis
##ontis
Aest
Gali
Laud
nego
Genus
legum
parti
summo
Kazuro
Tandem
repreh
vocabulo
praesidem
insequenti
Londiniensis
probabiliter
##AP
##lex
##vus
Ig
Mu
Mé
ait
lun
tol
##ativi
##ictum
1850
Ebbe
Hond
Metr
exig
Hindu
pauca
vivit
##emispha
Renasc
Saturn
fautor
Finniae
diction
consules
consultus
monasterii
Vasingtoniae
##idt
##acae
##amet
##ashi
##ennae
athl
##amento
##ittere
##ombard
Scott
imago
Ivanov
filiis
pulchr
rhetor
naturales
ا
##ily
##uma
##helm
##rete
Vib
flag
flav
reac
##stitit
Delph
aevum
malum
papam
proph
Pragae
homine
litora
mentio
artifex
concili
scripto
epistula
praefuit
transform
##attuordecim
Philadelph
photograph
##ūs
##ous
ec
##onas
Bea
##ensia
##ialia
##ianos
1807
1899
Homo
Litu
Pitk
Uran
##inensi
##äranta
Santa
monet
Montem
Vespas
approb
vallem
passuum
sanctus
obtinuit
doctrinae
sequuntur
##able
##onti
Niv
Tal
deo
##eriis
1887
Pont
diut
mihi
obst
veri
Contr
rexit
ripam
mediam
manibus
biograph
paedagog
protulit
regnavit
Societate
externarum
territorii
Astronomicum
##anna
##inoc
Gri
##ensen
Alma
Boni
Samn
##optera
Chalc
avium
docet
parum
virum
Calend
##aniensis
Colonia
Hofmann
regitur
Russicae
vocantur
Spellmann
quadratorum
##IV
##wis
Ko
cu
##egel
##miss
##ylor
Moz
Tub
1891
Foro
Hugo
curs
symb
##uensis
ferre
which
bacter
cordis
dicata
peculi
poesis
requir
Corinth
dicatum
punctum
Legionis
Germanico
discrimin
scribendi
Britannicae
principales
septentrionalem
SE
##ener
Aus
Put
##stedt
Pier
tard
##anista
Cyril
Eurip
regna
sermo
talis
textu
adiect
filias
introd
pecuni
perita
pugnam
sensus
Tullius
plurima
Congress
officina
praeterl
venerunt
Bélisaire
##eun
##row
##upp
go
##evit
##http
Pod
Seg
Pent
Prob
dici
fama
##americ
chord
dubit
pharm
plura
##isticam
George
Luxemb
animad
ascend
effici
portum
usitat
varios
Angliam
Galliae
Hermann
Nicarag
comitia
conatur
liberae
Siciliae
transport
Pitkäranta
##isa
##niae
Fem
Sag
net
cura
aquis
palae
adfirm
caerul
convoc
evenit
latere
textum
Vietnam
circuit
Certamen
complures
Constantinopoli
##aft
##aya
##its
CS
##asti
auf
##itami
Dalm
caes
Motus
Patri
breve
movit
##atoriae
Bulgar
aliqui
##ologicas
exhibit
habemus
Articulus
Dionysius
aliquibus
nominatum
florentium
Cy
##ilam
##lend
Tag
##illae
1879
Past
chir
##ectura
Color
Corea
Helena
Kitami
Ludovic
ducatus
effecit
feminis
quisque
Comitatu
vehement
militavit
Christianorum
π
##eci
##ylo
Aud
Law
Nep
Roy
nep
1863
Garc
Papi
Babyl
clima
quare
villa
debuit
direct
silvis
Elector
Graecos
fluvium
illustr
Caesarem
Francico
dimidium
effigies
sanguine
divulgavit
metropolis
Dir
Canc
forum
gland
latus
plebe
ritus
sacch
vinum
##entinum
##nograph
Emmanu
Flavio
Rhenum
causis
Canadae
Rhodano
musicum
rebelli
Horatius
##opolitanae
Britanniam
constructa
Christianam
Tw
bo
##ikon
end
lup
Bapt
nequ
##embrem
Latio
certa
fides
illic
quadr
septu
Maurit
brevis
libere
musici
satell
Lincoln
carcere
categor
enarrat
pictura
scribit
fungitur
Brunsvici
Americanum
Australiae
discipulos
imaginibus
sententiae
superficiem
##IS
##edo
##obr
##ovi
Neo
vap
##endus
##oscop
Alba
Carr
Pann
naut
Galla
Vicus
cunic
##olution
Contin
Imprim
triang
turmae
habitum
Virginis
censetur
##AS
##ame
##err
##achi
##enos
alic
mitt
orth
Langu
Primi
Princ
Tarqu
##aenomen
##entalis
Magnae
Modern
Siding
animal
Circulo
indicia
possent
commercio
periculum
Sovieticae
Theodiscae
philosophi
quaestiones
televisifica
89
##acea
Ambo
Cont
Kenn
Stor
moll
Isaac
Joseph
Regina
iuvent
Ludmila
commend
insigne
maritus
novarum
Magister
Conventus
Marcellus
conventus
parlamenti
Christianis
Nederlandia
##alam
##ilib
##ions
##oslav
1830
1854
Hand
Wind
tell
zona
##hardus
Omnia
##imentum
Iudaei
colore
duarum
permut
paupert
Bohemiae
adhiberi
satelles
Laurentii
appellari
generatim
constitutionem
##iaco
##inom
Dre
Lub
##antas
alti
gaud
viro
##ativis
##eticae
amisit
cantus
##burgensis
Graeciam
antiquitate
Luneburgensis
##ony
##yll
91
##igne
Bag
Gon
Pen
##aring
1881
Schel
adumb
citat
docum
valet
##itionum
Socrat
capita
ration
diploma
foedere
fuisset
maiorum
Baptista
Zelandia
inventae
propriam
Indoeurop
imperatori
parlamento
tirocinium
quattuordecim
##aso
##anch
##tili
Eus
Rel
##otrop
1826
Ball
Juli
Pyth
##ennium
##inalis
##ultura
Compl
Jacob
Notio
adult
arbor
immun
rever
gravis
civibus
ordines
poterat
quondam
Virginia
effectum
Virginiae
mentionem
suffragium
universitates
##erk
##etz
##rie
##ush
##ipit
##ison
Hyd
Sir
unc
##escit
##ional
##opath
1878
Buch
Giov
Sica
Viti
curr
##averit
Syria
notis
aliqua
percuss
praeval
Persarum
attingit
inventus
orationem
subterran
auctoribus
##emi
##ogr
##anea
##iger
##odis
Das
Roc
Urs
adl
seg
Call
Cort
Gard
Leuc
Semp
fiat
Medii
Thrac
White
aetas
medii
modos
Monaci
disper
export
membra
repper
Guineae
Mexicum
aliquae
finitam
proximo
Eugenius
inveniri
Londinium
deducitur
parentibus
pertinebat
superficie
comprehendunt
##aj
##tz
##ão
##itte
##stre
##tici
Pir
##ierno
##inati
##ressi
Hamm
loca
medi
Solis
domic
folia
iurid
paroch
sedecim
thesaur
Italicae
graviter
privileg
Ciceronis
argumenta
habebatur
historicis
aedificatum
constituunt
significans
##ego
##now
##olom
##trop
Fil
tor
##aculo
Gord
Grex
Isab
##idorum
Music
Rufus
aedes
aream
caeli
persp
Anglos
eundem
Eduardo
Marcell
Oxoniae
Secundo
numeris
relativ
Pacifici
putantur
Brasiliae
concilium
ecclesiis
notissima
principium
scriptoris
##je
##iad
##ocy
Cn
##osam
Adh
Pil
inn
##morum
##undam
Foss
Meth
Vanu
noti
vias
Green
Oxoni
Verba
angus
atmos
monst
Apulia
marito
Insuper
liberis
penitus
Anglicam
Croatiae
personas
typograph
nationibus
personarum
territoria
Francofurti
##ely
##ulf
##unde
Vid
lux
dext
glad
##idibus
##schild
subsp
Archae
debell
decimi
ultimo
##ientibus
##taverunt
Finnice
honorum
Fluminis
decrevit
generali
stationem
vicensimi
imperatorum
maturitatis
##Eb
<
##for
my
##ocia
##unus
##ertur
##illim
Stan
Salom
chart
##ioecesi
amicit
medica
monast
parall
complex
exstruc
tabulae
vituper
Croatice
Williams
multarum
##AT
##gne
##igm
Wi
##icon
##lung
pan
##ectic
##rones
Clod
Glob
Perg
infl
poll
serp
silva
Aetate
Potter
Sextus
dierum
gestae
catalog
extrema
favebat
quendam
##eschichte
Monachii
Proelium
physicae
reversus
Aragoniae
Constantini
linguistica
subfamiliae
SC
Obi
XXV
umb
##allum
1880
Item
Stra
cruc
mali
monum
redit
access
cultum
numism
abstulit
cognovit
convenit
doctoris
chromosom
principia
stationes
mathematicus
##ία
##enk
##oga
##ops
##edes
##enim
##irst
Deb
Vil
##amina
##arina
##right
Cors
Nerv
Pros
Wash
patr
Bella
Faust
lacum
mente
nexus
porro
Series
Templum
alteram
conclus
rustica
tabulis
Germanus
copiarum
Nationali
scholarum
scriptrix
acceperunt
progressus
##In
##oft
##Ebbe
irr
Stut
Unus
amph
##alismo
Divis
Patav
autum
digit
##alismum
Libera
Manuel
geomet
profic
rebell
Holland
Schelte
finitum
legatos
Benedicti
Hieronymus
grammatica
architectus
##ον
##circ
Sto
##aeque
##atina
##ianas
1705
Pand
book
frut
##kinson
Aquil
approp
finito
revera
transc
##oviensis
privata
Caesarum
Stephano
Margarita
communiter
paeninsula
##ows
##rip
AD
##icta
##ight
Det
Rip
Ubi
1840
1876
Calp
Queb
Will
Zing
best
pest
ambul
sociis
alterius
artifices
praecepta
vehementer
Christianos
antiquissima
##aqu
Kö
##anga
##oliv
##osph
Sah
abl
dix
##istam
##raque
1858
1882
Pisc
Pius
abol
fast
stirp
Iesuit
Wilson
cooper
infirm
Arabica
Claudii
castris
process
Fortasse
appellati
certamine
cooptatus
cellularum
meridionali
septentrione
communicationis
##ël
##iori
##ulch
Lav
Mem
Mot
##odisc
Tenn
Trev
accid
pueri
sympt
Beniam
Marcum
Pagina
declin
navium
vocari
Servius
sororem
Alfredus
Diocleti
creditur
perfecta
celeriter
pertinens
differenti
proprietas
##ft
##bach
##erni
lum
Dres
News
mala
tang
##serunt
Jones
Polyb
Solum
abbas
amici
graec
hieme
illos
sinus
##isticum
Fabula
deleta
vendit
Bruttio
Francis
confund
protest
Castelli
Latitudo
gregibus
monumenta
nuncupata
evolutionis
Visigothorum
##ail
##ESCO
##thal
Ele
Hub
Nar
ego
lyc
Beng
Hein
Stad
conn
Annae
abstr
dabat
octog
sexus
symph
##andorum
Ambros
United
flores
templo
Bavaria
nunquam
Biograph
Secundus
opificum
Catholicam
excogitavit
##CC
##ocl
ly
ال
##erre
##astas
##irent
Bang
Brad
purg
Phoen
expon
##avisset
Goethe
UNESCO
consum
domini
inquit
lapide
volupt
Schmidt
Senatus
dioeces
illorum
quartum
Erythrae
Gregorio
Wolfgang
dimissus
Hiberniae
Legatorum
opiniones
Washington
praesidium
agricultura
##aly
##car
RD
##arin
##iaci
##ysse
350
450
Hay
Ide
its
mos
##rarum
##riter
1814
1835
Groß
Lyud
Roth
Saep
##eratae
Allen
Silva
avunc
Iunius
Tempus
associ
fontem
potiti
primos
progen
##ensionem
Eboraco
Galfrid
classem
descend
dissert
functio
senatum
Iulianus
stellarum
periodicum
Athenienses
##De
##ark
##ohn
Bil
fra
iit
##anius
##ences
##ologo
Herz
Huic
Iber
Spur
sede
##ominus
##uuntur
iniit
Antarc
Partes
mutata
occult
stirpe
##ificatio
Gabriel
digesta
Foederis
Lyudmila
scriptae
suadente
historicum
Hierosolymit
##iu
ga
##ithe
##oram
Ans
Kob
hex
1859
1862
Fern
alba
misc
ping
##phaera
##ulatio
Trium
amiss
dirig
dubio
femin
##acothec
Quibus
Suecia
adsunt
causas
festum
figura
import
vivere
Oriente
proprie
Ivanovna
defendit
meridion
continens
pedilusor
religiosa
Augustinus
appellatae
κ
##tax
##ated
##pond
Dig
Hyp
Nem
pir
##ebris
Carn
Cook
Hanc
caed
ripa
Brook
cotid
Furius
Taylor
Terram
fiebat
servata
coloniam
sermonem
terminus
Atlantico
dicebatur
habitavit
moderatore
magnitudinis
##iso
Hil
Myc
##ensch
##estra
##ingham
##opotam
Calig
Henry
famam
fuere
ortae
conloc
parvus
##iebantur
ultimis
conditae
decretum
interdic
variarum
Bernardus
Sanctorum
iuriscons
politicam
radiophon
sanctorum
##po
##ов
##erie
##oshi
Log
Lyn
eur
##sever
1883
Diss
Ulix
fing
Regia
Reich
genti
paras
recon
Syriae
minore
Sempron
Severus
Wilhelm
##issimorum
Navarrae
theatrum
interpres
sexaginta
Astronomico
Monasterium
expeditione
mathematicae
mythistoriae
Gö
##drom
Hob
Pax
sug
##arian
##onnes
##ordia
##ticam
Perc
diam
toll
##aculis
##aparte
Marit
fonte
quaes
Endate
Initio
amorem
perieg
pisces
umquam
victim
Iudaeis
Paenins
abbatia
comitat
restaur
Augustum
actiones
collegio
gentibus
invenire
differunt
paroeciae
praetitul
sanguinis
Christiano
animalibus
societatum
condiciones
##VP
##ín
vo
##anii
##ches
##empe
##tiva
##udic
Pio
##pectu
Bris
immo
impl
ital
mutu
rett
Gramm
Later
regia
ripas
morbum
Graecam
Johnson
piscium
plantis
esperant
hodierno
incolunt
interfic
refertur
vicerunt
vocabula
Communitas
Guillelmus
##aps
##kan
##utes
177
Eff
cin
##iciae
##oscit
Beck
Club
Sass
cali
cann
crat
##oratus
Franç
Siles
areae
figur
miner
Crucis
factam
pastor
ubique
Ricardo
aerarii
argente
cecidit
itinera
oportet
Basilica
narratur
physicus
sociales
consiliis
Inferiorem
notissimus
praeclarus
praesentia
structurae
provinciarum
##bes
##cia
##ipi
Bu
TA
Yo
##ieme
##ophy
Has
Umb
sci
##larum
East
Fili
Prox
harm
subl
tymp
##amenti
##cripta
##verunt
Adhuc
Dania
##criptum
##rammata
parvae
splend
Athesia
Dacorom
Scholam
futurum
mission
forsitan
culturalis
nominantur
pelliculam
Nederlandiae
CA
CO
##eben
Rap
ioc
##ynast
1000
Cann
Diod
Fere
Whit
dorm
rete
Medic
Occit
asper
evers
nullo
Arnold
manent
pariet
Saturni
colitur
contend
fluvius
hostium
meridio
Francici
Geograph
comoedia
efficere
Circuitus
consulari
ordinatus
praeclara
Franciscop
significare
describuntur
administratione
##aram
##oniz
Fid
Ion
Kap
Nev
Pur
Tun
##rexit
Kais
Luth
Mith
aves
emer
obit
##landia
Cenom
Louis
Portu
Scand
aeris
annus
docti
##ensimum
##ologico
Online
School
foliis
identi
inclin
indice
magnet
nullam
octavo
specim
Lutetia
Polynes
arbores
energia
mortuum
natalis
Michaele
Meridiano
declaravit
Amstelodami
oeconomicae
##mas
##pez
##eton
Gra
Him
Rot
coh
für
##tions
1873
Amaz
Balc
Isid
Term
amic
aula
capi
epig
##egoria
##inatio
Pacis
Papae
later
resid
Castro
austro
digest
enunti
inspir
Russici
exemplo
populos
regibus
renunti
metallic
principe
triumvir
Erfordiae
Francicam
populorum
expugnavit
internationali
##yra
Aë
Nu
Cli
##ennis
Idem
fore
nono
prud
##atorio
##imarum
##itatio
Ephem
actum
##inenses
Daniae
Illust
evolut
legere
mediis
planit
silvae
vallis
Abraham
Manlius
positiv
Aegyptum
parentes
facultatem
praecipuum
conscriptus
traditionem
##eut
##ston
Len
Lin
Rus
hol
mel
##ressa
##üller
Band
Piet
Zeit
absc
Grati
Guide
Stein
armis
ephem
massa
spons
##isticis
Adulti
Domine
Edward
Turcia
incurs
moenia
Carmina
Carolum
Crassus
honoris
Anglicis
Victoria
deductum
hierarch
quadrata
Pyrenaeis
coniuncti
aestimatur
appropinqu
discipulis
imperatores
architectura
##lah
##rez
##zym
Bh
Gh
##aces
##ject
Pam
cep
##actae
##ansit
##edunt
##ficae
##icere
##orpor
1857
1872
Chil
Greg
ista
##enorum
##escens
Iurum
Varro
servi
versa
Quinto
detrim
german
iacent
studii
Coniunc
sociali
stellae
Eboracum
similiter
Repraesent
sequentibus
##45
##dig
##ory
SA
##atui
##gred
##iest
Cra
Haf
Pak
gig
##atori
##enire
1855
1868
Mold
Part
##essore
Flacc
missa
Bonnae
duplic
statua
Russica
definit
limites
Argentor
colonias
inferior
vulgaris
Praecipue
opinionem
Libertatis
communitas
structuram
ecclesiarum
##edy
##ivo
##alle
##isti
Ban
Bin
sev
##antii
##earum
##osque
Chir
Illy
iung
pulm
tric
graph
ignor
aeropl
latine
sensum
Vanuatu
salutis
similem
Hibernia
Praesens
materiae
victoria
Bonaparte
Cathedralis
appellationem
Ō
##ahl
##lie
CC
Hu
##iang
Rig
dog
pom
##atici
1869
1875
Fluv
Humb
Nomi
##ibilis
Danub
excit
aliquo
amicis
nummis
petrol
propor
Publish
Thesaur
Troiani
formant
tradita
volumen
Anglorum
cellulae
communem
energiam
Bibliorum
feminarum
Elisabetha
##iab
##chus
##ople
##entae
##itica
1837
Cuva
Ecce
doll
fulg
stup
##torium
Lucii
Ludus
Sinis
decur
pagus
parvi
texti
virtu
##unensis
Fortun
Suprem
auctus
baptiz
compet
subito
Exempla
Galliam
individ
persequ
similia
Licinius
variorum
Batavorum
Occitania
Sulpicius
confectum
Septemtrionalis
##DI
##sev
##abol
##kins
##neum
##raqu
Cet
agr
##ardum
##tonia
##ystem
1817
Good
Hard
Lamb
Optim
Sacri
parad
popul
prael
Theoph
imperf
phonem
suarum
Evangel
fundata
membran
constans
hodierni
plurimae
sexualis
Augustini
Hungarice
Mesopotam
Professor
phaenomen
Austriacus
programmata
philosophica
##ils
##ffer
##ivae
Den
Kun
mem
pup
##atico
##eller
1753
1874
Carp
Muss
adol
fusc
##inario
Child
Iesus
Pugna
aërop
viros
##ectibus
dimens
ducere
Company
Iudaeos
Martino
Sanctum
centrum
discept
necavit
Orientis
Papirius
fluminum
praebent
Bruxellis
Lotharing
periculos
Hispanicam
seditionem
Democratica
expeditionis
##42
##éd
SS
fo
ii
##onta
Iur
che
##athan
1500
Capp
Poll
Sund
opes
veni
ambig
palud
Angeli
Ferriv
formis
potent
templi
Gallaec
Lexikon
Matriti
advenit
quintum
Concilio
Islamica
organism
Latinorum
nuntiavit
recentius
undevices
Hispanicum
potestatis
Foederationis
##üh
##elf
FC
##amum
Add
Amm
Tyr
##essio
1864
Ages
Ostr
purp
Therm
bibli
coram
unica
valid
Leonis
curric
Graecum
minoris
positum
tabulas
Anglosax
Exemplum
interrog
praesent
Bulgariae
Connectic
Esperanto
Luxemburg
Vergilius
discrimen
editionem
parlament
Germanorum
matrimonio
papilionum
regionalis
compositores
##uen
MD
ub
##ents
##orte
Nas
aus
ves
Euph
Libr
Plus
Quem
Stre
Tito
Tric
luce
##rianus
Antea
Asiat
Rheni
antip
civis
natio
nempe
toler
Andron
Arvern
Illino
Reliqu
States
Walter
censum
cognov
debent
propon
recept
sacrae
##ologicam
Attamen
Valenti
annoque
disting
docebat
volebat
aspectus
dicionem
intravit
mandatum
socialem
##ectionibus
Britonice
Servilius
gymnasium
scribitur
Peloponnes
histriones
instrumentis
recentioribus
##br
##zy
By
##alth
##eler
##ower
Gad
ire
##accal
1877
Bill
Etsi
Spec
avis
brac
them
##euntis
Alpes
Lewis
Porta
edito
navem
pleno
##ulturae
Campus
delect
Autonom
Cameram
Nicaeae
Pedilus
Psalmus
scholas
scripti
sollemn
congress
traditum
Atropaten
Hadrianus
Ptolemaei
Successor
descriptio
eruditionis
scientifica
##phy
##yne
Lü
Up
##lamm
##otyp
act
1821
Brev
Iama
Intr
vell
vini
Labor
advoc
refug
Quinque
chirurg
laborem
theatro
Investig
Meridion
Princeps
magistro
Argentina
Patriarch
Postumius
australis
orationis
superiore
respective
Septemtrione
Internationali
##zia
##skij
Blo
Bör
ova
##circo
##ratae
1797
Carl
Hunc
Lent
Wagn
eque
foro
##ulatus
Nomin
typis
Ericus
Seneca
Tellur
anarch
oculis
percep
periti
turris
videre
Calpurn
Harrius
accepta
indicem
interim
praemia
Borussia
Hungaria
archipel
populari
secundae
Bostoniae
Liberalis
interrete
videbatur
sententias
##fa
##itr
##lip
##lod
##yle
Cu
##anal
##book
##elus
##etas
##isto
##olas
Auf
Six
emb
las
ora
Paus
cibi
sito
ulla
Aquae
Novog
Vestf
aurea
curia
egreg
initi
langu
rhyth
Cister
fascic
operae
tertii
##tionalis
Clemens
Mahomet
depress
excogit
Arthurus
Gustavus
potentia
prohibit
Programma
servitutem
gubernatione
α
##iom
BBC
Jos
Zen
coc
lep
##ertis
1800
Perm
aran
have
##ropter
Count
Mario
Sanct
##respond
Magdal
Planta
necati
passim
teleph
Galilae
Reginae
legimus
lexicon
minorem
oriunda
vivebat
dominium
hostibus
periculo
appellant
autocinet
Marcellinus
Bibliothecae
##48
##äl
##the
BC
Ve
##adum
##esti
##more
##uven
Aen
Fig
Ken
nud
rar
##artae
##embre
##levit
1824
1844
1856
Illa
Iord
Rock
Nymph
deleg
ocean
vicis
##erisque
##icumque
Franco
Ioanni
Pactio
Albinus
Stevens
aquarum
possidet
praebuit
Apollinis
Berolinum
Sabaudiae
senatores
Societatem
naturalium
vehementius
##ck
Ö
Š
μ
##ird
##avis
##reis
Abd
Lyd
Mik
edu
##olini
Area
Itin
emit
Filia
Lucre
Patre
Postr
invad
liter
loqui
Franci
addita
carcer
paulum
puella
romant
scaena
variat
Andreae
Radulph
Religio
strateg
subtrop
viribus
Adolphus
Nonnulli
Regionis
confecto
nationum
Episcopus
Epistulae
coronatus
elementis
laborabat
patricius
Helveticus
aedificavit
##46
##oz
Sz
Ty
au
##etry
##tico
101
ast
fix
ope
Aevi
Diet
Elem
Witt
hora
vuln
##ayashi
Mrkos
XXIII
amico
casei
prosp
quoad
##iensium
Pierre
adepta
crebro
eisdem
patrim
superv
Alberto
Syracus
liberum
stipend
Franklin
Venetiis
Inferiore
Meridiana
fratribus
universit
elementorum
ministerium
##86
##ss
Ž
Kn
##agan
##aque
##rump
##tera
##ucus
Hun
Pii
aul
lav
##ather
Hant
viis
##imorum
Artem
addit
horas
ipsis
synth
##oniorum
Wagner
altern
amoris
devers
ferunt
humili
lineam
therap
##abilibus
conclud
didicit
impetus
interac
proprio
quartus
Cambriae
Giovanni
metaphys
militari
uxorisque
Parlamenti
religiones
singularis
constituiret
significationem
##87
##azz
##gia
##onn
##lima
102
220
##amine
##apsus
##eruit
##uriam
1200
Pant
Sele
##entrio
##omorph
aulam
ficta
ignif
##ömische
Biblia
Brutus
Catala
Ducato
Gymnas
Odysse
Vladim
dulcis
quinta
Laboris
Viridis
colores
musicis
plantas
vivendi
Communia
foederis
perdidit
statalis
Bartholom
Generalis
Instituto
Vasconice
conventum
definitur
ingressus
visitavit
consecutus
creaverunt
##81
##orc
Sn
##oras
##uter
gov
##oriae
Barn
opul
salv
surg
##aeorum
##olutus
Boliv
caret
gesta
manum
scept
##onenses
##oportus
Strabo
Vandal
sicuti
tribut
##ilitatem
Anglici
Gallica
acriter
nostris
collabor
oriundus
Anatomica
Ruscinone
certamina
principes
Descriptio
Respublica
socialibus
substantia
mediaevalis
Americanorum
##ohl
##ases
##imut
##rang
bil
##izumi
##ustum
Acta
Duae
Pall
Wern
ball
cing
deis
vent
##aticam
##inatus
##ologie
##ulibus
Agath
Iuxta
Samoa
alcoh
clari
tempt
their
veget
##ilitate
Consor
Danice
Maximi
finita
hypoth
sacris
unitas
Veteris
confici
coordin
inhibit
nominum
pedibus
sorores
transit
Einstein
Unitarum
Europaeam
Kobayashi
potentiam
Parlamento
necessaria
Capitolinus
Constantino
Luneburgensem
##IC
##fl
##igi
##iki
##ital
Rum
Vox
fus
Erud
Unum
avus
hipp
tibi
##arorum
Euseb
Field
Urbem
dextra
fluvii
instar
revert
Maioris
Russell
civiliz
gratiam
humanum
potenti
##cribuntur
Iosephum
Publicam
picturae
Athenarum
Transsilv
servantur
superavit
imperialis
machinator
Electoralem
successorem
universalis
##cus
##eak
Kh
Wo
##atro
##sche
166
Euc
Jes
NSD
Reb
lae
City
Grac
Hesi
Nero
Soli
domu
legi
visa
Great
cupid
lusit
march
nativ
##arensis
Cooper
Cursus
Discip
iudici
opinio
simili
vocata
##initatis
Fabulae
Bononiae
Neapolit
Transmar
eruditis
oriuntur
producta
Universit
apparatus
classicae
militarem
Ottomanicum
pertinentes
bibliothecae
mythistoriam
##41
##abi
##epp
##jib
##rey
##ulu
##bury
##ebit
##isma
##lind
##loqu
360
Cis
Coh
XXI
ion
ros
##ittee
##liber
##toris
1836
Clus
Palm
Serm
agro
desp
libr
##eratum
##idisse
##orient
Feder
NSDAP
Struc
agris
cibum
aureum
Florida
Minoris
Vulgata
brevius
mensura
tertiam
Vaticana
constant
gradatim
ingenium
orthodox
personis
quaestor
Pellicula
Rudolphus
centralis
coloribus
Congressus
Theodiscus
pelliculas
pulcherrim
voluntatem
commentarios
Schwarzschild
architecturae
magistratibus
##An
##ré
##aki
##rox
##etto
##irum
270
Afg
Cog
Hyg
vag
##örter
1849
1853
Frag
Time
##cumque
##ischer
thron
##cripsit
Michel
Pakist
Review
Vences
adumbr
capere
doctus
lineae
constru
legatis
Antonium
Nazistae
centimet
fautores
naturali
sequenti
Factionem
Pacificum
liberatus
municipio
universum
divulgatum
numerantur
Stutgardiae
Terminologia
repraesentat
##hac
##uba
FA
PL
##aest
##epti
##heum
##onqu
##rach
260
Ara
Hym
obv
##acium
##esius
Hart
Narr
Nint
Raph
Wild
actu
tant
visu
Comes
actio
aucta
novos
Castra
Guatim
Guelph
Müller
Primae
credit
viarum
Element
Plurimi
Science
nobiles
adventum
nationem
palatium
perieget
veritatem
successore
fundamentum
orientalibus
iurisconsultus
##47
##49
##elam
##udit
133
Bet
Hav
pyr
##storf
1845
Eras
Priv
Sara
dant
fini
orti
Curia
Finno
Norim
Schol
Simul
Takao
aquas
auxit
books
forte
marty
Turici
mascul
##atigraph
Natalis
Quoniam
prolata
##opolitani
Hebraice
Committee
abdicavit
appellato
hodiernam
Oxoniensis
Praefectus
internarum
disciplinae
frequentabat
posterioribus
##yx
##aer
##abis
##elum
##orii
##pson
240
##arica
1847
Bent
Host
Sach
lacu
oram
quat
rati
sult
tali
House
Ioach
Reijo
Symph
agros
##ariensi
Aemili
Hellen
aegrot
diffus
proeli
redint
signis
vernac
Anastas
Pedilud
demonst
inclusa
relicta
vincula
Interdum
communes
electrom
scriptur
tropicis
Raimundus
dedicavit
regiminis
Hannoverae
dividuntur
mulieribus
naturalibus
communitates
coniunctionem
##ypt
AP
Tz
##isod
##usta
Fut
nem
one
##issam
##orius
##ortis
Amal
Calc
Lanc
Quid
acro
arti
tent
##amorph
Chrys
Hamil
Niger
Planc
Sever
victi
##ensione
##inianus
Castri
Coreae
London
Tribun
decies
fertur
incogn
interm
libell
Ōizumi
Finnico
Tiberii
faceret
haberet
radioph
sororis
taxinom
conversa
document
exsilium
propriis
tributum
Foederali
Francogal
Galliarum
Hermannus
Matthaeus
epistulam
Association
communitatis
suffragiorum
constituerunt
##ár
##arp
##icz
##len
##agen
##inga
##isia
##iska
##ocus
Pra
bub
bul
men
new
##stres
##undae
1600
1833
Cerv
Coss
gram
pour
##itaris
##schaft
impub
Bergom
Harris
Patria
agebat
arbitr
diamet
gentem
medici
pugnae
repugn
vesper
Centrum
Eduardi
Hodiern
Meridie
equites
gloriam
inflamm
nostram
Friburgi
Georgium
Polybius
civitati
consulem
materiam
officiis
Friedrich
civilibus
editiones
orationes
Geschichte
Hispanicus
posteriores
##lut
##tha
RA
SO
##aena
##agum
Mul
Pek
Von
ham
mea
mob
rud
##andia
##ungen
1789
1834
1851
Beat
Syri
flex
oxyg
usui
Anato
Crisp
Leone
falso
heres
hyper
offer
radio
utens
vocem
Cultur
Malmog
Morgan
Sigism
carent
creare
habeat
immigr
oratio
##issionem
Athenas
divisio
perfunc
tributa
##obiograph
Germanis
Saxoniam
imposuit
incorpor
transfer
Carolinae
Quinctius
Rhenaniae
laureatus
principem
reliquiae
sequentes
Latinitate
scripturae
Massachusett
Mediterraneum
administratio
universitatibus
á
##ril
##adia
117
Neg
Typ
##earch
##elunc
##erico
Aqua
Oliv
Vars
Vern
subc
##isches
##rensis
Lucas
Manus
Stock
ducum
eques
perit
physi
##ianarum
##oniensi
Scotia
classi
cuique
tituli
tyrann
Angelus
Tiberio
humanam
incidit
Basilius
Iugoslav
Kalendis
encyclop
habuisse
libertas
morborum
occupata
statione
utebatur
Republica
collectio
periodici
facultates
educationem
##43
##alt
##apt
##lai
##var
Wa
##elem
##heus
##iley
##modo
##nost
1819
1822
1832
1852
Heli
Hunt
Manc
Musc
Sina
Tart
##ellius
Castr
Doctr
Otton
Venus
casum
dolor
opusc
##struxit
Festum
Petrum
aetern
animam
socios
spatii
templa
##ologicus
Sergius
Turcice
ornatus
Plerique
Venetiae
ascendit
facultas
##itudinibus
contendit
artificios
auctoritas
evolutione
antiquitatis
psychologiae
##84
##SS
##bia
##pañ
Vä
##aros
##lyph
##ocin
Bev
Bog
Myr
Tig
Tod
opt
riv
##elson
##issum
##oster
Lamp
Link
Uxor
anth
larg
##anicae
##odynam
##uerant
Indos
Tract
empir
encyc
Altera
pactum
phosph
Insulas
Studium
Theoria
conspic
incepta
moderno
occisus
tribuni
##olutionem
Plutarch
fundatum
patronus
praecurs
symbolum
Napoleone
praefecti
responsum
versiones
Maximilianus
discipulorum
longitudinis
coniunctiones
##83
##cum
AC
Kl
##allo
##anne
##kina
##ught
Alm
rob
1846
Imag
Mann
Mens
Orch
caec
cris
culp
erup
this
##icalis
##onista
illae
lacte
plane
veram
##anthrop
breves
ductus
fugere
poetis
Algonqu
aliquam
collect
negavit
sacerdo
tabulam
Habsburg
cognitiv
cognomin
contextu
Sardiniae
episcopum
Nationalem
dignitatem
ordinarium
constellatio
##uga
##uin
##ngen
##oven
##rick
##sylv
##verp
Obs
Wol
##escop
##ulata
Laus
Park
Quir
Vald
ferc
mend
##istrae
prior
pyram
scacc
Darwin
Extrem
causae
certum
spatia
Dominae
Iuribus
Pompeio
Veneris
limitem
utraque
Concilii
Epistula
Language
exsecuti
extremum
poterant
academiae
australem
nationali
pediludii
versionem
altitudine
postulavit
constitutus
generaliter
historiarum
oeconomicam
praepositus
##IL
##hm
##iev
##ree
##wer
Ug
##acto
##inna
##inte
##orig
Aph
fod
fol
los
tom
uni
vas
Song
##olutio
Greek
Stell
boreo
campi
feles
idone
Albert
Peregr
Thieme
campus
longae
natali
semina
utrius
volare
Clement
Neapoli
castrum
diversa
iuvenum
Pennsylv
actionem
magnific
postulat
ecclesias
exstincta
perfectum
recusavit
socialium
specialis
Ferdinando
Napoleonis
nationalem
relinquere
Ministerium
septuaginta
linguisticae
imperatoribus
verisimiliter
##82
MM
##arly
##assa
##asus
##emon
##enth
##iane
##ians
280
CSU
Lys
Rol
##aurus
##estus
##iller
1802
1829
Grim
Juan
Mali
Sinu
evoc
sugg
Strat
Vitae
chalc
ferme
releg
##iserunt
Fabric
Quando
charta
copiam
soller
Ricardi
classes
oppress
patefac
suppedit
Hispanico
biologica
duodecimo
periodico
Catholicus
Vincentius
commemorat
intellectu
praecipuae
democraticae
duodevicensimo
τ
##iud
##egov
##idos
106
210
Are
Aux
Pas
##emann
##etico
##ictus
##iques
##uvium
Dana
Guid
Lith
cito
hydr
inus
##ectiva
##odorum
Intra
Pulit
Sinum
impon
locut
putat
sitis
Quorum
homini
iacens
recent
Anconit
Börngen
Helsing
Tirolis
addidit
concept
influit
proverb
Badeniae
Civitate
Nintendo
Olympiis
carbonii
interest
legiones
machinam
oculorum
documenta
dissimiles
invenerunt
technologia
triumphavit
investigationes
##53
##OR
##ís
##iel
##kir
Lé
##eger
##otem
103
Ald
Amp
Ess
Fra
Gas
She
Vin
##rales
1790
1838
Bart
Cinc
Doug
Gamb
Thes
call
hisp
ossa
##roscop
Freud
Vicin
appet
enzym
trunc
varii
world
##istoria
liquet
obscur
##essionem
Freimut
Hippoly
contrad
fractio
mutatum
syndrom
Pulitzer
contulit
crescunt
culturis
editoria
inceptum
sinistra
liberalis
monstrant
Catholicis
Temporibus
correspond
enumerantur
cogitationis
longitudinem
##ρα
Á
‘
##ahn
##ake
##eco
##qui
##atra
##ereg
##ogne
##ucid
Gil
Hed
Imm
fov
pug
##elmus
##illam
##otica
##ursus
1812
Anal
Drus
Esch
agri
albi
Chica
Goeth
Indig
adest
aestu
lymph
tomus
visum
##igravit
Civile
Compos
Panorm
Publio
Quidam
Regiae
electi
futura
medius
paucos
profug
##euntibus
Antverp
Cultura
Finnica
Genavae
Quamvis
Studies
coniect
effecta
ingenio
Italicum
Xenophon
facilius
servorum
difficile
praeceptor
subspecies
habitantium
operariorum
Septentrionalem
##51
##89
##IA
##yo
SG
##esin
##iber
##mond
##wick
109
330
Cob
Ple
Pre
Aran
Mend
Tang
caps
##eticum
##issipp
Aquis
Megal
Palis
abest
cultu
sitam
Micros
Sanscr
comper
dubium
ethica
format
invers
massae
##apropter
Fulvius
cantrix
diarium
differt
maribus
quantum
variant
Circiter
Plurimae
Siciliam
accipere
antiquam
conditam
habentes
subiecta
Christina
Dominicus
Gottingae
Pragensis
divortium
evolution
occupavit
translata
municipale
orientales
praecipuus
saeculorum
democratica
##ск
##adz
##log
PA
##ason
##bert
##ossa
Hem
Maz
Syd
bon
mes
##arunt
##idere
##oslov
1805
1825
Gilb
Olis
coal
mane
stet
##acensi
altus
defic
Domino
Iulium
Salern
Wright
aperta
campis
reserv
autocin
consule
curator
denomin
radices
gradibus
meliorem
nationale
aedificiis
centimetra
notissimum
Apostolicae
Consociatio
Constitutio
evolutionem
consuetudine
##enh
##ffe
##opp
##urd
Sv
##stra
122
Moh
Pec
ich
pur
##bonae
##ridie
##örlag
Drac
Epit
Isra
Pleb
drac
feud
mors
poti
##inocti
##onymum
Artis
Forma
Libro
Tolki
aëris
reman
vocis
Facult
Miller
Philip
motuum
mutare
nostro
parvam
Interam
Mithrid
Russiam
attigit
proflig
Lusitane
Platonis
Theodoro
adiuncta
concilio
libellum
spiritus
Civitatem
illustres
longitudo
militares
respondit
appellatam
coniunctum
ministerio
confirmavit
scripserunt
suffraganae
##52
##uy
##agr
##eas
##etes
##ixum
Abs
Spe
Tut
pun
##illes
##linus
##tiais
1841
Cron
Geis
Illo
Kent
Mans
Nere
albo
saev
##eraque
##ograec
Champ
insul
pauci
socia
sonus
Alpium
Cornub
Turing
conver
honore
hydrog
metris
optima
rarius
trahit
vetust
##ademiska
Agrippa
Aliquae
College
Hassiae
condemn
conting
dividit
appellat
theodisc
Catholici
adiuvante
imperavit
liberorum
scriptore
sodalibus
Ptolemaeus
religiosis
oeconomicis
##rö
##ën
##eber
##olio
##ylum
Day
Eul
You
##ality
##cribi
##eseos
##igium
##inson
##ollum
1843
Late
Ober
fisc
pess
ritu
##bertus
##eratis
##eratus
Adolf
Benev
Iesum
Musei
Nucle
Senec
Summa
dicto
galax
revel
##onensem
Davide
Michig
Olisip
Status
amicos
epicum
morbis
Mortuus
Organiz
mutatio
progred
talibus
theorem
veteris
Archipel
Bulgaria
chemicum
consenti
familias
familiis
publicas
electione
Mississipp
familiarum
praehistor
Alexandriae
Aristoteles
pugnaverunt
Transmartiais
instrumentorum
##54
##lob
##ruc
Zo
uk
##atri
##olli
##rast
##ythe
Bob
Cil
Got
Nan
meg
##ebrae
##undia
Helm
Kans
Muli
Treb
corn
plen
tess
verm
##anicum
Bacch
Young
aurum
fungi
gerit
porta
remov
repud
stren
##itorium
Aliqui
Archit
Cartes
Caseus
arbore
excerp
expans
factor
incarc
melior
mentem
oculos
poetas
summus
Thessal
conflic
legatum
notione
occasum
##opterorum
annivers
cuiusque
explicat
concessit
Burgundiae
nuncupatus
Territorium
recentiores
Renascentiae
commentarius
##55
##VI
$
##kij
##sae
IC
RE
eb
we
##aver
##inki
##isum
##ocae
##rech
230
ATC
Gam
Jan
Nag
nox
##actis
##anias
##ardia
##matis
Hols
tend
##alogus
##eticam
Arbor
Breta
Helim
Iuven
Omnis
Radio
Sacra
Salis
Spect
altum
emerg
emitt
falsa
petit
##utensis
Gallus
Johann
baptis
conati
confus
dividi
effect
graves
##ectuntur
##eriensis
Curtius
Proelio
pretium
veniunt
##örterbuch
Cenomann
Iaponica
Mathemat
Mundanum
Postremo
Russicum
Vergilii
castello
melodram
psychiat
sermonis
Iustitiae
Patricius
cognomine
electrica
quamobrem
suffragio
Meridianae
continente
insectorum
continenter
electromagn
psychologia
commentariis
administrabat
##lë
##ás
##ρι
##ges
##ovo
##uil
RO
##asii
##fera
##reat
##terf
Dod
Hud
##ophob
Beth
Font
Minn
Poli
Rhae
bomb
##errime
##ologis
Cypri
adopt
cryst
iniqu
censor
diplom
martyr
pinxit
record
suffic
##acotheca
Cisterc
Linnaeo
Sanctam
exilium
Herzegov
Indianae
emeritus
incertum
rettulit
volumina
Microsoft
amicitiam
Aedificium
consistunt
procurator
##44
Č
##abb
##hei
##tar
GA
##VIII
##apse
##auss
##horn
##issi
Eub
adp
ian
##linum
1820
1831
Hoff
Sard
##otrans
Folia
culta
grave
sclop
signo
Basili
Batava
Paraqu
Theres
abolit
puerit
redire
transe
British
Library
Ligeris
Secunda
ambobus
##ulationis
Bretagne
Conradus
Vicipaed
cellulis
expulsus
petrolei
puerorum
Caecilius
Caesareae
inscripta
latissime
praeclari
transcend
Cardinalis
Vicipaedia
compositus
functiones
oeconomiam
potestates
principali
publicarum
indigenarum
substantiae
certaminibus
productionis
##US
##jö
##ός
##VII
##aka
##arl
##erl
##ozo
01
Ce
TE
##ixit
##orni
##oton
##raft
##unam
##urav
216
395
Lan
Sei
Zim
liv
tig
##amini
##ochth
##onaut
##rique
Cato
Cogn
Hosp
Mech
Ojib
oner
wiki
##ermann
##istico
##ulavit
Alois
Iuris
Perus
degli
dimin
editi
##andarum
##uppiter
Iuliae
Minerv
Moenum
certis
exstit
inopia
##aculorum
Armenia
Bruxell
Commune
Dicitur
Eugenio
Expedit
Fratres
colorem
optimum
pondere
putavit
sepulch
simulac
Constitu
Histoire
alicuius
aliquant
decennia
proprius
##onomastica
Scientiae
Thesaurus
celebrata
derivatur
minoribus
Germanicis
Philosophia
aedificiorum
philosophorum
investigationis
##ehr
##eme
##oac
Ti
##anio
##itii
##lëva
##ynes
bov
lem
##ación
##nonym
##osexu
##randi
##ulsus
1675
Amad
Fasc
Func
Jeff
Lich
Pitt
cale
ment
siti
Ansch
Regum
censu
incoh
parvo
varie
Žurav
##ologici
Therap
animos
vicina
Anthrop
Scandin
fuerant
vulgari
Edmundus
Pennsilv
Theatrum
actionis
auctorum
basilica
continuo
designat
##opolitanus
Cambridge
Ephemeris
Hispanici
Salomonis
editionis
historico
octoginta
transitus
Žuravlëva
Hungaricum
suffraganaea
proprietatibus
##jor
af
##iden
##olat
##rone
Lis
Ora
Pae
enc
scr
##istra
##licis
##ogoth
Alam
Card
Cati
Expl
Leod
Poss
mess
pror
segm
subt
##istici
##toniae
Royal
adven
recre
victa
##itensis
aequor
dicens
ductum
sextum
venund
vetere
##entionis
Bernard
Flaccus
Leopold
extremo
sanctum
tertiae
valorem
Elementa
Iuppiter
definita
poematum
scriptam
Demetrius
Musulmani
depositus
ferriviae
instituti
magnitudo
populares
theologia
Tridentina
appellatio
certaminis
sacerdotes
cancellario
Communitatis
occidentalibus
##ān
##aba
##ext
##icc
##ols
DN
SP
##auri
##erin
##phus
##quid
##tier
##uunt
Alf
Eri
Kat
Mak
Ran
Rhe
Sun
Zij
zur
##erica
##kanen
##ontin
##ortum
1567
Crit
Gris
Luna
Regi
Well
erig
evan
fene
haem
##aticus
Adams
Gloss
Lacum
arcem
cenam
cibus
depon
ignis
potes
visus
Flores
Inform
animae
legato
locata
stabil
suspic
Camerae
Coreane
Inscrip
Praemio
Russico
optimus
puellae
singuli
##inationis
coloniis
hemispha
quaestio
varietas
Gallonice
Gymnasium
conscivit
exterarum
mortuorum
muneribus
planities
utriusque
voluerunt
Propositum
Universale
coniunctio
explorator
introduxit
observator
progressum
superiorem
Britannicis
Congregatio
Universalis
praefecturam
##ém
Ky
ak
##Marc
##ende
##inen
##iper
##pers
##ylus
116
Adi
Esc
Gan
Tob
Xav
esc
##aceis
##eorum
##rough
##ultum
Etym
Nota
Urbi
Viae
epit
herm
laes
ster
##aticis
##ilitas
Monem
adiut
assid
inund
nummi
pacto
##ommunic
Fretum
Hesper
Martis
Morris
analyt
##ophyloph
Amerind
Iuliani
Tellure
benedic
evolvit
fideles
nostrae
titulis
Iudaicae
centrali
operarum
dedicatum
foederali
humanista
supersunt
##occidentali
Agrippinae
principale
Brandenburg
Christophori
gubernationem
Septemtrionali
##eor
##nox
##uet
##bell
##isso
##odon
##ynth
Bae
Laz
Lip
Los
Tud
##aciae
##esimo
##fried
##istit
##ortun
##ubert
Diog
Hast
Pasc
Puer
Tour
sati
uter
##onense
Abell
Aetas
Eorum
Gross
Parad
Pseud
aegre
castr
cutis
ficti
futur
notas
other
repos
##enstein
##tuarium
caerim
comiti
coniun
dynast
iunior
marina
result
vocant
Chomsky
dimidio
moralis
motibus
nuntius
occidit
reliqua
Henricum
Neapolis
antiquus
extendit
machinae
pontifex
reddidit
separata
universo
usitatum
Benedicto
decennium
plerisque
propterea
restituta
Anatomical
Gualterius
Testamenti
inferioris
negotiorum
verisimile
experientia
longitudine
condicionibus
Cantabrigiensis
##56
§
##eln
##ingi
##orta
Aes
Ash
Asp
Jah
Kam
Stu
amo
pil
suc
##Nomen
##asque
##ember
##linae
1816
1839
Anni
Apoc
Bith
Bran
Deip
Fall
High
Kong
Ludi
Sime
aene
alae
dans
detr
time
##assius
##quisit
Albae
Atlas
Kunst
Magaz
Plato
Regii
portu
Sinica
suasit
sumptu
##alitates
Cincinn
Arvernia
Document
Gothorum
Helsinki
Victoris
adiunxit
signorum
vocabuli
organismi
Angelopoli
adiectivum
Terminology
oeconomicum
Encyclopaedia
Virtembergiae
##hn
##ει
##dia
##off
AR
MC
##erno
##ists
##tain
Bed
Big
Bla
Chi
Exs
Lob
aen
cyt
iuc
1808
Roch
Thor
arid
daem
disi
edit
exim
verg
##archia
##formes
##itarii
Alasc
Causa
Death
Halic
Lucae
Massa
Peric
Ponte
Turma
amnis
delle
##acional
##inianum
Omnium
Pulkov
dictis
gerere
latino
profit
proper
puncto
##onicorum
Fructus
Georgia
Leonard
Saxonum
Spurius
animadv
invalid
manebat
synonym
Pekkanen
clericus
septimum
Cleopatra
Venetiola
definitio
Lusitanice
Thuringiae
centesimis
terrestris
Harvardiana
Occidentalium
##88
##App
##eva
##hus
##ige
Ku
UD
##esim
##oriz
##resc
##riet
##usse
320
Alo
Dag
Kos
Kön
Rae
Rid
ore
pav
##ledge
##onias
Teut
adam
chor
dona
haer
tenu
##aturis
##ientis
##oglyph
Pyrrh
State
about
aesth
ambae
arcus
capac
excol
praev
##landiae
Indust
Paulum
Peters
Poetry
Seleuc
Syriam
episod
extrah
labore
pretio
secuti
##ilitatis
Estonia
Ioviani
Italico
Moscuae
comprob
concess
mundani
Chronica
Polonice
crescens
rationum
superfam
coniungit
pertinere
sanguinem
Declaratio
Evangelium
Interioris
Monasterii
proclamavit
temperaturae
##59
##dez
PN
Ye
##ants
##arck
##elop
480
Bam
Dia
Mün
Nom
Row
Rut
UEA
bet
had
##andro
##ibile
##onymo
Memp
Suff
hast
toti
##terunt
Marie
Nepos
Prope
Union
allig
ludib
museo
sonum
Burdig
Democr
Palisa
Sassan
Sinice
fortis
haeres
iunxit
negleg
nummos
pollic
Brixiae
Interea
Notitia
casibus
imagine
minimum
Camillus
Rhenania
dixerunt
finitima
litteram
obiectum
revertit
servavit
Alphonsus
Atlantici
Mauritius
scaenicus
architecto
Europaeorum
Principatus
necessarium
superficies
voluminibus
complectitur
Internationale
##ON
##RI
##ütt
##ache
##eman
##onna
##ylla
Air
Cup
Hop
Jon
erg
niv
##achia
##estia
##iculi
1828
Acad
More
Rost
Trag
Wald
caup
diag
navi
posc
##rehens
##stadii
auget
franç
redig
##entione
##osystem
Bremae
Multis
Plures
Romant
Street
dictae
humano
Bohemia
civilia
insecta
maximas
studere
sustent
Britanni
Emmanuel
Introduc
receptus
regimine
Conventio
Helvetica
Moscoviae
Nonnullae
Psalmorum
catholica
Germanicam
componitur
habitantes
transtulit
Occidentalem
Virtembergia
definitionem
duodeviginti
informationis
bibliothecarius
##MA
##ms
##ès
##μα
##ан
·
##Ita
Og
##acam
##ilit
##olin
##yrus
107
Dim
Eux
Que
arx
fru
usa
##antio
##serat
##urgum
1744
Cour
Diac
Exst
Myst
Nort
Sind
cess
diur
##heimer
Aquit
Baldu
Diana
Finis
Flora
Molis
Phaed
Ponti
Spart
Statu
Volsc
gravi
locup
morem
poena
ramus
##atoriam
##atoriis
Oliver
Ucrain
amicum
campum
caterv
exitus
femine
indign
logica
Indorum
Lucania
athleta
dicione
directe
erectum
milibus
sumpsit
valebat
vicinis
Scripsit
abbatiae
autochth
civilium
familiar
spectant
Classical
Lusitania
Presbyter
confectus
consecuta
contrario
magistrum
ministris
tragoedia
astronomus
dictionary
familiares
institutis
mediaevali
Mediolanensi
occidentales
internationale
septentrionibus
##57
##gue
##ixa
##rug
##ovna
##wall
Dra
Eum
Ian
Ret
##araug
##eliae
##ocamp
##ochem
Crac
Hong
Midd
Vari
dent
most
piet
puls
##eldorp
##iculis
##imento
Expos
Ratio
Ratis
Thail
anima
binis
illas
innov
maria
moles
talem
##atricis
##criptus
Sallus
Uxorem
abstin
cancro
elegit
insunt
Canalis
Mogunti
cognita
curalii
iudices
longius
ministr
ponitur
potitus
quintus
simplex
vocales
Iudicium
Socrates
circulos
conventu
defuncto
diplomat
militare
politici
privatus
vexillum
Humanorum
indigenis
ostendunt
productum
divisiones
inscriptio
aequationes
calendarium
constitutio
Alexandrinus
participavit
praeterlapsus
##äd
##apa
##ody
UA
##nova
420
750
Eud
Pho
Rio
Ved
nef
tem
tua
##eatur
##erder
##ollis
##ulpes
1827
Alum
Atti
Chap
Ethn
Gens
Samu
Tran
Trav
lato
Albig
Anglo
Gaium
Tolos
Valer
festa
heros
Cambos
Medium
confit
pueros
Olympia
circumv
nostrum
populis
puellam
salutem
Hadriani
Nationes
Officium
deposuit
infantes
iurisdic
longinqu
metallum
Indonesia
Metamorph
Populorum
ordinibus
praecipit
scientiis
Alexandrum
Catharinae
Districtus
Praesertim
Protestant
aliquantum
descriptus
singulorum
Orientalium
orientalium
traditiones
Protestantes
appellatione
Bucarestensem
constitutione
##ads
##mur
##rin
Ay
CN
Yr
Zh
##aton
##emin
##igli
##ikip
##olim
als
far
pax
##aliam
##berti
##edium
##empor
##ersch
##iculo
##marum
##ricam
##teria
##tinus
##toria
1776
1791
1799
Amor
Angl
Bass
Bona
Cuba
Hert
Unde
pinn
spha
##aturas
##itions
Brevi
Bruno
Strab
colle
datus
venti
verus
##icismus
Arabia
Charta
Homeri
Maximo
Vindel
adiung
alteri
clarum
compil
debere
mundus
opific
pontem
psycho
regiam
##ratislav
Capitis
Maximum
Neronis
Nomencl
Tolkien
actores
excepta
fortuit
nullius
organum
proxima
usitata
François
Inferior
auctorem
biologia
laborare
retinuit
Baptistae
Occidente
Petronius
Praesidis
Victoriae
faciendum
gesserunt
musicorum
naturalem
politicas
principum
Tridentino
antiquarum
educatione
profession
publicavit
amplectitur
constructum
bibliothecam
Cantuariensis
##df
##ét
##XXX
##yam
##éri
BA
CE
DC
SF
pi
##elde
##rani
##yrum
146
340
Boc
Fri
Heb
Mae
McG
Mit
Peg
##iosis
1792
1804
1842
Fenn
Gunt
Rain
Rome
Rust
sane
##ention
##ordiae
##uvenav
attin
eleph
ligno
promp
Cyclad
Genera
Mamerc
Nelson
Portum
acidum
attrah
baccal
coacti
dispon
fundum
istius
longus
pendet
Ancient
Condita
Euvenav
Iacobum
deliber
evangel
fabulos
fiebant
fratrum
permitt
pharmac
viridis
Bohemice
Halicarn
Spiritus
academia
contigit
planetam
poetarum
putabant
telluris
Leonardus
Petropoli
Principia
Titularis
conversus
derivatum
districtu
progenies
titularis
Mediolanum
designatus
Calendarium
commentario
homophyloph
militaribus
occidentale
philologiae
technologiae
##Ar
σ
##nob
##udo
##wig
##yro
Rö
UC
##omed
##opus
##sexu
Aff
Las
Tic
Ariz
Carb
Dial
Holt
Hugh
Illi
Poet
Viam
cere
##idente
##inarii
##ytechn
Dieta
Lunae
longo
##imentis
Bithyn
Villae
afflic
assump
caseus
disser
promin
psalmi
secuta
ultimi
Banglad
Cancell
Holmiae
Marchia
adipisc
ceteras
comites
interna
negotia
reditum
regulas
tenebat
vocavit
##tagonista
Factione
Saeculis
hospitio
mandavit
repertum
undecimo
Centralis
Oldenburg
arboribus
congeries
efficitur
excellunt
processus
proposito
Lusitaniae
functionis
participes
Atheniensis
Salernitana
abecedarium
altitudinem
continentis
significationes
##jan
##oki
##vin
DD
Ps
##acem
##idei
##itta
##rati
Als
Bio
PDG
PSD
Vor
hep
##iendi
##iment
##ipere
##ybrid
##zioni
Alic
Bant
Cell
Dick
Epic
Faus
Jung
Line
Phyl
Renn
Trai
Usus
soni
##entias
##ertius
##ibiles
Certe
Marsh
Verum
altae
crust
gladi
nigra
nubec
quatu
Damasc
Versio
alumna
divina
instig
maiora
mariti
minora
nullus
resurr
Alberti
Badenia
Classis
Foedere
Italici
Navarra
autumno
florens
moderna
scaenam
sonorum
stricto
veteres
vulgata
Asturice
dialecti
loquendi
perpetuo
traditio
##otransmiss
Birmaniae
Caesaraug
efficiunt
epistulae
proficisc
victoriae
Gubernatio
Occitanice
demonstrat
descriptae
dictaturam
inscriptum
promulgata
varietates
Christianum
Philippinis
meridionalis
##esh
##rec
##vey
##älä
..
FI
SD
Vb
##atti
##iose
...
112
169
212
380
Mug
Pav
cot
neb
out
##acher
##asius
##iniam
##iosus
3000
Baud
Bauz
Berk
Brah
Gaii
Marg
Neur
iurg
##Marcus
##ativas
##aturum
##inshan
Baham
Prisc
Pulch
eloqu
obliv
sever
spoli
talia
virus
voces
Center
Flamin
attest
crudel
missae
sancta
##itatores
##quisivit
Croatia
Gallico
Iuliano
coloniz
consobr
eventum
locutio
lusores
moritur
praemio
sexuali
textuum
theatri
tractus
vocatum
Appianus
Theodori
dialecto
histoire
origines
sequente
supremum
Valentiae
Zijinshan
classicis
endemicae
redintegr
republica
Ferdinandi
Publishing
domicilium
Berolinensis
autobiograph
difficultates
##ić
##ems
##ixo
##omu
##ual
DA
##adus
##eira
##emit
##icti
129
Hat
poc
spe
##estri
##ocles
1793
Benn
Casp
Glas
Hait
Irac
Wiss
ador
ferv
##estini
##itatae
Aliud
Aloys
Clark
Cruce
Ephes
Legio
Nanqu
Scrib
Serra
clipe
excep
ictus
mares
pract
scire
sexta
##ederunt
##inosaur
Fontes
Marium
Sicagi
coepta
decima
futuro
hortis
pericl
portas
sediti
unicus
##iensibus
Christo
Siculus
confess
liberam
monachi
nucleus
proelia
regioni
retract
##issimarum
##olutionis
Caligula
Isidorus
Orientem
circulis
faciebat
primaria
prospere
Laurentio
Mussolini
Thuringia
praecipui
praefecto
quantitas
Psychology
praesentis
significant
aliquantulum
medicamentum
Philadelphiae
##EN
##IX
##du
##ls
##oa
##ăn
##τα
##cha
##hum
##ieu
IU
TB
TV
kg
##anca
##asum
##crit
##rada
451
Rup
Sad
Vei
cuc
fum
iec
lob
sud
##edens
##isälä
##oviam
##roduc
##roque
1758
Duss
Gang
Indi
Just
Paci
bono
pell
sinu
trec
##entini
##itaria
##itioni
Alcor
Found
Illum
Moore
Theud
Tuomo
Water
aemul
curam
exsul
immig
magaz
perag
quing
sulph
##oriente
Basile
Centri
Europe
auctum
creati
editae
examin
gestum
longis
servus
specul
unicum
valens
villam
Antiqua
Ligerim
Nostrae
Peruvia
Publici
Vicecom
Väisälä
adulter
aliquis
armorum
chemiae
oppidis
solvere
Gregorii
affirmat
duxerunt
commeatus
communium
dialectos
distincta
transitum
Imprimerie
coniunctim
constanter
problemata
receptoria
Aristotelis
Brasiliensis
Communitatem
distinguitur
occupaverunt
televisionis
archiepiscopo
##Sic
##gni
##yan
DE
##etty
##lini
##tias
##uana
390
Jun
apt
ere
##owski
##uorum
1521
1794
1795
Cran
Luca
Nost
Pert
Porc
Salt
dell
sess
vulc
Aevum
Roter
Schrö
Starg
admon
degit
latum
vicos
Apollo
Appell
Census
Citeri
Domina
Method
morbos
opprim
piscis
portam
##Appianus
##entialis
Aetatis
Oceanus
actorum
aliquos
cithara
idcirco
metabol
profund
putabat
Austriam
Caesarea
divitias
habitare
nervorum
nobilium
picturis
plurimas
primorum
produxit
virtutem
volebant
Byzantini
Institute
sepulcrum
Asteroides
excogitata
gravitatis
identitatis
principatus
internationalem
##wo
##ου
##Con
##orb
##yza
Of
##espe
##iast
##idad
##lies
##roch
##ucci
Gol
Rib
Sit
Sos
Tat
fil
ton
##activ
##anium
##leich
1775
Adri
Afro
Ardu
Mind
Prom
Shan
Trem
crem
Carac
Diosc
Night
Staat
Tokii
Indico
Milton
Mozart
Pythag
cylind
legisl
nativo
obsign
offert
pueris
remota
unione
virium
##itoribus
Milites
Persica
adiutor
censuit
conveni
decreto
fecerat
honores
incerta
sequens
Antigoni
Dioecesi
Nonnulla
accessus
conclavi
ficticia
narratio
römische
videatur
virtutes
accipiunt
declarata
lateribus
scribebat
Ecclesiast
Finnicarum
familiaris
supplicium
superficiei
constituitur
significatio
computatralis
medicamentorum
##ικ
##net
##pon
##ves
Ok
lo
##ader
##holm
##icol
##otti
Cth
Wid
cen
##ights
##ophor
##tique
1700
Cosm
Narb
Sche
Winn
Yrjö
gene
##aturus
##enbach
Illae
altis
phant
Aeneas
Indian
Stella
Tertia
cuidam
effund
hostem
massam
movere
musico
reapse
recess
Apollod
Bonifac
Sodalis
aliquas
divisus
paginam
Castella
Hebraica
acceptus
celebrat
dedicata
distribu
indicant
plurimos
praedita
spectans
Pausanias
Zelandiae
expugnata
facultate
inferiori
instituto
praesidio
Dusseldorp
Sovieticam
Vindobonam
coniunctae
Secretarius
disciplinam
episcoporum
reliquerunt
Nederlandiam
administerio
manuscriptis
Nederlandicus
distinguuntur
Archiepiscopus
significatione
##IT
##fo
##ße
##Ang
##cae
##hiz
##ymb
PP
PS
Pé
##etra
##ioma
##omer
##orks
##osth
##tino
##utas
111
113
430
Azt
Hog
Nax
hal
ole
pdf
tar
##aculi
##esiam
1809
1811
Bosn
Mémo
Phry
Schl
Tsut
abus
comb
even
freg
into
para
pons
Budap
Clara
crass
intro
medit
patef
retro
sinit
solid
verae
##ientium
Quaest
contag
conven
corona
domino
exclud
haeret
ignota
lacrim
lineis
maiest
meteor
sancto
supers
tranqu
trucid
##ianenses
Turciae
Webster
dextram
fortuna
minimus
nuntium
virtute
Gerardus
Hercules
Lentulus
Pompeium
Ucrainae
ferrivia
genetica
inclusis
miliones
propriae
successu
vivebant
Principis
artificia
doctrinas
sinistram
Nanquinium
facultatis
mercatores
varietatis
ferriviaria
mythistorias
expugnaverunt
##Io
##öl
Π
δ
†
##aye
##uve
##yon
IA
NA
##icto
##wart
##yled
550
Cec
Enc
Kop
Mum
Neb
Off
Poë
ens
gro
##ammer
##enice
##lingu
##ortes
##ualis
##yrica
1622
1818
Brug
Gonz
Vere
fall
path
sali
##elibus
Aster
Defin
Harry
Klein
König
Praen
Reges
Uraqu
Veris
aeque
canit
claud
divin
docta
horis
nymph
ponit
sinum
vitas
##itiarum
Arabes
Bengal
County
Indiam
Lucium
Malaes
Portor
Variae
dantur
exitum
habito
necare
perven
report
ruinae
Barbara
Genesis
Ordinem
Palatio
Populus
Prosper
Romanas
Titulus
Tsutomu
anglice
arboris
deducta
dialect
divisit
epistem
history
persuad
plurium
reginam
Demetrii
Hannibal
atmospha
diversas
floribus
incendio
privatis
telescop
epistulas
incipiunt
Franciscum
Orientales
congressus
conscripta
divulgatus
iuventutis
meridianam
mutationem
Portugallia
grammaticae
nonnullorum
##zu
##ape
##cis
##edd
##ege
##mel
##pho
##ven
##yce
gu
##ager
##arde
##chia
##igur
##ithm
##reta
167
410
Kur
rid
##ellow
##natur
##norum
##ratum
1788
1798
Cham
Darm
Gins
Hend
Lacu
Lord
Manh
Rosa
Stal
Wars
capt
##istrum
Eadem
Mikha
Moles
Sedis
acidi
albis
aulae
daret
edere
fraud
incit
##eriorum
Bineth
Centum
Explor
Hudson
Matrit
Numeri
antico
crimin
gravem
licuit
manere
passus
profer
Dietmar
Dresdae
donavit
formata
habeant
notarum
popular
quasdam
versuum
Bohemica
Castello
Hispanis
Iustinus
hebdomad
narravit
praeerat
sustinet
victores
Parkinson
additione
comitatús
marinorum
multitudo
vocabatur
Ottomanici
Oxonienses
fragmentum
institutio
mercatoris
officialem
planetarum
religiosae
circumscrip
oeconomicas
religionibus
undevicesimo
##icu
##imp
##qua
##wan
EA
Lö
TH
wo
##ciae
##turn
370
Bes
Ent
Fav
Ios
Kan
Lod
Tuv
Vex
aes
nex
rum
tal
##ulani
##üttel
Gius
Horn
Kara
Love
Memb
Suev
boni
pern
##iticum
Franz
Guido
Kirch
Querc
Rebus
basis
libid
oppon
sexti
sonat
tanta
##toribus
Collis
Interp
Israël
Tirole
lector
puncta
sollic
Salutis
Tusciae
affecta
cognata
colonis
creatae
discern
excepto
lombard
nosocom
##ellschaft
##ressionis
Neograec
fundavit
imaginum
primitiv
Orientale
Ostrogoth
Polynesia
dissoluta
appellatis
invaserunt
particulae
Sebastianus
migraverunt
securitatis
antiquitatum
Vindobonensis
appellabantur
##58
##gum
##iga
##low
##ysi
DP
##alit
##eier
##erte
##osos
##stri
132
Cul
Gla
Jud
Lae
Mey
fas
##abula
##ament
##ectas
##etana
##iciam
##letin
##reich
Care
Firm
Ford
Kien
Ruti
Siam
Smir
frug
laev
paci
proi
##endere
##eticus
##iendum
Antis
Calab
Fasti
Felic
Sulla
Tales
acerb
alien
benev
first
pasch
##amenhof
##ellanus
Iunior
Persas
Seeger
Stanis
Symbol
arguit
cancri
corpor
haberi
ingens
laudat
longam
marini
metrum
ornata
priori
regula
renasc
Aemilio
Joannes
Novocom
Priscus
Sabinus
Suecica
automat
boreali
convent
deserta
domibus
faciens
occupat
##ographiae
Christus
Dominica
Libellus
Magazine
Stargate
collegit
confluit
legionis
proprias
confoeder
millionum
nuclearis
ornamenta
possessio
praenomen
superstit
Anconitana
Carthagini
Orthodoxae
Superiorem
agnoscitur
biologicum
posteriori
religionum
septentrio
traditione
universale
continentem
factionibus
proclamatus
Mediterraneo
undevicensimi
##wen
CL
Cz
DF
SB
TG
UB
UT
##aise
##aras
##arti
##beck
##burn
##elev
##olii
##rina
136
143
440
Coc
iri
tac
tib
##allus
##ernae
##idiae
##idiam
##issis
##oplas
1801
Berc
Bomb
Frig
Mary
Pace
Pach
Pamp
Serd
Somn
Viri
Wien
amor
meam
pulv
##ordiam
##randus
##ulatum
Frost
Italy
Ocean
limes
longi
panis
sonos
zonae
##abilium
##oniarum
Custod
Danica
Etenim
Poplic
Populi
Protag
distat
florum
infans
merces
senior
Renatus
aetates
algebra
attamen
civilem
errorem
hexamet
iudicia
miseric
nominat
Diodorus
Domitius
Heinrich
Octavius
amicitia
crescere
inclusum
inimicos
insignia
proximis
Italianus
Nymphalid
agricolae
defendere
divisione
indigenae
mammalium
officinae
permultis
publicata
sequentia
subiectum
Antverpiae
extenditur
monasteria
oecosystem
praesentem
rationalis
reconstruc
Constantius
Nihilominus
distributio
professoris
coniunctione
particularum
Massachusetta
comprehendens
##des
##fol
AB
TC
eu
##ench
##hand
##mate
##orne
##rent
##ties
121
Ahm
Haw
Hut
Jak
Kra
lax
mad
##asset
##egreg
##gredi
##inxit
##uniae
1777
1823
Fact
Guad
Haud
Ideo
Koch
Kohl
Saud
Sine
odio
soph
than
##ehogne
##enthal
##ericum
##goviae
Annam
Boris
Mount
Paene
Vales
cornu
homic
innoc
poesi
recit
valor
##isticus
##rantium
Chomsk
Civili
Tamara
ceteri
classe
culmen
facies
fratri
minuta
servos
versum
Alexius
Civilis
Douglas
Latinos
cecinit
feminas
figurae
horolog
labores
libello
maritum
Hamilton
Hemispha
Iaponiam
Mexicana
Smirnova
Tellurem
Zamenhof
adiacens
aequilib
bellorum
capitulo
itineris
negotium
remansit
tractant
vicesimo
Arnstadii
Debehogne
Orthodoxa
Plerumque
conabatur
incipiens
monarchia
orientale
popularem
prioribus
radicibus
antiquitus
cathedrali
dictatoris
divisionem
historique
superiores
varietatem
clarissimus
pervenerunt
Vindelicorum
demonstravit
inscriptione
Mediolanensis
descriptionem
Francogallicam
septentrionales
##Cl
С
##yak
##yes
CB
Ja
MA
Ré
##Comm
##atch
##chem
##elly
##ichi
##ness
##rona
265
Heg
gam
may
##aneum
##ellen
##estum
##ortem
##strem
##ticus
##ufrag
Caer
Edin
Mino
Volf
auri
auro
blog
fluc
gymn
meum
pant
trom
vino
##anense
##ochond
Aedes
Dream
Obiit
Purit
Schul
Ultra
coerc
fanum
inhib
senex
##estriae
##icultur
Nerone
Studia
advent
captum
codice
conflu
imagin
meridi
online
regiae
studet
##urgensis
bonorum
columna
diutius
intulit
narrant
quatuor
spelunc
valores
Calvinus
Metellus
Religion
altitudo
castelli
cellulas
exclusis
inventis
naturale
nonnulla
sectator
subdivis
universi
Agrippina
Ludovicum
artificum
separatim
Literature
catholicae
historicae
praecipuis
subfamilia
agnoscuntur
democratiae
grammaticam
Francogallicus
##hl
Κ
λ
##gis
ps
##gart
##iant
##lois
##oles
##oque
##witz
##ères
Eut
Ras
Vul
mei
osc
who
you
##ronis
Cena
Fori
Inst
Iove
Leib
Malv
Nich
Prod
Rest
Sles
coem
eunt
##enauer
##iciunt
Annus
Litor
Vimar
cland
gloss
iusto
roman
venen
##atorius
##endecim
Aelius
Angelo
Centur
Circum
Itiner
Observ
Ordine
Sprech
americ
calcul
conced
exsequ
millim
nativa
quater
tenere
vellet
Commerc
Dorothe
Timothe
ingenii
novimus
regalis
Herculis
Isabella
Pyrenaei
Research
articulo
exeuntis
mulierem
nominati
Ciceronem
Guillelmi
Latinitas
inferiore
ministrum
recognosc
singulari
Oeconomiae
compositio
mediterran
mercaturae
peregrinis
translatum
altitudinis
quantitatem
comprehensus
mutationibus
##yk
##ful
##nos
Bü
Dz
EC
RB
UK
##eshi
##ivus
##kawa
##mant
##ongo
217
310
650
One
das
##ensae
##ituum
##oriam
1617
Bali
Corv
Fast
Sang
Symm
Welt
been
exac
##inense
##ressum
##ulisse
##ylovna
Antip
Costa
Ernst
Fidel
Vicet
chaly
dextr
ipsos
latin
mondo
obsol
ponte
radic
versu
victo
zonis
Confuc
Harper
Keynes
Magnam
Mediam
Nuntii
Paterc
adluit
nigrum
patres
poetam
potens
reclam
Coronae
Fratrum
Helveti
Kienast
Lombard
Musicae
Roterod
coloris
dicavit
repente
##opolitano
Antiquis
Aristoph
Benedict
Birmania
Ginsberg
Shakespe
absolvit
foliorum
function
permulta
proeliis
provenit
Quamobrem
Radulphus
comitatum
generalem
notabiles
rectionis
respondet
Argentinae
Macedoniae
adulescens
advenerunt
agricultur
identitate
meridianae
notionibus
posteriore
Defensionis
Mikhaylovna
compluribus
dollariorum
excogitatum
ingeniariae
commercialis
praeterlabitur
##DH
##wi
##ης
##alu
##lea
##uas
##zig
DO
ye
zu
##acio
##aeis
##athe
##igit
##ivam
##ives
##rime
##uchi
203
363
Fod
Net
RDG
Tah
Tem
Wel
bel
huc
##asiae
##elect
##eniam
##exiae
##iavit
##urium
1782
Auth
Corc
Phoc
Stur
Tana
Yang
coff
rami
torm
##apedia
##escunt
##iniani
##oclass
##ogramm
##olingu
##osorum
##utatio
Dante
Filii
Guard
Herae
chori
exorn
forti
inius
invit
lunae
miser
muros
oboed
vapor
##ophthal
Appius
Arthur
Claudi
Famili
Indica
Luciae
domina
faciem
induti
plenum
procre
realis
scitur
senect
##ominibus
Brixiam
Cretace
Linguam
iudicii
momento
nubecul
positae
servare
##ographica
Bulletin
Claudium
Ludovica
Novogard
chemicus
concilii
formarum
homosexu
includit
language
mensurae
repperit
unitatem
Herodotus
Martialis
aedificii
definitis
technolog
triumphum
Paeninsula
birotarius
extraordin
psychoanal
Eboracensis
adhibebatur
electronica
narrationem
organizatio
pertinebant
Administerio
Dacoromanica
consuetudinem
##ibo
##igg
AL
Fu
RC
UG
##anem
##anno
##chio
##iaca
##icht
##olla
##uleg
##ungs
123
337
DNA
Hes
Jim
Piz
pum
urg
##amque
##ittle
##olica
Amar
Bene
Fama
Hook
Scho
Terg
URSS
beta
gess
luct
mang
metu
meus
oris
typi
viva
##apolis
Exper
Pyram
Solem
Space
agrum
enarr
ludit
negat
orche
passa
pedum
##atenses
##avensis
##ingorum
Divers
Howard
Marina
Mirand
Sacram
Voldem
concub
factas
namque
qualis
soluta
sorore
uxores
Bosniae
critica
egerunt
exhibet
paradox
positus
rectang
Diocesis
Doctrina
Norvegia
Russicus
diversae
exstitit
gubernii
moverunt
pericula
probabil
pugnatum
sermones
Australem
Galfridus
Philippum
Valentine
domestica
Beniaminus
Salvatoris
catholicus
disputatur
investigat
vectigalia
nominabatur
paeninsulae
Portugalliae
auctoritatis
circumiectis
scientificum
Congregationis
EE
GN
PR
##anag
##aron
139
211
Ati
Esp
Gos
Hur
Sut
URL
Who
fel
hib
##egard
##ernus
##etici
##utium
Arim
Bism
Bles
Corb
Dunc
Eber
Trop
Verd
demp
eccl
fric
harp
horm
meti
##esimum
##italis
Caled
Evans
Linea
Slesv
Urata
bulla
cauda
decor
felis
noctu
rubra
siglo
##ideorum
Intell
Martyr
Persis
Pompei
Transl
Zimmer
coenob
combus
docere
gloria
nactus
nautae
petere
respir
segreg
utilis
villae
Chicago
Confoed
Coreana
Jacques
Takeshi
aedibus
aliquod
apertum
coronam
deutsch
directa
palatio
vincere
vocibus
Extremad
Ferrivia
Gallorum
Mémoires
corporum
insidias
liberata
singulos
Islamicae
Vratislav
faciebant
Palaestina
Polynesiae
Wörterbuch
cardinales
fluminibus
incolebant
institutus
introducta
praeclarum
translatic
convenerunt
inscribitur
municipalis
programmate
neurotransmiss
##TA
{
γ
##iar
##rax
SN
##alyp
##avus
##imen
##tsch
173
222
460
Bak
Cim
Het
Hoh
SED
Tap
esp
som
une
vib
web
##aliis
##atuum
##itura
Bocc
Burn
Casa
Drag
Nemo
Poly
Sole
This
cibo
nave
##icitur
##oncili
##otyled
Aesch
Fines
Gesta
Leges
River
Words
ampla
annex
antic
ferri
heter
horti
intim
mutat
trist
venum
vigil
Albani
Alexii
Aphrod
Librum
Macrob
Werner
append
collis
damnum
diarii
dictam
fretum
frigid
gravit
hybrid
incola
offici
provid
Humbold
Instrum
Kennedy
Ojibway
Tolosae
dominio
fabrica
favorem
futuris
habitis
ipsorum
ordinum
paravit
repetit
sanctae
singulo
Antequam
Culturae
acceptam
apparent
insignis
libenter
posteris
regnorum
terminum
Constanti
Polytechn
Ptolemaeo
complexus
superiori
Americanam
Constantia
Theodiscam
clarissima
mechanicae
ostentatur
Testamentum
attribuitur
Commissionis
interfuerunt
Atheniensibus
Nymphalidarum
internationales
##dor
##iox
##nea
##zar
AS
og
ou
##odia
##ostr
##uvii
142
176
Ech
Ego
Kol
Tet
Yog
bio
sam
##aceas
##actam
##ertae
##incta
##onyma
##ticis
1204
1750
1768
1785
Agam
Beli
Fani
Goog
Rege
Seki
Tria
luna
malo
onus
perl
##anicus
Borgo
Carlo
Decem
Gnaeo
Lapis
Pelag
bonus
dives
invoc
manip
prost
restr
Baltim
Corpor
Herman
Murray
Planet
Texiae
Triang
Watson
comite
curiae
google
tutela
valere
##ensiones
Fidenas
Horatii
Lugduno
Omnibus
additis
moderni
obtulit
perfici
praeest
propugn
Charlois
Diogenes
Georgiae
Hoffmann
Rhaetiae
animalis
fortiter
inventor
Massiliae
Medicinae
Poplicola
Therapeut
attingere
contradic
custodiam
lapidibus
meridiano
similibus
sustinuit
Byzantinus
Scriptores
Sebastiani
celebravit
consistere
documentis
duodevices
antecessore
televisione
valetudinis
variationes
Christophoro
chiliometris
cogitationes
communitatem
professionalis
##ων
##egg
##vel
##yss
AE
EN
GE
##arit
##edem
##essi
##oses
##osev
##ranc
##udum
##viri
126
161
238
470
Dob
Gif
Raw
Wes
anx
vor
##aland
##ating
##eling
##oliae
##umann
1723
Adel
Anto
Disp
Grae
cler
feri
prem
##acorum
##icismi
##lingen
Alten
Mauri
Pagus
Pruss
Torqu
curae
delim
fundo
iacul
malle
solam
squam
##ectivum
##inensem
##isticas
Bernae
Empire
Geisei
Gradus
Hortus
Severi
assign
coacta
coegit
dexter
instru
oblect
obviam
silvas
stadio
##ectionum
##ikipedia
Aemilii
Berkele
Illustr
Romulus
calefac
quartae
statuae
urbanus
Cornelii
Potestas
nummorum
producit
prolatum
ratiocin
repertae
scribens
silvarum
singulam
storiche
Graecarum
Praecipua
Romanarum
Similiter
aedificio
attributa
capitulum
descendit
equitibus
intellegi
restituit
voluntate
Atropatene
Orientalem
argentaria
inferiores
ingeniaria
interfecti
praefectum
systematum
confirmatus
posterioris
computatrali
conscientiae
habitationis
scientificae
pertinentibus
archaeologicus
constitutionis
##dr
##ahr
##fur
##gna
##lao
##yot
DV
LX
Ri
SV
##atea
##atie
##aves
##ifer
##lage
##ocol
##ovis
131
162
171
215
Dil
Nik
Shi
ans
##artim
##olunt
##tinum
1770
Bast
Hern
XXII
duci
maiz
pasc
poly
trai
will
##itator
##itorem
##lianus
##opolin
First
Varis
balne
canti
clade
coaev
favit
limit
pedem
##Anglice
##Cassius
##elleius
##otherap
Barcin
Legion
Semper
Turmae
exclam
fertil
poëtae
puerum
Convers
Flavium
General
aedilis
exsilio
francog
gratias
pugnare
recepta
Aegyptus
Antonini
Polonica
Programm
Rogerius
Sanscrit
Volfgang
adhibuit
aequatio
collegia
credidit
criticus
sculptor
Aliquando
Mahometus
constabat
crescebat
includunt
microscop
nuntiorum
reliquias
Anglicanae
Argumentum
Comprehens
Monumentum
Sempronius
Vicinoniae
akademiska
diligenter
geographia
interfecit
monstravit
principiis
structuras
Illinoesiae
commentarii
differentia
Americanarum
Republicanae
controversia
Francogallicae
##Vb
AG
SM
WA
##enni
##isco
##pert
206
218
305
306
312
Gel
Nab
Tav
nor
##itiis
##oglio
##ronym
##stone
1654
1783
Boeo
From
Glad
Huss
José
Lapp
Otho
Saty
Vitr
What
With
evol
glyc
life
spem
##aevius
##atific
##entiis
##ochrom
Colle
Group
Ienae
Litus
Pomer
Secur
Varia
canis
datis
hamax
inser
ipsae
natae
oculi
##ortavit
Aeneae
Batave
Burgus
Corona
Gallos
Honoro
Manius
Maxime
Ultima
commod
conect
consol
förlag
immedi
libero
pestil
priore
reddit
rubrum
supell
##ioecesem
Arabico
Arteria
Austroc
Caesari
Hyginus
Iuvenis
Magistr
Partium
Ucraina
Valerio
mixtura
nuptias
statuta
valoris
##ographiam
Cornelia
Dionysii
Scientia
accessum
conantur
enumerat
influunt
interrup
monstrum
praecept
singulae
singulum
Terentius
concessum
factionum
loquentes
novissimo
obsidione
potentiae
vocabulis
Calpurnius
Fredericum
artificium
consultato
gravissima
nuncupatum
patriarcha
relationes
sententiis
sequebatur
symptomata
Apostolorum
spectatores
Esperanticam
Gesellschaft
archiepiscopi
inscriptiones
Cantabrigienses
inscriptionibus
##ät
−
##agh
##agu
##alg
AM
CY
EM
RH
TR
ét
##ecte
##ever
##ries
##ulem
119
151
205
Eae
Enn
Gav
##Memor
##agasc
##ellit
##ridis
##uncta
##upman
1685
Crat
Iuno
Lieb
Main
Niet
Piso
Summ
equi
goth
mota
pigm
##atilis
##eticis
##riensi
##uerint
Actus
Hered
Iovem
Short
Stadt
Trist
adapt
corde
immut
latif
marti
notam
operi
pagis
palam
pedit
polyg
sequi
##ionario
##opolita
Androm
Carter
Cotton
Formae
Multos
Regium
adsump
angust
falsum
hymnus
indulg
operat
paenit
patent
proveh
radice
rapide
servat
##ologique
##ologorum
Descrip
Florent
acceler
aperuit
arteria
attulit
canoniz
crimina
foedera
incerto
litoris
membris
nucleum
physici
praebit
quosdam
storico
veterum
Cicerone
Circuitu
Episcopo
Ignatius
Imprimis
Johannes
Schubert
Sinensis
Stanford
Tubingae
capitali
congruit
cursibus
nascitur
vecturae
Macedonum
Vindobona
botanista
circumiac
iuvenibus
religiosi
veterrima
Alexandria
Apostolica
Catalanice
Hispanorum
coniunctus
democratia
exercituum
infrastruc
necessario
statistica
Norimbergae
agricolarum
apparuerunt
principalem
principatum
undeviginti
Francogallia
incarceratus
orthographia
vectigalibus
inscriptionem
principalibus
commentariorum
##oj
##esk
##hip
##key
SH
SJ
TD
UF
VA
##isca
##king
149
Cun
Daw
Rov
##ected
##ender
##stadt
1300
1557
Bosc
Crux
Euch
Flam
Iura
Kush
Salz
Sper
apta
benz
carp
lact
nect
orch
taur
Abbas
Bloom
Cthul
Españ
Galba
Meyer
assum
chlor
comed
innum
undae
vivus
Alanus
Assump
Comoed
Dianae
Harlem
Kaiser
Merkel
Minnes
Parker
Rogers
Somers
ambitu
analog
contum
ducens
expand
matric
medioc
nummus
plenam
relata
sacrum
sagitt
strata
Anicius
Ernesto
agnovit
concent
critico
externa
gerebat
mandata
marmore
vicaria
vocalis
##ectatores
Arabicis
Estonice
Madagasc
Ruthenia
Vicetina
collegae
nescitur
proponit
requirit
secretis
Antoninus
Gulielmum
Nobeliano
argumento
continere
incendium
permanent
reconcili
societati
varietate
violentia
Aequinocti
Euvenavice
argumentis
incipiente
publicatum
putaverunt
religiosus
servitutis
Hierosolyma
Pinacotheca
commentarium
manuscriptum
anthropologiae
##oe
##906
##jus
##leb
##wal
##yre
PC
SK
UJ
VB
##enau
##hrer
##mont
394
Hec
Nos
Rox
Whe
amn
avi
our
pod
##aneus
##darum
##ennes
##erina
##esset
##ilior
##orden
1492
5000
Cimb
Duod
Fred
Mall
Sunn
laet
quer
##Confer
##randum
Abasc
Andra
Arcad
Chlod
Energ
Malay
Noctu
cadit
count
creat
deput
flamm
intus
lapis
odium
##iciorum
##itarium
##ropolis
##severat
Cappad
Ibidem
Luteti
Socius
Unitas
clades
substr
##ingensis
##issionis
Bibliis
Epitome
Verisim
articul
canalis
contrah
discere
divisae
mollusc
naufrag
nocturn
optimis
regebat
septimi
vertebr
veterem
Adenauer
Europaeo
Lutherus
Marcelli
Sardinia
clavilis
maritima
planitie
##opolitanam
Guelpherb
Mercurius
Nicaragua
Vitellius
compositi
navigavit
nobilibus
posterior
Asturiarum
Australiam
Heidelberg
Venetiarum
apostolica
cognoscere
habebantur
litteraria
respondere
narrationes
septendecim
Esperanticis
Associationis
Socialisticae
##DE
##yi
ε
##nav
HA
LA
nu
##arca
##enzo
##etyp
##onic
##opia
##uber
235
465
Bug
IPA
Neu
Oak
Sis
aph
cun
lit
sav
##tifer
##turus
1796
Cald
Chan
Clin
Mors
Nest
Pesc
Stol
Tant
Vene
Yosh
arcu
chil
vasa
##ologos
##ésiast
Braun
Brist
Grant
Memph
Nuper
Stand
brach
deteg
facin
obnox
puero
##Memorie
Berlin
Centro
Indici
Philli
Singap
Statun
cultiv
fecund
immort
lineas
magnos
method
mittit
oceani
satrap
##ellenses
##olutione
Googles
Marcius
Minorem
Patavii
celeber
ducebat
effugit
eminent
grandis
regulam
taberna
ultimam
Effectus
Nazistis
Springer
autonoma
concessa
educatio
locuplet
miserunt
relative
Anglicana
Clementis
Europaeus
Ferrariae
Francisca
Macedonia
academiam
adoptatus
categoria
contubern
decenniis
laborandi
Octavianus
Philosophy
consulibus
inferiorem
legionibus
supernatur
Lovaniensis
adversarius
coniungitur
disciplinis
quaestionem
sociologiae
coniunguntur
aedificaverunt
##ee
~
##alm
##bec
##ehn
##erx
##hen
##heo
##ots
##tib
##ube
##zzi
CH
Ez
TN
UP
##acht
##ados
##ehav
##eppe
141
325
Bow
Fic
Kor
McN
Mix
Spi
Wei
any
bom
fat
##encia
##inali
##itiem
##licum
##olens
##ympha
1519
1630
1778
Buck
Cocc
Croc
Eich
Magd
Schn
apoc
dono
mori
plag
porc
rass
saxa
thor
ullo
vota
##aricum
##atiunc
##iculus
##ostoli
Canis
Guili
Indis
Melan
Notus
Quare
accum
affer
movet
pares
prout
##aniensi
##anismus
##eraeque
Aristi
Harrio
Herbip
Howell
Ingeni
Procop
Sectio
burgus
nimium
noster
patens
superf
tradit
utiles
Calvini
Manfred
Posteri
Raphael
Wallace
adduxit
diuturn
feminam
inopiam
margine
privati
removit
utentes
vigiles
Bismarck
Catalane
Floridae
Nacional
Romaniam
adhibere
aequalis
alimenta
coluntur
extremam
fidelium
formulam
incidens
indigena
negotiis
nullarum
phylogen
repertis
reproduc
tulerunt
versatus
Austriaca
Islamicam
Paschalis
dialectis
reprehend
aestimavit
attributum
coloniarum
conditores
creationem
imperatrix
praecipuas
Imperatoris
consecratus
rebellionem
Caesaraugust
Reformationis
administerium
interpretatio
traditionibus
##BA
##IN
##iā
##στ
##lat
TF
UL
##amer
##limm
##tiis
##tive
204
209
253
850
Alv
Bov
Cib
Eva
Zam
alp
tet
##aenae
##andri
##decim
##erton
##istic
##opoda
##ández
1559
1774
1780
1787
Cart
Coem
Guar
Lati
Naur
Rivi
Tanz
That
athe
fati
uppl
viti
##ederet
##ellium
##nosoph
Divus
Girol
Poems
abiit
bonam
embry
excav
facie
foris
horae
immol
istam
perpa
sanct
saxum
scand
stati
Epamin
García
Roosev
adulti
census
column
curiam
futuri
quocum
scient
scriba
##terflies
##unturium
Cambria
Maiores
Pedemon
Plantae
Viscons
dimidia
iuvenem
moderat
placuit
quartam
regulae
sedibus
subsequ
symbola
Hadriano
Kalendas
antiquas
captivus
diametro
disserit
exercere
inimicus
mammalia
pictoris
proscrip
sociorum
unitates
universa
vendidit
Congressu
Hungarica
Lituaniae
adoptavit
concentus
millennio
putabatur
Aeroportus
Cleopatrae
Imperatore
Paterculus
Septembrem
Theophrast
accuratius
documentum
ecclésiast
eruditione
machinarum
testamento
editionibus
italiapedia
Harvardianae
traditionalis
Constitutionem
##ET
##yu
##ña
##aff
##diu
##yae
EB
ED
ES
Hö
Jr
Pf
SR
ba
sm
##egen
##itti
##lins
##riis
##ucae
##ween
147
221
Ref
Sea
Tan
gel
ira
##Vicip
##esque
##tagon
1530
1786
Bush
Four
Lutz
Mond
Play
diae
erem
fier
quic
syno
##berger
##eantur
##erland
##loresc
##ulerat
Aboae
Beeth
Broad
Elias
Modus
Posid
Venet
Virgo
aurei
bonis
curat
dimic
drama
emigr
nigri
quali
##enensis
##ernment
##ocratis
Consul
Iuvent
Trapez
circul
confug
consid
latera
lignum
normas
terrib
vector
victis
##ativorum
##ianensis
Alfredo
Aurelii
Conclav
Gilbert
Silesia
Zingari
cerebro
codices
delevit
ducitur
duxerat
invasit
pluries
reddere
tropica
vetusti
Comnenus
Lusitana
Robinson
Tribunal
Venetiol
adiuvare
amicorum
commissa
concilia
leguntur
militiam
operarii
servatum
upplagan
Bergomati
Erythraea
Norvegiae
Superiori
Visigothi
deperdita
identific
mitochond
persuasit
protectam
protector
tractavit
Canadensis
fragmentis
obsidionem
relationem
theologiam
Argentorati
circumiecta
immunitatis
intellegere
paupertatem
systematibus
controversias
institutionis
occidentalium
##eu
##kt
##oi
##qq
ἀ
##tea
BL
RF
SL
XA
##arab
##esto
##head
##tali
##ther
##zeit
137
950
Cir
Map
Mov
Orn
Osc
Rur
Tax
gli
##acius
##ersen
##essae
##iliis
##itius
1623
Heid
Nass
Ring
Verc
cena
domn
ever
pand
some
tale
##iretur
Campo
Eliot
Karač
Ponta
Velut
Volus
found
laude
lente
phara
pilam
spars
vitis
##Ioannes
##ectores
Alumna
Amoris
Comput
Grande
Mancun
Poesis
Stuart
adveni
agnita
amator
animus
carens
confid
inaequ
Aerarii
Aurelio
Brundis
Iudaeae
Praedic
Surinam
Teatina
Thomson
laborat
paginas
palatii
priores
prorsus
referri
seroton
submers
urbanis
European
Receptor
Traupman
genealog
inferius
ingentem
iustitia
notionum
perrexit
recedere
speciali
##ologicorum
Beethoven
Euripides
Herbertus
confectae
coniectus
conspectu
destructa
honoratus
Americanos
Deipnosoph
Monophthal
aedificari
baccalaure
consociata
corporibus
electricum
historicam
vicensimum
Lotharingia
Hierosolymis
geographicae
praefecturas
##UM
##mm
##οι
##atl
##sea
##yin
05
Gy
SW
Sü
TO
##amae
##auer
##inci
##mius
##mund
##news
##work
152
224
Hus
Leb
Roh
Sph
Tin
bip
ful
##aciam
##alism
##eberg
##ilias
##itici
##rence
1180
Ager
Alab
Anac
Diei
Gaud
Harp
Moll
Titi
Viol
Wend
card
deam
hinc
insc
iste
vacc
voor
##aricus
##endium
##estria
##iniana
##ivorum
##quidem
##uleius
Award
Ferre
Hyper
Lithu
Regin
Ritus
Seneg
Volod
adiit
depic
diagn
erunt
event
istud
pedis
plano
sodal
subit
summi
veter
##riensis
##utionum
Aliter
Cammar
Citrus
Coloni
Genuae
Gordon
Irania
Iurass
Kentuk
Ulixes
aperte
aspect
brevem
gregum
hostis
medico
nigris
people
stimul
##Communia
Fischer
Germano
Graecas
Latinas
Stewart
adhibet
camerae
degebat
duravit
gloriae
libelli
mutatur
obscura
poemate
vicecom
Finnicus
Girolamo
Italicis
Iulianum
Matthias
Schiller
abbatiam
adfirmat
exemplis
infantem
opinione
poematis
profecto
proximum
referunt
Karačkina
Theodisco
Vallesius
consulatu
conversum
credebant
dignitate
discessit
linguista
manserunt
originali
perpetuum
Mamercinus
Vestfaliae
designavit
dissimilis
incremento
possidebat
publicorum
spectacula
valetudine
vestimenta
atmosphaera
humanitatis
nuncupantur
patrimonium
Bibliothecam
commemoratur
consideratur
conversionem
interretiali
praefecturis
Comprehensori
Consociatione
repraesentant
substantiarum
constructionis
##ân
β
##Had
##eux
##iav
##kes
##mod
DB
NH
RK
TK
ta
##elda
##fact
##geme
##olid
##onga
##rias
##riev
##sten
##uces
##yrii
202
324
Gov
Oed
Wir
cic
mas
ont
##ensor
##ippus
##istro
##itage
##uvius
1784
Agro
Bron
Cael
Falc
Sali
Sibi
acri
diox
igne
iuri
pent
taen
volv
what
##aminis
##chirid
##erberg
##idemus
##ulanus
Austr
Cange
Crist
Domum
Lepid
Navis
Popul
Sinae
Texia
autom
clare
crebr
destr
incub
plast
pyrob
regit
rigat
rubro
totus
##ificata
##initate
Angela
Bassus
Bosnia
Cantus
Immanu
Marath
camera
centro
cottid
emissa
itiner
paucae
subtil
tumult
##illensis
Austral
Casalis
Dominum
Insulam
Interim
Kenneth
Princet
Quarter
Tertium
amborum
bilingu
cellula
ceteros
edictum
imperat
inhabit
licebat
metalla
movetur
novorum
paginis
pariter
pluviis
polythe
redacta
stellas
student
thermae
Aegyptia
Alphonso
Campbell
Germanos
Lawrence
Mercurii
conduxit
consensu
describi
exprimit
externos
militiae
nazistis
opportun
subscrip
syndroma
Aethiopia
Gallaecia
Gualterus
Lucretius
accusavit
multiplex
permittit
praeditum
praesides
praestant
suffragia
Elizabetha
Sallustius
Taurinorum
abecedario
culturales
curriculum
defendebat
frequentia
persecutus
defensionis
professores
instituerunt
organismorum
Communisticae
anthropologia
antiquissimum
oeconomicarum
quaestionibus
archidioecesis
valetudinarium
##ny
##sr
##hon
##yen
GC
PM
QA
SQ
TJ
TP
UH
VC
WH
##aeam
##ampa
##anyi
##arta
##edis
##ibia
##orea
##ppen
##ubae
##urne
Diu
Fox
Hot
Ker
McK
Voy
##actio
##aviam
##etius
##itsch
##ivalv
##olata
1773
Ever
Gest
Hero
Hyac
Luis
Maec
Ratz
Town
Vert
Vici
acet
amat
annu
cole
minu
pect
pitt
##achiae
##anismi
##istics
##lavius
##otorum
Atque
Fragm
Lucia
Poeta
Praet
Proto
Sedit
antis
billi
didic
domos
donum
fiant
habes
ictum
inest
missi
muris
sider
virgo
zonam
Bering
Disney
Engels
Lycaen
Mongol
Oratio
Pisana
Quoque
Ravenn
Sepulc
Tarrac
aequat
aggreg
avibus
catena
desert
feriae
nomini
pollin
portae
redemp
repudi
traxit
valuit
Atticae
Felicis
Liberae
Praetor
Valetud
abscond
adolesc
affecit
alsuleg
deletum
docendi
dominum
essenti
graduum
ignotus
nuntios
peritis
pervulg
septima
undarum
Ammianus
Danubium
Interamn
Neptunus
Salvator
borealis
contempl
praebere
problema
sustulit
volumine
Campaniae
Epaminond
Historiam
Latinarum
Leopoldus
Rodericus
Verginius
adhibitae
attingunt
transvers
Bauzanensi
Darmstadii
Inscriptio
Ottomanico
architecti
frequenter
mercatoria
municipiis
potissimum
privilegia
revertebat
secretaria
sectatores
terrestres
artificibus
continentes
experimenta
medicamenta
multiplices
principibus
spectaculum
vectigalium
insequentibus
##oš
##ин
##fia
##zin
02
ET
GB
LG
RM
ia
##alup
##arro
##iosi
##isth
##oreg
##unis
##utos
624
Dup
Plo
Vog
dop
##ellii
##elsen
##iosum
##leben
##opsis
##uensi
##ustos
1520
Aulo
Avus
Carc
Fire
Hinc
MDCC
Real
Smyr
crep
curv
fimb
fulc
iact
oleo
sinc
were
##azione
##ecisse
Annos
Aurea
Clima
Earth
Erant
Illic
Lenin
Nerva
Novus
Rocca
Russi
aerem
amino
annua
archa
confl
incis
lexic
matut
repti
velle
##ecturae
Abeced
Beatae
Depart
Duncan
Jacobi
Natura
Quarum
Silvae
Social
Sophia
Vigorn
commor
eventa
expect
festus
noluit
occurr
organa
poenam
pugnis
scribi
semant
tenens
testud
turmis
veniam
vincit
##arienses
##entiarum
Antoine
biochem
caelest
civiles
deorsum
sociale
verific
Agrippae
Armeniae
Circulum
Deutsche
Devoniae
aequales
cerebrum
credimus
exsistit
internis
magnorum
mercatum
picturam
picturas
refugium
tumultus
Aureliano
Bergoglio
Chronicon
Conventum
Helvetiam
Pomponius
Roosevelt
appellare
ephemerid
quaelibet
transmitt
Anscharius
Varisiensi
Venetiolae
Wolfgangus
Zimmerwald
confirmata
experiment
industriam
monarchiae
propositis
receperunt
religiosam
Occidentale
celeberrima
computatrum
naturaliter
paupertatis
Consortionis
Mediterranei
archaeologis
definitiones
expeditiones
mythistoriis
septemtrione
Illustrissimi
comprehendere
##kk
##rí
##add
##ité
##lyn
##pet
BM
Ló
RG
SU
UM
##ball
##enso
##imar
##rovi
##uros
##yler
225
275
378
610
Age
Fol
Ged
Gis
rix
vos
##blica
##ideae
##lique
##ochae
##osoma
##stram
Agap
Aula
Born
Coli
Dann
Esqu
Hunn
Kath
Sarm
Saur
alis
atis
capp
casa
dari
nosc
only
pede
scit
tinc
##bustus
Extra
Hagae
Names
Oster
caper
capti
cruci
decim
oleum
recep
socio
##ational
##icismum
Decius
Hobbes
Iunium
Liverp
Pastor
Pietro
Sacerd
Senatu
Signum
Tellus
Torres
adaequ
benign
campos
columb
deform
dentes
etenim
gerunt
improb
noctem
serius
valent
venire
Algerii
Bentham
Neolith
Siberia
Tabulae
accurat
aliaque
archive
conturb
dicendi
diffusa
locutus
memorat
mercatu
monothe
mundana
officii
paginae
stratum
tribuit
ultimos
urbanae
uterque
Communis
Italicam
Mandarin
Matthaeo
Smithson
fundatur
habitans
magistra
piscibus
politico
pueritia
transmar
artificis
composito
definivit
epistulis
ordinavit
organista
politicum
Capitolium
Magdalenae
consistens
periodicis
recentibus
sermonibus
venundatus
Pontificiae
paeninsulam
specialiter
corruptionis
dissimilibus
meridionalem
possessiones
compositionem
compositiones
##ID
##lé
##ns
##rn
##ор
##aep
##alb
##elp
EP
ST
WS
##acho
##agia
##ague
##arda
##baum
##cito
##ecus
##onne
##onso
##rama
##ucin
179
323
392
Arx
Avi
Cyb
Eup
Iuc
Kep
Oct
Wit
agi
cos
##Feder
##ulana
##viron
1522
1598
1769
Bagd
Eubo
Guil
equo
gall
genu
phal
tuum
##amenta
##initas
##itoria
##ogonia
##ources
Celeb
Detro
Feles
López
Monti
Nietz
Petra
Plimm
Porph
Scyth
alpha
digna
horto
hymni
incho
pagos
pneum
spiss
thema
videt
##eiensis
##etensis
Brandt
Design
Iterum
Iudaea
Meyers
Produc
Publii
Theory
Venere
accipi
augere
claust
generi
impetu
improv
intend
operas
primig
script
transv
vicini
##entesimo
##handlung
Central
Dominij
Francos
Pompeii
Sophiae
Western
Windows
admodum
audivit
colorum
effectu
figuram
profert
relatum
revenit
utroque
##Hadrianus
Africana
Benevent
Coloniam
Musculus
Valentia
aspectum
conscrib
eruditos
ordinata
persever
ponuntur
quotidie
relativa
sacrorum
seriebus
virtutis
##Federative
Austriaci
Britannis
Contrinus
aliquanto
confectis
dictatura
exercitui
exstructa
glacialis
narrantur
pugnabant
revocatus
Vicentinum
aedificare
affirmavit
celebratum
digeruntur
Commentarii
Europaearum
Iustinianus
Lugdunensis
Novocomensi
Theodoricus
appellabant
archaeologi
communitate
demonstrant
humanitatem
quantitates
Technologiae
chromosomate
compositorum
controversiam
Constitutionis
interpretatione
##ty
##üc
##ις
##907
##hot
##nik
##vig
AN
Gw
VE
Vá
##ecca
##emar
##entz
##ibat
##itha
##zoni
##ński
268
711
Ayn
Clo
Cuc
Gai
Ido
Lon
Nih
Pia
##ecost
##lands
##riana
##tilis
1187
1571
Arte
Borb
Derb
List
Mitt
Pipp
Taiv
abst
dato
evit
refl
simp
##aciter
##erarum
##inales
Baker
Gallo
Grimm
Pamph
Perth
Porto
conch
incep
potio
ramos
stant
vates
##Flavius
##anensem
##iorient
Econom
Patrim
Period
Plerum
Sacrum
Yogyak
chemia
common
conger
conlig
diario
didact
effoss
ferrum
margar
rectum
saltus
##entiones
Arthuri
Austras
Cyrillo
Faustus
Hamburg
Howells
Humanis
Liguria
Project
Punicum
Records
Recuper
acronym
additur
alcohol
aliquem
elector
fidelis
instaur
perspic
rogavit
stirpis
themata
vigilum
##entissime
##ogrammata
Aquilana
Familiae
Pragensi
absentia
analysis
clandest
conclave
consulto
exposuit
fossilia
impressa
pecunias
probavit
Africanus
Antiochus
Cechoslov
Certamine
Neograece
Scriptura
Tradition
Trapezunt
adiectivo
comoediae
diurnaria
expeditio
impositum
sapientia
scientias
theodisce
tractatus
Nazistarum
Praecipuae
Statistica
baptizatus
hereditate
hieroglyph
incrementi
monumentis
temperatis
Britannicam
cognitionem
continentur
disciplinas
eruditionem
praefatione
abbreviatura
expressionis
proprietatum
Archiepiscopo
Connecticutae
Langobardorum
antiquissimis
archaeologica
mediaevalibus
Lacedaemoniorum
##éc
±
Ü
Μ
##alf
##duc
##fax
##sey
##uhn
##weg
FD
FE
OS
##heit
##loss
##usae
##vist
##ædia
245
290
391
476
Elb
Tas
Tot
dos
##eptae
##inton
##ocort
##orith
##ridae
##undes
1742
Acha
Cred
DNVP
Gale
Glor
Gorg
Lili
Mang
Pind
Sera
alto
angu
horr
isto
panc
roma
vasc
##inalem
##iosper
##uenses
Agrig
Andor
Chrom
Imago
Jules
Namen
areis
decid
inuti
lique
penes
plana
stilo
##ricorum
Cisalp
Dantes
Igitur
Iuliam
Matron
Panama
Parish
Sergio
Turcis
aditum
aliena
aëropl
colunt
ferens
impugn
obsess
testis
unicam
##cionario
##inisches
##onicarum
Artific
Histria
Ioachim
Simpson
Volumen
decurio
fecisse
induxit
lapides
statuam
##utionibus
Aequator
Arabicum
Arduenna
Communic
Eusebius
Independ
Lucianus
Parentes
Volodimi
acceptum
adhibent
aeternum
continua
facerent
indicare
machinas
meliores
rectores
socialia
spectare
##opolitanum
Brasiliam
Cornubiae
Hungariam
Octaviano
Vestfalia
Wissensch
dialectus
encyclica
medicinam
pristinum
stipendia
##historische
Consentina
construxit
coquinaria
culturalem
delimitata
destinatum
divitiarum
explicavit
monstratur
occasionem
originalis
philosopho
Halicarnass
Innocentius
aestimantur
cogitatione
epistularum
intraverunt
magistrorum
pertinentia
constitution
possessionem
superioribus
compositionis
similitudinem
Franciscopolis
septentrionale
observationibus
##AC
##Qu
##zh
##don
##igo
##ogg
##run
##uru
##ées
##ück
RS
VP
##agab
##aneo
##enza
##irae
##obis
##olos
##ondo
##rado
322
580
Bai
Cov
Cus
Fen
Oph
bec
sid
tun
ulc
##aldum
##ances
##enica
##ermer
##inata
##ochle
##recht
##sisse
##turum
1650
1707
1772
Bath
Blue
Frus
Loci
Mele
Nanc
Nath
Perd
Ronc
Zagr
Zoro
cost
doct
dors
fuga
oryz
sarc
scal
##Clerus
##antina
Aërop
Calli
Ducis
Genti
Ottav
adnot
antid
codex
datae
exstr
ignem
insol
invis
monoc
parit
progn
ramum
spond
uxori
##ulensis
Arsino
Caucas
Liturg
Nature
Ovidii
Tribus
Vallem
adhaer
cinere
diaria
dicant
eventu
festiv
iactus
lignea
missam
obsequ
parvas
stetit
suscip
##iniensis
##zationis
Lepidus
Lovanii
Montium
Natural
Paradis
Quintum
Quisque
Strauss
Vicereg
allegor
annunti
anteced
argenti
canales
diurnis
educata
illarum
interea
musicos
oecumen
pretios
pulchra
seditio
unionem
##vironment
Dominici
Haroldus
Octobrem
Sanctius
archetyp
factorum
filiorum
neoclass
oblectam
pauperes
pleraque
traditus
Athenaeus
Californi
Interpret
Magdeburg
Superiore
contempor
discrepat
exsistere
militaria
posuerunt
tabularum
transsexu
Brisgoviae
Helveticae
Indonesiae
Theodiscis
Vladimirus
discrimine
fautoribus
Carthaginem
Mesopotamia
cognoscitur
constitutae
mythologiae
philosophis
Atheniensium
multitudinem
Cisterciensis
aestimationem
##ολ
##Cic
##esa
##hae
##obi
##yti
BB
Ci
DS
Gn
HE
QC
RJ
TM
XC
gn
##enem
##gnum
##ijks
##iste
##omia
##omum
##quet
##wing
127
251
261
263
316
540
Gle
Kie
Nup
abn
alv
cru
php
##aries
##entam
##entas
##ernis
##ingit
##istes
##liche
##osaur
##raham
1400
1592
Buff
Gana
Garg
Gene
Ipsa
Jans
Lost
Parn
Quis
Roll
Them
VIDH
dact
edid
name
plum
##anicis
##bureau
Antic
Brenn
Bruce
Hongc
Medul
Rever
Viter
Weber
epith
fatum
great
gregi
idiom
typus
##ologice
Barbar
Boston
Curtis
Fronto
Gallis
Global
Golden
Matris
Persae
Protoc
Triass
asserv
caedem
clausa
desunt
ducunt
expell
finium
fronte
infarc
nuclei
sectio
##rantibus
##ulariter
Arthuro
Capella
Diocese
Gifhorn
Iudaico
Secundi
Volscos
adiuvat
aspectu
caerule
conditi
indices
millenn
primord
prioris
tardius
Decembre
Imagines
Provence
Scoticus
argentum
collecta
editores
privatum
servatus
sodalium
studiosi
##ijksbureau
Ecclesiis
Ratzinger
Structura
colonorum
commissum
distantia
nominatae
planitiem
studentes
Fredericus
Testamento
describere
electricae
mutationis
paedagogus
pauperibus
quapropter
scripsisse
universali
vulneratus
collegiorum
conscientia
constructio
##i
##e
##a
##t
##s
##n
##u
##r
##o
##m
##c
##l
##d
##p
##b
##,
##.
##g
##v
##h
##f
##"
##1
##q
##A
##I
##2
##C
##x
##9
##S
##0
##P
##M
##(
##)
##y
##5
##D
##8
##R
##L
##B
##3
##6
##T
##F
##G
##H
##7
##N
##4
##E
##V
##:
##O
##-
##k
##U
##z
##w
##;
##Q
##K
##W
##'
##°
##X
##J
##/
##j
##*
##é
##Z
##–
##Y
##ö
##á
##ü
##ë
##_
##ä
##—
##%
##]
##[
##ā
##&
##í
##ó
##=
##è
##α
##?
##ο
##à
##ν
##ú
##ς
##+
##ă
##ρ
##ι
##“
##τ
##!
##ε
##а
##ß
##о
##æ
##λ
##”
##’
##ç
##ī
##μ
##»
##ō
##«
##κ
##и
##σ
##ū
##}
##ñ
##ا
##š
##â
##π
##č
##ί
##е
##р
##н
##η
##ό
##с
##É
##ē
##в
##ل
##γ
##к
##υ
##ː
##δ
##л
##ά
##ș
##|
###
##ć
##ť
##„
##ω
##ş
##ê
##×
##т
##ي
##ã
##ر
##φ
##θ
##έ
##>
##ύ
##ή
##م
##<
##ô
##β
##ن
##Ō
##χ
##ò
##Ö
##ب
##ž
##у
##Š
##Ž
##å
##ı
##و
##ø
##ł
##ï
##د
##י
##Á
##м
##й
##ʻ
##‘
##д
##û
##Č
##г
##ь
##$
##−
##я
##î
##ة
##§
##ù
##ý
##·
##ț
##س
##ń
##б
##ì
##Π
##С
##ч
##†
##Κ
##ṣ
##ð
##ˈ
##{
##ə
##ś
##া
##ы
##ώ
##ו
##ḥ
##ğ
##ἀ
##~
##्
##ř
##ה
##п
##Ü
##œ
##Μ
##→
##з
##ه
##ա
##±
##ל
##ح
##ě
##Σ
##ר
##ت
##∪
##ج
##К
##ת
##П
##ा
##В
##ع
##ξ
##Α
##õ
##ţ
##Δ
##ف
##Р
##מ
##ق
##Ἀ
##ŭ
##ʿ
##Т
##א
##ב
##ש
##ン
##ー
##ň
##र
##ṭ
##А
##Ε
##្
##ṇ
##ĭ
##ζ
##ц
##ŏ
##Д
##М
##أ
##ط
##ἐ
##ῖ
##Λ
##Б
##х
##ص
##ῦ
##ك
##′
##ő
##Ș
##İ
##́
##ῶ
##ĕ
##ִ
##ּ
##ز
##ی
##ɛ
##ɪ
##Φ
##נ
##ἰ
##Ι
##Χ
##ল
##ῆ
##Æ
##Н
##ָ
##म
##ि
##ὐ
##Τ
##ע
##ش
##大
##Í
##্
##Ş
##ɑ
##ψ
##न
##ា
##Å
##Γ
##И
##་
##Ç
##ɔ
##Ο
##←
##ὸ
##Ó
##ʾ
##Ν
##র
##ὶ
##ǎ
##خ
##ę
##Ś
##ἄ
##Ø
##ĝ
##ն
##ן
##غ
##ी
##ル
##`
##Г
##Л
##ם
##द
##រ
##Î
##ր
##ְ
##ד
##स
##ম
##ス
##Β
##ж
##व
##်
##イ
##þ
##ą
##ŋ
##國
##子
##Ā
##צ
##ल
##দ
##ব
##국
##Đ
##ė
##Ț
##ш
##ὰ
##‹
##›
##リ
##Ł
##ʃ
##Θ
##ո
##ַ
##त
##ন
##ន
##ὁ
##한
##ż
##ʊ
##ʒ
##ក
##Ḥ
##ド
##ĉ
##ǔ
##Ч
##ֹ
##ג
##כ
##פ
##ร
##ុ
##⁄
##♯
##の
##ア
##道
##^
##Ä
##ǧ
##य
##中
##ġ
##क
##ग
##√
##フ
##À
##ǐ
##ɜ
##О
##ъ
##ס
##ק
##ა
##ប
##ᴇ
##ḍ
##ἡ
##ῥ
##ラ
##士
##ʀ
##̯
##ф
##ի
##ւ
##ज
##ক
##ি
##မ
##ḫ
##ἱ
##ὴ
##≤
##♭
##国
##조
##Ţ
##і
##إ
##ह
##গ
##ម
##ἔ
##‚
##韓
##선
##주
##Þ
##÷
##Ω
##յ
##ח
##ী
##ု
##マ
##・
##市
##星
##고
##민
##ё
##श
##ु
##ু
##ត
##ស
##ク
##ッ
##天
##漢
##Ú
##ɦ
##Ф
##ю
##ׁ
##َ
##ं
##े
##ে
##Ṣ
##三
##家
##本
##闘
##đ
##ħ
##ʼ
##З
##э
##ט
##प
##Ḫ
##ὀ
##小
##島
##日
##神
##대
##도
##Ī
##Е
##ե
##ܐ
##ܝ
##ิ
##ရ
##ြ
##ᴀ
##€
##─
##ァ
##ト
##山
##河
##社
##語
##@
##¿
##È
##Ά
##ى
##ो
##န
##ာ
##ိ
##ជ
##Ἄ
##Ἰ
##ὑ
##ⴰ
##シ
##タ
##ナ
##ロ
##古
##学
##海
##산
##ÿ
##ĵ
##Ρ
##Ш
##ֵ
##ֶ
##ण
##ध
##়
##တ
##ი
##ả
##ồ
##ἑ
##Ἐ
##ᾶ
##ῷ
##北
##江
##聖
##당
##£
##ʔ
##щ
##ئ
##ظ
##ब
##জ
##ত
##য
##শ
##น
##ม
##ล
##เ
##ག
##བ
##ུ
##ር
##ព
##ỉ
##ἴ
##Ἱ
##グ
##メ
##人
##州
##民
##원
##¬
##Â
##Ĉ
##ɡ
##ɾ
##ʕ
##ˌ
##̈
##Հ
##կ
##տ
##ِ
##ং
##ট
##พ
##ย
##អ
##ᴄ
##ḏ
##ἶ
##•
##カ
##京
##字
##朝
##王
##田
##百
##강
##의
##제
##Ē
##ũ
##ǝ
##Х
##ս
##ّ
##আ
##স
##්
##ด
##ั
##ོ
##စ
##ង
##េ
##ᴏ
##ṛ
##ế
##ὕ
##オ
##テ
##ニ
##会
##文
##書
##汉
##經
##記
##話
##都
##高
##기
##동
##시
##인
##¶
##ů
##Ζ
##Ц
##ө
##ז
##ء
##پ
##अ
##চ
##হ
##ਿ
##ช
##ุ
##์
##འ
##ར
##ས
##ྲ
##ን
##គ
##ិ
##ṯ
##ễ
##上
##手
##新
##明
##月
##村
##東
##治
##的
##矢
##石
##金
##長
##구
##전
##Ñ
##Ĵ
##ņ
##Œ
##Ż
##Ə
##ϊ
##Я
##ј
##ْ
##ก
##า
##က
##ေ
##့
##ት
##አ
##ល
##ᴛ
##ạ
##ệ
##ố
##ὲ
##ィ
##コ
##セ
##ダ
##パ
##代
##六
##合
