[PAD]
[unused0]
[unused1]
[unused2]
[unused3]
[unused4]
[unused5]
[unused6]
[unused7]
[unused8]
[unused9]
[unused10]
[unused11]
[unused12]
[unused13]
[unused14]
[unused15]
[unused16]
[unused17]
[unused18]
[unused19]
[unused20]
[unused21]
[unused22]
[unused23]
[unused24]
[unused25]
[unused26]
[unused27]
[unused28]
[unused29]
[unused30]
[unused31]
[unused32]
[unused33]
[unused34]
[unused35]
[unused36]
[unused37]
[unused38]
[unused39]
[unused40]
[unused41]
[unused42]
[unused43]
[unused44]
[unused45]
[unused46]
[unused47]
[unused48]
[unused49]
[unused50]
[unused51]
[unused52]
[unused53]
[unused54]
[unused55]
[unused56]
[unused57]
[unused58]
[unused59]
[unused60]
[unused61]
[unused62]
[unused63]
[unused64]
[unused65]
[unused66]
[unused67]
[unused68]
[unused69]
[unused70]
[unused71]
[unused72]
[unused73]
[unused74]
[unused75]
[unused76]
[unused77]
[unused78]
[unused79]
[unused80]
[unused81]
[unused82]
[unused83]
[unused84]
[unused85]
[unused86]
[unused87]
[unused88]
[unused89]
[unused90]
[unused91]
[unused92]
[unused93]
[unused94]
[unused95]
[unused96]
[unused97]
[unused98]
[unused99]
[UNK]
[CLS]
[SEP]
[MASK]
##்க
##்த
##ம்
##ல்
##ன்
ப
##்ட
க
.
##ப்
ம
##க்க
இ
##ர்
##ிய
த
##த்த
##ப்ப
##ள்
வ
அ
##ில்
##ரு
உ
##து
##ட்ட
ச
##ந்த
,
ஆ
##ும்
ந
##ின்
##ற்
##ைய
##ங்க
எ
##ற்ற
##டு
##ண்ட
##ிற
##ாக
##்ச
##ள்ள
##ிக
##ிர
உம்
##ுத
##ார்
##ன்ற
##ில
##ுக
"
##ான
ஆக
உள்ள
1
##த்
##ர்க
ஒ
##ிக்க
##ுக்க
##ைக
##ரா
##ுற
##டி
##ின
##ுவ
##ாவ
செ
இரு
)
(
தொ
கா
பெ
2
##லை
வி
##மை
##ால்
##ந்து
##த்தில்
##ப்பட்ட
##ரி
இந்த
##ிரு
கொ
##ளில்
##ம்ப
##ன்ப
##ளை
மற்ற
##டுக
##ாட்ட
##ச்ச
##ல்ல
போ
##ய்
-
##ட்ச
ஒரு
மு
##வர்
மற்றும்
##வ்
##ன்ன
##ிறது
பா
##ஸ்
ஏ
##ின்ற
20
மா
##ிவ
##ண்
##ட்
##மி
கு
##ற்க
##ப்பு
##ழ்
##க்
ஊ
##ார
##டை
வெ
##தி
##டுத்த
19
##ண்டு
##ச்
கோ
##ர்கள்
##ையில்
உள்ளது
##று
##குத
என்ற
##னர்
அமை
##ங்கள்
ஆன
மே
##ுக்கு
##ரை
##வு
##க்கு
##வா
பிர
##ேர்
##ைக்
பொ
##ியில்
##த்து
##ப்பட
##ளின்
##ற்ப
அவ
ஆம்
குற
##ிட
முத
##ட்சி
அத
##ட்டு
##ப்படுக
/
##லா
##an
##ாகும்
:
என்ப
##ான்
கொண்ட
##ரிய
##வை
##ால
##த்தின்
##்கள்
என
பு
திரு
வே
அற
நா
##மான
தமி
##ரச
செய
##டிய
##ித்த
இல
##ிகள்
பய
இத
இருந்த
##ாள
மூ
வா
##ிப்ப
ஊரா
மக்க
##டன்
பட்ட
##வி
கூ
##யில்
ஜ
##ழு
##னை
##ாத
இது
##ைய்
##ேச
##in
##ந்த்
ஆண்ட
##த்தை
தொட
##ைகள்
##ிற்க
##ுகள்
வழ
##ியல்
கி
##ூர்
பல
##வே
இவ
இந்திய
சு
201
##er
##ர்த
ஓ
ஊராட்சி
##on
##கை
நில
##க்கும்
##க்கோ
##ித
இட
##நில
இல்
##பு
இய
##at
நீ
##ிட்ட
து
##மாக
மொ
##ண்ண
##ாம
தமிழ்
அல்ல
##ிய்
நிற
##ன்று
200
##ின்றன
இர
தெ
##ப்படுகிறது
ஆகும்
##ப்பட்டது
##மா
##ஞ்ச
##டைய
வெள
சிற
##லி
நட
##ற்று
##ar
ட
##சு
##ங்கு
பகுத
##ாவட்ட
##மைய
அமைந்த்
##வில்
பின்
3
மீ
##ப்பாட்ட
##கு
##ளுக்கு
நூ
##ைக்க
##al
##ங்களில்
தே
ஆகிய
கரு
##டும்
##ரோ
பி
##or
மாவட்ட
##ையின்
##லம்
##ரம்
உரு
அரச
ஐ
##ிக்
##லக
##பா
##ுறை
பயன்ப
தன
என்பது
##ய்ய
##பெ
ய
பிற
##en
##ுத்
S
பெரு
ஆண்டு
P
அல்லது
##es
சி
##ியா
A
கண
முதல்
##ுக்
C
தொகுத
சம
##ேர
##நா
இவர்
##ற்கு
வள
##ியின்
##ணை
ஆகவ்
வரு
##ிருந்து
t
7
##ிரை
நக
மக்கள்
##ிற்கு
##யர்
அம
##ம்ம
##ங்கள
##யில
மிக
##ிக்கும்
##ர்த்த
##ரில்
##ணி
பட்ட்
##ேர்ந்த
போன்ற
அதிக
இக்கோ
##ர்வ
##ுக்க்
விள
தலை
பூ
பொரு
என்று
அள
ஹ
உள்ளன
##ல்க
##ொரு
##சி
ர
##ெடு
##லும்
##ாம்
சில
##போ
வர
##am
கட
##சை
##ாக்க
4
##ையும்
##ரின்
##ic
##ட்ப
5
##he
இருந்து
செய்த
வீ
கால
##is
சே
##ரிக்க
ல
அழ
இலிருந்து
செய்ய
கட்ட
##ையை
குறிப்ப
##ஸ்ட
##ியை
பர
என்ன
தோ
கிர
##லில்
பெற்ற
தொடர்
##ப்பின
கீ
இற
சட்ட
M
##தை
##00
##வாக
##நாட்ட
நிறுவ
##ிகளில்
நி
##ழி
சூ
போட்ட
##ினார்
T
##ர்கள
c
##ாண்ட
இருக்கும்
பயன்படுத்த
##கம்
##ாவின்
காண
கொண்ட்
##ிம
தீ
'
##ப்படும்
##ர்க்க
##ாய
##ியம்
p
ஆவ
##ியாக
##ரும்
18
##ஆம்
o
##ினை
##it
##வ்வ
ஈ
நோ
##ங்களை
முக்க
கோயில்
என்னும்
##ரண
##ின்றது
மக
சொ
பட
##த்திர
##ion
##படி
ஒன்ற
##வும்
6
இல்லை
##ண்கள்
##ிகள
மேலும்
ரா
பத
##மே
ஏற்ப
##ிரைப்பட
##க்கிய
##ின்றனர்
இருக்க
##டிவ
##மன்ற
உய
வெளிய
##ாவில்
அண
சா
உடன்
மெ
##தம்
I
பொது
##ர்களின்
##க்கம்
##ழ்க
அவர்
##ுகிறது
##த்துவ
முக்கிய
##om
B
s
;
of
##விய
கல
##ர்ச்ச
கூற
சீ
##ண்டும்
##ளி
தர
##ல்ப
ஆண்டில்
##ரது
அக
%
G
##னி
h
##டித்த
##திர
##ed
##ப்பா
உலக
நடை
குழ
துடு
மொத்த
நூற்ற
தி
R
##வத
##ரே
தொகை
துடுப்பாட்ட
கட்டு
##பி
சேர்ந்த
##த்திய
##லிய
சோ
##ங்
தமிழ்நாட்ட
உருவா
உறு
முன்ன
8
வரை
##மு
##ிக்கு
##ந்திர
##ிறார்
##ற்றி
##ஷ்
##ப்பட்டு
##னு
வழங்க
பண
##ற்றில்
நிக
##ங்கில
திரைப்பட
அரு
அடி
##ிவு
##ur
##த்திற்கு
##ப்படுத்த
##il
நிறுவன
##ந்தது
##ருக்கு
##ch
பே
கல்
##ன்ற்
##as
பேர்
199
முற
இரா
தமிழ
மக்கள
D
பாட
விரு
பின்னர்
##and
E
##ப்பின்
##ப்பத
உட
அந்த
கே
##ைகளை
வட
##யா
வக
N
##தும்
மன
இதன்
##ெரிக்க
ப்
நாட்ட
##ஸ்த
9
##ந்தார்
வை
நூற்றாண்ட
சிவ
w
அமெரிக்க
##ட்டி
இக்கோயில்
##வர்கள்
குறை
##சிய
முதன்
மூலம்
##சா
##ப்பாட்டில்
##லைக்க
நெ
##ணம்
##ேசிய
காரண
பெய
எழு
மன்ற
##துக
##tt
##ுறையின்
மாநில
உறுப்பின
தனது
தொழ
வகை
ஆனால்
##ர்களை
H
##வர
அறிவ
##வின்
எழ
##த்தி
##க்கூ
##le
##ுகளில்
உள்ளார்
##டுகள்
##ாளர்
##ப்போ
##ற்க்
உள்ளனர்
##மீ
##ப்படுகின்றன
##்கு
##ற்றிய
##ட்டை
2011
இத்த
##ைகளில்
உண
மரு
நடைபெ
in
##ைகள
##ுகள
வட்ட
##ay
##வெ
f
உருவாக்க
பழ
##்ச்ச
கணக்க
மாவட்டம்
இருந்தது
உட்ப
கொண்டு
##ுதிய
##ோர்
##ுகளை
##தா
##ம்பர்
அமைப்ப
டி
நாட
##ol
தா
சார்
##ுவத
##ைச்
இணை
##ரம்ப
அட
##லு
##ைப்
##்ட்
the
##்த்த
தக
உத
##ொண்ட
##நக
##ப்பெ
##ினர்
அதன்
##ல்கள்
##வற்ற
##ையே
##னால்
##ையாக
10
##ிகளை
##ர்களில்
சட்டமன்ற
##et
இரண்டு
விளைய
தொகுதிக்கும்
தூ
வளர்ச்ச
##ய்வ
##ிரிய
##ந்
##த்த்
##ார்கள்
##ியது
மல
##டுக்க
இடம்
##ழ்க்க
0
##யிலில்
##us
##நாடு
வடிவ
##ங்கி
##மாகும்
]
மாற்ற
##ம்மன்
##னா
ப்ப
மாவட்டத்தில்
தன்
நிர்வ
##ள்க
##ையம்
மொழ
அனை
போது
##ுள்ள
##தாகும்
L
இரண்ட
d
[
##ளம்
மூல
198
பேர
பெரிய
அழைக்க
மர
##ோக
##போது
##ttp
##el
##திய
பெரும்ப
எதிர
எடுத்த
நகர
##ினால்
கோயில
##யே
##றை
வருக
கண்ட
தகவ
##ெடுக்க
திட்ட
##வான
##வரி
12
15
எண்ண
கை
##ul
##திர்
முறை
b
##தேச
இக்கோயிலில்
இந்து
##டுவ
##கால
##த்தொ
முதல
##ானிய
பகுதியில்
##திப்ப
##ாட்டு
அல
##ing
##ad
##க்கி
##ாவது
F
பெற
பரி
ஆவார்
##னின்
இலங்க
என்ற்
##லர்
தேசிய
கிராம
பெண்கள்
வந்த
##ங்களின்
##செ
##ள்ளி
வரலா
அவரது
17
K
கல்ல
##ent
தமிழ்நாடு
இன
ஜெ
உள்
அது
J
##ராய
##ழக
படி
–
தேர்ந்த
##ிரி
அனு
##சிரிய
##வேறு
##ri
m
##றி
ஆறு
##மையான
மேற்க
and
ஆனது
197
ஃ
ஸ்
கொள்ள
##ரீ
இங்கு
கிழ
##re
திற
##லின்
##ந்தை
##ரக
நு
##பர்
##தால்
சட்டமன்றத்
##ன்க
##un
##வைத்
பல்க
மின்
ஆங்கில
வில
n
W
வய
##ation
ப்படும்
நேர
கணக்கெடு
##டுத
##ேற்ற
முடிய
பல்
துடுப்பாட்டப்
மிகவும்
இண
ஏயே
ஆத
16
##ிக்கப்படுகிறது
##ங்கா
##ஸ்க
இவ்வ
மூன்று
##யம்
நான
தொடங்க
பெயர்
##முறை
http
##நிலை
##ோத
தொக
புக
எழுத
##ia
நிலை
##ct
##ாக்
##ியூ
##ண்ப
##ிடம்
##ிக்கப்பட்ட
வேண்டும்
11
##வீ
இவை
##ro
##ழை
=
##ர்ம
2015
##ாமல்
##ிலுள்ள
##றிய
##கி
##னம்
முதன்மை
தேர்ந்தெடுக்க
##ொள்ள
##ாண
##ானது
வளர்ச்சி
##ுத்த
196
##ப்ர
##ப்பிர
##ப்படி
##ோடு
சேர்
முக
##ுக்கள்
##ாச
கீழ்
##ட்டர்
##ரால்
வச
வாழ்
மனித
சக
##ட்சியில்
மக்களவைத்
##ag
_
அர
கணக்கெடுப்பின்
செல்ல
##புரம்
##ist
##ண்க
கிடை
தேர்
##ன்னை
திர
வேறு
இயக்க
சுவ
தொலை
தவ
##ருக்க
இந்
சிற்ற
##டிக்க
##நிலைய
எனும்
தமிழ்நாட்டில்
உயர்
##000
உட்பட்ட
வெப்ப
O
##ிகளைக்
##த்திற்க
##வ்வா
com
பட்டியல்
##ச்சு
தேவ
மருத்துவ
சந்த
ஊரில்
எதிர்
##ுதல்
குறிப்பிட
இருந்தார்
கருத
மாதம்
அத்
நே
a
##ப்பில்
பாதுக
வாய்
##ருவ
##ஜ்
In
தொழில்
##டும்ப
##ட்க
##ராக
பூசை
அடிப்பட
##th
##ப்பி
13
கூட்ட
சங்க
##um
14
தகவல்
##ண்ம
ஆண்கள்
##ப்பை
##id
##ட்சிய
##முற
##ிருக்க
காட்ட
##விழ
புதிய
நடைபெற
##iv
##ாள்
டெ
195
##டா
மட்டு
நிர்வக
பல்கலைக்க
##ிலோ
##வன்
V
அறிய
பல்வேறு
போட்டிகளில்
ஒன்று
மொழி
##ரான
##ச்சி
தமிழ்நாட்டின்
##ற்ச
உற
படை
பொருள
தாக்க
நாடுக
கல்லூ
##ருக
செயல்ப
அன்று
இதில்
##ண்ட்
##ாரம்
நிகழ
பங்க
திருக்கோ
##த்துக்கு
பொதுவாக
தற்ப
வான
##ர்களுக்கு
இவற்றில்
குடிய
##தில்
அரசு
மொத்தம்
கட்டுப்பாட்டில்
திரும
குடும்ப
##ra
##லாக
பள்ள
கன
நடக்க
##em
##ழுவ
##டுகிறது
##ய்வு
##ாகக்
##லோ
##ையா
##பர
194
சேர்ந்தது
##ாரத்தில்
இக்க
அறநிலைய
மன்ன
காலத்தில்
##ைத்
வீர
##ஸ்ட்
இவரது
கோயிலாகும்
ஒவ்வ
##ப்ட
அவர்கள்
##இல்
மாற
##ram
##ையான
நூற்றாண்டைச்
##பட்ட
அருக
ஆரம்ப
இல்ல
ஆற்ற
##ூக
ww
வண
www
##த்துறையின்
ஆய
ஆகத்
பிறகு
##மார்
##ர்ட
மாக
##காலப்
ஆவது
##வன
வகைப்பாட்டில்
முடி
ஓர்
எழுத்த
நடித்த
##ிகளின்
##மானது
பீ
உயிர
மண
ஆகக்
##லாள
கலை
எல்ல
##னிய
விர
##ங்கும்
பாக
##க்கூடிய
போட்டியில்
இருக்கிறது
நிகழ்
வழி
இந்தியாவின்
##ம்பெ
எந்த
U
##ாடு
##ew
திருக்கோயில்
சாத
##ப்பட்டன
கீழ்க்க
##சன்
##த்துடன்
##ுகின்றன
The
ஆகியவற்ற
செய்து
##டம்
விளை
இவர்களில்
புல
##தாம்
துறையின்
##ய்க
அவை
ஒருகாலப்
அங்க
மாத
நம்ப
பார்
##ித்து
பால
##anch
##ர்களைத்
##நாத
குள
இறுத
மட்ட
இப்ப
தொகுக்க
##ப்புகள்
##ாகப்
நாள்
துற
##ங்களுக்கு
தான்
##சிரியர்
ஷ
##ளா
மண்ட
அனைத்து
கலந்து
திருவிழ
தெரி
பாத
ஆர்
##ிருந்த
தொடர்ந்து
கண்டு
##ுடைய
##ந்திய
புற
இள
##திகள்
ஒப்ப
##ers
தேர்த
விட
பற்றிய
காரணமாக
##ென
##ayat
இருப்ப
போல
##ியான
முதன்மைத்
பாதுகா
சிற்றூ
நவ
பரம்ப
##ங்காவ
இச
##வது
ஊரக
Panch
செல்
உற்ப
சமய
##im
##நீ
பக
##பை
Panchayat
##ிர்
##்டோ
கல்வி
தயா
##நாய
##வரும்
##ளவு
##ஷ்ண
சமூக
##ir
##op
##ர்க்
##க்கில்
##ம்பு
ஒவ்வொரு
பிரிவ
##னும்
கீழ்க்கண்ட
புத்த
##ைகளின்
இசை
யா
முழு
##ரிம
தய
இம்ம
சிறந்த
##ண்டிய
ஊராட்சியில்
அளவில்
விவ
##ஃப்
தொகுக்கப்
##திய்
##ுகளின்
பொருள்
அடுத்த
நான்கு
தயாரி
தொகுதிகளைக்
தலைவர்
##ce
தரவின்
25
##st
ஆண்டுத்
உட்பட்டதாகும்
##த்தால்
நீர்
இடை
Gram
சிறு
மன்றத்
உறுப்பினர்களைத்
எஸ்
##ன்பதாம்
அரசியல்
பெற்றார்
மார்
ஊராட்சித்
அடை
சொல்ல
பல்கலைக்கழக
தரவின்படி
சிற்றூர்களின்
மட்டுமே
##வுகள்
##லே
கார்
##தான
நடக்கின்றது
##ாளர்கள்
மோ
##ாட
2008
##ரிச
##ிமுக
##ப்பட்டார்
##ிச்ச
193
புர
வெளிவ
முன்
முய
000
for
##ுள்
பத்தொ
##னார்
கொள்க
தொகு
வல
சித்த
கிலோ
இன்
மாண
புது
நடத்த
##னே
கெ
சென்ற
##ினி
மேற்ப
##முக
மது
##ினும்
பத்தொன்பதாம்
யூ
சென்னை
விக
அல்லாத
##ித்தார்
மைய
ஏற்ற
##மாள்
இதனால்
காவ
##od
பேரரச
##த்தா
பரம்பரை
கிற
##மர்
##மன்
##ிறார்கள்
பிரித்த
30
வட்டாரத்தில்
##ப்த
##ிக்கை
’
நிறை
##ந்தி
வார
கர
தன்ன
பிரதேச
சிறிய
குழந்த
பணியா
##ut
##வுத்
மேல்
மூன்ற
##ீன்
வணிக
##ராச
பொறு
##ுடன்
அறங்காவ
##ுவர
ஸ்ட
சது
##ங்கிய
##ம்ச
தொடர்ப
##வியல்
##பாடு
நினை
”
அவற்ற
நாக
சுற்று
எம்
##ங்கம்
##ெல்
&
##ில்லிய
குறிப்பிட்ட
பன்ன
அடைய
##ப்பினும்
விழ
ராஜ
மீது
இங்கில
ஒரே
##og
##ல்களை
##ீர
கிரு
குரு
மறு
தோன்ற
##ண்டி
மீண்டும்
வரும்
##மொ
ரோ
அச
##ுகளுக்கு
துவ
தனி
பிறப்பு
சார்ந்த
##ருடைய
அறிமுக
##ev
நியூ
இங்கிலா
##ோது
##டுவத
தாவ
##ொருள்
##ர்களால்
##லூர்
கடை
##ாய்
##வில
##ழுத்த
ஆய்வ
##தாக
இச்ச
விச
திருவ
##ாரண
##டல்
நடைபெறுகிறது
##ap
என்
##ீடு
செயல்
##மிய
அங்கு
##ல்த
இருப்பினும்
##ாது
##ிகை
வெள்ள
l
##க்க்
##ட்டம்
ஈடு
##ேய
பற
##நு
சிக
ஐக்கிய
192
##கர்
##மைப்பு
2009
சீன
எல்
மாகாண
என்பவர்
##றும்
பிரப
##ினம்
அமைப்பால்
ஐரோ
பகுதி
g
மை
அதிகார
தல
##ப்பிய
இரண்டாம்
மத்திய
மேற்கு
நடைபெற்ற
அறிவியல்
தொழில
நிலைய
##ப்படுகின்றது
தள
வித
அறங்காவலர்
##ப்போது
கிழக்கு
அறி
நிலையில்
##நோ
##மது
##ig
பேச
##க்கார
2007
##ிப்பு
விளையாட்ட
பார்க்க
##த்தைக்
நிர
##த்தார்
இழ
அளவு
வங்க
##டக
மலை
ஜூ
அமைக்க
தொலைவில்
##ak
##ess
தயார
##வரை
##ள்ளது
22
21
கண்ண
வாழ்க்க
##ாமி
தொடர்பு
##ற்சி
அளவ
இயற்க
##ழும்
##சன
பற்றி
கூடிய
பரவ
அடிப்படையில்
##ளு
ஏற்பட்ட
புத
அதிகம்
வின
ஆல
##ளைய்
?
##ப்படுவ
##ையாகும்
கத
அக்டோ
##வ்வாறு
##த்தைப்
உப
சிறப்ப
##த்தையும்
நிறுவனம்
நோய
புன
##ாலத்தில்
அமில
துணை
பணி
வெளியிட
##ிக்கப்பட்டது
##கோ
##யி
வில்
##வாய்
##os
சன்ன
பெற்று
##ci
24
தலைநக
மத
ஏற்படுத்த
ஸ்ரீ
மதிப்ப
கவி
##ண்மை
அணி
தற்போது
##ணுவ
சுமார்
##ாட்சி
ஆக்ச
##ஜி
ஃப
இலக்க
வெற்றி
தவிர
காணப்படும்
கொண்டது
2010
இலங்கை
##ராஜ
கழ
தீவ
இடம்பெ
to
முன்ப
தோற்ற
பிறந்த
இலக்கிய
என்பத
அக்டோபர்
பஞ்ச
##க்குற
உள்ளட
##ராட்ட
v
நாட்டின்
##ிரா
##ளவில்
எடுத்துக்க
##லைப்
##ிப்
பகுதிகளில்
குறைந்த
பெரும்பால்
புவ
##சோ
பண்ட
e
##ிக்கிறது
Ch
இருந்தால்
##ென்
##ன்கள்
##டர்
23
முடிவ
##ளைக்
##ப்பகுத
நிகழ்ச்ச
இந்தியாவில்
##ேன்
##ாலான
முடியும்
போர்
##நுட்ப
##ொண்டார்
ஆராய
திக
##ையாள
##ங்களைய்
புகழ்
##ெட்
அய
##த்தது
உறுப்பினர்
பெரும்
மரப
ஐந்து
##ில்லியன்
அமைப்பு
##ட்கள்
துறை
செப்ட
##லாளர்
##திப்பு
வரைய
பயண
கடல்
##ப்பூர்
##க்ச
விளங்க
2006
இறை
நகரம்
வளர்
##ர்த்தி
விளக்க
##ிக்க்
சேர்ம
இந்தியா
ஒருவர்
##ிஸ்த
தமிழக
நவம்பர்
##கா
சூழ
##த்துக்க
ஒளி
நீதி
இந்தப்
##ற்ற்
ஆக்க
வைக்க
கிள
ல்
சிக்க
பண்ப
##ov
கருவ
##ழுது
வெளி
அம்மன்
முதலில்
##ங்கோ
செய்
##ிழ
##ாவாக
##ot
அச்ச
பயி
உருவ
##னவரி
பங்கு
##ுவது
பரப்ப
திருத்த
குழுவ
St
காலம்
சிறப்பு
##av
ஆட்சி
##த்தைச்
வெளியிட்ட
##லான
##tm
##சம்பர்
தேர்வுத்
or
ஆகியவை
குவ
உல
அதில்
##னோ
தாவர
நல்ல
செலு
நூல்
இருப்பத
எனவே
##விட
ஒன்றாகும்
இணைந்து
##ளிய
உண்டு
விமான
ஆய்வு
வகையில்
இன்ன
விடுத
##ஞர்
நடு
##மூ
அலுவ
திரைப்படம்
உதவ
##ity
பெண்
இதனை
சதுர
மகா
என்பதை
ஐத
நடிக
திரும்ப
தென்
லா
##ரவ
முறையில்
##ைட்
##ின்ன
##ிதம்
மறை
##ிக்கப்
பிரித்தானிய
ஓட்ட
##ுக்கும்
##ட்சியின்
இசு
##ஸ்வர
##ங்களைக்
##சே
##ாங்க
##ஞ்சி
வருகிறது
செப்டம்பர்
உடல்
##ோன
##மைப்ப
கடவு
##புரி
பெற்றது
##வடிக்க
அமைச்ச
வெளிப்ப
தொழில்நுட்ப
##ாவ்
##்தொ
##ter
191
பொருளாத
Ind
“
சை
27
விருது
சூரிய
ஆண்டுகளில்
இருந்தன
இயக்கு
உற்பத்தி
##ளோ
பக்க
தெரிவ
ஆண்டுகள்
கட்டிட
கன்ன
மீட்டர்
எனப்படும்
26
##யூ
##ர்ட்
##மக்க
##ீர்
கள
##படுத்த
டை
மி
வழக்க
##லுக்கு
விட்ட
சேவ
அழை
நிலையம்
நடவடிக்க
வினை
கைப்ப
நாடுகளில்
ஏப்ர
இந்ந
ஹெ
கால்
ஆட்ட
குழு
##ian
##ிட்டு
##ாடி
##ச்சிய
##ோன்
இரண்டாவது
##மான்
##ுவர்
தங்க
கூட
இவற்ற
கீழ
தஞ்ச
இதற்கு
அக்க
##ட்டில்
##பூர்
ஒன்றிய
செய்யும்
திருவிழாவாக
##மையாக
மேம்ப
ஆப
##ary
பை
##மாற்ற
##ிகளுக்கு
நிய
##மிட
குறிப்பாக
எழுதிய
அதி
திருச்ச
கிருஷ்ண
ஏன
##றிவு
நாட்டு
##ரத்தில்
##வாத
##த்தல்
##ber
##்தி
இடத்தில்
ஏப்ரல்
##த்தக்க
புனித
சோழ
##ாவை
எனினும்
ஆராய்ச்ச
##ரியா
பெரும்பாலான
சென்று
##ang
##ப்பர்
தீர்
செல்லும்
##த்தின
##all
##்தர
நடந்த
தற்க
28
##ும
##ஞான
தொலைக்க
##ந்தைய
##ருடன்
செய்க
ஆண
உணவு
பணியாற்ற
பிரான்
##ரியில்
##ud
##ீக
##னில்
எனவ்
சராச
##ைகளுக்கு
வழியாக
##ow
ஆகியோர்
இங்கிலாந்து
##ab
அமைந்த
|
ஒலி
htm
புரி
பிரபல
##ுவதற்க்
சித
##ிற்க்
##ai
2012
சிகிச்ச
இதை
சுத
##ியன்
இணைய
##art
முதல்தர
வடக்கு
##ியலில்
முழுவ
தொகுதி
பிறந்தார்
என்பவ
##ொண்டு
##ும்ப
குற்ற
தென்ன
அணியின்
2005
2014
சத
நிர்வாக
முக்கியமான
##ளுக்க்
##மெ
##ட்டா
##டுத்து
வெற்ற
வேலை
##ரன்
லி
ஆகியோ
##மம்
##ற்காக
நாடுகள்
செல
##பதி
அருகில்
##யின்
விரும்ப
அதற்கு
உருவாக
மூலக்கூ
##ங்களுக்க்
##ித்தது
##்த்
##சாமி
##பெற்ற
ரி
சொல்
தேவை
அனும
on
உடைய
##ஃப
வகு
##சுவ
நாய
##நாள்
##ப்புற
##ல்களில்
சம்ப
##ill
r
An
##ப்பான
உரி
##மைக்க
வெளியே
கிடைக்க
நூற்றாண்டில்
##ஞ்சு
விண்
பருவ
பின்ன
மட்டும்
##ub
காத
டே
தொடக்க
29
அடையாள
காணப்படுகிறது
பகுதிகள்
##மண
##ine
மில்லியன்
##பவ
+
ஏற்படும்
குறித்த
##ுட
நெடு
சேர்த்த
##்களில்
##ூரில்
##ப்படை
##ep
##ப்ரவரி
இடங்களில்
பதிப்ப
ஆசிரியர்
கம்ப
##ருந்து
நாடக
##ள்ளார்
##ூட்ட
சேர்க்க
தாய
2001
யு
##டோ
வந்தது
##த்துக்
தந்தை
பிள
50
கர்
குடி
போக்க
அவர்கள
100
சர்வ
##னுக்கு
எனக்
தங்கள்
மணி
ரூ
##ிறான்
##ங்கை
‘
##ன்ம
##த்தம்
##பாள
வேதிய
இணைக்க
சகோத
2004
ஜோ
நீண்ட
பெயரில்
கதா
##டுகின்றன
##ியே
வந்து
##ac
செய்யப்பட்ட
பாதுகாப்பு
2013
கிரே
##த்தும்
பேரா
##ியும்
##ரிக
வெளிவந்த
பகு
இந்தக்
கற்ப
##த்திற்க்
##ிரம்
ஆண்டின்
##ுகிறார்
எண்
இவர்கள்
##ின்றார்
ஒள
நோய்
##ந்துவ
##ராட்சி
##மையை
தக்க
சுழ
##பே
யாழ்
கல்லூரி
##ீட்ட
##க்காரர்
கோட்ட
##க்ஸ்
##டியாக
பத்திர
தாய்
சார்ப
##ளால்
தெற்கு
##னாக
ஆய்
##ையால்
190
விலங்க
புள்ள
உத்த
##ப்பது
##ருக்கும்
குறிய
##ுவதற்கு
இவ்
##ந்தம்
பொருட்க
பழைய
##ழுப்பு
##ுவை
##வார்
இடையே
##ிடையே
##ன்ச
பால்
கருத்த
காணப்படுகின்றன
##ind
என்றால்
re
பெருமாள்
மற
மதுரை
விரை
இருப
##மையும்
##வாள
மனை
பதின
இத்திரைப்பட
உள்ளிட்ட
சுர
##மையில்
ரீ
இடையில்
கேர
##ric
மின்ன
பெண்க
##மன
கொடுக்க
மார்ச்
##ியாகும்
கவ
வங்காள
##est
கொல்ல
முனை
##ுந்த
தோல்
##பூ
##ish
##ியார்
படைய
உறுத
பாடல்
##த்தோ
##ன்மை
செய்தார்
##ction
கோவில்
முழுவதும்
குறிப்பி
##ath
##ேரி
கருதப்படுகிறது
##மின்
மண்டல
வரி
தாம
காங்க
பல்ல
ஆகியவ
கற்ற
##ுகின்றனர்
கப்ப
மக்களின்
வரலாற்று
கார்ப
கூடுத
##டுகளை
இராணுவ
அரி
##தன
##up
##ைகளைய்
##வீன
கிமீ
மேற்பட்ட
##age
பிள்ள
##டிய்
##த்திரம்
பொறிய
31
##ula
##குதி
வயது
தேர்தல்
2016
ஆதர
##ியர்
நகரில்
வல்ல
சிங்க
பார
முறைப்படி
ஆற
##ate
பட்டம்
பின்ப
##வர்கள
கண்டுபி
##ன்ஸ்
வாச
சென்ன
ஆகப்
##ஸ்வரர்
##ந்தன
ரெ
பின்வரும்
##பட
form
##சாய
உர
##ory
##ok
நகர்
தலைமை
தனித்த
##ப்பிரிக்க
Un
ஜி
2000
கல்வ
போன்றவை
இவருக்கு
##பம்
##ைடு
அவருடைய
பிரதி
##ுகளைக்
வரலாறு
தமது
##கைய
பகுதிய்
பொருளாதார
பார்த்த
##தன்
மொழியில்
##ard
##வொரு
##ங்காட்சிய
##ந்தனர்
அதை
விஜ
##லைக்
சால
உச்ச
மூலமாக
k
##லாமிய
##நாட்டு
##ிரே
ஏற
வருட
கழக
மாநிலத்தில்
##ளித
குறிக்கும்
##ik
##ாரி
##ாவூர்
எடுக்க
உலகின்
##ிலி
அருங்காட்சிய
பாரம்ப
எரி
வென்ற
st
இயற்ப
கிறித்த
வாக
சுற்ற
ஆசிய
##ரிட
##த்தைத்
பாரம்பரிய
##னான
##டித்து
##ந்தர
ஐரோப்பிய
குடியரச
கலா
என்க
தின
##ையைப்
நேர்
போட்டிய
ஜே
தெரிய
##ராம
##பிட
கரை
##20
இன்ற
##ந்தர்
திருமணம்
##கத்தில்
விரிவ
##சின்
சாக
அவருக்கு
அத்த
##ip
பௌ
கிலோமீ
நோக்க
##ec
பிரச்ச
சேர்ந்து
விளையாட்டு
40
அழுத்த
##ாண்டு
##ical
துண
விற்ப
##த்தூர்
##ிடும்
##ிக்கோ
##ியைப்
சண்ட
##ரூ
##டுகளில்
##ரல்
மிகப்பெ
முயற்ச
கடி
யாழ்ப்பா
டிசம்பர்
பிரத
பயன்படுத்தி
வகைய்
##ுகொண்டார்
##ங்களைப்
பார்வ
விவசாய
இவ்வாறு
##ens
ஜான்
##ுகின்றது
எடுத்து
மற்றொரு
##ஷ்ட
##்க்க
இயேச
நாடு
சுதந்திர
##ய்த
அப்போது
கோவில
th
189
##ah
##ூர்த
பதில
முன
சர்வதேச
கணித
##வெள
ஸ்க
##வதற்கு
##ியல
எடுத்துக்காட்ட
##oun
##ாளு
##amil
##ையைக்
formula
அப்ப
##if
Th
இருப்பதால்
##தே
##ாலி
கட்சி
மாதிர
##ெய்
##ies
சின்ன
இங்க
##ப்புக்
##வதற்க்
##ணர்
org
##மய
அவற்றின்
##our
எந்தவொரு
குளோ
##ூல்
as
திருந
செயற்ப
மக்கள்தொ
காய
ராம
நாடாளு
ஆங்கிலம்
##மாக்க
##ித்
நப
அல்
##ியாகப்
இஸ்
##ry
கடற்க
அழக
வண்ண
அவரை
திருப்ப
நாடாளுமன்ற
##ிக்கல்
முதலிய
அன
##க்கா
வடி
இப்பட
##டிக
தண்ட
வைத்து
சப
##சார்
##ளைப்
அரசின்
##ph
##ews
##நிலையில்
காங்கிர
Pr
தொழி
##த்துவம்
பள்ளி
##சம்
இராம
##த்துக்க்
##வெளி
##ிகளைய்
ம்
##oc
##ug
வரலாற்ற
##ரிக்
கல்லூரியில்
##ாட்டில்
கொண்டார்
பதிவு
##ாப்
சந்திர
பொருட்கள்
போல்
இந்தியத்
##ா்
2003
##ant
அம்ப
அவர்களின்
##ைக்கு
##பிர
##வத்
தஞ்சாவூர்
தொலைக்காட்சி
மட
கைய
கருத்து
தம்
நேரத்தில்
##வம்
இயங்க
##ார்த்த
வலி
##ாட்
ஓவிய
##ார்ட
புரா
##ட்சு
ஆஃப்
ஆற்றல்
##பின்
##பெரு
ஹோ
உண்ட
சிவன்
html
கதை
##ணய
En
##ியால்
##ந்துக
##டித்தார்
எதிரான
லீ
தேதி
##பாடுகள்
லெ
முன்னாள்
திட்டத்தின்
வர்த்த
##ரமான
##ப்படுகிறார்
வேல
ஆண்டுகளுக்கு
முருக
வழக்கு
##ிட்டி
மாவட்டத்தின்
##ழைக்க
வாழ்ந்த
தெய்வ
ஆர்வ
இத்
மகன்
ஆட்ச
##வக
தொகுதிகள்
அவ்வ
வரையில்
##ீட்டு
II
##நகர்
பரிச
கொடுத்த
கல்விய
கட்டுர
##ell
##றிவ
தான
எதிராக
பெர்
போக்குவர
##லிக்க
உயிர்
மூன்றாம்
நோக்கி
தந்த
##ுவத்
வயதில்
மாநிலத்தின்
வாழும்
##மிருந்து
நான்
தொடர்பான
தில்
##ுக்குத்
##50
##வான்
ஆஸ்த
இல்லாத
முன்னர்
வரையற
நடித்த்
மேற்கொள்ள
188
நான்க
விட்டு
டிர
குறித்து
போன்றவற்ற
நவீன
செல்க
##மடை
விமர்
அட்ட
##ப்பள்ளி
பலர்
!
மிகப்பெரிய
Y
காந்த
இதழ
##att
வேண்ட
ரே
குறிப்பிடத்தக்க
##ீச
##ளிர்
கடைச
##ைகளைக்
ஏழு
##ாகம்
##ித்த்
2002
நூற்றாண்டின்
அதிகரி
Ar
அதனால்
பன
ஆன்
எண்ணிக்கை
சரி
சட்டம்
வந்தார்
##டிப்ப
##ாவும்
எனப்
நடைமுறை
அறிமுகப்படுத்த
கேரள
நைட்
##rom
நிரு
இப்
##ுகளைய்
புரோ
தை
கண்க
இலங்கையின்
##கிரி
அதனை
##ம்மா
நியம
##ன்கு
##ith
அரிய
##லாந்து
##ப்படவ்
ஒன்றாக
காரணம்
க்
##ிலா
##க்கே
இந்தத்
அனுப்ப
பிரெ
##ிக்கப்பட்டு
##ியம்மன்
##ப்படுவது
ஒருவ
விநாய
##ையாகக்
கான்
##ஷன்
திச
##ணு
##eb
பறவ
##ப்பாடு
##தற்கு
பாடல்கள்
சரிய
##ைகிறது
பொதுவான
தெலு
உலோக
##த்திற்கான
##துக்க
##யு
அண்ண
சுரு
சனவரி
போரா
உருவான
##மானிய
சராசரி
நிதி
##முத
யோ
பாண்டிய
மாறு
##ட்டத்தில்
ஆளு
கடு
##ப்படுவத
பன்னாட்டு
தேர்தலில்
சர
மென்ப
இயற்கை
பங்குகொண்டார்
##ம்ஸ்
வில்ல
##டிப்பு
சகோதர
புத்தக
நீதிமன்ற
##ியோ
வாழ
##ையாளர்
##ழகம்
இவரின்
##ச்செ
தெள
பண்டைய
எல்லா
வாக்க
கைப்பற்ற
அதிகமான
தனிம
செலுத்த
காம
வேதியியல்
by
##ட்ஸ்
நிறுத்த
திகதி
தலைமைய
##ப்பாக
ஏற்க
கவன
##லால்
##ப்பெரு
##தர்
தென்க
கொடு
##ாக்கம்
##ேல்
##ிகளுக்க்
##ிகா
##ாலம்
நிறுவனங்கள்
##சார
##ப்பொரு
வெவ்
பணியாற்றினார்
##ிருந்தனர்
##ரைடு
சாதன
முன்பு
தேச
மின
கோட்
மலேசிய
##ive
அணுக
##ational
##ுவின்
நீள
##டியம்
##ட்டார்
இருக்கிறார்
சேவை
##க்கர்
என்பன
பெரும
##த்தினை
##வேண்டும்
##லகம்
சொந்த
##ain
##லாத
தடு
கௌ
##த்திலுள்ள
அலை
##ோம்
ஆசிரிய
##நாடக
நாட்டில்
பரிந்து
வேண்டிய
நொ
##ey
2017
இசைய
வம்ச
##ைக்க்
கிரேக்க
##ெனில்
##ைகளுக்க்
உரிம
கொள்
ஆக்சி
##ொழ
##மில்
நுண்ண
Al
India
சொற்க
##ழ்ச்ச
கதிர
பதவ
தமிழில்
அமெரிக்காவில்
ஒருங்கி
அடிப்படை
##நர்
##ுறு
வழக்கம்
குழந்தை
##ல்லி
60
##பால
க்க
##olog
ஒழு
##etri
##ள்கள்
##ங்கலம்
சான்ற
##ூட
##ஸ்வ
##ிகு
##ment
உள
இன்று
நூல்கள்
கண்டறிய
பிரிவு
##ப்பதற்கு
கரிம
உதவிய
மஞ்ச
##ுறுத்த
##ியைத்
##்த்து
இறுதியில்
##ரைக்க
பிப்ரவரி
உண்
வரிச
##ங்கில்
கல்வெ
32
காஞ்சி
எழுத்து
விபர
##eved
1990
எசு
முடிவு
கட்டுப்படுத்த
##ரியம்மன்
டோ
##ம்பி
லூ
மரண
கனிம
##qu
##புர
இருக்கல்
வாழ்க்கை
உணர்
எழுத்தாளர்
தேர்வு
எண்ணிக்க
##ort
குறைவான
ஜெய
##நகர
##ாலை
பிட
அய்ய
##னியா
போராட்ட
##ord
##ப்பட்டனர்
வேளா
##etrieved
##ure
##ust
மையம்
##ானின்
##பாய்
மன்னர்
##ண்மையில்
##பீ
தட
வாழ்க
##ிருப்ப
இயந்திர
அடுத்து
விளைவ
##ுகோ
குண
##ran
பெற்ற்
ஆவர்
நெடுஞ்ச
யாழ்ப்பாண
##ிறாள்
தற்கால
மிகப்
கொள்ளவ்
தொடர்புடைய
ஆச
பெரி
விகிதம்
##டிகள்
##ரான்
வெளிப்படுத்த
தடை
நீக்க
##ார்ட்
ஆவண
அஞ்ச
##ஜா
குல
##ிலே
##ge
##ுக்கொள்ள
இருப்பது
இறப்பு
அரசாங்க
##http
வைத்த
##ர்களுக்க்
எளித
##ந்தில்
##்டர்
##னது
வானூர்த
##ஞர்கள்
தன்மை
பச்ச
கிலோமீட்டர்
சிர
கண்டுபிட
இம்மாவட்ட
குத
பெண்ண
குழந்தைகள்
##ாகம
அர்
##முள்ள
ஆல்
தன்னுடைய
Com
வலை
##ங்களால்
ஜெர்ம
35
சேர்த்து
முழ
ஊர்
##மலை
##மற்ற
நுழை
பக்கம்
கிரிக்க
நாள
வாங்க
உட்க
கற்க
##மானார்
துவக்க
இருவர்
இரத்த
##யல்
பயிற்சி
##ப்பூ
அத்துடன்
187
கிட்ட
புகழ்பெற்ற
##ரெ
##ப்புகளை
##குதியில்
நித
ஜூன்
##த்தினால்
##ொள்
செய்வ
##மொழ
தீவிர
பரு
##த்துறை
##வித
##ப்பானிய
பொழுது
ஒல
விருதுக
வழிப
##ly
சூழ்
##ann
பாவ
சிற்ப
வெவ்வேறு
சுக
##ஞ்
##ானா
##ிந்திய
உட்பட
தலைமையில்
##நீர்
தமிழ்த்
##ast
மருந்த
இத்தகைய
ஆண்
காட்சி
##பிய
செய்யப்பட்டது
##லாய
பங்கள
நிறுவனத்தின்
விடுதலை
சிகிச்சை
இறுதி
நேரம்
##ாட்டுத்
##ொழுது
1999
##ந்தா
மதிப்பு
சூலை
கவு
##ரசன்
பரவலாக
##ுக்குப்
அலக
கட்ச
வால்
முந்தைய
2018
உள்ளூர்
அந்
நெரு
##ல்லா
##ook
மாரியம்மன்
நூற்றாண்டு
சூன்
##ரையில்
##ாக்கள்
பாக்க
##ெடுத்த
இதுவே
##சூ
அடங்கும்
##ீரர்
##ப்பட்டி
வன
##தனை
ஜனவரி
##ரைக்
பிரி
நேபாள
அண்ட
தவற
பிரா
நீளம்
மான
##ழல்
ஒருநாள்
##ணா
பிணை
நடித்தார்
இராச்சிய
அப
ஒற்ற
##ொன்ற
##ப்புக்க
##மார
ஆகியவற்றை
80
##ிறன்
##ின்றி
##ங்கட
சதவீ
இடம்பெற்ற
##ியியல்
##ச்சார
விநாயகர்
இருக்கின்றன
விகித
பல்கலைக்கழகம்
##ப்பே
மிகுந்த
##மோ
வாய்ந்த
சுற்றுலா
##ிலை
மெய்ய
##ence
தண்ண
பத்து
திரைப்படத்தில்
உதாரண
##ib
is
ind
##க்குப்
நாவ
உயிரின
பண்
காட்ச
பதிவ
36
இருப்பத்
கந்த
செயற்க
##ear
##ையைய்
##டியும்
தெற்க
ஆகவும்
##ரைப்
ஈடுபட்ட
##ைகளைப்
திருமண
தற்போத
ஆராய்ச்சி
தொகுதியில்
சுய
சக்க
##க்கள்
##ுகளுக்க்
பயன்படுகிறது
##பாத்
பணிய
மேல
மூன்றாவது
33
##னைக்
##ிக்கின்றன
##ட்டின்
யான
ஞான
தேவையான
சர்
அவன்
எகி
##ருக்க்
Retrieved
படம்
##ப்பம்
திருவிழா
##னுடன்
##ld
கீழே
சுவாமி
##ுக்குக்
ஆஸ்திரே
அம்ச
pp
திட்டம்
அம்ம
##cl
186
விளையா
விய
##மின
நல
உரோ
##ல்லிய
##ையைச்
##நி
எழுதிய்
நிர்
##வேலி
##நிற
எகிப்த
திருநெல்
பொறியியல்
##eg
அக்
##ரங்க
##ிமுற
எதிர்க
##த்தியில்
உலகில்
சிங்
##தியான
தர்ம
எட்டு
படைகள்
துறைமுக
சாம்ப
பற்ற
மாற்றம்
அணுக்க
வேத
##நாயக
##நே
##ivers
உள்ளடக்கிய
மொழிபெ
##மொழி
நிருவாக
பயிர
##ையைத்
உதவி
##ult
தற்போதைய
##லத்தில்
ஆழ
பக்த
நெல்
ஆந்திர
நாட்க
உறுப்பினர்கள்
உருவாக்கப்பட்ட
இவ்வா
ஆப்பிரிக்க
இன்னும்
1980
அமைச்சர்
##பார
##ொள்க
சுட்ட
##மக
##ிப்பத
##ha
எட்ட
காலக
தீர்மான
பாரா
பாகிஸ்த
As
உரை
##ளைய
போன்று
##சீ
##ாவுக்கு
கிட
தொடருந்து
அன்ன
பேராசிரியர்
1998
முன்னேற்ற
##ய்க்க
இசுலாமிய
வருகின்றன
##ப்புப்
கூட்டு
##ff
சன
##ாமலை
வளை
##ரசு
இறந்த
போக
45
ஒத்த
##மல
##ப்பர
ஆயுத
நாட்கள்
##சக
வழங்கப்பட்டது
கோட்டை
##oh
##எஸ்
ஆள
போரில்
பந்த
ஆடி
##மிக்க
ஜன
மேலா
##ிடமிருந்து
##ாகவே
இயல்ப
பழங்கு
ட்
அறிவு
பத்
##திக்க
என்பதால்
ஒருங்கிணை
கடந்த
பௌத்த
New
##ாவிற்கு
##ரைய
எல்லை
தயாரிக்க
##வையாக
அமெரிக்கா
##ன்றி
தத்துவ
சேக
முஸ்
ed
ஆகியவற்றின்
##ம்பர
வெளியிடப்பட்டது
##சன்ன
##ிற்கான
சுற்றி
##ஸின்
பூச
கிறிஸ்த
##ர்ஸ்
திறன்
##வரான
##ட்டுகள்
##டுப
வருகிறார்
##hem
##தியில்
வர்த்தக
உடை
##னுடைய
##்தான்
மும்
வெளியான
##ide
##சியம்
நாணய
காப்ப
விண்மீ
ஜூலை
தாக்குத
கூறினார்
அணு
ப்பட
##மல்
அரை
##ோண
தொடங்கினார்
முன்னோ
பார்க்கப்பட்ட
##ுவதில்
முதலாவது
##க்குறிப்பு
ஒட்ட
##சுவாமி
கலி
நிறைவே
அருகே
ஏனெனில்
##ப்படாத
##40
Pro
நுட்ப
விவரிக்க
##ப்ப்
தொடங்கியது
கடவுள்
##வர்களின்
ஈர
பயன
ஒப்பந்த
##லெ
வடிவம்
மிக்க
இலங்கையில்
##ஹ்
விழுப்பு
ஆண்க
##uth
வரையறுக்க
##ரியின்
பின்பு
பள்ளியில்
நடிகர்
நன்கு
##ியைச்
கிராமம்
##ht
புற்று
##ont
##istory
தூண்ட
##ரமாக
மார்க
விளையாட்டுவ
அற்ற
கிடைக்கும்
சிறுக
வார்த்த
##10
##end
இப்போது
##பால்
##லியா
##cy
கடைசியாகப்
##டுகிறார்
பாத்திர
37
##ராத
பில
##ச்சுவ
ஆதார
உருவாக்கிய
காலப்
##படும்
Mar
கத்தோ
மேம்படுத்த
நட்ச
உயர்ந்த
இல்லாமல்
நரம்ப
விளையாட்டுவீரர்
##ினா
அங்கீக
விபரக்குறிப்பு
##ond
சக்த
குட
நண்ப
##நாதர்
ஆகத்து
##க்கோட்டை
உலகப்
##ட்சுமி
அரண்ம
நிகழ்வ
##ect
##ெழு
தொடர்ச்ச
தெளிவ
நினைவு
வெள்ளை
சாலை
உடன்ப
துறையில்
திருநெல்வேலி
விழுப்புரம்
##னல்
##ாட்ச
##ும்போது
ph
ஆகஸ்ட்
வடிவில்
திருவண்ண
பெரும்பான்
மக்கள்தொகை
ஆட்சிய
##த்திற்காக
உணவ
வருவாய்
செரு
##தான்
##தைப்
##ிகளால்
கேட்ட
எது
டால
##ரோடு
##த்தில
##ராய்
ஆகியன
நாடுகளின்
##ex
##வாய
##த்துப்
1996
எலும்
விளையாடி
போர்த்த
##ணன்
##வார்கள்
##ித்தல்
##ற்சிய
விஜய
சாதாரண
அனைத்தும்
##ராக்ச
##த்தாழ
##மதி
இவருடைய
விக்க
##uk
உரிமை
X
##ீப
கிராமக்
தொடரில்
ரச
உத்தர
##ம்பட்டி
கட்சியின்
வெப்பநிலை
முற்ற
ரயில்
அமிலம்
##ட்சம்
##க்கண
##த்தினர்
##ப்பெயர்
##வர்களுக்கு
வேக
##ூராட்சி
##ன்பது
வது
##்களை
500
ஆர
கழகம்
##ளவ
1997
விதி
வளிம
குறைவாக
##தல்
படத்தில்
##முறையில்
மலையாள
##ாவிட
ஜெர்
மகள்
##ன்ட்
##ாரின்
சன்னதிகள்
##ைகளால்
கதாபா
x
நாம்
கோல்
பூம
ஊக்க
##ாளையம்
##ங்கல்
##யிர
art
முனைவர்
சிவக
வியா
அரசியல்வா
உண்ண
##டுவது
##ern
##தைத்
விளைவாக
முற்ப
தக்கது
தரு
##ுறையில்
வகைகள்
ஏறத்தாழ
##ையு
காற்ற
என்றழைக்க
கத்தோலிக்க
75
புகை
சிலர்
பிரெஞ்சு
##ித்தனர்
போன்றவ
##ர்ச்சி
##ரிமை
##டியில்
வாகன
##ானி
##ob
##போர்
##ப்பான்
##ail
70
##த்தீ
இளவ
##man
பாக்கித்த
செயலாளர்
##ொல
##த்தட்ட
##த்தள
de
1970
##iversity
##ப்புத்
##ிருக்கல்
விற்பனை
Sh
##ie
அமையும்
ar
கவித
மாணவர்கள்
##டுதல்
முத்த
##ல்லூர்
185
##ேக
##ரியம்
ஆகியவற்றில்
##பார்
So
##ப்படல்
2019
இயக்கத்தில்
ஐரோப்ப
கட்டுப்பாட்ட
news
தன்னை
இத்தால
##ிச
செய்தது
##செய்ய
படுத்த
##்களின்
பிரம்ம
##வரின்
1960
கார
##சால
அனுபவ
##ஸ்டர்
எடுத்துக்காட்ட்
பிரதான
ஆங்கிலேய
##rit
காற்று
தொகுப்பு
குறைக்க
ஊடக
இச்சேர்
வான்
சிறுவ
மஞ்சள்
from
வரிசை
குறிக்க
##ெர்
##னூர்
##மணி
https
கொண்டாட
##ics
pro
இயேசு
j
##ச்சூ
பாட்ட
அமெரிக்காவின்
காணல்
##ிக்கப்பட்டார்
##லீ
47
மழை
இவற்றின்
##ியத்
##பிள்
வில்லியம்
கருதுக
திருவண்ணாமலை
##pr
##ொலி
##ர்கு
வைக
##ட்டோ
##ின்று
தொடங்கி
##பக
##ள்வ
கிறித்தவ
இராஜ
கடற்ப
##ிகளைப்
தெலுங்கு
நிகழ்த்த
இருந்தனர்
அன்ப
##ையர்
இயக்கம்
ஆங்கிலத்தில்
ஏற்று
##ந்தின்
கணினி
ஏற்பட்டது
நிறுவப்பட்டது
##பொரு
##வையில்
மீன்
போக்குவரத்து
நடைபெறும்
##orld
##ணியில்
வகைப்படுத்த
பதிலாக
##ுக்கொண்ட
##நிலைப்
அவர்களது
பணிபுரி
##ங்க்
##ிருக்கின்றன
##ass
பராம
எழுதி
தயாரிப்ப
சுல்த
பாதுகாக்க
அறிக
நகை
ஆதி
விப
பதவி
சக்தி
காஞ்சிபுரம்
##்டன்
சமுத
ஆலய
##ாக்ச
தனிப்பட்ட
##டின்
##னைப்
கோய
##ளாவ
##ட்ட்
##ராவார்
உபசன்ன
வட்டத்தில்
##னீ
பன்னாட்டுத்
##வழ
பிற்ப
##நோய்
ஏனைய
38
##ல்கா
குறிப்பிடத்
யூத
##க்கல்
##மாகப்
##சல்
ch
மரபு
கிமு
மனைவி
தமிழர்
##ிகோ
34
##தாகக்
சமுதாய
சேலம்
முதன்முத
தரவு
##ஸி
சேர
பத்த
திரைப்படங்களில்
90
##மிழ்
##ியைக்
##ாஸ்
##மைக்
காட்டு
##நிதி
##மைகள்
மண்ண
அருங்காட்சியகம்
##ubl
தம்ப
##ong
தென்னிந்திய
தங்கள
க்கு
வரலாற்றில்
நடன
பவு
வீரர்
$
1995
##த்தான
பயணம்
##ெய
சட
கணின
##ருகிறது
துவங்க
##க்கலை
Am
நை
அண்ட்
போலவே
ஆற்றின்
##த்தன்மை
##ண்டன்
##ாட்டை
##லன்
##கிழ
##ட்டும்
படுக
வழங்கும்
மூத்த
உள்ளத்
கும்ப
அடிப்படையாகக்
ரு
ஆணையம்
##ொன்று
பிரபலமான
##ition
##12
##ோல்
திசம்பர்
கிட்டத்தட்ட
##les
ஆலோ
சமயம்
நெற
##ப்பும்
al
##றுகள்
இதற்க
##ப்பொருள்
##ore
செல்வ
சோவிய
காந்தி
##ous
##ிவி
##யோக
தோட்ட
##ஸ்கோ
##ப்பன்
இளைய
மூலக்கூற்று
கூறப்படுகிறது
மித
ஆப்
##டே
1991
##பேச
பசு
Ed
முக்கியத்துவம்
##டியா
##ுகளைப்
##ப்பதற்க்
என்பவரால்
##edia
கடின
ஒன்றை
மீட்ட
Ph
அடிக்க
வேள
##ிட்டது
வின்
##களில்
##த்தான்
காட்டில்
பூச்ச
அடையாளம்
##ேசன்
பிடித்த
##ப்பகுதி
##ினோ
##tern
சிவபெரு
வித்த
ஆல்ப
பாய்
கர்நாடக
1992
மரிய
கொழும்
ஒன்றியம்
Z
கொண்டத்
அமைப்புகள்
##மர
சைவ
ஒலிம்ப
##மாத
மாவ
ஹி
சோடியம்
சென்றார்
##மங்கலம்
இரட்டை
இளம்
அணிக்கு
1994
##ich
லே
முன்னணி
இதய
##டைந்த
##ாட்டின்
க்கும்
கிளை
உயரம்
அமைந்தது
##ுகளால்
புராண
மண்
##ிராம
கார்பன்
##ank
##வகை
##ுக்கோ
##ுகின்ற
முறையாக
##லாக்க
அவற்றை
##uc
பக்
கால்ப
காதல்
##ன்னி
##மல்ல
இக்
பத்திரிக
##ப்படுவத்
இந்தி
##ூறு
ஆக்கை
துரு
விடு
இவரை
உலகம்
##und
##த்தன்
எழுதினார்
மொழிகளில்
##சாலை
சௌ
##ium
சிதை
மகி
அளிக்க
##வின
வடிவமை
##ுவையில்
##ையின
##த்தனர்
University
நோயாள
##ளே
48
பிரக
கட்டப்பட்ட
at
##ர்களைய்
##ேற
ஆட
திட
வானூர்தி
முது
மாநிலம்
##ஸில்
##யான
##ண்டை
உள்நாட்டு
##30
##செய்த
பயன்படும்
ஒளிபர
##ஷி
தனியார்
##ology
##11
பேரரசின்
பொற
நாராய
அருள்
திராவிட
##ரசி
திரி
வாய
சில்
##ப்பொ
பதிப்பு
நம்பிக்க
##மக்கள்
##ண்டோ
இதழ்
##ற்றுள்
முடியாது
##மைய்
##கங்கள்
##ுக்களை
##ப்பிரமண
கடைசி
சென்னையில்
ஷா
கொல
##வதால்
கதாபாத்திர
பரிசு
##aj
முதுக
##நாதன்
இந்தியப்
##per
##ிட்டார்
எண்ணெய்
இளை
அணை
இயக்குனர்
லோ
##ுக்கல்
Press
##ிருந்தும்
திருத்தந்தை
1989
பொருத்த
சிறப்பாக
ஓர
சங்கம்
##வாகும்
வேகம்
கிராமத்தில்
குறிக்கிறது
கல்வியறிவு
##டெ
##ொலை
வடிவமைக்க
en
##ல்களின்
39
டொ
##ண்டல
##ee
படிக
##ேந்திர
இயல்
சோதனை
பேரரசு
பகுதிகளை
பின்பற்ற
அம்
##ிருப்பத
##்டு
##ர்கோ
சந்தை
முருகன்
அமைக்கப்
மைக்
எழுதப்பட்ட
##ork
நேரங்களில்
##மிழ
அறிக்க
சிறி
##ேற்றம்
ஆக்கைவில்
ஈழ
ஏழ
##ிருத்த
நடைபெற்றது
##வாறு
எக்ஸ்
வாய்ப்பு
AE
##க்கட்ட
வட்டம்
##பாடுக
##ூர
##ந்தும்
44
சன்னதி
##ாக்கி
பொன்ன
மாதத்தில்
##iz
நிலைய்
##த்தன
இராக
ஏரி
விழா
##ாணம்
வேறுப
##ru
தென்னா
நகரத்தில்
y
வழிவ
பெறும்
42
கண்டறி
காலங்களில்
##ப்பட்டால்
##ount
ஜார்
இங்குள்ள
##pt
##iss
தாண்ட
##சர்
நேச
ஆய்வுகள்
ஆஸ்திரேலிய
##ட்ரோ
##பட்டி
##லுக்க்
##ிவாச
artic
கடலூர்
##ேசியா
அடித்த
##ensus
ஈடுப
ஆய்வாள
தென்கிழ
##ial
எடுத்துக்
ஆல்க
##க்குடி
##லையும்
184
##ட்பட்ட
சோவியத்
ஆப்க
##த்திரி
##aw
##ach
முறைகள்
##ப்பட்டினம்
விலை
°
வீரர்கள்
திரைப்படமாகும்
##ism
##ிச்சி
இரவு
தீவு
##வழி
இந்நக
அறிகுற
##ராள
வர்
##வர்களில்
1993
பெரிதும்
மந்திர
முத்து
காவல்
என்கிற
வைத்த்
##த்தே
பங்கே
வேறுபட்ட
இயற்ற
அரங்க
அவற்றில்
செயல்படுத்த
சோதன
##ite
##பத
நகரின்
பரப்பளவு
##ember
கொள்கை
##ுகிறார்கள்
##மாண
வந்த்
வீட்ட
49
##டாது
டேவி
களில்
திட்டமி
கான
இடது
உறுதி
##வற்றை
##ரியும்
டாக
நீரா
மொழிகள்
##ஸ்தான்
கம்
தரும்
நடத்திய
அமர்
கலாச்சார
ஏவ
##ப்பண
செயற்கை
##ீஸ்
##ராஜ்
##வாக்க
மாநக
வலிய
தடுக்க
##ியு
உரிய
டு
மேற்கொண்ட
சாம
கொள்ளும்
அன்ற
##ப்பூர்வ
##சில்
உயர
tamil
##ளிக்க
மாலை
தீர்த்த
இந்தச்
அடங்க
விளங்குகிறது
an
##ுவரர்
சரியான
மோச
வங்கி
##amp
ஜீ
##்துறை
##கத்தின்
மைல்
சிந்த
செய்தி
இருந்த்
##ுவா
போரின்
##ர்டு
பதி
##ம்புத்த
நன்ன
##நாதபுரம்
##ice
ac
நீர்ம
##ல்லூ
கூடுதல்
43
செய்த்
##df
ஆரம்பத்தில்
##வள
##ங்களைத்
முடியாத
விருப்ப
முஸ்லி
##ம்க
குறுக
##பில்
##க்குழுவ
##19
குக
##னெ
##ர்ட்ட
தேவா
செய்யப்பட்டு
குண்ட
##rict
தொல்ல
தோன்றிய
##யன்
##ிருத
##ாட்டி
1950
வளர்க்க
கட்டப்பட்டது
குளிர
சிங்கள
நூலில்
வெள்ளி
அடுக்க
52
##வர்களை
பூங்கா
அப்போ
பிள்ளை
##ுக்களில்
##ாந்த
##த்திரே
எச்
##ரையும்
மாற்று
##imes
##ாடுகள்
இயற்பியல்
ஆக்
எட்
##டிக்
சாத்திய
அதிகரிக்க
நாளில்
மேலாண்மை
##ர்களைக்
00
##ிற்காக
##lection
மங்கோ
இரயில்
தில்லி
##நல
##ிறு
விஷ
##பொருள்
அவர்களுக்கு
##az
பண்ண
திருச்சப
நிலுவையில்
##திர்வ
##ட்டது
நம்பிக்கை
சிவப்பு
##ுறம்
ஒன்பது
##க்கூடும்
தூத்துக்கு
##ையிட
விவர
##எம்
இந்தோன
அமைந்து
பிரிட்டி
##ையோ
46
அந்தப்
உள்ளடக்க
##ost
##ாகச்
அட்
உருசிய
குறியீ
##ுடனும்
அவரின்
ஒதுக்க
எவ்வாறு
யோக
விண்ண
வீதம்
பெயரிட
##ியலாளர்
நகரத்தின்
##ழிய
##ோறும்
மாகாணத்தில்
##டையும்
வெட்ட
##யும்
அலுவலக
History
##ொல்
பொருள்க
##த்தொட
நியூயா
##மானம்
உடன
கைது
பரிமாற்ற
விலக
##ப்பாட
வெளிய்
முக்கோண
வழியில்
##istrict
பெங்கள
குடும்பம்
##டுகின்றது
அதன்ப
பிரச்சின
மென்பொருள்
தொழிற்ச
##ங்கால
திண்ட
போட்டி
நட்சத்திர
அடிக்கடி
##யண
குரோ
pdf
சேர்ந்தார்
##amb
##ations
திரை
நேரடியாக
##raph
ஐந்த
மாகாணம்
கூறுகிறது
உண்மையான
அலெ
முட்ட
##ினான்
##ிருஷ்ண
##ப்பெற்ற
##ணைக்க
##க்ட
இம்
புளோ
கோட்ப
தானிய
அய்யனார்
தழுவ
காலகட்டத்தில்
இன்றைய
பெயர்கள்
வருகின்றனர்
1984
நுக
செய்யப்
##ாரா
59
##ப்பிட
பாடிய
##ரைத்
அட்டவ
உண்மையில்
##லைத்
சேமி
##வால்
##ெட்ட
##ழ்த்த
சுத்த
அமைப்பின்
எச்ச
##ரிக்கும்
உற்பத்த
தாம்
ஓய்வு
உதாரணமாக
##முடைய
பிரதேசம்
அமைய
மரம்
மேலே
ஒட்டு
##ாதை
Vol
##ரிகள்
பிற்க
##மேற்கு
##ict
அனுமதி
##முறைகள்
உருவாகும்
##வுக்கு
வெளியேற்ற
##பல்
நீரில்
பர்
மலா
வெளியிட்டார்
நீல
அவள்
சமன்ப
நிறைவேற்ற
##ேஷ்
##பிக்
நிருவாகியால்
##ஷா
##ன்றால்
##பாளையம்
வேண்டு
பெப்ரவரி
##டுகின்றனர்
##நல்லூர்
வடக்கில்
##்சு
55
இன்ற்
கிழக்கில்
##ப்புகளில்
வலது
1988
மீதான
சராசரிய
திருவள்ள
##பவர்
எதிர்ப்பு
எண்க
வடகிழ
##வச
ஏர்
போதும்
##ச்சர்
வானிய
தோற்றுவ
ஓட்டங்கள்
##ண்டா
பயன்படுத்தும்
##நித
சின்
புலவர்
63
இந்நூ
பணியாற்றிய
கோயம்புத்த
சீர்த
வந்தனர்
பிராந்திய
அயோ
மாவட்டங்களில்
1987
குறுக்க
Ro
ஆனார்
மேற்பர
##ப்பெருமாள்
##்க்
கார்த்த
என்பத்
சுந்தர
##ல்ஸ்
Res
பாரச
வெற்றிக
##ys
##ச்சேரி
கடுமையான
##ons
##பர்ட்
இனங்கள்
கோண
ஈரோடு
செய்யப்படும்
தீவுகள்
##ியைய்
பாதிப்ப
##ace
##ood
##றான
##ாசி
##ுக்களின்
முறையே
செய்கிறது
அயன
##ப்பத்
மாற்றிய
மக்களுக்கு
சிவகங்கை
உருவாக்கும்
##ுவதால்
##லிங்க
உயரத்தில்
நெடுஞ்சாலை
இருபது
திறந்த
இராச
சபை
##ப்போதும்
##ேட்
##ல்ட்
180
##போதும்
செய்தனர்
##ியாய
மின்க
##14
##திக
ஜெர்மானிய
##ெல்ல்
1947
பகுதியை
தொடக்கத்தில்
சிறை
விரிவு
என்பதாகும்
நடுவ
தொல்கா
பாதிக்கப்பட்ட
##டத்தில்
##ப்பட்டத்
##ிக்கின்றனர்
நடிகை
##யோ
300
வன்
பெயரால்
##டுக்கு
அறியப்படுகிறது
##ள்ளை
பாற
##த்திற்குப்
நாட்களில்
அச்சு
##ுல்
சேகரி
65
Is
##லையில்
புதின
புரிந்து
##ple
##ப்படுகின்ற
முதன்மையான
##ித்துவ
முர
பூர்
வழிக
நோய்க
டாக்டர்
சல்ப
விளம்பர
##ரியல்
64
உருவாகிறது
Ac
##ந்தன்
##த்துச்
அங்கே
56
##iy
கவர்
தோற்றம்
சாவ
திசை
கேட்க
வேதி
சிறிது
நிறத்தில்
ஏற்றுக்கொள்ள
வேலூர்
தூத்துக்குடி
சதவீதம்
##ம்பரம்
கட்டுரைகள்
பாண்ட
அறியப்பட்ட
##பட்ச
##டைக்க
புரத
மாகாணத்தின்
##pl
##யிர்
ரீதிய்
##ிப்படுத்த
மாறாக
##ைகின்றன
புதுக்கோட்டை
அனைவரும்
##டனும்
உப்பு
வேளாண்மை
##லய
கண்
அரசா
விழு
எடு
##ப்படுகின்றனர்
வலுவ
பேருந்து
வரவே
##yn
##adu
##ேட்டு
வண்ட
இசையமை
காக
##15
##ப்பாற்ற
ஒன்றான
கழி
##த்தைய்
வழிமுற
##ue
திரவ
வளைய
##ல்களைய்
##மைப்
##ருந்த
காண்ப
நபர்கள்
நிலப்பர
Q
##மாய்
##ப்புக்கு
செயல்த
அலங்க
நெருக்க
பச
பகுப்பா
அசை
பாகிஸ்தான்
பட்டியலில்
##ாவார்
##ஞ்சிய
183
##னியம்
எளிய
நூலக
##erv
##ீச்ச
with
##ிக்கொண்ட
வாழ்ந்து
விண்வெளி
பகி
##மையின்
கட்டாய
குடும்பத்தில்
பறவைகள்
அனுமத
மேற்கில்
சமயத்தில்
செய்யப்படுகிறது
##ினார்கள்
பொருட்களை
நிறம்
கன்னியாக
இரும்பு
தலைநகர்
சுற்றுச்சூ
உபயோக
##நேர
மோத
மிகச்
வேட்ட
அவர்களை
பாலை
நிறைவு
##பன்
ஒழுங்கு
பிரிவில்
##நட
##ண்டர்
wh
##80
##hi
##ஜன்
ஹை
ரூபாய்
##குவ
##ile
ஆயிர
சரண
ஒழ
கலைக்க
##ியக்க
தெற்கில்
பயன்பாடு
தாக்குதல்
எரு
மங்கோலிய
ஐய
குளிர்
அறிமுகமானார்
##ழ்ந்த
இங்கே
பஞ்சா
இஸ்லாமிய
கூடுதலாக
##னன்
##ொட
##ழிப்பு
மைக்ரோ
be
சிவாகம
ஆத்திரே
##சூர்
##லாளர்கள்
குடியேற்ற
பெண்களின்
##ப்பிரிவ
பற்றியும்
வளாக
Re
##ிக்ஸ்
பாலின
நோக்கம்
இத்திரைப்படம்
சீர
நீர
செய்வத
##ுவதன்
##ாம்ப
##ையார்
மெய்
##ாலய
##சியா
கொலை
மருந்து
##ப்பதற்காக
கையாள
மும்பை
மண்டலம்
துப்ப
##சுக
##த்தவர்
கதிர்
##ொள்ளும்
அடர்த்தி
##yl
சாய
பணம்
தோல்விய
வீட்டில்
பயன்
சான்
அடைந்த
##நாட்டில்
சற்று
முழுமையான
ஆக்சைடு
நிறைந்த
துறைகளில்
1985
##மையால்
பாடி
வங்காளதேச
கன்னியாகும
பத்ம
போற்ற
பாராட்ட
தென்னாப்பிரிக்க
தயாரிப்பு
Joh
அரசியல
##ிக்குப்
இவன்
மயில
கிடைத்தது
##பவர்கள்
வட்டார
மத்தியில்
##ark
##த்தீன்
சீக்கிய
அழுத்தம்
##கன்
##த்தலை
காஷ்
எதுவும்
ஸ
இறக்க
கோப்ப
சுகாத
Comm
அந்தக்
சீனா
சக்கர
பழமையான
1000
கிபி
##தையும்
வீழ்ச்ச
III
கலவ
சென்
சுப்பிரமண
Cl
தட்ட
பிரிட்டிஷ்
லை
பாடல்களை
இச்சேர்மம்
54
கோட
ஆதிக்க
உருவானது
மன்னன்
பெற்றவர்
பயன்பாட்ட
ஒற்றை
கோயில்கள்
##போல
##ியாகக்
##ெழுத்த
தொகையில்
இரண்டும்
##ப்படுத்தும்
விளக்கம்
66
தால
##ர்க்கு
##ோட்ட
உதவ்
Tamil
##ிருந்த்
ex
##ளாவிய
##ன்களை
வருடம்
குறுகிய
##clop
##த்ரா
##ack
மான்
##16
1971
கடந்து
ஜார்ஜ்
95
##ர்ப்ப
விமர்சன
##ாளி
53
150
Col
எளி
1977
##ீஸ்வரர்
உயிரியல்
##son
கோயம்புத்தூர்
காள
Chem
##ப்பட்ட்
தொடங்கிய
##கையில்
தொல்லியல்
##பூர்வ
##கைய்
179
sp
மில்
ஒன்ற்
ஐதரசன்
##eral
நிமிட
பச்சை
##13
சிறப்பான
##iew
##ப்பள்ள
##eth
1986
அரபு
பொட்ட
காங்கிரஸ்
##டான
ஒலிம்பிக்
##18
##ஞ்ஞான
கோபுரம்
##மேன்
கருவிகள்
பிறந்தவர்
##ிங்
மரா
பாசு
கடத்த
வானியல்
நாகப்பட்டினம்
ஆயினும்
##ுக்கிடையே
Sp
##ாடுக
நிகழ்ந்த
##17
உரையா
மாணவர்
Pl
அதே
பெயரை
ஆயிரம்
இயக்குநர்
##ிப்பது
வேட்ப
தச
##ated
ஃப்
அலி
##ளுமன்ற
எதிர்ம
கருப்பு
தாயார்
மிகக்
மைக்க
php
பொறுத்து
##ட்டுப்
நிலையை
##ங்களாகும்
தோற்க
பகுப்பு
##ச்சே
##முனை
வாழ்கின்றனர்
##ஸ்தான
##25
##்ச்
##ட்டிய
புனை
##ளத்தில்
கட்டமை
மருத்துவமன
விலங்குகள்
பில்
பெற்றோ
அமைப்பில்
World
##ிடத்தில்
சித்திரை
கிருஷ்ணகிரி
##ப்பதில்
##நெ
கலந்த
அசிட்ட
சர்க்க
##cess
##ப்பெய
வழங்கி
வானொலி
இன்னொரு
85
கட்டட
அறிந்த
ஏராள
##orm
##ொல்ல
இடங்கள்
எதிர்பா
அவு
காலை
##cyclop
##விக
09
57
உட்பட்டது
பரிந்துரைக்க
##முடிய
58
காஷ்மீ
நார்
ரொ
##ளாகும்
##ற்றுடன்
வைக்கப்
##ஃபோ
குறிப்புகள்
##ாவா
சார
தலைவ
கடற்கரை
##தைய
##ங்கர்
Census
##ிலிய
ஏற்பட
##லிச
##ைகு
குஜ
மொழிபெயர்
பனி
நிலம்
##ாக்ஸ்
##வாழ்
உரிமைய
உயர்த்த
படத்தின்
எலக
வளரும்
##indu
உறவு
##மாற
மகளிர்
சேர்மமாகும்
பாரசீக
>
##்கோ
கவனம்
செங்கு
வரத
மலர்
காவல்த
ஒன்றில்
ஃபெ
கூறுகிறார்
வல்லு
இவற்றை
நாமக்க
gov
போட்டிகள்
விடுதலைப்
##ett
நடத்தி
கோடி
##வைப்
வயத
ஆர்வம்
##ages
பரிசோத
##டிகிறது
கட்டி
செயல்படுகிறது
செயல
77
##ரிப்பு
குழுக்கள்
பதிப்பகம்
பாராளுமன்ற
##ினைப்
1972
தேவி
செங்க
நான்காவது
##ுவன
இப்போ
புதித
படிப்ப
சொற்கள்
இலா
மூட
##ையூ
##தார
வீடுகள்
1983
ஒப்பந்தம்
##லுடன்
காச
##ates
அருகிலுள்ள
திருச்சிரா
சிங்கப்பூர்
##act
கிரிக்கட்
##போல்
இலக்கண
தமிழகத்தில்
எண்ணிக்கையில்
##லங்கள்
அகற்ற
அறிந்து
##ுதி
99
பகுதியாகும்
##ெண்
சமீப
முழுமையாக
பஞ்சாப்
##ograph
பொறுப்ப
இவ்வகை
வெளியேற
##22
தமிழ்ப்
உலகளாவிய
அரசர்
##ையூர்
1982
##மனை
கடன்
விளங்கியது
நேரடி
டீ
அலு
தலைநகரான
co
பிரேச
விஷ்ண
##ையாளர்கள்
உபசன்னதிகள்
அறுவை
அன்
மோக
வைர
கலைஞ
##ிட்டால்
எலக்ட்
பென்
##ல்களுக்கு
##முன
பான
இயக்கிய
நாமக்கல்
பயின்றார்
##ஹா
எப்படி
வசதிகள்
வரிசையில்
கன்னியாகுமரி
அப்த
சாலையில்
நகரங்கள்
பிரதம
##ிடப்
##ர்த்
நினைவ
மதி
##ிற்று
ராஜ்
ஆண்ட்
தொழிற்சால
##ாவி
##ட்ரா
##ுறவு
1978
நடவடிக்கை
அப்
எடை
ராஜா
எப்போதும்
##லானது
குறு
மனைவ
தாவரங்கள்
##ica
இதுவரை
இயங்கும்
ரை
எழுது
சஞ்ச
தண்ணீர்
##29
##க்கள
##தற்க்
துன்ப
துல்லிய
நூல்களை
400
பகிர்
1930
##ியுடன்
திண்டுக்கல்
##ாவத்
##ata
##க்குழ
##நான
1967
விஞ்ஞான
#
வலைய
தோன்ற்
அணியில்
தலைநகரம்
தனக்கு
##்டீ
1979
##க்கின்
குரல்
##ிக்கப்பட்டன
நிறுவனத்தில்
##ுகு
##க்குழு
இறந்தார்
தொடர்வ
67
##ச்சல்
தெற்க்
இலக்கியம்
பட்
வளர்ந்த
மய
வசதி
முதலான
##rid
##ூரா
அதிகாரப்பூர்வ
உள்ளதால்
##தியின்
##ங்களுள்
அரசாங்கம்
பெற்றுள்ளது
##க்கிர
##ிதா
படித்த
வண்ணம்
##ங்கே
##ரிகிறது
சன்னதிய்
மாற்றங்கள்
குறியீடு
##ளைத்
மாறி
அரசன்
எதிர்த்து
##ிப்பை
ஞ
உண்மை
பேச்ச
##out
John
##த்தொடர்
பின
ஆதரவு
தியாக
##ans
கவிதை
##ிற்குப்
போத்
குஜரா
முடிவில்
கள்ள
நடிக்க
##ame
##har
கட்டமைப்பு
மருத்துவம்
வியட்
இசைக்க
1948
கொடுத்து
நகராட்சி
மீற்ற
##வருக்கும்
ஒன்றியத்தின்
ஆலயம்
article
பாக்கித்தான்
இனம்
மென்பொரு
வழங்குகிறது
உடலில்
##ைகளைத்
இக்கோயில
##னையும்
##io
Ge
ஹே
Publ
##மாகிய
ஊட்ட
கப்பல்
##ere
##ிஸ்
##alay
Encyclop
##ாரை
வளர்த்த
வெளியிடப்பட்ட
##தோடு
##ராஜா
##ரிஸ்
அவசிய
மக்களால்
வித்தியா
வென்றார்
##பாய
வெற்றிய
அழி
வடக்கே
ஆக்சிசன
இறுதிய்
ஆரோ
##ப்படுத்தப்பட்ட
விளையாடினார்
குன்ற
செய்யப்பட்டார்
##ிகம்
கிளா
பேசும்
மார்ச்சு
##enn
##சில
##ulation
ஆகியோரின்
04
அளவீ
ஊக்குவ
பணியில்
மின்சார
வாய்ப்பாடு
உருவாக்கினார்
புவியியல்
##ங்குடி
பிரிக்கப்
படிக்க
அலுவலகம்
##ight
##ஞ்ச்
திபெ
கலிபோர்
குர
போன்றவற்றை
1975
##சித்து
டேவிட்
1962
துண்ட
படையெடு
##int
ஒழுங்க
ஹொ
தாங்க
பயிற்ச
சத்
அளவுக்கு
ஜா
பிரான்சி
திருப்பூர்
தொடங்கப்பட்டது
##ாதே
கோவ
##ரிய்
பூங்க
##னிவர்
ஏராளமான
தவிர்க்க
1976
நிலவ
##லஸ்
1974
பார்வை
புல்
இரச
##மின்றி
செல்வா
கிடைத்த
வெளியிட்டது
##னவே
மென்
எளிதில்
விற்க
##ச்சியம்
செய்வது
##க்ஸ
##ப்படு
விவாத
அஞ்சல்
நுண்ணு
திருவார
##ron
##பாடுகளை
##land
படங்களில்
பில்லியன்
என்பர்
எழுத்தறிவு
விசை
bl
ஒளிய
இறைவன்
##க்ன
டா
அளித்த
ஜேம்ஸ்
நிகழும்
தொடக்கம்
##ீரல்
ஒன்றியத்தில்
வற
தூய்
பிரதமர்
நியூயார்க்
88
இதர
பல்கலைக்
கருத்துக்க
##ுவி
சமண
கொல்க
பேரரசர்
பிரிவுகள்
வடிவமைப்பு
##சிலா
பிண
வேற
##டைந்தது
##த்தாக்க
##மைப்பின்
##ுதான்
வாயில
பணிகள்
ஏற்படுகிறது
##ருக்குப்
##ழ்கிறது
எனப்படுகிறது
##ையன்
##டுவத்
கோட்பாடு
சிவா
உள்ளே
##ெடுத்து
சார்பு
தங்களது
கூறிய
மணிக்கு
id
##நாத்
பிரச
மறுப
தூய
விற்பன
விளையாட
தகுதி
இதுவும்
விழுக்க
சேர்மங்கள்
வழங்கப்படுகிறது
##60
அகாத
##ராம்
ரஷ்
புவி
செம்ப
பகுதியின்
##ட்பு
##ப்படம்
சூட்ட
கும்பகோ
##rans
மாறியது
nic
தன்மைய
##லிங்
வள்ள
முயற்சி
##ச்சிற
அலகு
மையமாக
##பொ
##ாலோ
நடித்து
விரைவில்
அலுமின
கதைகள்
நினைவாக
குடியரசுத்
1969
##க்குச்
Indian
அரண்மனை
பண்பாட்டு
##ளூ
##சனை
Ad
இக்கிராம
Con
வேர்
இலங்கைத்
01
முடித்த
இந்தியக்
செய்திகள்
தரவ
கரைச
சூழல்
விமர்ச
குடியரசு
நிபு
கருவி
தரை
வெப்பநிலையில்
##ாண்ட்
இயலா
புள்ளி
வழிகாட்ட
தகுத
இயலும்
##ஸ்தா
##ாகவ்
1981
இளங்க
##ருக்கள்
திருவி
கட்டுரை
தளம்
வகுப்பு
பாண
##க்கால
##ீன
மருத்துவர்
##லாகும்
அறிவித்தது
கங்க
அறிஞர்
சுரங்க
அறக்கட்ட
குழுவின்
##ாகிய
பாதை
##ிலிருந்தும்
வால
குறி
##ங்களைச்
கொண்டனர்
##மானத்
1965
பாதிக்க
தனித்துவ
##ech
1956
கொழும்பு
தள்ள
வீடு
அழகிய
தந்தைய
நந்த
சார்பில்
கல்க
##sh
##வார
##ford
காட்சிய
தொகுப்ப
முதன்முதலில்
##டில்
தரம்
##ர்களிடம்
பொருள்கள்
##ூப
05
##ினைக்
கரூர்
திருவள்ளூர்
நம்
கேள்வ
குதிரை
அவ்வாறு
சித்திர
போட்டியிட்டு
##குந்த
##கார
குற்றம்
பிரிட்ட
உறை
1940
முன்னதாக
asp
##வைகள்
##முடியும்
அழைக்கப்பட்டது
##AT
##ுகொண்ட
வடிவமைப்ப
மால
காப்பு
##நூ
மரங்கள்
##ாகி
எரிம
பாதி
முக்கியமாக
மாற்றப்பட்டது
07
##ுவதை
le
சேத
மகிழ
மேலாக
கால்பந்து
##ாறு
74
##ம்மது
அணுகு
##மாற்றம்
ஏற்றுக்
பங்குனி
National
தகவல்கள்
நிகழ்வுகள்
இந்திர
வழித்த
சார்பாக
##ிதழ்
கவிஞர்
##வையாகும்
வருகின்றது
கனட
சன்
கலைஞர்
பெட்ட
பெருக்க
##ாளர்களின்
காங்கிரசு
##்சி
கூறும்
##ase
##ணாம
##பான்
##ani
இப்பேர
1973
கூறி
##24
##ae
மண்டப
##ாட்சியில்
குளோரைடு
##ரைச்
1957
##டைந்து
வழக்கில்
இடைப்பட்ட
நகரங்களில்
அவனது
கடலில்
பயணிகள்
##யின
##க்கல
தெரிவு
##ari
##ிடையில்
பரப்பு
##ert
பிளா
Intern
தொலைபேச
வாடிக்க
##ire
##ண்டம்
உயிரி
கொன்ற
கண்காண
ஏற்கனவே
செல்கிறது
சேர்ந்தவர்
##ம்மு
பரப்பளவில்
கொள்ளல்
கிடைக்கிறது
சுகாதார
ஐரோப்பாவில்
மழ
சிலை
நடக்கும்
##வேக
மாசி
வருகை
97
மாற்றி
வழங்கியது
69
இராகம்
73
pl
##ிகர்
பெயர
இணைக்கப்
ஹா
எழுந்த
சர்ச்ச
இராச்சியம்
##நிய
1952
##ிகார
சங்கில
அறு
வாயு
வெடி
இணைந்த
ஐதராக்ச
வழிபாடு
03
##தற்காக
அறிக்கை
ஆத்திரேலிய
கண்டுபிடித்த
Eng
யார்
விசுவ
அதற்க்
##ஸ்ஸ
ஆப்கான
தலைவர்கள்
முடிந்தது
##ound
இளவரச
அணுக்கரு
உதவுகிறது
##சரி
##நோய
லீக்
எசுப்பானிய
##னியின்
##ேஸ்வரர்
சுற்றுப்ப
புழ
##ங்டன்
உணர்வ
புரட்டா
78
அரே
ஆக்கிர
வென்று
கொண்டவை
##ாகு
##மூலம்
##த்தோடு
திறக்க
செல்சிய
வழக்கறி
##க்கத்தில்
செயல்படும்
##மிகு
பட்டு
விதமாக
எடுத்தார்
##ியலின்
##வெளியில்
##க்கை
பெல்
சேவைகள்
சராசரியாக
இடம்பெற்ற்
தொடர்ச்சியாக
##னாதி
##ூரின்
மொழிபெய
கௌரவ
கோரிக்க
கொண்டிருக்க
##its
உயரமான
##ராத்திரி
அதிகாரம்
##விர
##ங்கொ
ஆணைய
அனைத்துலக
##ிக்கா
Ex
page
ஆபிர
இந்தோனேசிய
##துவாக
##வைக்க
பாடசால
##லோக
உழை
குமார
கைப்பற்றிய
திருவாரூர்
##வல்
என்றே
பெருமை
அணிக்க்
##23
##னைகள்
பரந்த
நிகழ்ச்சி
tn
##ம்பூர்
திண்ம
##ிணை
பாப
வெப்பம்
##ஜீ
வசத
##டுகளின்
##னுக்கும்
##சிற
##வுன்
##nal
எக்ச
51
தருக
தாழ்
அண்ணா
கம்யூ
பிறப்ப
குறிப்பிடப்
சுற்றுச்சூழல்
##கிர
##ுக்கே
அசு
நன்ற
வெளியீடு
##ott
##stit
இத்தாலிய
##்து
##istry
தலைய
சிக்கலான
வளர்ந்து
##ash
##லாம்
##ியான்
1964
கார்ட
##opulation
ஓட்டங்களை
68
79
ஆட்சியின்
சுருக்கம்
76
இந்நிற
புதுப்ப
முதலமை
தினம்
கோபுர
விண்மீன்
##ாமா
##லியில்
##கிருஷ்ண
தூரத்தில்
##ins
##ுகை
சும
##ளிப்ப
ஒத்து
##ப்புத்த
Man
ஒடுக்க
நடவடிக்கைகள்
பெருமளவில்
மீனா
##சர
குழாய
கணிப்ப
##28
வெளிவந்தது
அமைத்து
மெக்ச
மட்டுமல்ல
##ரர்
##தேவி
sh
##ருவி
பெருந்த
பங்கேற்ற
##ச்சந்திர
நியூசிலா
##ூன்
சல
நகரா
##ப்படுத்தி
##கள்
##ஸ்டன்
1945
##லின
##ன்னா
இனி
குறிப்பிட்ட்
நூலை
உயிரண
பெயரி
வெங்க
அரசியல்வாதி
Cent
மலேசியா
முற்றில்
ஆட்சியில்
##of
83
பழங்குடி
##ana
##erm
##ிக்கிறார்
தர்மபுரி
##ral
120
##றுப்பு
குழுவில்
விருதுகள்
விஜய்
##ித்துக்
முதல்வர்
##ூற
சய
நூறு
அமைக்கப்பட்ட
காணப்படுகின்றது
வார்
மக்களை
##ப்படுவதால்
##ேசு
சதவீத
கச
##னைத்
##மாகவே
சுற்றிய்
குறைந்தது
##ொழி
நிறைய
##ண்முக
##ென்று
##ாசியம்
1963
குமார்
நாராயண
98
துள
வெண்
வழங்கிய
உரிமைகள்
Sci
##ிக்கவ்
##ோனியம்
சட்டத்தின்
##ாகோ
##தூர்
விடுவ
பிரான்சு
##வாதம்
குளிர்க
பீட்டர்
இருந்தும்
ab
நரசி
விசார
பள்ளிகள்
இம்மாவட்டத்தின்
##வரிச
மதம்
##வியலில்
##ிறகு
##ப்புக்கள்
என்பதைக்
உருவாக்கி
தம
குழும
என்பதும்
குறிப்பு
பெற்றோர்
##26
ஏக
##ions
##நாயக்க
87
178
குட்ட
தென்ப
நோபல்
காப்பாற்ற
குறிப்பிடுகிறது
##வொ
கோப
##ொடர்
வெளியீ
பிராம
##விழா
##ற்கள்
##ஜர்
புதிதாக
96
##ையற்ற
சொற்ப
நாகரிக
பேரூராட்சி
பட்டியல
கருதப்படும்
##மென
06
மரபணு
##ாவுக்க்
குடியிரு
வீத
அளவை
எனல்
கியூ
இடத்தை
தெரிகிறது
அமைப்பை
அவர்களால்
என்பதற்கு
##ானில்
மண்டபம்
ஃபி
பிக
##விட்ட
ரிச்ச
##ூட்
உக
##ட்சிகள்
சிறுநீ
அமைக்கப்பட்டது
நம்பப்படுகிறது
தண்ணீ
உறுதிப்படுத்த
கொண்டவர்
இந்நூல்
அக்காலத்தில்
பெற்றுள்ளார்
##எல்
##ிமுறை
இணைக்கும்
நிறுவப்பட்ட
##ப்பியம்
வாய்ப்பாட்ட
##une
##ப்ட்
அறிஞர்கள்
வெளிநாட்டு
##தீ
86
விண்டோ
கொண்டுவ
பாம்ப
முகலாய
##bert
##ஸ்டு
##ளிக்கும்
இறைவ
எனத்
பிளே
##ாட்டம்
பழக்க
அலுவலர்
சுருக்க
##டியோ
##ற்றுப்
காண்க
##ுள்ளார்
அதிர்வ
wik
1968
முறையை
இணைப்பு
##கார்
##ரவர்
தாள
தூர
மாசு
Ab
கனடா
செய்தல்
வீழ்த்த
மாநிலமான
பிரதிநிதி
பன்
விளங்கிய
08
திருவா
மேற்கோ
பிரதிநித
கிராமங்கள்
திரைப்படத்தின்
##சேக
##ார்வ
பசி
##த்திட்ட
##ணர்வு
அர்த்த
நடந்தது
##ிமீ
ad
pr
##ட்டன்
##லர்கள்
சண்டை
கழகத்தில்
##னிடம்
நின்று
வெளிப்புற
##ton
##ick
மாய
கம்பெ
பொட்டாசியம்
திரைப்படங்கள்
Or
சடங்க
he
என்பவை
வேளாண்
நிதிய
எலும்ப
ஏக்கர்
##ம்ப்
ராணுவ
கதிர்வ
தகவல்களை
##ென்றால்
சூரியன்
விரைவாக
மகிழ்ச்ச
வரைபட
##ந்துகொள்ள
கட்டிடம்
படங்கள்
வழக்கமான
சீர்திருத்த
##வரு
போன
செம்ம
இப்பிர
பெருங்க
##தைகள்
##னேட்டு
வீட்டு
இவர்கள
Gre
##ம்கள்
நச்ச
உளவியல்
நடுவில்
உயி
மாவட்டங்கள்
##yd
##ூல
##ock
##ாதி
##port
1966
##ப்பட்டுள்ளது
##atti
##ல்லை
சேர்மம்
##ுகிற
கில்
முப்ப
மாதிரி
கணக்கில்
செய்வதற்க்
வடிவத்தில்
விக்
ஆண்டுத
District
தெரு
##லிங்கம்
சுழற்சி
அறிமுகம்
புத்தகம்
நற்
மீள
##earch
தமிழகத்தின்
##fer
1954
##ையியல்
பெரம்ப
இப்பகுத
புரட்டாசி
நதி
##ற்றம்
எலும்பு
தீர்க்க
அங்கீகரிக்க
##ரிசு
வித்
விரி
மனிதன்
##ப்பெருக்க
வளர
1920
ஆண்டும்
உட்படுத்த
செயல்பட்டு
##ாற
##வினை
பீட
##முகம்
சுந்த
செர்
சின
பியூ
பேச்சு
##செய
Co
##புரா
1955
அகில
காசி
கரையில்
சிவபெருமான
மல்ல
கட்டமைப்ப
84
was
ஃபோ
எண்கள்
உறுப்பு
Per
ஆளுந
நெடுஞ்சால
##துறை
##க்குறிச்சி
##ள்ளன
தேசியப்
நூல்களில்
காட்
##க்குக்
இப்படி
சிதம்பரம்
##வதி
##ாலயம்
சாதனை
சிறையில்
##பல
டைய
அழகு
ஆசியா
படிப்பட
நான்காம்
தலைமையகம்
அன்னை
##தைக்
இசையில்
இயக்குந
பூசைகள்
##ces
89
ஸ்ட்
##ச்சுவை
தனிந
ஒப்பி
குருதி
நோக்கிய
உடன்படிக்க
##ளக
இரும்ப
என்றார்
##என்
##ராஜன்
கூறிய்
நடந்து
நிரந்தர
கொண்டுவர
திட்டமிட
உறி
பிரீ
நிலக்க
De
பிரே
தமிழர்கள்
93
##நீதி
அறை
அணிய
அறுவ
பாலி
முடிவுகள்
ஆண்டுதோறும்
##lect
சிந்தன
மூலக்கூறு
சவ
##ல்கள
மகாரா
விதம்
மனிதர்கள்
தொழில்நுட்பம்
மாள
வீச
##லாமல்
இவ்வி
மூலவர்
கல்யா
கட்டப்
கோயிலின்
Bl
திரைக்க
பிற்பகுதியில்
##கும்
கருப்ப
விருதுநகர்
விளையாடிய
மேற்கத்திய
##eng
கொடி
##iam
##ணிய
சமைய
பெறப்பட்டது
##ிவை
##பதிய்
எல்ல்
அமைதி
கண்ணாடி
கல்வெட்ட
அறிவித்தார்
முட
பந்துவ
Election
எல்லைகள்
இவர்களின்
##oll
##use
##ited
1961
காமிக
##ணத்தில்
பழங்குடிய
##ழில்
Soci
குதிர
கிழக்கி
தெரிவித்தார்
##yst
காக்க
நின்ற
பின்னா
நிலைக்கு
##ாத்
இயற்றிய
தாக்கம்
நிகழ்வு
##ிதல்
இணையத
செலவு
அலெக்ச
பன்னிர
வெங்கட
சூழலில்
பயிற்சிய
ஓவியங்கள்
அதிகாரிகள்
புற்றுநோய்
இரக
நீலக
##க்கூடியது
He
##தற்க
இலவச
கவிதைகள்
நீதிமன்றம்
On
அவள
ஆகவே
உற்ச
தொட்ட
அளவிற்கு
எடுக்கப்பட்ட
##Cl
##சப்
##லப்
##வடிவ
##த்தொகு
பரவிய
மாதங்கள்
சுதந்திரம்
##ume
நெருங்கிய
##பாட
##ீசிய
இக்கல்லூ
கட்டிடக்கலை
தீய
போதில்
இயேசுவின்
##மத
##ுமிட
இண்ட
மத்த
குளம்
மாறுபட்ட
##gan
##த்மா
நடி
வேட
Se
சமூ
##ற்றல்
##ரேட்டு
கொரிய
கிழக்கிந்திய
வீச்ச
இயற்கைய்
சாதி
சிந்து
##ம்பாளையம்
வலியுறுத்த
காய்க
உழ
கும
முகமது
கதாநாயக
சூப்பர்
எதிர்த்த
ரக
பந்து
மக்களவை
International
##வதை
Jan
72
##மாலை
பாறை
##முறையாக
அறியப்படும்
இதழ்க
<
##ிழமை
##iction
தீர்வ
என்பவரை
கொழுப்பு
இராச்சியத்தின்
##ட்டான
பிரதேசத்தின்
##ர்ண
02
கன்னட
வரவேற்ப
உதவியுடன்
##வியம்
##ன்களின்
அடுக்கு
தொழிலாளர்
நகைச்சுவை
##ual
முடிந்த
மாட
1927
ஆரணி
காணப்பட்டது
அயர்
##னியில்
இலை
சோம
ஏற்பாடு
பொறுத்த
அதிகபட்ச
சமயங்களில்
##ஜிய
வேறுபாடு
வெளியிட்ட்
சிறித
காமிகாகம
தொகுதிய்
என்பதுடன்
##old
##ung
ஆசிரியர்கள்
##டியின்
##ிவுகள்
Count
உறுதிய
விரிவாக்க
பாச
மட்டக்கள
வந்தன
தலைப்பில்
பிற்காலத்தில்
##னியன்
அண்மையில்
தொகுதிகளில்
##ட்டல்
தேடி
நீரி
##த்துத்
##ப்பதன்
##டுவதற்கு
சுல்தான
கட்டத்தில்
பருவத்தில்
##வோ
பாரதிய
திருக்குற
மௌ
பேண
காலமானார்
ஹார்
நுரைய
அவ்வா
கூட்டம்
##uv
வெகு
##ப்பால்
சிப்ப
பகுதிய
என்பவரின்
நிறு
வளர்ச்சிய
வறு
வைண
##ாளரான
பறவை
கிழக்கே
முடிகிறது
##ooks
கொண்டே
பெருங்கட
மூலக்கூற
நிறுவினார்
பொருளாதாரம்
##கல்
1949
##stitut
##ரிக்கு
பொருட்டு
வழங்கினார்
##hed
##ற்றின்
எனில்
இப்பகுதி
நிலையங்கள்
மாச
1951
இடைய
பெறு
கொலம்ப
நூலகம்
பிரிக்க
பங்களிப்ப
சாள
சீட
Ox
##so
ஆழ்
துறவ
கோப்பை
திரும்பி
##ாா்
இயல்பு
##ிடப்பட்ட
##oph
##ார்டு
இறந்து
பரிந்துரை
##லான்
மும்ப
தண்டனை
மிகச்சிற
எழுத்துக்கள்
பரம
வித்தியாச
##சாரம்
புராணம்
நடக்கின்றன
தேவைப்படும்
##நாக
##ஷ்க
##ural
##மீது
##ம்போ
எவ்வ
தொன்
இவ்விரு
திருச்சி
##AN
தோராய
நூலின்
இத்திட்ட
##ara
177
ஆர்க
குடியேற
ஈர்
பாக்டீ
காடுகள்
திட்டங்கள்
தொடர
லிங்க
வெண்க
கழகத்தின்
##ப்புல
இருந்தவர்
சாம்பியன்
சிற்பங்கள்
##ode
சாம்
கடும்
படிப்பை
##ையாது
விளி
சமூகம்
பார்த்து
##oth
துகள
வணங்க
Har
மனம்
##ுகளைத்
சொன்ன
எதிர்க்க
##ாயம்
உறவ
இந்நகரம்
81
##line
ஸ்டீ
##நிலையை
கல்வெட்டு
குத்த
நாட்டை
ஊழிய
ஆதரவ்
முயன்ற
கம்யூனி
ராபர்ட்
##ீழ
##ournal
படப்பி
கட்டுமான
கோயிலில்
##வாச
##மண்ட
1958
மார்க்க
அடர்
அடங்கிய
இவ்வூர்
இந்தியாவ
மாநிலங்களில்
Bi
வெளிப்பட
41
##யணம்
##ாத்த
##ையினர்
நிரூப
நுகர்வ
சீனாவின்
அறிவிய
##வானது
மரபுவ
##ேசுவரர்
தொல்காப்பியம்
##நடை
##ஸ்ப
கும்
##ர்க்கை
மாறுப
பொதுவு
மாட்ட
##வற்றில்
##டியான
1946
ஆரிய
சத்த
##விற்கு
சொல்க
##ர்களைப்
##மூர்த்தி
விலங்கு
##ீத
பதில்
முனிவ
திண
##ரைகள்
வரையான
தொடரின்
என்பதில்
பயன்படுகின்றன
—
##லயம்
con
##போன்ற
அட்டவண
உணர்வு
ஏற்படுத்தும்
கிங்
##க்குத்
##ents
ஹால
மகாபார
அப்போதைய
ஒளிபரப்ப
##ames
##றையில்
நாடகம்
i
பிடி
##ித்திர
வெண்ண
##ீட்டின்
நிர்ணய
பாலியல்
இலத்தீன்
##ரியை
600
May
##மடைந்த
உண்டாக்க
காஷ்மீர்
Ag
டூ
அறிஞ
யானை
ஆராய்
1959
வழியே
வெளியில்
வாழ்க்கையில்
சேது
##த்துறையில்
CO
cont
இத்தீ
##ிவா
US
தண
ஊடு
அர்ஜ
சாட்ட
ஆக்கிரமி
அப்பா
ஈர்க்க
முன்பே
அடைந்து
##ors
இமய
அடர்த்த
புகைப்பட
உற்பத்திய
##ிதை
94
Wil
கிரி
மங்க
##ission
செயல்முற
வயதுக்கு
நிர்வாகம்
எதிர்பார்க்க
##orn
##நூல்
##ியப்
மல்
பொருளியல்
பக்கத்தில்
எஃப்
கழு
நெட்
##ோட
##கமான
திசையில்
முஸ்லிம்
கப
இரை
உடல
மீத
##ங்கூர்
கூடும்
##க்கணக்க்
ஐரோப்பா
##ுவரை
ஸ்ப
that
##வியலாளர்
குறைந்து
##மண்டல
பணியாற்றி
##han
##one
கிராம்
படைப்ப
##ாவன
ஜென
படிவ
வடிவங்கள்
York
முடியவ்
##27
##ety
##ுகிறான்
கருநாடக
##ாயன
##மயம்
Par
சிட்
பொன்
பொறுப்பு
மைக்ரோசா
கய
250
ஒற்று
சம்பந்த
##pp
விதை
##ிருப்பதால்
##own
##ரப்
தானே
சுவாம
கழித்து
புரட்சி
##ிடல்
லூயி
##வரையும்
வென்றது
நடைமுறையில்
##ரத்த
விரிவான
இசையமைப்ப
தயாரிப்பில்
பகுப்பாய்வு
##ெயர்
மில்லிய
நாட்டுப்புற
பயன்படுத்திய
160
பொருளின்
##ின்றார்கள்
கருதுகின்றனர்
##சாரி
##ப்பெற
போரி
##ுக்குச்
பகுதிகள
##ign
மஹ
விழிப்பு
##வர்களுக்க்
செயல்முறை
india
கொட்ட
சோழன்
மீற்றர்
கோவை
இணைத்து
நீடித்த
லட்சுமி
ஆகியவற்றைக்
நீர்த்த
பண்பாடு
மைக்கேல்
யாழ்ப்பாணம்
##ley
Sc
##ர்கா
நபர்
##ப்படுப
இரட்ட
செவ்வ
மலையில்
பெரம்பலூர்
##ver
சத்திய
மேற்க்
சதுரங்க
##ெண்ண
லாக
##ாணும்
##ப்பினை
##மில்லை
கட்சிய
இருந்தத்
உடனடியாக
##மென்
##வதில்
கச்ச
##ப்புச்
டைம்ஸ்
பயன்பாட்டில்
##வரிசை
கணிச
##வா்
##ம்பரில்
வெளியி
##ிக்காட்ட
Le
##ந்தூர்
அகாதமி
பின்னணி
அவ்
கோத
##மியம்
##ிகளைத்
##ங்களே
##ுவனம்
விளைவு
செயல்பட
##ட்தொ
##மித்
##ையில
தொல்ப
வேட்டையா
##21
##min
அடிய
மையத்தில்
அங்கிருந்து
##akk
##லைக்க்
பித்த
மைசூர்
காட்டும்
பாண்டியன்
சிவபெருமான்
இங்கிலாந்தில்
##பெயர்
கோவி
வகைகளில்
தயாரிப்பாளர்
நிகழ்ச்சியில்
##ையினை
விவரி
கூட்டணி
புள்ளிகள்
பள்ளத்தாக்க
176
கலக்க
மூழ்க
ஒருமுறை
கைப்பற்றினார்
கோர
Amer
##ர்கிறது
##பெருமாள்
கதாப்பா
##ேட்டை
எளிதாக
விழாவில்
##na
##ந்தான்
ன்
தொழிற்
ஆந்திரப்
இவற்றுள்
அறிகுறிகள்
un
சபா
##லைகள்
1953
இன்ப
##மையைக்
தனியாக
##ala
Wh
ஊட
டபிள்
நீர்வ
நரம்பு
Sch
சூற
டாலர்
விருத
வேட்பாளர்
##ர்ப
##ance
##ுவார்
ஆஞ்ச
யில்
என்பதன்
ஒட்டுமொ
மக்கட்தொ
ஆண்டுக்கு
Population
போன்றவற்றில்
ரிச
##ision
தப்ப
எழுப்ப
கூற்று
வர்க்க
அமைகிறது
கிழக்குப்
தொடர்பில்
##ுக்கொண்டார்
முதலமைச்சர்
##ome
##india
எத்த
இடம்பெற
காலத்தின்
கோள
##ative
பாரதி
முள்ள
இந்தியன்
##ater
சூட
சதவிக
மின்னோ
Dec
ராவ்
இசைக்
##ல்களைக்
இதழில்
பேரூரா
காய்ச்ச
இருந்ததால்
காட்டுகிறது
நிகழ்ச்சிகள்
##ுக்கொ
வணிகம்
##ise
அணிவ
வெறு
பிரித்து
##ள்ள்
##ஞ்சல்
பிலி
நிலையத்தில்
மருத்துவமனை
##லூ
##புளோ
மைதான
அரசால்
சான்றுகள்
காரணத்தால்
எடுத்துக்காட்டு
##ina
##ெலும்
ஆறுகள்
இதற்கான
##க்கூடியத்
##மேற்க
##ினுள்
அரிசி
##வருக்கு
முகம்மது
நிலைகளில்
உருவாக்குகிறது
கோலா
மன்றம்
விருதை
##ward
##னிக்
res
##மாகச்
புரட்ச
கடற்படை
உள்ளடக்கியது
காத்த
கலப்பு
இப்படம்
மன்னர்கள்
##igh
##மீக
175
##ுவில்
கையில்
##ங்களுக்குப்
உணர
1939
இவ்வாறான
தளத்தில்
எடுத்துச்
பொருள்படும்
Jul
முடிக்க
பண்புகள்
செல்வாக்கு
Car
rev
ஜனதா
தேனி
அரண்மன
##ர்வே
1944
விவசாயம்
##க்குறைய
கூட்டமைப்பு
##சிக
##வேளை
ஸ்பெ
கல்வியை
கடவுளின்
விளைவுகள்
##ேற்ப
##ுவிட்ட
அந்தத்
மலைத்தொட
பணிபுரிந்தார்
##rib
AF
எட
##வாயில்
விவிலிய
##பியா
கூர்
##ையினால்
ஜு
##ாவர்
அடைக்க
இந்நகர
காலநிலை
##னான்
முதலாக
நோய்கள்
சுல்தான்
திருச்சபை
மருந்துகள்
ஒருங்கிணைந்த
##ப்பழ
##மேல்
##ப்பிள்
##ீடுகள்
ஒலிபர
நடுவண்
வரதராஜ
##ிக்கொண்டு
தொடர்ச்சியான
அபி
பென்ச
குழப்ப
##ருந்துகள்
கண்டுபிடிப்ப
ரஷ்ய
விண்க
பதினெட்ட
பெரும்பான்மையான
பூஜ
சகோதரர்
##ox
##ife
##uary
அக்கால
தீவில்
பெறுகிறது
##ேடு
முறையான
மாதங்களில்
##emb
விடய
##ண்டில்
வலிமை
வசித்து
##ictionary
நகைச்சுவ
இவர்களுக்கு
மேற்கொண்டார்
##ma
ஊர்வ
##ரங்கள்
அப்பட
பயிர்
நோக்கில்
##ப்படுத்தல்
கம
மந்த
மீத்
வெளியாக
##46
நிற்க
நெதர்
##டுவதற்க்
துறைமுகம்
##லைச்
##த்திரை
பதவிய
ஒட்டுமொத்த
அழைக்கப்பட்ட
நீரை
பாடக
நேர்ம
##se
##ier
##ேகம்
Dev
##ணிப்பு
இதன்ப
நீங்கள்
அனுமதிக்க
##ைகளைச்
உணர்த்த
முன்பாக
அணுக்கள்
அடிப்படைய்
முதன்முதலாக
##ாதம்
Comp
புகழ
பண்பு
இருக்கின்றது
##சய
##ள்வி
யின்
நடுத்த
வைத்தார்
ஐதரோ
மோசமான
##ிக்கொள்ள
##rish
##ேறிய
அடிமை
சமஸ்க
பணிபு
##ர்களுள்
பகுதியான
##ya
##ாளியம்மன்
கட்டிடங்கள்
துவக்கத்தில்
##ept
ஹைட்
அதிபர்
காவிரி
குறிக்கோ
அகல
தரப்
குடும்பத்தைச்
##iri
##umb
ராக
##ன்பட்டி
உடலின்
மலைகள்
ஆட்சிக்
நுண
Encyclopedia
இவரே
ராக்
பாடிய்
கோயில்களில்
##esh
போய்
##cessed
மாறும்
##ப்பிற்கு
##புரத்தில்
நண்பர்கள்
வேறுபடுத்த
##ஜின
Art
பாகு
ஆனந்த
காற்ப
திகழ்
பாலம்
##ாயி
IS
##சாத்
சம்ம
##பேட்டை
முகம்
செயற்கைக்கோ
##ித்திய
##வல்ல
துணி
சாம்பல்
பங்கீடு
##ree
##ன்சு
##ாரணம்
அங்க்
பதவியில்
முடிவுக்கு
தூரம்
##ந்தாட்ட
தோன்றி
##ll
Rev
##ையிலுள்ள
அரியலூர்
ஆக்சிசன்
##மட
##form
நிவ
##ிலையில்
சுழற்ச
கொடுத்தார்
##ுற்ற
##ரியன்
##ப்பினார்
நிறுவிய
போர்த்துக்க
நடித்திருந்தனர்
##ேஸ்
##ங்காய்
ஆக்சை
மடங்கு
ஜப்பானிய
என்பதையும்
##au
##த்தொகை
வடகிழக்கு
மார்க்
##ப்பாடுகள்
பொருட்களின்
பாகை
டச்சு
##rad
##த்தல
##விட்டு
மரியா
பிரிந்து
புவியின்
எரிபொருள்
##du
##ஷ்டிர
1936
##ங்கின்
துருவ
வழங்கப்பட்ட
வேறுபாடுகள்
ஆதரி
ஐந்த்
சரியாக
பழுப்பு
##ஸ்ச
தென்கிழக்கு
கொழு
நாட்
தெளிவாக
பகுதிக்கு
இனப்பெருக்க
##நாம
##ாமை
ஏத்
நாற்ப
பசிபிக்
மார்கழி
உடையது
பொதுத்
அம்மா
##டியை
கரி
ஆதரவ
பாலா
சுவாச
உத்திர
எந்திர
லண்டன்
ஐந்தாம்
செய்வதற்கு
##தெ
Brit
சாகு
நன்க
ஏறக்குறைய
##ull
தசை
1942
வரம்ப
##ங்குளம்
வழிவகு
அவற்றுள்
தருகிறது
ஊர
##கத்தை
##ுடனான
Arch
சூழப்
அணிகள்
அன்றைய
விருந்த
பாய
நமது
அரசியலமைப்பு
##rig
web
இருக்கிறார்கள்
##ற்றை
ஆணை
நேரு
உருது
நிபுண
Oxford
நோய்க்க
உயர்நிலைப்
அரசியல்வாதிய்
ஹீ
##நியோக
##ித்தன
டிரை
செட்ட
தொண்ட
##ுமிடத்தில்
போராட்டம்
##செல்
கால்சியம்
##ிவிட்ட
##ித்தான்
பழங்கால
புலிகள்
தோன்றியது
##ுறி
##தாகவே
##ுக்கி
##நானூறு
பொதுமக்கள்
##பாக
##ணியின்
புறம்
சுற்றில்
தொற்று
##ப்பார்கள்
##போதில்
விஷ்ணு
சீனாவில்
அதிகரிக்கும்
##ஃபி
கிண
விநியோக
என்பவற்ற
##31
ஆலை
தங்கிய்
தொடர்பாக
Mad
இவ்வு
108
இளைஞ
மிரு
##ுக்கம்
வரையறை
தொலைபேசி
கும்பகோணம்
வட்டத்தின்
1937
ஐதரா
தேவாலய
கிடையாது
தந்தையின்
படிப்படியாக
##மட்ட
##ம்பா
##ement
##rist
கடித
திரைய
நச்சு
அரேபிய
திருக்க
##றே
பயன்படுத்தல்
##மலர்
கள்
நவா
நிலந
##ுகளாகும்
##மைக்கு
இந்திரா
பதினெட்டாம்
விளையாட்டுப்
##lor
Gu
##orth
Kar
லோக
##த்தளம்
தஞ்சை
##ங்களாகப்
வினைபுரி
தொகுதிக்கு
பின்னாளில்
##ery
se
##ican
ராணி
தூக்க
விடும்
சங்கத்தின்
##ER
##தர
##களின்
##ட்டான்
பிரதேசத்தில்
##சொ
##isc
##யிற்று
தோல்வ
இராமா
பதின்
நாயக்க
வாக்கு
கற்றார்
##ிடப்படுகிறது
வெற்றிகரமாக
##ங்கர
##ளும்
##ாசிய
ஓடி
##ஃப்ட்
மேடை
வேதிப்ப
ஆண்களுக்கு
தற்காலத்தில்
##முழ
And
Bar
##etail
##ரானார்
கூறல்
தேசியக்
##row
##மானால்
County
படித்தார்
தென்மேற்கு
எல
##ப்ஸ்
டன்
##ுக்கள
டான்
மேரி
##ற்றும்
இக்கால
முடித்தார்
ஆக்சிசனேற்ற
நியமி
நீட்ட
திறந்து
##த்துள்ளார்
நம
##ார்ந்த
##ினதும்
வடமேற்கு
மலைய
எதிர்கால
##க்கும்போது
##கே
##ிலு
கடலோ
வேளையில்
நிலத்தில்
##ஸை
##லைய
##ிலின்
##வையும்
##ப்படியான
Journal
கிலோமீட்ட
##CH
டிவி
தவறான
வாயில்
பற்றிக்
வேண்டிய்
##லார்
Rep
##நோக்க
##வுள்ள
அடிவ
வான்ப
கதிரியக்க
உயிரினங்கள்
##வெப்ப
கிளி
அதற்க
மெல்லிய
##ou
##ோனிய
தலைவன்
சந்திப்பு
##பான
ஒட்டி
##ography
விரைவு
1941
வேண்டி
சிறப்புப்
நாட்டுப்
செய்கின்றன
##ool
##ய்க்
News
ஐம்ப
கிரா
##வேண்டிய
பெறப்பட்ட
##ெதிர
தோழ
##ுகையில்
கட்டிய
கூறுகள்
தனித்துவமான
##75
##மத்
ஏற்றுமதி
##ழ்க்
அருண
##ந்துகொண்ட
கிருட்டி
படைப்புகள்
முயற்சிகள்
##lish
##uram
Aug
பொழுதுபோ
தவிர்த்து
##்டி
##irst
##னைல்
கப்பல்கள்
அலுமினியம்
##வகைய்
##ிறேன்
கைலா
சகோதரர்கள்
##வர்ட்
தேவத
ராம்
அகலம்
வெல்ல
பொருளை
##லாந்தின்
செயலாக்க
விண்டோஸ்
அளிக்கும்
*
##rav
##சலே
##ன்மா
Chemistry
##மீன்
##த்திற
##லோகம்
ஆவார்கள்
மண்டலத்தில்
##ays
களை
வேற்று
##ட்டியில்
62
##ுண்ட
நாளித
##ப்பதால்
பெருமளவு
கந்தக
வழிபட்ட
உவ
ஒடி
ஃபார்
கங்கை
நிக்கோ
##லாந்தில்
im
ஏதே
பொல
மீன
##ாயிரம்
பராமரி
நகருக்கு
நாடுகளுக்கு
ராமநாதபுரம்
##ave
ஆடு
சோதி
கூடாது
பாலைவன
உள்ளடங்க
எதிர்மின்
##ழிவு
##க்கிழ
சிறீ
##மாவட்ட
##ம்போது
##ாவிட்டால்
மருத்துவக்
##சிவ
CH
##able
##ல்கு
##emple
பரவல்
விஸ்வ
ப்பட்ட்
விமானம்
கூறுகின்றனர்
##fo
##்கள
##ாமணி
அப்துல்
அவர்களுடைய
ஆய்வாளர்கள்
##ese
##ings
##ாவைச்
##க்குறை
அடக்க
சங்கர
ஆகஸ்டு
பட்டிய
ஒன்றிணை
காரணிகள்
##itt
##மரு
சாரா
##ச்சின்
தேவார
ஆளுநர்
செவ்வா
முன்னு
பாதையில்
cl
ro
##ாவால்
##ுவதும்
ஆறாம்
செயலா
மெல்ல
##ym
##ிரம
Gen
int
##நோக்கி
இயலாத
பட்டது
##ையிற
புரு
யுனை
வகுப்ப
வினையூ
முன்னரே
மின்னழுத்த
சுட
##ystem
இந்நிக
மாநிலங்கள்
##மாட்ட
தங்கம்
வைத்துக்
உருவாக்கப்
சித்தரிக்க
##ம்த
Nov
விஷய
##மயமாக்க
பெட்ரோ
கிறிஸ்தவ
அனைத்தையும்
##க்ட்
##வாதி
##ீச்சு
கொடுக்கும்
வாதி
##70
##விளை
அமீ
##ொன்ற்
வளம்
பராமரிக்க
##ாவு
##ேஷன்
Pol
எவ்
மணம்
##ண்டின்
செறிவ
புவிய
அதிகாரி
மகன
மிகுத
சூழ்நில
வகையைச்
உயர்நிலை
##முதல்
பிட்
அதைத்
வலுவான
ஹொங்கொ
ஜெர்மன்
நெறிமுற
இராமநாதபுரம்
கட்டுப்பாட்டு
##ஆர்
இவ்வின
##ரும
##ிம்
கோழ
யாத
உலர்
நிலப்பகுத
காலத்திற்கு
கஜ
##த்தர்
1938
வாழ்க்கையை
அறியப்படுகிறார்
##சப
##வுக்
ஹரி
இறுதிப்
தெரியவ்
மருத்துவமனையில்
கன்
##மியர்
சமாத
சாய்
##ட்ரிக்
நிலவிய
அழைத்து
தொழிற்ப
கோவிலில்
மொழியின்
##ேத
##மால
கில
கொங்கு
படுக்க
வியாபார
பட்டப்படி
பிராமண
அலகுகள்
ஆரம்பகால
மத்தியப்
தன்னாட்சி
##con
##சிஸ்
##டையே
மூளை
மேன்
நடனம்
தமிழ்ச்
##த்தவர்கள்
ஆட்சிக்கு
##ரொ
##ன்பி
பெற்றனர்
ஆஸ்திரேலியா
##ிர்த
##நீதிமன்ற
வருடங்கள்
மக்கட்தொகை
இப்பேரூராட்சி
##BC
##red
##ப்பாளர்
இலைகள்
ஆய்வில்
புத்தர்
காணும்
சார்ந்து
கருத்தில்
தற்பொழுது
et
##மைடு
எல்லையில்
##ஃபா
லு
ஜம்மு
ஜெர்மனி
பிணைப்பு
அரசியலில்
##ுவான்
அகழ்
விட்டது
தொகுப்புக்
வளாகத்தில்
##NA
##ugh
உட்புற
உருவாகின்றன
##ரஸ்
Oct
பென
வாத
ஏவுக
தரிச
##ன்களில்
பாயும்
அடைந்தது
பட்டத்தை
மேற்குப்
உற்பத்தியில்
இதன
ரகு
1935
தப்பி
தொடர்வண்டி
இம்மாவட்டம்
##ணித
##ங்கன்
பாஸ்
மாணவ
தேயில
உயிரிழ
சண்முக
ஏன்
June
ராய்
ராயல்
பிந்தைய
வயதிற்கு
காசு
கைவிட
இயலாது
நரசிம்ம
பிரதிநிதித்துவ
•
1929
தீபக
வடிக
உமிழ்
முனிவர்
அழைப்பர்
##ாவளி
##னுள்ள
##ம்பாடி
எழுத்தாள
மீனாட்சி
காட்சிகள்
பந்துவீச்ச
##eh
ஹூ
டிய
சோழர்
பக்தர்கள்
##ையாகப்
செயலி
இவரும்
ஆதிக்கம்
அமைகின்றன
திட்டத்தை
உபசன்னதிய்
கதாப்பாத்திர
##adi
##inam
are
1943
##ஜெ
சிய
நிழ
கூறப்
பங்கா
##லுக்கும்
சொந்தம்
சட்டப்படி
பாதுகாப்ப
##ொகை
ஓய்வ
##டுவதால்
##ெழுத்து
ஆட்டமிழ
பொதுமக்க
விழுக்காடு
##இன்
Mic
இச்
##ிகாரம்
##ராட்டிர
கார்த்திகை
இங்கிலாந்தின்
##ale
சல்
பவுல்
ஓவியம்
மயிலாடு
வலிமையான
செல்சியசு
கொண்டிருந்த
மாவட்டத்திலுள்ள
அனுப்பி
நாணயங்கள்
ஆராய்ச்சிய
1931
##ிப்பத்
##ss
##சின
##பெற
##வைய்
##ுவன்
சாத்த
தொண்டை
கைப்பற்றி
##af
##ேட்ட
ஒர்
Will
##ஞ்சியம்
தொழில்முறை
##echn
130
சிக்
ஆசியாவில்
இந்துக்கள்
##தாய்
140
vol
அழிவ
தருவ
இயங்கி
ஜப்பான்
இருந்தபோது
ஐசோ
தாரா
பூமி
##மையைய்
விலகி
குழாய்
##ோஸ்
மசூ
முன்னிலையில்
##amm
##மையா
For
##ature
1934
கர்த
சப்த
பருத்தி
up
##தொரு
##ட்சர்
கிறி
செதுக்க
##ொளி
தொன்ம
##வாதிகள்
உருவம்
நன்றாக
அவசியம்
பள்ளத்தா
அம்சங்கள்
காணப்பட்ட
##பாட்
தீப
##ிவுட்
பாக்
##ாட்டுக்
மாற்றாக
ரீதியான
சர்க்கரை
##35
110
##ிறோம்
##ர்த்தா
கரையோ
சாஸ்த
சொத்து
##ீழ்
##alam
##விதம்
அமினோ
தனிப்ப
நீரின்
கண்டுபிடி
##ோர
##டனான
இழந்த
கூடுதலான
##ிலில்
ஜோன்
விக்டோ
ஆதாரங்கள்
காவல்துறை
உருவாக்கம்
கிராமப்புற
##ட்ஜ்
தீபகற்ப
பொருந்த
விசாரணை
##ிறை
mov
இட்
இயக்கிய்
நாயக்கர்
தலங்களில்
நாட்களுக்கு
வைக்கப்பட்டது
##ருக்குத்
போர்க்க
எகிப்திய
##த்துக்குப்
##utt
தியான
மாந்த
##ுவிட்டு
சென்றது
மதிப்பீடு
##erg
##ope
எஃ
Nadu
ஆற்று
##ண்டனில்
மனைவிய
அடையும்
மெதுவாக
பர்ம
சின்னம்
இடத்தைப்
செயல்பட்ட
மட்டத்தில்
செயல்பாடுகள்
##ஆவது
வாழை
##ிகளைச்
நடுத்தர
கட்டுப்பாடு
800
##வனந்த
##ய்கிறது
இடைவெள
இலக்கு
தலைமுறை
குழந்தைகளுக்கு
##are
அவசர
##மையைப்
சுண்ண
அலங்கார
−
##போர்ட்
ஒன்றின்
உருவாக்கியது
##AR
அசோ
அகாட
கல்லூரிகள்
தார
ஒப்பு
##்களுக்கு
##ake
##ன்பு
ஒலிய
கோர்
ஆட்டம்
தீவிரம்
பிரபலமாக
வசிக்கும்
##ene
##ரித
லட்ச
முறைய
மீன்கள்
திருவனந்த
Min
டார்
கம்போ
##க்கூடாது
மக்களிடையே
கலிபோர்னியா
it
வோ
##ச்சை
##ஸ்க்
##ுந்து
புலி
ஹில்
கொண்டா
முறையாகும்
அமைந்துள்ளது
##sp
குச
வீழ்
##லாவ
இதே
இக்கு
செங்கோ
ஏதேனும்
தடுப்பு
கடுமையாக
கீழ்க்காணும்
##anth
அவனை
மறுக்க
##ெரு
Em
Sri
இதைத்
நந்தி
முறிய
##நாராய
##மைகளை
அற்ப
ஜனநாயக
நீளமான
##ப்படாமல்
முயற்சிய
விதத்தில்
தொகுதியின்
நிறுவனங்களில்
##cient
##வாங்க
காமா
ஆண்களின்
கையெழுத்த
அட்டை
##ித்துறை
அதிர
கவிஞ
களின்
August
##app
71
கிரக
##மெண்ட்
சிம்ப
ஆன்மீக
தொடங்கும்
##sc
##மானு
##ற்றது
##லியின்
கரும்பு
கலைஞர்கள்
##AS
##்கா
ஊழ
##த்தூ
நாச
பயனர்
பூஞ்ச
தீர்வு
அட்டவணை
##ூரு
##ன்கோ
புனே
##மேற்கில்
தோராயமாக
##ID
##ிக்கொ
இதைப்
இளங்கலை
##ுக்கொண்டு
இடையேயான
சிறுபான்
பூமியின்
மராத்திய
இடத்திற்கு
தொடங்கினர்
##IS
##ன்த
நிப
சுவி
##ற்காடு
##ியாக்க
தங்கி
செய்துக
ஆரோக்கிய
தலைமையிடம்
விளங்கினார்
##36
தவி
March
இரவில்
உயிரிய
##ப்பினால்
##லர்களால்
பொறுப்பேற்ற
கிடைக்கின்றன
Pa
##ந்தல்
சமச்ச
மாண்ட
முரண்
ஊட்டச்ச
திங்கள்
அறக்கட்டளை
இப்படத்தில்
z
சனி
##ுக்கிய
அழிக்க
இயங்குகிறது
புத்தகங்கள்
இம்மாவட்டத்தில்
170
1928
July
மெய்யியல்
ஆகியோருடன்
##ீட்
சம்பவ
##லத்தின்
##டுகையில்
குஜராத்
படுகிறது
மலேசியாவில்
நுழ
##டுவர்
##ட்களை
அயனி
காஞ்ச
தற்கொலை
தனிமங்கள்
##வீர
61
##திக்கு
லிட்ட
லட்சம்
ஸ்டார்
ஈடுபட்டு
தொடர்ச்சி
இயக்கத்தின்
##வுப்
158
##றிகள்
ஒருவன்
முறைகளில்
நடத்தினார்
##90
##முடி
South
கேம்ப
##த்திறன்
பாடசாலை
துடுப்பாட்டம்
us
##cial
##டையை
ஆடை
திவ
சீர்
##ழ்ச்சி
கடினமான
நகரமாகும்
not
போத
##ன்னிய
உலகெ
செய்யல்
மலையின்
மின்னணு
##படம்
கேச
யுத்த
குறைவு
புரிந்த
மின்சாரம்
##ஸ்டோ
சவா
ஹென்றி
சந்தையில்
சுப்பிரமணிய
##48
IV
##ல்டு
யுக
குரூ
##வர்மன்
உயிரு
அங்குள்ள
Bh
அருள
சியா
##ப்பைக்
##நிறுத்த
நடத்தை
பருவம்
தெரிந்த
முன்னால்
##வாடி
700
ஜனாதி
பிரசு
ஊர்கள்
பெற்றன
படிப்பறிவு
திட்டத்தில்
திருச்சபையின்
வசிக்கின்றனர்
125
பரத
##ஞ்சம்
நிறைவ
##ாரர்கள்
சுரங்கள்
பெண்களுக்கு
##ax
சீத
##ங்கரை
1933
நீரோ
உணவாக
எருசலே
கூட்டி
தீவின்
யோவான்
January
##ப்பாக்கம்
குடும்பங்கள்
##AP
யுரே
வான்க
அருள்மிகு
##oy
பூங்காவ
##ெடுக்கும்
அமிலங்கள்
##ஸ்கி
Fran
##பெரும்
பரவிய்
அத்தியாய
இரயில்வே
ஈடுபட்டார்
தொழிலாளர்கள்
##நேயர்
##றைகள்
தங்களின்
கிருஷ்ணன்
அச்சுறுத்த
##ச்சா
இவ்வித
இருப்பு
வாழ்நாள்
நடத்தப்பட்ட
##uss
##alar
##துடன்
உத்தரப்
ஜோசப்
மின்த
அடக்கம்
கூடியத்
இப்பெயர்
சார்ந்த்
பிள்ளையார்
கருதி
கழிவு
குண்டு
தொடர்ந்த
வளர்ப்பு
##ரையை
##வந்த
அபாய
ஈட்ட
குவி
##ினையும்
இரசாயன
அர்ப்பண
இதற்காக
சேர்ந்தவர்கள்
##சனின்
குளி
தயாரிக்கும்
மேற்கிந்திய
கொல்லப்பட்டனர்
##பதிய
சூடு
வர்ண
##ரங்கம்
வண்டி
கட்சியில்
சொத்த
தொகைக்
பொதுச்
##மைப்பில்
உலகளவில்
மேற்கொண்டு
குழந்தைகளின்
##ரத்
##வள்
No
##ழ்வு
சற்ற
##நாளில்
நிலைகள்
புரூ
##ிப்பில்
அங்கம்
உணவுப்
தொழிலாள
சந்தர்ப்ப
நுரையீரல்
Commission
Dictionary
நார
எஞ்ச
##ீசியம்
மரணம்
##ல்களுக்க்
##ச்சந்திரன்
##uch
##ைன்
##ிமம்
1900
ஃபிர
பாளைய
கொன்று
ஷெ
##லீம்
ஆற்றில்
சங்ககால
நீலகிரி
பிரம்மா
குறித்த்
ரீதியில்
வளிமண்டல
வாக்குகள்
நியூசிலாந்து
##te
மகர
ஜெய்
மணல்
##தற்கான
கட்டண
வழிநட
##ுகிறாள்
பார்வையாள
சிறுகதைகள்
நிறுவனத்தை
பாதுகாப்புச்
வேண்டுமெ
##த்திற்குத்
##வல
அண்
பிழை
##ிவிடும்
ஆற்றலை
இச்சேர்ம
##eter
##தின்
##தியை
ஊட்
மரபுவழி
##ject
##ல்வி
ஆதரவாள
எகிப்து
ஆட்சிக்க
பிடித்து
பணியாற்றிய்
மட்டக்களப்பு
ரவி
##ாலின்
##ெட்டு
ஐயர்
சுவீ
##ாண்டர்
வலைத்தள
பத்திரிகை
தொழில்துறை
அருங்காட்சியக
##பத்
தமிழீழ
பேரில்
Science
மொழியாக
##iat
##படிய
Apr
Dav
##ினரின்
சிட்ட
##வரியில்
இதனுடைய
அடங்கிய்
செயல்பாடு
விளையாடும்
##வெல்
கொட
சமா
டெல்
அசாம்
முன்க
புறநகர்
நீண்டகால
வெப்பநில
##ury
உபக
ஆயர்
நெட்வொ
தலைவரான
நாடாளுமன்றத்
82
ஜக
Sec
##குகள்
அணுவ
காரை
திரௌ
##னர்கள்
தேவர்
பாஸ்க
கற்றல்
மனிதர்
மாநாடு
முன்வை
சீனிவாச
சேர்க்கப்
திரைப்படத்
பலி
##ளையின்
ஓரளவு
அறுவடை
பிறந்து
துருக்கிய
குடிமக்கள்
பெயரிடப்பட்டது
##ோடி
##லியன்
##ச்சொல்
தாமஸ்
இதழ்களில்
இயற்பெயர்
போர்த்துக
We
அவதான
கிண்ண
மாறிய
##ப்புறம்
அத்தகைய
இயங்குத
ஆய்வாளர்
##ீம்
Mah
கண்டி
##ைகளாகும்
பள்ளிவாச
எச்சரிக்க
கருத்துக்கள்
##ms
##கோண
##ப்ள
ரிஷ
1932
நிச்ச
இருப்பதை
மோட்டார்
புதுச்சேரி
பாத்திரத்தில்
##ts
உதய
பிரபு
மாநகரா
##ப்பிள்ளை
##லாசிரியர்
##ூத
##ானை
ஹு
##பிசி
இயல
இழை
##ெதிர்
கணிசமான
அளித்தார்
திரைப்படமான
வடிவங்களில்
Ram
அடியில்
கருத்தை
தாங்கள்
##ந்துவிட்ட
##ப்பொருட்கள்
இசையமைப்பாளர்
Na
##வுகளில்
வசிக்க
##ித்தியம்
கிளர்ச்ச
தலைநகராக
ஏற்படுத்தியது
##ிவெ
தாக
பூத
##ணிகள்
##னியல்
ரசிக
உடல்நல
வீடிய்
அமர்த்த
எவ்வளவு
வாழ்வில்
##ையி
##ானம்
##த்துற
புதை
உலகக்
கொத்த
கலாச்ச
பிரிவுகளில்
பள்ளத்தாக்கு
தயாரிக்கப்பட்ட
##45
##ைல்
##விக்
##வைக்
##ார்ப
அரா
##press
##ution
மருத
Times
காட்டி
நடிப்ப
வாங்கி
வைத்திய
ஆப்கானிஸ்த
ஆகியோருக்கு
இந்நிறுவனம்
நிறுவனத்தால்
##றாக
##ுவே
##ondon
##ளையில்
போதிய
டிரான்
வருமான
##ருக்குக்
பிடிக்க
விமர்சக
##ally
1919
கத்த
##ாவிலுள்ள
பிற்கால
கூறுகின்றன
நிறுவனங்களின்
கருதப்படுகிறார்
##ime
new
கரிய
படிம
புதினம்
##ras
நெச
பாப்
பதினை
##டைகிறது
##மீட்டர்
சிவாஜி
இந்துக்
##ிலிருந்த்
Institut
கொண்டிரு
கருதப்பட்டது
##ணயம்
##ிக்ஞ
one
##ற்றுவ
முற்க
##மாகிறது
பனிக்க
அவ்வப்போது
##தாய
##elop
டிக
##ridge
பிளவு
##ிகளாகும்
இப்பள்ள
படுகொலை
முதலீட்ட
நுண்ணுயிர
##ப்பகுதிகளில்
##ங்ச
Stud
பழமை
போன்றே
சிக்கல்
மாணிக்க
##கப்
இறங்க
கொடிய
மங்கள
##ுறிச்சி
ஆகையால்
பாணியில்
முதன்மையாக
##தேசம்
##வில்லை
டபிள்யூ
கொள்கைகள்
Mc
கரோ
அசோக
மகாவ
ஏதும்
தளபதி
##ாக்களில்
##ர்களிடையே
இணையதளம்
தாய்லாந்து
##ars
##சாலா
##ுகளைச்
வாரிய
இப்பாட
கற்பனை
##ாடுகளில்
கூறுவர்
சிலைகள்
சட்டங்கள்
##ild
மொழிய
Volume
பொருத்தம்
நின
பிரகாச
இயல்பான
சிலப்பத
தெளிவான
மலையாளம்
பெறப்படும்
##ினின்
Sing
ஒல்லா
அருகாம
வெறும்
இத்தாலி
குறைபாடு
##ிவில
Med
திறனை
Society
காலகட்ட
துப்பாக்க
மயிலாடுதுறை
ஆயிரக்கணக்க்
##inn
##நாம்
##மாகவ்
ஆன்ம
##ிவரும்
இறைவன
முறைமை
பெற்றுக்
பொருளில்
காரணங்கள்
கிராமத்தின்
##ாங்
அஸ்
##ராஜர்
##ின்ட்
##ோரின்
காலா
பாடகர்
பெயரும்
நிறுவனமான
##சாம
பக்தி
வருமானம்
தொல்காப்பிய
##ய்ட
##டிகை
தர்
##ள்களை
நிராக
ஆதாரம்
நகரத்தை
ஆண்டுக்க்
தயாரித்து
நடைபெற்று
விளங்கும்
போட்டியின்
##மள
##ேவ
காலி
##ப்பைத்
ஒருவரான
##ள்ளார்கள்
American
பின்னால்
மாநாட்டில்
நேரி
அலுவல
இலகுவ
சமமான
அற்புத
பரப்பளவ
அடைந்தார்
வகித்தார்
##ele
பரா
கோது
##குப்பு
இட்டு
##ப்பினர்
சமிக்ஞ
வளாகம்
##39
##CO
El
ரோம
##ண்மைக்
##ைகளுள்
நகர்த்த
ஆஞ்சநேயர்
தாக்கத்தை
வேகத்தில்
##37
##als
##oog
##ட்ஜ
##ults
##சனம்
##சான்
பகை
மவு
##ழுதும்
##ாடுகளை
ஈரான்
தற்போ
பதக்கம்
##ப்படுவதற்கு
##ober
தரும
##வித்து
அழகான
இசுரே
பெண்ம
சந்தேக
இடைக்கால
எலக்ட்ரான
##ுக்கிடையில்
##CT
##ck
Her
நெகி
##ப்பாடி
ராஜகோ
##ப்புள்ள
London
பைரவர்
அகவையில்
தோன்றினார்
செய்யப்பட்டன
இலக்கியத்தில்
##ஃபெ
##ொடு
தேட
##பாட்ட
##த்திரு
##ாததால்
விதிகள்
குற்றச்ச
சந்திக்க
so
##சென்
##ராதி
##ிப்பி
காம்
தூது
நகரை
சமசுக
சுழல்
##மைகளில்
ஏனென்றால்
##மிடம்
லாஸ்
Christ
நாடுகள
வழங்கப்
செய்தித்த
புரிந்தார்
ஈரான
காளி
##ரையின்
about
தொடங்கின
பார்க்கும்
முன்னேற்றக்
##சிங்
உகந்த
ஒளிப்பத
ஏற்பட்டு
உறுப்பினரும்
திரைப்படத்தை
##ஸ்டா
கூடி
தினமணி
##ப்பேட்டை
பகிர்ந்து
கண்டறியப்பட்டது
##மியா
அவத
##பாண்ட
கணிதம்
கணிதத்தில்
இடு
1924
அல்ப
டைம்
உபகரண
கடவுள
தாமிர
அப்படி
இன்றிய
கேள்வி
நிலங்கள்
இக்கோயிலின்
##49
##லாய்
##முற்ற
##ுக்கூ
##வையின்
##ினரும்
Hindu
வார்ட
உணர்ச்ச
பிரதிபல
முதலியன
பிரேசில்
செயல்திறன்
தேர்ந்தெடுத்த
##38
##eld
ஓட்டு
உறுப்ப
முட்டை
தெலுங்க
ஆபிரிக்க
எப்
இச்செ
William
சேவைகளை
district
##ுகா
##ேசி
do
குடை
மியூ
##ழ்வார்
பொம்ம
##க்குகள்
ஈர்ப்பு
ஏற்படல்
பஞ்சாபி
முற்றுக
துப்பாக்கி
பேருந்துகள்
தொகுதியாகும்
qu
டிஜ
Char
##டையின்
April
trans
பதக்க
கொண்டும்
##ப்படுத்தப்
எனப்படுவது
குடும்பத்தின்
##ாசன்
##ுதூர்
1921
மாதா
செய்யு
ஆய்வுக்
இணைந்த்
தத்துவம்
தற்காலிக
பங்கேற்க
பறக்கும்
மேம்பாட்டு
வழக்கறிஞர்
##ாவள
Int
##ோரும்
டெய்
நிரப்ப
நிர்வ்
ஒளிப்பட
காடுகளில்
கரைய
கோவா
சுவை
ஆறாவது
சிலிக்க
முத்திர
அரசுக்கு
பாதிப்பு
பயன்படுத்தப்
தொலைக்காட்சித்
##சீர
பம்ப
முளை
வைணவ
வருடா
கோபால்
நிலத்த
வருவது
எதிர்ப்ப
இங்கிலாந்த
##ower
முசு
##டையில்
திமுக
வானொல
ஆலோசனை
October
சூத்திர
பற்றாக்க
அமெரிக்கப்
உள்ளடக்கிய்
நட்சத்திரம்
மூலக்கூறுகள்
மொழிபெயர்க்க
##rim
1925
Sept
விசய
பிளாக்
மழைக்க
நிலக்கரி
திரைக்கதை
##ப்பெருக்கம்
இக்காலத்தில்
வலு
##useum
##வுகளை
1926
நாவல்
வினைபு
எளிமையான
ஒன்றுக்கு
கூட்டுறவு
கிரிக்க்ட்
கண்டுபிடித்தார்
மக்
##லைவர்
##ானியா
இலாப
##ையுடைய
பதினாற
பார்க்
செயல்திற
நடக்கிறது
முயற்சியில்
வரையறுக்கப்பட்ட
##ஸ்து
per
உப்ப
சாக்க
கிருஷ்ணா
பிரான்ஸ்
மேம்பட்ட
##angu
மார
##ities
யுனெ
அன்பு
கீழ்க
பேச்சுவ
அமைச்சரவ
கொல்கத்தா
##41
இலத்திர
ஈடுபாடு
முக்கியப்
வினைபுரிந்து
##ப்படுகிறார்கள்
##ress
Gov
பலக
லிய
##க்கன்
##ோனியா
எலிச
நன்ம
ஜப்பான
வயிற்று
வரலாற்றை
##லைக
Sub
அட்லா
பதினான
வழங்கு
முதலீடு
இணைக்கிறது
##udi
Af
ra
##ர்வு
ece
சாமி
பாகம்
வார்த்தை
##ணர்வ
நாளை
ரங்க
கருணா
வியாழ
இடைநிலை
மின்காந்த
##ij
##any
##ிவே
Ear
வயி
சால்
செந்த
நூற்ப
விவரம்
##டிக்கும்
##க்னீசியம்
##ிப்பதற்கு
பத்தாண்ட
பரிசோதனை
திபெத்திய
##47
165
##rishn
##ப்புடன்
இங்கிருந்து
ஆரம்பித்தார்
அழைக்கின்றனர்
##AM
##eop
##ராவ்
அளித்து
அறங்காவலர்களால்
Gl
இடி
எர்
##லகில்
காகித
நாற்க
##சிரியர்கள்
##ஹி
##oogle
##வரால்
மகாம
மிகை
கோபால
தம்பதிய
ஒப்பிடும்
##காச
வடக
1912
அபிவ
##ிகளுள்
State
சுவர்
வயதான
##ுகளாகப்
கிடைத்த்
முடியாமல்
##ibr
Be
ஹவு
ஆழமான
வைட்ட
##ள்களின்
பஞ்சாய
போகும்
வெளிச்ச
முறையும்
ஒவ்வொன்ற்
சமீபத்திய
ஆட்டத்தில்
பிரான்சின்
##ீய
##rop
Im
Cal
##மையாத
##பதிகள்
நேர்க
மகனான
சகோதரி
பயின்ற
துறைகள்
##த்தின்படி
மையங்கள்
வினையில்
கணக்கெடுப்பு
##லியம்
aspx
dinam
அவைகள்
பயின்று
முதுகலை
அப்பொழுது
தெரிவித்த்
அதிகப்படியான
வேல்
##நிலைக்
##த்தலைவர்
English
Research
போட்டியிட்ட
த்
##ures
cent
சிம்
காண்ட
திரும்பிய
கிரிக்கெட்
தொடங்கப்பட்ட
ag
##lege
##ர்தல்
மால்
அதுவே
கேட்டு
அரசர்கள்
கட்சிகள்
சிறுநீரக
வைத்துக்க
யாக
மறுமல
##ூர்த்தி
இறக்கு
வைகாசி
பயன்பாட்டு
இப்படத்தின்
நய
##ific
comp
கைலாச
மகிழ்
இவைகள்
கணக்கு
டென்னி
சொற்பொழ
பிலிப்ப
உள்நாட்டுப்
##ொள
##ular
காலன
வள்ளி
##ம்பாக்கம்
சொல்லும்
முன்னோடி
தெற்காசிய
செலுத்தும்
பத்திரிக்க
இருந்துள்ளார்
##மாரி
##ேசர்
போட
arch
##ிக்குச்
தாவரம்
மறுசீர
##ிப்பதற்க்
##வராய
##ெல்ல
168
பாணி
துத்த
##புத்திர
கால்வாய்
பக்கங்கள்
##நிக
##ன்ட
##மில
##லக்
Del
Raj
இமா
மூத
இப்பற
வசந்த
தங்களை
மொழியை
##ological
வாயிலாக
குடியேறிய
தீவுகளில்
இழக்க
உயர்த
தமிழ்க்
வழங்கிய்
குடிபெயர்
பெங்களூர்
ஏத
வசன
1923
கலவை
கூழ்
கோடை
நுண்
##ொன்றில்
Robert
மீன்பி
நிக்கல்
பிரீமியர்
திகழ்கிறது
குடியிருப்ப
பகுதிகளுக்கு
##நாட
##ப்பன
##நாயகி
அறுப
மறைந்த
இலண்டன்
##ren
Qu
சக்
தட்ப
தம்ம
நால்
##ர்தான்
இவனது
இராணுவம்
தொழில்நுட்பக்
##nd
##ஹோ
##ம்பூ
##ையோடு
நிரம்ப
ஆதரிக்க
பூக்கள்
வழிபாட்டு
##ச்சொ
##ாண்டி
கேரளா
முதுகு
அதன்படி
செலவில்
நீதிபதி
விரிவுபடுத்த
##ஷனல்
##றையான
களிம
கணவர்
பந்தய
##க்கியது
எழுதப்
விலக்க
தேர்ச்சி
ஓட
##மிட்ட
##த்தியது
வரையறு
வன்முறை
அரசாங்கத்தின்
பிழ
உடற்ப
தொகைய்
பாலூட்ட
பிரச்சன
அல்லாமல்
சென்றனர்
##ினங்கள்
கார்ல்
வெட்டி
வகையாகும்
திருத்தந்த
##த்ரி
##யுத்த
சினி
சாந்த
அழற்சி
##டுகளுக்கு
ரிச்சர்ட்
கல்வெட்டுகள்
திரும்பினார்
இழு
தில
##ளவும்
டாம்
படகு
இத்தொ
சிதைவ
இயங்கு
திரட்ட
நிகழ்கிறது
##42
##ink
##conom
Geor
Phil
திறமை
மோகன்
மேல்நிலை
நடவடிக்கைகளை
##inal
அநே
மேக
##மன்றி
நானோ
வேதா
##டுகின்ற
ஆட்டப்
எரிமலை
தகுந்த
பரவலான
இக்கோவில
என்கிறார்
குறியீட்டு
கடற்கரையில்
கண்டுபிடிக்க
}
##லிக
All
கோளா
ஜேர்
##ண்டிக்
ஏழாம்
படும்
##ீசுவரர்
அலைகள்
உறிஞ்ச
வியட்நாம
##ஜின்
உடு
##ிருதம்
மதுரா
##க்குரிய
##ிக்குத்
உண்ணும்
சிறுவர்
நாடகங்கள்
சிக்கல்கள்
##பைல்
##ாமில்
##ாமலும்
மாங்க
##ண்டுகள்
தாண்டி
பொதுப்
கம்பெனி
முன்மொழ
##ற்றுள்ளது
பிரிவின்
பள்ளிகளில்
##lu
தொடு
##ிவிட்டு
அதிகாரபூர்வ
1914
உந்த
மேலான
##ம்புகள்
சபையின்
முன்னேற
திருமால்
##ிடப்பட்டது
உறுப்புகள்
##65
92
##ives
##லிஸ்
இட்ட
உன்ன
இம்மா
உறவின
##ல்களால்
கூடியது
பழங்கள்
மகன்கள்
தொழிலில்
அதிகரித்து
முன்னேற்றம்
தொடங்குகிறது
நீதிமன்றத்தில்
##umm
##ேயர்
நறு
##சுந்த
நீரே
##யில்கள்
##ரீதியான
உத்திய
பாக்கி
பார்வதி
சப்பானிய
தயாரித்த
பங்களிப்பு
ஆயு
சோச
1910
பட்ச
பழனி
##ட்டிகள்
காலமாக
அதன்பின்
அமெரிக்கன்
இலக்கியங்கள்
##மகன்
##ிவரை
அளவுகள்
வரையும்
வைக்கும்
பகுதிகளைக்
##குரு
##ோன்ற
##யர்ந்த
##ிப்பாக
history
நாளன்று
ஆப்பிரிக்கா
##ne
##anc
##வட்ட
##ுதவி
##தாசன்
##ுக்கண
அதிப
##ப்போர்
##ரீதிய்
வாட்ட
நடைமுற
நிற்க்
கூறியது
தொகுத்து
உண்டாகும்
விளக்கும்
##ெழ
des
ஹால்
##முத்து
உரோமை
படைகளை
இடைவெளி
காற்றில்
வழிகளில்
சமஸ்கிருத
தாவரவியல்
பெருங்கடல்
##ole
##டுகள
##ருதி
நாட்காட்ட
வியட்நாம்
திருக்குறள்
இணைக்கப்பட்ட
##சிக்
155
1918
அல்க
தெய்வம்
மணந்தார்
அளிக்கிறது
வாடிக்கையாள
##air
##ப்ரா
கரா
ஆல்க்க
வசதிய்
சமூகத்தில்
மும்பையில்
எழுதப்பட்டது
வாய்ப்பாட்டால்
மேற்கொள்ளப்பட்ட
##eer
##ப்ரமண
பாரிய
பணிகளை
பொதுநல
அவருடன்
படிப்பு
மொத்தமாக
##ப்போக்கில்
##ஜன
##டன
ற
பாரி
கனடிய
பகுத்த
பாக்டீரிய
இசைக்குழுவ
சுற்றுலாப்
மற்றவர்கள்
மைக்ரோசாப்ட்
##வண
##ச்சோ
##்சன்
கிரீ
##ulture
##த்தையே
துவார
தடுத்து
நடிப்பு
மகாபாரத
தெரியும்
##ந்துள்ளார்
தோன்றுகிறது
##adem
##எஃப்
##ின்க
பெர
##ாவைக்
கோபி
##வர்த்த
ரயில்வே
##மைப்படுத்த
குறிப்பிடும்
பனை
கண்டது
##னியாவில்
##ிக்கிழமை
இலட்சம்
புலம்பெ
##டுகிறார்கள்
போராட்டத்தில்
##ேஷ
தவிர்
##லட்சுமி
மாநிலத்
September
கிருட்டிண
கூட்டத்தில்
##32
##த்ர
##வானி
##தனால்
பழம்
ஆட்டோ
இன்றி
உயிரணு
##ிப்பாளர்
மல்யுத்த
ஆகியோரால்
குறிப்பிட்டு
##ங்ட
##book
##istr
##ட்ச்
வாசி
மீட்க
செறிவு
அரசுகள்
எடுக்கும்
சந்தித்து
##yp
##aps
name
பதினே
##பாண்டிய
##ாக்கும்
ஆட்சிப்
கால்நடை
நோய்த்த
##ுகின்றார்
செய்கின்றனர்
##lam
##பாத
##ாசு
900
##ப்டன்
##ரித்த
Malay
Trans
படத்தை
விளையாடு
##ris
##istor
##றிதல்
ஆழம்
சொக்க
குடியு
தீவிரவாத
செலுத்துவ
##ாளர்களுக்கு
மொழிபெயர்ப்பு
ஆகம
பது
1905
நாயக
பாரத
##பார்த்த
##ுவதையும்
விட்டார்
நூற்றாண்டுகளில்
##புற
sc
அவளை
##ivision
##ாவிற்க்
இழப்பு
என்பதோடு
செயின்ட்
அதிகளவில்
தலம்
சாதிய
அலுவல்
இரகசிய
எவ்வித
கல்லறை
எரிபொரு
தனிநபர்
நடத்தப்பட்டது
##NS
##வாசல்
1922
அருந்த
பிளாட்ட
மாபெரும்
படப்பிடிப்பு
Dr
ஆத்
##ோவின்
குப்த
##ப்படுகிற
கேம்பிரி
நகர்ப்புற
##லியல்
விவேக
சங்கர்
சாகுபடி
##நாதசுவாமி
மருத்துவப்
இந்நிலையில்
எழுத்தாளர்கள்
##ES
##லசு
##லைன்
பரோ
##ப்பணி
சமகால
##ernment
இருக்கு
கனடாவில்
நச்சுத்த
மட்டத்த்
பிள்ளைகள்
வினையூக்க
அமைப்பாகும்
இந்நகரத்தின்
மாணவர்களுக்கு
##ிண
##னைச்
Feb
##ிரியா
Hous
##ஸ்டின்
வறண்ட
Publish
முனையில்
பெறுகின்றன
வழிவகுத்தது
##நிர
##ராமன்
##ாச்சி
Camb
திறனா
எதிர்வ
எலிசபெ
உதாரணம்
துணைக்க
December
சுட்டிக்காட்ட
##ிக்கப்படுகின்றன
1908
##மைக்க்
குளோரை
நோக்கு
##ிப்புகள்
இங்குக்
குறியீடுகள்
ஆண்டுகளுக்குப்
##ைகோ
இலட்ச
காளிய
நட்பு
##ம்பட்டு
வரிகள்
விருத்த
நடத்தும்
மேற்கோள்
கூற்றுப்படி
##ose
பிக்
நகர்வ
போனது
அடிகள்
டெல்லி
நிகழ்க
கோவிலின்
துவங்கியது
தொல்பொருள்
மக்களுக்க்
அருகாமையில்
ஆகியவற்றால்
அறியப்பட்டது
Pal
காதல
##னுக்க்
ஒத்த்
பணியை
தெளிவு
##க்ள
##ற்த
91
##யிட்
##ின்ஸ்
கைப்
உருளை
##ப்பற்றி
##முடியாத
வெளியீட்ட
தொகுப்பில்
தொழிற்சாலை
##ext
##uman
உடனே
ஓரிட
கோள்
பிரிய
மலாய்
மிதம்
நகரமாக
ஆப்பிள்
நற்செய்த
மூன்றில்
பாடல்களில்
வளர்ச்சிக்கு
##னித
##alth
ஆர்த
##க்கோணம்
செலுத்தி
மீட்டர்கள்
தேர்தல்களில்
எடுக்கப்பட்டது
##34
##ets
##ளூர்
##ப்பாத
சிதற
world
இணையாக
தன்மையை
வெளிவரும்
முக்கியத்துவ
என்னுமிடத்தில்
கருதப்படுகின்றன
கனக
பொழ
##ுவேல்
United
பீகார்
கட்டமைக்க
குறைவாகவே
முதன்மைக்
##ணியை
##போத்
##ியூர்
ஊரின்
முல்லை
முதுகெலும்
இனப்பெருக்கம்
பயன்படுத்தினர்
##upp
105
எலி
##றிந்த
theh
##மியின்
கொங்க
நியாய
##ிருத்தி
படித்து
வேண்டுகோ
இயந்திரம்
சுவாமிகள்
##ப்படும்போது
##roup
##ிகன்
pol
உக்
மீற
##ிக்கூ
1911
தம்பி
##ங்குகள்
முதிர்
அழிந்து
இம்முறை
நிறுவனர்
மகேந்திர
##த்தின்போது
எலக்ட்ரான்
குடியரசின்
ஏற்றுக்கொண்ட
காலப்போக்கில்
##சபை
##ஜித்
சேம
##புகள்
##ization
##ந்ததும்
கற்கள்
தரையில்
நிபந்தன
நடிகர்கள்
போர்த்துக்கேய
##ix
##ம்சு
##லித்
லக்
போதி
மெக்
##ச்சார்
எக்சு
##ந்திரம்
கிடைக்கவ்
பூச்சிகள்
இயற்கையில்
விவசாயிகள்
##ek
vill
அதிவ
கூக்
மாநகர
முழுவது
விஜயநகர
இருபதாம்
பரப்பும்
##கூ
##சுக்க
##த்தேன்
கடிகார
பாம்பு
மார்ட்ட
முதலியார்
தாது
தேன்
நஞ்ச
மீள்
##ள்களில்
தோல்வி
மகாத்மா
வெளிவந்த்
அதிகமாகும்
கொல்லப்பட்ட
ஆகியவற்றுடன்
முற்பகுதியில்
##ham
##ிசை
Rel
##னியர்
##ப்புர
##ிராம்
ஏஞ்ச
பலவீன
##ிவிட்டது
விடுத்த
ஐதராக்சைடு
நியமிக்கப்பட்ட
##ுமே
அரசை
சமமாக
தயார்
##ில்தான்
வழிப்ப
##elopment
##ொருட்கள்
நிமிடங்கள்
விக்டோரியா
வெப்பமண்டல
##ிருக்கின்றனர்
##பெய
##omen
##மினி
திய
மேய
##ில்கள்
##ுக்கொள்
அடித்தள
கன்னடம்
குறுந்த
பொங்கல்
November
மிகுதிய்
எடுத்துக்கொள்ள
##68
##oss
##ீல்
##டித்
காய்
திமி
பயில
##ாட்சிய
போர்ட்
விசாரண
நடத்துவ
பத்தாம்
நாடாளுமன்றம்
##alli
Mod
மெர்
விளக்கு
##ெடுக்கப்பட்ட
வாழ்க்கையின்
##67
##udd
ஏது
மெக
படிய
உண்டாக
##நாட்டின்
அதற்குப்
கம்யூனிஸ்ட்
பேசப்படுகிறது
uk
##aram
und
அளக்க
##formation
இவ்வூரில்
##ract
##agiri
##சக்தி
##ல்லாத
டிஸ்
தனிய
இப்பா
எஞ்சிய
பூச்சிய
அளித்தது
சேகரிக்க
##ராமல்
1917
அசல்
##லுக்குப்
ஒருவரின்
பெரியார்
காரணமாகும்
மண்டலங்கள்
##லாந்த
நிரல்
##ைக்குத்
அறியப்
துணைத்
தெரியவ
##கப்படுத்த
செய்யவும்
பெங்களூரு
கோட்பாடுகள்
ஷே
##காஷ்
##ished
வோல்
##க்காடு
##போர்டு
ஜெனரல்
அயனிகள்
புறக்கண
பெருநகர
articles
Institute
இதுவாகும்
நிகழ்ந்தது
மலேசியாவின்
இருந்தபோதில்
##பட்டு
##ர்களே
##பொழுது
##ப்பார்
##ஸ்வரம்
##ிட்டல்
மாளிக
##மையாக்க
இயக்கி
##பாடுகளில்
இதன்மூலம்
பாத்திரம்
வேளைகளில்
செயல்பாடுக
##ft
##மனி
##ript
##ிரும்
##்டின்
அவைய
தண்டு
தங்கிய
என்பவன்
கொடுக்கப்
அறிவுறுத்த
வம்சத்தின்
மக்கள்தொகையில்
வலய
David
##வுள்ளது
என்னவெ
##ுவார்கள்
##ையடுத்து
யூனியன்
தேங்காய்
படிக்கும்
தொடர்ந்தார்
உணவை
##நத்தம்
##ளிப்பு
தாங்கி
பனிப்ப
பூர்வீ
ஹார்ட்
ஆற்காடு
காட்சிக்கு
பெரும்பான்மை
விலங்குகளின்
இணைக்கப்பட்டது
##ஹர்
Part
தினசரி
நீக்கம்
கர்தினால்
அங்கீகாரம்
வாழ்கின்றன
விளங்குகின்றது
ஊத
##மால்
தடி
தூத
ஆலோசன
Accessed
அனைவருக்கும்
##ரின
ஷோ
கேம
லார
##ுதலில்
கட்டளை
கைப்ப்
துணைக்
தினமலர்
கருத்துக்களை
மட்டுமல்லாமல்
157
சந்
##erson
##ண்டல்
##ொண்ட்
தாமத
##ாண்டம்
ஓடும்
Museum
சாலைகள்
கள்ளக்குறிச்சி
##குளோ
##ரெட்
##ய்க்கு
அதைப்
அவளது
இளைஞர்
சுரப்ப
பரிமாற
வெற்றிகரமான
##ilm
##மாவ
##க்கொ
##ாயின்
##ிவப்பு
செயலக
இதனைத்
கவுன்ச
நகரும்
##ாசிரியர்
மரபியல்
வைகுண்ட
அவர்களில்
இணைந்தார்
செயல்பாட்ட
தேவைப்படுகிறது
##ெஸ்
Br
வொ
##inem
##சோன்
##டத்த
##மிக்
தாமரை
கால்நட
மியான்
வந்தால்
சூழ்நிலை
மனிதனின்
கூறப்படும்
வரலாற்றுப்
##99
##fic
##ுடு
துளை
ஆண்டி
சிரிய
கல்யாண
முறைய்
இதன்படி
பரவியது
##ப்பள்ளியில்
##way
##னவாக
##புல்
##istan
##ப்பேர
கூடு
துரோ
ஹாரி
##குமார்
தட்சி
பரிணாம
நேர்காண
முற்பட்ட
பிரச்சினைகள்
##ital
##ாயிர
his
##ுவதற்க
##ரத்தின்
அரசுப்
வென்ற்
இதழ்கள்
சங்கிலி
##ிப்பதற்காக
தங்களுடைய
இன்றியமையாத
மருத்துவர்கள்
##ாதா
##க்கரை
##ளித்த
உலகத்
##ட்களில்
இதழின்
ஸ்காட்
முழுதும்
அழைத்துச்
It
##ரைய்
##வதன்
##ஸ்பெ
##ுவல்
Off
##்ச்சி
வெர்
##ட்டைப்
##ministr
##ராக்சைடு
நேர்ந்த
வாரியம்
ஆவணங்கள்
பூமியில்
தொடர்களில்
வெற்றிபெற்ற
##43
edu
பிய
##நர்கள்
சமவெள
நீராவி
##ற்றினார்
சிறுகதை
தோட்டம்
நாடுகளை
மாநிலங்கள
வர்த்தகம்
பணிபுரிந்த
மண்டலத்தின்
புத்தகத்தில்
பயன்படுத்துவது
##AL
##lo
##ther
Sur
ஸ்த
##ளைகள்
பெய்
கற்று
யாரும்
எண்ணற்ற
டாலர்கள்
குறிக்கப்
இருக்கும்போது
வாண
##மிகள்
##ரங்கு
Page
கழிவ
பெருக
detail
வெண்பா
நாகர்கோ
உயிர்ச்ச
இசைத்தொகு
என்பதற்க்
மொழிபெயர்த்த
##ali
கரீ
ஸ்டு
##ுக்கொள்க
##ப்புக்களை
இலித்தியம்
நிகழ்ச்சிகளில்
##omb
##ாசலம்
Thir
செயி
பாதரச
சமையல்
##ப்பிரதேச
கோவிந்த
முழுவதில்
அமைப்புகளில்
வாசக
ஆளும்
##மூர்த்த
ஒருவரை
வேறொரு
உலகக்கோ
மதிப்பெ
##ுக்கோட்டை
thehindu
##RI
##der
##வனாக
மொக
##ganic
வகைய
கோலால
தொழிற
கண்கள்
அணிந்து
கறுப்பு
சிறந்து
எக்ஸ்பிர
மீதமுள்ள
##ணாமூர்த்தி
விவரங்கள்
##விள
##மிர்
##ஸ்கர்
கொடை
##ோட்டம்
புல்ல
##வாக்கம்
##முழுக்கு
ஆட்சியை
திருகோண
தரவுத்தள
வேலைவாய்
பயன்படுத்திக்
கிலோமீட்டர்கள்
##பன
##ira
At
அண்மை
##சார்ந்த
செயலிழ
##ுக்குரிய
உறுதிய்
எங்கும்
##ங்களினால்
தனித்தனி
ஈடுபடுத்த
கிறித்துவ
சிங்கப்பூ
படைப்பிரிவ
##செய்
net
##டைகள்
##ேயும்
போஸ்
வகித்த
கல்லீரல்
பயிர்கள்
அமெரிக்கக்
##ane
IP
Ne
##ரோஸ்
##ுதலை
ஓரா
##ராக்க
வரைக
செஞ்ச
கட்டணம்
வகிக்கிறது
உருவாக்குகின்றன
##ரணம்
ஒன்
குஞ்ச
மேயர்
அறைகள்
##ர்க்கில்
எட்டாம்
அனைத்துப்
Sm
##ாரர்
சத்ய
சொல்லி
பரப்பளவைக்
பெயர்களில்
பயன்படுகின்றது
bi
Web
ஒடு
நன்
##eople
##மொன்ற
##படியாக
##ிற்குத்
அமைத்த
மைல்கள்
சுற்றுப்
வருகின்ற
தந்தையார்
வீடுகளில்
கிறித்தவர்கள்
##urn
சம்
புய
இழப்ப
டவுன்
தற்கா
கோதுமை
நடுக்க
பரிமாண
தாழ்த்த
இந்நூலில்
படைத்தார்
விருதுகளை
107
கிரெ
நெய்
##ஸ்வரன்
சிஸ்ட
உட்பிர
எனக்கு
கிரீன்
அப்பால்
கண்டார்
பந்துகளில்
சிவராத்திரி
##மாகி
##லையின்
ஈடுபட
பாடலை
சான்று
ஒத்துழை
சந்திரன்
மாற்றும்
மறைமாவட்ட
இக்கல்லூரி
நடைபெறுகின்றன
am
##ண்ணி
##மானி
அகர
கென்
கோரி
அகமது
பிக்க
பேரவை
ஹார்ட
படைத்த
இறக்கும்
மதுரையில்
கொண்டதாகும்
பாரம்பரியக்
Act
டால்
##யிற்சி
இஸ்ல்
வழிவக
##ட்டையில்
சிறிதளவு
நெருக்கம்
திட்டமிட்ட
பாதுகாப்பான
##els
ஜொ
##ராஸ்
1500
Cont
சூர்
##வராவார்
ரெட்டி
##ட்சிக்கு
அறிவிக்க
இராகத்தில்
மேற்பரப்பில்
##ாலே
##ீவ்
##சம்ப
தார்
##ராகும்
கதையை
##்குமார்
##த்திற்குச்
பொருந்தும்
##லிய்
நண்
நாத
நெல்ல
இளவரசர்
கோவில்கள்
செல்வாக்க
பின்பற்றி
மாறுகிறது
பிரிக்கப்பட்டு
##ிமு
##ிமலை
145
167
##குப்த
சந்தித்த
பயன்பாடுக
##ret
##பாடி
##ருள்
##ொத்த
ஆர்ட
கிழக்க
முன்னே
##ப்பூரில்
இலக்கணம்
காவல்துற
திருச்செ
##por
##aran
##atic
பன்ற
சில்ல
மலைப்
வேலைகள்
ஒப்பீட்ட
குளிர்கால
மாதிரிகள்
விளைவுகளை
ஜெர்மனியின்
##ெசு
##ரஜன்
##லிதா
சவு
##ஸ்வதி
1913
##ியாவின்
சினிமா
நிச்சய
அப்படியே
மெக்சிக்கோ
நூற்றாண்டுகள்
வத
##அள்ளி
ஆள்க
தலைக
இறைவி
கரும்ப
சண்டிக
உட்கொள்ள
பெண்ணின்
புறநானூறு
கலாச்சாரம்
மட்டுமன்றி
குறிப்பிட்டார்
ஈய
##துரு
அதன
##ங்கான
கோடு
மோர்
தொலைவு
வாகனம்
அரங்கம்
கற்றுக்
குழுமம்
வித்திய
இக்கோவில்
காப்புரிமை
வானியலாளர்
பணியாற்றியவர்
ஏகாத
இப்பூ
வனவில
ஒழுக்க
வருவாய
கடைசியாக
மாநகராட்சி
##லாக்
மேன
##ரிமாண
களம்
தேக்க
வெகுவ
College
காந்திய
நிறமற்ற
வினைகள்
சேமிப்பு
எகிப்தின்
இடம்பெறும்
##ஸ்டி
##ட்சன்
எரிய
பகல்
மேக்
வீரராக
தென்காசி
கொண்டாட்ட
செய்கிறார்
காரணங்களால்
டய
சென
ரத்
##ாளிகள்
##ications
திருமலை
பழக்கம்
பின்னரே
போன்றோர்
விரும்பிய
இடம்பெற்றது
எனப்படுகின்றன
யாழ்ப்பாணத்தில்
##95
##rd
##பேர
##code
##டைமை
##்கர்
அருவி
திடீர
Results
பெரியத்
பணியாளர்கள்
பெற்றவர்கள்
லக
col
கௌத
##ுவந்த
##பாடும்
குன்ன
பொற்க
##ருவிகள்
சதுப்பு
##நாடுகளில்
உறுதியான
செருமானிய
இலக்கியங்களில்
அழைக்கப்பட்டார்
##டீ
##வியர்
ஹெர்
மூலதன
சமநிலை
முதலாள
edition
முந்திய
பூர்த்தி
பதவியேற்ற
கருத்துகள்
வளர்ச்சியில்
##ுரு
PD
##ruct
##டிப்
காடு
செக்
டெட்
மணிய
மேலோ
##டங்கள்
சவுத்
நிலப்
அகழ்வா
ஒப்புதல்
வடக்குப்
சமீபத்தில்
பிறப்பிடம்
பெயர்களால்
மேற்பரப்பு
பொழுதுபோக்கு
பேரூராட்சியின்
##ரிங்
##விச்
##நேரம்
தேற்ற
மேலதிக
சார்லஸ்
பயிற்றுவ
தில்லியில்
விகிதத்தில்
##வதம்
##ாவல்
115
Thom
மாவட்
உலோகம்
கல்லூர
##வர்களால்
##ைகின்றது
வரைபடம்
இந்தியர்கள்
நடத்தப்படும்
##ர்களிடமிருந்து
##eri
இடர்
மாலி
##டிக்கு
தனித்து
பயனுள்ள
##ப்பாளையம்
இடப்பெயர்
இருக்காது
விரும்பும்
விளக்குகிறது
##ிகளே
ஜான
மட்
மிர
மர்ம
##நிலைகள்
இத்தலம்
தலைமைப்
வான்காண
நெறிமுறை
அடிப்படையான
இடங்களுக்கு
##II
##anka
Cor
##apuram
கட்ட்
கணபதி
போராள
தரையிற
அதனுடைய
இப்பிரிவு
பொருளாகும்
கொடுக்கிறது
ஔ
##wood
##ேக்க
index
உடற்க
புரிய
மூடிய
வாரம்
அர்ச்ச
போக்கு
அந்தமான்
வட்டங்கள்
ஆகியவற்றைப்
##ருள
##ோரி
Mag
மில
வாட
பர்க
வீசி
##வுக்க்
கண்ட்
தம்மை
பாலசு
ஈரானிய
மேட்டு
கிளைகள்
சிந்தனை
வினையின்
சொல்லப்படுகிறது
##னவ்
##புரோ
##ruary
1907
கஞ்ச
தவம்
வாலி
இதனைக்
சூரியக்
விரிவுர
விரும்பி
தொடர்புகள்
நூற்றுக்கண
நெதர்லாந்து
வருடங்களுக்கு
q
##let
Me
##site
ஏழை
##ியாய்
ஆட்க
நாய்
##ையிட்ட
books
மில்லி
முழுக்க
##ப்பெற்றது
ஈடுபட்ட்
நுகர்வோர்
முக்கோணத்தின்
பார்வையாளர்கள்
பயன்படுத்தினார்
##மேக
##ஸன்
##சைன்
##ரைன்
127
Mon
போலி
வளர்ச
கருவறை
கருவிய
பாட்டு
பேரரசை
##டைந்தார்
கூறுவது
பணிகளில்
ஆசியாவின்
கதிர்வீச்சு
மிகச்சிறந்த
##ald
##வாசி
பவள
1906
உடலை
##பட்சம்
Techn
பழங்க
இரத்தம்
உணர்ந்த
அங்குலம்
##alai
##மகள்
##முன்
##ோணம்
நல்
சமாள
##மடைந்து
##ிலக்கிய
அகாடமி
மனதில்
அனுபவம்
அருச்சு
தேவாலயம்
மற்றொன்று
##33
##ks
##ுமா
சமு
##சுக்கு
கொள்வது
நேர்த்த
கிராண்ட்
பரவலாகப்
காளியம்மன்
செல்கின்றன
ஒப்பிடுகையில்
வயதுக்குட்பட்ட
##we
உருக
##முறையை
இறப்ப
நூலாக
இழந்து
சிட்டி
சமஸ்தான
தலையில்
மார்க்ச
கண்டறியப்
குழுவினர்
சாதனங்கள்
திறக்கப்பட்டது
##ட்சை
War
கோல
துய
நடுப்
பகதூர்
இரத்தின
சுத்திக
பாறைகள்
மண்ணில்
February
இவர்களது
நாட்டைச்
வாகனங்கள்
நகரத்திற்கு
ஒருங்கிணைக்க
கண்டறிந்தார்
விளையாட்டில்
##44
##ேயு
அஜ
கவர
குர்
மேளக
யூரோ
வளிமண்ட
விடுமுறை
கோட்பாட்ட
தீர்த்தம்
ஆகியவையும்
விரும்பினார்
தெரிவிக்கின்றன
##்டிக்
comm
அசுர
##ibrary
புலம்
இதனைப்
உங்கள்
நண்பர்
கால்கள்
கதிர்வீச்ச
##ius
ev
##வனம்
புண
##ஷேகம்
##ிக்கூட
துரித
##duction
சிகாகோ
தாக்கி
சிறுநீர்
பயனர்கள்
பூக்கும்
பாய்கிறது
முதுகலைப்
##ரிடமிருந்து
ஆரா
குறைய
கோடைக
##ங்கியது
##ாவையும்
செருமன
முசுலி
அரக்கோணம்
சமூகத்தின்
இந்தோனேசியா
மண்டபத்தில்
ஒழுங்குபடுத்த
##urr
##சிச
##மஸ்
##ட்ரி
##மைந்த
1909
குகை
மகனாக
இன்னம்
எல்லாவ
பன்முக
பயிரிட
இவ்வூரின்
ஆண்டிற்கான
வேடங்களில்
மட்டுமின்றி
தொழிற்சாலைகள்
##வைச்
##ாகர்
wiki
ஊர்த
புஷ்
##ையாக்க
கெட்ட
அவரால்
##ிருப்பத்
சதவிகித
செய்தால்
திருக்கு
மூர்த்தி
ஹொங்கொங்
உருவாக்கிய்
##ழா
##idd
##ம்மை
##வுச்
##பள்ளி
உரோம
##செய்தி
##ட்டிங்
பாடம்
பிரிக
கர்ப்ப
நகரமான
கோடுகள்
நடிகைய்
வங்காளம்
ஆயுதங்கள்
பெறுவதற்க்
##98
##ஸா
##ிவர
##ுவ்
##ines
##மடைய
##ொப்ப
சரவ
கண்கா
சீரான
பெர்ன
##ோருக்கு
அமிர்த
இத்திரு
ஒளியின்
கருப்பை
சுத்தம்
தமிழகம்
இதுபோன்ற
பெருங்கோ
தெரிவிக்க
காந்தியின்
ஜெர்மானியப்
குடும்பத்தின
நெடுஞ்சாலையில்
##ர்மன்
##ளையம்
##ித்தி
பரவி
பூஜை
ஞானம்
தொற்ற
பாஞ்ச
குற்றவாள
பங்கேற்ப
இயக்கத்தை
வைட்டமின்
118
##பியன்
##ழற்சி
##ோட்டை
1916
Phys
துரை
அதிர்
ஆங்கா
நன்மை
முனைய
விவகார
யானைகள்
இருத்தல்
வங்கிகள்
##க்காரர்கள்
சார்ந்தது
செட்டியார்
##மறை
##ளர்
##ுதா
ent
ஐதரச
பிக்ச
முற்போ
##ிப்பதில்
கருதுகோ
முறைகளை
தேவையில்
தொடர்கள்
ஆங்கிலேயர்
அதிகரித்தது
புள்ளியியல்
செயற்கைக்கோள்
##நெட்
சேன
James
மையப்
அறியல்
##ுவதாகும்
சுவிட்சர்
##ப்படக்கூடிய
சக்கரத்தின்
##கத்
##வேல்
சுப
உள்க
தெளி
பொள்ள
தந்தது
##ர்கின்றன
முட்டைகள்
அனுப்பினார்
பயன்பாடுகள்
##IT
##eph
அனந்த
அமைவ்
நிலவர
மகாதே
##வரிசையில்
தவிர்த்த
Cambridge
ஐரோப்பாவின்
காட்டுகின்றன
காரணத்தினால்
##ாரோ
பலா
கண்ணாட
ஏரியின்
மறைந்து
விக்கிர
கொள்கையை
திருவிதா
மரத்தின்
யுனெஸ்கோ
விருதைப்
பரிமாற்றம்
உள்ளடங்குவர்
ஆப்பிரிக்காவில்
##iqu
வு
##வண்ண
Reg
all
லின
##annica
##ிக்கத்
இந்தோ
ஒன்றே
குளோரோ
பண்டித
பாபிலோ
##ப்பாட்டு
காற்பந்து
கொள்கிறது
நிலையங்களில்
##anj
##கக்
##ேவி
Ca
##iter
106
##த்திலே
##ரித்து
##ையின்படி
பொதுவுட
கல்லூரிய
அளவுகளில்
வடிவமைக்கப்பட்ட
By
##ந்தீ
##ையாறு
உட்ச
##ையாகவே
##்களைக்
இணையான
நடுநிலை
புள்ளிவ
##முத்திரம்
##ோட்
##reat
ஊதா
1901
எனச்
கபில
கூறு
நட்ப
வீதி
##ச்செல்ல
##மில்லாத
கணக்கிட
விரிவாக
##மடைந்தார்
இருக்கவ்
திருச்சு
அட்லாண்டிக்
தமிழ்நாட்டு
no
Pat
Book
சிரம
மாடு
##ிவாங்க
நாளும்
என்பதைப்
சித்தாந்த
குடியிருப்பு
மாகாணங்களில்
##மதா
##னியாக
அதனைத்
##ாண்டுகள்
அகத்திய
கோடைக்க
நாங்கள்
மின்னோட்ட
மொழியியல்
##ner
##மூல
##சேகர
எனது
pages
ஏகாதசி
நினைக்க
##ப்படுத்திய
மென்மையான
வெளியிட்டு
பிரித்தானியப்
##AC
rel
ராய
##ேசுவர
##்க்கு
##நிலைய்
இல்லம்
தடுத்த
குறும்ப
விதைகள்
நிறுத்தி
மெத்தில்
செய்வதில்
நிறுவனமாக
ஆரம்பித்து
வருகிறார்கள்
கற
##ங்கல
##வரம்
ஆள்
திம
##ipedia
இசைத்
பெறவ்
##டித்தல்
ஆர்த்த
சமவெளி
பருத்த
பாரிஸ்
வாழ்வு
மதிப்பீ
சந்தித்தார்
கொடுக்கப்பட்ட
##led
##ாமு
##ency
##நகரம்
##ுவோர்
அப்து
இஸ்லா
கோணம்
##வியலின்
##ினருக்கு
சரஸ்வதி
குறுக்கே
செயல்கள்
சான்றிதழ்
பிரான்சிசு
பந்துவீச்சில்
##97
எய்த
##க்கோடு
##ம்பில்
காயம்
குசரா
பண்ணை
பூர்வ
##olution
##டுகளைக்
வானிலை
முஸ்லீம்
சாளுக்கிய
பொதுவாகக்
சூடுபடுத்த
தொடர்ந்தது
வடிவமைக்கப்
பேச்சுவார்த்த
Air
Pre
Wiley
பின்த
##மாரியம்மன்
ஏற்படுத்தி
##ுகூ
##soci
##மரம்
ஆவி
##வதும்
அரவி
##ினரால்
பூச்சி
புளோரைடு
முன்வைக்க
கொண்டவர்கள்
தொலைத்தொடர்
##பஸ்
அளவிட
தனிநப
தரமான
##மைக்கும்
Ancient
உதவியது
கோயிலுக்கு
நிகழ்ச்சிகளை
போன்றவற்றின்
மக்கள்தொகைய்
##ைகளே
ஆசை
வசூ
ஹெச்
இதைக்
உரையாட
தாயகம்
தொண்டு
உதவினார்
நேர்மின்
மக்களில்
உலோகங்கள்
சிற்றிதழ்
டிஜிட்டல்
மேளகர்த்தா
நிகழ்வுகளில்
ஏறி
##ினைத்
கீழு
##டினார்
புகைய
##ையம்மன்
தாயின்
##ியலாளர்கள்
துல்லியமாக
##ாரன்
கேப்
##வியில்
##மையாகக்
States
மாத்திர
அவனுக்கு
உணர்ந்து
திருப்பு
இறக்குமதி
Ap
publ
மிர்
தலைவி
அன்றாட
பிபிசி
உதவியாக
ஐதராபாத்
ஒன்றுக்க
சட்டத்தை
மேற்கொள்
மொழிக்கு
உதவுகின்றன
பகுதிகளைய்
மக்னீசியம்
ஆண்டுகளுக்க்
##வுட்
ஒது
செழ
##லிகள்
##ிப்பீ
எடைய
பேசிய
முகாம
ஆபத்து
எண்ணிம
கணேசன்
ஆண்டனர்
தலங்கள்
திரையிட
விவேகான
ஜனாதிபதி
பாடினார்
வளர்சிதை
விண்ணப்ப
இப்பொழுது
இரண்டையும்
வாய்ப்புகள்
##ேட
##க்சு
135
pre
வீரா
சூடான
##ரேந்திர
##விலுள்ள
ஆதலால்
பாக்ஸ்
மராட்ட
வடமொழி
கனடாவின்
செயிண்ட்
துகள்கள்
தொழில்கள்
எக்ஸ்பிரஸ்
பொருட்களில்
##றிக
##rick
gen
உன்
கடல
அரிச
##ாளர்களை
கலைக்கள
செய்வத்
செய்யப்பட்டனர்
##ாதன
##போன்
##ேசுவ
எடி
கொள
மெழ
King
சற்றே
ஓட்டம்
பலமுறை
##ருகின்றன
கட்டற்ற
செல்வம்
ரோமானிய
விளைபொரு
##ப்பட்டதால்
தடுக்கும்
துல்லியமான
வெளிப்படுத்தும்
##யன்ப
ஒன்ப
கழுவ
நெறி
பான்
ரத்த
வெனி
##ங்காடு
##நாயகம்
பேரின
##ியர்கள்
தீர்ப்பு
இயக்குநராக
கொண்டிருந்தனர்
##ET
##IN
##ze
##கான்
##வியை
##ுறிய
மகள
year
உணவக
##நாராயண
தேசம்
பூட்ட
George
கருங்க
திரையு
தீங்கு
இராமானு
ஆங்கிலப்
கொண்டால்
போருக்கு
ஸ்ரீதேவி
வளர்ச்சியை
##ிதழ
##ulam
கலவர
பாசன
மடம்
அயோடை
இங்க்
எண்ணி
##ளுக்குப்
நாராயணன்
கொண்டுள்ளது
உருவாக்கப்பட்டன
##sy
##டைத்
126
நால
யூக
திவ்
நொதி
##ான்கள்
இத்தல
##ச்சின்ன
சடங்கு
நாயுடு
பயங்கர
யாவும்
சிற்பம்
நியமிக்க
பாகங்கள்
கண்டறிந்த
ஆண்டுகளின்
சாம்பியன்ஷ
பொருளாதாரத்தில்
##ல்லோ
அரோ
##ோடும்
Stat
நடுவே
நிறுவி
##த்தகுந்த
அதனுடன்
##IC
Bo
##கால்
##நைட்
##ரசுவ
##ோகன்
உண்ம
மரபண
##ிருப்பு
இல்லைய
பிராட்
விநாயக
அடர்ந்த
உருவாகி
##த்துடனும்
எதிர்மறை
நிலத்தடி
பணியாளர்
##92
##ுவெ
Kh
##ield
##வருவ
##சிங்க
அளவி
##ர்ட்ஸ்
பிறர்
மலாயா
பெட்டி
##த்தினுள்
அரசுத்த
சோதனைகள்
பெயருடன்
பொறுப்பை
இந்தியாவ்
நிலையத்த்
படிப்புகள்
வெளியேறும்
கைப்பற்றியது
##berg
ஓம்
##alayam
##வியின்
அதிமுக
தோறும்
பணத்தை
தீவிரமான
ஆண்டளவில்
மாணவர்களின்
La
யெ
##icle
ஐபி
கேட்
வாஷி
வழிபட
##ூருக்கு
##ர்க்கும்
தெற்குப்
சதா
செப
இறைய
நலம்
கோபம்
சுப்ப
##ற்றியது
ஆழ்ந்த
##ர்க்கின்
மன்னார்
ஆக்கங்கள்
வேடத்தில்
பராமரிப்பு
Ev
##மாக்
துர
part
##பெற்று
தழுவி
பெறல்
ஒப்படை
பரந்து
மகனாகப்
நீர்ப்பா
மெக்சிகோ
பொறுத்தவரை
பக்கங்களில்
குடும்பத்தினர்
##hel
##ுகி
its
சிட
ராச
##ியவர்
நாயர்
##க்கிண்ண
ஒருவகை
கண்டறிவ
நல்லூர்
அறிவித்த
நைட்ரசன்
பிலிப்பை
வெளியேறி
விளையாடிய்
இயற்பியலில்
##னைடு
Ang
dis
##ராசன்
##விகள்
கூற்ற
தவறாக
பால்க
இவ்விர
டென்மா
##ுக்களைய்
செல்கள்
##பதியம்மன்
##ெடுத்தார்
சமன்பாடு
பிரச்சினை
வீட்டிற்கு
கொல்லப்பட்டார்
திருவனந்தபுரம்
##oor
##சஸ்
la
மனு
அணிக
இலைய
##ியாவில்
ஆரஞ்சு
மறைக்க
ஆய்வின்
எழுதும்
dinamalar
ஆரம்பித்த
இயக்கினார்
காட்டினார்
இம்முறையில்
வேதியியலில்
128
##ராசர்
##ிவந்த
எபிர
பாலக
மிச்ச
கொச்சி
சுருள்
பாடும்
##மொழியில்
நிலவும்
நுண்ணிய
பௌத்தம்
அயர்லாந்து
அதிகரிக்கிறது
##சம
##ிரோ
பளி
நாக்
வன்ப
பசுமை
கலைகள்
##ுக்காகப்
குளோரின்
நெருக்கடி
குறிப்பிடல்
தொகுப்புகள்
##94
##pur
##vin
OH
##ருகே
ஃபே
ஏகா
வல்
##மண்ட்
நாசி
##ந்துக்
##ிறப்பு
##ிலியம்
காரிய
கோதாவ
லிமிட
பேதுரு
மகனும்
மகரந்த
##ட்படுத்த
##ப்பெறும்
இல்லாததால்
சுற்றுப்புற
புரிந்துகொள்ள
இராச்சியத்தில்
உருவாக்கப்பட்டு
##ஜோ
யை
##டெட்
ஞாய
##ச்சால
List
சுபா
ஜெயல
நம்ம
##க்கால்
##ராவின்
புண்ண
##த்திடம்
அந்தச்
மாளிகை
வீட்டை
சிறியத்
பரப்பில்
பகுதிகளின்
வழிமுறைகள்
முஸ்லிம்கள்
மாற்றியமைக்க
##ய்ச
மிள
##ering
துகள்
##ேரியில்
ஓவியர்
சாஸ்தா
##விட்டார்
மாற்றங்களை
நேபாளத்தின்
##ஜ்ஜ
##்தா
##ange
##atch
##பகுத
##ப்யூ
நம்பி
இடைமுக
தக்கவை
லூயிஸ்
வழங்கல்
அதிர்வெண்
ஆய்வுகளில்
உடன்படிக்கை
சந்திக்கும்
சம்பந்தப்பட்ட
##yt
##ிவிட
Mel
ஊழல்
##வரையில்
கிரிக்
நடுவர்
வம்சம்
தளங்கள்
இவ்வகைய்
கொல்கத்த
##ED
##ada
இயலவ்
நுண்க
பாரிச
##ிப்பின்
கட்டம்
சிறுவய
அழைப்பு
இடங்களை
திணைக்க
இத்தாக்க
செயல்பாட்டு
##ப்படுகின்றார்
##திப
##mann
##கைக்
##மீர்
##ய்ட்
மேள
வேண
##க்கரு
மிகு
##மையற்ற
டெட்ரா
நாணயம்
இனத்தைச்
ஊழியர்கள்
மறுபடியும்
NH
##ுகளே
mod
1800
1898
குலோ
மெசொ
##ஜியின்
##ன்மைய்
ராமசாமி
இரண்டில்
கொள்கைகளை
சமசுகிருத
விருப்பம்
ஒப்பீட்டளவில்
செயல்படுகின்றன
##சிட
##நிட
Tr
##ியக்
File
நற்க
##ங்கால்
##ப்பைப்
##ம்பேர்
##்களைய்
கபூர்
பயில்
சங்கீத
பிரசாத்
கடைப்பிட
திருப்பி
தெரிந்து
வாக்கெடு
கொலம்பியா
நாடகங்களில்
இயந்திரங்கள்
ஆகியவற்றுக்கு
காரணங்களுக்க்
##urg
##டிங்
##வாள்
Rich
##ப்பதம்
##ராய்டு
Islam
தொலைத
வழிய்
உயர்வு
நார்வே
புரதம்
##பாத்தில்
சுந்தரம்
தாவரங்களில்
கிராமங்களில்
வழங்குகின்றன
##iver
##ரேட்
##ிவான
Eur
##ப்பதை
அவரே
பலம்
##ணங்கள்
##ன்பூர்
படமான
பல்லவ
மணிப்ப
கல்வித்
நிலத்தை
இயங்குதள
துருக்கி
##fin
##பவை
லவ்
Hand
கொதி
பாட்
மேலு
##பட்டது
சுப்ரமண
இடத்தைய்
சொத்துக்க
வினைகளில்
அட்டவணையில்
திரௌபதியம்மன்
##rab
க்க்
சாக்
சாராத
டாக்க
தொடரை
விசாக
களிமண்
பதவியை
மொழிய்
##ுக்களைக்
##ுவிட்டது
உத்தியோக
எலிசபெத்
வழக்கறிஞ
திட்டங்களை
பாதிக்கும்
மாகாணங்கள்
வரலாற்றுச்
##CI
நிஜ
##ாப்வே
3000
பிசு
வடக்க
வாரிச
ஆல்பம்
கண்ணன்
சட்டப்
நோர்வே
##ாளர்களால்
மேற்குத்
கல்லூரியின்
ஒன்றுக்கொன்று
##arg
##ied
##file
##hael
has
##க்கூற
##ைகுடா
ஆலன்
வற்ப
ஒத்தி
##anguage
ஏழாவது
கடலின்
கொரியா
செல்லு
மொபைல்
##டுகிறான்
சேமித்து
நற்செய்தி
முதலீட்டு
விக்கிப்பீ
செயல்பாடுகளை
பாதுகாப்புப்
##ely
கலக
தனு
ஜாவா
முதி
##த்தீவு
##ஸ்டிக்
first
கங்கா
கைக்க
சொற்ற
உரிமம்
பிராங்க
##ட்டமைப்பு
பதிவுகள்
விட்டுக்
இந்நிறுவன
நிலநடுக்க
பதிப்பில்
##மோன்
##ஸ்ட்ட
வளைக
கன்னி
பட்டை
பீடபூ
மயில்
சாகித்
தனிச்ச
தாக்கல்
பாடலில்
கரைப்பான
நூலாகும்
##ச்சியம்மன்
மார்ட்டின்
பெரும்பகுதி
வழங்கப்பட்டு
350
##டியது
##தாகச்
Asia
குடா
ஆர்சன
எஞ்சிய்
பலவகைய்
சொல்லின்
பெருங்கு
இக்கிராமத்தில்
##96
UN
##urai
ப்ள
உயரிய
##ப்பதும்
சத்திர
##ொள்கிறது
அம்பாள்
இறைச்சி
இதழாகும்
படைகளின்
பொறுப்பே
அதிகரித்த
சேர்த்துக்
வடகிழக்கில்
##arb
##மாட
1890
ஆவணி
மலாய
##ுதலின்
இத்தே
மெக்க
##வற்றின்
இருப்பிட
கதிர்கள்
குளுக்கோ
சென்னைப்
உள்ளாட்சி
புற்றுநோய
பொருள்களை
பொறியாளர்
##enk
##ional
##ெட்டி
படைக்க
விகடன்
துருக்க
செய்வதன்
எழுதியவர்
நூற்றுக்கணக்க்
##IO
##ப்தி
166
Sam
##ories
##ப்போல
வெல்
##நிறுவன
Delhi
காம்ப
தந்து
பிரதா
##டித்தது
இயற்கணித
அலுவலரால்
அழைத்தனர்
வைக்கப்பட்ட
பயிற்சியாளர்
α
##பூல்
##ஸ்ரீ
eci
சகா
##ிமார்
தேனீ
புதல்
மூதாத
வெண்ப
##த்துகள்
ஐம்பது
வகுக்க
##னியாவின்
##ிருக்கவ்
வளைகுடா
எதிர்பார்
விமானங்கள்
குற்றச்சாட்ட
##வாயு
Inc
##ய்வழி
##ூட்டி
##ப்பாதை
நம்பக
கடிதம்
திகழ்க
வீச்சு
தெரியாத
##ிக்கின்றது
##ுன்
117
கறு
##செல்ல
தியே
பொறி
வன்ன
##ங்கார்
##ாய்ச்ச
which
அரக்க
டெல்ல
படலம்
விரிக
காவேரி
பட்டப்
வெண்மை
தீர்ப்ப
விசுவாச
எருசலேம்
அமைச்சரவையில்
##யெ
##பாணி
Bas
Dep
முஹ
கவலை
தோழி
##ந்தால்
இசைப்
மெட்ரோ
வருவத்
பிணைக்க
wikipedia
பார்க்கவ்
அபிவிருத்தி
நடைமுறைப்படுத்த
##la
##ணல்
##ரசர்
மிஸ்
##ாய்கள்
மூலிக
##ference
வங்கிய
வசிப்ப
##ழகத்தில்
குடிநீர்
சின்னங்கள்
பேசப்படும்
பங்கேற்றார்
உருவாக்கினர்
மேற்கிந்தியத்
##வய
^
##ini
##வாண
குவா
பேட்
ஆர்மீ
##ட்சியாக
temple
மாஸ்கோ
மின்சு
இம்மொழி
கோதாவரி
வளங்கள்
தலைமையிட
முறையின்
கோபுரங்கள்
உயிரணுக்கள்
ஏற்படுகின்றன
##ூரை
##சல்ப
ஹெக்ட
ஈர்த்த
##படுகிறது
அடு
தடக
அக்கோ
ரிசர்
##மையினர்
தரவுகள்
பொள்ளாச்சி
##ிருக்கின்றது
##ydro
##கிள்
reg
ஆசி
ஐஸ்
##ource
##umber
##ன்றம்
##ாவைப்
##ிக்கி
##ுமொரு
ரெட்
இசுல்
சகிமீ
அண்ணன்
உருவாவ
தேயிலை
தேவைகள்
ஆய்வுக்க
சுற்றுலாத்
பன்னிரண்டு
எண்ணிக்கைய்
##நம்ப
1904
1915
##ணித்து
##செஸ்டர்
அக்பர்
சார்ப்
மராத்தி
மலர்கள்
அதன்பிறகு
உச்சியில்
தானியங்கி
படுகின்றன
பிறக்கும்
முதன்மைப்
##ப்பட்டுள்ளன
கேரளத்தின்
வருடத்தில்
நிறுவனத்திற்கு
விளையாட்டுக்கள்
##ொன்
##ச்சிக
##ச்செய
##டுவதை
##த்தாக
this
ஏரிய
அரசமர
எண்ணெ
புளிய
பெர்க
ரகசிய
சேவையை
பிரகாஷ்
மலாக்கா
வலியுறு
கர்நாடகா
மூங்கில்
அறிவித்த்
கல்வியில்
மாறுபடும்
விடுகிறது
உலகெங்கும்
மகாராட்டிர
Ass
காட
##inema
##லரின்
ஜோதி
##ண்டாம்
நிலவு
indiat
தலைசிற
மின்னா
இராமாயண
உணவுகள்
காலத்தை
##லங்க
Mus
##ிலிக்
##ென்ஸ்
திசு
தியோ
பிரை
எழுதுக
முடித்து
முத்திரை
பேராசிரிய
மையத்தின்
ராஜஸ்தான்
குடியுரிமை
செயற்பாட்ட
பாடத்திட்ட
மதிப்பீட்டின்
##91
##ரயே
ஜவ
##புரீ
156
எஃகு
ராதா
பிராண
##க்காசிய
##ாட்சிக்
எண்ணம்
கோப்பு
யார்க்
தூண்கள்
மேலாளர்
விட்டம்
தமிழ்த்த
சடங்குகள்
விழாக்கள்
உரிமையாளர்
கொள்கின்றன
பூங்காவில்
Development
##co
##ஹெ
##த்ய
##vent
##ளோரோ
Mac
உளவு
##ாளரின்
Singh
இஸ்ரே
##மலையில்
##முறையின்
சபையில்
பின்புற
துர்க்கை
புற்றுநோ
காய்ச்சல்
பெண்களுக்க்
##ச்சல
பழை
##ences
##ப்பந்த
அகன்ற
குணம்
குழுவை
நுழைவா
##ப்படுவர்
நேரத்தை
மூர்த்த
பிரிவினை
##ப்பட்டுள்ள
தலைநகரமாக
##மிக
##ists
##ையாட
உமா
ரிய
##வித்த
##ington
அண்டை
பற்று
பண்டார
அடித்து
தேவைகளை
படமாக்க
தாக்கும்
பண்புகளை
பெறுவதற்கு
முக்கியமானது
பெரும்பாலானவை
Hol
Mat
மனோ
##வரைக்
Park
தட்டு
சிதைவு
பதினேழ
##கங்களில்
##ியலுக்க்
எட்வர்ட்
##rishnagiri
அறநிலையப்
சதவிகிதம்
பொதுநலவாய
##AD
##பாலா
##ரோன்
##ளவாக
##வியா
Are
spe
##தாக்க
பரிசை
காக்கும்
புலிகளின்
வலையமைப்பு
நடத்தப்படுகிறது
##riv
சதி
கோழி
##ண்ட்ஸ்
##பத்திர
ஒவ்வா
கடலோர
முகவர்
##ளித்தார்
காணாமல்
மகாராஷ்டிர
வடமேற்கில்
முதன்முறையாக
Fl
Li
##சைக்
விம
பிரமி
பூக்க
புத்து
செல்வது
பெண்களை
##ப்பகுதிய்
அடைகிறது
பெற்றுத்
செய்திகளை
நடிப்பில்
முழுவதுமாக
வரலாற்றின்
இலக்குகளைக்
கார்பனேட்டு
விளையாட்டுகள்
##குல
##ூரி
##ants
##rial
##தல்ல
##ீபன்
மன்
1896
டெர்
அணைக்க
தலைப்பு
மறுத்து
முடுக்க
மக்களிடம்
##ke
##நொ
நத
லட
உத்
##சித்த
ஜிம்
##டுவார்
##மர்த்த
கண்ணா
தொங்க
நெஞ்ச
அணிந்த
உரிமையை
போலந்து
கோரிக்கை
பாய்ந்து
மேற்பார்
இடம்பெயர்
குவாண்டம்
##த்திலிருந்த்
##93
{
Mo
##ழாய்
ஆலி
1903
நீங்க
மானிய
மேல்ப
ஜன்னிய
மூலங்கள்
ஆகியோரும்
பள்ளிவாசல்
##வைத
148
##iness
##ரைட்டு
times
குச்ச
புயல்
சோசலிச
##ரவர்த்தி
ஆளுநராக
ஒன்பதாம்
வீழ்ச்சி
##ுக்களுக்கு
அடிப்படைக்
இடைவெளியில்
இயற்றப்பட்ட
நடவடிக்கைகளில்
கொள்ளப்படுகிறது
ஃபை
கருண
செந்
அவரும்
பீட்டா
##ப்பையும்
நியமனம்
படைப்பு
மெசொப்பொ
விலகினார்
மலைத்தொடர்
பெற்றோர்கள்
நிறுவனமாகும்
பிரித்தெடுக்க
விழிப்புணர்வு
##ler
Sw
பள
##ounc
##வாரி
Can
எக்
கூடை
பாடு
காவிய
வாடகை
##ர்தலில்
Report
census
அளவைக்
உலகப்போ
நிரலாக்க
சங்ககாலப்
காலனித்துவ
தெலுங்கில்
ஆரம்பித்தது
##னிக
Po
##பெல்
Mal
der
man
##காலம்
##சியின்
##மாற்று
##றியும்
##ியாயம்
அரசிய
இறைவனை
எண்ணெய
பிலிப்
வெஸ்ட்
கட்சியை
காட்டப்
அமர்ந்து
ஊர்களில்
நினைவுச்
ஒப்படைக்க
கொழும்பில்
வெளிப்படைய்
எதிர்பார்த்த
பிராந்தியத்தில்
Ant
##ரேட்ட
##ரேஷன்
மெகா
புஷ்க
##க்கியம்
##ட்களின்
சரக்கு
Michael
ஆகியதால்
ஊடகங்கள்
செய்யுள்
நுண்ணுயிர்
போருக்குப்
##ப்படுவதுண்டு
செல்லும்போது
##ீப்
##னிங்
sub
##https
##வுண்ட
##வெளிய
அயல்
இழைய
ஒரேய
கெய்
ஜாக்
##ியாகச்
சுதேச
##ூட்டும்
##ப்படுவதை
பரிசோதன
விதிவில
பயன்பட்ட
தயாரித்த்
நோயாளிகள்
வெளிநாட்ட
##ஜு
AS
WW
##obal
##துரை
1902
இன்ட
இம்ப
கணம்
##ம்பலம்
அங்கா
ஏற்றி
சுக்க
மூச்ச
லிவர்
##ுக்களால்
அவ்வாறே
மலைகளில்
ஆராய்ந்து
ராஜேந்திர
சனிக்கிழமை
அனுமதிக்கிறது
##வல்லி
Aust
தின்
போதை
வாள்
அம்பா
சங்கு
##ாளம்மன்
தலைநகர
அவையாவன
##த்துக்கள்
##முடிகிறது
national
கூட்டிணை
தண்ணீரில்
இணையத்தில்
சர்ச்சைக்கு
விளக்கங்கள்
மட்டுமல்லாது
பிரித்தானியர்
##yan
##osoph
Paul
உண்ப
குல்
பாபு
ஸ்டே
ஆயுள்
##ங்களோடு
##வகையில்
Thomas
தலைமுற
காப்பிய
சல்பைடு
இலக்கியப்
பெருக்கல்
விமர்சனம்
##த்துக்குரிய
அளிக்கப்பட்டது
##EN
also
அசாத
வன்முற
##ந்துகொள்
கவனத்தை
வாங்கிய
சார்பின்
சொல்லுக்கு
பட்டியலிடப்
மேற்கொள்ளும்
##bs
##ப்க
kn
கெள
##ாமின்
##ளங்கள்
inter
இளஞ்ச
எழும்
##ளத்தின்
##ப்பிரிவு
##ரேஸ்வரர்
அளித்த்
பிரச்சார
##inc
##ship
##நூறு
##விய்
Jos
ஈரா
##ம்பம்
##வனின்
மார்ட
##டிகளில்
அகராதி
அத்திய
டிகிரி
##முனையில்
பதின்மூ
##நேரத்தில்
தலைசிறந்த
உலகக்கிண்ண
ஏற்படுத்திய
மெசொப்பொத்தே
பழங்குடியினர்
##ையல்
Day
##ாவைத்
புக்
வத்த
அம்மைய
தூக்கி
நியூஸ்
##ப்புகளின்
தோட்டங்கள்
விளையாடியது
கைப்பற்றினர்
சிவபெருமானின்
##ஷம்
Do
Red
Syn
##ொழில்
கையே
போதன
##ுள்ளது
##ொருவர்
தீபம்
அளிப்ப
எபிரேய
செட்டி
சித்தர்
குறையும்
குழாய்கள்
நவராத்திரி
விரிவாக்கம்
உயர்நீதிமன்ற
##aper
##ானவை
##ூறிய
##ுதீன்
##ுவிடும்
Econom
இவர்களை
பாதுகாவ
இளையராஜா
எட்டாவது
மாணவர்கள
மேம்பாடு
கார்பாக்ச
கொடுத்தது
என்பனவாகும்
அமைப்புகளின்
அடையாளப்படுத்த
##res
##ாற்ற
போர
##மாகாண
அமைத
வேளை
##மைப்பை
அலைநீ
பாகவத
கலிங்க
தந்திர
நெப்போ
பிடாரி
வந்தத்
முப்பது
குலோத்து
சரணாலயம்
தன்னார்வ
லண்டனில்
காந்தாரம்
பாண்டியர்
அறிக்கையில்
வெளிப்படும்
Di
##பாசு
கமி
##வதைக்
ஜோர்
பைசா
North
அவதார
##ளைகளில்
Associ
அண்மைய
குத்து
சாந்தி
நோயின்
மணிமேக
ஆதாரமாக
சமர்ப்ப
பிரிக்கல்
வணிகர்கள்
வெளியிடப்
கட்டுரைகளை
வயதிற்குட்பட்ட
##்கி
##லிக்
##ாமம்
##ental
1880
Life
அட்ச
##க்குளம்
அவரைப்
கவுண்ட
அமர்ந்த
நேபாளம்
மனைவிய்
சித்தூர்
நீதிபதிய்
பிலிம்பேர்
தோற்றத்தில்
கண்டுபிடிப்பு
##தரா
##த்ச
##லித
##வோர்
##ொன்றை
Educ
மானிட
##ப்பந்து
##ுதல்கள்
நைட்ரோ
வேட்டை
##ப்புக்க்
Edition
கீழுள்ள
நாயனார்
பிரஞ்சு
முகலாயப்
பதினாறாம்
இயக்கவியல்
##vi
##ones
##பக்க
Kal
##ிட்ட்
##ேயின்
காது
மறைவ
செங்கி
கார்ட்ட
குடிமக்க
பிரதிகள்
திருகோணமலை
##OR
##200
##தென
Law
நுண்ம
இணையம்
ஊடுருவ
தர்க்க
அதேவேளை
இச்சொல்
செய்தவர்
பின்வருவ
வடிவத்தை
சல்பேட்டு
நடத்தினர்
வங்கியின்
முப்பரிமாண
நிலைநிறுத்த
##மேடு
See
1899
##ல்குடி
உபநிட
நீர்வீ
சேமிக்க
பேரியம்
ஈரப்பதம்
லிமிடெட்
அமைச்சகம்
நெருக்கமான
ஆட்சியாளர்கள்
##ம்பை
PDF
##முருக
##ராயர்
##ாவரம்
##ுதியான
பட்டா
பிணைய
மெட்ட
ஆர்தர்
ஆற்றிய
கனிமம்
இந்நோய்
கதையின்
சென்றால்
செவ்வாய்
பண்பாட்ட
மேம்பாட்ட
குறைக்கும்
மிகப்பெரும்
##ப்படுத்தினார்
பேசுகின்றனர்
இருக்கின்றனர்
##arm
##ird
##லகை
##ீத்
##umar
data
##ற்றுக்
Elect
பறக்க
அரசினர்
நீதிக்க
அழைக்கிறார்கள்
எம
##றுக்க
##ச்சாலை
இராணி
என்னை
பியர்
மீட்ப
##ofindia
சிட்னி
நோயால்
அறையில்
நிலைத்த
##ப்பட்டவர்
படையினர்
கட்டுப்பா
பள்ளியின்
பிடித்தது
ஒருவருக்கு
கைலாசநாதர்
விண்மீன்கள்
##ean
##த்தக
##ந்தே
##லையை
Sir
கைக
##tment
##ளாகக்
blog
பிர்
இசையை
கேட்ப
புலனா
##வற்றைக்
கடைகள்
நமக்கு
ரேடிய்
ஏற்றார்
தெருக்க
தேவர்கள்
பின்னரும்
வரும்போது
கொள்வதற்க்
பொறுப்பில்
குளிர்காலத்தில்
பாதுகாக்கப்பட்ட
##ows
##போன
##மண்
##்தக
Te
மச
##வ்ஸ்
சாப
சூர
##right
##ம்சம்
##ராவதி
Serv
வலம்
##ிகுளம்
ஒடிசா
பவானி
அணியும்
நீர்க்க
##ிக்கொண்ட்
கீழ்வரும்
சட்டத்தில்
தோல்வியுற்ற
பாகிஸ்தானின்
##ulf
##irect
##மித்த
கோகோ
பாலு
Books
ஐசோடோ
##டுகளைய்
பொதுக்
நாற்பது
பாளையம்
உப்புகள்
புத்தரின்
கொண்டவையாக
நிலங்களில்
வரலாற்றுக்
பிரிவுகளைக்
திருப்பத்தூர்
##ama
##ையக
##க்கட
##ராவர்
##வெள்ள
தடகள
தேரோ
##ந்திரா
##ளித்து
ஓசோன்
திருவு
##ச்சியார்
கம்போடிய
நூல்களின்
விபத்தில்
சிறுவர்கள்
பின்னணியில்
புழக்கத்தில்
##னஸ்
fl
##ப்பல்
##ாம்பு
அமுத
இவா்
கனவு
மகாச
##ாக்சைடு
மொழிக்
##ிருத்தல்
மதிப்பை
ஒளிப்பதிவ
வருடாந்திர
வாழ்ந்தார்
வெளியீட்டு
சுற்றுச்சூழ
நிகழ்ச்சியின்
அடைக
கமல்
சுமே
தும்
வரவ்
##ம்தான்
##்களால்
கடக்க
குடல்
போர்வ
மௌரிய
##ர்ச்சிய
இலையுத
##ாரியம்மன்
ஆய்வுகளை
இடமாகும்
புரோமைடு
கற்பித்தல்
தென்கிழக்கில்
எக
##info
##டார்
##னீசு
##ிகாச
##வாளர்
Summ
காண்
அக்னி
ஆல்பா
ஊடகம்
##ிக்கில்
இடைக்க
##ாக்களின்
Government
ஒருவராவார்
நாடுகளுக்க்
நிலப்பரப்பில்
குழந்தைகளுக்க்
ஏற்படுத்துகிறது
##பென்
##ர்ஜி
நிச
##ந்தத்
##ைட்டு
குழி
ஸ்டா
கருது
தனிமம்
செய்யத்
சொல்லான
பிரிவின
ஈடுபடும்
கேட்கும்
தெருவில்
முன்மொழி
உள்ளடக்கி
கட்டினார்
கேரளாவின்
வகுப்புகள்
வளர்ந்தார்
மாநிலத்திலுள்ள
தட்சிணாமூர்த்தி
##லகு
Fe
##ராகச்
விடை
##ந்துவி
##லன்கள்
Lanka
இலும்
உச்சி
சந்தன
##ச்சொல்ல
பல்வகை
அமைத்தார்
உதவியாளர்
திரையரங்க
வாழ்ந்தனர்
விருதையும்
பிரதிநிதிய்
கூட்டமைப்பின்
இந்தோனேசியாவின்
##ude
##ule
pg
##ூதர்
##ments
இரும
ஊற்ற
##ால்கள்
டிராக
##usiness
##மாக்கல்
காட்ட்
சிறுகோ
திராட்ச
பெருஞ்ச
செயல்களை
விழுந்து
##ுகளுக்குப்
நிலவுகிறது
##துர
##ீசு
##iron
##oday
Ann
##ாட்டா
main
##றிந்து
எறும்
மிகத்
##ிகளிடம்
தயாராக
இருமுறை
காரணமான
இருக்கிற
கட்டிடக்
காற்றின்
நாட்டார்
நாட்டுத்
வானியற்ப
அதிகாரியாக
##ிக்கப்பட்டனர்
அலெக்சாண்டர்
##aka
##ஞ்ஞ
##ator
##ஜியா
##ரீன்
137
dec
ஆலோச
செடி
டச்ச
புடை
Great
அருணா
கருவற
கவுன்
இண்டர்
ஏமாற்ற
##ரியாவின்
அயோடின்
வாழ்த்த
இம்மாநில
விலையில்
பங்கேற்று
முக்கியக்
கார்த்திக்
நைட்ரேட்டு
பெரும்பகுத
பாதுகாக்கும்
##iya
##ண்டெ
##மைன்
ஆசு
டர்
##ating
தடைய
நறுமண
Malays
சனநாயக
சிவாலய
தஞ்சாவ
தனியான
வீடியோ
படங்களை
##மில்லாமல்
சமச்சீர்
வழிபட்டு
அமைக்கும்
நூல்களைய்
எலும்புகள்
அடிவாரத்தில்
##yal
##ரோக
##னிய்
பகா
வசூல
##வினால்
ஆளுமை
இனத்த
கணவன்
மிருக
தாத்தா
மரியாத
மூக்கு
காட்டிய
சக்கரம்
நிபுணர்
வாக்கில்
##ப்பொழுதும்
##ிருந்ததால்
இளைஞர்கள்
வழித்தோன்ற
சூழ்நிலையில்
வழங்கப்பட்டன
##ade
##ோனி
##சிசி
##ண்டே
147
##சியன்
##மாற்றி
##ுகொள்ள
அதிசய
அரசில்
போற்றி
##மையாகும்
அமைந்தன
காரைக்க
துவங்கி
அமைப்பாக
அணுகுமுறை
இணைத்துக்
கருதினார்
பொதுவாகப்
குறிக்கோள்
பிரதிநிதிகள்
வளர்ச்சிக்க்
##OL
வீண
##ிப்போ
கல்ப
மீறி
புலமை
review
ஆர்க்க
##lections
##மெத்தில்
நவக்கிர
தேர்வில்
##ந்துகொண்டு
உருவங்கள்
சமயத்தின்
திருப்பதி
தற்காலிகம்
படையெடுப்பு
திருவிதாங்கூர்
##aff
Val
High
தீட்ட
நீலம்
ஆனந்த்
website
திருஞான
நுட்பம்
பிரபஞ்ச
மரியாதை
காலையில்
##த்திற்குக்
##ைகளுக்குப்
ஊட்டச்சத்து
ஒப்பிடும்போது
##ீட
##ote
##பெர்
##வர்டு
செரி
தினக
ஹாட்
சம்பா
நிற்ப
##டுவதில்
##ப்பதற்க
கோல்ட்
##சுந்தரம்
மேற்படி
விடவும்
அலங்கரிக்க
கண்டறிந்து
புள்ளியில்
##ோவ்
##ண்ணை
met
அலா
##ிவாய்
பொய்
காரணி
முதற்
மெத்த
##ல்கலைக்க
உறவுகள்
நகரியம்
வழிமுறை
களஞ்சியம்
##ப்பொருள்கள்
அறிவியலில்
பார்வையில்
பெயர்பெற்ற
தமிழர்களின்
நிகழ்ச்சியை
##oo
##ta
##ாதேவி
நாகா
##ியாகவே
சேதம்
திசைய
வசூல்
சிறுகத
வணங்கி
இறைவனின்
ஒளியியல்
பெயரிடப்
போட்டியை
சண்டையில்
யுரேனியம்
காணப்பட்டன
தங்களுக்கு
மின்னஞ்சல்
அறியப்படுகின்றன
##gram
##ரசின்
1895
இவைய
##செய்து
##னால்ட்
##ஸ்கார்
கலைக்
மன்னா
Histor
இயேசுவ
நுழைவு
##ச்சியில்
தோன்றின
நதியின்
இசைக்கலை
சேர்க்கை
அடங்குவர்
அறிமுகமான
சகோதரிகள்
பரிவர்த்த
எழுத்துகள்
கட்டமைப்பை
தெய்வங்கள்
நிலவரப்படி
அமைப்புக்கள்
சிலப்பதிகாரம்
##்துற
வாள
##மாதிர
##ர்ணமி
##ாரில்
1889
நற்ப
வாட்
சமயக்
நாகரீ
வறுமை
விவாக
##ைக்குக்
system
திருவர
நகரத்த்
பாதைகள்
நீடித்தது
வாகையாளர்
இணைப்புகள்
இயக்கங்கள்
##ப்படுத்துதல்
ஆக்சிசனேற்றம்
##ump
##நாள
138
Hen
San
அவி
ஆடம்
கடைய
வழிய
##ள்ளனர்
Inter
அனுராத
அமுக்க
கார்போ
சமாதான
சென்ட்
சொல்லை
நற்கரு
அந்தந்த
சாகித்ய
அமோனியம்
பாலிவுட்
பதினான்கு
முக்கியத்
முடிவுகளை
மேற்பார்வ
பிலிப்பீன்
எண்ணிக்கையை
மின்னோட்டம்
செயல்பட்டார்
கட்டுப்பாடுகள்
→
##cept
out
படக
##ப்பாள
தத்த
##ங்கோடு
மக்கா
ஹோட்ட
எத்தனை
தானாகவே
வந்தவர்
##த்தன்மையை
தெரிவித்த
ஆட்சியாளர்
ஊராட்சிகள்
af
##மூர்
Bra
##ersey
##ியலாள
1857
பசுவ
வீரக
##ூட்டம்
குர்த
கடைபிட
கட்டும்
பணக்கார
இதற்குப்
நீரிழிவு
தளங்களில்
நிலைநாட்ட
அவருக்குப்
நிகழ்வுகளை
வெளியிடப்பட்டன
##ih
நூல
லால்
பெண்ணை
வெட்டு
ஆபத்தான
பல்லுறு
நிலைப்பு
##ூட்டப்பட்ட
அடித்தார்
மொழியாகும்
குறிக்கின்றது
தெரிவிக்கிறது
நம்புகின்றனர்
விரிவுரையாளர்
##றா
##ony
##சால்
101
BBC
act
ஆச்ச
நீள்வ
வாயுவ
##ச்செய்த
Indust
மார்பக
Richard
இயக்குன
தரிசனம்
விபத்து
முறையைப்
இரண்டாவத்
தீர்மானம்
வார்டுகள்
சட்டமன்றம்
பிரான்சில்
கண்டுபிடித்து
பட்டுக்கோட்டை
ஆஸ்திரேலியாவில்
##kn
##wn
##க்தி
eng
rec
தரத்
நல்க
##ப்பாறை
அம்பு
சத்து
நெய்த
ஹவுஸ்
அம்சம்
படைவீர
மாதவிட
##ப்படுபவர்
அரங்கில்
இழந்தார்
இன்றளவும்
இலக்குகளை
கோட்பாட்டு
நிலப்பரப்பு
##சுக்
##ந்தக
Ger
mon
##வனும்
##ிறக்க
குமர
செமீ
ப்ளூ
ஹான்
குரங்க
பங்குத
வில்லை
##ட்சியும்
இதற்குக்
ஒன்றியப்
யூதர்கள்
கோட்டையின்
மதிப்பிடப்
மாற்றினார்
கட்டப்பட்டு
தாழ்த்தப்பட்ட
##oot
##ெக்
##லெட்
Nat
##ather
தண்டன
போர்ட
##ப்பானது
அளவுகோ
கையால்
சக்திய்
வாழ்வின்
இந்தியாவை
திரும்பப்
தயாரிக்கல்
படைப்புகளை
இருவருக்கும்
உதாரணத்திற்கு
வித்தியாசத்தில்
Gr
##ய்யா
உல்
##ஜியம்
1897
தேவ்
மாவு
##ால்தான்
மற்றைய
British
கவனிக்க
கால்வாய
சேதுபதி
திருமதி
பாராட்டி
மாற்றிக்
வெற்றியை
கருணாநிதி
உண்டாக்கும்
மன்னர்களின்
மாநிலங்களின்
சுற்றுப்பயணம்
##dom
##iff
##ிகர
Ma
##sych
##சாரா
##சிட்ட
##ாலில்
ஏக்க
கெல்
##ctions
##ஞ்சேரி
அள்ளி
ஈராக்
எல்லோ
குப்ப
சீனப்
பாபநா
வளமான
##ங்கொண்ட
Jersey
விடுதி
சக்தியை
அமைதியான
பேரரசில்
வழிபாட்ட
நடத்தியது
அலுவலகங்கள்
கணிதவியலாளர்
கொள்கின்றனர்
தொடர்புடையது
இருக்கக்கூடும்
விளையாட்டுகளில்
##ena
Of
##ன்றே
##வையே
சரோ
##eries
அம்பல
இக்கூ
இக்கட்ட
அடுத்தத்
இரண்டுமே
மட்பாண்ட
indiatimes
வரவேற்பைப்
செய்துகொண்ட
தொலைக்காட்ச
போராட்டங்கள்
தொலைத்தொடர்பு
5000
##ச்சில்
##ர்குடி
அதைக்
துணைப்
##ிருந்தது
##்களுக்க்
மந்திரி
விரிகுட
தன்னிச்ச
##ப்பகுதிகள்
கலக்கிறது
##வனை
##ivil
ஒய்
சாரண
சுக்
##ணையில்
##த்திலோ
Academ
எங்கள்
சப்பான
தைவதம்
##ப்பட்டவை
சாத்திர
டேனியல்
வந்தான்
சாதாரணமாக
நடைபெற்றன
தீர்மானிக்க
மருத்துவத்தில்
ஆரம்பிக்கப்பட்ட
`
NO
##நலம்
##மணம்
அமி
உட்
தகை
##மாண்ட
##ுறும்
பாபா
##ின்படி
##ுவதைக்
ஆலோசக
##நாடுகள்
கலாசார
போர்க்
##ர்கோயில்
பெயரைப்
விண்வெள
மத்திமம்
குறியீட்ட
இத்திட்டம்
இருப்பதைக்
பதிப்புகள்
அரண்மனையில்
ஒன்றியங்கள்
தாவரங்களின்
முற்காலத்தில்
##ெரி
Ak
SO
##டிஸ்
##வாடா
##ாலஜி
her
ஒரி
##apter
##தாகவ்
ஞாயி
தற்ச
##ய்யும்
##ல்லூரி
story
அதைச்
அன்னா
பட்டய
##ந்திரன்
##ல்லாமல்
System
இளவரசி
திடீர்
நிலைமை
போட்டு
அசாதாரண
கலப்பின
கவுண்டி
பதினாறு
இனங்களில்
அதிகரித்த்
இதற்கிடையில்
ஆங்கிலேயர்கள்
எனப்படுகின்றது
##ழிவ
கனி
##ங்களாகக்
##ரத்தினம்
போரிட்ட
வைத்தது
தூய்மையான
##த்திற்குரிய
##ிக்கொள்ளும்
பாக்டீரியா
விளைவிக்கும்
##தய
##ava
##நேய
##esis
##வேலு
##ஷ்டி
min
sci
ஒப்
கரண
கைத
நிகோ
பகிர
அகமதா
தானம்
வியாப
இதிகாச
ஏரிகள்
விழும்
வேங்கட
உடன்பிற
பல்கலைக
யுனைடெட்
##வியலாளர்கள்
அனைவரையும்
சிம்பாப்வே
பிரபலமானது
சுற்றுப்பயண
தாக்குதலில்
முயற்சியால்
மாதங்களுக்கு
அமைக்கப்பட்டு
IN
ஊக
##மேஷ்
##ுகம்
##ருவம்
##ிப்பா
கேர்
##மாறும்
இணக்க
உயர்க
வாதம்
முதற்ப
ஸ்மித்
தெய்வீக
##ப்படுவார்
##ாளர்களில்
ஒன்றாகக்
அறிவிப்பு
இருப்பின்
இளங்கலைப்
வினைபுரிய
வெளியிடும்
குடும்பத்தை
வருகின்றார்
##ணைய
##ible
வவு
##புறம்
##போர்ட
ரோஸ்
##தங்கள்
மலையே
##ல்பட்டு
##ையர்கள்
இவரால்
மலபார்
ஊருக்கு
##ன்களுக்கு
##கட்டத்தில்
துண்டுகள்
மகாபாரதம்
நெட்வொர்க்
பாடல்களைப்
தனித்தனியாக
பிரிக்கப்பட்ட
sec
யாவ
##சுடன்
##ராயன்
ப்ரோ
அவனுடைய
பன்னிரு
வெப்பமான
இப்படத்தை
போன்றவையும்
முழுவதையும்
தெரிவித்தனர்
##கொ
##ரேச
கவச
##பரில்
Hill
have
டில்
பவர்
பேரு
வஞ்ச
வேலு
குருவ
பலவகை
வளைவு
அராபிய
ஒருங்க
புராதன
வெண்கல
சூறாவளி
இந்திரன்
கட்சியைச்
கணிதவியல்
சூரியனின்
கருத்துப்படி
##aras
##ம்பழ
##ிகல்
நக்க
ஸ்டூ
##டிகைடு
##லாவின்
நிழல்
திருவெ
வழிகள்
உறவினர்
நோக்கிச்
administr
என்பவரும்
அமிலத்தின்
உலகக்கோப்பை
மைதானத்தில்
கூறப்படுகின்றது
##me
##ices
ஓரு
டைக
##ளானது
##ஸ்வரி
வசம்
உருகு
சாண்ட
##ுகொண்டு
கூகிள்
தங்கும்
நிலையாக
நுணுக்க
பம்பாய்
விளிம்பு
வீழ்ச்சிய
வேண்டுமென
என்கின்றனர்
துவங்கினார்
பெரும்பான்மையாக
##ati
##ுதே
##நெறி
##ுவாத
360
Town
ஜீன்
பன்றி
புரிக
ஆண்டிம
##ந்தோறும்
Charles
அமைத்த்
கதையில்
கோல்டன்
தெரியாமல்
பின்வாங்க
Britannica
பார்த்தால்
குழந்தையின்
ஜெர்மனியில்
பெறப்படுகிறது
##ura
##etic
##ுகால
116
How
##வரில்
கேலி
தாஸ்
நடுக
மாரி
##ியக்கம்
cinema
கரைசல்
சென்ற்
மொழித்
எதையும்
செருமனி
நன்னூல்
காட்டுப்
சுவர்கள்
பிரிட்டன்
வாய்ந்தது
எப்பொழுதும்
தாக்குதல்கள்
##urch
##மாதி
tnm
புட
லேச
திறன
நாடி
ரூபா
##நகரில்
##மியில்
கல்லற
நெகிழ
மரக்க
Online
பட்டின
தாலுக்க
போர்ச்ச
எசுப்பான
தரப்பட்ட
##த்துக்குச்
குழந்தைப்
கேரளாவில்
சம்பந்தம்
நடிகைக்க்
##த்துக்கொண்ட
பிடித்தார்
அணுகப்பட்டது
பகுதிகளுக்க்
பெருங்கடலில்
வளிமண்டலத்தில்
##hm
##ரச்
##ility
##ையாய்
எங்க
காஸ்
##வார்ட்
##ார்ட்ட
##ீர்கள்
##்களைப்
##ிக்குக்
திரவம்
தென்னை
பிரின்
இதனுடன்
கழுத்து
பற்றிப்
விருதினை
தனித்தனிய
படைத்துறை
மதிப்பில்
கோட்டையில்
திட்டமிடல்
இருப்பதாகக்
##wo
##arn
##னிவ
##ய்ன்
ஜெக
வரவ
##ந்தனை
##ேஸ்வரி
துறவற
புக்க
பூந்த
குங்கு
பெயரான
வித்யா
##பட்டினம்
மத்தேயு
ஹோட்டல்
##க்கூடியவை
சிற்றூர்
கல்வியறிவ
மாதிரியான
தெரிவித்தது
வேறுபடுகின்றன
பொறுப்பேற்றார்
##ky
##ayan
##ஃபர்
##சேரி
##மைவு
##ாவதி
பாசி
##ுறிப்ப
##க்கோட்ட
##டுக்கம்
சரணாலய
வணிகப்
##ிருஷ்ணன்
content
ஒரேயொரு
சிதம்பர
நன்னீர்
ஏற்பட்டன
சாமுவேல்
முறைக்கு
வினைக்கு
குறைகிறது
வகுப்பில்
இருப்பிடம்
##ப்படுத்தியது
இராகங்களில்
பற்றாக்குறை
செயற்பாடுகள்
My
##ஜென்
உலா
ஜர்
stud
பற்ப
மாயா
மூடி
##மானின்
கிளப்
குலம்
ரோமன்
##பதியின்
அரிதாக
நாயகன்
பகவான்
மொழிப்
விளைய்
##த்தொழில்
##ப்பிரகாச
இதுதான்
வெண்ணிற
தனிப்பாட
##த்துக்குத்
கண்காணிப்பு
ஒப்பந்தத்தில்
குறைந்தபட்சம்
##ெம்
##ாயுத
##ெண்க
Ast
1888
Russ
லின்
அழிவு
##ற்றுக்க
##லாசிரிய
##ைக்குப்
தமக்கு
##கிரியில்
பலவிதம்
விதிமுற
##roduction
தொடக்கக்
வீதியில்
எடுத்துரை
செலுத்திய
தொன்மையான
மிகச்சிறிய
வடிவமைப்பில்
##மாய
##ூக்
ஜாக
பர்மா
அரிதான
நினைவக
##ப்படுதல்
##முடியாது
கோள்கள்
தணிக்கை
தன்மைய்
காப்பீடு
சாகித்திய
வாரத்தில்
அமைப்புகளை
சிங்கப்பூரின்
##பள
##ரக்
Kn
ஜய
##ர்டே
sup
##ம்பல்
மதிய
##ினுடைய
அணியை
மாரடை
##ிருவிழா
இப்பெய
இமயமலை
ஏதுவாக
படுகொல
எழுச்சி
கொஞ்சம்
வழிநடத்த
வாரங்கள்
வளர்ந்தது
புதினங்கள்
வெளிப்பாடு
பல்வேறுபட்ட
வைத்திருக்க
நச்சுத்தன்மை
பயன்படுத்திய்
##agar
##ரேஷ்
##வரலா
சமி
##ister
##மானவை
மிமீ
மோதல்
விற்ற
Temple
சஞ்சிக
செயலர்
திருமே
நீச்சல்
கோட்டையை
சொல்லில்
நாகரிகம்
##த்தில்தான்
சாத்தியம்
கண்டத்தில்
பாலசுப்பிரமண
வாடிக்கையாளர்
##்தல்
app
தாத
புள
##பென்ச
##வதற்க
கவனி
சமம்
##urrent
##டுவதன்
##த்தியோ
##ிக்கம்
சர்மா
Island
கையெழு
கோயிலை
சமூகப்
கல்விக்
திருநாவ
வெள்ளம்
களத்தில்
சேவையில்
கண்டிப்பாக
சென்னையின்
குறைபாடுகள்
இந்தியாவிற்கு
em
ஏர
##ன்ஸ்ட
##பாட்டு
கார்க
எல்லைப்
தொடரும்
லத்தீன்
பிரான்சிய
Technology
இடம்பெற்றன
ஈடுபட்டனர்
குழந்தைகளை
சிங்கப்பூரில்
நோயாளிகளுக்கு
##ros
##iles
##rich
##மைத்
##வாக்
##தாகப்
##ுவட்ட
அசைவ
கர்ண
டிரா
பேரி
நவாப்
வட்டி
விசைய
##த்தமிழ்
ஒன்பத்
கலந்த்
##செய்யும்
##ிக்குரிய
தற்போத்
விரைவான
இராமசாமி
இலக்குகள்
பெட்டிகள்
மேற்கூறிய
கட்டுமானம்
ஆகியவற்றையும்
போர்த்துகீசிய
##vu
##aik
##era
##மன்ன
இயை
ஊசி
படல
Pers
##ஞ்சித்
##ள்ளும்
##ித்தால்
tnmaps
சகாப்த
தகவல்த
மூச்சு
மெட்ரா
லூக்கா
வெவ்வே
பஞ்சமம்
புல்வெள
பெரிதாக
##நிலைகளில்
##த்துக்கொள்ள
இக்கிராமம்
நாடகத்தில்
புலம்பெயர்
வற்புறுத்த
வேதிப்பொரு
மறுசீரமைப்பு
இசுலாமியர்கள்
##uz
##aya
##வைய
##திக்
Mor
அரண
பறை
##ennai
எக்க
கௌதம
தாலி
பதிய
இதயம்
மசூதி
ராமர்
Europe
archive
நிறுவப்
கல்விக்க
பொருத்து
முதலாவத்
வனவிலங்கு
அடுத்தபடியாக
ஆஸ்திரேலியாவின்
##The
##uld
##வாட
##நிறை
##னுள்
240
Sal
who
கணி
சமத
தாழ
லென
##itage
##ெயின்
1893
அரசி
ஆக்ஸ்
##artment
##ன்களைக்
பின்தொ
மூன்ற்
வளைகுட
வளையம்
அடுத்த்
ஒத்திசை
ஜான்சன்
பள்ளிப்
வேதாந்த
செய்தான்
மின்னணுவ
பதினேழாம்
முதிர்ந்த
காங்கிரசின்
முன்னோடியாக
குழந்தைகளில்
##86
##CC
##பர்ட
##யிரி
Sol
##றிக்க
##ென்ற்
##னியும்
Relig
தங்கப்
திகில்
தூய்மை
Studies
அசிட்டிக்
அறிவியலாளர்
இருந்தபோதும்
இணைக்கப்பட்டு
பத்திரிகைகளில்
##lex
##லுமி
##ிகால
##ென்ப
இலி
Budd
Vill
book
கெர்
பற்க
பேசு
##ம்பெரு
##லினால்
கம்பி
ரெட்ட
கணிக்க
நீக்கி
என்பார்
எண்களின்
ஒவ்வொன்ற
திறமையான
தொடக்கப்
இந்தியில்
கோடைக்கால
அரசுத்தலைவர்
இந்தியாவுக்கு
இருக்கவேண்டும்
β
##oman
Des
##viron
##ிப்ப்
1882
புறா
வாணி
##டைந்த்
##யாகும்
##ியாகிய
பாய்ம
முதலே
கானின்
பிறக்க
மறைமுக
வடிநில
பிரிந்த
காப்பகம்
மறுத்துவ
கண்டெடுக்க
நாட்டிற்கு
பஞ்சாயத்து
பள்ளத்தாக்கில்
##க்த
Er
##வூர்
ஆபி
சமை
1860
acid
ஆக்ட
கிர்
புகு
##புளோரோ
##ராவில்
##ளோரைடு
state
குவிய
கூத்த
சைமன்
விக்ர
ஆயுதம்
இசுக்க
எல்லையாக
கொள்ளவும்
பிடிக்கும்
##ாரண்
கடன
##ட்ஜம்
1200
1892
அரச்
##ட்டூர்
காணப்
பட்டி
பயனாக
விழாவ
துண்டு
அயோடைடு
தந்தார்
திருவிள
இலண்டனில்
உலகத்தில்
கட்டுமானப்
வகைப்பாட்ட
இத்தாலியின்
மாற்றப்பட்டு
நினைவுச்சின்ன
##பது
##பிள
##ாகா
##ுறா
Ke
##rain
Rec
##வேகம்
Mart
சாங்
டிரி
##வியலாள
அகச்ச
உள்ள்
பேரன்
முடிக
வைகான
இராமர்
மரபணுவ
ரப்பர்
உடையார்
கிறிஸ்ட
சிங்கம்
தாங்கிய
யுனைட்ட
உயர்ந்து
உயிரினம்
சாஸ்திரி
பங்குகளை
மன்னரின்
பெயராகும்
##செய்யப்பட்ட
குழுமத்தின்
கூறப்பட்டது
என்னவென்றால்
விவரிக்கிறது
அறியப்பட்டார்
##யை
##னிம
##ூடு
##மோர்
Mer
dev
மடி
##வுடைய
ஆளுக
ஐப்ப
நிகர
பினா
மாக்
மிளக
##ouncil
##ஷ்டிரா
சிம்ம
கும்பா
மொழிச்
##ருமாவார்
##ிருப்பதை
சான்றாக
விக்ரம்
இராணுவப்
நினைத்து
பாபநாசம்
சூட்டப்பட்டது
##ians
Spe
##ித்தொ
சீதா
டெக்
பிச்ச
முயல்
##தார்த்த
உணவில்
ஒளிக்க
கூட்ட்
சுயசரி
வகைகளை
Austral
Central
General
தினகரன்
இன்றுவரை
சென்னைய்
வழக்குரை
எதிர்பாராத
Information
படையெடுத்து
புலவர்களில்
உயிர்ச்சத்து
##ஷே
##முய
##பியூ
##விஸ்
Ber
##ரத்து
##ாடும்
##ீட்டை
1891
ஆத்ம
உலாவ
கொல்
சியோ
மெல்
இணங்க
நற்றி
பக்கவ
School
இன்டர்
திறம்ப
படிகள்
##ப்படுபவை
அறியும்
சட்டவிர
சாம்ராஜ்
திரிபுரா
பதினைந்து
##ப்பகுதியின்
அமெரிக்கத்
அவர்களிடம்
இருக்கின்ற
ராமகிருஷ்ண
மனிதர்களின்
ஆட்டமிழந்தார்
கணக்கெடுப்பில்
கிழக்கிந்தியக்
##iet
மெல
1870
Mark
இழுவ
சுயா
பூனை
##மென்ட்
ஆசிரம
##ல்களைப்
இச்செய
எசுத்த
முரண்ப
ஸ்டேட்
வெற்றிட
##ங்கரையில்
துத்தநாக
விருத்தி
தருகின்றன
நிகழ்வில்
குறிப்பதாகும்
விளங்குகின்றன
##bl
##ினு
##ானத்
##ூக்க
par
கேட
யார
##துகள்
அலகா
சாகச
China
Peter
##மையாகப்
##விட்டது
Secret
சட்டக்
கையொப்ப
பிரெஞ்ச
கருவிகளை
காலத்திய
இந்நூலின்
குளிர்ந்த
பின்வருவன
மாதத்தின்
உள்ளவர்கள்
விளக்குகள்
மரணமடைந்தார்
காட்சிப்படுத்த
##EC
##னாவ
##வடி
gl
லொ
அவா
கோக
டிச
##ாசியா
1884
1894
அஷ்ட
புரொ
ஆறும்
எவ்வா
நூலான
மயக்க
##டிகளின்
##மாக்கம்
##ளவுக்கு
அடையல்
அவரைத்
இறுக்க
அனைத்தி
நேரியல்
படையில்
கணினிகள்
ஜெயலலிதா
மாறினார்
பயன்பட்டது
வானொலியில்
Association
ஆத்திரேலியா
இத்தலத்தில்
பாரம்பரியமாக
வாழ்க்கையைத்
##புத்
##பேசி
##்கூட
##கத்த்
##ாவாசை
##ுதலாக
##ல்பூர்
பொலிவ
வசனம்
##ைகளாகப்
பற்கள்
கட்டடம்
புனிதர்
ஆப்கானிய
இக்குழுவ
பதவிக்கு
போட்டித்
##த்துக்குக்
செயற்கைய்
மாற்றத்தை
ஆட்டமிழக்க
சென்னைக்கு
புராணங்கள்
செல்கின்றனர்
தொடர்புபடுத்த
##ka
##பின
##தாரி
##னாய்
##ஹான்
சிபி
சோனி
நீரூ
பல்ப
First
ஆவணம்
மூட்ட
கணவாய்
கரிமச்
மக்கட்
மறுத்த
##னுக்குப்
போர்கள்
மகள்கள்
உணர்ச்சி
நோயெதிர்
வாஷிங்டன்
இசையமைத்த்
புத்தகங்களை
வருடத்திற்கு
நட்சத்திரங்கள்
##IA
##ோக்
##சும்
From
கிப்
நியு
பலதர
போரை
##ிக்கக்
##ொடர்பு
கிலோக
சிலுவ
வகைப்
இலவசமாக
திசையன்
தொடுத்த
புதைக்க
இறையியல்
என்கிறது
துவங்கிய
தேவையற்ற
பரிந்துர
பிராங்க்
மதிப்பிட
வகைப்பாடு
தெரிவித்து
ஆகியவற்றிற்கு
பாத்திரங்களில்
##னூ
##ats
##ரவை
##over
##டைப்
##புக்
##மிங்
##ஹாம்
##ேசரி
குய
##வேதிய
பென்ன
மூலமே
##ருகிறார்
ஏரியில்
திடீரென
நாட்டிய
பங்குச்
மறுநாள்
உயிர்க்க
புரியும்
வலைத்தளம்
படையெடுத்த
அனைத்திந்திய
சுப்பிரமணியர்
##vey
##ster
##ேடிய
##ality
##ப்போக
##ிகுடா
##ம்பாள்
பெக்க
விடக்
##மருதூர்
இத்தொட
பண்டிக
##ப்போக்கு
பிறந்தது
முக்கோணம்
இல்லத்தில்
விளைபொருள்
இத்தாலியில்
உயிரினங்களின்
உருவாக்குவதற்க்
விந
##azine
1887
Inor
மெட்
டெக்ச
பாதிர
பீடம்
##ந்தரின்
Review
தாக்கிய
Handbook
உருமாற்ற
கரைசலில்
பணிபுரிக
முதலிடம்
உயர்ந்தது
கிரேக்கம்
சிகிச்சைய
நிதியுதவி
வழக்குகள்
கருத்தியல்
##PA
##enz
##osph
##ீசல்
tem
##டானது
1885
##வாழ்வு
உத்தம
கலைப்
##மையுடைய
##ற்றுகள்
ஊதியம்
நாடார்
பின்னோ
மார்பு
வேலையை
##க்கொண்டு
பெரியது
##ுவருகிறது
அட்டைகள்
ஏற்றவாறு
சிவலிங்க
ஒதுக்கீடு
அதிகாரத்தை
அமைப்பானது
##ப்படவேண்டும்
இயங்குகின்றன
பத்திரிகையில்
##66
யே
##ases
ஜாவ
##க்டர்
##ப்போல்
யோகம்
விந்த
##ையிட்டு
Commun
கடத்தி
குயின்
முடிவை
எல்லையை
##மடைந்தனர்
செய்தியை
பள்ளிப்ப
முதுநிலை
##ிகளுக்குப்
பிரார்த்த
அறிக்கைகள்
அமைச்சர்கள்
##pg
TH
வ்
ஷி
##iven
##ீகம்
##ுகழ்
##ெண்ட
103
Met
ஜோடி
தவறு
முரண
##டைவில்
Afric
ஆபிரக
இப்னு
நிக்க
பிரத்
வீரன்
அரசுத்
கருதிய
திபெத்
புறம்ப
அவையின்
கணிப்பொ
வெள்ளைய
##ன்பாளையம்
##மைப்புகள்
கேட்டுக்
சுட்டுக்
வைகானசம்
அமைப்பைக்
அதிகாரங்கள்
பொருட்களைய்
இராச்சியத்தை
##ோப
##ர்ச
##வேல
##டான்
##திரு
Sil
க்ள
சப்
##ராகிய
1881
ஆரம்
பிரு
##ின்சன்
அதோடு
கென்ன
திம்ம
##த்தியம்
##பிஷேகம்
##ிறக்கம்
அவரைக்
பறந்து
உற்சவம்
நீராற்ப
accessed
சந்திப்ப
டிரான்ஸ்
##சமுத்திரம்
நாகர்கோவில்
நிலையத்தின்
படைப்புகளில்
பாத்திரங்கள்
ஒன்றியங்களில்
நிலையத்திற்கு
##rew
##ush
##war
te
##cies
##luor
##ியாத
##ூழ்க
Moh
உது
தசா
நிஷ
##ைக்கி
புளூ
##istics
##ருகில்
அன்ட்
உணர்க
##வுகளின்
இராமன்
ஏவுகணை
சித்ரா
சிரியா
தொழிலை
செய்யவ்
தன்னுடன்
கிருஷ்ணர்
குருக்கள்
குரோமியம்
தன்மையுடைய
கட்டுரையில்
##ites
##டைக்
##த்தர
##ரகம்
##ேசம்
Sup
##adesh
##ானால்
ருக்
வரவு
இணைவு
ஒளியை
கோட்டு
தொட்டு
கருத்த்
கோட்டம்
விழுந்த
நோக்கியா
வத்திக்க
retrieved
பகுப்பாய்
புறத்தில்
தொழிற்துறை
புத்தாண்டு
குறைந்தபட்ச
பாதுகாப்பாக
##irc
po
பஜ
##ling
##ண்பு
##ாமலே
102
லாவ
##ல்கர்
##ினைச்
##ொட்டி
1886
கூரை
ரிக்
ஏவுகண
குந்த
நவகிர
##க்கொண்ட
கிரேட்
இப்பட்ட
செய்தத்
போன்றது
மாலிப்ட
##ுக்கொண்ட்
அங்கீகரி
அணுகுமுற
அவற்றைப்
உரிமைகளை
உருவாகிய
குழப்பம்
நகரங்களை
புகையிலை
##ட்சியம்மன்
அழைத்தார்
மாங்கனீசு
முக்கியம்
வெளியேறிய
வேறுபாடுக
Publishing
காப்பீட்டு
கொள்கிறார்
ராஜகோபுரம்
வளர்ச்சித்
அடுத்தடுத்த
செய்கிறார்கள்
##ps
##மாம்
அமு
தலா
##embly
##ல்லின்
பத்த்
கடினம்
சீர்கா
மரபில்
அதற்காக
உரோமைப்
சுழலும்
பெயரைக்
##vironment
அக்டோபரில்
நுட்பங்கள்
நியமித்தார்
பழங்குடியின
இயற்பியலாளர்
##Br
##li
##ணிப்
##்சைடு
பணவீ
##ிவைக்க
எங்கு
தேடல்
பொய்ய
மகிழு
முதிய
##ிற்குக்
அம்பேத
இக்கரு
இசுரயே
நீண்டு
எல்லாப்
கடினமாக
குகைகள்
கூறினர்
சட்டசபை
இந்நிகழ்
சீனர்கள்
யாத்திரை
வெடிப்பு
கருத்துரு
பிரசித்தி
காய்கறிகள்
நிர்வகிக்க
மறுமலர்ச்சி
கொண்டாடப்படும்
##ita
##ூத்
பஹ
##ராசு
அனே
தற்
##சேகர்
##பாடல்
##ர்தம்
கஸ்த
ஹியூ
##ணைப்பு
அச்சி
இம்மூ
சுங்க
சாதனம்
தழுவிய
பிராமி
வகைக்க
வாரிசு
இவ்வினை
ஈரானின்
எத்தில்
##த்தினரின்
உயிருடன்
திரைக்கத
போட்டியி
கணினியில்
காலத்தைச்
கிறிஸ்துவ
##மைக்கப்பட்ட
தொழிற்சங்க
பகுப்பாய்வ
மதிப்புகள்
##TS
##pen
##unn
##லோன்
##ிலம்
220
Pak
##திறன்
வரம்
google
சுட்டு
போராடி
##மயத்தில்
இவருடன்
சுற்றிய
வீழ்படி
##ப்படையில்
வருவதால்
ஆர்க்டிக்
சூத்திரம்
நுண்ணறிவு
கோவிலுக்கு
செல்வதற்கு
அரங்கத்தில்
குணப்படுத்த
போன்றவர்கள்
வேண்டுமானால்
வேறுபடுகிறது
##pe
##றல்
##ுதை
உம
பவ
##ஸ்கா
see
மர்
East
Black
வைரஸ்
##ultural
##ப்பதிவு
முக்கு
அண்மைக்
ஆரம்பக்
##ட்டத்தின்
உண்மையாக
பெர்லின்
வேற்றுமை
ஹாலிவுட்
ஜப்பானில்
தேவையில்லை
வெப்பநிலைக்கு
இத்திரைப்படத்தை
##ads
##gen
##காசி
##லைட்
##லைய்
##வென்
450
##ச்சரி
##பீரிய
orig
##நாடகம்
##னாவின்
##மில்லா
##ஸ்ட்ரோ
##ிலுமாக
##்கிறது
காவிர
பாசுப
##ication
பிரகடன
பேராக்
##த்திலீன்
செடிகள்
கட்டாயம்
சமுத்திர
அறிவித்து
நீர்மூழ்க
பட்டங்கள்
மன்றங்கள்
முன்மொழிய
வலையமைப்ப
சங்கத்தில்
சிக்கல்களை
##ுக்கிடையேயான
குறைக்கிறது
##IP
##ீல
##ஃபீ
##ளவை
##patti
உலகை
##சேகரன்
##ப்பதிவ
##மாயின்
##மேற்க்
elect
their
##மெரிக்க
ஒட்டிய
நிவாரண
##ப்பாகும்
அமாவாசை
தரவுகளை
தேற்றம்
பல்லவர்
அகநானூறு
உயர்ந்த்
இராகமாகிய
காட்சியில்
போரின்போது
திகழ்ந்தார்
##ொடி
Id
##ப்ரோ
##ாமன்
##நிகர்
##ொழிவு
city
கினி
பர்வ
##ச்சலப்
##பிள்ளை
##ரிடையே
##வானார்
##ாகுளம்
ஆடும்
##angalam
##ானுக்கு
##ீட்டில்
Engine
அக்கறை
அசிரிய
அளவீடு
ஒப்பிட
சிவஞான
திப்பு
குரங்கு
செல்லல்
பிரதமராக
இருப்பார்
##ப்பாசிரியர்
செயற்படுத்த
ஆப்கானிஸ்தான்
அறிவிக்கப்பட்ட
##attu
##ரீஸ்
##வேண்ட
##ினாள்
அரண்
உதிர
குட்
கூலி
சிவன
தொல்
##ப்பற்ற
##ியிடம்
திவ்ய
விகார
##ாக்கில்
அதிரடி
சிலுவை
யுவான்
உண்மையை
பதிப்பக
கீழ்கண்ட
உருவாக்கு
போத்துக்க
##ப்படுகிறான்
துணைக்கண்ட
ஆப்கானித்தான்
கண்டுபிடிக்கப்
##RD
##லிட
##ானோ
##atal
##omet
##தாஸ்
##லீன்
##வேன்
set
நபி
மகு
##ானார்
மகாக
மற்ப
##ழியில்
Chand
dcode
தாராள
ஹைதரா
##ிக்கோடு
ஐப்பசி
பூதேவி
tamilvu
சப்பான்
##ிருப்பார்
புரட்சிய
##த்துவிட்டு
சட்டப்பேர
தெருக்கள்
பெண்களில்
அத்தியாயம்
சுண்ணாம்பு
உச்சநீதிமன்ற
நிறுவனங்களுக்கு
நள
##டக்க
அபு
Cons
film
ஐஎஸ்
நீள்
##னிக்கு
##ியோகம்
Human
கற்கால
செப்பு
பின்னண
அலெக்சா
செய்திய
போலவும்
லிங்கம்
உயிர்த்த
சோழர்கள்
மரத்தில்
விருதும்
பதினெட்டு
எதிர்மின்ன
சாத்தியமான
திரும்பும்
தெலுங்கானா
அதிகபட்சமாக
அளிக்கப்பட்ட
கதாபாத்திரம்
PH
##சங்க
##ண்ணா
##தார்
Bro
##குமார
info
ஜின்
##ுகளுள்
பதினோ
முகவர
இறங்கி
கண்டம்
பெனடிக
போன்றன
கலங்கள்
கொல்லம்
மேற்கண்ட
கோட்பாடுக
சேகரித்து
நிலத்தின்
வருவதற்கு
நீர்ப்பாசன
கூறுகின்றது
##BN
##elf
##சுட
##சாய்
விற
##மனின்
over
சுயே
யும்
ரஞ்ச
இப்பு
எரிக்
நெய்ய
##ற்றுப்ப
##ளவிற்கு
எவரும்
முகவரி
காலங்கள்
சிறப்புத்
தொலைநோக்க
பிரிவினர்
எடுத்துரைக்க
கட்டமைப்பில்
கோட்பாட்டின்
வகைப்படுத்தப்
எடுத்துக்கொண்ட
இயக்கப்படுகிறது
##OH
##சுர
..
##aily
##aint
...
829
ass
##றிஞர்
1876
மொரா
##கர்கள்
##சாவின்
மிளகு
சிற்று
சார்லசு
மார்த்த
குறுக்கு
கேட்டார்
##த்தினையும்
Inorganic
நாளடைவில்
வலைப்பின்
Department
விலங்கியல்
கால்பந்துக்
தயாரித்தார்
விஞ்ஞானிகள்
கேம்பிரிட்ஜ்
செங்கல்பட்டு
ஒருங்கிணைப்பு
##MS
##வளை
but
cms
நூற
##பிறகு
##விக்க
அக்ச
சரண்
ஹென்
##லியூர்
கல்கி
செவில
தூண்க
போரான்
##மடைந்தது
அவதாரம்
ஆண்டவர்
உடையவர்
ஒருவேளை
குறிஞ்ச
செயற்கு
சொற்களை
தமிழின்
தேவாரப்
ரகுமான்
பங்காற்ற
புலவர்கள்
போட்டிகளை
எச்சரிக்கை
எதிர்ப்புப்
நடைமுறைக்கு
timesofindia
கட்டிடத்தின்
விலங்குகளில்
##ukk
##லத்
##ஷிய
##ெந்த
கலீ
சைய
##akkam
##நுண்ம
ஓவர்
Group
ஃபிரா
மாத்த
##டுகளால்
டன்கள்
தேவையை
விட்டன
டென்னிஸ்
வேலையில்
மொழிகளின்
செயல்பட்டது
##alk
##dia
##ாசல
##ுஸ்
##ன்பெ
ஓய்
##வழிப்
1600
##ந்தியா
##ாபுரம்
கைகள்
பிட்ட
##ன்களைப்
அலெக்ஸ
கொண்டன
பெர்கு
மாறிலி
வேணுகோ
மகாராஜா
வலிப்பு
##ட்டானியம்
உத்திரம்
விக்கிரம
கட்டிடக்க
##பவர்களுக்கு
பிரான்சிஸ்
மாவட்டத்தை
காணப்படுவத்
காலத்துக்கு
சுற்றுப்பாத
குறிக்கின்றன
கட்டமைப்புகள்
கண்டறியப்பட்ட
அபா
##சியசு
##ார்த்
##ாக்களை
கோரிய
சந்தோ
சுடுக
பலத்த
சாப்பி
இறுதிவரை
கனிமங்கள்
புரதங்கள்
விடுதிகள்
பணிபுரியும்
நகரங்களுக்கு
இயற்றப்பட்டது
##சல
##யிங்
அனி
##ளாகப்
##ியற்ற
pres
மேலை
குள்ள
சிலவே
தங்கு
பணிக்க
மாலிக்
வயலின்
ஸ்ட்ரீ
##ப்பதுடன்
வாட்டர்
வெடிக்க
##காலத்தில்
குறைத்து
முள்ளந்த
லிருந்து
வாங்கும்
ஸ்பெயின்
ஆண்டிற்கு
ஆலயத்தில்
சம்பந்தர்
நிறுவினர்
மணியளவில்
கூட்டமைப்ப
துன்புறுத்த
தொலைவிலுள்ள
செயல்முறைகள்
மண்டலங்களில்
உறுப்பினர்களின்
##MP
ne
ஓச
##heim
##ரேன்
##ல்பி
##த்திண
##னிகள்
##ாவசிய
1850
சனாதி
முறைக
தடுப்பூ
தனிமனித
Division
கல்கத்தா
சனத்தொகை
நீரினால்
மொழியும்
என்பவற்றை
மனைவியின்
கண்டத்தின்
குடியேறினர்
குடியேற்றம்
நகைச்சுவைத்
கல்லூரிகளில்
பிரித்தானியா
விமர்சகர்கள்
எதிர்காலத்தில்
##SO
##ாி
##தலை
Av
##ived
##வோம்
##ஷ்மி
##ோக்க
136
cod
ear
உளு
போய
ப்ர
ஆர்ம
பொதி
ரஜின
##ுக்கென
count
சோளம்
##த்திரன்
##ன்களைய்
செய்தன
அரியானா
கடைப்பி
ரிசர்வ்
வேகத்தை
திருத்தல
நோய்த்தொ
வழியாகச்
போட்டியிட
போர்களில்
சுதந்திரப்
பலதரப்பட்ட
விருதுகளைப்
விமர்சனங்கள்
வெளியேறினார்
திருச்சபையில்
′
##adh
##போக
##ளாஷ்
##ஸ்மா
Bur
அழு
ஆரி
##சுட்ட
City
ஊதிய
##த்பூர்
##ப்பாய்
##ம்பிகை
அவுட்
நுழைய
மடங்க
##ிகளாகப்
அதனைக்
இவரைப்
ஞாயிறு
புத்தி
##ிருந்தத்
அறிவுரை
அளவுள்ள
ஒற்றுமை
ஒலிப்பத
காலத்து
குளிர்வ
சகோதரன்
பயணத்தை
வாய்ப்பை
##நேரங்களில்
இந்நகரின்
சீனிவாசன்
##ொள்கின்றனர்
பொருள்களின்
இப்படத்திற்கு
பிரதேசங்களில்
கொண்டிருப்பதால்
தொழிற்சாலைகளில்
##ோங்
##epal
##pect
மலே
Pres
அக்ப
டாடா
அண்ணாம
திருநீ
விமரிச
அலைவரிச
உள்துறை
சுந்தர்
பள்ளிக்
பிரசன்ன
##ிருந்தான்
எளிமையாக
பற்றியது
மேளமாகிய
நிர்வாகப்
உள்ளடக்கம்
செல்கிறார்
குடமுழுக்கு
பாக்கிஸ்தான்
கிருட்டிணகிரி
##omy
we
##abha
##நானூ
##வர்த
922
பைர
##ோவில்
இதழை
டோனி
மன்ம
##ந்துறை
##பெறும்
நகரப்
##ளித்தது
அந்நிய
இம்மொழ
ஏப்பிர
கவுன்சில்
நடிக்கும்
பின்புறம்
மூடப்பட்ட
நாட்காட்டி
மேல்நிலைப்
ஆத்திரேலியத்
##iod
##ூப்
Vir
sur
##ights
அஸ்த
பலகை
வாலா
பாப்ப
புனைக
##itation
எழுதத்
##ப்புக்கோ
##ியாக்கம்
Library
உலர்ந்த
எத்தியோ
தாதுக்க
நற்றிணை
நீடிக்க
உதவியால்
எழுந்தது
மொழியைப்
சங்கங்கள்
செயற்பாடுக
ஏற்படக்கூடிய
தென்மேற்கில்
பிரிவுகளாகப்
திரைப்படங்களை
##ao
##பலி
ஜல
பெள
##க்கப்
more
பூரண
ஹிட்
##ட்சிய்
##த்தாள்
Award
River
கொம்ப
தமிழி
தேதிய
வாம்ப
##மண்டலம்
Google
ஏவூர்த
கூட்டண
மீட்பு
என்பனவ்
கார்பனே
வில்சன்
சின்னமாக
தாங்கும்
நாடாகும்
நைட்ரிக்
அடையாளமாக
அனைத்துக்
கிளர்ச்சி
உள்ளிட்டவை
காரைக்கால்
வணிகத்தில்
காணப்படுவது
இருந்திருக்க
சிற்றிலக்கிய
தோன்றுகின்றன
##ணர
##araj
##ides
##குடி
ஃபீ
கின
##ஸ்கள்
வரிய
##மேட்டு
கருவு
சீராக
மேனன்
##யிர்கள்
##வாய்ந்த
##ிக்கொள்
எரிக்க
நிறமால
பெண்கள
வரம்பு
வெளிர்
கூட்டல்
நிர்மாண
நிலைகளை
நுரையீர
வழமையான
கதைகளில்
பெயர்களை
##ப்படுவதும்
கிழக்குக்
குழந்தையை
சுண்ணாம்ப
குற்றவியல்
எதிர்த்துப்
தோற்கடித்து
வெளிப்படையான
அரசாங்கத்தால்
##எச்
##ஷ்ய
##ூசி
gu
ஊற
ஒக
##வேர்
230
acc
ஆனை
சுன
சுல
##ஹள்ளி
Area
செலீ
தாமே
பேய்
##ங்கிய்
மாறில
##ேயாகும்
முக்தி
##நிலையைக்
##ப்பற்றிய
ஆகியோரை
டெய்லர்
நிகழ்தக
பெறுவது
Philosoph
எல்லாவற்ற
செல்சியஸ்
மாதவிடாய்
##ிக்கொண்டார்
ஆய்வுகளின்
வெளியாகும்
அசிட்டேட்டு
இடப்பெயர்ச்சி
##va
##itz
##uri
##நீத
fe
fr
##ught
Sim
##ில்லா
view
were
கேரி
Asian
தலையை
பெத்த
வித்ய
இளநிலை
வண்டல்
விக்கி
##ச்சியின்
ஆங்கிலோ
மேலுள்ள
வழித்தட
ஸ்டீபன்
##ப்படங்கள்
இப்பள்ளி
இருபுறம்
கிடைத்தன
முற்றுகை
வந்தபோது
வேண்டாம்
அமைப்பும்
ஒருபோதும்
நுழைவாயில்
பொதுவுடமைக்
அழுத்தத்தில்
##IL
##டவு
##வரே
##ஃப்ர
##னிஸ்
##ஹால்
210
ஏற்
கீர
##ethyl
##ledge
அகம்
அனிம
டாக்
கணேஷ்
நிர்ம
முன்வ
வாழிட
##வதாகும்
ஆணையர்
ஊழியர்
ஓப்பன்
மகாராஜ
##ம்பேட்டை
அழித்து
உருசியா
கம்ப்யூ
##டுகளுக்க்
##ுவதற்குப்
ஆல்ககால்
கப்பலில்
நீளமுள்ள
வீட்டின்
தாக்குதலை
வாசிங்டன்
Industrial
பூங்காவின்
கோட்டத்தில்
சீக்கியர்கள்
##cip
##லட்
##ergy
##த்யா
104
top
டிவ
##ற்கால
work
கமலா
பரபர
ஸ்வீ
##ந்திரி
ஏர்லை
மூக்க
வேப்ப
##சிங்கம்
##ிட்டனர்
பங்குப
புதூர்
##த்தினைக்
##த்தினைப்
##ழகத்தின்
வெப்பப்
அழைக்கப்
இறந்தனர்
சண்முகம்
கதாநாயகனாக
கருதப்பட்ட
வீரர்களின்
அலுவலகத்தில்
பார்ப்பதற்கு
மில்லியனுக்கும்
##55
##TV
##ஜே
##las
##lin
##ோரை
ap
கரக
##ட்டின
##ண்ணன்
##ம்படி
அழகி
மகால
##ழித்து
உந்து
காலக்
சமாதி
பலிபீ
பெல்ல
##க்கத்தை
ஆலைகள்
நாடோடி
வேதிச்
நடிகராக
பெண்மணி
வாசிப்ப
உடன்பாடு
ஒன்றுடன்
நுழைந்து
அம்சங்களை
நிலையத்தை
எனப்பட்டது
கோலாலம்பூர்
பணிபுரிந்து
பிளாட்டினம்
பெங்களூரில்
இப்பகுதியின்
வழங்குவதற்க்
பாக்கித்தானின்
##ப்படுத்தப்பட்டது
சேர்க்கப்பட்டது
##FA
##ago
##raw
ஏல
##ஃப்ட
##மையே
##டையது
West
chem
into
##மாவின்
##வாதிய்
##ஸ்திரே
கட்டள
காதலி
குழல்
நெற்ப
வேதிவ
##ப்பியல்
##ம்பள்ளி
அதனைச்
ஆளுனர்
கண்ணகி
நாடகக்
பிரியா
வாழ்வை
வேல்ஸ்
##ல்படுத்த
##ுக்கூட்ட
##ைகளினால்
அதேபோல்
ஆல்ககால
கணிப்பு
##ிக்கோட்டை
கருதினர்
முடிந்து
விருந்து
மாற்றியமை
எதிர்கொள்ள
நோக்கியும்
நம்பிக்கைகள்
##ein
##lon
##மசு
##டோர்
##ident
##ணர்வை
##மாணம்
##முறைய
1878
ஈயம்
நைல்
மூலை
ரோஜா
##ர்த்தன
இம்மு
தகவலை
##ampatti
அரும்ப
ஒளிப்ப
சங்கரா
அதுவும்
பிரபந்த
பெல்ஜிய
அனுப்பிய
வீரர்களை
##ந்துவிடும்
திருத்தம்
அறிவியலாளர்கள்
##ேஜ்
##apan
ராத
ஒளிம
சவ்வ
சித்
பியா
அப்பெ
பாங்க
விடுப
அச்சிட
இணைப்ப
தாண்டவ
மாறிய்
அகதிகள்
அமைதிய்
இயல்பாக
கைகளில்
கோடைகால
துர்க்க
மூவரும்
ஆல்பர்ட்
நரேந்திர
பினாங்கு
விட்டால்
பிரதானமாக
அறியப்படவ்
நிபுணர்கள்
வல்லுநர்கள்
##ப்படுத்துகிறது
பத்திரிகையாளர்
தயாரிக்கப்பட்டு
##சமய
##சுப
##ளப்
##ீனா
Pg
##ries
செவ
பூன
ரஹ்
##athan
##inger
கரடி
தூண்
புளு
உடனான
உருவெ
என்றோ
தங்கை
##ுவதாகக்
ஜேர்சி
தசாப்த
முதற்க
##ம்புதூர்
அவையில்
கடத்தல்
சிக்கலெ
சுவீடன்
பிரத்யே
மவுண்ட்
கிறிஸ்து
திருவிடை
கன்னிமார்
கழித்தார்
தட்பவெப்ப
அறிவிக்கப்
வகைப்படும்
கையகப்படுத்த
பெயரிடப்பட்ட
கொடுக்கப்பட்டது
##RS
##bc
##ola
##ொடை
##க்கர
##பவன்
வளி
stat
கடலை
பளபள
ரோம்
##த்திரா
Organ
தலித்
##unction
##ாயினும்
அரியணை
காப்பா
பத்மநா
மணந்து
##ுக்களைப்
பணிக்கு
விரிகுடா
பின்னணிப்
விலங்குகளை
அத்தியாவசிய
உருசியாவின்
வளர்ச்சியின்
அமைக்கப்பட்டன
சர்ச்சைக்குரிய
##AA
##கான
##பாச
AB
Si
##itor
Leg
She
எபி
ஜமீ
ஃப்ர
சாவ்
செலவ
தோள்
அண்டு
ஆவான்
##ிகாந்த்
அதுபோல
இம்முற
ஈழத்து
பிளேக்
கிழங்கு
வாய்க்க
##ப்பாற்றல்
Chemical
அர்த்தம்
கொண்டான்
சூழலியல்
நினைவில்
பிரத்திய
தோற்றத்தை
மகிழ்ச்சி
மெய்நிகர்
டென்மார்க்
தரவரிசையில்
அடங்குகின்றன
சட்டமன்றத்தில்
##FC
##uel
##ute
##பிற
##மிர
##ியற்
சைக
ரூப
##ffect
##ாம்பூ
1858
பேசி
கற்பன
##ப்பிள்ள
report
தரத்தை
தொடர்க
ஸ்டான்
தொடர்பை
லிட்டர்
ஹைட்ரஜன்
எல்லைக்கு
எல்லைக்க்
பகுதியைய்
சிற்றூரில்
தோட்டத்தில்
விருதுகளில்
ஆராய்ச்சிகள்
பிரித்தானியக்
##ues
AD
##செட்
##ராது
##ல்த்
பீர
##ழிகள்
Data
எக்ட
புனர
ராணா
ஹெட்
##மிடையே
##ுக்கார
Henry
மின்ம
முனிய
##ப்பாடல்
அதனைப்
சூறாவள
டிஸ்னி
தொகையை
வசித்த
ஆலோசகர்
மண்ணின்
வாக்கிய
இசைக்குழு
கோவில்களில்
திட்டமிட்டு
நிறுவனங்களை
அடுத்தடுத்து
எழுத்துக்களை
அழைக்கப்பட்டு
##ias
உன
doc
Year
கர்ம
##யிலின்
##ாளர்கள
##ீடுகளை
movie
தனியே
போவத்
##ச்சிகள்
##திகாரம்
##நிலையம்
அதுவரை
ஆன்மிக
பலரால்
முற்று
இறுதிக்
காரணாகம
சுமேரிய
திறம்பட
பில்லிய
இருப்பர்
வரவேற்பு
வெங்கடேச
##ாட்டத்தில்
Biography
அனுப்பும்
கொண்டுள்ள
பாதுகாத்து
அடர்த்தியான
பத்தாண்டுகளில்
பாதிக்கப்பட்டு
வெளியிடப்படும்
u
μ
##ief
##ஃபே
##ாயா
##ிட்
Fr
##ர்கன்
##ுவும்
எண்ம
சிடி
மெது
##ச்சாரி
ஆய்வக
இச்சு
பல்லு
வயதாக
துணைய்
தேடும்
லாகூர்
##வர்களைய்
Council
இனிப்பு
ஒன்றைக்
##ப்பகுதியை
தட்டையான
மக்களைக்
கூறப்பட்ட
சிறப்புக்
நரம்பியல்
உற்பத்தியாக
##புக
##ூதி
##லேட்
##ூரம்
Cap
வடம
##attle
##சியஸ்
##டிகளை
##்கோட்
4000
##ricket
##வைக்கு
இவ்வழ
பழந்த
##ப்பாக்க
Health
people
##ப்புள்ளி
ஒப்புக்
தரவரிசை
நாளிதழ்
காதலிக்க
கோப்பையை
சூழ்ந்த்
பாண்டிச்ச
தேவைகளுக்க்
நூலாசிரியர்
இராணுவத்தில்
வெளியிட்டனர்
அரசியலமைப்புச்
கல்வெட்டுக்கள்
உறுப்பினர்களைய்
##ino
##புல
##ளக்
me
Bal
Ter
அதேச
கிம்
பலன்
மச்ச
மிசோ
##பூரில்
##ப்பவர்
அக்கு
உற்சவ
எலுமி
காமன்
நடனக்
Center
சர்வாத
தாமிரம்
ஏப்பிரல்
சுட்டிக்
புவியில்
மராட்டிய
வந்தவாசி
தலைநகரமான
நவம்பரில்
மாற்றியது
##ிக்கும்போது
நேர்மறையான
மறுமலர்ச்ச
ஆட்டங்களில்
நெறிமுறைகள்
மக்களவையில்
சண்டிகேஸ்வரர்
பயன்பாட்டிற்கு
##டலை
சஹ
##வ்வு
##ிரட்
med
சூத
பரீ
##ottai
அமேச
கருட
கீழை
டாப்
##ensity
##த்தியா
நன்றி
மணிநேர
ராபின்
லட்சும
பிறகும்
மாநாட்ட
இரட்டைப்
தானுந்து
தேசியவாத
நிலவியல்
மன்னனின்
உருவாகிய்
திமிங்கில
தீவுகளின்
கட்டிடக்கல
மக்களாட்சி
ஆதரவாளர்கள்
வார்த்தைகள்
சமுதாயத்தில்
பெற்றுக்கொள்ள
அரசியலமைப்பின்
##avi
##olic
##ucle
##ஜிங்
Ele
red
##மல்லி
##மாதல்
1875
cons
அளவே
நத்த
##லானார்
##ளினால்
ஊர்வன
கணக்கி
வேகமான
##ங்கோட்டை
இராஜராஜ
எப்போது
சுருங்க
தேசியத்
அற்புதம்
இயற்றிய்
தமிழ்ச்ச
வைத்தனர்
குதிரைகள்
மிகக்குறை
சிறுபான்மை
திருவையாறு
புரட்சியின்
காணப்படுகின்ற
சுப்பிரமணியம்
##ve
##che
CD
##ாராக
Eth
mag
ஃபா
##ியாக்
after
தமக்க
புன்ன
ராக்க
##வனுக்கு
##ோருக்க்
கூறுகளை
தீநுண்ம
தொழிலாக
என்பதைத்
மாவட்டத்
வேறுபாட்ட
கோட்பாட்டை
கோழிக்கோடு
பாரம்பரியம்
##57
##SP
##ami
##தீக
##ஷல்
Mu
##யிற்ச
அமீரக
நம்மா
மேஜர்
வர்மா
##க்களின்
movies
அஞ்சலி
தடித்த
நியூட்
பெர்ரி
முயல்க
ஷட்ஜம்
##ெடுத்தல்
Summary
இணையும்
சிற்றரச
பெயரின்
மலைப்பா
மாணாக்க
ஆங்கிலச்
இணையத்தள
தருமபுரி
துணைக்கோ
நெருப்பு
வரலாற்றா
பெரும்பால
விசித்திர
ஒளிபரப்பாக
தேர்ந்தெடு
நம்பிக்கைய்
விருதுகளைய்
திருவள்ளுவர்
##MA
##ன்பூ
##பாமா
##யான்
God
cap
செக
பழக
1871
time
##டைந்தன
Earth
இந்த்
சமயப்
சீனக்
தொப்ப
பார்க
ஸ்டீவ்
சாதனையை
மணிமேகலை
மீன்பிடி
முறையைக்
அப்துல்லா
புலனாய்வு
தொலைநோக்கி
நடிகருக்க்
வருடங்களில்
வட்டத்துக்கு
கும்பகோணத்தில்
செய்துகொண்டார்
##enue
##பிட்
##ரிசி
##லாப்
Don
ரோஜ
##ினில்
இனிய
திணை
முனி
##itical
##ச்சிதை
அக்கா
அறிவை
ஆதரவை
துறவி
Madras
அளவும்
ஒலிப்ப
நெகிழி
பாண்டி
ராஜீவ்
வசதிகளை
அரிதாகவே
இருபத்தி
உயிர்கள்
சீடர்கள்
வசதிக்க்
சட்டவிரோத
அடுக்குகள்
காரைக்குடி
தங்களுக்க்
கலந்துகொண்ட
நிலையமாகும்
தயாரிப்புகள்
ஆகியவற்றுக்க்
சூழ்நிலைகளில்
பயன்படுத்தியது
##ef
##ki
##ேவ்
ஐச
##arai
##ross
##ædia
##ூதிய
ஸ்ம
##மூட்ட
Bang
நோயை
##த்துள்
##ல்லில்
Place
Royal
உட்செ
நாயகி
நெசவு
பார்ப
சுரக்க
வரைவில
##லாயிற்று
அம்மாள்
புதியத்
வாத்திய
விட்டத்
##த்தினரால்
##ொள்கின்றன
அங்கீகார
சொந்தமாக
நோய்க்கு
விலங்கின
சுற்றுவட்ட
வானூர்திகள்
##ble
ஈச
##work
##யிலை
112
Emp
இரி
ஈரு
பொத
##ாட்ட்
1867
##காந்த்
##த்திணை
found
அனுமன்
ஊராட்ச
செஞ்சி
அரைக்கோ
ஆய்வகம்
தந்தையான
பல்லாயிர
வேர்ல்ட்
##ுக்களுக்க்
Christian
இரண்டாகப்
நியூட்டன்
குழந்தையாக
அங்கத்தினர்
வங்காளதேசத்
போன்றவற்றைக்
##gy
##தில
##ீரா
##டென்
##வணன்
132
##ிக்கே
##ெய்ன்
உவர்
வயல்
##ிக்கிழ
கூடம்
தேவன்
பிம்ப
##ination
எந்தப்
எவ்வாற
தாகூர்
மதிக்க
இழந்தது
எரிவாயு
சாதகமான
##வற்றையும்
அலுமினிய
பங்குகள்
மூளையின்
லிட்டில்
அமைத்துக்
கல்விக்க்
இலங்கைக்கு
செங்குத்து
பதிற்றுப்ப
மன்றத்தின்
மாற்றப்பட்ட
பகுதியிலுள்ள
\
AT
Sa
##ysis
##விரு
ஓரி
சாண
##athur
குப்
சலுக
நட்ட
நிலா
ஸ்டெ
House
Women
உள்ளு
தமிழா
##மொழிகள்
##ிவாய்ந்த
தளபதிய்
##ிவிட்டார்
அமிலத்தை
உரையாடல்
பென்சில்
பெருமான்
வண்டிகள்
ஹெக்டேர்
மன்னிப்பு
இரண்டிற்க்
பற்றாக்குற
பூங்காக்கள்
கட்டிடத்தில்
செல்லியம்மன்
ஆப்பிரிக்காவின்
மெசொப்பொத்தேமிய
##100
##how
##்தோ
##anda
##ினிய
##uthor
##மட்டு
அயன்
ஆதாய
எஸ்ட
மோல்
##றுக்கு
இடும்
##ப்படாது
இவ்விட
கொம்பு
நல்லது
##ப்பெற்று
நினைத்த
ஆஸ்திரிய
இலங்கைப்
விளக்கப்
சட்டங்களை
சிந்தாமணி
பாரதியார்
வேண்டியது
கொள்கையின்
விளையாட்டின்
##hu
##நய
##ams
##ினே
##ாமிய
Dem
##டங்கு
##ிகார்
##ொட்டு
ஜேக்
பரமே
ஹோம்
##சையில்
அலகான
சேந்த
தனிச்
துரிய
பாலிய
பிரஸ்
வினாட
##க்கட்டு
குட்டி
##ய்க்கும்
##வர்களுள்
ஓவர்கள்
மாடுகள்
மொழிகளை
திரையில்
மெட்ராஸ்
அருணாசலம்
விரும்பவ்
கருத்தாக்க
சமவெளியில்
வடமொழியில்
செய்யக்கூடிய
##ila
##னரி
##ிற்
##ராசா
நிண
பப்
##குளம்
##ர்சன்
##ாகிய்
தாள்
மறுத
##டெரிக்
Green
ஆயத்த
உணர்த
தாமசு
துளைய
பந்தை
##ணுக்கள்
##த்தோற்ற
##ப்பட்டை
Joseph
இடத்த்
உடைக்க
ஒருசில
காற்றை
தணிக்க
திருவே
வணிகக்
துணையாக
முடிச்ச
Malaysia
சரித்திர
நிலையைக்
மெட்ரிக்
விட்டனர்
விண்கலம்
ஆலயத்தின்
இங்குதான்
கண்காட்சி
வீச்சாளர்
வேறுபடும்
வைப்புத்த
சிலிக்கான்
தயாரிக்கப்
தனிமங்களின்
திருநாவுக்க
பதவியேற்றார்
கொள்ளப்பட்டது
உருவாக்கத்தில்
நிறுத்தப்பட்டது
பிரிக்கப்பட்டது
##fl
##ிகி
ஊச
##rown
##்ட்ட
Sun
att
அமர
கலச
##ம்பிர
1872
Gold
Post
ஆரோக
சீரு
யோகா
வடுக
##சுவின்
தள்ளு
Modern
ஆடைகள்
இம்மலை
நன்கொட
வளைந்த
பாடலின்
##வர்களிடம்
நிலவியது
விலைக்கு
இயல்புகள்
கடைசியில்
சொற்பொழிவ
பொருத்தப்
இவருக்குப்
கண்டறியும்
சிறப்பியல்
புள்ளிவிவர
பாடல்களுக்கு
தொல்காப்பியர்
##sue
UK
##ொட்ட
Sar
tit
மகத
##வாகக்
##ாகரன்
1861
உல்ல
சரவண
சிலி
தடம்
##ங்கிள்
அசோக்
##ுகொண்ட்
தெளிவ்
பிரேம்
இசுரேல்
மற்போர்
கண்காட்ச
திகழ்ந்த
நிலங்களை
நீர்த்தே
படைத்தலை
முன்னிலை
வழிகாட்டி
வீரபத்திர
உண்டாகிறது
வரைபடங்கள்
வாழ்ந்தவர்
விடுகின்றன
மீற்றருக்கு
வங்காளதேசம்
தலைப்புகளில்
முதலாளித்துவ
பழங்காலத்தில்
##ெல
sa
வூ
##ச்டி
##ஸால்
225
எவர
சகல
##ஃபார்
##ார்கள
##ாற்று
list
அனல்
##ம்பின்
##ியாகவ்
##ிராயர்
ஒரத்த
முடிச
##ப்போவத்
##லாக்கம்
##ாரம்மன்
##ொன்றின்
ஆண்டுவ
கூத்து
நாடகத்
##ுதலுக்கு
ஆன்லைன்
காந்தப்
மொழியான
இணைந்தது
நற்கருணை
பரிசுகள்
பாதிப்பை
தன்மையும்
வாயுக்கள்
உறவினர்கள்
மட்டையாளர்
மருத்துவத்
வளர்க்கும்
மன்றங்களின்
மான்செஸ்டர்
திருக்கோவில்
உயிரினங்களில்
செயல்பாட்டில்
தொடர்புடையதாக
##ipp
##ஸர்
##ிடே
OF
Sn
ஞா
##avan
##ison
##ours
##பேஸ்
Kur
கயி
##வருமே
இணைக
உறவை
சர்த
சொசை
##ையிடம்
வேதம்
மீடியா
வீசும்
வேதிப்
எழுந்து
கல்கத்த
சொர்க்க
இப்புத்த
உள்வாங்க
சிக்கிம்
விரைந்து
அறிக்கையை
இசையமைத்த
எழுந்தருள
ஆணையத்தின்
ஒல்லாந்தர்
பாடல்களைய்
கட்டப்பட்டன
காணப்பட்டால்
செப்டம்பரில்
மங்கோலியர்கள்
காலகட்டங்களில்
##LA
##ிடம
##ம்பல
மிச
லெப
##பொருள
மோதி
ஸ்பை
##வில்லி
##ஃபோர்ட்
##ளத்தூர்
ஆறுமுக
குழுவ்
செப்பே
நடுநில
விலையு
ஆண்டுக்
காலத்த்
சூழ்ந்த
செங்கல்
பயணிகளை
அவுஸ்திரே
இவ்வமைப்பு
குறுந்தொகை
வரலாற்றுக்கு
அமைச்சகத்தின்
SH
##நாய்
##ப்பற
##ராட்
அகு
உரா
போச
##ண்டனை
##ர்டன்
##வேண்டு
அருண்
உடலிய
தள்ளி
வகைக்
கைவினை
தேநீர்
நீரிணை
##ஸ்தானின்
ஆத்தூர்
இவ்வாலய
தரப்பின
நடராஜர்
நான்முக
எதிரிகள்
வெப்பத்தை
ஆரோக்கியமான
சுத்திகரிப்பு
திருவிழாக்கள்
கருதுகிறார்கள்
##ii
##ரட்
ox
##பேட்
ஆஸ்
##க்கூட
##படியே
ஒக்ச
கியா
ஜெட்
##லேண்ட்
##வாவின்
சாகர்
நடனமா
ரஷ்யா
வருவா
##ப்பிட்ட
இளங்கோ
இத்துறை
சிந்துவ
மதிப்பி
வவுனியா
ஆங்கிலக்
இச்செயல்
சீர்காழி
திருமுறை
நிறைந்த்
வல்லுநர்
வழிபடும்
##ப்பட்டபோது
எகிப்தில்
பகுதியைச்
பெல்ஜியம்
புத்தகத்தை
##நாயக்கன்பட்டி
செய்தித்தாள்
மின்னணுவியல்
நிர்வாகத்தின்
துவக்கப்பட்டது
##ெற
##lim
##och
ஊன
##athi
##ாரிய
109
ஓலை
தழை
1883
Chin
Port
குளூ
ராப்
##ஸுக்கு
அன்ற்
எப்போ
புலன்
##மைகளின்
##ம்களின்
Centre
அழித்த
தனக்க்
விலகிய
இசையின்
சென்றாய
வீக்கம்
நூலுக்கு
செய்வதால்
தென்னாபிர
சந்தைகளில்
நிராகரிக்க
வாழ்நாளில்
செய்துகொள்ள
வத்திக்கான்
Encyclopædia
திட்டங்களில்
இக்கிராமத்தின்
##RO
##தோ
##சிர
##ival
##தனம்
##ரிச்
##ுதன்
144
ஏழ்
பெல
##ாசின்
##ாலிக்
##ிச்சை
only
கிட்
தூள்
யோசே
ஸ்தா
##ர்வின்
##விக்கு
யூக்ள
##திகளில்
ஈரப்பத
கும்மி
ஜோன்ஸ்
மாமல்ல
மிகைய்
களஞ்சிய
வடிவமாக
வாழ்விட
இனத்தின்
இலங்கையை
மேற்குக்
கடற்கரைப்
ஒவ்வொருவர்
நடைமுறைகள்
கதாநாயகியாக
குலோத்துங்க
போட்டிகளின்
இராணுவத்தின்
சிலவேளைகளில்
தோற்கடித்தார்
உறுப்பினர்களைக்
குறிப்பிடப்பட்ட
Ep
##pert
##ாளன்
##ியலை
320
mar
##த்தொழ
கடமை
வாதா
##andard
##னைட்டு
ரத்து
##ுறிப்பு
சதாசிவ
நேரில்
லாஸ்ட்
ஹிந்து
அர்ஜென்
விருதான
##டுவார்கள்
கல்வித்த
மனப்பான்
அச்சுப்பொ
பாட்டியல்
தொடர்கிறது
கல்வியறிவான
பாதுகாக்கப்
சிறப்புமிக்க
பாதிப்புக்கு
சிலநேரங்களில்
புகைப்படங்கள்
மேற்பார்வையில்
##que
##ோசு
ஓம
##rate
##த்வா
##மதிய
##ஸ்பர
ஓக்
லாப
##aking
##ுவாய்
மாமா
ரோட்
##கையின்
##சிட்டி
other
இப்பத
முதலா
வரைவு
பதிகம்
இளையோர்
காய்கள்
பௌர்ணமி
வெடிப்ப
##மளிக்கும்
பொதுவுடை
மந்திரம்
பறவைகளின்
உற்பத்தியை
சிவலிங்கம்
வந்தவர்கள்
அடையாளங்கள்
பெயரிட்டார்
மாறுபடுகிறது
வாய்ப்புள்ளது
##சைப்
##ராக்
133
Arm
Ash
Pri
ஐப்
கனச
##hemat
##ரியர்
1864
##டிப்பை
Class
##மடையும்
Edward
கவரும்
கொள்ளை
பீரங்க
##ிக்காலம்
அரசரின்
ஆய்வுப்
தொலைதூர
விதிகளை
செய்தும்
மூலையில்
விட்டுச்
சுகாதாரம்
மற்றுமொரு
சிவபெருமானை
எனுமிடத்தில்
வித்தியாசமான
பட்டப்படிப்பு
பாக்கித்தானிய
கிடைக்கக்கூடிய
##ids
##ஷர்
##ette
##reed
##ளுள்
ஹர்
##வெட்ட
##ெண்டு
ஆடிய
சுமை
மோனோ
விரல்
##ாலையில்
##ுவதுடன்
##ைகளாகக்
ஆக்கம்
நாளிதழ
பயன்பட
பாட்டி
##வேளையில்
இப்பறவை
கொள்ளைய
சிவனின்
படகுகள்
##மயமாக்கல்
கார்த்திக
நிலப்பகுதி
திருத்தூதர்
வினைபுரியச்
பெருங்கோவில்
மின்னழுத்தம்
இலக்கியத்தின்
இருந்திருக்கல்
×
##ளோடு
113
146
தூப
##பகுதி
##ோரில்
1859
கம்ம
தட்ச
தொழு
நொது
பேக்
விட்
##நாயகர்
##னாகும்
உபதேச
என்றி
காலனி
சஞ்சீ
##ாவினால்
ஊரானது
சீர்கு
வரைந்த
##ிக்கூடம்
மேற்புற
நாட்டுக்
முஹம்மது
மேடையில்
கண்காணிப்ப
முத்துக்கு
விவரிக்கப்
பயன்பாடுகளில்
பார்க்கும்போது
##CA
##கர
Pe
##டுதி
##னியை
ant
##eylon
##ஹாசன்
சாசன
##ertain
##ாங்கல்
சதுஸ்
டெக்க
##ப்பற்று
##ித்தவர்
##ின்றான்
புனைவு
விரட்ட
##ப்பட்டின
காண்டம்
கொள்வத்
முயன்று
மொத்தப்
காரணியாக
நாளைக்கு
நிரம்பிய
மலையாளத்
முற்றொரு
வாழ்த்து
##ந்துவிட்டது
இராஜேந்திர
நிரந்தரமாக
திருஞானசம்ப
கலைக்களஞ்சியம்
##rol
##நெற
##ாவே
சச
##மாறி
##ீயம்
Tir
Prin
ப்ரீ
மனோக
##ட்டுச்
அத்தி
உடனடி
எங்கே
எடைய்
சாகிப்
நூல்கள
அத்தோடு
இந்நிலை
செங்கோண
ஜெயந்தி
நுழைந்த
##பாண்டியன்
##ொள்கிறார்
விகிதமுற
ஆங்காங்கே
வழிவகுக்க
வெங்காயம்
கேரளத்தில்
முற்போக்கு
சிகிச்சையில்
மதிப்புமிக்க
தெரியவருகிறது
மாணவர்களுக்க்
திருச்சுற்றில்
##osp
##ாமே
##மைச்
Dis
##ப்பட்
4746
கின்
புவன
பெப்
மீரா
##க்கிங்
##ங்கான்
##லேட்டு
##வைத்து
##ைகொண்ட
Smith
thumb
##ித்தொகை
Social
volume
இழுக்க
நாடும்
பென்சோ
science
இந்நூலை
உரையில்
##ொன்றுக்கு
ஆட்சியர்
பதினான்க
பிடித்த்
மலேசியத்
எழுத்துரு
ஒப்பிட்டு
சூழல்களில்
செயல்திட்ட
தோற்கடித்த
நாட்டுக்கு
பருவத்தின்
சொத்துக்கள்
புதுப்பிக்க
மகாராஷ்டிரா
ஏற்படுகின்றது
நிர்வாகத்தில்
ஆட்டமிழக்காமல்
நீதிமன்றத்தின்
நோக்கங்களுக்க்
~
##ourt
##டுகு
##ெய்வ
Mas
##முடன்
1846
1877
4475
high
நீல்
புழு
முள்
##embers
##நோக்கு
இச்சம
இராஜா
இற்க்
குமரி
கொக்க
தனித்
வெடிக
##ructure
##ையொன்று
இன்ஃபோ
பதவிய்
புகார்
##மாக்கும்
##ுக்கேற்ப
இளவரசன்
கலையில்
புதுக்க
விளங்கி
##ாட்சியின்
மியூசிக்
ஆட்டக்கார
சேர்ந்தவை
சேர்மங்களை
பிரிட்டானிய
முற்றிலுமாக
விதிமுறைகள்
திருவாங்கூர்
பாடலாசிரியர்
வைக்கப்பட்டு
கைவிடப்பட்டது
சேர்க்கப்பட்டு
பல்லுறுப்புக்கோ
##88
##CS
##ூம்
##ெளி
Rh
##ிர்க
mus
சுஜ
பாஜ
##ீனின்
##்திரு
7540
8291
Work
பன்ம
##டுபவர்
##ர்த்து
கல்லு
படையை
உக்கிர
சாதகம்
தினத்த
பஞ்சம்
மாம்பழ
வில்லி
##ையினரால்
Housing
திறப்பு
நெடுங்க
பரம்பல்
Heritage
##ாக்கப்பட்ட
அடித்தளம்
ஒன்றையும்
சமூகவியல்
உருவாக்கல்
தோற்கடிக்க
ஆய்வகத்தில்
உதவுகின்றது
பாடசாலையில்
வெளிநாடுகளில்
##ஹே
##ney
##uck
##மானை
##ரெஸ்
Not
ஃவு
வெண
##uring
##ியூட்
9221
அதிய
கணேச
ஜியோ
பலிய
##ப்படக்
15831
டெக்ன
மறக்க
மூவர்
##ரங்கில்
சுவரில்
நிஷாதம்
படுக்கை
கழிவுகள்
குறைந்த்
கையாளும்
சேர்ந்த்
கேள்விகள்
நேர்ந்தது
படிகங்கள்
பாபிலோனிய
பின்பற்று
உபகரணங்கள்
கிலோகிராம்
முடிவடைந்தது
உள்கட்டமைப்பு
எழுத்துக்களில்
##td
##ிரத
##ells
164
Kam
syn
இடப்
தேய்
நேதா
##ர்வால்
##வர்களே
##ஸ்தானி
Found
Nepal
அவரோக
எப்பட
கழுகு
நாகர்
பங்கை
முழுஎ
லேசர்
இக்கல்
சுரேஷ்
தொடராக
நகர்வு
மனநிலை
##க்கோயில்
துரியோத
படிநிலை
விக்டர்
##ிருக்கும்
அலகாபாத்
இனத்தவர்
உட்பட்டு
கிளார்க்
செலவுகள்
ஜகார்த்த
பின்னும்
Education
இராமாயணம்
கழுத்தில்
பெயருக்கு
பெருக்கம்
வாக்காளர்
விஜயநகரப்
அணுக்களின்
சார்ந்தவர்
சுவர்களில்
சொல்லாகும்
பாரதிதாசன்
முன்னுரிமை
உடற்பயிற்சி
செயல்பாட்டை
இவ்விடத்தில்
கால்பந்தாட்ட
பத்திரிகையின்
பயன்பாட்டுக்கு
முடிக்கப்பட்டது
##வுவ
##ேலா
##யிக்
1865
பதம்
##பேட்டு
##மங்கள்
##ீன்கள்
இவ்வ்
சோதிட
மரத்த
விசிற
##த்தொகுத
##பின்னர்
டெஸ்ட்
மின்கல
குலசேகர
போலன்றி
##பகுதியில்
இக்கட்டு
குடிசார்
##ப்பாளர்கள்
இலையுதிர்
ஒலிபரப்பு
சூழப்பட்ட
முயன்றார்
விளைவிக்க
வெளிவந்து
உருளைக்கிழ
திகழ்ந்தது
பயன்பாட்டை
articleshow
பத்திரிக்கை
உபயோகப்படுத்த
##ja
##leg
##ண்ய
##ரசை
எதி
சேல
படு
மோன
1873
call
எரிக
வருண
##ிலாந்த
##ுவதோடு
இராசி
கிள்ள
குவால
மிதிவ
வரைய்
அங்குல
சிகரம்
பர்மிய
Company
அணைவுச்
செய்வதை
பீரங்கி
முன்னைய
இடதுசாரி
இந்தியர்
தோன்றிய்
பரதநாட்ட
வேலைக்கு
அடைவதற்கு
காஞ்சிபுர
கோலத்தில்
பங்கேற்க்
மறைந்தார்
தேர்தல்கள்
நீதிபதிகள்
விருதினைப்
கல்வெட்டில்
முக்கியமானவை
தயாரிப்பாளர்கள்
##78
##மேர
Ba
##சேன்
##ரைட்
##ல்க்
##ீசர்
Wes
ஃபு
ஐக்
##கைகள்
##ிடின்
இவள்
துன்
வன்க
##ச்சேர்
##யாவின்
கருணை
காதலை
சினிம
கனவில்
தரநிலை
வல்லமை
##புளோரைடு
சொற்றொட
நாயன்மா
வீராங்க
அடிமைகள்
அமைத்தது
இனமாகும்
கோபால்ட்
தூண்டும்
தொகுதியை
ஒரத்தநாடு
காட்மியம்
திசைகளில்
வானியலில்
விநியோகம்
டிசம்பரில்
பின்தங்கிய
மன்றத்தில்
மேற்கோள்கள்
பிடாரியம்மன்
##oz
##yc
எப
##nadu
##ுவிட
sch
##வள்ளி
சல்ல
சேக்
##க்கணம்
##ட்சித்
##த்தமிழ
##வானின்
Franc
மருது
வளர்வ
##ந்தியம்
##ப்பயன்ப
அதிவேக
ரிஷபம்
இந்தித்
இயங்கிய
கேப்டன்
பணியைத்
##ாலங்களில்
கொள்ளளவு
சார்ல்ஸ்
தற்சமயம்
பண்டைக்க
வளர்த்து
Published
தியேட்டர்
பகுதியைக்
முதலமைச்ச
பின்பற்றிய
செங்குத்தாக
பிரச்சினைகளை
இடம்பெற்றுள்ளது
##ோல
##akh
##ike
##kar
##nam
##off
##uff
##ஹன்
##கரம்
##பெட்
##ியட்
750
Van
அடோ
தேர
ரம்
life
காடி
##சைட்டு
##ற்பட்ட
##ினுட்ப
Offic
இராவண
நெரிச
பத்ரக
பாதாள
##மார்கள்
கடற்கர
கருதல்
மோசமாக
ஹிந்தி
கையாண்ட
நிதிகள்
மரபுகள்
மெய்க்க
எத்தனால்
ஓய்வூதிய
கிறித்து
குளங்கள்
நினைவகம்
லெட்சுமி
ஸ்டுடியோ
கருப்பொரு
காணப்படவ்
பொதுத்துறை
es
##கையை
##ளைச்
##வனான
கேள
##ariat
##ிராஜ்
Trad
அபிர
ஊத்த
கேம்
சுடு
நங்க
##ண்டார்
சாரதா
ராமன்
##புராணம்
##ுக்கட்ட
செம்பு
நெல்லை
பரஸ்பர
பிரயோக
கந்தகம்
குத்தகை
நிறைவேற
வாய்ப்ப
வித்துவ
ஸ்டீவன்
##நம்பிக்கை
##ப்பதாகும்
ஆர்மீனிய
இம்மாகாண
இயக்கும்
சமுதாயம்
திருநாள்
தொகுப்பை
மதுராந்த
வாய்பாடு
ஒளிபரப்பு
பேச்சாளர்
வெளிவந்தன
உணர்த்தும்
உள்ளார்ந்த
ஏற்பட்டால்
திட்டமிடப்
நூலகத்தில்
வாழ்க்கைத்
என்பவருக்கு
நோக்கமாகும்
வகிக்கின்றன
##BS
##வசம்
235
Mov
doi
##allur
town
##ெதிரான
அகஸ்த
பெண்ட
##agement
கிளம்ப
படையின
விசாரி
ஸ்டோன்
##ட்டங்கள்
##வர்களைக்
ஆர்வலர்
சுரப்பி
நாய்கள்
வாசிக்க
##ிவருகிறது
இக்கட்சி
கடல்சார்
பதார்த்த
பழிவாங்க
தேசத்தின்
பொம்மைகள்
மாணவர்களை
என்பவருடன்
கருவறையில்
கூட்டங்கள்
நிக்கோபார்
வீட்டுக்கு
எதிர்மறையான
நிலத்தினால்
வித்தியாலயம்
உருவாக்குவதற்கு
##ிள
##ைடை
##வாலா
Che
ref
அவன
##cript
2500
Khan
ஆடல்
கீதா
பூஜ்
##க்கிய்
பனியா
பருவம
##டுகளைப்
Ceylon
பாதையை
எரியும்
கார்ப்ப
பெண்ணாக
ரஞ்சித்
விசைப்ப
காயங்கள்
நீக்கும்
புதுதில்
அடைந்தனர்
இக்கோட்டை
சதுஸ்ருதி
பட்டாம்பூ
##ாளர்களுக்க்
வளர்ச்சிக்
விட்டுக்கொ
புராணத்தில்
பன்னிரண்டாம்
அத்தியாயங்கள்
உத்தியோகபூர்வ
##unj
BC
PA
##atab
##ஸ்தி
Wal
bas
##ச்சன்
##ரியான
இராய
சீதை
பிறை
ராமா
வீரம
##கோட்டை
##ச்செல்
##ன்றாம்
##ைகளோடு
Union
ஃவுளூ
ஆக்ஸி
##ீர்ப்பு
##ுகிறேன்
கணக்க்
காளான்
விளைவை
குண்டுவ
திரட்டி
விளிம்ப
தளபதிகள்
பண்டிதர்
போற்றும்
பிறந்தனர்
வளர்கிறது
புறப்பட்டு
Introduction
விட்டுவிட்டு
வெளியிடுகிறது
என்றழைக்கப்பட்ட
##OS
##no
##ேன
##னேரி
##ீரன்
114
ஓடு
##பிட்ட
##லுத்த
##ா்கள்
Alex
அநேக
சைக்
ஃபோர்
ஆடிய்
எதிரி
கண்டன
டத்த்
பயிரி
##டுவதும்
அணுகல்
கிளிநொ
கோளாறு
கோவிலை
தருவத்
நண்பன்
நேரடிய
##சாலையில்
Chapter
இலக்கம்
எந்தவித
கவிதைத்
சமயத்தை
மாஸ்டர்
வியாழன்
வெகுவாக
அளிக்கப்
நிலையும்
##ப்ரவரியில்
குத்துச்ச
தேரோட்டம்
நிர்வாகக்
நிறுத்தம்
மிகுதியான
##ாண்டியம்மன்
உலகெங்கில்
மேற்கொண்ட்
வரையப்பட்ட
நோக்கத்துடன்
செயல்முறையில்
தென்கிழக்காசிய
தேர்ந்தெடுத்து
மாநகராட்சியின்
திருவிடைமருதூர்
##for
##ோரா
ஜை
##கம்ப
##சக்த
##பெக்
##லிப்
Net
tri
அரவ
##ஞ்சர்
##லுக்க
##ாண்டா
1840
பீர்
ஹெல்
ஆக்ரா
ஒன்றி
சூழலை
திரிய
பெங்க
ஆயுதப்
சென்டி
மாற்கு
வைப்பு
##ியிலுள்ள
ஆற்றுப்
குறுநில
சிறுத்த
சுயம்பு
நிகழ்வை
##ப்புகளைப்
அவளுக்கு
எடுத்தது
எடுத்துக
கடற்கரைய
பழைமையான
ஆய்வுக்கு
எச்சங்கள்
கணக்கிடப்
##க்குழுக்கள்
இராகத்தின்
பிணைப்புகள்
மன்னார்குடி
மேற்கொண்டனர்
வீழ்த்தினார்
கொண்டிருக்கல்
தாக்குதலுக்கு
சுவிட்சர்லாந்து
பிராந்தியத்தின்
£
##ாரே
##லியை
##ாயின
Mil
Ull
##rough
##ொண்டா
டென்
டோர்
பரவ்
முகவ
லியோ
##ources
தும்ப
பிறகே
மலைத்
##ச்சத்து
அசோசிய
இடுக்க
கரையோர
ஜர்னல்
பாடலாக
மூலிகை
மேலாண்
##வாளர்கள்
ஒவ்வோர்
தாழ்ந்த
பருப்பு
வெங்கட்
வெடித்த
language
கிறிஸ்டோ
##ச்சேர்க்கை
தன்மையைக்
##ளிக்கப்பட்ட
இவ்விரண்டு
தானியங்கள்
தேர்தலுக்கு
வேதியியலாளர்
ஏற்படுத்தப்பட்ட
##ML
##கெ
##ஃபு
##ஆன்
Ur
ca
##கூர்
ராண
##ument
##ையுமே
ISBN
கழுக
சாமு
##சுந்தர
Units
தாமோத
நஞ்சு
பார்ச
பிராக
மேலவை
லியோன
வீசிய
##ராத்திர
##ெங்கும்
அடக்கு
அப்பர்
அறுதிய
இதற்க்
இரண்ட்
எழுதல்
கால்வா
சயனைடு
உள்வட்ட
பின்னடை
புறநானூ
##ிருந்தார்
இடாய்ச்ச
இயற்கைப்
சேர்மமாக
விழாவின்
##ச்சாரியார்
##டுகின்றார்
இரட்டையர்
சென்ட்ரல்
பயங்கரவாத
பள்ளிக்கு
கருவிகளில்
விவரிக்கும்
உருவாக்குதல்
தோல்வியடைந்தார்
##IV
##பரி
##ஷ்த
lk
##ிராத
VCH
##க்களை
1879
What
fact
incl
கியோ
செம்
டிரே
நின்
மகாய
##காரின்
##ஸ்டில்
கொற்ற
மஞ்சு
வகையை
##வையாகக்
##ாரங்கள்
இருண்ட
இலக்கை
அணுவின்
ஜார்க்க
பால்வெள
விமானப்
##ification
இவ்விதழ்
எதிர்வின
சொன்னார்
படைகளால்
இப்பிரதேச
பகுத்தறிவ
வேணுகோபால
##ப்புக்களில்
அதிகரிப்பு
அலுவலர்கள்
இப்பகுதியை
சேர்க்கும்
மொழிமாற்றம்
கையெழுத்துப்
சக்கரவர்த்தி
ஒப்பந்தத்தின்
கிறிஸ்தவர்கள்
கொல்கத்தாவில்
வளர்ச்சியடைந்த
·
##பில
##மனே
##ீஷ்
AP
##ெச்ச
Ben
##ureau
##ynast
##னிசிய
##பிக்க
##ேஸ்வர
Mount
ஒரிசா
பெறாத
விசேட
அதேபோல
இல்லாம
உயிர்ம
உருண்ட
வளிமம்
##டுகிறாள்
##நாட்டுப்
படையின்
முசுலிம்
##ப்பாடல்கள்
சதுர்த்தி
செயற்பாடு
நிறுவியது
பயணத்தின்
பொருந்திய
வடிவவியல்
##ப்படுத்திய்
என்பவர்கள்
கல்வியாளர்
இருக்கையில்
எழுதப்பட்டு
பணியாற்றும்
மேற்கொண்டது
கட்டுரைகளைய்
பாராளுமன்றத்
போன்றவற்றால்
வேட்பாளர்கள்
##வாழ
##்கே
CS
##க்ரா
##சீன்
270
can
எலெ
##ாய்ட்
Wein
சச்ச
சமான
பப்ள
##ட்சியை
##ட்டுக்
##த்தேர்
##மேனியா
##ுக்கால
கின்ன
கிழமை
##குப்தர்
##ிட்டுக்
ஆகிறது
உறுதிம
திரிபு
நேஷனல்
பாரிசு
வானில்
Density
முகப்பு
மைதானம்
வெப்பக்
##ர்களினால்
##ையின்போது
இறைவாக்க
கருத்திய
கொடுத்த்
நாளுக்கு
##ிருந்தபோது
##ுக்கொண்டது
கட்டங்கள்
சமூகங்கள்
நம்பினார்
முறைமைகள்
வன்பொருள்
ஊடகங்களில்
கட்டடக்கலை
சிகிச்சைகள்
யாழ்ப்பாணக்
ஒதுக்கப்பட்ட
ஆற்றங்கரையில்
##aim
##ots
ஜாத
பைச
##ாப்பு
பிலா
ஃப்ரீ
அடியா
இன்சு
இறால்
உங்கள
கண்ணி
கிளாச
கைத்த
பழுது
ஆத்திர
கூம்பு
செப்டெ
மாட்டு
விபரம்
ஸ்கூல்
##ங்கினார்
சித்தரி
ஜோடியாக
வான்படை
அழைப்பது
உடல்நலம்
எனப்பட்ட
குற்றஞ்ச
ரயில்கள்
ஸ்டுடிய்
அரங்கேற்ற
எழுத்தில்
பார்வையிட
மரங்களில்
ஆர்ப்பாட்ட
இருவரையும்
உருவெடுத்த
கூட்டாட்சி
கேள்விக்கு
நாச்சியார்
பிரெஞ்சுப்
விவாகரத்து
இருப்பதற்கு
தைட்டானியம்
குறிப்பிடுவது
அதிகாரபூர்வமாக
திருமணத்திற்கு
போட்டியிட்டார்
##ிரக
##ோடை
ஒச
##erst
##சுப்
##பாஸ்
##ரப்பு
##ென்ட்
1848
1866
காவல
சமன்
வலசை
வியூ
##ிகளோடு
Japan
உறுது
திருட
பெயரே
சித்தி
சைக்கி
தக்காண
நேர்கோ
பூண்டு
##ட்டியின்
##ராய்ச்சி
நிறமாலை
புண்ணிய
அண்ணாமலை
இடத்தின்
நிறங்கள்
எல்லோரும்
காரணமாகவே
திறனாய்வு
பூச்சிக்க
வாங்கியது
இதையடுத்து
சிறப்பாகக்
அமிலத்துடன்
இவ்வினையில்
கிராமமாகும்
நாட்டிலுள்ள
நேரத்திற்கு
விருந்தினர்
Publications
மாற்றப்படுகிறது
##VD
AI
##ருகு
##ென்ன
124
ஊரை
ரன்
##க்கச்
Mill
அரபி
##ாள்கள்
Guide
ஈப்போ
கொந்த
சமயச்
தளமாக
பலவித
பாரத்
மசாலா
மாடல்
வரலாற
வாசனை
##கர்லால்
##பாக்கம்
##ிருக்கு
Church
இன்பம்
இவ்விழ
ஐன்ஸ்ட
குறைவ்
சபைகள்
மரபின்
பிரவுன்
##வேதியியல்
கடத்தும்
நன்மைகள்
வரலாறும்
விண்ணில்
##ங்களுடனும்
##ைகளுக்குத்
அனைத்தில்
தொழினுட்ப
என்பதற்காக
ஆட்டக்காரர்
இளஞ்சிவப்பு
குழந்தைக்கு
நிகழ்வாகும்
பாலூட்டிகள்
மாநிலங்களவை
##mar
##ாண்
நச
##anet
##yles
##வளைய
been
serv
ஈதர்
நலன்
விவே
offic
right
உயிரை
ஐசிசி
குமுத
சரசுவ
செருக
மானாம
அநேகம்
கழிமுக
ஜெமினி
தப்பிய
விற்று
Project
அதிர்ச்ச
அறிவிப்ப
குருச்சே
செய்முறை
பியூட்டை
ஸ்போர்ட்
ஒருவருக்க
பொறிக்கப்
அருச்சுனன்
கூறுகையில்
சிறுவயதில்
புரோட்டான்
##ந்துகொள்ளும்
காணமுடியும்
திரையுலகில்
பொருட்களைக்
பாதுகாப்புத்
##வனே
##ெமி
##duct
##ever
##பக்த
##ஸ்லி
del
##ஃபோர்
##த்தைய
##னிமம்
1874
ஓரின
கலில
சாவக
புன்
மறுவ
ரைட்
இசுலா
ஈட்டி
ஜெய்ச
நவநீத
German
இந்நோய
இறைச்ச
உடுமலை
குன்று
சனத்தொ
தடைகள்
தில்லை
அதிகாலை
ஆயுர்வே
இலகுவாக
காய்கறி
பலவற்றை
மைக்கல்
யுனிவர்
ஒல்லாந்த
பூட்டான்
அகமதாபாத்
வாழ்வியல்
வேட்டையாட
நிகழ்த்திய
பிரிக்கும்
பெறுகின்றது
படைப்பிரிவுகள்
நிலைப்புத்தன்மை
##par
##ஐடி
##சேன
##ீது
##வேஸ்
நர்ம
பீஷ்
வினோ
##ித்தலை
##ைக்கார
##ையாடல்
Kumar
செண்ப
நீதிய
##பத்தில்
##்தோறும்
Bureau
இப்புத
கிராஸ்
தொப்பு
மணிகள்
##division
stories
அடைந்த்
என்போர்
சில்லறை
செருமன்
மிகப்பழ
##iterature
##ருகின்றது
villages
கொள்கைய்
பிரச்சனை
அமைச்சரவை
கதையாகும்
சேர்மத்தை
தருகிறார்
பாலக்காடு
மரியாவின்
வயிற்றில்
தொடர்புள்ள
நேபாளத்தில்
வரையறுக்கப்
கொள்ளப்படும்
மலையாளத்தில்
திருச்செந்தூர்
CN
Ir
##idae
##ious
##டுகோ
ரக்
##பியர்
1869
அர்க
இடுக
எண்ப
கேன்
டிக்
##ட்டிக்
தபால்
தாலுக
பிரித
பேராய
ரமேஷ்
##நீக்கம்
உட்கரு
தோலில்
பிரிவை
போளூர்
வல்லுந
##ிருத்தம்
Current
அதிகளவு
ஓராண்டு
செய்வர்
நிகழ்பட
பணிக்க்
போராடிய
##படுத்தும்
இவற்றைப்
சிறந்தது
பெருமையை
முத்தையா
தொகுதிகளை
நாடகங்களை
பூர்வீகம்
லிவர்பூல்
உணர்ந்தார்
செல்வதற்க்
பாடல்களின்
வடிவமாகும்
Secretariat
செயலகங்களில்
வழித்தடத்தில்
திரையிடப்பட்டது
##cc
##ela
##ளவே
AA
##2011
##சாட்
##டைன்
##நார்
##வளம்
cor
jpg
two
பலன
மஹா
##டலில்
##ோகிரா
அழுக
##த்துரை
##ப்பிங்
Civil
Synth
உக்ரை
சிவனை
மெகாவ
##eration
codice
அமையல்
இனத்தை
இலத்தீ
டாட்டா
பலவும்
பாலஸ்த
##சுத்தான்
பொதுச்ச
##ன்களுக்க்
Pakistan
சமாளிக்க
துறவிகள்
தெரியாது
நடத்திய்
முடிச்சு
இலத்திரன்
குடும்பப்
சிறப்பம்ச
சென்றபோது
நடித்ததன்
ரசிகர்கள்
விடயங்கள்
##ர்களுக்குப்
கட்டடங்கள்
பயிற்சிகள்
வெளியீடுகள்
ஏற்படுத்தினார்
##62
##DA
##eek
##udh
##டோனா
##மரிய
கமல
லோக்
##ப்போடு
இடையூ
குக்க
சவூதி
பாபர்
பிசின
மகாலி
யாப்ப
வசதிய
கனேடிய
செவ்வக
படிமம்
மலிவான
##ுகளினால்
அதிர்வு
அப்பொரு
அரேபியா
காகிதம்
கூறியத்
ஜூனியர்
தொடர்ப்
முற்கால
உலகத்தின்
தீர்வுகள்
பெனடிக்ட்
அறியப்படாத
அழுத்தத்தை
கருத்துகளை
பட்டத்தைய்
கூட்டணியில்
நிகழ்கின்றன
பிரதேசங்கள்
எலக்ட்ரான்கள்
விளையாட்டரங்கம்
##aiy
##unt
##ோயி
##alur
##வீன்
##ாதல்
law
##ammad
##ander
##கரமான
##லைகளை
##ல்லர்
##ானந்த
1862
ஆதிக
மாது
Buddh
கத்தி
டீசல்
தேங்க
பெர்ட
லடாக்
வணக்க
##மார்க்க
##ல்களைத்
அரங்கு
இதேபோல
கதைகளை
சமயத்த
நடப்பு
அதிபராக
அமராவதி
உடையதாக
என்றொரு
குழுவாக
கொடைக்க
சமிக்ஞை
சம்பவம்
சிப்பாய
நிராகரி
பாய்ச்ச
பூர்வீக
வணக்கம்
##ப்பட்டும்
இப்பிரிவ
எட்வர்டு
காலப்பகுத
மார்க்சிய
படுகின்றது
எதிர்ப்புத்
ஒப்பந்தத்தை
நெப்போலியன்
யாழ்ப்பாணப்
கட்டிடங்களில்
நீதிமன்றங்கள்
போக்குவரத்துக்
கலிபோர்னியாவில்
கிருஷ்ணமூர்த்தி
##84
##89
##னார
##பட்
pH
வௌ
##டிவி
##ராங்
##ிவாக
had
nat
தித
##atory
##னீசிய
Iran
post
ஆசிர
சுறு
தெலூ
மனநல
மூலக
கீழாக
மாறான
மீறிய
வீரம்
ஆடித்த
துத்தந
முகாமை
ஹார்டி
இடம்பெய
கட்டளைய
கலந்துர
புனிதம்
லினக்ஸ்
வேடிக்க
இவ்வாறாக
காசுமீர்
##ிருப்பதைக்
இனக்குழுவ
காவலர்கள்
பகுதிக்க்
படைகளுக்கு
கோட்பாடுகளை
கட்டுப்பாட்டை
குடியிருப்புகள்
##னில
To
அஹ
GCT
Tri
சட்
பழு
ரில
##erala
##நிலம்
##ப்பால
##ளத்தை
##ழியாக
This
காங்
கோலை
துர்
பெட்
ப்ளே
##ின்கள்
எதுவு
எழில்
கீழான
சிறுத
ஜாக்ச
நியமன
பகவதி
மெக்ஸ
ஆக்சிச
இருவகை
உலோகக்
கீழும்
தமிழரச
தைப்பூ
வாந்தி
Kingdom
ஆண்டாள்
கரையும்
கலங்கரை
சுமந்து
பெற்றவை
ஆபிரகாம்
சிங்கின்
சுயாட்சி
பரப்புரை
பாடங்கள்
மட்டையாள
ஸ்ரீபெரு
##புரீஸ்வரர்
தொடங்கிய்
பயணத்தில்
சுரப்பிகள்
பிரேசிலின்
சமஸ்கிருதம்
திட்டமிட்ட்
நாகபட்டினம்
பகுதிகளாகப்
இப்பள்ளியில்
செலுத்தினார்
சொல்லப்படும்
நிமிடங்களில்
காணப்படுவதால்
வழங்குகின்றது
உருவாக்குவதில்
##ca
##ube
அஃ
##டால்
##முது
##லெஸ்
##வெண்
##ென்ற
280
Tal
யங்
##டனின்
##ண்ட்ட
##மையம்
1855
எஸ்த
பதிக
மிட்
வினவ
ஹோல்
years
தம்பு
நொதிய
indian
ஆடுகள்
உரைகள்
மட்டம்
சிறுவன்
பேராயர்
இப்பாடல்
ஏஞ்சல்ஸ்
ஒட்டுண்ண
குழுக்கள
பேருக்கு
மார்க்சி
அளவீடுகள்
உத்திரமேர
என்கிறோம்
கிடைக்கப்
கொடைக்கான
மறுத்தார்
வியாபாரம்
உடையவர்கள்
தாக்கங்கள்
மராத்தியப்
உள்ளடக்கியத்
செய்யும்போது
தொகுப்பாகும்
மலைத்தொடரில்
செலுத்துகிறது
##85
##gar
##rin
BF
Nar
Rad
end
பைய
வஜ்
##bserv
##ண்டது
##பியம்
##ராமர்
Bank
சடைய
##ச்சாமி
##டுப்பு
##ட்டால்
##ந்தவர்
##வகைகள்
அல்லா
கெமர்
தோண்ட
மெழுக
நீராடி
மற்றவை
முகாம்
வரிகளை
வரைகலை
Village
அறிந்த்
சமத்துவ
சரசுவதி
எழுந்தரு
ஏர்லைன்ஸ்
திராவிடர்
புறநகர்ப்
வேண்டியத்
##ப்புறத்தில்
முயற்சிகளை
வீரர்களில்
Subdivision
செய்கின்றது
அனுப்பப்பட்ட
தோல்வியடைந்த
##ஸோ
##eli
##ிகே
##ஜிக்
##வாட்
Adv
ann
தசம
##ிலங்க
சரும
தன்ம
மேய்
##பெர்ட்
##வராயன்
##ுதலால்
##்குளம்
எதிரே
தனிமை
பெஞ்ச
##ச்சென்ற
##நோக்கிய
##பார்க்க
People
ஏற்றம்
கிருமி
முடக்க
கண்ணீர்
கூடியவை
தியானம்
திறந்த்
மறைத்து
அலைவரிசை
டென்னிசு
தெய்வமாக
போக்கில்
மலைகளின்
இடாய்ச்சு
இப்பேரூரா
செதுக்கப்
படுத்திய்
அத்திலாந்த
Environment
பிராந்தியம்
சிகிச்சைக்கு
##UR
ta
##view
##பைடு
##ரைல்
##ர்கே
##ெனவே
பஸ்
##திபர்
##மேனிய
Gand
nadu
சூல்
மனதை
மூர்
##ந்தாள்
##ப்பக்க
##ரங்கசீ
##ுவதைத்
அமீர்
இறையா
இவ்வெ
உருவக
சீனம்
அணிவகு
காவலர்
சந்நித
நாவலர்
பார்வத
##ப்படைகள்
ஆண்டுகள
நாட்டம்
நீர்மம்
பிரபலம்
விமானச்
உடலுக்கு
கலக்கும்
வெடிபொரு
பார்க்கல்
வருகிறான்
விளம்பரம்
இராஜஸ்தான்
வெற்றிக்கு
ஆராய்ச்சிக்
தொகுப்பாளர்
புராணங்களில்
##rak
##ror
Ga
PC
##anur
##சுறு
##ோவிய
இலு
கீத
சாஹ
வனே
##other
1868
Fall
Land
ஆழ்க
டின்
பரசு
லார்
வெப்
##வரலாறு
சம்மு
வட்டு
உதவியை
ஹாங்கா
ஆந்திரா
உத்தரவு
திறமையை
பல்துறை
மலைக்கு
##த்தினரும்
##மயமாக்கம்
அடிக்கல்
இணைகிறது
என்னுடைய
தேவியின்
நுழையும்
மதத்தின்
இசைக்கருவ
சாதனையைப்
சொற்களில்
தன்னகத்த்
புரோட்டான
பெரிலியம்
வர்த்தமான
Historical
இணையத்தளம்
சிலவற்றில்
திரைப்படப்
படத்திற்கு
நடத்தப்பட்டு
கட்டுப்பாட்டின்
##நதி
Up
##ords
##ஞ்சோ
##ட்டே
121
மொர
##ர்ந்த
##ித்தோ
முசோ
லாங்
##லிக்கு
##ாற்றல்
Psych
எண்ணை
ஒருமை
மூடப்
##ல்லியம்
##ிஸ்தான்
காங்கோ
சித்தா
முறிவு
##மாட்டிக்
கட்சித்
கற்றுத்
தீபாவளி
நடையில்
மிளகாய்
##ுவிட்டார்
எடுத்தல்
தன்னிடம்
பதினைந்த
பொருளும்
மாலையில்
அகத்தியர்
இந்நகரில்
இப்போதும்
சட்டபூர்வ
உருவாக்கவ்
கல்வியியல்
போலல்லாமல்
விடுகிறார்
வெற்றியைப்
கருவியாகும்
சட்டப்பூர்வ
சந்திரசேகர்
பன்னாட்டுக்
துறைமுகங்கள்
விண்வெளியில்
வேலைவாய்ப்பு
##pos
AN
எய
##ains
##atan
##ரூர்
##்குழ
650
Gaz
இரே
உலை
தளி
செவி
தடவை
நள்ள
பேஸ்
##ினியம்
##ியேற்ற
கோல்க
சுடலை
நாடான
வேந்த
Empire
Global
அடைப்ப
டேவிஸ்
தசைகள்
##ம்பூரில்
என்றனர்
சொல்வது
பெயரைத்
##வர்களாவர்
சுந்தரர்
செயலாற்ற
தமிழரின்
நோக்கிப்
பகிர்ந்த
அழிக்கும்
காட்டியது
குண்டுகள்
நூலகங்கள்
வரையறைகள்
வழங்குதல்
##ெழுத்துக்கள்
அவர்களுக்க்
திருமங்கலம்
நிலநடுக்கம்
உருவகப்படுத்த
நிறுவனத்துடன்
வகைப்படுத்தல்
இத்திட்டத்தின்
துவங்கப்பட்டது
மேல்நிலைப்பள்ளி
##ux
##enc
122
129
App
மீய
அறம்
வாக்
##எம்எல்
பாவம்
இடங்கள
உடுத்த
ஐதராபா
கர்ணன்
குறும்
திணிவு
பரிசாக
வணிகர்
##ாதவர்கள்
ஒன்றைத்
தலைமைச்
திருவாத
Weinheim
எழுதியது
கருத்தரி
நிலைத்த்
பாதியில்
முன்னேறி
வளர்ந்த்
ஏற்படுவது
கிலோமீற்ற
குறிப்பத்
பிரகாசமான
வெளியுறவு
##ிருப்பினும்
கட்டங்களில்
அனுமதிக்கும்
தோட்டங்களில்
இல்லாவிட்டால்
வேலைப்பாடுகள்
செயல்பாடுகளில்
##uf
SI
Us
தௌ
##சோல்
##ாசார
111
260
Mot
Pur
த்த
பெட
மேட
##கார்ப
##டியன்
##பாலன்
Cong
லைவ்
இதைச்
கயிறு
மரிய்
மார்ப
மீதம்
##மாக்கள்
##முடையது
##ினியின்
உச்சரி
கோட்டா
மதத்தை
மதுபான
Article
அஞ்சல்த
ஆரம்பப்
கணிசமாக
தந்தையை
பருவகால
பெறுதல்
வம்சாவள
விவாதம்
தளத்தின்
மகாராட்ட
கையெழுத்து
மதிப்புள்ள
Engineering
பிரச்சனைகள்
விழாக்களில்
திருமுழுக்கு
விளையாட்டுக்
கிரேக்கத்தில்
கூறுகிறார்கள்
##64
##wa
##het
##abad
##டனம்
##லானா
##ஷ்டை
Acc
bet
inc
அசி
சான
##epend
##ethod
##ப்பயண
##ளியல்
##ிலால்
1830
Trib
காரி
மறைய
##னையில்
##ல்தான்
##வதாகக்
ஆக்சு
நெற்ற
##த்திரப்
##ந்திகள்
தொட்டி
முப்பு
வின்செ
அச்சில்
என்பதனை
##ாலயத்தில்
இந்தியச்
இனத்தில்
கருவியாக
சுற்றுச்
தடைசெய்ய
துறைக்கு
நகர்ந்து
நீள்வட்ட
##ுள்ளார்கள்
இருப்புப்
வெவ்வேறான
பட்டியலின்
குழுக்களின்
முன்னணியில்
போர்முனையில்
வீரர்களுக்கு
ஒளிப்பதிவாளர்
##imb
Go
Ha
ma
##செய்க
##ணையாக
##தெய்வ
##ன்னர்
1856
2020
சாறு
துக்
வர்ம
##வெட்டி
திரிப
முந்த
உதவிய்
கரிகால
பவுண்ட
Culture
அச்சுப்
அணையின்
ஒற்றைப்
குருவாக
சிவத்தல
சூரியனை
தாய்மொழ
நேர்மறை
வடிகட்ட
வைத்தல்
##ச்சொற்கள்
அமைப்பான
உத்திகள்
ஏற்பட்ட்
தானியங்க
நாவல்கள்
மனைவியான
அடைகின்றன
அதிகமாகப்
இம்மக்கள்
அமைகின்றது
ஒளிப்பதிவு
பட்சத்தில்
மாலிப்டினம்
இப்பல்கலைக்க
இருந்தார்கள்
உத்திரமேரூர்
குற்றஞ்சாட்ட
அமெரிக்கர்கள்
சேர்க்கப்பட்ட
நெடுஞ்சாலைகள்
கல்வெட்டுகளில்
##ௌரி
##ween
##icine
##round
##மேற்ப
##ில்லை
குன்
சேரு
நக்ச
மனோர
##ட்டனர்
##ுகளோடு
##ுங்கள்
அளவாக
கிணறு
தலமாக
ரெங்க
##ட்டனின்
number
அரசனான
கச்சேர
கோதண்ட
##ங்களுக்க
உடைந்து
கண்டனர்
புதுச்ச
போகிறது
வரிவடிவ
அமர்ந்த்
அழைக்கல்
காமராசர்
செல்வந்த
##காளியம்மன்
புனைப்பெய
அவற்றுக்கு
உற்பத்திப்
திருத்தலம்
நிறங்களில்
நூற்றாண்ட்
பொதுவுடைமை
##த்துக்கொண்டு
krishnagiri
இயக்கப்பட்டது
விக்கிப்பீடியா
கதாபாத்திரங்கள்
##br
##mp
##ஹு
ge
ய்
##ryst
##கட்ட
##ாளம்
Bri
Tur
எறி
##ியானோ
1863
Time
ஆகாய
##வாங்கி
அதிரு
க்கான
ஜானகி
தந்தி
நேராக
பூம்ப
வானில
##த்துவர்
##ிக்கின்
##ையிடும்
Office
எண்முக
காத்மா
பதின்ம
Ullmann
அவ்வளவு
இடுப்பு
உடைத்து
நுகர்வு
வாய்வழி
அவற்றைக்
ஆர்சனிக்
கந்தசாமி
சுறுசுறு
பாசுபரசு
##்
##க
##ி
##த
##ு
##ப
##ம
##ர
##ட
##ா
##ல
##ன
##வ
##ற
##ய
##ை
##ள
##ச
##ந
##.
##இ
##ண
##அ
##உ
##ெ
##ஆ
##,
##ே
##ோ
##ொ
##ழ
##ங
##எ
##ூ
##a
##1
##e
##ீ
##0
##i
##n
##t
##"
##o
##r
##2
##ஒ
##s
##9
##ஸ
##)
##(
##l
##h
##c
##-
##d
##m
##5
##u
##ஜ
##8
##ஏ
##7
##3
##4
##ஊ
##6
##p
##/
##y
##g
##:
##ஞ
##f
##w
##ஓ
##A
##ஷ
##S
##ஹ
##C
##b
##P
##v
##ஐ
##k
##I
##T
##M
##ஃ
##E
##R
##B
##'
##D
##ஈ
##N
##G
##H
##;
##%
##O
##L
##F
##K
##]
##[
##W
##J
##V
##–
##x
##ௌ
##=
##U
##_
##z
##j
##’
##”
##&
##?
##“
##|
##Y
##+
##‘
##q
##X
##°
##!
##Z
##Q
##$
##−
##>
###
##é
##<
##ā
##—
##ा
##*
##α
##•
##ا
##र
##्
##}
##ஔ
##а
##ü
##ä
##×
##о
##^
##μ
##{
##′
##ل
##→
##и
##ि
##β
##ο
##æ
##á
##`
##ö
##त
##ī
##ر
##क
##н
##न
##π
##ς
##í
##ن
##р
##е
##म
##م
##व
##\
##ρ
##स
##σ
##ν
##ी
##~
##£
##т
##λ
##θ
##с
##·
##ó
##ι
##௦
##в
##л
##ु
##്
##τ
##⁄
##ي
##ε
##ल
##د
##ب
##к
##े
##و
##प
##द
##ی
##ū
##è
##γ
##س
##া
##ō
##ं
##κ
##य
##ग
##ə
##Å
##ह
##י
##ı
##ç
##ज
##Δ
##@
##у
##ˈ
##ஶ
##±
##ί
##à
##ه
##ो
##श
##ت
##δ
##д
##ː
##η
##ω
##ē
##φ
##й
##௨
##್
##м
##ו
##€
##ό
##ാ
##ع
##ñ
##ക
##â
##г
##ण
##भ
##ج
##ब
##ƒ
##ി
##ה
##ರ
##ح
##ध
##я
##్
##্
##র
##ق
##É
##ú
##א
##ش
##च
##₹
##ã
##́
##ά
##ṇ
##ы
##п
##х
##ര
##υ
##ट
##ర
##ة
##௧
##§
##ड
##अ
##ি
##௫
##ר
##ف
##ष
##ಿ
##ത
##ś
##С
##б
##έ
##ь
##മ
##ê
##ô
##š
##ɪ
##़
##ా
##ు
##ø
##ന
##¢
##מ
##්
##ב
##ਾ
##ു
##ి
##ল
##௭
##ন
##ṭ
##ک
##ু
##χ
##ч
##≤
##»
##ಾ
##ל
##ز
##∞
##ɑ
##ή
