[PAD]
[unused0]
[unused1]
[unused2]
[unused3]
[unused4]
[unused5]
[unused6]
[unused7]
[unused8]
[unused9]
[unused10]
[unused11]
[unused12]
[unused13]
[unused14]
[unused15]
[unused16]
[unused17]
[unused18]
[unused19]
[unused20]
[unused21]
[unused22]
[unused23]
[unused24]
[unused25]
[unused26]
[unused27]
[unused28]
[unused29]
[unused30]
[unused31]
[unused32]
[unused33]
[unused34]
[unused35]
[unused36]
[unused37]
[unused38]
[unused39]
[unused40]
[unused41]
[unused42]
[unused43]
[unused44]
[unused45]
[unused46]
[unused47]
[unused48]
[unused49]
[unused50]
[unused51]
[unused52]
[unused53]
[unused54]
[unused55]
[unused56]
[unused57]
[unused58]
[unused59]
[unused60]
[unused61]
[unused62]
[unused63]
[unused64]
[unused65]
[unused66]
[unused67]
[unused68]
[unused69]
[unused70]
[unused71]
[unused72]
[unused73]
[unused74]
[unused75]
[unused76]
[unused77]
[unused78]
[unused79]
[unused80]
[unused81]
[unused82]
[unused83]
[unused84]
[unused85]
[unused86]
[unused87]
[unused88]
[unused89]
[unused90]
[unused91]
[unused92]
[unused93]
[unused94]
[unused95]
[unused96]
[unused97]
[unused98]
[unused99]
[UNK]
[CLS]
[SEP]
[MASK]
##en
##in
##ta
##is
##an
.
k
j
##ll
##on
##sa
##si
##tt
,
v
m
##al
##te
p
##es
s
##er
##li
##ti
##tu
##as
ja
o
##ka
##uu
##än
##oi
##el
##uo
1
##ar
h
l
##tä
-
##ik
S
##to
##us
##va
##un
on
##ja
"
##ma
##il
##et
n
##lla
##ri
##ty
2
##os
##ks
K
e
##ki
##tti
##een
##ra
##tta
##ksi
M
H
19
jo
T
a
##ko
##mi
A
y
##den
ta
##ul
##ää
##aa
P
##sä
##inen
20
ka
##ista
V
##lle
##or
L
##vat
sa
oli
##ir
##mm
##it
tu
##na
##ke
##ut
si
##le
al
##issa
##ia
)
R
(
##ku
##de
##yö
mu
##isen
##la
E
se
##assa
##op
B
ko
##im
##uon
##pa
r
J
##ttä
##ur
##llä
##vä
##vi
##he
N
##ne
hän
C
##ala
##hd
te
##kin
##ttiin
va
:
##ei
##kuu
##man
##asta
##ten
##uonna
##isi
vuo
##kä
##ttu
ma
##ys
##mp
##ana
##llis
myö
##essa
##ssa
##ol
I
201
jä
##ina
##jo
##ksen
kä
##mä
##uk
200
t
en
##jä
##mis
##esta
–
vi
G
##pp
val
##men
ra
vuonna
D
ku
##yn
F
##ha
la
myös
##re
##se
kan
Hän
##ro
##taan
O
##tel
to
##tus
##up
pää
##iv
voi
yh
pi
/
##usta
##om
##ih
##uv
per
##uun
##jan
##eh
joka
##sin
##ken
##kaan
##tö
Y
##uh
toi
##eli
##ossa
ei
##kuuta
li
##äh
##lo
##oin
##ita
##maan
##itt
##istä
3
##jen
##min
as
W
el
##teen
##oh
##joi
##van
##esti
er
##ton
##iin
##vät
pa
##rin
##ise
kes
ha
ti
käy
##ään
##essä
Ka
kun
##00
##mmä
##kun
esi
##aan
##utu
suo
##issä
##yt
##ue
##di
Suo
ovat
kir
##iste
tai
##isä
##tin
##ch
kuu
##ura
##taa
saa
##isto
##ttel
##yy
##ie
Sa
##itä
tä
##mer
##iden
pel
18
vä
ty
sekä
##lan
mutta
##tan
##ve
U
199
##utta
##tettiin
”
##val
##ky
maa
##rj
ar
##kon
##uol
f
että
##itse
##ön
##ing
Se
osa
##yh
##keen
##ran
##kka
##simmä
##iksi
##ni
4
##koi
##tty
jäl
##iset
##ika
sen
##uks
5
##od
##ssä
##tyi
##ev
##kan
##nan
##ella
nä
##nut
##upun
##tiin
##estä
pal
##at
var
##ussa
ole
##ien
toimi
il
##stä
##gin
##ud
suu
muu
##isten
ker
##ed
##maa
kanssa
La
jul
##osta
an
us
##mmin
##uksen
##pi
##ho
jälkeen
luv
uu
##istu
ensimmä
##hta
##ili
##ila
##män
vasta
##me
Ma
198
##isia
b
##ime
Al
läh
ki
##ui
##iten
##oli
ni
##ot
##sen
##ua
sija
par
tun
##hin
##lä
##ali
tar
##lli
jon
kil
yli
elo
kuul
lop
kol
##uus
6
##tka
##ter
##kil
##um
##da
##kko
##tään
sai
so
perus
##ikka
##ari
##etta
##tto
mi
##ukku
##isesti
he
##ikki
tuo
##uden
##ven
##so
##isti
##inn
197
Ta
kor
##ee
##ulla
##tion
aik
kul
##isin
##mo
##usi
##kki
Vuonna
##ea
##ttaa
julka
##tui
##lleen
mukaan
7
##kuussa
hy
##per
seura
##vin
##asti
jonka
##ig
An
sy
##sia
d
Suomen
##mat
##hdys
Vi
##llut
##tys
kaupun
##ans
##pail
vuoden
##ulu
eri
kuiten
met
##toi
siir
raken
ed
##og
mer
##mista
lä
##inä
##pan
8
196
En
jossa
puol
##eita
##ude
teh
Ra
##ula
##mpi
##kk
##din
##vaa
ky
luo
Mar
##är
muo
hänen
##vel
##hti
c
##ian
##ale
Ne
##alainen
9
##riä
##ike
##jana
kut
yksi
##pä
##ell
##uole
##voi
##ber
##ic
##asi
##nen
Ro
##tettu
van
alue
Hel
##rjes
##ksia
##sina
na
##minen
eloku
muun
##jän
##kseen
##malla
maail
##hdo
##rä
noin
##ino
olivat
##ria
men
##je
194
##vo
##tio
oh
kuin
##rja
##ttö
kas
ol
##iko
tuli
##han
tie
op
Ha
##tr
##isiin
ver
os
##elle
yhte
kuitenkin
##ttää
##enä
Tä
##uku
##mia
eli
195
##uro
##lin
##istö
työ
kaksi
17
##ano
muassa
sijaitse
##id
Pa
in
ro
##jel
##yky
##alais
##ikuu
##una
##jaa
##mään
syn
Ar
##ansa
##uko
##isäksi
##ck
##valta
##misen
aikana
193
##uoli
##son
##ikä
##kaa
keh
sisä
##alis
##massa
##tie
Suom
##alta
##bu
ollut
koko
ne
##ann
##ara
In
##ver
##tyy
##ons
To
ve
##ohjo
##oita
##ts
15
##kus
##lloin
näy
##tia
10
##sta
##eksi
mon
no
##ukkue
maailman
##ren
Helsin
##isuu
##do
suun
##ille
##tte
Ja
Vuo
teki
##desta
12
##ker
##tun
toimin
##tuu
##osa
##elä
de
tunne
yhd
tapa
kos
##yr
##tää
Jo
##eseen
##llinen
##tki
##nin
valmis
Yhdys
pit
##ellä
##ksa
nim
##oitti
192
16
##merk
The
hen
voitti
ul
##ine
vain
le
nel
##llo
g
##tuksen
Ko
jotka
##kö
po
lo
##hemmin
alu
##jär
##oon
suom
##uta
Ch
kansa
kapp
##asto
##tyn
sä
##ip
##elta
is
##ito
##ohjois
las
##000
##uto
##lainen
##arr
191
of
liitt
elä
##kas
##ikan
ih
##ihe
##isiä
##nus
muod
11
##jat
##ce
##kea
kar
Va
##ihin
yhty
Sen
##vän
##eiden
käsi
##tar
##telä
laa
##ros
mää
##iseksi
##pu
pä
pien
esiin
nimi
##udella
##uot
##llisen
14
use
ottel
nime
kesä
##merkiksi
##llisesti
ilm
##llin
He
##vu
##istel
##iseen
##mmen
##der
##llan
##var
väli
##ope
luvun
vuosina
##ga
##öy
##ek
yle
##tien
##ase
ase
sijoi
kilpail
##mien
##tteli
##omet
w
Le
##th
##tusta
kirjoi
##tuks
vaik
kuten
##las
tutki
jat
##illa
##no
yliop
##uuden
##ikko
##estar
joh
##utui
ri
nyky
lu
##po
luvulla
##ard
kah
lähe
merki
vastaan
000
vir
ke
##via
##ite
##daan
##ksan
Re
hel
##neet
##ge
lev
'
##non
##isa
##io
##oiden
pelaa
Na
##ento
##osto
julkais
##eltä
##uroop
pelasi
kaikki
jää
##odan
har
2010
seuraa
##inta
##kke
##kia
##mma
13
##ikk
0
##sti
Co
alku
##ikuuta
Suomessa
käyte
##mon
##erin
kon
##ill
##kir
##vien
##ttuu
##eet
##llaan
##kunnan
##elin
##mää
järjes
maan
aika
##san
##tila
##nä
pro
##oo
ensimmäisen
##yi
ään
Hänen
##kunta
##oitta
kirja
myöhemmin
##gen
ala
tur
Z
##use
tarkoi
hänet
2009
puh
##hi
jäsen
Ba
yl
lisäksi
yri
##isty
ennen
esimerkiksi
2011
sijaitsee
jolloin
##kana
##ba
2014
##itsi
Myö
run
##uor
Joh
Kar
poi
##eri
ur
##iken
sel
Kun
2008
##opim
2007
##oilla
##ff
##ulta
##raa
##ini
So
Li
##ttp
##miseen
##matta
hei
hyö
##toa
siirtyi
pala
Si
##kilö
##alin
musi
teo
sitä
Tur
2012
##tal
alkoi
##johta
valta
hä
##jon
löy
oike
##jaksi
hal
##nö
##tis
johta
Da
Euroop
itse
ede
##ub
##alan
Venä
vaih
tapah
pitkä
osallis
kaupungin
;
##kuun
##olog
##uolella
mahdo
##tor
min
Lo
##ssi
niin
kolme
##anta
ymp
2013
##pe
##ug
##tyks
##kes
##bo
ensimmäinen
##era
viime
##ttui
2015
##änyt
ulko
##iso
##joon
sillä
neljä
suur
##ttua
##lta
Bri
##visi
poli
_
et
syys
##iä
##puol
##pin
##mman
2006
Val
Kes
Pe
##ukko
kiin
##itattu
##ikin
Helsingin
tule
metriä
or
##yd
##uhti
kilomet
##tynyt
ero
the
kuulu
edusta
luon
voidaan
##arras
san
##menta
suuri
Mon
2016
jal
väl
##tyksen
Ho
##ulun
##miin
##yl
##tee
##oihin
##kkä
kuva
Kir
pys
25
Nä
##yys
histo
##glan
##ttia
keski
##eensä
tamm
kauden
mil
##dessa
##su
ajan
##gi
hi
Rans
eivät
av
Es
huo
kehi
Ca
Per
##llista
##pää
jota
albu
maalis
New
kuuluu
saman
kunn
joukkue
epä
vali
muodos
’
##ele
hyvin
Nor
joulu
vuosi
##don
##iston
saar
vuotta
30
loka
&
Mo
hall
##ttävä
##co
kier
##viä
##valla
##tiö
##toja
väh
http
##ry
##kti
aihe
Te
vielä
##kee
##paa
190
##laa
##gan
touko
perin
##dan
piir
##vassa
##ca
heinä
##dän
re
korke
talo
käyttö
##uvosto
##for
##järjes
##tön
##ilta
##mei
##neksi
##mus
##ist
##ukka
kautta
##dio
=
##jien
henkilö
##uissa
taistel
##väl
vaa
vuodesta
##onin
alueella
ryh
##uri
%
##kuva
huhti
me
##ueen
##vuo
marras
##kul
2005
2017
##toon
##iri
##iton
aloitti
lopp
helm
olla
##res
##nettiin
aina
##tetaan
##isessa
lin
De
Is
##llen
##sio
siitä
ww
##uksia
##von
##ark
www
##perä
koh
usein
län
##ikun
julkaistiin
mestar
##uka
mukana
MM
pide
pu
##gel
opis
##nitt
elokuva
##rjan
##mpia
##vasti
2000
Viitattu
##joen
##ottel
Bo
yliopisto
sisäl
##kiel
##alaisen
sarja
##uma
##and
yhdys
koska
tyy
##teli
##mistä
etelä
##rik
##uksessa
suomalainen
##tojen
##keli
##yttä
pohjois
mieh
paika
olisi
##pall
##llisuu
aja
Ber
lento
##kos
tämän
21
Me
##siin
saan
kaupunki
##isella
kappal
erity
Ensimmä
laiv
puu
2004
Ga
##pal
##ang
it
##oa
##arin
##her
##iva
##por
##kel
piste
##uksi
##tter
##tali
peli
##tunut
Car
##tua
vah
##jia
##enn
Pohjois
##ivä
##kusta
##joukkue
##ör
##yyn
taka
tul
vuoksi
##puolella
##tetty
22
työs
##ron
##ttanut
kolm
##uttaa
yhteis
leh
kaudella
##ly
Vuoden
jos
i
olevan
mo
##ppi
##län
tehtä
##mb
perusta
yhteen
##imp
ent
##isena
Jär
##isessä
##ji
ä
tila
levy
jalka
hyvä
määrä
##talo
##iti
ilma
##oja
##kaupun
##rjassa
##isissa
Lisäksi
24
##kset
##nistu
kappale
For
##und
tal
parha
miljoon
##tra
halli
auto
jär
Ni
##änä
##ilä
##kar
itä
joista
##utti
##go
oly
23
vas
useita
keskus
josta
Elo
##nassa
palvel
fi
##ksin
##kilpail
Par
sano
kiel
muuta
ter
##telmä
edus
pre
juu
yhdysvalta
puoli
##wa
2018
##ministe
työsken
alueen
uude
Kor
##ttaja
ohjel
mikä
##ojen
Ruot
Por
##mmän
Suu
##esin
käyttä
##ukkueen
No
##tele
ilmes
##siden
Seura
##mmat
##ukset
##met
jäi
##uran
##rke
##ela
and
com
Ke
##masta
##mies
lap
##llisuus
sopim
As
tava
nousi
Po
II
189
yhtye
syntyi
her
##hy
Etelä
##uli
##vana
liig
päiv
##tori
kaa
##alue
lyh
yleensä
Jos
Itä
##sy
suh
##uja
+
##miä
kerto
Myös
Lin
näytteli
##järven
käytetään
##tetta
armei
maaliskuuta
alussa
tuotan
John
pros
Yh
suosi
1990
##ilija
nimellä
Th
##ttori
##HL
suori
##eilla
##ukseen
liik
lähes
##det
kokon
eikä
##itto
kertaa
##dä
27
Ki
Vir
##of
##tuus
##ess
##rian
Har
2003
koti
yhtyeen
##risti
yhden
Pi
tammikuuta
##inväl
for
##ers
oma
##ene
syö
##alia
##sal
##ile
kat
##alaisten
28
Amer
palkin
##ona
huhtikuuta
Yhdysvalta
Van
##kirjoi
kuului
ihmis
26
toukokuuta
Un
asti
Fran
yhdessä
mm
##ttom
alle
kahde
syyskuuta
lokakuuta
kesäkuuta
kuole
##onen
tieto
vuotia
kys
aino
kerran
##aston
##sivat
Mi
##etti
alka
##isar
luku
tasa
##inin
ken
##ily
Ve
##ani
poh
täy
kilometriä
Fa
Ri
asi
##berg
Ge
tapahtu
##ihen
##istaan
joulukuuta
vapa
heinäkuuta
##hden
##ksy
##vää
helmikuuta
##tten
kuoli
toinen
##est
kymmen
Tämä
##osti
1980
##lly
##isyy
kuning
mat
tärke
Ed
2001
nuor
suurin
paljon
##alaiset
kään
Yhdysvaltain
##urin
##ksiä
##ikuussa
##lais
kasva
kulttuu
Saksa
ava
##eihin
toisen
menes
2002
vuoteen
##tur
valittiin
Euroopan
aie
##isellä
ehdo
kal
elokuuta
teke
##mana
##kirja
osallistui
niiden
musiikki
Sch
tele
itsen
asu
Her
opp
han
Britan
marraskuuta
suunni
Venäjän
##vasta
##ikaan
##iselle
lähtien
Neuvosto
35
myy
Alus
tehd
##oitu
erila
Ale
kansan
suunnitt
San
joukko
uusi
kirkko
pol
##kien
##ris
##imo
##hen
saanut
##oike
tied
joissa
julkaisi
##ineen
vaan
saksa
##heil
kolman
Sal
joita
laske
siv
joiden
suku
Yor
Af
Vä
Saksan
##mper
kutsu
##tän
##tystä
29
ympär
##kauden
saavu
toimii
##ds
sijoittui
##llisia
kau
Var
##uc
Hä
1970
##raken
188
Q
##my
##elo
##hol
tote
vesi
X
##tuo
koul
##misesta
##meen
televisi
##teo
Il
mur
##itti
##aika
##jasta
sota
2019
##mmi
Oy
##ikon
##jassa
presiden
100
##mina
Hänet
tulo
yleis
di
Hen
##mieh
vara
##ivi
##ju
opiskeli
joutui
##mar
palasi
##kiin
pr
Itali
arv
Nyky
rakenn
##peli
Bar
valmistui
onnistu
kehitt
liitty
##pel
##rien
##tit
##jaan
lopulta
miel
Ste
##haa
vastaa
Man
nope
##essaan
amma
käyttää
##nettu
Tämän
vaikka
nuo
##uni
##oni
tuho
##par
##ikkaa
do
Os
##ong
Wa
##ms
soti
##unut
Ku
Pro
##kkaa
su
välillä
kons
keske
##vissa
seitse
##lliset
Mu
##illä
kansainväl
edelleen
##järvi
Neuvostoli
Ky
##lija
El
saakka
##kkö
1960
##ht
##ttain
##mällä
Kol
##öl
uuden
tunnetaan
perustettiin
##ystä
##ru
##isille
##rit
##bi
prosen
Kaupun
perusti
esiinty
jolla
alkuperä
##ci
aikaan
##onsa
##tut
avulla
kär
kaik
ruo
Yhdysva
siihen
pur
##työ
pan
##teet
##isesta
pinta
##imen
es
Kos
50
jopa
vanhe
lis
##mula
##ger
vel
julkaistu
##kään
##teki
1999
takaisin
perä
nimen
##missa
sarjan
##sk
ene
yhde
kuo
Ranskan
##ota
##änsä
viisi
Tamper
##vaan
kap
##ttor
neljän
##aria
##eenjohta
##sodan
##isenä
Maa
kuitenkaan
metsä
##lleet
koulu
Er
tulee
arvo
asuk
Pal
ensi
sää
Britanni
uudelleen
sävel
sin
Yhdysvallo
rauta
##utuu
ran
Je
##dy
##har
SM
Mer
taas
lisä
##kunna
arvi
##laisen
##one
sing
sil
##ksiin
##ov
31
metrin
##yty
##nyt
syy
julk
heidän
On
Englan
erityisesti
##bert
lää
kuningas
Sar
##kohta
valmista
Seuraa
##sien
1998
pääsi
fil
ap
rii
Sta
##gissa
##tos
##ivisi
Tuo
##miseksi
##eitä
##len
Japan
joukkueen
aa
##ivan
muiden
##be
##ttilä
korkea
albumi
vapaa
##tiiv
mies
sol
##tsi
kylä
voima
##uutta
##umer
##fi
katso
##pen
miljoonaa
muita
##teh
matka
##nissa
##neen
##ispa
##usa
ohjaa
##ttele
##ähkö
##ras
##nessä
##ins
piti
##ttyä
##ttyi
sitten
kanna
uh
##pallo
##viin
187
##ksella
Yhdysvalloissa
##estaan
##vaksi
omista
##uppa
pela
##opp
##teiden
##jö
##yri
Pää
työn
##ppa
eaa
186
vaati
ruot
huon
samalla
tek
englan
tode
##tteen
##astaan
##teri
vira
Ruotsin
##nia
##lu
johon
hyökkä
Be
##ynyt
##määrä
peruste
##ttien
saavutti
neli
##ttuna
##za
##vallan
koi
elin
##ministeri
##olin
##isuus
kiso
harjoi
käytö
kilpa
kahden
lähellä
kana
##tiön
alkaen
1997
prons
arkki
##inaan
##tes
##ansk
##nos
##anin
##kra
##ustan
moo
järj
##sarja
##vir
toiminut
yhteensä
##sky
pyr
##edia
##ttivät
käyttöön
##hte
synty
sodan
kirkon
##tsa
muutti
myön
HM
Do
##aren
##ket
otti
##jal
##bur
##teis
teho
40
kohd
mitä
1996
takia
Kansa
kilpailuissa
ho
##ettiin
ilman
##tansa
ves
Tor
##toista
vaiku
valko
häntä
##osof
Ter
##bumi
##erg
##kal
uskon
väes
hoi
kri
##arkkin
bri
##hoi
##alaisissa
##ssin
1995
##llisuuden
1994
venä
##kansa
saap
Myöhemmin
Esi
hie
Bra
##uha
##ss
##ire
Lon
ympä
länsi
##yvä
##land
##tetään
Espan
myötä
Län
##itin
tan
##mansa
##ena
##llisten
selvi
ottelua
##olo
##ttämä
yhteyd
puheenjohta
##tala
määri
##eille
##ksessa
##tol
missä
##ppu
##vista
kev
tehty
minkä
Yle
##iver
prof
historia
##eeksi
nous
##isista
merkittä
##tic
##llään
tunnetu
##hmo
nor
##les
##ttila
uransa
##ustus
##mes
ottelussa
##esi
itsenä
arvos
siirre
##täjä
##ttänyt
joten
suure
hallin
##koko
eriko
lista
##osen
mel
Kana
tarjo
##ph
aiemmin
##uda
kunnes
Turun
mole
1992
##mestar
Helsinki
##ny
Tal
##uksena
mitta
tuomi
##kku
##oille
##teell
toiseksi
##lö
konser
avi
jälleen
##mpö
##vis
##muo
por
puna
?
koos
##tea
##eni
##udeksi
kunin
St
##ose
Fre
##hä
##vil
Tar
jatkoi
Or
juo
##istettiin
##tanut
otta
HMS
Geor
johti
pian
Ver
##ujen
##kkää
kansallis
Venäjä
kyl
Pari
##raan
##uksesta
viera
##mmun
##ustr
vii
hava
vallan
valtion
jalkapall
##immi
York
etu
##udo
sijaitseva
mene
Bro
##kasta
taa
elokuvan
sähkö
yhteydessä
1993
enää
alun
enemmän
vie
Will
laula
usko
laj
##qu
näh
tutkim
1950
##osassa
##jalla
seitsemän
pitää
leve
yhtä
varten
liittyi
ystä
##kraa
##delta
##isuuden
alus
len
##alla
siellä
Leh
Go
yhtiö
prosenttia
1991
Lu
pain
kirjoitti
ajoi
vesistö
tea
pois
taide
Muu
##kerta
##ya
kuusi
suunnitel
##ivisioon
##yhtiö
Mor
tämä
##50
yliopiston
Ruo
##alaisia
suomen
##zz
kokona
##kassa
tuotanto
##aatio
oman
Kiin
esiintyi
voitta
Mc
##ikenne
##mpaa
ylä
##kor
##cor
##mäen
##riin
paik
##kot
##annut
##käy
Kre
Ben
tunnettu
##ttuaan
##ola
ruu
niitä
Ab
##inno
##ner
kahd
##osin
runko
Gu
##voin
työskenteli
##mentti
##ttäjä
##che
yllä
aloi
ura
sul
##yssä
##keä
##llik
pitä
##jänä
##terin
##mpialaisissa
kertoo
muodosta
500
tilan
Hi
näyttelijä
turna
Pie
##ity
hope
Ad
##ment
##isestä
tuotta
Yhty
##kone
Kan
ympäristö
##ensa
##nalla
##kuvan
##iss
##ktiiv
##ttäin
##lliseen
rakennus
olympia
Mic
##tm
##yyli
##jas
mar
ympäri
toiminta
##20
##ley
##aati
##paik
un
ohja
ir
Con
lyhy
##yk
kahdeksan
Ä
##tse
##oilija
##tenä
Pel
tutkimus
vuodelta
##kso
anta
##koul
##uilla
venälä
poliitt
vuotiaana
viiden
##ppo
entinen
##ted
##ens
tunn
##rea
##ld
edusti
##itali
org
##mme
##uper
##teria
lähti
ransk
olleet
##uksella
Järven
##isilla
And
paras
##yhd
mestaruuden
##ilpail
##ero
esiintyy
veden
vil
lopulla
huomatta
##unsa
rann
kohta
ssä
##mu
Keski
yhteisty
##ret
km
muut
##tian
kirjoitta
##alu
Jä
muka
##yp
naim
sur
ras
perhe
laul
##mpa
##by
sata
##til
##mässä
Kä
1930
rakenta
pyö
Cha
saira
päivä
##oly
##sion
pituus
##ttoa
##ksesta
Wor
##fa
Yo
soi
saav
vih
##kymmen
päätt
Kaudella
##olan
formula
tavoi
runsa
siirrettiin
##ulle
rakennettiin
##st
sarjassa
filosof
##ler
laajen
yksity
antoi
##taso
##jää
##luo
Mos
kunnan
Yhd
1989
##gon
##iaan
##eja
##hän
##ish
opetta
Ur
maini
##upin
pyrki
Char
##innä
Cor
##tri
##asiassa
##unta
seuran
##ety
##tola
##piir
tehtiin
poika
kieli
##äällä
Kuu
voivat
##fer
##tukseen
##ikke
##poli
##istys
tiede
perinte
kävi
##hun
stu
urheil
##mas
##vy
Osa
##opi
yhdeks
##ikku
1988
kr
##kausi
valuma
##odassa
albumin
hui
1900
järjestä
##tonin
##matto
Kapp
puolue
kuvaa
##ynn
##iemi
sään
rea
Inter
maailmansodan
##oma
kymmenen
##ikassa
##tuksessa
kuk
1800
##ban
kita
##pol
##mppan
##ilan
Kon
koke
##uton
60
johd
markkin
##alaista
aikaa
puolusta
aluksi
Eri
##kossa
##tteita
##tional
##mitta
rauh
##joiden
yliopistossa
ongel
1940
1987
päättyi
Di
merkittävä
##con
perustettu
ope
##vina
##sonin
##llö
pääkaupun
aiheutta
tarkoittaa
Poh
amp
1920
##trö
vall
##isko
käsikirjoi
ik
meta
varsin
##ttely
sotilas
kuuluvat
##ttin
Fin
##jalta
##ws
u
htm
jääki
juuri
Han
##olf
1918
##ttinen
##uman
##liin
ratka
Ti
Kuo
##tek
asia
kuts
##etin
##uolelle
oll
liike
##tteja
vaikutta
läpi
##palvel
ssa
##meren
erä
saada
pysty
puolestaan
Länsi
lähinnä
vier
##itos
kartan
ilmestyi
##ast
Wal
korva
kierro
valtio
jatku
yksin
lah
käytössä
keskusta
kesken
kilometrin
säil
Sano
##wn
pidetään
Tie
##uolimatta
NHL
Gran
Sc
oleva
##useo
kanta
##tär
asukka
##valmenta
rakennettu
Ah
##mmista
yhteistyö
muistu
##ttavat
Austr
##iaa
##zin
turva
Willia
kulttuuri
##iltä
##llon
Vaikka
Wil
##essään
Fo
##imet
cm
##altaan
kisoissa
EM
Yhdysval
jouk
Bu
terve
##ytyi
##itte
kuuluva
##tinen
osan
varus
hävi
Su
Kas
neuv
##veli
ilmoitti
lain
##asema
kell
185
Gra
kirj
kappaletta
taite
main
mennessä
Jan
##uihin
1984
1986
elokuvassa
Pla
##én
##telmän
##sivät
omina
päätö
sisältää
talous
##tukset
saivat
hieman
##kate
1985
##lia
##eltään
##yhä
##paikka
##misto
Ser
ru
##hat
##rop
siinä
##ttoi
##gissä
käytetty
sopimuksen
sivu
sta
##tävä
teks
tehnyt
##nasta
##ltä
kiinni
Br
##väen
armeijan
##joukkueessa
##estari
##toihin
##uransa
##rid
Mal
##raali
##ynä
##iemen
Bla
##jalle
laivaston
hopeaa
histori
liitto
kasvaa
##jät
##kuntaan
Pä
Pri
luu
Ken
kokoon
käytettiin
sijaan
##sto
##mentin
neliö
hänelle
lii
At
varha
##bor
##oksen
tehtävä
##uksissa
kre
Gr
##ryh
au
##empi
##vara
1982
##ica
Suomi
##ilainen
##ira
omis
ruotsa
eh
lei
uud
Kal
We
##joja
##kut
##tuksia
id
##ehti
My
isä
rajoi
##joki
ainoa
##bum
##vissä
##muu
Musi
##kän
##jun
isänsä
##gu
##keskus
Esimerkiksi
ensin
##ood
##koon
mahdollista
##ive
##ttava
Tš
##mur
##are
divisioon
perusteella
184
##mpien
Tampereen
Toi
alkaa
Lev
pelannut
Paul
huolimatta
##cen
##istus
Tun
täys
moottori
Pan
Sh
kone
sosia
Yli
##jetta
##ome
tunnus
Hei
co
ulkoma
##ad
Kesä
##piste
avar
##ore
##tensa
huomi
Vuosina
lopussa
kerä
##cy
##usti
##kunnassa
luonnon
##ister
kauppa
##stö
##käri
Sitä
päätti
##mästä
1983
##immat
oikeus
##aaja
Kaikki
##ksyllä
##vaih
Britannian
von
py
##ttävät
siten
Hy
##teitä
Paa
##opea
juh
##koulu
Koi
aikaise
##log
##kkaan
room
pe
##ihd
##ville
##imon
kohti
kyse
##mät
musta
##isuudessa
##maksi
Peli
##tteri
##yks
##ttämään
elämän
Iso
##vid
tor
##uteen
##ukot
##inti
Met
kolmen
linn
##teita
pudo
##osan
romaan
valo
asun
numer
##toimin
##ttelee
Sp
kunta
##istön
##tell
##opper
Pre
vaihe
kappaleen
jum
pelaaja
ohe
Neuvostoliiton
ain
1975
##sar
seurauksena
hallituksen
lehd
pieni
##uista
##esso
##ogra
nuorten
keis
vahv
palkinnon
##laiset
##ointi
kerro
lue
##istaa
maala
asui
32
Ul
1979
osaval
asukasta
##ussi
400
Bel
nykyään
##kse
##udet
##teessa
##llistä
##euv
up
##rän
##mian
##istan
Lop
nykyisin
##utettiin
nimitettiin
##ehto
##tyä
##estin
##ohjel
##misestä
##juo
##ölj
##nat
versio
##kis
jatka
doll
muoto
hallitsi
##utuksen
##laisten
hauta
##pil
##merkki
löyde
##maal
Ennen
##bin
##net
Mat
deb
olemassa
res
tullut
perh
pronssia
suuren
Cl
##gar
lämpö
##udessa
##gra
1981
ensimmäistä
##eltaan
maailmanmestar
kokonaan
joko
##mokraa
maalia
Euroopassa
minuu
##isyys
julkaise
ainakin
300
heh
nopeasti
yhtiön
##mmät
##usten
##utunut
Elokuva
##villa
##oissa
osaa
yritys
jään
Bur
Ensimmäinen
##oista
edustaa
##joita
ulo
Työ
Vil
perustuu
lehti
!
##ttuja
Robert
##kaudella
Läh
##telee
ottelun
vaal
huu
1976
yhtenä
##tkin
##mpan
sis
##ttelussa
kiv
##neiden
##oston
ravin
Karj
##kur
##önä
yhdiste
tehdä
ranta
##kit
##jista
suk
erittäin
Ph
##orin
##llöin
leveä
jaka
Italian
##yksi
##ganis
##ham
33
##merikk
brittilä
##py
##vansa
##ves
##isuutta
80
##ttun
36
Min
Alan
tois
kilpaili
##kumo
suojel
paino
presidentti
Fer
kokoel
##opimuksen
##mainen
##dun
##gas
##ikunta
näky
Suomeen
alusta
käytän
##enin
lään
kolmas
1972
##dia
luki
Viime
euro
##ole
##eena
Ir
hev
päivänä
joilla
maalin
1978
##hde
##tro
Uni
pyy
1944
näin
##ckin
##miel
##tieteen
saapui
single
##aleissa
meni
iso
##sson
olleen
yhä
1968
##kein
##huon
##kkos
Sil
tuolloin
anti
raja
Gar
##dian
##näkö
##kilomet
hävisi
##opa
Uuden
##tsissa
tapp
lähte
##ksista
##dyn
Hal
hahmo
##tutki
##koma
Saksassa
World
##llisuutta
1945
##ash
säily
##essori
##dion
##enkin
kaikkien
taiste
##rella
##impia
yhdeksän
pääasiassa
##liig
ohella
##unk
Uusi
##malle
jaks
kausi
ansi
##johtaja
##vyy
varsina
##mäki
Kur
itali
##ppä
sala
1974
##uksista
kutsutaan
Mosko
siirto
hajo
komenta
##uno
1977
1973
##risto
luvulta
##yksen
tyypi
vaike
##tissa
het
Pu
Sy
myyn
##ward
Pen
samana
Hämeen
##chin
##its
laivasto
##koa
onnistui
puolueen
##imi
##halli
hehta
1939
Bor
##kkuu
##tava
väestö
lisää
Ala
##ässä
##ttivat
##päin
War
koske
##manin
##ttamaan
Tim
puto
kylän
##vyys
melko
alueelle
perustu
kuvi
vide
##telli
##tettua
Mä
Jää
rik
kultaa
hallitus
saavutta
##vänsä
##öö
##kiä
lakka
##taljoon
kieltä
hänestä
##aran
juon
naisten
lai
183
lasten
##oitus
##estään
Tuk
lle
##kari
##udu
man
##musi
IS
Jon
parla
toden
##tari
maahan
pako
##veden
70
##pro
muuto
##ze
##hall
tätä
täysin
##isistä
Tra
##maton
ensimmäisenä
Win
käytti
##vas
rautatie
ba
ikä
Australi
kulta
##ysi
rooli
hyväksy
piiri
##igh
##iki
##hon
##iku
Maan
Pet
##ste
##tuksena
sana
Mari
Puol
##sarjassa
jotta
##fe
vo
##järjestelmä
##mann
##ksissa
##joissa
kiinnos
ainoastaan
##old
##suo
##tänyt
##teltiin
Aleksan
Carl
##sille
##enee
##kesku
pare
##jek
##ikunnan
Helsingissä
##vaihe
Kaar
rä
##vuot
##ere
Afr
luoki
kasv
##sel
nimensä
##inaal
##ith
##seen
kolmanneksi
vuoro
##sut
##ide
jonkin
otettiin
##teissa
Oh
Tamm
##cke
Rich
html
1971
studio
##päivä
##cin
##ern
ry
1967
herä
William
Eli
Sha
David
vanha
tod
meren
##heim
Las
##laisia
Stu
##bergin
tammikuussa
kirjailija
Tans
loppu
sijaitsi
valti
jae
tytär
##sian
johdo
muisto
erilaisia
##ttän
Saar
##oman
1969
joskus
osallistu
monet
ää
##elan
##des
kommun
##inne
34
##udesta
kristi
##vell
##tuksesta
kuuden
suoraan
viid
palki
matkusta
aine
##usto
1941
III
kulu
pidettiin
##tessa
##tiaan
##vänä
##ispaksi
##eld
hänellä
kustan
##wer
Micha
temp
##ottelussa
##jansa
neliökilomet
niistä
odo
ydin
Sve
tekn
Voi
##tella
Tea
esitti
##teeseen
##yväsky
##osi
vuosien
aktiiv
bas
Peter
##koulun
taso
##kat
tuki
##can
##stään
Haa
istu
liigan
kielen
##gyp
Pohjan
##mil
##ester
##tekijä
##nes
James
##tyksessä
##maansa
##rinä
##tetu
##yden
oik
kertoi
Kr
45
koskaan
##ald
##poi
180
lehden
##alifor
Recor
1966
taloude
##ung
Hu
##tävät
alueeseen
##ommi
pelin
Don
##albumi
##istuksen
tarin
uusia
##lop
tarvi
##tilan
Yksi
##rans
Kaupungin
Mag
laulaja
sijalle
##olla
##muksen
monia
kesk
yksilö
puhu
Ex
##tuaan
##isu
etsi
Pir
arti
##onia
toista
tö
kärsi
päätteeksi
##bumin
Gi
sella
loppuun
neuvosto
Juh
vastusta
##ttemmin
##mal
##tröm
FC
##histo
kulkee
uutta
miesten
Martin
##itikko
Jyväsky
##ski
Ensimmäisen
##yä
##vistä
vär
##saar
Tukhol
sp
Sam
##pah
##järjestö
Espanjan
##maalla
##nettom
seur
##art
##sarjan
Za
Vol
etenkin
estä
1964
Oulun
siirty
Use
voittanut
##oimin
Los
Jose
##kautta
liiken
##kinen
vetä
maali
##kuo
antaa
##pyö
jun
Angel
tavoin
Lie
Gen
rin
liiga
##öi
##vallat
##ps
luke
mie
Jum
arvon
tähti
##tyivät
kesällä
##ston
1965
37
##yse
Bill
##isteen
auton
##uis
luokan
suunnitteli
Ruotsissa
##ller
ääni
##käyn
koo
##ling
Harr
##ilman
Koska
##käsi
seurasi
joulukuussa
Mas
38
verkko
##mille
kaupp
keväällä
Toinen
##umin
historian
Luo
haa
##car
pohja
tarkoitus
Japanin
95
Vuodesta
Lonto
Ker
teatter
##äär
kreikk
kie
##unn
radio
heim
japan
##dien
Air
##ulan
puolella
miehen
hallinto
Ros
suomalais
verra
##saa
##jin
kaupung
##ft
kasvoi
palveli
Aa
laps
##sili
oper
voitto
##ös
kalli
Johan
Michael
##uuskilpail
##ska
paikka
kur
Englannin
##deksi
Raken
##oivat
saattaa
##isuuteen
##ux
##tias
alkoivat
##etys
##astaa
Amerikan
##kylä
pitkään
##milla
##hallin
##ath
##tyneen
johdolla
tavataan
paken
##utuvat
##bs
saattoi
heti
##isissä
Sie
##pör
loh
joukkueessa
mus
raa
Kauden
##uudesta
Kappale
korkeus
päivän
##ippa
Bi
toimitus
tausta
kehittä
##http
verran
##maatt
##uksiin
##puu
##hu
pin
Super
90
eläin
kolmi
lokakuussa
Albumi
##tune
televisiosa
organis
##kona
laulu
järvi
Mann
Tri
sittemmin
##uti
til
jalkapallo
##tusla
hankki
osti
##gl
risti
##osissa
##päiv
US
rei
##uvun
ölj
##lliseksi
##itoksen
järjestettiin
Kiinan
##uth
taaja
##kkeen
##tisen
##jojen
##mpär
181
marraskuussa
##ilijä
##skin
kehitys
##konen
kaupungissa
my
asema
soitta
##olta
Suuri
osoitta
isän
vanh
pidä
tarv
väri
johtaja
##une
naa
ennä
Ven
##ilu
Väli
järven
johto
nykyisen
sam
vähe
##oitiin
keisari
vaikutus
##ble
##västi
osi
1962
##lon
##vaal
##innon
1952
syntynyt
vaihto
jätti
Puo
##istää
Kul
##pur
Star
1956
1963
##siiv
kunnia
##veen
##puolelle
Maria
Fil
valmenta
ansiosta
Gro
kuol
Alex
##del
##nössä
##llisessa
Jal
##burg
1919
##ottelua
##uvan
##dor
soitti
##väli
##kala
mall
Elokuvan
##nell
Näin
Viip
sisällis
Nic
nais
olympialaisissa
##juh
kö
1938
##tug
omaa
puolustus
##tena
##elokuva
hehtaaria
syksyllä
tekni
parhaan
suoja
Yhdysvallat
päävalmenta
voimakka
##ksu
##utki
Mur
kuoleman
vallankumo
##bian
seuraavana
amerikk
##ikkoa
##kapp
##tiete
tuke
nyt
Afrikan
alla
runsaasti
todennäkö
tapahtui
pop
vähen
suunnittel
viimeinen
joukku
poikke
##tyksiä
##kik
##teellisen
sijaitsevat
##ikolla
plan
seli
##fo
##lass
##imä
##kinä
päässä
Len
##ikkaan
lääke
säännö
##raal
##tuotan
Nel
ihmisen
psy
elokuussa
##mit
Bal
Sin
tyyli
##talous
suoritti
##omin
ammattila
Matti
##mmaksi
versi
suunta
##vet
Hol
Stan
lukuun
koostuu
##telu
vaka
mod
##tron
1942
liitettiin
##ksien
Oly
rakenne
##pinnan
##omas
Histo
pääosin
vähä
##ksua
Wh
siis
##ilin
1917
nimeltään
##tiksi
##gg
Sanomat
alettiin
toimivat
##irin
varrella
pysä
##joukko
album
Kalifor
##upan
johtaa
1948
Yhtye
kann
energ
musiikin
mik
kirjan
mun
pes
##immillaan
Johann
elää
##mmär
neliökilometriä
halu
##hyö
kuljetta
pääse
##kön
##kaal
##joista
laskee
syyskuussa
vuotiaiden
1958
Mad
paran
Lea
puhe
maaliskuussa
##ight
hyökkää
Ara
##mala
aloitta
##vian
##istyksen
Can
179
##roi
ollessa
toh
materia
naimisissa
ihm
käynn
##tasolla
Lan
##tetun
sanoi
halusi
karsin
##mys
##kson
##itta
vaki
##pitä
rinta
jääkie
##ony
##jille
##que
King
##tiikan
terä
nimeltä
##yhty
Kirja
sisar
levi
sovi
liian
##ardin
virka
mita
##BC
Spor
tutkin
##lannin
kilpailun
##aatti
##puisto
##uroopp
##tz
pil
##joukkueen
##juu
näkö
Pekka
##bb
1961
bi
##isaalta
ottamatta
mielen
väestön
##tonsa
Tu
##matka
All
Jer
myr
riste
##sikko
##anoma
##wood
##tekni
150
Atlan
arkkite
Alue
ensimmäiset
Isra
##lahden
##misessa
Am
osuus
radi
Col
viho
kis
rata
ilmi
elek
##hel
sentti
##oittaa
##tilainen
Ali
toukokuussa
Hall
kiertu
##piä
##luku
##ttik
kulje
##voima
Bl
jalkapalloilija
kuninkaa
aikaisemmin
Raa
asuin
ide
39
##ttunut
##tteet
Yhti
hallitse
vase
Red
professori
Musta
1943
muina
##10
tien
1959
päästä
Gre
##kell
Men
##rää
##feren
Auto
huol
vastaano
##vik
##reä
kierroksella
##työn
Venäjällä
Tampere
oopper
##pahtu
helmikuussa
##edel
##ettaa
riippu
pitu
huomattavasti
pah
Ander
aluksen
kulke
##yhte
Š
##itetty
##utua
42
##istin
kysy
##seer
Black
Mil
##tre
Cen
harvina
torj
##iska
##ney
1946
tunte
Ol
##intään
saatiin
sar
1936
sosi
1957
##dalla
##edusta
##laista
sotila
tanssi
usea
lintu
##vellä
oikeuden
##sissa
laskettiin
lauka
##vall
##ous
##eelle
##ukon
##tavan
tee
##br
##este
George
tarp
##gor
maal
##vit
##win
##tista
##llisena
##käyttö
kapteen
##uan
##puh
Ger
##asin
##oltaan
##voimien
peräisin
182
Sing
päivää
lasta
##tykset
esittää
1954
##kielinen
Nykyään
tekee
maassa
##liitto
ominaisuu
##emen
rek
saari
mä
##perin
Franc
espan
näke
Jean
lähtö
Richard
panssa
tärkeä
Toisen
##suun
##kina
##miehen
lopu
##kier
##gian
Alku
##kirj
uskonno
koto
##poh
Muita
kokoonpan
talon
Jaa
City
edeltä
##chen
ale
ton
Sain
avoi
kaikkiaan
aikojen
riko
mieli
##roa
##tuksi
ilme
vastus
##teltu
pei
joukot
##järjestel
louk
itsensä
armeija
ge
1955
##iassa
väki
##BN
pla
Ukra
avioli
tällä
##tiset
##tyne
44
43
palaa
da
laina
räjä
##chi
##tterin
##inan
Egyp
Ih
Rooman
saaren
##alueen
silloin
##pään
##läh
paikallis
sop
##nista
##sodassa
##ttisen
kesäkuussa
pohjo
ottaa
##paikaltaan
##ust
kasvi
##pallon
##ugh
##torin
asian
saata
televisio
rock
600
luovu
ryhmä
myytiin
Ranskassa
liikku
47
ved
##ppe
ihmistä
maksa
##öyr
##ytteli
##ologian
jatko
##atri
Bir
paa
Roman
laji
##maali
##henkilö
kaudeksi
##kkien
48
mitään
41
Suur
kei
mukaisesti
Kär
Koke
##enne
##we
Aug
Eur
##tilla
viittaa
##karin
aiheuttaa
kiinte
vuosikymmen
toimintaa
##kilpailussa
##saari
##ingin
Kuopi
yö
##hdas
teoksen
pun
nos
kannatta
Us
Univer
samaan
##kuntaa
Nykyisin
##ilaisen
Karl
ISBN
##osten
Valko
ymmär
valitsi
hir
##essi
runkosarja
1937
presidentin
Fred
75
Jac
1947
##ese
TV
##arch
Samalla
##rillä
Bon
nimeä
Norjan
##rakenn
##mö
##eth
ilta
Charles
##tuivat
niissä
##tussa
vaim
vaikutti
alan
pudotus
##kl
##kää
erosi
järjestö
eniten
Puna
##ikkoja
veljen
##llikkö
palkinto
ollen
##kilä
##gn
Ö
Täh
ylioppil
laki
lapsen
##mos
##sisa
Fri
##utensa
##aseen
##way
Jor
euroa
##aleja
##mic
##nalle
pistettä
tyttä
vanhemmat
Kons
Järvi
elämä
hiih
pikku
##turi
Laa
vuosittain
Grand
suos
taistelu
##ican
##gne
kesäoly
800
##nian
Lei
##lam
##vide
huhtikuussa
Suurin
henkilökohta
Anna
##jev
1949
1953
##moo
##cia
ren
Karjalan
##ismin
Pit
Nämä
sal
##aaksi
You
opin
aiko
saadaan
esitettiin
sor
rump
##rann
rool
ehkä
jälki
##pun
tavalla
taiteili
##della
##istien
ensimmäisessä
ruoka
##wan
loi
asuu
##rich
Afrik
vähän
##upp
puheenjohtajana
suunnittele
ser
##tivat
##kanen
valtakunnan
saksalainen
##ympär
##zi
##ivat
##lehti
Alankoma
##llikk
toimitta
vää
GP
viitattu
kokonais
Thomas
tapaan
##lää
##line
##istään
liikenne
mas
##fin
##dät
##holi
solmi
taistelussa
##tuvat
##gs
1700
hyödyn
##kär
Samana
##ander
esitetty
esiintynyt
ven
lisään
##ttelu
liikke
Tällöin
##xin
##vuus
##llisiä
Vaa
##tonen
##palkin
ensimmäisellä
##llisesta
##asan
toisessa
tunnettiin
jäsenet
Flo
##dellä
##ttuun
naimisiin
kilpailussa
##issaan
heinäkuussa
##tarin
yleisesti
##eloku
##kian
##taja
##paino
Juli
##uske
##isiksi
##pito
ara
Yhdysvaltojen
##mmer
##kellä
Anton
##yan
Ateen
oikea
iltansa
Intian
Hon
1928
sisällä
##tuneen
1951
Sor
senttimet
yksinkerta
##impiä
Maailman
löydetty
Mac
##tš
komp
tehoilla
Kari
haasta
##jeja
Niin
##teista
parhaiten
Che
Cla
##kalta
Ac
maanvil
Mel
##fek
##nossa
sekun
##mmy
suuria
##puoli
46
55
Kilpail
komen
Seuraavana
##jar
Luc
osaksi
1929
##mättö
näiden
##ttävän
fa
at
tyttö
##aation
Frank
sama
##cher
hyväks
##jäsen
varsinkin
valmen
##osla
##tykseen
kori
##piiri
178
Dan
ihmisten
##istossa
muodostaa
Kiv
##alto
erikois
puheenjohtaja
Qu
Monet
1933
Sir
##rei
Jar
lopetti
mahdollisesti
linja
suomalaisen
##kula
##mene
##itinsä
yritti
neljänneksi
parhaa
##onnistu
##missä
##uuteen
Ty
ryhmän
##imaa
muse
Aasi
pääty
##yste
##mpaan
nimettiin
johtajana
##alista
##tteena
##koja
profess
koulun
rah
Ran
inter
##ivo
Op
musiikkia
nämä
##tiä
##udun
af
nähd
##ihla
1932
Gri
##kyy
##elma
##huone
art
tela
olympi
##isillä
Lind
sijoittu
##tämään
tuleva
Heinä
paikalle
palvelukseen
##lien
eteen
euroopp
##kosken
kaas
Koko
##isteri
##ye
##opiste
paljas
x
jatkos
##mmissa
##mea
Formula
Sto
Ele
keisar
##uring
tähän
gra
Cup
##oikeus
##ght
##omer
##kainen
maajoukkueessa
pap
##hm
Dis
kohtaan
1934
pohjalta
##kissa
korkein
##utin
##ikoi
##johtajana
pitkin
Ase
ns
##jeli
##tille
kats
singl
itselleen
##tehtä
mate
##paika
##ustaa
mistä
Yri
##ltaan
äiti
##paan
onkin
##mor
keskia
vankil
1924
loppuo
kruun
tapaa
rantavi
Pien
Sol
Yhtyeen
joen
tästä
kivi
juutala
kirjasto
##pon
##meksi
elokuvissa
##utuivat
##bri
Sun
ammatti
##öt
kuvan
##tona
##aatin
menetti
dollaria
1921
ulos
Pyh
Dra
Slo
Poli
##AS
##ikoko
##kunsa
pääs
väitt
osittain
##ford
Ag
vaikutu
kaupa
lukuisia
##tossa
orkes
##ary
49
ykkö
Kaupunki
toiminnan
valmistunut
Siellä
##posti
##án
##tina
tähd
##tteiden
##uki
##ilo
##alassa
1927
Kaksi
##velle
##dessä
Tästä
##tety
vaikuttaa
##yöhy
oppila
##mpana
https
puoliväl
kuukauden
virtaa
##issi
hin
pääkaupunki
##tellut
##cyc
kehitty
##tusten
korja
##yer
Hein
muuttui
##ttil
##mpää
##ick
##ulka
##kaus
maalais
Mika
Kaa
muista
Pol
kunnassa
liigassa
##astu
Hor
1931
vuotias
Gor
molemmat
nimetty
##iro
urallaan
##mmistö
Sodan
52
1935
pieniä
Kaudeksi
tiet
##TV
##hansa
National
tri
avaruus
Interna
Saa
64
Cas
arkkitehti
tra
onnettom
Kev
viljel
##läinen
##ison
tosin
lyö
##arvo
##oda
Tom
kolmannen
myi
##ilaiset
syöttö
louna
##koihin
myöhe
erään
##tain
Elä
Cat
käännö
osana
Hänellä
vuodessa
##dettiin
##urheil
##muoto
kuninkaan
pidetty
##pelin
koho
##bon
Max
##kojen
##pörssin
Rus
##aleen
ga
##wor
##ett
##jala
sinne
##cel
##ismi
##stitu
##ars
meri
1922
Bre
Viron
välissä
##tions
##hl
tel
##istina
##ser
##ksena
##kelä
tulisi
Son
kahteen
177
##tunnus
##oinut
voisi
65
pyri
poliitikko
##tettuja
toiseen
##oth
1926
hiili
##12
##uksien
epäonnistu
##ün
##liiton
laus
Music
##valtuus
Hann
loukkaan
VI
lie
ulkopuolella
Mes
alko
seuraavat
##ress
sair
riipp
##gh
päätoi
##ttorin
##gia
englannin
##uudessa
##hto
lapsi
tuom
hauda
ranskalainen
##nim
muutettiin
aiku
yleisö
maata
##ukan
asen
Kalli
##ctor
##uettel
##how
##todo
##ytoi
##ristin
tiedon
##rakennus
luvulle
pyh
##rjä
Niko
luosta
##demokraa
##iini
Rauta
Rä
##yo
tunnetuksi
asukas
##PS
##nosta
Ban
##tulo
doku
##kselle
Kanadan
Vih
53
##kkeelle
kansanedusta
Teo
laati
äitinsä
Gusta
pelipaikaltaan
##tilo
Kokemäen
##mite
##mir
Joseph
vihki
vihi
entisen
finaal
joukossa
amm
°
##alaisessa
tilalle
Sä
alkua
##aat
##ukilpail
keksi
##vään
Tul
henkeä
tietoa
##ttynä
Roy
##mattom
kohtaa
Lopulta
muutaman
etel
##mio
kuuluivat
Ren
##eensa
Tätä
##oid
poikansa
##astus
Hit
kyken
##zer
1925
##llisuudessa
##kuntien
##udelle
sukupol
Britanniassa
Ze
antiikin
ilmoi
##hoja
##itty
jatkaa
huoma
lähi
sito
syrjä
Du
keskuu
##itsee
Portug
##eillä
Sel
##tyypp
ark
yrityksen
##inten
##pyörä
Australian
filosofian
Mark
puolesta
1916
tuhan
##bia
##yhmä
##maassa
Hir
##kkiä
##oida
##kylän
##istit
kuor
Pra
##ute
tasavallan
kaupunkiin
Å
##ikkeen
perustusla
##mmassa
useissa
kotoisin
päivi
perheen
toimintansa
54
It
##tiota
Encyc
Yleis
pari
##heili
##alaisiin
Mus
##isempi
avattiin
##mestari
700
##kista
Kirkko
neljäs
##ttee
heidät
##tnan
hedel
kenraali
säveltä
rauhan
perustivat
käsite
avaus
Johannes
laitt
teos
eteni
tavallisesti
1914
muodostuu
suurimman
Radio
välinen
hiippa
tuottaa
##ct
##eton
Les
vietti
##mie
Kans
jonne
##ennä
vaiheessa
Saint
##istettu
##kalla
sopi
heitä
viikon
aivan
Kore
nuore
jääkiekko
liittyy
Lor
Lahden
##vaun
työnteki
vesistössä
sekoi
poistu
Pyhä
muistuttaa
vastasi
täyden
akti
roman
maks
1600
##pele
##paikan
1923
##oksi
Henrik
verta
kirjoittanut
harr
alkan
palkittiin
Aar
##nön
##mith
tör
51
##cs
seurakunta
##ington
museo
##kuusta
]
##rat
Dar
aiheutti
##teellinen
##ges
Pian
tarkoituksena
##kkois
West
##fia
käytännössä
Euro
##ild
muodostavat
kaksin
Olympi
##urn
##musta
Pariisin
laulun
##össä
sille
##hahmo
milj
##linnan
##ttina
Lapp
tappi
mets
##mmasta
ohjaama
##urinko
kelta
aluetta
##ttäen
luvuilla
##jina
##insa
vihittiin
##alat
##änen
##lee
##eder
##alo
56
##taansa
hyl
##jiä
jakoi
##uttamaan
67
##well
##red
Brasili
ranga
Bea
Kap
kot
##ilaisten
aikoihin
debytoi
##ympäristö
pysy
kappaleet
Poi
##kosta
##siinty
joihin
##siä
##muka
selvästi
havai
Colle
Wi
##jöitä
Rei
tapahtuu
ohj
##yhteis
Albumin
sovel
espanj
##dos
maissa
jän
synny
##valle
Kale
##kellus
maailmanc
Meksi
97
säveltäjä
vuosisa
osin
piispa
keskustel
sillo
Kansallis
Antti
sisään
Heidän
sopimuksella
pienen
##hamin
säilynyt
##tyksellä
Rock
hevos
##vio
##tanen
siksi
##laan
puolet
Encyclop
its
58
##kuuhun
psyko
päätty
verrattuna
järjestelmä
##uel
##tiossa
brittiläinen
lajia
Nimi
valmi
##immä
uni
kahdesti
eroa
vaali
##kentä
##isyyden
##rom
##osuh
##rille
Kreikan
hu
57
Hur
musiik
##llikkönä
1500
joukkoon
##ttujen
katol
debyy
tässä
pitkän
##cha
##ture
voiton
Dani
Nur
##llisi
##oitui
toisella
tuotti
rantaviivan
kanad
kello
Res
kuulunut
paremmin
##tyksestä
##sh
Syy
vaimonsa
##jöiden
hallinn
tutus
##dro
vanke
valmistu
##30
##dam
uk
linna
Mikko
##kunnat
Puu
kitaristi
ch
saarella
fysi
toim
maailmansodassa
yksittä
kuun
kirjaili
Cal
apula
miten
##myy
##ball
Amerikassa
##talon
mukaansa
Jyväskylän
##mmalla
##ting
##juoks
edustus
muuttu
super
paitsi
Lapin
Bas
##poika
tekemään
##SO
ruotsalainen
kirko
##kkeli
##lasken
Jack
##ustin
##teatter
##ekkoi
puolivälissä
##ult
joukkueeseen
Puolan
hyvän
##ulin
Savon
vähintään
##vie
She
##kh
##tand
mielestä
Francis
suhteen
##odin
allekirjoi
vakuu
##mun
##mari
löytyy
Glo
Siin
putosi
1910
##nolla
olevat
alueilla
paikalla
EU
##tettuaan
##idin
soolo
62
väkil
teksti
##ytän
Siinä
##bar
Jussi
terveys
##ologia
kutsuttiin
pienempi
veljensä
##destä
Chan
kato
koulutus
julkaissut
nopea
suurta
piirin
##kri
##isan
##ija
##alaan
##salue
Love
Sarjan
ajo
##ustel
##otkut
Anti
kaiken
[
##put
ad
vedenpinnan
##llisista
myönnettiin
maajoukkue
vesistöalue
loppup
##cus
##saaren
66
kg
##seura
anal
##isinä
esittä
lähetti
1912
Yl
läänin
jäsenenä
##tellaan
##ikana
##mmistä
##kaupunki
aloitettiin
Erik
viih
suosittu
##tera
opetus
Kot
Wash
levyn
työväen
Väh
##ylän
tiedo
##gres
viesti
##ikir
##koulussa
Lento
muissa
##media
paikan
sotilaa
klass
##kaar
##ikasta
pohjoisessa
prin
##ikkaus
poliisi
Tuu
eur
American
pika
nykyinen
sosiaali
lähde
Mich
Gol
##tunti
Gö
##try
jälje
helposti
osasto
suurempi
Ira
vuoristo
uudesta
Ny
##asia
##pla
nauh
Rang
##ttelun
keskuudessa
Kokemäenjoen
fos
sivi
##pus
1915
##hmon
##uita
##llia
tuomio
Chica
samassa
##dis
lan
muihin
nouda
##pros
maasto
##rosta
idässä
joukkojen
Tše
intiaan
animaa
##teeksi
laaja
malli
ortodo
symb
##ters
Oli
##usin
Aika
##kuvaa
##llisiin
päälle
CD
##ure
muodossa
vähemmän
##wi
vapaaehto
250
##alinen
ihmisiä
seuraavan
paine
Heikki
vanhin
##ellinen
sisältä
Hie
ilmeisesti
oppil
##40
##katemian
Green
##tissä
vero
Kansan
##dr
##miehenä
Finland
Universi
##udan
##kte
ratkais
talvi
kuinka
rekister
minuuttia
##luu
##pelaaja
ruotsin
##ben
kappaleita
##rad
Pall
##logi
lähtee
##zan
tekivät
##ynty
Lontoon
roomalais
##killä
Viipurin
##uringon
vauri
saatu
IV
Den
vang
näytelmä
##kuna
yleinen
##päässä
##vesi
dia
##keolog
takana
ilmestynyt
yrittää
todennäköisesti
erikoistu
##utus
##lai
##ool
##mmas
##tasa
lasku
tulivat
Kansainväl
##kele
kylässä
##orina
tyttären
##VD
Joulu
alkunsa
Finn
runo
johdosta
helpo
politi
##ello
##nel
reak
##joneuv
Smith
Lud
aseman
Ya
##astian
##tuksella
Argen
##utuneet
liiton
ihmiset
Manner
##alueella
##nis
Tr
Nuor
Helm
sula
maantie
muutamia
##not
1906
Italiassa
Ranska
Tutki
##laaju
tyh
komppan
##king
SK
Muse
##sinöö
Louis
Fili
Porin
##isuudesta
kohdalla
##dassa
International
Alf
kaiv
vaikutteita
ret
peri
Berli
senttimetriä
z
##ori
pysyi
miljoonan
Juu
Lontoossa
Compan
viestin
tas
Sco
virallisesti
1905
##rinen
Lee
rakka
teollisuus
##opisto
periaa
##ces
Tässä
johtu
tehopiste
##aste
musiikkivide
Mole
##taite
kahdesta
mill
Room
läp
uutiset
Moskovan
85
inn
Kil
Pyhän
im
Ron
päin
Tel
parissa
Andre
löytää
Cupin
bud
valtaa
##ckey
provin
vieraili
##öitä
Oscar
##tuun
##delle
##emaan
##telty
##opä
kans
testa
Kri
##inon
Jees
##ikseen
##uver
##kkoon
##lor
turnauksen
##ón
SS
lahjoi
##vaaleissa
##ulo
piene
niemi
##ever
##htia
huomiota
vanhan
##ning
##18
nuoren
Pala
Touko
heimoon
##jekti
Jukka
samannim
##hoita
##vaara
##peri
huipp
lyhyt
Ensimmäiset
Prin
ylläpitä
##ped
tarkas
jääkiekkoi
Japanissa
projek
Matt
arkkiteh
##estö
##pasi
etä
##gue
pos
##ttorina
##kellusven
saavat
hautaus
##viksi
Sisä
##uston
##jiin
evan
nimeksi
samoin
yhdisty
##ralla
englantila
##oper
toisistaan
##gna
##joukku
sanom
##uhtin
menestys
Records
##helm
##oikeuden
##hdy
valmistaa
##aro
Stra
joukkuetta
##ther
Para
##landin
kehittyi
##vig
dig
Lat
haavoi
##pelaa
##tieto
##kkia
mpy
rannalla
murha
vahing
##cer
aje
luettel
merkitys
##kov
##omo
##kkain
koe
##keino
toimia
##tied
##fil
68
dyn
##lie
Näiden
uran
##uutensa
pohjoiseen
##ttyään
etelässä
##määrin
Vain
luop
tarkoitettu
##teesta
sulje
tuon
##kap
##nitel
##sten
Levy
pelattiin
kuukautta
##ital
itseään
Bern
##mmisto
millimet
olle
ris
ins
kehitti
##imin
Ang
Jun
kannalta
juhla
Loh
latin
Yrj
176
##tuista
Spe
##tere
##eista
Fe
Ola
##ttäneet
muuttaa
kahdeksa
keskellä
Yhdysvaltoihin
1908
##port
##ius
##koski
Plan
Niiden
120
saaria
Koti
käytiin
kunna
##ival
##tyvät
säte
##puolue
voimakkaasti
Bos
##tetut
##tarv
##plo
yhteisö
yksityis
veli
edes
Tammikuussa
##isina
##iga
kansainvälinen
##torj
tilasto
McC
Tyy
Kylä
##yhdistys
##rus
Luon
sub
Syys
näistä
##teinen
63
##hdet
kamp
##äy
erityisen
##merkke
Ohjel
viimeisen
##ilee
Joens
##pit
arvioi
##19
selkä
Lammen
##BA
sopimus
##järjestelmän
esiko
halua
salli
##puolueen
ca
enna
kel
pääministe
##keja
Timo
##tettava
kasvan
Hil
Tanskan
##opetta
##ilun
nimisen
työskennell
heik
##tilaa
Kirkon
Loka
Leon
##neita
##ttavan
Rod
studioalbumi
Taistel
Ori
##hal
##itosta
##llisyy
Kesällä
##uivat
Koiv
pelkä
##pinta
joutuu
ikään
osoi
##innin
##iker
kuver
##gren
Teh
Angeles
##pataljoon
##ttömä
jäänyt
lajin
rakentaa
järjestel
##maiden
lähetys
##ass
massa
viikkoa
sieltä
##uva
estää
##tettä
saavuttanut
##jään
pojan
Vali
kapin
Sata
hetkellä
##tilas
##vella
kesti
##itossa
jääkäri
##rah
useiden
##kie
omia
##kerin
Kyse
vaara
Ever
ohjasi
##iteen
Wien
Pur
##ipuol
luonno
vaikea
toimiva
##yli
Vin
Ari
llä
ryhtyi
##ordin
##die
kalta
##IF
##nöö
##iren
59
##nella
mainitaan
##önen
net
##talin
jakaa
78
lukien
takaa
2020
keskitt
pele
rahoi
##bel
Nuo
ääri
Ly
##kustan
olevansa
energia
##alaiseen
##netta
matala
##raama
eläkkeelle
toimittaja
kolmesta
seikka
##uke
yhdistä
Sala
poistettiin
viidenneksi
##istetaan
72
suosio
stä
1907
Ric
##immiten
Pariisissa
##ksessä
Yorkin
ehti
##alle
Lä
virhe
##iltään
klo
Str
tihe
vaihtele
##öyry
##vaiheessa
krei
normaal
##rinta
maatalous
Ilma
tarina
henkilöä
##eissa
Raama
saattu
kapina
Vesi
ohi
##tas
tv
väestönlasken
##ivaa
hake
##neuv
##ttinsä
jyr
##ffin
pri
##ristian
##yhtiön
76
##ür
##udulla
Bran
##tutkin
Fi
Pop
Varsina
suhta
##uhan
##ikaa
polttoa
##uts
##kkel
##ij
##netty
##oseura
Syd
74
Esp
Maalis
pataljoon
##zo
sodassa
##kseksi
##teistä
ystävä
##sse
##tensä
##oili
tyypp
Fal
omat
##välin
vettä
##atar
##politi
Erity
vaihtelee
aatel
hopea
##dal
##fan
Hans
italialainen
muutta
##istoa
##oilta
ohjelma
pommi
kuoltua
##tuksensa
MTV
jatkui
mallin
lentokon
##ström
##museo
##mul
##isivat
puutar
keskimäärin
Lap
ten
Vik
DVD
häiri
luov
taisteli
##katu
lopetta
Record
Vasta
syntyy
Vaasan
pääministeri
pyhä
opiskel
maailmassa
##osaa
##hteer
listan
päätyttyä
liikkeen
##iori
##toin
##tul
1913
Tällä
maase
edustanut
##muse
EP
välttämä
suunniteltu
##NA
Valta
Daniel
hallinno
puolelle
##lerin
vaimo
##vens
sydän
##eta
##isiinsa
Harry
tunnetuin
lännessä
##ologi
##innyt
ilmesty
##eg
Kra
##tyksensä
väestöstä
ohjelman
neuvottel
oppi
##ets
##fen
##utettu
miestä
suojaa
99
raha
Tälla
Päi
Kaarle
Henry
##asen
engl
Sota
hoita
pääsarja
##istyi
suvun
00
Metsä
##teg
alas
ilmasto
##kilpailun
Män
muodostui
veren
joudu
##ree
##riksi
##tumis
jazz
kuiva
kesku
##cal
##ois
Skot
stand
##opin
##ellisen
käyttävät
Marras
##teena
kysymy
konserva
##undin
Itävallan
##katemi
Tour
reser
##vuotisen
##ror
täyde
##malta
hil
##ltään
tälla
arvostel
##16
##mpiin
Lauri
Santa
Aasian
Toisaalta
Ään
Ap
aut
##tsu
##ttiä
Tan
suora
##derin
ammattilais
Erä
##nellä
##tiona
##silla
tilaa
##dossa
Play
##kkaana
Iran
Kunin
##tuksiin
1911
Club
Juha
maasta
##kseli
määrää
ulkopuol
järjesti
Noin
##siir
demokraa
88
Ana
anne
##kua
##ytti
kaupungista
##maail
tutkimuksen
##koti
Sara
Aie
toisin
Afrikassa
rapor
etelään
Tro
arkeolog
##lub
##bli
temppeli
viranoma
pääsee
joitakin
##tsas
##alaisista
##bal
tehot
hyväksi
##annin
asukasluku
77
##tellyt
soittaa
##kila
suhteellisen
##ulussa
kilpailu
suuntaan
Sim
##dus
Edward
sijalla
lisen
järjestää
kielle
Cap
Dor
kestä
äly
##udi
Laji
Jalka
tietokone
##vaik
eräs
kohdistu
lakkautettiin
Huhti
kakso
Englannissa
##igan
tahansa
hävittäjä
näyttä
far
##nuksen
listalla
pistemies
##kyky
Alueen
##mela
joki
##erien
##ukselle
Ten
##öksi
Sur
hiihto
##uoto
jaettu
Kuus
##musiikki
##tantin
Del
siiv
maiden
Der
tuhoa
Sää
kahdessa
##ardia
posi
tehdään
sisällissodan
kyt
työskennellyt
##isyyttä
Run
##yhmän
tasan
nuori
##olia
Ahven
##itsin
##ring
viides
vei
yks
surma
##hka
jääkiekkoilija
##teisiin
löysi
taistelun
Holly
Ak
osassa
##dettä
##itz
korkeim
puoliso
Des
katu
samaa
##hön
##rjasta
teoksia
kunni
69
siviili
perustaja
##run
##etna
##tsin
Neuvostoliitto
##muksia
silti
Jaakko
Joukkue
##uud
##uussa
muuten
uhka
##eral
mal
jolle
paper
##upissa
parhaimmillaan
Mis
Sig
Ruotsi
Blo
vaale
urheilu
Hier
##ministeriön
##kio
Paika
maailmaa
maakunta
##ag
ajalla
teori
Kuopion
Sarja
ylioppilaaksi
##äs
rajan
Kle
Järjes
divisioonan
alueita
ympärö
##cker
nneksi
##oiksi
laaje
edustaja
yliopistosta
##CA
Die
äänes
##tiivinen
##oitsi
Saman
900
ortodoks
juoks
elokuvaa
##tapa
vuosia
tavoitteena
##ction
ryö
##uss
sarjaan
yhteiskunna
Py
Dev
##hai
juni
##mättä
Kunnan
ulottu
hyökkäys
Rog
##ttoon
parhaaksi
pakko
Jumalan
##maisen
avusti
##nie
alueelta
keskenään
järjestetty
mor
Jul
käsittele
##omista
Ukrainan
##llise
tuote
siemen
matkalla
Siihen
osavaltion
talv
sosiaal
##osia
suunna
tällöin
ak
osalta
##teollisuus
Nie
##kauppa
sukellusven
##15
matkus
Jen
kulttuurin
maailmanlaaju
kaupan
osallistunut
##cho
##öyh
##esiinty
numero
##ingas
##ttaessa
##yön
koneen
##usko
tulki
kulki
miehi
huole
yhdeksi
nähtiin
##erissä
##ukun
pelissä
Mik
radan
##upaa
WSO
kansalais
demo
##ittoon
Saaren
sijain
päättää
##udin
Inti
##tuksissa
kuvattiin
##keskuksen
Cra
##valtaa
keräsi
##ohjaa
eteenpäin
73
##mänsä
##liikenne
johtoon
tärkein
##esä
kro
määrän
rive
##elius
##tteeseen
##katol
hallussa
Suomea
United
##tat
##turna
##tru
pisteen
tulkin
voinut
Britannia
##ikuun
##kappale
muotoi
Unkarin
pääss
kuluttua
##kirjan
kentä
Yhtiö
kovin
määrättiin
Vel
##vol
##utuminen
tuomittiin
##maata
##piirin
con
Pier
kirjassa
alueet
tietokon
ever
Ranta
IF
Otava
Siitä
suojelus
monissa
##kky
valmistettiin
##etoimin
##uhtinas
lentoasema
##kilön
piirikun
##bera
##ming
##ttejä
##yrkke
Yorkissa
alkuun
pelaajana
Albert
##dra
##aseman
puhd
asiantunti
valmistus
turnauksessa
luter
##materia
##lassi
mestari
##imiä
metal
Blue
North
papiksi
##sit
##vist
##kanta
##valti
##töä
Trans
kaikissa
monien
mestaruus
##konsa
Shan
pohjoispuolella
jumala
sanottu
uus
Pietarin
##hdon
kerrotaan
1909
##arit
BBC
viik
##ings
yhteistyötä
Vla
##fel
##eeni
Tek
jaksossa
sisäisen
Bru
Rea
##taus
väliaika
App
diplo
kasvu
##hallinto
hita
##mijoen
##cks
öljy
##ehdo
175
##yksiä
niminen
##kaas
##13
tappa
metsäs
alkuperäis
##usen
##uval
entis
raska
Prix
kappaleesta
itään
paranta
puolustaja
##vinen
norj
##vuori
käytöstä
##ok
##kivää
Keskus
##neeseen
log
##isuun
korvaa
##sil
tapahtuma
##käs
Kulta
ph
AHL
##tykse
ollessaan
##laus
järjestetään
##kop
Häntä
Top
alkuperäinen
edelly
hid
##piispaksi
Nar
väkiluku
##umi
##eeseen
##kulttuu
##kaansa
##peleissä
annettiin
##ré
##sään
Comp
avusta
##did
jäsentä
##isiaan
joutuivat
1904
YK
##vali
kuvattu
Tuolloin
##ida
##aja
tapauksessa
Rakennus
reun
Joka
satelli
##tessaan
monipuol
##field
edellä
enimmä
##gori
##ikkojen
Barcel
kolmeen
Israelin
monim
valmistetaan
halun
esim
##utun
festi
##pl
##ec
##oituksen
version
##unda
isku
pyöri
Dia
Sillä
##14
nosta
paina
Vo
##istisen
##pio
##du
rauha
opiske
Fredrik
tietä
Far
Nig
uutis
##tettävä
##bus
##dri
elokuvasta
liikennö
suomeksi
Mill
Linn
Jug
des
Hell
kaupunkia
tietojen
170
##isemmin
naisen
kasvatti
lämpötila
Seuran
##ytyy
##ikenteen
##hdin
Mars
Taide
Kausi
##df
ilmen
nimet
Soci
##itan
Washington
jakso
Siv
ket
##utumista
96
High
##hteä
mestaruutta
##ergi
kirjoittaa
aste
##ey
##ilev
##urg
tulla
##pelissä
160
Yrjö
olisivat
tuottaja
##tumisen
##hojen
opettajana
82
matkan
Arch
Pos
heistä
muusikko
##uten
jälkimmä
##isija
Hollywood
##cea
##kielisen
##erva
##ference
Chr
Mün
##uille
kriiti
##hyökkää
useimmiten
erää
Pietar
Sw
##mänä
951
##kadun
lope
iä
roomalaiskatol
avio
Toukokuussa
Power
Ras
Näistä
asettui
ylös
##joille
luokka
riippuen
tarvitse
tukea
##ster
##kille
##liigassa
##ohja
tasolla
myynti
korvasi
kahdella
kehittämä
Sports
näyttely
vaaleissa
##tive
pronssi
vesille
media
##historia
Lew
maalintekijä
##töjä
##insää
##nelle
edellis
##kikoh
kuollut
jälke
Bob
##tha
##veihin
äidin
Lou
Pic
##jannut
varasi
Heinäkuussa
##miston
luoda
ihminen
sanotaan
##dit
##leyn
##skyn
ato
##vuoren
karko
valla
asukkaat
Pas
Eloku
orgaan
##dea
ehdolla
kuolemaansa
##ilen
##onan
##misessä
kutsuttu
##ilyn
Sai
##ttoja
Tukholman
musli
sisälsi
Sand
puolen
Bul
##kunnasta
University
muodostettiin
Fu
Saari
##tettuna
##ipi
##haan
##rannan
##toriksi
uudestaan
Oike
##kohd
mikro
suuret
saaneet
keskitty
Vide
Step
##teetti
valkoinen
##phy
##tassa
käytettä
##år
Bj
Blu
ali
väliin
teatteri
lähetettiin
##zen
##ssiin
vaun
##maalle
##merkin
##holic
Aino
jaettiin
tro
##hr
aiv
##kenut
Pikku
Royal
kuukausi
##kiso
##ishop
##yttämään
kyky
Lehti
Stor
paikkaa
Otto
kuiv
##kirkko
Pelin
laita
##itellen
valtakunna
peräkkä
##arian
hien
vuokra
sanomal
edellisen
##mpin
du
monen
puisto
eteläpuolella
Tär
mitali
Encyclopedia
stra
##innassa
##vuor
##bora
##julka
##anakirja
##kkejä
##erä
Mary
kestää
tilattiin
##17
ratkaise
tilo
äänen
puolus
een
##istiin
poik
Pitkä
nähtä
riveissä
##happ
##tosta
##tunna
mukanaan
miehistö
92
Berliinin
palveluksessa
##hoito
##linin
keino
É
##usan
##tolog
tarjoa
Gal
näkyy
tallen
muualla
##tnantti
piirissä
olosuh
Apo
Meta
##idassa
joskin
juuta
84
del
myrky
sarjaku
jäivät
Tre
##millä
pen
seka
näyttää
Samaan
toisiinsa
##row
##uvuo
sanan
Porvo
##hallituksen
Hun
pesä
##hteen
Alun
ex
##lova
##dina
kerää
asev
satama
päässyt
sijoitus
##mittaja
kukin
##lian
edessä
seksua
Ateenan
sanoitta
##alien
##holm
##ttyjä
käännös
myöskään
kaupunginosa
sijoitettiin
Urheil
kuulun
luonne
käsittää
Law
##denin
albumia
Luu
##hn
aurinko
tyypillisesti
##uojel
Sven
##aattori
Espoon
##merkkejä
86
albumilla
Spar
uudeksi
sosialis
asutus
Catholic
Aluksi
pitkäaika
##iman
##teja
toimeen
Jat
tehden
hyön
kakkos
##ttävästi
länteen
Mir
jaetaan
tall
##päällikkö
Cana
nouse
eivätkä
##lahti
venäläinen
##pain
sinf
elämää
##ttuan
##ook
ykkös
aikanaan
Patri
panssari
##vahti
Tex
Hämä
kahta
##onta
##dille
##orkes
##tusa
niihin
merkittäviä
##bra
fyys
##jasti
##tsyy
vahvista
##ysan
##väki
##järvellä
toteutta
Alexander
##rilla
magne
painos
Alkuperä
kansainvälisen
##vyn
##llas
##vaihto
##omaan
##pide
##ineet
tarkka
##alaa
kim
Kuiten
Elokuussa
Tampereella
Aalto
Maaliskuussa
##kaut
liha
Elisa
##kei
kuuluv
englantilainen
##kaupungin
##kion
##torjunta
noussut
uudet
##cade
juniori
##archy
Temp
##istinen
##tellä
##tehdas
##upseer
Huo
mihin
välille
##albumin
heiken
Pl
Som
##kerro
##impiin
velje
Ylä
##ministeriö
alala
lainkaan
##innasta
suomalaisten
##paus
Times
##ology
##ltavasti
yhdistää
ah
##aras
Tw
##tyään
##mera
Kiinassa
Kesäkuussa
##tilassa
##ukas
##kisen
Arth
etene
Aluksen
##vun
Real
koriste
Fried
töitä
##ttomia
##tuksista
erottaa
voitiin
valmistettu
##ongel
##vić
##levy
##valmis
WSOY
##mmaa
Hill
kaar
opettaja
yhteiskunta
##80
##ffer
##jalka
myöhä
##lls
eks
hom
ottelu
onnistunut
Mun
tilanne
Ruu
Helsinkiin
bo
pesi
##imellä
kenttä
tavar
##ric
##vestä
##paikkaa
##uusta
alkupuolella
esiteltiin
by
##dh
osia
rans
Fla
purka
kuolemaan
saksalais
Mod
tehtävänä
alaisuudessa
##pre
Gustaf
gen
poikkeuks
##mistaan
##ason
##maala
##senin
Coun
päätyi
pelaajan
##lintu
ristiri
##ns
maise
##koista
turvallisuus
##dilla
avoin
Sveitsin
vaihtoi
87
valtaan
Kappaleen
##herra
rikos
##ule
ympärille
##miehet
##insäädän
##palloilija
pelkästään
der
110
Paavo
animaatio
hylä
##versio
##DP
##markkin
varaus
##ikkana
digita
toiselle
reag
##tuneet
Phili
White
omistaa
käyttivät
##voja
##eriin
lienee
##tieteilijä
sukula
##mesta
##urissa
Valtion
Dy
sup
##auto
##mmilla
##llisimman
tietää
ongelmia
maanviljel
##ril
laski
##mond
pystyi
##llisella
Joulukuussa
kaiva
ohjannut
päällä
##ylä
kemia
mikäli
##mpänä
pyörä
Hockey
ryk
##jossa
ulottuu
##alus
##sojen
nosti
kuluessa
1890
Ama
rav
##mitean
taiteen
##mäs
taiteilija
##psi
liittyvät
##tuin
käsin
tavan
tohtori
Kim
Tol
##kenttä
esikois
voittoon
##ikul
kisojen
kanadalainen
draama
Islan
Berliin
toisinaan
lipp
Konstantin
toivo
jäljellä
Pin
##uuskilpailuissa
auttaa
Vic
levisi
nähden
##moja
##linna
Berg
##burgin
##tamaan
79
##teensä
##nän
##omb
83
##impien
Dig
Vietna
prote
Lokakuussa
##tum
##kivi
Ru
ben
##otti
päähän
tulokas
Ry
löydettiin
##rata
##tation
törmä
##tyt
##laiv
##pole
Cle
##deja
##mara
Yhdiste
funk
Sitte
elektron
kyseessä
suoritta
##utumisen
koulutu
##llisissa
yhdistel
##opimus
Seinä
mahdollisuu
kuolle
##ikas
Hierarchy
##ynnä
##isp
rannikko
##ep
sade
Huhtikuussa
##esten
##ppien
kera
vien
##llisti
Aiemmin
Holl
toisaalta
mainittu
Simon
pitänyt
##oliin
##öiden
uhan
merkin
Lappeen
##juus
##tuuri
muuttuu
Sittemmin
##šin
aineen
köyh
##myksen
##käytö
1000
##velly
Oper
edistä
Pat
uuteen
virallinen
##IS
osu
Pirkan
parlamentti
mahdollisimman
osake
varustettu
##ryhmä
##tover
##joitus
tappaa
kasvatta
vaihd
sijasta
##idan
suunnitellut
##ivät
##itten
##rannalla
olevien
viita
##mati
hengen
##toimisto
lopputu
sukua
##mentissa
sivusto
Kanadassa
pelata
##col
Erkki
##hard
Ray
##alissa
eversti
valittu
Loi
nainen
##OS
##kehi
Jugosla
##saan
Bus
vai
##mber
läheisyy
les
roolin
Marraskuussa
One
elämään
Big
##ostaa
##utuneen
vahvisti
enimmäkseen
hyökkäyksen
##ttinä
##uer
koste
##mital
Evan
##hyökkä
rikko
##joukkojen
##odor
Group
elävät
muotoon
voittaja
1899
##palkinnon
##TA
##hos
miehet
tähdistö
##iley
Sea
laiva
poikkea
enn
##rista
Helmikuussa
tuntia
##war
täh
##tula
Korean
näyttele
##sopimuksen
##eb
##ym
mah
jäseniä
Syksyllä
##het
paluu
viitta
merkittävästi
174
##pace
##vos
##orkea
##rikk
Pon
##dään
Koh
##kola
##mistään
Kaupungissa
esin
Kuitenkin
pään
reh
##vallassa
Taka
valin
ajoneuv
##ders
##kistö
vaatii
metalli
Bat
##miaan
taakse
##sis
posti
seurakunnan
lupaa
virallisen
fo
##anner
##llisessä
viimeiseksi
Toron
##yksikkö
##lliköksi
kaikkea
valtiopä
kauh
entistä
##liä
##järveen
ryhmään
##oinnin
##tein
1903
##ttoman
Yhtiön
merkki
##yne
perso
metrillä
maja
heikko
Presiden
planee
Wood
#
julisti
tarjoaa
Työväen
Yleisra
##niksi
syvä
##joukot
harrasta
järjestön
Jyväskylä
yhtyeessä
harras
valvon
kansallispuisto
##alit
Bay
##mukset
videop
##kyn
Laur
osavaltiossa
Nik
abs
viidestä
väkivalta
Sib
89
veto
##nik
Turkin
Kell
toimintaan
huomaa
puun
Billbo
Wolf
##isteja
##tton
teko
määrin
vuodeksi
jatkuvasti
1200
Anne
##stituu
##hallinnon
##esse
|
##ssään
kommen
##neitä
kieltäytyi
##lento
##vainen
##issään
laivan
artikkeli
##24
##tietee
luultavasti
SA
keskittyi
98
XI
Mauri
##merellä
##kaupp
##ukana
käyttöä
Lajin
julkaisema
##tyvä
olevia
avustivat
näytel
##ksistä
dollarin
Windo
insinöö
ui
kritis
asukkaista
##teeltaan
Marie
kutsui
aloittaa
sukupolven
tansk
##aliin
satunna
Keh
hyväksyi
##koke
Valen
toisiaan
##eetta
näkökul
höyry
##essin
##malli
##qvist
Til
pakeni
sanoo
yläpuolella
##pot
tärkei
##mall
Hänestä
##kalle
levinne
vetäyty
kotiin
päätettiin
Film
hiekka
vene
karsi
säilyi
vuodet
Australiassa
##bl
##uen
upseer
##11
##bro
Rat
kevy
kandid
Game
Turussa
##maissa
##ustaja
Jones
##tone
Muut
koira
tarkoitetaan
Internet
maailmanso
Kouv
##valtion
##konä
Näitä
pysyvä
Kie
peh
##yöhykke
urheili
##ikos
lentokone
##kasti
##melle
Espo
avioitui
kaikista
Ei
Syyskuussa
##liike
rautatieasema
##60
Golden
##veja
muutama
93
kaikkia
voimaan
paljasta
##formaa
selvisi
##tettavaksi
##astoin
pelaamaan
Aleksanteri
valvo
pitkiä
##noissa
##päivän
##aatiksi
muutos
kristin
lehdessä
##imur
##IA
##isla
##istoon
##koiden
pahoin
Jane
maaottelua
##uken
##ttömästi
##ppää
roole
Ivan
Port
##kirjasto
##ellim
##teä
##tason
kohtasi
vaihtoehto
##sas
with
kuudenneksi
Hea
##inö
Kolum
syystä
tunnin
vetäytyi
##kkaita
kää
tapasi
Piir
Mestar
sairas
kokoelma
##yneen
Tech
Teos
kaks
##kyyli
Ville
##ettanut
##synty
Lar
##uksensa
##bet
hoito
rahaa
elektr
##tero
##maisia
totesi
kasvanut
pas
php
lyhyen
välisen
Nu
yksikö
lat
##nilla
Rovan
tulevat
Life
operaatio
Sö
##diin
sovell
##elen
##uuksia
Perus
nuoriso
130
##iltaan
varti
Ann
roh
Ilta
loppupuolella
Napole
##omi
Park
heille
##uunnitt
School
muutoksia
saksalaisten
##puna
Europe
##uur
##miselle
Suomesta
##ppuun
huono
##parte
roma
##mmäksi
katka
muisti
merkitse
inti
perään
Anth
monta
kapteeni
saatavilla
##illut
täytyy
kärki
Torni
oir
tonnia
##klo
Lopp
sukuun
kenraal
lämmi
##wen
##ilais
##työt
kantaa
rakas
Fen
##pohja
väle
määräsi
Keväällä
joukkoja
##ES
asioita
##tuminen
##hdus
##mion
erotettiin
##ttelyssä
Gil
käsittelee
##vuoden
pyysi
##ukat
##yritys
##miksi
##heen
rekisterö
##plan
##rek
##estissä
Enter
vasemmisto
tyyl
kustanta
##kla
##ostus
##vär
komedia
##tävän
Salo
aikoinaan
Ison
##oseen
sarjaa
puolis
professorina
näitä
##puolelta
Martti
annettu
ilmoitta
##duc
##visodan
elokuvia
jatkosopimuksen
##cra
God
##toria
##puolen
lämp
asetta
Stre
rotu
kihla
yksikkö
Haw
##misti
kärj
rakasta
Kymijoen
##mmalle
##vaaran
##talouden
Näy
Irlan
ohjelmassa
##umero
osakilpail
##happo
##käyttöön
##ketti
pelasta
taisteluihin
Jotkut
eduskunta
sotaan
ohjaaja
päätöksen
##uom
##uuna
seutu
##tilä
Sten
johtuen
##dissa
Kroa
havain
seinä
##enny
sotar
para
##alisti
vaadi
##lasta
##kosto
Cons
Kivi
##eva
Ci
koillis
aih
Gir
Kong
miljardia
##ittä
##koita
kunnallis
Alueella
elämästä
mahdollisuus
nat
vähitellen
matkaa
##elu
uudistu
##jase
##teks
Jäl
elintarv
##kaali
Aasiassa
##zar
kansi
malle
##ussin
lisäänty
##ké
puuttu
lasi
##teollisuuden
##ranga
houku
##chester
kirjallisuus
##fli
##rie
##liikkeen
Argentiin
sarjakuva
##ppiin
naapur
##anssi
vuotis
Pohjo
##teenä
neste
nähdä
veisto
herätti
nimitystä
Spi
useat
kartanon
##elia
1902
kala
uusin
×
Virgin
Sti
osaan
toimisto
kierroksen
Kone
##dot
##isoi
kaakkois
1880
sijaitsevan
##ajan
puolu
Lähi
toistu
ratsu
##ding
##konse
##kymmentä
moottor
tuloksella
##bour
##dition
##maalin
Lää
##ktori
pitivät
##siv
##ketta
ruumiin
vaalean
ulkomailla
koki
##liikke
jalkapallon
käsikirjoitta
##ryk
##kkoa
kruunun
merkitystä
ilmavoimien
##med
##sch
##vaiku
lähelle
maanviljeli
HC
##tellen
etn
Night
pystyy
tiedetään
##ispan
pensa
muille
maansa
tunnetuimpia
rom
johtama
veteen
edel
tavara
##dic
tietee
lla
olo
Jaco
##umista
##cu
##kkinen
Tayl
Mesta
konkur
itsemur
Halli
Eurooppaan
##ersin
Mikk
Nov
Mike
Award
tarinan
trans
##trömin
##utumaan
historiaa
##kolog
##sissä
näki
š
##villä
Varha
sävelsi
esiintymis
##teilla
sijoittuu
Merki
164
##perhe
##valtio
##ikenttä
##day
##oottori
##TP
##sun
173
Scott
koordin
##reen
Bell
prefek
apulais
##paikkoja
tuhoutui
##yhdistyksen
pyrkii
##hdi
turkk
##llisuudesta
##uskon
##dt
sum
Eric
##kertainen
Nan
todella
##päällikkönä
Bol
##mannin
tuntu
tuuli
Aristo
markkinoille
käytön
vallankumouksen
##västä
haltu
##ía
##neyn
##tieteiden
##sey
##goli
##kedon
Mieh
1901
##jottelussa
##näy
##cta
##tillä
Bund
##ttelyn
Saksaan
##kalli
##tuotanto
##olle
olevaa
rumpali
maajoukkueen
nimesi
jäseneksi
165
Mannerheim
studi
toistaiseksi
olen
cupin
Mylly
levytys
Tunne
##äärme
juoksi
##ima
Ox
Pallo
osaston
Rena
##yttelijä
##tran
##virta
proto
ulkopuolelle
auringon
Kalifornia
iden
Perin
seurassa
pdf
Camp
suunnittelema
##torni
kiertue
##misensä
elämäker
autta
Suuren
moder
löytyi
taidemaal
taustalla
##hatta
##voiman
Hyvin
osoittaa
##iselta
##maista
hilja
Vielä
jättää
##oittivat
sarjatasolla
työtä
protes
karsinta
purettiin
##puheenjohta
Tieto
epäil
1898
Steve
hor
##töjen
##kielen
##yttää
heng
inf
kirjoitettu
##hor
##ukkas
yhteistyössä
sijoitettu
##mella
basisti
##maat
Norjassa
##ranta
##ministerinä
##töön
palkka
##isuuksia
kuntaan
##kuvia
valtuus
##veä
##vira
samm
laskuo
liittyviä
##dex
##vaali
osat
runkosarjassa
ksi
news
Gabri
Ath
##zon
##tyyppi
kolmessa
##has
##moottori
positiiv
harjoitus
##kieli
ilmiö
##bla
##byn
##oree
ruumi
##pora
May
keisarin
##keri
Sanomien
##sase
##metsä
kome
##alaisesta
opiskele
saarelle
##tuurin
opetti
94
live
parlamentin
##ivoi
tähden
AS
esitys
##toksen
##ksestä
##ttojen
##taistel
jälkelä
##hyd
apua
Tapahtu
lähettää
1860
piano
muodostivat
vakiin
Veikkaus
##kol
##vila
##tyypin
Chris
lounais
olympiavoi
lapset
168
##lahde
##tteessa
ilmavoi
61
päätös
Hot
välin
##haw
Itävalta
Vladi
##alaisille
##tuva
1870
##ihinno
Lampi
rakennuksen
Gun
##alisen
Ahvenan
Ern
liuk
##suh
Liitto
nousivat
papp
be
nimitys
johtuu
##25
tasavalta
##vonen
##oitettiin
yhdistys
Tru
##taalla
vastuu
lukujen
VII
Kyl
Mutta
pelaavaa
liuo
##teko
##tehtaan
pudotuspeli
##johtajaksi
##mätön
islam
lajeja
Yritys
1897
surmansa
pot
##maatti
##ttavia
Brown
sävelly
##heilija
Pr
muodosti
##kad
##tteluun
leveys
Alankomaiden
ehdokkuu
Mala
sydä
José
kirjallisuuden
##ystee
##paikkana
##itš
suomenkiel
##ple
Land
##tettyä
##boratori
taajama
##yteen
##ovin
##kunan
Thor
tekijä
ääntä
tohtoriksi
##opeus
##tetyn
##jor
hiippakunnan
140
##kkiin
synn
Juhani
täysi
olikin
##utka
Joe
yhteinen
Imp
##ssissä
##tapahtu
##aikaa
Adolf
työskentelee
##ugen
Gon
##vojen
suhde
modern
##ugo
Kristi
saattavat
##lling
Niitä
vihkiminen
##cht
mielenos
päähenkilö
Adam
euron
Rob
pör
##valio
Bishop
Pierre
1400
voida
kriti
metall
##oikeudet
##ches
##veys
bra
nimitti
rajoittuu
tieteen
##beth
luoteis
roolissa
hajoa
Christian
kohden
Turku
Vuosi
vanhempien
##umia
##hyökkääjä
pysäh
##ihinnous
kyn
ohjaus
Massa
kuningaskunnan
potila
##juri
mana
##21
Tony
##ellisesti
##mattomia
##bil
##ppaa
otettu
##erit
169
##kistä
muusi
Yhdisty
##tonta
kehittää
##ennettiin
Reference
komentaja
huolto
henkilön
##uusi
##äneet
##mitali
##ukseksi
##istamaan
Syn
Kirk
silta
Kustaa
##mel
##ksilla
haltuunsa
uhkaa
Vantaan
Brasilian
rakentaminen
##tuja
kerta
liiketoimin
Cr
todettiin
##ppy
##idon
bakte
ajaksi
saapu
yhdis
Yleensä
tehdas
##nons
ulkonä
julkaista
##mpansa
luona
Pietari
hallinnon
terveyden
suurimmaksi
kampan
Egyptin
perheeseen
##dosta
##festi
halunnut
bän
kadon
##ratojen
suv
##tistä
Queen
kaikille
##joa
laite
##konsekraa
kimppuun
alkuperäisen
##kumppan
energi
Naisten
Williams
keskustan
##hip
1896
Good
aikoina
Tyyn
muilla
Art
Gui
##konsekraattorina
sprin
Colum
kuudes
ravintola
Isa
Puh
austr
Niinpä
##verin
heillä
Grön
Ruotsiin
kuningatar
##ikot
taisteluun
##vih
Miss
##liigan
##musten
##hdessa
##miesten
hahmon
uusien
tapahtumia
lö
moni
Acade
jänni
Ninten
hyökkäsi
##vuutta
Ill
keuh
jokainen
yleisurheil
sod
Espanjassa
350
Kai
##opiston
##kkoja
kongres
julkaisu
##ssien
isla
Muuta
##innot
hyödy
##imeä
paavi
riveihin
ruske
maakunnan
roc
##ision
pallo
##alismin
Italia
Tallin
yhdistettiin
Kara
esitteli
##vision
ravinto
asukkaan
aktiivisesti
##tyksi
yhteys
Med
sir
Ferr
##utumis
kali
tyr
##kkeet
raaka
kierto
##puhe
##uttiin
haluaa
pöy
##teori
##vuuden
##toiminta
kalen
ongelma
##käynti
##taneen
nähdään
##konser
alkanut
inno
Kokko
osallistua
perustui
##teessä
##vuotia
Päijän
Divisi
Ret
metro
##tteesta
kaupunge
##honen
##hteerinä
pääsarjassa
korkeimmalla
##isiv
tulos
##tulla
asunto
päätoimitta
Mikä
##ismia
##lantila
menetel
Irlannin
##uudet
käyttäen
valmisti
##ilas
##lampi
Arthur
itäpuolella
vieras
kuolleen
tappio
saapuu
artikkel
##hään
##detta
antanut
Cur
poikki
debyytti
singlenä
päävalmentajana
linnan
Wilhelm
##ihi
kuvernöö
kuvaus
Piispaksi
##ream
News
##väestö
kanava
poly
##lain
##yssa
##iseltä
##ksellä
valon
##päivänä
Cy
asemaa
sanasta
##puri
Dun
##tekn
kauko
Nikolai
toisten
teoksessa
Vähä
myönsi
fan
Syste
litra
singlen
Madrid
tulipal
Has
kävel
kulutta
Mid
laulukilpail
lopullisesti
velj
Ram
Ford
Väinö
##lämpö
rannikolla
kappaleista
ami
edu
##immaksi
##bol
##lun
##isku
runoilija
##tana
naiset
History
Prof
torped
Bundes
vieressä
##ody
Hyö
esillä
menestyne
Wo
##osasto
##messa
##ulaja
04
piispaksi
Christo
##joukkueeseen
toimitusjohtaja
dis
##ointia
Tähän
Up
163
##vaihd
hanki
osta
167
Ludvig
ritar
pääasia
meneh
kamppail
vangi
voimakas
samankalta
##hasta
Company
Kat
##kaksi
mainos
syistä
monin
##menttiin
hävittä
tupa
lampi
##elämä
Joki
Rud
##ivien
##miehe
Institu
pistepörssin
fe
rakensi
Nil
##uther
##fic
jälj
Myr
##salan
hämä
taita
Joensuun
##itös
Aja
Koulu
##yhdiste
ep
Asukka
Luettel
##ely
##hteeri
Venäjälle
##isteli
Pohjanmaan
Kala
##kokoel
tietos
##istalla
##kussa
agen
tarpeeksi
Tansk
kunto
Robin
läpimur
taistele
Seb
tallin
##FA
Kuningas
##ksossa
seuraavasti
##turva
##ilaisia
Järvellä
##utoi
Hannu
kauan
nyrkke
syvyys
tietoja
Ji
Samu
Stanley
vanhempansa
tehta
katsotaan
kiih
markkina
##häiri
reaktio
##uuskilpailut
##ipe
##snä
herttua
kanavan
##isari
##nille
##ikolle
peliä
valokuva
Time
Rosen
Historia
ympäröi
käyttäyty
Marc
taiteilijan
##dae
lajit
##imusi
kohde
ympärillä
maakunnassa
keskeinen
kirjoittama
##byy
##borg
USA
kertoja
neljästä
Kei
tutkinnon
Olli
suhteessa
##esel
Hart
Villa
##ruo
rap
##ttamalla
omisti
##mena
ampuma
aikansa
puolilla
välittömästi
##naa
##rana
Brittilä
alkuvuo
halka
melkein
työskentele
##poja
kuuluvan
##ardo
##isua
suorittaa
rus
Siper
Georg
parhaasta
Käsi
toisena
##chan
##elun
##tietä
siirry
tähteä
##ent
sijan
niillä
##rain
Rev
##sala
##sosi
puoliväli
Hamp
voittoa
sha
kiinnitt
tunnettuja
ominaisuuksia
##cc
jatkuu
vihreä
käytettävä
Net
virta
luotta
##myr
##nit
Marian
käyttämään
joukkueensa
##odia
Erityisesti
laitos
reitin
voiman
kanavalla
loppuottelussa
väärin
Mestarien
##kro
##saur
Com
##mmo
##udelta
##heimo
##dioksi
##llisin
##ittää
##joella
Sub
maihinnous
Live
Show
valitaan
##als
Palo
kerton
organisaatio
elinkeino
Kalle
hur
##iinin
##tely
viha
##ennyt
##onnut
##ysy
Muha
##ttyjen
Belgian
##kulje
##nonsuojel
##jäl
Penn
heli
kumo
poliittinen
##23
##rey
##ilia
##ults
fina
##fur
##ukal
##aluetta
##histori
hyökkääjä
##tiivi
Juan
##ikainen
basso
##fordin
##kela
##teos
hahm
syty
##šev
seuraava
##kaappa
Leo
Nis
Uut
pitäisi
minuutin
Mol
jot
Eero
omistaja
Portugalin
Neljä
Carol
##määräinen
suuresti
Björ
elokuvien
eva
1300
lopun
ajalta
ohjelm
piirteitä
talli
lainsäädän
Kier
Siir
finaalissa
##meja
Bulg
Johnson
##SA
##mitalisti
varhais
##pua
##varti
##tuom
Band
##joihin
tš
##ulen
##tologi
##llisestä
todiste
rakennutti
th
##ques
Valioli
nykyaika
Ear
pidet
##ceae
August
itsenäisty
vaikuttanut
##FC
Kis
Uudessa
suurimmat
##the
##isee
##tessä
Kuva
##vier
Rio
Best
Ihmis
merkittävin
terror
nuorena
jotkut
sävell
yrittä
auttoi
asiasta
kotimaassa
varapuheenjohta
harvoin
##duk
##ettu
125
Tuli
##yksessä
Long
Indon
71
Laiv
Yhteis
##iladel
##kautensa
##koira
köli
Jordan
kaatui
lasketaan
aam
##let
##ästä
toiminnassa
paks
##tellään
##esku
Israel
kova
erityis
Koul
##mattoman
punainen
##alidemokraa
##laji
rajaa
pyritään
Billboard
##pr
##kkala
##kkona
kuninka
matkusti
##socia
##tyyli
##mallaan
Olavi
haara
##ism
##jum
##pes
haki
lähten
##kesi
##pher
pyör
Kauppa
##lön
lehdet
Norman
##kkoslova
##ittinen
arvel
omaan
##ellon
##kémon
järjestelmän
##valan
1895
##kkeiden
##ohjelma
##ryn
81
tapahtumat
##lään
##stein
##oittaja
luopui
##bre
asteen
##kkaus
##pistettä
##utuneiden
Yhteensä
alueiden
Kro
arkisto
##kolla
Intiassa
seitsemänneksi
##kiko
lupa
##netään
päällikkö
ensimmäiseen
155
Wol
Sveits
##järjestön
Doug
Alfred
dokumen
##ín
Rub
##hdan
##kuvi
miin
Alber
##täneen
ottivat
australi
pitävät
##iksen
##ão
vanhempi
kehitetty
##ttle
Fle
##jeista
talvioly
Pun
##messä
kirjeen
länsipuolella
orj
Hamil
##ced
Free
hovi
##tuinen
vastarin
erino
Stephen
opposi
vahvasti
Hin
johda
yhteyttä
perinteisen
Oulu
dynastian
##ännyt
tason
juna
##ardi
##läisten
##lis
alkohol
from
Kolman
##pti
##evat
Kang
Kata
koostui
koulussa
##mark
Det
##työtä
levytti
rod
##illaan
hinta
kirje
päättyy
energian
osas
kirjoitus
emä
put
Bow
kad
General
##neista
##NT
Kanada
ansa
kuvasi
omalla
tehtaan
##impana
##töö
haas
Dom
##kkaat
evankel
Jeesuksen
Itse
Meksikon
Muo
maailma
seuraaja
oppim
perheensä
##iovan
Leppä
loput
sotaa
##palvelu
##ttaminen
näytellyt
kulku
vastaava
##ikoista
##käynnin
nousee
Open
##llys
puke
kaudellaan
##uste
##rna
##anaja
##lilla
##ropoli
Hämeenlinnan
##nimi
lyhenne
Molemmat
ö
##kkaaksi
##ologiaa
##gessa
välistä
##soi
symbol
##armei
##muutta
##valmista
yhtyeestä
##mpään
Muun
väitti
##arry
bio
##laitos
voimis
arkkipi
siirtyivät
Ju
är
##ohjaaja
merkittävi
jaa
sve
vahva
Kirjan
vala
popul
rikka
lapsia
kirkossa
kyp
Kolme
Kulttuu
Simp
ampu
AC
##teeni
Käy
joul
##johto
purj
troopp
Lig
Sekä
sido
##ID
Vapaa
##kelpo
##llessaan
Suomalaisen
liite
Atlantin
##PK
voimassa
Vene
Kallio
kape
Pekin
Vanha
jumalan
menetelmä
Usein
##eria
ystävänsä
##ttoria
Chicago
Risto
##Station
ääninä
kappaleella
alha
vaar
jatke
Vanhan
##kseltaan
fin
kunniaksi
##zy
Day
Shar
häv
palo
##musiikin
##räjä
##tiop
Mie
Irakin
mahdollistaa
hum
##viljel
muodo
katsoi
##evän
Paris
toimen
ooppera
luokiteltu
Hong
tuottanut
##kirjailija
##katee
##toilla
##ineiden
nimityksen
valmiiksi
menestyi
##ario
Toisin
Helsing
Pentti
Teatter
##nerin
junior
Liv
Sana
Musiikki
Kin
omien
alkujaan
##pala
Raja
elämänsä
##teatteri
unionin
##valmentaja
##llisuuteen
##omon
##kkaasti
departe
166
##ience
perustaa
tapahtunut
valitse
poliisin
Jari
suomalaista
Broo
ohjelmisto
PlayStation
##mpiä
imp
##ilaista
laitte
Philadel
Kalifornian
Liber
Välimeren
suomalaisia
Kirj
oire
libera
tietosanakirja
##fal
Champi
91
lähesty
jäsenten
tuloksena
myyty
kuvata
Ede
Shi
pyl
legen
nega
voittaa
“
##rissa
##kkalan
edustalla
##kani
##kaupan
Tyypi
helsin
runkosarjan
sie
##yyden
##ttaren
ympäristön
lääkä
##pei
Australia
##fos
Out
Ranskaan
vanhoja
normaali
Au
Jumala
divisioona
##sessa
Eino
uskoi
##unnunta
Silloin
Kuninkaa
Recordsin
Pres
##tynyttä
levittä
olympiavoittaja
##ivän
geen
##yksikö
Montre
kirjaa
vastu
vuor
luonto
asukkaita
tiedustel
haja
satoja
saksalaisen
##ridin
pelastaa
##nessa
maailmancupin
##hia
##rasta
##relle
miehistön
##silta
Joker
kunnian
kotimaa
kuuluisa
##neesta
##tyneet
sisältävät
putoa
lentä
Media
lipun
metsän
yhtyeeseen
laito
menee
Pelissä
Vuoteen
##gaan
keskustaaja
##dustri
##ttavaksi
##bas
kansala
Video
##jit
05
##äänes
##ivel
Amma
väite
manner
pienet
viljely
##vala
Serg
vapaan
tuotannon
##myys
##ittoa
vaihteessa
Tai
##rup
##ruu
EC
##diassa
##siassa
Jääkäri
esiintyvät
haudattiin
henki
palveluksesta
Aal
talouden
Pho
Lang
silmä
Boston
##tuimmista
##els
##mmet
Jim
##istui
Liisa
Matka
##imman
alta
##ustaan
ajettiin
vaikutuksesta
##nien
Pana
kuvaili
itävalta
Suomalainen
Gala
johde
julista
Friedrich
piirikunta
Veh
Male
Flori
hirvi
Tho
Ton
Young
ensimmäisiä
neljännen
##ihto
Kaliforni
kosket
kapellim
tehtävässä
erilaiset
rakennuksia
##vies
Mario
1889
vapautta
##sseja
Uudenmaan
sav
vatsa
pataljoonan
##koh
##aikaisesti
##zu
Toivo
kustann
parasta
menestystä
Beat
enemmistö
SDP
Sho
##tilat
Kreikassa
presidentiksi
Tapp
teatterin
##jer
##kau
merkitty
##esa
##ttavaa
Haapa
##veistä
Seppo
pankki
159
Eräs
##kierro
##voimaa
Vas
arviolta
perustuva
##mmon
##pataljoona
##oliitto
Walter
selkeä
##sol
Ax
kehittynyt
USS
kyllä
Kaakkois
japanilainen
##isterin
joidenkin
asio
##tionin
katal
jokin
kiinteistö
##RA
##jako
105
Ykkö
ajaa
Gold
miehensä
välttämättä
##mori
televisiossa
##telo
##ikkiä
Mitä
Lahti
upo
heimo
Kolmas
kaivos
Seuraavassa
##mmella
alkul
##isal
valmentajana
##tei
##arina
##innes
Kain
tulevan
valtasivat
kehitettiin
##22
hv
##eessa
avaruu
kirjoja
historiassa
##mik
Camb
siip
rautati
sisällisso
##pia
vaihdettiin
##odo
##geen
Team
tumman
##hallitus
lisättiin
Off
Pil
Litt
Rune
läsnä
ylsi
Micros
mittaisen
AM
##alog
##isteriksi
06
tap
##ellin
##ikokoinen
asetettiin
##marin
##mmalta
sarjasta
englanniksi
##geri
maat
##raaf
##katemiassa
##uch
Armei
##YP
##tyyl
##kkosen
##läiset
onnistuu
väriltään
##hoa
##tot
tah
##romaan
esille
##koo
##utaa
tiiv
yhdellä
##ydet
##tikko
kuvataan
##meri
##vard
NBA
1894
##teillä
Lening
##tunutta
Cli
rangaistus
##ties
uim
Fir
kop
q
##tioon
Lewis
lähety
Broad
##tettaessa
##kata
pisteitä
1892
turnaus
Häme
Motor
##uksilla
neuvostoliitto
patsa
Milan
Associa
##tisia
pelaajaksi
##uin
puole
alueesta
##70
Suun
esine
hyökä
reagoi
##iriä
##yhtye
Sveitsissä
##neessa
Mikael
paikkansa
kiinnostunut
am
Mega
Album
##toimintaa
sekuntia
taidemaalari
Meri
video
muitakin
##ydy
Boy
Fis
parin
##apor
##teille
Bysan
hoitaa
perustamassa
taul
Kanta
tunnusta
jalkapallomaa
##rot
voimala
ylioppilas
Pros
albumil
Entertain
Tukholmassa
Wat
Mikäli
Georgian
vin
pyyn
Nord
Rangers
suomalaiset
##östä
Psy
##menes
hengi
kemian
Made
kotise
##fon
##korva
taiv
Valmis
Veikko
ennätys
Här
Liettuan
yhdistyksen
Sla
musiikkivideo
Sky
syntymä
metsästä
##iks
##publi
##ryhmän
##oituksia
kilpailuun
Reg
pyrkivät
sijainnut
jouduttiin
##rami
Mit
##torina
##pisteen
##lliselle
läheisyydessä
HS
##perintö
varasto
kaupunginosassa
Lake
##mitalin
kopi
Nykyinen
vaikuttavat
##lähe
portug
Ada
olemassaol
naisia
romaani
laskettu
##eskus
lääkäri
##pö
##htä
ST
Ves
runsas
ottanut
sotaret
perinteisesti
##kevä
##usale
Kemi
##sisija
leviä
nolla
todista
Seel
synte
##ttämällä
kaksois
valmennus
arab
##tumista
luonnonsuojel
huomioon
##teatterissa
##pul
##vah
Tee
Söder
Tapio
saarta
neljään
opiskelemaan
Dr
##kasvu
kate
##em
##usse
muinais
##huoneen
aloittivat
kasvavat
psykolog
arvosteli
##lé
##jiksi
Hauta
tarke
korvattiin
tukikoh
pudotuspeleissä
Hard
koulutuksen
##ähkön
kump
Kajaan
Taylor
siirtola
Kau
##band
Sisi
Skan
ilmoitettiin
##eron
huv
johtajaksi
kansanedustaja
Slova
Tekni
Päijänteen
Avi
katsojaa
##box
##taito
Press
Berliinissä
##suom
##tuki
##vapa
East
välein
##yrä
Wer
##anneen
Vanco
erässä
ympäria
Studi
ministeri
Asi
ensimmäiseksi
näkee
tarjosi
valtasi
##lund
##tteista
##estiin
##pt
tarvitaan
erikoistunut
vastusti
tyttärensä
toimittajana
Sär
##isarjan
tutkija
Cru
1891
##kattiin
##kkaiden
##rakenta
mielipi
##ttis
##tures
sadan
Anders
hyönte
Antonio
konferen
##pas
ryt
##keten
säännöllisesti
nähty
nopeus
##ineena
Henri
Markku
haar
löytä
Lehden
käsitteli
##pres
omistukseen
Gua
instru
Tšekkoslova
##matonta
##ross
sveitsi
##veto
##viis
kokoa
rajalla
Song
##ttikorkea
saksalaiset
##jakso
Kauko
alukset
poliittisen
lääketieteen
merkittäv
##ransa
harvinainen
irro
##kappal
Vaasa
ottelunsa
##hassa
prinssi
##toiminnan
esitetään
varsinainen
##olk
valita
Jerusale
opiskelija
Mestis
johtanut
##kasva
säveltänyt
maailmanmestari
##mpe
##tanin
kutsua
yleisön
Sop
kid
Indi
Sund
##jus
##elämän
##vaikutu
teosta
instituu
saapuivat
##asu
##siksi
##iskolla
##ottelun
##IFK
##mitea
1893
##hyp
##uttivat
kuvittee
##riko
##omuksen
##ttelua
sanat
insinööri
tapauksissa
##los
##luon
eta
pelas
##tteihin
oltuaan
##ume
09
Maro
avasi
##isun
##ppias
keskikenttä
##utaan
Rein
Linna
##ttuneet
##juhla
osoittautui
##ion
##jänsä
Jazz
Brian
muodostama
sijoittuen
Telev
ajatus
jokaisen
##ls
##kokous
kapea
yhtään
Sons
##kuntia
##toh
##isien
make
ennus
Nob
avaa
1888
suostu
Microsof
esittämä
##määrän
kymmeniä
##kuri
leikka
##kob
Yhdis
konekivää
##mmiksi
##nor
##raja
alkavat
äärimmä
voittamassa
ympäristössä
##ssia
liikunta
viimeiset
yhteiskunnan
##ööpen
Marja
##joukkuetta
##vaati
##llisyys
saamaan
kertonut
suunniteltiin
##hail
##osista
Roomassa
havaittu
##ttyy
jotain
##now
##tish
##piö
Parha
tykki
##luettel
ob
Levyn
parempi
arvioitu
Kuh
##ttista
08
##seet
kilogra
##vuotiaana
dra
mesta
klub
##oppi
bar
##taiteilija
vähemmistö
haudattu
##tieteellinen
Sul
##gista
varpus
Espanja
kisoihin
spek
maihin
parhaana
espanjalainen
Bull
Fors
teräs
singlel
ohjelmaa
Ash
##rallaan
Jackson
##tekniikan
##dalle
auki
useimmat
selviytyi
##ån
##imensä
hyväksyttiin
##ou
##laitt
##unin
##telun
ostaa
Pirkanmaalla
Bang
Sot
Mont
##tejä
##äärä
##yhteys
Bud
##estön
altta
kaikilla
vihollisen
Lamp
Pihla
League
##historian
##evy
##kaup
saksan
##athan
vied
##inneen
Afgan
ilmaan
löytynyt
kein
uraansa
internet
##iran
##itar
poiketen
orkesteri
Dal
välisenä
yliopistoon
##mag
450
tälle
piiriin
##nutta
##matkan
koulutta
nuk
##isuudessaan
##kuor
osoitti
Minnes
harmon
##impänä
##oimaan
sanomalehti
DNA
hajosi
Singapor
Colo
##jokeen
##AR
Kaik
Biogra
Kööpen
lähistö
##laitoksen
hiihtotavan
##uori
##ipp
##ikoulu
##ytynyt
joukon
lisäsi
sinfonia
viimeksi
Englantiin
keskustassa
##trop
Fra
sarjoissa
—
##mino
etsimään
1885
keho
Talous
##yoff
Dea
##eellä
##ansson
Ts
happ
##kkonen
##llessa
Roger
Olympics
asp
human
Bio
artisti
voita
oikean
tietyn
Vladimir
Fox
lauta
##arilla
maine
##ttäneen
##oluo
Samuel
##kunnalle
Riih
ensisija
kielten
PC
##yillä
hollan
siirtää
lopetettiin
Cro
Pub
##ääri
##päätö
##teelle
kaava
Henkilö
päävalmentaja
Janne
unkar
Otavan
##ttäminen
Tyynen
##cing
##pani
Alas
sillan
##cts
##vene
##koilla
##git
Buda
astui
sulke
demokra
##niin
##tojaan
Serie
tutkijat
##JK
Aristotel
Sher
pallon
##jalan
Heik
olemaan
##korke
Whit
##lahdella
akseli
kerami
käyttäjä
tuotantoon
##kohte
London
##truk
##kara
piil
Sähkö
ikkun
show
skan
Windows
##tehtävissä
##EC
haita
nimistä
Raamatun
valmistama
televisiosar
Tig
##yyttä
##tuneita
all
sanon
brasili
laajal
vastin
tiedetä
alkoholi
07
British
venäläisten
##miini
Ulko
##giassa
puhta
##ttäessä
Joissa
##killa
115
jousi
laskuoja
##rannikolla
toteuttaa
##ellään
##palloa
piirre
hedelmä
Indonesi
Mustan
tuhansia
##teroi
ruko
##tama
neut
##alismi
Hanna
sankari
kuninkaallisen
esti
##alueilla
Kaikkiaan
millimetriä
##gli
##oitettu
kitara
brittiläisen
Tyr
syks
käyttänyt
menestykse
lahja
vastaanoton
maailmanennä
Sip
Wri
tutustui
Your
Renault
##eep
##ihtäjä
##ttonsa
dokumentti
Rober
##merkillä
##htina
##laulu
musiikk
##llien
Mona
##mmille
Sveitsi
eläinten
Esko
kohteeksi
##BS
##ikoul
##oitsija
Virossa
Kuten
##merkkinä
keskittynyt
Linnan
työstä
aikakaus
ilmestyy
03
##ksinen
paidassa
##iron
##meta
##mouth
##radin
rinna
##nys
Pes
##ergia
nimiä
##mielisyy
uskotaan
##itio
Kylän
##kuljetta
ehdotti
radalla
##iner
Elec
##ttunen
Lis
##laito
Johnny
lauluntekijä
män
##mellä
tehtäviä
##oliiton
Moskovassa
teatterissa
##uraa
Poly
itsenäisyys
kuuka
tiedot
johdossa
tehtävistä
##sp
##iniä
institu
##cken
156
nostaa
##tutkimus
johtava
Käytän
##kunnalla
muodostunut
##sell
Space
varmista
##kasvi
##ksissä
pääma
ajankohta
henkilöitä
##lehd
pääsivät
nelin
huolehti
Aho
Kenne
Toh
vaakuna
##vyyttä
Eurooppa
elinympäristö
Monte
playoff
Skotlannin
Jyr
##niemen
Toimin
##26
Vapa
viis
pinnan
##ilma
##kokoon
##osiin
##valin
##mmälle
vapaasti
##puolustaja
ju
menne
pelaajat
edeltäjä
filosofi
kyy
##turin
selviyty
erilaisten
rauni
Marvel
Pokémon
nimillä
##rejä
##senä
suola
esimerkki
esittänyt
##kkas
lau
nyk
pik
##tserien
sarjataso
komentajana
##lus
##wic
Bad
Juho
kata
seud
evankeli
kilpailua
1882
##xic
alalla
olympialaisiin
WW
##mmässä
väitteli
perustetun
##jali
##kultaa
##tainen
levinnyt
##isy
##traa
Savo
##tioiden
House
kulma
tekevät
KHL
##esissa
##suunnitel
harjoitta
Elitserien
päällikkönä
fre
Tava
lippu
maito
Ryhmä
buddh
Ams
jääkä
Sibelius
elokuvaan
Pul
joutu
##osaston
##reak
laajalti
julkaisun
Buff
Light
##tteinen
##temp
lähteä
##LE
978
mekaan
olevaan
kaudelle
sijoittunut
##27
##utsen
Karjal
##euvoston
Kalevan
poikien
HIFK
sukupuol
tilanteen
Sloven
Ilve
johtivat
##kaupungissa
poista
riippuma
##oro
Tas
##ttomaksi
pohjoisosassa
ainut
voitu
otteeseen
pelto
##nyi
##olassa
##tteitä
Myöhe
vakio
lainalla
Liver
uskonnon
##kelle
autojen
##syö
Dub
jäähy
puhutaan
suurimmista
Erään
Lehto
kerros
tunnetun
Kaliforniassa
Phil
organisaati
RA
##puole
Corpora
erikseen
kaupunkien
kaun
johtajan
projekti
väitös
osuu
##olissa
Lawren
1886
Fort
piilo
miehiä
Kel
##pörssissä
Champions
##mmal
##museon
pidätettiin
##29
kevyt
täyttä
Anthony
stadion
Viimeinen
Ole
fanta
Palkin
huonosti
Wan
##käynn
mäki
kiertueen
saavuttaa
##kkik
Wilson
##koulusta
ylennettiin
##kisoissa
saadakseen
keskustasta
index
Makedon
puhelin
seikkail
toiminnasta
Rh
Ped
kara
##olas
palata
annetaan
poikaa
##korkea
##olainen
Kahden
Wester
Manchester
##täneet
kehityksen
kielellä
Feli
South
asumaan
huomattava
##yltä
Bab
Budap
pehme
koulua
##kaudellaan
hyp
Festi
kukisti
Mé
##raha
1100
Kris
Luettelo
suih
Joskus
tiedotus
##leja
fen
onne
luokse
menestynyt
##aksi
##isivät
aivo
##joukon
Teoksen
DC
kamer
Techn
edustajana
##dista
Neljän
##uvut
moottorin
##matkalla
juhli
poliis
pitkät
suosiota
soittanut
154
sad
##sburg
Pohj
Perhe
jääti
##unt
Emil
##istusta
ime
##osaan
##ttaan
riippuu
nisä
##laki
##venskan
##uvoi
##telua
yleistä
vuosikymmenen
##iros
kytke
kahdeksanneksi
##lti
##vari
##arkki
##alueet
Englanti
Elokuvassa
Kla
Mys
perustuvat
yhdistelmä
##dys
##edin
suositu
seitsemäs
vaikutusta
mahdollisuuden
##ukse
Suh
##miehiä
entsyy
materiaalia
##ihdon
sien
Kop
##hjel
varas
##ikoissa
ansio
nimestä
Merkittä
viikossa
museon
maisteriksi
lum
Tuomas
##kymmenen
jumal
kartano
peräti
omistama
##AT
##valko
koro
##mattomana
##nu
##kins
##ointiin
Vuosien
##igassa
juonta
vaalea
tavanoma
tuhat
Kymmen
##elän
pon
Göte
##ostaan
Allen
##kasvien
Hitler
neuvon
1887
##valtaan
Unes
Andrew
Kyseessä
##ssissa
Jacob
asiaa
suojeluskunta
pul
##eries
juutalais
Epä
##mato
##gerin
##lit
Jur
ryhmi
Kom
paten
Skotlan
keisarikunnan
##ical
Kid
koli
Metal
painaa
Nintendo
tuotteita
komis
lisätä
Pariisi
palvelu
helppo
tuotantoa
Wiley
Samoin
sotilasta
elemen
Jorma
kolle
##teisesti
##itsa
##ineita
##salmen
Palvel
yhdestä
opiskellut
kerrosta
##ER
lasken
Yleisradion
Clo
käs
syynä
hyvinvoin
##syy
Nyt
Vira
kuolee
Yhdessä
##toimi
Rose
##etyy
tulta
esiintyvä
##ridi
jako
##innissa
##ttisesti
##alaiselle
vastaavat
vaihtelevat
Huon
Ec
Pelaaja
näyttelee
varpuslintu
−
Helena
viihde
##ow
Main
##yksellä
suojasi
Ferdin
seudun
monimutka
1884
Venet
puolelta
keskittyy
yhteyteen
kappaleiden
##oga
##neksen
säteily
yritysten
asutu
##taat
Upp
Iron
##ällä
##isuudet
fysiikan
parann
astetta
kansallisen
Bren
Harri
Kustan
näkemy
Dave
Vastaa
biolog
siirtomaa
##utuva
##otball
tyrmä
Mikkelin
jakautuu
##itro
Freder
kertovat
##unan
##jilla
Sound
autoa
##laiseen
##yle
kylään
saattoivat
##harjoi
Tyynenmeren
naapuri
Industri
Angelesissa
##ukoi
pime
saha
hoiti
edistää
bel
##ttomasti
Persian
liittyvä
ruotsalaisen
##katemia
asevoi
##EL
##qua
##kise
Kuk
hape
Tanskassa
Lyh
##alueita
ehdokkaana
totu
liikenteen
tuotantokausi
##ilua
pääkon
##kokoonpan
##itu
loppui
tehtävän
omistettu
talossa
##dar
Susan
Victor
tutkimusta
##noista
laulaa
pyytää
rakennukset
ion
##rassa
ilmake
mantere
##vitš
reuna
asiassa
Arn
Sosi
kesän
omaks
tärkeitä
##valtuuston
##kt
##yij
##main
##kella
Vien
Street
liittyä
pakenemaan
päivässä
voittivat
158
##tarkoi
§
##huol
hai
1883
debyyttinsä
##blo
##bul
Nokia
##musiikkia
talvella
##maattisesti
##lassa
##kennus
##pankki
##vaalit
Tha
sti
huippu
tavattu
##hty
Mr
hätä
purje
##uhe
##omus
##salo
näytö
Disney
mallia
sairaala
Dic
Siksi
joukkueet
pienempiä
##seeri
lauloi
##tiedettä
tarpee
Fr
##ivin
##vuoro
##Pa
##ikoulun
##vaiheen
muistetaan
Jr
Hom
##itaan
kore
Rauman
Suku
##ttelin
##uminen
parantaa
UE
Rann
fran
Ilkka
Edition
rauhans
vietiin
109
selville
##kinsa
Carlos
Aiku
paris
prikaa
lempin
Cambrid
rakennetta
##ät
läpä
syöksy
suoritus
hallituksessa
sivut
perinn
##28
##iky
Syl
epäsel
Perä
Kuole
teoks
sanoen
oikeutta
molekyyli
Cir
##jistä
##ehen
naar
##xe
##ots
nuorempi
oikealta
rinnalla
157
TPS
##genin
halki
oppia
kyseen
latinan
nostettiin
##debyy
Hurri
aikuisten
ammattikorkea
##ii
identi
nykyistä
##sää
##keihin
tukee
##puiston
##kiksi
##tiloja
kreivi
saatta
tietty
BM
##liikenteen
orkesterin
##kre
Web
onko
Detroi
aposto
Johanna
tykistö
äänestä
Ava
kuvia
perässä
kilpailut
televisiosarja
maailmancupissa
pitämään
vaativat
finaaliin
##rina
tunke
ystävyys
Teoksessa
matkustaja
##maiset
Gabriel
karsiutui
kuningaskunta
##tuhan
Liverpo
*
##pri
Edu
UN
Mul
##versi
aseita
kärsin
München
tekijän
##dik
##korja
tärkeää
##donin
##gioon
1878
##elokuvassa
sukupuoli
yllättäen
##istis
##vuonna
paikoin
lehdistö
todellisuudessa
demon
##yhteisö
murhaa
Kilpailun
top
norjalainen
##pari
##koissa
maksi
##komitean
kirjaston
kalas
vuori
kannatti
##chel
vuoti
Heillä
149
enintään
samanaikaisesti
Clar
vaihtui
päättivät
##anan
##dö
sope
eroon
##vaaleilla
käsittel
persoona
##aasi
Wen
tulle
maksaa
pääosissa
tyylin
laboratori
##ctic
##ekkä
##hapon
##sista
Chur
koros
mieltä
##loja
löi
loma
Salon
pääsy
myöten
potkut
##minä
Sav
valmensi
valtatie
vähentää
kääntä
Pih
apu
Päivä
arvioidaan
sisäratojen
##eitaan
Little
Journ
omasta
##wal
signa
teoree
Luonnon
viimeisenä
##wig
##salu
Ein
##ttuvat
maalaiskunta
##ukossa
säätiö
##osat
Philadelph
Shin
elävä
##piiriin
Japani
juurikaan
##prof
Pitt
jatkoa
valmentaja
##kr
##tius
##umissa
polku
konsertti
##olu
##ssit
##ykseen
##alueeseen
muuttivat
##mestaruuden
Eurovision
##dge
##yth
1881
Kiina
puuta
yhdisti
Anderson
Franz
karjan
##mmissä
##ttinsa
vaihde
##kirjoitus
Itämeren
kustannus
##ér
Aki
Tasa
pito
##voista
teorian
Auringon
hol
Back
Lars
Ye
ana
##tiikka
##unen
##filosof
##massaan
laskea
mustan
##erra
Tin
elimis
aktiivinen
tes
millimetrin
elokuvat
135
fossi
hyvät
Tall
toimitti
mes
jalan
rengas
vanhaa
ruhtinas
##tle
153
metsästys
new
alkuloh
voittaen
wor
##arien
afrikk
linnoitus
Gl
helikop
##läis
kated
määritelty
##maks
käynyt
muistel
##yysi
Wik
vol
Center
128
##tyksistä
päätoimittaja
##borgin
arvioitiin
kansakoulun
##koil
##teihin
tulen
otteli
##laisessa
ainetta
olympialaisten
levo
Laura
alkaessa
maaottel
##huo
kylää
arkkipiispa
amer
cover
suunnilleen
muistomerkki
Rah
##kkuus
musiiki
##rajan
##istojen
komple
yleisin
Á
Charlo
pitkälti
Vietnamin
ilmatorjunta
##ffi
##gossa
isäntä
kirjaim
mahdollisti
ros
suj
kunnos
hallitsija
##ketin
neuvo
persi
kaikkein
osallistuu
##onso
##linter
Arkki
Hamilton
##cian
##mpyy
Trop
Kaupp
##voimala
alasta
tuomari
Aga
##kinta
Vesa
Petri
##isimmin
European
##tiede
##ttaen
##onissa
Guine
Patrick
erilaista
##wnin
##jektiiv
Ant
esiintyä
Seuraavan
##itaa
kuori
Novgor
Puolue
joutunut
prosentin
Franç
perustama
välisellä
öljyn
##ttavissa
##key
##ikkö
käyty
##bec
##iluo
##leiri
Ontari
keikka
tehopistettä
Ž
##ksille
##johtajan
Seitse
sopimusta
##jul
##iväs
Useimmat
pelastus
komentajaksi
##seksi
heimon
kuutio
linjan
brittien
kautensa
tosi
Davis
Niistä
hyökkäsivät
##kkojen
hitaasti
järjestety
##hoitaja
teokset
edustajat
Log
Lyn
##visti
työttö
maailmanperintö
käsityö
##iat
1850
Sami
Tilan
lähtevät
##pian
##tura
Porvoon
##énin
lukio
Vincen
kumppan
proteiin
Cri
France
kosketins
kansainvälistä
kevään
ensiesiinty
perustuslain
##moi
##töitä
asennettiin
wa
Kni
##teissä
##yksestä
yleisölle
##mahdo
##malan
##isilta
Argentiinan
alaisuuteen
##LA
Mia
##eremon
artic
portugal
purjehti
vastaavan
##ence
Amerikkaan
##reja
##vyyden
##tiot
##view
##vessä
Liikenne
##ulf
##osuus
kemi
##tymään
##valvon
maanjär
##qui
##alist
##mossa
##kirkon
kuorma
##vey
##dell
##here
##alein
Over
asetti
uskonto
lukumäärä
tuh
tarpe
oikein
levyllä
Pieni
jakaan
riittävän
Hed
Pasi
Steven
jatkamaan
liittyivät
Cos
hää
Jeff
##alisesti
kolmella
##kkil
harmaa
jakson
viul
geomet
vaikkakin
ranskan
ajautui
koulutusta
Kh
rahti
eteläosassa
##cas
ele
##joilla
poissa
Keisari
##tutkinnon
Dark
puolisonsa
Cu
##niemi
ensimmäisestä
##toille
oikeudet
Ami
Seuraava
kuninkaaksi
PS
maksu
##poliitt
##syntyinen
ym
Lip
kisa
Ernst
Iranin
työnsä
##FL
1863
lada
##tioita
Kunnassa
albumilta
vaikutusvalta
##fri
Goog
Cer
##ora
Somer
kukaan
uudella
SC
ranskalaisen
##perän
Filippiin
ehtin
Pariisiin
Britannica
##eesta
Julius
konetta
##kokouksen
elokuvajuh
englanninkiel
##gni
IT
##mastaan
##isuutensa
##vai
##määr
Ark
Chap
##himi
##ariin
##cle
Fly
metr
sh
##utia
##tteisiin
Oulussa
osallistuivat
##dium
##tern
jne
puhuu
sairaus
Aleksandr
Jälki
##taiteen
osaltaan
##pos
Gla
##lasku
kykene
työkal
helsinkilä
mielestään
pir
Cupissa
egyp
keskinä
mut
##kirjoja
##elokuvan
hoitoon
siirtyy
Pohjoismaiden
amerikkalaisen
##aattia
aallon
##cio
##gro
##kanna
hammas
miekka
tutkia
kilpailuihin
tuotantokauden
##prin
Louna
kannan
seuraavaksi
Sm
##paikat
asiakas
##cial
idän
rehe
##paikkansa
rahoitta
Luku
Billy
luvan
##tukselle
Opp
mys
##annon
evol
Amster
albuminsa
##tutkimuksen
##ray
101
luetaan
magneett
valokuvaa
##suojel
käytännön
suurimpia
yti
Jatkos
seuraavalla
##ikoina
Aikaisemmin
tapahtumien
##cri
##syl
##agog
145
##ukasti
kyseisen
jatkosodan
Pyr
##koneen
Valkea
laajeni
jatkoivat
##iluu
dosen
saisi
tulleen
ylimäärä
evankelis
peräkkäin
historiallinen
ee
##mystä
##chenin
vasen
##ultaan
##oseksua
Douglas
epävira
##teisen
Sid
106
##immillään
ulkomaan
##itsen
##toitu
hard
##jöistä
Online
akatee
tuotiin
menehtyi
suunnittelu
Juni
sattu
itsestään
vaikutuksen
##ivos
##pesi
mos
tytö
lensi
Fos
##An
Elin
etsin
##ykmentti
##kkeja
välityksellä
##ša
113
McL
asunut
sähkön
##ovir
web
##tuttuaan
##UL
##palkinto
Stone
tekemä
lopuksi
lopettanut
Seuraavalla
##liiga
divisioonassa
##stan
Ing
##jäksi
##ressa
##tonaan
aineita
asutusta
##feld
Inc
UEFA
##väline
tehdyn
##tedt
sär
##anaan
energiaa
Kristuksen
##VI
FA
kasvin
hylättiin
Kup
cup
##väkir
käsky
##mppu
##tela
##neessä
joille
kriitt
ruokaa
armeijaan
##suu
##veri
Abd
Magnus
sijainti
##mmällä
paluun
tehneet
teollisuuden
Blan
##ikkeita
keskiaika
Fur
##arissa
leima
##virasto
Ruotsa
luovutta
kandidaatiksi
Ober
Tele
lyhen
sävellys
##lley
Kaza
osui
vaalipiir
voitaisiin
##tähti
Puoli
##anny
104
##lands
konfli
mittaa
##ytettiin
perinne
Virtanen
Single
informaa
aloittanut
##uld
Koo
Nick
Opis
tulleet
lapsille
tarkasti
olympiakultaa
##perää
##teatterin
##bit
1876
ampui
henkilöt
Yrityksen
##kentälliseen
käsikirjoittaja
##iski
fik
kulj
##käytössä
Tornion
ymmärtää
suljettiin
##tom
##štš
blu
jar
Morris
##urheilija
joku
ylän
##arinen
palkinnolla
##kons
Karh
##liitty
paini
Isossa
strateg
opetusta
kuvanveistä
##inger
##udestaan
ruotsinkiel
heikken
toimineen
Vär
nai
##saira
##kkelin
##matiikan
hevosen
päällys
Cre
##reiden
##viassa
##ohjelman
##otto
##äännö
##hoista
tiedosto
samat
marssi
erillis
##rakennuksen
Christopher
##idž
Ep
Aka
Edus
##iseura
##tutkim
asutta
sukupuu
##evan
Dog
##istuin
##tettujen
##menetelmä
kolmesti
sisältyy
agg
lajien
Ib
Bruce
virkaan
aikainen
luovutettiin
##venä
##ystävä
sydämen
##kokouksessa
##kasvit
poten
viimeistä
##lov
##ellista
haavoittui
päätoimittajana
##fors
Island
korrup
symboli
yrittivät
palkintoja
Aku
Eliza
Force
##istanin
##kylässä
kirjailijan
##hir
Well
Viita
näyttämö
allekirjoitti
tutkimuksessa
Rie
omaksi
vasten
Jugoslavian
Hud
syyskuun
##ova
Hyvä
##osasta
##teensa
kuljetus
Etu
Roc
Abra
##tolla
ihan
##mäinen
eroaa
Edvard
julkisesti
##ihan
##llikön
Kotkan
merkitsee
Hera
päih
sali
vita
komppaniaan
hallussaan
kerrottiin
tuhota
kääntyi
##järjestelmää
vastoin
##oluu
Got
##tinut
miksi
##tettyään
etäisyy
##tics
1877
diesel
kulkevat
##debyyttinsä
##tral
##tavat
Joen
kattaa
pientä
jääkärien
komppanian
tapahtumassa
##kaat
jossain
kaupungit
##manien
##uraansa
Justin
tyyliä
vuosisadan
##ykset
punk
pisto
##menetel
univer
muotoinen
versiossa
kapteenina
Under
merkitsi
negatiiv
itsenäinen
kesäolympi
##das
##isat
tervey
asemansa
MS
##kelta
Gian
##inetta
Uskon
innos
laitoksen
tehtävissä
##set
##tue
Korp
aito
ihme
##annissa
maanpa
##veltä
1879
Afri
##kaista
##häkki
tuhosi
Jacques
lapsena
ylittää
avo
##yhmään
lohko
nuorin
ikäisenä
Lau
##llian
##usett
Fanta
äänistä
Kum
Alban
hydro
##tonissa
Markus
Vilhelm
muodostaen
##bralta
River
pelejä
jääneet
##maahan
Legen
jouko
##aleista
britti
neuvoston
Seuraavaksi
##urs
suurten
yksilön
amiraali
##RC
##sing
##tuma
Kah
ama
bol
##tujen
maaliin
taistelula
107
##merelle
olosuhteissa
kasa
André
teoksensa
laivastoon
##bout
##ttop
paikallisen
##myyn
dik
Shang
kaune
joella
Syyrian
pystynyt
##mithin
pyöreä
pohjoisen
##raalin
hyviä
katto
pelan
Aurinko
ominaisuudet
McG
kuoro
##cast
##yhtymä
Seinäjoen
ääre
Lammella
elintarvike
##ehden
##lev
##vaike
alke
journ
##chusett
klassi
tasapaino
Texas
ohjelmis
työnanta
ped
uppo
jalos
osavaltio
##gio
AB
##fian
Kevin
Stock
##eriä
Mesti
toteu
jäsenistä
kirkollis
##bumia
Tenn
palkittu
alapuolella
01
alpp
##pujottelussa
##ml
##thin
koostu
kuolema
näkökulmasta
eron
##tiosta
##pinnasta
häneltä
viestintä
##uven
##alvel
Museo
ruskea
##albuminsa
koulukun
miljoona
Sas
grafi
##maattinen
Comm
Vall
juus
##teestä
Mänty
Eer
##miset
Jere
##karsin
vastan
läänissä
näyttelijän
##gre
oppilas
kanssaan
ilmestyne
bon
Turna
Rin
Ajan
Ruus
##moottor
niille
Preussin
108
Soi
nop
Hugh
##missaan
rikkoi
arabi
testi
##yhdisty
kotimaassaan
Emi
##paine
lyse
##läisen
##tukseksi
kohtalo
Satakunnan
##wski
Puolustus
Massachusett
rakentamisen
Samp
sound
##iläinen
lehteä
epäonnistui
##omina
Kajaanin
##alina
##ittel
##umisen
muistuttavat
##ib
##oneja
unoh
suosion
Sebastian
kahdeksas
gl
360
##osien
1862
##teetin
jättä
##ttomana
keitti
vallankaappa
Armen
##ttamista
##kolan
Pihlaja
lopettaa
merkkejä
ajoittain
Kemp
korjaa
##bell
##virran
Tokion
##vero
##pop
Barb
Talo
syvyy
Fernan
Results
katsottiin
##aatit
kielessä
##itit
sein
useaan
temppelin
103
##ports
myymä
kaudesta
Kaun
##isempia
127
##urallaan
Tuh
##lantilainen
But
loppua
Kilpailu
havaitsi
kisoista
selittää
pelataan
robo
näyttö
seurakunnat
##tuli
Huh
##ikalla
##llisenä
ruumis
Von
Death
Margar
keskeytti
##rio
##tysten
kylmä
kasvattajase
vapautettiin
laadi
##stön
##asili
Brad
huip
##roksen
hyvää
termi
puutarha
Lappeenrannan
##bach
##reista
Osuus
##tettynä
Master
ylitti
Society
saatuaan
toisensa
useisiin
##kaava
kaue
##llissa
Joiden
kukkul
kansallinen
##politiikan
neuvonanta
##leh
Of
##mberg
Ensi
Yorkiin
Pietarissa
palautettiin
Hollan
sunnunta
valkoisten
##vot
kron
rannat
kiertää
yksilöä
alankoma
vuositta
Ensimmäisessä
Mihail
Latvian
ylläpitää
JYP
Keur
viimeisessä
Leagu
Yliopp
valikoi
Tö
täp
##töntä
##öyhen
soker
saaret
tappion
kirkkoon
muuttunut
tehokkain
##rand
##terissa
pyrstö
hiukkas
mytologi
sotilaat
keskiarvo
##cul
##isarja
Gibralta
Toisessa
Frankfur
konservatori
Kö
Cast
##tuomio
seurus
##ios
##vea
Ek
##ettava
rikki
##uduttua
etupäässä
##ialainen
tuottajana
##sir
##ving
Bry
kilo
Pauli
Francisco
mei
##jua
##jur
##insä
nuoria
pelasivat
##teellisesti
kuljettaja
##ET
Mana
taivaan
viin
päättänyt
maalipörssin
Arto
Hang
Veli
senaa
Sport
konse
##salueen
##tutkija
tyypin
Ce
##haar
##väri
elossa
jääkiekon
asukkaiden
mittaisella
SKP
1865
yleisen
heinäkuun
valkoiset
##koin
##nesta
bla
graaf
nro
##arista
maksoi
piirtä
Alp
##kehitys
##hea
##isse
##oidaan
##ulainen
siirsi
kilpailujen
##CO
>
##mot
roolistaan
##laatu
##tuilla
Joidenkin
siirtynyt
Dead
Isän
vaja
##samon
harha
tytäryhtiö
##IN
Useat
##istosta
Hänelle
ottamaan
##kartan
Hitlerin
ilmaston
Riihimä
osuuden
##ruot
aasi
Puola
todettu
neljässä
yhteisön
elokuvaohjaaja
Put
1830
laskevat
tarvittaessa
vahvistettiin
Fl
luopu
##kät
##sylvan
natri
viidennen
Id
Hui
##enius
länt
##tilaston
romaanin
##eistä
kiinnostui
Julka
Lontoo
kehitystä
Kyr
1871
vaalit
Ferdinand
##bot
##kulku
Bird
gala
irti
Sonic
tiety
##mpötila
kaksinkerta
koripalloilija
##ak
iha
Naaras
Pertti
kerrallaan
##hko
##ohon
kiinteä
yleisiä
pitkälle
##stro
Tyl
##jensa
Rosa
belgi
myöntä
reakti
käsitti
##aris
##kyhty
asuvat
valloitta
valtaistu
ottaen
koristel
viestissä
##ice
Kypro
Viktor
kalastus
julkaisua
##kers
##oniin
##laskun
yritykset
Presidentti
huomattavan
##kans
arve
sääde
lähtivät
päälliköksi
vastaavasti
sc
##biin
Asia
##alueiden
##yhteisön
saajaksi
joissakin
##tieteellisen
##utoja
Dyna
valinta
##onian
pääte
tilapä
##linnassa
paljastaa
##eng
##neensa
NAS
Ball
soitto
muodostu
musiikista
tavallista
Dur
piha
##ksiaan
134
kvar
Olympia
kreikan
vakavasti
##ttajat
Kangas
sanoista
##oitusta
edustavat
sisältävä
##salon
##istoja
##tsista
Yliopisto
##yen
##laisuus
Väestö
imperi
laajan
vuoren
tunnista
##ottelu
kisat
pyrittiin
##kiluo
1848
1864
##lahteen
autoja
protestan
How
sivustolla
##ojan
väi
Sergei
Svenska
Cel
Down
Soul
##asukka
Sitten
titula
semi
##koilta
natsi
##laisista
sairaalassa
Rid
asiat
niemimaan
silloisen
rakennusta
valtakunta
vallankumous
##ord
Thai
Maala
sukun
yksityisko
##telle
torni
aggres
tehtäviin
##get
Mei
salaa
Ukrain
hankke
oltava
119
kielsi
Hämeessä
korkeintaan
##gua
Emma
Alger
##rov
##ivana
##funk
##oimi
liigaan
##ttilan
kasvatus
##IT
Sk
Jes
Kui
Imat
##maailman
seudulla
##bat
##mple
##kaani
lokakuun
pituinen
114
Deuts
##isimmät
Wienin
sekaan
Toronto
vaihtaa
satelliitti
##uhd
##ysin
##uriin
Hugo
##opettaja
punakaar
juutalaisten
Boo
linnun
muotoa
##tekevä
Lähde
runoja
Kroatian
menestyks
##bir
Nei
Mies
kysymys
arvonimen
ES
##gion
##lehden
tehtävät
versiota
Ensimmäisellä
käyttämällä
Bene
päte
hyödyntä
tiloissa
Pesä
Simo
##ilijat
pione
pisteet
yleisty
korkeimman
venäläiset
amerikkalainen
Az
IK
##tointi
Kosken
Romaan
##puan
##happoa
##tsasta
##hil
Beng
palsta
118
147
kla
##euvos
propa
##ittojen
ammati
##peräinen
Alexand
##uvalmenta
tienoilla
venäläisiä
sijoittuvat
Tör
Sosia
oles
ruus
sivuston
Pennsylvan
##jet
huh
##uettu
##etyyli
Risti
autio
lisensi
esikunta
laajasti
##uru
##baan
hetken
jättilä
##ötä
##ather
retk
Unescon
myydään
käytännö
Käytännössä
varmis
##worth
1869
Virta
##mmistön
Liiton
siirtä
maalivahti
##AC
##imys
uima
##ruskea
kanto
loppukauden
Finlandia
##ube
##sali
##radan
Jakob
##upi
##ffen
avus
laivue
##ugua
ylivoima
syöttöpistettä
##IM
##ár
emo
Kulttuuri
##iasta
##tereen
sairaan
puolusti
työntekijää
Jas
Rom
##usina
1867
rasva
kooltaan
luostari
palkintoa
##sie
Cin
##urojen
Blues
parti
Talvisodan
Marko
minera
##uter
Lim
keuhko
Kansainvälisen
##td
##cupin
inves
maisteri
hallinnollinen
Soin
henk
raskaa
teolog
lauluja
Tran
sanotun
voitettuaan
##eau
Lund
Rata
ilmais
levinneisyy
##kentän
opinto
ristiret
toimintaansa
##rö
##väksi
paksu
Arabian
alueille
Samassa
saamela
divisioonaan
##pper
Old
##hoissa
Toimi
sotien
Institute
Chi
maailmaan
##mund
avain
kykenee
osapuol
hehtaarin
titulaari
rekisteröity
Eugen
##euvosto
Warner
elokuvalle
1840
1872
1874
Gunn
Espoo
syytä
mukainen
suoj
vaikeaa
tulokset
kaupungeissa
sinfoniaorkes
##tieteessä
Italiaan
Moottori
nimenomaan
naista
erosivat
kaksivuotisen
##illeen
Pelaa
paavin
##kunnissa
Pakista
armeijassa
IB
##anal
##tulle
Tuotan
Fire
Ryan
huone
##koulutu
viikko
Mongoli
##ttelemaan
luettelo
tarkoitti
##heys
Jän
##isivu
##merkit
Kanga
esineitä
DJ
Hop
##töihin
Varso
farmi
##vuosina
luovutti
Amb
Lähes
projektin
##naan
Kauha
laatu
vedessä
antoivat
##pyyn
##ivillä
##kangas
##töiden
iässä
omassa
videopeli
State
Korkea
varusta
muuttanut
tekniikan
yhdistetty
Are
1868
##projek
pojat
kylästä
kirjallisuutta
Aur
Isä
aseen
Ilmari
sek
Sofia
##tekniikka
Dri
reitti
ristiriita
Esa
Jud
##yistä
##ttäväksi
Miesten
asemassa
kesäkuun
tiedossa
romaaniin
##vor
##ikoilla
Championship
##soja
Vah
ahd
och
##elman
alen
##juoksi
tapana
kapinan
saavutu
##alen
##mily
Arvo
##koulua
taito
vapaus
liitetty
Kansainvälinen
Yö
##mmön
##astoa
Dion
Oil
Andy
Intiaan
luotetta
johtamaan
käännetty
selvittää
##rash
##kansan
Water
budje
##ttajana
##tyminen
koneet
maanviljelijä
valkoista
##peä
End
Que
osumallaan
Association
##llyn
##maisesti
##tetuista
julistettiin
Giovan
kertyi
Runeberg
Sillan
lähistöllä
##dé
##etan
Cityn
uudis
julkaisee
##OK
##under
usean
##llisiksi
##ehr
##ush
siltä
kartta
aav
mit
viran
laajennettiin
Nep
##rasto
diag
##vaalin
Lounais
toisesta
##jaka
aktiivi
aineiden
##koulutusta
##teho
Tir
1873
lohik
suhteet
##mbo
##misia
samo
Gustav
##köp
123
##minuu
Tähti
peleissä
##mmäs
täs
##monin
Arms
Tarin
vihre
##hiippa
velvo
olenna
Kuun
Silta
Stefan
teoria
korkeuteen
124
Pyö
##neelle
College
kolmannella
##com
1855
Mand
yhtyy
kuntien
vastakka
konkurssiin
platin
torjunta
keltainen
perustamisen
go
##ædia
bal
hon
##ttömiä
Varsinais
lakkautta
GT
taju
##oineen
hyöty
tuken
vakiinn
nimekseen
Kori
Vanh
aita
##taatio
palkki
tyypillinen
##jamin
Gordon
##ttämistä
propagan
toimenpi
oran
orja
##mereen
##utuvan
Rese
##aktiiv
Smithin
vankilaan
havaittiin
##vuu
lause
Herman
tapahtumista
##hanin
##laiva
tiivi
Tukholma
kaupunkeja
perustajajäsen
##uvo
##ingen
Awards
Tšekin
erillinen
pö
##koro
##llit
##osoi
##isian
##mpaat
Kill
##misella
hankal
lännen
tekstiili
144
##voimat
Unkar
kirjain
##istukseen
kategori
##rauh
vety
##pankin
Stand
mennä
muusta
ukrain
Romanian
pääkaupungin
IFK
Oran
##väestön
##joukkoja
Jälkimmä
julkisen
haastattelussa
##önn
##kkin
homoseksua
##hahmon
rautatien
##rena
116
##yksissä
Harris
eduskunnan
luonnonsuojelu
##ovan
Huu
##ruske
jona
evoluu
kasvien
ulkomaille
##puoliskolla
hiilidioksi
##ez
##hei
Satur
happa
näytti
ravintol
##stad
##tetussa
kestävä
joutuvat
molempien
äärimmäisen
##ople
suurlähe
palaamaan
tuotannossa
##ukar
Sec
##viera
Hamm
tuuman
avoimissa
esittävät
##siini
1866
##tanssi
sanaa
töihin
asettaa
SP
##maise
##tikka
##raatti
##imeltään
##divisioon
129
##mesin
##assaan
##ttikin
tauon
Nobelin
vesistöön
##päälliköksi
##mph
##eläimiä
##rintamalla
Microsoft
##astia
Taite
##järvestä
##mäellä
##sääntö
Produc
matemati
halusivat
vieraissa
suosittuja
tärkeimmät
Pea
##hoven
Arte
olevasta
matkustajaa
##umaan
laid
750
vet
##vittäjä
##kirjassa
##tarha
pappi
Donald
politiikan
02
117
1875
viri
Ympär
pariin
alusten
useista
pelaajia
näytelmän
Sé
##ravin
##keistä
First
heiko
viitataan
SV
##muksesta
Kööpenhamin
kansallissosi
##keaa
Sama
karj
lakia
parhaat
Bysantin
kymmenes
pianisti
valkoisia
HJK
##ttuneen
markkaa
Pekingin
kokoonpano
merkittävää
ensimmäisistä
##ved
pud
vaate
vaino
kauppaa
uusinta
pelaajien
##ilis
Jason
käskyn
##ikanaan
Kazaks
##magne
##ähkinä
sytty
haltuun
Had
Sum
##nestä
Jääkie
kiersi
siirtyä
liikemies
##matis
hitti
Michel
Nokian
systee
Puolassa
##lius
Pear
hetke
rahan
elektroni
Valo
##tumaan
Ransk
keula
varsinaisen
##oran
Chel
Jeesus
taloudellisesti
##ehd
##talan
puheli
sellaisen
versioita
ranskalais
merenpinnan
##lic
Av
##eenä
app
##oping
Linnun
johdon
##puolinen
joitain
taistelua
yhdistyivät
##etz
Rain
##alasta
##biassa
häviä
Rakenn
aktivoi
huomasi
sopivat
kommunisti
##ennot
##rauta
kuko
##mminkin
Marcus
sopiva
saaneen
##tso
##kkeitä
##oineet
kiito
##kensä
ankku
television
126
kävivät
varhain
suurempia
Rakennuksen
kitar
kalasta
##nea
##uvia
den
ennakko
tekstin
viereen
hyödyntää
Yhdistettä
aar
##lista
Guy
lun
##ttomat
käydä
Mäki
ruoho
lehtien
mahdollinen
##osh
Bah
Laine
miltei
Saksasta
albumille
Gene
nähtävyy
tuottama
uudistus
str
kohteena
pelatussa
sotilaita
148
Edmon
Teräs
Kartan
##järvelle
##more
kevä
siipi
toimivan
##tunn
##vill
vampyy
Divisioon
143
Tila
##aikaan
##luokan
Lasse
Mäkelä
hahmoja
vankeus
poliittista
##bac
##sign
muni
muualle
##alaisella
##usia
##kirjat
##villen
##nica
tumma
##käsittely
luonnossa
todellinen
LP
##fysi
##iven
##masti
kamar
katolisen
##ryp
##kamp
##uras
Josef
CO
##ytin
1861
Studio
elokuun
suunnattu
Encyclopædia
Hul
Xbox
vaihtoeh
kiertueella
tyypillistä
star
##varain
aalto
tennis
erimielisyy
huume
##maisten
##pasiteetti
loukkaantui
##tööri
Feder
leikkaa
pitäjän
hallinnoi
Comic
kolum
##oinnissa
Korhonen
Napoleon
perustamisesta
Juo
##menin
##telin
Brun
viiv
Servi
##laisesta
##even
##rest
##maita
komponen
Laato
erotti
oikeisto
Kuninkaallisen
Vis
Kera
adop
Leena
kauhu
kolmea
elokuvista
550
vyö
##eläin
Rita
jäädä
rooliin
##ttämiseen
toteutettu
##tuur
Ero
##kohde
Axel
sell
henkilöstö
##bio
kevät
##terveys
leijon
korkean
sekunnin
koripallo
kreikkalainen
##pöy
Asu
huvi
##musiik
Kansain
François
Kouvolan
Entertainment
139
und
iski
Voima
vanhat
suunnitelman
Aleks
Kemin
kuuti
muodon
vienti
liukenee
Barcelonan
sukellusvene
##periaa
##low
##taid
blues
kontro
pitkäksi
Biography
##hda
##itoja
osasta
##MA
YouT
##isaira
semina
Kirjasto
viimeistään
Hö
##asun
Ski
##vässä
bale
resep
torjui
hylkäsi
pienois
##sano
Bet
McK
arvoa
tilat
kirkkoa
riippumatta
##yes
##ness
Sna
##kattu
##ttiset
kupar
kruuna
puuttuu
venäjän
##wich
syntyneet
##haara
##kunnista
maalaus
mitalia
edustajia
##xi
##kker
##otan
Ral
##uksistaan
##ant
maatalo
säilyttä
Ahl
Nurmi
Kalevi
Muhamma
##tod
##wart
##ikojen
##riassa
##tilaan
mainitsee
##sija
Asema
patri
##tuotannon
pysyvästi
perinteinen
XII
Alls
Luettu
ehtinyt
Hum
Aven
##asiain
##miensa
Laulu
vihan
jokaisessa
käynnistyi
Rik
##pohjan
Costa
halti
häneen
pienin
syövät
Journal
kärkeen
Kustannus
##paja
##tene
Town
##hyppää
katoa
uudelle
##teollisuutta
Hev
##miehensä
##ustuksen
palvelus
Asukkaita
puolustajien
yhdeksänneksi
146
Oyj
Arvi
Yhte
Lasten
kentälle
Lontooseen
hollantila
Trin
##teorian
mainetta
tuottavat
Emp
##album
harki
munua
Seg
Rafa
##lähetys
pitäjä
##peleihin
kyennyt
Brasiliassa
Corporation
##zza
Osake
System
rakkaus
Benjamin
IA
##ania
##mate
##phin
Taaja
nousu
Aaltonen
##oimis
vyöhykke
ortodoksinen
alt
Laki
##oliitt
##omassa
Saira
Koulun
Series
##udeltaan
kaakkoon
keskustelua
kokee
Grammy
Siemen
heijas
maalasi
kunnossa
##hot
tili
Fameen
koiran
itsekin
yhteyden
Elizabeth
##sän
##jouk
Brys
nokka
panssarivaun
Vor
vaina
##tehtäviin
piden
Howard
kieliä
tiedus
lähtöisin
bu
ly
Tod
Kelta
kilogrammaa
kokoonpanoon
##lyn
ag
##opol
Wel
Wall
kuka
louh
opinnot
säätiön
##alaiseksi
asioiden
tapahtuman
##ssonin
Pyrin
##juoksun
vallasta
järjestys
kannattaa
pohjautuu
##enko
##toivat
Juhana
muotoil
viiteen
historiasta
##head
Veden
##kilpailu
luokkaa
menivät
ennätyksen
##puhd
##puku
Kuor
Rail
Scha
##holmin
##siirto
##mattomat
##ppoa
Zen
Paasi
asioista
##lammi
##entoja
##luokka
Minnesota
keskiajalla
paikallinen
138
Bag
Sei
Jenni
Nykyisen
Akatemian
Seppä
##tyksissä
palatsi
Elisabet
sprintissä
##anto
##itch
##miestä
Philip
alaltaan
tuomitsi
##luv
JR
Urho
kauppala
##ritz
Naan
ihas
##neistä
jakel
Classi
sisäll
rykmentin
Leningradin
aiheuttavat
Kio
uha
##arvon
##tyssä
tuoda
mestaruussa
##ikar
Maja
jaksoa
Him
##vaari
##oppila
##piiriä
asenn
##organis
ravintoa
##pir
##kälä
viher
ainoan
alumiin
valituksi
vaikuttivat
Wis
miehe
Paikka
konsul
##uinnissa
muodoltaan
##htaa
Louh
pomm
Niger
##ikäy
Eura
irta
Matthe
##opistossa
##eran
goo
Mada
Salva
##uvuodesta
hautausmaalle
##ales
##mation
##istunut
lentää
nuoret
##ingtonin
##tuotteita
##vuotisella
merenpinnasta
naaras
tasolle
Stein
Illino
Oikeus
Teatteri
ABC
##janta
opas
muuhun
##pitoisuus
Broadway
Lawrence
Itävallassa
paikallisten
liittoutuneiden
Ltd
arki
sotatoi
toimeenpan
Alankomaissa
##pum
##masto
##oillaan
seuraavaa
pääministerinä
ac
##aine
esiku
kukki
Heinrich
kilpailuista
loukkaantumis
keskimääräinen
##book
##kulu
Hat
pom
##kintä
idea
##liiken
kreiv
missään
sotavan
rannikon
onnettomuudessa
##yynä
McD
kyyn
pöytä
toiset
ajatteli
Not
##tössä
resur
sisko
lausun
levottom
tehokkaa
##off
kiloa
lennon
tähtien
paikasta
Andersson
teoksissa
rakennusten
Nich
##laivue
##valtojen
johdettu
##ftin
Bog
Sah
##elija
##vaalien
Lennon
arvellaan
kuvanveistäjä
Vati
##ttelevat
Charlie
erilaisissa
##AF
##rez
##muuto
Lady
mara
##oriksi
pääro
Hyökkä
kantaesi
##biili
##tonia
Heli
lumi
##murhaa
HK
hip
##iuksen
##ttömän
Rovaniemen
##cep
##wei
##rado
##selän
##seuran
raskaan
Eh
##vakuu
taloudellinen
##esen
Oma
Kurt
Nova
selä
lupasi
nautti
sanonut
Vancouver
##IK
Rö
##vain
Blom
kotio
##ikulttuu
##mmel
tuul
lailla
eläimiä
saarten
roomalaisen
kommunistisen
##ysta
Gas
lon
gran
usei
black
suunnitelma
##ør
mega
moraal
tärkeimpiä
##tole
Line
##tuissa
Kunta
porta
kulttuur
valloitti
##koli
##neja
##kapteen
käyttämä
laitahyökkääjä
##ás
SE
nar
Jimmy
##rakenne
pelaajaa
##inut
##rock
Tang
##mallin
paria
maisema
tiettävästi
##anen
##klub
Ian
##isaar
##uneet
##itolle
##kustann
kokous
##taul
##pikon
##telta
Juus
Talvi
Union
käräjä
manager
muutkin
ennätyksensä
opi
Gott
Great
Kiekko
Hongkon
##yrityksen
##osas
Pudo
##maaliva
Junior
myöntää
133
##öriksi
luomaan
prosessi
##cion
##inny
fun
oireita
palautta
Jyväskylässä
##oitunut
syntyä
Johansson
aggressiiv
henkilöiden
vanhi
##dow
Latin
Maija
petty
suuru
Google
standard
Science
monesti
##alistisen
##oinen
mereen
##paikalla
Jokainen
kaup
käyd
epävar
tehdyt
mielessä
##istuksessa
edustajain
kenraalima
##uomen
##hdiksi
Riian
murta
bolšev
kuninga
vangiksi
##IC
##laj
##oint
Rinta
kehite
yhtälö
liikevaihto
##DA
##pyr
##kean
iku
huum
Maahan
Sieltä
ilmenee
Amsterda
vanhojen
##maalivahti
tarinoita
Bis
Löy
ohje
urku
hiukan
otetaan
rinnakka
Home
reittien
kvan
Lahdessa
Lehtonen
Yhdistys
ilmoittaa
syntyneen
toimimaan
Palattuaan
Dol
fas
arch
norma
##tilasta
Eurooppaa
silloinen
##jut
ump
Hand
Kinn
ryhd
Kankaan
##kkila
väär
##tieltä
ajasta
suurir
sataman
hidas
hallitusta
teloitettiin
##dez
##toli
myynyt
meriros
monista
Salminen
í
##jaks
##kysy
##äänsä
strate
menettää
vallitse
Allsvenskan
kappaleessa
matematiikan
<
##äät
Alle
ääniä
Keskia
Racing
patsas
##mieheksi
kauteen
##inaalissa
Napoleonin
##gy
##uf
##bis
##daa
Fren
Hallin
kiellettiin
##ffa
##upä
Ylö
##kulma
Wild
##ttisia
Airlin
Batman
vierail
suuressa
Karjalassa
käyttöönsä
muuttamaan
talvisodan
suomenkielinen
##tynä
Hauh
Mons
##kkönen
hotell
väheni
jatkettiin
##viiva
luva
integ
onnistuivat
##unio
Ylen
tieltä
paljastuu
##ōn
Cole
Norja
lihas
puhua
mitalin
sisältö
korkeaksi
evaku
##tykseksi
Jonathan
markkinoilla
Näihin
##julkaisu
keskilä
suostui
MA
##tetyt
Nuori
rintama
Football
Research
luokassa
kirkkoherra
tapahtuneen
Lum
glo
Vase
lyij
rake
Kaarlo
Konser
Uransa
keskis
By
##lash
Uta
##eliin
Road
tukemaan
kaikkialla
luoteeseen
Rand
peto
Devil
karva
##telemaan
asuivat
##ysoi
##istot
##ttein
##muodos
Kiven
luoma
Elli
Face
Indiana
sininen
Seitsemän
koilliseen
sukupuuttoon
##imelle
pylvä
asianaja
jäljelle
kaikkiin
luostarin
##tors
##yrän
Lag
##telija
tunneta
sijainne
##kai
Qua
Demo
hier
Längel
##alaisena
alppihi
yhdeksäs
Pori
Rudolf
Sierra
paikkaan
paljasti
Ensimmäisenä
##ppua
##kalan
Saudi
laaks
tultua
merivoi
poistaa
tulosta
Skandina
##ode
##oil
Ohi
Dragon
musikaal
yhteistä
komennettiin
rakentamista
##utena
Human
##estadio
Sakari
merkittävän
##ovi
##iviä
useamman
##mahdollisuu
Sud
##tinsa
Bron
akus
käden
värvä
työllis
useilla
julkaistun
pääkonttori
Technology
pohjoisesta
##ikit
##joina
Muina
aiempaa
kotonaan
talvehti
Suurimmat
lahjoitti
##tehta
itsemurhan
##ort
kullan
arkkihiippa
##kiat
hypo
sanoa
pohjan
islamin
Fon
Ull
##taulu
Adrian
moniin
nousta
puheen
vapaana
##juoksussa
myönnetty
tunnistaa
Kann
Mach
##harmon
Thomp
tappoi
Soli
##ttävää
Itsenä
toimineet
samanlainen
Eva
##kelmä
viere
piispan
johtaman
kahdeksi
avioliiton
edeltäjänsä
korkeudella
elämäkerrasto
##far
hea
##tehti
Moon
myydä
102
Ice
Hamin
Tapani
erotta
Christi
paikalta
omistuksessa
##anna
Imm
##gelin
Stalinin
tarkasta
Zü
##bien
Hyd
Ris
Hedel
veljekset
##dat
##piire
pell
Lehdet
kotiseutu
paikallista
suoritettiin
##DL
##KP
137
Dag
Kek
Arsen
kissa
##llisyyden
toistensa
136
Aer
Tapi
##alisia
##tiedon
Frans
##laisena
kaappa
mytolog
lentoase
säilytti
päättyivät
##ppejä
Maga
taan
##keilla
America
ulottui
Antiikin
Koivisto
luokkaan
Tällaisia
maksamaan
toukokuun
Austin
juuret
##ikunnassa
##core
##juna
##teella
matal
puhui
##uvernöö
kohoaa
Venäjää
##yöhykkeen
suuremman
##eeta
##kselta
Brasi
vaiva
toteaa
matemaatt
vaihdossa
##kisa
Lil
tutkii
rekisteröi
sotilaiden
vankeuteen
##tysa
Aman
Fair
paha
Yhden
Suojel
toivat
liittola
palasivat
kääpiö
tieteis
vankilassa
vuorokauden
Pohjanmaalla
Tat
kunnat
maaseutu
nykyiseen
Abu
##itsyt
##veksi
skot
Final
Helen
arvoi
ruoan
Silver
lähtenyt
luottamus
##toinen
nukku
Rolling
##reun
ehd
##https
liikkeelle
##pän
##puli
##öltään
##kuntiin
##tieteili
##toimiston
avioliitto
650
olevista
verkosto
##tory
kari
ylin
tosia
Paavali
uudessa
apuvalmenta
poliittisia
Bour
##ulassa
Loren
määriä
Barcelon
prinsessa
Nash
Dream
Lehtinen
merkitään
kokouksessa
Emmy
Kimmo
aisti
##puhelin
täynnä
autolla
Jatkosodan
Mig
##ivuot
valoa
Museum
ritari
Saimaan
marraskuun
##fle
Fun
ger
##dionin
##työhön
Myy
##berin
##tuote
##vamma
##alalla
Blood
uo
##maalta
Mukana
Oliver
Ottelu
history
##xemb
##ogeen
valvonta
yrityksiä
##kkanen
##llisina
Claude
yhteistyön
##idat
Toki
##oopper
liikaa
tyyliin
akatemian
##ärä
##äänin
Ludwig
luotiin
minkään
tavoite
alkoholin
Beach
aukko
maino
##paikalle
Linux
teini
olevassa
valtioiden
kirjoittaja
##ach
##bes
##kukka
##uttaja
Heart
kuuli
sopiv
huonon
raskas
operaati
Hämähäkki
Joukkueen
vangittiin
##oshi
##ganin
##utune
death
##tetusta
Chelse
loista
##llisistä
Onnettom
Televisi
syntyivät
##tium
##tusti
##tettuun
arveltu
kirjojen
täydennys
##time
##viir
Nas
##nistä
##aikana
hyväntekevä
piirikunnassa
lähd
##päähän
##wellin
kukka
maaliva
väliset
jokaisella
esiintyivät
taistelemaan
pudotuspelien
##té
Jy
##rikko
##kaalin
Koski
lääni
Frances
sijaitsevaan
aro
Numm
Valtio
kuulla
Leip
##ikilpail
listalle
Euroopasta
Uus
##reita
koski
Calgar
kahtia
rahoitus
##opettajana
palauttaa
##jaltaan
reness
##presiden
##ffe
##mpp
Klo
senaatin
luterilaisen
mytologiassa
##tif
##vistin
Lapuan
pelasti
##kirjaston
Kirjassa
pinnalla
tekemistä
##eda
Azer
##astossa
lainas
koneita
Ob
##otta
Ross
keksin
turvin
omistus
Samoihin
teokseen
kasvattaa
tuntematon
Bond
Mall
jonkun
kutsuu
Nieminen
anteeksi
Helsingistä
Fan
Glas
kran
##käinen
##taminen
hankkia
tarpeen
kolmannessa
Tommy
vahin
Varsin
tuomar
vakitu
##imusiikki
kerralla
yhteisen
päivittäin
Philadelphia
rakennuksessa
##jes
SHL
##kanut
##lesin
##onnettom
suureksi
##taani
illa
artis
kokem
jäävät
##juoksija
klassisen
litrainen
tarvitsee
nykyisessä
tanskalainen
pääministerin
##ors
Sien
Päivi
kiista
polttoaine
##ohen
Aro
Hes
Palm
osissa
Pudotus
antamaan
kohtasivat
##ynen
Taip
##hdetta
##istetty
elämässä
tutkittu
##dž
##ulus
köy
Urugua
Challen
matkail
##järjestöjen
tuntumassa
albumilistan
kauno
hautaja
lisenssi
kielletty
##inimi
##kankaan
silmät
mainita
välttää
##akatemian
liittyen
lounaaseen
inten
##eus
##alismia
##eliuksen
seuraavassa
Dum
nur
sävy
##ominen
uudista
australialainen
kehä
Ravin
##eläinen
Lincol
Kylässä
määritellään
##ikov
##rilog
Lajia
turvaa
johtavan
OS
ATP
##tellin
työpa
##laulaja
salali
Operaatio
tuotannosta
ensimmäisten
##hie
bru
##määrää
ritua
syytettiin
##ktio
##oren
liki
Urheili
##netin
##uolen
Lapissa
##mpu
##opar
Elek
Kukin
Kommun
##moa
##orgi
Boe
NFL
etsiä
##inosaur
##käyntiä
asemaan
päivittä
seuraajaksi
##keily
Giovanni
aiheesta
intiaanien
luokitellaan
##rag
pub
Volks
venäläisen
korkeudessa
perustamista
##DR
IP
##ivir
kuuluneet
artikkeleita
mö
##pojan
Aina
Mans
rumm
##teiksi
iltana
suureen
saarilla
##öön
Lah
Chil
##aattor
palau
surmaa
Muiden
Niissä
räjähdys
Wei
##telyn
tytön
Hollannin
maaliskuun
##mejä
herää
näytelmässä
merkittävimpiä
mg
ny
Alb
Nin
toiv
nivel
syytti
poikkeaa
voimakkaa
##pisto
aikoo
mainin
tilalleen
##Pan
##town
##taaja
solm
##kselin
##ilijoita
##suunnitt
kuutiomet
pääosassa
tehtävästä
##orf
Sup
1859
That
Menes
kevää
arvion
myrsky
fantasia
##cla
##eldin
##etsin
otsi
Moore
Snell
maista
soitin
ratkaisu
onnettomuus
kierrokselle
Pé
Nes
##kolle
##ulaar
Boli
Egyptissä
Ylioppilas
kuolemansa
vasa
Kuusi
##alistinen
pistepörssissä
DS
112
Mara
Unkari
##vyöhykke
antavat
Tunnettu
kesäisin
telakalle
vaikutuksia
loppukilpail
viranomaiset
##LS
##ée
bul
##lissa
kirjat
Kristian
Aleksanterin
järjestyksessä
##psy
##kkeita
metsää
vähentä
Konstantinop
Fed
Pia
Sab
Norr
tehdys
Puolueen
maus
välit
tilannetta
##ments
##mical
Kita
pall
##ttimen
avaja
myrkky
virola
Hallitus
Belgiassa
konservatiiv
##kle
##teer
Conne
##piirissä
kulkeva
entisestään
##gr
##önt
Ida
Vala
Runko
vedet
ajassa
##llisille
pääministeriksi
##xon
Koneen
Moskova
Exp
hop
Tuon
##useura
mikään
opettaa
joissain
punaisten
verkkosiv
##sääntöisesti
tasavallassa
##vua
##ervo
##jaon
##nöstä
hiip
aiheita
Oul
nes
Auton
Manuel
Somali
lukion
laivueen
Sche
##tetuksi
tultaessa
varsinaisesti
3000
Bank
What
Sanom
hyper
irtis
Church
nimenä
Divisió
Industrial
##ppia
rasi
##ikansa
Sahar
##ikymmen
kokosi
estämään
syöttäjä
muutokset
##talia
Ring
##kerros
##sarjaan
Toisella
##vys
asee
##tiikkaa
Pitkän
Russell
henkiin
elokuvajuhlilla
Kub
äki
Kras
Krimin
dialog
koottu
kitaraa
laulajana
analyy
joukosta
Joissakin
valmistukseen
jalkapalloseura
##jol
pl
##mitri
##anssin
Bernard
alttari
telakalla
kirjoitettiin
läheltä
tilanteessa
julkisuuteen
keskustaajama
käyn
Berlin
poikas
vakina
Yhdistyneen
Aarne
Ilves
kuljettaa
voimakkaan
##mentaja
liittynyt
lukemalla
sellaisia
itsenäisyyden
##daar
##kenn
##dorin
##kuvat
Otta
##tuuria
Koskinen
helmikuun
toteutettiin
##ilaa
Meg
Meren
##tuneena
Satelli
Stevens
julkista
säilyttää
tuotetaan
tr
Was
pus
1856
Mess
Paula
maalaa
mittainen
AG
Ope
sto
Ston
uraa
fuusi
huolta
##koneiden
lauanta
viimein
kuuluvia
kristinus
suostunut
päätökseen
kehittämään
piirikunnan
samannimiseen
##felt
kierrä
milloin
##puolustus
jättämään
lähteissä
##rossa
Argenti
ohjelmaan
tutkimaan
##lliin
##läisiä
oppilaito
hyökkäystä
##pät
##opeaa
este
selviää
palvelun
ensisijaisesti
Ša
Who
##hdyksen
kriitikko
taisteluissa
##går
##too
##uuni
Baij
holo
##steinin
Kreikk
##isyydestä
jalkaväki
viimeisellä
##pyl
tunnel
Poliisi
lähteiden
##kyt
Fro
Lyy
Nev
Tois
raitio
Angelesin
käytettävissä
Games
##viestin
Kolmen
teosten
juoksussa
tyypillisiä
##otkin
Pieta
rukous
Nuorten
Uutiset
ensiesi
maaperä
##isimmista
ihmisille
luopumaan
ympäristöön
Kn
##tiet
Arti
Ensin
Kieli
##osainen
aikuis
kerätä
ainoana
palkkasi
erilainen
##sium
##lander
Liban
Oskar
Baltian
virassa
oikeuteen
##lot
Soc
##oppia
Tuus
##ografia
puoleen
kritiikkiä
hap
laulua
asteroi
Ilveksen
kehittänyt
##kanava
näihin
Turkuun
useasti
maapallon
kansanäänes
##imer
pila
suon
##prosen
kaiver
vajaat
##ministeriksi
##dut
Qa
##uuri
##kerto
##varus
##llyttä
Schuma
Birming
##ides
##pommi
Seutu
amino
syntee
##90
##urus
rat
##illes
käsittely
##sivu
##valo
240
OHL
Kate
Radi
Syvä
##ilijan
peruu
varaustila
kristinuskon
##yon
Köl
Wim
##illen
##isuon
##ksensa
Münchenin
Pittsburg
liikennöi
maanviljely
BK
##vaar
Via
ajon
pelk
Eddie
löytö
vanhen
ohjelmia
Ateenassa
vahingossa
##pid
##anut
##gine
mul
##ketju
Gary
ajamaan
kritisoi
Hämäläinen
varakapteen
brasilialainen
##56
##tisti
taika
kasveja
muistiin
maailmanka
##ject
Gan
##mäessä
Klaus
kehon
kykeni
##ilaiseen
ennalta
##Ma
220
näppä
painoluo
irlantila
määrittää
Naa
Clin
Bruno
##istista
työhön
odottaa
pakotti
neljällä
pääsevät
##aluo
##lyön
This
##harjun
ajossa
Koillis
Meksikossa
kirkonkylä
##upu
Ted
##toissa
Etiop
Sparta
##llisyyttä
kreikkalais
luonteeltaan
##HA
##nas
FIF
Ilo
minä
##reissa
tukiko
Ora
##ksina
Data
##ttavana
Taistelu
Kolmannen
Palloseura
perustuslaki
##linja
##väylä
Balkan
Päivän
peliin
republi
hävinnyt
historiaan
Agen
pelä
##lehdet
eläim
basket
mallis
tilasi
vuosilta
aiheuttama
kulttuuria
111
##roksi
kirjasta
Kip
##parin
##määrät
virsi
linjaa
lisätty
Siperian
hyväkseen
johtokunnan
##uge
##alil
kotona
saaden
sisälle
näkemyksen
presidenttinä
##ikor
Dres
##elainen
pahasti
##DS
##mba
##toim
##kästi
##lähtö
##ttäjät
Karhu
Niemi
sopii
##komppan
Miller
runoili
ymmärre
halkaisi
vastuussa
##ussaan
kohda
##amerikk
kielet
luonta
##palvelut
Vatikaan
välieriin
käsitellään
Arts
hotelli
talonpoika
ohjelmointi
Cher
Vara
Vanhe
pysyy
##hiihtäjä
Seuraavat
Yhdysvaltoja
senttimetrin
##moon
##tukikoh
vaaran
singleä
##uduttuaan
paikassa
kuvernööri
Karjalainen
teoksessaan
##lleja
Cour
tuohon
Simpson
myyntiin
teologian
##ilän
122
##säännö
##öntgen
Alice
laaju
määrittele
Rau
lehtiä
samoja
talven
risteilijä
Way
##pojen
##raeli
##ikoita
##isempaa
suojelu
metropoli
aikakauden
##cto
##ukke
mahta
##aliseen
tutkijana
uskottiin
tape
laulajan
ohjaajana
Marg
ihon
vamma
katosi
reservi
väittää
##alaisilla
##uudessaan
##luutnantti
##ico
##kyl
Phi
Firen
lukua
riski
tuttu
nuoris
##istuimen
tarkoituksen
suomalaisista
sisällissodassa
##gle
Lé
##merin
Alla
oksi
ryhdy
Viiden
elänyt
kallis
katsoa
##isarjassa
suhteita
tallissa
viidessä
##pat
IC
##ograf
##radio
Spen
Sorta
autot
hoidossa
paikalliset
HD
##ukki
tiheä
vilja
##oiminta
Pohjolan
tammikuun
Mira
vilje
##tiltaan
kuuluis
ministe
kärjessä
HT
##tisten
innoitta
Savonlinnan
##maasta
tutka
omaelämä
Afrikkaan
##dorf
##pylä
##salmi
pisin
miehitti
soundtra
kriitikot
valkoisen
##keskuksessa
Qui
##lajeja
##ikkinen
Jersey
jääneen
pääosan
tyytyvä
näyttelijänä
##verta
Mene
##onista
Child
semif
roolia
Ahvenanmaan
veh
pahan
Dallas
Nelson
Networ
##ilaisessa
tehopistein
asiantuntija
Toy
##tesin
haku
syvän
kestänyt
##tv
AT
off
voimin
kannatus
koskevat
##uhde
##istyö
##toksi
Roos
kadun
##omainen
kauppias
##gien
Cul
yön
Cann
luonut
Zo
sati
##olosuh
levyä
mustat
parhaista
jumalanpalvel
argen
article
planeetan
alkuvaiheessa
##oitua
Liike
monar
taajuu
##gers
##pitu
##mania
Sokra
##tyksenä
tarkemmin
vapaaehtoisena
Lö
##para
##tico
##kkari
##rikin
1852
1853
luenn
tauti
kangas
viiväs
Sarjassa
läpimurto
valitsivat
##misiä
##johdon
##suunta
##villan
tupla
johtui
jäännö
pelien
pääosa
##rannikon
Tilanne
aluksia
rockyhty
materiaali
tutkimusten
valtiovarain
pitkäaikainen
##oset
##sila
Sjö
Maun
Medi
##hoksen
Malta
luettu
kaukana
enemmistön
sairaalaan
##oso
##salkka
ahker
nopeammin
paljastui
saatetaan
##EA
##stu
melod
Madridin
hallitsivat
spi
Suon
aluee
vierailev
##kallio
##ossaan
salan
nimissä
kuvitteellinen
##meni
heavy
##immista
lääkea
##arvi
##seja
nei
Flor
Kall
Garden
mallit
armeijaa
kuuluneen
Viipurissa
##rauhan
##ytänyt
Clark
Princ
kotisiv
tunnetuimmista
##yntä
hav
##other
##ttömyy
Balti
Tärkei
huonek
matemaa
Punainen
##utissa
omakoti
auttamaan
haluttiin
Novgorodin
paikallisia
hypp
maksan
Roomaan
perintö
hallitukseen
##llow
##okin
##kettu
ohjus
raama
murhan
alainen
Hämeenlinna
##ain
##uija
##baidž
##aatiota
Oxford
hylkää
Detroit
monilla
##kaupunkiin
liittovaltion
##brary
##ukkaa
Kamp
##portin
polve
Japaniin
Längelmä
##tyksessään
esittelee
##eira
##inion
Kasvi
Mäkinen
Turkissa
Irlannissa
lopputurna
##tov
1857
Cara
Sony
##väliin
Vuori
kokeil
##utumiseen
sivuilla
##ikat
##tunen
##heimin
käänne
asuntoa
kukista
Bil
Tei
med
millä
inhimi
tilaus
pyhäkkö
lyhytelo
säveltämä
Mannerheimin
HPK
Luosta
##vuotinen
syyllis
Wienissä
molemmissa
Alkuperäinen
##ilyä
Merced
Rafael
##isyyteen
arvonimi
laajensi
loppuotteluun
##cro
Squ
meh
kukat
Tarina
Kärppien
Yhdysvalloista
##polin
Päijät
Serbian
tekijät
##sop
##htinen
täten
hankin
Kallion
##valtuusto
elinkein
suosituin
Gy
här
jäte
monu
Kymen
Muumi
Companyn
palattuaan
##ppen
##ysty
Taa
##gassa
##kistön
omiin
keskilämpötila
##vuotias
siiven
muutoin
samannimisen
työt
##ikirja
Opera
porvar
uusiin
kasvava
viettää
museossa
venäläis
tutkijoiden
Roh
1858
Newcast
##teellisiä
##aly
##pituus
Tuuli
##koneita
jatkun
Kiinaan
katsottu
piirustus
alkuperäistä
em
##istöä
Beet
paalu
##täväksi
##ikuntaan
vanhaan
São
##korkeus
pankin
yleise
tehtävään
lentoyhtiö
itärintamalla
##bili
##hain
Rad
##hyppääjä
Lönn
##puheli
ärsy
##mistry
pelit
erolla
seitsen
pelaajauransa
Leaf
ikon
Boris
Guide
Juven
Hieman
lämmön
##ervatori
##zig
##uetta
Ecua
Eniten
Spring
aseista
Brasilia
tarjolla
vuotiaan
abstra
avoimen
Kymmenen
##väkirykmentti
##ory
##tule
Apoll
Tosin
kodin
Verkko
kartoi
Punaisen
kuolemaa
rakennutta
##keh
##ikur
Sarah
vaimon
Järvinen
mahdollisuutta
##ksof
##usar
Duc
Troi
soin
hampa
pesii
vähene
Capital
kohteita
kuudesta
raportoi
sekoittaa
sijaitsevassa
##ane
##etsi
Rap
##vemmin
Teemu
##hallitsi
vaalien
Ohjelman
lintujen
suurelta
numerolla
vahvistaa
Hero
kopio
monivuot
vaikeuksia
harjoitteli
Kath
mella
##ikkeiden
ehdokas
muunnel
oikealla
tehtävää
kiinnitetty
##kiven
Deep
Elina
huoneen
edetessä
keskelle
liittyvän
julkaistaan
riittävästi
Mai
potku
##yhteydet
poistui
kokoinen
voittamaan
pääkaupungissa
##opo
SF
##ungin
mang
##istelu
##mailla
jolta
Collin
johdatti
yrittävät
osakeyhtiö
opiskelijoiden
valmistuksessa
##EN
Sli
##vihreä
Reino
virkaa
##loh
Cyr
Meh
##turit
Bara
näkyi
Vincent
Tutkimus
miljoonalla
##OR
näl
logi
pake
vamm
lämmin
hengitys
oopperan
palvelut
tekemällä
##hahm
Kahde
naami
##valtioiden
pääsääntöisesti
##ivuo
##odon
edisty
##tarkasta
viranomaisten
##nee
##ktor
jotakin
ottelut
##our
Anni
väärä
Platonin
yksimiel
festivaali
molemmilla
##kilaa
Liby
Luis
eden
Ykkös
raketti
Valentin
katta
Luxemb
Professori
mahdollisuuksia
sosialidemokraa
##kanis
##urassa
syöpä
##eläinten
hyväksytty
tärkeimmistä
##syn
##udat
Misso
sataa
tyyty
laajaa
##opimuksella
##äätä
arma
höyhen
kaksitoista
sijaitsivat
Lui
Pelto
lyhye
teema
arvosta
siipien
ylöspäin
##maajoukkue
Ruotsista
itävaltalainen
##halti
##elinin
kaive
##ttomuus
##gressiiv
seurata
muutamaa
taidetta
mielenkiin
viittaavat
kirjoittamaan
suomalaisessa
##aani
##anat
Jyrki
viedä
pyrkin
natrium
##ilijoiden
saalista
##ng
Työn
napa
##ttynyt
Lempää
tapaus
rauhassa
kolmantena
varsinaista
Ani
##tural
Toni
supp
Earth
lapsensa
punaiset
rinnalle
lähtemään
##teta
Kron
kylät
katsoo
harmaan
keihään
korosta
liittää
menettänyt
sijainneen
Vie
rev
##iemellä
maalla
yksino
maineen
musiikkiin
perustanut
Rum
Neil
hahmot
sanoja
Victoria
roolista
lopputulo
englantilaisen
##assi
##dusta
täsmä
##kokoelma
##iluutnantti
alkuperäisestä
##ded
##tting
Bush
etan
hina
##tuessa
##uohjel
Katari
mustia
##rannassa
paransi
naisille
tuhosivat
luonnonvara
##hein
Row
##ilevat
tuore
##kohtana
kohtuu
palkkaa
kuolemasta
##DF
Kaz
##etaan
Bros
linnoi
saksala
julkinen
tarkoitta
Alankomaat
##ppin
Jama
##aseball
tarjota
tarkkaa
teoksesta
Tärkeimmät
##iho
Mö
##uroja
savi
Dj
##dasta
Post
Babyl
Metro
pörssi
samoihin
automaattisesti
##vyö
##rila
##ittain
malleja
rooleja
Saarinen
pahoinpi
yläpuolelle
mestaruutensa
sveitsiläinen
edustusjoukkue
Olo
##usiness
##utumisesta
rautatiease
##tsan
##äneen
##miinin
asevel
Hermann
samasta
##ederaation
perustamis
Dir
##lääkä
##ksonin
palve
pasto
##äärmeen
vakava
##kaudeksi
Saarella
oja
astr
##päivää
##eration
##lääkäri
rungon
grammaa
suuntaa
esittivät
sellainen
palkattiin
henkilöauto
kehittyy
yhtiölle
kommentoi
erilaisiin
käyttötarkoi
Suv
Stutt
ratsas
otteluita
ilmavoimat
mestaruudesta
CS
Sis
##hauta
##faatti
##yöhyke
luota
päästö
Tunnetu
##valmistaja
Io
##kylään
Filip
lukea
remon
vauhd
Chilen
kunkin
israeli
Vaakunan
tuotteiden
##isaari
##teoria
sääntö
jännitt
seremon
viikolla
##joh
##ivas
##uska
##tilojen
Leijon
Ranger
##lassikko
Tilasto
keisarillisen
koulutukseltaan
Wir
koom
##tarkas
Salmi
##kuntansa
länsima
levyttänyt
vanhempiensa
##janen
##cherin
Kamer
pitkää
tytärtä
egyptilä
elinvoima
keskittyä
suurempaa
hallintaan
todisteita
normaalisti
julkaistussa
##erto
ison
suunn
##oittain
Näissä
##alaisuus
##eskuksen
koulula
##ott
##ights
##kisal
Kenn
Global
Seudun
keskitys
##yttelijänä
Katariina
korkeampi
vapauttaa
##kierroksella
##OP
##ury
##fluo
##kerho
##taide
Kuka
Movies
etelän
Olympic
alettua
Manhatta
johonkin
pelaavan
##essan
##korpi
##pulle
ajanut
pelkkä
##tuottaja
laajoja
Mercedes
kärsivät
valitsee
esityksen
##86
Nat
Sever
arvot
maaleja
käynnisti
kuutiometriä
sisällissotaan
##af
##lav
Cho
kät
##käyttä
##mestarin
Ihmisen
yönä
Poika
##mbergin
luotsa
##lliselta
##MS
##juuden
tamper
##tiloissa
vakuutus
koostuvat
kuljetettiin
##äck
##leen
##eessä
##iinia
##sijoi
##tavar
##odoros
Kongon
kallio
listay
nisäkkä
hyvinkin
rakentamaan
vastustajan
Scor
baro
ketj
Suosi
karta
tuella
Festival
korostaa
länsiosassa
sanoittanut
televisiosarjan
##klyn
##tier
Alma
##kasveja
nation
Matthew
kaupunk
äänesti
provinssin
suunnitella
##öllä
1809
##ppiä
auk
Hoff
Tren
##ttäjänä
Museovir
hyväksynyt
sydänkohta
tutkimuksia
ranskalaiset
##gun
##itys
##omis
Ins
coun
osto
ammatt
tehtyä
harjoittaa
Ore
##kunen
paeta
Antero
etunimi
mongoli
##kappaleen
satamaan
alkuperää
aiheuttivat
saksalaisia
demokraattisen
##cti
##opon
lang
##teossa
##teraan
##tymisen
pakoon
kutsutu
liikkuu
näkemys
sisälly
metsissä
ongelmat
tunnissa
väitetty
korkeakoulu
##TS
210
rup
##hoidon
Ulkoma
##neuvosto
huomion
##tettavissa
laaksossa
tyrmäyksellä
julkistettiin
iho
Pain
Stran
korjaus
ainoaksi
liittyvää
neljännes
##pataljoonan
juutalaisia
Aristoteleen
korkeakoulun
rakentamiseen
high
Country
##voimainen
ammuttiin
oletetaan
neuvostotasa
kehittämiseen
VR
##zine
Tita
##ittänyt
ryöstö
##llisempi
pelattu
muistuttava
itsenäiseksi
##ful
##ninen
Ple
Castr
##talossa
Siirto
säästä
##kaudelle
ehdokkuuden
##tary
Jel
käänsi
Stadion
eroavat
eräiden
havaitse
##diaa
Jerry
liito
##radalla
nuorissa
suuresta
jäänteitä
lentotuki
jälkimmäinen
eurooppalaisten
AR
##wayn
##laula
Basi
Bres
Adven
Imperi
toiminna
Makedonian
Mü
##kisi
##vers
lavas
Vainio
selitys
##ogen
##uoja
Jay
##siaan
koken
syttyi
yhtymä
hengissä
potentia
tšek
Elias
##uunnitel
muotoja
argentiin
opintojaan
##lj
Et
sääntöjen
eräät
masen
töissä
Temppeli
hakemaan
sairasta
aikaansaa
Collegessa
vaalipiiristä
##nio
##thers
VIII
Pinta
##saarten
upposi
Hyvinkään
tehotilaston
##OM
Indian
painon
symmet
syntetis
##IV
##hyn
emi
taloa
legioon
patriar
Varsinkin
peruskorja
##gie
Dio
bin
pohj
Tommi
hanke
kuntaa
yhdistyi
saattanut
edellyttää
Lait
ryhmät
ylläpi
selkeästi
##cien
Fas
Girl
Samo
##mmillaan
##perheeseen
Pelipaikaltaan
##hap
Gib
##sasta
Luke
Rooma
Memori
Potter
terävä
Kirkkon
Walesin
Ee
Hig
His
WWE
##mäksi
##maailma
Kokona
vaakun
##aliikenne
##rake
##kinin
pinn
kenraalik
Mestaruussa
##keski
##valtuu
Tavoi
##julkais
epäsuo
##toimitta
etäisyys
testamentin
kymmenenneksi
##uve
Sad
Kora
Puisto
vallata
Kuopiossa
hankittiin
kannattajat
ensimmäiselle
##cup
##huu
##alth
##omuo
##ware
Khan
virtsa
Sisällis
tutkimuksissa
##tau
##iang
Yama
Apple
liity
samma
Phoeni
ohessa
pyrami
esiinny
##ministerin
Sri
vanhoi
##ttämiseksi
sellaista
sekunnissa
julkaisivat
tehokkaasti
##craft
##oituja
Jouko
Perun
Schul
syste
Sotilas
##idi
##klin
##ellus
##ikissa
femin
doping
kuolin
tekemän
heikosti
perheineen
professorin
käsittelevät
linnoituksen
luol
tuen
jokien
Primera
tohtorin
maahanmuu
pelastamaan
kapellimestari
##Hz
##oton
Hag
slo
Beck
##annous
uskoo
sukuni
##llisilla
Thunder
finaali
kausina
hautausmaa
tietokoneen
markkinointi
vihkipiispaksi
##fun
tykkiä
voimat
liikettä
synnytti
Bulgarian
organisaation
##mita
ber
##päätä
##uinti
Tode
Evans
kiusa
Carolin
rehtori
johtavat
Suunnitel
politiikkaan
out
Tammi
istui
meksi
villa
velvoi
Seelannin
Washingtonin
hiippakuntaan
##iinva
Engel
##telivat
voimaa
huhtikuun
itäosassa
##BI
##ider
##utar
Intia
päätyy
kilpailija
kirjassaan
##valmentajana
##khos
230
golf
veti
visua
##liigaan
kurssi
taloon
Academy
metsien
opiskella
fr
##ytyä
Assa
Nils
Puhe
##aliset
Stars
atomi
kiven
##misensa
läntisen
sihteerinä
aid
anno
##llasta
kohoa
tiili
##kilpailuissa
##seli
Guar
##elissä
Pedro
askel
omana
kiekon
selvää
Brother
##jilta
##ksyyli
osien
novell
kumpikin
kirkkoher
##ytys
##eissä
kauni
Petter
##ologinen
keinoin
löysivät
keskeisiä
virkamies
##oosi
##uosi
##yllä
jalo
##teisto
lapse
Archive
omaisuuden
kotimaahansa
levinneisyys
suuriruhtinas
##lex
##stra
nis
koea
Wayne
##tamalla
jotkin
##alueelle
teoksista
ihmisoikeus
##hven
Moo
aio
##toimen
Stuttgar
kuvaavat
tulevaisuuden
##HC
##jinä
##quen
1849
1854
##ppänen
##ttäviä
##tyksiin
isännö
liitti
Järjestö
Mississi
harrasti
Chemistry
historiansa
singlelistan
Valioliigassa
Bom
Anto
Lisa
Prop
Tien
rivi
taajaman
jätettiin
maailmansotaan
yksinkertainen
##pesä
Hos
ruh
##visen
Avar
Danny
Honka
hoide
##ttilään
##burgissa
##oinnista
pakenee
Kokkolan
yksityiskohta
##ound
##kaiden
Dance
Jäsen
##ystävänsä
piirikuntaan
poliittisesti
maajoukkueeseen
##eina
viip
##paikasta
kuolivat
pisteellä
##ère
Figh
Viro
lemm
##imuoto
kertoa
kiistan
puiston
ratsasta
maalausta
menestynein
suorittanut
##ór
##kävi
Whe
Moto
##päivään
##istuksia
Tallinnan
luonnehti
otteluissa
##lat
##etyn
lukee
##ismista
Morgan
Nikola
##vallankumo
##lämpötilassa
ranskalaisten
##35
##then
##tanan
##päästä
##tarina
suihku
monimuoto
perustuvan
saatettiin
Scar
##muisto
kalan
väären
Kekkosen
oikeuksia
ulkoministeri
##yissä
iskun
##estarina
alueista
hallitsee
republikaan
Cic
##ruotsa
kuvat
selke
torpedo
Fernando
kehittyä
Pietariin
hyönteisiä
Mah
##ismiin
Räikk
illan
Tohtori
versiot
Margaret
kestäneen
tehtävänsä
pujottelussa
##200
MP
UK
##titu
##netaan
Carlo
Raimo
Kekkonen
##ols
##hamp
Llo
kpl
##dässä
Aura
Four
Näsi
##varasto
##kirjojen
Florida
##muotoinen
Räikkönen
välierissä
paljastettiin
Ai
Ner
##opoli
Isaa
##teriin
Osmanien
saliband
henkilölle
rakensivat
karsinnoissa
yleisurheilun
##ough
Hus
Book
Organ
värit
##telleet
##ttisten
Gunnar
Wimble
kontra
naispää
##juoksulla
leikkaus
Suomalaiset
intialainen
kommunistien
##komis
Jung
Kanna
munaa
##mitalia
##kaudesta
lisätään
palannut
##vyt
iin
##kamer
##tiini
Giuse
raiva
Cityssä
McLaren
sovelle
esittele
syöttöpörssin
##US
Lehd
pääa
ryhmitty
joulukuun
Längelmäveden
##back
##onsoi
Casa
##bertin
##toonsa
ruots
pelatun
planeetta
##tyle
Hyr
Homer
##uksiaan
Joensuu
jälkeensä
keskustelu
##turnauksessa
NCA
pite
##taalle
##ttiseen
käsikirjoitus
##dent
kora
##ivojen
Joutsen
Leonard
aseiden
kärsinyt
##dog
##ympäristön
Azerbaidž
pääsarjaan
valmentajaksi
##vim
See
##jokea
alaa
Heino
munii
tyydy
varattu
ystävys
hankkeen
huipulla
tunniste
kasvaessa
Yhdistyksen
Pohjoismaissa
##odore
##ttämisen
kasvila
yksilöt
##käynnissä
korvaamaan
teknologia
##anger
##giksi
Ähtä
##kirjaa
##isuunta
keskustaan
kirjoitetaan
##open
erän
##ikkien
##veyden
aiheena
##sken
sch
##prons
Lähe
selvä
Stalin
piirus
lintuja
pienten
virallista
Sex
blog
mess
##ttaneet
epäillä
lääkärin
synnyttä
sairauden
kilometrillä
##dle
##keista
Petro
muoti
##isuutena
funktio
korosti
pelistä
##rykmentin
Islannin
Eins
##joelle
Kirjoi
kasvun
täydellinen
##lauta
tarj
Korea
maajoukkuetta
##wo
Hope
Sver
argu
##jumala
##työnsä
Mahdo
##euroopp
Battle
liikkuvat
##liikennettä
ortodoksisen
NM
eroja
##ilijana
Carter
kaloja
##keskusta
Keskusta
Muhammad
määritel
pinnalle
Kyproksen
mahdotonta
##roid
Ham
##eenin
Tööl
sool
viile
eläimet
laitteen
##bile
##side
set
##cation
##ritori
world
##takseen
ohitti
siivet
##pallossa
##mod
VH
raj
data
##huollon
Chemical
suurinta
Tampereelle
kehitykseen
näyttelevät
ritarikunnan
Marx
rodun
##hduksen
mahtuu
yksinä
##opimusta
liuotti
tehtyjä
eteläisen
Paj
##tueen
Eläin
##dennäkö
Sisili
neliömet
##gos
##enos
##mers
Jin
Yksin
maalein
kadonnut
perinteistä
lamp
käytä
myydy
ristin
maalinsa
##kulttuurin
urheilijaa
harvinaisia
1820
Koivu
Talon
puner
suoda
Boeing
britit
mag
##ratka
##portti
Tuomi
##tetulla
kokoelman
##järjestelmään
Mosa
##tolema
hapen
Kainuun
varmasti
englantia
itsessään
järjestettävä
satunnaisesti
##glo
FI
Aik
##gasta
##ttamisen
Chicagon
jääkauden
sanoitukset
taloudellisen
##mad
luus
Istan
Selkä
tyhjen
##kentällä
lyhyitä
Kaikkien
##pola
ass
ora
seiso
##kkuutta
brutto
kirkosta
##oikeuksien
##laitte
##ttömäksi
sivussa
yhteyksiä
departementissa
##semb
Jup
WHL
avoim
poiki
veron
loivat
merkittiin
##elas
Bella
China
##hypyssä
##rekiste
Luoteis
kohteen
yksinomaan
kaksinpelissä
Parhaimmillaan
##vinä
hind
Philli
##omistaja
aiemman
Afrikasta
Slovakian
lukuisissa
##ote
##imba
Kön
Malin
Saksaa
kasvua
##ttelunsa
ovatkin
kansojen
Wes
##nissä
##käytön
Oslon
##istivat
##tuomari
median
##alisessa
maatila
funktion
muutettu
seurasivat
##46
##mön
##sko
Sz
romu
##kkansa
kolmos
Brittein
voisivat
##ED
##dom
Hay
##ografi
##teoksia
##ttelyyn
Projek
puoluee
useampia
keskiajan
kai
Neuv
##veisto
Oopper
##verkosto
kruunua
##ON
##tios
Last
##aliksi
paloi
##viranoma
synnyin
tarvitsi
hallintoa
menestyksen
##kita
YLE
nil
##Suomen
##elämää
timan
näissä
käsitys
Giuseppe
kunnosta
kiinalainen
##tekijät
##vallasta
lippula
##ohj
##vus
Aus
##kelan
takti
värin
Rauhan
asenne
archive
jatkuva
alaspäin
jännitys
rakenteen
##nic
##beja
##kasi
Dre
Let
##jensä
isoto
##ukselta
autono
tarinaa
työstään
mantereen
Ay
pH
Dav
Kyy
##velin
Like
pike
##prikaa
##yksikön
takavar
jatkuivat
kaupunkeihin
##uck
##sota
Amp
##putki
##ulotte
Vallan
Ptolema
suorana
roomalaisten
Tšekkoslovakian
##rika
Eth
##täjät
pale
##keillä
##vardin
Nobel
pereh
siirretty
gly
##istele
Ikaal
anark
halve
virtua
törmäsi
toteutti
##politiikkaa
##lääke
##tiheys
makse
Histori
instituutin
progressiiv
##sata
##deista
##hoitoa
tarve
puolin
##koulutus
Beethoven
rakennustyöt
##wall
Now
##ettaan
nahka
##uksille
äidinkielen
alkuvuodesta
kreikkalaisen
##AN
##kta
Byr
irto
##kaavan
Herra
heitti
hopean
Ontario
##puja
fon
Wing
##kauppaa
##utuessa
kukkula
ollutta
Pyhäjärven
nu
##harju
Arena
bussi
Tuomio
##kielisiä
##kunnaksi
##menestys
Ohjelma
vierailee
Pittsburgh
määritellä
##brid
Jäm
##pojat
Camer
##oseuran
keller
Andreas
upseeri
##huoneeseen
Ympäristö
IX
##cock
##ensä
##maja
Nim
rats
Ligue
asiakka
Slovenian
kuvaamaan
Uh
Vill
oppa
##jöille
leikki
rannikolle
rakenteeltaan
menestyksekkää
##bury
avu
kit
moti
Nimen
genee
##isaaren
Jotkin
tutkinut
valtaosa
##bn
FS
UFC
psyy
##tyillä
Party
Myrsky
äänenä
kirjaan
tuloksia
tutkimusmatka
Won
##sonan
Vier
brän
liber
Tanska
Thompson
kuukaudessa
kansainvälisiä
puntaa
asevelvo
vastannut
ympäröivä
##kaise
##vamman
kuule
sivua
valio
Tarkoi
Unionin
vesistön
kolmivuotisen
##HO
##hua
121
ban
Lisä
##meista
perinnö
valmistaja
talviolympi
##arti
##kestä
##kilän
##risen
Isla
Juku
##tteina
##urinkoa
pelaajista
periaatteessa
##etro
##onit
##kyvyn
##urasta
aptee
Hauhon
kotimaansa
ominaisuus
##meli
##tiaa
Åbo
Walk
##mental
##valikoi
##metsissä
Houston
radikaal
rannalle
Mestiksen
##got
##alille
##misten
##neeksi
georgi
tekniikka
lämpötilan
Tik
##kaalla
##koskella
Brooklyn
Laatokan
Venäjältä
##koulutuksen
##lar
BMW
rajat
vahve
##eittain
Metalli
Jerusalemin
Ystä
iske
##kielistä
Rick
puku
tahd
##ittien
Islam
##mukseen
##tymistä
Maassa
##tiivisen
ajoivat
palvelee
##kaita
##lässä
##alusta
kuuteen
muutenkin
vieraillut
jalkapalloa
uskonnollinen
##gang
anim
Viisi
komento
kapinaan
##36
tru
Movie
Sprin
jäähdy
Academic
koneiden
turnaukseen
draamaelokuva
##kiassa
Päätö
hyppä
Kapteeni
hyönteis
palatsin
keinoteko
äänitettiin
julkisuudessa
est
##tuomi
syrj
tera
##luonno
##toniin
kolmin
##utuneita
lehteen
vuorokautta
##ML
##kron
FIFA
tata
##olista
##muotoja
MG
##nipe
##dinaa
Rinne
tunsi
Halonen
nimikko
valmistune
aloitteesta
lämpötilassa
tieteellisen
valmistuivat
##ilit
##unnan
##ysten
hull
##ukohta
Lissa
termiä
puolessa
luonnehdi
vastakkain
##pistä
Joan
##ukkaan
Jessi
kouluun
puuttui
soveltu
lajeista
yliopistoissa
Sui
##terna
Sabb
##verkko
Adams
Marco
Stats
arvokka
lehdissä
opettajan
##pects
##tasaa
Denn
Lopu
opti
##koneet
Kuulu
puita
Julian
Parkin
kortti
kansantasa
päättyessä
##bella
##lossa
##grenin
istun
##oitusten
Georges
modernin
käsitteen
tutkimukset
Hoi
Six
##tasan
Lääke
Major
idästä
nimittää
päällikk
radioaktiiv
##tomi
##levyn
##ppaan
Carr
mili
siel
Vegas
Maiden
Shakes
##mielinen
järvien
soittamaan
kasvatetaan
##unas
Boys
Sali
kylien
metron
stipen
tilalla
##oitukseen
Ranskasta
parlamenttiin
kaksinkertainen
##diä
##kosen
##wanin
##kaisen
Jerse
jalat
##ikuntaa
Uuteen
kasvit
itseensä
molemmin
pommikon
##mattomaksi
Kuninkaan
##hyökkäyksen
orgaaninen
politiikkaa
ilo
jao
##ikans
##teneg
##työssä
Globe
Kelly
ammun
Vihreä
muokkaa
tunnusti
niemimaalla
##fv
##pyh
Merc
Olof
##huoneessa
Tuominen
maailmanl
muutoksen
esikoisalbumi
##öistä
Linds
hakea
järky
##kadulla
##oilleen
Joukko
epäilty
mittaan
kentällä
ryhmässä
valtamer
puolalainen
onnettomuuden
Kiss
##teellä
Story
osiin
tuotto
säännöt
##tykseltään
roomalaiset
toistamiseen
##gran
##nous
##stin
##depen
kaan
Reijo
ryhmien
Montreal
kielissä
pyhiinva
säilyneet
kehittämis
puolueiden
tuottamaan
Pei
Wit
##erässä
Linja
Wright
poltto
Colorado
elokuviin
sairastui
##oituu
Roll
bonus
tunti
kiertä
Monissa
itsenäisesti
##tuna
##istuu
##ittia
##varjo
##ttajan
##ttomien
mennyt
suojeli
otteluun
esimerkkinä
##juon
##nami
ill
##uneen
1808
##tajana
katoli
##saaressa
hallita
sodasta
##sche
##tury
##mpina
##vihan
Lord
Vasa
slaa
tuod
Pengu
##televat
uhkasi
##mispiste
##paikaksi
Karjala
nojalla
tarvittiin
eduskuntaan
pääkaupunkise
##lejä
Ful
##siota
##vuosi
##ier
XX
##ishi
##liuo
##nett
##test
##eland
Joel
Rome
terro
säästö
kauppia
modernis
Viimeisen
vuosituhan
kansalaisuuden
##ejä
Led
Mart
Quin
##umassa
Julia
Kuopio
##oikeuksia
maahanmuutta
##vant
Bed
Nami
juokse
suunnan
hopealle
##iem
##piraa
Lucas
kasvis
kalusto
molekyy
##hoitajana
kaupallinen
##eek
##ance
##kkasi
Kamb
Kakkos
kardina
##salueella
kilpailuja
##uz
Pär
##hdoin
##ttivan
kotima
lämpim
jakautui
ajatuksen
uudistuksia
##ske
##haku
##isit
Rep
Rol
Heti
Sweet
trilog
tyyppi
##ttamiseen
tehtäväksi
##etš
pehmeä
näkyvät
Tunisian
kilpaillut
omaelämäker
valmistuksen
##irek
##ukos
##uono
Atlé
Jarmo
Ports
rohke
pitäen
itäisen
kielestä
##phi
##tilta
Tell
Vana
##ikuusta
##rantaan
voimakasta
lopettamaan
##am
##evia
##mont
Econ
kyvy
Theodor
neliökilometrin
jarr
Seneg
puiden
##talaisten
##tnantiksi
lyhyempi
Aleksandri
saavuttaen
vastustaja
yritettiin
moottoripyörä
pohjoisosissa
##ird
##pelit
##potku
##winin
Soft
##neuvos
Prince
putoaa
Unkarissa
muistutti
suunnitell
##gow
Lai
##kammi
##ikolta
tetra
##upalvel
työssä
valuutta
Kolumbian
kongressi
nimisessä
vanhemman
ohjaamassa
tarpeisiin
valtiopäivä
##lea
##hapo
Aun
Kello
Gardin
##politiikka
luovuttiin
seuraavien
##ats
##usol
##uthin
##mmästä
##isimmän
##tiainen
Mitche
asiaan
##tykselle
##pelaajana
##äyttelyssä
ottelussaan
sile
##impään
Kauka
kaivo
taiva
##kouluun
Vaasaan
laajennus
Pakistanin
historiallisen
maailmankaikke
AP
##reuna
##neille
##viesti
karja
Volkswa
toteutu
turkula
katolinen
sairaalan
yksityinen
avioliittoon
##saste
Kump
Paper
Christ
Muhamm
Window
laitto
##ttelusta
pienellä
maailmansotaa
tulevaisuudessa
##sif
##piha
simp
##eminen
käyvät
##armeijan
Leaguen
Stewart
aloitus
kertova
korvata
́
##onyy
##matic
kieh
##mentit
nuorille
väliseen
Albumilta
opetuksen
maatalouden
##radi
Kennedy
maakaas
Tuotanto
##vö
##lah
##ehkö
Eas
Syö
Baby
Gand
Teks
##koston
##tenkin
##istelun
täyttää
erillistä
taidemuseo
##järjestyksessä
##odi
##arth
Kilp
tark
##huolto
Canadian
tieteellinen
##fori
##vältä
Ship
partio
##mättömyy
##tinental
Anttila
asennettu
Ukrainassa
Vei
son
Paci
Pete
##kartat
avattu
Porissa
viihtyy
konsernin
työntekijä
##ido
##donna
##yysin
Copa
Allan
Arnold
Armeija
kaltainen
##oph
##wald
##äärin
Ehdo
##ttiläs
hauto
linea
##issynty
Kuning
hyötyä
puusta
kuverne
tšekkilä
pääsarjan
Jalkapallo
AN
Gos
fer
Fron
Lain
kalus
sääty
kentän
Kristin
aamulla
runsaat
tyttöjen
sisarensa
juutalaiset
##dale
Aleksi
muussa
yrittäjä
filosofia
telakalta
##tolan
Odys
Scho
Tapa
puhje
##itteessa
vaiheen
Columbia
sisällön
miljardin
voittamalla
ts
Get
Lovi
##loissa
##mmankin
kohosi
##muksensa
jäsenen
surmasi
kuvaukset
diplomaatt
avauskokoonpan
neur
##imento
##albumia
havaitta
pohjalla
sijoittaa
minuutissa
aiheuttanut
arkkitehtuurin
historioitsija
##cz
Hitch
kauka
##fieldin
##urheili
saatua
##kaupassa
Library
roolinsa
ystävien
menettivät
tavallinen
Afganistanin
##lio
##nelma
More
höyr
##kampan
Sydne
elina
poliiti
Koreassa
suljettu
vastaamaan
tapahtumiin
##yvyys
##ääntö
Slam
rinn
varj
tahto
sähköä
##rykmentti
luonteen
vapautti
ruotsiksi
Minna
hyökätä
harrastaa
esiintyminen
##goo
pani
sket
Kenttä
kierros
pystyvät
##tuotteiden
Lex
Pak
##ssari
kovaa
Neitsyt
alkaneen
lyhyeksi
asevoimien
kysymyksiä
karkotettiin
organisaatiossa
##ull
Tet
Bach
oven
Linda
bändin
jousta
syrjäy
toimien
Carolina
##say
##etoi
##hamm
##inskin
##ittejä
##ytyvät
Shakespe
puuvilla
Ind
Part
##hamina
mänty
Herbert
Memorial
viimeisin
eräänlainen
toimitettiin
μ
aal
kive
omin
Elite
Niska
Loppuo
Luther
Phoenix
pohjana
ravinno
kiinnosta
##viaan
##astoon
Eriko
Steel
Tiede
##kkuuden
##oponnes
##yysikko
Parker
ryhmää
Ullmann
##ettavaksi
pienessä
Teatterin
##hui
##mosta
Eeva
huuto
kiihd
potilaan
joukkonsa
noudattaa
rannoilla
Indonesian
##CS
##cre
##bran
Winter
koskee
mustaa
rummut
punaisen
toimittaa
päätöksellä
##ohi
nah
##kuntar
##llivan
kaasu
konta
varjo
##ottelut
levyttä
saapunut
kierrosta
muuttuvat
puoluetta
##ummi
##kunto
Juuri
Koira
eloon
etukä
putki
Fantasy
##neuvoston
puolueeseen
seitsemästä
##tsee
##muutos
Kaiken
##oitukset
##tettaisiin
Venetsian
lentokenttä
polttoaineen
professoriksi
syöttöpisteen
vs
spe
Talv
##deissa
Cooper
suhtee
Abraham
muutamassa
kilpailusta
CIA
Suk
taha
apuna
herra
nauha
psykiat
Michigan
tehtyään
listaykkö
Williamsin
kunnioitta
##tkä
##elie
##keet
##toni
1846
Fall
hill
Paavi
Kappaleesta
##osuu
Lun
Laiva
##vedellä
hellen
##valvonta
dinosaur
hedelmiä
aluksella
suunnittelun
##blan
##gner
##himo
Jeh
noi
Sari
Take
Queens
Winnipe
jatkanut
komentajan
Britanniaan
osakilpailu
yhteyksissä
korkeakoulussa
##had
##imuo
##kats
Sue
Stur
##isimmat
##perheen
hyppää
kylmän
germaan
etelästä
kaudelta
kaupungeista
##järjestelmässä
Gh
##html
##oten
##ääni
1847
Laps
nosto
vetää
Modern
kannus
##tuurissa
uusittiin
mand
##ikkeet
##vuotta
lyhyta
murska
toivoi
komensi
asemasta
asuntoja
matkailu
käsityksen
Saksalaiset
kapteeniksi
tehtävistään
Uud
Wahl
ohut
annos
sukunimi
useammin
Jacksonin
ratkaista
alankomaalainen
##kah
##mid
Pö
##leri
bet
René
marx
play
##miinsa
##töissä
paimen
sultta
kenties
Kuoleman
nimipäivä
tavoitteen
##dehy
Pah
jur
Kruun
todistaa
Moskovaan
tutkimusa
TUL
ori
##kykyä
##lleria
sekin
pääsiä
ilmassa
taistelut
ulkopuolelta
##zia
Ain
Cong
lenn
Joita
hahmoa
kukkii
Suomelle
eroamaan
sairastu
matkustaa
##sul
##laul
280
##ellow
Leop
visi
Iisal
järveä
bakteer
kuvasta
##uudestaan
vapaaksi
korkealla
##TC
##pea
##disk
Loppu
kultti
merkit
vankila
vallassa
kriitikoilta
##isän
##vauri
Tauno
kesto
##kkoihin
##komitea
Maurice
Charlotte
painopiste
##bok
##loa
Osc
##teisiä
##ttäjän
Kings
Vienan
linnut
tran
##ytyivät
läntis
nuorta
Toiminta
asemalla
radiossa
vihollis
Toisinaan
tappioita
määritelmä
vastasivat
suurlähetys
##ál
WTA
##istia
##murha
Domin
juoma
##opeuden
##laskussa
Vastaavasti
opiskelijaa
##kirjallisuuden
Ō
##imia
Octa
tuulen
##museossa
röntgen
ongelmien
vihollisia
##xt
Kl
##ylle
Kiel
Pell
Ulla
milla
##sanomat
People
sattui
maininta
ulkonäkö
yhtenäinen
loppuvuodesta
pudotuspeleihin
valtaistuimelle
MO
Inf
##kkuja
Ilman
malti
osista
tiheys
katalyy
Erityisen
kuudennen
ympäriajossa
ab
Kit
Oja
uro
##agogi
Gamb
Mate
Laaks
Clevel
Werner
tarjoi
taudin
ajoissa
paikkoja
kansannous
italialaisen
##rell
los
##imiin
##istri
##koksi
##virhe
Lock
jaar
lauh
Diego
##innista
Viimeksi
tuhannen
Tunnetuin
##gens
##pien
Tos
Posti
Scien
asuva
##ikunnat
##isilleen
Someron
cupissa
Toiseksi
edustajaa
##teollisuudessa
##ła
kin
obs
Chie
majoi
##ikorkea
laajalle
kohtaavat
rehtorina
seuratasolla
osallistumaan
Peri
German
etapin
Jokinen
Sydneyn
varmisti
avaruusal
keskeyttämään
##gal
qu
##varo
##alaji
##grafi
##jillä
Gonz
##estoista
Timesin
konflik
menevät
huipulle
korkeita
paperite
festivaaleilla
##95
##AL
##jissa
Lenn
anka
liia
Ainoa
mykkä
tuhon
Ryhmän
perimä
muslimi
muualta
puhuvat
klassikko
##itter
##pakka
##trong
Ahti
Edin
Hipp
hell
patr
beton
muutt
syven
analys
meksiko
varasta
##uunnittel
##85
vr
Syynä
Platon
##äyttelijä
irtisano
puoliksi
luokiteltiin
debyyttialbumi
kansainvälisten
##ual
##gorit
opera
##tteistä
Monien
muilta
Palesti
muuttua
kotipaikka
##lag
##leita
##ovitš
maku
henge
kamera
Guinean
##isemmaksi
Augustin
rajoittaa
##nar
Mount
##kaudessa
##oimintaa
Karibian
albumista
kevääseen
pakenivat
haastattel
valloittivat
##unaa
132
virk
kylläs
kuudessa
loputtua
saatossa
tapahtua
suoritetaan
##rac
##ksel
##ilussa
tuonut
##isteista
valioli
asioihin
dosentti
urheilija
samanniminen
##kasen
##ttona
draa
##ttaisiin
Central
romahti
sotilaan
mahdollisia
Yhdistyneiden
##gger
Oman
##jeissa
epätasa
aikaansa
laajentaa
##esar
1851
##ittoja
Provin
hidasta
kuntiin
saarelta
välisessä
kiinnostusta
työntekijöiden
##cl
Pus
Chin
uhra
##reistä
##tettyjä
pakolais
kehittivät
##wick
##timen
##ilding
muovi
kesänä
osapuoli
Hämeenlinnassa
Nuu
##unaan
##pelien
lennä
##ryhmään
haitta
järveen
alaisena
tuloksen
valitsija
yhtyeissä
mustavalko
##tent
##valen
loog
sens
Piste
Sarjaa
Filosof
koostuva
panttivan
Frei
Tona
Barry
Jonas
Paras
##uliiton
Tarton
alkoho
silmän
pääosaa
urheilua
liigaottelua
##tric
Ene
Rauh
lyön
naara
resta
pojasta
Petsamon
kutsutun
sosiaalisen
##lei
##evää
##klaa
##llot
CAS
Oth
mol
##chtin
##iskon
Dire
prop
##tähden
äänestys
materiaalin
##zho
##dens
Yan
Arab
roko
Larry
Liiga
hepre
Osasto
kahvil
metyyli
virasto
##mestarina
##yliopisto
asemalle
kuullaan
filosofiaa
PM
##ikea
##linn
##velvo
##ttisessa
Georgia
Tarinan
vartalo
luutnantti
##kto
Oba
##ilejä
##tytär
##uunta
Gall
##wardin
Monro
yksikön
hallitsijan
itsehallinto
äänestyksessä
Sih
matri
Andrea
viinin
havaita
sitoutu
instituutti
kihlakunnan
puoliväliin
vastaanotti
##RS
Tup
not
##insin
##uksin
Katri
enkeli
##aikainen
##ttelivat
haittaa
useampi
ilmaista
murhasta
vaurioitui
RN
aineet
massiiv
edustaen
puolustaa
##chs
Bod
##cover
##karva
##kilan
Neva
##kannan
##tiolla
kuoron
sijais
täytyi
bensiin
ymmärtä
kokemusta
taistelivat
##45
##gard
##määri
tuor
asuma
##tykistö
Amerikk
Saharan
akvaari
moottoria
tekniikkaa
Neuvostoliittoa
850
talle
##vuosien
vieläkin
varapresiden
##yde
PK
##olis
##sivuo
##ttajien
Elämän
Georgi
näennä
tuntee
juontaa
Harrison
soveltuu
##pyy
##mona
##olaa
Swa
##jouko
##taloja
##alisesta
Jonesin
Raymond
välisiä
som
stere
Marsin
sielun
valtava
tekemässä
käyttäneet
tasaisesti
rakennetaan
fir
Benz
pahe
Ohjaa
##sihteeri
pitkällä
viittaus
IG
##oire
Nür
Vig
##kilönä
lisän
pitki
Lohjan
##ysanttila
johtajat
suojella
prefektuuri
##kyvy
Eks
Jupite
Victori
eräässä
Hurrican
etukäteen
tuottivat
saavuttivat
arkeologinen
harjoitetaan
##house
Engl
Oikeuden
Viimeiset
vakiintui
##ymp
##kkan
##opis
##pula
##porta
##tyttö
Dean
itiö
siuna
Malmin
Toyota
matkaansa
Argentiina
Australiaan
laukaistiin
##37
##a
##i
##n
##t
##e
##s
##l
##o
##u
##k
##ä
##r
##m
##v
##j
##p
##h
##y
##.
##d
##,
##1
##0
##ö
##S
##-
##2
##g
##9
##"
##K
##M
##c
##H
##T
##A
##P
##b
##L
##V
##8
##f
##5
##3
##R
##4
##7
##E
##6
##B
##)
##(
##C
##N
##J
##I
##:
##w
##D
##F
##G
##O
##–
##/
##Y
##W
##z
##U
##”
##x
##é
##š
##'
##Z
##;
##_
##q
##’
##&
##=
##%
##X
##á
##+
##Q
##ü
##ó
##í
##?
##å
##Ä
##ō
##ž
##!
##è
##°
##Š
##Ö
##ø
##ć
##Å
##]
##−
##[
##ú
##ū
##×
##č
##ç
##É
##æ
##ñ
###
##ë
##|
##ā
##ã
##õ
##ł
##а
##“
##ô
##о
##ý
##à
##â
##—
##и
##§
##*
##Á
##е
##Ž
##ï
##ß
##>
##ă
##α
##р
##н
##ð
##ń
##<
##́
##ı
##ê
##с
##μ
##ē
##к
##ř
##в
##ş
##л
##ī
##т
##Ō
##ș
##ě
##·
##Č
##ə
##€
##~
##$
##′
##î
##β
##ğ
##Đ
##ė
##ì
##Ø
##ο
##‘
##⁄
##д
##Ü
##Ó
##м
##ś
##ò
##•
##у
##й
##ő
##→
##ν
##ρ
##ا
##ę
##û
##ς
##я
##đ
##г
##@
