[PAD]
[unused0]
[unused1]
[unused2]
[unused3]
[unused4]
[unused5]
[unused6]
[unused7]
[unused8]
[unused9]
[unused10]
[unused11]
[unused12]
[unused13]
[unused14]
[unused15]
[unused16]
[unused17]
[unused18]
[unused19]
[unused20]
[unused21]
[unused22]
[unused23]
[unused24]
[unused25]
[unused26]
[unused27]
[unused28]
[unused29]
[unused30]
[unused31]
[unused32]
[unused33]
[unused34]
[unused35]
[unused36]
[unused37]
[unused38]
[unused39]
[unused40]
[unused41]
[unused42]
[unused43]
[unused44]
[unused45]
[unused46]
[unused47]
[unused48]
[unused49]
[unused50]
[unused51]
[unused52]
[unused53]
[unused54]
[unused55]
[unused56]
[unused57]
[unused58]
[unused59]
[unused60]
[unused61]
[unused62]
[unused63]
[unused64]
[unused65]
[unused66]
[unused67]
[unused68]
[unused69]
[unused70]
[unused71]
[unused72]
[unused73]
[unused74]
[unused75]
[unused76]
[unused77]
[unused78]
[unused79]
[unused80]
[unused81]
[unused82]
[unused83]
[unused84]
[unused85]
[unused86]
[unused87]
[unused88]
[unused89]
[unused90]
[unused91]
[unused92]
[unused93]
[unused94]
[unused95]
[unused96]
[unused97]
[unused98]
[unused99]
[UNK]
[CLS]
[SEP]
[MASK]
##en
##in
##ta
##is
##an
.
k
j
##ll
##on
##sa
##si
##tt
,
v
m
##al
##te
p
s
##es
##tu
##er
##ti
##as
##li
ja
o
##ka
##uu
##än
##oi
##uo
##el
l
##ar
h
##tä
##ik
1
##va
##to
-
##us
S
##un
on
##ma
##ja
n
##et
##ki
"
##lla
##ri
##ty
e
##os
##ks
##tti
##een
K
##tta
##ra
##ksi
##il
2
M
jo
a
H
T
ta
##ko
y
##mi
##ää
##den
##ul
A
##aa
##sä
##inen
P
19
##ista
ka
##lle
##vat
V
##or
sa
L
tu
20
##ei
oli
##mm
##ir
##ut
##le
si
##na
##it
##ke
##la
##isi
al
mu
##yö
##isen
##issa
##ku
R
##vi
##de
ko
##assa
E
##ttä
##op
se
B
##vä
)
(
r
##uon
##llä
##pa
J
##ur
N
##hd
va
##im
##kin
##he
te
##ne
C
##ala
##asta
##ttiin
##ten
hän
##man
##kä
##mp
##ttu
:
##ys
##uonna
ma
myö
vuo
##kuu
##essa
##ana
jä
kä
##ol
##llis
##mä
##ia
##ssa
I
##ksen
##ina
##mis
##jo
en
##jä
t
ku
ra
##esta
##pp
vi
##yn
201
##uk
val
G
##men
##ha
la
D
200
vuonna
myös
##taan
##tel
F
kan
##re
##tus
##ro
##se
to
O
pää
yh
–
##up
##ih
##iv
pi
per
voi
##uun
##usta
##uv
##ken
joka
##kaan
##eh
##jan
Hän
ei
##lo
##yt
##äh
##uh
Y
##min
##oin
##maan
##ossa
li
##istä
##sin
##jen
##eli
##itt
toi
as
##vät
##esti
er
##om
##oh
##van
el
##teen
##joi
##iin
W
ha
pa
ti
##ön
##ise
##ään
##ton
##ita
esi
kes
##aan
##essä
##utu
##rin
kun
ovat
##kun
tai
##mmä
3
kir
##kuuta
/
suo
##di
##ee
##tin
Ka
##isä
tä
##yy
##issä
##00
Suo
##taa
saa
##lu
##mer
käy
##tettiin
vä
##isto
kuu
ty
mutta
##ie
##ura
##lan
”
Sa
##itä
##utta
että
##ch
##ky
sekä
##tan
##ttel
##kon
##iste
U
##rj
ar
##val
##iden
##tö
##yh
##ev
maa
##kka
##keen
##iksi
18
osa
##ing
##iset
f
##koi
##tty
pel
##ni
##ran
##ika
##simmä
jäl
sen
alu
##isia
Se
##od
nä
##estä
199
##isti
##ssä
ole
##upun
var
##stä
##kan
muu
##ien
il
pal
##nut
##uks
##maa
##tyi
suu
##itse
##lä
##nan
##ve
##isten
us
ker
##me
##at
##ud
##osta
4
jul
an
##mmin
5
puo
##gin
luv
##istu
uu
kanssa
##män
jälkeen
vasta
toimi
##ussa
##pi
##ho
läh
ki
##iten
##ime
##hin
ensimmä
##mo
tar
##hta
La
b
##tka
Ma
tun
##ed
ni
##uksen
##oli
##sen
##tään
so
par
##lli
##ikka
jon
##uus
perus
##oku
sija
##tto
##ua
##isesti
##ili
lop
##kki
##eita
##ikki
##ot
mi
##ali
##kko
tuo
yli
##etta
##da
sai
kol
##um
##tiin
##inn
##ttaa
##ari
##ulla
##isin
##ter
198
aik
##tion
##lleen
##ein
kul
kor
hy
##so
##ea
##asti
julka
mukaan
##per
Ta
##vin
##usi
##uden
##ven
6
Vuonna
##tui
##tys
##ui
eri
kuiten
raken
kil
jonka
seura
##mista
##llut
##toi
sy
mer
Al
##mat
kaupun
##sia
##kuussa
##hdys
lä
##kk
##puo
d
An
##vaa
##ans
##ulu
muo
jossa
Suomen
luo
##pä
##din
##og
197
En
hänen
##ic
##pan
##ukku
7
vuoden
kut
##ula
##hti
Ra
##ell
siir
##ig
ky
##vel
yksi
teh
##kil
##ila
##ike
##tettu
lu
##ksia
ed
##kseen
##ian
##voi
##rä
Mar
##rjes
##minen
van
Ne
##nen
kuin
##hdo
noin
##mpi
Tä
Vi
##ale
##malla
##ria
Ro
men
muun
8
##je
tie
olivat
eloku
na
##ttää
kas
##tio
oh
##ttö
##ber
##isiin
##han
##iko
ver
yhte
kuitenkin
196
##lin
os
##pail
##mia
##jaa
##ella
kuo
tuli
##ude
met
##vo
eli
##eiden
maail
##jän
##är
op
9
##mään
Hel
Ha
##jana
##tr
työ
##yky
##alainen
##una
##ano
c
##jel
##misen
muassa
##isuu
##ino
##ikä
keh
in
##uro
##riä
ro
syn
Pa
##kaa
##alta
kaksi
##eet
##enä
##isäksi
##tyy
aikana
##oita
ol
sisä
ollut
mon
koko
##ker
##bu
##massa
##tie
##ts
##id
ne
##ann
##valta
Ar
Suom
sijaitse
194
##ohjo
##sina
suun
##tun
##lloin
##eksi
##kir
##kus
In
##ara
kos
##tuu
17
tapa
##asi
##tää
##yr
no
To
##sta
kon
##uko
##ver
##ren
ve
##tyn
##iseen
puol
##son
##llinen
##elä
toimin
##merk
##do
yhd
##ansa
##elle
##tki
##osa
##ck
Ja
jotka
tunne
##uuta
##tia
##alis
ul
näy
##ille
vain
nim
##kö
195
po
lev
hen
##tuksen
maailman
##nin
kuulu
he
##pu
15
Yhdys
##jat
Vuo
##ksa
The
##hemmin
Jo
ih
193
##oitti
pit
valmis
sä
##ellä
kapp
##desta
Helsin
##elta
10
g
huo
kansa
liitt
##isiä
is
teki
har
##llo
muod
elä
##vän
##eseen
las
de
##kea
mää
12
Ko
ai
##uta
##asto
##kas
laa
yhty
käsi
pien
##merkiksi
##lainen
##alais
pä
##tte
Ch
##uto
nel
##llisesti
##ikan
##000
of
##ito
##jär
esiin
##ros
lo
##po
16
hei
##telä
##ine
Va
##llisen
##via
ilm
##istel
##istö
##alu
vaik
##nus
väli
##tusta
##mien
mar
nime
luvun
##ohjois
##llin
##iseksi
##var
##llan
kuten
suom
##tuks
tutki
##ce
ase
kar
yle
kirjoi
##tien
nyky
##erin
192
sar
##daan
joh
merki
##öy
Sen
##eella
##neet
##ihin
##th
##ikk
##ase
##no
##ikko
nimi
luvulla
ri
##utui
##non
##uot
##ga
##mon
jat
##vu
##oiden
191
##mmen
##ite
##oon
##las
##llaan
##ist
vir
##tteli
11
##ek
lähe
##ras
##eltä
##ukkue
kuul
##tar
kah
vastaan
##inä
##isa
käyte
##odan
kaikki
##mma
000
kesä
##vien
##ento
##ttuu
voitti
##ard
##sti
##osto
##ope
##oo
##ksan
alku
##llisuu
##mää
##ge
##kia
##uroop
Na
##ip
Suomessa
seuraa
aika
su
'
##oitta
##tila
tarkoi
järjes
##der
##ill
Le
yliop
sijoi
esimerkiksi
le
hel
##ron
##elin
yri
ottel
##yi
maan
yl
jää
##lta
sel
myöhemmin
##illa
ään
Myö
##kunta
Co
##ssi
ke
##iken
ennen
##miseen
##san
lisäksi
##toa
##kunnan
##use
kirja
pro
##gen
##matta
poi
hyö
14
##inta
sitä
##isty
puh
tur
##ulta
Kun
jolloin
ensimmäisen
##ry
##eri
pelaa
##kana
valta
nuo
vaih
jäsen
Si
teo
alkoi
##kilö
13
itse
##udella
##jon
vuosina
##ini
musi
Hänen
mahdo
tapah
Ba
Joh
##hi
hänet
kilpail
Li
Kar
ede
##raa
ala
So
Z
##lella
##ff
##oilla
niin
pala
w
hä
##nö
Re
##nä
run
ymp
##su
sijaitsee
##alan
sillä
löy
##kuun
##estar
johta
2010
oike
##ba
##olog
##opim
##ttua
min
##itsi
kolme
##tyks
tule
kaupungin
##änyt
##tal
Euroop
Tur
##gi
##omet
kiin
ur
ulko
##mik
He
voidaan
##jaksi
et
0
##kes
##alin
Da
##bo
luon
##iä
##joon
##ukko
viime
Venä
##kke
suur
##era
##ikin
keski
ensimmäinen
##mman
Bri
väl
Lo
pys
;
pitkä
##eensä
kuva
poli
suuri
eivät
##kkä
##miin
##yd
##oihin
san
##llista
ero
##tee
Mon
osallis
2009
epä
##tynyt
Nä
##laa
hyvin
##visi
##anta
kehi
neljä
##pe
##dessa
##mmik
Kir
##istiin
##johta
2007
##einä
muodos
mil
##vuo
##ttävä
the
2008
väh
##tis
2014
ajan
or
##viä
##pin
##ttia
albu
histo
2011
##glan
Val
##toja
##yl
siirtyi
hal
av
##tse
Kes
##yys
##don
##kee
pelasi
##dän
##pää
hall
##tiö
##io
##kti
##ug
saman
##met
##ulun
Ho
Per
jota
##tyksen
käyttö
’
vuosi
vaa
vuotta
##mei
Pe
aihe
pu
##järjes
perin
##kel
Ca
talo
##valla
vielä
New
olla
Rans
##lais
Helsingin
kier
taistel
##paa
kunn
syys
##tor
2012
##mus
##jien
##tetaan
ryh
hi
##ttui
jal
##sar
##dan
Mo
usein
##iston
##vassa
##gan
henkilö
me
koh
Nor
kilomet
##dio
Te
aina
edusta
##väl
Es
siitä
##menta
##uvosto
kautta
##perä
lin
##co
##onin
##for
saar
alue
##ilta
rakenne
##uhti
##uksia
koska
län
pide
##mmat
vali
2006
##vasti
kappal
##gel
2013
Har
##toon
##ca
ihmis
25
##est
olisi
piir
Is
##puol
sisäl
##nitt
&
##ukka
##yttä
##kset
tyy
##iri
julkaistiin
##sio
30
##eilla
2015
elokuva
kuuluu
##iso
paika
tämän
##llen
##kiel
##eitä
##uri
etelä
mieh
erity
##itattu
##kul
re
##von
it
De
##ue
##mpia
alueella
mukana
2016
_
##uttaa
##tua
##rik
##uka
käyt
aloitti
##and
vah
saan
##iva
##alaisen
loka
kaupunki
tul
opis
maalis
##iton
olevan
tammik
##pal
jos
##tojen
joulu
kauden
vuoksi
##yyn
##jia
##tunut
##puolella
lento
##jaan
##tetty
##res
##isessa
##ttp
##kusta
##enn
aja
Bo
##uksessa
##teli
touko
##uuden
taka
hyvä
##arin
heinä
%
elo
##oa
##ivä
##keli
Ensimmä
määrä
##siin
Pohjois
Par
##isella
##kos
yhteis
##her
Ga
Car
##ji
##mb
##ppi
yhdys
yliopisto
##ang
perusta
i
mo
##nistu
ä
levy
Me
##mmi
190
ilma
huhti
##änä
##tali
##utti
##isessä
marras
vas
Ber
leh
tehtä
sano
liik
##ele
##isena
##oja
käyttä
Elo
mikä
##eihin
##tter
miljoon
muuta
laiv
tal
metriä
##lue
peli
useita
ter
##mmän
##telmä
2017
2005
Lisäksi
2000
itä
helmik
##kaupun
##ttanut
auto
##ser
työs
##esin
##ris
vuodesta
##talo
Ni
##masta
tava
yhteen
halli
##ksiin
##ly
##tele
jär
ohjel
##ksin
josta
yleensä
puoli
##iti
joista
lap
suh
her
uude
keskus
Vuoden
kiel
##por
##llisuus
##kilpail
kerto
tila
##uuri
##ojen
##län
ent
ilmes
##miä
päiv
käytetään
##ottel
yhtye
Myös
parha
##ör
##tetta
##tra
pohjois
kappale
##sy
For
kaa
pre
armei
##dä
eikä
suosi
##nassa
palvel
lähes
##mar
##ministe
##joen
##siden
joukkue
##uma
Kor
oma
21
lyh
##tori
##mistä
tuotan
##und
##wa
II
##neksi
lopp
alussa
##ela
##go
##pall
pros
yhtyeen
Etelä
työsken
No
Ki
Po
and
##risti
##vana
kokon
2004
kys
Viitattu
Yh
Itä
Por
##ttom
##teri
##isissa
##uussa
Seura
tär
nousi
As
syntyi
##ttaja
kuole
##sivat
nimellä
Ruot
John
jäi
yhdysvalta
##kar
##alaisten
suomalainen
jalka
asi
poh
piste
##ttori
##ene
22
kolm
täy
##ihen
http
Lin
##inväl
24
suori
Tämä
##ukset
mestar
Jos
paljon
##det
puu
##isyy
##kirjoi
alueen
##uja
aino
Amer
##of
##rjassa
tieto
Th
tapahtu
##rian
yhdessä
joukku
Kon
for
##össä
##osti
##mies
niiden
kat
##alaiset
##vää
tasa
kuning
mm
Van
luku
asti
##uissa
##itto
##ile
##uran
##ksiä
Yhdysvalta
koti
##istaan
kulttuu
##uli
vapa
##järven
asu
##ily
Vir
kal
##ona
erila
##ksy
sopim
musiikki
suunni
##ub
kertaa
mat
##etti
##ukseen
itsen
Un
ken
teke
##ikun
##isar
##tten
tehd
##lly
23
##kuva
vaan
kään
palkin
syö
suurin
han
aie
##vasta
##hden
toinen
alka
näytteli
menes
##mana
joita
pol
kuului
Ke
opp
joukko
tied
korke
toisen
##ess
##tsi
##iselle
Ge
kerran
ehdo
##hy
##oitu
joiden
1990
Mi
suunnitt
kutsu
Fran
##urin
uusi
ava
Saksa
Yhdysvaltain
##hei
Ri
##eena
2018
Her
kymmen
ww
##keä
tote
kasva
kirkko
Britan
www
yhden
kahde
##hen
myy
Fa
##isellä
##aston
kuoli
saanut
##oike
##inin
##misesta
##ani
##tur
##kei
Ed
Lu
sarja
##raken
189
Ve
ympär
alle
Jär
suku
##alia
##joukkue
##onen
siv
mur
miel
=
Sch
##tystä
tele
##laisen
##jasta
##kien
##kkin
julkaisi
Neuvosto
##tuo
rakenn
Var
fi
##len
Af
##ju
joissa
kehitt
arv
käyttää
vaikka
saksa
##my
##kauden
kau
toimii
Vä
Pi
##ihe
sota
edus
1980
tuho
27
Ale
##berg
liitty
##mina
joutui
lähtien
##teo
koul
##tit
Yor
Euroopan
Bar
onnistu
Venäjän
vastaa
##jassa
##ds
Nyky
##kiin
##aika
kansan
kilometriä
Tämän
lopulta
##oni
##ru
Saksan
##ilija
vuoteen
##essaan
##lliset
avulla
##bi
28
##kkaa
##ers
San
MM
kaudella
liig
ruo
##ikkaa
##peli
##ivi
välillä
##isille
Sal
##ttain
jopa
maaliskuuta
##meen
##mällä
##haa
26
keske
X
##eille
sei
2003
##hol
lis
##ystä
##mieh
rii
siihen
alkuperä
soti
presiden
Oy
##tön
Q
aikaan
##teet
edelleen
kär
##tuus
jolla
televisi
Hen
kaik
##isesta
osallistui
esiinty
##kään
uuden
di
##par
Mu
vesi
valittiin
nope
ene
##unut
pur
##har
Ku
huhtikuuta
##ikon
laske
pan
tulee
syyskuuta
toukokuuta
lokakuuta
tammikuuta
vel
##tut
##mper
##llisia
kolman
nuor
kansainväl
##ota
##lleet
prosen
Il
amma
Hä
perusti
kuitenkaan
Ste
Itali
##ci
##änsä
##vaan
Yhdysva
yleis
metsä
##öl
##utuu
sää
kesäkuuta
opiskeli
1970
perustettiin
##HL
Man
##heil
sil
heidän
vuotia
takaisin
##itti
##vissa
nimen
lisä
sin
##imen
Kos
koulu
tunnetaan
##kunna
##ms
Kol
Wa
##miseksi
##lueen
taas
2001
##missa
##yty
arvi
##uni
##eelle
Neuvostoli
Kaupun
ran
heinäkuuta
helmikuuta
##onsa
##kkö
Pro
##rien
perä
julkaistu
palasi
erityisesti
##sodan
rauta
kuningas
saakka
voima
ensi
Yhdysvallo
##ht
uudelleen
julk
##isenä
joulukuuta
kap
##dy
##pel
com
2002
##vir
oly
vara
##dia
pois
##ttele
sing
Os
muiden
##hmo
katso
uh
sävel
Britanni
##sien
##mu
##ähkö
##mula
Sar
elokuuta
syy
##työ
marraskuuta
arvo
##nettiin
##kor
valmista
Mer
On
kanna
##rit
##teki
Maa
188
##ger
muita
aa
Je
Tuo
sol
##tiiv
piti
+
eaa
lää
korkea
valmistui
29
Pal
1960
vaati
tode
Suu
tulo
miljoonaa
##kirja
es
seitse
viisi
Englan
##gissa
Ranskan
##ppa
albumi
vanhe
yhde
huon
##tos
##ineen
omista
##viin
hyökkä
##ttyä
##kohta
ohjaa
##estaan
##illä
sarjan
50
##tsa
##ttilä
##vaksi
##jö
julkais
Yhdysvalloissa
työn
Puo
Japan
koi
pyr
##ttivät
El
matka
Alus
##teiden
johon
##nyt
##ynyt
##sk
elin
Lon
##fi
##yri
##teh
##ettiin
2019
kylä
##laisten
Seuraa
mitä
sitten
Tamper
Do
100
##nissa
kohd
##nessä
use
peruste
järj
##uppa
saavu
##ustan
tek
##astaan
##järvi
fil
pääsi
##nos
##pen
##määrä
vaiku
ympä
##ttuna
##isuus
sodan
samalla
asuk
vira
vapaa
ho
kirkon
ap
##unta
##ttyi
uskon
neljän
##inaan
käyttöön
##eenjohta
Con
##ttien
##ttor
##be
mel
Sta
kri
englan
##tiön
##ppu
häntä
takia
##tetään
hoi
harjoi
Esi
Er
mies
##ministeri
##neen
##imp
##tansa
##isuuden
hie
saap
ilman
valko
kahden
##olin
##llisten
##anin
määri
##lija
##esi
länsi
##uutta
##kra
##laiset
##muo
##vis
##vallan
##ttämä
Hänet
##teis
##hoi
otti
muutti
##vista
##llisuuden
myötä
##bert
selvi
##mansa
##nia
##uksi
yhteyd
moo
##ksessa
##umer
joten
##ket
kana
##aren
##eeksi
tarjo
Myöhemmin
myön
suure
pitä
arvos
tehty
ruot
minkä
merkittä
puna
##llään
##jal
bri
##ksella
##les
##bumi
##mpö
##sky
##olo
##tes
synty
35
1999
##isista
tan
rans
historia
##uha
##teell
Ter
itsenä
nous
##kku
##kansa
##toista
##vil
koos
Pää
##oille
##lö
##eja
hava
missä
Ruotsin
##gia
##pallo
##imo
mene
pela
##hä
##kasta
otta
##hte
##ins
neli
##osof
##alla
alkaen
Kansa
Ky
tuomi
##ttänyt
Län
40
usko
##ivisi
sijoittui
Be
vii
##aria
##ustus
##bur
mole
eriko
##uksena
##MS
aiemmin
kyl
##raan
enemmän
pian
konser
lista
tunnetu
##zz
##ss
pinta
##opp
vallan
sähkö
pitää
##usa
Tal
kev
enää
hallin
187
1998
siirre
kansallis
31
kunin
##ivan
Yle
##kassa
elokuvan
ympäri
##eloku
yhteydessä
varten
##iver
yhtä
##ny
johti
venä
toiminut
##jät
jälleen
Bra
##ret
Tar
arkki
näh
tämä
186
ystä
avi
yhteensä
##voin
##koko
taa
##yvä
##mes
##kal
vie
suunnitel
valtion
Or
niitä
Ver
##rop
Kuo
etu
nor
alun
##ire
Tor
##mpaa
ruu
##osen
##gon
##tanut
##jalla
Kana
por
yhtiö
oman
viera
##ssin
kertoo
do
mitta
jatkoi
yllä
##ikenne
##tea
laj
Geor
ajoi
Fre
tilan
##kerta
laula
ylä
##ustr
tuotanto
eten
##kot
sul
##ttuja
muodosta
##tic
len
##oittaa
St
kunnes
##osassa
##luo
##ttäin
tuotta
Espan
##riin
liittyi
prosenttia
Venäjä
##istön
kilpa
pain
##alaisia
##qu
##yhtiö
##aatio
##isestä
##ph
Kiin
lähellä
##uksesta
teho
toiminta
kirjoitti
tunn
Will
##osin
kokona
##uda
York
##alue
Bro
##inno
Pari
taide
anta
rakennus
##mmun
##delta
##yyli
##teria
##nalla
##jas
##isilla
1997
Turun
siellä
##ose
ir
##ujen
Mc
esiintyi
Go
Mor
Yhty
##kso
##ktiiv
##laisia
olleet
##za
##ppo
##mentti
##terin
##land
##ksesta
##cor
poliitt
##ttuaan
HMS
##suo
##mpa
paik
##lliseen
huomatta
ohja
muut
##sion
kuusi
suomen
tutkimus
##ena
prof
rann
ras
##tenä
muka
Gu
lähti
kohta
tea
lei
vil
esiintyy
tavoi
##kkää
Leh
Kä
pyö
rakenta
Alu
##kein
1994
##ya
kirjoitta
##ännö
Ruo
yhteisty
##uilla
Ben
SM
##ner
##llik
Kan
puheenjohta
runsa
##ity
sata
##rea
##yp
voivat
lyhy
##udo
##uku
Mic
sur
joukkueen
##estö
pyrki
1995
Pel
Ab
päivä
1996
alus
saira
antoi
laajen
##hän
luonnon
seitsemän
Ad
Pie
##mpien
kahd
##lia
yksity
##ero
##ety
##kymmen
1950
rakennettiin
##ment
##ley
tutkim
##tol
lopulla
##ulle
##yhd
##ttoa
##sal
##mässä
Eri
##tian
Yhd
vuodelta
##rei
##one
##matto
##yssä
##innä
toiseksi
##ltä
maini
un
Jä
##che
##asiassa
Helsinki
##mme
##jää
##jänä
##vy
##ensa
sään
formula
järjestä
rea
##useo
##tri
##ynn
##tukseen
ongel
tehtiin
uransa
juo
albumin
##lelle
##pol
venälä
1992
metrin
tiede
##yk
kuvaa
saavutti
Ä
Yo
##kone
liitto
yliopiston
aiheutta
##unsa
Kapp
juuri
##tteita
##oma
##ivisioon
stu
jatku
kita
##gian
Kre
rauh
##by
##istys
perinte
##ler
##ikassa
500
1800
##poli
työskenteli
##ikku
ransk
vall
ain
##mas
##st
##aati
ottelussa
##uper
siirrettiin
hui
Hei
##joiden
aikaa
##koul
##ld
##insä
##kraa
ik
##kausi
kieli
merkittävä
meta
perhe
säil
ura
markkin
kahdeksan
##llö
voitta
kunnan
Wor
##mäen
##vina
Char
##ted
saada
tarkoittaa
johd
poika
##uc
##uton
viiden
maailmansodan
1993
varsin
Osa
##ong
##mestar
?
pysty
filosof
asia
##ttely
And
ope
##jalta
Cor
##mppan
##alaista
##ttavat
##con
##til
aluksi
vaikutta
ammatti
##meren
ratka
kuts
läpi
sop
##ov
##tuksessa
##hun
Cha
turva
kävi
Keski
##olan
Vaikka
##piir
saav
##50
jalkapall
1991
##fa
##ump
muistu
puolestaan
Kuu
Inter
Eloku
yksin
kuuluvat
##palvel
vier
km
##kossa
##tonin
##limatta
1900
ympäristö
pidetään
lähinnä
kulttuuri
Hi
##tteja
erä
leve
##dis
lah
pron
##etin
sijaitseva
liike
oleva
1930
##ens
oll
##odassa
##tek
##äällä
Ser
##isko
amp
käsikirjoi
osan
##sivät
##iaa
##mmista
kanta
##liin
##essään
##tävä
käytössä
##tyivät
##ban
turna
##ons
vuotiaana
kymmenen
##ttoi
omina
##telmän
keskusta
##iemi
Ti
perustettu
sotilas
##tteen
siirto
Poh
kell
saivat
##iss
tunnettu
##ttinen
opetta
##ryh
päätö
kasvaa
jouk
hieman
käytetty
##itos
##tukset
kesken
##mitta
naim
##yhä
valtio
##llon
##20
korva
ottelua
sijaan
pääkaupun
##metriä
Ur
neuv
asukka
Muu
Di
Tie
varus
##uman
##vaih
päätt
##äneet
##tional
entinen
kuuluva
urheil
Han
##vittä
siinä
kiinni
Länsi
##sonin
main
teks
Lop
eh
mahdollista
kirj
##jalle
alkaa
Yhdysval
##ttava
taite
lain
##toihin
##täjä
Esimerkiksi
sisältää
armeijan
päättyi
varha
rakennettu
##empi
##olf
pohjo
##edia
Kas
aloi
Fin
Mos
##str
käytettiin
Austr
veden
yhdeks
##paik
##hat
##wn
ilmoitti
##nasta
terve
##kut
##kuo
60
Ken
##rän
##asema
##koon
täys
##alaisissa
Sc
##eltään
##paikka
Wal
##imet
##ast
##udeksi
##tuksia
au
ssä
näyttelijä
mennessä
perusteella
huolimatta
huomi
seuran
##misto
luu
kokoon
hahmo
##ood
rajoi
##iemen
sivu
##isuutta
Willia
sarjassa
##uksissa
##kkaan
kiso
##zin
omis
##joja
siten
talous
##cy
kappaletta
Pla
##ynä
histori
hänelle
vih
musta
##stö
kohti
##annut
##tär
Su
##ttävät
##mur
ainoa
Gra
##mästä
##tinen
##oksen
##toimin
##vara
##teitä
##ukot
asun
tunnus
##bin
Ah
runko
sosia
##teita
##raali
##isuudessa
##mät
kyse
elämän
py
##istaa
##sto
yliopistossa
lii
elokuvassa
##bum
Wil
##väen
isänsä
##vissä
##yks
1940
koke
##jetta
##fer
ilmestyi
juh
Musi
##kari
1920
Bu
laul
##ttelee
Lev
Bla
aikaise
päätti
##jun
##joki
seurauksena
ensin
##uteen
jum
##kän
tehtävä
sta
##iaan
##usten
1989
Sitä
##itte
isä
kerro
##uihin
Kal
##taso
linn
##veli
##luku
##muu
##iltä
##ira
cm
1918
##keskus
##llistä
##oly
My
kiv
maala
puolusta
perh
##ttämään
lopussa
Gran
##gu
##ispa
moottori
pieni
kre
##uksella
##osan
lämpö
##kis
##vansa
##mentin
##itali
Tans
Järven
##misestä
kerä
olemassa
##ettu
##tyä
oikeus
##oista
avar
Mal
muoto
nykyään
keis
lehd
nopeasti
Kaikki
##ksista
kierro
Sano
väri
##koulu
##käri
tehnyt
At
suuren
Tun
##ointi
kilometrin
Met
Koi
##risto
joko
Suomi
##käy
Elokuva
##ica
paras
##utuksen
##teessa
##ville
##ksyllä
##ehto
kauppa
nykyisin
##utunut
Fo
löyde
##sarja
romaan
##ös
Sp
##ölj
kappaleen
tor
##istan
hallitsi
Toi
##gissä
##ohjel
##are
##merkki
ohe
ulkoma
##ore
##upin
jatka
Euroopassa
hauta
tehdä
erittäin
Yli
ainakin
ulo
tois
##cen
##isyys
ravin
##kate
ssa
##vei
##telee
org
##laista
kolmen
Paa
perustuu
##mmät
##tensa
kokonaan
Britannian
##udessa
pyy
väki
Paul
##inti
1988
näky
tullut
ruotsa
##llöin
##tteri
laulu
##nat
##oissa
##villa
##ws
Jan
sopimuksen
Pre
Kil
##oilija
##kit
##kuntaan
osaval
oik
ener
kunta
Hy
##maal
sis
yhtenä
Pan
##kse
ves
Sh
##tell
co
##opea
yhtiön
##joukku
Gr
##kunnassa
##ivat
##ish
Ensimmäinen
paino
asui
yritys
julkaise
von
##dun
yhä
##estari
##udet
Neuvostoliiton
1987
vaal
##miel
##ussi
##ckin
##ister
versio
pe
##ome
##piste
##maksi
numer
##net
up
hallituksen
jaka
osaa
yhdiste
tapp
##tola
##tivat
##opper
kone
Pri
##kie
suojel
##vid
doll
päivänä
soi
Ul
##joita
lehti
näin
##utettiin
184
##orin
185
neliö
Kesä
##näkö
lähte
Tampereen
huu
##mainen
##merikk
##dyn
olleen
taiste
##kumo
saapui
Ennen
##jista
suk
##eltaan
##uista
##euv
Peli
kutsutaan
##valmenta
pako
tyypi
##mpan
Mat
##iheessa
##ganis
Läh
anti
##tkin
ensimmäistä
pituus
##ihd
##yksen
vähen
raja
u
id
iso
##llisuutta
##ves
lisää
##gas
jaks
alusta
Fer
##ttun
hajo
##ttamaan
presidentti
##gra
Bel
hev
joilla
Ir
palkinnon
kuvi
##huon
Työ
pääasiassa
luki
##päin
##gar
Bur
##ttivat
##tro
tuolloin
kokoel
ansi
varsina
perustu
##yksi
##estin
koske
melko
laivaston
##hde
alueelle
vaike
##vyy
##ad
Us
##estään
##bor
minuu
jotta
olympia
täysin
het
##mian
##altaan
##kiä
##én
Viime
toden
Karj
##rella
##tettua
muuto
säily
myyn
tätä
Suomeen
##tm
##ehti
Min
##vänsä
hallitus
1986
##dian
kieltä
NHL
brittilä
meni
maahan
##kkuu
single
puolue
##tuksena
euro
rei
##udu
##mokraa
hyväksy
ohella
Ph
juuta
Sil
##maton
pudo
Uuden
luvulta
##lehti
##tsissa
pelaaja
300
Kaudella
##tän
##ogra
1984
kaikkien
!
kiinnos
##isistä
Hal
rä
res
Iso
##oitus
##tutki
mestaruuden
##aaja
vide
Uni
##tilan
##mpialaisissa
##oston
pare
divisioon
Sy
##koa
Saksassa
##rid
rik
man
1985
##musi
##manin
Uusi
lakka
##ola
erilaisia
hope
Vil
juon
kasv
Alan
kolmas
herä
jonkin
##mille
ainoastaan
Tim
vuoro
monet
##kur
väestö
##tissa
Maan
##ste
##ysi
asukasta
vo
##järjestelmä
32
sala
##chin
##unk
lasten
##ksissa
joskus
##mäki
##hall
##teissa
sana
##pil
##tiaan
kulu
rautatie
##kilo
##esso
käytti
Pä
80
##osi
##uksista
kristi
tuki
##enin
1982
Jon
##aran
Qu
lle
##ash
##tuksesta
Italian
##önä
##kik
##sel
##dion
vanha
War
sijaitsi
room
temp
We
luoki
suoraan
##tänyt
##hon
##mil
ba
odo
##jek
##ward
kilpailuissa
##ytyi
##uis
niistä
rooli
##seen
rin
loppu
tarvi
kehittä
##vänä
komenta
Nuo
World
##halli
##kesku
Australi
lai
matkusta
##oman
##vas
Br
Tra
##lon
##uno
kertoi
##kat
Sha
tarin
##gyp
##milla
##tävät
pidettiin
ikä
uusia
##ive
Kur
meren
##telli
##tari
##päivä
taloude
##jansa
etsi
##teeseen
studio
ensimmäisenä
kustan
##tava
ottelun
tekn
kartan
nimensä
##taljoon
##tessa
##tella
##sut
muisto
parla
piiri
ää
##sian
koskaan
hävisi
yksilö
heimo
estä
sella
lään
##yden
valti
##tyksessä
Ala
##muksen
Gar
Vuosina
kommun
asema
mus
##lop
##tetu
1975
##istuksen
##tieteen
edusti
nuorten
ydin
Aleksan
##stään
##opimuksen
##vell
monia
antaa
Pen
##yä
##ssia
Kaar
kr
III
esitti
Yksi
##isuuteen
##aleissa
##teltiin
Win
##uransa
1983
Hämeen
yhteistyö
puto
puhu
hänestä
##mann
Pu
1979
Robert
yhdeksän
lue
istu
##fe
36
samana
Jää
etenkin
##old
Afr
usei
##öi
##pro
##bergin
33
70
Rich
laivasto
kulta
Saar
uutta
johdo
##utun
Jer
##igh
Stu
Mari
vastusta
Bor
##onia
aktiiv
William
osallistu
Mä
Las
puolueen
ry
##ham
deb
##vik
##isu
##estön
kärsi
Tuk
##ppä
taso
Koska
Jum
##ilan
##mal
##usto
##pah
tavoin
##ole
##ulan
liiken
##mpiä
vetä
##udesta
##ytö
##wer
##nes
##käyn
##öö
##ässä
##poi
Recor
##des
David
##johtaja
Voi
183
tö
tod
##art
1944
valuma
ääni
tarkoitus
otettiin
kalli
vahv
##cin
##bumin
Pohjan
saattaa
kulkee
##albumi
##nettom
##iku
Tš
##ommi
##rans
James
##ide
##oivat
pohja
##kkos
Micha
##ller
mie
verra
##oder
haa
##mmaksi
##käsi
Pet
alkoivat
saattoi
koo
##iki
##elan
toista
raa
saavutta
##astaa
##järjestö
##saa
Angel
##kautta
tavataan
itali
paken
naisten
kielen
Kaupungin
##vistä
##ald
##essori
1981
Toinen
neuvosto
##tusla
hänellä
Luo
##utuvat
##olta
##joissa
Haa
Helsingissä
Raken
verkko
##umin
järven
##dien
kasvoi
pin
laps
kilpaili
puolella
##saar
400
##maansa
miehen
##olla
##inaal
##sson
kausi
##ttemmin
##oimin
Don
Peter
Oh
seur
risti
laulaja
suunnitteli
##äär
radio
auton
##jin
palki
oper
lehden
1945
##histo
Sam
päivän
##maatt
tähti
##inne
vuosien
Gen
Bill
kaupp
tausta
##lliseksi
##can
htm
Mosko
##sarjan
Ker
##ttin
1939
1976
##ksien
loppuun
##mpär
vaikutus
Carl
##istettiin
pelin
pelannut
arti
tytär
osoitta
##eld
osi
siirty
##istää
paikka
##gres
eläin
##pyö
Mag
Tri
ihm
##västi
kur
##alifor
sijalle
edustaa
pitkään
IS
pidä
##tyneen
##etys
1972
Matti
soitta
onnistui
Gi
##kkeen
##kaudella
kirjailija
bas
heti
##ester
Elokuvan
##unn
maailmanmestar
##päiv
tarv
##juo
##puolelle
Ruotsissa
##hallin
Näin
hankki
vanh
180
1973
##tuaan
##vyys
vähe
##osissa
##veen
##uti
##kapp
kie
viid
##ung
##sille
verran
Martin
kehitys
##tron
seli
ölj
voimakka
kaupung
hallinn
##bb
ansiosta
##istus
##ath
ihmisen
aine
##ps
suoja
nykyisen
##jojen
tammikuussa
tuke
1978
##joukkueessa
##utki
##öm
soitti
naa
##ttelussa
##kona
kuoleman
vaihto
##siiv
halu
Suuri
Juh
##imi
##kylä
1974
Mas
1968
Ex
runsaasti
##malle
##ling
todennäkö
tyyli
sam
##anner
1977
##tias
poikke
japan
##kinen
kesällä
Ros
Aa
keisari
nyt
omaa
johdolla
mita
##enee
sp
Sie
pysä
##vallat
suunta
##uvun
säännö
##ith
kuuden
Kappale
alla
Ensimmäisen
##uvan
historian
##ilman
Lie
hallinto
##isissä
##ikkoa
##ilu
##jar
organis
Albumi
Tea
kolmi
1941
Ven
pei
##del
Amerikan
siis
Oulun
45
##vuot
luke
johtaa
Tukhol
amerikk
##maalla
vaka
vallankumo
kaupungissa
##ksua
##ux
##mmär
Kiinan
sijaitsevat
kreikk
vaim
##telu
psy
vähä
kann
Air
taaja
Michael
jun
laskee
34
##deksi
elää
Japanin
pääse
##mit
##ksu
pop
halusi
##hu
my
##tisen
##car
mun
materia
alettiin
Los
koostuu
jätti
##oitiin
päässä
##ze
##teellisen
sittemmin
lukuun
##ston
##lahden
suunnittel
##joukko
##yväsky
##ft
##kala
loh
liian
toimivat
nimitettiin
##lass
##tyksiä
Englannin
sisällis
mik
pääosin
Za
##tuotan
##juh
tapahtui
##vet
##mys
tärkeä
##isaalta
##koma
##pur
##koulun
puolustus
käynn
mielen
nais
##itoksen
##kaal
##rää
Eli
näkö
viho
##tena
teatter
##pitä
Pir
##cke
pil
Lonto
##mala
sanoi
johtaja
##raal
##vaal
##ikolla
terä
myr
Gro
##ikkaan
Fil
ilmi
kirjan
##llisessa
neliökilo
palveli
Väli
sovi
Kul
##jille
keväällä
jään
joulukuussa
##skin
til
##ski
##laan
voitto
tekni
##enne
##kolo
maalia
syksyllä
##sarjassa
johto
versi
##opa
##anoma
##upan
syntynyt
maalin
nimeltä
##puisto
plan
ollessa
##joista
Yhtye
maal
##tekijä
##tetun
1971
riippu
aloitta
liikku
##tiete
Vuodesta
seuraavana
ide
1967
viimeinen
##elokuva
##uroopp
musiikin
kolmanneksi
90
##yse
Espanjan
##misessa
lokakuussa
Nic
1969
nimeltään
päästä
##yhty
järjestettiin
album
elek
varrella
Histo
ottamatta
Jyväsky
mall
##suun
##tsin
kiertu
Kr
Len
##uth
##kson
##utua
heh
##sili
##väli
tarp
pah
huomattavasti
##isteen
kulke
osti
Nel
kuljetta
US
##liig
asuin
hallitse
Vol
kulje
Sin
##umb
rinta
lääke
vastaano
tien
##kön
kysy
##reä
##ukon
kunnia
arvon
Star
##ark
ranta
##aatti
tunte
##ettaa
Jose
##uudesta
radi
##tteet
Afrikan
38
##kkien
paran
##voima
##tiikan
##ska
rata
Alex
Isra
pes
sisar
##edel
##stan
ser
usea
##intään
##fo
näke
riste
##tekni
marraskuussa
Raa
miesten
vesistö
##öyh
Bi
Bal
##kista
aikaisemmin
osuus
bi
FC
##nell
harvina
vastus
televisiosa
Mur
tee
leveä
##ltään
saatiin
Super
181
##ännössä
##yhte
Stan
vaki
37
EM
virka
parhaan
tekee
##pahtu
##matka
Yhdysvallat
oikeuden
##tug
lintu
esittää
elokuussa
muina
##lannin
##mos
##eni
Jal
ominaisuu
sotila
##llisi
uskonno
##itetty
Kirja
vase
##BC
##käyttö
##mmalla
joukot
##hto
riko
Lei
##konen
##tonsa
maassa
##ight
##lei
95
##gh
suomalais
liitettiin
mieli
Yhti
kisoissa
ottaa
##emen
toimitus
##ttik
uud
##llisena
itsensä
##tala
1966
peräisin
pitu
##istyksen
##sikko
Wh
##asin
tutkin
Lan
##talous
lähtö
Musta
räjä
ilme
saata
lopu
maali
##rus
Hu
##seer
torj
##rinä
##ikke
Ara
Johan
##tz
##tiksi
armeija
Sim
##itikko
##ony
##iassa
anne
##teltu
King
##wood
##tista
##vian
aiheuttaa
##iska
mitään
tanssi
Can
##järjestel
talon
##perin
panssa
##lien
Johann
Egyp
##py
palaa
liigan
syyskuussa
silloin
##emaan
jalkapallo
ymmär
ton
Alku
##tykset
##immi
rek
maksa
Ih
##oid
ensimmäiset
##ottelussa
##dor
##istin
päivää
##tolo
Svei
##ous
##veden
arkkite
Auto
1965
##poh
Kalifor
##henkilö
ved
aluksen
##este
Maria
isän
Nykyään
toimintaa
##miehen
##ttunut
opiskel
##itta
Atlan
##kinä
kiinte
Hol
kuninkaa
##gne
mukaisesti
Cen
asian
Rooman
##kell
179
Col
viittaa
kannatta
päätteeksi
##tterin
kasvi
##ilainen
tri
Muita
Black
##win
##puu
##oltaan
hir
##nista
1964
sentti
sosi
Toisen
##kier
kesk
##kielinen
Sing
##öyr
##eensa
##läh
hyökkää
toukokuussa
George
suos
maaliskuussa
laji
##mpaan
##tuivat
##kirj
ryhmä
##östä
tällä
edeltä
Lea
taistelu
oopper
##ney
##rakenn
Sto
##turi
##imä
Gre
lauka
koto
samaan
##voimien
voittanut
aiko
##dalla
avioli
vuosikymmen
##nalle
ge
##työn
##sisa
##lää
hopeaa
kats
rock
##ilin
##gl
##tuksi
luokan
Pekka
Samalla
##liitto
kilpailun
##ikunnan
teos
##hel
Thom
Nykyisin
ruoka
paa
nos
##rasta
##llisesta
seurasi
##mpana
ehkä
tavalla
saadaan
ren
##tilla
Hein
##ett
Nämä
puhe
##kää
saaren
##ympär
liiga
korkei
##vit
vää
##tuvat
lisään
teoksen
##hyö
ihmistä
puuta
1919
kokoonpan
vaikutti
Richard
vuosittain
luovu
##dät
Mil
Red
##llisiä
rump
saari
Ger
hyödyn
moni
Suurin
##ilä
sor
Puna
Tu
##issaan
vähän
ilta
Men
kylän
##kuntaa
##tilainen
Jaa
järvi
lapsen
hehta
nimeä
avoi
Venäjällä
##atri
##une
Kauden
All
##ikkoja
järjestö
väestön
valtakunnan
##istien
##aseen
kaiv
Täh
##impia
kei
1938
##pään
päävalmenta
tapaan
##gor
##tre
##vall
##tusten
1917
##saari
##moo
##pito
Jean
mä
mas
yleisesti
Afrik
Ali
televisio
ihmisten
esitettiin
sal
##hdas
yö
##mättö
##pun
valoku
helmikuussa
Tällöin
taistelussa
kis
valmenta
Jac
##rjä
##vuus
euroa
##ttäjä
Sanomat
jäsenet
suuria
##ismin
##istään
##ltaan
1942
sisällä
Ranskassa
##isiksi
Am
1963
näiden
jatko
##ytteli
suunnittele
aikojen
esitetty
Hall
lasta
##essi
Bon
##eillä
tyttä
##ugh
iltansa
yksinkerta
##mmer
loi
##aleja
suoritti
Ander
liikenne
hyväks
##lam
louk
##mic
kunni
##uksiin
pikku
##rann
##usti
##tyypp
Ol
löydetty
Monet
paikallis
##ttelu
taiteili
elämä
##teista
Valko
##vide
##kilpailussa
1700
yritti
##tykseen
##llikkö
##puh
##läinen
Vic
tärkei
rool
##tteena
veljen
pun
##ttävän
kesäkuussa
nähd
Charles
kivi
1962
kaikkiaan
##xin
karsin
haasta
##paino
##tussa
nämä
##mene
alan
##eth
##roa
You
##cia
##tämään
Ukra
Univer
##oikeus
mahdollisesti
Mad
##karin
##della
hävittä
kohtaan
Laa
Niin
##kyy
600
paljas
komp
##ologian
##piiri
##alista
kierroksella
##inan
##aation
sama
muodostaa
varsinkin
paikalle
Intian
TV
##onnistu
pitkin
##kissa
ollen
ven
Oly
Bir
##kselle
kaas
150
eteen
tuleva
tapaa
##br
##nossa
##ese
solmi
kultaa
amm
ara
eniten
##jeja
valitsi
##ttuun
asuu
##ble
##que
##chen
neliökilometriä
espan
Franc
1956
itselleen
kapteen
##sodassa
Sain
City
puolu
Roman
onkin
1952
39
Pit
presidentin
##chi
myytiin
##bs
Yhdysvaltojen
##kellä
Aug
Karjalan
Mel
##gn
##tuneen
euroopp
##itinsä
##way
Hit
##ican
##välin
opin
##ingin
182
Fred
jälki
##alto
rah
professori
tähän
##koja
##tiä
##missä
osaksi
##öt
da
ulos
Fri
kein
tyttö
linja
Rus
vaikuttaa
Ac
ryhmän
vaikutu
42
##pallon
laki
##uuskilpail
##posti
tästä
##dellä
##imaa
ensimmäisessä
##utuivat
pohjalta
osittain
##fin
Vaa
naimisiin
Jor
##ilijä
tiet
##dessä
##tteiden
##mpiin
oikea
keskia
##hahmo
##wan
##omer
Espo
ns
komen
##tille
kruun
palkinto
art
##paika
singl
##uring
##upp
##astu
pääty
Tästä
1948
##mmissa
##ardin
Op
##cher
##oida
tunnettiin
huhtikuussa
erikois
41
Eur
##mmy
Norjan
jääkie
Mac
##ttuvat
##tossa
musiikkia
1961
##yste
gra
##alueen
##sissa
Antti
kuvan
##ikoko
##muoto
##ustaa
##yan
Samana
koulun
rus
keisar
kokonais
Cla
Frank
juu
inter
pronssia
##tona
muista
Ö
##tarin
mistä
##mö
muse
1943
pieniä
##fek
erään
1958
ale
korja
parhaiten
##pon
voisi
Ele
Dis
hin
##uan
##velle
toimitta
Ase
pääs
##rich
tulisi
Cl
ilmesty
Che
##istossa
tosin
Dan
pyri
menetti
toiminnan
##kunsa
Yri
korkein
äiti
Kär
meri
Ran
Koko
##tellut
af
##BN
##elma
##mpää
joen
Yhtyeen
##koihin
valmistu
43
##ksena
muuttui
##kosken
Anna
kirjasto
kuninkaan
Pyh
##ttisen
##jäsen
##oda
Poli
toisessa
##isillä
erosi
##udun
koho
##meksi
75
viljel
vuodessa
##maali
heinäkuussa
##puoli
Juli
##tety
##utin
##kalta
##istina
Kuopi
naimisissa
laina
##ikunta
pidetty
Karl
hiili
html
lukuisia
puoliväl
1959
##tettuja
##palkin
sinne
niissä
1946
myöhe
Rei
Flo
Siellä
fa
virtaa
lyö
Aasi
1936
##huone
##kär
##kaut
Spor
henkilökohta
##yöhy
##nis
44
mate
Kari
epäonnistu
tiedon
kohtaa
molemmat
riipp
ensimmäisellä
##oinut
##aat
Sodan
esiintynyt
##oksi
Sor
##dettiin
välissä
Gri
kuukauden
Kaksi
oppila
suomalaisen
##feren
Maailman
Suur
##itin
Pien
tietoa
##ristin
##kaus
##mor
GP
alko
Jar
Kaa
ulkopuolella
##ght
laitt
47
onnettom
keksi
ISBN
pyh
##hansa
Mus
##nim
##tilo
##kanen
huoma
##joukkueen
##uki
Lopulta
orkes
##uuteen
Sun
##bian
lähetti
dollaria
tra
##jala
##tonen
alueeseen
##kainen
##aatin
##llisuudessa
Hon
Sir
1957
##rille
Heikki
maanvil
sekun
kyken
##todo
vuotias
aiv
keskuu
säveltä
##mattom
lapsi
joukkueessa
800
##zi
##bri
maata
##taja
Tom
##cyc
##inten
sair
##alassa
##mmistö
Kaupunki
myi
##asan
48
##astus
väitt
sito
Use
heidät
tela
Seuraavana
##aleen
muutaman
##stitu
##arvo
saksalainen
laus
##rakennus
##yer
##edusta
178
##ikoi
kahteen
##ukan
Elä
Grand
Teo
##kojen
##ismi
maks
englannin
##kuntien
##ever
tel
nimetty
alkua
etel
VI
##roi
Ag
käsite
äitinsä
##TV
##ippa
valmistunut
kuol
##issi
tuhan
puolesta
Tätä
##istit
##mea
##ttee
##tehtä
Sel
syrjä
##itsee
##tiota
pistettä
##we
##kina
kunnassa
##ford
Max
Ty
Son
perheen
Kilpail
Britanniassa
osana
##ary
kehitty
kaupa
moder
Saa
##hoja
luvulle
heitä
avaruus
##AS
##lub
1955
louna
##nosta
doku
hedel
arkkitehti
##pelin
laati
Thomas
##ulka
##kelä
##ttujen
jatkaa
Sä
Lar
nimettiin
ilmoi
luosta
##ttorin
##bon
##iini
yleisö
kuuluivat
muodostuu
yrityksen
Dra
Kev
kaupunkiin
Music
antiikin
Kirkko
liittyy
##jeli
aivan
vaiheessa
##gs
##pör
##wor
Rauta
entisen
##ick
##yhmä
tavallisesti
1937
##tulo
##tain
Sol
parhaa
Viip
hevos
sekoi
tarkoituksena
Lind
55
rauhan
pari
1947
joukossa
##10
##vaun
Mes
poistu
Anton
tapahtuu
muistuttaa
tuottaa
##tiset
1954
perustusla
##itty
##dos
maalais
Interna
##mmassa
muutettiin
Rä
Cas
aiheutti
##uksien
käytännössä
##ihla
verta
##ikkeen
##isuudesta
##paikan
Mika
Pol
##musta
##ppe
##cyclop
lopetti
##burg
ga
##tasolla
tör
perustivat
seuraavat
työnteki
Vih
##isteri
hauda
##ye
vär
Viron
##tavan
Heinä
seurakunta
sukupol
##kian
päivi
esittä
tilalle
Pian
toiseen
Gor
Hir
sille
museo
pysy
alkan
##kri
tuom
##muka
##ttynä
National
aiku
viikon
välinen
aikoihin
selvästi
##uttamaan
##kalla
toimintansa
ykkö
##uudessa
##osla
kelta
##ute
viitattu
vastasi
havai
pudotus
Hor
hyl
Tul
Kanadan
##paan
##kkiä
sovel
muodostavat
Kalli
jän
ohjaama
tunnetuksi
1949
siksi
Ateen
osin
jonne
Blo
Dar
pääkaupunki
##jev
pienen
keskustel
##how
##etaan
joihin
Str
sisään
##mmasta
valmi
kolmannen
##taansa
##tions
tappi
##ympäristö
##urinko
puheenjohtaja
Roy
avattiin
##jöitä
Pyhä
##destä
##vellä
##ottelua
its
pla
miten
##eista
46
vuosisa
Ban
##mio
poikansa
##osuh
##oth
1600
##kosta
kome
maissa
kotoisin
Du
toh
ranga
##immillaan
##lee
tähd
##torin
##teellinen
järjestelmä
It
Encyclop
##kkois
##valle
verrattuna
##tina
##innon
Puol
Australian
Ren
mielestä
##jöiden
##jiä
Kiv
##isyyden
##nön
säilynyt
mets
synny
##udelle
liikke
##myy
kenraali
tutus
aluetta
lö
1953
##rosta
suurimman
##kunnat
##alaisessa
suhteen
täyden
paremmin
akti
yksittä
kappaleet
##tyksestä
##jina
Hänellä
°
laulun
tasavallan
Kap
Radio
tässä
Lor
Formula
##kkia
puolet
mukaansa
Kore
loukkaan
olevat
##ihto
vanke
eroa
Syy
alueilla
Bre
roman
kitaristi
177
kuun
johtajana
1929
49
vähintään
käännö
Niko
Ze
useissa
kot
##demokraa
##vio
symb
##istettu
ark
##pyörä
hyvän
linna
poliisi
kaiken
##ust
##siä
##maassa
henkeä
uni
loppuo
##mith
##ilo
profess
1933
kilpailussa
Albumin
suurta
peri
paitsi
katol
vakuu
Hann
Meksi
nuore
asukas
palvelukseen
##teer
##vään
##mpänä
kato
jalkapalloilija
at
kirjoittanut
sotilaa
lähi
##yytt
fysi
Poi
##ander
##ivaa
tuotti
##mite
##gg
##rat
kello
Kans
tekemään
Heidän
hävi
helposti
vaimonsa
##pus
##llikk
1500
1928
paikalla
Aar
##liiton
nopea
##kylän
52
nouda
sillo
Portug
##alaan
##http
vietti
##insa
1932
anal
Amerikassa
fos
kuinka
##ther
Lee
pienempi
##cel
##tellaan
64
löytyy
intiaan
##ologia
West
##ture
Siin
##llisista
puolivälissä
##well
yrittää
1951
ihmisiä
##mun
sosiaal
keskuudessa
nauh
Colle
ennä
päälle
##tiossa
##put
Siinä
jälje
ylioppil
Henrik
lähtee
Les
hu
korkeus
##llisiin
##kula
elokuvissa
##hmon
700
##ustel
eteni
##isinä
vero
teksti
##kerin
lähde
valmen
##teeksi
puheenjohtajana
EU
muihin
##ttäen
kirjaili
vanhemmat
##linnan
ilmeisesti
Koke
luvuilla
##hl
suurempi
Cup
##ct
laaja
soolo
suosittu
allekirjoi
Š
helpo
levyn
##kh
65
##ington
##eton
Sarjan
sisältä
päätty
##yhteis
Nimi
##mmistä
reak
##kaar
##otkut
klass
johtu
##irin
ihmiset
ortodo
##isan
kutsuttiin
tyh
vähemmän
##zer
##aaksi
Johannes
prin
##saaren
joukkojen
##mir
1934
##ikasta
##talon
Tammik
jatkos
##tyksellä
lasku
terveys
viih
saarella
1921
##kellus
##pinnan
##urheil
##siinty
##eder
koulutus
tekivät
Yl
##utuneet
uudesta
Lapin
loppup
51
lan
53
löytää
muissa
##kuna
##ikana
lajia
kuulunut
##fia
kirko
vang
aloitettiin
ranskalainen
sivi
vuoristo
Anti
pitkän
vauri
työväen
##pit
Wi
Brasili
Ira
##änen
Alankoma
##mie
##ori
##poika
päätoi
toisella
She
periaa
paikan
##ün
muodossa
##dam
##ustin
Jees
Tutki
##alat
Bea
##keino
##uringon
Lapp
Pariisin
Kansallis
Joseph
##tuksella
todennäköisesti
ajo
joukkoon
Saint
sarjaku
1924
vapaaehto
##sh
##cha
##dro
kohdalla
##ylän
##isempi
valtaa
Å
##ting
saavat
dia
1931
Love
Huo
ohj
yleinen
takana
##ild
kappaleita
Hur
##odin
##tunti
tuomio
Slo
##laaju
##tuun
tas
1927
finaal
##äntö
im
oppil
##idin
Jack
##joneuv
opetus
##oitui
##urn
johdosta
tulivat
##valtuus
vuotiaiden
##alo
aseman
##kaupunki
Rock
##tnan
##udan
##hamin
päin
Lahden
##cus
##tera
rakka
##pla
##llia
palkittiin
nykyinen
alkunsa
vaikutteita
rekister
##luu
##kentä
Gusta
##mmiten
super
animaa
inn
##rah
1922
##teesta
Järvi
##viksi
vahing
toisistaan
54
##red
piispa
japanila
tiedo
muutamia
kaudeksi
ylläpitä
ad
##nolla
televisiosar
##asia
Euro
Tässä
projek
##not
levi
##päässä
huomiota
ret
##keolog
##vie
hehtaaria
julkaissut
##ool
testa
##öitä
tarkas
seuraavan
##syn
Glo
pysyi
Nur
##VD
evan
sosiaali
##salu
##dassa
piene
veljensä
##uva
sula
##mmas
##utus
1916
lahjoi
IV
1935
kaksin
x
##yo
##telty
paine
Väh
Lud
##heili
Dani
runo
##bar
merkittävi
Chan
##alueella
##ello
neljäs
##tasa
##delle
murha
##pros
kannalta
Yleis
kehittyi
##tanen
asen
##teatter
Rang
##mestari
toimia
pronssi
Hie
##nitel
##ralla
kesäoly
muuttaa
osasto
vanhin
merkitys
American
##oper
##kuusta
lyhyt
Manner
musiik
##pain
##hdy
##tere
Puolan
##tetut
Wash
1926
Jussi
tyttären
##kkoon
Fili
itseään
avaus
säte
parissa
vanhan
##ster
##tettuaan
kahdesta
]
lie
##istoa
halua
ch
Aika
##ttäneet
neljänneksi
Näiden
etä
##lor
nuoren
Mole
bud
Pyhän
tarkoitettu
olympialaisissa
Lento
Savon
Niiden
Pala
##usin
##alaisiin
joutuu
##ulin
niemi
edes
virallisesti
brittiläinen
##paikaltaan
vei
Green
politi
CD
##tettava
##opiste
paper
haavoi
valmistaa
arkkiteh
pohjoisessa
musiikkivide
##kilpailun
läp
kylässä
##ges
Kansainväl
##llisyy
voimakkaasti
erikoistu
tärke
##rinen
##tuista
erityisen
##astian
ilmestynyt
56
yhdisty
olle
estää
##juu
##ttina
Finn
ruotsin
##kkeli
juhla
##nel
##ikseen
##teinen
salli
teollisuus
Gö
Mikko
sulje
1914
samoin
keskellä
aih
##tied
näytelmä
##jekti
kel
##mari
##kuuhun
##sch
Smith
nimeksi
Italiassa
##ilee
Tel
##ulo
liigassa
Res
arvioi
kori
Cal
menestys
##tilaa
Sco
Kri
samannim
##PS
dig
olympi
##pele
vaara
heimoon
##ttän
Jyväskylän
Gol
saatu
idässä
kehitti
vieraili
tuon
hautaus
##uita
Room
##määrin
pelkä
##ult
Oli
##ttelun
Tyy
##ttömä
ääri
Kaliforni
1925
Stra
##isina
##tieto
vaikea
Japanissa
pos
rakentaa
Kansan
Prin
näistä
laskettiin
##järjestelmän
Ron
heik
lentokon
Luon
englantila
pohjoiseen
##vig
Pur
##uivat
malli
kalta
##tettä
##eta
enna
kasvan
maailmansodassa
provin
luop
##ey
miljoonan
##suojel
Mich
##jiin
##pasi
osoi
Den
##teena
luonno
Taistel
##uhtin
luettel
Universi
Ohjel
säveltäjä
mill
kamp
omia
##ttavan
Francis
##alle
##museo
##lehd
##fil
Bas
yhteisö
##keja
##uver
58
##pinta
olevansa
##kua
##lai
##ress
viestin
##osten
##tš
Chica
Para
##killä
kapin
energia
maantie
##kkel
Joulu
dyn
Kirkon
kuukautta
International
suhta
##landin
Compan
##yhdistys
samassa
##ikir
Levy
Raama
yksityis
syntyy
keskitt
##ival
nimisen
Records
##ordin
minuuttia
##tyvät
jakaa
##isivat
jyr
Argen
SS
sanom
kapina
jäänyt
rannalla
kans
eur
Yhdysvaltoihin
##uston
suosio
##vella
vaali
voiton
##johtajana
##dossa
##rom
seikka
vaihtele
ohjelma
rahoi
häiri
hake
##wi
##tand
järjestel
komppan
##alaiseen
1923
##gna
##king
##netta
57
##taite
Tuu
97
kahdesti
##aro
##vesi
millimet
z
##teistä
##tensä
##ces
yhdistä
ohi
Kale
liiton
##sinöö
selkä
pojan
veren
##kseksi
https
##try
##teisiin
Erity
välttämä
Sisä
luov
kanad
saattu
viikkoa
urallaan
##plo
McC
kuk
oppi
##oilta
ystävä
uudis
käytiin
massa
##ikaa
##line
runkosarja
tietokon
filosofian
##ben
Ya
##ilun
putosi
useiden
Erik
##ikkaus
Vasta
espanj
muutta
huol
lajin
Ensimmäiset
Harry
##30
lähetys
##lie
##ytoi
vaihtelee
##opä
Lä
Tälla
kansainvälinen
polttoa
##opisto
##sse
##ital
tarina
pyhä
ruotsalainen
##eissa
kuiva
talvi
Louis
esiko
toimiva
##iren
vettä
jääkäri
ryhtyi
syöttö
##uel
suojaa
Porin
##oikeuden
##immä
Ranska
kuor
##maat
kesti
apula
tälla
ratkais
poliitikko
Kyse
Rein
##lerin
hetkellä
sieltä
toisiin
myönnettiin
matala
Jukka
senttimetriä
##ttiä
klo
viimeisen
[
##rinta
##siir
huipp
henkilöä
##olle
##ejä
latin
vaihe
Andre
Kreikan
Toisaalta
##torj
krei
##kellusven
taisteli
##lämpö
##ok
##öyry
ilmasto
Kylä
toisi
maailmassa
##utettu
##kejä
liikkeen
##seura
puolelle
##holi
Loh
##hal
Mark
Sata
jääkiekko
kysymy
alas
ikään
##katu
Touko
määrää
##bel
##mesta
siiv
täyde
##cer
##ning
Jun
kolmesta
##itosta
studioalbumi
Plan
kansanedusta
Ny
##vaara
Oscar
##zan
Sala
Ori
##yli
käyttävät
Tällä
Alf
##keita
jakoi
lukien
hil
mainitaan
##htia
##onta
##raama
Yorkin
##ellinen
##imin
Leon
##neeseen
suunniteltu
##lasken
Valta
##ström
Lontoon
kuninga
joudu
raha
Del
Teh
miestä
muodostui
##iteen
##mmisto
##osaa
Berli
##arch
##kkeelle
Varsina
temppeli
muuttu
puutar
pommi
##malta
keskimäärin
##udulla
##ming
##teja
##istetaan
##bli
sopimus
tahansa
suora
pääsee
##innyt
Tunne
##netty
##vun
##maail
aje
piirin
viranoma
##die
120
jatkui
ohjasi
Lontoossa
##koti
etelässä
##dr
##maiden
##muse
tuhoa
66
pri
1910
##kustan
##koski
järjestää
DVD
milj
kohdistu
##12
suhteellisen
SK
Lauri
##tuksiin
ulkopuol
##NA
##ror
##koulussa
Lat
##helm
sodassa
tehdään
##hoita
Loka
Erä
##tissä
suuntaan
Vesi
joitakin
ehti
Bos
maase
tutkimuksen
tyypp
neuvottel
vaimo
##ffin
Noin
takaa
arvostel
Laji
jazz
##vaiheessa
##ped
##mul
kyt
##SO
toisin
rapor
Record
maasto
hoita
tilaa
Syys
##toin
kielle
hyväksi
Metsä
uran
##puolue
##kyky
##annin
sydän
##uhan
loppupuo
maajoukkueessa
Top
edustus
ohjelman
##tul
##istyi
##alinen
##politi
Pra
soittaa
uk
uhka
##isyyttä
1915
##uutensa
Viipurin
##laus
##hön
##omo
suvun
järjesti
kuoltua
62
Ever
llä
tilasto
Der
Kaarle
##vaik
veli
##tsu
85
##nella
##oituksen
Afrikassa
MTV
Vin
Koti
##katemian
Ric
##nie
##ttyään
nuori
silti
kesku
eräs
teori
##mmilla
maiden
päättää
muuten
##rillä
##kseli
mallin
Yrj
Sota
taistelun
##tsas
Wien
##nuksen
tavoitteena
##tiona
etelään
Ilma
Skot
ryö
stand
pääministeri
##tävän
pataljoon
surma
stä
työskennell
viesti
##ois
##ennä
omat
tunnetuin
##osia
250
lopetta
ympärö
##önen
##oiksi
##muksia
laaje
Jumalan
##pio
yks
osassa
esin
Ari
maailmaa
##puolueen
##pataljoon
katu
##musiikki
yhteiskunna
Jen
1912
##miaan
maasta
##ologi
Timo
##riksi
keskenään
pääministe
pakko
joki
aatel
##mänsä
näyttä
##dus
ca
arkeolog
##ook
Järjes
sijoittu
##ija
##40
##ius
Hil
Joens
##teg
aut
##iro
väestöstä
##kkain
posi
##ttoon
Puu
Sää
##llise
ortodoks
listan
##hka
siemen
vaale
kg
samaa
kuvattiin
##mättä
alueelta
##moja
Bran
##nöö
176
päätyttyä
koe
Play
Moskovan
##psi
##giaa
##llikkönä
tällöin
##ttejä
suunna
alueita
##sis
Matt
##pelaa
##utuminen
kro
debytoi
##fen
kulki
##tiivinen
tulki
läänin
##ttaessa
Englannissa
jaettu
Fi
Sur
##kky
puhd
Tanskan
siviili
tihe
maailmanlaaju
Pall
tulkin
##vaaleissa
ris
##materia
Ly
tappa
eteenpäin
Hans
Christi
##dal
Luc
kahdeksa
äly
Iran
konserva
vuosia
hyökkäys
kuluttua
joukkuetta
Tammikuussa
Ään
kirjassa
normaal
##ij
##etoimin
löysi
kulttuurin
##huo
Henry
tuote
osalta
Pop
##kilön
kakso
määrän
##aste
ak
##iker
maatalous
kasvu
matkus
kovin
##peri
Sarja
voinut
##asen
##ardia
##tapa
Ola
Kesällä
pelattiin
joukkueeseen
##run
##sten
edelly
lakkautettiin
##miehenä
listalla
##ag
##án
EP
##ytti
miehi
##innin
Tan
##fan
##ksessä
##valtaa
käsittele
##hm
##giassa
kaupan
tärkein
kansalais
##cal
Ap
tv
##upaa
Maalis
##immat
tasan
##alaisista
Pariisissa
nähtiin
##kiek
##unnan
##kap
##nellä
##tilas
Des
##tutkin
##maisen
##taus
äänes
muodostu
alueet
hita
Inti
##uoto
##sil
##pide
ammattilais
sub
##maata
Aie
sanottu
##tas
##eeni
##käyt
##ingas
elokuvaa
Kokemäen
Siihen
##liikenne
jolle
sopi
Kristi
mal
##hai
Paika
luteri
jaksossa
monim
##yön
Fal
##kauppa
Kra
Mis
##mela
Marras
sisällissodan
##ree
reun
entis
##mänä
##oili
##yksiä
##pörssin
joutuivat
##udin
halun
turnauksen
ru
monien
##tuksissa
##valti
Siitä
##rad
sijain
mor
tapauksessa
jumala
hid
paranta
##ec
##kaas
Rod
pelissä
##aseman
##kappale
pelipaikaltaan
##omista
lännessä
kaupungista
##silla
rauha
kerrotaan
pyöri
yhdeksi
hallinno
1905
Vel
alkuun
kuvattu
Vali
lämpötila
##oitsi
##ytyy
kilpailu
##ellisen
pohjoispuolella
Usei
koneen
teoksia
##mmalle
rajan
##imiä
Män
Run
järjestetään
Lue
olisivat
##eeseen
sopimuksella
##udi
kim
toimittaja
Ak
##sit
67
alkuperäis
Ana
demo
raska
##ristinus
##puri
##kkaana
Ahven
Edward
##kulttuu
log
##esissa
ilmen
vanki
metsäs
##konsa
monissa
Santa
Helmik
Daniel
yhteistyötä
metal
##ür
Jul
Tro
perustaja
puolus
##yhtiön
järjestetty
##esä
##levy
##uhtinas
demokraa
##käs
##olia
tulla
##utumista
kahdessa
kunna
Kot
Holly
##ministeriön
tarvitse
pika
Cupin
##rista
##undin
Juha
##kop
annettiin
##tteeseen
##vaihe
Joka
isku
jäsentä
muotoi
##ulussa
maajoukkue
##ikaan
tapahtuma
##zo
kuver
niminen
Far
erää
##tettävä
tuomittiin
Rog
ten
valmistetaan
ylös
asiantunti
##keskuksen
tehoilla
##teollisuus
1906
tietä
alkuperäinen
Alueen
valo
##vol
Britannia
Kunin
##ikenteen
##talin
viik
##opetta
YK
Nar
öljy
useimmiten
##ass
Dor
tukea
##ikkojen
##udellaan
Cat
##opin
itään
##dri
valla
Aasian
tietokone
63
##kadun
Trans
kappaleesta
Shan
Yhtiö
heistä
Bern
Tour
68
##lein
##kirjan
Kaudeksi
##gren
Israelin
##ball
##hojen
##istisen
Rakennus
##uke
##bera
Syd
tarjoa
##uvuo
##insää
osavaltion
Rea
edellä
##kikoh
##stantin
##kohd
##tessaan
talv
##tusa
Sara
kriiti
##ipi
korvaa
Yorkissa
saksalais
##tsyy
##isija
myynti
72
##lintu
Itävallan
##ring
väliaika
Linn
hallussa
suuret
ihminen
##heim
viita
riippuen
version
ato
##neuv
virhe
kirjoittaa
kolmeen
##etna
käytöstä
saaneet
käytettä
##18
Sig
##misessä
enimmä
reser
panssari
Cra
##orina
##ivät
1908
jakso
liikennö
Bru
monen
vankil
Jaakko
suojelus
##itellen
##arit
elektron
jäsenenä
pap
Kuus
musli
tietojen
aste
##dit
##kaansa
kaikissa
##kanta
##tiede
2020
naisen
kaupunkia
olosuh
##ener
##ittoon
##yytti
näyttää
##kio
sääntö
mukanaan
sanotaan
asukkaat
nimet
##port
##tunna
määrättiin
kestää
Mun
##uille
##isemmin
##ttoja
esim
##IF
##ters
Ranta
##joille
Neuvostoliitto
Cap
Huhti
##tuksensa
##gue
##vyn
##tarv
##ure
##kkejä
##hdon
vaun
valmistus
Die
##happ
Vik
jälke
##istinen
orgaan
##leyn
tilo
valkoinen
59
##vuori
kyky
seksua
karko
Sillä
##hteä
vihi
##skyn
toisiinsa
kehittämä
mikro
Tuolloin
##kenut
hien
kuukausi
##bal
nosta
##hdin
lentoasema
kutsuttu
##kirkko
uus
##kov
eivätkä
näkyy
##yttämään
ket
tyypillisesti
työskennellyt
##rjasta
paina
puisto
##hallinto
menestyks
Näistä
tallen
näyttely
sukellusven
ollessaan
myrky
Pelin
festi
magne
nouse
radan
##ttyjä
muualla
joskin
##ttila
Vaasan
stra
luokka
ratkaise
Saman
Samaan
Fe
sijalla
myöskään
uutis
kerää
saavuttanut
asettui
Lew
valtakunna
##merkin
Keskus
##äy
##beli
##haan
##historia
puolen
Pietarin
far
kentä
App
avio
hyön
BBC
pen
sisälsi
##bia
Power
##esiinty
sarjaan
##vuoren
##tellyt
avusta
suomeksi
äidin
edessä
Dev
##jasti
asukasluku
##gori
Kulta
uudestaan
lähetettiin
##ets
76
##ttävästi
pääss
keskitty
##cks
##aras
väliin
elokuvasta
Muse
edustaja
##utensa
Saaren
##du
vuokra
##lasta
diplo
##llisuudesta
eteläpuolella
88
##tumis
kuulun
toteutta
etene
välille
Kuiten
##tune
lope
Spe
heiken
iä
elämää
##lään
Siv
##iga
74
##vali
##tosta
##dra
##öksi
niihin
toimeen
Sei
tro
jäivät
luonne
monipuol
##alien
##kille
##ostaa
pesi
suomenkiel
satelli
vahvista
Aluksi
##millä
opiske
tarkka
ali
Jalka
Mill
##ilyn
##jannut
Ras
##omaan
##kkea
Pos
##yhmän
keräsi
äänen
##maalle
tavar
Blu
Ukrainan
##hteen
##teetti
##ction
Ten
tietää
##pelaaja
##cho
edellisen
900
##tellä
asev
##llisimman
maakunta
##ohja
##CA
Alun
numero
satama
##ltavasti
kuollut
Comp
Pier
##oseura
liha
##kerro
##koista
Kunnan
##ryn
##ttomia
tehtävänä
##umi
Sw
##tilassa
##ckey
Mik
media
##lassi
reag
Häntä
matkan
yhdistää
##aja
Pic
edellis
lainkaan
merkittäviä
ristiri
##fel
##itz
tuottaja
##tuksista
jaetaan
Ang
Soci
poistettiin
##merkkejä
##aattori
##tive
voitiin
99
fyys
##iori
Dia
##eg
aurinko
Vide
##tum
##ehdo
muusikko
mihin
olo
Oike
Alkuperä
##itossa
valmistettiin
Ruu
##alaa
##mmäksi
ongelmia
erottaa
mikäli
##kunnasta
myöhä
##markkin
muodostettiin
sanan
Hell
High
ympärille
net
##ongel
##bora
albumia
##opi
##äs
##insäädän
##tation
alala
auttaa
jaettiin
Nie
paikkaa
sanoitta
Temp
Pikku
##BA
maailmanc
tavan
##uunnitt
kuluessa
suomalaisten
kö
##paus
Kei
Unkarin
uudet
Albert
albumilla
##lahti
ah
1913
osia
noussut
hopea
käsittää
##tha
##väki
ulottuu
väestönlasken
##19
levisi
prote
##rannan
00
##usen
Ruotsi
rav
Hollywood
poikkeuks
kaiva
##kiekkoi
päällä
##ssiin
tappaa
kons
##tassa
länteen
hom
toivo
hiippa
Gal
liittyvät
turvallisuus
käyttivät
Encyclopedia
mahdollisimman
Meta
ever
purka
asutus
sade
aikanaan
pelkästään
Lou
##uusta
##voja
des
eks
Mars
parhaaksi
1907
koriste
sosialis
italialainen
kahta
koste
tilanne
##vinen
Aino
sukula
kaupunginosa
##dille
##tettuna
valtaan
Tek
käsin
engl
kyseessä
##uten
Lap
Tär
maise
Nig
Kuopion
Bob
##sojen
toisaalta
Washington
ottelu
Kappaleen
##ain
##cker
Suomea
nähden
toisinaan
velje
nähtä
##innasta
##nelle
##utumisen
lisen
jäljellä
##ysan
osallistunut
##albumin
Mary
160
muuttuu
##lento
pystyi
teatteri
Lehti
kuolle
##omb
##mpin
kaar
##vestä
##arian
Blue
kenttä
olevien
University
päätyi
kahdella
vai
##valmis
##mistaan
huono
mestari
##kaupungin
##llisella
matkalla
kuolemaan
##eissä
elävät
##deja
##jalka
##miston
suoritta
##julka
##miehet
##nän
##uss
##lian
##reen
##kivää
yhteiskunta
##jään
77
##denin
kuiv
Pitkä
##paikkaa
##hoito
lienee
hyökkäyksen
##rten
Kiinassa
uudeksi
miehistö
pitkäaika
Chr
korvasi
##kehi
##cea
Royal
Vain
##row
onnistunut
##ynnä
##igan
##ings
hengen
##tyt
##vaihto
laski
Step
elämään
Law
##maala
##innassa
alkupuolella
Pas
##ryhmä
Spar
läheisyy
##laiv
digita
törmä
lisäänty
näkemy
##ylä
##linin
##juoks
Tukholman
edistä
päähän
sijasta
##vens
##rilla
enn
rikos
omistaa
pitänyt
poikkea
sanomal
78
Hun
con
##ohjaa
##öiden
pään
töitä
##ilen
Alue
##ikkana
##opimus
Espoon
##tuin
kemia
##kisen
köyh
huomaa
tasolla
kera
##dilla
taiteen
69
##joukkojen
Tw
pyörä
##tamaan
kuolemaansa
Yhdiste
Saari
uuteen
##llisti
##tumisen
##rannalla
sinf
Fredrik
##sp
mainittu
Kuitenkin
avoin
##torjunta
##tat
##juus
viides
##ology
Sand
rikko
##dina
uutiset
entistä
##lis
##turna
##päällikkö
##järveen
170
Bul
funk
Helsinkiin
175
Bus
##ttoman
animaatio
##ppuun
tall
urheilu
löydettiin
Tše
väkivalta
Fu
##ukas
uhan
##piirin
1911
vien
alaisuudessa
Kim
piirissä
rannikko
##ministeriö
suunnitellut
##hyökkä
##ffer
koira
##uval
##pole
Tex
parhaimmillaan
##kenttä
##field
##tuuri
Jat
Koiv
planee
toiselle
jatkuvasti
##ida
Apo
Hämä
nosti
jäseniä
tarjoaa
muotoon
pisteen
kaikkea
osake
vihittiin
Oper
Arth
valmistettu
##joukot
Pietar
merkittävästi
Olymp
Coun
##mukset
Taide
merkin
valvon
##mati
Dig
vaatii
sijoitettiin
täh
julisti
##zen
ajoneuv
##16
een
Lajin
ohjannut
##ikul
jälkimmä
kansainvälisen
Konstantin
##dään
laiva
##vuotisen
Seuran
määrin
##rek
##formaa
##erä
puoliso
##tyään
Aalto
luoda
taakse
##teeltaan
73
##dh
Toukokuussa
##rata
Yrjö
##ksilla
##bour
##tehdas
sanoo
##tyksensä
pelaajan
olevia
järjestön
Ylä
##niksi
Elisa
nainen
Otto
##kivi
norj
paljasta
draama
du
enimmäkseen
##nettu
esikois
##upseer
satunna
Vla
##oliin
##orkes
kauh
lupaa
harras
käyttöä
päässyt
miehet
puolis
syvä
Tampere
##nik
ex
veto
turkki
maja
tuntia
luultavasti
##llisissa
metalli
tarkoitetaan
toisiaan
vahvisti
Berg
Times
##saan
teko
##mpään
kotiin
ulottu
näyttele
piirikun
##klo
##konä
hylä
heikko
upseer
##tnantti
merkki
##ppien
##kyn
##llas
sijoitus
taiteilija
kritis
##stituu
##mara
pesä
Ama
näkökul
hyväksyi
##het
viitta
##auto
White
kommen
Kanadassa
##unda
peh
menesty
##cade
##velly
##onan
##tessä
##järvellä
##hn
##col
##vainen
##idan
kutsui
Bat
Hill
##kion
##stru
divisioonan
##alit
##itan
##vist
Luu
virallinen
rotu
aloittaa
##pre
##oinnin
pitkiä
vaihtoi
seurakunnan
peräkkä
rahaa
maanviljel
perso
##toimisto
##rikk
##astoin
Valtion
mahdollisuu
toimintaan
vaaleissa
##versio
ehdolla
sukua
parlamentti
##otti
puun
##burgin
valvo
kaikkia
##ksistä
Holl
Porvo
painos
kansallispuisto
yläpuolella
##uud
##phy
väkiluku
##joitus
hoito
##ttömästi
ben
Group
Perus
##anna
täytyy
Näitä
hiekka
syystä
voimaan
harrasta
Bj
vetäyty
Evan
posti
johtoon
##ré
##isteja
by
##kasti
mestaruus
oir
der
##essin
keskittyi
Pin
##västä
##lannissa
Patri
valin
totesi
Sai
Fried
Kivi
##maissa
mah
yliopistosta
##ukselle
##OS
##blo
Jug
Yhdis
##miselle
muutama
##sase
##alus
Syn
Cana
##hr
sup
##senin
1000
laivan
psykolo
viidestä
asioita
katka
kristinus
ryhmään
Big
##koiden
abs
##pelissä
heille
##kyyli
varustettu
päätettiin
vaihtoehto
viidenneksi
Mir
##linna
Keh
Pat
##vila
##war
Phili
##dea
kukin
roolin
##mond
Kausi
videop
##kkaita
Berliinin
Aleksanteri
Fla
##valtion
kaikista
Tampereella
##ead
##ttuan
Seinä
XI
##piispa
##jes
pahoin
##15
##ep
##mella
Windo
roh
sovell
Pohjo
lämmi
##ón
Yhtiön
##orkea
virallisen
pakeni
englantilainen
##aliin
muutos
määräsi
perään
tapasi
tulevat
yhtyeessä
##bra
lopputu
##puna
roma
höyry
joukkoja
tehopiste
vihki
Lokakuussa
##imellä
Kokemäenjoen
##veja
varti
del
pyysi
levinne
##hallinnon
les
rakas
##läisten
##DP
##uken
##kalle
Jotkut
Aiemmin
Vietna
operaatio
##päivän
##tton
pelasta
Sitte
Maaliskuussa
##urissa
tyyl
##merellä
säilyi
Korean
käsittelee
##iley
One
Muut
Presiden
##df
ryk
##liike
##miksi
##mmaa
muutoksia
##hos
Teos
##maisia
##puolen
jääkiekkoi
Tol
##mittaja
##laji
##tuneet
saksalaisten
##ric
##13
avus
##tover
Paavo
Australiassa
bo
##ukana
Otava
pysyvä
kasvanut
Game
##telmiä
näitä
##mall
Sittemmin
##sun
##ere
##vos
Club
havain
##puolelta
WSO
Internet
##esse
yksikö
vaadi
##pohja
Sea
United
palveluksessa
##töä
koulutu
Syksyllä
##elu
päätöksen
Simon
Berliin
##kosto
valittu
esiintymis
Aluksen
saatavilla
##IS
##ranga
lämp
vähitellen
Pon
Dy
kää
seinä
Joulukuussa
##vaiku
rakasta
1904
##tietee
Heinäkuussa
kevy
houku
kantaa
aikoinaan
maailmanso
Tamm
vuodeksi
##yttää
kala
Napole
##hallituksen
nähdä
ruumiin
Koh
##sissä
1200
Elokuussa
##ktori
96
##plan
Ray
North
mahdollisuus
##holm
rive
##oimaan
useat
Suomesta
Nu
##mber
##kistö
monta
Rat
johtuen
yhdistel
##itten
levittä
merkitystä
951
##mion
ag
##koita
Ston
Mit
Cle
##ussin
Kaupungissa
Jas
##eetta
pitivät
tohtori
##teks
voittoon
##metsä
seka
asetta
selvisi
84
ob
Prix
rautatieasema
##unior
nat
Kesäkuussa
loppupuolella
kärj
Billbo
tuntu
kustanta
bak
Wood
82
näki
##työt
##läiset
merkitse
Ei
pas
##ketti
##nit
vene
sotar
esiteltiin
##melle
kohtasi
tiedetään
Marraskuussa
##kaupp
toistu
##pl
##utumaan
laskuo
muille
##hard
##tyyli
##tein
osaan
turnauksessa
##elen
poikki
Sven
Tech
##siv
Kell
välin
##uuna
##oseen
Til
##tellen
pystyy
##14
pyrkii
##yyttinsä
para
##pei
Martti
tarinan
1909
tonnia
##isuuksia
välisen
IF
todella
seutu
##dot
Art
vaalean
##keitä
yksikkö
elämästä
Aristo
##peleissä
##alissa
##käyttöön
##eed
##tysten
##teenä
lipp
Enter
veisto
Lappeen
kärki
##laiseen
ilmoitta
sarjakuva
##TA
Varha
##uksensa
##kirjasto
julkaisema
##IA
##anssi
herätti
lähelle
valtiopä
É
##heen
##pace
##happo
koordin
voittaja
š
##visodan
##umia
Arch
##vallassa
lehdessä
##synty
olen
dollarin
rekisterö
fo
SA
kansi
##tieteilijä
kestä
uudistu
Life
##valtio
##llisessä
##yne
sivusto
##ns
epäil
haltu
hiihto
olevaa
sukuun
Film
pelata
viimeiseksi
##sas
Sus
##ketta
Taka
Lähi
Erkki
kakkos
osavaltiossa
##ajan
##vahti
Tru
pensa
hävittäjä
nimitystä
sukupolven
Aasiassa
##mitean
Jones
autta
##herra
lasi
jättää
##iltaan
komedia
kruunun
##fli
Alexander
osoittaa
Halli
##palkinnon
kaks
##istoon
##sopimuksen
eläkkeelle
##mentissa
Ry
##mistään
rumpali
sairas
sijoittuu
neste
Finland
Huhtikuussa
##villä
käytön
Mün
1890
tietee
itsemur
##nilla
hilja
##diin
rantavi
92
tavara
##liikkeen
Helmikuussa
##ES
God
Wolf
studi
Ison
##eistä
opettaja
ruumi
Mann
ratsu
##bet
##suh
koki
##yksikkö
##kl
löytyi
veteen
##maista
kamer
taustalla
##pot
##uer
##hdet
86
##ittä
##utka
johtuu
apua
matkaa
Alueella
lähettää
Merki
##ostus
##toksen
Perin
sotaan
tunnin
##kymmentä
päätös
kokoelma
##teollisuuden
basisti
insinöö
ui
saapu
Joukkue
miljardia
eversti
lat
nop
##malli
##ukkas
Mies
##ksille
##metrin
protes
auringon
Vo
erotettiin
hor
Yleisra
##oittivat
rakennuksen
##teä
sijaitsevan
##ukat
##virta
heng
##vaaran
työtä
##paikkoja
##yneen
iden
##katemi
nyr
Ilta
##år
##umista
##talouden
##wen
Som
Stre
##alaisesta
johtama
liittyviä
kapteeni
ulkopuolelle
nuoriso
##hyd
##lain
inti
##iselta
koillis
##ihinno
##kaali
Anne
Museo
Suuren
Kle
kaakkois
liuo
##ym
samm
##ttojen
School
ykkös
##oree
osat
##teensä
Mutta
etn
asukkaista
emä
##kunan
käsikirjoitta
##goli
##ttelyn
keisarin
##kkeet
saattavat
vaihd
pelaajana
Jäl
kukk
positiiv
opettajana
voida
moottor
##tapahtu
##evat
##ystee
##moottori
##ppiin
##tteessa
vasemmisto
##otta
saarelle
julkaisu
##kkoa
Urheil
##enny
##voiman
168
potila
##uts
##ilev
vakiin
##ars
kopi
##vuoden
sydä
jälkelä
##eva
##imur
sum
suhde
yhteistyössä
##mätön
##taistel
proto
Barcel
edustanut
##ppaa
##ksestä
##ispan
Rovan
tansk
uusin
olikin
kirjoitettu
##ttelyssä
##kean
palkka
Yleensä
naapur
##has
Gil
##mannin
päähenkilö
mielenos
87
Night
kulku
pysäh
##tuotanto
Ateenan
tieteen
kriti
Turkin
##tettavaksi
vallankumouksen
Vielä
islam
uhkaa
sijoitettu
kartanon
##pala
##teko
Tieto
kimppuun
Tr
Tayl
##tillä
##teilla
ohjelmassa
Eurooppaan
liuk
with
Mauri
käännös
tyyty
mytolo
venäläinen
Lää
trans
##mattomia
110
##kkeiden
##ihinnous
##mel
##toria
##kad
henkilön
##lassa
##elia
##tason
##tettyä
konkur
toim
##tyyppi
Syyskuussa
##alaisille
##jäksi
##kedon
laite
##ilaiset
lapset
Haw
elektr
130
halunnut
Tre
Mike
urheili
##alisti
Golden
muodostivat
Keväällä
malle
ongelma
##alisen
##päällik
juniori
tuhoutui
yhdistys
##byn
##ding
Port
##dition
Toron
suunnittelema
Niitä
##zar
inf
##eriin
Työväen
haltuunsa
AHL
metall
varaus
##noissa
Turussa
Sveitsin
kirjallisuus
Virgin
##oitettiin
##lahde
##misti
taisteluihin
##tiop
ulkomailla
##hatta
isla
Niinpä
##iman
kihla
##ctor
haluaa
lounais
Jaco
##uuksia
todista
Imp
ulkonä
98
Spi
VII
Ville
hajoa
##tuneita
kehittää
tapahtumia
Torni
sarjaa
83
Ox
muisti
##kkoja
täysi
##tonta
edel
kaikille
historiaa
liiketoimin
Steve
kadon
nousivat
kenraal
##inö
Egyptin
vanhempien
##tuminen
Eric
##idassa
saapuu
markkinoille
##let
174
##dosta
Jugosla
toimisto
terveyden
muilla
Tapahtu
laita
##ilaisen
purettiin
Anth
##musten
valon
##alismin
hahmon
kampan
##äärme
aikoina
levytys
##ellisesti
##uunta
kerta
surmansa
##tero
##tuja
Marie
hallinnon
lla
##veihin
##vuuden
##vuutta
Bell
jänni
luona
hyökkäsi
reh
uusien
##toiminta
nähdään
synn
mestaruutta
##duc
vastuu
julkaista
Ann
##issään
leveys
avioitui
Mieh
vuotis
##lyn
WSOY
##kielisen
nimitys
yhteinen
alkuperäisen
##eral
##kistä
##tyypin
ohjaus
Scott
tähden
kasvatti
bän
toistaiseksi
Mylly
kongres
jokainen
nimesi
Ahvenan
tuuli
##odor
Liitto
toisten
tunnetuimpia
Ci
##salue
Mikä
Sti
Hyvin
Argentiin
##teori
prop
muusi
lyhyen
sävelsi
ilmiö
kuningatar
##dic
rakentaminen
hyödy
Saksaan
##bus
79
raaka
Gustaf
ilmavoimien
Py
Fen
Kyl
##kieli
##tteesta
Nei
##vojen
##käynti
kierto
##kalli
##boratori
##yteen
##day
pallo
##jossa
alkanut
asunto
huolto
koostu
kyn
##hor
##ule
##paikkana
elinkeino
##räjä
##neista
##teessä
kuningaskunnan
##17
Award
##ellim
##laisessa
käyttäen
##uur
##taalla
May
ohjaaja
ravintola
inno
Vuosi
##lun
sävelly
muodosti
##did
##vira
##ranta
Real
aineen
lajeja
luoteis
tarpeeksi
tasavalta
fan
##tuurin
##miesten
ajaksi
kulutta
reaktio
riveissä
todettiin
otettu
##ryk
##cra
##joa
Gir
##toriksi
Muuta
##zon
##tistä
##torni
##bro
##even
##ikas
vieressä
##omi
sod
Ninten
sir
tyr
##detta
##dissa
Roll
silta
##kkiin
kauan
Norjassa
##snä
##vaali
käyttäyty
voimakas
##vaus
1400
##utumis
Tähän
lukujen
##iseltä
päällik
kasvatta
##hdi
Kirk
pöy
taistele
eduskunta
##sol
##väestö
##kilpailu
perustui
##ivien
kali
kuolleen
##poja
##oikeudet
##jer
Europe
Hänestä
pör
singlenä
lentokone
##konser
tulipal
##pora
symbol
##lus
lopullisesti
##ömin
yrittä
Nan
mana
asemaa
yhteys
##koke
Chris
Kie
##imeä
Mala
Joe
keskustan
##uusi
##päivänä
##gressiiv
suhteessa
kieltäytyi
samankalta
piano
linnan
##ivoi
virta
nimitti
##vaihd
##ytyivät
##kla
Sanomien
Salo
vala
suorittaa
Gun
##ttavia
roc
##opeus
##lantila
Näy
1880
haas
työskentelee
##heimo
hämä
##ruo
##isiv
##tetyn
elämäker
##turva
välittömästi
##veä
kauko
tehdas
niillä
artikkeli
##myr
##cc
pääasia
##isoi
##innot
keuh
Valen
##tran
##marin
ympäröi
esitteli
kaupunge
##keri
Tyyn
Rob
viha
lentä
katsotaan
jalkapallon
164
Hot
suv
##qvist
##uttiin
##ders
kiih
huolehti
osallistua
##ké
##häiri
yhdis
tietoja
Itävalta
##gista
Vantaan
ympärillä
##pana
##ikolle
paavi
Kuningas
osta
antanut
##11
sisäisen
##odi
kanadalainen
##ittää
aktiivisesti
##sosi
kirjoittama
Ludvig
työskentele
Pirkan
heillä
monin
taita
kisojen
##ikos
Puh
##itös
##ointia
kiinnitt
itäpuolella
käyttämään
##ksossa
##tely
165
##neesta
##hyökkää
pitäisi
##ttorina
Erityisesti
todiste
maihinnous
##ision
jälj
taajama
##hteerin
artikkel
teoksessa
puolustaja
##taneen
##ttyjen
metro
rakensi
Irlannin
elokuvia
jot
keskeinen
##ison
Käsi
##kumppan
##liigassa
rannikolla
##festi
varasi
kappaleista
Good
jatkuu
vangi
naiset
singlen
##maatti
esillä
pyritään
käytettävä
tappio
debyytti
##tulla
Massa
tehden
##ple
##pua
poly
kertoja
ehdokkuu
halka
hanki
##kulje
tupa
melkein
#
##laitt
kumo
väärin
herttua
##vär
Sö
Kustaa
puolilla
suuresti
alkohol
89
##kielen
asiasta
ominaisuuksia
##koira
Queen
valitaan
##elun
kerton
kuvaus
Muha
kohde
##tehtaan
Ihmis
kamppail
##suom
##kolla
taisteluun
Yritys
jotkut
markkina
##isua
Sten
kunto
##vyöhy
Kroa
poista
##syy
##tekn
##salan
##dioksi
93
##isari
papp
vihreä
ksi
##odia
##voimat
Med
osaston
suurimmaksi
##neyn
Ivan
##ely
##saur
komentaja
lainsäädän
##lön
##idon
sanasta
laitos
prefek
syty
erityis
opetti
piirteitä
Hockey
##rana
tähdistö
##sey
##laula
Land
##mena
paks
voiman
##ugen
##vih
##llisin
syistä
History
jäseneksi
140
live
##beth
terror
Tony
ampu
juoks
nykyaika
##nille
##ream
myönsi
##vuotia
kanavan
##ästä
orj
##ulen
##erissä
vyöhy
##armei
Camp
neljästä
annettu
##SA
Kouv
##uther
##anakirja
##jäl
Adam
heli
Syste
Pietari
yhteyttä
hur
rod
siip
##kkinen
aikansa
maakunnan
##60
##ukun
mainos
##mattoman
##ennyt
arvel
lähesty
aam
parlamentin
##upissa
kohden
##ysy
kalen
##ody
joutu
##chester
##meja
Moo
eva
##rossa
punainen
##tei
##ssien
##kiso
ohjelm
harvoin
Jeesuksen
lupa
##ettanut
taidemaal
lasketaan
asukkaan
Ret
Rena
Company
##utuneiden
poliittinen
##isee
ajalta
järjestelmän
hypp
##misensä
kolmessa
##sala
1903
Grön
pelaamaan
roolissa
Koulu
##tellään
yhdistettiin
##gio
kanava
valmisti
be
##onnut
Brown
##hasta
##iinin
##osasto
pitävät
##järjestön
alueiden
1870
jääkiekkoilija
lajit
tehta
tulos
Kier
julista
kaun
omaan
Myr
##stein
##aluetta
puke
oppim
lehdet
lopun
auttoi
tunnettuja
##urg
lähten
ottivat
Hyö
##maalin
##neessä
aluee
esitys
valtuus
##kertainen
kirjallisuuden
ääntä
vastarin
##pti
##kappal
euron
Sports
kierroksen
##ksellä
##bil
Sibeli
##lista
Joki
alkuvuo
##yhdistyksen
Bow
Miss
##mpansa
Dun
##yksessä
vieras
Acade
173
Thor
Rober
kirje
rakennutti
seuraavasti
agen
Historia
##ima
Nov
Gabri
##käynnin
##laatu
put
Adolf
Christian
##terve
##tietä
Aja
##elämä
Arthur
tulokas
##tröm
Isa
harjoitus
perheeseen
siirry
matkusti
kuuluvan
väitti
Venäjälle
popul
kad
juna
kanavalla
tapahtumat
##hdus
##kola
##kkaus
omistaja
##rejä
Ern
Ill
##ismia
##miini
tähteä
vahvasti
vaikuttanut
Usein
välistä
Jyväskylä
rajoittuu
##varti
kova
sotaa
Ruotsiin
Williams
##mori
##tiivi
Kirjan
nousee
päättyy
Brittilä
##kokoel
menetelmä
Up
##imusi
Itse
Laiv
##muutta
osu
Mikk
kuninka
seuraava
Indon
rikka
vaar
##juri
sido
##kaappa
dokumen
roomalais
merkittävin
##tteluun
ystävänsä
1860
asteen
Institu
dis
##duk
koostui
keskiaika
##vonen
##määräinen
##jum
1899
kävel
ympäristön
mahdollistaa
Ath
pyör
erino
Net
Kaik
meneh
##ivo
Gui
paluu
##naa
##teos
pyl
Siper
##ohjelma
##ikoista
edu
##ttamalla
jumalan
toiminnassa
##git
Pierre
toimen
Uudessa
maanviljeli
ph
##mmillaan
rajaa
##soi
fe
Eero
##laitos
Tyypi
pelastaa
Pohjanmaan
Time
Tuli
haki
##netään
pidet
taiteilijan
##dt
##haw
##jor
##lilla
Band
kirkossa
Mid
peliä
Yhteis
Brasilian
Kauppa
katsoi
##ersin
##udelta
pistemies
haara
kirjoitus
##esku
##kelpo
Ford
Toisin
yhtyeestä
##uudet
##neessa
valmiiksi
Espanjassa
muodo
##ukal
##työtä
Hamp
Tallin
alha
uskoi
##tieteiden
länsipuolella
##parte
vahva
Intiassa
##evän
##lova
evankel
palo
##kesi
Kallio
Cur
Sub
omien
##kol
##kiko
parhaasta
perheensä
##verin
energian
Ji
##kaksi
##vision
##oittaja
##fordin
##joihin
Ear
Alankomaiden
nuorena
purj
##jeista
##puhe
perustaa
kehitetty
##TP
Kai
##illut
Sekä
Show
##kkaasti
jäsenten
##istui
##ännön
nega
Jumala
lapsia
Luettel
voittaa
##geen
##kuvi
USA
Israel
##cu
Käyt
##mmille
##llisuuteen
##dae
##kkaat
tehot
Irakin
##näy
Wo
##mmet
1300
Free
kuvasi
##cta
##bol
sie
##tunnus
kaatui
manner
Muo
geen
hovi
vastaava
loput
##rissa
kuntaan
läpimur
talli
Atlantin
Ru
##nerin
Live
##toilla
##koh
menee
levytti
Loi
satoja
minuutin
teatterin
tapahtunut
oire
##histori
Italia
luonto
hinta
poliisin
suurimmat
##bla
##umero
tekijä
##yttelijä
##llys
News
##ruu
##yhdiste
##tyneiden
Nikolai
luokiteltu
##ardi
##isteli
##eessa
Hamil
elokuvien
##ivel
##honen
Park
Jordan
Has
Robin
elintarv
##ilia
joul
austr
itsenäisty
##tana
Nik
vatsa
omisti
ritar
Vanhan
Silloin
Prof
Pelissä
Stanley
Vladi
##cht
##ugo
Musiikki
jaa
valitse
vapautta
Kalifornia
163
##Station
maailma
Rud
tason
##virasto
kunnallis
##jit
elämänsä
##kkona
##viljel
Neljä
kyllä
opposi
siirtyivät
##johto
169
Kala
##ent
basso
Molemmat
erilaiset
Mesta
kirjeen
vanhoja
##ttaminen
unionin
toisena
##pes
##niin
##yssa
172
hum
viro
Vanha
ylioppilaaksi
lau
1902
omalla
silmä
onnistuu
##fic
##socia
ohjelmisto
tehtävässä
vanhempansa
maalintekijä
##isla
Gon
troopp
Bol
##palvelu
##hdessa
pienet
##myys
kuvata
##valmista
är
##relle
Siir
asio
##uunnitel
sisältävät
vaikutuksesta
Kat
alta
voittoa
liite
##llisestä
##rey
##tyneitä
luopui
##kani
lyhenne
dynastian
maakunnassa
henki
päällikkö
##aikaa
luotta
Christo
Hart
##ttaren
vastu
##eili
1898
##musiikin
##odo
##esel
##imon
##omon
Samu
välttämättä
##rassa
kustann
PlayStation
##pher
esiintyvät
##ics
Kemi
Sana
Kajaan
tallin
##rain
läsnä
##ittinen
ansa
Johnson
tehtaan
##nien
Juhani
yhtyeeseen
##ropoli
##opiston
Meksikon
kuvernöö
selkeä
##llessaan
runoilija
tuloksena
haja
##fos
##töö
kuvaili
miehistön
tuotannon
##perhe
Vapaa
Eräs
Laur
Piir
Islan
##yyden
Muun
samanaika
##kro
##ikkiä
##sseja
##heimin
Väinö
kunniaksi
Kulttuu
##ressa
auki
##ttoria
johde
merkitty
toimitusjohtaja
##ovin
##tilat
Rosen
ami
tiiv
th
Kokko
sävell
##ttavaksi
koulussa
##ellon
väite
tumman
##derin
##kaupan
##ologiaa
organisaatio
roole
tuottanut
##kela
ajaa
Kolman
kosket
arkisto
Pallo
##ikenttä
esille
Harris
Norman
kirjaa
joidenkin
##sessa
jokin
tiedustel
##messa
rakennuksia
viljely
kuuluisa
väriltään
vaikuttavat
Penn
lääkä
kiinteistö
Villa
pyrkivät
##tynyttä
Hin
61
häv
Mestar
##mino
Out
kuvataan
vanhempi
##liä
Cy
Best
alkujaan
##yrä
AS
Kara
johda
tah
lipun
Kalle
tulevan
imp
legen
##teeni
##ustaja
Seb
sha
kunnian
##kata
##tyyl
##kémon
Billboard
jatke
##toimintaa
Uut
katal
|
Mikäli
##hään
Ferr
professorina
##mital
maat
seurassa
suomalaisia
##tuimmista
94
155
##hteeri
talouden
##äänes
rom
Wilhelm
##erien
Beat
leviä
##unnunta
##rup
##keus
Kis
metsästä
##teille
hirvi
patsa
Seuraavassa
Fle
##messä
ääninä
##ttle
##gy
##kussa
Stephen
##kkalan
hyökä
Alfred
menestyi
perustuva
ensimmäisiä
##pia
Pun
libera
##eb
Matka
Male
osas
huomioon
Recordsin
##teillä
##täneen
saksalaisen
##keaa
kape
Kolme
orkesteri
##eä
olemassaol
##ference
Columb
Joensuun
Ranskaan
suomalaista
##eron
vin
Koul
Carol
Olli
pankki
kehittynyt
keskustaaja
##jako
##hallitus
haudattiin
##kau
pyyn
Leo
Doug
Shar
##dustri
Hannu
näkee
ensimmäiseen
“
##luon
Stor
hoitaa
##valio
##pö
##šev
lähety
tarvitaan
voimassa
##pul
##ellin
##tioon
1901
##siassa
laito
##kkaaksi
valtasivat
synte
parin
kiinnostunut
muitakin
Välimeren
##ttinä
myyty
aloittivat
##usale
Kin
##yritys
esine
puole
kaivos
apulais
ravinto
edustalla
##ydy
##tot
167
##eellä
##katee
##ukseksi
Mol
##ikokoinen
Kaakkois
läheisyydessä
Juu
##anaja
Kata
##vier
Ede
##ttavaa
Cru
##dalle
##miehe
Scien
##perintö
ooppera
arvosteli
##hia
sav
##tunutta
Micros
##FC
##hoa
##vapa
##sisija
putoa
##pt
##ism
##gaan
##mmalta
Rub
##als
##uste
##kasvu
kansala
muinais
varasto
##uen
##tuki
keino
##mmo
Tai
Mitä
##vala
##eskus
perinteisesti
##vah
gen
from
ajatus
kasvavat
##iksen
##nessa
##ttäessä
kehitettiin
##utoi
Nil
Nis
metsän
##fon
##matonta
##tteista
hyönte
kid
##ttämällä
##läisen
Belgian
lisättiin
kappaleella
##menes
Vähä
##joella
##ustaan
ampuma
pdf
Sul
##suojelu
Kolmas
Vuoteen
Kalifornian
Björ
löytä
##oituksia
##kohte
Bulg
suostu
miehensä
sisällisso
suomalaiset
Bay
Rev
valita
tukikoh
jouduttiin
##silta
Tava
ympäristössä
##jiksi
saksalaiset
##iladel
Marian
tarjosi
Raja
vuodet
välein
alkavat
bio
##taito
##vaikutu
seuraaja
##utaa
##fur
vaihteessa
##med
sotaret
##tionin
##lliselle
hengi
reagoi
tunnusta
##olk
torped
##menttiin
##mäs
ottanut
##alog
Sveits
Marc
Meri
##niemen
tapauksissa
##uch
Alber
varpus
karsinta
Psy
rap
##yksikö
sijainnut
##lls
##ques
Jerusale
runsas
##bit
miin
##diassa
##maahan
##roksen
##toiminnan
##ceae
ilmais
##kevä
##ueen
Australia
kaupunginosassa
##alist
Lewis
pelas
Portugalin
ep
##mossa
kutsua
##kkala
jotain
voimis
koulutuksen
##keten
Vene
##teatteri
irro
albumil
maajoukkueen
Pentti
##apor
Bund
asukkaita
kuvittee
yhteiskunnan
##ow
##mmon
yleisön
avaa
Bysan
kokoa
kate
##rami
Naisten
Kro
##mmiksi
kaksois
historiassa
Kang
Mie
Sisi
haar
Entertain
tutkinnon
##ryhmän
kirjoja
laskettu
taul
##rakenta
Ram
voimala
fina
Studi
jokaisen
saapuivat
##ced
##läis
äärimmä
Veikkaus
opiskelija
Armei
englanniksi
kapea
##šin
##ivän
##ties
Turku
##nimi
säännöllisesti
ryt
Hong
menestystä
##pres
Media
Video
Helsing
##jase
Shi
Kain
syntymä
instru
Friedrich
Wei
##uttivat
havaittu
vastusti
##tettaessa
happ
Camb
Oulu
vihollisen
##RA
##kkosen
nolla
saamaan
runkosarjassa
##estiin
##määrän
##ii
##ardo
##ario
Pil
Sho
alukset
romaani
##vies
Wol
nähty
##ääri
laskuoja
useimmat
ilmaan
esitetään
Lang
Reg
tarke
yhdellä
musiikkivideo
##80
##vaati
etsimään
harvinainen
##asu
##kattiin
kotise
vesistössä
Tho
1896
puoliväli
1897
##sarjaan
huv
##ähkön
taiv
tietyn
siirtää
##psy
blo
General
##vić
##ttyy
Litt
125
##laito
##kokous
naisia
esittämä
##esa
Amma
##kuntia
##ttikorkea
prinssi
sijainn
Kuva
maihin
ion
Ulko
##romaan
valtasi
##laisuus
alueesta
johtanut
##24
Ton
##osista
Associa
kotimaassa
Suomalainen
pot
##tikko
maansa
löytynyt
osoittautui
ennus
sadan
##laisista
kertonut
Aristotel
##fal
Aal
vied
voita
nopeus
##rot
##riko
australi
pudotuspeli
leikka
yleisi
kuudenneksi
##gessa
Mega
Paris
instituu
omistukseen
nuk
##kasva
##chan
lippu
Georgian
##ilas
##isien
kump
Nykyinen
##alidemokraa
vaihdettiin
##eep
##ydet
enemmistö
Simp
##ministerinä
rautati
##ennettiin
##jokeen
ostaa
##kt
##ridin
##päällikkönä
Fir
puuttu
Hard
kymmeniä
##elämän
altta
##ttuneet
bakteer
arviolta
presidentiksi
piil
Olavi
osoitti
##isuo
##meta
Det
##valan
vahvis
Jääkäri
neljään
laitte
##los
paris
##llisyys
nneksi
televisiossa
##box
##tejä
haita
oikean
##tteihin
##alismi
poiketen
Hämeenlinnan
##eria
##iskolla
kuudes
##raaf
spek
DNA
Pres
Risto
Rangers
muodostama
opiskelemaan
##serva
August
##tula
##jakso
##voimaa
erässä
Off
##isterin
poliittisen
ikkun
##kkaiden
Valmis
##päätö
Gold
Seel
avasi
teosta
Microsof
Jim
Pyr
avaruu
Luonnon
singlel
##mitea
##seet
Wer
tälle
Walter
ensisija
toteuttaa
##ttäminen
Raamatun
harmon
arvioitu
vastaanoton
##ihi
piirre
sillan
tuhansia
##pataljoona
tutkijat
##borg
##kuri
##alueilla
##puheenjohta
varsinainen
##zy
sanon
Asukka
parasta
Skan
kuvanve
##uuskilpailut
##laulu
##sinki
Haapa
litra
##isal
##raja
Pho
Sky
##tures
##isuudessaan
##nutta
Jari
vaakuna
Cli
Pana
East
##ttelua
lisäsi
##juhla
Long
bar
Broad
rajalla
Motor
käsitteli
tyttärensä
Philadel
ensimmäiseksi
Wat
##mitali
##teelle
puhta
tiedetä
ruko
##iovan
parempi
eläinten
Sons
päätoimitta
Hauta
##ttäneen
Taylor
kemian
yhdistyksen
pallon
paikkansa
##tieteellinen
Kanta
##yillä
Joissa
##kunnalle
internet
USS
kohteeksi
Suomalaisen
Mario
suunniteltiin
##trop
män
nostaa
liikunta
keskustassa
sanat
##rallaan
hiih
neut
Afgan
lauta
kandid
olemaan
##oppi
##veto
##osiin
Kone
##llien
##liikke
sarjasta
Press
sulke
evankeli
ylioppilas
##käynn
##llessa
ilmoitettiin
palvelu
varmista
neljännen
##lit
##kuja
Liber
Album
erilaisten
350
##huoneen
hajosi
##itu
Open
muodostunut
71
##imensä
uskotaan
##zu
##laki
esimerkki
##athan
hyväksyttiin
tekevät
elinympäristö
##siksi
##kaup
Levyn
##rna
Sähkö
##oitettu
lähistö
finaalissa
pataljoonan
##rie
##kautensa
##merkkinä
Englantiin
Vas
heimon
Singapor
ehdotti
käyttäjä
ö
##bre
hedelmä
lääkäri
Marvel
Avi
Liv
ministeri
166
##vyyttä
kerami
Com
Telev
lahja
hollan
##uuskilpailuissa
am
##hip
Juan
esti
laajal
pinnan
vetäytyi
159
Ada
vesille
kaikilla
##ilua
##mmässä
##yhteys
joukon
##jänsä
Kirj
##set
Hea
skan
Kuten
Pros
katsojaa
Young
akseli
korvattiin
säveltänyt
AC
##ikot
työstä
demokra
##piö
##mmälle
Mikael
lähteä
Teatter
##laitoksen
##kirjailija
tilattiin
Lis
##kasvi
Uudenmaan
vedenpinnan
näytel
koulutta
##agan
Dal
Jazz
##ineiden
Seppo
##mielisyy
kulma
perässä
riippuma
Kau
##tioiden
Indonesi
demon
##ppias
levinnyt
henkilöitä
vähemmistö
kyy
pelto
##syö
Linna
##isarjan
Toimin
viimeiset
fin
##ksissä
Mustan
asenne
Jackson
tutustui
Lening
olevaan
tilanteen
##tekniikan
##koo
sankari
vapaasti
Gua
Alas
##veitsi
teräs
saadakseen
##belin
Gala
##ttomaksi
Fis
##keiden
voitu
kuuluv
harjoitta
##utaan
Georg
maine
rinna
Lehden
divisioona
##ross
##isivät
##suunnitel
##cien
##kkas
##tama
rauni
Linnan
Ash
Tee
##puole
puhelin
Sop
kilpailuun
millimetriä
Eino
löyt
piilo
normaali
Mestarien
##inon
seud
pääma
Montre
valokuva
Au
Boy
Song
human
Finlan
entsyy
##geri
Erään
yhtään
##sää
##killa
sijan
##vard
Tas
Brian
tykki
johtivat
##oga
maito
Tyynen
##jus
Kel
pehme
suola
luokse
riippuu
##ksinen
Flori
Kenne
erikseen
Joskus
Ax
##itio
kata
mielipi
ainut
kuuka
Kreikassa
brittiläisen
päävalmentajana
bra
Windows
konferen
##tish
jääti
huonosti
pääsivät
Här
saksan
johtajaksi
tiedot
##vuotiaana
kapellim
saavuttaa
##isilta
##ttista
kehityksen
lopetettiin
varas
##now
yleisurheil
keho
annetaan
itävalta
Sveitsissä
erikoistunut
##eitaan
##mag
##ID
nisä
##arilla
81
##alueet
pitkät
yleistä
WW
##jalan
SDP
Veh
##telun
vastin
Chicago
käyttänyt
yliopistoon
##FA
##kuljetta
johtava
Hitler
portug
##väri
mekaan
laajalti
Team
Ryhmä
Somer
##lahdella
kiertueen
kaupunkien
ohjelmaa
pisteitä
vaikutusta
venäläisten
##pas
##qua
Elokuvassa
##publi
Kauko
1895
menne
täyttä
##PK
ylsi
##tteinen
keskittynyt
Sla
onne
##ant
##ytynyt
Joukku
##ikkeiden
tutkija
##valin
tavanoma
varpuslintu
kuolee
##kunnalla
toiminnasta
##ume
##ännyt
filosofi
välisenä
##miehiä
##isuudet
##luettel
itsenäisyys
##äärä
Ves
palata
joukkueensa
mahdollisuuden
Teoksen
julkaisun
##jet
PC
nimiä
Talous
perustamassa
##bis
materiaalia
Your
helppo
elokuvaan
##kkik
haudattu
Dr
EC
##leman
kytke
##nor
##osaan
Vanh
sien
Markku
##yyttä
Liisa
kerros
perinteisen
##lti
##ilma
asiaa
vaalea
Epä
fanta
##evan
Asi
pon
##teihin
nimistä
dokumentti
asumaan
ilmestyy
##25
##usko
Toh
Bang
johtajan
tehtäviä
neuvostoliitto
##tteitä
cupin
monimutka
##laisena
Johnny
ajalla
Lein
Yhteensä
##reak
##yhtye
esittänyt
hell
##bas
Palo
##ikoulu
kaava
alalla
uskonnon
ST
##telua
##ttaan
##teisesti
pelaajat
sinfonia
##raha
Cro
suurimmista
Space
Bundes
pyytää
Skotlannin
##innes
jumal
dra
Sher
##anneen
Joker
##minä
Mont
säteily
suosiota
Vapa
Lahti
huippu
sarjatasolla
Fra
Wri
Kolumb
konekivää
vaihtelevat
##els
Toivo
##rannikolla
fen
pul
totu
ryhmi
##ikoissa
British
ajankohta
AM
Elec
##museon
Fox
osuu
lisätä
väitös
edistää
mesta
Boston
##valko
Poly
##koilla
jousi
tohtoriksi
##yksellä
##ilaisten
sotilasta
saattoivat
##ou
##jilla
House
selville
tuotteita
tunnetun
keskustasta
##uraa
autojen
##rö
buddh
##ohjaaja
##kikohd
Myöhe
syynä
elemen
miehiä
hyvinvoin
##mmal
Käy
##matkan
Veikko
loppuottelussa
##johtajaksi
maaottelua
Roger
Kylän
biolog
tarpee
perustuvat
London
Samoin
##ttomasti
Henkilö
puhutaan
jatkosopimuksen
105
valtatie
##meri
157
kerrosta
huomattava
91
##utsen
##ointiin
Tapio
04
Riih
kitara
esiintyvä
Phil
Söder
projekti
##kins
vuori
##pisteen
##mato
hai
Fort
Huon
Pub
harr
tulta
Kuninkaa
##dex
##ransa
koli
##ksiaan
selviyty
Milan
eta
hape
kielellä
##mppu
Mys
##kara
saarta
pakenemaan
viis
Merkittä
##neita
##tojaan
kiinteä
##prin
##ostaan
kappaleiden
##its
helsinki
##kseltaan
kukisti
insinööri
##ion
Tukholmassa
##dys
kertovat
parantaa
##kob
syks
omaks
Persian
rantaviivan
britti
##pistettä
##lähe
liikenteen
##BS
paten
##oliitto
tutkimusta
pime
mantere
##NT
##loja
##tyneet
keskittyy
taidemaalari
vuosikymmenen
Day
naar
Siksi
suojasi
php
video
asiassa
Valioli
liittyä
soittanut
##senä
##dista
##gerin
kevyt
##oitsija
##valtaan
viihde
Corpora
alkul
kielten
Liettuan
aikakaus
pidätettiin
##RC
Iron
tärkeää
##mattomana
alkoholi
vaativat
runkosarjan
##EC
astetta
lauluntekijä
Cr
Angeles
vakio
tietty
##tutkimus
edeltäjä
tärkeitä
##hea
##ridi
kyseen
pääsarja
tunnista
##pani
##jistä
ilmake
Unes
astui
Viimeinen
##jali
Päi
sanoen
##maattisesti
tuotantoon
Domin
##katemiassa
vastaavat
rangaistus
rakennukset
##cken
##ssissä
museon
paikoin
yhdestä
##uvut
Kyseessä
omistama
päivässä
tuotantoa
sanomalehti
##kymmenen
Nintendo
korkeimmalla
löytö
suositu
pitämään
Vaasa
##heilija
departe
##liigan
##alueita
magneett
pik
##neksen
reuna
tavattu
##yij
1889
sope
tuhat
piiriin
rakennetta
##sell
##turin
Bull
##noista
tekijän
liittyvä
Indi
koros
koulua
mieltä
murhaa
##laisille
oikeutta
##kaupungissa
Esko
##joukon
saatta
tutkimu
todellisuudessa
Tyr
##tavat
Lawren
##pankki
lasken
nimillä
Neljän
parhaana
tuotantokausi
##taat
##unin
##viis
Bud
rauhans
molekyyli
siirtomaa
##hypp
##utuva
Makedon
Rio
läpä
onko
Leppä
Techn
Vastaa
myöten
Virossa
Yhdessä
talvioly
Berliinissä
##kise
aseita
##teatterissa
##nys
##radin
Henri
kääntä
vähentää
näytellyt
yritysten
##gioon
##anan
identi
##historian
johdossa
##olu
##vari
epäsel
##palloilija
##tiloja
##omuksen
##puiston
elimis
puolelta
päättivät
##21
kylään
parann
ajettiin
Palvel
perinn
moottorin
japanilainen
##hjel
Roomassa
apu
##ketin
tyrmä
turnaus
RA
sad
Colo
##illaan
talvella
esiku
signa
maksaa
neuvon
##cs
##bien
##ukoi
Kid
##isuutensa
##otto
nyk
Wiley
Kanada
—
##ööpen
Metal
pääsy
##inga
Samuel
##uom
##mellä
oppia
pohjoisosassa
##qui
Dave
laulaa
suunnittelu
##dö
Rune
kuori
##gossa
Marja
talossa
##andy
##kennus
Festi
halki
tehtävän
##liikenteen
ju
uim
##hty
Champi
Nyt
suih
##neensa
elävä
komis
sekuntia
Lamp
##filosof
##YP
Janne
kartano
nykyistä
##nu
Clo
##kelle
näyttelee
hätä
viikossa
Teoksessa
Ec
asevoi
##dik
##omus
##tuhan
juhli
juurikaan
Disney
naapuri
stadion
##ehen
##ical
##isit
##tuom
##harjoi
##ches
reitin
teorian
samanaikaisesti
##kre
Jyr
Sär
show
Hanna
Nuor
kolle
vietiin
pienempiä
##ittoa
kara
tuomar
##dar
sprin
laskea
fysiikan
kalas
teoks
1100
Tha
##ssonin
nimestä
pito
Palkin
riveihin
koulutusta
##iniä
artisti
yhdisti
##ssissa
##traa
Madrid
seikkail
pääosissa
HS
teoree
käsittel
##tumista
lähtevät
loppui
omasta
äänestä
proteiin
Tyynenmeren
##isy
##uin
Ykkö
fossi
##yhteisö
Pokémon
viimeksi
yhteyteen
##mahdo
saha
asetettiin
Bio
ansio
seudun
##taiteilija
omistettu
##itš
##osat
##ykseen
jalan
Itämeren
rinnalla
ammattikorkea
##emon
##mallaan
##tteisiin
##maajoukkue
##mpo
##mpyy
##ttunen
##voista
arvioidaan
##ssit
##eesta
##kella
Kahden
Kööpen
##yysi
iha
Rose
##maiset
##ottelun
musiikk
##tiikka
Industri
##maks
##neiden
rengas
kaikkein
hyökkäsivät
1892
Monte
pääkon
##toimi
tietos
valmennus
Mona
##mmissä
Perhe
poikaa
institu
##main
##olas
Bab
Buff
loma
ainetta
persoona
##unan
hol
##media
maksi
afrikk
brittien
kilpailua
muuttivat
Bad
Maro
##rikaan
kannatti
sairaala
kaudellaan
määritelty
Kasvi
kuvia
otteeseen
mahdollisti
Karjal
Vuosien
metsästys
menestynyt
156
Pul
Main
##jottelussa
ympäria
pitkälti
löi
##hapon
Sund
##pari
Tig
tulle
nei
eroon
lauloi
yllättäen
##kinta
Fors
##myksen
vaihde
hitaasti
edustajat
suunnilleen
tulen
##täneet
työttö
jakautuu
joutunut
##koissa
##valmentaja
organisaati
##mera
##kiksi
tukee
kumppan
Useimmat
riittävän
##ån
Tekni
##tehtävissä
##pri
Ohi
Venet
kärsin
prikaa
Kaliforniassa
sveitsi
lehdistö
kuningaskunta
neuvo
Jacob
persi
säätiö
pelastus
laboratori
##pper
mustan
##tanin
##vessä
South
tiedotus
##hteerinä
##musiikkia
perustuslain
##tiot
Street
yleisin
Tin
Hier
##yksestä
suoritus
varapuheenjohta
sääde
suojeluskunta
##rina
Lyh
varhais
115
Ferdin
Wilson
##LE
konsertti
DC
kykene
esiintyä
teatterissa
Nord
Allen
Kustan
erilaista
##gli
Rann
Andrew
##kalu
##ellään
##kkojen
Pes
Luettelo
aivo
hyvät
Cambrid
Tuomas
##merkillä
enintään
##salo
tunke
peräti
Vladimir
kansallisen
§
radalla
Dic
##katol
purje
Minnes
matkustaja
##reja
1894
Tasa
rehe
##onissa
##ttonsa
lukio
muistomerkki
##tioita
##alaiselle
Auringon
ruhtinas
harmaa
vaikkakin
##evy
##unt
psyko
vanhaa
Renault
##tory
sti
keikka
##tyksistä
Chur
Vira
kemi
helikop
ros
##valvon
Liikenne
mielestään
##ía
vuoti
käynyt
liittyivät
mes
tuh
Perä
käyty
tarpe
kunnos
keisarikunnan
UN
Kyr
##versi
aster
League
##ttavissa
hallitsija
Web
##istojen
kannan
1891
kesän
Wester
olympiavoi
##umissa
saisi
tutkia
##iriä
154
kore
##alisesti
uraansa
##hyökkääjä
lääketieteen
##iros
latinan
##itaa
osallistuu
##moi
tosi
välisellä
##salmen
sattu
##utuneen
Edition
hevosen
uskonto
alkaessa
Kymmen
hää
Whit
Liver
aallon
hoitoon
itsestään
yleisölle
menetel
vastaavan
##ikkö
suj
evol
##ttinsa
menestykse
ime
##vuoro
##öyhen
##istalla
Sibelius
käytännön
geomet
reitti
kosketins
kuninkaaksi
##lund
Lake
##xe
##himi
ruokaa
osaltaan
##AT
Pohj
oikein
Rh
##ekkä
Vien
Sound
##kers
##laiva
autoa
kukaan
mut
##hir
##donin
##katemia
##ineet
aktiivinen
tapahtumien
Aho
välityksellä
##JK
##ivin
jakson
##euvoston
##ihan
##ikar
Ole
fran
##keihin
asutu
linnoitus
asiakas
pelaavaa
päävalmentaja
##dge
##kirkon
luvan
##kasvien
Little
lukumäärä
prosentin
##lema
ana
emo
##kkonen
perustetun
vaikutuksen
##teett
##ansson
linjan
##aasi
Hom
Kom
Center
luovutta
Suh
##häkki
##veltä
##ottelu
##vyyden
cover
sivut
##tukselle
vaikutusvalta
käs
ehtin
alaisuuteen
fre
pir
Light
energiaa
##sul
joku
##vaaleilla
jatkoivat
voitaisiin
##malan
##mystä
Englanti
ymmärtää
Tanskassa
Tilan
Niistä
kustannus
Kristuksen
arvioitiin
##oro
##iner
Suku
##joilla
poikien
Eurooppa
kansainvälistä
##seksi
1888
##koneen
öljyn
##oseksua
kaudelle
Mr
oikeudet
##ER
Bren
keskinä
Lig
jako
##ilpail
joukkueet
##leja
lada
##tarkoi
##teisen
kriitt
Jur
jne
lempin
vaihtui
informaa
tuotantokauden
##deb
##itro
##vea
##yth
Tapp
##kokoon
##jektiiv
jakaan
aineita
tykistö
englanninkiel
##vai
##teissä
syvyys
05
Clar
viimeisenä
poissa
##tuneiden
yrittivät
maailmanperintö
##wal
##kkuus
##visti
Sosi
##toille
Anthony
Espanja
##ikoul
isäntä
##pian
Arkki
##mmistön
tuhota
sisältö
perustama
##wig
Kla
##seeri
##voimala
##23
##cing
yti
##ikoina
##osuus
Under
fik
kuorma
rahoitta
orkesterin
Guine
jääkä
##erra
##wnin
##genin
heikken
Ju
käsky
##ikkeita
Kaikkiaan
sukupuoli
pelaajaksi
asetti
vasten
##yltä
Wik
##vuonna
##ography
kasvin
kreivi
kirjaston
mittaa
Hamilton
henkilöt
voittivat
valmistama
etsin
##poliitt
laajeni
levyllä
##key
ajautui
egyp
ihan
Japani
tarkasti
idän
Jorma
komple
painaa
sijainti
Arn
##ukossa
##euvosto
tyylin
sydämen
##menetelmä
1893
Seitse
Billy
konfli
näkökulmasta
##tyksi
##olissa
##palloa
joille
osallistuivat
mys
sär
Juho
miksi
levo
mallia
##neelle
Dark
##ystävä
lapsille
##mouth
##äännö
Savo
##jöistä
##uksilla
##tiedettä
yksilön
evankelis
opiskellut
kated
Seuraava
ruotsalaisen
##tius
Divisi
tuotiin
##kuvan
Feli
##laisesta
sairaus
##isun
##ytön
##matkalla
##lämpötila
Anderson
##bul
##hoista
Freder
tehneet
Cri
Lyn
Syl
Vaini
muistel
tulleet
pääsarjassa
##ivos
##lampi
##aattia
siirtyy
negatiiv
##mäinen
Keisari
toimittajana
##lé
##jul
##uvoi
Goog
rahti
alasta
marssi
perinne
tutkimuksessa
##kkeja
##ykset
Ener
vita
##uminen
teokset
−
##tolla
##paikat
Kiina
jatkoa
Harri
työnsä
asutusta
kisoihin
kyseisen
tiedosto
teollisuuden
##cas
Vanco
##oliiton
##htina
##sääntö
lopuksi
Filippiin
##ffi
##htä
##ipp
##tettujen
maanjär
Hus
Kuh
##kujen
amer
tytö
seitsemänneksi
##gni
blu
merkitsi
muotoinen
##kkoslova
##tsen
Ilkka
Lehto
tekemä
suurimpia
##rajan
##massaan
junior
ilmatorjunta
Manchester
tš
news
Pelaaja
##elokuvassa
hyökkääjä
##pos
##wic
innos
Antonio
##korja
##vaiheen
1885
##vaalit
##alueeseen
Pariisiin
Emil
jossain
olosuhteissa
##ctic
##omina
käsityö
vastoin
albumilta
tasapaino
##IFK
Cer
##kirjoitus
upo
##istuin
##neistä
Parha
tyyliä
Angelesissa
*
Rah
pyöreä
tuhosi
##rakennuksen
##töitä
Journ
ylittää
pistepörssin
##toitu
jalos
vapaan
ranskan
ensimmäisestä
##itar
Over
Uskon
hammas
Yleisradion
Aga
eroaa
##kirjassa
nuorempi
##korva
samat
saaria
ehdokkaana
149
##osaston
asutta
Syyrian
kääntyi
top
Reference
##tähti
##käytössä
tulleen
albuminsa
##vene
sein
##ttelin
Louna
historiallinen
##teensa
opetusta
komentajana
karsi
sähkön
päällys
Amerikkaan
ranskalaisen
Log
##arkki
##ttaen
juus
jatkamaan
toteu
##aatiksi
pientä
suurten
##ultaan
##kylässä
niille
tervey
luetaan
##oluo
Shin
Päivä
erillis
jar
##mberg
##perää
Franz
Ams
Cir
Girl
päih
Force
Salon
nostettiin
Ped
symboli
##tura
Chap
suljettiin
##lev
Opp
musiiki
##myyn
mos
papiksi
##osien
##mmällä
##kirjoja
kulkevat
selittää
palveluksesta
##kanna
##eineen
Stone
##järjestelmää
Aku
##ukasti
hyviä
##immaksi
korrup
ottelunsa
##VI
Aurinko
kukista
##onso
##tuli
Laura
poten
##tutkimuksen
##eenä
Aki
ruskea
muodostaen
##jua
##sty
##kaat
Jeff
José
Trop
Mestis
asennettiin
##ittel
##kkeita
asemansa
elokuvat
vuosisadan
##sista
Isossa
potkut
Pariisi
muistetaan
##rest
Got
##iskel
##mithin
paikallisen
seurakunnat
Fos
pääte
miljoona
##aatit
Lopp
##bralta
##istusta
lajien
muistuttavat
##yle
##kelta
ylän
katto
syvyy
ruumis
kerrottiin
##mastaan
Wen
bel
##annon
aikainen
pohjoisen
Steven
rannat
yhdistelmä
##uhd
Ye
##tinut
rikki
##llisenä
##piiriin
mitali
toimitti
valokuvaa
158
Lip
kattaa
Seuraavan
##LA
Pei
##kaista
##ohjelman
ohjelmis
ominaisuudet
##miset
robo
##iseura
##raalin
Vietnamin
Cos
##istäjä
sukupuu
##määr
##stön
unoh
työnanta
##chel
##virran
##isempia
otteli
tehdyn
Dub
##kkelin
##teestä
Fanta
##anaan
koro
omaksi
sotilaat
##utia
##osasta
##kokouksen
amerikkalaisen
##here
keitti
mittaisen
Britannica
rakentamisen
##iski
Ami
hydro
korjaa
hiukkas
jääneet
Kup
##inger
##niemi
##ograf
kylmä
toisensa
sijoittuen
06
FA
osui
kohtalo
kuolema
havaitsi
katsottiin
kuninkaallisen
Hera
maksu
sound
Helena
temppelin
eteläosassa
##ots
07
##tilä
##tukseksi
##ytettiin
armeijaan
julkisesti
Iranin
Liverpo
versiossa
##cle
##ariin
hoiti
yksilöä
Eurovision
##alina
alke
hard
vety
suosion
wa
##ence
Elin
##arinen
##taiteen
##maattinen
Joiden
pyrstö
##tikka
Bruce
tes
natri
Tall
Davis
Naaras
pelejä
merkitsee
Jr
135
##tujen
länt
##korkea
ampui
sisältyy
Yrityksen
IT
punk
sopimusta
McL
Eliza
leima
##aleista
juonta
##muksesta
jäsenistä
##kr
##xic
##tiosta
##itit
kaue
akatee
aposto
##sir
##alvel
##yhtymä
elokuvajuh
millimetrin
puhuu
##annissa
paljastaa
vol
epävira
kaupungit
tehtävistä
##leh
##uld
kasa
Morris
merkkejä
ruotsinkiel
Cu
##keat
##thin
978
Nick
##manien
jouko
testi
kuljetus
muuttunut
Moskovassa
polku
etäisyy
##fri
Kuk
ele
Aikaisemmin
##ällä
Petri
tiety
tuomari
ylläpitää
epäonnistui
Gla
Sav
Hitlerin
09
##etyy
Kni
reakti
aloittanut
##tisia
153
##ineita
##oidaan
harha
termi
karjan
ottamaan
osavaltio
sarjoissa
##ttop
##merin
todettu
Kop
hyvää
paluun
##isteriksi
pystynyt
syyskuun
sävellys
ulkomaan
##Pa
##em
##arien
nelin
##strömin
Justin
uudella
valkoiset
##liitty
##yhdisty
##johtajan
itsenäinen
nai
##eries
Preussin
Mia
##tunn
Ajan
##paine
Island
vastan
##ttämistä
kanssaan
Joidenkin
##FL
##cial
109
Vii
Joen
Vesa
##kokoonpan
kirjailijan
##isat
##nian
mod
jatkosodan
Argentiinan
MA
kirkkoon
koristel
ped
Death
maalaiskunta
ump
ääre
piirtä
Kilpailun
valmentajana
Ilve
arabi
Yhdisty
taivaan
##22
1850
lyhen
miljar
yhteisön
1886
Luku
##reista
Oulussa
oikealta
dik
##teetin
##tonaan
##tuilla
maanpa
ystävyys
ajoittain
##teellisesti
##saira
Detroi
##elän
##kokouksessa
Jälki
##kehitys
edustajana
##agog
##umisen
Charlo
taistelula
##view
Edu
##ettava
Julius
Gibralta
järjestety
##ukse
Sid
Pitt
##eriä
miekka
kerrallaan
ym
kilogra
strateg
yleisiä
sunnunta
valloitta
alapuolella
##cri
08
oltava
ylimäärä
haavoittui
×
##kkeitä
Novgor
vuositta
##kät
Hud
##oitusta
siirsi
tarvittaessa
Abd
Ark
Mei
asunut
asukkaiden
Fur
avo
##lahteen
laskevat
pitkälle
Philadelph
Useat
##ttomana
Jatkos
oltuaan
roomalaiskatol
##haar
oran
##An
laadi
##bec
mpy
Mul
##mitalin
häneltä
lopettaa
protestan
yksityisko
Sonic
soker
##ikainen
Yorkiin
toimineen
Dog
##matöö
eron
asiat
MS
Online
valkoisten
maailmanmestari
bol
väi
Miha
keskikenttä
Aiku
irti
##pinnasta
pyrittiin
Ep
##erit
##ttis
##tuma
Roc
salaa
ottaen
ilmaston
kehitystä
Single
##politiikan
loppua
oppilas
tappion
lähtivät
yritykset
Käytännössä
##tral
##olassa
seurus
lapsena
##syntyinen
tapahtumassa
##ults
piha
autio
grafi
##albuminsa
Kulttuuri
##hko
aar
1882
Rauman
##teatterin
viimeistä
##gei
bon
Back
##asukka
##kartan
##viassa
##merelle
kielsi
##vaike
portugal
punakaar
Hed
1884
Blan
Tele
Maala
Mikkelin
Made
arve
Slova
Vincen
sekaan
##aksi
##stro
luopu
teoksensa
##CO
##ora
##nesta
huip
##luokka
Sitten
finaaliin
korkeakoul
käyttämällä
vallankaappa
##ikkeitä
##alueiden
tavallista
Soi
##funk
Vall
Shang
Douglas
str
##oniin
##kasvit
saatuaan
##eve
##istoja
Puoli
##samon
mäki
##reiden
Kaupp
näyttämö
Ib
HIFK
##iskeli
hyödyntä
joissakin
tietosanakirja
450
##bumia
##hoitaja
Valkea
##vain
Vilhelm
viestintä
##ão
viul
##isimmat
kansallinen
juutalaisten
##ikalla
##ttamista
Toisessa
kolmella
valtaistu
vastaavasti
##lum
kylää
Ruotsa
vapautettiin
##nyi
##pop
##kselta
##iky
##ord
Ahl
##väksi
paksu
##tuttuaan
pudotuspeleissä
BM
ee
##ootti
##koilta
Sloven
useaan
kilpailut
Gabriel
vakavasti
Juo
yleisty
kansanedustaja
Kh
Cre
Inc
huomattavan
maailmancupin
##torina
##uduttua
laajan
romaanin
useisiin
##kerto
##utoja
##tuinen
##moottor
##ykmentti
vaihtaa
musiikista
##gro
##perän
Talo
Presidentti
Alexand
##happoa
##kierro
##cts
##ipe
Sami
Well
siirtä
tilapä
vaikeaa
valtakunta
levinneisyy
##anny
soitto
vedessä
huh
##tereen
syytä
Ontari
ristiret
sisältävä
palkintoja
korkeintaan
##sing
mei
Comm
Carlos
jättilä
kysymys
menehtyi
##ötä
hv
##dium
##feld
kuoro
Tö
##koin
1887
Häme
kron
alueille
145
natsi
kiinnostui
##llian
Puolustus
heinäkuun
vahvistettiin
oles
##matiikan
Porvoon
komentajaksi
PS
myymä
ammati
tiloissa
bla
gala
Leagu
vallankumous
##tern
Pih
henk
siirtynyt
##syl
lehteä
Afganista
julkaisua
käsitti
Ensimmäisessä
##lehden
Heillä
juutalais
##uru
nuoria
##peä
Legen
Tärkei
laajasti
##ruskea
##missaan
kiertää
Sebastian
laitoksen
elintarvike
##keet
##vero
Stock
rasva
Johanna
puutarha
McG
Tyl
asuvat
maailmaan
neuvonanta
tytäryhtiö
##mmön
Rita
tapana
nimenomaan
Viita
myöntä
valinta
##joukkuetta
elokuvalle
1883
tuoh
viri
Lammen
selvittää
retk
vaja
raskaa
neuvoston
elossa
##joukkueeseen
Seuraavaksi
Tuh
Hollan
äänistä
Rik
taju
esineitä
tiedossa
allekirjoitti
##ray
##sali
Kah
ahd
hyöty
Master
diesel
##komitean
##tettyään
Patrick
##dell
##monin
Abra
Korp
##tointi
uusinta
pelataan
Asia
Hyvä
tehtäviin
127
new
Edvard
##piirissä
pituinen
rakennusta
##uhe
Society
European
##telle
Dead
##tuomio
Ernst
Pekin
03
Ts
viin
Lähes
Nokia
##paikkansa
Bry
imperi
minera
##peräinen
Champions
projektin
viimeisessä
Sm
##tsista
velvo
selviytyi
ristiriita
Mana
Kevin
kykenee
Karh
##tekevä
univer
Etiop
pisto
##estissä
Jacques
palkinnolla
##toh
päte
##tsasta
Margar
Victor
paavin
käytännö
tarkoitti
ensiesiinty
##väkir
unkari
Kunnassa
kalastus
hehtaarin
Christopher
Ein
Ruus
Franç
##ingtonin
kooltaan
Satakunnan
##vot
aav
Pieni
siipi
##tieteessä
##ukki
torni
nuoris
olenna
##ishop
##arissa
Sosia
brasili
AB
##cian
##pesi
##uven
##asili
##etyyli
##istosta
tuottajana
##usett
purjehti
tienoilla
River
antoivat
##kaava
##ttajat
inves
lensi
valkoista
valmentaja
##bir
##anal
joella
osakilpail
venäläiset
##projek
siltä
Virtanen
ylennettiin
##kyhty
##radan
Bird
Tenn
kisa
ruus
happa
##ikoulun
kla
Kemp
##kentän
luonta
##llisiksi
tehtävät
kaupungeissa
1881
##laskun
##gien
Romaan
joutuvat
sanoista
1878
##aattor
palkki
##elokuvan
HC
##mukseen
teoria
luotetta
amerikkalainen
##borgin
##hoissa
Armen
laatu
nuorin
##lasku
kaksinkerta
näyttelijän
##ikoilla
##ttäväksi
Fly
Alban
kartta
##palkinto
peräkkäin
Talvisodan
##jensa
##ttömiä
mennä
muotoa
varmis
##ttelemaan
seudulla
etupäässä
But
Isä
graaf
##kkeeseen
propagan
##baan
##biin
##soja
tiivi
klassi
väitteli
Seinäjoen
##cast
Göte
saaret
maaliin
mukainen
satelliitti
##pyyn
##vässä
vuoren
halusivat
##astoa
##kulku
Hugh
konetta
niemimaan
päällikkönä
toimintaansa
##gus
##ania
##imys
gran
näyttö
myydään
suhteet
amiraali
asemassa
hallussaan
sijoittuvat
##isse
Moder
evoluu
aineiden
Thai
##merkit
##misella
##maailman
edustavat
hylättiin
Of
budje
Kaun
hetken
tapahtumista
Risti
lohko
##tetuista
liitetty
##énin
Cast
diag
Irlan
Tarin
##joukkoja
olympialaisiin
huone
tuken
hankal
Unescon
sanotun
##uutar
aseen
journ
maksoi
Riihimä
yhtyy
valikoi
Ob
106
##kuvia
lohik
##chusett
päätoimittaja
pö
##stad
##isivu
täs
Ensi
Intiaan
kapinan
sijoittunut
##töntä
Brad
##aktiiv
##siirto
muusta
##mple
##suku
107
näytti
äärimmäisen
Pirkanmaalla
##ving
##tettynä
##kaudellaan
seuraavalla
##IT
##venä
128
##keistä
vaalit
omassa
##bat
##the
jättä
asettaa
sivuston
julkaisee
Upp
##tekniikka
tyypillinen
Beng
kreikan
##rauh
kulj
vihre
##ulainen
360
Pauli
Otavan
teolog
##tedt
aalto
##maisesti
##magne
Mongoli
vastakka
havaittiin
yhdistetty
##jaka
##ulus
##itaan
##raatti
pione
ylitti
Smithin
alkuloh
huomasi
luostari
läänissä
homoseksua
espanjalainen
##ET
147
Put
kasvien
sopivat
palkittu
Tšekkoslova
Massachusett
julistettiin
##oluu
##taatio
Pelaa
Kotkan
erillinen
Terve
sopiva
komppanian
##maise
Down
esittävät
##öllä
##yistä
Rata
videopeli
##llit
##rash
Turna
Anders
keuhko
##kunnissa
keltainen
kansallissosi
##27
##edin
NBA
muni
viiv
##kansan
parti
sotien
Ferdinand
##PA
1830
rahan
romaaniin
sairaalassa
Id
Ball
Gian
Kosken
seuraavaksi
##ginen
Jeesus
toisesta
How
##kolan
semi
##ilijat
Texas
kuolin
vapaus
silloisen
Rakennuksen
##aris
##gion
##holic
##ravin
Osuus
hitti
##järvestä
versiota
hiilidioksi
##ather
avain
usean
tyypin
ylivoima
Kui
##suunta
aktivoi
##istukseen
##kans
##ysin
Rin
##masti
Dion
##kkeellä
lännen
luovutti
luovutettiin
##teho
Hang
laid
##oineet
Korkea
johdon
sairaan
sellaisen
Kaza
##yksissä
Tornion
ikäisenä
hyödyntää
Aka
uima
##puolet
Serie
München
suosittuja
##lto
##more
Mänty
käydä
julkisen
Kansainvälinen
##väs
Ce
Isän
saamela
Varsinais
sotilaita
komppaniaan
##too
##itsa
##lius
Sas
mit
##mminkin
linnun
vampyy
palautettiin
hallituksessa
##ivuo
hyp
##puolu
Edus
olevasta
taistelua
##bout
Kum
Viro
hetke
lauluja
##mojen
aasi
##llissa
Kuun
##tonissa
Yliopisto
Pohjoismaiden
##yhmään
paini
sanaa
Warner
Italiaan
aikuisten
##puan
##rican
##oineen
iässä
syöksy
kävivät
##mitalisti
kielessä
muuttanut
sarjataso
##ruot
Alp
##worth
Alanko
systee
##udestaan
viitataan
mahdollinen
##periaa
epäsuo
##puolinen
laajennettiin
##bell
##tulle
erosivat
toimenpi
Kö
Huh
NAS
##kensä
kuko
##hahmon
##igassa
Pihla
heiko
Puolue
viikko
Samassa
ennakko
palkintoa
##ova
##ulf
##elius
sali
miltei
haastattelussa
##osoi
##mpaat
uppo
kanto
sukun
moraal
kohteena
taloudellisesti
##kuor
104
##tumaan
vaino
Linnun
naista
yleisen
lakkautta
suurempia
perustamisen
##omassa
Rakenn
kategori
merkittävää
##hil
Aur
Barb
##utuvan
korkeuteen
töihin
johtamaan
1863
sisäll
pitkäksi
Aleksandr
luonnonsuojelu
##onian
Emma
kitar
Lounais
Arto
Sillan
Qa
##eläin
Buda
palatsi
lokakuun
Ing
##nestä
Jane
##ttikin
Wienin
syövät
haltuun
tekstin
Etu
##alasta
##linter
Comic
kuntien
pelasivat
lähistöllä
tärkeimmät
Jugoslavian
työntekijää
Lappeenrannan
Rosa
##luokan
Puola
##eläimiä
rautatien
kesäkuun
Institute
##elman
##viera
##aikaan
##illeen
Amster
Dragon
Markus
Kajaanin
tehtävissä
##urs
Old
##kinsa
Silta
useista
ravintol
luonnossa
tyypillistä
Lau
Brun
Fire
elektroni
rekisteröity
##töön
##karsin
Tuotan
palaamaan
seitsemäs
##moon
sek
##arista
tumma
Pakista
olympiavoittaja
##llyn
##vaalin
heijas
vaihtoeh
##get
##maita
Frankfur
arkkipiispa
häviä
##terissa
kauppaa
varhain
debyyttinsä
Sec
Lars
katoa
Ukrain
SKP
Virta
kontro
muualle
käännetty
##eau
Az
##puhd
patri
vasen
hahmoja
joitain
albumille
kirjallisuutta
##naan
113
Boo
alen
porta
Magnus
autoja
naaras
alusten
kalasta
toteutettu
##mesin
##väestön
France
Association
norjalainen
riippumatta
todellinen
##nein
##siini
Nobelin
kotimaa
##puoliskolla
Dri
Hui
##vaari
Andy
pom
Catholic
ensimmäisistä
Rid
##riassa
kiersi
##järvelle
Arabian
##26
##tymään
##töiden
Water
huume
huolta
käskyn
pääkaupungin
jäädä
##ín
##sie
jakel
kestävä
ravintoa
keskiarvo
näytelmän
kokoonpano
##tieteellisen
##piä
Julka
Liiton
muodon
##anto
tilat
strate
##isku
yhteyden
aiheuttavat
käsikirjoittaja
##anen
##oimi
##ennot
##iasta
##urojen
korkean
##ice
##kohde
kukki
säilyttä
Microsoft
vankilaan
merenpinnan
##önn
huvi
##ikojen
Tähti
vaate
Mihail
Jän
Kill
Pesä
Toimi
työpa
tekniikan
varsinaisen
##IN
Satur
asioista
Pear
siirtyä
matemati
101
##umaan
vaina
kirkkoa
saaneen
Bysantin
tuottavat
##lissa
##inetta
koiran
hylkäsi
kylästä
uudista
Moottori
toimivan
sh
##asun
vyö
resep
kasvatus
tuottama
Mod
##kattu
Arte
##oliitt
##käsittely
komponen
##29
##tetussa
häneen
vankeus
##koulutusta
erimielisyy
arvoa
platin
lehtien
peleissä
jääkärien
kaupunkeja
ihas
Veden
Kartan
ulkomaille
##pöy
pojat
pariin
poliittista
##yynä
Hop
1876
Pasi
kuka
##sylvan
harki
##ædia
Jud
##burgh
##kirjat
Ransk
nokka
##isimpia
vanhat
versioita
Yhdistettä
viimeistään
uha
adop
##isaira
##ähkinä
##teorian
leikkaa
suunnattu
politiikan
puolisonsa
Lö
Teräs
Colora
puheli
viereen
voittaen
Mannerheim
suunnitelman
##reita
Sama
Kanga
olento
molempien
##ffen
Cin
##ehden
##muodos
##ttuneen
pitäjän
rakkaus
kunnossa
nimekseen
keskustelua
Mé
134
iski
keula
sinfoniaorkes
##MA
IB
##ytin
##isarja
esikunta
hallinnoi
pelaajien
Cel
Bene
##ineena
##tilaan
##ttajana
hollantila
##ovan
nar
##miensa
koneet
Napoleon
edustajia
piirikunta
##ak
##alen
##iluo
##mund
108
Blues
kiito
##htaa
##kangas
kauhu
tuoda
Pertti
kevään
kansakoulun
tuotannossa
##mily
##toivat
sytty
puuttuu
luettelo
##tuotannon
resur
leijon
##mattomat
##muksessa
##upi
##prof
##rauta
kvar
blues
##oinnissa
oikeisto
kannattaa
Pietarissa
##hanin
##matis
1848
sell
##ttomat
ehtinyt
Mäki
ruoho
muodoltaan
opas
kiertueella
konkurssiin
vaikuttivat
maalaus
keskeytti
##ehr
Chi
##hoven
##uneet
##keista
##pitoisuus
Imat
Ympär
itsekin
kuljettaja
Kansainvälisen
##td
##iat
##iven
##koro
##ojan
lun
##ttelevat
liukenee
Seuraavalla
konservatori
##alaisella
##bach
##ikanaan
##maisten
varusta
torjunta
keskiajalla
##fysi
Uus
##miestä
kruuna
ajatteli
##ttämiseen
vallasta
##menin
viher
armeijassa
panssarivaun
Eer
##tieltä
Hyökkä
rikkoi
Kalevan
Muhamma
tekstiili
henkilöstö
##album
kyennyt
##lantilainen
ortodoksinen
liittoutuneiden
##ryp
Ero
Saira
Servi
##ellista
##risen
Rail
osasta
tiedus
ilmavoi
Olympics
pelaajia
Sna
muuhun
mainitsee
##ppoa
##taid
viran
##istunut
Lontoo
järjestys
##gua
##uvo
Von
Hugo
Ober
Soul
idea
##musiik
##oppila
##organis
1879
selä
vienti
paljastuu
perinteinen
Amb
Tran
##mereen
nuoret
Saksasta
paikallisten
Entertainment
##fors
##mmel
eläimiä
oireita
opi
elokuun
asioiden
Xbox
syntyä
työssä
pisteet
Hev
##itoja
Laato
kupar
##oillaan
Lontooseen
##rio
Tir
alt
halti
kouluk
kuutio
sanonut
uudelle
neljässä
##ness
Pea
First
##terveys
juoksi
markkaa
tasolle
kunnanvaltuus
taloudellinen
##kanin
1862
kvan
##impiin
kolmea
lupasi
kärkeen
roolistaan
##hda
Arms
Simo
perustamisesta
##haara
Kron
Rese
Tila
arki
Laulu
Konser
suunnitelma
Asu
Yhte
Piispa
irta
lumi
Sport
Tör
1840
Moon
sens
Gordon
Produc
Latvian
##divisioon
valkoisia
viidennen
##pum
##liiken
##murhaa
voittamassa
huum
louh
College
levottom
pysyvästi
vesistöalue
##bot
##plä
##uras
117
Lim
Stand
nousu
##tyksenä
vakiinn
##Tub
ilmenee
##tuotteita
palautta
rannikon
1865
##tilasta
##vuosina
mainetta
Divisioon
##tene
Kauha
nautti
menettää
mielessä
arvellaan
Pennsylvan
##rel
##kker
##tanssi
osuuden
vallitse
##rintamalla
##ät
##moa
##archy
##rakenne
Siemen
musikaal
pohjautuu
käynnistyi
##DA
pud
vihan
Väestö
erotti
lailla
##ikulttuu
End
Vah
kevä
Donald
Lasten
prosessi
##pyr
##phin
##pikon
Oran
kokous
##kunnista
##ttisesti
##eeta
##uter
##äneen
##valtojen
luomaan
muutkin
myöntää
valloitti
##mahdollisuu
jokaisessa
onnistuivat
##jamin
##kiluo
Hamm
lakia
##tyksissä
##UL
Had
standard
##telemaan
otetaan
Eugen
monesti
Finlandia
##sep
missään
perustajajäsen
##koil
rooliin
kommunisti
XII
iku
Jason
##tutkinnon
katolisen
maisteriksi
Pyö
##telin
##ttimen
kreiv
lause
taito
##oitunut
YouTub
DJ
Hul
##ustuksen
##alaiseksi
Encyclopædia
##puli
Aven
Kris
belgi
##ittojen
tuuman
##usia
Emp
munua
poistaa
vanhojen
ilmoittaa
historiasta
rakennusten
paidassa
syntyneet
##käytö
Budap
suostui
toimeenpan
hiippakunnan
##vor
web
##biili
##telta
ohje
##biassa
State
asenn
hidas
System
viiteen
##hot
##luv
Dur
vet
1877
##kiertu
tauon
Lennon
olympialaisten
Dyna
keksin
maatalo
sotatoi
lähtöisin
Marcus
hiukan
pienois
aggressiiv
henkilöiden
##ysoi
##astia
1871
kyyn
##otball
veljes
##viraston
tapahtuman
paikallinen
keskimääräinen
UE
##leen
##sign
Are
luva
##ttömän
Fernan
pienin
toimimaan
muuttamaan
Ek
##aine
##önsä
Huu
Rom
##ristä
##ttisia
##tutkija
Awards
johdettu
SC
##yoff
##under
Demo
Laki
Veli
peto
ryhd
Juhana
opinto
##ivillä
lihas
korkeaksi
##veri
114
##isaar
Asema
epävar
tehdyt
##giaan
Koulun
jaksoa
toiset
paikasta
vangiksi
korkeimman
Taite
Maahan
lausun
##uksistaan
kirkollis
toistensa
ly
##koli
##lesin
piden
##linnassa
##puolustaja
matkustajaa
Stran
##mestaruuden
kaikkialla
Ryan
puhua
Unkari
mereen
meriros
television
103
##kuvaa
Naan
Voima
saavutu
Yhdistys
kissa
Oikeus
pohjan
Nykyisen
sivustolla
##inny
##neja
##yrän
##arina
luoma
Kangas
käräjä
maisema
tunnistaa
Emi
##muuto
tieltä
tiettävästi
##cep
ABC
Soin
Herman
menivät
virkaan
lainalla
tukemaan
tulokset
nro
pus
##tetyt
lyij
tuul
Taaja
kehite
Tällaisia
Corporation
##EL
##läisiä
##mäellä
##eittain
islamin
raskaan
##llisyyden
erilaisissa
kiellettiin
pell
Keskia
toteaa
##jur
118
##masto
värvä
Grammy
Näihin
Studio
Olympia
TPS
asp
hier
sotavan
tähtien
jäljelle
##sän
lon
##ihdon
Arvi
evaku
Batman
sataman
paljasti
tarinoita
##lov
kaup
taan
Sergei
käyttöönsä
maalivahti
##kamp
jae
hypo
Gustav
Svenska
Konstantinop
##kysy
##tela
1855
1864
##llasta
Kelta
miehe
ruoan
konsul
lennon
asuivat
Jokainen
kauppala
##upä
##jouk
ylin
teoksissa
119
##ttävää
Jenni
suuru
Elizabeth
##vitš
##vakuu
norma
##tyminen
torjui
tärkeimpiä
loukkaantui
kahdeksanneksi
##iviä
bal
##viiva
Wall
Marko
sanoa
tutkii
Hänelle
ennätys
maalasi
kotimaassaan
##ehd
144
Yos
##janta
##iuksen
##öltään
Eurooppaa
##oran
Him
Oyj
karj
valoa
Howard
rinnakka
tehokkaa
sukupuuttoon
##kulma
Paasi
black
matal
##alistisen
pianisti
##28
Eura
käyttämä
CO
HM
Louh
Cityn
lentää
nyrkke
hallitusta
##xi
akus
##paikalla
paikkaan
Hämähäkki
Kera
ihme
käyn
Jakob
rakentamista
Mada
karva
tosia
##estadio
paha
vanhi
ääniä
monista
ulottui
##otan
##lehdet
aisti
Tokion
sininen
yhdistyivät
##wski
Guy
##selän
kieliä
rintama
##low
Oma
##ueeseen
vierail
Jälkimmä
liikkeelle
##IM
##lässä
hahm
##pankin
myydä
moniin
alankoma
kautensa
useamman
##ingen
##tykse
Kypro
Varso
tappoi
##ialainen
kaikkiin
saajaksi
tuomitsi
Esa
##ivana
hotell
opinnot
palvelus
palauttaa
Eh
##imeltään
tunneta
Napoleonin
kappaleessa
cup
##luutnantti
Francisco
##EA
uo
pöytä
##vaalien
kohoaa
rekisteröi
##jaks
##tics
aro
##veksi
##alisia
patsas
silloinen
Rie
##mallin
##tiedon
Jimmy
Latin
laaks
viere
Ensimmäisellä
##inut
##ääntö
##chenin
integ
ajasta
määriä
täynnä
teloitettiin
McK
##itolle
kuuli
##lash
##lejä
glu
##gelin
##tinsa
##tke
Hay
##ogeen
##talan
väär
kisat
nukku
erotta
kuulla
liikemies
sotilaiden
valtioiden
##toli
Wel
sisko
liikaa
luokkaa
olevista
puolusti
maksamaan
samanlainen
##gre
Sum
fas
Hallin
minkään
##tehtäviin
verkosto
merenpinnasta
##ftin
##temp
Bah
Nep
ehd
##imelle
kevät
taistelemaan
##joina
##verta
Arvo
toivat
##kisoissa
tarpeen
alaltaan
tarvitsee
tapahtuneen
JR
Zen
nousta
kaakkoon
och
Erää
Stein
vaiva
Kroatian
valvonta
##bac
Tod
##holmin
Nuori
##llisina
Michel
aiempaa
kasvattaa
##lähetys
Nokian
##uvuodesta
markkinoilla
##cio
##tuur
##ukar
##anger
Lady
Maja
Great
jonkun
valmensi
merkittävän
Ltd
Ral
##koulua
kaappa
##uunnitteli
palasivat
eduskunnan
KHL
käden
##peleihin
arveltu
pelaajaa
ranskalais
poliittisia
##sea
##mate
Bis
meto
Charlie
Puolassa
pinnalla
hautausmaalle
##laj
fun
##tuissa
aukko
jäävät
anteeksi
käytäntö
Kirjassa
kokouksessa
vuorokauden
##osas
129
kokee
Kilpailu
suuressa
##OK
Bet
den
##päähän
murta
teini
Stefan
Aaltonen
julkaistun
kilpailuihin
##dow
##idž
##kiat
##tynä
Koo
##arvon
Urho
kutsuu
johtaman
Kustannus
##nee
##viir
##ttein
Line
##villen
Kemin
lähtenyt
syntyneen
##tso
##nica
Ant
lähd
Mesti
Muina
kamar
juuret
turvaa
##tieteili
tutkittu
ankku
tauti
parhaat
playoff
kolmannella
Ian
hea
Face
Trin
make
Samoihin
antamaan
venäläisiä
app
Linux
salali
alkoholin
enemmistön
##head
ilo
##keilla
arvoi
avioliiton
##kai
##itch
##rasto
Lund
##uraansa
huonon
silmät
manager
Kööpenhamin
hallinnollinen
##tuote
##toinen
Aleks
etsiä
höyhen
säätiön
##ysta
Juus
##htorin
bolšev
paikallista
Av
##oidi
##sija
##taulu
jäähy
reness
##llisistä
välttää
voitettuaan
##ugua
glo
##kintä
##misia
herää
ratkaisu
lahjoitti
Ensimmäisenä
##teella
puheen
kantaesi
##kentälliseen
rakennuksessa
suomenkielinen
##impana
##kkeili
ritua
vahin
143
Wis
##kuntiin
Giovan
väliset
Benjamin
nähtävyy
avustivat
suuremman
lum
##netin
yhtälö
venäjän
##far
bale
loista
Hongkon
Rolling
kirjaim
toimineet
pääkonttori
Alankomaissa
ES
##miehensä
hankkia
yhteistä
luostarin
intiaanien
itsemurhan
hyväntekevä
kran
kukka
Lehdet
myynyt
olevassa
tekemistä
talvisodan
##wart
116
##tusti
Kouvolan
##dat
##zza
##ople
iltana
Science
kirjain
matemaatt
yrityksiä
##ér
mö
##ason
Bag
##teiksi
##istetty
omistus
suureksi
tehopistettä
Hedel
Poliisi
Onnettom
Brasiliassa
sijaitsevaan
##off
Hat
Jes
Gunn
Lähde
Rinta
##tetusta
luotiin
kielletty
Sah
puhui
poikas
124
##minan
##työhön
Lajia
tytön
korkeudella
q
LP
##kulu
köy
Kurt
##miinin
##llisille
Journal
##pasiteetti
entisestään
##taul
##maalta
Lasse
Leena
Varsin
osissa
prinsessa
elokuvista
päälliköksi
kiista
tavoite
veljekset
Technology
Luxe
tili
##jaltaan
piispan
elämässä
Seitsemän
sävy
##määrää
##ttiset
Feder
Itsenä
tultua
tilannetta
tuntumassa
esiintyivät
##juna
Hyd
Nich
Talvi
operaati
voimakkaa
##önt
##gran
Heli
käyd
Salva
Museum
Sieltä
kahtia
##paikalle
päivittäin
##daa
##inosaur
##korkeus
##opettaja
useilla
Elisabet
##lley
##ysty
Austin
raskas
Lawrence
sekunnin
Itävallassa
##öön
Home
suurir
estämään
##ppua
Mach
##kerros
##kankaan
antavat
nykyiseen
vankeuteen
##reun
ger
##salon
Town
kiloa
Miesten
hautaja
pohjoisesta
Not
und
artic
välit
henkiin
pelasti
suureen
vähentä
Euroopasta
##erva
asee
saarilla
##teollisuutta
##onista
##alismia
Sierra
paikalta
yhteisen
toukokuun
SV
kotiseutu
death
liittyen
räjähdys
määritellään
kuvanveistäjä
##nea
Fun
##liiga
liki
##neestä
##mentaja
Olympi
yleise
Leningradin
##ivir
##äänsä
köli
##hdetta
nivel
palau
asemaan
luterilaisen
Fan
Broadway
kirjojen
kolmesti
Vor
Vär
alpp
lentoase
klassisen
##etz
Oil
##giasta
##moissa
aikoo
Paikka
alttari
Vase
illa
koski
Matthe
jääkiekon
avioliitto
tuntematon
vaikutuksia
viranomaiset
##ktio
123
##nistä
Google
myrkky
surmaa
kohtasivat
liikevaihto
kreikkalainen
##pohjan
pääro
johtavan
jokaisella
divisioonassa
##piire
##tonia
paria
##kyt
##aikana
America
Hallitus
Palattuaan
148
Rain
toiv
##mation
näytö
Philip
myrsky
##alistinen
omistuksessa
##iho
##lar
##tle
1867
Gott
##kselin
selviää
jatkettiin
Blood
Human
Ravin
työllis
luokkaan
koilliseen
televisiosarja
##ffa
##mejä
##ksina
##wellin
maino
##laulaja
Bishop
turvin
kuuluneet
##debyyttinsä
vankilassa
McD
nes
petty
Kazaks
poikkeaa
tutkimaan
Uta
André
##istista
Hierarchy
Operaatio
##das
maista
merivoi
maisteri
tilanteessa
##telyn
rasi
##tykseksi
julkista
säilytti
albumilistan
##yen
##tehta
Pori
Kukin
##kustann
tieteis
säilyttää
luokitellaan
##idat
##seja
UEFA
vasa
##taminen
telakalle
##ios
##ppia
JYP
nur
##kolle
##kukka
Mand
Osake
hyper
##tettuun
Rovaniemen
##wei
Abu
taika
##steinin
mikään
runoja
teokseen
ihmisille
voimakkaan
137
146
Gene
Nurmi
Muiden
Suurimmat
kristinuskon
##cul
##eng
##lot
##rikko
##ulaar
soitin
kulkeva
luoteeseen
##eran
##urus
wor
1874
maus
Heart
##käyntiä
Classi
Somali
tunnel
Egyptissä
hyökkäystä
perustamista
##tsyt
Wild
suon
syytti
##laiseksi
##ikit
##rena
Helen
pappi
mainin
mainita
tulosta
punaisten
GT
##book
##omin
arab
##lajeja
Saudi
kierrä
##udeltaan
kesäisin
päivittä
Joissakin
syytettiin
##berin
##anssin
ennalta
##pörssissä
nykyisessä
polttoaine
vahingossa
roomalaisen
##jut
Elek
Road
##tellin
monar
Toronto
opettaa
joissain
Adrian
Valtio
kullan
autolla
korkeudessa
##rock
##tuva
kehä
rivi
amatöö
saarten
joukosta
rahoitus
sellaisia
##oton
Dol
Ski
Scha
Ylen
holo
käytettävissä
varsinaisesti
päätoimittajana
##ilis
Nin
kerätä
viimein
suostunut
tultaessa
##sääntöisesti
##pyl
Ull
hap
##vamma
##ulassa
kääpiö
liigaan
matkail
uudessa
Jonathan
Teatteri
fantasia
konservatiiv
Hes
##oitua
Skandina
Amp
äki
Maga
kari
Espoo
milloin
##puolustus
Antiikin
käsittely
seuraavaa
maailmanka
onnettomuudessa
bru
Ottelu
Viktor
kallio
raitio
Bron
##kkanen
Tunisi
Cupissa
Helsingistä
##ses
##kenn
##tihe
1868
Brook
riski
##isyydestä
aiheesta
rakennutta
kirjoitettiin
##core
1869
##ografia
Korhonen
muutokset
kehittämään
##hyp
01
##ohen
HJK
dosen
##koneiden
aiheita
syntyivät
##järjestöjen
näkemyksen
##euvos
Union
##llisyyttä
aiheuttama
kapteenina
lopettanut
##gun
##ales
##itys
##isimmät
elokuvaohjaaja
139
Ludwig
Suojel
rukous
kitaraa
maaperä
##otkin
läheltä
ymmärre
hyväkseen
kahdeksas
##alalla
Alger
Final
Kiven
Airlin
arvion
Heinrich
Research
palvelun
##isuon
1861
1872
Meren
##uvernöö
kritiikkiä
vangittiin
edeltäjänsä
kirjoittaja
onnettomuus
tyypillisiä
##umen
138
Soli
##hdyksen
sisälle
edetessä
kuolemansa
Aleksanterin
##daar
Kio
##kelmä
##pojan
1873
Tapi
##asiain
puoleen
François
liittynyt
luonteeltaan
##time
##unen
Sien
##llyttä
Dream
Niissä
Turkki
kommunistisen
##ml
##eldin
##eliin
Bond
##kaalin
##öntgen
##tiikkaa
kuljettaa
toteutettiin
ensisijaisesti
##köp
Kann
pysyy
väittää
ensimmäisten
kehon
kirjat
maapallon
##ša
##lyön
pelä
erilainen
hiihtotavan
126
Kek
##kästi
Ensin
Niger
eläim
##suunnitt
pääosassa
marraskuun
käsitellään
##varain
##istuksessa
mini
##harmon
Silver
työhön
päättänyt
##kalan
Fair
Hero
ihon
Yhden
maalaa
kiertue
Romanian
Televisi
##päälliköksi
Mannerheimin
samannimiseen
##cti
mg
##isempaa
##tuneena
tarkasta
arvonimen
taisteluissa
1866
sopii
vedet
Mäkelä
kokosi
kuuluvia
listalle
oikeuteen
matematiikan
##ihtäjä
amino
kaiver
tuotetaan
tarkoituksen
##fle
##vey
##tiet
Sip
syvän
##isimmista
mittainen
uskottiin
julkisuuteen
##ritz
##dorin
Boli
tehdys
##kilpailuun
seuraavassa
pääministerin
##sano
hip
##tehti
##ellisia
##karissa
näihin
Roberts
##inaalissa
Stalinin
luopumaan
itsenäisyyden
By
##deen
##ganin
katsoa
ukrain
vakitu
Jatkosodan
1875
##ominen
maaseutu
rykmentin
paikalliset
##ez
##taaja
star
peliin
odottaa
muistiin
myönnetty
määrittele
tuotannosta
##kyl
tiheä
Gas
Meg
näppä
vastuussa
##tak
##anut
Chil
##toissa
kotel
tyytyvä
Alb
##hteer
Elli
##muksiin
määrittää
kulttuuria
Hö
##vaar
IFK
Thomp
mustat
pakotti
pääsevät
sijainne
lähteiden
teoksessaan
valmistukseen
##oint
##keily
Brys
Nova
Lapuan
ajassa
vaaran
hoidossa
verkkosiv
merkittävimpiä
##pojen
Kommun
##immillään
kirjasta
tilalleen
##opol
##ynen
Fren
Tommy
aikuis
pahasti
tukikohd
##linja
##lleja
##lliin
Axel
##dionin
##tetuksi
Oliver
##imusiikki
##tyvä
##varus
Broo
samoja
##palvelut
ajamaan
##toimiston
kolmannessa
##IC
SP
##ivuot
##levyn
tape
##astossa
kallis
koottu
##opistossa
Taistelu
halkaisi
aikakauden
kesäolympi
järjestyksessä
##ib
Sud
Ilmari
kehittänyt
jumalanpalvel
##dé
##pät
##uhde
##talia
##käinen
paalu
Illino
kertyi
Industrial
##jol
Chel
Tuon
skot
Kuusi
Sokra
laaju
dialog
kasveja
kotonaan
laivastoon
OS
##uuni
##wich
Liban
Claude
Rudolf
kerralla
koskevat
kriitikko
##DL
Yö
Numm
##yrityksen
lehtiä
##alaisena
konflik
kritisoi
maaliskuun
kansanäänes
sukellusvene
Pr
##iluu
133
##lands
##tuuria
Schuma
jäännö
paikassa
merkitään
artikkeleita
##harjun
Eddie
karta
##yhteisön
modernis
Aina
Riian
mahta
lauanta
saatetaan
perustuslaki
##määrät
See
kohda
ryhdy
##ttavana
Lincol
nopeammin
##eus
Myy
all
Taip
##ussaan
Muumi
irtis
ainoan
kuvitteellinen
vanhen
Salminen
##kanut
pelk
Church
Kalevi
inhimi
##ilijoita
teosten
innoitta
Pohjanmaalla
Nas
pahan
##viaan
##mieheksi
Sveitsi
kirkonkylä
##fluo
Vis
##faatti
kauno
suojelu
Tukholma
kotona
metsää
tyyliin
suhteita
päättyivät
##mbo
hav
##rikin
Mene
viivä
##komppan
auttamaan
paljastui
terveydenhuo
semina
tuohon
asianaja
Öster
kahdeksi
palkkasi
suurlähe
historiaan
Vei
Wan
Beach
Sofia
Mukana
lisätty
omakoti
Afrikkaan
materiaali
kilpailujen
Qua
oksi
pila
Vanhe
inten
asuntoa
##paja
uraa
##reissa
##ttömyy
Kreikk
Russell
##soli
Oul
Tos
hylkää
Saimaan
kestänyt
päätökseen
##gers
kadun
peruu
##presiden
aluksia
kaukana
haluttiin
planeetan
Fro
katosi
divisioonaan
##KP
##hie
Naa
Ope
##väylä
Hauki
Norja
pesii
johtui
avoimissa
##bes
##tif
Tei
##ukkaa
Moore
ohjelmointi
Kamp
##maasta
##teloku
vilja
pyhäkkö
kaudesta
##ort
go
##town
##säännö
pelien
useasti
tutkimusten
##vys
Ris
Via
auk
##mical
Bour
Paavali
syyllis
ohjelmaan
suomalaisista
##pärä
Imm
Auton
##täväksi
voimin
ensiesi
tekijät
Yhdistyneen
##LS
##yntä
jäte
pall
##kultaa
Vuori
kotio
Päijän
lämmön
lääkea
laulajana
yrittävät
Menes
helmikuun
kokoonpanoon
##ovi
Squ
Kinn
otsi
kangas
kielet
murhan
Hollannin
täydennys
Karjalassa
##tium
Klo
That
Kunta
Seppä
omiin
koneita
näytelmässä
##keh
Ross
askel
melod
##osainen
Kankaan
esittelee
venäläisen
alkuperäistä
Sahar
ohjelmia
jättämään
elokuvajuhlilla
Que
##kanava
##neeksi
kykeni
Roomaan
##utumiseen
valkoisen
riittävästi
Kate
##alaisilla
armeijaa
suoritettiin
keskustaajama
soundtra
tutkijoiden
##roksi
naami
vähene
##onnettom
hotelli
##upu
monilla
muutoin
kannatus
Championship
Sk
##aluo
Exp
sto
veh
##ketju
##tyssä
syöpä
talven
viettää
lisenssi
miehitti
vieraile
irlantila
lähteissä
sairaalaan
##gie
##orgi
mul
lemp
minä
##telija
fuusi
index
millä
polve
katsoo
hallitsivat
rumm
linjaa
Koillis
Sarjassa
kriitikot
DS
Fon
What
ahker
mella
Krimin
Puolueen
liikennöi
mahdollisuuksia
Väri
tuttu
Siirto
##isyyteen
Baltian
paikallisia
Rö
##utena
Alla
Lönn
Tarina
maksan
Simpson
Venäjää
suurelta
##com
##istot
##vihreä
hampa
käänne
##rja
Sup
##ilais
aseista
Platonin
kentälle
seksuaal
##ympäristön
vahvistaa
mahdollisuutta
##oren
ber
savi
avaja
heavy
##julkaisu
jotakin
pelatussa
Meksikossa
##kälä
750
Lah
##mosta
Kita
Mans
##ikoita
laulua
Vaakunan
kymmenes
Lyy
ritari
vajaat
Turkuun
laulajan
Akatemian
näl
Alice
luota
raama
vamma
##koneita
kasvava
##valtioiden
bu
##arvi
##cion
Ted
Costa
senttimetrin
keskilämpötila
##unio
Aer
Norr
lukua
alainen
##dettä
Vala
levyä
väärä
Series
##puku
hon
Rafa
täten
Sakari
Viiden
ainoana
keskelle
sati
##uudessaan
hävinnyt
kiinnitetty
##laisiin
kartoi
korosta
kohteita
punaiset
telakalla
loppukauden
##pat
Jy
##oriksi
Liike
Results
seurata
Koivisto
oja
##eller
Kall
näkyi
pelan
kärjessä
tarkemmin
##yon
CA
Josef
jalkaväki
komennettiin
Imperi
elänyt
##publikaan
##uduttuaan
säveltämä
vaikeuksia
ihmisoikeus
##ors
Pudo
##assaan
Laine
Päivi
viedä
##vuotias
Hand
##eläinten
Kylässä
##piispaksi
oppilaito
vieraissa
##spi
Wes
##illes
##lubin
Gary
Tois
##tuessa
Frans
kunnat
roolia
##hallitsi
lintujen
Tat
Nash
Radi
Maija
Hieman
nimenä
palkkaa
pääosan
laajensi
raportoi
napa
##tisten
Runko
kuolemaa
##lah
##para
##sium
##kkari
Arti
mega
ohut
##teoria
lampi
##ttomuus
##laiselle
kuolemasta
Loren
saalista
lounaaseen
todisteita
asiantuntija
Ž
##rov
##ush
meh
##misiä
Baij
tutka
##tukikoh
viranomaisten
##mee
##oppia
Clin
This
##ossaan
Tosin
kodin
tennis
arvosta
tarjota
vapauttaa
Alkuperäinen
NFL
Pia
##maaliva
kohtuu
##piiristä
Siperian
Andersson
Minnesota
metropoli
##DR
Kn
Ilo
##isuun
Kieli
maalla
työkalu
maanviljely
sijaitsivat
tunnetuimmista
##vuu
##teta
##olosuh
Firen
##puhelin
liittovaltion
Beet
solm
Paula
##kohtana
runoili
yksimiel
liittyvän
Irlannissa
mielenkiin
alkuvaiheessa
sisällissodassa
Tang
vanhaan
myyntiin
##pitu
##sivu
Plu
##keili
tuor
lämmin
Tilanne
kokoinen
tarjolla
ylöspäin
viittaavat
##kanis
Aman
##isaari
jännitt
tarkkaa
##kaupunkiin
lähtemään
>
##raeli
Leip
Malta
pääosa
tapaus
Runeberg
sekoittaa
menettänyt
yläpuolelle
Eva
##parin
##uskon
Networ
jatkun
laajaa
pahoinpi
pääministeriksi
##vee
IC
##etan
Pieta
Tapani
kokeil
lukion
##istuimen
##utuneita
raketti
katsottu
Biography
##ilyä
hop
##äänin
##mbergin
vakava
##utukseen
Toisella
maanviljelijä
##uf
##pommi
##seuran
##amerikk
Kappal
Järjestö
Belgiassa
##keskuksessa
erilaisiin
bul
##enius
##nöstä
etan
##ttynyt
rockyhty
elinvoima
pääsääntöisesti
lyse
ärsy
Kimmo
käytö
siiven
vaimon
kuuluneen
valitsivat
Aristoteleen
alkuperäisestä
valmistuksessa
##illen
##lammi
##tarvik
Child
Susan
jolta
kukat
Längel
suuntaa
Tutkimus
johonkin
rauhassa
##utumisesta
sijaitsevassa
AG
136
##istyö
Hope
porvar
pyrkin
liittää
valituksi
Alle
haud
työt
nisäkkä
hyvinkin
kirjoittamaan
rake
##mailla
##puolta
huonek
kunkin
tuotteiden
varsinaista
##vill
Sony
##väliin
autot
Berlin
mang
täsmä
##vuotinen
Frances
tuhosivat
kenraalima
opiskelijoiden
##orf
Who
yön
hahmot
yksino
kärsivät
normaalisti
Á
Fr
Aro
##kiven
##johdon
Babyl
kiven
Jääkie
korostaa
Yhdysvaltoja
Way
##radio
##turit
logi
paeta
Luettu
##ellus
##istöä
##ikansa
##ilijan
Päivän
singleä
##kirjaston
valitsee
esittivät
##vyö
##kilaa
Mara
klub
vilje
Kolmen
etelän
legioon
kommentoi
koostuvat
suosituin
yhteistyön
automaattisesti
Nev
##cupin
##kylään
##pituus
lukea
jääneen
länsima
siipien
Ohjelman
havaitse
IP
Agen
##toimik
##tilojen
##koulusta
Kiinaan
Companyn
Pohjolan
omaelämä
taidetta
Ora
Arts
Jere
Unite
sataa
laajoja
seremon
venäläis
sellainen
##fian
##kisi
Syvä
pakoon
saaden
selitys
palvelut
samoihin
med
Seutu
teema
##oitukset
##tiloissa
maineen
talonpoika
rakentamaan
Yhdysvalloista
##oopper
Koski
Temppeli
Seuraavat
tammikuun
Ahvenanmaan
käyttötarkoi
virsi
museossa
musiikkiin
seuraajaksi
IK
här
3000
vahve
##viestin
##urallaan
hengissä
kuvernööri
tärkeimmistä
##juja
##hauta
Mira
Opera
esityksen
edellyttää
hyväksytty
palattuaan
##går
Kori
Ilves
##eenlämpö
harmaan
vallata
##tettavissa
hallintaan
aiheuttivat
##johd
##etsin
Yliopp
luonut
taajuu
uusiin
nimissä
osakeyhtiö
##prosen
Ihmisen
liikkuu
vapaana
rinnalle
aikaansaa
##ach
##dut
##omis
##rjan
Medi
eden
##rauhan
Brasi
Oxford
hengitys
Vancouver
suunnitella
##mop
ny
Row
Ecua
##aatiota
tilaus
näkemys
##cla
##pola
Cour
Glas
Metro
##omainen
oikealla
vuotiaan
iho
##mpina
Kirjasto
ongelmat
käynnisti
piispaksi
##oping
##portin
ryöstö
säästä
Argenti
grammaa
suurempaa
pisin
##rannikon
korjaus
eurooppalaisten
##lj
Sé
Bei
arma
hiip
parhaista
##tsiin
##käyttä
julkinen
kehittyy
muutamaa
elämäkerrasto
Lil
Emmy
Mall
Devil
Kaarlo
##yhteydet
##servatori
##teellisiä
läpimurto
julkaistussa
##ksof
asevel
pelkkä
vamm
yönä
pelit
salan
##eläinen
virtsa
Kolmannen
nimityksen
vastustajan
kuljetettiin
tupla
uskoo
##oittain
Junior
Ruotsista
Was
##uuhun
##kkönen
väheni
pakenee
##töjä
Snell
Koneen
saattanut
Liby
Ring
##useura
Sanom
semif
##äärmeen
Luosta
päätyy
kotisiv
Amsterda
metsissä
muistuttava
##ée
##ded
##idi
##uija
Sri
Kora
tilasi
Indiana
sivuilla
toiminna
ranskalaiset
##arus
Fed
##brary
Clark
luenn
abstra
huomion
väitetty
liittyvää
hyväksynyt
pelastamaan
Tita
##salkka
eräät
Näissä
vaakun
maaliva
oletetaan
##IK
##stu
##gine
##jaon
##ppen
Deep
Urugua
ratsas
rungon
##ministeriksi
##got
Roh
##kkina
pinn
Tunnetu
selkeästi
sijainneen
rautatiease
rakentamiseen
##oosi
Sli
Balti
##muksista
##neuvosto
natrium
sellaista
harjoittaa
mytologiassa
##ED
##ilaa
Cul
Ice
osto
pake
##juuden
liito
hakemaan
uudistus
tehtävään
palkattiin
tehokkaasti
tietokoneen
##halti
##mäksi
koom
Princ
kaune
Punaisen
maaottel
##onit
Data
koken
Eniten
suuresta
##TS
ATP
Gan
Toy
##dasta
Conne
kiusa
masen
##alaisuus
teoksesta
luonnonvara
##ikäy
Bog
Dres
Pääkon
listay
pitkää
syttyi
tehtyä
eroavat
Lehtonen
kirkkoherra
##ject
##lauta
##polin
Maun
##hdiksi
Earth
Miller
kertoa
mustia
symmet
vaalien
lapsensa
korkeampi
##ico
Post
poistui
Japaniin
perustanut
vihkiminen
##Ma
##hven
Cher
Collin
kuudesta
yhtiölle
Varsinkin
##ory
Bara
Tuus
Vati
piis
##hoksen
Suosi
Racing
keinoin
akatemian
julkaistaan
##mbur
Klaus
lyhye
##llisempi
##llisilla
tarkoitta
tekemällä
##tsan
Neil
baro
hoide
selvää
tuella
johtavat
kehittämiseen
##pesä
rat
pyrami
kauppias
##jilta
Guide
Pitkän
eräiden
##ilijoiden
voittamaan
##pujottelussa
ympäristöön
vanhempiensa
##alil
Lampi
hanke
##telivat
jotkin
Country
avoimen
syntetis
luottamus
##kistön
##ksonin
##oituja
##ttäviä
Edmon
Tavoi
munaa
vauhd
Asukkaita
juutalaisia
102
##other
poliis
taloon
##lliselta
alkuperää
jäänteitä
##nei
arvot
puiston
##ederaation
tasavallassa
##felt
haku
##istelu
##päivää
Kongon
matemaa
##aliikenne
monimuoto
samannimisen
PA
##stra
Dir
##uomen
Bush
farmi
##tserien
keskitys
senaatin
sukupuol
tutkimuksissa
##ppin
Phi
##porta
hina
lamp
##väline
samma
Uransa
moskei
terävä
muunnel
talvehti
Johansson
Suunnitel
keskittyä
testamentin
yksityiskohta
pääministerinä
nis
##taide
osien
voimaa
potentia
hyönteisiä
lentoyhtiö
linnoituksen
olu
päästö
vakina
##tilaston
tunnissa
oikeuksia
edustajain
perustamis
##oset
Taa
##mistry
##päästä
##työssä
sanoja
vanhoi
kannattajat
##arti
Tode
##kaiden
Räikk
velvoi
mongoli
muotoja
omaisuuden
##ides
Qui
off
##kkeihin
patriar
sisälly
Saarella
Räikkönen
kirjassaan
kaksitoista
mittaisella
##tors
Nes
##listan
##alueelle
Punainen
satamaan
maahanmuu
##ytyä
pih
metsien
liikettä
organisaation
englantilaisen
##mmäs
Hos
Roos
##netaan
lääni
pääkaupungissa
##lat
Games
Movies
edisty
alumiin
lyhyteloku
saksalaisia
##gos
##erto
Olo
Työn
laad
##tulehd
kohoa
##kasveja
väären
ylläpi
Satelli
alettua
Joukkueen
Elitserien
maailmancupissa
Ida
rev
##giksi
##päätä
kauni
##oiminta
leikki
kauteen
naisille
festivaali
maailmanennä
220
240
argu
##öriksi
Kahde
lapse
Kiekko
jokien
kukkul
Uutiset
neljällä
radikaal
lentotuki
sääntöjen
vapaaehtoisena
ajon
##iltään
liity
##elainen
##menetel
Fameen
Kansain
ministe
liikkuvat
lopputulo
Karjalainen
itsenäiseksi
IA
##iinva
Bros
kora
##hoidon
Aarne
rodun
tiili
##kokoelma
##rannassa
äänesti
saatettiin
pitkäaikainen
##HA
##cto
##khos
kit
jalo
tuen
mallis
puoluee
Lahdessa
##aani
1859
##maailma
Katari
Potter
##viranoma
esiinny
keskustelu
risteilijä
yksinkertainen
##jissa
irto
Poika
lavas
munii
visua
##ittänyt
nation
digitaal
ratsasta
synnyttä
##ttämiseksi
tulevaisuuden
Moha
Loppu
lukee
palsta
pörssi
##isuutena
Bernard
viimeisellä
levinneisyys
##lubi
Vara
Pitts
raiva
Lehtinen
Nieminen
oopperan
sairasta
Gl
Prop
mahdotonta
korkeakoulu
käsittelevät
##eenlämpötilassa
112
##tesin
##cherin
Jerry
tyydy
kuvaavat
tehtävää
##ytys
emi
##iinia
moti
veti
##lander
Garden
##istuksia
kiistan
kutsutu
jätettiin
##nas
##ights
juni
##puheli
ammatt
yksilöt
lisätään
kasvaessa
##anat
##bili
##ksyyli
domin
eläimet
##hein
##ivas
##impien
Jäsen
Sarah
iskun
senaa
kaloja
töissä
sanoittanut
piirikunnassa
02
##meni
Köl
Mig
Sab
Alls
VIII
atomi
Merced
Festival
heikosti
levyttänyt
singlelistan
##odon
Rau
Cara
Spen
Selkä
##salueen
##vittäjä
##muotoinen
opiskella
##beja
WWE
Juven
Jyrki
kalan
omana
taloa
mallit
Challen
provinssin
##BI
Bl
Nat
Adven
luettu
##kuntansa
##oinnista
Manhatta
##valmistaja
tehtävästä
itärintamalla
##EN
##eessä
##ssari
Dag
Filip
kylät
britit
##ologinen
israeli
Giovanni
Angelesin
Philadelphia
astr
hapen
Kristian
kehittyä
tyrmäyksellä
##ikur
##taani
##piiriä
suoda
värit
Lapissa
Stevens
muotoil
pinnalle
tunniste
laaksossa
poliittisesti
##IV
##tolema
##mestarin
korosti
laitteen
Katariina
perustuvan
piirikunnan
##lic
Ner
Toki
nopei
Spring
##käynnissä
luonnehti
##nalta
##ksensa
Volks
##ystävänsä
##utz
##saste
Fall
illan
##varasto
kasvun
##lassikko
Pudotus
itsessään
kierrokselle
##iks
##jokea
femin
##tyksiin
pienim
ilmavoimat
molemmissa
##dorf
Cann
Hauh
Luke
##mijoen
##usiness
Tohtori
käsitys
hallitsee
##ulaja
kuvat
##dennäkö
Ammatti
epäillä
samasta
löysivät
voisivat
maalausta
planeetta
##glo
##sasta
Palm
luus
uhri
ruots
keskeisiä
##cro
pH
##ruotsa
##telleet
voimat
luokassa
synnytti
##hain
##äätä
##päivään
Kirkkon
Walesin
malleja
sovelle
monivuot
kolmantena
näyttelevät
##huu
Kenn
##toimen
Misso
ammuttiin
##hap
nu
Ylö
Eins
Mäkinen
Turkissa
Victoria
vesistön
jääkauden
##tilaisuudessa
kaksivuotisen
##joh
Uh
550
Scor
anno
##kirjojen
hankkeen
kumpikin
varmasti
molemmilla
julkaisivat
##eina
Suon
pasto
puner
yksinä
Kallion
aseiden
kasvila
lintuja
kuolivat
hallitukseen
paljastettiin
##vyt
kaasu
seiso
mitalin
tutkimuksia
Kuninkaallisen
VR
##jumala
käytä
##takseen
Kokona
Nelson
yhtymä
ovatkin
harjoitteli
Suv
##pulle
Assa
Basi
Arsen
pommik
kirkosta
Professori
Savonlinnan
markkinointi
Pelto
eroja
pelistä
tehokkain
peruskorja
rakensivat
suomalaisessa
##wayn
tarj
##sekraa
##uohjel
Perun
Tuuli
Ptolema
Valentin
palannut
##oikeuksien
tanskalainen
FIF
Mai
Meh
##ninen
##tavar
värin
##ttaneet
Verkko
##ttämisen
kadonnut
täydellinen
sisällissotaan
##uor
##kävi
##pisto
pohj
Kymen
##misensa
tyhjen
tekemän
ryhmitty
teoksista
Tärkeimmät
Karhu
pankin
aktiivi
viikolla
##mba
##elinin
##vistin
Mahdo
genee
##julkais
##tetulla
##akatemian
kulttuur
##ministerin
rakenteen
roomalaisten
##oil
##ikov
est
Lähe
haus
##annous
villa
Calgar
Leijon
loivat
komento
satunnaisesti
##band
aio
##sijoi
##toksi
1856
##teraan
hankin
siivet
alueista
keskustaan
ranskalaisten
##mania
##ratka
##tural
soin
Organ
leikkaus
Novgorodin
kilpailija
##väkirykmentti
##DS
##etsi
Kub
##tiini
Otta
##ritori
kasvua
käänsi
Carolin
etäisyys
mantereen
ortodoksisen
taloudellisen
##bl
His
##toonsa
##ulotte
Talon
puolin
liuotti
Wienissä
esittele
hautausmaa
Nim
gly
Kath
##joelle
tehtyjä
##maalivahti
##liikennettä
harvinaisia
##järjestelmään
##vinä
Hyr
##kisal
pite
syste
Newcast
tarinaa
ystävys
läntisen
syöttöpistettä
Zo
nie
##kerho
##euroopp
##istivat
##talossa
Mississi
tarvitsi
Yhdistyksen
##llow
##opon
avu
Troi
tarve
Chilen
Lempää
##alisessa
kohteen
vakuutus
huhtikuun
virallista
mestaruussa
kommunistien
pike
psyy
alaspäin
Makedonian
##sekraattorina
ruh
rup
##gasta
##mitri
coun
##kallio
##taalle
##tarkas
##yneitä
##iläinen
piirus
maatila
takavar
useampia
yhteyksiä
neuvostotasa
##tanan
hind
Elina
##eration
yhteens
##juoksulla
maalipörssin
Yksin
suoje
##kkuutta
keller
##vallasta
Metalli
pienten
hankittiin
kehitykseen
kilogrammaa
##oski
neljännes
Marx
Pain
##ikissa
muoti
##paikasta
McLaren
aatelis
ohjaajana
länsiosassa
Gy
##mers
##ware
##yllä
##ronin
ison
selvä
Puisto
##verkosto
##voimainen
sairastu
perinteistä
VH
##ktor
ajanut
lämpötilan
##rag
##vus
##zig
##eland
##ungin
ryhmät
yksinomaan
republikaan
Washingtonin
##korpi
##tynei
##visen
ohjus
##isuunta
Kirjoi
##ttömäksi
kuvaamaan
tarpeisiin
teknologia
Mö
kai
##oimis
##utissa
Boris
nahka
##isaaren
Jotkin
virtua
keskityslei
##ridia
Sotilas
Ilveksen
Sisällis
Afrikasta
sydänkohta
Jyväskylässä
Boe
Sad
simp
syrj
##käytön
isoto
Pihlaja
asiakka
lääkärin
hallintoa
rakenteeltaan
australialainen
##kita
Aik
supp
Intia
kurssi
novell
jatkuva
##ppiä
Bil
Khan
Kiel
##luonno
Ranger
##dässä
Kuulu
takti
##tyksessään
ympäröivä
miljoonalla
periaatteessa
televisiosarjan
##DF
AT
##maja
Ani
##ments
##kaavan
##kampan
##mmästä
##metsissä
Mercedes
Vatikaan
Beethoven
Hämäläinen
lopputurna
##saarten
Maassa
kestäneen
##then
111
pale
Homer
koulula
Football
Chemistry
pudotuspelien
ulkoministeri
maailmansotaan
##té
Danny
Kanna
jälkeensä
ominaisuus
rannikolle
käsikirjoitus
##HO
ok
##jinä
##siaan
Avar
vuor
##eskuksen
history
huipulla
seurasivat
politiikkaan
Pohjoismaissa
##ensä
##htinen
halve
Muhammad
suurinta
Jerusalemin
kaupunkeihin
##etyn
##kyvyn
##oituu
##tunen
oppa
##kirjaa
brutto
median
Osmanien
roomalaiset
##vallankumo
Suomalaiset
##mark
Sis
##juuta
Flor
sool
bussi
viile
yhdistyi
Barcelonan
Viipurissa
progressiiv
##OM
##fun
Cyr
##uroja
##bertin
##meista
veron
##hduksen
Nuorten
Vincent
##isarjassa
Koskinen
Whe
Hoff
Lehd
opti
jalat
pitäjä
perintö
##kappaleen
eteläisen
näyttelijänä
##xon
##radi
Jay
##jöille
Evans
järky
kuuti
Ohjelma
järvien
##uunnittel
kansojen
kärsinyt
keskiajan
käsitteen
Alankomaat
määritellä
sekunnissa
##aly
##pli
ac
istun
remon
##menestys
suorana
Kekkonen
funktion
jatkuivat
piirustus
siirretty
Collegessa
##RT
##lex
##ote
##kunen
##tting
Scar
##muotoja
muokkaa
Kaikkien
muutettu
julkistettiin
##minuu
erän
lyhyitä
jännitys
##af
##dez
UK
##pylä
##tomi
Tööl
##tyillä
Islam
Tarkoi
Kekkosen
ainoaksi
nimittää
menestyksen
radioaktiiv
##rd
##ogen
##sila
##kaita
##pojat
##teriin
##tteina
##armeijan
##kaudelle
tallissa
keinoteko
muutenkin
mestaruudesta
##määri
Book
timan
Maiden
Matthew
Kymmenen
soittamaan
sanoitukset
Hag
##salmi
Aura
hakea
tunsi
##lääkäri
kruunua
kapinaan
rannalle
tuloksia
Hyvinkään
sairauden
perheineen
IX
Aus
##tuomi
Anni
termiä
Unionin
##nous
##tsee
##jensä
iske
liber
poiki
Vallan
soveltu
##hua
##sata
Cic
##putki
hull
Niemi
Salmi
avoim
itseensä
presidenttinä
##sota
##reistä
kuule
rajat
##utuessa
toteutti
valtaosa
koripallo
ensimmäiselle
##uge
Hig
Kump
Battle
jäähdy
poltto
epäilty
viidessä
kasvattajase
##ikor
perinnö
Chemical
muutoksen
suuriruhtinas
##liuo
Ree
Wim
##keski
##komis
##yissä
##eminen
Rooma
ekolo
pereh
##oilleen
pantti
syrjäy
versiot
##quen
##kammi
##portti
Hahmo
paloi
##televat
keskis
##ttamisen
naispää
valtamer
ajatuksen
kokoelman
olympiakultaa
##open
##ysten
Mosa
siel
##aliksi
löyty
Kärppien
##politiikkaa
loppuotteluun
##himo
##ilit
Sabb
Tien
##ektiiv
##mäessä
Ikaal
trilo
erolla
luotsa
##keskusta
##oitusten
ajoivat
ryhmien
hyönteis
tehtävänsä
tuottamaan
uskonnollinen
Kyy
brän
Teemu
laitto
uhkasi
##dom
pl
##fori
mess
##elämää
##misten
idästä
Brother
molekyy
##hyökkäyksen
Tampereelle
rakennustyöt
##kasi
Azer
ehdokas
funktio
hallita
näkyvät
##oikeuksia
##perheeseen
kuukaudessa
tutkimukset
Pl
tahd
Nobel
terro
Joukko
puuttui
tytärtä
##kulttuurin
##kilpailuissa
draamaelokuva
##tasan
##deista
##tamalla
asevelvo
itäosassa
maahanmuutta
järjestettävä
##our
##istuu
Isla
Neuv
##umassa
Elias
Memori
tuotto
mitalia
##isuuksien
Kapteeni
tutkimusmatka
##linn
Fas
Figh
##reillä
Sisili
lämpim
esimerkkinä
##nami
##umble
1809
tuod
Reino
##mielinen
##urheilija
tunnusti
joulukuun
aloitteesta
onnettomuuden
##ør
##stin
##tios
##kestä
Isaa
##ettaan
siuna
Global
yhdeksäs
##tykseltään
loukkaantumis
Sev
##umber
##öistä
asiaan
säännöt
Brittein
##zine
##kettä
##muisto
##vemmin
puiden
Monissa
vastakkain
maailmankaikke
##bak
##vua
##opar
nil
Toni
##kaudesta
Brasilia
tekniikka
teologian
tehtäväksi
itsenäisesti
##hyn
##rica
##luoki
Jung
##alusta
Eläin
Muhamm
pehmeä
törmäsi
johdatti
palatsin
historiansa
alkuvuodesta
##ved
122
##kinin
Kras
arch
Tammi
##kauppaa
Indian
Manuel
aineet
##mättömyy
kukkula
##mentajana
##oitukseen
kunnosta
##mattomaksi
jälkimmäinen
puolustajien
##alth
spi
##kelan
##tilta
##ttajan
##uttaja
Päätö
hauto
kortti
Tilasto
kouluun
vastannut
##ffe
##rump
Last
##ikkien
##villan
myydy
osiin
aiemman
Kuninkaan
Seelannin
tarvittiin
##diä
##gle
##nissä
Koivu
##ttisten
Rauhan
käyvät
##koulutus
aiheena
henkilölle
valtiovarain
Dio
mag
##siota
##kaalla
Bruno
bändin
kirjaan
palvelee
opintojaan
puolueiden
voimakasta
vuorokautta
##CS
##ōn
##roid
Jel
##ttelyyn
kasvit
##opimusta
Allsvens
julkisuudessa
Ai
##esen
ora
alaa
Barry
Castr
kiertä
tuulen
##ikunnassa
Margaret
##opettajana
yhdeksänneksi
##hapo
##tasaa
Guar
Lisä
Pron
pisi
Kamer
näissä
suojeli
Laatokan
modernin
molemmin
ehdokkuuden
##pyh
Zü
Bank
katta
Luoteis
valmistuivat
<
##Pan
HT
##bile
##piha
Jin
##kkuja
lang
##koneet
katoli
Chicagon
puolessa
pyhiinva
##iran
##isaa
##thers
hyötyä
pitäen
Pietariin
Sex
Morgan
hyökätä
kauppia
Keskusta
potilaan
Ympäristö
korvaamaan
tieteellisen
##vältä
tera
Engel
pystyvät
säilyneet
politiikkaa
##puja
##kamer
Thunder
muistutti
kreikkalais
pääkaupunkise
tulevaisuudessa
##tiaa
ill
##odore
##varjo
##istele
pelattu
Barcelon
Längelmä
tohtorin
suunnitell
äänitettiin
##ful
##štš
##teisto
##ismista
##kentällä
Academy
Skotlan
mittaan
nimikko
ottelut
sodasta
erillistä
##iang
Llo
Ple
set
##hdoin
##pistä
##ikolta
##ivojen
##kunnaksi
sisällön
taajaman
yritettiin
Hämeenlinna
lämpötilassa
Leaf
kilo
##tenkin
##rantaan
mahtuu
putoaa
Järvinen
kasvatetaan
menestynein
##US
##dent
##semb
bin
##eiksi
oven
##imella
ohitti
##tykselle
rooleja
vaiheen
##yttelijänä
ainutlaatu
kansainvälisiä
Io
##imer
Juuta
##ikymmen
jousta
Hermann
varattu
vuosituhan
high
##töihin
Wayne
väkil
Myrsky
kuntaa
puusta
viihtyy
ystävien
vaihdossa
pohjoisosissa
##klin
##visin
Four
Yama
golf
##hoitoa
##ografi
Tommi
##kadulla
luonteen
puolueet
kenraalik
vierailee
Aleksandri
vastustaja
##uneen
rats
##ttomien
##muksensa
##paikaksi
nojalla
havaitta
filosofia
##sken
Hoi
Kip
##dinaa
##mestä
##winin
1857
Lopu
##ikirja
Viisi
ollutta
instrumen
litrainen
Schul
sivua
varjo
kisoista
pohjalla
aiheuttanut
kaupallinen
höyr
##ukkaan
##verkko
##ytyvät
Apple
Nimen
taiva
##upalvel
lainas
aamulla
##wanin
Herra
##tuottaja
joukkonsa
menettivät
työntekijä
##eda
##reuna
Moni
puita
suihku
englantia
haastattel
niemimaalla
##mila
koea
##leikka
Juuri
##laisissa
tavallinen
juutalaiset
##RS
##ury
Wir
Party
etukä
Jersey
Uuteen
Joutsen
harrasti
pienellä
jalkapallomaa
##puun
CIA
##ismiin
Bella
Camer
##tekijät
mennyt
tapahtumiin
##bab
##pid
rinn
##ttilan
Seudun
Rovanie
Stadion
lyhyempi
##pien
Lisa
pani
##vardin
Tuomio
ravinno
väliseen
kongressi
##äck
Bom
jao
##harju
##urasta
##kkuuden
##neisiin
##kielistä
Archive
kalusto
työstään
Venäjältä
kaltainen
##immista
kreikkalaisen
Won
##vihan
orja
Dance
Korea
Stars
tahto
##kkoihin
Saarinen
Ranskasta
kuvaukset
luonnehdi
fer
aito
tamper
vankilei
uudistuksia
##OP
##loh
##mad
CS
Rap
Oskar
eloon
kukkii
kuuteen
lisensi
noudattaa
kehittämis
eräänlainen
##ane
##mod
##ound
230
650
##teellä
Janei
vetää
Stalin
##ppy
##yes
BK
##uono
##usol
##yysin
Peri
##kkansa
kontra
säästö
##toimitta
Detroit
Serbian
täyttää
saapunut
##järjestyksessä
menestyksekkää
Ee
##oten
tše
##craft
##alille
##tettaisiin
kiinnosta
rannoilla
##dž
##imia
##kkasi
##sasema
Hitch
isännö
toivoi
Leonard
tilalla
##bran
##cock
##ittia
Apoll
argen
##ttäjänä
Dallas
tykkiä
äänenä
##juon
##kron
##oori
##tury
jen
Teks
Vier
apuna
Kiertu
Window
virkaa
roolista
matkustaa
##tau
##ehkö
##lleri
Ystä
kyvy
Kainuun
##ettavaksi
asuntoja
kysymyksiä
##kierroksella
suorittanut
Et
##tary
##usan
taha
järveä
muussa
Madridin
valuutta
muuttuvat
##koston
kiihd
milla
hellen
##kielisiä
##back
##onyy
Kön
##heitä
##janen
##metri
Pinta
Tiede
pääsiä
##tarkasta
jäsenen
##laisuuden
sijoittaa
Pyhäjärven
kunnioitta
orgaaninen
Heti
Tapa
kovaa
##tiivisen
nuorille
tutkinut
opetuksen
kansantasa
yksityinen
tieteellinen
sch
Jessi
##radalla
luovuttiin
painopiste
henkilöauto
##pom
Let
Sjö
Soft
jarr
##tiltaan
kentän
kylmän
##tier
Anto
##olista
mänty
##valikoi
Shakes
Vihreä
hahmoa
kylien
mustaa
alppihi
korvata
lehdissä
vihollis
käsityksen
##donna
##timen
##muutos
##fieldin
##koskella
##saaressa
varasta
koneiden
##suu
##meli
hill
murto
palve
tetra
##ikkinen
kuvasta
dinosaur
toimittaa
yhtenäinen
##ttona
1820
##prikaa
##ratojen
Histori
Ateenassa
valmistuksen
##mbi
##rez
##laite
##pelit
Alma
Rick
##laitte
kevää
nauha
menevät
tapahtua
neliökilometrin
MP
##ynty
##ääni
Vie
##kykyä
##lähtö
Casa
Lait
Oopper
Kennedy
ilmassa
röntgen
hedelmiä
jakautui
rajoittaa
vastaamaan
##ON
##mot
##uve
##iron
Ore
iin
1858
Scho
anim
##itikot
Tuomi
bonus
elina
Luther
Parkin
Philli
sähköä
etelästä
useammin
kohtaavat
seuraavien
tavoitteen
##hui
##nic
Duc
liia
##mmankin
kannus
Tallinnan
sairastui
vastasivat
##sko
uro
##istun
Gand
omin
linnut
kielestä
taistelut
Merc
naara
paikk
Platon
##utuksesta
Kuoleman
Kuopiossa
##koulutuksen
jalkapalloseura
Kit
ban
sket
##työnsä
alkoho
tarjoi
ratkaista
maatalouden
kriitikoilta
##murha
saatua
lehteen
kentällä
puuvilla
ongelmien
valmistaja
Afganistanin
##dle
Mah
##kaise
##kunto
##cation
Joita
Sweet
kauka
##teoksia
kultti
epätasa
Toisinaan
opettajan
tappioita
ulkopuolelta
arkkitehtuurin
NA
##ports
ruis
##teisiä
Kello
tuhon
##burgissa
virasto
todistaa
Bulgarian
nimisessä
vanhemman
Palloseura
esiintyminen
##56
##iltu
##jaus
virk
##valtuu
Eriko
nosto
painon
##magneett
suljettu
mielipide
omaelämäker
##kele
Now
Moto
Sche
##kaisen
Julian
nuorta
silmän
Capital
akvaari
##tuotteiden
##valtuuston
ritarikunnan
keisarillisen
##sor
Byr
Sui
marx
neur
annos
leiri
putki
##ikilpail
kertova
välieriin
merkittiin
määritelmä
esikoisalbumi
historiallisen
##cre
SF
##bury
Lui
Kamb
Like
Lord
herra
##ingatar
Library
psykiat
##isemmaksi
demokraattisen
##giin
##ough
Odys
este
juoma
syven
liitti
perimä
tyyppi
Birming
Indonesian
Pakistanin
kapellimestari
##kah
##mön
XX
sekin
koskee
##valvonta
hidasta
muuttua
Hämeessä
Piispaksi
otteluita
panttivan
tutkijana
##pataljoonan
Saksalaiset
yliopistoissa
sosialidemokraa
##ikans
##yksikön
##ttaisiin
reservi
Academic
alkaneen
lajeista
pienessä
Vastaavasti
mahdollisia
moottoripyörä
##pea
##assi
Cho
Wee
##onien
Econ
Sorta
avattu
suhtee
muslimi
myöhäis
asemasta
listaykkö
miljardin
karkotettiin
##yde
Lex
##tarina
majoi
##vuudesta
Fantasy
Kokkolan
laajalle
vuosilta
##sif
Led
aptee
huole
juokse
maakaas
muutamassa
taidemuseo
##tkä
##karva
##koilu
Rafael
autono
Theodor
määritel
uhra
Jouko
Movie
huuto
ohessa
sattui
taudin
##omistaja
Armeija
järveen
surmasi
ulkonäkö
osumallaan
##järjestelmässä
Jeh
##alaji
##koksi
muutt
muilta
##politiikka
Erityisen
##ääjä
Wit
##kosen
##lossa
Linja
##rykmentin
materiaalin
##Hz
Syö
Paci
Monien
ristin
Järvellä
##huoneeseen
yhteyksissä
kiinnostusta
työntekijöiden
mand
Jerse
lyhyta
metron
##ttämässä
Halonen
levyttä
pohjana
##ttamiseen
lopettamaan
suunnittelun
##toni
Ain
1852
anka
##ssista
tunti
Petsamon
pakenivat
mustavalko
Britanniaan
##ohj
bet
##ustoa
Vana
linea
##urinkoa
##kohteita
Palesti
sitoutu
vapautti
asevoimien
suoritetaan
##tv
##hassa
Kiss
kaan
##doista
##imento
Deuts
Kruun
##tettyjä
ryhmää
upposi
Urheili
haittaa
havaita
ymmärtä
kehittivät
otteluissa
##suli
YLE
##vauri
fluo
murska
paimen
suunnan
korkeita
suosikki
laajentaa
minuutissa
äidinkielen
valtaistuimelle
Joan
Hieta
Rinne
virkamies
##tom
kolmik
soveltuu
##rissä
##unaan
##ittien
##miinsa
stipen
##ttelivat
Ullmann
germaan
kenties
lyhyeksi
vallassa
etukäteen
##ilejä
##kello
##kkyys
##uriin
1808
Ehdo
Syynä
beton
##rekiste
täytyi
ajoissa
sotilaan
korkealla
HD
##kats
##tysa
avan
loog
##ilijana
##tteistä
Tarinan
aloitus
lukuisissa
pelaajista
##vö
##dog
Six
##onsoi
Story
malti
##perheen
kohosi
linnoi
muualta
koostuva
puolustaa
ruotsiksi
päättyessä
sosiaalisen
##teollisuudessa
##gal
##rake
Dre
##vuosi
itiö
slaa
##ukohta
Moskova
itäisen
Thompson
Toiminta
aikaansa
asioihin
Kappaleesta
päätöksellä
turnaukseen
##vilä
OHL
raj
##lääkä
Bach
Fron
Ilman
Paavi
kesto
finaali
synnyin
punaisen
taistelivat
maailmansotaa
##mut
##haku
##lopp
Kaz
##ppaan
Honka
osista
käsitellä
instituutin
##bn
##lap
##pula
##uori
210
Ell
Boys
Sver
##ppänen
Prince
egypti
sielun
useampi
diplomaatt
##evää
Tet
##korke
##oland
Jama
Tren
##urassa
eräässä
alaisena
matkailu
vapaaksi
polttoaineen
##RP
##uck
Uud
##tisti
##astoon
Cooper
##kaudessa
johtajat
paikkoja
hallitsijan
##esar
##llot
##äärin
Carter
Nikola
analys
georgi
valtava
Tuotanto
arvonimi
saatossa
konsernin
urheilijaa
lentokenttä
rakennetaan
##phi
##osuu
##vers
Sep
Paper
romahti
runsaat
Columbia
Shakespe
matkaansa
Paj
out
Nami
Pete
##ograph
Adams
Ainoa
Vainio
apuval
herättää
laivueen
Jacksonin
kierrosta
vuorovaiku
##gang
##itri
##luki
##ytös
##gorit
Laps
kiir
##opeuden
Phoeni
merkit
sultta
rantaan
kuullaan
edustajaa
nyrkkeili
sprintissä
aal
##bella
Naar
##albumia
Petter
Timesin
maalein
puoliksi
Münchenin
tuloksella
##70
##unaa
HPK
##mpinä
##velvo
data
lauh
roko
##ittejä
Koira
kotima
tuhoamaan
##untaa
Octa
mili
karja
stere
välisiä
murhasta
katolinen
Pus
talle
upseeri
kansalaisten
kandidaatiksi
μ
UFC
fon
kpl
##juuri
##kiassa
Bayer
pitki
tunto
Christ
eristä
tilassa
##llisimmin
aluksella
elementtejä
##ymp
##pakka
Borg
taik
varj
##distus
henge
##utuksia
Wright
kahvil
vedestä
Pekingin
Kolumbian
laajennus
valloittivat
##uosi
##depen
Rauh
China
Parker
vankila
Oikeuden
ohjaamassa
AN
##moni
##tilaat
tuntee
##isteista
##museossa
johtamat
Tunnetuin
osallistumaan
##ido
##struk
1849
##kannan
Steel
Kaiken
asemara
maininta
arkkitehtuuri
vr
##truk
##jillä
##kistan
Carlo
tuore
##innissa
##istisia
##neuvottel
kutsutun
Williamsin
vuosisatojen
##leri
Pyrin
##alisesta
##kaupassa
käyttäjän
pikemminkin
seitsemästä
##ikö
##pyy
##poon
##imiin
Frei
käsk
haitta
selviä
Cityssä
puhuvat
Canadian
sairaalan
##muus
Gib
##untaan
lennä
syödä
liukene
riippuv
seitsen
käyttäneet
suojaamaan
avustuksella
Yhdistyneiden
keskeyttämään
taloudellista
##gger
##tico
nah
ketj
Vegas
Neitsyt
vieläkin
Venetsian
ollenkaan
palestiin
laitahyökkääjä
##ML
##mix
##ohi
##terna
Denn
hitaa
##ilaista
##yysikko
päänsä
Tällainen
harrastaa
pystyivät
MG
Inf
Lum
Lun
##uksin
visi
etunimi
äänitti
ryhmässä
tekniikkaa
japanilaisten
SE
##ance
##etoi
##wall
##kapteen
Mitche
mittaus
##huoneessa
rintaman
roomalainen
Ša
##enos
##rika
##tolan
nähnyt
voineet
##rykmentti
ilmaista
sisarensa
tasaisesti
vaikutukset
lainsäädäntö
##gner
meksi
näennä
##kartassa
riittää
loputtua
radiossa
tuhannen
##alaisuuden
Ylioppilas
toimitettiin
##pr
##opoli
##keissä
##tähden
vakaa
kokenut
löytävät
pisteellä
Ham
Jup
tyl
draa
##ittoja
värik
##eläimet
Amerikk
ajattel
rehtori
Brooklyn
saarelta
kirjoitetaan
festivaaleilla
##ylle
Lain
Nils
matri
tornin
sivussa
ihmisistä
välisessä
kin
Vasa
##mmilta
Mount
Petro
puhje
Osasto
Koreassa
##vuotisella
vaurioita
##fv
##hamp
##matic
mital
tiesi
Antero
Gunnar
leirin
partio
sijais
massiiv
vartalo
lapsuuden
##etro
##grafi
Part
jaar
##ksiksi
Ykkös
##ttiseen
Porissa
pelaavan
itävaltalainen
##blan
##nett
##ähkin
##kokona
##oottori
Projek
Vienan
aivojen
reittiä
elinkein
uusittiin
##kirjallisuuden
Get
Quin
##ttajien
Fernando
asemalla
hahmojen
kokemusta
kansannous
intialainen
##ef
Ay
Pé
Ful
pii
Baby
lyön
Raimo
lähdeko
lähettä
yrittäjä
erityinen
mestaruutensa
##wald
Marg
Niska
##hallinta
##muodossa
##punainen
muutosta
paperite
vaikkapa
monenlaisia
avioliittoon
##wo
Eth
##ellow
maita
kvantti
tunnetut
kirjoissa
##teossa
Ongel
humor
Ryhmän
hankke
normaalia
elinvoimaiseksi
##rell
##tifi
Oth
Kilp
##tyistä
asuva
kertaan
pojasta
poikkeus
historioitsija
##šen
BA
##dehy
##oire
##oläh
Oba
Juku
##kilönä
Monro
Posti
ajossa
asemalle
vanhasta
Ukrainassa
muuttuivat
kaupungeista
##ksel
##valen
Founda
Saksaa
tavata
viinin
Viimeisen
nähtävissä
##suomalaisten
##tov
Mü
##test
ikon
Laiva
solun
##oponnes
Sisilian
tekemässä
tuottivat
vakiintui
##olaa
Leop
##aineen
happi
latti
arvoja
tuonut
Jonesin
katastro
Albumilta
studiossa
kilpailuja
vieraillut
opiskelijaa
kraa
##grenin
mykkä
sääty
varsi
arvokka
hallinta
pakolais
totuuden
tyttöjen
##90
##isän
Elen
lenn
infek
yöllä
##vastoin
ryhtyä
nykyiset
tuotteen
äänestys
määrittelee
väliaikaisesti
##kto
##eenin
##esiin
##hiippa
Tanska
kääntää
teoriaa
elokuviin
vastustaa
##ár
##ril
##ónin
jona
kaver
lisän
Saharan
Vaasaan
kappeli
albumista
vanhempia
yhtyeissä
artikkelin
##nelma
Marsin
järviä
kirkas
Tuominen
tilavuus
klassikko
som
More
katse
toimik
Stewart
elektro
##tilanteessa
musiikissa
Dj
##ikea
son
Puhe
##kohdan
##tiainen
Filosof
filosofiaa
halkaisija
yksittäisiä
##idä
##iliö
##nipe
Soc
1854
Minna
kaivo
tiloja
##mattomien
argentiin
puoliväliin
käytettäväksi
##chtin
##lääke
Hudson
##neuvoston
populaar
sisältöä
käynnissä
maaseudulla
edustusjoukkue
Eas
Löy
Swa
##aansa
##komitea
Karjala
uskovat
maapinta
arvostelu
varmistaa
vaurioitui
##kirjoituksen
##opo
FBI
##jolti
Hipp
Oman
resta
varaa
enkeli
Malesian
siemeniä
valmentajaksi
IG
##dale
##jouko
##rovis
Kelly
Wrest
riita
##tamista
Sarjaa
Sparta
Central
Guinean
juontaa
Suomelle
olemassaolon
piirikuntaan
##loa
##yriä
Suk
##tyttö
kado
##paimen
Allan
Linds
##tyyppiä
kuumen
viikin
kalkkik
maaleja
eroamaan
koulukun
saapuvat
osallistuvat
##bru
##kurin
Lovi
Reijo
tiedä
##pisteitä
Herbert
terrori
moottoria
Oja
Osc
Tona
oksa
Malin
Elämän
##tuurissa
kehotti
Rautatie
Australiaan
rakennuksista
halkaisijaltaan
ori
##tössä
##trömin
etsii
Arnold
yhteeno
irtisano
voimansa
Amerikasta
menestynei
sveitsiläinen
Joel
siirtymä
suosioon
sanottiin
yhdisteitä
esihistoria
Chin
Larry
ahven
##ryhmään
##tymistä
sukuni
vuoros
suhdetta
pataljoona
loppuvuodesta
debyyttialbumi
##mpel
##tymis
indi
##ilussa
##vuotta
Major
aines
opera
seisa
Egypti
Century
ajatuksia
asennettu
asutuksen
##gens
##kkinä
##telut
##vanhe
##lleria
Wimble
etenivät
yliluonno
Aristoteles
Seelannissa
italialaisen
##side
punaista
saaristo
kuuluisan
numerolla
esitellään
##ssaan
spin
Pedro
Queens
##istettua
pääosaa
tanssin
jatkanut
miehitys
##opimuksella
jalkapalloa
äänestyksessä
##had
##ikat
Pah
Asun
Lucas
Ohjaa
Stutt
Kenttä
People
kasvis
voimia
Houston
Pictures
Unkarissa
numerossa
lähetetään
eteläosissa
instituutti
pääasiallinen
SI
##kahd
##ydestä
Linda
Seneg
kevyen
peittää
termina
luovuttaa
arvostettu
samanniminen
kansainvälisten
Chie
##pelien
##tiheys
Globe
Joose
Azerba
##henkilön
Georges
elinikä
laittaa
##ikymmentä
Järjestön
menetelmiä
##iluun
##nettä
Olof
Take
pahe
##wardin
huipen
pesimä
kuutiomet
mitattuna
viimeisin
##tone
slo
##väkeä
Luis
Antio
Caesa
Sever
levyjä
peltoa
Anttila
Victori
senttiä
virassa
Karibian
vapauden
syrjäytti
tyyliltään
##gr
##zho
##opuo
##udat
Gos
ota
##gassa
Marco
kuuma
##tymisen
lainaa
Olympic
vihdoin
Augustin
tuotteet
synnyttää
tilanteissa
kansalaisuuden
##bow
##itter
selv
##kristi
päältä
Griffin
turkula
veistos
otteluun
toistuvasti
pystytettiin
yhteiskunnassa
##mosto
##yntää
Lock
Pomp
Sari
kolum
käski
valio
Heistä
Nordis
asetettu
roolinsa
elämäänsä
johtokunnan
lentokoneen
professorin
kaupunginosan
##nar
lor
##istia
##istri
satu
Giuse
Walta
seksi
laskeva
Memorial
mediassa
sisäinen
sääntöjä
kansakuntien
Längelmäveden
##otin
##lajia
##onium
folk
Falcon
hoitoa
skanda
##isteille
komensi
halutaan
kirkkoher
edellisenä
##järjestelmät
tieteellistä
##fes
##zel
##deks
##uris
##ways
Lai
Gard
Head
lama
##veisto
Julia
lahden
veneen
valossa
taiteell
tekemiseen
tulipalossa
##tag
Beck
##kaudeksi
Maarian
koulura
havainto
huipulle
jättänyt
Schumacher
korkeakoulun
##OL
##cius
##laul
##alehd
##neissa
##saaret
##isimpiä
##tureita
##uttaessa
pitäneet
kotipaikka
parlamenttiin
qu
##gard
##umaa
aid
kieh
Theat
hepre
German
keskey
rockia
osakseen
toistamiseen
##telma
Dean
##lingin
Kauka
Turva
##oimintaa
##ttisessa
käydään
luonnos
Bed
tuomion
saavuttivat
harjoitetaan
kappaleeseen
loppuvaiheessa
##yton
##oppin
##telän
Hear
aikoi
verkon
toimien
Toiseksi
jättivät
kontroll
toimesta
laitteita
komentajan
tilanteeseen
Edin
##imillä
Keske
Moose
ampuu
tasoa
##tteella
Winter
kolmos
äänite
vankilasta
##ère
Amaz
Craw
eliö
tapoja
Sopimus
suojella
Tapahtuma
vasemmalla
jäy
maku
Äiti
Sprin
pohti
tulon
tyhji
raiska
rummut
epätava
kierros
prosess
Islannin
kielissä
Charlotte
Viimeiset
perinteisiä
poliittiset
##evä
Sih
##iskon
##kettu
##nusta
##uttua
Wing
säde
toip
kasar
kypsy
pelatun
##istuminen
##kulttuuri
elokuvas
maailmasta
́
##zia
Lé
##painon
asuma
sylin
Florida
puolilta
suurista
urheilua
lähempänä
muistoksi
nimitetään
valmistuttua
uskonnollisia
##HC
##siip
Aun
##kelin
FIFA
Walk
##verkon
Roope
ultra
löytänyt
pudotuspeleihin
##cop
##gress
##vikin
Katol
Paras
##poikien
Aleksi
Ulkoma
##pallossa
varteen
Kanadaan
pelaavat
teollisuu
talviolympi
##diaa
##agogi
Julk
tori
Lintu
Magne
suuruus
puoluetta
monipuolinen
##olis
eti
##elissä
gener
Lohjan
##aatioita
Someron
keskiluo
silmällä
elokuvateatter
FI
Sue
Jarmo
epäva
tammi
Toyota
läntis
##ytyminen
vastaanotti
bruttokansan
kristillisen
##ob
Rad
##ynnän
Engl
Ulla
liuku
##kaavassa
kokemus
Montreal
ympäröivät
suurlähetys
tilanteesta
valtakuntaa
##ng
MC
##tric
##uone
##öltä
Ene
Tik
##kkara
Bres
Uudet
uutena
merellä
ajoitettu
erityistä
Collection
kilpailusta
kirjoittivat
·
##olon
##seud
##uthin
Inno
Tikku
##aseball
##kirjoissa
alalajia
Naantalin
venäläistä
##valmentajana
Johanneksen
##mont
XVI
Qing
Samp
aamu
##a
##i
##n
##t
##e
##s
##l
##o
##u
##k
##ä
##r
##m
##v
##j
##p
##h
##y
##.
##d
##,
##1
##0
##ö
##S
##-
##g
##2
##9
##"
##K
##M
##c
##H
##T
##A
##P
##b
##V
##L
##f
##8
##R
##E
##5
##3
##B
##7
##4
##C
##)
##(
##6
##N
##J
##I
##:
##w
##D
##G
##F
##O
##–
##Y
##W
##/
##z
##U
##”
##x
##é
##'
##Z
##š
##;
##q
##’
##&
##_
##X
##%
##Q
##=
##ü
##+
##á
##å
##Ä
##ó
##?
##í
##!
##ō
##ž
##°
##Ö
##è
##ø
##Š
##Å
##−
##]
##[
##ć
##ū
##ç
##É
##æ
##ú
##×
###
##ë
##ñ
##|
##“
##ā
##ã
##č
##ł
##—
##õ
##§
##ô
##*
##à
##â
##ß
##α
##ï
##Ž
##Á
##>
##а
##ń
##μ
##ē
##<
##́
##ý
##о
##ă
##·
##ð
##ê
##и
##′
##ī
##е
##€
##β
##Ō
##ı
##ş
##н
##р
##ș
##î
##‘
