[PAD]
[unused0]
[unused1]
[unused2]
[unused3]
[unused4]
[unused5]
[unused6]
[unused7]
[unused8]
[unused9]
[unused10]
[unused11]
[unused12]
[unused13]
[unused14]
[unused15]
[unused16]
[unused17]
[unused18]
[unused19]
[unused20]
[unused21]
[unused22]
[unused23]
[unused24]
[unused25]
[unused26]
[unused27]
[unused28]
[unused29]
[unused30]
[unused31]
[unused32]
[unused33]
[unused34]
[unused35]
[unused36]
[unused37]
[unused38]
[unused39]
[unused40]
[unused41]
[unused42]
[unused43]
[unused44]
[unused45]
[unused46]
[unused47]
[unused48]
[unused49]
[unused50]
[unused51]
[unused52]
[unused53]
[unused54]
[unused55]
[unused56]
[unused57]
[unused58]
[unused59]
[unused60]
[unused61]
[unused62]
[unused63]
[unused64]
[unused65]
[unused66]
[unused67]
[unused68]
[unused69]
[unused70]
[unused71]
[unused72]
[unused73]
[unused74]
[unused75]
[unused76]
[unused77]
[unused78]
[unused79]
[unused80]
[unused81]
[unused82]
[unused83]
[unused84]
[unused85]
[unused86]
[unused87]
[unused88]
[unused89]
[unused90]
[unused91]
[unused92]
[unused93]
[unused94]
[unused95]
[unused96]
[unused97]
[unused98]
[unused99]
[UNK]
[CLS]
[SEP]
[MASK]
a
d
##re
c
,
##ri
##te
##in
##ul
p
de
s
.
î
##le
##at
##or
în
##un
##an
##en
##st
l
f
##on
m
##și
##ic
##ra
e
##ți
și
##it
##ar
##are
##al
-
##ui
"
##er
o
##ce
1
##ro
C
din
n
A
##ie
##ste
##ân
la
##il
t
##ru
##ol
##ate
##ent
##om
S
un
re
P
M
##ului
##ia
##im
)
(
cu
v
2
##cu
##ea
##ori
al
##el
B
se
D
pe
fo
##de
R
in
##ti
##ur
ma
##se
##ci
este
##um
fost
19
con
##ați
I
##ei
##ut
ca
care
L
T
##pe
b
20
##uri
g
pri
an
##ct
##ii
E
##ată
##tă
##is
să
##ele
i
##ch
au
##entru
##rea
##oc
##iv
Î
##us
că
##am
mai
G
În
##ând
##ră
##os
##ist
pro
##iz
F
pentru
N
##tre
com
##up
##op
##că
##as
ace
##ale
##rie
##lor
##ov
##ub
##ot
pre
##di
H
##orm
V
ex
##ine
##area
:
ap
fi
##ică
st
U
##ter
##ile
##uc
##ză
O
##fe
##au
##ici
##ari
”
lui
##ice
200
##og
##să
##mp
##imp
##od
ar
##et
##ță
##ști
##ran
##ită
„
prin
##ții
##sc
##id
ro
##tate
##ală
##ța
do
##he
le
ce
##ab
##arte
nu
num
201
##zi
##mb
j
##ers
##oare
##mân
##itate
##me
##ilor
##ura
##ind
J
te
or
##la
##oa
##ta
ac
##ed
##ion
##ite
##rii
K
ale
##ge
##ște
##pre
##ip
##iun
##iei
##ca
##ig
##ăt
3
##unt
loc
av
##ud
##ăr
##man
##rit
##ma
##ne
fa
##and
era
Re
##ze
Con
reg
##upă
##oi
##ția
18
Un
sau
##ort
înt
sunt
%
po
##ult
##pt
##ib
Rom
ur
##du
##lu
##ară
##rin
W
##ac
##form
##lic
##ene
/
##va
##ing
tre
De
sc
##ție
##lă
ne
##itori
h
##âr
##tiv
sub
ra
##ast
##ces
##mul
comun
timp
##men
##da
form
##ocu
me
##ir
ve
##ord
##art
##cut
cel
##ric
##ven
##opul
##ina
In
af
4
An
comp
##ant
sp
##orul
acest
##oan
##țin
iar
##rat
ad
spe
##ag
##atul
ră
of
5
##ara
##cep
Român
anul
z
##ob
##imb
##tele
La
##ua
##uz
##urile
##iste
des
după
##teri
0
##uă
##es
parte
##fic
no
##eni
rec
împ
##ap
cre
##oritate
ș
câ
cele
##tul
Al
##itatea
199
ob
##ațion
urm
;
at
are
##min
cont
##cl
fiind
##hi
St
##ană
popul
##elor
##ust
##mbrie
##ole
între
locu
##ire
##ează
##țion
pu
##unos
##aș
vor
as
##olog
##ise
##une
##rile
##ură
##rop
##rul
##ație
inter
##ână
##cip
##ve
##ata
##ten
##az
dar
Ar
cons
sec
mare
fă
##ili
6
##ore
mul
##ica
##aliz
pl
el
to
##ral
dintre
imp
##iunea
prim
##ern
român
##mn
min
sa
##ublic
fe
const
##ron
##ka
pă
##tului
##sp
cunos
##țe
##peri
##gă
##ativ
Ma
ani
prez
7
##ația
Z
–
##ian
ori
Ace
vorb
##cii
##ină
##erman
8
##erv
fil
locuitori
##cum
##raf
Ch
##ard
##ăs
9
Bu
10
##av
Com
ju
până
într
##ren
două
##ât
pol
lea
către
încep
##eră
desc
##itu
cl
Pe
##sa
##ug
##cul
##zb
oraș
Se
##unc
princip
##ună
##iseri
maj
luc
##ung
exist
17
##inte
##ala
local
dis
##rup
fol
##ației
##ife
Ș
său
pers
##tori
##na
##vol
aceste
mo
fie
##rim
##gan
ru
##ha
##dă
##stori
ele
##chi
mod
194
##ensă
##old
##res
X
198
##ans
mon
##abil
##amil
Conform
##oritatea
##ivers
aceast
##atului
##ament
##ini
sup
##aj
##stero
unui
##ensămân
ase
El
peri
când
jude
##mi
unde
tra
par
##ali
##ității
##ria
ei
##tea
leg
15
##rans
România
limb
##irea
Ne
aj
##ații
ab
##ente
##atori
##sta
The
##rești
##sul
început
##ități
197
##ane
unei
##țul
dec
va
##rac
Din
##lo
##șed
##fel
multe
cea
sale
dist
'
##ției
perioa
##alul
int
##che
##ond
cunoscu
et
famil
prop
##ani
su
Bucu
cent
recensămân
##oane
folos
##iș
După
ast
##mat
##za
dep
##ova
Le
196
aut
avut
12
##zboi
##one
majoritatea
deven
tot
##ris
București
16
##iu
##tat
##cur
rel
poate
##ens
avea
Fran
##of
Te
k
astero
lor
##iți
istori
en
##hn
##duce
##ert
##rilor
exp
cap
înc
##menea
##scă
public
##ove
timpul
##dus
##uș
gene
##und
alb
##mă
alte
##uși
asemenea
##lul
##ad
##ține
##prez
##urilor
func
##co
##țele
191
##rept
##cia
##fes
##uv
##cea
##ante
toate
dom
##ania
##șt
apro
##tor
regiunea
##ier
fin
##din
##ana
##scu
speci
##ment
col
reprez
##00
erau
dez
##ctor
##ose
##nă
Eu
##ațional
r
##ența
mult
med
memb
##ue
2011
##aria
##uie
193
##ure
##dere
11
Mon
14
##rib
##ctiv
##dic
195
##rate
organ
roman
##itoare
prima
Pro
##gin
##omb
apă
##ide
im
##lie
##spe
##țiun
pat
##oz
această
##tern
polit
Y
precum
##ator
II
Este
##ței
cop
##erg
##ținut
2001
Me
w
##cesat
Prin
trei
##ga
##dit
##pte
##una
ech
##oase
secol
##în
##rei
##ost
##gra
##erat
sf
##lex
##ându
##mului
13
##otri
##intă
ul
##arul
Sp
per
so
##dent
ev
for
Reg
exe
##vă
pun
##li
##ograf
the
numele
##fi
lum
drept
biseri
##tic
##ai
cur
##ședin
##icip
recensământului
##cra
##asă
##vin
##ctu
import
activ
##care
met
##cat
##iile
##iune
##con
tur
cum
##ope
rez
cad
##ucra
prezent
german
populației
gen
##use
##anu
##ionul
Ucra
192
##ctul
sat
devenit
Univers
sing
trans
##iliz
##sk
dece
##acă
##upra
cer
00
ter
realiz
##duc
contin
inst
##urg
grup
cal
doar
##terior
sus
op
ai
pie
spre
##ilit
Car
Mar
##izi
##ific
Pentru
sud
part
##ților
##ări
comuna
ep
##atura
unor
##mis
primul
nord
Mi
constru
##gust
##stul
##tr
data
dife
foarte
##ni
Pre
căr
ri
apoi
Mold
partea
##ton
mar
ucra
minoritate
județul
##ote
situ
##ona
disp
află
echip
##ow
Par
##ritori
##uvern
pot
##lui
muz
mart
priv
##reg
##rare
aș
astfel
##if
den
Ad
Ucraina
##ae
##inț
ch
inte
Ră
baz
număr
##ării
prob
rap
mun
fran
##lan
stat
Rep
2010
##dep
##ilea
##icul
##lin
Const
organiz
îl
##urii
unul
##ească
Ge
##meric
carac
însă
încă
existând
fără
lup
tip
cadrul
decembrie
despre
##itor
cult
##unci
oct
sch
000
cei
##ista
siste
general
Pol
##unie
Ap
raionul
##atele
Or
##ibil
fapt
martie
inf
război
ță
peste
Ca
##dem
îi
ut
##ora
întâ
##ombrie
##udi
si
arm
treb
##ill
##xim
cân
##ok
iunie
ucraine
##ainte
##oh
##rad
teritori
##est
august
##istă
##oarea
##ich
lans
##iembrie
octombrie
lung
sol
##rist
mag
zi
făcut
semn
##cent
perioada
își
##uat
numit
##ulie
##ute
noiembrie
person
ucraineană
##ang
##tăți
##iment
gre
##ptembrie
caz
##urn
dire
vorbitori
co
##uarie
##cup
câști
ian
clas
##uit
##bru
dezvol
târ
Alb
face
vorbitoare
septembrie
ști
punct
profes
ianuarie
and
##tatea
ales
##uia
Ra
##prin
2009
##rite
##ime
nici
asupra
Sf
iulie
Ex
ci
principală
anii
familia
reprezent
##orii
afl
cunoscută
apri
##ârși
##rarea
cor
##ation
##ace
mate
##cie
următ
##end
##arie
aprilie
##rează
##țiile
Biseri
nume
##oară
est
##icii
ref
##zon
ea
##cte
##itul
film
##org
album
##ozi
locul
schimb
##loc
##dial
##minist
##ăl
##ox
eu
div
Alex
30
2008
rev
atunci
##hiar
conf
mari
arti
vedere
accesat
##ziu
etn
utiliz
##th
##ență
via
25
împotri
împre
vol
Nic
incl
Ac
mi
ajun
efe
satul
##mon
reședin
##ss
Cu
suc
decât
##erb
milit
##atal
vi
##iat
Republic
##tt
##fici
##rân
una
stră
New
comunei
##ay
americ
##ază
câte
##rut
împotriva
exemp
##vit
##artea
guvern
Cam
denum
##ke
##utat
oam
ocup
proie
##ry
ult
consid
Mare
##rum
##bruarie
urma
dată
##orn
vre
val
scri
france
km
Aceast
Pri
##ași
##urat
inc
ade
acela
doi
mili
##anul
februarie
German
##rag
Europ
târziu
Ț
față
prote
cât
vâr
rep
##las
stud
##ființ
asteroid
particip
centura
##uni
sfârși
Pa
studi
##ocie
având
##ritan
alt
##ras
##ez
##ape
caracteri
Ion
##ivka
##ărți
viz
##ațională
asteroizi
celor
##uce
##rij
##onia
2007
înce
ultim
limba
##conom
administ
României
um
înainte
##vi
urmă
câștig
##enii
21
men
##ck
mă
Fil
ope
##isc
Ol
împreună
##ive
##iale
dat
ata
##uci
vest
##rab
Mari
ag
cauz
##run
##II
localității
##căt
##son
Rus
##tid
##fă
##mente
“
nou
##ubl
Unite
##urul
##bal
Alexand
##tății
##elul
Mun
anului
același
na
##regist
cul
cunoscut
rusă
_
năs
##chis
Is
##ract
##ulg
puțin
știin
##ah
22
acestea
##col
numai
tit
patru
##ph
##aționale
190
##tatele
special
prezintă
##ou
##mar
23
##ict
române
succes
##iet
##ase
niv
##oci
En
iniți
Do
comună
##escu
acesta
atât
orașul
2014
căsă
scris
există
##țat
am
cunoscute
24
##iunii
##ula
##enți
##si
##volu
And
Ioan
alăt
##curi
2012
##ler
##isten
cat
chiar
primit
##mei
Edit
relig
pute
zile
##operit
##iul
Be
înregist
##tal
intern
fond
ceea
apar
deci
Jo
]
can
membru
serv
##ell
bă
fot
Moldova
Co
cin
##rope
##serv
##ism
##ută
cir
##cția
inclus
lib
Ang
formată
##tin
##ilv
2006
##asa
Sch
aceea
##antin
sfârșitul
##ena
descri
tră
##luj
aprop
##anță
=
specie
##cin
28
2004
##iuni
decl
abs
[
dacă
nr
##eau
tran
Nicol
As
lucru
interpre
Sh
Ast
scur
Ste
sim
orașului
##rale
on
##erul
raport
diferite
##utul
dev
specia
elect
##ilă
2013
##ita
Min
Trans
##oarele
##anta
râ
fiecare
Sc
car
##rală
origin
##ros
căsători
cole
mom
Biserica
##ațiile
Război
##gle
Im
189
##ja
##anda
tele
milioane
##oasă
acord
##derea
##all
respe
secolul
27
econom
ț
îns
##ume
Th
arh
2000
##rica
##ximativ
##oarece
pier
lite
##rele
##operi
Fe
##amentul
##antă
doua
##dele
##sele
locuitorilor
Bo
Național
populație
##les
secolului
Ung
născut
##diul
Miha
ret
def
contro
lucră
bine
câteva
##iri
descoperit
gra
Su
##lia
##sei
Pă
##oria
vers
obie
Aust
##atorită
Editura
##tarea
##ângă
##entul
juc
natura
##uze
##aris
Col
unele
##ret
Sa
genul
aceasta
2016
##viz
mic
26
aproape
##arten
2005
sur
aproximativ
##ual
copii
doilea
înființ
##oni
camp
##rafa
##je
mulți
tehn
##nit
Comuna
Ro
##amb
bun
##act
##abor
##orului
##ruct
##țului
exemplu
sem
Life
##atalog
lansat
##rig
##ila
##ef
printre
lin
##arat
100
##tei
monum
produ
##tion
cuprin
meci
cerce
Cl
încer
##feri
##raș
##rui
2002
întâl
##rului
zon
##tare
core
Dum
188
cauza
proble
##vent
##ork
Ghe
descrisă
Aca
neg
##len
##aniei
univers
găs
##vo
##diu
pove
187
##ster
Ph
date
##ologie
Pet
##alului
##rom
##ver
##iere
##ld
plan
##dei
Acest
inform
Ed
Imperi
începutul
##stit
înd
engle
perioadă
rând
numer
pozi
##artenența
deb
##be
persoane
amb
Tim
populația
trebuie
ofici
XV
##umă
gă
man
caracteriz
Bar
Cent
##tom
##oara
orb
proiect
ge
Vas
folosit
##ptă
##ători
putea
##pele
##ak
He
ajut
186
No
om
măs
##ik
##tod
subspe
##ără
Academ
Ce
actu
##gi
##can
##dat
muri
29
##ducerea
română
Tot
Nicolae
progra
trim
##țiune
Cor
##ttp
cinci
li
lângă
##rip
act
crit
capit
##acul
suprafa
XI
Constantin
bi
fel
##tează
răsp
Catalog
##cție
Iași
Marea
alege
##lav
noi
proces
vă
putern
Ame
neces
##șe
##alt
influ
##elui
Germania
2015
ple
por
##atorul
##ical
Po
##zii
##imit
catol
subspecii
Fl
##semn
cultura
##năst
##orge
satului
Camp
Ab
Cons
lemn
##ictori
##stea
ind
sezon
deoarece
##dust
Gheorg
&
reprezintă
tată
##lădi
materi
Catalogue
Bă
##iev
##atei
produs
##ipt
trecut
##rec
31
Republica
Prim
ridic
Ele
2003
Europa
comer
Arm
funcțion
##cept
pres
##ască
Această
##lig
supra
produc
condus
proprie
##ologice
##ânt
câștigat
##inație
para
Universitatea
păst
##zia
serie
pos
##oviet
##ședinte
##nt
Intern
##țiunea
Ag
așa
##anie
##ântul
##mite
##mas
Vi
pag
##abile
apărut
##ins
conc
compon
temp
##oseb
Mondial
##itățile
simp
apartenența
##vers
fața
Af
cuv
Transilv
At
Paris
crește
##ity
##fică
##dea
cate
Alexandru
faptul
edi
artic
principal
soci
fra
trup
satele
seri
Mo
etc
##stă
mij
tradi
##irii
Ital
stabil
George
rol
ie
miș
##erată
##oph
##icei
Între
corp
îmb
##gine
##to
port
apare
vechi
Vale
##inei
##ribu
conte
anim
Mai
comand
##burg
formă
##idul
Bel
Ob
Med
Rec
##anța
zona
##izat
ren
comple
##dia
##ative
dintr
##hel
Q
post
##dio
##ătoare
is
oameni
vari
publicat
conform
publ
domeni
stil
ang
Comp
alături
murit
III
Accesat
##cută
acestei
prom
britan
scă
insul
numărul
##ly
datorită
##dată
##itud
Franța
##olul
John
##alele
Rob
încl
respectiv
Bas
Man
medic
Că
##ismul
termin
Cluj
aici
săi
reuși
Ea
Ve
##lea
##ong
ajuns
##xă
nivel
limbi
40
învă
##mânt
Vol
##zut
cânte
##eta
##telor
Mic
teritoriul
ide
##rest
absol
vie
nouă
trat
Maria
##ărul
urmare
confes
##usă
american
!
##olo
Roman
##ăzi
localitatea
##făș
lat
##ferin
##ferit
##otă
distru
Gheorghe
nav
acestuia
ze
##cător
echipa
național
urmat
it
50
format
cazul
reședință
contra
##orin
ecl
##ibe
even
##pres
sal
direct
##ierea
deoseb
resp
mici
##fan
prov
sistem
recensământul
IS
pract
##ivă
Chi
spați
##fice
imag
##lam
##iam
Nord
jucat
domn
##rog
termen
autori
Gre
clădi
deși
cere
Tur
##lat
To
pop
##onul
luat
##odată
Ul
Pat
lun
viață
moartea
Mag
##cului
##alitatea
desfăș
1990
##eze
caracterizată
##gerea
mor
conside
existen
##af
pur
Astfel
##oca
acu
Nu
științi
vo
##cident
http
asig
numeroase
##știi
căl
altă
români
inclusiv
##ack
posibil
interes
indep
Mă
uș
prie
fiul
184
premi
##itorul
jurul
185
##sch
##țiuni
Har
orbită
stă
confesion
lip
club
efectu
sprij
obicei
scrie
opera
condi
superi
îng
##stic
Rez
##ricitate
privind
Statele
inclu
transp
Hen
ordin
ven
Mus
anum
##mo
Instit
##iscop
##arab
Moldov
excent
prieten
##rată
##țelor
ww
indust
dim
Num
##ela
rămas
reședința
##itat
www
legăt
Consili
##don
eg
##umul
Dom
##erse
personaj
ident
mențion
noa
persoan
amp
##termin
transform
semia
##arului
Deși
afir
##ram
##ski
##entelor
##land
##carea
luptă
administrat
formula
Române
civ
împăr
viața
##ovi
##bo
lungul
##inul
începe
Acesta
struct
pla
##stan
Partid
##inea
lume
pict
uci
##vka
orice
York
##ărb
Istori
?
înclinație
Cap
##igh
scen
ua
##șii
Am
##ann
##alte
eclipt
motiv
obținut
provin
excentricitate
##fect
##uda
forma
di
##țea
##nic
intro
șco
ulterior
semiaxă
ecliptica
##hia
titlul
bol
fiz
##int
cun
fotbal
țară
##rian
##enz
##alitate
baza
condu
prof
îndep
##țiilor
Leg
##ologic
reușit
##arii
Ște
ortod
##ki
politice
profesor
creșt
##anii
##oaște
##entele
##III
acestui
vân
##odul
##ons
Europe
Ci
Ber
pp
joc
Ur
Tra
șef
Carol
curs
Em
evre
vârsta
##cători
##zat
Cre
importante
##lament
colabor
minist
spect
tine
Bal
tab
aer
considerat
Av
arhite
observ
plă
astăzi
Hol
##rație
##inat
##riei
Cele
##curs
Gene
experi
socie
aplic
realizat
consili
angaj
rămân
Pal
##des
##ativă
##uți
docum
președinte
##ima
acum
cri
1918
etnică
##entă
dem
duce
arhe
##ama
##ba
inten
fac
suprafață
##ors
##qu
2017
##tis
Campion
construi
istorice
emis
participat
Li
Ban
##ola
funcția
##eli
edit
##rația
litera
##oar
##ismului
Sud
înf
ten
##rid
##line
##rice
primele
##orit
Cur
##rov
Je
mondial
funcție
##lad
comb
Paul
##kî
##lob
iz
tex
închis
bu
uri
jumă
fab
adă
##van
##ith
anun
Premi
școl
teren
Bulg
Dav
situat
Fre
ant
aceeași
lu
Gal
trece
Ver
adev
##mea
##ațiilor
##mele
##ologia
document
Gh
creat
une
opt
înțele
ext
##când
##rich
gol
rolul
##enilor
1999
put
##ogra
religi
continu
Lond
##ame
pa
##bă
Will
printr
inițial
Astero
ste
finan
devine
lă
probabil
##rus
ia
Pop
Încep
##BN
Cea
liter
##umb
construit
mijloc
aflat
Mihai
Bi
lar
Cri
important
asc
Dar
Lo
părți
SU
ISBN
Mir
teat
##ome
mel
##șină
##sea
183
aface
vreme
1989
##ocia
##gh
moment
##ptămân
acea
single
##dică
Asteroidul
’
energ
1998
fron
##ință
##ff
cuce
##iunile
bună
##xic
întreg
bisericii
XIX
##rică
##inde
domeniul
televiz
##ureș
##cel
Primul
##ule
##ota
șase
oficial
##ass
mică
Transilvania
##lov
Ha
Britan
Buc
##omin
sep
cine
##gu
ate
##artă
San
dus
Ep
Italia
##vest
numită
țări
##vie
nevo
Câ
determin
amen
1992
##ys
germană
Au
##cții
##rent
spune
##atorii
mit
celui
Timiș
rest
##ya
declarat
##abilă
mu
frec
##uite
întrea
##indu
Cel
adop
cit
##ător
##ieri
sit
institu
anilor
Loc
##fa
##oș
Ju
1940
Luc
##berg
Lu
##SS
##cute
modern
propri
partid
Vasile
##ricii
##pă
fuse
1991
##stat
prelu
săptămân
sin
amin
Ministe
coresp
##ath
luni
2018
##omet
tru
femei
##știa
##em
petre
##ner
##otul
1996
instru
SUA
liber
##imul
##zie
dest
Char
##io
bază
biserica
top
##cursul
însc
##sten
pere
du
Să
căsătorit
înch
cercetă
181
Aceasta
Sal
prem
denumirea
bo
găse
reform
##tren
regelui
##ino
##rani
##urată
##raj
promov
Începând
Ungaria
așez
reven
Ba
##arh
filmul
nea
##ibli
politică
##dam
Div
We
Iul
pără
cru
##50
Prima
##iga
##atură
înl
cântă
categ
##orie
Cult
bărb
Nea
vide
Wil
Stat
##omp
Ștefan
##alizat
statului
naște
##spre
##ley
##der
Cern
Mos
engleză
stân
apari
##unde
##râ
##ărat
##alia
##chen
##ultatele
tatăl
##rol
Maj
lim
specii
##bor
##iața
cărți
Aut
începând
##gres
intrat
Cup
Republicii
mem
##anului
descoperi
polone
obține
##tip
##osp
IV
##diat
ero
scurt
principale
##ood
acces
##lande
familie
##init
deschis
mănăst
##yl
constitu
##den
##zând
Hr
##ks
istoria
##amp
Dic
##anți
##ortul
Rusia
Dan
Când
copil
##ational
implic
Sim
compe
victori
arhitect
conține
Muze
Facul
folose
XX
Cer
##tățile
europ
regul
politic
##ilia
dif
60
aust
Basarab
##ful
muzică
Lista
șap
locale
prea
—
##inii
##tie
##vat
Robert
##reze
##stice
lucrări
tut
For
bulg
Academiei
##neze
ului
##ținând
##otrivit
biserică
##oți
##ucle
turne
județului
##fec
##ictor
anterior
1997
grad
câmp
extin
##ălți
măr
modi
rezult
colon
##unea
ajutorul
fund
circa
Jos
Ori
##ordon
etnic
Ter
familiei
##ședintele
he
arab
compus
Ev
calcul
continuat
Sup
cant
națională
istoric
##ințe
##zit
dă
origine
regele
##șu
sold
Bra
Aceste
ha
##alist
metri
lumea
sate
##bel
centrul
##olit
##gere
extre
fl
Bro
interi
încât
zonă
părin
nep
mus
##dae
##stică
credin
municip
che
remar
Ști
##ex
##cate
Popul
##oli
##que
80
##idă
##ham
##lom
1944
##rească
pierd
parti
##gn
trimis
simb
##isl
##măn
Nov
##țional
William
##etul
chim
pas
##ităților
jumătate
hid
acolo
##endent
total
fav
alcăt
Arh
Tom
dra
franceză
Mor
coa
##ho
mot
spi
Anton
activitatea
##ida
sca
Socie
##yn
##ano
indiv
militare
francez
il
decor
1980
membri
Spe
Viena
următoarele
soviet
##ies
filmului
##ory
cuprinde
acoperi
##gia
So
vieții
sex
toată
împărți
97
norm
Bulgaria
Op
Moldovei
aten
mis
soc
182
##ducere
+
Națională
eta
Regatul
protej
##ock
32
Her
pus
##omen
tri
##pa
învăță
pen
construită
##ish
elemente
melod
##orilor
1994
##lică
Princip
naționale
imperi
##stru
diverse
ec
##uns
bog
acestor
hotă
acestora
întreaga
##turi
##uale
carie
35
##âl
##rați
1995
antren
oblig
##ko
Christ
cali
##vel
venit
ajunge
Bucov
sea
aur
Vo
vite
Inter
Cara
aveau
##ary
situată
##orld
distri
##odă
##nes
bătă
Alba
Can
del
adesea
demon
sl
lăs
psi
David
##toare
Nap
Bla
Ben
muște
##leg
deja
turn
##rael
##oși
prel
războiului
Universității
muzic
românești
uneori
Lib
lucrat
State
##uror
reac
##ital
##ign
180
agric
Mil
folosite
##rand
Sta
vot
constit
comerci
##bi
țării
repe
##scul
ver
sens
America
filme
##ibile
influen
##uită
Are
Târ
dia
##imentul
Met
echi
educ
##tific
Gro
toți
interme
trib
Sib
diviz
Gu
rezerv
adus
dimens
##lalte
TV
fiica
evenim
euro
von
pal
##idae
##bra
sistemul
Jap
matemat
susținut
##osa
##oră
tuturor
Duce
##obil
##do
simil
acel
personal
calitate
Valea
fer
recunos
Pres
##alen
##AR
povest
semnat
»
epis
##go
##iss
explo
##tată
Sol
##ney
##ciu
ta
Lud
##car
retra
##eri
Dacă
director
conflic
conducerea
regiz
permite
##ografia
##rației
##altă
Vlad
Est
##relor
##nești
piat
##uis
Printre
concent
##ește
##ovo
##șul
Râ
Mat
plus
întoar
cump
##imă
decis
finale
jos
##știlor
70
Chișină
independ
suf
Mit
transf
##rb
##ician
complex
Mart
##etate
excep
bar
doctor
Pra
1993
feme
Imperiul
##bat
mas
oca
##cid
afla
##ced
Teat
joa
Rezultatele
«
##aților
aspe
##ses
Rich
susțin
nucle
reviste
drum
pron
Na
Dob
anti
Fin
1968
Mircea
##șie
odată
ministru
Institutul
fusese
punc
Există
Tele
înlocu
##ibliote
##iului
servici
##ames
36
alegerile
##NE
întâmp
Er
##ișn
Pap
disc
Dumneze
Grig
legisl
##iplom
##imea
1970
##urt
179
acesteia
semnific
Uniunii
televiziune
românesc
armata
ed
Comun
evolu
indi
Del
##ajul
Roma
oamenii
Fer
moște
##itar
locuri
Dem
##țial
temperat
##no
diferen
ocupat
iub
mân
pare
##oziție
păt
juri
##sit
râului
Cra
gaz
puternic
putut
singur
Wal
##olf
Franței
distin
rândul
##pat
Per
##ariei
aceștia
Până
Cal
Tre
##erson
revista
spirit
sen
Londra
##ozit
Mihail
1941
pierdut
90
Aug
##ont
sig
parlament
##cată
Și
##tive
campion
ultimul
rege
##ille
Ordin
##ash
alți
șapte
##rește
Sub
##pi
1950
fir
Chișinău
##ționale
Cro
monument
##uală
da
##ün
Cole
casa
adică
particul
ziua
##stel
Mal
descrie
##ările
Il
catolici
ținut
##antul
critic
##atoare
1945
secret
##rar
ciuda
stand
studii
Port
##duse
insp
##ografie
33
Petru
##mel
Cat
altele
continuă
##vește
Timișoara
Peter
afaceri
ime
My
cetă
mecan
stabilit
500
plante
Ze
##ward
##ence
Kar
arheologice
momentul
tron
simbol
##ografice
##ctive
Americii
spus
arb
Dună
##lip
##get
treilea
facă
urb
Dis
##uzat
grea
istorie
ins
Dumnezeu
Recensămân
dru
turi
exprim
carte
Cana
mama
Ale
##olă
On
afara
adăug
privire
##ger
Sam
dreptul
metal
final
##rații
mine
##îr
susține
germane
not
biserici
plat
##pta
Ho
piese
fratele
model
spani
45
reîn
produse
Oraș
##sen
episcop
##jul
efectuat
##ința
##omy
maxim
Gi
dezvoltarea
##rașov
școală
căp
Uniunea
##oana
Șco
frum
ban
transport
##ight
##oniei
albumul
##istri
gro
revolu
Împ
ambele
Guvern
scopul
capac
##țiunile
acele
##lare
căut
europe
dol
Premiul
##șa
Muzeul
Mc
competi
Mexic
călători
##ribuit
log
elim
nivelul
177
evid
Frank
altor
##tile
manife
presup
Go
medie
##ker
##ocrat
Polonia
##scrip
Stud
##án
Diviz
##ctorul
##opol
Într
învin
34
financi
subie
poartă
devenind
publică
Dumit
cost
lan
țin
folosită
##ars
studiat
maghi
mișcă
##cer
##demică
##amente
##ling
##pân
minori
##uirea
Sm
##20
confesională
Crist
Jose
Berlin
tă
profesion
importantă
##rem
Sec
lic
##izare
gră
invest
Pla
scriitor
##uk
măsură
oc
ung
anunțat
Don
veche
inva
Majoritatea
drea
##arc
Olimp
Totuși
control
program
gând
secole
##geri
sezonul
publice
##rici
Inf
Brașov
oferă
bl
##arilor
scul
y
regizat
religie
psih
##ronom
frun
##itudine
##ționat
publicată
militar
Sfân
World
ridicat
ofi
fen
Austria
soția
##mnă
##aru
piatră
##utului
##enn
##rina
răspând
Gra
luna
be
nec
radio
mutat
Eg
pregă
Jean
social
Sfântul
extrem
Mureș
consideră
informații
Cop
##we
jap
intitul
primă
întâln
##zisten
Mul
guvernul
##oth
Phil
poez
Soviet
Mel
##oziția
##izarea
găsit
înălți
##uth
compania
artă
jurn
##inescu
Anglia
primar
##agă
Sibiu
studio
electron
probleme
##iilor
romano
Da
ară
##gul
înființat
itali
putere
Iulia
Mănăst
scop
animale
reuș
##abili
1948
permis
Școala
demonst
##scut
178
încercat
##aturii
Israel
state
zid
maghia
37
1916
Ke
dezvoltat
complet
Bor
noast
##ctele
piesa
recun
Val
##osof
Grup
japone
ușor
Domn
Dep
nomin
##ril
atac
Recensământului
Facultatea
limbă
stare
asemăn
##iești
##mpor
azi
Ministerul
European
em
##ovie
1960
Filmul
##urarea
președintele
concep
crescut
Corn
Observ
ada
echipe
##uiește
38
pil
##gen
analiz
##mântului
individ
##hael
site
condam
1930
cărui
##wa
conta
Fa
Consiliului
anumite
mijlocul
##ocat
lov
germani
##tări
lice
Zi
##nî
Ope
pap
##inele
conv
pune
##arde
regim
membrii
Hel
th
##oanele
##po
Lin
ortodox
##zare
pământ
fic
##bon
gh
lungime
voc
endemică
flu
ultima
diplom
europene
General
practic
##lement
##nei
mediu
##onom
accept
tân
dedic
însemn
armatei
##vieț
următoarea
Form
vech
maș
Unit
apre
amplas
##cic
##țională
Ta
##ede
##cătorul
proiectului
Sus
son
centru
##iști
##eamnă
France
##red
##oclip
cale
Bud
##sburg
existat
unii
Soci
##samb
răzb
interv
preci
dub
intermediul
echipei
ajung
rit
##dian
poziția
apropiere
##mer
##itorii
Radu
##eth
intră
circul
regiune
Ei
##arcă
##iție
res
##ford
Mas
##arta
Bern
##sh
##zece
##ocurile
Țara
Bill
Campionatul
##nescu
##acia
aflată
##mentele
##erne
Casa
lista
Fo
obțin
multor
##nește
include
stăpân
conserv
timpului
##cești
înche
industri
Dire
Sing
Partidul
##onj
##orb
organizat
localitate
300
##nea
aște
Michael
Pl
niciodată
##mit
Comis
Austral
adân
##ologică
cunoaște
internațional
##itorilor
modul
capitala
Cei
##ode
2019
sân
Franci
înseamnă
lumii
##odor
Spania
Hist
naturale
activitate
##istică
forțele
##ficat
bucu
instal
##ovici
Fede
University
##ural
##oft
spor
prime
##dan
închei
Gab
formează
##enții
Numele
##inile
##edia
>
James
execu
orient
execut
Alte
##xt
pici
rămâne
singură
Bră
integ
##alea
##lect
Partidului
rezul
August
restul
we
teatru
cursul
acordat
nim
##ovic
##ben
##uză
nordul
confesional
aflate
muncă
marcat
Mosc
vând
puterea
Hot
identific
legătură
pră
Liv
fiu
##mântul
##erc
depă
dific
explic
##fon
##liei
##terioare
celeb
spectac
pod
##stein
Imperiului
Americ
Grigore
##ptat
Wh
râul
destul
muze
conse
renun
Richard
zone
scurtă
bune
real
femin
43
Armata
produce
##ulman
Bur
Câmp
departe
totală
ach
Sat
Joh
##ficial
central
vin
##ceava
##mos
ore
##cele
debutat
##andă
sociale
sediul
găsește
Bisericii
sâr
poet
întoarce
celelalte
statul
trebui
element
1939
Orașul
naturală
relativ
##zei
considerată
asoci
includ
##lag
cup
dolari
materiale
Fi
1986
deschi
##anghel
Revolu
echipă
##itară
solu
grani
Jack
Ivan
Stan
înfrân
Club
term
drag
Suceava
##grad
Jude
Star
Insul
cic
tun
##uma
Rev
militară
##anterie
ef
<
dețin
înregistrat
supravieț
noul
ortodoc
##sco
##ott
cla
##enței
##ibă
arg
Victor
original
##10
cod
caracter
absolvit
reda
Soc
##amentului
##undă
condamn
##dra
Press
maghiari
##ționar
1977
pred
##itare
romane
bulgari
naștere
##stei
rezisten
noua
obișn
definit
Plan
##inți
cron
zece
##uiesc
valoare
Pan
elibe
Vin
##ațiun
orașe
frecvent
monumentelor
bene
Asocia
Bog
##let
42
valori
##illa
UE
cuvinte
bas
##rada
Neg
mut
Du
britanic
44
otom
##alog
secund
sta
Cate
gosp
rezol
##oaie
Nor
##ick
Mün
##cus
##oda
pierde
evrei
ieși
districtul
Andrei
Doilea
desemn
##FA
ridică
trupele
39
Pie
1976
oară
bomb
puncte
##erului
1979
acțiune
substan
ortodocși
imediat
Eug
grupul
fu
Sy
##bu
Fest
deas
cetăț
inferi
autom
avans
|
##zilor
furn
standard
prep
XVIII
adevăr
deasupra
Pav
##ür
Istoria
înconj
der
controlul
culoare
apropierea
românească
Trat
##ero
##met
1972
docu
##mann
Corp
Britanie
##ws
##ek
ța
ame
##operă
Charles
1974
producție
mob
Bri
Liga
##onat
malul
muzica
##reia
##țată
##cy
Drag
folosind
rus
internaționale
176
##ald
##rescu
sudul
capt
Leon
cav
##arn
lupta
##alizată
arată
##ater
totuși
Cali
Bot
##ocuri
•
##ring
##AT
Para
Naționale
Dec
deri
Dros
Var
sculpt
1969
treia
1985
ic
Mad
1967
mold
înființată
seria
păd
1984
Războiul
sluj
Drosoph
reprezentat
##aga
1920
##iera
x
deputat
gal
cariera
FC
Africa
bra
came
strân
##eză
Vest
contract
Consiliul
legate
##landa
Tro
introdus
mm
întâi
Canada
joacă
##ges
cro
nevoie
Armatei
articole
Die
înve
Academia
##ved
postul
case
companie
perman
prezentat
UR
##abe
1964
##iază
Bol
##rî
##țiva
casă
peric
##ografic
1983
Arad
Ulterior
##fer
deținut
vice
##kov
1988
volum
##ruc
Ant
musulman
48
rapid
pi
1981
Română
Che
obiecte
##bul
1987
recon
clasific
distanță
dispon
us
compoz
folosește
sărb
fal
##atorului
apariția
China
ocupă
Ir
##ătrân
îmbună
respons
Fund
Vel
aibă
forme
##curile
Muz
cinemat
##itz
cart
lucrările
confir
științifice
contribu
1919
##ev
romi
anume
##tm
candi
dans
1971
minorități
aliment
##imi
comunic
însuși
Si
proven
Cru
##etatea
concer
Por
##xe
actor
##rau
utilizat
biz
##jeni
150
##feren
##ty
##ozof
gradul
##com
plane
constituie
##mes
##ain
linia
uz
urmează
##oved
Petre
##stiv
##ariu
##net
41
prezența
stele
drumul
Pi
contempor
##nesc
##istul
numite
##rap
es
##reau
Statelor
Hor
întors
##AN
##olen
##ionat
cerut
finală
##alți
accident
comis
Sk
1938
proce
##tării
libe
Frede
zonele
fig
dove
Organ
##ried
arme
independent
sistemului
ni
1982
trăie
faptului
numără
München
țara
Di
cuno
1975
Adun
partide
argin
##nița
premiul
Qu
unități
rezultat
##anții
Mac
parale
##gră
școala
Munte
îndeplin
Mer
ox
mil
##ft
##ulb
chi
clasa
1973
Art
plas
conduce
##chest
cartea
##mii
##alizare
Aici
##inate
indic
Filip
sos
##lului
actri
decla
##aug
numește
Lup
actual
carti
duc
Festiv
ent
1978
înte
familii
lovit
##alizarea
încheiat
##rg
cam
schimbat
expres
așeză
consil
##țean
bal
rețea
linie
scrisă
VI
Bru
preluat
uman
Nr
Ult
##su
##ony
Satul
conțin
frag
##țiunii
munte
##amna
vârstă
rock
Spre
poziție
##alii
lid
org
generalul
tipuri
ordinul
dezvoltare
condusă
realizate
URSS
coordon
invit
tatălui
Jul
deosebire
##ibilă
Louis
procesul
sun
privește
Sha
##matic
Tud
##inată
văzut
##aua
War
titlu
excl
47
Bătă
desen
Henric
Pope
Georg
ți
preot
limbii
Moscova
1965
Japonia
creșterea
concu
Serb
maghiară
##30
impres
Sz
suprafața
##ber
avi
##zarea
##oten
strate
cm
Fie
provine
videoclip
##isab
religioase
creștin
##omi
Ludovic
Ech
interiorul
Pale
##orp
Potrivit
poten
ediție
75
pozit
persoană
All
##mentul
doved
afară
Exp
Thom
##itatul
sigur
accep
ital
hip
încearcă
înm
##ington
Rol
moarte
scu
##helm
științific
van
##arată
Martin
estim
locuitorii
##12
vit
efect
Pil
Dol
moșten
##terne
antic
referă
alții
realizată
Calif
celei
plecat
cultural
punctul
##ionului
americană
##iva
46
1956
comune
recunoaște
revenit
##îi
You
păian
mii
medi
economice
continuare
Ros
fact
##unerea
Munții
mări
Dumitru
pregăti
##oană
fabric
căreia
filosof
studiile
##ciale
redus
dispă
Lice
înalt
##oul
romanul
înlocuit
##ess
altern
Europei
##rită
aduce
##tând
##ny
armată
câțiva
mascul
Den
##luri
ceva
moderne
by
fondat
grupuri
călu
##muri
1942
bron
ansamb
făcea
Joseph
Ordinul
simplu
##esa
Amb
##nice
Radio
Vir
singurul
perform
Marele
formației
Ungariei
Rel
căruia
##uel
##deauna
Comite
comanda
oferit
săptămâni
Sunt
##ătorii
lungă
Lum
##chiul
##rick
Asia
##istic
Localitatea
oficială
video
##uire
guvernului
mat
##cilor
datează
Milit
Bre
astronom
interven
Drept
margin
Wilhelm
condiții
meciuri
mand
##by
Hal
late
DN
##iana
Famil
##sm
Mănăstirea
Lau
##ficient
##40
pet
porn
1947
fenomen
##fera
creștere
##cesul
ling
cazuri
##tenia
menționat
mediev
întâlnit
Han
##amă
##hor
companiei
desființ
gl
Serv
minute
energie
##stelul
##inge
îndepăr
##chet
##irul
exact
##tivă
##alei
55
refug
##ovia
Top
islam
Rusiei
##alin
vestul
Record
Prinț
bloc
existența
##ciun
##ciei
sh
##îci
htm
americane
Danie
articol
##erus
##rând
rot
##ois
concept
distribu
##cției
deplas
invent
obiectiv
##lope
bărbați
grupului
Cine
##ăuți
##umit
##unghi
##inarea
culturale
dorin
##ologiei
##AS
Transilvaniei
Datorită
bani
##11
magaz
1949
pian
Mod
##riu
##olia
spațiu
Victori
întreprin
Red
răspuns
pic
înmorm
ran
regiunii
anex
vede
##irat
cab
Opera
Unele
ameste
##han
Siste
##cience
##roc
##utate
Apoi
##BC
încre
terminat
păsă
##iep
îmbunătăți
52
sine
1917
eveniment
festiv
termenul
deține
##atorilor
##arin
Music
##ocă
Olimpice
Californ
vremea
##arate
Albert
glob
Dr
interz
consum
##hicul
##urs
Crai
convin
Jan
Monum
cărei
versiune
adoptat
demis
înloc
superior
liste
##itorului
dig
căror
estul
56
##îk
##ficarea
material
afect
##ance
desp
păstrat
##tag
strat
Constanța
denumit
travers
publicate
##ré
propriu
1966
interpretat
Mara
vul
descris
frecven
administrativ
##wn
##pedi
exemplare
umane
##ficare
Arte
tro
non
desfășurat
##ulf
##onului
tan
șan
##matică
Acestea
filozof
Jocurile
primului
masă
făcute
##âmb
Turn
##ghe
structura
Bon
1946
cercetare
##ske
Tit
Pier
##del
puteri
Australia
##ls
morm
Toate
##ional
##ovietic
Ly
Cupa
Hit
achizi
izv
Tată
eva
Cont
scrise
##my
1925
City
##cătoare
##ăra
Adrian
găz
vine
##tăților
intens
##uil
revol
##rof
##atic
excepția
vară
##retul
media
parcursul
cavale
căpit
##cher
vara
1936
Film
părăsit
ucis
albumului
##țile
suferit
##șului
greacă
românilor
1952
##inare
formul
Elve
Ortod
##ciclope
##pere
cântăre
##rise
volumul
Germaniei
discuri
franceze
##aza
##dev
pește
largă
##xa
Lea
Dane
sent
Legea
##orth
autoritățile
##inului
fostul
Cartea
##80
##iscopul
extra
##urare
autor
jucător
##ografică
49
##eles
##scar
limit
lit
##sca
greu
Bătălia
propriet
##acob
abia
##ctului
##uss
US
##terioară
##yer
comport
refuzat
literară
It
Econom
##uls
Sen
crearea
Neam
##ius
##țit
retras
comandant
experiment
kil
Căl
centrală
65
Thomas
1943
##wood
##ugh
##ensis
încăl
chine
Divizia
##imir
ideea
dinast
paroh
Scri
Grecia
red
Ortodox
Institutului
asisten
##uro
natural
pace
izb
International
Centrul
grav
Pen
aband
Teatrul
muzical
Oc
Oct
trăit
cursurile
economică
##dor
Fot
abord
California
tânăr
400
scenă
1957
Ram
##uf
##dul
deleg
inam
Pas
1962
Tran
##oren
bronz
##zeci
##board
potrivit
componență
XVI
următor
Ret
Buză
Mexico
Drosophila
Carl
adânc
lini
efort
listă
fanta
Sig
săl
trupei
##stitu
discu
dreapta
concurs
57
Der
femeie
inscrip
West
Bucovina
crea
aparțin
Ga
sac
Palatul
##găt
120
asocia
clubul
exista
dic
ilust
tren
Dimit
lucrarea
Vă
##oj
##oste
Sof
respect
##ware
devină
exclus
teore
64
greco
##alu
Limb
##izate
atest
##ocul
Gar
elabor
Internațional
##bil
ferată
sovietice
zilei
literare
turci
evenimente
ruse
##ișt
##iate
spun
noastre
Dub
##out
Az
Tatăl
Ios
consiliul
vândut
##ision
insula
agricult
stilul
lunii
țările
acasă
Înainte
##iață
războiul
adun
teoria
zb
ora
Vene
celul
artist
##own
jucători
##way
vict
păianjeni
graf
stânga
singura
titul
text
strateg
Constitu
acțiuni
##15
Târgu
96
moldov
italian
Just
timpuri
vas
leagă
importanță
##cupe
1937
conținut
1963
sănă
Iz
Bab
puternică
Mich
Noua
omului
##cile
clop
##iel
##tit
tempor
Tudor
oamenilor
Cernăuți
##oiu
##ER
Lă
Bat
pădu
American
##ár
##osul
știință
ved
patrul
împăratului
revistei
Dor
superioară
Ferdin
##icu
Popescu
Cerce
debut
consilieri
##onic
sarc
deveni
##lamentul
Core
##per
##îl
LI
străină
petrecut
und
dispozit
1933
veget
mâ
vec
##enților
##hă
##lini
##urate
1929
formația
Basarabia
muzicale
##oriei
rețele
Cas
datelor
det
suge
##ube
întinde
Științe
partidului
##neg
ridicată
##chim
##tică
##orile
##dine
Saint
##anș
##zele
1959
primii
alăturat
Eugen
resta
bibliote
##aze
##14
Bun
É
##ferință
XVII
Ferdinand
colaborare
Elena
Compania
specific
fizică
##ționează
53
##organ
Rap
Tru
acid
alta
majorit
fundament
##urin
Gabri
consiliu
bazat
Sum
pale
înap
lupte
Hy
îngrij
##anțe
Tehn
##orat
recunoscut
Marg
literar
comunist
Media
găsesc
Brun
Congres
##elt
regiuni
unitate
##ugos
latină
interior
Los
95
##andbal
1955
munc
tens
##19
##SC
##dială
folosesc
fortific
coleg
semi
Portug
Polit
epoca
##ropolit
Urm
1914
##fin
##lant
Alf
înaltă
dure
54
niște
ecu
albast
##17
Cră
socială
conști
Sfântului
nor
motive
Bul
Cân
##tel
veri
sovietic
soldați
spatele
construite
cântec
Parlament
Danemar
Fried
Observatorul
##ențe
1958
alia
##ury
goluri
închisoare
producția
Oficial
servicii
web
afirm
slab
Neamț
sele
cuvântul
accent
stre
învins
sprijinul
Van
curen
înălțime
modele
documente
contribuit
##teni
##vara
##dice
Bos
Temp
##ctivă
însoți
Bib
Domnului
prizon
Ian
##urel
european
##iza
##orro
următoare
##hal
58
domin
miliarde
##anka
neîn
gar
argint
Ilie
##any
acelui
dimensiuni
Nă
##enul
aca
înscris
Echip
Andre
împăratul
Hun
autorul
asas
##13
securi
atmos
mișcare
foc
recom
trebuit
mesa
India
##16
Tă
##îș
85
##dy
Craiova
Dia
capăt
ordon
necesare
specifice
frate
poe
##torii
1953
mer
Mont
difuz
sprijin
adul
Elect
împrum
1961
intele
elib
amenaj
##zul
##șilor
lucrare
provincia
Studi
Bacă
Bucovinei
surse
dob
cultură
cob
nave
cuceri
componența
Odată
sport
afirmă
##rimoni
##ales
##alizate
##anage
just
piață
Publ
Social
izol
Mu
Pove
##tu
##zo
##seud
1935
desch
Daniel
Billboard
##orează
secolele
##omo
situația
calea
Lig
oră
instrument
Poloniei
##mus
##unză
Mark
făcând
##div
##chii
piața
realizarea
##stici
1954
##cad
radi
siturilor
curtea
generală
##ska
##upa
Jon
lei
localități
Gor
Carp
solic
##ifică
88
bel
zilele
intitulat
cari
inaug
PC
multip
deosebit
PS
internațională
micro
Arg
##oziții
culturii
san
##itt
Pu
##vate
expedi
##stele
##itudinea
##25
Rog
construcție
ip
Turcia
Medic
u
exil
dovedit
Primarul
populară
Otom
##zută
Cornel
##țel
aparține
National
utilizarea
fii
Emil
Love
arip
varie
apa
hidro
ediția
ultimii
intrarea
ză
apei
populare
##ești
##tice
Imp
##erusal
scădere
auto
net
utilizate
##cări
literatura
##clam
##istice
înapoi
condițiile
##resc
studiu
Cos
larg
##oma
Sur
##amentele
Ierusal
Serg
sora
cimit
rezultate
##isa
susp
contact
##ih
##tto
cli
1951
presupune
comerciale
##tiz
Braz
pref
Galați
##rucât
tablo
ocazia
tulb
violen
##uza
Tor
XIV
industria
##gl
##our
Ann
##hre
valoarea
##uta
Bistri
nimic
prest
Iniți
Adam
primește
##ux
pronun
##box
cui
##ceae
##atice
negru
responsabil
dezvă
defini
Regiunea
rat
alcătuită
Bob
lăsat
##iro
fas
niciun
credinci
denumită
Les
occident
##60
Norve
##ordul
##olecul
civil
determinat
175
teritoriu
mig
##ierii
Rad
posibilitatea
Silv
Budape
1934
sfârșit
##răg
angajat
nobil
seama
Elveția
63
Sco
##uca
Vers
literatură
sursă
referi
cântece
fug
acumul
##arch
trupa
Napoca
online
construcția
##rep
cunoșt
King
##seră
Arge
Bacău
##cs
intre
##kiv
07
împie
##erci
școli
depart
##loa
constă
Revista
vârf
înmormân
făcută
##iivka
##ramul
##18
forțelor
sinte
modernă
Of
deal
Nik
secre
Basarabiei
armate
vir
Henry
Liter
##raseră
Liceul
##cal
Luci
supl
parlamentare
evol
istorică
anual
ingin
##rât
emig
poveste
##tain
cen
##izată
hotărâ
##resa
neut
##icului
##riarh
continent
drepturile
far
Elisab
sensul
Bil
piesă
Bibliote
##cani
Slov
opin
##țiș
cif
Capit
##seori
Marie
##hos
super
98
##tiva
Plo
roșu
##insul
Sovietică
##usc
cca
Lite
Wind
##eaua
##unda
##rimoniului
gospod
##rării
1931
mort
imagini
transmis
##onă
practică
##sește
Angliei
considerate
##inilor
Iosif
Infanterie
formarea
politici
Dez
##iunilor
##ridge
Adev
Kos
Prințul
Europene
Organiz
67
forță
##nav
##alis
Cod
Karl
##cht
##arm
##ions
##steri
Traian
Roy
Cul
Suedia
domniei
asta
veni
fotograf
tub
Ko
elev
##restre
vedea
1900
##sz
funcții
09
1910
facul
stabili
##teze
Buzău
civiliz
##ațiuni
locală
trebuia
*
##kin
##ser
cos
Cuv
spațiul
repro
59
propria
județ
Ass
discip
influența
Primele
##otel
##yza
##ilalți
##aje
test
Democrat
construirea
##ye
Fă
##ics
az
Mate
modifică
##hei
##șit
premii
##ize
stabile
artiști
Kiev
înv
Maram
dirij
##buși
reușește
categoria
universitar
Termen
##ilib
ziarul
folosirea
Medi
prot
arest
Bâr
Parcul
Regele
##amo
1932
poses
Nist
bro
major
mișcarea
Christian
popular
Victoria
corpului
asemănătoare
##enești
catolic
referit
##24
Philip
corpul
trupelor
Curtea
Socorro
html
Europeană
99
stadi
lingv
cucerit
##NEAR
Flori
prevă
ultimele
degra
##otdeauna
##sprezece
kilomet
trase
LINEAR
vorba
##ji
Dist
acuz
înain
lipsa
##onim
Tri
atom
fondată
##UC
Ox
verb
adevărat
societății
##iască
vehicul
mix
Șerb
Belgia
activități
știe
##sis
fiecă
cărora
omul
Grupul
compusă
puternice
Prote
provoc
Cen
dr
##lit
##idenți
##heim
1921
atenția
Came
turneu
administrată
păr
suede
carbon
sezonului
constituit
sisteme
apreci
linii
companii
modelul
##ble
##rieved
lucrează
arte
vânză
maximă
Mol
echiv
exam
Pict
##ograph
lege
valea
DJ
Ham
VII
aeri
britanice
actorii
învecin
Hab
Guvernul
intelectu
##tească
Crăciun
Rod
##anilor
Catol
1913
prece
conven
volume
##hail
Aur
Maramureș
Times
noapte
Bad
legen
##ular
##gog
secretar
Monitorul
reformați
hotărât
Exe
##ami
##dt
66
##rind
tinere
Oce
##tește
petrece
aminti
proiecte
existente
##cen
declanș
menține
hramul
1922
ofiț
Sin
regimului
card
închi
fede
olande
##ptea
zbor
atacat
propune
conflict
160
sufle
speciale
Pod
1926
Anth
Verlag
Cum
ram
##urnal
History
Arab
ofic
necunos
1924
Râul
##oarelor
condamnat
04
Clau
scenari
Central
08
Romania
Os
Air
ofițe
înaintea
Ka
portre
multă
separat
avent
77
parțial
##ativa
sil
crede
06
Ven
1923
lich
##lah
68
##zute
##ctare
crist
istoriei
##ky
bazează
Men
propus
Ierusalim
teme
tradus
consecin
călugă
locuit
Ren
cuvânt
pictor
Stre
05
copiii
Part
trimite
comercial
Parlamentul
##ropol
acceptat
##arele
altfel
sco
urban
jocuri
meciul
ajungând
remarcat
Budapesta
mal
##țarea
Dimitrie
##gue
CS
dur
Ana
Atunci
clădiri
Otoman
Ministerului
exploat
##iția
albă
Fiecare
##23
Gy
1928
Dra
Vâl
defin
Cast
ameninț
Ni
##ologii
ecran
##olid
Frederic
argum
Hum
clădire
ax
600
Sil
Rud
##win
##elle
Rock
87
nob
Memb
Dunării
Len
Sand
înregistraseră
aprob
suprafe
ofe
##ep
978
corespond
Bl
Ru
surprin
monumente
##reni
ucrain
Albumul
Ple
școlii
muzicii
supliment
eș
Max
organizarea
##reu
tăt
##aliști
coment
##off
with
alian
Friedrich
externe
170
englez
Pământ
actriță
îmbră
##nia
diz
inv
lansată
republic
69
##rări
apărare
teritoriile
89
##atică
personaje
populari
sute
atrib
aparținând
03
##IA
Italiei
totul
ajutat
##urb
##ark
##ead
Des
electro
povestea
##erta
lungi
##onal
##ajului
realizează
##anj
##ull
73
##esc
Wash
##rez
1848
Steaua
Bir
United
Societatea
Mem
1927
Crime
verde
Deoarece
puteau
##hova
izbuc
Tratatul
favoarea
specialitate
α
căsătorie
Et
episod
Baia
cauză
lansarea
nicio
biro
##rak
76
Aurel
inspi
bac
Fotbal
79
esc
Vladimir
##27
înde
orchest
dete
arătat
ol
UEFA
operă
altitudine
from
Bogdan
Artă
propor
##stin
curând
presă
Tip
Black
ser
Unii
catolică
Mot
lumină
păstrează
Sport
ceremon
elector
##oe
##itează
Let
documentar
autonom
publicului
##pen
Gold
ipote
bătrân
Inform
Orad
faim
asigură
străb
##ctă
conclu
copilă
ordine
##radă
1912
mărturi
Gen
muș
artile
84
##OR
municipiul
gest
##ertori
studiul
Termenul
scăzut
##jun
acțiunile
componente
##iției
Argeș
Washington
academ
Franz
##ville
progres
ceilalți
Pers
străinătate
versiunea
174
Olanda
Kaz
economic
Era
vis
primei
patrulea
Int
victorie
transferat
RSS
trea
Hitler
Gl
Kn
pseud
Inițial
intelig
Culturii
°
##vard
Pot
obiect
fix
Banat
Angeles
Cost
salv
##lot
Familia
tineri
##ief
mediul
93
##deri
Even
ajutor
##ilian
scară
Aran
Edward
reflect
##fund
Civ
Echipa
natură
##zy
173
opere
viitor
funcționează
marin
memori
situație
mână
Populația
gim
apele
Depart
01
absolv
divers
##caș
##ias
sper
Ode
##melor
întotdeauna
##28
lună
bătălia
Johann
activității
##mag
##http
##imente
Columb
proiectul
Oscar
regizor
##MI
Cav
grăd
Centrală
CE
##tena
varia
muzicală
Ionescu
moși
Sav
Tex
cântat
povestiri
flori
Progra
bombard
necesar
##26
proclam
##țu
zis
poporului
##ries
afirmat
Orient
onoare
luptat
Ploiești
##oris
##ughe
episoa
clădirea
##kt
##ispre
Oradea
curent
necesară
##ll
romană
##ations
Proie
Holmes
galben
molecul
kilometri
##post
transformat
##iau
stri
pan
Trib
domeniu
##TV
bur
##ături
soției
pictură
preț
ruși
Vide
redactor
##rob
Piața
Distri
științifică
vrea
incluse
protejată
succe
##ștea
Riv
Papa
Enciclope
Records
Book
ebra
actuală
manifest
trecerea
Tab
##enția
##die
participă
Chiar
deschisă
asigura
acțiunea
Award
diale
italiană
Aer
urmări
nerv
părăs
arestat
##jan
rele
Serbia
explor
##ella
##isip
##itari
##colo
Edi
înfă
Indust
consemn
fotbalist
arie
exclusiv
##rogen
preocu
##ques
Nav
zei
##rările
Marin
##king
##gom
86
hab
Regatului
Pământului
Lun
literaturii
gale
intra
pis
serialul
oficiale
##țum
relații
premiera
##ien
întune
platform
Retrieved
compara
78
atins
interbel
Bistrița
producător
169
##onde
sânge
dedicat
stic
greutate
desfășoară
relație
##otenent
Prințesa
##ht
##low
Stă
dot
XIII
##țând
Țin
atra
paci
Ye
Net
toamna
##ows
Gran
Lip
victoria
##ilul
săptămână
politica
IUC
##răm
marginea
colaborat
##gerii
##ology
Mama
##alelor
versuri
74
rar
problema
Duc
IUCN
clim
încu
ține
Public
Unirea
prelung
Țării
Clas
long
localitățile
Bav
incen
##anților
Anna
Libe
##dica
Arti
termină
influență
##țate
tronul
##ps
Kal
regiunile
îndeplinit
##cuți
##cătorii
Cetatea
adres
carieră
##qui
..
...
Lei
##rimon
peis
##ficată
mișcării
Înt
##cându
creată
paralel
Pavel
front
##ărilor
Lacul
##iepiscop
dinspre
antrenor
perspe
starea
Gol
##aft
##att
jocului
Societății
instituții
##cidae
##atelor
##ugoslav
##riac
jur
Insula
Ut
##giul
riv
cone
Asociația
##gar
protecție
monarh
##tier
##idact
exerc
94
resur
Securi
hot
șeful
Fab
##irile
angajați
Spaniei
viitorul
religioasă
arhitectură
cred
strada
distrus
întrucât
aflu
don
matematică
##29
recent
##ield
fos
încăr
serial
interne
promovat
##reună
abil
Far
direcția
înființarea
traducere
scena
##ati
##thur
financiar
construcții
Otto
##fix
##andra
Unul
tendin
Plat
puține
Festivalul
reprezentând
She
societate
Miș
##mai
##tens
dezb
romanului
##ico
structură
Două
servit
Land
vezi
Prus
aspect
părinții
ese
Sistemul
##imii
planul
raionului
Marii
războaie
Anti
încad
##ande
răn
##ju
orașele
vicepre
83
Fron
##etic
##aren
călăt
Însă
##înd
depres
##TA
##icale
##landei
fru
sălbat
##graf
cultiv
copiilor
echilib
sportiv
Sab
##runt
ofens
totodată
Ah
implicat
##iamet
Valen
forța
Administ
ph
165
Sofia
##cei
relu
Va
mașini
repede
##sesc
arta
arabă
trupe
degrabă
##otic
Dam
afec
similar
##țiale
dator
pân
retro
trăiesc
Constantinopol
Fol
lăți
pens
adapt
Palest
statutul
bate
Regimentul
ben
##21
##ogen
inclusă
evreilor
##kîi
##alie
##umat
aceluiași
Poe
vederea
##ritul
soție
legătura
lide
senz
##ON
Pon
Norm
legat
implică
perioade
##put
navig
corespunză
spate
geomet
pătrun
șos
Super
limbile
##rivka
##ționare
##îna
##ultan
mile
##orta
##rute
fier
##yle
sărbători
inse
plani
adăugat
exterior
Sl
lac
marea
Elisabeta
europeană
Conte
1907
anterioare
League
soțul
##inic
##ket
##rolog
##ievod
mont
extins
##ducă
Sfin
ierar
##tii
cântărea
##OS
Iar
##seze
Stalin
puterii
împărțit
Ty
clar
suprave
Dintre
clasat
sug
ment
ofițer
unic
##matice
căzut
insulă
##rev
159
Que
Ziua
Adunare
Crimeea
considera
##zer
reun
Cristian
##oasa
legea
##reb
51
167
risc
Florin
##pete
##ago
filmele
americani
iarnă
electric
purtat
Adevărul
##istat
##torul
##ingă
similare
##selor
superioare
164
Facultății
Bus
codul
800
evoluat
împărat
stea
##ătoarea
fizice
FI
dispozitiv
##ón
##giei
##ît
color
Șerban
##iată
##ricul
Camb
Școl
protejate
înalte
inspirat
născută
##curilor
păsări
##ctori
apel
clubului
Viața
relațiile
financiare
$
Euro
piesei
interac
nordică
VIII
News
esenți
originea
spaniolă
rul
interse
##wig
##îne
1905
fete
Enter
capacitatea
##over
tero
Episcop
##zile
Împreună
Ti
avanta
##reme
Napole
##meni
Pierre
benefic
conformitate
##riș
##eniu
##rabil
rare
circum
##EC
##elles
manu
nisip
proprii
##ceau
##țiunilor
originală
Românească
integra
Prop
capul
Activ
##ațiunilor
dea
CD
candid
numărului
mijloa
britanică
lua
##clu
##olesc
##ătorul
interpretate
întreb
mănăstirii
##stră
Sic
Magn
seamă
Multe
May
##terul
##edie
Mary
Win
avioane
problemele
##AC
pleacă
alung
arunc
morții
##vei
Fond
Rose
##orește
buc
Margare
##iții
##nică
manusc
cursuri
autob
diamet
granița
##ör
Phy
ine
personale
02
Post
altul
definitiv
tone
pădure
die
Huned
oferi
##ționarul
teritoriului
Ki
titular
rezistență
Primului
##vor
Timp
Dicționar
perioadei
##lice
predat
##opil
1908
ct
durat
Madrid
##enia
tradițional
##unul
Piat
Dobrog
##oza
cartierul
Nob
rădă
indică
##gel
##laj
Dru
1911
Cânte
Maxim
urmând
organizate
##ovan
vac
clopot
grij
mâna
mamei
Istorie
noaptea
##derii
Miss
casei
Arthur
eliberat
Ari
Rea
munca
poată
##kes
##lei
##nici
Cron
Natura
favori
Put
IX
##alent
serviciu
municipiului
neagră
##oveanu
##ere
1906
##oftware
##ters
##tești
oare
##nd
157
întâlnește
mers
flo
pâr
fiică
##tes
##ings
zonei
bug
telefon
Tul
egip
Matei
168
plasa
păduri
Gră
Oxford
negocie
##etică
străine
urme
mănăstire
##atra
Despre
relația
##bert
seg
##dex
debutul
##oanelor
Sw
##OM
PD
Vite
##ințelor
##asad
##uise
Cet
emo
Soare
egal
##hrer
Municip
##IC
kg
##izează
grele
##ban
##hov
oric
concerte
Velî
Bruno
atinge
##zu
Praga
aerop
naz
fuzi
Patrimoniului
Indep
radia
#
chelt
asociat
ministrul
Poi
liv
Smith
jocul
împrej
Una
instrumente
albume
##isprezece
organizații
700
Barb
Bran
specială
##tere
fosta
Muscidae
vag
##tava
166
vinde
proprietatea
decorat
imagine
##ferent
sab
Fiind
scurte
##ms
Constru
##ștri
Muntenia
Biblioteca
suver
Gabriel
intrare
##rurg
Sala
interzis
155
Vor
efecte
145
noului
persoanele
diminea
domenii
Profes
Catedra
Tal
hră
##anței
Odesa
handbal
##ântului
Kon
##cific
##iați
##mir
realitate
Bay
tratat
vârful
prăbuși
utilizată
Războiului
Disney
##osului
anumită
Dunăre
##alax
Ior
Măr
umană
Tok
London
cumpărat
Lat
Jac
Varș
##urd
##ilind
găzd
tradiționale
Napoleon
Hunedoara
##iștilor
##jar
##ctat
period
Gust
var
generale
##ovița
limita
Colegiul
schi
efici
##IN
Sad
region
femeilor
##wer
Mes
miste
organizație
Up
ost
naturii
##igen
Mah
Tine
feminin
electrice
programul
149
##terane
clasă
Sovietice
##lé
răsă
volunt
partene
apropiat
obiective
băn
Alt
țăran
coloni
decedat
completă
art
forțe
remarc
Comisia
așezare
##umin
spectacole
concert
incluzând
Districtul
Kat
jud
băie
##ple
sovietică
învățământ
##IS
dac
tehnică
ghe
profesorul
##los
restau
##hard
Wat
aro
##enesc
##ologul
##inței
##mber
Lim
##oanei
Prahova
##cycl
semin
critici
șt
Constant
Ind
alf
Desc
programe
Eric
92
variază
Munteneg
viteză
Gav
##ionare
formate
Vil
diferit
##ures
Baz
Dezvol
lucreze
rolurile
organizată
comunității
##yo
sudică
##omyia
##olului
critică
lungimea
transmite
roșie
cated
Ja
##uiască
masiv
metode
constat
Crit
Studii
protest
programului
##ziei
mereu
##tte
1915
Piesa
Ak
##cap
##VD
##rine
recomand
Lan
deseori
electrică
##isp
lips
Johan
Brăila
promovarea
##ieze
văr
##alaltă
pictura
Hmel
AS
lucra
Iugoslav
conducător
subdiv
Internet
##aud
Cy
##ksand
##icieni
labor
XII
Mala
omor
mașină
Conserv
Litu
Iacob
urile
aduse
##azz
create
militari
suficient
Cla
călătorie
Rot
Denum
polonez
reprezentată
dobând
Ef
conferin
##ardă
pilot
interviu
Ziarul
impresion
reconstru
##her
##erând
Steph
artistice
semnificativ
##cțion
rugă
majore
os
Science
efectuate
seriei
artistică
centrale
culturală
vizitat
societatea
156
adolesc
bizant
rezervă
##yz
siguranță
##well
##aseră
prestig
cast
250
Sun
metodă
##anagement
##orf
Educ
aflau
Poltava
portughe
AD
Seve
atras
##bre
Hrist
implement
primăvara
Colle
merge
subst
propag
Egip
cărții
legislatura
##cean
Unirii
austrie
Castelul
##itale
acțion
tehnic
reorgan
consult
capacitate
##azul
##minte
1904
bazată
observat
jurnalist
cântecul
teritorii
treptat
##ctează
Egipt
##ops
153
Edu
Royal
##ous
capital
pregăt
BBC
Hein
favor
dificul
recupe
Wa
artei
Windows
problemă
alco
aranj
Lee
activat
Anat
Madon
crime
design
##obile
1000
Stadi
artistic
Noi
mea
##ertoriul
dreaptă
Russ
##țiu
##cesc
Ger
pom
Noul
ajungă
directorul
privat
influențat
##rey
##orum
unghi
finala
##șă
##iti
pietre
formație
referitoare
Arhe
lichid
##dește
ciup
Person
decenii
descoperite
prona
##ße
##ediei
##iță
##ührer
Glob
##rali
cioc
##ficate
Kö
dorit
politician
cana
Magaz
subiect
evanghel
utilizează
rău
magnet
concuren
fuseseră
administrativă
Manu
PN
dispărut
ba
##căr
Gă
Cip
ulei
Numărul
părțile
renum
Teritori
bucă
Ped
Eduard
acuzat
relief
##iciile
evenimentele
##eus
adau
tipul
conducere
corespunde
##icală
masa
divor
liberă
##ston
percep
insulei
##lend
găsi
existau
despărți
##vele
Rena
preve
##țuri
Decretul
serviciul
opus
Artic
62
##lavi
1909
majoritate
One
scorul
##ool
duș
difuzat
traduce
guvernament
##mond
Ama
Mării
teza
Simon
Hans
comite
vizit
menționează
##bră
bote
vestică
apărarea
lig
##ințele
obținerea
Botoș
##rupe
repara
Hall
Jurn
##term
158
satis
##hr
anumit
diferi
##hol
##uiți
Cle
legată
profit
titluri
denumire
descoperă
castel
permanent
##oții
Pilz
Revoluția
##hy
Kras
Prem
durată
bazele
##lii
atribu
voturi
163
##urele
##ografiei
Dră
romani
situate
Agrom
viteza
Comunist
##ison
##ocmai
##schaft
secven
colecție
trag
clasamentul
hran
inginer
referire
articolul
înmormântat
##cta
110
##șev
##fica
##ortă
estică
posibilă
Henri
datori
Brazilia
##ken
##păt
##cării
SF
nă
##țială
cruci
Piatra
frații
Flo
bri
##cească
motor
dorința
educație
scrisoare
##iade
Ligii
radic
episcopul
independente
AR
Kor
democ
executat
Vâlcea
instit
##rena
ses
##ălalt
Anul
națion
Aceștia
adăpost
consolid
72
Lar
##rug
Jî
Dâmb
melodia
benefici
##orescu
cresc
turneul
##niță
##șani
Mur
Sto
întin
Vodă
sugerează
##rimă
procesului
rezultatul
Tan
bolnav
investig
inov
Chic
reviz
uriaș
franci
oper
frontie
Ial
agricole
##sol
ingine
Franç
crucia
împără
ortodoxă
suro
wall
mănăstirea
comunitatea
fon
##chete
Produc
Comisiei
##oresc
didact
##set
##ulare
Arch
##cțiile
vremii
propriul
##gnost
potențial
șoseaua
tact
##ocii
##zată
Sara
premiu
regulă
##uiau
##iac
##nip
Federația
comitatul
Președintele
Sel
păre
civile
##ificarea
##NU
Partea
următorul
##xtul
Trei
omon
vert
învățat
##sese
Dal
evacu
reden
record
președintelui
locotenent
##fal
navă
trafic
încuraj
acoperit
alcătuit
ansamblu
episoade
Test
gros
recen
extrate
Romanian
##adar
Prez
directă
ochi
##gea
##ușii
scos
CF
Som
Burg
renunțat
##inci
Atlant
SR
impos
Journal
posteri
Ray
Anne
nava
pent
Eminescu
ataș
gust
elevi
carierei
##unic
avion
reduce
dezvoltă
Yo
##ațiune
consac
membrilor
Mis
legii
viol
Clădi
marele
Dacia
șed
lider
##istan
funcționat
##nie
##orel
live
categorii
##cuz
Octav
nat
##etice
Roșie
prile
Comitetului
detal
##oziției
##AM
Ist
natal
reacție
##rută
154
Nag
mărime
persoana
##pin
##onii
Pute
orizon
Occident
inițială
ucraineni
afiș
însăr
combust
îndrept
așezarea
locuiesc
##răj
adresa
140
finalul
Comand
francezi
130
Kle
##izică
##îkola
intitulată
hit
găsite
Varșovia
Day
muzeu
măsuri
maghiar
Irlanda
campanie
##bn
##itele
Walter
dincolo
picioare
clasică
inițiat
Ie
Sfânta
statele
sind
##italul
încor
dragoste
##och
durata
folosi
temperatura
mode
obținute
legi
Cuza
##itatului
distrib
înfățiș
Apost
scene
dos
noastră
cunoscuți
##ierul
Fel
regimul
##rav
##ricte
voce
diver
aceleași
##bun
##șci
Kir
Încă
sinuci
##view
poziții
deosebită
Blu
Sar
Alexander
147
##uturi
Hill
Berna
agres
colectiv
##oga
Gui
Nar
##unere
Casei
pedep
advers
cameră
util
ajuta
vându
bot
##raeli
Teodor
hâr
cealaltă
Mij
Zap
Champ
Pha
Sir
Sire
chitară
perfect
studenți
cercetări
Islam
Francisc
Statului
căld
Leop
event
trăiește
comparație
medii
Vaslui
##apă
##hul
fluvi
##ăriei
neob
##itarea
memoria
reginei
##onice
Limba
mărim
grat
##nitorul
Cir
How
Tar
1897
Play
Pacific
numelui
##îțea
turc
##înivka
obțină
##dis
##log
Real
normal
vecină
Gir
sunet
proced
SS
Docu
uciși
##enească
preven
Severin
##edă
##ction
Principalele
id
sfert
înteme
prietenie
##imet
Gale
Pădu
afric
Institu
Fra
Austro
Coreea
regale
restaur
##nov
Group
așezat
generalului
Parlamentului
pon
Harry
cerea
Fal
atrac
##work
Encycl
administrative
##hl
renov
spectatori
##lock
##țare
independența
Părin
crimin
pagina
pit
Giurg
##gând
Argent
căsătoria
Croația
##yd
suport
Botoșani
##ović
Deb
editura
Norvegia
##bile
tână
Grand
##reak
##uzia
nazi
planuri
femeile
##sed
Call
Petro
minim
Secret
scand
lumina
Servici
poloneză
Campionilor
Has
som
Habsburg
suma
coasta
##teria
doct
regia
rapidă
confirmat
Dro
dens
##führer
împărțită
noii
bizantin
navei
amplasat
1878
Comitatul
prezentate
é
Prof
sănătate
##otice
boli
campania
Asociației
##deze
##odia
##celen
bara
Reich
tradiția
117
##field
1890
gaze
lucrărilor
faza
însărcin
nun
##ifere
North
vorbește
##isus
Liber
arbit
religios
##mile
stâng
simplă
gospodării
științifico
democrat
##tism
##hoslov
potri
##taș
împuș
primară
imaginea
încheierea
##stra
dul
științe
caracteristici
specifică
##iki
Cetto
Dinamo
preponde
##enta
input
##scop
listele
scriitori
##kel
##sky
tem
regina
disponibil
##sti
##ingen
vânătoare
##miral
1880
Vâr
merg
frați
compozitor
##ctiva
dinam
poezie
comuniste
caracteristic
##gre
##ărâ
##urie
mie
audi
revistă
doctorat
##ructura
Biro
folosească
Green
contrib
determină
comandantul
principalele
ti
##oarei
propriile
aduc
moare
preotul
Luca
creștine
joace
bogată
princi
ambasad
infanterie
##aust
rug
##ucrarea
##agul
mol
tax
Peri
dizol
chimice
întemei
Columbia
experiență
Inte
lucruri
caf
revine
confrun
întâlni
creștină
##LV
Muntele
calitatea
plin
precedent
demonstrat
Park
deput
infra
invitat
##ctarea
##iliu
Sie
##ulară
roluri
credincioși
obișnuit
Sân
##ctate
îngrop
Cultura
##cov
bogat
ordonat
God
slă
##ellschaft
Zona
luptele
dezvoltării
internă
întă
liceul
melodii
alfab
sectorul
ot
liderul
Ucrainei
majoritară
personajul
##face
Lis
Nova
înlăt
Minist
sfinți
medalia
Evenimentul
scor
Herman
Adunarea
Dece
luate
Bavaria
##ild
1902
Wolf
adaugă
Rezerv
##for
##lar
ileg
trăsă
##zează
pusă
##șterea
cererea
încetat
Hristos
fondator
109
dane
piesele
legături
Cambridge
##mont
juca
tera
Cupei
Muntenegru
avansat
##ves
Bak
Ole
Iisus
conduc
drepturi
##luc
##arce
fam
inputbox
consilier
##dite
mos
Brân
decide
##iliei
reprezenta
‘
##ager
evalu
Marcel
Provin
##iness
referință
##iman
##ohrad
statut
fostului
proprietate
Bei
cetatea
clasice
past
înțelege
1903
Brad
întregii
Actu
Iancu
Jackson
așezări
Kh
Lui
întregime
1877
clasic
privin
software
##mail
Pin
decizia
grecești
vig
Time
gran
impact
Cultural
uni
Corpul
ridicate
ă
Conc
țe
##cipit
Cavale
suspend
securitate
Hon
coe
Cant
Maicii
olimp
61
idei
Mediu
hectare
competiție
##mad
Spi
vicepreședinte
##uch
spital
castelul
Rac
Vis
Austriei
asemănător
##urări
preten
##yan
https
persoanelor
Nou
##itehn
##tomîr
soare
medicale
organizației
nel
##oper
Pel
bătălie
continua
răp
puse
Mulți
făceau
acoperă
##lociu
Jîtomîr
mâinile
terminarea
Popa
Danemarca
##sători
aeriene
##duit
ape
Berg
patron
cetății
capitală
separate
zil
originale
mării
reală
albastru
Lang
pasa
inferioară
##tesc
Mid
nop
##xelles
Roger
teorie
complic
##elung
Râmn
Nobel
Veneția
##aro
furt
spaniol
supraveghe
dupa
##ider
Paș
locurile
##22
Amp
PSD
profil
Școlii
plină
petrol
declarată
schimbare
Big
##inger
dova
fiului
aspecte
înscrie
cucerirea
##trem
##xemb
hist
mesaj
Suediei
celălalt
evoluția
Blo
Cab
rea
Satu
##ficiul
##oriile
serialului
##inta
##teva
rob
Canta
epocă
Chicago
deschide
drepturilor
##uț
abuz
detali
125
chirurg
polonezi
lag
Grec
acești
conduse
##ato
##hiu
##isme
Hei
Comitetul
grupurile
grade
mater
##șel
demol
##df
Schw
canalul
vii
Dig
redusă
necesită
Dicționarul
Bart
Superi
vulcan
1870
show
Olt
pul
##gy
große
Astăzi
dovezi
ofițeri
##ES
Sax
orn
##aliei
bucurat
Ath
alegeri
teritoriale
##IM
formând
##ceanu
Chart
apărea
ușoară
sulf
milion
capabil
cercetători
##ream
##ruri
anal
AC
##tem
##anev
Scott
variante
profe
regal
supraviețuit
##stern
##eniile
talen
Dobrogea
##redit
cosm
atacul
energia
##șca
land
rămă
industriale
Tun
hom
slav
##ificat
simptom
festival
schimbul
Sor
Apro
##lele
##înți
împă
reale
dispune
Portugalia
regist
105
Neagră
încercare
1898
cule
Liviu
forțat
vândute
##usa
##aten
blind
bet
latin
nevoit
abandon
cheltui
fratelui
Tat
##nîț
tema
Bruxelles
actori
întări
personalități
##cați
##rovsk
Isus
prezentă
Criș
Dnip
munt
##zate
##ologi
sult
mulțime
mete
Simion
Biz
paș
Ținutul
##eda
##sche
Isa
solo
rămână
Leopold
planurile
varietate
Frum
operei
Națiunilor
set
alcool
latura
Romanul
##gas
Nat
##ționată
desemnat
qu
Sant
apart
lumin
##lem
eșe
##tidi
Brown
comandă
următorii
Tel
##inelor
Camera
creștini
controvers
##ronic
Mică
dorea
##chester
dramat
dispari
##ița
Cernih
respins
rețeaua
##oric
Insulele
candidat
##itei
Way
dau
Angel
valor
regală
scufund
instituție
##AF
Tw
##ansk
Liov
Calea
necon
intere
alegerea
animalelor
consecință
ulterioare
##ătut
Oam
supran
modificări
înregistrate
Got
##stadt
Apol
rece
Clădirea
individual
stag
frumuse
arheologic
##enos
Inc
fune
topul
vechea
prezente
agent
##kh
##umele
vreo
albane
Tam
cobor
simple
schimbări
##aliza
calend
Lev
tranz
bazate
anterioară
##ás
clase
complexe
##bach
ferovi
străini
copilărie
##IT
go
##nazi
arhitectura
Atena
patrimon
aplicații
##aw
##tiri
Seb
comedie
schimbarea
cărăm
Bet
Pun
##tizat
##riv
Jim
felul
##ctic
1866
recenzii
elementele
retragerea
răma
Statul
accesul
flor
recip
##ționarea
rânduri
organism
echivalen
evreiască
Pag
opri
##ctoare
numere
Exemp
##inar
##răv
##nirea
Volîn
White
dorește
nod
##insula
lansare
##ror
Holly
culori
##ts
ocazie
tehnice
obținând
substanțe
##pl
1901
ceram
Log
imig
Helina
##ariul
Arde
poliți
discurs
##amentelor
Denumirea
defens
oxigen
tipări
înțeles
But
nes
Ceauș
importanți
405
Ali
sticlă
##PS
##yr
Politehn
întâmplă
##ilvă
##tene
proviz
Cehoslov
71
epocii
Cantacuz
deschise
##omer
DVD
Acolo
slova
tocmai
retragă
clădirii
câștigând
##feră
##omyza
South
Revoluției
##eană
##eață
curte
schimbă
provocat
întregul
Apartenența
##EN
##vârși
inund
cilind
închisă
mijloace
descoperirea
ajută
amestec
câștigă
eliberarea
but
##diale
Albă
săra
țes
1895
introducerea
1896
subordon
##jo
Ero
##ach
douăzeci
preponderent
##ody
Hug
clor
etapă
viitoare
reprezentant
căutarea
##mor
lansate
interbelică
cimitirul
##cos
##ude
Bea
Gaz
##cepe
##iver
Ovi
consecu
poliție
încheie
##ilei
Aface
județe
artilerie
răspândit
Internațională
##gian
Deut
benz
devin
constant
exprimat
vocea
mediului
Milano
succesul
##ower
Năs
nostru
creează
##chel
Zag
evreiești
interpretarea
##omon
zug
firma
Virgin
dușman
stimul
colecția
Cot
Dea
gospodă
##AL
majoră
predomin
rezultatele
##gerile
semifin
originar
##uzi
albe
rang
Speci
Pilzführer
Scriitorilor
##eaza
##iesc
ferate
pel
Marius
efectiv
Coa
1864
serii
Awards
##ctorului
Forțele
ebraică
Origin
##teb
pdf
dinainte
mondială
##amin
Ost
len
Sergiu
membre
nobili
##cis
##zig
##oriu
McC
convins
##iiv
Cez
Sea
fre
parc
exprimă
nominalizat
Ide
Lac
Face
##mită
rebel
variantă
Web
personală
1899
Gram
##icilor
Eurov
dublu
autoritatea
numiți
##ipul
##nîțkîi
disponibile
##asi
Kol
chest
fantastic
##ito
patriarh
principalul
##zan
liceu
Pâr
editori
Diviziei
înscrise
##dium
sez
Mîkola
bărbat
urbană
prieteni
îndelung
temperatură
cle
##owski
##alizări
Luxemb
deș
patra
uscat
camera
produsă
vene
Greciei
##nik
##oto
UN
ned
râu
Locu
Vechi
ieșit
##tainment
explică
##NESC
##varea
##atoriu
termeni
Cântecul
regizorul
##fede
##toarea
Lucian
respin
culoarea
unitatea
cite
Imperiu
catolice
Hmelnîțkîi
##47
Călă
situl
Michel
define
participarea
##hire
115
march
Giurgiu
austriac
capturat
reglement
##clor
Vân
zeci
Wei
sla
maest
soluție
comunitate
##anivka
apelor
Ortodoxe
vreodată
##iași
urmată
Medicină
maghiare
proiectat
distrugerea
##kove
Liberal
##chia
##kivka
tras
impus
Alfred
Phaonia
Turi
Agric
##bilă
Iran
Major
marit
fabrică
##duri
Conf
Slob
##stește
greci
Micros
situații
##obe
##apti
BLV
scriitorului
##ărg
Marian
Disc
Monte
cutrem
datând
confrunt
dimineața
143
148
MTV
##dicat
subm
promis
strâns
triunghi
varianta
ascun
Cuvântul
similară
avoc
fată
legit
datorează
inițiativa
comitatului
##ardo
ton
sare
##med
Bour
depinde
dezbate
##book
##ioase
Palestina
##oaia
Vid
pericul
Zam
##orești
Costa
Phytom
Fiul
Adolf
Rolurile
pierderi
##lis
determ
sufici
Phytomyza
alimentare
##cina
vânt
Company
fruntea
##hen
Bihor
ave
##ționate
colonel
106
subți
deport
Ku
##argă
poezii
91
Jun
Tet
##uarul
munții
îndrum
magazine
cerin
luter
membră
căderea
medalii
transilvă
##înt
Ron
Song
plăt
##onimul
Țările
câștige
diagnost
##usul
vrut
ființă
Francisco
funcțiile
##ogle
##urch
##intei
Hard
sprijinit
Ig
Out
textul
science
Monumentul
famili
q
##von
Cernihiv
Society
operele
private
diferită
bru
grec
##oo
##ilat
##nest
Bah
Independ
Williams
Lew
cărțile
##lim
##oire
Ioana
Povestea
Cob
Omul
provincie
##îs
Pite
Adună
strămo
frontul
numeroși
comunități
Suce
Armen
manifestă
##islav
secția
Jurnalul
##ovă
##haus
tram
atestată
##anti
##ianu
##nica
##oise
flan
campi
căuta
jumătatea
urg
farma
pericol
rezultă
1888
corup
Conven
107
##junct
israeli
Lucrările
Eurovision
producerea
103
pui
acte
ediții
Județul
japoneză
medicină
Rub
mam
economie
respectivă
Sca
##icult
libertatea
##icile
Sumî
cancer
zf
secundare
##ucen
139
##ptate
Publish
pictori
interesul
##dare
Verlags
apariție
Catedrala
##gesellschaft
##kas
Aș
##icianul
analiza
componentă
pagini
Autonom
înregistrări
##lurile
liberal
inferior
marca
presiune
146
asp
ign
pretin
Lung
pose
Robin
stradă
Muzeului
versiuni
acoperită
prezidenți
Teod
masculin
influențe
##ovei
##ther
Isab
mește
putem
refuz
activitățile
##mie
##nam
buni
Primă
datele
profesionist
##pet
Dă
Așa
##tieră
mese
prinț
soldații
fază
Ecate
Araneus
provinciei
##oon
iern
Santa
internet
##eff
demn
sonoră
factori
contextul
##gal
Law
UNESC
multi
School
tânărul
continuu
Lit
##iidae
Împăr
chimică
##aco
Bert
tramva
Petersburg
Cantacuzino
##gada
Deci
##rialul
cuvin
Floren
##desc
##tite
trop
Ludwig
autorităților
##yzidae
tradu
Regina
Agromyzidae
##âna
##nist
Son
gig
Dâmbovița
conceptul
##îm
##stal
mamă
ochii
Câmpul
1860
Obie
prevede
voievod
privile
##és
up
pârâ
UNESCO
separa
presiunea
##000
##tish
1892
primind
Marte
Microsoft
##puș
##oman
##vată
RAN
##delor
1894
Situ
pună
district
siturile
Stadionul
##hin
127
Iord
##ocurilor
##lon
##dagog
##itului
excelen
calificat
hidrogen
boi
Alian
terenuri
cantități
medievală
##opi
DE
absolvirea
indiferent
studiilor
bib
1889
Africii
Wood
sune
##aniile
ordinea
SA
sală
##anțele
prezentată
1859
circu
încorp
părăsească
133
cra
sar
Târg
insule
marile
select
Antonescu
centre
lacului
germanii
tradiție
CN
Bote
lățime
Evanghel
pozitive
82
##arius
Associ
##rik
Nici
##ère
##vere
Sina
Stra
mondiale
independentă
##ips
##oacă
Res
##șește
Best
Tren
parteneri
Danemarcei
accele
sav
Gara
boală
cheie
scrierile
serviciile
Entertainment
Syd
câr
Night
presa
devreme
cuvintele
Matt
antrop
operare
##wan
Suc
Vit
Bălți
Pește
perse
Repertoriul
Ax
119
##inești
##hid
UK
##săud
Las
Zah
dura
##imentele
1867
##dav
Bag
Barcel
mandat
##oză
Cic
Sul
Kara
##ortate
Carag
purta
obligat
##indă
135
Zeel
morți
Nicola
italiene
1893
etape
trupă
perfec
scriitorul
Alp
Giu
Negru
Finlanda
misiunea
generație
##cha
ov
##pes
##oviște
scria
Dealul
Kosovo
automat
credință
campionatul
128
Open
părinți
##rilă
##ternă
relat
principala
combustibil
##nii
81
Fir
aver
Ceaușescu
SC
1812
Brat
succedat
caracteristică
##rași
Gel
texte
aleasă
existenței
##iew
##isi
##ines
lacul
corect
procese
##bit
##feld
lăcaș
aplică
avocat
laterale
Dun
Ken
Gura
House
popor
Turnul
număra
PR
spunând
întoarcă
învecinează
##aliștii
sovietici
proprietăți
##sel
arun
Ortodoxă
Ves
##viuri
Hotin
depus
trofe
imperiului
##udat
Cov
##opedia
observă
călugări
Ten
acceptă
realiza
Mî
124
##ortun
East
Suprafa
Românești
musulmani
Ultima
litere
##MS
vic
frunte
Charlot
protecția
##ée
##aci
##ropet
Bost
Sălaj
palat
Hip
flui
prede
Valentin
Arn
expans
fiction
distribuție
##kins
invers
spunea
libertate
nar
Vinnița
mobiliz
Congresul
căpitanul
tric
urmărește
Lov
carne
Hay
##cescu
1881
scut
plece
Câmpia
##ropetrovsk
tradițională
plân
protag
interpretare
dialog
##odi
Vul
##izării
Theodor
posibile
Proiectul
##ohi
jurnal
ocupată
##sy
##asy
uit
publicarea
juni
Năsăud
structuri
##ily
##iștii
senator
Anderson
Hollywood
călă
##alității
confirm
particular
Vic
acor
continue
Chel
casele
câmpul
portul
formele
Mond
drog
fragmente
##cop
##iner
seni
înfi
Dorin
dezast
pornit
Jacques
pedagog
##ix
Dim
Show
stejar
engleze
tratament
##ku
bat
1885
fapte
prizonieri
Diction
poloneze
##ds
##agi
Beat
vocal
##ațiunea
austro
asigurat
dinastiei
##uter
1876
Seria
Tipografia
##tura
oxid
apreciat
întâlnesc
##veți
Jer
ure
##icipe
Chris
##ferința
dovadă
profesori
roșii
misiune
Teatrului
editor
Marelui
Johannes
973
Good
Barbu
evreii
memorie
François
##pun
banii
##landeză
politicii
nev
1849
editat
118
##ajele
##ilate
Stand
teoriei
negust
Pitești
fabrica
transfer
##ject
137
Roz
Lind
Carac
etnie
Center
descend
tancuri
Dnipropetrovsk
Ot
Count
primare
Es
108
Hog
evreu
religia
##nul
##sării
mass
Arist
sosit
evoluează
încercarea
##late
mișcări
Pic
nen
Crac
Sher
ritm
menținut
Făgă
prag
Anast
arist
Câteva
##nat
##uste
oțel
Kirov
Tech
Poiana
magist
exces
bolșev
stație
Agenția
drumuri
pereții
remarcă
întâlnire
personajele
Joe
Lie
deva
preia
constr
credința
recunoaștere
134
Democ
Oceanul
##imentului
aeroport
##PR
Cif
Indi
egală
semnal
Tu
Izv
stabilirea
ouă
mută
tent
Jacob
##utt
tal
Human
comem
solid
Muzică
celule
statelor
aprobarea
##bin
##row
WW
Dur
Metal
oferin
tranzi
vechiul
##niv
##gini
apară
suprem
Orientul
##ić
turnul
participe
auten
Albania
dreptunghi
IC
metoda
sistemele
stabilită
##lab
Simp
Banca
adevă
negre
măsura
tehnici
distanța
Suprafața
##ciul
aleg
întâr
nimeni
identificat
criticat
participa
1891
Madonna
nașterea
distribuit
înfrângerea
##oge
refă
Aerop
laure
rangul
reușind
##tau
##vis
Pis
înălțimea
##fiind
Lore
cruce
Sydney
treacă
##cre
##mund
flux
fugit
ortodoxe
documentară
Departamentul
##esse
129
omen
caută
Județean
Petrescu
Pământul
denumite
Ser
1871
Piet
Romei
economia
dezvoltate
căpitan
fonduri
electronice
privitoare
##pel
##reas
Moh
marm
Având
manev
perechi
limitată
calculator
Pana
răst
dubl
ocupa
proto
scoate
adâncime
ir
Viz
emb
##șoara
fals
deschiderea
Sas
regă
buget
destinat
##zen
##isch
Jeff
republ
relațiilor
aștept
pierderea
Constantinescu
liniile
transformă
meu
##alități
însoțit
istorici
societăți
insecte
coope
echipele
organizează
seara
resurse
temă
evita
Acțiunea
Gil
les
##zului
ierarh
locului
menționată
##inu
prid
##igan
##lete
Zel
Ovidiu
contrac
spectacol
Sci
trimi
Eliade
Reform
gravit
dezvălu
Toma
cincilea
nepotul
străluc
amplasată
hotărârea
mele
##tările
arabe
îndră
personalitate
Had
Maced
cuant
Network
procede
partidul
cineva
Fundația
138
urbane
##led
113
ars
Gaga
vase
Texas
conex
Gri
Hugo
cond
##rațiile
Stră
nemul
CC
136
1884
Kenn
sclav
Sebast
1850
imedi
vecin
Clubul
provinci
Guvernului
Ruse
galax
Aria
urmărit
##cz
##stre
genuri
rugăci
victim
Anuarul
Autonomă
Argentina
Sorin
Luxemburg
##ouri
zah
orică
reclam
Barcelona
come
vrăj
Jocul
fan
Boem
ideal
repar
turcă
imposibil
considerare
Ghi
Rio
drago
Centrale
preoți
culturi
misiuni
##har
ating
deosebite
cântăreață
##rupt
Cart
brun
Mauri
ascul
înving
Mondială
multiple
Hil
##ister
atel
târg
Mișcarea
Od
Bac
Bole
admis
altar
Ialomi
Mitropol
##stem
colab
iarna
povești
tineret
dramaturg
Președinte
Fri
bul
șop
1883
cartier
efectul
distruse
Testament
##mise
vea
fugă
aproviz
asociate
încredin
comunistă
144
CFR
Def
individuale
Care
Live
Siria
curaj
sacri
depozi
ziarului
campionat
Hu
##furi
oprit
atestă
filmat
israel
student
##râm
##uirii
furniz
opinia
##utare
Cerv
More
camere
cetate
rămânând
sum
restrân
sugerat
încredere
##hu
IN
##emin
Virg
aleși
benzi
munți
extens
catalog
ONU
Greg
povestire
fondatorul
##ivți
detaș
depend
prefix
Octavian
întoarcerea
Sâr
##zonul
Bene
British
afluent
aspectul
îndrăg
sportive
asistent
cuvântului
profesorului
123
nef
Rand
inspe
sârbi
exemple
suveran
comandat
spiritual
##day
bord
##rot
##jele
Ern
NAT
##izeci
noile
numesc
instalat
sed
executiv
Băl
##onică
Hara
Tern
antice
terenul
vânzări
fragment
pasă
gheață
delimit
ort
##ident
##tărea
întoc
comunele
turneului
descoperită
##DE
##resti
actualul
acoperite
performanță
evidență
##TR
##onso
Proble
japonez
Gö
##ptele
permit
desprin
medicală
unit
privința
arhiepiscop
##AP
End
gla
##ulevard
atenție
medical
aparținut
cercetător
##eam
##bury
##furt
##odin
bin
FIFA
##istica
poetul
putând
genului
regional
Christoph
Internaționale
##atia
botan
caracterul
crescu
întâmplat
##BS
##UR
##jea
##fere
##otes
Foc
pau
##zându
1887
apost
Cinemat
Sfinții
minerale
##cine
cas
Horia
neobișn
precipit
trebuiau
Cezar
cumpă
anuală
pozitiv
prințul
Ima
cai
căi
context
corespunzătoare
##able
##rala
Irak
antich
regatul
legislativ
##oia
##vesc
sor
1830
Louise
refuză
insulele
judecată
Pr
ari
fata
infe
înăl
pedea
primi
rănit
liniei
Formula
uniform
meciurile
publicații
SI
##rote
analiză
aprobat
##tură
##press
Space
fizic
Atlantic
Blaj
britanici
##els
##astă
răs
avia
trecând
imperial
medievale
recunoscută
##onală
##alizează
onoarea
adevărată
produselor
Mei
##urând
Chap
catedra
problemelor
Ec
##ilie
Fic
sala
canal
##aba
##text
pedeap
secundar
Mile
absorb
combin
soluții
abandonat
##olu
cadru
conver
##darea
Nich
lasă
Iorga
vreun
muncii
Orchest
aprecie
reprezentate
vent
desene
discul
Pădurea
##inus
Evul
Făgăraș
##țeg
ris
Sele
Botan
depozit
încerca
Saxa
Cinema
pictat
adjunct
##rimin
confec
Francis
susținută
Fier
litu
recuno
inventat
planetei
ideile
##ball
jazz
Reprez
melodie
##arth
##idia
Pere
Turda
norve
conceput
##ec
##neni
##aturi
dublă
##port
Tol
Mihă
atin
actuale
amenință
fiecărui
126
Jen
distrusă
Organizația
##orarea
Gorj
Rădă
virt
băieți
Membrii
luminii
reprezentativ
##iniu
metro
plant
Saturn
transportul
##oke
##iten
##tenii
Vran
stația
alegerilor
##eii
md
tânără
Magazine
##turile
atacuri
argument
1868
Eman
Fred
vădu
proemin
##olescu
##vy
bile
distins
categorie
Manchester
end
vap
unel
consul
Alexandra
întreține
Š
Jud
##itată
High
mong
sârb
temporar
mitologia
guvernator
##sey
Sankt
redac
##gii
##izii
Pad
mac
1886
feud
Lumea
deterior
Transp
##OC
Jones
##zăr
##gele
Arheologic
##iona
Some
Stock
detalii
cantitate
##fac
##wei
##înă
pâ
##ieni
Thail
ateri
Slovacia
Structura
##oy
coc
##aciei
moșia
extras
1865
stoc
oarecare
construcției
##lină
Tay
ziare
nucleare
introduce
cinematograf
##verse
ceas
##atorie
facil
organizare
##abol
##skîi
Măg
elveți
mențin
statui
procent
găsească
raportul
amintește
administrarea
Crucea
Regale
compuse
derivat
vigoare
Ecaterina
grupe
incon
Samuel
export
satelit
Munților
soi
##ațiunii
scenariu
scrierea
jucătorul
ae
##opia
Tour
icon
urmau
copilul
economiei
Rezervația
104
îngust
țărani
promovare
materialul
comportament
uk
Sava
Energ
Villa
ocean
autost
administrația
1875
Vezi
Peste
tunuri
opoziție
valorile
##enh
1882
locomo
suferă
Patriarh
Viteazul
japoneze
Macedonia
stabilește
sută
prezenta
gospodărie
##tors
exerci
mitropolit
##ław
Lewis
delegat
##âi
##alth
Kim
dedicată
Margareta
Federației
nepo
recu
cabine
negative
orașelor
##mare
pasageri
caracterizează
##erva
Sile
##itoarea
episodul
destinate
##ocal
țăr
sexual
Lam
Prot
Books
flota
Lauren
destin
decesul
Mariei
activă
reduse
extraord
copilului
dezvoltată
anivers
prietenii
##upi
minor
răniți
##sson
Mov
Nep
##cedon
##mberg
1872
diferă
limbaj
##lina
##icost
##șești
NATO
Ștefă
Bey
##itală
##tions
José
capătul
folclor
##giu
##restră
însăși
College
sexuale
concursul
conducătorul
##ado
##jjea
arbore
comest
hârtie
predic
secțiunea
Ky
##cini
##onie
hard
țără
Scopul
rusești
Britanii
supraviețu
Kom
##annel
restric
##hes
Bara
Under
profund
Cristina
atestare
majoritar
sax
Nouă
aflați
emisiunea
cântecului
amon
##cările
acordă
unirea
Valeriu
Catolică
studiază
cuprindea
Caz
Church
cardin
alianță
sezoane
înaintat
altarului
##orte
conj
neer
Stephen
publicul
##lava
scape
lăsând
compoziție
tratamentul
##atus
Guy
flex
Creșt
spiritul
##inian
##orman
știri
câștiga
fundamentale
##lay
##antes
##chetă
Long
Trip
pari
that
păcate
diferitelor
Br
##stanbul
versurile
Activitatea
##rial
900
agen
unică
suplimentare
universități
##tra
##atom
##zelor
apropiată
Mănăstirii
AN
Rudolf
Belgrad
efectele
##âmp
Cub
bale
pești
Boston
colonelul
##diș
##sin
Trup
adulte
Ultimul
divizie
preocup
##osebi
prins
Iugoslavia
##ette
Une
Podul
Romano
fabrici
administrației
##teran
ritual
otomane
Călărași
Fundației
##rete
Gib
Georgia
trage
##ionarea
Prusiei
chitari
##aret
##elly
subiectul
Ciu
Local
Poate
divin
grave
Zapori
potriv
scopuri
artistul
moldoveni
monah
Oltenia
clin
About
Ismail
Marina
arc
1863
afirma
monede
cluburi
comunicare
respective
Plas
Râmnicu
generat
Heinrich
emisiunii
##eto
##ett
##itas
depăș
purtă
încălzi
Act
PNL
căt
Guil
rupt
ziar
ctitori
cetățeni
papa
înfl
Bătrân
Planul
potenți
pregătit
##jma
activează
domeniile
serviciilor
##mun
ascens
bulgară
##ér
##otului
corpor
diametru
istoricul
Kirovohrad
##ușa
114
Stone
coali
fructe
legion
##cit
competen
pictorul
Caragiale
By
Băn
libere
prefect
comercială
##aniu
Ecu
Fen
1879
pele
##struct
adună
##ray
Luh
Doar
Holoc
Street
circulație
desființată
nas
Anim
Velîka
sără
Chine
inima
lucrurile
combinație
##fir
##rabilă
Sucevei
planeta
##abi
Gr
##ceri
Pur
loi
dori
mone
recep
Litera
Alături
licență
emisiuni
adăpo
decursul
##oin
bise
zero
soldat
management
##cast
##erla
Prî
voi
cotidi
regină
suprap
frumoase
##oxid
amint
votat
predeces
Sebastian
principiul
Lug
răsco
##ada
##șeni
Brian
##ografii
Invest
depăși
dictat
##abilitate
distruge
ty
căci
Ernest
##olele
Review
planetă
părea
Online
recomp
specul
Medalia
tehnica
energiei
timpurile
vom
avem
Tribun
proclamat
##ül
##angă
##dorf
stâr
negativ
preferat
##ashi
Juan
puri
dificil
științei
Maz
box
##ivele
suspe
Giovan
recente
constantă
##umi
##enne
Cad
Delia
mașina
rețelei
universal
##aure
Nel
aci
palatul
privată
##odele
optim
Serbiei
coloana
##ilii
Emp
Ernst
Ghica
regulat
regatului
##rod
##cere
1861
Main
stret
Populare
practica
terestre
Antic
șopâr
Bulgariei
clopotniță
##iană
##itudini
analog
Cracovia
Encyclopedia
evenimentelor
##schi
##vine
Noa
fierb
aliate
înscri
certific
Programul
industrial
##ló
uși
pion
##mările
emite
descăr
sexuală
contrast
peretele
ansamblul
inaugurat
##mănă
1856
Negre
atrage
Antonio
îndeosebi
##ogă
##sterdam
Grigorescu
Ilf
sumă
chemat
calității
unitățile
idee
Colon
Deput
dispoziție
ministrului
##onc
Fore
promo
răspun
decizie
președin
semnificative
##ally
lux
Nistru
repres
evident
totalitate
Sti
##stelor
Rivne
Amsterdam
Ordinului
intermedi
contribuie
##olii
lansează
nivelului
Fig
Slav
ascuns
intenția
utilizare
alternativ
alge
apără
deserv
marelui
universitare
##luie
##osex
ghid
exclu
trecere
Direcția
##tti
Kr
Hid
inve
întor
moștenitor
##UL
cub
Cori
obser
Perioa
poalele
Istanbul
lovitură
##uria
Alia
##torilor
compil
mobile
rurale
motivul
autorului
##US
##îh
##uto
Scen
gimn
pist
##toarce
numea
viole
Arhite
înconjur
determina
Sv
Za
pr
șa
##iciu
Ata
aux
extern
##anca
Doctor
sosirea
simultan
##site
Ras
##ilidae
break
actuala
țărilor
așezării
producției
Constituția
##ness
Fox
ajute
proas
aparen
calificare
documentele
picturi
turistic
călătorit
1869
Ansamb
capitul
importanța
cură
cereb
căutat
Brigada
Construcția
Moz
adec
tipă
secunde
Istorice
reducerea
rândurile
înconjurat
contemporane
reprezentanți
zo
116
Det
tort
corespondent
Ok
Muse
amând
externă
##key
##chea
##inia
gri
##ogene
Fant
Charlotte
##ruptă
cade
inven
##oarte
bogate
compar
reface
timpuriu
##ridi
bic
Distribu
imperiale
principiu
agra
##ography
frumos
##romul
1862
naos
ucide
federal
incident
fotografii
geografice
Association
credea
emigrat
sarcina
constatat
specializat
Cit
##ietnam
grupă
Tulcea
culmin
bazinul
Militară
mobil
soțului
înțelegere
##ET
##pri
##arus
##ires
Ein
Kan
jef
##dești
navele
posesia
Procesul
elaborat
##right
1873
Ciob
grijă
Peștera
Corneliu
puterile
deschidere
interioară
universitate
##ão
##wald
Pho
burg
înru
Populară
conținea
ocupație
Concursul
dreptului
prietenul
##fil
Boh
calcar
protoc
Științi
direcție
Câmpulung
vadă
##cinile
Jules
ferici
Adunării
definește
expoziție
##lij
Câr
Herb
List
tole
##ierele
##terană
audio
Născut
stângă
afectat
##arniz
##dé
##ense
Tere
##ulescu
Linia
codice
tribun
oportun
cântăreț
demisionat
înregistrată
##so
##hem
##anas
masac
active
preluc
ramură
pelerin
frumoasă
spațiale
revoluțion
##ylv
##ercul
Arta
Hand
bala
fant
antre
##ierilor
juridică
##enix
Sale
page
Boris
misteri
definită
expoziții
##ía
Hotă
abst
##ricilor
##horod
Feli
nede
Nicul
domnia
plasat
menționate
##wick
Google
figuri
cuprins
independență
baze
##irescu
Stein
instruc
tranzac
Sherlock
elementelor
##IV
EP
Spen
Cifra
##ozitate
Ialomița
##lora
brut
ocupe
Aeroportul
Zaporijjea
compoziția
##ătă
152
hote
##diului
luând
infrac
mulțum
aparent
ante
înregistrare
##ozia
##îșce
Kap
Stefan
Lituania
spațială
##ín
##gon
##omir
##țează
Chim
Apără
Video
rămăși
urgență
aplicarea
##arts
##ates
cov
creier
spații
##ozițiile
Campionatului
Ză
##țați
##aurus
amân
etaj
expuse
proprietățile
##cau
Aj
##ohia
##ulea
renunțe
pregătire
inspirație
Hoh
rig
March
limită
românii
juridice
Generalul
Israelului
desființat
TVR
##tirea
Bell
Mini
Irina
eliminat
împărțite
##omor
Apă
Hus
Sigism
amiral
ambii
căpăt
Militar
motoare
Zeelandă
aplicare
apropiate
regionale
##lău
##cted
logod
reput
raportat
tratatul
##uli
##vici
Not
lanț
aplicat
periodic
stăpânirea
conferințe
pseudonimul
##iph
##oid
##unii
iuda
integral
cuprinzând
stâl
Sfânt
Curții
eficient
achiziționat
##chan
Ing
Naz
Siri
supus
acoperiș
sistemelor
împrumutat
producători
Bărb
lect
aprin
legile
Bernard
apăr
Alice
polig
asigure
victime
##rel
This
##landez
piele
călătorii
##ád
##ipel
##ruci
Cante
simet
ramuri
victorii
##én
NAS
Prut
plecarea
##pro
legal
##comunic
creeze
apropie
pronaos
condiția
permanentă
clasificată
##uck
Lt
Apollo
antică
tătară
grădini
nefiind
##ios
cot
rem
Edgar
Teoria
rezervație
##cio
##jen
##raz
tu
Penn
##rima
was
arăta
cimitir
cercetarea
Young
actorul
marilor
trimise
obiectul
##auer
veș
temel
îndoi
austria
AM
##eniul
Eliz
##arivka
Flandra
investiții
od
##rime
Sibe
States
otomană
comerțul
munților
nuvele
##iriomyza
##OL
Wol
șar
admi
full
Semin
factor
lacuri
##ranți
Stro
Sănă
pescu
Claude
Spitalul
##buie
Ilfov
temperaturi
ADN
Pok
##otică
##riile
fili
##ificare
Ambele
Bosnia
arbori
poporul
Giovanni
stilului
Rab
urcat
parohi
##ațiunile
Digital
confund
Soarelui
Virginia
reflectă
Balt
cerc
ocazi
animal
cenuși
Channel
Apa
##ătută
##edy
##fax
Tos
deg
Lady
semne
vizu
##gat
##ruit
Fed
Azerb
Lazăr
marii
suburb
##tăț
##uzie
Răsă
##odinam
adusă
comerț
turnee
stadion
Mîkolaiiv
Thailanda
##tean
Brit
rami
credit
proteja
##aliștilor
stabilite
părinților
##hib
Civil
secrete
##uay
LMI
asim
lagă
note
Veche
proză
strict
coloane
teatrul
ocuparea
Georgescu
deplasare
teorii
pământul
penticost
criticilor
agricultură
YouT
hrană
marmură
moară
distincte
reînființ
Teritoriul
##indea
##tianu
##turii
vărs
prelim
creație
drumului
##anus
Clin
Contin
liturg
materie
conținutul
revoluției
##val
Uz
##față
armă
compuși
Director
modificat
oa
##rana
##sescu
spion
recenz
închise
generații
arhitectul
căsătorită
profesională
##așul
Tis
cenz
ierb
abund
##dulescu
ocupând
unchiul
informat
##hai
##reanu
Func
discut
latine
depășit
momente
Jó
maturi
nopții
studiate
speciilor
Securitate
Kam
iau
luptei
contele
eforturile
Jr
##rene
întemeiat
Fern
Prob
purtând
liceului
preluată
dezvăluie
îndrăgost
wh
alg
gamă
permi
Modern
lipsei
găzduit
homosex
liderii
organizația
Sn
##olei
Lab
##nicul
anglo
Grammy
meargă
pământului
##cuse
Ash
Sty
##arhia
##ziile
Doug
Tara
clip
##stirea
mareș
particule
interioare
odi
1800
sinc
Ducele
Steven
##amnă
bâr
oas
Beck
Fort
fostei
reguli
Videoclip
teatrului
##ono
##urați
##urării
Island
Hermann
existență
contemporană
Clo
##ențele
aducă
punctele
guvernare
##lau
##âne
Bé
gâ
Bow
Doi
Păt
referen
vorbită
concentrat
Cehoslovacia
Podi
bunuri
ducele
susținerea
##dale
##oreze
Aman
mexic
Annona
Drumul
trăiau
Institute
înlocuită
Jas
preved
inițiale
videoclipul
##ertă
##țiar
fum
tim
Berez
baroc
##alon
Cătă
Virgil
absolut
limitat
timpurii
atâ
ampl
Regal
franc
organismul
pregătirea
actualmente
##ED
Tib
Dion
Miron
Steve
curse
expus
soții
crezut
legitim
Premiile
încercări
##onale
##țându
Spears
Handbal
Portugaliei
alternativă
##uan
##matica
Spencer
Volînia
Mijlociu
îndepărtat
patri
împărtă
desenate
##mid
##utton
Frun
trec
Comer
metaf
durează
Sigismund
##arl
3°
Mik
hiro
Ediția
suprafețe
##uring
Hann
Pala
ho
Pit
##oneze
coord
Sezonul
celebru
locuiește
Arhiepiscop
##arian
varsă
moștenit
##AD
##GB
Atât
slăb
undă
îndrumarea
beton
articul
cărămidă
electronică
##elen
înghe
promova
incendiu
Monumentelor
##tz
##mut
##oss
##roș
##atează
##luența
mecanic
metod
Ucrain
pereche
Literatură
inscripție
considerabil
0°
spons
Scoția
config
transc
demisia
Perioada
##uță
##ptul
imun
minișt
omonim
Fiction
conduși
artistului
calculatoare
2°
##lica
Roșii
autoh
satelor
Mondiale
alimente
competiției
Tai
Trac
##rabile
Experi
Phoenix
YouTube
scriere
descendent
experiența
à
##andri
Taylor
poezia
porumb
automobile
occidentale
##als
##cire
With
Învă
##șterii
Cimit
călug
frecvente
spațiului
new
##ische
Krasn
acordul
ficțiune
șer
dumin
Cantemir
însemnat
##dar
scoți
Gustav
descrise
Împăratul
##ats
Ges
Thre
frân
bandă
coastă
căutare
##tar
##șcă
##gest
înă
Pard
excepție
Stația
Oamenii
imperială
##nar
##ylus
Lyn
asiat
jucând
accepte
finalizat
celorlalte
##inda
##lează
##ön
Studio
Mediului
animație
luterani
Transnist
industriei
##aptă
Bomb
reprezentanții
##mil
##iger
##rimi
plu
Corpor
Muzica
lucrării
ridicarea
bisericile
operațiuni
##teau
##onist
##ționa
##giului
constel
provincii
extinderea
Kre
Mars
Broad
campaniei
semnificativă
Ny
##ough
plut
##ctivul
Rh
dând
morf
Theod
acomp
boala
fișie
Harris
Prince
prescur
sprijini
subiecte
frontieră
Bod
Tân
Hamb
##acilor
prefe
solar
îndreptat
##ceni
##kivți
##onilor
etnice
pădurile
administrație
##raft
Vla
sche
regăs
Vik
Conrad
asocie
orizont
##eleg
Gon
plăn
infan
poetului
legislative
##ichi
Rib
ing
1874
Bank
garniz
fiecărei
##rinei
Gând
André
atmosferă
beneficiat
tehnologie
interpretează
ui
##uras
Pak
##geria
Must
raid
voia
băiat
Anghel
Chinei
subord
Popovici
adoptată
producătoare
##par
Koz
Mam
Umb
Bach
Tokyo
search
talent
edifici
turistice
acționează
recunoașterea
Ase
Saxonia
Japoniei
califică
dovedește
filosofie
realitatea
Site
Regală
Reprezent
interesat
##vey
1°
##atie
măn
##asări
Dinu
Roși
ducă
sursa
avându
mărimea
##elă
##aritate
nemulțum
împărăte
IM
##arct
##iley
##ople
tehnologia
comitate
județean
Frederick
dispărute
industrială
Boc
Nikol
fondul
cumpără
sensibil
5°
Avram
##zătoare
adunat
sarcină
Totodată
traversează
Ö
##enie
actul
parcul
urmele
atribuit
##jă
eșuat
focul
Golful
impuls
răsărit
totalul
Ternopil
israelian
##feria
rein
unuia
civilă
caractere
sonda
canadi
studia
Anastas
dramatic
simbolul
##uad
drep
modă
Adorm
Andrew
agricultura
Gim
PCR
Sah
săp
cauzat
vizite
locuințe
##ațiu
raf
reci
simfon
oferite
interpretată
Eva
mixtă
tunel
##antului
icoane
aflându
extinde
europeni
timpurie
##uther
vale
desig
folcl
proba
Dunărea
Volumul
colegii
căldură
variabile
întregului
producătorul
9°
IP
##inării
Finan
##icea
aliat
partiz
##urului
Solomon
Coc
muscul
începerea
Christopher
##än
##țesă
Zeit
auri
văzută
asasinat
cuprinsă
dinastia
păstreze
produsele
domnitorul
braz
moza
criză
miros
aerului
Părinții
Provincia
##îlivka
Massa
rezolu
##omyiidae
renumit
expresie
conflictului
Sid
WWE
Mass
silv
##rierea
hotel
preajma
##zător
Spor
##chiului
Anthomyiidae
8°
Iuliu
firme
acelor
întregi
Frankfurt
diagnostic
für
##cașul
##ralei
tare
Plasa
feric
##retului
deceniu
##ank
orăș
formare
turnuri
capitalei
propunerea
6°
Mé
##zest
##venit
Bron
plătit
##dj
Ai
tor
Luna
Codul
procu
spont
Wilson
imagin
deținea
estimată
contradic
7°
##ilog
##list
##olic
Caraș
totdeauna
teritorială
comportamentul
##șug
hal
1775
Acum
dispus
##hiat
##rându
sudic
##entului
germanilor
Fu
Disp
păstra
vecine
armatele
eliminarea
##imar
pret
turb
fostă
salvat
convers
declara
educația
##oney
păg
##țioase
exper
fasci
Elizab
perete
##râu
str
##ovean
Leip
Semn
recă
locali
deținută
conservarea
##back
##omar
##urne
Ross
atace
Geneva
masive
simpli
aprecia
dezvăluit
cantitatea
studenților
AT
##holm
##tan
##pool
Nad
##descu
##liere
Ford
cand
învel
Diplom
precis
ușoare
Apărării
ferestre
Egiptului
contractul
Mak
pru
insu
pust
deloc
izbucnit
ornament
spirituală
##bus
##ofi
101
Aga
##tivul
Muham
bordul
reluat
Complex
comunică
enciclope
plantelor
IT
egale
epide
semic
hiroton
expresia
întreagă
##ery
##ulus
bus
sti
adep
fisc
înal
recol
Hat
##athan
Lycos
##amilton
avantaj
răspunde
##pit
##ario
unu
Fără
schele
mâncare
eventual
primelor
funcțiune
întâlnite
independenței
1857
sufe
##upiter
##tase
chip
crom
trip
##itație
grupa
litor
Brătianu
##abilitatea
guvernamentale
păș
zăpa
cetățean
dificilă
separată
retragere
documentare
##oiul
frac
Josef
Relig
atare
salva
spori
Confede
paramet
acțiunii
îndoială
județeană
##wi
##bro
4°
bud
ucen
baraj
Memori
impune
Filosof
pronunțat
vegetație
inferioare
proprietar
##LS
Lag
Rat
##stone
Epoca
căsăt
câmpie
Sfintei
făcându
Oleksand
Lycosidae
Peninsula
asigurarea
##aid
##ted
##rald
Dat
rasă
străin
însemnând
Ri
##vița
Game
##ențiat
succesiune
Esc
Ned
Tony
infec
Depres
Sicilia
discului
Gheorghiu
off
Baden
anatom
parcur
extinsă
secundă
vehicule
funcționa
Târgoviște
Jiu
##orice
play
expul
podul
Bourbon
Frontul
studioul
Poporului
antrenorul
Videoclipul
caracterizat
Șe
##aron
Buz
Card
Tibe
Exemple
cereale
județele
zeul
plătească
consemnează
Hai
bogă
stațion
Holocaust
austriacă
Raz
brand
asociată
##ritz
legend
nordic
##orității
instrui
denumiri
Teleorman
conștient
traducerea
Á
Hou
domic
Caracteri
Centrului
Serviciul
contribuții
##chin
prost
Litere
Canalul
habitate
interzice
ulterioară
##cca
##ated
##ziste
Band
familiile
părăsește
localităților
##icz
##ușă
##ász
jură
Fizică
frunze
cristal
vizibil
practice
Norvegiei
mormântul
##mix
amf
băut
##izilor
puteți
divizii
marchează
##dează
Well
Carlos
declară
Ansamblul
laborator
##ln
Ay
og
plantă
posedă
speciile
expediție
acope
corpuri
propuls
Rei
ras
1840
Rusă
vizită
oricare
cuprinse
Versiunea
Og
Mom
bil
wid
Folos
diferență
Operațiunea
##veni
##urală
rupe
Ducatul
doctoratul
##lașt
Cau
Puș
măcar
slabă
Uneori
protop
observa
cetățenii
cercetările
Pomp
Rapid
secretă
declanșat
traducător
##sor
Fon
Kla
Adri
Carmen
Vietnam
provoacă
necesitatea
Dick
Step
erup
place
invadat
retrage
Justiție
Orchestra
șe
##eile
Hop
Mog
Arhid
slovacă
Catolice
luptelor
rezistența
dimensiunea
dispozitive
pătrat
lateral
marcând
uciderea
construiască
##rai
##sih
##cies
Toți
Ungu
steag
chimie
vorbit
preotului
Dictionary
##viu
##xie
##asca
##pera
Ric
mani
agenți
cunosc
nivele
părere
sublin
tabăra
Augustin
lingvistice
##74
NASA
conce
apărării
nucleară
Cimitirul
prizonier
Lad
Mand
Catal
tenis
rămase
apărută
introdusă
încercând
domnitorului
##agen
Esp
Kov
##repte
frontiera
Alexandria
Tră
Marc
lipsă
pieței
dirijor
##itând
fara
gata
gazdă
mixte
Leipzig
Primăria
prevăzut
Nin
Tod
##ilele
##șciîna
Siret
Interne
Vrancea
ocupate
reacții
conflicte
echipamente
##stini
##eniului
combate
creșterii
industrie
obiectele
##sal
##tia
type
Ionel
cronic
dealul
forței
Hamburg
##cle
##ied
##iii
##uga
dors
##ărțile
luată
operat
Externe
Pictura
vremuri
formații
pozițiile
##BA
##iene
Arena
##cțiilor
înspre
intrând
solicitat
Dumitrescu
înfrângere
Prie
Soph
cancel
italieni
obținută
Fla
##orată
radioa
aeriană
așezată
acordate
matematician
AG
##opot
măt
nere
##enosia
##search
Allen
Felix
Coenosia
prevedea
bisericești
transilvăneni
##oian
##olis
##ovski
Blue
poșt
praf
țari
normală
schimba
Tratatului
##agog
##cosa
vechii
atestat
plastic
părinte
părintele
Kit
Evolu
arabi
cauzate
chineze
menținerea
funcționare
dint
##ureanu
Jupiter
exploatare
accentu
picturii
cetățenilor
medicamente
reprezentare
##tist
1858
Lunca
decern
##aritatea
criteri
##uban
##shire
##ziune
bast
finele
algorit
referin
personajului
Muș
##amnei
fânt
Elizabeth
##iano
##okia
##zona
zia
##ubern
Dark
ilum
Tradi
citat
maior
solare
departamentul
##dle
AP
##ingrad
Lenin
cadav
bacteri
trimisă
Florența
prilejul
cavalerie
principii
geografică
Isaac
încet
anuale
Florida
îndeplini
restaurare
##hoe
Wür
Gard
pomp
tamb
##istiți
##oților
Lăpuș
dispuse
contelui
distinge
Drosophilidae
##oturi
Pand
aman
dedicate
introduse
##dox
##ène
##elli
Gog
escad
stații
păstrate
comunitară
transformarea
##DA
Hi
Sac
##range
Apus
Călu
citit
Puteri
aparte
inspir
aruncat
vectori
##erbe
Bis
##peare
Clark
seară
Viorel
imob
simțit
Premiului
crimeeană
scriitoare
Deputaților
extremitatea
Mih
##rence
Dife
lărg
Wrest
Watson
Reședin
Lucrarea
dragostea
primească
sentiment
continuarea
##cata
php
##hedin
##iliare
Delta
neglij
Televiz
chineză
trimiși
predominant
##TE
găsită
Carolina
##odob
Kob
1500
pant
Vatic
Popular
adaptare
înregistrarea
##see
hel
Bang
plumb
Prusia
indire
terori
redenum
prelucra
mănăstiri
##ean
##ivi
pav
văd
Caran
recru
urilor
divizia
primite
Pictures
bătăliei
primarul
scrisori
Socialiste
electronic
##65
Orhei
zilnic
compune
transfe
limbajul
mitropol
Blan
Intro
Instru
îndemn
Pardosa
Alan
Lord
rost
enorm
migrat
reabil
subțire
împrejuri
personajelor
350
1806
fotb
lire
aparat
Arhanghel
concluzia
definiție
cv
##cule
##eavy
##smul
ere
##armon
Mess
my
Boy
Șef
țigan
Amazon
Mitrop
poliția
tubercul
atmosfera
concentrare
SP
Dej
Fire
ciclul
Creangă
ministe
Serialul
împrumut
constituită
Rum
Free
bolii
ciuperci
limbilor
Pé
lo
Hub
emp
##andar
reed
premieră
1815
Mike
vinov
##urselor
semnarea
stadionul
##fat
Nagy
##irilor
market
austriece
electoral
##orei
Răz
Data
vină
moduri
lituani
Azerbaid
prezenți
penticostali
zd
hib
expon
probe
width
salari
străzi
##81
##anag
Stu
umb
##ferei
1774
Liver
acvat
aerona
Johnson
atacului
##iepiscopul
conducători
##fen
##veri
news
preced
sclavi
vorbesc
scenariul
diferitele
necunoscut
##té
##astro
##ersey
Horod
telef
ridica
anexarea
muzeului
pornește
unităților
vecinătatea
##mîn
##vare
dance
placă
chimic
neaște
medalie
șaselea
##cet
Sue
alp
Litt
Venus
global
prețul
##teriorul
avionul
##unând
Enescu
Hotărâ
Strada
captiv
minutul
îndepline
##SN
##mara
Hod
index
monedă
complexă
aparținea
recunoscute
##70
Pid
1821
Evre
arca
##alilor
gener
ascult
numărat
studieze
##olnă
##pedia
##ătura
elic
Master
invazia
povestirea
1854
tablă
informațiile
##lyn
##oce
Labor
Locul
amintit
tratate
##ymp
Rid
Călin
Zelotes
contribuția
##TC
##cho
suferin
știința
artistei
discuție
indivizi
poliției
sm
Cauc
Feci
inel
somn
Manuel
Poarta
##ătorilor
Balcani
Augustus
##35
##magn
##utri
nota
zvon
largi
compat
critice
droguri
apariții
servește
##oks
Who
Single
corespunzător
##fle
FM
##osit
##rard
Ime
Kur
Maș
Mig
Pia
bla
##reaptă
Museum
lipsit
înzest
Muhammad
atacurile
Organizației
Wit
ferm
Moartea
sănătății
plural
trepte
apărute
magazin
răspândită
##cuv
##kan
##enda
săli
##tation
slujba
oferind
cunoștințe
experimente
##kovo
debar
Utiliz
formal
filozofie
Publishing
transformată
##75
Č
##avi
##rys
RO
##dera
Burn
iese
petro
Ry
##oșii
ciclu
implicate
prezidențiale
împră
Premiu
sublini
aceleiași
palestini
substanță
##zburg
From
fizi
știa
##kespeare
ducelui
locuiau
reacția
evreiesc
monitori
conținând
echilibru
##ilis
Lub
##ovina
blog
##enberg
cupru
monet
bibliotecă
castelului
##cim
##hiv
Pog
Răzb
câine
cânta
trium
capete
Urmează
mecanism
pieselor
Cai
##round
Roșu
Week
gura
devenise
acceptată
tradiției
##dina
##tire
##edict
##raham
Sind
cuib
gara
Moise
verii
virtu
urmeze
împlin
clasificate
Vlă
Mecan
admite
derivă
prilej
pădurea
digitale
turcilor
procesele
Maximilian
Moldovenească
##hed
##ione
Arb
Dog
Dolj
Cerkas
vestic
cauzată
cinstea
localnici
##ák
cert
frig
clasele
ieșirea
comuniști
picioarele
înregistrează
Spați
slabe
Belgiei
Cultură
schimbe
Capitala
abordare
##omul
Ral
tox
##denburg
longob
spaniole
##vil
Vad
Alți
##landeze
comemor
reparații
##ial
##remă
1853
Nokia
întru
bucăți
decret
îmbogă
Mehedin
##pp
alune
ziduri
dezinte
pozitivă
susținând
##ient
##pton
dorm
pana
adaptat
vânzare
Colecția
campanii
interesele
succesorul
Ora
dege
reint
recept
îmbolnă
sufletul
colaborarea
##cți
##năt
DC
alip
Laura
Titlul
domnie
Învăță
Belarus
Liriomyza
redenumit
##anagementul
specialist
fun
Fânt
erou
Iliescu
Turciei
Comunitatea
##ail
##dig
Wy
##șuri
Tăr
##ocent
auzit
regat
râuri
Houten
deșert
presei
armeană
criticii
Distribuția
Shakespeare
##tts
##atîn
donat
##icus
soț
##ercen
2020
Apple
briga
tipic
descomp
Adormirea
materialului
##ave
Pea
Wall
aerian
suedez
##acitatea
scăzută
studenții
răspândite
Enciclopedia
##otov
##sdic
Lupu
Stara
canale
natală
ușurin
arestați
mamifere
secțiune
atitudine
Nicolaescu
considerați
Arsen
facilit
juridic
scrieri
venirea
împodob
Particip
funcției
situației
voluntari
##neum
raza
forțată
revoltă
Ucrainene
##hio
##xon
Ov
crim
nevoi
rezon
Donald
Jersey
Morris
Generală
circumstan
efectuează
diplomatice
Lî
##rari
Asc
##ender
##icula
Jane
Kent
Massach
Muzical
perspectiva
Ts
##omene
##orino
incomp
navale
grafică
discuții
călătoria
descrierea
bari
Herțeg
obișnuite
modificarea
profesionale
##wen
SE
##duși
##tismul
start
limitele
diferențe
învățământului
șah
##milor
Light
Patrick
autoritate
##HF
##șesc
fis
adje
înotă
judici
numita
izvoare
paralele
produsul
traversat
funcționau
interpreta
##worth
spin
##astică
Căutare
tipărit
traseul
episcopului
identitatea
gov
##orica
imper
ofere
Palomar
rub
roci
slov
cadre
cauze
zahăr
Indian
celebri
Grupului
soarelui
Istoricul
fantastică
financiară
##age
Zb
##sion
her
##lanet
Cehia
Herța
Techn
câini
noilor
piatra
destinată
identitate
Congresului
##feric
Tetrag
animate
scandal
întâlnită
altitudinea
Mr
##larea
1838
suedeză
soldaților
##icia
Krî
Ideea
Carpați
conferi
laureat
Forțelor
zidurile
fluviului
prevăzute
recomandă
tulburări
##uru
##ardi
Him
##orian
What
Zele
fres
Kazah
Produ
Antren
căsăto
##ătoarele
Pedagog
Corpului
##cec
##zic
##lash
foame
poarta
rapide
crească
mineral
școlile
##yi
##odon
mute
Capul
semnul
vocale
gimnazi
triburi
jocurile
principe
Reședința
populații
considerând
Mia
neo
##ghita
Lamb
intr
bibli
catal
Service
cazurile
folosiți
referend
tendința
Massachuse
cunoașterea
concentrează
Amin
Girl
bust
dulce
licența
greutatea
##lăn
list
##orească
marcată
neutral
diferența
universul
##usz
sam
##nicii
##orate
1831
##oachim
nereg
ieșire
niveluri
Liverpool
PL
Vala
##olitic
ceară
fulltext
Observator
izbucnirea
Hav
##fecte
curb
Spect
satel
Napoli
Pietro
marcate
afectează
##amăg
##unat
Ran
Poly
anticip
încoron
însemna
romanele
conflictul
##68
țină
##chilor
##ficiale
șopârle
sălbatică
##lus
Moș
Nan
șir
##ceput
punerea
speranța
CP
Zo
##erve
##ivsk
Cun
rata
Album
otoman
vizita
colonia
mormânt
aplicată
nașterii
##chetul
Natal
scaun
Panait
bărbații
comerțului
activităților
##ál
##ов
##date
##oace
##label
Stor
proz
curge
intensă
albastră
orientare
afacerilor
##tent
##elile
##button
atacă
depune
femele
acordată
tinerețe
tradiții
proceselor
topografice
Massachusetts
CO
##rome
spa
Arag
mând
fante
strâm
origini
Cercetări
specialiști
##CD
Tes
Cass
Cioc
Înal
demult
colecții
Prințului
principiile
##opa
Nam
Run
găl
calib
adulți
respir
absolută
##buttonlabel
Mitropolia
##IE
##pole
Sky
spăl
Cerkasî
Herbert
Imediat
așteptat
interpret
refugiați
republică
##nor
Cry
Tak
Tut
##rimat
Arts
băta
muzicieni
ordinului
##osh
##tle
Coz
aspi
##antele
Camil
Dance
cursă
agenții
pătrați
rotație
Munteanu
campioană
condițiilor
hop
##iesel
incap
estimat
refugiat
trăsături
monumentul
##73
IB
##otop
Ala
joasă
##ficială
autobi
degrad
##alizării
galbenă
națiuni
geografic
##eo
##taj
##here
Zol
sina
fiice
Afacerilor
metropolit
Dragoș
declar
riscul
discrimin
specializată
Ton
Mach
##intele
Davis
ampli
înmul
domnul
grafic
##ulevardul
##mod
##eron
han
##deanu
Mong
##herine
Pract
cerere
Armenia
Statuia
platină
rapoarte
##ów
##asul
##ning
Chal
otrăv
firmei
legale
naviga
prăbușit
cântăreței
abd
buz
ostil
Muncii
carniv
intrării
Mehedinți
Interviuri
##zuți
Cin
Fili
Decla
nativ
Hamilton
parcului
termenului
înființare
##hari
Hart
caza
Numai
depăr
Warner
deplin
Macedon
parlamentar
BC
##ique
##rină
Kun
Pru
aromân
actrița
fiindcă
parcurs
Rădulescu
diametrul
simboluri
bor
voci
deces
Schimb
Volume
Arizona
posturi
săvârși
acțiunilor
dificultăți
perspectivă
##kai
##uman
colț
ocul
pînă
##ziilor
Băsescu
Ave
adi
##elect
##ilare
Femin
##căminte
unelte
colonii
directe
maternă
proveni
Agricult
acumulare
căsătorește
înființează
##eaux
fri
##itent
Gali
Hend
Liub
sfăt
înva
##ophila
părții
scăpat
Douglas
coroana
digital
Protecția
revenirea
acoperișul
Jay
pildă
bunicul
jurisdic
egalitate
Literatura
##bes
##vând
Anca
##erării
Turnu
pânză
costum
animalele
##tierul
păstori
##arine
Pole
Deutsch
Palatului
Cher
Execu
world
aliați
marine
conferit
360
Buda
bapti
fidel
Diacon
șaptea
învecinate
instituțiile
##imon
Hur
viu
Anto
Back
stau
##orivka
catre
greșit
blocuri
capului
dimensiunile
##lace
##nase
##veze
rab
tul
Apar
Toron
Little
aventură
consumul
venituri
executate
învățător
facultății
inscripția
înconjurată
Dj
##chie
Ign
simț
##eriene
Astronom
Festival
dialectul
fabricarea
Corporation
intervenția
explicat
Bucuresti
tinerilor
prelucrare
resurselor
##IL
##ship
Aviv
Buch
Volod
deten
orele
unite
mobilă
folosea
ceramică
##ird
Roa
trun
verzi
Olimpia
repetate
jucătorii
mez
1846
Bari
Home
Stân
vulne
soarta
ruinele
Temperat
controla
îmbunătățirea
##hide
Kăr
Miz
Chile
mlașt
sfânt
simți
virus
##ificată
malurile
treizeci
selecțion
compozitorul
##45
##înka
Jam
all
aria
soră
văii
Gavri
expune
metrou
solului
aventuri
distanțe
trecutul
confruntă
revoluția
Ix
##adel
##ming
Rug
##cerea
##ophora
Great
pauză
Balcan
morminte
peninsul
depășește
relatează
căsătorească
##ID
##UN
##är
##slav
neu
Daily
lapte
penal
picior
absența
dezvolta
esențial
secțiuni
frecvență
Trin
vitreg
așteaptă
controlată
Lună
fiii
##tisment
Alfonso
clădirile
Șo
##cana
##iele
recup
##tăreața
Apostol
muntele
notabile
dispariția
##ușe
Cs
##borg
pin
ruso
##gătoare
manual
olandez
vechime
afirmând
conducerii
##OT
##așt
Bit
Das
dum
##colul
fert
Biroul
doresc
trilog
zăpadă
Luhansk
cântând
planete
muzician
identificate
##țian
ier
notă
omag
pacea
Galeria
diplomă
râurilor
tensiune
îngropat
fag
##dării
##ierei
Legii
plăci
teste
##tătoare
figură
variate
atribuită
competiții
Securității
clasificare
BM
##cheta
Peru
Artile
rachete
Standard
adevărul
amplasate
Conferința
obligatoriu
Kas
hat
##rapie
##ionale
Socec
antise
adoptarea
asistență
mișcările
exterioare
tehnologii
##ça
##istei
Gall
Kelly
wrest
##ylvania
coloană
numirea
împlini
Business
traduceri
proprietarul
##țki
Row
##știna
chem
apăra
pater
domest
Arhitect
Ib
##asna
sion
##otrivă
haine
animat
mision
Anthony
mecanică
Călinescu
districte
participând
construiește
fr
##iliul
Orlé
aloc
##coveanu
Torino
elevii
aparate
entuzia
localizat
##oti
##anth
##djali
Cior
dominat
evoluție
Stockholm
structurii
determinată
materialelor
##IB
##rant
230
Jord
Kame
oase
apărat
existe
Species
prototip
Contempor
fenomenul
exploatarea
înțelegerea
Zü
##lici
##ueze
Fun
Kin
##țumit
Cari
##romyza
tradusă
##anagromyza
Ierusalimului
##fo
##cui
##toni
Glas
respi
sediu
##gurează
nenumă
producă
adevărate
##rary
##strui
##rațiilor
artista
pornind
definite
##hie
Eti
##oianu
1845
##ferice
Lisab
părul
Magnus
brigadă
congres
imperiu
Kărdjali
bizantină
manuscris
##iche
bos
Bord
piet
croați
lideri
morală
Cronica
Orléans
povestește
Ins
Nak
Poez
##acului
Diana
Patru
sfera
înceapă
tablouri
realizare
înlocuite
##39
##vić
##iese
desă
etim
noroc
Raionul
apărând
marketing
executarea
patrimoniu
antichitate
##uver
##șița
bon
băi
osc
Mali
##itenci
Fritz
##istența
reforma
foloseau
acordarea
##66
zg
Lot
șas
Mine
Strat
aripi
viitorului
bisericilor
XXI
tari
Patri
Suprem
groază
Franceză
metalice
găzduiește
Mitropoliei
intersectează
Sev
Wel
Take
##etului
ferme
Estonia
infinit
muncitori
##mira
##tero
##imele
lent
Monaco
graniță
premiile
programare
desfășurate
evenimentul
ye
##alău
##ences
impun
vioară
Research
prezență
străbătută
precipitații
##angu
Deal
cărb
eval
trupul
persecu
religiei
Vladislav
ocazional
##apte
Pașa
Bârlad
Modelul
permită
popoare
Convenția
obișnuită
compoziții
informațiilor
##aux
##ush
##olan
##gomya
##icele
1835
Joan
Acești
mobili
pierdu
Pegomya
colonie
sarcini
competiția
matematice
Ștefănescu
contribuție
FR
##mand
Flu
##inară
Earth
Maest
Water
hiper
Zürich
sector
Meritul
diploma
##îj
##oba
Boe
##unile
Babe
Vari
enume
Georges
Franceze
dezvolte
filmelor
Management
Transnistria
##bii
##kon
CH
##cula
##giană
##imens
##odrom
mini
etaje
verteb
execută
gratuit
ipoteza
magnetic
##tta
Py
fla
Șev
##ischer
nuclear
eliberare
resursele
##hum
##lod
carb
line
rural
manieră
Campania
distribuția
##ppe
Oliv
ferea
valid
așezate
conducă
grădină
preferă
psihiat
fundamentală
##MA
ga
##gart
Haw
Ibn
##onome
opre
avari
harta
Nichol
Tănase
segment
convinge
viziunea
suprafeței
##OP
Wag
Chem
apus
County
cincea
punând
învață
Camerei
Banatului
##isk
##gate
##orod
Hâr
ISO
ara
Cere
Deva
##contin
portoc
Trebuie
juniori
disputat
operații
protestan
întrebări
contemporan
out
faze
lase
eseuri
Calliph
educației
cântăreața
necunoscută
Dys
Hag
vid
avan
fine
lumi
Bibli
bursă
Guilla
concre
logică
Normand
Aleksand
implicați
țăranilor
AF
##icle
Aus
ger
știu
Ivano
brusc
Cătălin
dezamăg
extremă
motorul
viziune
scăderea
coordonate
##gie
Abu
##livka
##tenburg
pasăre
sunete
##ationale
căpătat
criticul
postului
susținute
elaborarea
##yar
##asta
Fle
Morm
Stel
corn
lotul
Castel
alăture
legilor
interval
estimează
formularul
desfășurată
vs
##ineț
##luci
roz
Feme
That
##enului
ciuper
pagină
Slobozia
constrân
asigurată
păstrarea
`
sci
1851
raze
Linux
Queen
destinație
##oru
Eis
alum
cust
Teore
apere
turul
anunță
surori
repetat
frontului
universală
desfășurare
caracteristice
OS
Jak
##ennis
##urează
Habsburgic
reîntoarce
Conservatorul
##48
##pu
##cla
##eir
vib
Își
##zării
Mans
barb
cedat
aliații
patrimoniul
##33
##owa
AL
##rius
Get
##ensus
##fried
##telea
1829
Abia
Dupa
Lans
fani
Categ
Lugoj
arond
delic
Spilog
analit
ducând
Magnolia
modelele
împușcat
##sex
ST
##urale
1855
Gala
trăi
Damas
rotun
Ducesă
Spilogona
turistică
sărbătoare
consecutive
Festivalului
er
Meh
Nie
emise
Voievod
dealuri
englezi
emisiune
Senatului
orchestră
originară
realizeze
spirituale
Aproximativ
Lé
Ful
Nun
lut
Rare
stări
##itudinii
Progres
conferen
efectuată
căsătoriei
č
##mpă
##nig
reb
Hell
curi
pros
Carlo
etapa
faună
dezastru
tranziție
serviciului
##erto
Juni
sârbă
celebra
explica
corespund
##beș
cf
##zeze
Scur
Your
spit
trac
Revol
Liberă
burghe
dinoza
vaccin
mulțimea
apariției
clasamentele
identificarea
Cha
1828
sume
înro
##hausen
franco
descope
unității
practicat
titlurile
închisoarea
Sarah
derul
înarm
ținând
Rădăuți
jurnalul
##ns
##uciu
Kra
Sok
##ments
Roth
Trupa
Membru
diaman
Molotov
feminină
Sadoveanu
socialist
##yai
##țește
sose
rezid
gubern
stării
strânsă
distrugă
medieval
scenarist
sălbatice
autorități
declarație
manifestat
##eng
##sera
##ieful
##rente
Dead
Illin
##mintele
Republ
judecător
exterioară
continentală
##ifa
##ches
Ara
Nim
##glish
Kevin
scara
Monica
Platon
Venezu
figura
plăcut
Regelui
Guillaume
înaintarea
RA
##miță
Fas
rena
Turne
Verne
Răzvan
clasei
lecții
cărților
Informații
##opo
cald
##lidium
sodiu
Iulian
greută
Clement
termenii
##uld
##ando
##uber
##oveni
##șteni
1813
Down
Scris
stran
cuprind
Lisabona
complement
sultanului
Say
##ofonă
banc
Milan
aerul
coada
Harghita
spectacolul
##rona
##izând
##șivka
Gordon
tinerii
Episcopiei
provinciile
##merit
1817
fire
Iorda
Jerry
Power
clară
crimă
celorl
solist
##hailivka
dobândit
vizibilă
ocupației
infrastruct
##țk
##iză
##tus
##oxic
fur
nem
rai
##cheea
##iților
Soroca
alfabetul
inspirată
br
##lome
##ores
Hud
##dului
Mill
marc
zgom
dobor
infect
răzbun
palatului
##dif
##șan
##arda
##tăre
##arion
azot
țintă
turcii
##scripția
Concept
Fabrica
terenului
dimensiune
rezolvarea
particulare
cartografice
##zio
##isie
450
cog
##iseră
Wien
marcă
țesut
revină
trimită
partener
submarin
Stylidium
##xi
Rin
##onime
Juri
adre
înso
Bruce
alerg
Marcus
Petrov
##ozitatea
tratarea
încasări
240
##rimet
amăn
pămân
Domnul
Puteți
comisia
montane
naționala
revistele
unsprezece
Id
##less
##memb
Att
Ile
pof
Marx
Inspe
abrev
##entează
website
Transport
distincție
alternative
##zt
##arg
##chip
false
izvor
##cidente
creativ
legendă
presupus
trăiască
vizionat
Universal
##iko
##erty
##sius
Pui
înj
##mouth
gard
pore
Hanna
Union
stins
separă
aristoc
fenomene
plastice
coloniști
Găr
Ure
##ctată
1839
Fall
Forma
Vatra
Biroului
limitate
bizantine
##xul
##acte
##elia
Agen
Asiei
piept
Imagin
armele
domnit
includea
sportivi
automobil
pictorului
specializate
##EG
##api
102
Poli
best
flam
##ardian
##ativul
cifre
Common
Cartoon
reciproc
informație
##inos
subt
##ilului
Cahul
Regul
belar
uneia
Miller
lăudat
coboară
pictată
salveze
pierdută
precizie
satisface
finalizată
electromagn
##ght
Oh
##aton
Eng
Săr
Audi
Lumina
veniți
Egiptul
difuzată
curentului
dog
##fului
nervos
Podișul
alătură
provoca
medicina
arhitectului
##IR
##ober
##onez
amor
First
demar
acidul
Andreea
Rosetti
aplicate
introduc
ambasador
obiectelor
stabilească
HC
1852
Nick
pert
sorți
feluri
omorât
porecl
situează
atribuite
numeroasele
##ozo
##heni
##ilda
##jing
850
tum
##nitud
Clar
Class
Olymp
simte
mercen
##imentare
călugăr
nordice
Interpre
Expoziția
##95
##zați
Rey
Shi
##amina
Slat
ster
păcii
##tenberg
binecuv
turnului
comunismului
·
Ker
Raw
1844
Foot
##derile
Alecs
joase
reforme
turiști
Frankivsk
Scenariul
teritoriilor
##erme
Nas
##elele
Crim
street
Harvard
amenajat
Superioară
determinarea
##hon
Ofi
axa
##alaure
Astra
Atlan
demers
Charlie
evoluției
prezentare
disponibilă
conducătorii
##CA
##arhi
##rita
Făl
##ituri
##romis
1834
1836
avang
Vechiul
faptele
interog
neregul
culorile
sprijină
amenajare
##alp
##dal
##viv
##orter
cumn
laturi
crescând
Brâncoveanu
##mni
##roe
##ofon
##istra
1820
Iust
Herson
Vârful
inamice
oprească
austrieci
Tineretului
reprezentarea
##chei
Old
Nove
ciud
Lupta
##riterii
fictiv
poarte
Bizantin
susținea
biblioteca
categoriei
conservare
legăturile
participanți
popularitate
##anim
##tact
##ature
feti
Palat
atomi
treime
##tismului
Comunic
convert
nucleul
diferiți
integrat
Dezvoltarea
influențată
##lată
##stac
Cli
##rupte
Alas
Ever
Wales
hartă
revel
compens
pridvor
demonstrează
CR
Mura
pano
Savoia
lunile
viteze
Fratele
desemnează
programele
învățământul
##DM
MA
##star
Child
sărit
ființe
decisiv
trenuri
eforturi
ierarhia
armistiți
descriere
subterane
##cor
Oră
dip
##torva
brân
rase
Congo
Rolul
pleca
Biblia
Strate
serios
preveni
ilustrat
liniilor
##rs
Lor
șoc
brev
Cinci
Maroc
Antoine
anumitor
asociații
##rö
Dy
220
epui
doreau
Tehnică
Utricul
meciului
##90
Vie
##patia
Novi
eman
cript
adânci
pereți
predea
școlar
membran
tabloul
Filarmon
îndreaptă
fantastice
transferul
Utricularia
##38
##EL
##inc
##eiro
##ello
Lic
has
Chan
biți
gheț
Hesse
Număr
inimă
normale
scăzute
derivate
Botanophila
prezentarea
##gio
##mne
##ress
##roasă
##adelph
Flora
plimb
Bolyai
muntos
Siberia
Costache
islamice
permițând
utilizând
formațiuni
##ăm
##wart
filiale
statuia
constată
depozite
transforma
USA
Sound
Aproape
Serghei
Irlandei
##IP
##uture
1837
Ball
Design
civili
convingă
mediterane
operațiunile
##eb
##obi
Aq
Benj
Hold
della
Timpul
Edition
naziste
atracție
cantonul
controlat
cuvintelor
##iller
##illon
##țescu
Mără
mist
greșe
##icienii
Armată
cronică
incinta
##EA
Verb
Primii
sitului
regulile
didactice
modalitate
adăpostește
ii
##inale
Most
coop
Baran
elimin
Singles
ascunde
creația
navelor
metodele
Filmările
publicist
Dezvoltare
comparativ
însărcinat
fâ
##itan
##zise
Fră
Olga
bure
liri
pași
voie
Babeș
Death
Terra
asalt
memor
Alianța
confisc
melodiei
străzile
ușurință
Celelalte
favorabile
Depresiunea
Pos
zeu
aval
pălă
Elias
atacurilor
companiile
Administrat
##ivul
Bry
Sop
Sony
Câști
##niceanu
recentă
Patrimon
arhitecturii
mitropolitul
##pid
##mark
##utică
Tunis
fiicei
traseu
dialect
Căsători
celulele
terminată
cunoaștere
##lich
##lins
##oven
Neu
dăr
##usese
##utice
Conv
ligă
Marcu
mărit
puțină
tablou
autobuz
recordul
sponsori
preluarea
patrimoniului
##nel
##utor
Cec
Pul
##oides
##teniei
Erich
Numer
Verde
puțini
câtorva
accentul
efectuarea
Bucureștiului
##îv
##joc
##ânz
##ssen
Matthe
muzeul
româno
renunță
Militare
criterii
##dec
Iv
##atar
##ilica
Ident
anime
merite
Premier
datorat
lipsită
blindate
execuție
inaugurată
tratatului
înlocuirea
agriculturii
Rup
Hong
##erland
##fectul
vieți
forest
complete
concurat
numerele
platforma
identifică
publicitate
bre
clă
fib
que
##fărul
##house
hind
batal
eclip
Württe
atelier
direcții
teologie
încurajat
Principala
PP
Us
tav
##angel
Köln
Novo
Stăn
Stutt
alpin
remix
Dinast
femeii
##ikipedia
precurs
feminine
transvers
atitudinea
##vară
ieș
Fren
River
vorbi
Indiei
nazist
protector
##ișe
##cesa
Kid
one
##ntina
##spect
îndrăz
Rolling
maestru
măsoară
Württemberg
##gs
##pm
Ey
fundal
lector
afectate
diplomat
împiedicat
colaborator
1842
inex
##ională
Klein
lagăr
bucătă
ultimă
comandată
răz
Alma
polu
subd
zidul
șerpi
Chelsea
Studiile
Neb
##ardele
Acces
Florea
Howard
corectă
operează
bucurește
bio
Last
glaci
Spring
System
faimos
flotei
utiliza
negativă
credincioșilor
##olor
##ighet
bătut
limite
Century
Publice
Țărilor
țăranii
tratează
tronului
avioanele
configura
##stor
paj
1843
Pante
dinți
pastor
Mihăile
eroilor
pictate
Liceului
Philadelph
promovează
prelucrarea
dal
Luis
coadă
funda
Franco
privit
seriale
adăugate
implicit
Carpaților
occidentală
RS
##cken
##midt
Ami
##otimp
##stica
Cand
cursa
Cooper
Panzer
metraj
obstac
grupate
cântecele
premiilor
conferință
transformare
##rt
##ets
Kub
Plă
##ficii
denun
gotic
procur
Economia
poziției
portugheză
##dad
##rix
Tei
sic
Know
Ocna
micș
alese
estic
papei
imediata
Kazahstan
posturile
împiedica
Alecsandri
lingvistică
##ped
##rovo
Dos
flă
hăr
nig
înn
##ibili
1814
Bond
Kurt
##unilor
Bulet
Necul
Sovie
apoge
curții
străve
tambon
lucrând
insufici
regăsesc
teoretic
afacerile
Ungurească
intersecția
transferată
##arei
##omat
Wis
##ather
##roase
Bere
tulp
Adela
Oprea
Newton
Burgund
globală
preluate
filosofia
modelului
platformă
obiectivele
##DS
##ilt
##utu
##haet
Cated
antip
ținutul
celebrul
protestat
provenind
proprietari
##aros
##riat
hol
tib
Work
îndo
Doamna
canadian
##lop
##ungi
Hob
Hru
neb
Hung
Căpit
grija
odihn
tăiat
înglob
clienți
organele
autonomie
dominația
substantiv
##ст
##țke
Oz
##rism
##alism
##rantă
Stur
săge
Silla
Nicole
simptome
Stuttgart
festivalul
Roc
nap
##smului
Medici
exactă
nevoia
oarecum
religii
hirotonit
valoroase
Arhangheli
celorlalți
profesoară
##ск
##nîi
CSM
Sîn
##osebe
Bala
Munc
Rețea
Septe
Inferi
parohială
asasinarea
întreprinderi
##mu
MP
##odes
##ental
Pant
Novos
Teatru
paginile
încoronat
cercetărilor
##kow
##ogy
##imov
##tius
Cut
##olare
Brea
Epis
Cipru
pline
scade
Ardeal
orbita
Sportiv
ofensivă
intervalul
Științifică
##jeze
blu
fem
Import
Mercur
femeia
Ciprian
manipul
Margaret
agricolă
avansate
omenirii
moldovean
confluența
Constituției
##dius
Horn
Kong
vand
Lunii
strig
Caucaz
portof
Șevcen
Focșani
Economice
înființate
##67
##wish
Sche
onor
Atlas
Scand
efectua
referendum
##abl
Fro
Tin
1847
Avent
ferest
deosebe
vechile
Contribu
artiștilor
întoarcere
Enciclopedică
##jd
##liga
##găzii
arha
##urându
ataca
Stoica
bătălii
investit
islamică
consacrat
grupurilor
Herțegovina
##apore
##rusul
Avea
angi
înși
Intel
Sturd
##eration
Rezolu
supuși
Efferia
primesc
pierdute
Secțiunea
Tribunalul
Departamentului
##hod
Zen
Fact
June
##entrop
Creta
Marco
ținută
foioase
reușesc
reținut
misiunii
Producția
valorilor
cucerească
suficiente
pg
App
1832
Marsh
bătaie
Melodia
Raymond
dispută
entitate
partidele
terenurile
##rapia
Scar
numă
rand
pneum
Indone
conspi
minore
lățimea
atribuie
generali
imaginii
meșteșug
prințului
Dre
##lești
mala
##icescu
Color
cablu
caute
chinez
elicop
morale
mutată
English
prepara
Transcar
permitea
elementul
Căr
##ander
##știle
Dorn
neap
Merce
asamb
văzute
focului
stiluri
traduse
răsărite
vizibile
prevăzută
echipajului
112
star
deriv
##sylvania
Florian
Zaharia
obligați
planului
funcționar
concursului
ura
##andru
##opheles
datată
reflex
Marinei
sultanul
##anne
##tiți
ble
Ilia
Cairo
Sediul
inamic
aștepta
Moldovan
spectacul
Philadelphia
desființarea
##bec
##hak
##mia
##inst
See
iez
nit
##cicul
1818
papă
##ificate
coborâ
gigant
inflam
izolat
rurală
Beijing
perimet
scenele
##imentelor
Benjamin
muntelui
##auf
##canu
jaf
hand
diminu
vocală
Mariana
arhipel
olandeză
turcești
vânzarea
Anopheles
Complexul
integrate
##anto
tar
##ercus
##itură
Trek
Hogna
plată
Restul
acorde
pielea
Control
Neapole
lansării
figurează
##idi
210
Coș
Sau
##teană
Heart
copaci
austral
modului
Franklin
solicită
Aristotel
tradițiile
##ido
1600
Dream
sănăt
Gazeta
plecare
comparat
Churchill
absolvent
echipajul
proporție
Regimentului
civilizației
##reț
##ones
Gru
Nass
liga
armat
Scoției
dicționar
produsului
descoperiri
##64
##enă
111
Hir
1700
Timb
scuf
Nucle
minut
măsur
relev
dintâi
conferă
locuită
învinge
Michigan
sculptură
calendarul
câștigător
desfășurarea
universității
gel
Grim
Lucea
cuibă
Dichaet
Sturdza
postbel
##oritățile
Intrarea
carnivore
Întreprin
amenințare
familiilor
posterioară
Dichaetomyia
##ded
Zh
##ănești
Allan
sugest
##ological
artelor
textele
digitală
înmormânt
fotografie
prăbușirea
intelectuali
##stri
##țesei
Cala
Hyperi
Drosera
celebre
Renașterii
observator
##ican
ion
sâmb
univ
Galax
Model
##onistul
grădin
hotără
meteor
Puterea
incendi
primită
Lungimea
oricărei
Înregist
Francesco
dinaintea
cunoștință
distribuite
##sări
Ble
##oreni
Ribb
oscil
conces
invazie
prezinte
șaptelea
Direcției
capitolul
regională
fabricație
intervenție
nominalizări
##mic
Centru
unicul
Soarele
Ministrul
numerelor
##anna
Gâr
sob
##inari
##aniilor
Global
promul
Philippe
feroviar
continuând
proiectată
studiourile
instituțiilor
##had
##its
##sec
bag
fort
love
tobe
##phantes
Arabia
liberi
Autorul
peșteră
susțină
electroni
rezistenței
##utz
Asp
Leuc
Blaga
copie
Abraham
critica
##hyphantes
lemnului
populată
credinței
permisiunea
contemporani
Guat
Lyon
floră
onori
Ingine
Princi
acorda
grație
pulmon
decizii
neutron
domnului
contactul
##85
##cole
băt
##riere
Nava
marx
Loren
Rezult
Project
împarte
talentul
aliaților
esențiale
musulmane
păsărilor
verticală
homosexual
suficientă
##kir
ABC
Slă
##arina
##izeze
înră
sârbe
Clarke
Concer
Dragomir
motivele
portrete
transmise
comunitățile
monumentului
ka
##ciuc
rin
##ziene
Athe
Prun
Town
eroi
Bundes
exprima
Ministru
convocat
entități
cooperare
Independență
##hip
##zian
gru
oce
##ronat
1790
vier
Pasul
Pedro
bancă
cifră
plata
slave
Călugă
compart
Deutsche
eliminată
confruntat
##gang
##onica
##üller
Gott
scăpa
sonore
Covasna
Studies
singular
Educației
acoperire
desăvârși
rugăciune
Profesorul
consiliului
##ărâm
Graf
scal
sfâr
vrem
zisă
Story
notat
porec
autorii
fișiere
științele
Ribbentrop
clasificat
consecutiv
Moon
foto
mărgin
contest
ideilor
porțiune
desfășura
preocupat
Annonaceae
considerau
termodinam
Ada
Balta
ramura
legende
subdiviz
Singapore
##app
ceh
##chile
##ovară
clari
cămin
devot
Băncii
Costin
ungare
baschet
sinagog
întărit
Raportul
necunoscute
##yne
##novo
##oshi
##uind
Bes
Lav
Gian
Past
regi
##racție
cuplu
reduc
Copenh
Gherla
coinci
amândoi
seamănă
Formația
Iordache
Mercedes
afectată
violență
folosindu
interzisă
Bá
Pt
tig
##agerul
##seseră
Johnny
iernii
Gavriil
Proprie
divorțat
nenumărate
iep
1792
mănân
lucrul
Slovenia
puținele
terestră
echipament
modificată
##ML
##abia
##șită
inac
rede
acelei
averea
Cartier
Nikolai
olimpic
câmpului
fizician
violente
susținere
Serviciului
##69
##him
Zid
Xbox
galb
timb
urcă
Jimmy
foști
durere
gândire
nazistă
colorate
concluzi
rezultând
echivalent
strălucitoare
##lax
##elei
Igor
arch
atle
noct
April
lexic
vărul
Lorena
bucură
Stanley
Threaten
fabricat
Guatteria
îna
##tiția
rect
adult
suflet
radical
Episcopia
Oleksandrivka
##ink
##ivei
3000
Ring
Kennedy
deținute
noțiunea
Mîhailivka
##zel
Vac
iubit
colegi
Academy
Grădina
engleza
rareori
##vii
rut
Zeus
intim
##anțelor
Secția
Maurice
înlocui
Moscovei
laterală
manuscri
despărțit
granițele
Municipiul
manuscrise
îndeplinește
##roi
##zar
Vog
##ichte
Cord
casca
Montana
editată
nevoiți
poeziei
Lawrence
imperiul
##nos
##via
##atii
215
##imand
##neanu
Morav
Fondul
Hotărârea
împărțirea
##arp
##jude
122
eșu
##sului
Fame
##odivers
Români
Slatina
Toronto
aducând
răsturn
duminică
naosului
Threatened
universului
Transcarpatia
##apa
##ucat
Jes
ist
##reich
Ciuc
mori
șter
Alaska
încadrează
Politehnica
Melanagromyza
##împ
##sula
Răs
gât
his
hor
Nicu
afle
rară
##aparte
##cădere
neuro
Spirit
deform
locuia
stâncă
râurile
Cultelor
Einstein
belarusă
pedeapsa
discografic
##ór
##uții
##orică
taxe
Mario
nutri
spună
##Station
anulat
organe
##atoarele
Minerva
predare
termică
difuzate
Ță
##îliv
##țeni
Ces
filmă
simul
Gloria
esență
pachet
succesor
secundară
controverse
Principatului
Gé
ibn
Radi
Rafa
sfin
Serie
lunar
sabie
##unoscut
învețe
Program
Russell
moderat
republicii
îmbunătățit
##âni
DS
Ji
Săl
Arnold
Boemia
regent
încerc
Histori
nepoata
Stănescu
magnitud
straturi
Filosofie
revoluție
cercetării
permanente
beneficiază
##dez
##rif
EC
Ya
McG
plo
ungar
Artist
Office
boieri
formulă
fabricate
răspândirea
##vad
##zim
##cian
Hau
##actul
##easca
##music
##zește
tect
fanii
Compon
calific
medicul
metabol
disciplin
##ány
##rasp
##redi
Ohio
eșec
##rigona
Trimi
Series
preist
turism
mărfuri
Premiera
mecanice
remarcabile
revoluționare
##tiu
Ref
Rick
Secu
faun
##aselor
Chamb
cercul
geologic
porțiuni
##roviz
##supra
##tător
Auto
Stav
pante
cromoz
dăruit
landul
săraci
undeva
Turneul
deputați
neînțele
piciorul
editorial
If
##nele
Gas
mes
čet
Vice
Batal
bulgar
fundul
sursele
inspirate
definitivă
electorală
fortificată
îndepărtate
##IX
##aki
##lova
##rong
iob
ogl
Arie
Cten
Pace
calde
scapă
Stilul
declin
Senatul
disting
pătruns
înțelep
acționat
Atherigona
precizează
Pennsylvania
##fața
Rip
cori
furi
sînt
vamp
Angela
Nelson
statuie
rezistat
subteran
folosință
condamnați
PlayStation
##59
##ots
Ling
enun
##stache
legală
Fantasy
locații
Venezuela
clasament
Ré
##ocup
Kiss
Pont
Varna
emble
servi
Ileana
atașat
sindic
reziste
Deasupra
Guardian
deplasează
##ľov
##iliar
Apel
back
magne
##ierelor
diacon
rotunj
sânger
întrun
paleont
Lituaniei
adâncimea
##NA
##ceva
Tob
##yvate
##avanta
##ițiile
##utează
##lenburg
impuse
masivă
relată
judecăt
vizuale
autentic
războaielor
Ž
##abă
##hiei
Asa
fus
##versă
Benz
Bălă
Fost
iasă
ming
ploi
Modul
boltă
potas
Stuart
mențină
Nașterea
profundă
recenzie
Humanitas
bacalaure
dependent
secolelor
popoarelor
##uar
Ek
Roh
arii
##enburg
##șteanu
Compe
Doina
Feren
Spani
plasă
Empire
Reșița
Turism
oferta
Rețeaua
Trimișii
eficientă
bărbaților
##wo
bit
1841
##ferică
Found
garan
Schwar
climat
##yvateľov
coperta
editură
paradox
romanii
compromis
triburile
creierului
obyvateľov
mp
imn
Cuba
pris
Carte
Doyle
Golden
infanteri
implicarea
principalii
##ștrii
Berk
stop
##ischen
Girls
ameli
facto
Montre
zugrav
Library
sunetul
inginerul
Mediterană
alcătuiesc
recomandat
remarcabil
##EP
##his
##imo
CM
##cial
arealul
anunțată
formelor
Nistrului
facultatea
HD
##inal
##otti
răm
Dres
Quin
deșe
pesc
Putna
moral
##gerilor
toamnă
Romulus
adresat
semnată
identice
strategie
Britannica
rădăcinile
strategice
subordinea
##roid
##tați
Cui
Beau
Pass
scaf
Adams
fermă
alegere
combină
valabil
frumusețe
succesive
manifestări
##fort
##rița
Jag
1200
1789
1833
zdrob
##osperme
templu
Ciobanu
Parasch
armelor
compact
combinat
britanicii
provizoriu
finalizarea
arhiepiscopul
##oker
##otor
##uali
nov
Antwer
creând
fosile
artiștii
respinge
sportivă
Episcopul
amintirea
Locuitorii
libertății
propoziție
participare
Campionatele
campionatului
##In
##etti
Julie
Novom
devast
fizica
Singurul
invitați
întâlniri
Rezultatul
##vir
##oide
##teanu
##nească
birou
poeme
dispute
întinse
Situația
business
mențiune
însoțită
Artilerie
proiectele
însărcinată
cunoștințele
festivalului
Gam
Niv
##nberg
##uării
Aten
efic
Urban
unora
cinema
hotare
circuit
mandatului
cunoașterii
##öl
##rico
Cis
Sit
Mann
agre
umpl
Hotel
bogați
eroare
extreme
formeze
Champion
Jocurilor
perioadele
festivaluri
IF
ou
##atch
##ciune
Cross
Proce
Actual
advent
Express
Lucilia
pescuit
Cercetare
francezii
Luceafărul
secretarul
conferențiar
Loz
##osoph
##ărată
Jura
Meck
cord
Report
exploz
indian
navală
pragul
recrut
răscul
întrebat
bij
poem
subs
Aeriene
Germană
stelelor
călătoriei
cinematografele
##ński
##otehn
albi
mica
Sandu
Sever
atent
ascuți
mesaje
miliard
sincron
stadiul
mandatul
opoziția
spitalul
textului
Următoarele
competițiile
##omod
##tica
sof
Road
##imedia
Onoare
prinde
Bonaparte
Laurențiu
musulmană
rămășițele
UC
##deni
Ltd
Baby
Cras
Preda
scoar
actele
populat
războin
urmașii
observații
reînființat
funcționarea
##anî
##hof
##cari
##odie
##omorf
atei
brad
nara
rămași
ungară
Barbara
Problema
adăugarea
propuneri
științelor
transportat
începuturile
##odont
Cosma
Wayne
dotat
georg
asistat
divizat
Albaniei
națiunii
fundamental
intenționat
revoluționar
##49
##LA
##ng
##bar
##ely
hy
##țelul
beat
pete
firmă
refăcut
Jonathan
explicit
mijlocie
organiza
regulate
Universul
imigranți
implicată
premiului
volumului
câștigarea
îndelungată
înconjurător
##cif
##ieu
Turk
ecle
Gotha
Armate
##otip
Age
Str
##rența
acce
tâmp
##alează
Bolog
avere
Singura
bugetul
amploare
gândirii
proaspăt
păstrată
Copenhaga
academice
debutează
vizitează
tehnologiei
##ény
BR
##quel
##urce
Psy
Răsp
atâta
mărci
piram
prele
##ândește
doamna
cavaler
desemna
judecat
atingând
Braziliei
Capitalei
September
israeliene
personalului
##jud
##eale
##onav
##rata
Fat
sel
Cuplul
urmate
Filipine
crescută
exprimate
stăpânire
suspendat
##illy
EHF
Kaf
##anian
1808
Boul
Ryan
elen
capod
nebun
fascin
Leonard
curentul
##andi
225
##cește
Mang
Sinod
bănci
redes
voiev
tropicale
neobișnuit
restaurant
rezultatelor
MS
##kawa
Dăn
acv
lot
Ober
Simb
hidrog
poduri
cenușiu
rădăcini
particulari
utilizatori
##uh
##deu
##oveț
1793
traie
înșel
rutier
tabere
Biserică
franceza
titlului
canalului
negocieri
organizeze
parteneriat
îndrăgostit
Ae
ES
Om
îm
##atre
##fact
##rcul
320
##bourg
People
conjunc
salvare
##ès
##duin
##tale
##ertul
cort
##ascent
Moham
Mozart
fraților
Descoperi
##iae
##sus
##witz
##ențiu
Born
Greco
balcan
metale
revolta
Caroline
oricărui
voluntar
producții
Principatul
potențialul
câștigătoare
Ip
bob
gea
Nept
nete
cafea
Andrea
Tirasp
concom
imprim
opinie
grupele
otomani
semnate
temelie
Conceptul
variabilă
Principalul
##wski
Dup
ete
##zești
1810
Curi
indo
##ilarea
##roscop
grecesc
Decembrie
biologice
intervenit
materialele
##89
Hos
Fair
minte
mâini
##actylus
Contra
nucleu
##ovehicul
steagul
confirmă
mijlociu
Articolul
premierei
Colegiului
creștinism
elementare
angiosperme
guvernatorul
##zime
Via
##țească
vândă
Cheile
Grande
anotimp
antrepre
avansată
prostitu
împăduri
aspectele
ceremonie
executată
primăvară
ucrainean
##leni
##lust
##umen
##uscul
Manh
unice
așadar
rector
Creștin
succese
sângele
Teologie
capabilă
fotbalul
greșeală
dispoziția
propagandă
impresionat
Bed
Buj
Hof
Pam
1773
Giul
dăun
rată
##rurile
Zagreb
Illinois
Pactului
antrenat
SN
##hman
Samb
maste
Morgan
uscate
Andreas
incintă
australi
încăperi
înscrisă
programat
instalații
##mm
##inka
##unele
Sold
gravă
refle
aruncă
portal
situri
Emanuel
Gabriela
Mediafax
Sibiului
prețioase
regăsește
Moldovenești
##arly
Sei
Sob
ela
Borg
Desp
Vocea
dosar
##ctivele
totale
Natural
altarul
Criticul
Croației
gramatic
moștenire
organizării
##kos
Sed
Sex
amfib
muban
Discul
curente
numindu
interese
ultimului
Bulevardul
informației
##lași
pra
##țirea
##restru
##ruguay
Denis
pradă
raion
Census
Meridi
Porumb
ardele
bucată
anexate
birouri
învinsă
fondarea
rezidenți
vorbească
succesului
înconjoară
profesional
cinematografică
##bell
Xen
##cente
##manuel
Aplic
Brand
stere
Anatol
Galile
Julius
Roland
client
lanțul
omoare
Mihaela
numitul
operație
pedeapsă
tipărită
##ibilitatea
Marinescu
districtului
##zită
##itter
##umann
##ziană
Beth
##orbiri
##tizare
Grant
scept
Mascul
ardere
dublat
marină
numeric
încruci
asociație
provocate
frontierei
administrare
##tir
##anny
##nirii
inje
##ctorii
##idelor
Bapti
Metro
nuntă
Nicolas
altceva
semințe
înfrânt
Miniștri
autonome
gospodări
întâlnirea
profesioniști
##63
##áz
##mud
##ivan
##wich
Gan
Rox
Sper
Year
##așului
Liban
Listă
Profe
abate
Așadar
Silviu
planet
botezat
tramvai
operelor
retrogra
strategică
##cord
CIA
##ledge
bere
Situl
fațada
consumă
fluviul
zonelor
facultate
sculptorul
veniturile
##ра
##chy
anc
##burgh
Sărat
strug
Studios
dispers
generic
parțială
singurele
mijloacele
utilizării
regizorului
restaurarea
Uk
##dise
Kem
mixt
##ionate
Songs
Nature
iubire
tribut
##mentează
dispare
history
locuite
valorii
Generale
aluminiu
armament
calități
invaziei
provenit
aplicație
supranumit
declanșarea
majorității
ا
##uki
280
Kis
Nice
codi
lăsa
punk
Apare
stema
##alioane
##ativele
cetăți
indica
linișt
Conflic
Vincent
descriu
purtate
vândută
complexul
publicația
experimentale
##giene
##orton
Bras
ariei
mijlo
rușii
cândva
reiese
coastei
mutarea
bronzului
evidenția
urmărirea
victoriei
astronomie
##fia
Ceea
depl
Rareș
##borough
##inioară
iniție
Stewart
persană
spanioli
declarând
puternici
realizând
abilitatea
personalul
interpretei
Brig
Mesa
Bălan
Giuse
atrăg
criza
polono
Publică
matrice
devastat
mărturie
ocupația
registrul
decorative
recăsători
##vna
sy
Gul
fit
văi
Psih
deop
time
savan
##urările
Weimar
Auguste
grupări
aparatul
observate
întunecată
comunicații
##gr
##oku
##örg
RM
##ants
##bele
##ozei
Box
Nem
bis
sop
Flam
Titu
Văcă
aduși
Campig
Norman
mintea
Philipp
trădare
jocurilor
strategic
constituție
IR
Fur
Kop
##lossa
Homo
Khan
Team
spar
Clima
Titus
izolate
peninsula
proiectare
Moldovenesc
##afa
Kl
##omun
lob
##inița
##uston
rază
moșie
ținute
coroană
inscripții
publicație
##ău
gi
Tecu
filt
grâu
asediu
opinii
Janeiro
Olandei
raional
speciei
școlare
lovituri
binecuvân
extindere
##PA
Bie
Kru
Acid
Hote
arma
Afgan
talie
Alexei
drepte
secție
Eroilor
mandate
propuse
autonomă
concepte
Sănătății
clasifică
profesorii
##dom
##iane
##more
Nit
Java
folk
##oridae
##asările
surpri
manager
Întrucât
filozofia
credincioșii
creștinismului
Hes
roș
Moște
anxie
Credin
Omului
agricol
cărbune
mesajul
deplasarea
telecomunic
##ils
##coln
##onge
##unes
Paz
Mareș
##istului
Calcul
Oliver
Pagina
impozi
Rezisten
cetățenia
universale
##raul
Dud
Vîș
Asta
Tigh
Index
Solar
convoc
habsburg
omenești
apreciată
Povestirea
susținător
##на
##czy
fră
Kath
cong
canon
opune
subun
adunare
suportă
computer
creației
centrului
comentarii
controlate
Campiglossa
restaurante
nominalizată
ire
epic
necl
Femei
Ponta
afili
retur
Ingrid
abordat
constând
interdic
mijlocaș
exprimare
inginerie
sferturile
##ump
Low
Qui
1825
Jess
gară
Force
Scrie
muzee
minimă
mușchi
Lincoln
propusă
Succesul
reîntors
încruciș
proiectarea
divertisment
##meu
##țite
tuf
îmi
1819
Cetăț
costume
vegetale
interzise
partidelor
redenumită
##LC
##bas
Pow
##lelor
##mania
Ophi
cehă
##elescu
Brook
dându
îngră
biroul
locație
##icianului
instanță
arestarea
calitățile
subdivizat
Independent
##cone
Lid
##neasa
Gelu
Shin
Battle
Jordan
Luther
aproxim
finanțe
Document
didactic
imaginile
remarcabilă
##buș
##dită
##ofil
Ach
Gig
##izări
Mend
chin
feci
Coste
Hardy
Supra
calif
golul
impre
Atanas
Müller
terape
asediul
condens
combinate
densitatea
fondatorii
Mecklenburg
reconstruit
tehnologice
С
Uv
Jov
Leo
Squ
Sean
erei
Orice
Right
Semen
##ințării
expusă
stâlpi
Banatul
Renault
Schmidt
circulă
adoptate
Cristache
expoziția
electorale
victimelor
##rio
##erna
##finți
##tenilor
Britney
Crișana
Ordinea
Trupele
notează
tranzit
exploată
jucătoare
frumusețea
recunoască
##ițe
##hnea
vop
##ulari
1795
Loth
Over
##vision
dramă
infin
Planet
clande
supuse
Algeria
preoții
propriei
atelierul
inspector
îmbrăcăminte
##oux
##zite
Hom
ușa
Wild
desf
gres
##oniene
Field
Griff
Unire
curat
pridv
##tizează
grafice
legenda
toleran
Buletinul
ceremonia
localizată
civilizație
##43
##lius
Toy
##stase
##opolit
copac
Șapte
Termin
relans
solide
întreru
Benedict
capabile
cercului
lipsește
proteste
porțiunea
sănătatea
socialiste
instrucțiuni
departamentului
##chee
##igraf
##uneau
bazin
Parohia
Uruguay
ascunse
presiunii
articolele
reconstrui
1769
1809
Itali
ultra
creste
dezvel
uriașe
plasate
Unitatea
următori
dominantă
elaborată
abilitățile
artificială
doisprezece
organizațiile
##79
##deș
##aura
1824
Drap
Gent
##grafic
##ocalip
Conan
sufix
##alizeze
Chimie
Darwin
aleagă
înfrun
Capital
Feminin
Tiraspol
miniștri
motorului
influenței
structurile
Cinematografiei
fat
1768
1826
Edin
Like
Regiz
polic
umede
##ograful
bunica
capitol
extinse
indicat
Socialist
adevărata
scriitorilor
supravegherea
##EM
##bie
##zzi
##terat
Bros
Nouv
Pent
rasa
Braun
audit
porta
##aurarea
Sparta
consta
încheia
înguste
Politica
capitole
ordinele
sterline
costurile
provenite
domeniului
funcțiilor
##oly
##oncé
##tera
acei
Stras
cerul
prusa
întins
Galilor
echipaj
romanci
guvernat
profesie
amenințat
prezentând
##waii
Bou
Leb
Jason
Iordan
Portre
Stanis
tipice
improviz
internat
avionului
luptători
copilăriei
##pede
Gov
ția
##cheze
##ristă
Mica
Pele
##usului
Ciorn
activi
altora
ridice
Bolgrad
pelicul
absolvire
discursul
conservatoare
##udă
##ween
Gom
Nab
Fața
Mind
Autom
##raților
Chilia
depuse
Olimpic
article
strânse
Burgundia
Normandia
beneficia
concepută
dramatice
renascent
răspunsul
instalarea
negocierile
SM
##anez
##erte
Aud
esp
1801
Sora
argent
predom
Izvorul
așteptă
podului
refugia
rezolva
vârstei
Catherine
restaurată
stătătoare
##opl
##avor
Ars
Edge
sfân
count
șansă
Amphoe
expert
formei
Tărnovo
materia
omonimă
edificiu
extermin
neapărat
relativă
proporții
semnifică
separarea
biblioteci
Temperatura
##arma
Fan
Mut
##nifer
Doru
abur
baie
##ailles
Diego
Frații
ochiul
porțile
resturi
Biserici
pătrunde
catedrala
organisme
întreprins
contribuind
subdivizate
reprezentative
##igne
pig
##erton
Bloc
Lake
Walt
ocol
refe
##rologie
absida
trenul
vasele
Football
coaliție
precădere
diferențele
personalitatea
##căra
Nah
Opt
ROM
##natha
1805
Limn
Lost
Titan
aburi
aprox
poeți
piardă
efortul
pretins
Superior
condiție
editurii
japonezi
Iugoslaviei
##új
##rini
șof
1780
1816
comen
##ference
aderat
incend
peisag
Templul
soluția
deportați
controlează
##cene
##news
##imile
##monia
grăs
Suciu
Ungar
rache
Textul
examen
gândit
sarcin
trecute
Frumoase
orientat
practici
prințesă
problemei
autovehicul
televiziunea
Ier
##erner
##prise
Lenn
Rusu
vulg
##opotam
aripa
decap
motoc
##alistul
Wagner
bijute
bolilor
termina
îndrăgo
Anterior
Giuseppe
densitate
dimineață
referitor
universitatea
##iest
Pip
Tig
bif
bip
Scul
ciob
Fries
Guide
Stele
recre
Veliko
portar
renume
vascul
Carpații
adevarul
molecule
candidați
Versailles
conștiința
furnizează
programelor
##ocle
had
##lajul
##nîțea
Bors
##ration
greaca
supusă
Beyoncé
premiat
îngustă
Teologic
bunurile
eficiente
frecvența
experimental
Țe
Gua
1803
Ocup
Uman
numi
pisc
zbur
##omenul
Condu
Gavril
grecii
negoci
pofida
clasate
întrebu
aprobată
examenul
Statistică
spectacolului
##inski
##izați
##sești
căii
gama
dădea
nepot
zeilor
Special
oferită
absolven
locuința
Monumente
cerințele
dealurile
supraveghere
##yg
##ен
##șia
##enei
##rage
Păd
##ifice
##orare
Stam
țigă
Munca
etich
marfă
Încer
##culescu
Coburg
martor
ploaie
Silezia
Holstein
succesiv
tipărite
prezenței
realizări
zidurilor
funcționeze
##TI
##cău
Kog
Drum
fuge
poți
Abdul
Maniu
Parma
Regin
Scaun
cifra
hepat
vestig
Boemiei
Broadway
impresia
limbajului
întâmpinat
Brandenburg
echivalentul
originalului
implementarea
##ος
##irt
AB
Bez
Vint
Zala
inde
șose
delim
##zătorul
coarde
Indiana
Matthew
ecuația
grupelor
parlamentul
##icol
260
Bui
eco
brațe
micul
secui
Antich
mitral
Legenda
Letonia
dominată
explozie
indirect
pârâului
selecție
străbate
Maiorescu
Ophiomyia
aniversare
funcționale
moldovenească
##phy
##nava
Nür
dese
diab
iară
iron
țărm
Recen
spânz
șansa
fizicii
țarului
Salzburg
Indonezia
dramatică
schimbările
managementul
TR
##augh
##inet
##mani
##neve
Abd
Duh
Zal
tob
##terin
Lept
Mori
Sard
manga
Antena
Institut
Madonnei
sporturi
concepția
teoretice
închiderea
##ilo
Juv
Kel
##ofici
##velop
Kate
Pari
Univ
chit
fiși
Jurnal
cognit
elegan
mileni
rațion
învăța
hrănesc
regilor
redactat
##ium
##uța
750
evz
##omest
##tându
Baza
cluj
##ariția
credi
nemuri
pedeps
reveni
reține
scaune
trecea
zeului
mobilier
diferenți
##83
gu
##ofăt
Gun
rup
##ories
nori
##roprie
Vidin
hărți
lansa
spuse
##oaselor
Coordon
grădina
subdist
traficul
executați
inamicului
interviuri
vizitatori
Dri
Dul
July
abon
##ionată
##solini
găsea
sărac
acestă
omagiu
lagărul
singure
Misiunea
coregraf
elevilor
##hua
##oco
##dafi
Sos
găr
##ionar
circ
luci
sece
Demet
Ptole
Voron
suferi
Filozof
dezmemb
martori
evaluare
începută
Filologie
apropiați
romanilor
versantul
confirmată
principele
războaiele
reproducere
cercetătorii
treisprezece
Calliphoridae
intenționează
Ub
##rion
##ânte
440
Ján
PIB
Rece
acron
##delberg
reînno
solară
transl
veneți
belgian
Pakistan
romantică
videoclipuri
##CC
##idu
SRL
Swe
Four
Janu
Farma
ample
meste
hidrox
Federal
Tribuna
caselor
naziști
parohia
potasiu
înflori
Probabil
filologie
tânărului
aeroportul
experiențe
modificare
transparen
intensitate
##uzii
Avi
Pom
mov
##rough
Amen
Iris
Mada
Tang
deca
info
##petele
preal
##alizați
Coroana
reptile
Biography
restaurat
înfățișează
subdistricte
##kal
##sef
Orb
aluv
chiri
cultul
Britanic
prințesa
Mussolini
opoziției
Tetragnatha
Holocaustului
##lez
##anzi
##lave
##reți
Anj
Lap
##cteze
Shel
gine
neoc
reia
paral
tabel
##ficării
legume
Antarct
parcuri
plasată
doctrina
odinioară
concursuri
Cercetările
##tee
##atum
##ibal
##ilic
##oveze
##reaga
##rindu
Senat
Sighi
cauci
iarbă
pasaj
Hudson
Nordul
ampren
consol
violent
cuantică
sectoare
extratere
controlului
##Ne
##br
##oro
##abul
##buri
Now
Spy
Whit
maim
Klaus
Zalău
naval
șanse
Middle
Tecuci
cumpere
solista
Documente
consisten
puterilor
succesiunea
reconstruită
##TS
##cki
##igur
##olph
Haj
Bast
Isra
Tătă
Graham
Studiul
metalic
protejat
Căsătoria
afecțiuni
ecologice
întuneric
##hm
##ethe
##omia
##ping
cră
piv
##antei
Avia
Echi
Gray
René
aler
climă
comitat
literal
Ivanivka
Supercup
devenită
justiție
colective
copilăria
observată
retrograd
departament
Sü
##ioni
##isei
##oviță
Phyl
music
pușcă
Liturg
Taiwan
colțul
Gabrovo
nevoile
ofițerii
fondatori
melodiile
originile
persoanei
studiului
încălzire
##vár
##ieve
Aco
ped
##assin
##oului
Inoc
Păun
sanc
trad
##antrop
##iceanu
autop
prosp
zeița
Justin
garant
montat
suntem
Jennifer
decretul
stațiune
surprins
obiectivul
compozitori
Municipiului
interpretări
ON
Carie
Volks
votul
bătrâni
cauciuc
scaunul
Vânători
academic
biologie
segmente
Alegerile
subliniat
Australian
Enciclopedic
##desh
##omed
##rane
##veld
Myc
##mediu
##oneză
1804
##outube
Conne
Wells
caldă
indig
Crucia
foștii
sondaj
October
cumpăra
acompani
elvețian
Parisului
Metropolit
Bibliotecii
semnificație
cinematografice
participanților
##loch
Aven
Rain
gala
gast
Engle
Guine
##terului
căzuți
Cristea
satisfă
stârnit
Wolfgang
respinsă
esențială
municipal
posterior
moștenitorul
responsabilă
##ingu
##ride
Cuc
Eth
JLS
##enthal
Soția
porun
##ionează
Înțele
afacere
baptiști
domnitor
guvernele
vânzările
Libertatea
recensământ
transmiterea
132
Hae
dan
pam
ruș
##ansas
bârne
piețe
rugby
însum
Succes
Debutul
Manhatt
respectă
vertical
celulelor
exprimată
furnizate
întrerupt
monumentele
~
##ité
##ogne
##ript
vel
Grad
Rein
marș
neur
prăj
Moore
##univers
Austin
Buenos
steaua
înăbuși
Moscheea
dezavanta
Limnophora
##zeg
##îkî
##leze
afe
Moun
horm
Batman
Londrei
scriind
deținuți
evidentă
infecții
liberale
folosirii
Socialistă
##iad
203
##clude
##islat
home
tech
##ievici
Chrys
##opillea
Sighet
Treime
Walker
ilegal
prezid
rusesc
valuri
Bibliei
Decizia
hidraul
Știință
datorată
vântului
Municipal
cultivate
explicație
înotătoare
concomitent
încercările
fortificații
oi
##ssel
1822
Adân
Neil
Page
Spit
plic
vult
Every
balne
slavă
thril
Cannes
defect
tabără
Apărare
Tighina
vechilor
supravegh
clădirilor
instituției
terenurilor
€
##pii
##ucn
##eley
Kul
gor
##usole
Rest
Vine
masc
ocro
Asimov
postum
Balduin
vestice
Planului
cutremur
finanțat
lagărele
poreclit
întocmit
fereastră
frecventă
teoretică
Personajul
##ZN
LGB
##istry
Aires
Point
Women
Canadei
Volodîm
textile
longitud
Seminarul
Victoriei
bunurilor
justiției
artificial
integrarea
##bs
μ
##ilar
##velt
Cug
meș
rigu
Basel
amonte
antibi
arteri
fundaș
severe
flancul
națiune
sinteză
tehnolog
organelor
picturile
inițiativă
semifinale
coordonarea
habitatelor
intereselor
##86
##bad
##core
##țești
Sten
parf
sole
Tereza
Războaie
adaptate
exemplul
periodice
provocând
democratice
Dé
##rami
##arest
##onian
Emis
Ambro
căile
Trento
creadă
fetele
mătase
vizual
semneze
scufundă
Champions
statistică
înregistra
Patrimoniul
##zech
Bub
##idele
1802
##islava
Mitch
Coasta
exilat
mozaic
gândirea
precizat
semnează
Edinburgh
comunicat
statistic
individuală
constituirea
##ván
##atea
340
McD
Măs
##oslav
Hunt
asea
lăca
week
##schimb
Malta
autoc
împrie
întârz
amatori
camerei
iubirea
Nürnberg
Răsărite
genetică
organice
pretinde
pădurilor
Realitatea
medicament
intervenții
pronaosului
moldovenești
##atu
##lla
##ratul
##riană
Dana
Kris
genun
Wright
târzie
Dysdera
fostele
ipoteză
Leonardo
consider
mărturii
prestigiu
dispariție
psihologie
utilizator
##jos
##cker
##rell
##zări
##acvat
##olean
##remia
##renul
Buci
Fish
Phys
irig
Ionuț
Miami
evite
Copiii
etajul
Gimnazi
Matilda
ducatul
ziarist
Marshall
adunarea
expediții
disciplină
creștinismul
aprovizionare
ira
sul
Cucu
Drea
Saud
sati
##oniști
Kafka
danez
rundă
diagra
medici
parten
Executiv
cursului
decisivă
Cartierul
câștigată
sărbătorit
coordonator
producătorii
##SD
Hă
##aman
##âști
Bic
Poz
##hardt
1791
Cort
mail
mire
only
Syste
litri
scrut
Damian
armeni
fiindu
credeau
suspici
acidului
acvatice
pierzând
încetarea
fotbalului
moștenirea
periculoase
semnificația
##var
Jah
mei
Dmit
Milo
bare
Place
arate
pasul
nelini
grosime
fuzionat
memoriei
pierdere
climatice
încrederea
Conservator
chitaristul
istoricului
documentelor
##oir
Lü
Lil
Sap
tet
Aron
Emma
Iuda
Kane
Nume
grin
neam
despă
Dimens
Dragon
Factor
Neptun
anchet
cuplul
dotate
murală
##icultură
conacul
dosarul
publica
conifere
exercitat
generează
rezoluție
vechiului
favorabilă
securității
considerabilă
sǎ
##cane
vam
##e
##i
##a
##r
##n
##t
##u
##l
##o
##c
##s
##d
##p
##m
##ă
##,
##f
##.
##v
##ș
##î
##g
##ț
##b
##z
##1
##h
##0
##-
##â
##"
##C
##A
##2
##S
##9
##P
##M
##)
##(
##I
##B
##D
##R
##j
##x
##k
##8
##T
##L
##E
##3
##y
##5
##4
##7
##N
##6
##G
##F
##Î
##V
##H
##U
##O
##:
##w
##”
##„
##J
##K
##W
##%
##/
##;
##X
##Z
##–
##Ș
##'
##é
##Y
##á
##q
##ü
##Ț
##“
##_
##]
##=
##[
##°
##ö
##Q
##&
##ó
##!
##?
##’
##ä
##ǎ
##—
##í
##+
##è
##»
##«
##ć
##а
##š
##о
##>
##<
##ł
##|
##•
##и
##ç
##č
##е
##н
##É
##ß
##р
##ō
##ā
##с
##*
##α
##ő
##ú
##ã
##в
##т
##к
##$
##л
###
##à
##ń
##ı
##ë
##ο
##‘
##ž
##Ă
##ū
##д
##ا
##ν
##ς
##ī
##ñ
##Š
##у
##ô
##ι
##ø
##ρ
##Ö
##Á
##м
##ş
##ê
##å
##μ
##τ
##ý
##ل
##λ
##ε
##æ
##Č
##י
##я
##ę
##ğ
##й
##п
##ś
##π
##−
##г
##ו
##ţ
##σ
##`
##ř
##ľ
##С
##·
##ï
##ě
##ь
##ي
##б
##Ž
##×
##κ
##ы
##ч
##م
##з
##ר
##η
##ر
##€
##→
##ה
##ą
##′
##γ
##К
##А
##~
##М
##ن
##́
##П
##א
##β
##٭
##ц
##ί
##ب
##θ
##ό
##đ
##£
##υ
##Ł
##ż
##δ
##Р
##ל
##В
##ḥ
##و
##ב
##Â
##ω
##ˈ
##ə
##ά
##د
##}
##İ
##Ç
##ē
##Н
##Б
##ò
##ė
##ð
##מ
##Ō
##х
##ש
##Ü
##φ
##И
##ת
##Đ
##\
##{
##ш
##ː
##Г
##‐
##س
##χ
##Å
##ṣ
##^
##Δ
##Т
##ة
##נ
##ж
##ע
##Ú
##Д
##О
##±
##⁄
##ŭ
##і
##ع
##ű
##ṭ
##û
##ד
##Ś
##œ
##ȋ
##@
##ح
##†
##ɛ
##έ
##●
##ť
##õ
##ź
##Ó
##Σ
##ή
##§
##ì
##Α
##ù
##Л
