[PAD]
[unused0]
[unused1]
[unused2]
[unused3]
[unused4]
[unused5]
[unused6]
[unused7]
[unused8]
[unused9]
[unused10]
[unused11]
[unused12]
[unused13]
[unused14]
[unused15]
[unused16]
[unused17]
[unused18]
[unused19]
[unused20]
[unused21]
[unused22]
[unused23]
[unused24]
[unused25]
[unused26]
[unused27]
[unused28]
[unused29]
[unused30]
[unused31]
[unused32]
[unused33]
[unused34]
[unused35]
[unused36]
[unused37]
[unused38]
[unused39]
[unused40]
[unused41]
[unused42]
[unused43]
[unused44]
[unused45]
[unused46]
[unused47]
[unused48]
[unused49]
[unused50]
[unused51]
[unused52]
[unused53]
[unused54]
[unused55]
[unused56]
[unused57]
[unused58]
[unused59]
[unused60]
[unused61]
[unused62]
[unused63]
[unused64]
[unused65]
[unused66]
[unused67]
[unused68]
[unused69]
[unused70]
[unused71]
[unused72]
[unused73]
[unused74]
[unused75]
[unused76]
[unused77]
[unused78]
[unused79]
[unused80]
[unused81]
[unused82]
[unused83]
[unused84]
[unused85]
[unused86]
[unused87]
[unused88]
[unused89]
[unused90]
[unused91]
[unused92]
[unused93]
[unused94]
[unused95]
[unused96]
[unused97]
[unused98]
[unused99]
[UNK]
[CLS]
[SEP]
[MASK]
##ال
ال
م
و
ه
ف
ب
.
أ
##ية
ع
ت
في
،
ل
##ان
الم
##ات
من
##ين
ك
##ار
ي
##ام
إ
##لى
الأ
ح
س
##ير
الت
ها
##ول
ق
##ون
ن
##ري
1
##را
الع
##اد
##اس
"
ج
2
##لي
##اب
##ور
على
د
##ما
أن
الس
##دي
ش
(
)
##لا
وال
الح
الق
##وا
الب
##يا
مع
##رب
إلى
كان
##ائ
##دة
الج
الن
##يل
##وم
##عة
##رة
##اء
##لك
##ست
20
خ
,
ا
ر
19
عن
عام
الف
الش
##عد
الإ
الد
##وس
##مة
-
الك
##بة
لل
##رك
##اف
:
##بر
##يد
##يس
التي
##كن
ذ
ص
##لة
##تم
ما
##قة
أو
هو
الر
##ود
##اع
غ
قد
الذ
الخ
هذ
ط
اس
##يم
هم
##مل
##شر
##بي
##اح
##نا
##لم
##وي
##بل
##وف
##نة
الص
##وق
##وج
تح
الث
هي
الط
##يات
بين
نس
##وب
تم
##er
بال
##دم
##اني
كانت
المت
بن
ث
3
##يت
201
200
##جم
##يف
##خر
##an
%
إن
مح
بعد
##قي
##لف
##يو
مت
ان
##صل
تع
است
##در
##هر
##مر
الذي
##in
##انية
##دد
##سم
##اج
أي
##on
الل
##كت
##اص
كل
##وع
##ارة
##سة
##الي
تق
بل
##يث
##يرة
##رن
##حد
لا
##سب
##اط
##لال
##كل
##رية
##خت
##رض
##سي
##اري
آ
ز
لم
##وت
##سل
##دين
##ادة
الو
##اق
##كون
##رف
##جل
المع
هذه
نسبة
وت
##من
##عض
A
4
يع
##كان
##ند
##يع
S
المن
##ثر
حيث
ض
##طة
##or
##ديد
##كر
/
##بد
##اه
الأم
##en
ذلك
##يز
5
##es
##ar
اله
عدد
##ثل
##مال
هذا
##ريك
يق
أك
##رق
##عل
##رت
الغ
وأ
علي
##ادي
##al
##عب
##دينة
##الم
##حدة
الأس
##از
C
##ني
مس
##ti
##قل
##وري
سب
مق
##ولة
أم
المح
##وية
غير
##حة
##خل
##مد
يم
أس
##لب
6
كما
##رج
##صب
يت
##ذا
##وز
##افة
تش
##وك
M
##يش
وم
##وات
##ريق
##اض
خلال
##ركة
##خص
قبل
##قد
##يك
##تى
بد
عند
##يب
##ولا
##th
T
بعض
سنة
0
P
وج
##نية
18
##عت
عشر
##صر
##حت
##است
حتى
ين
جم
##فس
##هد
##قت
##ربية
##ورة
المتحدة
##عية
##نت
الز
المس
8
##اك
##بار
##راء
o
7
##في
تت
9
##هم
##ئيس
##أس
##وسط
##اش
أب
بلغ
##is
تحت
##الة
أول
مثل
p
##اريخ
R
##ليم
العالم
أيض
##اية
ثم
##َّ
##الية
##يين
##خرى
199
B
الي
يمكن
##ed
##طل
سي
كت
الآ
##ارك
##ic
شكل
10
##رح
##يان
انت
D
##ئة
##صف
##ركز
##لات
##رد
##نس
الولا
##انت
أكثر
العام
I
##ثير
عمل
مج
يتم
##عي
##وة
##وعة
تن
عبد
نظ
##خد
أع
##لد
##تي
##طقة
أف
مست
a
البح
الولايات
سن
##وى
##لس
##ثة
##رات
##جة
of
المم
مد
E
##وان
والأ
المست
مجم
مدينة
وف
c
s
والم
##راب
##اة
كب
##وض
هنا
اسم
##خدم
المص
##ارت
لأ
H
##ظم
L
##ابة
##يط
كرة
المج
##با
##فت
##وار
##and
التع
الأول
N
##om
##قا
الأمريك
##هة
##فة
مش
##كم
قام
##ورية
##ارات
##دا
مص
فت
F
بر
محمد
نفس
##خدام
##ارس
أيضا
##لام
الاست
th
##it
##بلغ
أحد
##عم
G
##et
##زي
##ناء
كم
اب
الجن
حسب
##el
##قط
##بية
##ومة
##امعة
تأ
##برا
وس
##at
واح
يكون
198
d
##لكة
##يخ
أح
##ur
الض
المدينة
المش
هناك
##قات
##ولى
##راض
##صول
##ختلف
##واج
##بات
عاما
##غة
للم
##وح
##سا
##tion
أد
الدول
##اث
الله
؛
السي
##يلة
##il
##وقع
تاريخ
المد
##فر
سكان
دول
ات
W
##رم
ظ
جميع
##زة
استخدام
تص
جز
تج
العمل
##ضم
عندما
the
مؤ
##ol
##طف
##فع
العديد
f
##00
##انون
جن
##سك
J
##فاع
##راق
وب
##رس
##انيا
أما
##يق
##ch
##ائية
##كس
##تر
عم
–
يح
##راف
##اسي
المغ
النس
سبب
الجز
##وائ
##لية
##وجد
12
قال
نادي
أخرى
الات
##امل
##ربي
##وط
##اصة
197
17
##رائ
##الات
##لق
السكان
التح
أصب
بدأ
15
##لوم
دون
»
تكون
تط
##لاح
القرن
##غم
##عداد
«
##as
لدي
نسمة
##يني
رئيس
اخت
##وال
الجم
##ارية
##ri
##وير
يش
وز
and
##نج
##خب
##سلام
أش
المؤ
##لت
أغ
##اسية
##ضع
العربية
الذين
الوط
فر
##he
##راد
##ينية
##عات
##us
وي
##روف
##جلس
مم
جامعة
##ing
العائ
وجود
تد
خط
الرئيس
الخام
##ربع
الحك
13
##بن
يج
##ريط
قي
تلك
منذ
14
##تص
##ديم
##يه
##تما
##ضافة
متوسط
##قر
##ياة
196
هما
##re
in
الثام
##نين
##فض
##حي
الملك
ري
11
حد
بط
ثلا
##ديدة
##ليل
##صة
n
ست
توف
الأسر
h
m
منطقة
##بت
المملكة
##حو
منت
16
قدم
يست
##تبر
##سية
أج
##ماء
t
##بع
وق
##زب
مجموعة
البل
##ذه
##le
##ودة
##حاد
شخص
بي
حول
##اي
اعت
O
تس
بم
لي
التق
الأولى
##امج
##ارج
##ra
يوم
إلا
إلي
##راك
لت
##حص
##ائل
السل
##ro
##مبر
الري
الوق
مما
التن
ولد
حق
##ابات
##un
##والي
##واق
##راج
مركز
الثاني
الكت
##احة
نا
##اخل
وح
التج
إد
##فا
والت
العمر
##سين
الإسلام
فوق
##سن
ذات
##ul
البي
##ent
يد
##حية
أث
حين
المنا
الترك
واس
##صد
194
كبير
##مان
##افظ
##شف
الحرب
نه
أخ
b
2010
##وبر
طريق
وع
##ائي
##am
البر
##لاف
الثامنة
آخر
##ولوج
##قب
The
'
##مو
##تين
##طر
##ظمة
##سات
195
الأح
دور
##راسة
ام
إذا
##طفال
عدة
##جد
##em
ابن
##رى
##تل
##تد
w
علم
##يج
دولار
##زل
الأع
##وث
النظ
##ربعة
المر
مه
##قيق
##رجة
الأن
العلا
أق
حوالي
الأخ
##امة
الخامسة
الانت
الا
وك
##اليا
تقع
كتاب
##غير
لأن
تست
##بك
أمريك
الأد
ولا
البحر
الأك
##طق
##واء
المق
بح
ضد
25
عمر
موس
##ظهر
]
##ريد
##ياء
##رار
شركة
##وص
السك
[
##طي
##وني
كذ
عض
الاج
##مي
القدم
العائلات
الأف
حل
##واد
الفت
الساب
##لاء
يوجد
ضمن
المه
##ودية
عب
مختلف
الفرن
دخل
##وه
##زية
##اند
##رير
##فل
##اعدة
##سط
U
##يفة
##أة
لكن
##به
2004
ذكر
يون
##ليات
V
الوقت
مصر
##انب
##لاق
##ويل
##درسة
فقط
##هل
لاع
أص
##ation
##ندا
##عر
يقع
أبو
##كي
##ينة
##ورا
الرغم
المركز
##وبي
اليوم
##بط
##نى
أور
K
##اير
الاجتما
مجلس
##ودي
##دية
##ادية
الإم
##غي
##الب
المنطقة
بأ
##ev
إق
الدين
الرسم
التالي
نش
أكبر
##تج
الأخرى
تك
الدولة
##وين
الاق
##اقة
##ers
نظام
##نان
المث
##طب
فترة
بينما
سم
الأمريكية
حصل
ون
دي
حم
العلم
الطبي
العم
تز
##جر
الشرق
##ابل
##زم
##واع
ول
##شت
عائ
##ادر
ملي
193
##os
##id
##وبية
مر
بت
السع
##ec
الان
لعب
2011
تعداد
الطب
للأ
##ريب
عملية
##اسة
##شي
##كتب
##هور
الشر
21
الثال
الحكومة
نوع
أصل
نق
أصبح
##ستر
فرن
الثانية
ني
##غل
ولاية
##وبا
إس
مرة
##ضل
##دف
قائ
أهم
30
حجم
بناء
علا
مك
وقت
بار
احت
##ضاء
الاتحاد
نشر
تب
كلية
الأرض
الحدي
وإ
الإضافة
زي
عبر
##طار
##شار
واحد
خاصة
##اسم
ترك
مب
القي
والد
عرض
##يار
##اذ
الأش
##مس
##حصاء
##ريقة
الهند
ارت
يبلغ
##ter
إع
##ائر
##خط
الوسط
##تمع
لاعب
معظم
##طين
درجة
100
##ضة
إنت
بير
##خرج
2012
نحو
ليس
l
##طان
In
الشيخ
##طح
##ia
##ew
23
22
##طلق
لو
الراب
##بير
##ثم
الشمال
##حف
192
##ثافة
أثناء
24
الرياض
عدم
##شاء
##سون
2000
الجيش
##ينا
التص
موقع
##ستون
كثير
##يران
الموس
##سمى
##فق
##ac
##قم
داخل
##ركات
##جن
جنوب
العراق
##ag
الشخص
والس
مل
##رنامج
تر
الأور
أحمد
القانون
يس
سل
##يلي
##ريل
كبيرة
##فاق
##انات
ألم
سجل
أل
al
##ريف
##كور
##ad
##نجلي
الاقتص
واحدة
تحديد
2013
##شرين
##رفة
2008
##رع
شارك
للت
##افظة
تضم
##وغ
##um
##ظيم
##دى
ثلاث
##جوم
موج
كون
##نع
دراسة
##ارب
##iv
2009
00
##ربة
##ess
يؤ
قص
جما
##اون
الثق
##ندي
مارس
الاح
للإ
##ist
توفي
التعليم
##ناع
##اول
تأس
##ينات
را
##ئية
##op
##ig
##اما
##og
كانوا
يول
سنوات
السكانية
التاريخ
الدم
##داد
191
##سلسل
##وش
مجموع
##حدث
##تمر
النق
وضع
##اعة
##ناث
العالمية
أكت
الأص
for
عائلة
الخط
النو
##ويت
##ber
##ياه
أسرة
##تيجة
وا
حالة
رب
أجل
شمال
البريط
يناير
26
الألم
جزء
##لومات
##يرا
إم
##يون
الحد
##طاع
العامة
التش
##ظر
فيما
##سر
##تمي
##جه
##يلم
القر
إنتاج
النه
##وريا
##جال
2014
المسي
مث
أعمال
2007
أكتوبر
الوطني
يعتبر
27
الحياة
حك
##مية
##عى
28
##ليين
تف
##ay
##هاب
لاح
قر
ديس
St
مدة
نوف
2006
##وء
اللا
ترت
##حل
العربي
##يانات
##يسة
##له
##رحلة
##غيرة
مايو
النظام
فيلم
##ائزة
##الح
##وبة
إحد
##شروع
الرسمي
##تمبر
r
قانون
##غط
ساب
##وما
الأطفال
##خذ
القوات
اقت
_
الخاصة
##ورت
##باب
أصبحت
##ادات
##نف
الفترة
سبتمبر
##قيقة
حياة
##ئي
يجب
##صبح
نهاية
بدأت
##راسات
##كا
القدي
##تمد
متر
##ir
##ce
الحم
##واقع
##ورد
الحر
يز
##اطعة
##افية
2015
##كال
##فن
قب
##ut
نج
الاع
##رعة
الأز
العسك
جهة
الكثير
الأسرة
بول
كتب
النساء
##سطس
رس
##زيز
##دل
يقدر
الإنس
اللغة
إدارة
عشرون
بع
بالإ
جون
بطولة
##نب
الصح
الأمريكيين
##ائرة
يوليو
الناس
مف
ديسمبر
فرنسا
مليون
##ضر
يونيو
ور
##im
##امي
عادة
##هورية
البعض
##اخ
##براط
##ونية
الإنت
##ليا
أبي
والإ
الخارج
بيت
المجم
;
29
صف
##عضاء
سلس
##الت
كار
##اهرة
##اعد
##ايا
000
##قاء
##ريت
##اصمة
نوفمبر
ثلاثة
ظهر
##صار
المخ
الشع
سلسلة
سع
الفلس
##طع
وش
##راضي
حزب
يقوم
لح
لج
الثالث
##لماء
تعد
المز
e
البلاد
ألف
أغسطس
##جي
طول
التد
تعمل
##براير
العلوم
تعتبر
إقليم
##ومي
الآن
الحزب
الظ
الرح
##لين
2016
إحدى
المناطق
شه
فبراير
##كو
عالم
##كار
زوج
إذ
طب
##قية
##ربعون
##ابع
مجال
##غر
##od
نقل
##انة
##ot
com
جماعة
تتم
##st
الكتاب
##ولي
الوطنية
قرية
القاط
سطح
عضو
بريط
الموا
دم
المرض
##قال
وفاة
لن
إنشاء
المل
##ابعة
حكم
والستون
إعادة
أبريل
والأربعة
##ريم
##امية
g
وه
الدولية
نهر
##نيسة
##شيخ
##فيذ
التط
##oc
الشعب
##ِّ
وصل
##يتي
مختلفة
منتخب
بإ
السعودية
مرت
##ميم
##دمة
جانب
مكان
الإس
القاطنين
مكتب
فاز
الجنس
وصف
##قرا
البشر
مؤس
##ومية
مساحة
##طلح
مز
31
مار
to
يستخدم
##ثار
##شرة
##عاب
##ادل
##لايا
أعل
الطاقة
##صور
دار
المب
لإ
والع
طبي
##جراء
يحت
الإنسان
خارج
اكت
رسم
السن
ينتمي
##ثلة
أقل
##نجليزية
مسلسل
##اتب
أوروبا
الوز
البلد
المغربية
##اصر
الفيلم
##ضمن
كال
وص
هن
2005
الحق
تل
مبار
اليم
بداية
##ناة
##واية
##طن
حس
##ورك
ألمانيا
تطوير
برنامج
##صوص
ميل
##ليف
قض
دولة
نتيجة
##افي
##عا
##نيف
العشرين
يعيش
العر
قامت
بالم
##وزع
مقاطعة
##هود
أفضل
أر
زيادة
يعمل
بني
المجتمع
المسلم
=
##ary
##بدأ
##ذكر
لدى
تستخدم
حركة
ود
##طات
##دمات
##يبة
##بكة
الروم
##راع
البد
أنواع
الموج
##ity
on
##هاز
المعروف
الدو
##اركة
##ريس
##خة
وحدة
##عبة
عين
##ابت
الاحت
شهر
تخ
شرق
كر
المرأة
القد
##طلاق
##سبب
##اغ
##حدات
##ارد
##زمة
##بال
وزارة
الموقع
##وظ
##هب
الياب
##ارع
التأ
##انا
##يري
##هرب
مغ
القديمة
محافظة
اج
##ذج
##يرات
قدر
الرا
نظرية
الفر
النسبة
صح
##tic
de
الإسلامية
##مت
الفن
##زا
##كرة
الآخر
واق
##باط
سبيل
##خاص
ملك
الدكت
##واليد
##جار
اللي
##خي
مض
واسطة
##طاق
##ندية
الخاص
الفرنسية
الدولي
##ov
الأغ
جد
##وست
الجزء
##طية
##نك
حقوق
طريقة
الأمر
مخت
##اضي
##ماية
##احية
التركيب
قوة
المعلومات
قيادة
##ine
لقد
الحصول
##راز
فريق
##يدر
v
##ريقيا
الدفاع
الزرا
##املة
2017
##ادرة
الإحصاء
الاجتماعية
##جان
##ونة
كأس
##ئات
مواليد
##اهر
##يوية
تقديم
##ائق
##ثي
تبلغ
##جيل
##اديم
##هي
##قبل
##ينغ
شي
دعم
تمت
يل
##سام
فلس
##etri
القب
##ريات
مستوى
الأمير
الثلا
##ستان
an
50
لبن
##eved
كيل
##ويد
السود
##وجه
انته
##ep
##etrieved
بغ
الأب
##ورن
بالأ
190
جدا
##لاب
أفراد
جديدة
شريك
المنت
تنت
رأس
##وذ
Y
طلب
##طلب
اع
قوات
والح
منصب
الإد
يعد
منظمة
عاد
النف
شر
##اهد
المك
تشمل
##ورج
با
تؤ
العلاقات
أشهر
##ناعة
##جرة
الجديدة
##أن
المياه
قتل
السب
العق
|
السياسية
العرب
##شق
Ch
الماء
##جمع
الغربية
غال
آل
رح
العثم
##ويات
فن
موا
أمام
توجد
انتقل
بلغت
##جات
الشركة
الحركة
##تقد
##كنى
فع
جعل
##لاك
تحقيق
&
##ow
##شاف
الحديث
##عار
65
##وائل
##صال
القص
الشمالية
المواد
##اشت
الفرنسي
الأرد
البحث
##يكية
40
السابق
الأعمال
##ولوجيا
ar
##ub
فئة
والن
جاء
##ائد
نت
##وقف
تقوم
الميل
وتوزع
أمريكي
تأثير
##فظ
2003
##هام
##رين
Al
الجزيرة
المجلس
مدرسة
##ab
بالت
المثال
كول
##وسف
ht
الشم
كذلك
حر
السنة
حرب
يعرف
##ترا
##ion
فبلغ
الجام
Un
قائمة
الكثافة
Retrieved
##شيخة
إضافة
والسكنى
##اطق
قسم
يكن
##اشرة
القرية
##هيم
عقد
الرابعة
البط
##لفزي
لمشيخة
هدف
##خابات
189
##نات
البيض
جديد
##دت
##انس
أعلى
الديم
خم
رقم
رم
##خفض
روس
آس
##الك
أطفال
ارتفاع
للك
أولاد
##ونت
##الد
واست
النوع
##ورات
مجلة
##ونس
اعتبار
عنوان
##سلحة
حيو
يقول
##سيم
الأكثر
المؤس
##eb
الجامعة
##برى
اشت
35
الإعل
السف
أمريكا
##اعر
العد
فل
الحكم
النبات
##يقى
##لكتر
راب
##est
مرض
##يلات
أساس
استع
المط
حدي
الأل
الذكور
الرس
##يلية
كث
##خصص
ثق
##ؤول
##ill
مشروع
##قص
##our
تسم
الأمريكي
تعيش
##اكم
الرئيسية
الجديد
##سان
##هات
تصل
##لمان
الفريق
صالح
الشه
إش
##ud
##ian
تقدم
الأر
##ريدة
##شل
عهد
القض
##ديل
##ديو
##جاه
##واب
##اتي
أدى
الصف
العسكرية
تأسيس
صورة
الشرقية
إخ
الأمن
عبارة
##ونغ
##زاء
مخ
##صابة
Pr
##هار
32
2002
التس
الجنوبية
##عاية
مناطق
المرت
##وضوع
المصري
##اسب
##يدا
الجما
##اسع
الوصول
##ونات
المغرب
غرب
##ap
أهل
##فية
الخلي
إل
2018
المسلمين
New
##ard
الاسم
حاليا
جي
أعضاء
##حق
##هتم
الدراسات
يص
##رجع
الأمم
##ويلة
الإمبراط
جائزة
##غيير
أخذ
##يسي
نف
يلي
٪
##يفية
خاص
جزر
إجراء
الوا
عرف
اث
##أت
بو
أمر
##راث
##ريض
##يزة
عمليات
##حاء
الداخل
مقابل
والف
##الف
##ثى
التم
نيو
أفريقيا
وط
اليون
##كمة
وسط
##ie
الصناع
القاهرة
##عين
وخ
##لندا
صدر
##شة
##يرية
الام
مقي
el
جمع
##نز
pp
مي
بش
##قى
دائ
الرئيسي
الحج
##ها
السلام
المض
Mar
يؤدي
أسب
##فاء
##ينما
##qu
باب
الديمقرا
رغم
##ائج
تنظيم
##كنية
##وسي
جورج
خلف
لبنان
تعليم
##بنى
##tp
الإناث
تا
البحرية
المف
الدوري
الثورة
2001
الفرد
بلاد
وظ
فأ
##ختلفة
الكل
##يميا
##ائب
##ts
العلاج
##ارنة
الميلاد
نمو
الحل
##اولة
نصف
##ولد
يب
##طيع
السيد
##ويورك
وغ
ومن
##رنت
الكبير
صغيرة
##ويس
البريطانية
عق
العاصمة
شعب
حكومة
اختبار
##وفر
##ليب
##هداف
##رافي
الجغ
##ran
عد
##وارد
السوف
الجنوب
وض
##ory
رفض
سياسي
الكويت
##خول
سوريا
الكنيسة
جمهورية
كلا
##ابي
ويت
##برز
##ug
العصر
العليا
للع
بج
##حاث
سرعة
لند
##اهم
إيط
الفئة
الشباب
##ومات
جبل
الرب
##ماع
##براهيم
##ؤلاء
##ابية
بغداد
33
بلدة
التقلي
المدرسة
##لبية
تشك
در
##صلاح
##فاض
##علق
رجل
النفس
سوف
##uc
الكلي
##انيين
المختلفة
##طراب
##طاء
الكب
##جا
الصين
معروف
نيويورك
أيام
الوحدات
للأس
يعود
بالل
##انوية
##صدار
الجمعية
##ُّ
http
النم
استم
يف
قناة
جزيرة
##اعات
؟
لندن
##احث
##وسية
الكبرى
##ضي
الساد
جنس
##آن
##اجة
##حات
تحد
حدث
أجزاء
حيوانات
العض
أت
المصرية
الاس
36
##لفة
##لفت
##كية
الفق
هول
منع
رؤ
##زو
##الا
بق
##قلال
إبراهيم
بك
تعرض
##واة
يصل
اللج
188
حص
وزير
وين
##ريبا
وجه
لقب
##بيق
التاسع
الجنسي
##يكي
##رخ
مسيرة
وفقا
##اثول
النش
##احب
كثافة
نز
##ula
##تون
##ثيل
سك
re
اض
استخدم
مشت
المبار
##حداث
الأخيرة
رد
##وام
الحض
بريطانيا
##ورغ
الخلايا
آيت
##حاب
تنفيذ
الأراضي
##av
المجموعة
الجسم
برا
الرابع
حسن
المسرح
##يطة
موسم
##ستاذ
إي
المقد
افت
ترتفع
النمو
العالمي
التف
سف
الرجال
علاج
تكن
##ريا
نطاق
أنحاء
البيانات
المحيط
الخارجية
##فاعل
تخرج
##هدف
##برت
قيمة
##ولات
التالية
##اسات
شار
تنا
يحدث
المرحلة
##وحة
مرحلة
محد
##فاظ
الإش
أربعة
معركة
تصنيف
زوجة
##اديمية
هؤلاء
الاجتماعي
or
##اوية
الدي
##حر
يأ
##زن
34
حلول
وحيد
والش
##ip
##ati
إسب
العب
الغذ
##up
##ge
ولي
##لاع
##غات
والج
##افت
العلماء
En
تظهر
المعيش
السلطة
شع
الأزواج
سجلت
العملية
##غيل
العرقي
متعد
الجزائر
أنش
الأصل
سان
الحديثة
الفلسط
السم
وادي
المحيطة
##كد
##لقى
إصدار
##واخر
البروت
عرق
يلعب
لع
دمشق
##لل
وث
الاعت
##und
اح
الدكتور
الكهرب
أنثى
الأوروبي
لاحق
##ائف
##زام
بيانات
##اعي
##يانا
##يكا
##if
مقر
##ember
form
تعرف
##جين
العمرية
فال
السياسي
##وزيع
محم
##كتبة
وفق
الوسطي
##وانين
الصحة
يعتقد
45
##ate
##ly
تحتوي
##ظة
آن
##age
##ارقة
ته
شأن
##ارض
##رجمة
1999
##بدو
مباشرة
جام
واقعة
دين
##ارف
سليم
العائلة
المحلية
مسرح
##ائع
37
اجتما
الباب
##اكل
السكنية
مط
##حب
حض
الهي
تشكل
##مين
##غال
شهد
فلسطين
##ak
الإسلامي
رأ
أرض
غالبا
##ust
##خيص
الاقتصادية
اتفاق
حمل
تشير
##ok
##وامل
السيا
نجاح
##امب
##جاز
تحليل
##الجة
حماية
تي
##000
ير
القرب
التركيبة
إسرائ
معدل
##اهدة
حي
هيئة
##حول
المسيحية
الفعل
##طول
لغة
اختيار
الأسب
أستر
الثقافة
الداخلية
##ادئ
187
##زين
##ذب
جيش
ظهرت
1998
##ساعد
الملكية
شبكة
بدلا
للف
مصطلح
##بيض
##دير
صناعة
يسم
##واصل
##rom
طويلة
##وعات
مقيمة
##جاج
منح
الشكل
الإسب
تونس
للأسر
الحرارة
والأربعون
60
ملا
المدن
جمعية
ـ
مؤسسة
اتحاد
شبه
##بس
##ولت
الشيو
##نق
الأساسية
مين
الغربي
المعيشية
الأدب
واج
##ph
الطريق
الدينية
ليست
تحدث
##ريبة
العلمية
##كلة
سابق
دوار
صوت
##غان
186
وتع
##ord
التجارية
الحدود
يوسف
الأصليين
مراك
اد
وأربعون
رابطة
مان
قاعدة
اللبن
بور
##ظمات
حصلت
شيء
عسك
!
يظهر
إيطاليا
##ويا
##ذهب
##صلة
للق
واض
قل
الهجوم
رجال
فض
##هن
##ment
أعلن
القوة
##تمل
ينت
المنتج
البلدان
البرت
البار
والب
الأشخاص
مباراة
الألمانية
حالات
التابعة
##شفى
سانت
الفنان
##ريع
##ابلة
البريطاني
##ستور
معد
##راح
الطبيعية
الغرب
##كة
المعد
تغيير
آسيا
أهمية
السلطان
أواخر
كري
المسجد
عالية
38
شخصية
as
الوسطى
##كب
فعل
اللجنة
##هاء
##ديا
##ivers
الشرطة
##عام
Con
ويس
المشت
##راقي
الولوج
##ارسة
علماء
لف
##وتر
##زوج
ظل
والق
##تماد
قطر
##وكس
حسين
محاولة
ذو
مساعدة
”
ww
كلمة
Pro
##ريح
العلمي
##راءة
الحالات
جيم
يعني
##جز
##ذية
##غا
أربع
مهمة
روسيا
الاخت
ألب
at
تألفت
##وبات
مختل
##وند
القلب
##لامة
##حن
ذوي
##فضل
www
##وصل
إحصاء
##ich
معيلات
##ابن
##هوم
تشكيل
##اشا
التعاون
لين
معهد
تقريبا
بيروت
الإلكتر
##ish
##ارا
##حيح
يحتوي
متن
صحيفة
الأوروبية
ظهور
الخامس
للد
العظم
عشرة
الكاثول
العزيز
##رافية
1997
خلي
1990
##سلوب
إعل
حدوث
إطلاق
نص
##ايت
الإنتاج
قصة
وان
##ائرات
Com
ربما
##رر
الحالة
##ith
##ؤون
الشركات
كامل
المادة
الأحيان
خص
لق
دوري
المتوسط
المشاركة
##نيات
المدارس
ويل
النادي
التجارة
الطلاب
اي
##ort
##فقة
##طرة
الجوية
##فين
الأكبر
1996
##ادت
كيلوم
الإيط
##ئاسة
سر
نشاط
الأه
الغاز
##جية
##تال
الحس
##ence
الزمن
يسمى
باريس
تغ
خمسة
أض
الساح
##خم
##شد
الجغرافي
او
##نتين
بات
الكتب
دفع
الشمس
##يوان
مرا
الثالثة
الواقع
عامة
يشير
##رام
##جب
الخدمات
النظر
##فسير
الإنترنت
by
السينما
##دار
البلدة
لجنة
##ork
تصميم
##راتيج
علاقة
##ينيا
إخراج
##قق
الطرق
##قليم
مدى
تصبح
##شح
الإنجليزية
##عرف
جان
الاشت
الجمهورية
خصوص
##بيا
##ct
واسع
الصغيرة
سير
##لز
##اين
الأصول
##افع
##ial
##ies
##ey
الألعاب
48
الشخصية
النقطة
فتح
##ld
ماي
أبناء
عبدال
1994
الانتخابات
ممارسة
##امين
الاقتصاد
الخم
إسرائيل
تسمى
الزراعة
##ماغ
القرآن
مدير
صاحب
اليابان
الطريقة
يك
##eg
يزيد
إف
الحديد
درس
دورة
إنجل
السادس
يحمل
##واعد
للح
المجال
القط
39
تحمل
##يطرة
طالب
طرق
##ff
y
سواء
رواية
##وخ
الجهاز
أبرز
السابقة
الموجودة
##io
توفير
الوح
قط
##روي
القديم
السيطرة
أوائل
سيدي
ula
الطبية
##ظاهر
تمكن
الشرقي
##اسبة
امر
##ry
العص
وسائل
##ure
القائ
42
##وجين
st
نور
41
Th
1992
أسس
الصوت
2019
##لمات
اتجاه
مات
المال
##لالة
##يريا
Univers
الآثار
دع
##end
##لفات
تض
إيران
التلفزي
1995
تأليف
1991
##ear
البداية
أطلق
باك
جهاز
أستراليا
برامج
التك
##برة
الكبيرة
معينة
##ورو
الأردن
الفي
الور
اغ
80
##olog
الجنسية
تطور
المقا
##تش
##فيل
##تع
##هزة
الجبل
إقامة
فكرة
ديف
للن
##داء
بلد
المشروع
وجد
المالية
##tern
صد
نقطة
لب
باللغة
انضم
الموسم
##وائية
النبي
قرار
مقارنة
بري
سعيد
الثلاث
يمثل
تحسين
مختلطين
والك
عرقين
ومع
##نائية
##ثال
عامي
الأقل
المسيح
الإسرائ
قلي
الوزراء
##ib
##ذر
الأث
عديدة
الحي
قدرة
اقتص
معنى
عل
الألماني
##باح
##وضع
إسبانيا
السابع
الول
كيف
إنجلترا
يتكون
##قييم
الأوسط
##او
العسكري
منتصف
أصدر
Press
ضع
##50
##افر
##ستخدم
##واجد
##نائي
المخت
وتت
الحب
تتكون
بالإنجليزية
يجعل
الحفاظ
العن
##ته
الأفراد
تمثل
يرت
الجانب
“
الأج
البول
ومس
البرنامج
السياسة
محمود
انتشار
السوري
بس
كتابة
العمال
##ob
##ضح
سه
##اريا
تعيين
المرك
##عيم
حف
##ارضة
دوا
الكامل
توس
##ens
##ou
##ترف
بص
##هرجان
##خدمة
النات
##قدم
الرحمن
اهتم
الإمبراطورية
##تا
##عيد
المفت
تركيا
النب
##ريقية
اليهود
##راوح
تعود
قاد
##ond
الشعبية
باشا
شهادة
عصر
للا
حاول
##وائز
بيع
##ولوجية
47
##ell
43
##ex
المنظمة
المرضى
العثمانية
##يتش
الذه
إز
يطلق
الكر
الأخير
الأحداث
حدود
خمس
البرلمان
إيج
التنمية
##امات
البطولة
الشعر
ناحية
حال
الماضي
خل
جريدة
ليب
##اعية
##يدة
##ابقة
##واجهة
##ديق
النوادي
يخ
المحكمة
الأحمر
روم
##all
السورية
كات
هار
توم
ثاني
مو
الأبيض
##امت
الآس
الحالي
1993
جبال
ميد
Z
التاريخية
للج
##وجيه
##ريعة
##تن
##باشر
الإعلام
مسجد
الطبيعي
##ain
تأسست
##ss
##واف
سين
الفنية
الصحية
##اوي
تحرير
44
ed
الثقافية
التب
##واجه
مدن
يبدو
سابقا
##عرض
ولدت
90
صنع
للمنا
##ماك
Sp
اليمن
متعددة
التنفيذ
تعتمد
أشكال
قصر
العمليات
##تان
زم
##تلك
184
##خفاض
52
أغنية
لك
التكن
الآسيوية
النج
تطبيق
النباتات
كثيرا
##ينيات
الثامن
الستين
أز
المرا
##ve
##ذاك
##ern
بيل
اكتشاف
الذات
##igh
تغير
es
نشرت
##فات
University
مرك
##ائدة
زمن
##عاد
##قلة
فصل
46
بث
مصدر
##رسال
##علقة
كي
القيام
##باء
70
معلومات
نظر
الطفل
والخ
##istory
عاصمة
از
جمال
##ليزية
##هير
دليل
معرفة
##حم
لش
##يروس
الثانوية
##art
لويس
##كين
##ربط
أحداث
فرض
امرأة
العدد
##ناط
##بطة
منزل
##ضا
حديث
97
##ونا
إنس
رفع
السودان
الأنواع
اللاعب
تتضمن
##بلي
##ذك
مرات
##يقية
##عاء
الكيميا
أجهزة
العنا
##فيف
صغير
كثيرة
للب
بلدية
51
اليد
##زاب
##ci
السنوات
الإمام
العين
سيد
منف
الدرجة
IS
500
##صالات
##ظام
##وعية
##رش
مدر
صفة
خدمة
##ook
التعب
##يرو
##نغ
المرة
البص
الواق
الدراسة
##طى
##راجع
##ابر
أمير
التقليدية
الجزائ
مكون
الضغط
##شأ
49
1989
تعزيز
##طلع
##ناف
المثليين
ابنة
183
##داب
خدمات
##ee
عملت
العراقي
دخول
المنتخب
حقق
الساعة
الزواج
الألب
النار
صفحة
##لبة
بالع
مخط
##افات
يعتمد
فقد
##iz
قطع
خالد
سق
is
إب
##تاح
الحكومية
مارك
المعهد
##ast
تزوج
سوق
+
##خبار
يقدم
فران
##يور
الدر
نقص
للس
تحويل
النشاط
السوق
الحقوق
##كام
##دون
حب
الخليج
##بلوم
##uary
##وبرت
يا
لاحقا
##ايير
##نه
قائد
الأولم
تسبب
##ورين
الاشتراك
k
نتائج
بدء
##ليون
الإمارات
##ائص
المستوى
##راحة
حملة
الهواء
فير
ستة
الرقم
واسعة
##شرف
للمناطق
##ubl
##orld
التون
##شية
توزيع
##وكب
##كندر
الشمالي
يزال
بحث
لس
##يح
قول
ممثل
الأق
البشرية
النمسا
##خصصة
##تاز
قياس
##يمان
السر
الأفارقة
مواقع
سليمان
يسمح
شدة
المباراة
##ric
185
أداء
البحرين
##ik
واش
شيو
المنظمات
دا
والغ
نشأت
##رافق
الأرج
المعروفة
بروت
##اصيل
رئاسة
شك
##ثمان
إح
رائ
اللون
##لازمة
يرى
نهج
الأكاديمية
النقل
##اريع
ol
رياض
الباحث
عز
صور
الوحيد
##اعت
نجد
القدرة
السبب
أظهر
##بهة
كندا
##راس
البناء
1980
##يفورن
##ant
توق
##فاف
نظرا
الهدف
موضوع
from
معالجة
غر
للش
الرومانية
##ah
##يفي
شعر
محل
الدن
عيد
##قاد
الممكن
مون
الوظ
##باع
تدم
الدماغ
##ربون
##وتا
التأثير
آثار
العرض
##وكي
ماري
الرم
1988
الغاية
المصطلح
Ed
الموسيقى
محطة
##نائ
تزال
##az
المؤسسات
مربع
##يفا
مفت
##يفورنيا
الإير
##تح
حساب
وقع
إث
##ass
الرواية
الحال
الفنون
دو
?
الفض
مجموعات
##سد
سباق
##واي
##مم
Q
##راقبة
الاقتصادي
##خطيط
كأ
##oh
##شيد
Sh
##جابة
الأو
تعلم
البراز
الملا
المستقبل
العراقية
##ستير
القدس
##روة
أكس
الاب
نبات
وراء
تقرير
مشاركة
الرجل
الكريم
كام
مير
##ازي
##ولين
الحمل
الإن
1986
البال
السويد
الروسية
مكاف
كوم
تختلف
##قرار
##عال
##رال
ساعة
العصب
يتعلق
البيضاء
اللات
الأمراض
العقل
قبيلة
سا
طرف
حرارة
يه
كانون
دير
الدع
نموذج
con
الكم
بريطاني
##ياز
نم
##رز
النهاية
مجل
العل
المريض
موجب
التر
أراضي
القوى
الأسود
المعاد
النت
الرياضية
##ابس
المعم
تسمية
نائب
فق
رسالة
العنف
ثورة
وكالة
البيئة
##انغ
الإقليم
##cl
##لاحظ
##ياب
أعلنت
تكوين
القل
##لاة
مجرد
يبدأ
استعمال
غض
pr
أسباب
تتميز
##يرلندا
’
الأعلى
نسخة
المكان
القضاء
جر
قصيرة
طن
55
قدمت
إزالة
##ثور
تتبع
ار
الدور
السجن
Cl
أمريكية
أوس
بسي
شغل
إرسال
كبيرا
##صاص
##يتين
الضوء
##عدام
##درات
##ath
53
جاك
الإنجلي
قطاع
أغلب
خرج
اش
##رجات
##طال
المدني
إض
كاليفورنيا
استمرت
ثابت
الجنوبي
##وافق
##cy
##تداء
النز
وتم
الفيز
والر
##جلة
تصوير
##طفى
الطيران
##يوت
دواوير
الفلسطينية
السلطات
طف
##جمات
الرعاية
##ريمة
نو
المتعلقة
والص
الفقر
انتخب
##تمعات
الخي
المؤرخ
عص
السعودي
1984
##جمالي
الارت
##فورد
أثر
اللعبة
أهداف
يرجع
##هوري
##يلون
اليه
الاتفاق
المسؤول
##الى
يستطيع
##هاد
##لو
النص
البرامج
سوى
##وعي
العلاقة
اص
الإدارة
مادة
الأفلام
الرسمية
سيتي
لذ
تجم
انخفاض
##ريان
رحلة
إنسانية
*
فص
العهد
روبرت
الموت
قالت
##son
القسم
1987
ضر
##سكر
فضل
دائرة
وانت
ذا
ضغط
تشرين
يغ
الفلك
آنذاك
الجلد
النووي
المكسي
المستخدم
مسؤول
Sch
اللعب
صع
##قيقي
##كذا
هيل
فرقة
For
الخص
##ذور
##وفة
تعريف
الصناعية
تجمع
استطاع
الفص
سعد
مياه
سلم
يضم
كيلومتر
يشمل
بقي
مملكة
يذكر
il
قرب
العالي
##وحات
عاش
البن
المؤتمر
فرق
##وطن
هير
##ارير
##man
ويلي
الاستخدام
جيمس
##نيع
الأساسي
##ريقي
موسى
والدة
الأعضاء
كبار
X
صار
الملكي
##اليب
الخدمة
التدريب
##بيب
الديمقراطية
أصحاب
قلب
تسجيل
##eric
1948
الشخصيات
الرق
##عتبر
##جهزة
الثلاثة
1985
شركات
النفط
الوحدة
القطاع
##غو
##ابق
1982
عش
##ite
وصلت
يشكل
##تبة
الحسن
##ارق
pro
كنيسة
السيارات
54
جو
##اورة
##ادم
جين
##oun
##BN
##فال
تؤدي
إير
الديمقراطي
دقيقة
الشام
1970
لون
##ادق
##aw
##تز
المثل
العصور
##ائن
##ديات
##ue
##ابين
الفرق
##اجر
نب
وأن
وقعت
كريست
قدي
##ton
أصول
##ضان
##20
وات
الشي
مطار
أدت
##ack
المطل
ac
الخلف
##علم
أقدم
مال
##جع
المنش
الآخرين
##ريج
en
شاركت
##طباء
##ساء
##روج
زرا
السما
##خفضة
##ect
الاص
قرر
##pl
عضوا
بف
##ذة
##وفي
##نطن
1967
وصول
طاقة
المكت
ألي
##ical
القمر
عباس
الوج
خصوصا
75
##يكاني
##صى
نيك
الشبكة
##كير
فور
An
تولى
##مع
الخل
فريد
الأما
##ne
فوز
كافة
المحلي
>
##اخلي
كمية
##بيقات
ISBN
##زيمة
ترجمة
##غب
Vol
التكنولوجيا
##اطر
والل
انف
##طور
##طرابات
واشنطن
الرأ
الطعام
1979
أفلام
##طا
تلقى
توفر
##ادث
##مار
سعود
جل
الأجن
كا
مجتمع
##رقية
##ايات
181
المجموعات
لكي
تنتج
##اكمة
المعركة
عكس
السلوك
الأي
المساعدة
طال
Ro
تفسير
أنظمة
إما
##اطة
التعبير
180
##اربة
لغ
##شرات
تث
هجوم
##كانية
مستويات
ثقافي
الالت
إطار
##ماعيل
56
i
الحيوية
الوس
##انو
1945
تور
الأولمبية
سياسة
عبيد
دراسات
الاتصالات
العودة
##انج
تعني
الطائرات
ذكور
الكون
##وايات
تقييم
##اكرة
وتح
مفهوم
يمن
##ألف
ميش
شارع
مؤتمر
التقنية
التراث
##ef
##هول
##ادا
الإصلاح
لذا
القصة
العثماني
يصبح
تشار
قيام
##خاب
كور
التحرير
معا
##اتف
##ational
1975
أسماء
##ندس
تول
##ئين
العظمى
تماما
##ليد
الأبحاث
زيارة
1983
مهرجان
##شب
##طراف
الطبقة
وآ
التحكم
تحول
هنري
98
المحافظة
##شطة
الاه
غالب
تجاه
التهاب
عودة
الهندسة
##طلقت
استث
1981
وأك
##ang
##ريش
الموضوع
انتهت
اثنين
ومت
تبدأ
روما
##اريو
المدر
ساح
أسلوب
##ائة
الفضاء
World
التحق
##ائنات
هد
ينتج
كارل
كوريا
السلة
يو
وير
##iew
شهدت
الاستقلال
الطرف
فاس
تلفزي
القن
فار
وحد
لد
مكتبة
ذهب
المركزية
المحت
الهر
متحف
معين
ثانية
مصطفى
##حا
صلاح
##مون
##ذار
اعتماد
إست
المدنية
رؤية
الزوج
ترتيب
ch
مواد
##وائي
300
##ition
الجوي
مليار
##ينو
أه
##قام
علاقات
التخ
وجدت
##سكي
عناصر
مأ
الكاثوليكية
ملعب
##هرة
##غاء
##ندوق
فرانس
الكاتب
الصحافة
##يتون
أنا
القيادة
##غبة
##عمار
الطائرة
أرسل
إناث
قضية
1973
##cess
##خال
الفلسفة
درجات
المركزي
النهائي
أنت
مستشفى
كش
عمان
خان
الوضع
خلق
أقيم
الوطن
رعاية
Ph
شبك
المسلحة
التقدم
##te
##ide
المستخدمة
##واز
سياسية
الجد
64
قلعة
##قسم
الرك
الزراعية
الحالية
عسكرية
النشر
Is
حفظ
واله
هام
الهول
هند
طبيعة
تابعة
المذ
ومنت
##تمام
قليل
96
بنت
مصادر
جير
##مارك
التمي
##ology
الأصلي
##ندق
##بغي
الحاج
##راتيجية
57
سام
j
السبع
للإناث
البرازيل
الأغنية
org
أمثلة
History
البع
##شاب
##ودا
ضرب
##ونيا
الطبيعة
95
آر
بكر
الدعم
المتم
مساعد
##ينت
التابع
لعبة
الإسكندر
مقتل
المزيد
ناج
##حيدة
الدكتورا
تدريب
##غار
بالح
##ost
التصميم
المشر
له
ريت
سقوط
##ولف
##درس
الولاية
استمر
##les
##فعة
الروح
مهم
التصوير
##لمانية
الجو
الهيئة
واف
ناب
نشط
1960
58
شمل
##وسطة
قيل
et
وبر
التمييز
##يزن
سبق
مرور
York
مكافحة
المواقع
منش
##يتا
الأدوية
##per
##زيل
عقب
##ناول
##لافات
الاض
##ولية
##ult
##قف
nal
الوف
بان
مكة
##لمي
أست
##رهاب
مارت
اشتهر
عامل
المسا
62
##بدال
##اسل
##قيقية
1974
تدخل
القرار
الفني
التعامل
شيخ
الدستور
1978
##ach
كولوم
التشري
##لندي
القصر
ساعد
##يقي
القائمة
الذكر
##ايد
فرع
التربية
الموارد
إسماعيل
الوث
الفرقة
خي
شم
يحصل
##edia
##ولوجي
لوس
المعرفة
ويليام
فشل
##حرك
الإست
خطر
99
شراء
##ire
1976
تدمير
الشؤون
85
عرفت
##غيرات
##وريوس
ومر
شعبية
##واص
##اسوب
قوانين
محددة
لمس
رسمي
يأتي
آلاف
1972
القاعدة
##اتل
مقا
with
مدرب
فرد
التنظيم
وحدات
##وحيد
May
أحيانا
إعداد
الاحتلال
موري
##بان
رك
الإصابة
الجمهوري
الصحف
##ron
فيل
##مرة
القبائل
ليت
تناول
الشت
جوز
الأربع
##ماذج
التغ
##نكليزية
الصينية
تدور
آخرين
المقاومة
يض
سيا
الدرا
##raph
##وضة
التركية
1977
الرئ
ميز
##واح
حلقة
التواصل
الطف
العناصر
##nal
حز
##ind
اللبنانية
موجودة
##جير
طويل
ستيف
جوائز
المنتجات
أساسي
##ثمار
هولندا
##درج
أولا
سويس
الأصلية
الجامعات
نيس
63
##انع
بوت
عر
قليلة
الواقعة
الممثل
##حاق
جامع
##iti
نجم
استغ
الإف
##بيت
حلب
ليبيا
به
أنفس
الإيطالي
##طنين
خلايا
84
مبنى
مكت
مدار
فضلا
يتبع
##يسية
امتد
تعدادي
النجوم
##ئا
ضم
##ائز
##خور
##شرت
الفك
##اصرة
01
##زال
كن
النتائج
والمع
أمن
دائما
مشاكل
والمن
تقسيم
فقدان
الاتصال
##قاط
تيم
الطيور
##une
##خمة
مالك
إنما
1968
يحي
إعلان
179
##ائعة
أستاذ
##راغ
لان
##oci
Jan
182
البنك
تو
يشت
##ساوي
قوية
أعداد
النا
مواجهة
##زيا
##يانة
تسمح
##اكي
العثور
##طورة
شبكات
##خاذ
##باه
##وفية
النقد
السير
##sh
المكون
شريكة
##لاج
السفر
توجيه
##tit
مسي
##وفا
سلاح
مراكز
جسم
صحيح
عثمان
Pl
المجاورة
زواج
القوانين
Le
طائرة
##يمي
##وانب
الشاعر
الحرية
##وتي
1971
##ماط
وأس
فإ
المو
##فاءة
يعانون
أذ
ومنتخب
الته
الناحية
خس
ذي
المسيحيين
الست
القرى
الإسرائيلي
##لاقة
##ويض
مونت
##ارين
##iss
الأهلية
مراكش
كلي
بب
le
لص
والز
النخ
##الج
خطوط
استمرار
##شير
150
بحر
تجربة
ضعف
أمراض
الحجم
الشريف
##ism
##لاط
العالية
Bl
meric
##ساب
بخ
اهتمام
##ناق
الأجهزة
##اجد
##كيد
##مام
جيد
##شارد
مسلم
رسول
مول
رج
الغذائية
طوال
اللغات
القتال
فك
تقول
الدقيقة
##لفاء
مصري
تشغيل
##يمون
##ظي
قواعد
ممثلة
رسميا
مجالات
##بكرة
الضر
المصادر
الكربون
##باك
مشكلة
##هية
59
يتضمن
شرح
الرائ
##جاوز
سهولة
النصف
التطور
93
الإنجليزي
ذكرت
إصلاح
##هيل
مسب
البرم
61
معيلون
بالق
66
##ألة
إسلام
الصور
##ood
معروفة
المخرج
الصورة
النسخة
الكيميائية
البيت
الصيد
##خرة
##صاب
العوامل
حرف
القناة
##بيه
متنوعة
67
##ــ
سلطان
الأساس
حاجة
النجم
كاب
##ريبية
1963
النووية
الكتابة
الظروف
الفصل
##ase
##لائ
الأعراض
##يسى
شكلت
الإشارة
1969
1964
سيل
87
تصف
الشعبي
##ايتد
وأخ
الجنود
نظم
تمتلك
إلغاء
قن
سيف
السفن
مور
الفوز
الهيدر
##اشة
اليس
فم
الدار
إمكانية
انتخابات
المؤسسة
ليف
موت
النواب
##ديان
88
##طت
الزي
فا
##قلاب
Tim
لحم
بعدما
روب
##هلاك
كنت
##زر
كسر
آي
جزءا
<
##ations
المهمة
##ore
ومح
Sy
لحية
la
ra
1962
##رويج
##يدات
##أل
##ذاعة
ضمان
Ex
وضعت
المناف
الدورة
يونايتد
##ويق
الحاكم
المكسيك
الكوي
احتم
##جاب
وظيفة
الأسلحة
Wh
النفسي
التلفزيون
زال
##ساد
##ver
##رو
##فاوض
كتلة
المنزل
كين
القاد
وقف
الحاجة
المرتبة
الكلاس
الولادة
ويق
متم
دورا
شهرة
##برغ
1956
أمين
المناخ
Ar
إصابة
جيل
مثابة
الرومان
##يمياء
Jour
المتحف
##تيال
الإسبانية
الرأس
##orm
أبد
قرى
الملكة
##لامات
تضمن
المصدر
##ابيع
##نر
##بليو
ديفيد
وأح
Dec
رئيسي
الفكر
##اولات
91
ألبوم
أشار
المتح
اللاتينية
الحسين
علوم
لوك
بيان
عربية
أصغر
الداخلي
صحة
موظ
البرتغال
##وسع
##رتيب
##فعت
برج
##ذي
تتراوح
جنب
اعتبر
##اقات
الأسنان
1965
المرج
الساحل
##ويم
##جري
شاه
اتفاقية
أند
إيف
حرية
##طنة
الصحي
اكتشف
مقاومة
موسيقى
##يكو
انتقلت
رمضان
محت
##ice
غرفة
##قاذ
الأند
الخض
صديق
##ريغ
Joh
درا
توماس
##كالوريوس
البالغ
الكهربائية
خطة
الكشف
اند
روح
هان
##ys
##use
##هان
يدعى
وهكذا
##ئر
يساعد
المحد
ثال
##هى
##صدقاء
القول
##عمر
##فى
1958
نواة
##ظل
بض
الصد
ثمانية
##براطورية
##ضيع
ريتشارد
##ile
حمض
##ديث
تهدف
Intern
##بين
##اضر
رود
أظهرت
الفلسطيني
إغ
##ويين
للر
ويست
مقدار
الإسكندرية
ليون
##ستانت
Ind
فون
تاون
##هما
##اور
الذاتية
العصبي
ميت
•
##سيق
أعراض
باقي
إعطاء
المعارضة
السوفيتي
الذهب
شديد
##اليد
استك
المواطنين
بالف
68
##رائم
الذاتي
##زت
##ابط
مثال
المجتمعات
وتن
##ung
سلطة
الصحراء
81
توص
العقد
حضور
البحوث
القضايا
مئات
كاملة
قاموا
##حين
##صدر
استقلال
##هلك
فارس
الحقيقة
حيات
الهندية
##ail
تقنية
أراد
مناف
صباح
ومؤ
##واقف
الخارجي
سيارة
الحقيقي
دخلت
الرياضيات
##ثوذ
ويع
اللح
92
Nov
الحماية
الكرة
##كتيريا
يحتاج
الصيفية
الوحيدة
اليونانية
القومي
البابا
مشاب
البرية
86
94
Jul
دبليو
##land
دائم
الأذ
##ذيب
التركيز
مثلا
الحمض
##اسعة
كاتب
حصن
Re
الأولية
المقر
التض
العصبية
القانونية
400
تكر
ماك
طبقة
72
##رافيا
آب
تصدر
أبحاث
يحاول
الأحياء
##واحي
71
##ركان
##راجات
##اهز
1950
باكستان
الأستر
فول
أبعاد
متلازمة
فري
1966
سويسرا
عشرين
##ئت
##ليق
معاهدة
سبعة
النموذج
Col
انتخاب
##رعان
الرياضي
الخطوط
##ual
يقت
##دران
عددا
قبر
كف
##قطع
Res
الصناعة
الجميع
تقريب
سورية
##يمن
##خلص
بقية
مكن
##دوج
مستقلة
1961
##واريخ
يسبب
##عفر
رئيسا
83
المسيحي
القيمة
ظروف
##ans
كلم
ترتبط
وست
صن
يحيى
يخت
القائد
الاغ
الحملة
سيطرة
##احات
عرب
News
##فز
##ئلة
##تو
العش
الدخول
وسيلة
قادة
الاجتماع
##ويه
مباريات
أسبوع
##ثلا
الصغير
بالن
##وازن
73
التل
اتخاذ
الهجرة
النح
آسفي
De
##راجعة
الطبعة
عضوية
وسم
الواحد
مسرحية
الفيديو
250
خاض
##واط
فاع
الإيطالية
أندر
آخرون
الجل
حاكم
تشت
استثناء
##ثق
يريد
لط
##اضية
الحرة
اليابانية
تعديل
##ept
المشتركة
الأنس
مراحل
##فيد
وكت
المحافظ
إت
برم
Par
##atio
المؤلف
طلاب
ينبغي
##ليس
البنية
التدريس
ديم
المبنى
الناتج
##واس
##حايا
##نيه
الأربعة
التخطيط
اقترح
موقف
بحيرة
##ris
الدنمارك
##رمز
مسار
الرأي
الحمراء
##ريين
النيل
يفت
خليفة
هل
تساعد
He
البرتغ
الدموية
##لاند
##ograph
Pol
برلين
##ادلة
Rev
للفن
قبائل
ساعات
El
المي
مؤسس
##يمز
##حث
##ويلا
لسان
##رفية
##بيوتر
##يلاند
أجريت
ألعاب
ترا
تقلي
الشيوخ
78
الفيدر
##يوش
##فو
##وسة
##قدمة
الخلية
عيسى
##ساس
##يتان
تعالى
الثمان
74
بالس
178
للخ
##رقام
##يص
عمرو
النفسية
77
كثرة
عوامل
بلج
##قبال
أنط
##لالات
مباشر
John
تشارلز
الكلمة
ex
تقليل
القلعة
المساواة
82
والمس
يدخل
قمة
##عو
أغاني
Cent
صناع
اليهودية
##قايا
الغير
مقت
##ؤية
الده
##دات
##ظار
والط
##ier
سرعان
وعادة
##ins
##rid
##طبق
##وأ
##ياجات
##ive
##عيدة
رق
قصص
القبض
أقصى
##رائب
##زيئات
فين
المشاكل
76
##سيمات
سلوك
تمثيل
##لن
##ناطيسي
القضية
قيد
المقدس
النطاق
القومية
مستقبل
March
##رابل
ثنائي
شقيق
المعت
باس
رئيسية
مدارس
الدائ
الجنرال
##مير
المتعد
ناق
نقاط
##خرا
موجات
03
يمتلك
لله
الإجراء
##نيين
يملك
الإله
##ace
بيد
ناد
تميز
##اطئ
بلا
انتهاء
بطل
أماكن
##rans
##ارسات
بولندا
##ائفة
##ائيات
فس
الروماني
اف
مؤلف
89
##امر
تجنب
Oct
إشراف
السويس
ملكة
انس
المتب
معرض
Gu
ممكن
جاءت
تقدير
القيم
الكائنات
06
بدر
للص
##جت
##رمان
يتحدث
04
الإسباني
##ليك
الانف
اللغ
##شا
الطلب
##ريخ
استخدمت
تقدر
مايكل
##اكس
##عتقد
تبين
محكمة
##اصل
1954
05
سيما
الثدي
##غطية
الجامع
##اطع
المعلم
قضايا
مراقبة
الهادئ
1949
الناش
Publ
##وارع
التمثيل
##ثيقة
افتتاح
ناش
Rep
زالت
روز
ثلاثين
بنية
التصويت
وو
الأنشطة
المكتبة
##غن
##وضح
تلعب
مناسبة
طفل
تجميع
all
مذ
شت
##ford
قضاء
منتجات
##يغة
فيليب
التجاري
وأول
كيفية
1952
باست
فج
الأطل
##قار
يتطلب
##خين
المسار
الإلكترونية
الأثرية
الجهة
بون
قصير
الكونغ
08
كير
المطاف
النهائية
##yp
1920
بشر
وسي
##ign
السياحة
الحص
السماح
Journal
السيدات
زراعة
التحقيق
زين
الافت
##تدائية
التعليمية
تؤثر
##ann
##رته
قت
##جو
خدم
##همية
ليلة
1939
الشهر
خلاف
07
##زايد
استعادة
Car
المهنية
##قيب
##لافة
المرتبطة
إيه
والمح
قبول
حزبيا
مالي
##ماج
الصدر
##اوز
امت
الجي
##خطط
نيسان
الجمع
انتهى
##ong
تكلفة
##برية
##يزات
1959
##نائس
1957
##ضى
البيئية
##اسا
زاد
69
صدرت
##ebr
بورت
1947
كو
الصراع
الاهتمام
Sci
توسيع
فيديو
##ement
##قين
واجه
##BC
يختلف
الجبال
السلاح
ملاح
تزيد
الذك
يقرب
##جيع
تحصل
سالم
حج
شباب
واضح
##زون
تكس
كاف
غزة
كميات
الإخ
الجبهة
ناف
غزو
تدعى
المستشفى
02
سنت
##يسكو
##سمية
يوما
الغذاء
120
##كتشاف
Br
زيد
بالد
##كرت
Comp
ذه
الصحفي
اقتصاد
##يرون
##أثر
المفر
##ئك
أخت
أين
الذاكرة
##اليين
العلوي
Sept
الحلقة
##يسون
الترتيب
غاز
Fran
بطولات
الأطباء
##ثوذكس
القم
مكانة
التفكير
سميت
79
##ًّ
مدريد
##كلات
جهود
##ديب
النحو
##وتو
كولومبيا
شخصيات
فحص
أفكار
إنجاز
أولى
##بون
القديس
السفينة
اجتماعية
مقدمة
الماج
##شن
ترى
##فاعلات
##يتر
وزن
##قاب
##يلد
بالج
وأكثر
كوك
التونسية
##ons
##ادثة
الموجود
مئ
##يتية
الشمسية
الموافق
دقة
الكلام
فيصل
177
تأتي
الهندي
##ober
إثر
##وقات
فإن
المباني
##ution
ماريا
قوي
وتب
كوب
البقاء
##برات
المراك
الموسيقية
##نوعة
انقلاب
تتطلب
##ازل
أحدث
ليصبح
##دان
فترات
المسرحية
1940
الناج
اللازمة
باد
##وائد
بنك
خري
##me
أيدي
09
ألك
دعا
الإمبراطور
المدى
##يدية
1946
##ugust
كه
التحالف
##شم
##يتو
##وهات
##رفي
الحروب
رأى
دولية
قادر
عي
##يمات
##خرية
يعطي
##رفض
##شارة
أبطال
1941
##خار
فازت
##واني
المعادن
##ech
اليونان
وظائف
الروسي
البلدية
سوء
June
Gre
كهرب
اختلاف
تشاب
وتس
لعبت
التربة
##نح
##ينز
كيلو
حمد
اتخذ
الفل
1944
ملايين
التقليدي
تمتد
July
إيجاد
##ates
##tics
1955
السريع
وتش
حالي
be
اما
قضى
رام
##cessed
سد
##ركية
تصنيع
الطبيب
##عود
اجتماع
##يلول
أكد
منظ
##لندية
كشف
140
الأمور
##وتش
مسافة
أشخاص
Ge
الأيام
الليل
##ائلة
اختصار
الدعوة
الكهرباء
##ina
Med
التيار
تابع
لاست
الأماكن
مناق
الاعتراف
والأس
الليبر
##يلاء
الميد
أصدرت
ويم
تفت
المدير
الأوراق
أكمل
المنز
##ated
بيك
الأنظمة
يجد
الفم
الأدبية
\
احتلال
##قدة
##ash
##رابلس
الاد
##خبارات
الشهير
الخليفة
الإدارية
u
أجن
انظر
رسمية
الوقود
للط
##ربين
تقد
عمال
##اهيم
حصول
مرتفع
الجمهور
##ome
البق
الوزن
حقيقة
يبقى
فيت
##كتشف
##ريبي
الحديدية
الفرس
كلمات
تأسس
أخبار
تحتاج
##زان
التفاعل
##داخل
الإب
##اشر
##حان
الكام
الأهداف
المطب
تلق
الألبوم
September
مترا
الجزائرية
قديمة
##عمال
عبدالله
##رط
ياس
الأشعة
##ps
يمتد
##فير
الدست
الأردنية
##que
am
##enti
بمح
ثقافة
##out
الوك
الذهبي
##clop
طبيعية
##bert
الاث
مجمع
نسبيا
الموصل
Or
السج
تموز
الجماعة
المأ
يط
##قيم
أطول
استد
الأسماك
ab
##اذبية
إجمالي
##رمى
الأمة
الوجه
سرطان
##رائط
الأكس
La
تستطيع
الأفريقية
الأت
##ited
مسل
وأم
January
الانتقال
##يدي
##حار
الغابات
وجهة
أكسيد
October
إدوارد
قراءة
##الين
رتبة
السيدة
##عون
##وكول
الحين
##قتل
إنقاذ
الفيروس
ميناء
الحجر
أيرلندا
الإغ
اعتمد
لر
سفينة
الملعب
1930
##ors
##انوي
إشارة
##اهمة
##erv
##وابط
بقيت
مشاريع
طبيعي
##ight
غياب
الإج
جول
وتق
On
##جيات
الكبد
##ere
المجلة
سنويا
البيزن
##صات
واحدا
يجري
الإعلان
الطبقات
أعد
التعلم
##ces
مرجع
المركبات
تمويل
أون
السرطان
Comm
سجن
الأرجنتين
##زف
بالك
اك
الصناعات
الحادي
نال
جوزيف
لخ
يتميز
Man
العدالة
تبقى
مجلات
طرابلس
1936
Lond
##يسيا
والمت
جيدة
merican
اختبارات
شاب
##cyclop
##انى
1953
—
التدخل
ربط
##ram
واضحة
ميلاد
مرس
المصابين
##كتور
الشتاء
##حكم
أنشأ
##اندي
##غييرات
كلما
القطب
صندوق
##اجات
x
إلكتر
##ame
الصيف
الدواء
##زق
الديني
علامة
##au
عسكري
##line
أدوات
ساهم
خمسين
موطن
ومست
##سس
قطعة
القتل
##وقة
تملك
لقاء
##يتس
الفع
النسي
السطح
الأستاذ
ماد
ميس
بأن
محافظ
##قالة
الصلاة
إله
المنح
##بري
واستمر
السكاني
##رسل
أكاديمية
##وطة
Be
ph
كس
لوحة
الجيل
الرسوم
Co
أرج
مسابقة
ثالث
do
pril
الحدث
يناهز
ومساحة
London
الثنائية
##ومين
الأشجار
المجالات
دبي
العظيم
غادر
بالغ
تأثر
فرصة
wh
أنتج
جعفر
شديدة
حرق
أداة
ظاهرة
سبع
##باعة
II
هرم
علمية
المائية
أصيب
حام
المشترك
يشار
تركيز
دمج
الحاسوب
الإسرائيلية
الرياضة
##رابة
تاريخية
خصائص
##احت
الشيوعي
القصص
War
كوي
1918
زعيم
الأمطار
بالإنكليزية
عربي
##وسيا
##طلبات
مسؤ
سلة
لوي
تربط
November
##واكب
جودة
##yn
هب
يشبه
الفكرة
يوفر
الحيوان
أية
المسل
Bi
##خابية
141
شف
حزيران
البلا
الصوم
اللاح
الناز
##وائر
حفل
مديرية
بمس
##رفيه
الإنج
الأرضية
##ews
##مالك
تخصص
الفنانين
سال
سود
##واك
داع
اليومية
أرب
رأي
التوجه
توجه
الإطلاق
##جلوس
المكتب
##اشية
الأسباب
توقف
المكر
المشاريع
##خراج
بيئة
تعاون
الخب
المحم
النتيجة
المقب
هرب
وتر
تحدد
المقت
أعيد
بيتر
##داول
انتقال
الأندلس
محرك
الأخضر
موجود
الاستثمار
##اسيين
معل
شملت
عال
المقابل
##تب
##هورة
معايير
##صح
معدلات
الماجستير
##افا
December
##ملوك
##اقم
طور
##اجرين
الأحزاب
##طلاع
انه
Ass
ميشي
sp
تجارة
##علام
##نش
الأمين
##لقب
للاست
##ugh
ومد
طائرات
ارتباط
##inal
الحضارة
الشهيرة
إيق
##وبين
##اليات
التركي
غل
جذ
سقط
قائلا
برن
حققت
##ماة
##اطير
السكر
##قيدة
مؤقت
الأولي
حضر
Me
us
يلت
تبني
هزيمة
نجوم
أرم
##راي
حجر
التونسي
طبيب
تير
##شتاين
1951
الإض
المشارك
un
متأ
des
##بيعات
Febr
النوم
العلامة
Cam
ابت
##fer
##ولو
شؤون
##هران
اللبناني
كع
الموافقة
und
##آت
تجعل
##stit
طرح
الجمعة
##تار
قاسم
سفر
##اغو
نهائي
تبع
اضطراب
البريد
هنالك
حديقة
القواعد
143
المباشر
شيك
##يلين
^
آذار
يقارب
يتمكن
تون
الرياح
السيارة
نات
##تملة
تقت
زاوية
يمر
شباط
##sy
##فار
منخفضة
صفوف
تكساس
البيان
الغالب
الأداء
Eng
بلجيكا
##اجي
1943
دوران
سلام
إكس
##enn
إج
الكتلة
الدب
##رفت
قادرة
##هري
القاضي
المائة
ماس
##earch
سميث
أقرب
تجاوز
تمام
وأما
الأغاني
##اطعات
البوس
التشغيل
##عينيات
متطلبات
استغلال
التطوير
##pr
التعرف
جنسية
##ومان
المعالجة
##form
شير
الأرثوذكس
المزارع
المعنى
الحلفاء
كاس
February
##int
مستقل
التجارب
تمي
دوق
##ئذ
يشارك
##دخل
لات
##عاع
الوعي
تشارك
يؤثر
أيلول
العاملة
النصر
1942
معسكر
محدد
الإذاعة
##وزي
فرنسي
ناصر
تفاعل
##ارن
العاملين
المالي
برت
##امن
##خير
وبي
الأفكار
الني
والاست
##وكا
لاحظ
مشترك
يعيشون
##ount
عامين
المغربي
##ock
القادر
عامر
pl
يرتبط
##بو
##فرقة
العدو
##نبول
التجم
البروتستانت
##كلين
##وسوف
بدي
أسفل
الصلي
1000
بارك
جنود
الجبلية
الكه
للفنون
##ضير
##طناع
واد
ساحة
ينظر
it
قررت
الأخلاق
تشهد
عموما
العامل
تركيب
الاتجاه
##صفر
كسب
كيميا
الفيزياء
أقيمت
ماء
بأس
شاعر
الضفة
موسوعة
142
Stud
المراكز
##قلية
الاعتماد
##قصى
الثل
الحيو
الذهبية
السوداء
##فاد
النسب
بحرية
ميشيغان
##حوث
ملحو
مرتين
المقام
der
دعوة
##شيح
##لهة
أخذت
التصنيف
تجارية
شن
الال
يعرض
الضع
السرير
المبكرة
Gen
page
الأشياء
خير
الموظ
##لكية
معت
تعرضت
تشبه
توقيع
نمط
زار
##وتين
الأجنبية
الجس
حلقات
التوزيع
##قوب
القطع
الجماعات
خطاب
جندي
وليام
##شفيات
التعريف
ساحل
تشخيص
الشريعة
##ركت
وتأ
##يكس
طرد
1919
##لامي
الياباني
الإرهاب
##غنية
الأطراف
##اسبات
فلوري
الصناعي
الخروج
فيروس
Eur
العاشر
الموسيقي
الانتق
مقابلة
كتبت
##to
أنج
##لاص
بوس
والأم
كامب
تنتشر
الكحول
التوالي
##زع
المنورة
ويد
نحن
تايمز
الأسواق
الكلمات
##يسر
والث
إنهاء
##erg
htm
##ذت
العضوية
القصيرة
##ثرة
الممتاز
أفغان
تشجيع
القارة
حافظ
فروع
الأدوات
رمز
يتمتع
المعاصر
الإيرانية
##تالية
الصباح
صعوبة
الكندي
تبادل
العرش
مقبرة
##ضمام
التوق
وأع
قاعة
تقويم
الحوار
مماثلة
##oph
عنصر
الرسول
الابتدائية
حدد
##لقاء
مطب
حاز
##وسيقى
يقال
##lin
##ke
##ورم
##ندسة
فان
اختار
##كتلندا
الاط
##ائح
الدبلوم
غز
تلقي
الإلكتروني
##iction
##ale
##ope
##وميدي
داني
الألف
البحري
بقايا
القانوني
ad
حدثت
أفغانستان
تركز
##ييد
##ance
كوكب
##ملية
National
##كرر
Book
النهضة
يتراوح
أيمن
جورجيا
ap
##فيلد
نسب
##se
وأش
ويب
##وجل
العظام
فعالية
الحقيقية
##ety
##orn
يهدف
الربيع
خليج
يعاني
##ft
تنمية
##ox
الحف
تقنيات
إفريقيا
##ابيب
##صفات
ترم
الأصغر
روي
##ئمة
جسر
وابن
تقل
ريك
Gl
##صلحة
مراجعة
##ارو
الطويل
الأنسجة
مارتن
##are
##iam
دستور
المتوقع
##امرة
المنصب
الدخل
كتابات
##طينية
مبلغ
طراز
مبدأ
اغتيال
##اطي
البسي
##omen
المعايير
ربيع
المقدسة
نساء
er
1938
تنص
الأموال
الجميلة
وكن
الميث
##ويب
سري
تخزين
الباحثين
##اجم
بوب
للز
##يزا
أط
هات
الضرائب
##كسي
ugust
بلدان
##فادة
سمي
مولد
سوس
قليلا
الملابس
##ميل
العذ
قابلة
السوفي
الناتجة
المتوسطة
##وطات
عدا
يقل
الحرم
##isc
600
للقرية
##ليت
المجر
فنان
الجمال
المقارنة
Sc
وزراء
##ئاب
##ريز
واخت
البرا
براون
التنفيذي
##old
No
الأخبار
المسلمون
##كلم
التخلص
##مى
أوراق
عالمية
موسكو
##erm
وعد
##ارسية
الألمان
Go
فش
وما
تدفق
##duc
##ظاهرات
##ics
أيار
الزجاج
##يطان
ill
مبادئ
واع
##اريس
مبكر
##سيوم
1933
منصور
باول
الوادي
استبدال
176
أطلقت
إضافية
يأخذ
Volum
الانس
هاجم
الجان
صلى
##اليف
المهم
أخيرا
##ett
وجم
##سيطر
1934
وافق
إدخال
القلق
الاشتراكية
سيرة
Qu
الإجراءات
##طوان
سحب
##يقة
شيئا
##ise
التغيير
##لعاب
##صيل
1914
طبقات
بذ
يضع
##ings
الشعوب
##ئيا
البعث
##عان
ريال
ذك
يشغل
##تمرات
##شات
عالي
الناصر
السفلي
لابن
محاولات
السد
##ليلة
##port
تتعلق
التخصص
المساحة
##eral
شج
##يفر
##شام
لعل
أرد
استقر
بسيطة
هج
ملوك
رسوم
##وائم
الإع
المشكلة
##شين
لغات
ديوان
سوري
مطل
المناعة
ألماني
السرعة
##ick
##اقية
نشأ
مهما
تحالف
الرباط
الجر
يحدد
##طوع
بشكل
عادت
حوض
##تصاص
تكنولوجيا
السماء
z
تبعد
حظر
يصف
فتاة
##one
أساسية
##ica
المقاطعة
الشرعية
الآداب
القراءة
مؤسسات
يكتب
السائل
النجاح
تغطية
Har
##ريه
1937
بعيدا
1922
##فيفة
سيب
##rad
توليد
الكنائس
##قسام
آلة
الإقليمية
انح
التشخيص
130
سما
الرحم
موضع
البكالوريوس
بوم
والبي
##ull
##uman
##ادين
صغار
غرين
الميكاني
##وئية
أخيه
الأوس
الفرع
الكلاسيكية
التاريخي
غالبية
الفلب
اضطر
وذ
الأسبوع
إك
دق
ويلز
الطويلة
Dav
##كتابة
منتج
##يزي
تخص
مرتبطة
أمل
##واهر
برون
##دو
##rig
العكس
النصوص
شيوعا
##مكن
عثر
ماكس
##عمرة
الأمام
##جلات
دفاع
سورة
مئوية
محلية
الفار
يطلب
مغادرة
اللاعبين
يتع
101
البكتيريا
##ياغة
مركب
اللاج
الفيزيا
قريب
النقاد
##حقق
كفر
دينية
شعار
الكيمياء
##sch
سج
Will
##ربيجان
الشيعة
الصيني
الاستش
##يغ
##نون
شجرة
هيا
أسرع
الصفحة
##بول
الحرارية
##ren
##ائط
أبر
مقد
##تصاب
الجزائري
##ابرات
وبال
التقاليد
أوغ
الحرف
##ركاء
المضادة
الرسالة
##ضات
Ox
##ther
السادسة
Encyclop
الشف
##قرة
كافية
ميث
138
مطلع
المحرك
خلص
1917
متعدد
##شستر
125
لور
جب
إنج
البروتين
##مرت
الإيج
دبلوم
خسر
القذ
اثنان
مكناس
ديل
العدل
مستشار
بوش
قوى
السياسات
الناق
متزوج
العضلات
##فيدة
نح
رين
كمال
شو
وسام
يقود
الهوية
##فاضة
##ليزي
سلامة
الدائرة
##دام
تلت
نيل
إثبات
الجهد
خليل
سمح
أشرف
الفردية
تبر
أزمة
المغناطيسي
##طبة
##oy
سلالة
##بيين
تحف
نجح
##ردية
سعر
التقارير
##كنة
الملح
مدافع
##ai
##itt
##ral
##خصية
الكمبيوتر
واصل
مشتركة
قديم
ملكية
الأصوات
##تلر
هيكل
ازد
##صابات
مظهر
##لاغ
1931
الكاثوليك
##iel
أساسا
الشديد
تزوجت
اعتقال
صيف
لأس
المتعددة
sh
##البة
معاني
متابعة
##صرية
بز
160
##قيقات
تقارير
المخدرات
وكاتب
المخاطر
سيم
##row
##ويف
##كونسن
##ife
##ماش
##وديوم
وطنية
##خري
Bar
جنبا
##بعاد
أتباع
مبارك
الجامعية
والعديد
##وكو
الغزو
نقد
ولل
##ree
##ستاني
المطار
العاط
السلع
##istor
شرف
تحولت
تخت
الزاوية
القس
الشعراء
##يدت
النور
الأدلة
##act
ودي
##طو
عشرات
##شلونة
أنشطة
إغلاق
##رقت
rch
نصر
تحديدا
##fic
دب
##هايو
راف
جهد
أسابيع
سافر
##ames
ملف
##زيج
الجائزة
##ايدة
1932
السح
الغلاف
##بوب
دن
الأطلسي
##دفن
##alth
اتصال
##ضب
1929
##وسا
استن
##يض
النرويج
##ous
ويسكونسن
تنتمي
حمص
أوهايو
##30
تنش
تتمتع
مسألة
المصريين
he
139
تكرار
التقى
الفلاح
##دن
الار
ويح
أولئك
ولادة
##وبيا
الحيوي
نيوزيل
داف
جوانب
##ger
##اديمي
##قرير
سراح
##قس
البخ
جدة
الابن
التجربة
##وايا
##تلكات
أوف
##دفق
متح
المتأ
##راثية
##اهمت
المنازل
##ound
رصد
##جام
المحتمل
الفرنسيين
ضرورة
##ويدي
##نوع
كرا
يؤكد
الرج
##طوي
سار
جعلت
الاستعمار
المعماري
مقالات
الارتفاع
الكوم
##صي
##10
بوين
النمط
إثارة
خطط
المساجد
لائ
جا
Mc
منه
1935
فو
رغبة
##سع
تلا
سهل
الخطر
السنين
##ضاع
يشترك
مهام
الفضل
محطات
يخرج
الوجود
##سطن
التقنيات
##anc
زع
##ents
محدودة
قيم
لولا
##able
##وظيف
##اكا
ell
متف
ضابط
##mp
##عمرات
أقسام
مؤلفات
معجم
##سندر
الخصوص
الشيء
ملم
1925
إحياء
٬
الجرا
##ماض
لز
يستمر
##فاوضات
سابقة
الأزرق
اليمنية
الأقصى
بنتيجة
الفصيلة
أعطى
##we
##ودين
الألي
سينما
لمح
##ؤال
لام
بجائزة
هبوط
يمنع
مراد
امتصاص
يعقوب
النسيج
البو
مستخدم
##ley
##ياط
دولي
المفتوحة
1921
##افس
الصخور
إحص
جرت
فرص
توصيل
##ذاء
تنتهي
الاحترافية
يوح
اللقب
##ection
معبد
جرا
رفضت
ابتداء
رسائل
خفض
المذهب
الخمسين
الكهربائي
اللواء
شروط
التقد
الكاملة
تسليم
البرج
ضوء
وري
عمق
التزام
أثبت
الأجسام
طل
الأدنى
جغ
يدل
مخرج
As
##يلو
بوي
فهد
الألوان
مناقشة
##af
القريبة
وضوح
الجامعي
par
هجمات
الجريمة
##زيغ
التحت
##زز
تام
الكول
##هوة
أوت
##يرت
الفساد
المعارض
نائ
بالش
محترف
يواجه
1924
الوزارة
الأكسجين
تأخذ
فات
أقوى
فلما
رؤساء
جبهة
وثيقة
للبر
خض
#
توفيت
وسب
1923
الرحلة
شيكاغو
ضخمة
المستمر
##ينج
انع
توحيد
بدايات
فصيلة
##ريدج
إمكان
##uss
that
الاشتراكي
##صنة
استجابة
##صرف
أعقاب
الدولتين
الثابت
طبقا
الجناح
##ابا
أوكر
##وادث
منخفض
تتمثل
الصلب
الفضائية
Oxford
800
137
المسب
سول
هامة
مجدد
##اليم
بنيت
التشريعية
مشر
##رائية
مقعد
إمارة
أعظم
يربط
175
نواب
البصرة
دان
قاب
##ler
##يدين
انتق
ثل
##ائيا
##رفع
العادية
التعرض
التغذية
الوظائف
لواء
الخطاب
النقاط
##لر
واشت
##رحت
##خان
##sych
##اضرات
الحاضر
Mon
##مائ
##كتورا
أساليب
الأندية
مدخل
حينما
##tive
##بيعة
عروض
جرى
تهمة
بالله
هوية
ظلت
المدف
الرسائل
رشيد
الهولندي
##ks
المئة
الحبوب
الوزير
الأدبي
##منت
الانضمام
وتط
1908
الأجانب
##rac
شمس
تجد
ألفا
مزيد
الهلال
مناص
##كات
مظ
134
##وريد
سلا
والبر
التحول
الرصاص
الهيدروجين
صحي
بعمل
المستقلة
##راوي
##اشي
حظ
بنس
تثبيت
الاتحادية
##ari
طنجة
##ذن
##غد
الشخصي
العمارة
تولي
آلية
الصرف
صراع
##وقرا
##file
##وريس
التمر
النظم
نوعا
##رجينيا
الشرف
روى
الشعور
##سو
مهاج
علامات
قانوني
الأوعية
الوثائق
##قاعد
الحركات
##عزيز
ثابتة
جريمة
هاجر
اسكتلندا
خش
1928
إيقاف
المخابرات
رش
كفاءة
حكومية
الاتفاقية
##انز
صرح
##كوك
All
للمع
الموقف
الصوتية
##ارث
##دوز
وام
مصنع
شخصا
تستمر
طارق
##راكة
##فيض
روايات
اضطرابات
الاعتبار
##ax
الاش
الفلسطين
##وقي
الإبد
للغ
الحربية
المهندس
عزل
بوابة
والشيخ
المنخفضة
##الحة
السلف
ملاحظة
سور
يشعر
المناسبة
دلت
المهاجرين
##ادرات
المنافسة
اللاجئين
وسل
العادة
برشلونة
##زيلي
الاستخبارات
لتن
هزم
ونا
الحرس
البرلمانية
تجارب
التمو
سكن
السابعة
##ae
منظمات
##ادى
##فردة
##lam
##ظهار
كاز
الطلبة
##stem
##فيق
نع
##براطور
الطوار
المقدمة
##غوط
الاستقرار
الجذ
بضعة
الكات
وشر
Int
تقيم
أسعار
الأسماء
السوفيات
##اسيا
Ger
ريد
ويك
كح
##ديلات
سريع
تمييز
##يناء
فيتن
الأشكال
Soci
روك
يدرس
id
أضاف
كونغ
أعوام
الخير
##طيف
تواجه
فنلندا
##سيمة
آدم
تكشف
المهام
##ديس
فريدة
المرشح
##ature
أثار
##غرى
ستان
شا
ايضا
أعلام
ينتهي
##ناطيسية
cl
جنيه
عالمي
web
والآ
##دمان
110
النفا
الطالب
قصيدة
##جموعة
الخز
وتسمى
معارضة
##وفيتش
بوك
وعل
حصان
مشاهد
الهامة
الواحدة
ديز
##زابيث
##وفرة
وعم
مكونات
ند
لنادي
بدل
الهجري
##بق
الجودة
موافقة
##سبورغ
الغز
نوبل
البتر
الشارع
المؤمن
135
تذكر
##غراض
صلة
حديد
شارل
الورا
العقلية
التطبيقات
حصار
الحكومات
قدرات
##قدام
تحفيز
بيو
هياكل
الخصائص
بعثة
قصائد
جونز
الحرار
الوكالة
Mod
##هيد
رو
صيد
المكرمة
الاستجابة
حديثة
التسجيل
قابل
تري
شمالا
الجزي
التعداد
##ذكرات
نماذج
التنوع
المثلية
اقتصادية
##قلت
التنفس
##ركي
كتبه
اخ
للأش
دقائق
مصرية
الاحتج
موز
##ستا
الوع
شائع
نيوزيلندا
##فان
قنوات
المساعد
##شو
بعث
خال
المسافة
البوسنة
مقال
الأهلي
##ictionary
ومل
احتجاج
وقوع
الرقمية
##تهم
ينتقل
##وقعة
أوك
اليوناني
نخ
الصعب
##ott
الكويتي
##جمة
##قطاع
##هرية
##ربت
مبر
##خلق
جلب
أحيان
زملاء
##خصة
##واتي
1927
##فون
الكهر
##ages
##يمنة
ممر
تغطي
مخطوطات
جرائم
##ثبت
res
Ne
المطر
العيش
مقالة
##ابير
ملحوظ
الملوك
الثقافات
##ner
##وارزم
نجاحا
الغذائي
##نسان
منفصلة
قلة
ذروة
بمر
البير
الإح
مفرد
الترجمة
##وسين
ورا
##ورث
im
دام
##انين
##att
أمثال
الأسد
أدوار
تدعم
Fl
##صورة
أبيض
كوين
رئيسة
رون
تار
القائم
داود
##وستس
لوح
عقود
الشاب
وجيزة
الكيميائي
##onom
ولك
##ولاي
يتعرض
معم
الأردني
##اطمة
اليمين
خوان
التلفزيونية
##ستين
ملت
بارت
شاهد
قريبة
المستهلك
سعودي
اختراع
كالي
المؤقت
سلف
القليل
جراح
بتص
ديك
البند
تعليمات
##فتاء
##ابون
##فاوت
لائحة
توث
عاز
الخال
الصلة
تطورت
أذربيجان
##واحل
تعادل
cont
اللاحقة
السينمائي
فندق
الفردي
##وجة
##يدو
فهم
ماج
عرضة
الجهات
##oll
الأرمن
خب
Soc
اتهم
تواجد
المناه
##40
جرح
جوجل
الإجه
##ute
يعلم
السري
الجينات
أوب
محف
رومانيا
المجمع
ملح
##ridge
##طفل
##كتر
قانونية
##ويج
##irst
ينص
خريطة
##سكو
Nor
170
الأنا
والمؤ
المتحركة
##جلد
الكندية
##شك
##قن
##ظيمة
حمى
خروج
الحميد
يتجاوز
##سلم
##انيوم
الهجمات
qu
أنجلوس
قس
الطول
رص
تهديد
قرن
##زيم
جس
##سجيل
محيط
حاج
يترك
منازل
تمر
تسعة
الميت
##لوا
ضبط
الاستعم
الجغرافية
الفيل
الممر
##لاحظات
الدنيا
##زما
رف
سلمان
الزيتون
سيت
##فذ
وتص
خارجية
##air
##رقاء
الفتاة
1912
جولة
البري
مرتبط
بود
المعارك
##ائهم
تتألف
السباق
عبدالعزيز
يجمع
سنتين
تفاصيل
##جح
سفن
المعدنية
##راعات
Wil
السلم
الغناء
مسؤولية
##خوذ
بيس
استكشاف
فرس
ترجم
##12
فيتنام
أعاد
تردد
الرد
تجديد
مشابهة
##ذف
ثلاثي
1926
الدفع
##sk
##ليز
ألبرت
تربية
مقياس
المعمارية
##كمل
المتع
قرابة
##وائف
السط
الدراسية
Cont
اليو
هتلر
ياب
الغرض
الهيكل
الإجمالي
النيو
الأفريقي
##der
فنية
نفوذ
##outh
##تمدة
المنق
الصالح
غرض
نيوز
هارف
المعارف
حتي
##ذكورة
رفقة
احتمال
مساحات
المادية
##view
الصار
##وضيح
النسائية
الفلسطينيين
الرقص
##مائة
تدريس
إجراءات
##80
##evel
عرضت
##اهير
العاص
##زلة
ومص
##يشن
خز
##tiv
التحتية
ميدان
أبواب
الخضراء
تين
صحفي
جميل
زادت
شرطة
هندسة
البور
##ater
تأمين
وانتخب
الخشب
الزعيم
الخلافة
الرؤية
Mus
rab
للأم
الريفية
ثانوية
##60
##ink
بذور
علاوة
وفر
بالب
الصوديوم
##هولة
##ography
اليهودي
##بيك
مساء
القرون
تنسيق
احد
السكك
فيينا
##شال
التسمية
صب
المالك
##amp
العادي
was
##rib
##tim
اليمنى
##فعال
الأعظم
طيران
##حمل
Her
net
فرط
ويش
كاست
مؤخرا
فؤ
##قان
يوميا
##rim
##يدز
##اليك
مقات
يحقق
##دارة
تحقق
تسعى
يتناول
الحضرية
طبية
ودفن
يسوع
##لاميذ
تايل
داعش
قم
##جهاز
##قراض
جسد
إسقاط
Se
المعاصرة
##بتون
أدلة
والتر
الجوائز
##مات
نيج
عموم
نادر
مركزا
##inc
##ريضة
##غام
وأل
توقع
##ديف
المراه
رحلات
الثقة
الكال
الروايات
رؤوس
الفحم
##نو
##اهدين
الراحل
المعالم
الظاهرة
##وزان
سحر
الاستفادة
##اقي
ريف
استقبال
روت
الترب
##رجاع
الكف
##حام
مدين
##احبة
الشائعة
أصدقاء
##قوق
سيارات
هاري
نار
عادل
##طعمة
تشابه
##كاثر
صلاة
المحور
‘
المبكر
جيف
الكث
الهاتف
بتع
الخضر
Science
الفكرية
سياسات
olog
النحاس
القادمة
##بورغ
بمن
رحم
امتداد
أوكرانيا
أشعة
Ho
البض
الفور
تمنح
المستشفيات
خطأ
استهلاك
Internatio
الانتخابية
تضع
مركبات
الأرثوذكسية
نسخ
غاية
يدفع
المحليين
شرط
اللف
الذرة
النارية
##هوت
##eter
أعم
أسود
We
ومش
مرضى
تراجع
الجراحة
التقرير
مالية
##اسك
جنسيا
دفن
##olution
توي
ساف
تعطي
المول
132
معاد
تعبير
تطبيقات
##اكو
Instit
##كرم
رضا
الكونغرس
##وتون
##ثمر
حامل
أحكام
الجهود
الانتهاء
##اساتش
الماضية
الهد
التسع
المتقدمة
الإث
المعدات
##كف
##بدل
الآلات
سكوت
الزمان
##own
##ائت
##شفت
##وديو
صنعاء
كوبا
##باي
مفيدة
مواطن
الساحة
البروتينات
التجار
الأميركية
109
##aj
##ايل
##اشات
انط
القاسم
##ert
أسر
الجين
مهاجمة
اللم
الحادث
##وسيه
تصرف
الخلفية
##ناز
بلاك
المركبة
##غاف
##قيد
##ذان
Ev
أرس
تيار
ag
زميل
Off
هشام
جونسون
أنس
تشيلي
##اندو
الصحيح
##ix
##جازة
##باس
الكبار
##باين
##اوف
##دمج
##اليون
الصادر
ازداد
الإداري
##ticle
تحكم
اقتراح
جدار
مخطط
المسؤولين
سو
##رادة
##طيل
استئ
الجدول
##قلب
أخر
##رأ
##ئيل
الموظفين
تسب
المرافق
وتد
##سلسلات
غام
فؤاد
الرشيد
الشعرية
المشاركين
##NA
مرج
أنشئت
انتقد
للمن
الأعصاب
##شى
##ندسين
أجرى
يقلل
واعت
مستمر
فاعلية
بطرس
جيدا
تعاني
حقل
لاعبة
تجري
##سرطان
يدي
الصل
يعملون
المراحل
##hem
بثلا
##صرة
تضمنت
السياحية
##يال
مريم
Review
الشح
انهيار
المناسب
تلقت
يكفي
المباشرة
السرية
##غرق
##وهان
تأهيل
أشجار
المحاكم
##ائقة
منق
بالخ
1915
الاقت
وتعني
هيدر
الحشرات
##16
بمع
للإحصاء
##ium
##تمردين
المعرض
Can
التمويل
##يونية
الأغذية
روج
Gro
تزويد
أقام
يمارس
السوفيتية
الهولندية
ورقة
##حدر
##وفات
إسط
المؤرخين
اكتسب
الجماعية
##هرج
يحد
شائعة
صل
تجن
حوار
المنطق
الظهر
مشارك
لوحات
تحوي
الكويتية
لفت
وأب
قالوا
##يوط
du
لاس
ميون
الوهاب
##تة
no
كبرى
لوصف
يورو
أموال
إحداث
##يمين
أحاد
المفهوم
تنوع
الأميرة
##فسر
صحف
الأتراك
##وزة
Alps
صدي
تحاول
##ليمة
قصف
مكونة
القرارات
##صت
اطلع
علمي
##صدارات
فاطمة
##والى
##يبا
وطن
الانح
صفر
كرب
Per
والتاريخ
الخش
الصغرى
الباحثون
105
ستار
مناه
##iter
المركب
ماساتش
الورم
##عن
مسقط
الممثلة
##طرت
وصفت
القمح
النهار
##نعة
الخرط
حقيقية
العملاء
جلس
بروك
##ؤل
الخطة
المقات
الكار
الخيرية
##نتاج
##كتئاب
العي
700
أبدا
الأمنية
##sp
##tions
1900
تبدو
ميكاني
##رياض
فعال
السريعة
المحاصيل
##ريحة
تمكنت
فلسفة
العدوى
المطلوبة
عقدت
كلام
المحطة
المهدي
المستوط
##ائم
##طلة
تحتل
المتاحة
عدن
html
قتال
##طم
موه
1910
Trans
الجسر
اليسار
الفتيات
##وسوفت
الكن
سنوي
https
بنات
عاص
الخمسة
مناخ
##ماثل
واحت
وتبعد
المطلوب
David
أشارت
الإخوان
حن
Ec
Min
##ural
107
حديثا
av
##كلي
طابع
مناصب
مواقف
##قوس
احمد
Sm
طاقم
بتر
##لاقي
والمد
جذب
الهرم
مواسم
##كروسوفت
##زاز
محور
Europe
##دامة
##وريين
1916
Die
تسع
Human
الفيدرالية
##افيا
تركي
الاند
الحصار
##ene
##ogle
أبا
فقر
غضون
متك
الابت
##كررة
136
لتص
التوسع
الفتح
الاعتداء
1913
الباك
##اهي
الاضطرابات
co
##تمان
الاف
##درت
وجز
حادث
صدام
نباتي
##فور
##يرك
الكواكب
المدنيين
##red
##رابط
##ذى
##رتين
للآ
الوقاية
##ئل
وكل
عراقي
##ays
متوا
##هرت
نوعية
##وكيو
إمد
موجة
##سكا
القادة
##ark
##ليان
حبيب
سياق
102
لتع
Mich
تلفزيون
فريدريك
المكونات
##داقة
رسومات
كريم
تاريخي
##عدد
المقالات
US
الضباط
عوض
احترام
الجنسين
##ثا
##وزن
##بساطة
الجاذبية
##افلة
##حض
133
متع
Inter
الغرفة
##ونيو
103
doi
بالز
أحياء
الأزمة
الأسلوب
يدعم
البحيرة
الوسائل
مهنة
وأور
×
الرقابة
128
##por
الضرورة
##جأ
أهالي
الغدة
المرس
##sc
أمور
الحقبة
اخرى
ورم
الزراعي
لمع
النبلاء
##وبان
الضرب
للمست
##يلا
##صلات
750
الفشل
الآلاف
الفرصة
174
##فالات
مقدم
الإيمان
الجسيمات
أخرج
كونت
الفحص
مرتفعات
##اتم
##نبلة
ليو
حسني
يتألف
الذكاء
الكوكب
الشوارع
يسكن
##evelop
نزالا
الطوارئ
لأفضل
يبحث
متخصصة
إيز
##ريجيا
##اجئ
##ضال
##ظى
##قدرة
اعتبرت
جميعا
Camb
أولم
والي
مائة
القضائية
محاربة
##ائيل
##بيات
##جعية
rel
##نيطرة
الخمس
##ative
محمية
ماسة
فلوريدا
Er
##هامات
لتش
بالض
##بطال
ويسمى
##وئي
167
ورد
ورق
جذور
سيدة
الصعيد
التغيرات
البضائع
##نام
ضحايا
United
السيرة
بالعديد
##pen
قرون
ثلاثية
النازية
وأيرلندا
المذكورة
##وفاك
جلال
الاز
القوية
مرشح
الثوار
##li
##حوا
دورات
يذهب
129
فوج
Web
مفتوحة
المعلمين
Encyclopedia
آم
المدرب
ns
منس
معالم
المبادئ
##ury
##صري
الكاري
الثمانينات
##كاك
BBC
السين
Sec
الفارسية
للجد
الساحلية
أنصار
الفرعية
استش
الليبية
##ونسو
انتشرت
الجانبية
والدراسات
الأسترالية
##خيرة
إليزابيث
ماساتشوستس
بالبل
الوليد
##هو
Mag
##كتوريا
البيع
مكسي
قديما
إنجازات
التفسير
الكورية
##ضت
تنشأ
تطوان
الأزهر
##رنج
أطراف
##املات
##ترات
##وبرا
اعتبارا
##وريات
ثنائية
##res
التناس
الموسوعة
##ata
طفولة
Dictionary
##لقاب
فرا
باحث
تصور
القدر
كوست
القنوات
##غاني
##ابقات
يكونوا
##ery
##قتص
العج
جدول
Society
##قطاب
عارض
مؤشر
متوسطة
فرانسيسكو
1911
أقر
ربع
##وميديا
الترم
الزيت
كارول
موارد
Pe
##تمال
بنا
فاست
الامت
##فرع
الخميس
القت
تفوق
والمر
##ank
نتج
فعالة
العموم
##ادو
##قتين
تخضع
خطيرة
الظهور
البريطانيين
معلم
نان
التشك
لما
صحية
اخر
كارت
تنتقل
معارك
المرور
اندلاع
والهر
السنوي
كارلوس
أحاديث
149
بسيط
الأحد
يعادل
##وفق
##ريجي
يوحنا
المعبد
العثمانيين
##كيم
##ict
##ضبة
التنفيذية
##اصلة
البالغين
##امع
زيت
عالميا
السياسيين
اجتماعي
It
##ويك
الهادي
الألياف
العلامات
##هايم
بانت
تحميل
##راءات
النسبية
جيب
##وبول
##شط
يسعى
##قياس
##any
يحكم
خسارة
##اكاة
سكنية
##طاعم
احتياجات
عظم
شيوع
وارت
توثيق
نادرة
##11
##اقب
ro
##بيع
إنسان
الى
برك
الرئاسة
للمح
##نيك
كلف
أنماط
##بور
أصوات
بابا
المباريات
155
الشرا
ونج
إرهاب
محتوى
وعالم
##مز
##ماه
##tian
##اضرة
##عارض
تاب
التى
سرية
ضباط
##راقب
درست
ويف
صفات
Ber
Rec
شرقي
##ربيا
مسح
الشاملة
115
سمع
الخرطوم
القنيطرة
##قول
صياغة
اشتهرت
العرقية
not
والمست
رع
##اهية
الآلهة
المعدة
تكاليف
الطفولة
الأرز
##يعاب
وار
المبر
تخطيط
الجولة
الاصطناع
أعمار
##وموس
مضاد
يوغ
##انيون
واقع
حت
##مكان
يدور
راد
ملابس
حجة
تقام
سح
محامي
لانت
الحجاز
159
127
الخس
##ave
##ower
مهندس
##ارئ
طبعة
والأش
مزيج
164
قصد
1896
##ington
##pt
فتحة
##ربول
المهد
البرون
ليك
الصلبة
##atis
الجهاد
النماذج
##طاف
المدخل
وقر
الفوسف
الإعدام
##هنة
##قالات
هونغ
الهاش
الدستورية
##غور
تنقسم
المقرر
والض
##كز
تلف
قبرص
الجدار
البخاري
##هاجم
تلفزيوني
##ياح
الفات
تجاري
##بعاث
وزيرا
تولت
فح
ميج
##وغرافية
##يكوس
ساهمت
##باتات
##ruc
يفعل
الهضم
مبادرة
##كاب
يصدر
مانشستر
أضع
المشهور
وايت
إعلانات
##ياف
بابل
104
##وسطن
تدريجيا
##site
تشتهر
انتهاك
##تقدات
الانتشار
حركات
رياضة
استقالة
##على
152
لفظ
جناح
تسهيل
التهديد
البرمجيات
بنو
نصب
##عدين
الجنين
المسابقة
الواضح
##يما
رموز
العروض
المفترض
978
بريت
منفصل
##بعث
لخص
للمس
المواقف
شح
الميكر
البدء
التلف
البصري
##بيون
##وامر
النجف
التوجيه
##ويش
طويلا
والبل
الشهيد
ومرجعية
الفط
Women
مزدوج
ويقال
##oss
##fl
الريف
منحت
الاولى
##AN
غرار
المتخصصة
ووجد
Psych
##مثل
بارز
الجلي
##زمات
هكت
##نتي
vol
William
##oth
##اسفة
Bri
خوسيه
مرتبة
Publish
##غت
وتحت
الرئاسية
الممارسات
##ونج
##وقية
غرف
الشاف
الويب
الأفضل
إيجابية
##زى
راج
أجرت
ستيفن
المشاة
بصر
الصه
بيتا
النقي
التأكيد
القرنين
خطوة
الروس
##دب
بوز
المظ
الكالسيوم
##اذا
157
السبت
القمة
جراحة
الشيوعية
##يرس
##يرلندي
هارفارد
##اكهة
يؤمن
برو
##اقد
153
سيناريو
ساوث
أدب
واب
الاستم
السلامة
ust
الاختلافات
أمتار
متخصص
اللوحة
الصحابة
الجليد
##بيل
##ران
##ular
تاج
التنسيق
الفيدرالي
مميزة
##ديك
##ستن
Pa
انخفض
الدوائر
الحرير
##اردو
حدة
وخط
لتر
افتتح
خلفية
مرتفعة
Cambridge
لآ
##urg
السكري
##emb
##ابلات
مذكرات
##وفين
تخفيض
تحديث
مضاع
فهر
البث
الأحكام
كذا
accessed
الحجري
داخلية
ولايات
يتولى
الفائز
##ضية
106
118
كينغ
تستند
التأكد
العيون
بعيدة
الشروط
الديانة
تلبية
مهارات
##mer
أسست
بروتوكول
up
نصوص
##دعى
آراء
ويندوز
##انيت
مسعود
au
رواد
ميلي
تصحيح
بضع
مجددا
ضمت
State
تمكين
صم
##14
بيضاء
النقدية
درب
الرخ
الفضة
الثم
تمنع
انضمت
history
التوازن
ترب
جزئي
التجمع
##ker
باله
Times
##تميز
تتواجد
##لون
مدف
ويو
واستطاع
راشد
كيم
التغييرات
##وتس
##راقية
النزاع
ومز
##نود
اشتراك
تكت
القوم
التسويق
المتظاهر
165
##انه
##غلب
التطبيق
وشار
117
الفلبين
وأف
يحب
القياسي
الصواريخ
شريف
المميزة
##de
أسم
الظاهر
محاكمة
يتواجد
التكلفة
فكر
للغة
الساق
جوني
ساعدت
##فاصل
الصندوق
}
هر
168
مند
الالتزام
شين
صدور
المخطط
$
##طهاد
للتص
تتجاوز
موسيقي
اتجاهات
الفيروسات
Eg
الحسيمة
اق
والجن
الاحتفاظ
دقيق
formula
الكرب
هال
فرح
الحكومي
شغ
تاف
1905
##قراطية
##eph
##تدة
وعي
الأوائل
##صدق
التاسعة
ميلان
اعتقد
اللقاء
الأهمية
حروب
إداري
الخوف
منط
أخبر
##حيل
##سيل
البيولوجية
ده
رياضي
نابليون
##اطف
##ساوية
##15
مدرس
التحويل
172
##ana
##كري
وتج
مشاهدة
التأمين
##كك
Ele
كيب
1899
##يتام
##درائية
##طوبة
كيلومترا
المشاهد
الستة
البحار
##طيين
كوميدي
إسلامية
169
ميكر
النباتية
##قاليم
الأعداد
Research
ترشيح
تزايد
موسيقية
##غول
ألوان
وول
جدران
##هت
لمر
بطاقة
اتفاقيات
بعل
حبي
للض
محركات
وتاريخ
الباردة
المستشار
173
توج
بوسطن
الحديقة
##زه
##ision
لاف
الترفيه
##اخرة
166
ess
##بح
تؤكد
نفت
يقومون
المرح
##رجي
مخاطر
##دونيسيا
حاولت
بنى
انتصار
##يند
##AR
تزداد
البسيطة
Pal
قوم
##erson
##ext
##بوت
وكثير
ind
هجرة
جميلة
الخيال
العنصر
ألمانية
إسطنبول
القياسية
##لان
التردد
حفريات
##amil
Lib
وتف
##oot
الملت
مصلحة
الثروة
##وافر
German
are
حادثة
شرقا
كشفت
الإت
مشوار
##ره
مواصلة
del
البدي
مركبة
مشتري
الطراز
البرتغالية
##اظ
me
إتش
##بيقية
طوكيو
الاستيلاء
ببساطة
رجلا
البوذ
الغازات
##راضية
ذاكرة
والتع
الأرقام
##اءة
##ردام
123
ترح
موظفي
النظريات
##نيوم
سرير
نجحت
الجاه
المعاهدة
عج
صفحات
##بكي
السلبية
##صطلح
المراقبة
Volume
إسحاق
لأب
المخل
المور
القبيلة
##علان
فني
المحتوى
108
orig
والسل
تأثيرات
الاختلاف
##ورى
عاشت
القوي
لأغراض
الطابع
##ets
##سيس
احتلت
الحاكمة
##درجة
أسهم
للإشارة
##lish
##نتيني
جملة
أوقات
ذاتية
معارض
النسخ
##تحت
156
مثلت
هواتف
##بؤ
##عمدة
نيكول
رياضية
البارزة
مخل
القياس
##17
##gan
تاك
##ثمارات
##هرجانات
الاستهلاك
وبد
كورت
الورق
خسائر
داء
نعم
122
المحددة
##راوية
الضخمة
غريب
الطرفين
مكعب
مفتوح
يقيم
استيعاب
##19
قلق
مصد
التو
Mor
هاشم
توصل
الأسطول
سوبر
مديرا
المهني
السفارة
ev
وطني
##صاف
##صيب
البلج
جاكسون
##اتا
أقدام
##افل
معامل
البصرية
##نافس
القليلة
ترجع
العقود
##قاق
##سبير
119
يهودي
CO
محلي
واجهة
##13
##طيني
النسوية
سعة
مهد
مفر
##اسيوم
وعمر
الخطأ
##تس
##ممة
عس
البلدين
بمحافظة
##هيز
تقي
##هلة
الدهون
شريط
طبق
مبد
يعبر
تجنيد
ild
الغال
للجدل
Associ
الرغبة
##وارب
##ودور
Books
##يلان
Histor
البيئي
##يعي
المنزلية
الوص
طلبت
الموحد
##هداء
جنوبا
الخبرة
##تيبة
##so
الأض
يخضع
التنا
المنس
##اتين
الإدراك
113
توت
سطات
الوراثية
سيس
ثمان
عزيز
se
أكدت
إبادة
السويدية
بدا
نزع
باري
يهتم
تحريك
قرارات
صنف
متى
وانضم
##ll
غرام
##ظيف
##اقبة
يحضر
تقاعد
ريو
جزيئات
ديب
أحسن
وأحيانا
آيات
الفرسان
بأمر
يرفض
قلم
كرد
يرغب
البغد
معدات
Robert
الحساب
الذهاب
السريرية
##طاج
محسن
المتمردين
Em
البطل
التوأ
مصف
فيلس
مسا
البوت
يتر
والتص
واللغة
##اضل
##ived
مكث
حاصل
الفقراء
Reg
##وران
عنق
استدعاء
##لافيا
الجرائم
لود
·
سون
السنوية
112
والقر
الاغتصاب
##احف
الإيراني
تعويض
وامتد
يتسبب
النائب
##اهمات
نسبي
التحقق
الباط
سيادة
##طرنج
ذاك
فرنسية
الثانوي
المحتملة
1500
لعلم
##ائقي
خلية
154
للمد
الرئة
وغالب
ألكسندر
أوضح
يدعو
تنشيط
##lex
بقاء
تتحدث
المستخدمين
163
trans
الأحوال
الصي
توفيق
لمن
يقرر
اندل
جروح
تأكيد
##uch
Sa
##ارعة
ماذا
يمنح
ارتبط
أدنى
جامعي
والتن
التسعينات
##ؤولة
مدم
ael
بريطانية
نفسي
الفرا
صر
comp
يومي
الجماعي
التخصصات
##eng
##يشة
##وضاع
اللق
براءة
الإنساني
استخدامات
##امو
تمرد
الميز
تخصيص
المستويات
والأن
لتق
تنشر
أصناف
خلل
جاي
البطن
مروان
العملة
##عومة
##لاوة
أعلا
للمؤ
Law
برلمان
للعلاج
احتل
كانا
تقرر
ccessed
الجوانب
الجه
Health
المعادلة
هاما
ليل
مصالح
الشمسي
فائدة
السوفييتي
أثينا
إذاعة
##ization
الاحتجاجات
كريس
يبعد
تكريم
NA
التام
الهندسية
جواز
السور
{
غي
أيد
تضيف
يان
1906
والمل
المقاطعات
##شيات
162
بارزة
فئات
مناسب
ليلى
الثنائي
المان
Report
متزايد
غذ
سوم
موث
Cor
1909
سمير
هكذا
126
باز
الدقة
الأيسر
PD
##يدون
سات
بالر
124
bl
الالتهاب
تدل
سلطات
##شيا
الحاد
عائلات
الأدوار
##راتيجي
وأج
بند
nd
##اردة
Geor
بإسم
##ode
Tr
##رادو
جابر
أوامر
##قيمة
الشاي
ياسين
التكوين
##18
ورش
الشامل
##وقاز
##ونين
تاريخيا
##ma
##reat
للفت
مواط
والأح
##evelopment
Do
بروتين
استعداد
##berg
بئر
سارع
##درالية
تتوفر
والمه
باق
نورث
الحجارة
حقيقي
مطر
كوري
الشرعي
العاب
والان
الخلفي
الحلقات
تعبر
السمك
التأثيرات
واص
تنمو
نقلت
##IS
##urn
حرة
مكاتب
بمدرسة
الأسترالي
##باكات
أدخل
المعل
جديدا
رول
باه
وثق
##ital
##ulation
تتعرض
السوبر
##قلين
لاب
غربي
البترول
المنصور
##ón
صمم
سريعة
مواضيع
pol
المقط
##شيف
Mo
تسل
جار
فمثلا
رفعت
الاستع
الصيغة
الأورام
بلغاريا
##ودو
راي
لبر
##يسوتا
تعكس
الكليات
##ines
##فيان
عربة
اعترف
##كتين
Sup
المجلد
##ازة
##اعم
##نيت
##وائح
اجل
الجيوش
تحيط
المتف
تواصل
الدقيق
##ودت
##يفت
والا
انتاج
مايكروسوفت
##ابتن
دوم
سوي
تنقل
كلارك
##يسور
Tech
Islam
زمنية
الحجاج
##اتذة
##صلية
نظريات
##اهة
محفوظ
المسائل
##ien
جال
Dr
اجت
##ثقافة
مشاعر
##نامج
ميزة
توقفت
انتظام
النفايات
##ستي
##كثر
هى
كلى
##ليفزي
يفضل
العشر
Google
الارتباط
145
تطلق
##بطية
إقناع
##اتيح
##ities
المدم
Bo
بلان
مترجم
فب
غار
السق
##ake
مرمى
##مبراطورية
الجماهير
##عدة
حث
نظرة
##بتد
شبي
محدود
##uk
رجب
الشريان
اختراق
تشي
لوف
جراء
قصور
موعد
ومه
أرك
##عداء
Pre
الترا
الجدد
الغابة
الصادرة
sur
إدراج
المسؤولية
1907
Rich
شاشة
للمر
يصنف
التاج
اقتصادي
##جلب
To
اتخذت
كاثول
##oman
Inc
يعت
يدير
أسلحة
##اربين
الراحة
السياق
والهرسك
التجمعات
##اريين
كروات
##والد
##اقفة
وأد
المشكلات
اصط
ويز
الآباء
##باني
أطر
تتع
دست
البنوك
الثلاثي
##حسن
##بتة
ضخم
بآ
شق
تهتم
عيون
حراسة
gov
بيلي
الخبراء
##غني
الشرب
مسم
قيس
تميل
1894
فنون
المرمى
أدي
شيوخ
القذافي
دائمة
هائلة
الزمني
أوسع
نيجيريا
للمت
ناجحة
التحديد
##كوب
202
قائم
كريستيان
##يرين
الاثنين
##وارث
الآلي
المنظ
وخسر
جزئيا
القهوة
##قيقت
التصنيع
الصحفيين
##شور
##صين
سيطر
ديزني
الانفجار
الاستعمارية
ثمة
Life
حيوان
##سطنطينية
المصطلحات
##قيبة
آرثر
طبع
السودانية
البرك
الإنجليز
داك
ماليزيا
للمش
الذرية
محر
مستعمرة
سرا
العمود
بيوت
مذهب
المؤمنين
##ole
الند
فرعية
##ald
شتى
##كاليف
والمش
##حى
##ذين
Tra
يتأ
114
Im
##جمالية
سلطنة
مستوط
غرا
الغشاء
الانسحاب
فشلت
دانيال
##ددت
يحل
أنهى
العباسي
الإعلامية
جوان
المشهد
##خيل
يقضي
وثائق
حلف
المواطن
البيزنطية
##فلت
يجوز
##زمنة
تدير
Social
الإشع
مخصصة
الضحايا
##ضاءة
##na
فلك
المخط
قاموس
المسألة
##جرات
باع
المسمى
الثدييات
تخل
##وغرافيا
أبعد
اليمني
معادلة
استضافة
##بيان
##ication
ثقافية
منطق
##ستانية
الغدد
دال
أغلبية
##ER
##idd
116
158
مغربي
استراتيجية
##ملات
تأييد
بخط
بشار
المفاهيم
النمساوية
##اهن
أحمر
##ress
المار
والأد
القشرة
النروي
وكتاب
المعنية
الميناء
الزيادة
الصع
قاضي
##غافورة
الثوري
الأساليب
##ek
الفلكية
الكفاءة
الوظيفة
ينتشر
الناخب
##ناسب
تتخذ
باليد
الجزيئات
حرم
الصم
مضادات
المهندسين
حلت
انقطاع
الاعتقاد
طالما
البولندي
##atch
الفول
اذا
الآش
الموجة
السويدي
البعثة
الحكمة
مبيعات
##الفة
Egyp
هدفا
##وكولات
الدير
التوقيع
##tical
ملال
المزدوج
##سيوي
الصومال
استقال
الستينيات
زعم
عقل
مسيحي
##وتات
بلي
التذك
##وجب
Des
الطيب
والتح
العاشرة
##دياد
بتأ
##وغواي
ology
درع
لأم
نظير
##ورانيوم
السبعينات
##rop
##book
##لتين
المشهورة
##co
خبر
براد
مقام
حيز
عرش
الكلى
مأخوذ
لمسافة
##امى
##رشاد
برين
فيلسوف
المتبقية
التحقيقات
الهنود
##حفي
##ندات
فورت
Chris
تسلسل
الاستراتيجية
South
الدبلوماسية
الثقيلة
أخلاق
ألواح
اكتشفت
الأمامية
المكتبات
##وضى
##نانة
حمزة
##وجي
صرف
هرمون
ديني
##هرام
تيس
##ملوكة
إندي
التلفزيوني
السبعينيات
Poli
بوست
حكمت
ذكرى
قاتل
ثي
##لائل
أسواق
الير
الأغلبية
##ورس
تخفيف
##yl
الهوائية
رائد
للأن
رغ
##تصدر
غضب
نرى
عيني
الزمنية
##AC
##nd
يميل
##ئون
تذ
فورد
ويلسون
##لع
##اميم
##وفيت
سارة
وبار
##ara
##ثية
##زنة
المهرجان
##سمة
##امرات
فوكس
مستمرة
المهارات
##نيا
وجهات
اللحوم
انفجار
أوم
يخص
إمام
يركز
تكليف
جلد
صعب
مضرب
رومان
كتابا
الاختيار
##سترا
حاس
news
مزارع
سانتا
طائفة
##ثروب
##وفان
الشديدة
الوفيات
مينيسوتا
بالص
وليد
الأطعمة
##داثة
صيغة
السهل
تتحول
العقيدة
فيكتوريا
يغطي
المحر
المرء
##يرز
إيا
البرب
Cal
ألقى
الفج
المنشآت
الشائع
الجمعيات
##وكة
وأق
مبكرة
المسؤولة
##روفة
##ental
##واطئ
ترميم
##ars
##قمار
عمود
حضارة
##وازي
امام
للذ
الإجتما
العقوبات
بكالوريوس
الصحيفة
السويسري
فنز
كوت
يونس
التوصل
السفير
التقسيم
التقييم
Ob
كق
##موذج
وإد
السيادة
وبل
اتباع
المحل
المناعي
السوداني
##فف
##ward
3000
arch
منصة
سيدني
##جيب
المعتد
##راتيجيات
##زئة
تفجير
الفعلي
##led
أندية
الأخلاقية
Sw
##لزال
الحروف
معاملة
##ليني
147
للكت
التسل
##duction
##كول
##نسية
مذب
مساجد
حملات
لولاية
1904
المتط
القصير
بالقرية
##اهب
Dep
والأخ
الأنهار
ليفربول
##كبات
لسب
##سبانية
انطلقت
الإشارات
المحدودة
##خبات
فقدت
الشهادة
بتج
الميكانيكية
ولم
متاحة
publ
توسع
جلسات
التوتر
##وراس
هوب
فوائد
مؤسسي
##ya
الاحتفال
السوفياتي
ثبت
الحوض
حوالى
وافقت
آنا
موريس
المصالح
خطورة
خبرة
منظور
##els
الفرات
المريخ
النامية
##يء
اختصاص
المارك
##جيال
حميد
يحتل
##كاس
##وانئ
مجرى
الضعف
صحيحة
الثمانينيات
##شرح
ers
ثقة
إيمان
الواج
استولى
اللجوء
##its
مقب
##فري
معتد
القطن
طهران
الاكتشاف
##ضيف
CA
##ject
قبيل
الراف
الأساطير
فخ
الأثر
بداخل
استقرار
للنباتات
##ada
My
اعتزل
How
السائدة
شامل
ناسا
الانتباه
يتيح
نائبا
##وسبة
إيم
يونغ
أسطول
كلين
التوحيد
هدم
المشي
الطوائف
المناصب
##اهري
ليم
##ission
بالمن
الجليل
السليم
##وزا
بروس
التغير
جماعات
خيار
المجتم
بوع
هاد
##ose
بدءا
للاحت
##كتات
يقتل
وأستاذ
##كوم
##يليا
جزائ
واجهت
السابقين
##يوس
القابلة
آمن
خرجت
الساخ
##بارات
الإذ
إدراك
مختبر
##ومغ
##جدية
عديد
تمرير
النبوي
##عمل
##سبانيا
التمرد
##ثلي
عدي
بالان
الليبرالي
مشهد
الملاح
حملت
للكاتب
الهيئات
المفاوضات
##رائق
الحكيم
الرقمي
الدستوري
المنه
صاروخ
كرواتيا
##بوس
الخلق
الرحلات
##df
per
مزرعة
##وفيا
بحري
شعور
معقدة
المكونة
فرانسيس
ينقسم
الوظيفي
##عوم
##نتج
وافت
الربع
##رضت
ثروة
إقرار
اختلف
الشاطئ
سكر
خام
مجرة
الآلية
الرأسم
ترد
الصفات
التعذيب
نشاطات
##هرات
خنيف
مرف
##واكه
بالط
##راط
##فصل
##ures
تصدير
موضة
القرص
##ورف
الكائن
خلا
المتن
الخطيب
ومدرسة
عظيم
سفير
كليات
حماس
لويز
##شفة
##كتلندي
بجوار
##وريك
##واصات
1901
##ائتلاف
المشاعر
تمثال
موريت
نباتات
##عيين
تلي
سنغافورة
##isch
انش
حاد
بحوث
يقصد
فلسطيني
مجتمعات
##عيا
##مالة
دفعت
سلبية
الخطوة
الأحماض
بتق
##جمهور
السام
Chem
القطبية
##برج
##obal
##اندر
كندي
##رمي
تركت
States
التعادل
اعتقل
Wal
فأن
فضاء
يوضح
المتحدث
طم
كيس
##lo
##ورب
##انتا
تسويق
الحليب
##ياطي
التجريبية
ناجح
350
المتك
خنيفرة
كارولا
الدراسي
التكامل
الفيزيائية
حكام
الرموز
website
##هاي
البيوت
##خن
##adem
تنس
الملفات
Mil
ng
البرمجة
التفاعلات
ً
مشهور
الأعشاب
المواضيع
International
مريض
الفعال
##rit
##جرت
##صير
##اجين
##يلاد
##ظبي
UN
##ندون
كنا
المفوض
الاستوائية
##inn
ll
هوم
تصنع
يصعب
تايلور
أشد
باط
والتش
الصاروخ
المذكور
جوي
يسرى
الشاشة
الليبي
بروسيا
الخرائط
تايلاند
ومات
إيطالي
الفراغ
Mac
مرافق
الجيني
الاضطراب
تنظم
شاملة
الأصفر
##ade
الجدير
الفئات
##خدمت
قمر
##غلادي
لتنظيم
جانبي
الدراما
كولو
المنط
المستعمرات
مغني
جامعات
##نته
##ID
تفع
لبل
يميز
نقابة
ترأس
البرازيلي
##واري
المنخفض
##واض
##ناصر
الفقي
خطوات
العرق
##ثرين
##ولون
Mart
Online
القدماء
حقبة
##ont
حارس
سامي
##ماعة
نظمت
المحركات
##وفاكيا
الأمان
الوريد
fric
وأوروبا
##علن
##نازة
مدني
##قاض
##بيرغ
الإحت
المتر
System
الليلة
146
صربيا
إشارات
دافع
القسطنطينية
##اناة
##لاعب
1902
الحن
الشاه
مبنية
اللغوية
المصانع
التفاصيل
المتوسطية
أبوظبي
انسحاب
مسؤولة
الستينات
1898
فولت
عقوبة
مواطني
أكسفورد
Institute
##وءات
تفر
اتجه
وأرسل
Profile
جبلية
التسعينيات
IN
الركاب
سباقات
الفنانة
##جيرات
فصول
المماليك
##طيات
900
جوية
وكيل
الضروري
ti
الصب
للمستخدم
##حون
زك
##فلون
دكتورا
144
حيا
1890
غولد
مرسوم
معيار
ميدالية
هذة
الحظ
الحادثة
البغدادي
Te
Post
الكأس
الأديان
gen
تجار
قار
جمعت
لحظة
الخليل
الدائم
برب
دعت
النقاش
وتحتوي
استطاعت
##ues
Sal
الشجرة
##الغ
##وحية
متط
ميخ
الكمية
الليبرالية
دبل
فلور
الطيار
##ulture
المرجح
الرف
معاوية
تطلب
الصهيونية
##ونيات
يعكس
يتمثل
الاحتياجات
##دع
الإنكليزية
حصة
كيني
سوداء
اعتراف
الطابق
المصاب
المحافظات
##وريت
تتغير
الطقس
الليم
السفلى
كارولاينا
البروتستانتية
فيلي
الأنف
الإنز
جزي
خر
قبة
يفترض
##كرين
مسمى
المسم
أوكس
نجيب
الأصدقاء
##iet
اول
ذهبية
العنوان
الخلاف
سقطت
ضوئية
الدينام
##ze
بيض
شكر
Count
امتدت
الفارسي
إندونيسيا
##ٍّ
جه
أسد
##وفسكي
والنشر
يخدم
عمالة
الممتدة
##كوين
أنتجت
أسطورة
المساعدات
##سلي
الحقل
الإطار
الصوفية
ينقل
الإعداد
##فرت
##يتار
هلال
والتم
متتالية
الانتداب
أستاذا
مصب
##ماثيل
1903
باير
للتع
المستقبلية
الصليب
عصب
المطلق
##ham
##مور
فيس
##طانية
يختار
article
البندقية
##ring
##ket
إنش
ستر
##حلة
##rary
##بيط
اعتمادا
البولندية
See
بريد
الزرقاء
##angu
##ious
Black
اندلعت
الطبع
Ear
##rian
فيرن
الملف
مماثل
المسرحي
##ماق
ملاكم
##وبل
المفق
تدهور
سيمون
البنز
أرمينيا
##لميذ
نيف
التبر
##ساع
##خلاص
استسلام
أرت
إخت
الفير
عمارة
القادم
حلم
سبي
الوض
المرف
شوارع
مولاي
الشافعي
كامبريدج
إلين
النخيل
##يوود
Bas
زرع
الأنثى
##ven
جوهر
عبادة
مطالب
احتمالية
حار
حيدر
دالة
الرمل
المشرق
الإشعاع
شرب
مؤرخ
مسيحية
للثقافة
للي
عبور
إسباني
الانترنت
جنيف
الجنة
عنا
تحضير
##وقراطية
الدراجات
##uel
شاع
كاري
##ym
##ضج
##يدان
ممتلكات
Page
تشري
ردود
هامب
الفرض
الحريات
##وكوز
المحقق
##azine
هارت
##واصة
وتعلم
Je
رصيد
الآتي
الأرجح
##وكل
طه
بولس
مبني
لجائزة
إحصاءات
##برين
PDF
تدرس
لوحظ
Franc
هكتار
تلفزيونية
##ومن
الأسفل
أنطونيو
إلخ
صغر
الحش
كوبر
متفرج
الحارث
الخلوي
المبادرة
##ذير
تناق
غربا
ولت
الأوضاع
الكونغو
##ria
يعلن
استكمال
##ياج
غوت
شخصي
نافذة
Public
السامية
كيميائي
الأربعين
##يفو
##طعام
Bro
North
تسوية
المتخصص
التطورات
By
##ves
original
بطء
##ماثلة
كورن
باعت
تتمكن
يومين
الحكام
##ومتر
نزل
الجدل
استنادا
بيرو
##ration
الإقليمي
##ادور
##هادة
كوز
تقديرات
##زايدة
المسح
الأمازيغ
تريد
الكبريت
##ريست
Sur
الأثري
المقال
##حادي
Ref
new
متب
أزياء
الخبر
غون
سنين
ويكي
القصيدة
إمبراطورية
دروس
تفعيل
صيانة
والسب
##افرين
ادعى
يساوي
الطباعة
والكتابة
نصيب
يقبل
ومتصدر
Gr
##ople
غطى
موض
السا
تمارس
الملاك
##ste
Fre
إين
ماجد
إلقاء
الآية
المحدد
للدراجات
المتظاهرين
##ield
ريم
قتلوا
كإ
Tur
أرضية
##ابد
##ركب
##افير
pdf
الباقي
الأكاديمي
##يدرو
كاش
لتأ
طعام
وكات
كتيبة
اللاهوت
##اسط
##فهوم
الرش
موظف
##صا
##وكسي
ووفق
يستطع
أرن
حماة
##وديا
Ser
ساند
الفعلية
المعقدة
الوراثة
148
صعود
الصفر
وتولى
القيود
ختم
قاع
القاضية
##يسا
ألت
بيز
جاه
ذاتي
طائر
الآلة
##احل
مصنوعة
مراسل
المزمن
مستقبلات
السعادة
المبيعات
التبادل
Wes
ساك
منز
قريش
Colle
وفي
ملكا
نيوتن
راك
كالم
المغول
af
Ver
تساوي
عظمة
شعراء
طاهر
استخراج
رئ
##formation
##tis
IC
سنا
##ربا
إدريس
نفسية
##ES
إرهابية
##رون
##صود
نك
الكيل
نابلس
وجعل
James
الشطرنج
##ilm
##ساتين
دينار
دواء
الجراحية
المرتفعة
##وليد
##ينين
Paul
للدراسة
##وشة
##فعول
شرع
دعوى
مخصص
وغال
الثابتة
المبدأ
##ريدي
غاب
##كتة
##وراي
باف
ورث
إبان
عمران
الخفيفة
يستخدمون
##خرين
المقبرة
المزارعين
##hi
##ied
أرقام
شعبان
البحثية
##صفة
##طلا
لكل
النبوية
##arm
قضت
المؤتمرات
الدرقية
##يبات
بيير
سائل
##نجر
##ئران
##يزياء
أثبتت
الرهب
##جون
جاز
بوصة
سيناء
السبعة
الصحيحة
##ازات
زجاج
التنقيب
##OR
طيور
صواريخ
ضخ
يقف
تراث
وأيض
##لاحة
أبلغ
العتي
##ورز
##جددة
تأمل
##لامح
الحضور
الصليبية
الحيوانية
##hr
أدرك
المادي
##دس
##ius
أصلا
التعديل
رض
أتى
أشياء
لبناني
البوابة
مغنية
صناعية
حفر
شهور
حساسية
##وشي
يسب
2020
البطر
سجلات
يساهم
##كتسب
##طوانة
الموض
##ازن
##ists
##شرية
لمش
الزبير
القصور
اعتمدت
Studies
يظل
..
...
##ريبات
الفوت
تأريخ
الإجهاض
المختار
فط
مركزية
المتنوعة
##وافذ
##خبارية
الجانبين
rec
يرد
الفهم
##اطئة
You
حامد
أدوية
البالغة
المحترف
2500
قطار
##هال
علاء
يهود
يوهان
الوقوف
منافسة
وكم
جمهور
احتراق
الأمعاء
مقاطعات
الموضوعات
##اسيس
##اموس
أسفر
الكلاب
##OS
##وقا
القوقاز
##enc
##صارات
الغام
جنوبي
التطبيقية
##حولين
التكاليف
الجنائية
##غوب
##لاه
العبودية
##فتح
أنجبت
##قيح
التا
الواسعة
##لمة
خادم
تتأثر
الضوئي
ثلث
يورك
القرم
الفلكي
التمريض
##omb
توب
عكا
الموص
بالمر
يقتصر
مساهمة
##umb
شعبة
أكل
الماس
قسمين
الالكتر
المعاهد
عربات
البروف
تعليمية
##همال
أتم
سيئة
يحوي
آليات
حوادث
##فتاح
المنع
أوز
إذن
صلب
لاسي
الأجر
لفريق
القريب
الإمكان
تغييرات
الكلاسيكي
##ane
الصن
تعامل
عائشة
التغلب
مصير
الوفد
داخلي
##ائمة
##يانغ
وطب
يرمز
يلتقي
##غلاس
الفاكهة
مجالس
##انتي
علما
أنابيب
الممثلين
##آكل
يحيط
العوا
الزوار
اللازم
لألعاب
##بره
كمن
##ربيعة
جيوش
العبد
لماذا
الراديو
المحافظين
توافق
قوائم
النادرة
##ادرت
Dis
أحب
زهرة
ممتاز
إحصائية
نام
أركان
الأشهر
الإبداع
عدنان
الرحيم
الفندق
الأوروبيين
##ودع
##صدير
ودر
وتمكن
##ثث
نست
ميلا
المفاصل
للأشخاص
احدى
طيار
يتوقع
##غى
5000
الفين
##راضات
الكس
رحيل
وكندا
فيتامين
آلات
إنديانا
التناسلية
وأصدر
الثورية
اليورانيوم
##ird
##غذى
##نسون
ann
1897
عملي
البعد
ضعيفة
يسيطر
الجوفية
الدائمة
op
متس
بديل
الحمام
الأمراء
##ete
##وقاف
المثق
الكردية
آية
جمعة
الأمد
مقاعد
مشهورة
اللوحات
مهتم
##لفانيا
البنات
الناجمة
الحساسية
##يفان
ميك
ملفات
المستثمر
##tish
الاستئ
الجدران
المخصصة
##ليو
##غريت
وفد
الضبط
الثوم
المهاجم
عناية
يتحول
##rip
رضي
##ليقات
كهوف
راس
العناية
بالألمانية
##ior
##بياد
عدو
##هتمام
التسم
الأسعار
##فرة
ليز
يصيب
المراد
دراما
التنبؤ
العقيد
كهربائي
والمعروفة
##يمو
الطلاق
##غين
الطح
طيبة
##شاط
##ظهور
ool
##ino
صعبة
الوثيقة
##وسم
كرك
تونسي
ابريل
الأرب
الفائدة
سياسيا
##رداد
##وليت
فرجينيا
المؤرخون
التعديلات
##طباق
انتشر
برز
لير
الطوب
التخلي
الاستمرار
مرب
غلاف
ياسر
##غلاديش
والعلم
اتصالات
أيوب
الضرر
وأت
##ونيوم
لكون
التدخين
ممارسات
مرق
التلوث
ماجستير
Brit
مفتاح
ميونخ
ومعنى
##ka
ضريح
المدة
يتغير
##ؤس
##ions
##هاية
عاط
دفعة
انضمام
منا
Work
مذبحة
السوائل
البيولوجي
جند
أرباح
فلسطينية
تشغل
الحاسب
التجديد
التعليمي
Hol
##ction
مقاتل
الأزياء
قرص
واط
مهدي
الأسئلة
Association
العط
##ضول
##يونات
الأذن
##ude
##نصر
##رسون
لقي
للبن
المناق
العذراء
##لاي
الموجهة
الغالبية
##رائد
نين
بشير
الاعلام
##رياس
##يوبي
##ريحات
تبعا
جواد
زياد
الأسم
العضو
كهربائية
##وارزمية
السينية
الفواكه
ليبر
الناص
##ثناء
أبل
سيك
أجمل
الرض
مترو
##زوجة
##وافد
حيفا
الدماغية
تظل
مرح
##عاءات
المساهمة
##بعد
##رتون
السائد
لتح
الإسبان
محافظات
المحمولة
##لفين
##ياري
لاد
هين
وخص
التفت
الخيل
الحاس
اللطيف
الحيوانات
##عوا
Ab
##ball
Def
ضربات
Tw
##الون
جلسة
##ولان
سرد
وحم
الخري
للشيخ
موريتانيا
##اديق
تتسبب
يعتقدون
هذين
راديو
التوقيت
الحقائق
البكت
ضروري
Econom
##وخة
ثمن
أسرته
أوبرا
مخيم
التسلسل
العملات
تلم
توازن
يهودية
المنتجة
البحيرات
##ives
##ديين
واز
cent
يرأس
يرتدي
##رياضيات
English
##ij
##yd
يصنع
فيزيا
للموسيقى
فجأة
رائعة
أربعين
أمم
بأش
ومم
جنرال
كط
سمعة
Edition
العنصرية
int
mar
ضيق
وود
العفو
تعليق
ثماني
العميل
المعتمدة
col
كيو
بكين
فيلاد
عمار
الصدمة
##مح
##صاد
##غرة
Jos
عدوى
الإصلاحات
تهي
##طوعين
1870
غنية
السينمائية
التأس
الجريدة
الإعلامي
##لسي
اتفق
##هون
##اعمة
كرم
##اطب
##rist
##ريال
أنور
الرع
رفيق
يدرك
النفوذ
الحسيني
المعاملة
نسيج
تسيطر
الممتلكات
é
##كنز
الود
عينة
فرسان
وفيات
يرتفع
##شون
خدمت
الأوقات
لتخ
كاملا
تصفيات
المعالج
الأقاليم
كيميائية
##بلية
بيرن
الفاط
توقيت
حكاية
##برد
يسجل
والنا
retrieved
##لوان
طيلة
##righ
##حترف
Gra
الإط
الروابط
وأربع
##ائيين
التدفق
كولورادو
##خلة
العسل
أجنبية
مفاهيم
القطاعات
##ذل
##اسين
باي
تضاف
مباني
الإبلاغ
الناشئة
So
إر
##انم
Rad
ورس
السؤال
##يازات
حيوية
##66
##تمييز
يتلقى
المتقدم
##لط
−
##يسين
Sim
pre
الحجة
شعوب
الأنباء
##ترط
أعط
Pres
أعمدة
خفيفة
مضادة
اعتقاد
الشريط
القدرات
##ولث
كود
الثقيل
الفلاحين
Group
أندرو
المستمرة
his
Russ
وتزوج
المؤقتة
##اهل
موم
دمرت
الخيول
ميزوري
الجسدية
موة
توضع
يوغوس
الظواهر
##itz
قرأ
عملا
المحتلة
قريبا
الجسد
المعدل
والهندسة
1895
بروف
اللاس
تسببت
الأوكر
البرتغالي
##ild
##تمون
ستيو
##ائك
بية
ستوك
ضربة
منشورات
شنت
أسقف
تصفية
الميدان
##قتال
Serv
خرائط
اختصارا
الأقليات
احتفظ
##لفيا
##ستردام
ترامب
حفلات
البوتاسيوم
مشتق
السياح
##ونتو
رحل
وكر
إعدام
غينيا
كينيا
المضاد
الاقتراع
##سيد
##واجز
المرتبط
العمومية
Righ
يضمن
inter
كلاعب
داي
Educ
التحلي
البيزنطي
جنسي
الشيش
بأداء
خاصية
والمنا
الغنية
الأعلام
الاكتئاب
السعي
البنفس
أوروبية
And
زمان
المكث
بالاست
وجائزة
##ON
##ياض
##وابق
الفلسفية
##آة
Ma
ul
##ating
خصيص
إجازة
غريبة
القضاة
الأهرام
php
##فص
##طفاء
عميد
بالأش
تتحرك
نوعين
الحوادث
فاروق
البلاست
التفاوض
##ليح
Kn
بنغ
وتك
الآراء
##iness
حددت
شرعية
انطلاق
##خرط
##ears
ضريبة
الشهرة
اللحظة
استبعاد
##ينغتون
المدفعية
##حدار
##غذية
1860
شهاب
الانتحار
##تاب
##ator
##يفيا
بوه
##شتالة
ومنا
اليونسكو
فخر
مؤك
خبراء
##ثرت
Pat
Cons
##اليل
أحجام
##ür
##حلل
VI
مسئ
القاب
##يراد
بعمر
ثانيا
شمالي
النيوتر
Ben
الرائدة
عمد
البه
الرائد
متحركة
حقول
النيج
سنتيم
التحرك
##اندا
##صاري
ببل
الشحن
الهام
القتلى
##ison
عزم
مقطع
الأعوام
##lear
قارة
فيكتور
احتجاز
الترويج
الشراكة
man
الغني
مصانع
##غون
تكاف
منصات
الأخطاء
العسكريين
##وتة
درعة
فيلا
##طوانات
##لدت
تسلم
شاطئ
كيلي
يوغوسلافيا
شيف
فنزويلا
##تية
Bra
كروز
##فلونزا
باولو
الحضارات
##يئة
pg
Lab
تكونت
المؤلفات
##ux
##ديز
اه
البوذية
Development
تقبل
فالم
العضلة
امتلاك
##icro
انج
ترق
الحارة
الكاريبي
##أخذ
ويج
يتصل
بالغة
المصورة
##تدى
AC
والمث
##عملة
جوه
ووا
أثرية
تسير
يرسل
الغزل
Center
التحدث
يلزم
##رافقة
##لماني
جرين
إضافي
تصريح
الآسيوي
##tio
##رموت
هون
أطباء
الصديق
##ريفة
##ليوس
##بعاثات
السيف
نادرا
المقالة
##طحة
تهم
East
المصف
##lor
ديو
book
المتهم
##ارى
مضى
ليلا
ضرورية
البدنية
##ظرة
##وادر
Part
بلوغ
منتظمة
##يدن
Del
فيز
صقلية
الأرضي
From
المند
ينطبق
##ivil
ردا
Wash
وأخيرا
فجر
بريست
توضيح
المطاعم
الأوسكار
sy
إيل
السيناريو
##EC
Modern
المكتوبة
##فرد
حادة
النعم
اللورد
المصنع
ساد
شتاء
تايوان
##الو
فد
##خدير
يثبت
مدنية
يكتشف
أفريقية
القطار
##رجح
##يمس
بسم
للعم
الامير
المقابلة
app
والأب
يتوقف
أفريقي
الأهالي
##ats
شاكر
فيله
مطبعة
سعى
##ality
وكأس
توظيف
البديل
عليا
ميخائيل
##يرن
وتخ
تعدد
السنية
صناديق
مفردات
المعابد
الواقعية
بكت
##ender
أبوه
##ference
المطبخ
للهجرة
مميز
تعترف
المجرية
div
##يلالت
Mer
شام
طلبة
قيود
مشاة
ارتفع
الحركية
##gram
خوف
عشيرة
الحملات
##خارف
الآونة
داكوتا
Ter
الأهم
##فسي
1889
يعتبرون
المناسبات
Commun
تغيرات
الهزيمة
##لبس
النك
غطاء
ميشيل
قابلية
##رائح
##واقب
360
Leg
آمنة
يكشف
يزداد
تتناول
##تبع
عذ
##ومون
min
##اريات
1881
Bern
Hand
أمرا
المجاهدين
##tice
##ديقة
##رمين
عادي
كيان
مكتوبة
العلوية
حاسوب
مانويل
كيلومترات
##زات
معز
شجاعة
عينات
تغلب
فانت
وترك
الأموي
اللهجة
المشار
الإغريق
ass
لجان
الخبز
تشييد
المؤلفين
##وثي
##وفنت
إنجليزي
تقود
السمع
النازي
##وافل
1800
الزب
كاتبة
##ique
##عتين
صادق
والاس
الأسهم
الصحفية
القنابل
الجمجمة
المعرفي
##فسيرات
أرسلت
إمداد
للإنسان
##رحمن
تان
السمات
ستيوارت
للكنيسة
1882
Bus
محب
المشروبات
زينب
##بيانات
المنزلي
ومق
ضفاف
##حور
غو
##ling
نفي
comm
سينا
عانى
الزهرة
##دمير
##فيعة
الإك
التكت
الثلج
برمجة
مسائل
وإن
نبرا
للانت
تصرفات
الشرايين
أحادي
الحبل
زراعية
التشريعي
دراسية
##اريف
1880
تميزت
##artment
##oo
Roy
الحواس
بالضربة
الانقسام
##ta
برود
دورية
الحدائق
العشرة
المفتوح
##ناية
يبق
إفراز
Dem
الخطط
##يعية
الصوتي
الأقسام
بوج
والدي
وصولا
الحداثة
##ليفة
بست
##راصنة
منظم
البشرة
تافيلالت
نون
الشك
يتخذ
كردستان
##فضلة
##ميص
أى
##طيور
220
Tel
حزام
يقام
دوائر
##خات
##خرفة
##istry
ينشأ
الأوامر
القارات
بنسلفانيا
##اثان
##ادقة
##ناقض
العاج
المجرات
##uld
##نتر
كد
##مائية
West
سمحت
العجز
SC
أوق
بتد
تترك
ووال
إجبار
والفق
##افلات
الفجر
المغل
ربيعة
مثيرة
مركزي
الإجماع
خليط
كلاس
قلبية
السعيد
الخمسينيات
##صية
روسي
الماشية
##ects
إريك
تقليدية
est
متج
الأمل
المجيد
المنتشرة
صي
##icine
الملي
تقليدي
world
وعلوم
اللذان
استطلاع
##FA
##يشا
وور
منحة
##ؤوا
##ards
سنه
تتيح
أمراء
##قاعة
فرضية
الشهداء
##شع
سلب
يشرف
إتمام
سفارة
للعيش
السطحية
الواردة
وقود
ne
أوج
اثر
السجناء
النيابة
تعب
##وغرافي
واليون
##رنست
الاخ
أسماك
الهرب
طالبا
Global
الشوكي
##سيب
البت
بالي
الجمل
البلاط
Western
حذ
##وانا
وعام
##سمت
Net
Not
أليس
تراكم
إدارية
سلك
كوكبة
منتظم
الطائر
##حك
##انكا
##ney
##يسيبي
تروي
صالحة
جدد
نالت
الرئوي
حسابات
##iron
شون
كرات
تساهم
تشتمل
قرطاج
اللاتي
انق
كيت
ترقية
ارتفعت
Washington
اكس
تطل
تراج
الثلاثاء
##ريما
reg
واسم
بطريق
شعرية
التراب
الأربعاء
الابتداء
##ونيون
خارجي
مظاهر
سط
رايت
للحكم
مجهول
يلاحظ
الذكية
الانتفاضة
Gov
غود
أسامة
إظهار
بمرور
حلفاء
ألفونسو
ميزانية
##قطار
Phys
أدار
فعلا
Li
تقليد
Statis
البلوغ
الكوري
##نتو
تدفع
Smith
المجد
الطائف
الأفعال
##وحت
ماركس
والفن
العراقيين
بيب
مبت
##ences
وعاش
الكرا
##rew
##باد
##نظر
Po
mod
لست
لمت
مرصد
وأنت
لتج
##osoph
توضح
##لاهوما
المدرسية
##وقت
Jo
##aily
بإست
بكون
مثير
يضاف
وعلاوة
العظيمة
##amb
##كوس
مغل
وردت
أرجاء
عظيمة
الرئيسة
##ility
تشيل
ماير
ضواحي
النزاعات
النمساوي
غازي
ناتج
الكاثوليكي
##صفح
##ounc
خور
سؤال
السجون
Sl
##بيديا
1848
مرسي
اجتمع
الحمد
لاعبي
إداريا
استرداد
##ثرات
ضعيف
لورين
محاكم
اللغوي
كنتاكي
متساوية
##صن
##هولم
عنف
غنى
صحراء
sc
##غهام
وكون
##ساو
صارت
أسنان
أليكس
القبة
بالأس
سفيان
النقيض
المعتمد
المسلسلات
الرومانسية
ob
أجبر
عانت
الظلام
المتغيرات
Dan
تحرك
الأنابيب
##زرة
اللاذ
تقارب
العضلي
المائي
انتباه
العلاجات
سقف
حافة
الحربي
المحمية
##lem
بمجموعة
##كش
##als
##زلج
لض
خلد
##وانيا
أثرت
أفعال
يقابل
##ياع
ذهبت
التوت
محليا
الجملة
العبرية
##كث
##itor
##ادثات
عظام
الازد
الحبيب
##غيت
##وازية
الرص
مضيق
قشتالة
التقاعد
الدورات
الكروية
الفرنسيون
##ning
##فكار
المبد
المجرة
الناخبين
##هج
##ones
##ويتش
عازف
cadem
تاي
يتفق
القبر
تأثرت
الجميل
التليفزي
##باغ
##خلل
بمق
حجب
استر
الشق
الحفر
الطين
العديدة
##ato
حجز
صفقة
عماد
غابات
الضوئية
الأميركي
##اطقة
يزور
الأبطال
##راة
##ister
وجزء
ولاد
فيكون
المتعدد
بالمدرسة
##اوم
##سبة
دمر
1893
الاسب
المسئ
##يرلندية
°
حزم
1892
الإنك
العنق
التنقل
المتجددة
##زيرة
##سامح
صمو
ينظم
##واجهات
تجهيز
ويتميز
فيلادلفيا
##اطا
غن
##ستية
##خصائي
أجسام
الطور
دكتور
صوفيا
بسل
الصفراء
##أر
##كلترا
رخصة
البلق
باللون
السلالة
##ريون
ببر
##iddle
أنشئ
يروي
Of
باغ
##قطت
##يقا
الزع
##ki
##رابي
فلي
كوس
سمات
غاما
Organ
ارتداء
العنصري
القطرية
التقديرات
##داي
هضبة
تنطوي
قائدا
نبراسكا
##ube
##يشي
Cap
فاين
بيدرو
العمالة
الأناضول
##بكية
الميدالية
##ove
Met
##صفيات
ترحيل
الأبناء
الإنشاء
##urs
##كانا
متميزة
##ثرا
##رارا
1885
الشفاء
القصيم
التعدين
##اسو
##زاوج
بوغ
الزوجة
##فيحة
متاح
يشهد
تداول
حمراء
يتكلم
يقترح
الكويكب
##ظات
King
غريغ
British
الأقمار
القادسية
##وحي
bi
##استر
تصنف
الفيت
السجلات
نيكولاس
المحاضرات
##ago
##يوف
##ظلمة
روا
قلت
نير
أندرسون
اهل
طلي
نوم
تدعو
حفيد
الفرار
سيز
أدبية
الداف
تجاهل
الخمسينات
Mal
لوم
التصرف
بوف
الحادة
دراجات
خد
##عبية
متق
1871
بروم
House
##رافات
ونشأ
المير
سريعا
المعجم
##roduction
الإغريقية
##نسا
والمم
الدوحة
النخبة
تدريجي
Biography
المسافرين
لاند
نبيل
البسيط
العباسية
المرشحين
زايد
محلات
بتصميم
الأركان
معق
تفيد
جهات
merica
Pop
##era
IP
برس
الأجيال
السادات
تفض
قمع
تكتب
وغالبا
كلينتون
الإلكترونات
##ذاكر
لهجة
الجرم
فيرجينيا
نيب
يجيد
##خروط
تعر
التضاريس
Art
هادي
وبني
أسفرت
زعماء
القلبية
ملاحظات
Department
##work
يسير
##سمبورغ
لاسيما
##pos
##فيا
##وتشي
الفصول
المساء
##by
##شان
##براج
أنغ
Rel
مذه
1888
First
المحف
الشيطان
##وستاف
مفيد
يعيد
أولي
مسرحيات
##ظن
##روا
##قرت
ريس
وبم
جيمي
بأكمل
التجزئة
المختبر
##ينس
اصبح
جاما
يولد
المصل
دونالد
شهادات
##لومنيوم
1200
أشر
1891
ينضم
##نكي
شهرين
الغطاء
خيالية
الساحلي
اللواتي
موضوعات
##la
##قدت
شب
##yles
تفك
صعد
كتائب
##صق
السحب
انفصل
الجيدة
Volumes
الساعات
##useum
وثيق
متصلة
##uz
Up
عادية
الأديب
محاضرات
ir
##وصية
ذرة
فاش
أحرز
أعطت
يسمي
التراجع
450
أدنا
إستر
تصيب
مورغ
مسلمة
الإتحاد
القصائد
##وجات
أضعاف
المطالبة
الذيل
العمي
أراض
ترشح
سمعت
أفادت
##يغو
Sk
تلاميذ
يتعامل
المراجع
الاستثمارات
ازدادت
العبارة
الكهرومغ
##درو
##urch
dis
بلف
العينة
##عدم
صاغ
Club
ميلر
ستيشن
المعدن
والانت
تذك
والمسرح
##ret
##شكل
em
للقر
التقليد
التجريبي
##اعدي
##راغون
خلفا
الحافظ
اير
وأي
بكأس
يقطن
تشترك
للمياه
تسي
هيم
ونق
##يليوم
سواحل
الكوفة
this
الوب
يفصل
Berlin
Library
الاطلاع
تحسن
رابع
Peter
المستدامة
سكة
علق
ويرت
CN
##جمال
حية
وقص
اليدوية
جبر
فاي
خواص
سماع
ماني
الدبابات
هوت
##ledge
بيري
الشرك
ترافق
الذكرى
##ump
أسوأ
المستعمر
##يوز
##يقاع
قات
ستون
مصمم
اللام
المميز
المغاربة
##تيلا
قوس
الصلاح
البريطانيون
##ودر
جوا
الأط
كائن
أعداء
مرورا
rchived
كارولينا
##IT
##صان
ثور
شيد
نفذ
الجيد
تقدمت
الحاصل
كاتدرائية
##atic
حيوي
Green
دينام
استقطاب
الفلاسفة
##ror
##لاتينية
المؤسس
##és
بعب
ترس
فوت
##ويدية
الحظر
المطلقة
أوكلاهوما
cons
القبول
##ck
##فاذ
الأجل
ميثاق
التحقت
العاطفية
111
حمام
ختان
##amily
يوافق
الخطوات
المدارية
##طام
ent
أعرب
قارب
مكتوب
وساطة
فرناندو
المعتقدات
##وضي
بتم
هود
##irect
##ورينو
الرز
الأنب
المتس
##كوف
مئة
Val
وقب
النع
بمنا
الواسع
قطاعات
بنغلاديش
##vel
asp
about
الرمز
الوصف
الرسام
كانتون
متوفرة
المرسوم
المسلمة
الواجهة
##حرر
##over
نزاع
وجهت
over
أوتو
فرضت
نوري
السكن
القراء
Company
شهرا
المزر
وأقيم
إيجابي
الديون
Central
برق
##ena
السني
قرطبة
منفردة
##ysis
##ذكرى
تبنى
Egypt
كانساس
الإيجابي
عبدالرحمن
##رتب
بتش
##ينيون
لاين
##astern
فردية
##ظير
##قراط
بطاقات
الطائفة
المعرفية
الإيجابية
سعت
هيد
اثناء
الزوا
النباتي
##صنع
edu
وجل
الأست
##سى
List
زكي
كعب
مجد
يموت
##زيد
SP
##اطية
##طاني
##يزيا
عاب
غور
لتد
الحليم
##هرين
كوه
مضم
الكاف
الإنتاجية
كاد
ممثلي
الفكري
الحفلات
اللفظ
##ونتاريو
##يتروجين
المقدم
العميقة
##وود
##ييس
##esch
المصنعة
##raq
##المة
العيد
النحل
Richard
اسب
نبي
1878
تقتصر
مأخوذة
والراب
edition
الحسابات
السوريين
di
لاحقة
نوعان
يعترف
الأجور
ألبانيا
##ini
عا
##ناطة
الجب
##يطالية
الخبي
George
انفصال
الخلوية
##افن
##صلب
##غراف
صخور
##كره
bas
خرا
تخرجت
البارزين
وجن
الجافة
ST
مجتم
نشأة
القصف
مصممة
الذراع
الاندماج
##درين
##ينيه
هندي
first
بإمكان
##بث
نيت
ذراع
نذكر
بحقوق
أساسيا
تأثيرا
عراقية
الروحية
القتالية
وظلت
الريح
##نال
معمر
متشاب
الشحنة
منتشرة
الشارقة
Thom
الاي
سلبي
تنافس
رائدة
وسميت
إصابات
##ردون
Kar
##exual
##راثيم
يشكلون
الصخرية
##مج
جود
##اتيكان
الفوضى
RA
القصوى
##اقت
##رحات
فلا
وتتبع
نهائيات
##نولث
العميق
المحطات
البلازما
##اقط
pe
Hen
حذر
أمضى
نشطة
مارغريت
المظاهرات
##ماغي
إبد
الحاجز
رئيسيا
معدنية
الاتحادي
إعت
##يكوسل
City
مسرحي
أساطير
الفعالة
IM
سبر
بعلم
كليا
اشترك
ستريت
عنيفة
أحادية
الوالي
أمستردام
الجزيئية
الأيرلندي
##لسفة
San
##cient
##ويلية
رفاق
يجتمع
وشاركت
دف
##ادير
عجز
موهبة
قضائية
مسارات
يعرفون
الانفصال
Christian
جلي
جيج
مستوح
##نتان
إيب
Mill
حبوب
فدان
بشرية
الفقري
الوظيفية
AN
باش
الحفل
Govern
الجندي
المصابة
##اغن
PA
دل
الأسطورة
المواجهة
##زلت
##عاش
هوف
قادت
##راجعات
كرامة
##amm
##elf
هاين
يضيف
ترخيص
ملامح
باتريك
European
##يي
##ميت
##غاثة
فاج
بالمس
سلاسل
##اسر
##يلر
##وراة
إكمال
موجهة
هارون
متعلقة
سينمائي
##ادف
its
خطف
نيابة
الرطوبة
ويليامز
##den
##نزير
##ويلي
240
يور
تكمن
السلبي
العذبة
الغريب
انتظار
اقل
أوجه
فتحت
ليوب
الفرص
التبريد
الصيانة
الناجحة
##شيرة
##بطولة
سبقت
متجر
يغير
يفتح
يمين
الشركاء
تأخر
ظاهر
روابط
كبديل
مختلفين
الثمانية
لوبي
أضواء
الرمال
والموسيقى
##فاعي
أيا
Meth
أديب
سكرت
مذكرة
أسترالي
الأثناء
##ايخ
##اسكا
##يكات
Les
رأت
مقرا
الأنت
##anguage
النقوش
للفيلم
نابولي
الممالك
مفاوضات
##قلي
##orts
ull
##viron
أقامت
الجذور
الطاقم
##كفورت
تحظى
روفر
القوط
قبالة
واضحا
مارشال
معروفا
##يدالية
أدولف
منظومة
السباحة
الانتقام
الإجمالية
##فرغ
elig
عميق
اخترع
الكاتبة
الإمبراطوري
الغرف
وأقام
##هين
##غالي
لغرض
التلال
المسماة
##عراض
الروب
الشاذ
الأكراد
UK
طائ
يسبق
سريان
اكتساب
واجبات
مستوطنة
إلكترونية
##يدس
ماث
غابة
اليومي
قادرين
##دري
لث
تمتاز
يتحرك
عضوة
فالي
تضر
##ants
بمد
تشر
ثان
أكون
أمنية
والعم
الخيار
الأمهات
الديوان
الفوائد
للتد
مسبقا
المجالس
النسائي
الرأسمالية
لمد
وتغ
يدعي
العادات
الإضافية
##اقل
ليع
ولاح
الوسيط
##ony
واه
تخريب
كاثرين
لإطلاق
المالكي
المناهج
##iol
مكر
أصاب
متنا
الدالة
السلطنة
##اطرة
##عياد
بمت
جدل
حضرموت
##ربه
##نقل
إيس
كليب
بثلاث
##ura
##ترام
##طلبة
##عادة
بمش
الما
تثبت
حزمة
بثلاثة
تقاليد
##ريكان
حاتم
ينجح
اللجان
الحجرية
الاصطناعي
##اقين
تبث
##كلاند
للفرد
كريستوفر
التنظيمية
هز
تارك
خبير
ماكد
المتكررة
الغر
السجل
الذرات
General
لبنانية
الأنصاري
##ource
نعرف
تتطور
الناشر
##يبي
باح
التبغ
الفاتح
جراحية
فيلهلم
قز
جور
أفاد
الموز
ياباني
العينات
اجتماعات
زر
##نازير
الشراء
مسؤولا
##ديت
##ason
##هارة
تقلل
مستقرة
الأوبرا
المثالية
##ثرية
1876
سائر
فيني
والقص
رجع
عصام
الكلب
الصعود
الهضمي
توك
عضلة
يوتي
بالأح
كينيدي
الفس
Offic
أثارت
التشيك
1884
نووي
والتج
للإصابة
##ergy
III
ينحدر
سعودية
الأرواح
شريحة
يتعلم
المبلغ
الاعتقال
نمت
High
تتسم
إسلامي
استئصال
الفاتيكان
اسط
بيش
حروف
الربط
الجفاف
##غش
##way
Pap
ساس
##الجات
ذرات
طالبة
التوقف
الغازية
النشاطات
دوس
شائ
##فاوية
##هابات
سببا
تهيئة
شاهين
الثلاثية
##كيين
230
1883
العاصفة
##anet
##اريكا
جنين
استهداف
الجينية
مصطلحات
1887
ديون
النمر
قنبلة
الفضائي
الخضروات
##ٌّ
باكو
طلال
هاني
offic
##يدج
وأنج
ودراسة
fl
##راعة
tem
العت
هاوس
الاخرى
المرات
ينتمون
الألفية
الوراثي
##وهة
افتتحت
لاعبين
متقدمة
المتزايد
الفيزيائي
صعيد
مهند
الطاهر
الفوسفات
##gen
##رضة
ys
##بيبة
بلوم
رحمة
معتم
أعتقد
البوم
وأشهر
الأجنبي
واي
الأحرار
تكريما
##ano
##ident
stud
مجمل
وأبي
##ديوهات
الأطر
التحكيم
المعتاد
##زج
##همة
Op
##ough
##خرجة
والذ
##اديمير
الخسائر
العملاقة
##دمت
##وعا
##تمية
##بيلية
تتولى
زكريا
البارد
البعيدة
##أم
##ليكون
كلتا
أوباما
1830
يقرأ
الارض
الأدباء
فرج
##واجدة
لكأس
ألقاب
مقاطع
##ئم
##ians
##دايا
وحض
دوغلاس
والغرب
att
##وردون
Pers
اختير
الإفراج
see
خاصا
فردي
الجرعة
##اكية
سمة
روبن
يناق
Found
##agement
الهروب
Sol
أخوه
تخدم
طابق
لينكس
أسبوعين
Magazine
##دال
قطب
اللب
سرقة
الغضب
ناس
مارتين
pages
مؤقتة
احتجاجات
##فلام
##قطعة
Iss
محرم
##iev
المستقل
وأص
بعيد
معقد
يخلق
التفتيش
##اهو
##فاقم
ألفريد
الدروس
الأجنحة
##za
Don
بطن
نوك
زهير
رائحة
والكل
بنغازي
الكاميرا
##ائس
##باخ
##اذبة
ركز
المئ
شهري
فاعلة
مخاوف
ويصبح
هوليوود
##تجاه
أمة
إحت
Guide
السند
قادرا
مصابي
يوتيوب
البيانو
الحديدي
انتفاضة
Ha
شيب
غول
الدماء
الروائي
الكتابات
##يمور
فقي
تبحث
يقسم
تويتر
Rights
الحلول
الخشبية
جغرافية
os
##غلبية
مايك
الإيث
السوم
الهاشمي
الضرورية
##ani
##ule
والفر
المقابر
##ipp
##اغواي
إرنست
وحيدة
هوائية
المسجلة
فرانكلين
##لقت
##ويع
SS
Red
يحكي
##لازم
وجوه
الغريبة
الإشعاعي
##ty
out
وكار
ينمو
##uclear
المري
فردين
بتسجيل
المكسيكية
##ريكي
##ليلا
صيغ
الحرام
الأبواب
الدعاية
##ضن
##raw
##تراح
##ديوي
##ارسون
##ارسيا
الكش
القولون
##ille
شباك
قائل
أولية
زواجه
الإمارة
التشريح
أتل
1861
بلاي
برتبة
تيمور
خالية
شبيهة
بتف
##يارية
أسئلة
إيفان
اتهام
تعطيل
الإفريقي
الهندوسية
SA
##خبيل
ساخ
##ودانت
الخرس
شراكة
البلقان
الاستعداد
##be
##cc
##نها
##وظف
CH
زه
يافا
أنبوب
الحوز
نورمان
ذهاب
للعد
الفروع
المضيف
النضال
البديلة
Publishing
البلط
الأوساط
الملاحظات
شان
فورا
الطقوس
ميلانو
النرويجية
الأرجنتيني
مصل
هور
1886
خفيف
تحصيل
مفكرين
الأنماط
الفئران
##uen
##راش
شرك
##وظائف
##udi
##برس
آند
عاج
المعز
هجرية
التخزين
الأوروغواي
تحب
التقدير
للجمهور
##لمس
##سيين
sup
ونس
القش
بيكر
صغيرا
##ضار
##ship
##بادل
ايج
تعهد
محلول
معاهد
الشورى
##ثون
Arch
طواف
أوسكار
جماعية
الإصابات
العقارات
##اتة
##واتيم
ازدهار
مظاهرات
##يوم
Iran
كريت
البيط
المحمول
المحيطات
##fo
مرم
العصابات
##لهي
ويخ
استقبل
صوتا
البقر
رباعي
العثمانيون
##ese
uk
يث
##شاير
What
البطالة
المقصود
##ربيج
sec
زيم
غيل
العنب
ازدياد
##my
##men
##بارا
ومخ
دلتا
يرون
إبريل
تحتفظ
الناطق
سياحية
پ
die
1867
شكلا
يتضح
Daily
الأسط
تنخفض
يعالج
##ows
##همت
##نيان
جيه
مرد
وته
طورت
هائل
ماركوس
##vironment
الباز
خلافة
الأسبق
الإخبارية
##24
##عدى
كلب
تفعل
مسبق
القسري
اختلافات
Education
##يكة
Ad
##قراص
With
تربة
لفهم
الطبري
الحوسبة
##rag
بنز
نجمة
سبورت
مابين
رونالد
النعمان
##حفظ
##اقير
##نتخب
وتست
التشريع
الكروموس
##درز
##كييف
Pri
##ering
أحوال
الثمن
الرضا
هاواي
الجلدية
##درية
تفرض
التنس
مشكلات
الحادية
المتلازمة
##وطين
ران
لعم
بحثا
تجاريا
فرانسوا
ومج
الرعب
الإرشاد
##سطح
##تداد
##ولاذ
آفاق
الناب
med
البك
الخصم
فائقة
منتدى
فرانكفورت
والإنجليزية
##ذجي
كج
##وسون
اخذ
ساو
1864
تدمر
للاعب
##قذ
جرعة
السعر
تاونات
##25
##rol
##هذه
##wood
##يلتون
الخلط
متكرر
والسي
المنفى
النيران
##وصف
##عضائ
sub
تعت
سأل
آلام
الفتاح
المحامي
تميم
الرضع
متغير
##كى
صعوبات
غرناطة
نهائيا
السواحل
##قاليد
عضلات
الملقب
##ازف
يحق
##ثيوبيا
الطائ
##مط
أطل
لتم
##ذاكرة
Alex
لوري
يفقد
Great
البلغ
جمعيات
محتويات
الديانات
##ؤلؤ
##شفير
##ياغو
##لسكوب
دوما
الزهور
إصدارات
##ابور
طيف
تسكن
دجلة
فعلي
مطلق
يفسر
الزور
تستهدف
جاذبية
كلوريد
والسلوك
الصحراوية
المعاملات
PM
##شرون
تيت
ألياف
دييغو
ممكنة
وتمتد
هامبورغ
زب
الدا
شغلت
مثلي
أحزاب
الشأن
نظافة
السامة
المثلث
أنف
تمث
اليا
وشاعر
تينيسي
##هز
مراع
الإيدز
والأعمال
##ED
##قاتل
نوت
##aking
إنتر
تعقد
عصور
اجراء
خلدون
المغني
المعادية
##of
def
مره
MP
Sam
لحق
##زاوية
للأد
صناعي
فأرسل
الأعداء
الكابتن
##ؤوس
##ليج
##ette
الائ
للمث
النبيذ
العلاجية
المسرحيات
Phil
حربية
والتط
صبي
أثري
جاسم
نووية
Museum
الوسائط
للميلاد
Class
إلينوي
المعسكر
المضادات
الباكستانية
##لتون
داو
الهج
صلبة
أزواج
صباحا
مسلحة
##غلو
عاملا
يتوفر
التقاط
##ثروبولوجيا
المجتمعية
##أي
##iver
375
مبي
تأهل
توني
درامي
والكت
profile
##ih
##قع
شبيه
القارئ
مصابيح
Eastern
توفى
معترف
الاسلام
##uff
##فلي
باج
وشك
تكافؤ
الدهنية
##يلز
1840
خطير
رياح
سوزان
الضغوط
المفصل
##rown
أبن
منى
هاتين
افتراض
تفاعلات
إنجليزية
##غية
محو
بركة
بورغ
للان
أنسجة
الحمر
وهران
البلدي
الزوجي
ستالين
ويكيبيديا
##ولم
##ماطم
ليش
هاي
ألقت
كويتي
مزايا
ممثلا
وترأس
الصعبة
المفضل
المنشورة
##عدا
##كيلي
Char
حلبة
ذكاء
تارودانت
TH
1850
ربحية
متوقع
Middle
الحريق
الحقول
go
##فران
##قلعة
ear
غني
كجم
الإحص
اللقاح
التوأمة
حش
##ثيان
##وليا
##يمار
Mad
سمر
آيوا
ضحية
عمدة
قدما
مطعم
اكتسبت
مغربية
مغامرات
المغناطيسية
الإستراتيجية
AR
العلي
دبابة
صحفية
القطري
مشاهير
التصفيات
الكثيرون
المقيمين
##90
FA
##دونيا
جوار
غشاء
تلميذ
##ذاب
##ساي
تسقط
لاقت
ينسب
كازاخ
عط
##شيلي
كبر
الصادق
عملة
Power
سنوية
مساحت
المثقفين
المحترفين
تبقي
كأحد
الاصط
برازيلي
##لطة
##لمذ
Eth
جوف
ناز
1879
تذهب
مودي
جنازة
وزيرة
السهول
الموتى
محرر
وينت
أرسطو
الخلافات
المتوفرة
سوسة
غانا
الفيض
مقربة
بروتينات
##gn
##ينه
الطيف
عميقة
##طينة
أتلت
حارة
كرسي
Princ
الآخرة
اللذين
التيارات
الحار
المقاتلين
ره
بورن
كارتر
الدوار
التلفاز
الزيارة
المقاعد
##ama
##eek
##زامن
خلع
برزت
ديار
النهوض
##راص
##لكي
تغيرت
##عاف
##ruct
أري
ساق
صالة
خيارات
التحضير
التوافق
المفضلة
انتشارا
الأندلسي
##ases
##burg
##itch
##اكات
##قاطع
حمدي
مجلد
Music
براند
التقني
التكاثر
أونتاريو
الصراعات
##بورد
##بورن
##راقصة
1868
India
استرجاع
التعويض
وني
##ارسين
مفاج
مقار
انطلق
واصلت
المنظم
الإسكان
##ندة
عك
##وستن
بتح
##قراطي
##وسوفو
أوري
ايام
ينتظر
العدوان
والبيئة
##ico
##كرز
##اميك
عات
##احثين
##اديين
##درسون
القرآ
بديلة
هيكلة
تحدي
مسجل
القيصر
للبنات
##ئب
نحت
بارد
نفذت
الامر
بورصة
المسيحيون
##جرز
مسج
استثمار
##كيف
##رادي
Port
واقت
تركية
الناشئين
##vers
##شتهر
##مدية
##واحد
Cur
بلون
قياسي
بوكس
مصاب
##جموعات
وكيفية
الزائدة
الفنادق
الإلكترون
##همي
##ذهاب
لبث
للث
Best
Chap
Mark
أقصر
راجع
##دعي
##سور
فه
4000
الكا
تقسم
الأوقاف
العبادة
الموالية
عف
وزوج
التكيف
الضحية
الأعمدة
##ely
##نيس
##نقلة
أعت
جيس
مقط
فلاح
نارية
الفصائل
دوب
النقدي
الإحساس
الموحدة
##اعا
Spec
أخير
أمان
البدائية
##BS
##bo
قف
تنز
Clin
العز
استفتاء
##مدادات
أقلية
Iraq
أدرج
الريفي
الكافي
بالإعدام
الكومنولث
##اسيون
تفقد
وأوائل
المستثمرين
##مارة
مثبط
خضراء
التنفسي
الهيمنة
##EN
ans
كوني
وعدة
أحلام
الجند
الروك
العقلي
مكسيكو
مقدونيا
الانتقالية
##ple
##موض
##اديا
لمؤ
جرام
أحفاد
تفريغ
محاكاة
المراهقة
##قود
هدفين
الناجم
تعاليم
الاسكتلندي
##خا
سأ
##خراط
دماغ
صانع
لمرض
والقب
##ination
##70
##ضحت
ts
1869
الجسدي
الأغراض
السياحي
المولود
المحاولات
##صلا
##لكت
##ever
##وتار
رمزي
عطية
يوضع
جمادى
قدموا
وكالات
الألبان
à
حقن
##نبورغ
لحكم
مؤلفة
مناهضة
الأخلاقي
موق
##اعيات
##امبيا
حوزة
ليلي
الرملية
##سيا
حدائق
online
الجغرافيا
##راعي
الين
انتقاد
##يعة
cc
##وليس
واك
حائل
حاجز
خريف
البعيد
إثيوبيا
الموانئ
اللاذقية
الجيولوجية
##MS
##بيدة
حاك
خضع
##ائقية
Play
يفهم
يحتفظ
معسكرات
ولأ
باسم
موحدة
nology
المخاوف
##uf
##thor
نوح
الحز
يرفع
الإعت
بالات
الانخفاض
الفنلندية
##ges
##ument
بوتر
المبت
تفتقر
اعترفت
##حوصات
تعمد
محام
كأفضل
كارثة
والشعر
الجراحي
235
gro
##قاومة
Land
صاحبة
مدرسا
البعثات
مساهمات
##ليموس
عديم
قلوب
الانج
فلاديمير
##ناد
##كتاب
##لازل
إرت
وعب
يخل
ماهر
قومية
الرقيق
الشعار
النوبة
المحاسبة
الميزانية
##مدة
Ir
##ible
pres
مؤخر
أسلاف
تصويت
الدجاج
المسلح
مسابقات
عجل
ركزت
الشغب
الظاهري
جدوى
طقوس
تعميم
بمسافة
المواصلات
##جلو
خميس
مضاعفات
أخي
ذيل
قاض
كوش
العس
أبراج
أضرار
عاصفة
الخريف
المحاكمة
##قون
##كولن
Time
دونم
رسام
ينبع
طلبات
عرقية
استخلاص
##min
##اذب
##ناك
##اجرة
##امنة
Tor
1866
##ologic
##يسلندا
كبريت
بالبلدة
الدكتوراة
ديمقراطية
##emen
Ast
بام
Star
work
أشعار
النصب
شقيقة
مشتقة
أطروحة
##واسب
ودار
بطرير
والسم
Wik
مود
يحظر
مصادرة
المتعلق
إمبراطور
##ظور
Ca
يحظى
يسهل
بوينغ
وساعد
الإقتص
الناطقة
للأمراض
##احي
tra
الغار
المتميز
المرجعية
مسؤوليات
شجع
كمد
##درالي
##وكسيد
صممت
الأوز
تناوب
أبرشية
الروحي
السيئة
رياضيات
SI
##ites
##فرين
##press
روماني
مراعاة
##يمية
تحمي
الفقيرة
##icy
##سلين
##كرون
##هيار
لخط
الشج
تشاد
الحوث
##بهات
لاج
سعادة
الصعوبات
##زار
##برته
##ديدان
##سطنطين
أوضاع
بحثية
المرحوم
الجزائريين
##eth
حماد
الجزيئي
Information
##uring
الغل
روجر
##سنطينة
تساقط
الكثيرة
##lim
##كاة
سند
##تاحية
ضياء
القوس
العاطفي
للأندية
##حتوى
##ضافت
وبح
##عادلة
##هيوني
ألين
##itation
المعني
انتقادات
##حيم
MA
121
جاف
إخوة
للتش
يتأثر
الامام
الفقرة
معن
Royal
شقيقت
Martin
العظمي
تشكيلة
الاعمال
الباقية
مونتريال
وإسبانيا
##تمكن
Rob
تيل
فوسف
رادار
يتعين
باني
q
##atab
لتت
ليد
تنظيف
منافس
المناظر
##ike
TI
إط
##mann
الجوع
##til
##ange
##ابيل
فتحي
قيصر
صداقة
##حمة
Str
خات
which
إمارات
مورغان
المصنوعة
##ارسو
قدوم
يفوز
تمديد
سيطرت
اصطناع
الآتية
صموئيل
وتوفيت
أكاديمي
البروفيسور
##ión
وبت
1865
##ootball
كيانات
الأحساء
الغنائية
ومف
ناقش
للبحوث
القبطية
##ques
##وغرام
ميجا
يأكل
تفكيك
قافلة
البولي
السريري
ضرر
##ional
##وظيفة
تحطم
الحلم
تحدثت
القاعة
وتربية
الرمادي
تعديلات
##ii
##ماح
ارب
الإعاقة
##بيدي
##كمال
##والب
حصد
##قادات
1863
الطم
قويا
اضافة
الرفض
الليزر
جزائري
210
للسل
إعجاب
إلياس
البدو
انشاء
ثانوي
إحصائيات
##جنب
##مني
cod
خوفا
صادر
عقيدة
المليون
##نوا
##بعوث
##ainst
1872
يعطى
الكانت
الكونف
المستقب
والمحيط
##نزه
صنعت
للفنان
للمادة
الحيتان
Am
nn
طو
##ريزونا
المعر
الضابط
##قيع
##وغو
Mem
1873
ترسل
صراحة
مديرة
المتعلم
ic
##تحان
##ished
الإي
نقدية
وراثي
الأولاد
##الأ
يصب
Gold
لشخص
ولكن
تأجيل
المثلي
جانبية
الاختصاص
الدفاعية
دارت
أميرة
للطفل
مقابر
أميركا
عناوين
معتمدة
CD
##orth
##ديني
##كملة
##طاقات
استحق
العزف
الكوك
يتزوج
الشريك
##وعب
##احنة
تحط
تعزز
خصيصا
وساهم
التصديق
البطريرك
##سيط
Mat
Ital
تبرز
الرطبة
المرئي
##ستم
##ذكاء
##هاني
##وغان
وإس
عارف
نداء
يكمن
والشع
الكوميديا
##ten
##نجاح
تزود
حجما
يصور
أهلية
البلي
الخاض
ينطوي
مدينتي
والأكثر
الأمينية
##سينات
عقدة
منير
الخطي
حكايات
سهلة
يلقي
Paris
العروس
الليثي
المزرعة
الملاحة
هبط
العنك
منفرد
الجذعية
Ep
##موند
##ميدة
عريضة
والدر
البنفسجية
لول
البلديات
إيك
أيزو
أركنس
زلزال
للالت
ألبومات
التشريعات
البرازيلية
##رص
##جواب
ستي
فاب
الكو
صيدا
فورم
البكر
الفاس
موزعة
هولمز
والأر
يومية
إيرادات
اهتماما
المتطوعين
Tom
##اصورات
التنم
والبرا
الأمانة
الإجهاد
التزامن
المالكة
مواصفات
##ira
##vey
##سطة
##هوف
إيلي
عباد
هاتف
اعادة
الكمال
الكونت
يستغرق
إستراتيجية
##35
شد
المسابقات
##جهاد
##روات
##وارق
Out
ial
Elect
التعا
Christ
المهنة
النشطة
الدرافت
الامبراطورية
##لافا
Hom
نقاش
روفرز
زيدان
طالبت
المعيار
##ماكن
رات
##راكات
خربة
معدن
وطريقة
الآخرون
ولف
وتنق
الفخذ
مقاتلي
بالإسبانية
##rael
##ومبي
محلة
تشريع
ومخرج
السالم
داروين
المتميزة
##تك
##arg
بيتش
الواجب
إعلامية
الدماغي
شري
##باريس
ثبات
لونغ
مسافر
##ications
المبارك
المصرفية
##med
##وريو
سترا
الأحجار
الأزهار
المفروضة
##ريغون
##واتية
موحد
للجسم
الزائد
مملوكة
العينين
الاستئناف
##وثة
WW
gu
Bur
أقوال
التوراة
جثة
Disc
للحق
وعند
أبنائ
##اعرة
##لاطون
ميدي
اتساع
الأخر
قائلة
والأز
كائنات
استيراد
القيامة
الأولمبي
##ستو
##صلي
Mov
شحن
##arian
حفلة
رائع
تقاطع
التضخم
الكفاية
##غاس
##لزم
##لفل
DC
##رتبة
131
هاب
يبين
البوب
الفرج
القلم
حقائق
مكانا
هوارد
احتواء
بريستول
##اعف
##ster
##ween
##نجاب
det
##سترول
1875
##الونيا
العميد
المحتج
الإفريقية
لافت
والقرى
Medicine
كازاخستان
##رجم
Fac
فمن
لأش
لتس
الضمان
البلجيكي
النانوية
ساع
توسعت
وفيلم
Official
المراهقين
##32
كك
##لاقا
وتز
لأبي
وولف
احتفال
الفائقة
ستانفورد
الألومنيوم
##يمر
##ادمة
##قيين
has
وفع
برات
زائر
فوري
الخطيرة
السماوية
NC
لمج
مبك
نية
هدى
فأخذ
عادات
report
مظاهرة
الكثيرين
##ريسي
##نقعات
بالا
لقتل
واجب
ودية
أسوار
السقوط
القدامى
المساكن
المستهلكين
##خيم
تال
هايد
وجبل
إبقاء
تعتقد
عادوا
الفترات
##تهما
فاد
ماكن
##يتامين
بالأم
مقسمة
الدروز
##بلر
بلو
سرق
قوام
الدان
وصلوا
الفيفا
Business
مكس
##وانية
مولى
المعاصرين
##اسكو
حقا
##ronic
أسلم
الره
ذرية
القير
متأخر
متفاوت
##يلف
##ضيحة
Tay
von
لايف
الفلم
لسكان
مقبولة
المرتفع
##ado
but
بعضا
بنما
مسجلة
المقطع
حكومات
##ero
إيث
##سينما
have
غسيل
المرق
والمص
##وون
Ol
Cong
يخبر
بالانج
عت
##ئيلة
كتل
1877
الغض
ناجي
أنتوني
##ita
##ابيلا
طفرة
لقسم
توافر
حكومي
هيلين
الوردي
وثائقي
##pec
##وجا
##واضع
شعاب
عقبة
ينصح
والبط
##ضادات
حريق
عيوب
##ardian
اعداد
الجاف
الضارة
للتاريخ
التدابير
الحدودية
الكوميدي
تعلن
##فعالية
التلق
جماعي
يتقدم
النسبي
الأبجدية
##ابو
رزق
ورب
العشائر
والجماعة
الأمازيغية
##erb
بلق
خوض
also
أسعد
اقترحت
المنشأ
شل
قصي
فوزي
أخطاء
الغوص
الخليجية
المشاهير
آلي
حسان
مسكن
نخبة
موقعا
وجدوا
الانتقادات
##يكل
اغت
غروب
مختار
والفت
الأسرى
تجمعات
يريدون
بوليفيا
السلوكيات
doc
ثقب
طيب
عصبية
يستند
يناقش
system
ملائمة
الزوجان
زنج
##بابوي
ينشر
محتمل
الدرجات
##pe
##omy
عطلة
مستق
their
المنف
مساكن
الأمثل
الحرمين
تورونتو
##ida
##حواذ
pop
غالي
الرخام
المخيم
المفوضية
البروتوكول
ونظر
متميز
الفقهاء
##fel
te
##ورتون
سعاد
الكرك
وموقع
القاري
الحواسيب
المشروعات
##ريتي
المضم
تعقيد
دوليا
فلكية
جسيمات
المقبلة
معتقدات
المصارعة
##che
##رحى
أتت
جرج
##هرباء
طفلا
إشبيلية
PC
##ورام
##انيات
Cour
ابتد
مدفع
أنقرة
الأشع
رغبات
أندريه
انخفضت
فغ
روث
كلفة
وائل
مبيعا
الحجاب
إمدادات
##زاد
##لاوي
##ريكتين
تتوقف
للضوء
يشتمل
France
بلديات
كروم
يثير
اللوم
Israel
ستوكهولم
320
Bos
كيه
##ublic
##وريكو
مسيح
منشأة
يحملون
النجمية
الإجتماعية
المهرجانات
##حدود
##سيون
##مودي
Sum
صام
##زيمات
نسبه
##لفي
تعق
##iforn
ترفض
الدوا
كربلاء
قسطنطين
سبعينيات
##عج
##ئتين
##البات
استح
للتح
يفوق
##منغهام
الصنع
مصنوع
هاريس
بسرطان
متكررة
الطفرات
المدرعة
تشكيلات
تصريحات
مستعمرات
##ازر
##نجوم
who
ساكن
فيسب
التحديات
المستوطنين
Introduction
##سيه
Cup
للمه
جونيور
##يتة
##تهاد
##سناد
وسع
##itary
آيرس
Roman
##eration
الحافة
أوريغون
الكتيبة
mil
سوب
ذوات
للنا
غادرت
السائق
##كه
##ids
##آمر
##وراء
نفط
تاجر
Study
المعن
عالمة
والآن
انعدام
إلكتروني
المناهضة
##سوم
##عكس
حدا
مغط
##احنات
يعقد
Spring
أوروبي
القاتل
الكرسي
معماري
والتهاب
##po
##asc
ur
##ختار
Nat
eds
end
نقش
تدرج
داون
العبور
العقاب
المدار
البلطيق
الخبرات
فرديناند
الترفيهية
##اضة
##امير
##هاتن
العمق
جينات
الراوي
الورقة
منهجية
يقولون
##قطب
Kh
##ince
##بتين
##وكين
أسط
توري
الصداقة
فعاليات
المستحيل
البحرينية
##اتو
##اعل
gl
إدم
تحل
كمب
لقاح
للتج
الدمش
دلالة
معتدل
وبالأ
وقائد
ميلادية
##38
Mur
One
تنب
وسر
##بيبات
حلوى
كلاب
نواحي
الصمام
##بونة
الظل
حجرة
ستين
الافتتاح
##ense
عثم
##etween
بعلبك
تقليص
والنق
العقبة
العملاق
المثيرة
##خلي
fr
we
آش
##ague
المتج
Project
البيئات
التقليل
##وكر
المتصلة
##جنة
les
لوب
ومسرح
السبيل
الميلي
السنغال
##وءة
##وهرات
نتاج
الزوايا
الفنلندي
##ريحا
##ارتين
1874
هطول
وحدث
غامضة
الزمالك
اللهجات
صلاحيات
التصويرية
##kin
حذف
نوبة
خرجوا
المسجل
وتعليم
المرضية
المسيرة
المحامين
البركانية
280
خيال
مغلقة
والكر
السفلية
بذل
تعز
فاضل
الحضري
الدكتورة
المنافسات
##بب
##يقار
Vir
وقل
##atest
دبلن
الدوم
المتد
لمنصب
##يزو
EC
##ustr
##يمير
1859
آلهة
فراغ
يوصف
بديلا
متكاملة
يابانية
بالبلدين
tw
استأ
أعماق
الوالد
المكاتب
رومانية
مسلسلات
ترين
سائق
الرزاق
ميداني
الدعارة
الصفحات
المصلحة
النوعية
##امس
##ties
زاك
سمى
##عارضة
الهز
Micro
ثالثة
المكاف
وأنواع
كرس
فروا
المعدية
الثلاثين
##تري
##حبت
##ملت
اثني
جيني
للحر
أسرار
الحقن
الصلح
ووالدة
##ولوا
فعلت
ومكان
النقود
بروكسل
sci
##ander
تفصل
حسام
عمليا
البارز
الشروق
غوستاف
الإنجاز
##فضاء
ليه
مائية
منطقت
الأضرار
التنافس
انتخابية
##ثين
##شقاق
ريب
لأول
وغرب
المصر
أطلقوا
##يكوسلوفاكيا
##tt
الممل
الخيانة
لسي
اليع
الكاب
تضمين
العمري
مهتمين
الإصدارات
##رنين
##شتراك
##nes
##سبان
Bre
تود
تشين
يكمل
Civil
الأفي
التوقع
Lou
ايه
##ments
arles
##ifornia
الفضية
خراسان
##ote
##فيه
205
قنا
النظري
البياني
المتاحف
الاحتفالات
حصر
##rench
were
وجبة
لفيلم
الكهنة
بأسماء
##36
إيد
نفى
كاظم
العود
معالج
كوسوفو
الخلفاء
##وصي
##نبرة
عوف
نقط
وحي
غناء
كلير
يغادر
##atabase
الرجوع
سلالات
طالبان
دبلوماسي
##las
##كاف
##نفة
##ساكر
##باينة
صديقة
مليئة
البطين
وكتابة
الكيلاني
##ET
##ندو
ec
قذ
270
مائ
##طالبة
وألف
المصب
التضامن
##for
##يفين
البرق
الأقدم
أريزونا
##ords
شلل
ذكريات
مخطوطة
للإسلام
الجليدية
##الع
Cr
##قصاء
##لينغ
acc
##هايمر
تستغرق
section
##وادي
أوزب
الأكل
البالي
الفورم
Medical
المستوطنات
##cer
##omm
##هرا
EN
##واجن
ميزات
##ولوجيات
البخار
الملحق
يمثلون
للرواية
والقدرة
##عرع
يمت
##ather
part
البش
Counc
مليارات
الاستماع
العنكبوت
Statistics
##لاين
ويؤ
حداد
سبور
ليفي
الفخار
المبنية
السلالات
##غلي
##ودان
تلوث
راسل
الأبر
امتلك
عصابة
تسجيلات
ريش
لطب
نقي
##افعين
##ليفية
الموه
الحداد
للمستخدمين
##ky
إلت
##urity
فيرم
نشرة
Frank
الجيب
الحلق
رقيقة
دائرية
النظامية
##ices
روان
مقاي
وتبع
يفرض
أقراص
الصالحة
##لتا
ER
##خرجت
الخد
والشر
أصبحوا
جامعية
لشبونة
المفتاح
المعتقلين
##iy
##ban
##بعة
##ضعاف
only
القفز
خشبية
ustral
التفاض
##ضباط
##ودون
##ينغز
هرت
التوس
كونان
وفريق
عسكريا
مصفوفة
##ray
##tig
##ارم
##منية
##باراة
خزان
ريتش
الجيزة
للخلايا
ابتدائية
العائلية
Sil
Sub
تيد
مرش
##اعدية
##افسية
طرفي
متجه
المرب
الانتصار
اهتمامات
الاستراتيجي
بحي
Food
يزعم
الحموي
إقليمية
الشبكية
المتأخر
##وتية
جري
وعض
##هيرية
للدم
الرابط
المقتر
واقعية
##لح
##وارج
تيلي
المخصص
مزدوجة
مميزات
العمراني
##AL
دعى
أمية
إيست
خانة
لإست
أواسط
إرادة
للكتلة
البابوية
##راكم
##عبان
يكت
أمكن
ووتش
ينفذ
##وفنتوس
تبرير
مناهج
السلمي
الإجابة
مستخدمي
المفاتيح
لإد
Over
أزرق
نشوء
إنجيل
كنائس
يدافع
##olf
##يزية
war
نايت
after
الأنث
الاكت
تثبيط
سليمة
Palest
نيلسون
الدورية
النموذجية
##ئكة
##ليط
بإد
وفرة
اعمال
ميغيل
Office
إيطالية
السويسرية
##نم
##شوف
IB
##مرار
##وقين
اور
ضغوط
متصل
##annica
أضافت
عملاء
التحدي
الغبار
وأربعة
الوجبات
مناسبات
##سمح
##فيغ
##والت
##rough
يولي
رويال
عارضة
ماريو
مبالغ
الرئاسي
الصهيوني
كوستاريكا
لحن
ياق
##نهايت
لمست
هامل
السرقة
مكسيكي
Us
تقضي
طفلة
اعتلال
البنين
لوكسمبورغ
##تيك
##وامع
هيس
##يقظ
##انوس
تجدر
صرحت
غاري
مفوض
والعب
فضائية
الثورات
المفاعل
##lag
##cent
##ودات
##كسجين
أصفر
قدرت
مطلوب
وارسو
والاح
القبلية
والرياضيات
##طارد
##وانه
##ichte
##جازات
الكري
انسحب
مؤقتا
المبيض
##aur
NG
##اوند
##ملكة
Fed
اصب
حشد
وصح
##icago
الغد
وأخت
##حمد
##والم
Doc
Eri
أصر
خضعت
ملاك
احداث
الرنا
شارلوت
وتأثير
المذاهب
الرياضات
eal
عرفات
وشقيق
التمثال
وبرنامج
##ياس
مدي
هجر
أبيب
اتصل
إدانة
والتق
الفيلق
جانيرو
وجمعية
الملايين
المنقولة
##يتال
بيج
اعتراض
المربع
المعارضين
##وذا
واث
غلوب
فيلق
دومين
المواهب
انتهاكات
Ur
##انول
204
الاك
القو
frica
علميا
عيادة
والأع
Taylor
الأمية
الأنصار
والإدارة
Ros
التت
بلور
جثمان
متساب
ويتبع
الحارس
مجانية
المدرسي
انطلاقا
ڤ
##irc
##تزاز
تفكير
مصدرا
والمق
الحرجة
التنوير
بطليموس
التراثية
الجاهلية
one
##لافية
راين
أوستن
طبيعيا
الساخنة
التربوية
##ئته
##سار
##يحة
##aint
وأغ
أنباء
التصوف
تناولت
##جزة
##متع
##هدفت
كهف
site
Media
السعد
تتركز
شخصيا
صوتية
باللقب
##وارزميات
البرونزي
السلوكية
##غاز
##ides
ودم
##right
أزيل
خسرت
يعزز
واشتهر
ميكانيكا
##قمع
##يوك
##سباب
##لبوم
خصم
تشعر
سونغ
مثلث
الكلور
المرصد
بيلبورد
260
بأد
بمل
حرس
##دينيا
الكامنة
للدلالة
النيتروجين
##app
##براز
سكاي
الفطر
بالمح
فتيات
مستقر
والحم
الناتو
الوفاء
اندماج
المختصة
لويزيانا
##34
##acy
##اعون
##يداد
وقد
##حضرات
Prof
تهدد
رمزا
للتق
Liter
ارتكاب
والشام
المجاهد
الهرمونات
sch
إعلام
الضخم
خاطئة
الخفيف
Century
التداول
الراديك
الكهربية
المرجانية
المستعمرة
old
نجل
تحلي
تطالب
القصبة
المفعول
بكتيريا
##22
##ski
##وشا
Fe
بنج
غيب
##نهاغن
أشاد
ديفيس
الآفات
جغرافي
متزوجة
موجودا
الصينيين
المتخصصين
أود
جادل
الوارد
مجهولة
الغربيين
المطارات
الماركسية
فف
##ولمة
تتصل
حاكما
يجادل
الدافع
College
المعيشة
##uth
##رتي
##كسار
car
mon
حرار
تعارض
ماكين
مقبول
##وديوهات
الفجوة
مشتقات
التهديدات
##ST
##نجي
##وزين
Emp
بيغ
الكتل
بالتم
القروض
المراب
المصرف
مؤتمرات
اللاتيني
الرياضيين
##ola
Di
##راحل
##علامة
Deut
تحلل
حازت
نزار
المتحد
المقبل
معاناة
الانسان
المأمون
المؤثرة
##ىء
##طون
بسك
خار
درج
عيار
##وتينات
فلورنسا
العلمانية
حا
سبل
ملغ
1854
سوني
الأرم
تقطيع
ابتكار
فيزياء
الأيوبي
قانونيا
##ياش
تشو
إيت
دوك
كوف
لوت
المهبل
محتملة
الآليات
النهرين
للإمبراطورية
##ئبق
ملب
صدمة
معلوم
والات
انقسام
الرائعة
الزوجين
المثالي
المطالب
يستطيعون
##ults
##ريكس
تراب
الشير
تدوير
الزوجية
الضعيفة
كمبيوتر
##ona
##غوس
##ـــ
DE
بمكة
##ources
المتنا
التخدير
المواشي
التذكاري
##rie
AP
##عارف
Gal
تات
تغذية
Engine
المشاب
حرارية
القنبلة
##كرا
dec
disc
باخت
الفائ
رفضوا
العقاقير
المتوقعة
God
can
This
تشريح
هاجمت
والأخلاق
##اعب
Cy
##صرار
تعم
ألان
بولي
ترفع
شوقي
الخالق
متسابقا
مستحضرات
اذ
##رائي
##قلاع
Tal
بسر
عزلة
وتقل
البنا
##واتيمالا
إصلاحات
اشتباكات
##ips
##ركبات
الأبد
بركان
مختلطة
البروست
Environment
التكنولوجية
##وراق
eff
##تلاند
براغ
فهمي
يطالب
##atal
##صهار
##طوية
لإن
دامت
سريل
فرعي
##فيليات
index
المحام
شاركوا
اسطنبول
##64
AA
##خمسة
ويط
##ينيوم
أوصى
عاتق
الأحف
مولود
الرايخ
Network
التشكيل
إسترليني
والإعلام
##ries
##هيمن
باث
صدى
صقر
غرق
الأشر
الرصد
ومسجد
يستحق
tr
##لافي
Tod
لفر
مزد
أفندي
بحماية
ستانلي
القاسية
المنطقية
الرئيسيين
قاسية
مشيرا
الانتماء
الكويكبات
625
Rout
tari
غزوة
وارد
روائي
الجزئي
الجليدي
اقتصاديا
##صم
##سوا
تيب
هوك
بوري
يفيد
السيل
بوينس
تطورا
وتنقسم
California
##och
##بابة
##مائي
##واتب
شحنة
للأز
يبرز
الجبر
النوى
التوحد
الشعري
غارسيا
الأرباح
الاتجار
##LA
##ضين
##ونيل
غلي
##etter
Schm
مودة
شكسبير
الصفائح
العضلية
الافتراضية
أنظر
عاصم
archive
المعادلات
##لقون
ونجح
شركاء
الاحتم
الإندون
##زء
##نفس
Vo
##هدفة
بوق
##stein
1815
##ultural
الأغلب
هيوستن
##rab
##طرب
##ific
منب
##وظفين
تطبق
منفذ
الصفة
فصائل
هندية
للمكتب
Ü
##وارض
Gar
يسار
Yemen
أعضائ
إلهام
النسل
المنعم
المنطقي
المنوفية
الدنماركية
بيه
##فيديو
بنائ
للعب
وعرض
Gesch
أعيان
نوبات
الخيارات
العابدين
ماريلاند
##كشف
##موك
##بسون
Div
##ابتكار
كولين
والنس
##eck
##rey
##ساك
##eton
بوا
بلدا
تخلي
النطق
التحرر
الخواص
الكعبة
المفرط
دبابات
وكاتبة
التباين
المنفردة
مجموعتين
##موقع
##umber
مستشارا
الجلوكوز
بى
##وفيق
Stand
اليدين
لكتابة
مجلدات
الإرادة
الحريري
المغاير
المصريون
فهرنهايت
مقل
آشور
أسهل
والمج
التداخل
##ema
##دور
##ذجة
طوب
1862
تعنى
علوي
اصدار
الدوب
البدني
المزاج
التصدير
الجينوم
العتيقة
المقاييس
##عدل
##غشقر
تقف
##وريون
للتم
مادي
الجاز
الهائل
تتوافق
##انتس
##epend
##istan
الظهير
الفريقين
##rick
##ئيين
##وصلة
القطط
الكور
بحركة
حاسمة
يتحمل
review
الشتوية
الفرضية
القياسات
المسارات
اليونانيين
##iff
##كسترا
يطبق
طباعة
مبكرا
مبارات
الاختراع
##ogn
##رباط
1857
شكري
ويرتبط
جامايكا
التلاميذ
المؤسسين
الهاشمية
##39
##صارى
##قالي
ركن
##aster
تشجع
أغلقت
##79
##OM
##غري
##وضاء
جزيء
والظ
يجلس
اختارت
متطورة
Scienti
الخريطة
التبرعات
##ويز
جع
##جمان
قاط
جولي
مفصل
رايتس
Service
إلكترون
المتمردون
المحاربين
##اءت
208
خلط
1856
للطب
الكهف
تقترح
جاكوب
تتعامل
##ais
LA
بتس
وبا
##يدرات
أخضر
اطلق
Syria
المكي
انتصر
الآبار
بفيروس
الإضراب
الأساقفة
بالانجليزية
طر
كمح
كمس
يرق
الجار
برميل
ضاحية
لتاريخ
##kins
##غمات
Jew
إرب
ورك
##ينيين
بأسم
الصخر
أوغندا
الندوات
##apan
##ream
ساي
كالأ
إلحاق
مهارة
يعارض
استعراض
##ناس
تثير
راند
واين
أميال
الراد
برمجيات
##ضاب
yl
رشح
Mass
ترميز
تدابير
الفطريات
والثانوية
##ape
تكو
وبول
أوضحت
أقاليم
تجاوزت
الصنوبر
الكونية
الارتفاعات
##صنف
##دمية
##هيري
Prot
الزم
جدير
يطرح
أغراض
والمغ
بأنواع
باتمان
الملاكمة
##اكر
##ترز
Imp
Jer
##اسمين
time
ثمار
تسخين
جمهوري
للمثليين
##شرق
##ضاف
ورح
سلعة
مكوك
يقطع
##وقراطي
درويش
مثالا
##ماعيلية
الدوائية
##قباض
Fin
أدين
منعت
دراجة
شديدا
قائما
متجان
الجبار
الحسية
##ider
1849
فقتل
هداف
المطلب
متفاوتة
بوح
لبي
نسل
أشباه
تسريع
ومؤلف
للفترة
##ستقراطية
المساهم
السوفييت
البنكرياس
جاب
دوت
شيل
افترض
الجذر
رضوان
كركوك
يتأهل
يمتاز
التسمم
##ée
##رقل
330
خصص
اغسطس
تبريد
يشاهد
لمختلف
منافسات
Guardian
##راه
po
##ried
محط
ملتقى
ff
نض
225
الهل
يوتا
تفادي
الجيولوجي
##TS
##ومو
##وبيل
تلام
حمود
غانم
إنزيم
الانع
ضئيلة
Indian
القاموس
فريدريش
##خابي
##نجاز
اليز
تولد
كروس
اعضاء
انواع
وضعية
ومعهد
الأسقف
الحركي
تعرضوا
استئناف
التذاكر
التزاوج
##قرأ
##وحد
##ross
##كوني
Top
ارتكب
الأثير
مطالبة
النمطية
للإدارة
##جاجة
مارج
الكرم
موراي
نيران
ملاحقة
هولندي
ليتوانيا
##lan
##ness
شيئ
قتلت
ووسط
##ipedia
الأخذ
المهن
تعبئة
جازان
الأئمة
والمعرفة
##علب
تايم
اتهمت
القرش
خمسون
والاض
##unt
##ader
##وائع
ميغ
وحص
رأيت
شرعي
فأمر
المرئية
دستورية
عشوائية
##rd
##ضغ
فيشر
الدرع
الثقافي
المتطورة
المناخية
داخ
ييل
##فاقية
شكله
التميم
لاكتشاف
المتحولين
##RC
##يتز
##يرغ
كغ
##سلات
Open
فائق
أيونات
روزفلت
التعاقد
ينس
آلان
وصلة
محاطة
مضاعفة
نيكولا
وأولاد
يكونون
الخصوصية
##يافة
Pan
بروز
الجري
الراين
الائتلاف
##ابح
Ste
أشبه
للمق
موجه
ارتبطت
الكردي
المنتدى
الصادرات
الدبلوماسي
##86
##نفذ
مضت
بلاط
أصابع
البطي
الركن
الشوا
المغت
القضائي
الاستطلاع
Britannica
##ca
يوش
اربع
علنا
مائي
صوم
تحفظ
عسير
نتوء
##osophy
الميم
روسية
يحافظ
الشقيق
المشعة
المصارع
تلقائيا
##منة
##erst
Who
تعاطي
هجوما
البنغال
##كولات
1400
النظرة
للجهاز
الرهبان
قسنطينة
##سكة
##افيز
فالت
المغن
باركر
اعتزال
free
يتجه
الحزم
مجزرة
جوليان
Culture
الأعراق
##ella
بيتي
ديلي
يفكر
تعلمت
وأنظمة
والثلا
##سبه
##ندت
يبد
##ونالد
أدبي
تورط
وللم
اشتغل
الكرد
الأمني
التجسس
التقدمي
الجارية
توجيهات
صه
##ظرية
##قباط
جاس
جوت
People
بطرسبرغ
جغرافيا
الجنسيات
الغواصات
الأيرلندية
##حوش
زغ
##ديرة
Air
أيه
1839
رفيع
والعض
المتغير
##راخ
##قطات
الهم
الممن
Edward
ألاسكا
هندسية
الرحالة
للسينما
الاستفتاء
Government
##عوة
ca
##emin
##رجيح
نفا
Henry
حامية
مزودة
يتحكم
المورد
البلجيكية
##قفية
Free
أورد
بغية
صينية
French
استناد
الباري
الناقد
الإنفاق
الهيليوم
##SS
خطي
تمدد
هانز
وعاء
باراك
الخطية
تشيلسي
الكريمة
كوبنهاغن
سخ
سيو
##بارية
حراس
سينغ
شابة
وسمي
أوسلو
بالبر
واسعا
بشعبية
التوظيف
سريلانكا
##سمي
dv
##هانة
Leb
بفر
Trad
البيل
تنطلق
وتوجه
الأقلية
الاطفال
الكوارث
الابتكار
##سوق
##وغا
مستح
الداخ
لأسرة
مربعة
الزائر
ممثلين
الفاصلة
انطلاقة
القيروان
##افى
ut
##pons
##اروس
##اندة
##كمان
Cri
als
إبن
خشب
وهب
into
كاون
الجرحى
الكيما
الهدايا
معمارية
الاصطناعية
تيك
كهر
سلوف
الكلوي
تصاميم
مفاتيح
مقاييس
الملاعب
##جيج
##صام
##uter
Ins
Turk
المرم
المتضر
القارية
أرجنتيني
إسرائيلي
الخنازير
بأح
جرم
أبسط
تازة
لدور
مصرف
الصفقة
مثالية
##ظيما
##وردو
يتج
Home
اتبع
لادن
الأرجل
مؤامرة
Chicago
الجالية
المغلقة
الهرمون
ليا
المحس
مادية
تلمسان
المتزايدة
##اغا
##اوى
رخ
1858
فوجد
مراه
الرسل
مختصر
Program
التشفير
المراجعة
الإماراتي
##ensus
1837
خريج
الحزام
الهائلة
##اندرا
Film
سطيف
يسمع
templ
كفاية
لليون
ياقوت
صلاحية
Chapter
البنزين
الكافية
والمثليات
تغي
حري
وشع
توصف
بورتو
فرويد
قيادات
ملحوظة
وجزيرة
التحديث
الميثاق
الاقتراح
Routledge
اليابانيين
##شيل
الزنك
مؤكدة
يتحقق
العيوب
الناقل
يتمكنوا
##قوا
##ient
##ركيز
214
غزا
لمل
ليق
بندر
إقالة
الأصابع
سنتيمتر
##موا
ia
##elle
بصف
للمل
ويحد
السلك
ناتجة
يتوافق
الخنزير
الغنائي
الكراهية
الصليبيين
Stev
بوند
حليب
معمل
مسطحة
Theory
الساخن
الشيعية
الطماطم
الكسندر
الممكنة
ممن
##جابات
لالت
وحاز
##عتقدات
الثلوج
الجلسة
الاحتكاك
##ush
##قران
لال
Sing
شعاع
لاحت
##وستيرون
قياسات
العشرات
بروكلين
الفورمولا
##tr
تطو
هلس
1814
جافا
السكة
احتياط
الإيرادات
##كونة
##ياطة
نضال
يوري
اختفت
##كتلندية
السمنة
##ba
##off
##ازيب
##نبرغ
Beh
Ost
عيش
تفكك
رافق
مستش
الشهرية
الصربية
العقوبة
الانتخاب
المختلطة
##ateg
##acter
تحكي
ابتكر
تنطبق
خروجه
زعامة
فعليا
يتفاعل
تقليديا
##yle
AF
Mos
##بابات
عرضا
ومخت
ومعظم
أستاذة
الدموي
الحرائق
المثانة
Handbook
الاحتياطي
##خبة
##دود
Day
نمر
النقص
التأهل
التخفيف
المظلمة
بورتوريكو
##ía
Det
Far
المأل
تصاعد
رفيعة
استغرق
امتياز
لورانس
Islamic
التطوري
وأربعين
يبت
1600
لأهل
الأسس
شهيرة
متحدث
ملحمة
Family
الدمار
بالحكم
مانهاتن
أينشتاين
##قيقا
حمو
أخته
الخر
الفخ
السامي
غذائية
فيزيائي
##iro
RE
End
لهن
وثلا
شواطئ
مدونة
الحكوم
الزفاف
تلقائي
تورينو
وتطبيق
الملاريا
الاستعانة
الاكتشافات
##اصد
##ديال
معر
##يمة
##سيان
يتف
##يفساء
لحسن
وطرد
خيرية
##يلفانيا
August
موناكو
يتناسب
الفولاذ
والتحكم
التابعين
المنشورات
##اكسة
##وادور
تنظر
كانو
ولكل
وعادت
صناعات
المسببة
المشتبه
المناجم
المتمثلة
المستعملة
وأر
أعمق
دعمت
مؤهل
محاضرة
##ارئة
##انيك
وأسر
10000
الصوف
مارين
مغطاة
والقي
الصامت
اليرموك
##aim
##عدت
##ازيا
وقة
1832
تنفذ
مصلى
Steph
الفسي
السموم
الشيعي
تجريبية
تنزانيا
الالتحاق
الحافلات
الشهادات
القادمين
##جران
##ريزي
بيرس
تنجح
لوسي
يشجع
بالانقراض
##uis
##بعت
##درش
##زمت
ID
بورما
غذائي
الخادم
الأنبوب
الخصوبة
القابضة
النفطية
TV
##هاوس
بينت
تباع
لورد
الترق
الغواصة
الليثيوم
البرتغاليين
ae
Liv
Sun
اصل
عون
ونف
الرغ
يتسع
يسأل
حجرية
مالطا
يرافق
##ody
##لوب
##دلال
##طيلة
##ثمارية
nature
وتشتهر
الجنائي
##BI
##ذوذ
##كندن
##يموس
أودي
صيني
البرد
ميثيل
الفارس
##كتاتورية
المعدلة
المهاجر
الهندسي
الأسباني
المواصفات
Foundation
so
قاذ
##هادات
يصاب
Japan
الموث
حمدان
الكاظم
الموسمية
##oma
##تيه
قتيل
إنشائ
تعالج
حاملة
ووجدت
الأشغال
المصارف
التليفزيون
##75
##صبع
206
ركوب
لوثر
حينئذ
الأنمي
الخيالية
المناعية
##ocra
##ماعي
##نوات
mag
##ساسية
تفتح
غيرت
كالت
لنيل
الراهن
الرتبة
التأسيسي
الكاميرون
##PA
##عط
##غمة
##بعثة
رقص
هوس
عصبي
انقسم
ماثيو
إيراني
الأطلس
بندقية
المسافات
##RA
ديج
##ينيوس
Jean
تؤمن
أبولو
أورام
الجوز
بيئية
كثيفة
ildren
مساعدا
التغطية
للطبيعة
واستخدمت
ومان
الدوق
معتمد
ومجلة
##هامبتون
القطعة
معاداة
الأبراج
الإبداعية
Est
She
##شارات
##كنسون
Orig
شفيق
عشائر
مرضية
الإضافي
المتكرر
مستخدمة
والآداب
كاي
نظري
الأوب
القنا
والتد
يواصل
##26
##الق
##كيز
##جهود
أجمع
جيوف
القصب
نانسي
الفاصل
الأزمات
الخليجي
التدريبية
تسا
استغل
دائري
سبحان
للعلم
وواصل
الحامل
الأموية
يتحدثون
الفروسية
فخري
مصنف
##isease
class
العامين
سانتياغو
الباكستاني
##irth
##attle
آمون
بامت
تضخم
##استيان
الولي
بركات
حيازة
غواصة
التفوق
England
الملونة
بافاريا
الاجتماعات
##irl
##صون
##atin
##اكين
شوال
شهداء
المستع
باللاتينية
##ora
##مائهم
أنمي
تشرف
تجويف
للمسرح
الإثنين
Politics
الأسبانية
مأل
##ظريات
تسجل
يمني
##ential
السرد
الزيوت
الموجه
المتواجدة
##sten
##جرام
##وثات
أخو
راح
Jack
Long
صوفي
فينس
يحمي
التبت
الصبي
العرف
البادية
التميمي
##aff
##جهاض
Mel
لجأ
عطاء
نزول
ماركو
والطب
الجسور
الإشراف
الخاضعة
القوارب
##زد
##بوك
##ونو
Men
##خصائص
سيات
ضيقة
فالأ
إتاحة
التوص
Muslim
جويلية
##جور
dem
بأم
تخلى
خيوط
ائتلاف
السريانية
المتكاملة
Geschichte
##قور
##كبر
Af
Il
ربه
قمم
ومال
Joseph
المسبار
القراصنة
##ief
151
875
Van
بلال
لايب
المتش
جيران
لكلمة
ملازم
القطيف
التضحية
المتأخرة
##تملت
##رافة
تلة
الجع
بورس
ثقيلة
داوود
رقمية
تقديرا
توقعات
مسؤولي
المزمنة
المزدوجة
Management
##عمة
SE
رآ
##نهام
تبنت
Schmid
القماش
كويكبات
المشاركون
##شاش
##بارك
##فلاس
soc
عزف
1845
باتي
جسيم
فوهة
القلي
تتغذى
تنازل
زوجات
ناشطة
نستطيع
خوارزمية
اللاسلكية
Exper
أجنبي
دوقية
المدين
للزواج
Mary
بيات
جيري
كويت
الموريت
النواحي
المطبوعة
Asia
spec
White
صفراء
ازدهرت
قياسية
واعتمد
أفلاطون
السعوديين
~
أسل
1820
تجرى
صيفا
السمو
الديار
برنارد
تركيبة
مؤشرات
والكتب
الميزات
##كنات
شقة
قتيلا
العضوي
النزيف
بباريس
الصيدلة
للمجموعة
المنتخبات
السوفياتية
ak
161
Dig
سمو
##هاكات
المرش
المشرف
والموا
باراغواي
الأوكرانية
##رث
##جزء
IT
209
فسي
لعض
وبن
مزود
يحول
أمانة
اقتحام
الأخشاب
##atestyles
templatestyles
##ng
طي
بضم
تحس
رطل
أرشيف
العداء
المتدا
النقيب
syn
بسط
تصب
سيغ
وأث
للقب
مفاعل
إنترنت
التنين
الحلبة
مسافات
السلاسل
الغزالي
238
inc
ايف
يأت
1851
عالما
يسمون
Los
ريج
تقلد
ريفر
الكنت
##vention
الوجوه
مخططات
ولاحقا
السرطانية
الثلاثينيات
##74
McG
van
عصبة
وإلي
أملاك
اصبحت
تنصيب
تنقية
شرائح
##ماجستير
اختفاء
استدعى
متكامل
استحقاق
الحساسة
الأرمنية
العمالية
المفقودة
##apy
##فتر
##تحاد
صوة
تونغ
ماتت
وقتا
جيرسي
معاصر
القعدة
##الس
##فيلي
##نجرة
ضيف
ماز
محس
ملحق
مفاجئ
متفرقة
##اليس
ناه
##ونيوس
Wind
الإل
روبي
يهدد
الأودية
الذخيرة
Republic
كاثوليكية
##ads
شئ
##بادئ
##سارة
رعب
وتض
##ولادة
Plant
أخلاقية
##td
##ideo
##هلات
Win
Camp
Hall
إدلب
فكرية
وبناء
اختطاف
ميونيخ
وعاصمة
الطحالب
مختبرات
الاشتباكات
##خلف
##قرون
لنت
##اعفات
قشرة
هروب
ينطلق
للخدمة
الخبيثة
##تمة
215
art
اين
حنا
بقطع
غذاء
Brown
الربح
Church
الطاولة
المجردة
##RE
IE
ard
شاك
لار
نوي
أضعف
تسرب
عنيف
قاطع
فيسبوك
الأسبوعية
الأمريكيون
Bu
##وبون
بإن
بالآ
للتأ
وليم
السقف
لفرقة
هيمنة
##وهيدرات
العشاء
دبلوماسية
##اثر
##انديز
##ريكية
تزيين
استقرت
الهدنة
المنظور
##اجا
راية
ماين
وأست
تيسير
تيمية
طوابق
فرانز
الشابة
##يتامينات
##ye
##تام
kn
##اريز
جني
مالا
##نتينية
الجوف
وأماكن
الخسارة
مشروعات
المعروفين
##لهم
غسل
جورد
دالاس
درمان
law
more
انتح
تتلقى
وأنشأ
النظير
الرضاعة
المجاور
##bl
##arch
##سرعة
تلال
شهود
النشط
كامبل
الكيان
النجار
الإضاءة
اليابسة
مشاركات
الشيخوخة
المكتسبة
TP
203
Eff
ارتك
راحة
إضراب
وأخرج
ينخفض
الحلويات
##خائر
حظي
Dist
عتبة
فخرج
كريك
وتكر
Champ
الكتف
تأخير
حنيفة
الجانبي
المحلول
##atory
وروى
يسهم
خبرات
هيرمان
الغارات
متزايدة
##هدت
قو
غاي
رأسي
عضوي
##غرافية
قاعات
وأغلب
استضافت
جوناثان
الأذربيج
الاضطهاد
##بطان
تتج
ونش
أعلم
ابرا
عميل
مفاد
هواء
يوجه
المنص
حصلوا
للأدب
النجمة
بأربعة
مأهولة
الرباعي
المضاعفات
##ias
Inf
Pet
##لايين
Stan
تعطى
ميري
الفريد
المفاج
تشيكوسلوفاكيا
my
##raft
باض
تشا
سعي
كرو
أجداد
الإخت
الحوي
الواف
تقييد
شمسية
مسحوق
البقاع
كأستاذ
استوديو
فورمولا
المواليد
##كوت
##rest
أبدى
مولر
نسخت
يضرب
##iology
المتق
الأقرب
Council
##بض
##ots
##جريت
##مايز
##هورا
##يلوس
وثي
أغنى
Wiley
أردني
نائبة
يحاولون
المملوكة
المجوهرات
##78
##طاط
فى
##رياء
Sel
الرؤ
بورك
حظيت
الشبي
دليلا
قرارا
الاستغ
القرآنية
مستشفيات
OF
##عيون
##ناوي
##دينال
##ديوية
رابط
منجم
group
بالتع
تحافظ
منحنى
والإد
يقاتل
تراجعت
عقوبات
السلوكي
الفقهية
برمنغهام
##شيء
MS
Mu
##وفون
##لاجقة
بابن
للاض
وجدة
التقت
بيبرس
صارمة
ميامي
Energy
المضرب
كهرباء
وحاليا
المشورة
التماثيل
##da
Su
##تيوب
بوبي
حامض
السهم
حرفيا
الركبة
والأسود
##ائبة
Gaz
1855
وامت
##يابانية
التماس
النيجر
مونديال
الإسماعيلية
شط
##ادون
##خيال
##نيست
550
leg
فيض
##وحيات
صفاق
ولاء
يلبي
Saudi
بدايت
تفتيش
عملاق
استسلم
الحنفي
المراق
انتصارات
##95
##atus
##rain
حاض
##جارات
فيلد
نبذة
ورسم
الفاش
تزامن
فتكون
لرؤية
ميرزا
وجبال
القرشي
هابسبورغ
المشاهدين
##gar
##osp
##rich
##واتر
##وبتر
تحو
نقوش
الخان
زوايا
كارلو
وابنة
وينبغي
الورقية
الامبراطور
##ذبح
إند
راو
مخب
ووس
##حادية
حروق
خطرا
المؤكد
البلاستيك
الاتفاقيات
##تعة
##خلا
##riage
##هيزات
جهاد
يانغ
أجيال
ألحان
جوليا
الطيبة
القضيب
غراهام
##مئ
##ype
##شعاع
موش
ديلا
الزنج
Canada
المايا
نموذجا
لسباقات
للحرارة
البرمجية
##eign
##osis
##امبو
Jac
##غانية
1844
الآر
الوت
زمني
##دميرال
البئر
والسك
وسكان
الولاء
الإباحية
##én
مفه
سيلي
ويمر
غابري
ليسوا
رودولف
الفلسفي
المسلحين
##zo
##سيخ
275
فوك
##ories
آباء
خصوم
other
أعادت
الريش
سفيرا
منشور
Nuclear
الأعيان
روبنسون
العشوائية
الديناصورات
##par
##حبة
##ويرة
انا
فيج
6000
Cath
حقيق
يشتهر
الملاحظة
##زلي
بأب
بخار
اللوز
الوفاق
العشوائي
##ذيعة
مؤثرة
الرومي
الآشورية
الاحتجاج
التوقعات
##cep
دنيا
فقرة
المحب
ديانة
مقعدا
العامية
يحتاجون
الخرسانة
بالبطولة
دى
##تيار
##نسيا
ABC
ref
Tour
name
حلمي
ماليا
ومتحف
يسافر
ملبورن
المتطرف
المحاولة
المكتشفة
الاستعماري
ماضي
استلم
اطلاق
النحت
تبسيط
غارات
والدا
Jewish
الأخوة
الفاشية
المفاجئ
المنشأة
الاستواء
المقترحة
##II
IA
##ract
650
Eis
إني
اعل
أنهت
##idence
أمهات
الناف
تتحكم
والحص
الصوفي
سانتوس
المقياس
##طير
##ease
أنجز
بالمع
الصيفي
للتراث
المحفوظ
البحريني
##أب
##دوا
##ريوس
##صفور
##ويون
للظ
مواع
##كندرية
البصل
الرقة
الخيمة
المحبة
ويختلف
المتبادل
الاستشارية
الجيولوجيا
##ابيا
##ورون
الة
لغم
1847
ألاب
التدف
بموقع
ncient
الرقبة
المكسيكي
Commission
الطبوغرافية
##سه
##آثر
##جبين
ديتر
الترشيح
الزلزال
الازدهار
الانهيار
المزروعة
##sen
##قلم
##idae
##ربات
##ركيب
256
بطلة
بلات
كلود
ندوة
China
خاضعة
متواز
والتب
واندر
الصداع
يوليوس
الإجازة
الشيوعيين
##جوب
##كسيك
##نازل
##وكلي
Cop
##فلاند
صبري
Death
أنغولا
الثمار
Nations
أركنساس
المضافة
##حاس
##تدال
بكم
تبي
عزت
مأس
وبج
Fact
أرادت
Second
تويوتا
لتسجيل
المئوية
##عرش
دود
text
سراي
سنان
حساسة
لوبيز
مشايخ
اكتمال
السلفية
النتوءات
##فيس
##لور
##خلية
##مسيس
عطا
1846
نادى
Issue
أجنحة
الهير
صفاقس
والنت
ألبيون
الألغام
التجميل
وبالأخص
##ريو
##واش
At
##قيمت
333
نجا
##clude
##كارات
3166
البس
يهاجم
الأقصر
التحليل
الشيرازي
##كينز
Que
هيو
##ليمتر
ولدي
البعل
الخزانة
##وندي
باخ
##راوات
تدعي
حواف
شيدت
كيفن
لينين
يتطور
الفيضانات
##رعاية
ngel
القرط
مهاجم
القلاع
المعمد
الترابط
الرفاعي
الملائكة
##ترون
##خدما
NGC
met
يمل
دلهي
نحصل
نعيم
ومار
القمع
مرغوب
المكثف
تخصصات
سيبيريا
##مجة
##وجو
##نساخ
إبر
Prac
جولد
الفلز
وأصول
المحدث
الاصابة
##go
##فظة
Tem
ميم
وشرح
سيلفا
غازات
منغول
اثنتين
تنفيذي
زيارات
لتصميم
الرواسب
السليمة
الصحابي
الأكاديم
MI
##اريه
##ركلي
##فترض
sex
أشت
كلغة
Union
المرفق
السلمية
الإعدادية
##قرية
##واصم
##ياطين
جفاف
عواقب
تعقيدا
مدغشقر
الألقاب
الإماراتية
##ms
da
يصر
لاتف
نزيف
يلجأ
count
باللغ
حافظت
حافلة
والكن
البشير
الادعاء
ودراسات
الحسابية
##زاع
##وبو
##وكرب
216
Sar
##lands
السيت
وكلمة
البربر
الحواف
الكروم
التنازل
الجراثيم
المعتادة
##wa
##ift
ارض
تقتل
الحوت
الشوط
فوربس
الدمشقي
التمارين
##gh
##uck
وحب
أريد
بونت
عقدا
وبرا
وورد
يزرع
التقي
ماراث
المجري
للمدرسة
##ا
##ل
##ي
##م
##و
##ن
##ر
##ت
##ب
##ة
##ع
##د
##س
##ف
##ك
##ه
##ق
##أ
##ح
##ج
##.
##،
##ش
##ط
##ص
##خ
##ى
##إ
##ز
##ث
##ض
##1
##ذ
##e
##غ
##0
##a
##2
##i
##ئ
##o
##n
##r
##t
##"
##9
##ء
##s
##ً
##(
##)
##l
##ظ
##3
##8
##5
##4
##,
##d
##c
##6
##7
##h
##-
##u
##:
##ّ
##m
##ُ
##p
##آ
##َ
##g
##ٰ
##ؤ
##y
##f
##%
##A
##S
##b
##C
##/
##v
##ِ
##M
##w
##P
##T
##ـ
##R
##B
##k
##I
##D
##E
##N
##L
##H
##F
##G
##W
##O
##؛
##J
##ْ
##–
##»
##«
##ٍ
##U
##z
##'
##x
##V
##K
##]
##[
##_
##;
##j
##Y
##=
##q
##ٌ
##|
##&
##é
##٪
##؟
##X
##!
##”
##Z
##Q
##“
##+
##?
##’
##*
##>
##ی
##<
##•
##°
##ü
##\
##—
##^
##ö
##ó
##á
##ڤ
##٬
##ä
###
##ı
##í
##پ
##گ
##‘
##×
##è
##}
##$
##·
##{
##ş
##α
##ک
##ç
##à
##−
##а
##ñ
##چ
##ß
##о
##и
##ā
##Ü
##æ
##ο
##е
##É
##′
##١
##~
##ğ
##н
##ú
##ρ
##ς
##ν
##İ
##р
##μ
##λ
##β
##с
##ι
##â
##ø
##å
##٠
##י
##š
##ê
##ε
##т
##τ
##٢
##@
##§
##ã
##в
##›
##π
##к
##σ
##‹
##ō
##ł
##→
##ٱ
##л
##ī
##γ
##ھ
##±
##ć
##Ö
##٩
##£
##ו
##κ
##ë
##î
##č
##ə
##ï
##ô
##ה
##ă
##●
##ר
##„
##δ
##ί
##θ
##Ş
##η
##ū
##Δ
##`
##٫
##д
##у
##Ç
##⁄
##́
##ό
##ά
##ω
##υ
##®
##٨
##€
##ž
##ב
##↑
