[PAD]
[unused0]
[unused1]
[unused2]
[unused3]
[unused4]
[unused5]
[unused6]
[unused7]
[unused8]
[unused9]
[unused10]
[unused11]
[unused12]
[unused13]
[unused14]
[unused15]
[unused16]
[unused17]
[unused18]
[unused19]
[unused20]
[unused21]
[unused22]
[unused23]
[unused24]
[unused25]
[unused26]
[unused27]
[unused28]
[unused29]
[unused30]
[unused31]
[unused32]
[unused33]
[unused34]
[unused35]
[unused36]
[unused37]
[unused38]
[unused39]
[unused40]
[unused41]
[unused42]
[unused43]
[unused44]
[unused45]
[unused46]
[unused47]
[unused48]
[unused49]
[unused50]
[unused51]
[unused52]
[unused53]
[unused54]
[unused55]
[unused56]
[unused57]
[unused58]
[unused59]
[unused60]
[unused61]
[unused62]
[unused63]
[unused64]
[unused65]
[unused66]
[unused67]
[unused68]
[unused69]
[unused70]
[unused71]
[unused72]
[unused73]
[unused74]
[unused75]
[unused76]
[unused77]
[unused78]
[unused79]
[unused80]
[unused81]
[unused82]
[unused83]
[unused84]
[unused85]
[unused86]
[unused87]
[unused88]
[unused89]
[unused90]
[unused91]
[unused92]
[unused93]
[unused94]
[unused95]
[unused96]
[unused97]
[unused98]
[unused99]
[UNK]
[CLS]
[SEP]
[MASK]
##en
##er
.
##st
,
m
##är
##et
i
##an
##ar
är
d
o
##ed
##at
s
##li
##ad
##om
##in
k
##el
##ch
##ra
t
f
h
##ör
##or
##il
och
v
##un
n
med
##av
D
##on
##al
##kt
p
r
den
b
##sk
##and
##ste
##em
##ån
##lig
S
##tt
av
"
##eter
##es
g
##ur
Den
##ing
##ni
1
l
T
##aste
##am
om
##aden
en
in
##örd
°
##erb
C
L
##ederb
##kten
##ederbörd
M
##år
A
##ol
B
ö
##per
##att
-
##ud
G
##ro
K
##tem
##än
j
för
##der
##ck
##ri
##ver
##re
##rakten
##na
var
##ill
##unt
##ning
##atur
##ger
##enom
som
I
P
##eg
##uv
mån
H
##aturen
##peraturen
##eltem
##eltemperaturen
##sni
R
##ut
st
##uvud
##are
månaden
##id
##lim
##snitt
mm
##enomsnitt
nederbörd
##all
##as
##is
huvud
del
##ska
##ak
km
##ig
##ade
##pp
till
##ett
lig
##äst
ligger
på
trakten
##ari
N
##ter
##ll
##og
)
(
2
##ef
##ord
19
E
##ber
##sm
över
##ag
##ometer
de
##ilometer
år
runt
F
reg
##it
##ion
land
##iv
att
##maste
##us
ett
##uari
meter
delen
kall
då
Å
##land
##sta
##ent
det
O
##avet
##ell
##rat
##orra
##staden
landet
År
##ik
kv
havet
##yd
J
huvudstaden
a
##ot
##gen
##smed
mil
när
Årsmed
års
varmaste
kallaste
per
20
inv
##nig
V
##limeter
millimeter
##adrat
##enomsnittlig
kvadrat
##nederbörd
torra
årsnederbörd
Genomsnittlig
genomsnitt
##art
regnig
torraste
regnigaste
##kilometer
##sen
##het
##de
##limat
##um
##arna
##olk
invån
invånare
##os
ut
##ust
sk
##br
un
nord
pro
##ns
syd
jan
januari
##äll
##ande
sam
##ul
an
##efolk
##ster
##ac
##ga
##uli
be
##befolk
##vin
##le
c
##ens
##rå
##sak
##ug
Det
##te
##öd
##giv
hö
##väst
fr
juli
In
huvudsak
##omm
##upp
##ia
##rän
under
##äx
##ic
han
har
li
##går
fin
Trakten
##ost
##ep
##la
sl
rå
##ven
vid
W
hög
##heten
:
##if
##rä
##od
råder
##ek
väst
St
provin
##ark
U
of
##end
##ningarna
##ades
ingår
##ist
##ember
provinsen
##ov
finns
##jö
##rag
upp
närheten
vatt
å
##givningarna
##errän
##errängen
##ort
##lin
18
väx
från
Runt
##ock
##ugust
##op
##befolkat
##iska
##und
men
högsta
pun
##ex
august
augusti
Ch
tv
##ir
stör
punkten
##äl
##ann
##ka
##ans
##ue
kilometer
sp
komm
##yg
##ien
##ong
201
##ation
##ab
två
##erg
##eller
##ant
##anska
##endrag
##stra
##uk
##ind
vattendrag
200
Terrängen
##ala
##son
##ada
##änd
##ub
##skog
##ess
##ap
##sp
##ick
##opp
pl
##orr
ku
fe
sig
##rev
ä
##ok
##im
##ang
##för
öster
##råd
##bruari
februari
##ilj
/
##aj
nordväst
eller
##klimat
##ne
3
fl
An
##som
##häll
Ar
##ars
##ligen
gl
##ta
##efter
##uni
##alet
slä
samhäll
##ktet
kommun
##ung
##aw
##ram
sjö
##yck
berg
där
Lac
##itt
sin
##äm
väster
##yr
##da
##els
omgivningarna
växer
juni
##iskt
##ake
##ib
dec
##ats
##åg
norr
Kan
##amilj
##ionen
##öder
december
##skap
##entra
##den
åt
än
Lake
##arter
##ikt
or
familj
När
##ätt
Kanada
##ore
4
större
##ät
##isk
##rådet
Han
besk
efter
##erna
gles
sydväst
##amn
##sam
Cer
##he
nära
glesbefolkat
##era
sep
familjen
söder
best
##ec
centra
Cerro
bland
##lev
##00
##tember
##sl
september
##revs
##ång
##atal
##rö
##ober
6
and
Al
##red
##perad
##est
##sh
kuperad
släktet
##ma
list
Q
##org
centrala
##ring
##ten
kon
ganska
##ningen
##ling
nordost
beskrevs
##awa
##ou
5
##ier
samhälle
##ife
underarter
Närmaste
##ay
##östra
##indre
##onen
mindre
Life
En
##atalog
##ev
##ott
##ob
huvudsakligen
även
##äg
Catalog
tid
Catalogue
Inga
blev
listade
##ningsom
gr
##yn
##ara
inte
##oppen
##avann
mars
La
kan
##ekt
##rik
##ygg
##äng
##orm
okt
##eb
oktober
##rop
ar
Toppen
##oli
##yt
mot
##pr
7
Om
##liga
delst
##ass
199
består
hade
##ina
nov
tät
maj
##ran
'
##ull
##ål
##ss
##befolkad
##rin
e
vil
##ycket
platt
##rig
##ligt
##edan
november
obefolkad
##oll
Ö
##smark
nog
##ora
##des
##ken
Ott
##ard
sydost
##aten
hon
all
mycket
##ets
##iss
##ah
##ount
##sv
##ast
spel
rikt
##ali
klimat
##ket
El
fick
##man
##eck
tätbefolkat
##zonen
##erade
##oh
##ers
Ottawa
##ili
##oreala
klimatzonen
man
##sklimat
17
hem
regionen
##ft
##olm
föd
##ea
namn
##bet
fram
andra
##io
##uc
Z
genom
##rit
##pril
Y
april
##öl
riktning
–
##alt
##arl
##oc
sydöstra
så
samt
##ff
0
##ild
första
De
##verig
##aren
##ropiskt
jord
Omgivningarna
delstaten
##up
##ors
8
##jär
lat
##bruk
Ind
##ukt
först
ex
198
sitt
talet
##ie
Sverig
197
Mex
##så
##ras
##ödra
sven
9
long
##nat
ant
##ytt
##ds
kom
##berg
dess
##ellan
##ow
al
##ip
##ym
##ningar
##holm
född
##ron
största
##igt
##råde
området
kl
Sp
##ts
ock
jordbruk
##örj
##kring
##öv
15
##amp
##res
##ölj
##rinningsom
sj
##ew
196
16
död
anv
stä
också
kommunen
##ella
##etta
Sh
##iet
Sk
Cre
##ons
bas
omkring
##ana
##inn
vilket
mellan
##ilm
sv
##ry
##verk
##erk
jordbruksmark
##del
##int
Un
%
ny
##lar
el
Col
Creek
##je
Is
##åt
vär
##ställ
hemib
hemiboreala
##åll
##yrk
sedan
södra
börj
Savann
Savannklimat
##sb
##nad
Gu
någ
##istri
För
##ida
##eh
Med
Qu
##ert
##rist
##bl
##ern
västra
##riv
blandskog
bli
norra
##ich
##ont
##ones
växt
##pel
Sverige
##our
##skland
sen
Stock
w
östra
##ola
öpp
##cker
##fl
##jord
Mar
195
##akt
Tropiskt
led
##lighet
194
##ian
Stockholm
Ant
##ond
annat
##amm
grund
##fter
##nan
##öp
##erat
##pl
##entet
Joh
kull
##osa
Ett
##ys
##qu
omgiv
The
Sa
##ult
Bo
##alm
##lien
hans
##ity
##fatt
ha
##lika
bar
##iga
följ
##lag
br
Klimat
##elh
##nas
Fin
##ja
Bar
slut
rep
##ey
använd
Art
##vis
kun
##amer
sä
bet
##ach
193
##äv
11
Indones
##arta
Indonesien
##nar
##ld
##öj
##ustra
##ön
##ha
Le
##ser
10
Hon
savann
##gr
tr
San
##ulle
Bred
##orn
åter
kulle
##ingen
ur
##alen
verk
Klimatet
##ack
##vers
omgivande
##ce
192
Fran
basen
##iko
natur
arbet
New
hel
bygg
mus
skulle
inne
Sch
##röm
terrängen
inom
Under
Austra
##onom
##ater
Bredden
Br
##var
Th
utbr
##ansk
art
##olog
12
##yp
##raf
Pro
##iod
nu
##jön
191
##min
Mexiko
##eng
y
stud
##utt
##mans
läng
##aget
utan
##eras
län
##yl
Mount
strä
##skapet
##itet
Jak
##ner
##ata
Efter
konst
##dag
Par
##asa
re
utbred
##rinningsområdet
eg
flera
bu
löv
14
Ma
Are
Finland
##rid
rik
bergig
senare
olika
##ire
##ubli
##ende
##ena
##par
la
växtlighet
grä
Gr
##igare
##rön
##olit
öst
##mer
##ift
##enn
##borg
dock
##håll
tre
ek
Po
sina
Man
##hus
öppet
##ico
##istor
##of
ort
##omb
##else
##ningsområde
##eli
##spel
##äk
Artens
Av
##förd
##lem
Arean
##jur
gäll
inga
##iz
##älv
res
ad
##amb
##ök
Jakarta
##ine
##räd
stor
##kl
svensk
buskland
busklandskap
##ón
Sant
sydlig
vara
bl
Nord
##ica
detta
##ish
##out
samma
Island
##az
period
##bar
##ula
Bras
##amerik
13
##ris
##éb
min
utg
##rätt
film
City
##landsklimat
”
190
##sa
gjord
tem
##oma
mest
##led
västlig
Her
##net
int
;
sm
##äck
ser
distri
##ile
are
liv
tidigare
sock
Medelh
##äld
##ua
count
Québ
lång
Québec
ord
##nen
##väx
form
##gel
exem
svenska
the
hand
sträcker
stad
##esa
Ph
##huvud
ber
##nt
lövskog
##fors
##bum
##ct
bes
Australien
##erar
##rott
##andet
##ubb
ekonom
savannskog
##umb
##ial
öv
få
bå
sjön
##ister
kyrk
##ya
##enter
bild
##rod
sydvästra
antalet
##sammans
##stad
själv
##ström
ty
Gun
ofta
##mar
tog
##form
##erad
vis
##eln
##eder
##rar
här
##orna
countyt
##atch
##lan
##veck
##erades
##lia
##ppklimat
##elsing
##heter
##rav
samhällen
Helsing
sy
På
##co
många
mer
##ium
lag
##ämn
##sson
person
##urop
mål
nordöstra
##öra
Vid
##by
van
Inlandsklimat
dag
##ationen
2010
##sten
män
se
förb
lite
##lingen
##oder
denna
##rike
##råk
##partem
##elsen
##samling
gällande
Mexico
##ca
##han
X
##smarker
##mark
Gö
alla
musik
vatten
##se
nordvästra
Co
gräsmarker
Ab
##tid
189
##ings
fort
följande
Väst
Kin
Or
exempel
##ux
##yra
##ank
Ro
##ura
Que
##000
Fl
Ad
amerik
temper
##ario
##ago
##ägg
stora
stäppklimat
##gan
öken
du
tillh
förs
##partementet
kallt
188
##raft
##ru
städs
städseg
regn
##inge
städsegrön
gjorde
##én
##nings
ökenklimat
##erv
socken
US
Ge
tillsammans
naturlig
Gl
innan
känd
Stor
by
##cent
sub
##ton
##osaik
##rum
Ä
periodiskt
går
##met
Syd
mosaik
##ain
enda
##svar
Am
##onsun
Kh
monsun
regnskog
##af
departementet
##slag
monsunklimat
##ge
##rakt
Helsingfors
Sc
##ald
##rån
boreala
dem
##gång
##alv
Ko
##bo
par
Wil
##ägen
##ph
Carl
regnskogsklimat
ch
Be
ekonomiska
##orsk
##ioner
##jän
do
Kina
skog
##oph
äg
##bygg
tempererat
##rukt
Ca
##med
Per
Sven
##ke
##ången
##pro
##ille
And
plats
##ellt
##tern
##ilien
började
##ckt
##bb
&
##reg
##men
##iva
Hans
##satt
dessa
Ont
He
Frank
##urg
USA
kat
##ator
Kinsh
Kinshasa
##yll
främ
##nien
Gunung
Ontario
Pa
##ärn
##gram
nya
##bild
Mad
folk
##atan
186
##spr
värld
utveck
##gar
##van
##nit
ind
23
##illa
polit
Mon
area
##uss
Car
ön
sid
ye
187
##ennes
##sätt
Mari
##ies
##sart
##ivis
Bro
##ei
honom
##va
prod
förek
##ånd
blir
Ed
##kom
äld
lik
##iker
staden
Sam
##eten
gen
000
allt
##tart
Lu
##arbet
Dan
##ommun
##sf
##hand
Bay
##minist
Alger
##riget
25
Se
histor
Ut
flyg
Karl
Reg
varit
##öt
##jäl
ger
början
ingen
fot
##ista
##ij
##ivers
landskapet
Chile
##ker
Ag
##lands
Medelhav
##als
##cia
kont
##dom
Mo
##ongo
##gick
##utom
församling
gick
pr
riks
vann
beg
Antalet
##una
kunde
Har
Air
te
Medelhavsklimat
##iken
##ministrat
##che
hett
##teborg
ra
30
##ingar
Bu
##au
##use
##sprung
##iver
Loma
fyra
namnet
hos
Öster
##ila
2016
kvinn
##anns
##vär
##emi
fem
ung
val
##ash
All
##aka
Re
##arande
fär
##ins
Göteborg
tot
administrat
##lis
##äs
tro
medlem
##ork
##vi
##za
##yk
et
Point
Los
##hö
##band
Ber
Brasilien
spelade
##ej
##vinge
von
cir
Ol
##anien
##old
##ition
Arten
delt
barn
2011
##iel
fukt
##olan
##ograf
några
##anj
##lade
part
##huvudstaden
ud
flytt
Pe
mark
##ensis
##yo
Detta
tur
##adi
##derna
##ritan
förekomm
##list
##ttp
##th
off
2000
##rek
Mor
Bl
##ritt
##ärk
##ret
Bur
hela
Europ
tvåvinge
tvåvingeart
##ío
2008
##yrka
Eng
bel
##rigt
##ane
Sjön
##jör
##vatt
##ände
distriktet
ursprung
tillhör
ans
kommer
ska
Storb
univers
##port
gav
Upp
föret
fanns
subt
Tim
Af
Storbritan
2007
Ta
##ress
Havet
##eau
##elt
des
Jawa
##ultur
viss
enligt
Lond
övrigt
##ternation
##anda
##örde
ställ
##öst
Kar
##yc
akt
22
2006
##omin
##ära
##ath
##ita
##oris
##ius
förl
##änt
udde
arten
norrut
både
##ren
##uppen
köp
##las
fuktigt
verksam
ta
2014
2012
subtropiskt
##orp
##öm
##skil
##ler
son
21
Brit
##stem
##ego
2015
##ående
London
##onst
##rich
delstats
##ama
Sar
söderut
omfatt
fun
##fördes
bara
Till
Columb
Colomb
Storbritannien
författ
används
Kongo
##songen
2009
##iat
##pt
##olf
##ött
‘
vin
skap
British
##ader
er
##ationer
Provin
##oner
Där
rätt
Georg
prof
##bär
Río
bok
24
släpp
John
Je
Saint
Sveriges
Dess
Ty
Hen
##outh
##boll
Ru
kort
##ive
##och
##ånger
san
Fred
Ha
##ice
cirka
Ser
Mag
##gent
##ubliken
Columbia
##tes
album
185
västerut
österut
tal
##eae
Frankrike
##pa
något
##ova
##lut
##ale
stat
##we
##ii
Ang
uppt
##ebel
##kte
Norra
##åd
##unds
##äd
##oss
28
Öns
##orth
##ba
##uan
bef
ol
##har
po
##blad
engel
##nisk
Quebr
Jos
längd
rom
2013
Desa
hennes
##rim
plan
##ood
täv
samman
Tr
##rand
gör
##án
##länd
Quebrada
änd
barr
##elm
administrativ
lj
Dj
##väg
får
##ektar
##ira
##aga
##ht
##ika
TV
hus
##råden
##lex
Ny
Lag
##ines
27
Sm
##djur
kateg
##naden
##idae
##ös
vikt
Con
##nade
Herc
bil
##irk
##ith
##stånd
##tet
##to
lär
Sv
sätt
Ba
hektar
le
Distri
##vina
förekommer
##istan
ner
##fekt
##ering
medan
##alk
barrskog
##eri
##ästa
Som
##unta
väl
##ley
match
deras
##arkt
komp
##uld
Uni
Las
##ham
äldre
före
##ander
##elser
##lo
Christ
ned
##ighet
##sch
Bosni
South
totalt
26
utgör
##but
ark
http
Bosnien
nation
Aï
endast
##irekt
organ
Ste
##me
We
hjäl
##roduc
egen
varier
Ne
Dam
Kust
ob
##rade
##orter
Ou
##äckt
2005
num
##aceae
##ate
universitet
ww
Hercego
www
Spanien
pres
##opul
bak
##que
Hercegovina
II
##one
profess
Mont
184
##räns
##err
fri
##otter
reger
##ementet
Enligt
##uel
sex
##ric
tjän
Hill
innebär
com
##amla
därefter
Colombia
vill
River
##ho
låg
betyd
Pl
##skri
##ado
##roll
##ide
##ått
##ymp
##ión
em
moder
amerikansk
fast
Läst
##sför
##ivt
Er
far
käll
##UC
##ador
##ix
##rom
##hu
SM
##sc
Min
##ilit
##etenskap
29
antal
Kustklimat
##ånga
kung
IUC
ytt
ge
IUCN
##ori
##vern
##ård
##ytan
Punta
slutet
ry
2017
Från
##talien
##slut
värl
##ås
Mountain
2004
##ona
##ng
skrev
##stället
Svenska
id
Ander
sista
##erande
Kū
trä
Hu
Pu
##gård
säsongen
skriv
pre
##ropp
delar
främst
sär
möj
Em
roll
England
##vit
Pol
kallas
ins
start
##ider
låt
region
stort
Me
##ynd
##änder
##plats
Koud
Wal
vilken
##ident
Ka
republiken
##ement
##köp
Arro
##ugor
rad
eftersom
##när
spec
##åten
avvatt
##upper
##tal
##bund
publi
divis
##delen
program
Sul
skri
milj
Pet
Ten
sn
Nation
någon
Kūh
Ac
##its
##ani
##ox
2018
##her
##ides
met
Tyskland
gu
##bland
##lades
Ben
##atsen
kategoris
lok
##skar
repres
inåt
Johan
mitt
##män
Kab
##nes
##itut
vik
befolk
##ília
Cl
##lek
håll
At
183
Aïn
##ros
Brasília
god
##ole
##eta
Indien
##ströms
redan
fall
väg
britt
Mart
Cañ
Lund
vän
##esi
åren
små
##träd
Rab
##järvi
halv
District
Peter
slutt
##ão
glob
Södra
##ifl
##ite
##orea
Stockholms
Ex
Lind
##liv
##ske
##olo
##iella
##age
kvar
##tter
Jean
Te
kol
31
##rades
Li
##ero
Sal
dom
hur
1990
Berg
##växter
höj
und
människ
band
Bog
kategoriserar
Santa
Mc
Kung
Centra
tred
bruk
kultur
##lit
Can
Mal
##ound
Su
##ådes
Malm
Lo
##ådespel
Rio
Ter
##stopp
##ligare
lyck
##klar
50
##rad
##iden
##lägg
Fri
gener
fotboll
kines
soc
North
Dav
Tor
Provincia
red
järn
##flugor
vissa
##otten
##äder
##rog
##arri
dal
helt
##fall
##jort
##äster
##igheter
Erik
innehåll
idag
kap
##ög
##ening
##eph
tiden
tit
samband
65
##bert
##ogs
##uren
tillb
istället
personer
di
popul
##äkt
sak
##adels
kallar
Lib
gången
Ver
##ito
##oul
##förande
mestadels
organis
##ae
bergstopp
##enb
##esh
ofrukt
##ament
ofruktbar
2002
Bra
##iro
##cis
##växtart
Dar
##amen
kvinnor
inst
Santi
sluttar
##ict
ter
krig
##nande
ytan
tyska
utt
##rinningsområde
Mich
##alif
##landet
##amot
1980
Mesa
##ops
deltog
Norr
##enne
Kl
##lingar
##anc
Lin
ma
varje
syn
kraft
##edon
båda
distrikt
##omp
##skriget
Arroyo
Rober
##skolan
gamla
läg
kyrka
sjuk
Bul
##okrat
forsk
Santiago
1970
Pas
##agen
Tur
2003
Kō
##språk
##jen
##bol
når
##ordning
Angola
##atet
##ämt
##ytor
##ps
tillverk
##äknas
Algeriet
##fäll
Ho
##ions
direkt
Univers
hot
AB
Mus
##nik
##ocko
##fär
##adem
##alb
Men
York
därför
##öjden
milit
kring
Kr
Res
globalt
1999
##agu
Marocko
rev
Gar
for
100
##kar
##aler
fil
Park
##ism
vattnet
Krist
##ghan
##sala
Madrid
181
##ernas
##rika
Sim
##ney
fle
Film
Denna
varm
produc
delav
Rom
rör
##cher
Argent
djur
svamp
byggnad
##lopp
skådespel
Jo
##arnas
##avs
uppströms
_
klass
##ubben
vilka
##äss
sc
##plan
Willi
blivit
sål
Nor
##HI
##les
##korea
182
frå
utbild
Mel
Afghan
fått
vers
internation
##järt
##oden
engelska
##ban
##kel
##räck
vidare
kant
sång
ers
byggdes
SMHI
##itekt
Även
Rabat
##ele
Paul
##procent
64
##ure
Port
Paris
framgång
bort
Afghanistan
kinesiska
varierad
Mu
vad
##namn
Uppsala
kyrkan
tex
##jer
näst
1960
Ry
##oth
##ydd
##ames
##isseau
##nämn
Sav
##agg
##itz
##unn
sing
##ammar
vattenytor
##skan
gift
##ält
Ruisseau
Sedan
sjöprocent
##ryck
fisk
Bel
fjär
im
Sl
Tro
medverk
Ra
##terna
Öst
gånger
##orum
Charl
William
Medelhöjden
Argentina
##ino
ref
2001
språk
##kan
public
##fer
Cap
##komm
ent
##shuvud
##rafik
ben
guvern
Sy
ytter
Bou
Mac
plac
##nis
bildades
##ār
##ene
##huvudort
mod
tillbaka
##jekt
Di
Go
styr
##uvarande
##sst
##isc
180
debut
##efär
full
##omas
produkt
må
särskil
##otá
lev
amerikanska
##stern
##ören
##lad
Danmark
läst
##inal
##drag
Brook
##uta
##oba
Jab
Gra
Bogotá
Cal
grupp
offic
kän
hitt
kallade
arm
annan
##iteten
tredje
Österrike
##do
##zo
läm
förd
gång
lever
##ockey
##gren
##ågs
röd
pass
40
göra
##äxter
Bri
hjälp
ak
##oni
##arriär
guld
kunna
##byggnad
träd
gif
henne
Bir
Región
Kabul
##oj
##andra
##ften
Count
Hall
Pi
##ologi
##uch
Gre
konstnär
Bland
Söder
##arm
utanför
grev
krä
##samlingen
Band
fortsatt
uts
teck
bifl
divisionen
Norg
sna
##anden
franska
##artyg
##orld
##ano
##vid
berätt
varmt
Do
studerade
Kōh
sten
Dra
dotter
##helm
allmän
växtart
bästa
arter
förm
bi
##ward
oper
serien
##lik
släpptes
ang
##äxtart
am
inter
Nil
##ela
##ängd
##blem
avrinningsom
Lou
flöd
ledde
skiv
##förde
45
##oro
at
VM
##bergs
##gah
##märk
Timur
Var
##skola
flesta
##under
provinshuvud
Europa
is
Pal
äm
Cast
##ski
inled
nuvarande
nytt
rel
flyttade
kron
1900
Rh
beslut
##lö
typ
##cho
inför
##emiär
lin
Sand
##ti
##ny
##farande
##ve
##reb
##atus
Alex
##ui
##evo
##yrkan
##apen
uppg
##lack
samtid
##sy
##wa
kända
##staf
råd
##iang
##eth
reproduc
##part
Kommun
##unkt
ungefär
jäm
upph
##ère
##erto
källa
stads
fåg
##album
miljoner
snabb
mon
##ota
Luanda
Airport
Gh
##pe
Pri
##ford
##ía
##osit
##järn
sidan
Malmö
stöd
Johann
##jup
##ré
representer
biflöd
rum
##di
avvattnar
##ān
1998
vux
Dessa
Wh
Ak
filmen
##gor
Camp
höjd
måste
##riga
Lars
Mat
flödar
##jet
##sjön
##uba
Lapp
70
##följ
Tid
tysk
West
##uck
Vall
##drig
Sen
ibland
##varande
##esordning
biflödesordning
byg
krit
slott
Land
##föra
tek
##vo
ljus
##jud
##hl
författare
da
muse
ca
Barat
Vär
##arktis
##own
Son
1800
##ruz
35
Tanj
##rem
##ustri
Delh
##akedon
bid
##jut
beh
professor
##unga
Djebel
##yng
Maria
##ästare
vars
##omen
Delhi
företag
spelar
längre
landsk
to
strand
avg
Gro
60
##olut
##lats
arbetade
Rep
fortfarande
2019
Ur
Cor
Wien
Kon
olymp
1996
reproducerande
##organ
##ämnade
##ument
Val
##järnen
riksdag
Jan
Buen
mat
Jabal
##iri
##ump
##iy
Tanjung
anställ
##ect
Buk
##useum
##ständ
Don
##onia
As
##höll
ork
##aria
område
County
Björ
=
därmed
trad
Tengah
ök
länder
##20
rek
##aja
Bon
1971
##huset
##unda
ste
särskilt
##stero
Ul
Laguna
pol
förv
Gust
Mot
##illo
mag
##ept
##idé
slutade
##tta
Här
kropp
##ologiska
##ini
##ländska
innehåller
bed
1992
världskriget
1950
dra
Ni
##igh
aldrig
##ökte
##ju
##atte
##iner
världen
Est
##iks
Eg
cent
1994
##nu
##repp
Sw
##ugh
Bern
Il
##chen
##bel
Australia
Ku
riksdelen
##mann
##inner
179
1997
Norge
Puerto
##spelare
ytterligare
Jac
##nia
##cha
Dom
##vist
året
##eld
##ko
såd
användes
##ci
sjöarna
##åren
Ros
Gustaf
##abrik
1995
##över
##val
##enh
kallad
kantonen
hamn
Met
arkitekt
##olen
tjänst
Stat
samtidigt
No
##usa
skall
##omy
Peak
##bart
vi
##osof
Mer
ås
Kro
David
Maur
stod
##weiz
##idan
##yder
motsvar
chef
Nova
##äls
beskriv
##arah
historia
utgiv
##niska
orkidé
infl
samarbet
ing
##igheten
##cc
via
##pekt
##bi
bra
##dar
##skraft
grav
##mus
varav
##eiska
as
ps
Sydkorea
##ivi
Iran
##go
Da
Az
##trä
Tj
##otek
##bok
##iellt
##rikt
on
Fredrik
Ir
##ima
80
intress
Robert
##vet
gjort
president
##orten
##burg
1993
Dag
##sked
ledamot
##oende
djup
slag
grundades
##ilver
stra
sek
##alifor
Gen
##be
Grande
Bor
Nya
kons
##jan
Amer
ordförande
##ye
##uva
grän
såsom
litter
##ritor
Mil
poäng
##vent
militär
Litt
##ór
Tan
viktig
##inte
veck
##film
Tel
karriär
##öcker
trän
höll
To
##meh
So
##loppet
återv
Chesh
##lick
Alto
Lago
##ax
Blan
##no
Kal
##arr
Då
mis
University
##oria
##uz
Barn
hör
##bin
spelades
75
Lappland
##sman
Scot
Rich
##ty
Bang
rit
försv
##lement
##ovjet
Grek
Lud
##istiska
##anth
gruppen
framför
##eran
roman
Grand
Del
##inna
medel
förlor
##indel
1991
lämnade
##ange
##årt
Saraj
##urs
Louis
kriget
Tri
Gustav
exempelvis
Chi
Vi
##eningen
##ahl
låten
##osp
Gora
Internation
albumet
ål
Sarajevo
bor
port
Hol
48
egna
Pat
##hor
##gatan
Cheshmeh
##apan
##ssland
Göteborgs
##ette
##sd
behand
Na
Queens
##ava
Pot
fortsatte
människor
inkl
af
##ary
bandet
numera
##blomm
premiär
matcher
##orf
##uf
Tall
##ovo
står
tar
Ek
##arakt
?
gå
Ön
33
Sel
lätt
É
Ap
krist
##ända
##tera
ovan
riket
##till
ack
jur
47
##igur
bred
avslut
Aires
##mål
spela
##sättning
Cro
##yst
Buenos
##ki
Filmen
Á
nästan
##juk
Fr
Martin
##arp
Folk
178
##siska
Italien
näm
prin
##agn
unders
mitten
priv
seg
Rock
##rets
August
upptäckt
vuxna
ålder
Mark
##assa
##formation
##på
Kn
Dal
Kat
IF
Pan
igen
färg
##jorde
##usten
##nades
Kommunen
à
##lat
32
##umm
Kali
##zz
ursprungligen
övriga
##jo
For
bror
##isa
##rak
##ias
landskommun
visar
bek
skol
##skär
avs
##atten
##öll
##rådena
46
1930
##gu
##hop
##bil
Cla
George
häst
stift
vetenskap
trans
##sjö
Manit
44
Hel
Teh
wadi
skick
Im
säll
elekt
mör
##ibli
##olax
ryska
Wilhelm
härad
Liban
flert
ef
##kor
177
49
filosof
##fin
##stid
oftast
mö
Wales
grevskapet
Gud
##rick
Kap
Scotia
##assen
##ín
1920
Vr
gem
Ham
36
Queensland
livskraft
##ierna
sju
##ebygg
##cy
##län
Vict
kors
##atien
##xa
studier
Ger
vit
’
gifte
arean
verksamhet
lyckades
Anna
medlemmar
motor
sida
##elle
Charles
italien
Vol
respekt
svart
Berlin
ansvar
##add
uppgick
##älj
punkt
1988
##seud
Little
ren
##alis
##etter
##ulerade
##stemet
1940
Nic
##ment
##line
##ush
##ato
##verket
##ango
Manitoba
Alf
##vå
Cór
Ga
försök
bestäm
liten
problem
cm
##amo
entiteten
bron
##spass
Sur
1989
##hem
Grekland
##ffär
##serv
yta
Pla
indiv
tag
kär
livskraftig
sym
Mur
##ign
ed
1974
fler
37
Savolax
##ärt
##stitut
relig
Rap
vanligt
##anan
Ram
##ejs
##ze
poli
##ynta
Stora
fly
##rikes
##gern
Sol
Köp
72
##cess
Konst
Black
##lings
##djursart
Thomas
##lor
1952
tradition
##ikanska
##imm
långa
Fer
World
mater
Ci
James
ver
1986
##ule
gamm
##ifrån
artik
90
1987
##ois
förbunds
bergspass
##attes
##iskop
ville
hov
34
##rond
klubben
Com
Red
Cha
Namn
Befolk
pris
Schweiz
växter
Lan
Teheran
Tar
##spro
Spec
##ilis
dog
73
##räng
##sens
##alp
##ral
stark
Cam
mar
procent
ab
Ped
##slaget
Feder
säga
##oret
Soc
ungdom
##elli
Bat
##bladig
##vik
arbete
##ellen
världens
guvernementet
bos
fransk
Anton
områden
Ke
central
dagar
##väl
uppdrag
1984
##ague
politiska
##dem
##enten
brittiska
färd
Dep
##ace
##rör
politiker
##nus
förhåll
1982
der
##rikanska
belägen
##alj
Kam
orsak
##iens
##olag
##iff
haft
##via
Juli
##illnad
funkt
Hed
Rid
Joseph
##iske
Ghar
regiss
##kh
##song
sänd
Fried
##shus
##dern
##köping
##sons
##cu
##po
Ob
Sund
##inen
lu
Ing
##ém
43
Stud
försvar
skådespelare
##arie
##brott
##ote
##HL
1985
Pula
##way
ev
uppfördes
##ingo
Bi
##ådde
olympiska
##ställning
park
aktiv
Tam
ännu
Kirk
sommar
anses
Domin
##illi
Vill
Befolkningen
##anna
Tra
##ael
Ti
##unk
Ken
Sten
1979
##bur
##elen
ly
Bak
##ostad
exp
##det
delas
500
##emat
##öld
Pasir
trots
varandra
##ield
lika
köping
##ly
Glac
Västra
##vig
liksom
##bundet
karakt
släkt
##iti
##tra
ackum
högre
brö
##histor
##off
Cent
##ebb
tillhörde
utom
##anten
##kra
Ori
##epp
Western
Andre
##oda
Van
serie
Fa
tj
##ics
##stein
Pulau
38
Rad
kanal
startade
##samhet
##isp
##hög
bro
Anders
Bre
##over
Brun
hund
Cab
miss
använda
Seoul
##olleg
spelare
##let
##ösa
##iller
funger
insekt
##ligg
Bol
##ić
Lj
##öarna
laget
europ
bo
läk
1976
##marker
sch
post
##ige
Glacier
Bukit
Teng
Mic
stil
##hi
Rec
dels
1975
fågel
1973
Francis
säsong
1945
##ight
##gruppen
##anter
1972
##rättades
dubb
1962
ordningen
ackumulerade
Genom
Central
Rib
Shan
##aro
Part
föränd
##ört
##ämp
##annen
Att
respektive
Hand
persiska
##hjärt
1968
##stads
jag
själva
##oua
##tm
OS
tio
##ringar
1967
ej
Long
Laur
Tom
##ations
kontroll
##organis
##kta
system
trafik
Bah
Bas
kopp
Bea
grek
##gens
1981
åtta
##ces
Jar
##lund
insp
##edel
regering
My
z
1983
##grund
norm
##ugg
##orer
##enskt
vapen
Christian
Ast
League
lå
Centrala
63
Cruz
Ryssland
användas
Gab
##gården
omfattar
##ativ
##lav
Eli
##ental
Skån
55
##enay
def
Ax
Luc
ingick
##terade
skalb
övert
Des
##hou
tving
Divis
##kall
dans
dessutom
42
flertal
Lar
Pen
Rob
##ensam
175
##ourna
medverkade
1969
topp
National
kn
##rego
##öts
prakt
Pointe
Jebel
järnväg
##reh
uppmärk
##ical
##ierra
##sw
prefekt
Libanon
Cu
Sagu
Friedrich
##eden
vanlig
##ria
##ibliotek
mor
Lov
##allen
internationella
##anta
dikt
1978
svampart
##eland
##urt
länet
##orts
Egyp
##estiv
##bets
ish
avled
bestod
Beng
Rud
War
Andra
##win
formula
tilldel
##atum
##acho
Bill
nummer
yng
##ervat
!
Santo
Richard
Jon
Boli
ton
##ländsk
1977
tillf
result
silver
##gas
gavs
föddes
##hjärtbladig
##oa
##ids
jud
Ras
Namnet
kejs
##ington
stats
##yntaxa
##ben
##takt
##ansson
##iana
71
effekt
##atern
May
##äcken
Bab
##skriv
##aca
skilj
använder
Saguenay
Henrik
Adolf
text
ann
Sab
##edd
världs
##gh
##vs
176
##akes
Pass
uppe
Sid
fartyg
##stes
##igen
Hög
Bal
avsnitt
##öka
dok
no
egent
kallades
##egro
##uella
##jt
Phou
Monte
Dur
sked
spår
##akedonien
kor
##uter
III
långt
##inister
##omyia
##gon
förbundslandet
##san
rym
Mellan
Koudiat
ass
tän
Cas
boken
Staden
bakom
Hennes
starkt
##ädd
##skatt
##gari
##osition
##chi
##förs
Tal
Holm
Mas
Ass
spindel
##tiden
efterträd
titeln
Córrego
Tre
bytt
Jack
62
##almar
Polit
Alb
##āl
offent
##press
##jäll
Wood
fys
Mars
##laget
Arm
Grön
Marie
hän
eget
##gara
##rondiss
Vil
##vägen
komma
##likt
##uts
begrav
##åk
räknas
Î
Off
togs
##staur
Lim
invig
##ivet
Någ
##zi
ast
utveckling
nådde
fäng
Shu
08
Ju
Reserv
##skol
Color
Brdo
66
68
beteck
##itu
scen
##eira
02
spelat
Alexander
Stad
##wood
bir
José
utnämn
39
röst
Cañada
##cke
Nat
Region
Tab
##ansen
växte
visade
##lipp
regeringen
Fung
##emot
Kir
##aris
##ewan
längs
##cus
##aller
##river
somm
betyder
Flor
##ativt
Sulaw
Agu
kand
gräns
låtar
##odde
medic
##ün
tim
psyk
skillnad
Sask
påverk
Ze
hopp
myn
1700
Sulawesi
##ema
53
driv
konk
Serra
1965
dram
gammal
67
##sted
##teck
ne
##hav
##ummer
##rottning
##ktor
äldsta
1964
##ete
Fre
Juan
grupper
meddel
skalbagg
skydd
##ati
Ara
##inska
arrondiss
upplag
past
##ästerskap
74
Leon
##ji
gemensam
lät
##ration
disk
industri
Species
anspråk
gäller
flock
Japan
deltag
Ox
##ands
fört
vanligen
##ame
version
sydöst
Prin
damm
Histor
inf
##anen
##ensk
skalbaggsart
talets
##sområdet
##rip
förk
Dol
1966
Saskatch
Tenggara
Saskatchewan
##oster
Freder
##näs
Kroatien
##emål
uppst
ihop
##öster
##rust
Antarktis
lä
föres
##rarna
liknande
handlar
Ali
##unnit
förklar
länge
##ee
##eral
parti
Aten
##flyg
41
indel
sön
##alli
##rodukt
##inea
Mun
dr
klassen
gränsen
Pier
minst
Plan
##örer
Vin
##ischer
Alber
##ios
gård
##ence
Oued
Pre
herr
fjärde
självständ
allra
Jer
##ár
##iku
förlorade
ill
52
##ña
Pr
Nar
htm
gjordes
Ven
##egel
##linjen
Utloppet
##shire
1939
##ademien
Hem
sett
##formen
närmaste
sem
samhället
bär
Bolivia
vari
Området
Ran
karaktär
##mär
##tag
omfattande
träff
##cel
##rot
##oto
tropiskt
##ulpt
såg
Si
Olof
fas
los
Depart
Cat
märk
Vis
##åra
brev
Dominikanska
##rep
klar
dansk
##enberg
böcker
##issa
nomin
social
betrakt
if
lövfäll
##lest
od
prefekturen
##seende
alltid
Fungorum
##sled
lövfällande
##ŏng
Sydney
##ogen
##cip
##yper
Pin
Maj
Smith
51
Clement
Federationen
##alo
##bro
Därefter
International
hust
lac
återvände
##önster
prote
fång
##ilt
främsta
##uca
Henry
kontrakt
##abl
sold
Egypten
nere
orig
##kont
Sr
##ital
Roy
##opsis
Bok
Moh
Eur
säker
Sjö
Kor
170
leg
##sven
höglandsklimat
Matt
skolan
##fte
##spelen
företaget
såväl
börjar
##last
##sket
##mos
Stra
domin
Palm
##orska
##sbane
Fal
ärt
1963
tidigt
sjukdom
##edes
Vir
konf
refer
##köpings
##nast
##minister
Got
stri
betydelse
##innes
Sierra
Centralaf
##oy
Räknas
skedde
jap
Brisbane
git
Svensk
uppf
Dem
snabbt
61
Sil
dåvarande
gud
##ilipp
enbart
69
##anga
##qvist
East
affär
##udd
##erbotten
anslut
singel
Sä
Nik
tri
Magnus
##omat
Unit
arab
##lingarna
##sma
##ulla
Nusa
ägde
##öras
danska
##yggnad
Eric
Isla
bidrag
Hus
alltså
##uma
##napp
1944
Hav
Big
##erats
Labr
erb
Far
Edward
Michael
spindelart
miljö
##räckligt
##yet
150
Sec
fakt
##une
##punkt
Gi
##olv
tyd
aut
inspel
brott
Många
bevar
##ibi
##ony
00
Pic
##ipl
beläg
heter
##alla
drog
tillfäll
rapp
Johannes
##amento
##uras
Ele
174
##arken
##ytande
##si
Nue
just
58
litteratur
centrum
##ür
##act
Nu
1961
framgångs
Darah
förest
Lev
##ez
Adel
##found
##enhamn
1948
utbildning
##komst
1947
luft
Osc
##hr
ljud
##ise
Album
Cr
##vänd
##usk
Kamer
Morro
##fört
strid
##heim
##hang
inb
mott
##åning
sän
##ifter
Dessutom
student
Tjeck
Köpenhamn
Sonora
1941
Församlingen
Kasa
##bas
##ertig
##ords
##bara
bostad
54
Ria
grå
Labrador
Newfound
1958
sand
debuterade
##gången
Angel
##läg
fred
##slä
valde
ursprungliga
##vens
Alla
##grupp
Newfoundland
Sankt
##ifoli
Sang
präst
Jes
##ega
fotbolls
77
Butt
##unc
1918
##börj
##olaget
##mat
ko
Du
Sig
Cô
soci
##ision
bätt
Trots
skär
Östra
Andersson
##ranger
##skott
Cour
information
##ativa
troligen
##len
blod
Ig
niv
##ellersta
##emang
hotad
Inter
ishockey
##ahr
tunn
57
delvis
1600
Daniel
##alit
##räk
Tas
##eir
häl
##ekan
Kungliga
##omer
värd
##app
teater
300
##alus
las
huset
##ih
regel
##reter
förening
##xi
webb
Departamento
klock
##yggor
##atem
beseg
##examen
restaur
parl
Hein
##eltida
Por
##dae
ravin
Kamerun
##ystem
Gran
motstånd
gym
##ärd
ledare
mängd
snart
rec
känt
##iell
nordvästlig
Petit
brukar
bättre
##ipp
##ente
Spel
Nils
månader
flott
Dh
##riska
##bour
mår
Clements
partiet
tills
Gol
##smän
Pap
Åbo
Sof
bygga
Mos
räk
journa
##ird
su
##forsk
kronor
lärare
##any
Hond
spelet
##demokrat
hav
kontakt
vattendraget
filmer
Tex
Små
##uri
Ep
##pris
1957
##wig
Tak
besök
engelsk
##aming
sur
##arb
On
]
##uer
##ville
##amin
Vers
ok
##sväxtart
Pers
1946
##oper
Koudyet
Pon
São
Huvud
##eda
##ower
Albert
Ah
höga
profession
1956
Dub
##ligheten
bildade
Darreh
##lös
strax
Sovjet
##lla
föräld
Shuiku
Ker
1959
html
##onde
följd
stjärn
##ungen
United
Max
##atis
Liv
##skaper
påbörj
romer
Väster
##isten
Bulu
##ahu
makt
##apé
regi
##aba
##arat
använde
78
drabb
avvattnas
It
institut
Ray
##unionen
##ornet
Lång
Nun
ström
##ellertid
begräns
bev
##rah
Sud
##atta
Bad
Victoria
##andena
##wan
modern
mera
76
Od
Fram
##erth
kommunhuvudort
lades
##hard
##klag
##ternat
birds
+
##stående
##amerika
Neder
stadens
vanliga
##aland
Senare
03
##icus
ses
sker
##ecklist
##dal
Bez
ov
Č
ör
tvåhjärtbladig
Champ
Les
85
astron
befolkad
##enden
Tour
medeltida
##zon
1949
sol
##lah
##stol
Zag
vitt
1943
stället
Id
Ren
##jtina
Följ
mynd
##listan
pastor
demokrat
Op
Ya
##otte
Bil
1955
Domingo
hum
Rivi
bodde
Sing
lagen
##arina
1910
Värm
sånger
1942
Rod
1919
drag
1917
landskap
turn
arbeten
mårev
landets
ap
Fo
##orin
Comp
brittisk
[
##rys
##sväxter
Suc
1938
Côte
##andard
Pel
King
##ården
ring
Mol
##indlar
##cer
material
##ific
kungen
Île
defin
##rov
Bot
naturres
fyl
ag
##namnet
##uth
kör
blad
arbetar
forskning
ten
##partiet
171
##urus
Belg
Prades
##ás
##ahua
bergsked
norska
##gers
skad
Cup
400
##iter
byn
fortsätt
##iji
armén
##ks
kust
fi
hösten
vinter
##omyc
kost
rock
##rus
##aterna
Kast
grundade
emot
Francisco
hår
##ales
Inom
Mak
##chef
Lab
Pradesh
sh
utgörs
##ike
##förhåll
Elf
he
Pseud
Igar
Mah
##ublika
##mästare
##platsen
Ungern
Några
##ror
Ribeir
Pod
##iger
innebar
Mali
##rym
##åld
kullar
##jon
föreg
56
##ension
Song
173
slog
Sn
##stone
klubb
Ribeirão
##opter
Parc
fören
160
kamp
energ
myr
##ängden
parish
turner
valdes
Es
th
samarbete
##udi
vita
sommaren
##borgs
##obb
##ättning
1936
Kur
flygplats
skapa
og
##öns
benäm
syster
##horningar
arranger
platsen
Tillsammans
amb
kur
##és
Igarapé
sammans
##sminister
##ästerskapet
Cop
samtliga
icke
##hall
168
plat
##ältet
flick
##plar
##alan
finalen
undervis
Territor
inrättades
bong
Rivière
Oriental
represent
vä
Skott
behöv
her
165
finans
##yang
valet
Char
##förening
ep
##ligheter
flygplan
dammbyggnad
##cht
marknad
164
1912
Vit
##bladet
1954
mask
Indian
Ki
Guy
forn
ledning
##field
tel
gul
rest
Bå
Bag
kore
förutom
##ugu
1924
Guatem
Division
##abet
Head
orkidéer
döm
öar
##ques
tidskri
##skild
flockblomm
civ
01
armé
##usen
lant
1953
blå
biskop
##aya
Jord
##olution
häv
##dagen
##rebro
Norte
möjligt
reserv
##ican
##fri
ident
begrepp
##ställningar
Laurent
skrivit
Srp
yngre
Jacob
Mauric
idrott
##bebygg
##ycken
tjänstg
##öter
Nam
hölls
##ismen
Ban
Py
##larna
beröm
##fe
Guatemala
##eringen
##anne
Kol
Miss
Riks
Sum
orkidéart
1921
skriven
Chihu
Mid
##etts
privat
bör
1914
kandid
Republika
Sin
SV
##edia
##älven
Mes
05
uppskatt
tävlingen
1933
tolk
##anthus
##gs
Äl
fatt
Srpska
museum
Bell
Djur
kri
arbets
1937
Spring
##reterare
nät
Tang
Teg
##eval
Fort
beroende
Följande
##jul
1951
listan
minsk
##lind
##str
##råket
1928
långhorningar
Dyntaxa
##egy
Ev
dig
Fu
glest
##person
händ
följde
##kv
Kalifor
x
##irut
lokala
Kristian
##ryss
funktion
Örebro
förlag
##ordet
Mauricie
##agua
natt
##ome
##upen
Š
mörk
Alberta
Ng
##ose
svår
fördel
##ills
##inia
##yer
##yrelsen
##ét
##ordon
prov
God
Castle
##stan
##ager
Chihuahua
förste
Beach
##ense
##ovac
##lic
lans
##ares
##ory
##jektet
##fåg
ig
dat
##ifier
syft
återupp
Hö
##etag
##mo
Villa
1932
skepp
byggnader
Tem
Otto
Beirut
posit
##manland
kombin
finska
Stef
##acken
Plat
titel
##gäng
Hot
Alfred
Bezirk
##pass
##aff
init
##arv
förbund
##bud
Mi
grad
äkten
Sri
presenter
emellertid
sår
programmet
skulpt
tilldelades
##splan
##spindlar
1908
Sj
brons
Um
dokument
##apper
1935
1934
Polen
relativt
120
##din
##aret
tak
häck
Pil
##ston
därpå
##emente
Brand
##etaget
bytte
79
Up
1925
bit
Rosen
##ér
95
##rac
1929
stekel
##samm
##rof
Fe
##aco
pat
##hets
##ase
##amba
1931
huvudstad
brän
##elia
båt
Kyrk
erk
##skl
Skär
Dhar
Kalifornien
Ecu
166
nivå
ansåg
59
dator
Kuba
1907
inklud
167
utnämndes
Ör
invigdes
1922
omgivningen
##ografi
1923
skrevs
slaget
Rik
##sholm
##lid
enk
##steklar
försökte
169
Water
städer
tidningen
anal
platser
befolkning
Lill
##rien
etabl
Salt
Två
utsågs
mel
Skåne
##roc
##aktör
##period
Nordm
##ido
##anes
Axel
##kap
88
##etes
peng
Låten
vägen
##länderna
italienska
gäst
resultat
##ylt
##ringen
1927
dagens
Tot
täckt
Stan
Pierre
uttryck
bergskedja
##splats
83
Fiji
Pres
##ötland
Gil
1911
Eftersom
##ikon
Institut
##ams
110
##äcker
##sterna
exemplar
##ulus
kommit
test
##itets
stekelart
Bud
##eka
##stedt
Skop
Bert
arabiska
Ecuador
##pan
tryck
dennes
87
Grönland
##träff
Honduras
##urr
##samma
köpinghuvudort
##område
major
Mala
##verka
##arten
exper
##ilip
Sock
Agua
tätbebygg
##hund
hustru
##usive
##ād
##emb
Hal
leder
##ando
skild
##nare
07
eröv
Estero
historiska
ätt
##kon
neder
förh
##ampa
##arens
Tjeckien
##alist
##åldern
##osc
##lare
Borg
Tiz
projekt
##bes
##ums
Idag
##myggor
##ampar
##éer
kr
##enta
1913
Skottland
82
naturreservat
##wn
ban
Dr
Oper
Jag
Jbel
##uro
##alls
nio
CD
risk
sträck
Califor
##oca
##strand
kolon
glas
##öjt
1906
Politischer
##hur
fabrik
##fält
ersattes
väld
Atl
##songer
frukt
populär
reform
1901
##räg
##atser
##apa
Gal
Lor
Elis
##agnar
##ädda
pri
sim
##ink
Nav
Jämt
Skopje
##umet
livet
Ts
Isra
##ruktur
##tjärnen
##anus
##ridge
Nilsson
grekiska
tätbebyggt
##ude
##familj
flyttades
##icks
##ektor
Adela
vunnit
##antarktis
##bor
Ve
vol
Oc
1500
##ray
erhöll
##jöd
##berget
dy
##nst
##itel
##porter
Zagreb
produktion
Samma
Albumet
Johansson
##olis
svårt
California
##II
##onien
norsk
alternat
gräs
Perth
hertig
nr
##lagt
lägre
##lie
##fisk
Super
Records
acc
1926
hämt
##atiska
##itch
general
##krets
Lanka
##ledare
##ångare
1862
##fa
1909
Margar
Belgien
moderna
Tek
Flyg
bad
##opf
undersök
EU
1905
##uga
Sucre
##sel
bebygg
framträd
Boh
Nordmakedonien
öarna
introduc
##sväg
porträtt
Ari
##alitet
fält
upptäcktes
##kn
##cens
radi
##itionen
tillstånd
04
lopp
hålla
läns
Colorado
Adelaide
##ugo
##oms
Bart
prim
Röd
sådan
Antonio
##vand
Bygg
##okus
##ami
borg
Green
europeiska
ansågs
##full
##nits
##atter
##jänst
mand
spanska
Der
senaste
1890
Mary
##brun
högt
##istr
tagit
station
Ama
gren
81
##liff
##ogae
##sattes
##ryckt
officiella
##skont
##ís
Str
##amentet
##fta
allmänna
##erberg
##läggning
vänster
tåg
sändes
såldes
##rona
Bob
unga
##ibland
##lekt
uppfatt
##uell
antingen
##byg
rid
97
Wa
##ads
förbätt
##trem
##ophyll
förvalt
##ance
##smål
##abeth
Irland
##ägare
##ool
sign
lö
lös
inklusive
Pah
skola
##ŏn
##far
##aver
##ygt
##pas
##still
##yb
Tém
huvudroll
es
bäst
lokal
trupper
##adern
arbeta
##ställningen
##grammet
##mask
fyll
##öjd
##äsen
Guinea
##istisk
släppte
säsonger
##kän
SS
Prag
våren
Lam
fel
##lam
Riacho
Nov
##aci
Vrh
bygger
motsvarar
sist
undant
Win
NHL
98
inrikt
viktigaste
##förhållandena
Phil
baserad
isl
##marna
1915
Egent
Hag
Kim
Redan
Första
##avica
utvecklades
Ā
SVT
nöd
##rument
kro
inspir
våt
##ätta
##row
latin
närm
Flera
skriva
religi
163
Lang
##åga
##iljö
##mera
##bildning
##flytt
vist
Oscar
172
##orus
##ear
1916
Gunnar
fjäril
ide
Dong
Sun
märks
marken
org
Eti
##oar
Meg
betydande
Sofia
##akh
uppkall
##eds
tillkom
You
Cacho
Nederländerna
slutligen
Gör
Schw
ras
manus
##eborg
ägg
##ulata
figur
##ouk
förut
Mig
Johns
Kalmar
##ée
befolkningen
Mora
##zer
93
byggnaden
##mot
06
##ressen
lån
perman
##inc
levde
Version
##ós
Etiop
##oki
Ume
följer
##ute
##rift
misst
skapade
##sburg
Monten
Chil
floden
tidiga
Kron
Mass
färdig
84
Ann
sjun
inledde
svenskt
alli
Tib
##holms
##ikern
##elo
Lep
däribland
Alm
Cra
Kas
mött
matemat
territor
##azz
slätt
##jöl
pil
Tu
Chap
mörd
Abit
ro
Suva
målare
##dera
Mellersta
fyr
ting
diam
Hid
##asit
##alism
Förutom
intresse
EM
sag
Järn
Rev
##distri
##eba
ret
##http
##ördes
koreanska
##slyck
Buttu
organisation
ordet
Témisc
beskrivs
##jiang
##āh
tra
Guad
igenom
1870
katol
Comm
Egentliga
Ludwig
svar
hed
köpte
##elb
jakt
Témiscaming
Ober
Kyrkan
seger
Abitibi
skiljer
sport
Baie
##uda
##eman
tack
utgav
Bangui
erbjud
Cur
rea
Témiscamingue
##ès
Ström
##fot
##ökt
Utt
##risk
92
##bal
##öck
##iment
lämna
Outa
arida
ställde
straff
Ron
##ardo
##sg
skil
##onym
Wind
Lakes
Hockey
studio
##nag
Lid
Nuevo
veckor
Fär
Rapids
##ouais
##ensus
##förbund
##andin
Outaouais
Musik
##stift
##eo
klipp
Colonia
fotbollsspelare
förhållande
##ensen
Lunds
##bord
##lins
##zuel
stab
Moder
upprätt
fest
Ala
##log
Stä
##elserna
Dev
Range
verkade
Kaz
Hum
##allet
hette
##alle
Öv
1904
Etiopien
Kun
##nam
Tw
brun
föreställ
Top
1880
Montenegro
fiskart
journalist
Wash
utn
Österbotten
skrift
Ark
Chic
nämn
Khor
1902
satt
höger
How
sovjet
##jar
Radio
##hål
eld
Elfenb
Cachoeira
säg
Bran
frågor
99
##ogel
våld
##författ
##vard
förslag
##atak
##astighet
uppgift
ifrån
misslyck
egentligen
##bolaget
##vetenskap
Kastilien
kem
Gott
##uten
påträff
kallat
drygt
Elfenbensk
Bé
##rang
##aville
resa
##området
##enni
Olymp
storlek
##inger
##änts
bestående
Isl
##svenskan
tvingades
##ows
##10
standard
Piz
brand
pengar
inget
FC
##inerna
Costa
Vasa
##rädde
con
rund
sommarspelen
##oz
##olina
prins
##skydd
bank
bibliotek
##oe
uttal
Grad
##liggande
##rage
Lem
Elfenbenskusten
run
##ollar
High
hård
Ernst
##verksamhet
gar
##spelet
seder
föremål
författaren
Samtid
##oga
öppna
utrikes
Esc
Will
##ës
##ester
##räkt
##oka
##regionen
Os
anfall
perioden
##lov
##odi
##arg
##orden
översätt
##isch
McC
##holmen
##lj
hal
befäl
##ilia
##årds
Ain
##uellt
ensam
byggde
ti
1903
staten
##färd
##imb
Ri
Camb
Brazz
säger
individ
Wik
Ple
final
140
Lilla
##eton
##uh
Chang
Jakob
Asp
mult
kritik
##grä
Så
##asse
Över
##atanga
Durango
##delning
86
Turk
##ako
##sområde
##skon
fäst
gymnas
ändå
##bäcken
svarta
otill
Brazzaville
Småland
Heinrich
utrust
##fton
Minor
Vissa
Angeles
Sovjetunionen
##anskt
ökade
Law
fokus
individer
##well
##ellet
Lik
steg
##ifolia
sångare
##ous
komposit
drottning
Ops
stäm
vind
ena
mänsk
guvernör
division
månad
##hopp
vår
museet
Guang
femte
ögon
sådana
Samtidigt
Norm
Offic
Census
Vas
back
Hor
##oundé
överl
##ypt
##empel
##vinsen
delarna
##ugen
sank
äl
dagen
Ja
återfin
American
Tizi
##aner
samling
professionell
Bod
fylumet
Åren
##röst
##board
kärlek
Pied
jorden
inflytande
mun
##syn
##lande
##orget
Stre
stann
##annoli
##ior
handels
Nap
Umeå
doktor
nordöst
Myc
rött
tank
Esp
kraftigt
##useet
observ
Yaoundé
ända
verksamheten
##lán
denne
Pedro
Tet
##ogram
##utveck
Hell
89
yrk
##räff
Osl
rollen
Tub
Katanga
##igheterna
pj
Ana
Kv
##tion
Kairo
##num
Sunga
musiker
##frå
##inus
kvinna
typer
makedon
##byggnaden
##grupper
kvinnliga
ång
Ky
##otus
##etten
handel
gått
omfattade
kanske
##amma
bal
##onsin
utspel
Stefan
tävling
130
Award
bildar
##öde
astero
konstrukt
Jön
alb
https
##osh
##yth
utgjorde
öppen
stav
radio
##ucc
väldigt
national
##gi
96
##ges
##spår
kandidat
##otta
##kyrka
##iteter
Cañón
Ayn
##oci
syfte
använts
##pur
91
utform
##dis
Österg
nationella
##jk
varför
##gager
fir
tidig
republi
##zhou
japanska
##gående
09
##aari
Wall
##sbyg
##alpa
##olly
kar
##andinav
Barcel
Morne
cyk
Karelen
uppmärksamm
##kast
##agne
jul
##rass
Gard
inn
ämbet
##innan
sprid
interv
hegy
##ledning
##edag
tom
Israel
arbetet
förbind
app
fotograf
##oun
gården
Linn
##eiro
Hab
Baja
Nordkorea
##ilus
94
ir
##bring
Glavica
Larsson
##bu
doms
##smannen
röster
riksdagen
Mün
Not
Sungai
återfinns
##äbb
Maz
dam
Dor
rymd
engager
##gå
Bour
##xt
##outi
Guyana
##änk
##nica
##växt
Rey
stjär
församlingen
##häng
sedermera
sålde
saknar
medborg
övergick
##edin
Dre
##ikation
grön
process
##abas
162
Royal
##endom
##AS
##iali
##mond
Dock
##ariket
White
mac
krav
skapades
sankmarker
##ør
##ävlingen
fru
Bulgari
universitetet
blom
##iftet
##asi
##alific
världsm
AI
svampar
permanent
##mäkt
menar
avstånd
illust
Mitt
vinna
pian
Ferdin
Utöver
##spekt
##ialist
Sheng
Post
Opsjtina
befinner
##orps
##örande
kart
spelas
##iew
jurid
Ans
Sidi
undantag
##aph
Kaj
Stäppklimat
vetenskapliga
##nens
precis
##mon
me
pal
Star
##iph
##odor
##enburg
##ulu
härst
Exempel
##estivalen
officiellt
##ionens
hemma
Åland
##röna
##ollege
##roph
Säsongen
Finlands
##feld
##idrott
##ever
kvarter
##högskolan
##sky
##âdi
##stud
##omycetes
##odes
Mang
Ung
Norrb
säkerhet
Lad
##ologisk
Beg
##musik
viktiga
##ology
kontin
autonom
knapp
allvar
IV
##gångar
tävlade
ges
Caño
vice
Somm
makedonska
biograf
##esp
Enc
flod
visa
sats
nästa
bord
##imeter
##bach
##givare
##konst
grod
##ästaren
insektsart
fj
resul
##skaff
bevis
##vakt
Seg
Björn
matchen
Bull
##läggningen
Myn
##asin
##jung
##shavet
Afrika
valkrets
översättning
##for
1882
##öjtn
##station
Tidigare
Wat
##färg
Arch
1898
platå
##NA
Cay
håller
##vika
##kraft
Mine
dit
##du
klart
diameter
Num
deb
extra
ledande
utöv
registr
Washington
Mosk
ph
##ere
översatt
Tay
##cos
upphov
co
Ps
hål
tros
mol
inre
##raph
Ljung
Kom
utred
##agh
##vok
##ärare
militära
##skepp
stycken
##pin
Taung
Zeeland
publicerades
Madaga
##ustrin
minuter
##anger
Music
##50
Pahār
rapporter
Cours
Dis
##icip
Zh
dör
##stiden
Dagens
Djib
Just
##aken
1883
österrik
Ferdinand
parlament
##tah
##stav
##fabrik
representerad
Boul
##asp
General
uppgifter
kräv
upphörde
Sem
##ilo
##ocent
##ove
Kel
##sby
verkar
försöker
Syds
dubbel
funnits
1897
Gul
##erien
##uther
##stil
strandlinjen
1895
däremot
##dam
Alt
Franz
qu
Hit
Love
genomfördes
Mill
modell
##pres
##sport
allm
orten
meddelade
##ania
##arbetare
##ily
avsl
Hammar
Reserve
speciellt
but
Utara
förekom
behö
##enz
##igg
vanligtvis
fängelse
##ingarna
tillfäl
mandat
##ammer
tron
Oslo
rädd
##ury
behöver
##lden
Gamla
Abra
Brown
ka
behov
fur
anställda
cy
##tz
Mod
Form
Djibouti
Tir
Madagaskar
250
disp
log
##yeong
##rez
Ilha
##gl
world
sociala
Va
##malm
Fore
Pereval
alt
talen
Ḩ
##jev
##sund
Henri
semif
sitter
Jiang
##agan
Bulgarien
Mir
600
äktenskap
##ils
Gäv
Simon
##ilja
1860
##rock
försälj
kristna
Kong
ac
Europeiska
##eslut
Barcelona
Islands
##ues
Ess
Bois
utök
varierar
Deb
ram
##oko
Nan
tolv
##quist
Herr
rygg
tjänstgjorde
Laurentides
##bon
Wolf
bakgrund
ägare
1885
utkom
##församling
##asc
##ave
Gabri
överlev
##12
##ope
sa
##förda
##sidan
gitarr
##nd
snö
Lenn
dial
eau
##atör
App
Zar
artikel
##upe
bud
##språkiga
Bam
##istik
##räft
Robin
forskare
giv
##klubb
Vatt
##bury
1899
##veriges
tillgäng
##orgs
##rey
Colombo
liber
situ
##nie
##ūr
##odd
initiat
##gårds
representerade
Ly
torn
Bet
##oker
kompon
##rost
präg
mur
##ätte
fråg
publicerade
##lige
##jak
Gali
examen
##ience
1863
Trans
förlust
##eby
Älv
##svägen
Mb
Za
##äpp
##eför
##igan
mär
Northern
dipl
Deras
Hj
infördes
Horn
Lagoa
Vän
former
publik
föräldrar
Kasai
##acruz
Blanco
försvars
1896
##adens
##sin
##ree
framställ
Sir
##sko
##ello
Lit
Pek
##otes
Britt
Rav
Ludvig
exister
##ogon
Gri
pot
Schul
Kec
samlings
kast
vare
gruva
##algo
hit
##angeli
Press
kommuner
kompl
resten
upplagan
##aljer
Day
Ins
kul
landslag
möjlighet
centimeter
kra
Kot
uppn
Veracruz
##yen
##beck
Jär
##hamn
vet
fack
##ologin
Svart
Run
Bengt
fråga
sal
medeltiden
##ode
framföra
Tap
1892
reste
Ash
hind
Scott
vir
Gävle
Lew
##fören
Filipp
Tol
skid
Varje
##rea
Mul
aux
arbetat
motsvarande
##mast
Regional
gär
Luis
webbplats
##umba
1888
Josef
##ografiska
##āb
1889
pseud
kärn
##ningss
högst
serier
Pue
##museum
Gross
kong
Nom
Pra
förvär
gre
##reformen
bon
berättar
##ningsv
##ieb
##āw
Ent
Hos
##inder
utförde
politisk
Skärgård
bröder
spelaren
##dalen
abs
##tek
##saari
origin
##west
sök
Tep
hamnade
Ross
ordin
##steg
##edda
##livan
##oo
bot
Kos
##elius
##hal
She
läkare
Hidalgo
direktör
konc
Kef
utvecklade
säl
##atera
##svampar
sannoli
##skiftet
Sullivan
##avut
##iform
Tasman
betydligt
##olas
##ender
mästerskap
Ouâdi
##ningens
Fir
##uff
##insk
Västerås
skrifter
sidor
Miguel
Arn
Väx
##ča
##asaari
##19
sänka
rot
Ell
elever
##provinsen
##horn
innehöll
omfattning
##förbundet
##ots
##yle
##ates
##ekonom
##egr
Fåg
döda
asteroid
Tyr
tör
stadsdelen
##ären
##ique
Vel
skatt
156
Hur
1893
Cord
##ume
påst
super
landst
au
Maja
släkten
##rypt
##chin
nedan
konser
##ube
##ademi
##redik
##reich
Mong
gran
singeln
artister
Bank
priset
##ophila
Ref
Hart
princip
dos
Kenya
##yre
anklag
besl
Kenn
##fartyg
##ipend
Sib
##aman
##fart
utgavs
upplö
utgiven
ställning
ärtväxter
bön
beräk
avlade
##inst
##opus
##linge
1887
##ottens
socialdemokrat
##yv
##azat
upplev
närmare
öppnade
Nunavut
Virg
Franç
styrk
##åtar
##aktig
##kester
##skilda
##skrona
avanc
bolag
##aki
enhet
mekan
##ollen
School
heller
Skärgårdshavet
Hamb
offentliga
Harry
##öjtnant
Arthur
##urch
last
Burma
##rast
återigen
lade
fa
pop
Gir
Kultur
inslag
Oz
Centre
##fund
##jordes
##arder
##hålla
Företaget
blomm
bilder
##inga
Vad
##afrika
otillräckligt
##18
Rum
sonen
Lyn
politik
##jas
Cuan
Mach
##dy
Yo
utnytt
slottet
##skrift
College
Minas
kunskap
fastställ
##ouz
slav
1891
##rätten
Int
##acka
##adel
Uttar
administrativa
##afazat
##tering
Mohafazat
tekniska
##smiljö
Bow
Zac
Gull
bolaget
förhand
##ball
Eriksson
bul
##sköld
soldater
Dahl
800
Kra
##bolag
förläng
##olutionen
##oides
skogs
stopp
Hyp
##ehr
##tar
##samheten
Johnson
##uy
##icola
##klass
skivan
##polit
konkurr
Ridge
konserv
my
Vilhelm
sårbar
Mé
gett
Olsson
##eff
Kle
Jämtland
vinn
##ls
##ction
neg
##grad
##produkt
inleddes
politiskt
läs
Cue
##serien
gods
Cuanza
##uce
153
Lee
Dalarna
Leg
kam
Mynnar
trumm
André
studioalbum
Ach
Die
##banan
mas
1884
slogs
koncent
studerad
dott
skyd
##apnet
1894
Anne
nämnas
rob
##Sveriges
Haw
utst
##system
kyrkog
##bron
mig
##atcher
studera
##blom
Rica
##åningom
tids
Nay
betal
##ligaste
##Bird
Serien
språket
Nag
utmärk
lek
internationellt
##acc
Tav
gram
vård
Tin
finländsk
tyck
##lé
##rie
vänner
##arit
Mand
småningom
##uka
##värd
1000
ambass
synner
beskriver
fungerar
##aza
##otyp
##ömet
våg
##viken
konflikt
##fly
arke
stam
storm
with
Hil
Yamo
kroppen
mät
##aliska
Feli
Pampa
##oukro
revs
kräft
dollar
##igalpa
Lunda
filosofie
##eto
1886
italiensk
##kes
Ay
##oher
Dia
Yamouss
##icum
Lok
Yamoussoukro
Nob
dekor
Hob
##arbete
##mas
##teri
##wang
##endo
Veli
sade
motiv
överg
jämför
Jonas
elektron
##mi
##ornell
##rörelsen
Led
lista
förrän
kyrkans
insekter
##öh
avhand
##ding
anord
Fra
riv
Ponta
timmar
##llt
myt
sammanhang
##ensson
152
Valle
One
Jacques
##författare
os
##slagen
##usin
myrten
betraktas
havs
##klop
stäng
Syrien
##yrån
Birk
Gall
##skrifter
##BC
kal
Bent
Distriktet
##kas
##shand
Boken
Natura
kritis
##ucigalpa
est
##skade
Bryss
Tegucigalpa
Grav
gränsar
Rem
Adam
vägg
folkräk
das
aktiva
autonoma
Vie
leda
makten
159
##organisation
Inför
nå
##näm
##stre
snar
##rol
alk
##ussen
tränare
platåberg
##enk
Cir
eng
renover
##run
##tida
övre
Län
Samuel
Kent
fågelarter
någonsin
Kj
Prix
##ells
Pur
Seb
##istiskt
##nät
##ckte
kön
Coahu
##umenter
Tasmanien
##sida
Hyd
teknik
1200
##mel
##pen
röda
medverkat
Lek
versionen
##ikk
anim
##ytning
öppnades
##ligan
advok
States
syftar
värv
##bourne
Innan
korta
mästare
Old
##neteck
akadem
Bryssel
##valet
vand
Natur
##lunda
hälften
##amar
Pit
menade
total
Bos
Irak
##amatan
##ningsm
##eus
ög
Thor
Jones
Häls
##ekreterare
Pop
kval
ingenjör
##ík
utgå
Ån
gra
##ammaren
psalm
##orier
##lösa
##atu
pa
täck
gruv
fjärilsart
Dun
Sep
Texas
Spelet
Ath
linje
Lé
Franska
katolska
##oso
Lis
don
Rub
hyll
Kecamatan
##sök
lägger
skriver
Fors
Föreningen
##adero
##stolen
##col
##igu
parall
internationell
##havare
##vor
Eup
##apest
Rudolf
Wilson
##sut
Cons
satte
täcker
systemet
München
##rande
tillfällen
##test
##kropp
##beroende
##nal
Ok
##fi
Nyland
##40
Rol
Doro
minnes
Havanna
förkort
kapten
rysk
salt
Coahuila
kalk
##ean
utvecklingen
##hjäl
kött
Addis
Budapest
föreningen
reference
normalt
Oh
ämnen
##ografiskt
kortare
Ost
Cant
utmär
##itekten
##almuseum
Cyper
ordinarie
##schef
dött
beläget
##hen
Trich
sjukhus
##mor
Had
Och
Adrar
##ryp
Club
##sering
influ
döp
Konda
##kommande
##tep
##rateg
##vatten
##nest
157
##vapen
##vas
graf
Jesus
Tok
ens
ba
Pico
##minstone
down
Center
definier
trö
##ycl
Yang
Luk
France
Michel
Cri
Gor
Mats
häls
##ondo
##idium
tillräckligt
edu
Anth
Cape
ärtväxtart
1850
litet
tegel
##ison
liknar
Alg
Das
Tun
botten
kvalific
##OM
Pont
drev
Hills
##oslav
##gär
Hy
##iler
trett
##jav
##enser
##illas
Moskva
##ebo
Arg
Hay
Thunder
##cyklop
sällan
François
#
tecken
intervju
Byggnaden
Verde
socknen
##loss
##isen
##ules
varefter
##vån
Gon
Pak
##bror
##kter
underhåll
##älla
1878
Heli
Publi
exped
##ydde
##ubbar
köptes
##VD
##arn
Beck
Asien
##swick
##ovi
##itze
special
bomb
##dens
romerska
friidrott
##skåd
allmänt
##idi
##omma
takt
regemente
Ever
skjut
Occ
##tr
##elj
##ystemet
bevarade
##efte
nig
Gang
mång
##delar
accep
Tch
framgångar
stå
reakt
Podgor
##uru
Julius
goda
Arbet
##itta
María
##mäktige
Brunswick
Phyll
##16
Cy
slå
Tubu
##dz
##unkten
##load
##omet
##vård
papper
Podgorica
##slott
##tain
energi
närvarande
objekt
Vä
Liber
folkm
Nordamerika
##akstan
rättigheter
Tit
event
nationalp
Mile
populära
tillbring
But
kommers
##meter
1879
Peru
troll
konstru
##vall
Mör
dömdes
extrem
verket
Lat
Knut
Nyheter
sträv
Frö
Eugen
värde
158
Ring
uppstod
uppkallad
beror
##osia
mottag
##arskap
Back
Bost
Östantarktis
mass
kommunal
##udan
107
Linné
källor
Vetenskap
##estival
##odon
Blanca
##orre
lilla
traditionella
Prod
##delningen
kyrkob
framförallt
##värg
mynnar
kloster
kop
Gold
Para
Västerg
reservoar
##räm
##älje
Gruppen
##erby
Guan
##kyrkan
##rats
Glava
Först
hjärt
Forest
##yrt
genombrott
Ball
föred
##ograph
olyck
Chicago
##IS
##su
##arab
si
Ukra
##rål
arv
Social
bosatt
utseende
##17
##spl
1877
##emen
areal
Levu
syns
Finska
Territory
##ship
Bib
##ehåll
##nah
användning
##oi
ärk
Engel
metod
Mem
Portug
förde
Totalt
klassiska
##get
##osí
bry
##vikt
fader
egenskaper
##ied
##nac
##lay
krö
kvart
Oxford
Socknen
Södert
##iets
Ani
elev
officer
forsknings
##orpor
##ssa
Zap
ägs
Museum
visades
max
Sinal
Cont
bidrog
Glob
Statens
analys
nödvänd
Kak
brist
framåt
##distrikt
organisationen
gas
Cath
Che
hemm
Blue
##dex
imp
förmod
Värld
instrument
##spart
vanligaste
##otal
bib
måreväxter
##arth
##gress
levande
##stens
Lept
anser
##rio
således
Ale
Prov
yttre
##iza
##yds
##livet
##smakten
Norden
##sakademien
Boy
System
regler
ägnade
beslutade
hävd
Ib
##valt
Northwest
tillhörigheten
Verk
sattes
##eria
anställd
föll
Guld
Sinaloa
Bes
austra
Officiella
Golo
turk
##ventyr
krets
##lä
Williams
700
##urer
##ättare
färger
placerade
##bandet
våtmarker
SC
gott
##con
pastorat
korsblomm
regl
passager
Kil
108
##äckte
##13
##quia
##qui
ått
Iliff
hitta
historien
sjöar
assist
måreväxtart
Schulenberg
åtminstone
element
metal
Året
starka
inträff
checklist
Ud
##oft
kväll
tror
##ängder
##lu
##cessen
##fjär
svag
Eva
##arrist
flykt
släkte
##opa
##rane
tas
Dublin
Guadal
avveck
Värmland
Bj
##oten
##faren
##omo
##uco
1875
delades
sockenhuvudort
Aut
Vic
from
Roberson
##bla
poj
##aväxter
anpass
känneteck
Falk
##osus
Kum
Tha
sat
##ción
##hole
##litter
ori
##rivil
##iser
Brad
tons
antag
##ävlingarna
##ritori
##mod
anslutning
##lip
Clark
symbol
##āt
##īr
bildas
framgångsrika
upplöstes
närmast
##bia
##rix
##ändska
press
##nämnda
##priset
Bohus
Canal
Sundsv
position
##undu
Gle
##mah
##alia
lov
##abel
Fredericks
IS
##sar
##arra
##ärer
Jim
Yuk
1871
Walter
Trip
Arvid
anges
1881
Kvar
ansl
##institut
##örs
Hong
Kang
Pad
inbörde
struktur
download
ordning
Linköping
1876
Abeba
ornit
premiärminister
##sfisk
lämp
Järnväg
Andreas
rank
##omi
Ned
ax
nordiska
##abo
universitets
##kontor
Hard
sump
redaktör
tillverkades
delta
artist
finländska
efterträddes
##14
##ual
1830
##itioner
Antio
yrkes
##ionerna
sammanlagt
Frit
Lö
eBird
##ligtvis
##byn
##pråk
grunden
##räv
##umin
109
##rafiken
##kin
Tai
##shuset
1866
Cham
##terades
Kamen
Massa
studenter
flockblommiga
##ingham
borger
fortsätta
kommunreformen
dist
##ociation
Cass
##liknande
ändrades
##ller
DVD
##offic
Vikt
avst
Orten
Quito
##olt
glaci
tillämp
##smedel
projektet
##aker
Bandet
Ton
##ilen
temperatur
Mik
styrelse
Chia
Cav
slags
Prince
##lle
Negro
##elk
bröt
polska
##program
##ām
vån
ligan
##ipes
##oral
Sor
musiken
samlade
utspelar
religiösa
##efon
förf
##atisk
avslutade
##stal
kommiss
##rare
Paulo
##15
##ajär
Mek
naz
1400
Ot
##anje
utställning
uppmärksamhet
Fern
Carolina
spän
##ophyllum
modeller
##iled
##inne
tingslag
Mü
##litt
Nev
##etiska
autom
allmänhet
Barran
Province
1868
gall
##char
Societ
##undi
anl
Hass
hörde
clement
##annel
spelen
torp
kontor
乡
##enan
Dig
Llan
inneh
pans
##äkring
sports
##urner
Björk
rörelsen
Estland
hästar
specif
##atoriet
##eti
planer
Svenskt
##mid
Sz
mik
opp
1867
##folk
kyrkor
##yph
Et
sent
Andrew
landslaget
##ults
Vik
##rata
##skottet
##éna
Än
143
grott
##ms
dägg
tider
##dle
FN
ros
söner
groddjursart
status
##alencyklop
Lav
1872
##ongyang
##inosa
cornell
##antin
##skjut
Halm
låta
fjäder
Kazakstan
##oke
##ilton
mått
##hai
##ocke
##ulin
Lule
##pi
original
##rater
tätt
##uw
bedöm
kapell
bekräft
Ré
lära
##entian
Potosí
##schecklist
Makedonien
##uber
##föreningen
##ouch
Victor
trädgård
Christoph
Bunt
banan
Koudiet
##rob
lias
Helsingborg
texten
flockblommig
fullständ
##stat
jobb
ständ
oberoende
##ågen
Prim
fant
##vide
Gram
##amål
Gotland
##enda
spets
Piedra
arg
bröst
##itat
Neg
##berga
frit
##manlands
kg
##ötet
Baj
Tig
Eurov
följa
##släktet
Därför
##antha
Math
##emann
Rein
Stanley
FF
##rica
gro
Amazon
jazz
##orsäck
##flöde
##österreich
Taf
tvåa
Chung
1873
frågan
sporsäck
##ampo
Ret
Ivan
Whit
orden
Gabriel
Filippinerna
##svalet
avslöj
##ässigt
fönster
hårt
begreppet
uk
##ivan
##efteå
##iction
nämligen
Sah
د
Cot
muslim
##df
1300
Hang
##olin
##äkare
byggd
Familj
##uden
Kuk
Dick
uppl
alkoh
##chester
Pyongyang
##inalen
##aket
kapit
##usch
utveckla
##ourt
Grund
ekonomi
##angan
lägga
efterfölj
##edo
skäl
territori
Fot
##ajärvi
Persson
börja
ritningar
Sydsudan
sporsäcksvampar
##endet
##idens
viktigt
gol
lett
mötte
separ
Mika
##igenom
påträffats
utd
##aväxtart
konstmuseum
##erner
1856
1874
svans
tredj
Gyeong
öka
romanen
##bind
##ylus
##anser
Cand
##iba
##skt
Emil
Viet
Sach
vänt
##raget
##ammare
##ostäder
Hir
##kul
rov
Svan
Crist
bilda
##ancer
prop
##rerade
besegrade
By
hyp
mob
Aceh
Ug
Herman
##ationerna
##ese
##ned
##ambo
Sta
##ensioner
visat
intill
Barrage
Elisabeth
territoriet
Västergötland
##cal
Växjö
##sats
Jung
sägs
sälj
Sumatera
1865
Florida
##imen
Akt
Pav
Church
Kungariket
155
##figur
Lh
avsnittet
##örn
##inas
##errero
minister
IFK
fynd
transport
##rer
Abb
##ocarp
Mål
kli
bete
##fåglar
texter
avskaff
##edi
##essa
äventyr
##ento
##mande
Göran
Margareta
astronomen
äger
Great
SK
Ola
Sub
1848
Blek
Gill
##sbok
framstående
Him
Kasaï
behandling
EP
154
Fox
##shöv
lägen
besökte
##okal
##rekt
Turkiet
religion
utbildade
镇
##epec
##efatt
artiklar
vul
Prof
##shamn
##skolor
bilar
abb
Conc
lager
##örelsen
advokat
##röv
##olla
Pter
Eurovision
##sberg
greve
Uí
##föras
##stjär
Jour
Kenora
##aná
efterträdde
##ätten
Loch
##ols
1864
minska
Götal
Mr
övertog
##eni
fus
##fiske
##föd
Ges
påm
Simp
##aterial
hundra
##nor
stål
Internationella
Ovan
kejsar
##skrig
Birds
##ovan
Sap
##samhäll
##ionde
natten
Tob
Poli
minor
viken
Hälsing
pul
Paso
Rat
##öckerna
roller
överfördes
##talet
islam
Årets
##styrelsen
##gift
##vari
Gib
Mog
Kaw
fal
härstammar
tänkt
sällskap
medlemmarna
##ede
End
fria
tidskriften
Elli
Upper
##flygplan
##sal
lav
enkelt
omedel
##jaure
##alencyklopedin
##företag
Jackson
##sker
##chn
##osten
tax
hjär
baserat
##īn
Mall
##eringar
##världen
##avi
##vårds
godk
Klubben
Kär
Merc
Stig
Uíge
minne
u
##ställd
Melod
fjäll
##platser
skogar
##fur
##skor
Melbourne
frihet
bedriv
##uti
##unna
##varo
##erbaj
##kov
fläck
Channel
##can
##dotter
##lius
Norrköping
Billboard
startades
##day
lock
##urn
ambassad
Myr
##liska
bulgari
metall
##cial
Kit
tung
##bit
##uge
##atar
Bali
pen
##ostret
avsked
##iao
##oud
Ein
miljarder
lyckas
hom
Mans
##edagog
gräsart
Alp
Bach
##erbajdz
##häst
Rain
##niken
Ofta
fåglar
##zen
Kri
not
tryckt
Sus
Taylor
förmåga
Rosa
Dram
törel
##mö
##bod
##stock
Waterhole
til
IK
Dim
krigs
diplomat
kyrkoher
Ita
Group
Selatan
Katarina
Guadalupe
net
##mak
##omus
hyr
new
aukt
siff
Steph
variant
##eps
##eva
tab
Gera
enkel
årets
fart
avtal
utländska
Association
##ores
##samt
##erska
##industri
Loi
Nyk
sum
varian
Cypern
lokalt
##abi
##orit
olj
##udière
festiv
snarare
##ireg
Pha
Ulf
Charlotte
gemensamma
##wi
Aur
Jam
dyg
heli
##staten
Arab
fann
länderna
tillhörande
Real
Territories
Dahr
debatt
framträdande
tydligt
Slo
frågorna
##önst
##flott
Good
House
##mund
Jud
Sak
##omyza
Organ
fastighet
nationalpark
##right
Bebygg
Map
talar
##eget
Sha
gat
fordon
berömda
utifrån
##antz
##dong
sökte
löp
mord
##amöter
varvid
Kall
gitarrist
Russ
Hamilton
Jas
Naz
samtida
Albanien
##äker
Card
##rest
särskild
##zal
Bark
Lux
Mina
##dad
##rif
##års
1869
Fish
##ordningen
bestämde
Bap
välja
stannade
##idu
1840
hjälpa
##30
##ulo
sky
##skomm
Silver
förber
Vattendrag
##atra
titt
ovans
##chus
lokaler
separat
Aust
Tran
gogae
näbb
##yi
Finn
Nyslott
domstol
##owr
##pol
##anza
dong
frist
grann
närings
enskilda
transporter
##won
##osaari
Hobart
privata
skrivna
arkitektur
sovjetiska
127
Four
sekt
##ants
Out
##jukdom
nämns
komplett
León
##opt
##server
ersatte
Antioquia
##80
årligen
##sättningar
egentliga
##ime
##ilu
Ej
##asjön
##erier
driver
##systemet
##zig
formen
Jama
käns
smal
##ktes
initiativ
##ves
AIK
Pir
1861
marknaden
Darwin
svåra
ot
##ters
debutalbum
##uj
Astero
Karlsson
lagstift
##adas
##itter
Båda
börjat
Mongoli
turneringen
##cen
Cari
##ningsb
Yukon
krävs
omvand
förvärv
inkluderar
Lana
##uterade
gruppens
republik
produkter
Vattendraget
Burg
Young
##bom
Ling
##enomen
##områden
Valley
fallet
##pet
Hun
morg
Ákra
##skop
Paz
rekord
##geri
##uper
Bla
##ornis
Alli
##fon
##styr
Jin
Åke
fran
##mont
##rium
##skij
seri
honan
##bag
##eme
##öta
##mannen
##upt
åskåd
avbr
##nummer
##centrum
##ders
##olle
Hamburg
##ättningen
civil
##py
##ologen
##uu
Philipp
konstnären
Raj
äter
förhind
##fiskar
berget
Östergötland
##satta
##dan
Jun
##ipedia
Ytter
Ånger
påbörjades
VD
149
Doug
Shet
##nipp
Let
##kat
utför
##stant
##ävling
Napole
rub
Coch
Röda
fors
Theodor
##wald
##št
112
konfer
##aku
Hunt
fadern
programledare
##ño
Tong
kräver
resulterade
visas
vardag
uppslag
synnerhet
Ž
göm
##ugoslav
##iae
##ādī
##itas
Cle
Wild
##mes
##yah
Leh
##ittén
gest
stre
beställ
fortsätter
ornitologiska
Vent
##edalen
underl
##familjen
kvadratmeter
Vidare
1100
leva
detalj
##qa
##löp
XI
reklam
vintern
##shistor
##oco
Blom
Def
flottan
##rut
Ciéna
kände
##smännen
##skytt
Trin
Contest
skivbolaget
##bev
Gam
##skans
kusten
install
ving
##evision
Sich
##edal
beskrev
##äcka
Pay
Way
##yx
SA
##punkten
Gerais
tidning
inrätt
handboll
##året
känsl
##ftonbladet
##zar
Ford
Hoch
feder
stadsdel
##utbildning
mak
##isterna
inbland
Beat
drivs
##enc
##atik
dim
Karin
Information
anlades
125
make
tillgång
erfaren
##skontrakt
##wart
##storp
Marc
##ophora
Buntu
attack
Chiapas
##ekar
Peg
Sym
polisen
verkställ
opt
live
producerades
fördes
ekonomisk
##ylla
Wahl
unger
Libyen
##spolit
teori
##elp
Peñ
flag
##nastin
varv
Act
Mäl
antik
etapp
inform
##eca
##bank
förel
vinst
##eler
##ards
sjätte
##tyskland
##60
Raf
trädde
##endomen
organisationer
##omys
##illos
mjöl
kommande
Vu
##oman
anslöt
huvudet
regissör
skådespelaren
##stöd
Peking
Ciénaga
människan
genomförde
Bis
Cob
Greg
Eskil
Souss
köpa
Hermann
##oir
Wang
läkem
lantbruk
##lägs
Amb
oss
barnen
Draâ
Övre
Zacat
##perm
Ryd
##oce
##ändes
ager
folket
##itté
##ovis
fäl
tillverkade
##rinningsområdets
##landa
##sgatan
##atorium
##hör
##acker
##verkan
tunnel
alternativ
##oceph
skön
Portugal
##quet
klara
Teater
spansk
parasit
gemensamt
experiment
ink
Chrys
##ledningen
##ällskapet
hjul
metoder
enheter
låtskriv
Kul
utvid
predik
##onis
Syl
##ornas
prot
Lap
begär
allmänheten
##leken
Tibet
konsert
##industrin
##inda
##ånds
Drag
Nomós
stånd
uppdel
utgivet
arkitekten
##emon
dokt
saknas
##läggande
Tip
##elset
##arin
##iral
##skad
Buck
Company
försvann
##ordin
spri
##ioder
##räder
##ladesh
Luleå
Puebla
finnas
##iera
Nicar
“
##sledamot
fungerade
uppträdde
elva
fartyget
introducerades
##ycke
Fem
##tryck
##arkivet
sumpmark
##chy
Hå
oro
fysik
Dagbladet
##reger
Lich
fien
mynt
##reppet
olympics
Hov
pension
##wer
##emar
##Dyntaxa
toppen
egendom
bulgariska
##ombo
Prem
målade
##fver
parlamentet
helst
##utställningar
##yla
Juba
trod
statliga
lanserades
##jörn
Hom
solen
volym
låtarna
Mey
åkte
##kommer
glaciär
Anderson
##terar
##artade
##maskar
antogs
Malanje
##hamm
ske
drift
##dare
målningar
Bangladesh
##éré
##vara
Fur
##cas
##ped
Lob
##tepec
##ubile
Pala
Salv
Ther
romersk
##äver
Janeiro
Society
begravd
##ppa
##ammen
##yu
220
##hamns
Coll
botan
totala
opera
finansier
Skog
Alexand
Abd
Ingen
dvärg
klätt
resor
Svensson
Lanaudière
##bana
Const
huvudort
jämfört
##olph
Rac
Dolok
tecknare
Dah
Davis
block
Ordet
##aks
sni
##chang
levnad
##herre
Virginia
revolution
##olor
tor
Serg
försöka
folkräkningen
självständighet
##ches
##ragen
Läng
linjen
##hel
##gang
Ask
Pang
bandets
dialekt
bakt
återf
påminner
Vietnam
mic
skiva
##ebiskop
flytta
gällde
uteslut
Kvin
tyng
Hipp
uppfölj
Hors
Guerrero
Bebyggelsen
Ye
##bran
Fron
föreb
avgörande
##egu
Vib
##ospora
kostnad
päls
##skript
Helena
Vo
döds
##ämbet
Laos
teatern
väv
##iflora
##urahan
kalla
##zan
##riset
term
Edvard
##äger
ökar
##kol
##wick
buk
framgångsrik
##skommun
vardera
Drottning
vack
##räckning
deltagare
##anthes
Reger
medicin
Mongoliet
Asteroiden
tillbringade
##edy
##rou
Lilj
succ
Howard
avgick
Qar
Kelurahan
Bureau
Kok
lön
mästerskapet
Roger
Philip
strateg
Cuch
Nel
##byggd
Hugo
Wādī
Carlos
återkom
styrka
Hud
erkän
drabbades
sekreterare
##kyrk
Chin
Pett
Holly
förändringar
Lak
##iffer
lämnat
Amazonas
filosofi
kanadens
##ebok
Ibland
halvgrä
orm
Mann
Tag
Strand
##onc
##essan
##lagen
hotell
##oler
Cec
pdf
##elsson
Tekniska
##mal
##oren
innefatt
##uqu
##strä
revolutionen
Ji
Bomb
Louise
Magall
##elin
##kong
les
Best
sådant
Abraham
produktionen
Jur
##sländ
##worth
koppar
##ross
Gym
fångats
##ural
1857
producerade
Mån
skolor
förvar
Nich
##läggningar
sannolikt
##back
##stäm
Say
##satte
##bältet
##ech
##ness
Fil
vecka
Saf
Stör
Syn
##urser
vide
villkor
IO
Iz
Chen
föda
omtal
Umm
##ularis
##enny
Nab
Phnum
exakt
media
kanalen
DNA
disc
##sters
Stur
Jönköpings
nej
uppror
förbjud
Sydafrika
##straf
Sound
insatser
##arpa
sil
Rolf
Trav
Slaget
splitt
##atset
##ehand
modellen
anledning
Magallanes
##yan
Dama
orkester
##kår
##lima
##reds
vem
Herb
Times
rörelse
##tica
Reich
krävde
210
##ombe
##wall
avrätt
Champion
##makt
Lagoon
##ologiskt
hastighet
Kre
##estad
Både
##skapen
op
Erit
kunnat
##perioden
##organisationen
cell
##kun
Balt
Skell
Oli
Biss
data
musk
mönster
kungliga
##fil
Drae
Katal
Försvar
varianter
##alu
##anken
teat
##illnaden
##sområden
hushåll
##historia
##ović
säm
Rand
Filip
decenni
ROM
Mut
Moore
utflöde
##acán
görs
mänskliga
Bh
##orough
beford
##īl
##amns
Pand
##atiskt
Ozero
##rädande
BK
##trädde
artikeln
##ogg
##vän
##äta
##irt
golf
Occident
##44
dö
Lisa
##spektiv
Lennart
Bonni
Palin
##mästaren
##iland
tjock
##äste
111
Ghana
##rel
pan
järnvägen
Bird
sund
State
Lip
##ernen
förstå
infanter
regioner
Tysklands
##ods
välk
Cheng
tätort
##onto
147
##liser
##arbetet
##ssystem
komplex
kungens
symb
förband
900
Aqu
expl
förklarade
##reta
##ugis
##ehamn
##leden
History
mängder
innehade
##ialet
Gyll
1855
##jor
stick
producent
##sych
Mis
##idea
##ospha
Bond
ovanligt
särskilda
##onn
Kay
Pia
##byrån
Jers
sköld
Cerros
avgräns
##ktyg
##uset
Troll
##bildade
##aran
provins
##opio
Joe
##ensiv
Corne
slutar
sorter
Nicaragua
hittills
placeras
provfiske
##byggda
städerna
Reservatet
##undo
vic
Alta
Andalus
inbördeskriget
##lista
1858
Komm
Allt
Veliki
summer
##sprogram
Uppland
##kommit
schweiz
formellt
anställdes
dröm
##exikon
omnäm
##endent
Borås
orgel
miljon
konstitut
Tors
Fas
flest
##lint
känner
Nas
##elsef
åker
dikter
divers
##IF
##kons
vall
tand
##irektör
##slös
docent
naturen
minskade
Död
Kod
bana
Nieder
Station
förhållanden
##orh
lägg
belön
design
förbindelse
Dz
##vention
##visning
Ocampo
kollekt
förekommande
##ebra
Ord
Augu
Valen
Tapp
Paraná
##splatsen
tillverkning
##eno
Enter
gröna
Taiwan
Windows
Birkaland
##head
##RA
##ky
##äp
##teras
##rester
Boston
korr
neut
skivor
undvika
##ästerskapen
kombination
ا
##igi
Qa
##ängen
##boland
##historiska
##bad
##skv
##inet
Hop
Reyk
##gärder
representerar
##25
##sang
lämnar
hittades
##föring
delade
##bat
##elly
Ort
##entes
buss
Azerbajdz
utställningar
##por
##ther
Now
News
förvänt
Occidental
##ppar
##niker
##cheong
Själv
överens
##ftet
BBC
Zem
Cort
gifta
Magdalen
##slängd
utvecklas
##ebre
##shan
Iso
XII
Birg
Serv
begravning
##fåra
##iration
släppt
##CA
##ache
##ouan
Harri
Slott
inval
annars
förmodligen
kammar
bosatte
Dic
##light
fattig
##asht
häckar
Wol
kab
##aritet
målet
sände
romant
landsting
kyrkobyggnad
##ialis
undan
kvarteret
Jr
Lett
##iaceae
##ologer
överv
bur
ole
##ija
##skus
sed
Bara
trop
Lager
utman
sjunde
Ris
Ghowr
digit
skydda
personal
etablerade
Eds
Kem
rådsområdet
##ahn
##ekyl
Cin
isol
solo
##orerna
Armen
tings
Skandinav
Tidningen
##fal
lab
##edral
sälja
anhäng
möjligen
##otis
Falls
##kam
##ikter
sagt
serv
placering
ru
betala
rödlistan
##edig
Vår
rädda
pastoratet
melod
beslöt
huvudrollen
##iers
Hann
##optera
nat
##yggen
upplaga
Dec
Cher
Kosa
Lewis
##ylvan
##medel
Hamm
gärna
128
flav
Gutta
romaner
##sstyrelsen
##stam
Sev
överst
medborgare
tvär
träffade
##ient
##plet
##ungs
cer
##ungan
Tres
gjorts
##bul
##íso
##fect
##jöds
##produc
polis
##redaktör
Istället
baserade
borde
Mikael
##agor
##stin
vistas
tillfälle
##bell
Acc
##raften
Huidu
Rapides
Oax
1854
paret
lättare
tillhört
##given
Kort
Gösta
saker
byggas
Olympiska
förespråk
##ape
misstän
Liksom
##skriften
ärkebiskop
##anal
##ional
konsek
##sförbund
förblev
kyrkliga
Provincial
##ât
##ulf
inred
bearbet
kejsaren
Ursprung
##ites
Wars
##illverk
##ordförande
tävlingar
##logs
sköts
106
Tul
##ätter
##åriga
##ötter
torr
krimin
##don
##ppe
##röj
##kins
Tec
Nick
arkiv
Kuopio
upprep
##amas
##ossa
VII
skot
utvecklat
huvudbältet
##ilar
Bron
Stein
lärde
naturliga
praktiken
##brän
##visa
Ting
uppm
##itetet
Blekinge
##sha
regerings
Dend
##aljen
kritiker
strömfåra
1849
invester
Ow
Vene
Municip
Low
Linköpings
##stor
230
anger
Karlskrona
Chungcheong
Kamb
Kand
ätten
Amar
lagt
##vux
##dahl
##egen
Pac
flit
sätta
Burundi
Bandundu
Eliz
Esper
flydde
utbredning
Street
trodde
##brand
Gord
Open
långfilm
##book
Lord
Nuuk
Montagne
personliga
##ningsområdet
##TV
##yon
draft
Allsvenskan
##öket
Lef
##venska
Vista
honor
##ryssland
##ugan
säk
##illes
##stjän
Picacho
Andalusien
utvecklats
##21
##ías
##best
ran
##komma
##inspel
VI
Nep
##fried
Toro
Ukraina
utsträckning
##inos
##ynam
Haj
job
Huset
Koudia
relation
livsmiljö
Reykjav
##lix
Chilena
Colline
allierade
hyd
terr
turné
##rier
##arant
Porte
grekisk
Paj
Peña
Sali
oför
planet
kans
##ällskap
invand
sammanslag
sjöng
stjärna
ifrå
frivil
Sudbury
Helsingborgs
Typ
##ränsen
##svetenskap
##sättningen
##zy
##rera
##sand
web
lands
ombild
Åboland
portugis
##ES
Kjell
judar
##adder
Antár
Internet
Nationalmuseum
##opro
148
Squ
Brän
rinner
##MS
Zhe
1859
synd
Arag
Lacs
nyheter
##âr
##jian
Oul
##otiska
Popul
Harald
Norrbotten
huvudorten
konstnärer
Ångermanland
##yren
hab
Batt
Grim
##umär
Nak
Shē
##etown
hovet
Mam
Put
##antis
Vald
Nou
##lander
Capit
Värmlands
kräftdjursart
Fab
Kep
Gabon
händer
Eritrea
behövde
##23
##ŏk
Beli
order
##sbyggnad
##oon
##ecas
Vig
Rinc
mening
population
##odox
Cit
Log
kav
##zuela
Aguada
Klad
säte
trupp
omgången
Antártica
tillträdde
ک
##asy
##bilis
Luxem
Series
##boken
##ianus
##ersson
##skilj
låga
idéer
representant
Kash
##studier
Oaxaca
##dat
Sex
ute
nyck
##rycket
döden
##itos
Pul
1853
Arena
##achus
Voda
##ellerna
behöll
tillåt
kampanj
##sid
Spar
##sländor
Palindi
it
145
##förord
Sebast
Handels
##imo
Sichuan
Södertälje
bebyggelse
##utsch
påbörjade
mal
ved
arterna
adel
desig
stipend
##ipa
Nd
brut
##atchen
Person
partik
moderni
##unden
1852
förbi
Jersey
Ó
##alistiska
##sbo
##debut
akut
mjuk
Ernest
sistnämnda
torg
klockan
##entals
##bus
##cken
Has
##ission
planerade
Azerbajdzjan
Eri
familjer
grundläggande
##24
##tor
föra
mission
##etto
##osse
##rans
Ner
Time
heder
hålls
radik
##ångaren
##avg
##floden
skada
##utz
väder
körde
benämn
115
Asm
##kogel
träsk
händelser
Hälsingland
##aton
##etti
##böcker
About
skott
styrelsen
##eles
ungar
Zhejiang
värvades
##ffa
Dé
##anti
vät
demonst
##ely
ox
rent
svär
gyn
##ssk
Tad
##cupen
##water
Pach
kommunerna
Västerbotten
Net
musikalbum
Gom
##amerikanska
##mun
##linje
rötter
##ugn
##alem
Sport
*
##aliser
partier
uppstår
up
Leb
jae
häng
avancerade
Au
Brig
oleander
1851
Arne
Cauca
##bler
1838
skador
##inari
fikt
##iermark
Carlsson
##11
läge
##dyn
Ec
##hn
Gü
Pé
##ctic
240
Bry
##smäss
##ygium
Rose
Däremot
historisk
karriären
##öken
Honor
ledamöter
borgerliga
Ahl
##terat
förknipp
Elizabeth
##ça
##hark
Main
senast
Lagun
artiller
##bäck
Call
Samt
kommunikation
##kamp
##öring
utgång
storstad
##liens
1846
observer
Bac
dop
##oter
##lagda
anhängare
##BA
##ardi
##antes
Gilbert
Sachsen
företräd
sekunder
##mord
skal
Campo
Napoleon
##angu
Damaskus
älv
byggt
##departementet
Böh
Fall
Glen
katal
ansvarig
##ality
##örelse
dåligt
Tripoli
dokumentär
kompositör
Sala
Zard
samm
antas
##stjänst
förr
tillå
ändamål
utfördes
—
##enbar
Ljus
utrym
nordöstlig
##cyk
Gha
Obs
##innen
##oderna
sången
##stationen
##egg
olja
##blo
Xin
Nairo
klassisk
funktioner
در
Wikipedia
##ips
##arte
##släpp
enkl
##atorer
##åda
##idad
känna
våningar
koloni
##TA
Ill
Inc
Hollywood
##ione
Abu
nätverk
territoriets
##ogo
utl
Team
##oks
##väv
##orma
Staff
##älsen
helg
styrkor
överste
nominerades
ub
stater
Christina
Ås
##itor
Söd
##ätare
##gra
##sken
Sac
färdigställ
rull
##okk
ökat
##pression
tjänste
föreslog
Västantarktis
loppet
längst
Kristina
Sydamerika
inriktning
##iki
Mato
Dhaka
Minnes
medvet
hävdade
##uez
##pool
manliga
motståndare
återkommande
Nicola
##tex
##achi
Oliv
läsa
##árez
Medan
rekomm
fastlandet
Ore
inner
invas
utvidg
Aftonbladet
ishockeyspelare
pap
fullt
speciella
avslutades
Kö
##edom
1844
Qing
##ståndet
Nairobi
förstördes
Inf
reser
tall
##skyrkan
Christopher
ombord
Patrick
grundare
Championship
Georgien
##dorf
använt
myndigheter
##joki
Rot
utföra
##irs
##iano
##yser
##äken
rytt
högskola
##rion
1847
Kont
Guangdong
##fj
rektor
##slätt
##uropa
##evis
350
##90
wh
McL
Tou
##illon
möte
##wā
inc
##ulatus
överb
##olia
Krim
holl
skapar
Magdalena
Ull
##sverk
Gren
kir
internet
Jav
Wid
idé
unionen
föregående
nerv
spekt
skilda
##âs
##komp
Kopp
Tony
##förare
Nordiska
resultatet
##lon
##opol
ker
belg
antyder
fristående
Wel
lösa
##jorden
Tsh
##ather
##råken
Tomm
knappt
##ovice
Dead
konserter
##byte
##idaw
Mez
##fjäll
##rätts
deltagit
invaldes
##pert
cap
söka
vägrade
passerar
##arts
##ygen
Gad
Göta
Lomas
still
##steater
versioner
Ble
Skellefteå
##itj
Glas
Velika
##OS
##zburg
borta
bröderna
ML
##imus
utk
##valla
##anschen
kraftig
medarbetare
##ming
vägar
utbrott
handlingar
##akar
Leip
Television
##ukten
visst
##pressen
Jugoslav
upptäckte
Steiermark
tillverkas
##kort
McK
##utan
Fair
Soll
kontra
Inloppet
tätorten
Institute
lit
Cac
##lever
Crypt
bilen
bedrev
förord
litterära
##ische
Orig
supp
kongress
Bā
##ving
##ilong
Stephen
146
serb
Zacatecas
##räsket
Bissau
sanddyn
tvungen
Familjen
##zuelo
Käll
Queen
##inter
ökad
Shakes
ovanför
Gotlands
begränsad
##api
##mir
##äter
box
Soph
frig
Pargas
144
Kamp
Olat
Drain
värdef
Premier
omedelbart
Åt
##agar
##arkitekt
Equ
pend
Carri
arrang
Douglas
papp
rester
astronom
vattenfall
huvudsakliga
##aju
Len
anm
##isi
ställdes
##bryt
Vem
Nelson
sönder
Vitryssland
tillfälligt
Mou
Torr
##onsson
administrativt
##yta
105
##pyidaw
Naypyidaw
historiskt
##aric
Birger
Cho
1820
1845
Night
Margaret
filmerna
zo
Dob
Atac
Heter
redakt
Vor
fav
Chong
stall
undersökningar
##atorn
##lines
##jin
##lagd
Bed
##olyck
##sfull
Adri
Road
Broad
bergs
##atre
Rumä
##pers
##räde
Fisk
Lamp
Thom
##sfiskals
Cambridge
##kär
na
##krit
Bund
Nagu
Psych
ockup
bildat
därifrån
##uku
##alon
Mud
Ferr
enkla
##staka
Haiti
Gordon
Bohuslän
##ffin
Amph
Shakespe
Hela
turist
århund
Gradina
följdes
Corn
monark
personen
möjligheter
nut
##berry
Paret
ungdoms
stationen
Pant
hämtad
Sundsvall
##llop
##åring
Lena
Georgetown
konstruktion
Jäm
##acitet
AS
LC
##rito
##raten
##aktiga
Cross
mesta
varia
berättelser
Sara
Chris
Liding
djurart
fenomen
placerades
Show
Loire
fritt
Shēlah
förvand
McG
##eriet
Kons
Numera
telefon
herrgård
##kod
##eaux
##laren
Venedig
svarade
ledningen
##tog
##ennis
Prieto
##atz
##fru
Punt
förflytt
poet
##vattnet
studie
järnvägsst
enhjärtbladig
##amper
##ologie
Rancho
##car
##erta
mem
riktigt
klassific
beteckningen
##stod
uppman
Ericsson
1810
Helm
Town
Eskilst
##war
##lits
1842
landsbyg
##acá
##enbach
Homer
Luxemburg
##viks
Six
bem
syss
##lus
Syz
Enda
Foot
Play
Teluk
parken
utomlands
##cks
Laj
Mit
Care
gula
Tappeh
formel
##hof
First
Norman
Tallin
Byn
##furt
Did
Obsjtina
Mell
Motor
doktors
blandning
##fältet
Penns
bredd
teoret
##ouri
inflyt
stjärnor
behandlar
Og
##osex
Hoh
Lon
Kari
fasta
likhet
medalj
populärt
kanadensisk
Buj
SCB
Shang
typen
server
Hap
diskuss
##utveckling
illustrat
Juni
jätt
Daw
etc
bostäder
efterträdare
##ople
bin
Meli
arbetare
##juka
Row
Frans
##qi
insats
omnämns
Duck
##my
##ubbl
##uela
126
##antus
antog
Miller
Amerika
Europas
erbjuder
undervisning
##skin
Mike
##aktigt
Urban
skyld
##ultatet
vulkan
barndom
mid
##aterade
Norges
Mess
ladd
infekt
motorväg
tidningar
##ures
Häll
##stierna
##umi
fåt
Serb
reda
##spitze
##önn
dvs
##lemmar
Algoma
möjligg
Syzygium
Pow
##visar
Kors
succé
saknade
kyrkogård
majoritet
Rost
##ötlands
Chabet
sångaren
##ER
##bergen
tornet
sjukdomar
##uit
Kosovo
##ividerna
varumär
Two
häm
Bass
Union
strider
dokumenter
##krig
##ungo
him
vob
skapat
##neby
nederländska
Aw
##rows
Cul
##aktiv
##handel
Bruce
Media
nedre
Commun
##rh
##ouf
Arb
##fågel
hant
Allen
Brian
Grupp
minut
försörj
tjänster
Kladogram
##stek
360
hud
##agare
##linjer
Tanger
Halland
inomhus
effektiv
Sve
1834
inhem
Golden
Konstantin
rätteg
Samtliga
##nos
##akan
Alek
uppd
##medalj
ungdomar
##kvarter
parasitflugor
str
##bygds
smak
plast
Fågeln
ställa
åtskil
japansk
Pennsylvan
Lun
##terad
1839
##listen
##klubben
Björne
ritades
Steve
partiets
Ov
bom
hast
Bergen
##hol
##oux
##sunds
Hend
##ränare
delstat
##uman
tyckte
Coc
ari
valt
##likten
sekund
semifinal
Gem
Sör
Micro
traditionellt
##yskt
119
Spe
Claes
kategorin
##essor
##kvist
Petersburg
##amus
##atts
Lant
Pitt
aktivt
belönades
Fören
rörande
verkställande
Oro
Skara
Lincol
restaurang
föregångare
LP
##akry
##dals
##fald
Tét
##ellus
##iften
brig
återvända
##dé
##inho
##ocha
##ålder
##isaari
##ställda
##fo
Säv
##orasan
##shövding
Jiangxi
expedition
##rap
dater
Jönköping
##erus
avbild
övertogs
behandlas
##årig
Bun
Game
Alice
##وه
Är
skytt
##äsk
Hamp
##lister
kusin
Amster
väckte
kretsar
Sär
bål
##agon
##ögen
hann
##anerna
reduc
##orlunda
Atacama
##löss
##rake
judiska
Hes
kard
amerikanske
##hatt
Gur
ekv
Córd
Grosso
Journal
trummor
Caj
Reb
Ding
##åndare
halvö
maxim
Cuchilla
Före
Swed
Katalonien
förmån
##myn
##uddh
Tru
Live
Volvo
ki
##ally
gla
##raser
skän
tycks
invald
monument
Portezuelo
##ämpa
Dow
##oppet
2020
front
matematik
##70
##FS
ost
##akien
mellersta
marknadsför
Dy
Volc
##rister
Lovisa
anlände
az
Pab
##esten
Eskilstuna
##synt
Anto
anlit
Hitler
kontro
Wu
1829
Radi
vakt
humor
ockuper
##arförbund
ja
lagar
vilja
amp
Leop
Past
låter
Botten
Hjalmar
Manchester
##läm
##effer
massa
dottern
##hea
##imi
##egal
Kad
Baker
Massachus
##jerna
likt
läro
Bästa
county
scenen
Karlstad
##45
##gav
##kriget
heders
genomgick
##irat
##ingst
Khāl
##rekord
Donald
Massachusetts
##ble
Sag
Baku
Släkt
frakt
##venemang
juridik
##idia
strål
självmord
ombildades
##antik
##sborgs
pansar
rätten
Hansson
medverkar
##ved
##åget
Fon
ritade
##udo
Bus
Elias
maskin
tiderna
RA
##etsen
kyrkoherde
Emp
Mead
junior
sträckan
##nif
Gav
Hugh
##maskart
##svenska
utfärd
gifter
konver
intressen
låtskrivare
Jöns
Olle
##filmer
Nueva
Därmed
##anz
Nua
More
Viti
furst
fåtal
Academ
##steatern
grundat
##ikte
Pun
Tammer
framtida
Kurt
Slut
fungera
krafter
utökades
##sn
##cast
##fred
mottog
klubbar
tecknade
Xi
##elles
Bend
Córdoba
Marshall
tidskrift
Östersjön
rö
##skonst
avser
Giovan
erövrade
##vil
Rick
raka
varpå
alkohol
kvalitet
Gy
Dos
##akult
##elsel
hävdar
magnet
Nunatak
Edu
kod
##escens
##straff
Monta
föräl
herrar
America
Conakry
föreläs
##nic
##ysia
Pich
##retsen
utdöd
##ämnades
Murray
civila
Organis
Non
##landslag
faderns
##smod
Isa
Push
team
Skivan
##ättningar
##imir
##leby
Nip
gal
köra
kläder
Frederik
evangeli
##28
##lax
åring
Södermanland
##kust
##phan
tum
mörka
Jamaica
konkurs
musikvide
Asc
Jap
Salm
målar
Metrop
Omkring
##rons
##äser
Coy
ash
##ettan
möter
##ocarpus
##ingenjör
påverkar
framförde
Lü
Alan
lyss
##ostnad
##officer
##etz
titlar
medlemsst
inspiration
##ansas
eleg
Turner
##hren
öfver
ekonomiskt
##lass
Vlad
##effekt
Jerus
Aj
##elos
Dum
Lom
Laget
indiska
regisserad
##ados
Shi
##givna
trea
meters
åskådare
misslyckades
##illy
Nac
##éns
1815
befann
stjärt
##esse
Tow
1843
alls
starta
Bernhard
Ela
##ullen
##manuel
Petter
småort
träning
##dep
um
Siy
vart
Kōtal
Melodif
Tammerfors
##bra
##fir
##obi
##sse
##olus
frek
mont
Liver
Stone
avlägs
förändring
##ners
1809
Häst
camp
##ariska
##visades
##vinna
veta
##avista
##slände
##vapnet
Europap
##årskontrakt
Ét
##atoria
minsta
segrar
Pennsylvania
##arka
##qing
List
##adelph
Frederick
##zh
##skiv
##örda
finna
tjeck
Bernard
Elliott
##sförbundet
betydelsen
utrikesminister
##ssjön
##frågan
hälsa
Astana
sjunger
##die
hy
##kopf
##sborg
Bast
givit
hebre
Libert
Schwar
##sländeart
##ägge
bandy
tävlar
##står
135
foss
trav
annex
##eväxter
##högskola
Pä
Gand
Isid
hårda
Centrum
minskar
##ku
##lich
samla
Bamako
vinterspelen
##offer
helik
databas
Tomas
klubbens
anställning
##AR
##js
##evär
tidens
socialist
##cle
IP
##asco
##juta
Nem
Sat
Tens
fing
byggts
undersökning
##ocal
dep
brok
sound
##harkran
betong
posten
stridsv
ju
bras
##spunkt
Skepp
tillät
partiled
samlingar
institutet
##ōl
##afé
landh
Walker
##26
##iten
Guay
triv
motiver
underteck
##gul
116
##íncia
##umbura
hamnar
Giovanni
##öln
Hamn
Bertil
enstaka
arrester
Província
##arer
##nivå
Sher
brant
marin
Leipzig
Norrland
presenterades
##yes
##efäl
##isse
Oph
##inget
##niens
fris
andel
Asmara
grader
halvön
domsaga
##box
##vagn
Sina
Danmarks
Venezuela
försäljning
Blå
##givning
förtro
gårdar
Christie
rösterna
##areg
Ced
Guds
unge
cupen
faller
alltmer
införliv
##udad
föds
kompani
Hammarby
utställningen
##ymen
##avtal
Industri
##raden
1835
starten
Frankrikes
##dah
Fi
Män
prest
##āy
##utu
##quin
myst
##smuseum
Thailand
österrikiska
##afa
##oura
Qal
rådet
sekel
kammaren
##sö
Pes
Stift
förra
behålla
därigenom
##FC
##roth
##smot
##skilt
##uster
##vande
Fast
##filmen
Oskar
Storm
leddes
##anssteklar
inträffade
##ær
##grå
##ylon
Sed
Tah
kas
Nyköp
Amsterdam
soldaterna
Gray
noll
##ningsvis
##vey
1837
##elberg
gestalt
Ric
Fritz
Sainte
ech
omöj
förkl
strän
övertyg
skickade
Rog
lung
##landern
Halmstad
##amt
Ág
##smen
Bin
##arius
##mosfär
pågick
##roret
Line
stig
Chash
tunga
Skolan
Tétouan
Mario
driva
gränser
Elisabet
Dry
asp
Berk
Lyck
Georges
blommor
ortodox
beräknas
ت
ån
138
Kunt
sorg
dräkt
imper
diskut
normal
##harkrankar
##uil
##tiste
Rang
Visby
Europaparl
##27
##mur
##bildningen
§
okänd
dödades
Fle
mix
vag
##ionjär
trapp
tennis
##bibliotek
Baptiste
Din
Lah
1833
1841
Mant
Phyt
Utan
marg
##ūn
##övs
##erie
avdelning
##øn
##ady
##sto
Crique
människa
##enson
Lamb
Roth
mäkt
##itation
veckan
värden
##onne
##wich
113
118
rac
##ights
Marsh
Potok
Toronto
människans
##akk
ifrågas
identifier
##29
##vest
260
Fat
##itlán
rost
Reykjavík
Kav
##stenar
##sledare
lyckats
förlorat
Kid
##temot
Elect
Llano
Hof
##centra
heliga
jurist
böckerna
egenskap
Cong
breda
drevs
pseudonym
##yne
kil
igång
handling
åtgärder
förhindra
tätbefolkad
##tan
##pren
##smet
Nad
kanon
robot
ägdes
ämnet
Awards
fången
Bergman
bestämmer
##kre
##illar
Svea
Taza
själ
##kultur
myrtenväxter
##fen
Fj
##alax
##kopp
Hog
##ocera
gatan
svenske
högskolan
Gyeongsang
136
##alais
döttrar
myndighet
underarten
270
Conserv
Norrbottens
kub
Kara
Niger
Disney
fiskar
Arkitekt
uppdraget
##adis
Fly
nyhet
kristen
Armenien
ständigt
##pat
Aar
Väl
##lock
Slä
##burgh
Volk
Illin
Lasse
utförda
К
##bek
komed
offer
Bengts
Lidingö
presidenten
##obe
##osk
##orge
Stu
kok
bära
##riften
vilar
genomföra
läkemedel
regelbundet
##fr
##fs
Lig
Wag
##akademien
Clara
bryta
inköp
##sholmen
Mauret
kolleg
##lers
##ärta
Nang
operan
myrtenväxtart
##park
##uller
##uning
Bild
grat
godkän
sträng
##ular
Palma
medeltid
utrustning
##ïma
##rakech
okänt
Rumänien
Lop
Râs
##utton
Dals
Marg
ersätta
kyrkbyn
sidorna
##driv
Hämt
##omataceae
##ов
Vega
tempel
##ène
##barn
Doc
##feldt
##slösa
Aren
Sången
Wald
Playa
##sdotter
Fujian
Public
Tallinn
utarbet
##erbottens
medförde
##uve
Fé
iväg
områdena
##uke
##rama
Stort
hittas
besökare
Jerusalem
##nem
Dog
Your
##satsen
utöver
##fel
##resa
##sbygg
Bald
gnag
ovansidan
möjligheten
##vert
Roll
Litau
orter
halvan
uppför
##ademiens
Tyrolen
betydelsef
åtskilliga
##fram
Musk
Peng
ingå
Frances
Illinois
publiken
##zj
IB
##iste
##ossor
##insula
Micros
förväx
lösning
Handbook
flertalet
##agna
##flöd
Juárez
lexikon
Chashmah
skulptur
Marrakech
historiker
##IA
##ante
##ärka
Äng
sågs
##istans
Kamar
##skrigets
Ø
##gard
Campbell
skickades
Ytterligare
Chal
Lomb
turnering
1814
##ijärvi
Habit
befri
Ce
##esar
Kru
Marcus
##landskap
författade
spräng
Brom
##amarca
linjer
##dö
##obius
Cabo
magister
$
FA
##icha
##ylli
Koh
ham
diverse
Dak
Uul
##iggins
Lower
Endast
Stilla
##hjul
Arroio
Partiet
hjälpte
Raseborg
suc
##odont
Dark
mannen
bröllop
kvinnan
Bujumbura
landsfiskals
col
##alton
##havet
Dani
symboli
engagerad
äktenskapet
##imbo
##skal
##work
##lägga
Ebb
##gerna
1828
grac
sällsynt
##vad
##hugg
Garc
##träsket
Jeolla
##anst
##ilog
139
Rut
##ikerna
##reville
##rottningen
Brandenburg
##35
##olid
Lec
cal
ford
sens
Mancha
##oen
Ivar
Holland
molekyl
ställen
församlingar
Östergötlands
XV
set
Graham
Lawren
expans
Peninsula
##ères
ruf
Jimm
äkta
Tyska
##ripande
Harris
uppföra
underjord
##itis
Alc
Sot
byt
Lynx
förg
vattenhål
kvalificerade
##lac
##ups
##ugou
117
Our
##ongen
##opogon
hamnen
##ahan
129
Jör
alf
fäll
ämne
Böhmen
Wad
##recht
Tamb
Trum
armen
tillt
katoli
Leonard
brasili
pedagog
Begreppet
Jugoslavien
semifinalen
Ais
Porto
barnet
##yndigheten
regionala
##tas
Cond
förny
nivåer
rikets
##ici
##ruktion
Bayern
Branch
Müller
SE
##itsch
##rigent
bokstav
kvartsf
Santander
##46
##skare
Benj
Libr
##alerna
##stenen
Haouz
Andorra
##ður
##eställ
Mauretanien
##yss
Saw
Boll
kemi
skul
Taoun
trakt
European
hebreiska
##oué
Nuaf
smek
Ich
byta
##gifter
##entligt
varken
långhus
tillägg
naturligt
##bent
frik
##adelphia
##apel
Löv
Oct
köns
mäss
##smanska
Lichen
ljusare
##aq
##svär
137
##aplan
Bahia
##levande
födels
tillverka
##uven
Cow
1812
skogen
##ića
##andar
luften
Maurice
##sförening
landskamper
Khā
förn
##sklubb
Braun
Program
##aru
Riv
Mick
Reka
##mossart
befatt
koordin
åttonde
##ashi
##ifik
mode
vagn
##partement
originalt
##pal
##wal
IT
Beh
##iscus
Prins
abborre
livstid
ST
hä
##live
kre
##uppdrag
segern
införde
förmögen
##orde
Hoff
tala
sakrist
##able
Ral
##plikt
malm
avlid
Werner
##ögder
bist
drogs
möjliga
##halt
Abū
Ked
Rätt
europe
figurer
ändrade
klostret
intresserad
Games
science
verktyg
##svik
Hoyo
##erings
stylt
inrikes
Taounate
hantverk
##asu
##owa
Cach
kallats
Catarina
beskriva
tidpunkt
naturskydd
>
Ix
##antan
pjäs
##skogar
Rocky
vackra
Colorada
##MA
##cin
##ygga
Inn
##nison
ranun
Tirana
Zo
tapp
##icornis
##ämbetet
bebyggelsen
Ida
pel
##okoll
Härj
René
betyg
Stewart
huvudkontor
Lie
lim
##flykt
Cove
Gamb
Ramb
priser
##enterade
Preussen
protester
##ál
##fas
##rine
Aga
rak
##iteln
Nint
mans
##stjärnen
reservat
skr
##fulla
därav
Viktor
självbi
karakter
##enskomm
101
##former
Papua
fakult
Jul
##ourou
hanen
##univers
bilden
fögder
##flottilj
##ages
##måga
Cali
höst
Åker
Emili
plöts
##ōr
##plac
##ateur
uppgår
upplös
förbundet
traditionell
Of
Sek
Curt
Thel
framtid
Robinson
Ler
##smyck
Tenn
sluta
##ävlingar
träffar
korsblommiga
##ws
Sik
Hali
benämns
kraftiga
perioder
aktiviteter
Lys
##ellig
##jäm
##abaa
##iskan
puck
ryss
##repren
fängsl
nationell
generation
strids
Tensift
Khorasan
##ege
##ems
##arch
##dagar
Dasht
asiat
finsk
filmatis
gentemot
##verksamheten
103
Gas
Hub
Bear
väger
Manuel
##bilar
##olver
Kant
frag
rekt
Solna
human
##entiane
Sträng
hundrat
kejsare
bergstra
latinska
opposition
självständig
##båt
##isar
##osum
inl
seat
##lexikon
bladmossart
##earch
1818
##iebolag
Narrows
huvudrollerna
##båg
Mort
tyske
##rustning
ungerska
dominerande
Ursprungligen
##oslov
Hoce
Nobel
mikro
söker
cancer
tronen
Programmet
innefattar
huvudperson
statsminister
##čka
##icle
##lapp
Gan
##atlán
Fres
Grant
##röstning
##teckningar
Vientiane
##arena
##klart
Bagdad
argent
##öte
##grav
##oken
##alvön
Chico
Rafael
##yrus
Til
##ulosa
Vita
##fekten
Party
Barrio
stadsplan
tättingar
##ocl
##läng
Cub
1832
##aderna
keram
spring
beteende
##anny
##arum
##onga
Zam
Håkan
repar
skylt
##parasit
förfölj
##fullmäktige
beteckning
Yun
out
##innet
mant
rakt
Pauli
store
taget
gymnast
våtmark
sångerska
årsskiftet
Aer
Boca
stol
kunga
tyder
Claude
Falken
success
undersidan
Philadelphia
##nès
##angul
Peder
tjugo
Nikola
##niv
##ocken
ball
atmosfär
Metropolit
lar
Sandy
vanns
Sweden
##oti
IOC
Mitch
kroppslängd
##omia
Over
malv
##okaler
Viejo
påven
åstad
kontrovers
åk
##övde
gräv
tull
##horbia
##ogloss
##skyrka
##tainment
tingsrätt
Ea
Rah
##orall
##kapten
Tokyo
##fecture
scener
##forskarförbund
svampdjursart
##jat
##rax
##rapp
fon
ankn
Kalle
mordet
##festivalen
Gustafsson
Key
Sna
obl
Polyp
Strax
fältt
##iserade
väljer
Lindberg
Iv
##egas
##unge
Örn
##stadt
Tommy
indian
singlar
##kal
##arus
väs
ärv
##trafik
##ysning
Maxim
##arbeten
Hoceïma
självständigt
##agoza
ditt
##förvalt
Oscars
järnvägs
Pettersson
Fac
##istens
##ekonomi
Modern
skräck
Barranca
perspektiv
##emba
280
komment
skildrar
Lub
morf
Shand
Pushtah
Salzburg
berättelse
Oak
##aljör
homosex
rörelser
tråd
damer
motsats
ombyggnad
##felt
Cem
##atalj
##skanal
Bromma
Tavast
amerikanskt
##ai
Corr
Test
dygn
Stads
gnagare
##uí
##jel
##issen
Ryss
Ciudad
Sports
##ikel
Suk
fiender
Zaragoza
styltflugor
fjädermyggor
Gaz
##andid
##banken
##fundet
odling
sångerskan
Raz
Tuk
aur
skivbolag
##lina
Muk
##ässel
Balk
avsedd
termin
viking
##48
##niskt
Novo
plus
Adams
mjölk
Rt
Dat
utp
Bush
Inte
Tbilis
Wallen
preuss
skulptör
uppehåll
brokparasit
annexförsamling
##hui
##roit
133
rök
Moon
##ioides
Nedre
veget
Hedvig
Vicente
yt
##entin
##intress
avsikt
Valencia
##utna
##visor
fångar
alltför
Förenade
bildandet
##ays
##aven
##ries
##äcks
##achal
Dres
Ward
prom
andre
femin
syssels
Yu
##rund
##ssätt
Yong
Anthony
##branschen
##Don
##räda
Ohio
##endron
##ämpade
piano
möttes
renäss
Fotboll
Johanna
medicine
##landsöarna
##ody
##real
Kob
Wen
##idion
Gent
grov
beton
Johnny
blivande
Gottfried
borgmästare
ven
häll
export
akantus
Football
Mountains
##LA
##adh
##irus
##lier
spelarna
##ayo
##lds
##yia
PC
##eben
##funkt
stup
Allan
Major
flickor
rådgivare
##byt
Fame
älskar
Box
Diego
dålig
##programmet
organiserade
##fäl
##uct
Shaw
Fries
Leeds
adels
##försvar
helhet
friherre
republikan
##jus
Ll
##först
1831
jämte
minskat
nödvändigt
##utställningen
##ellow
1836
Fjäll
Carmen
integr
Festival
positiva
friidrottare
Gat
mex
##ouver
##riven
vald
##venser
Siyāh
Govern
seriet
konservativa
##hä
Ech
Mayo
höra
hittar
##eu
Ariz
åtal
Swamp
instift
avseende
Delstaten
inspirerad
##zel
nöj
1819
Brav
ligga
##atformen
kinesisk
producera
studentexamen
##elns
exkl
Öland
gjorda
##bry
##eke
##usik
##änga
Gum
##ansch
pati
##städer
Falun
Kings
skett
hemsida
Södermanlands
Kw
Aud
##risen
Hooker
##utskottet
framfördes
kännetecknas
##ägaren
Volcán
utgräv
varade
##ckerlack
Science
verkliga
##anto
Wan
tus
Leuc
Palo
Socialdemokrat
Llo
Xia
Alam
Jens
##lington
ryggen
stödde
##lemmarna
kommunistiska
##snivå
Krig
potent
Nordväst
skärgård
##uo
##ajo
##arh
##eur
##ized
##alender
Kristi
Rincón
nämnda
utgivna
##roduktion
山
##azine
##äderna
termen
Euphorbia
##angi
Phys
Three
##fjärden
uppförd
Us
Dip
Arts
##fördel
Salto
angående
avgjordes
Sic
##ingel
Leopold
Projekt
nyligen
##skådespel
dis
nit
Bahr
Dipl
Tafil
lyder
modifier
Champions
##ires
Hue
Emma
Shar
Ekman
Lhasa
Schum
byttes
minist
deltagande
inflytelser
österrikisk
professionella
##īd
HC
idén
##rox
##uki
##yri
##stab
tav
anst
apotek
##idningen
närliggande
##sä
##urk
##more
Kanal
grundad
leddjur
Hongkong
##olet
Kha
Mab
1824
leds
Beaver
framtiden
##anh
gäng
##pressum
fladder
municip
handlade
speciell
##opel
Pará
##oplats
Elits
stanna
däggdjur
regement
trupperna
järnåldern
myndigheterna
Bott
##isering
Esperanza
efterföljande
##ergi
Bug
##riger
Sarg
bronsmed
Liverpool
naturvårds
ts
Bru
mut
Twin
tran
##astrof
Motala
teorier
##house
tänk
Jämtlands
Microsoft
ال
Spr
äng
1813
Rena
Conne
disputerade
popularitet
##garh
Eag
##block
Pite
bind
Thomp
egypt
Kristus
Tbilisi
berättade
##änn
ögat
##äsendet
förekommit
engelskspråkiga
##gy
Oue
Coqu
verb
##iguren
polsk
emellan
tillfång
BM
utsatt
##nika
Mim
Équ
syst
Jules
Meknès
##evi
Inre
Lagos
##bladiga
grenar
förbättra
situation
Āb
Rij
##varig
Taman
Hösten
Carp
Loren
##version
amm
söt
Härn
tusen
##agemang
basket
studerat
benämningen
Entertainment
##ylä
##äki
##stri
Kub
Lady
pers
rätta
längsta
Demokrat
trafikeras
häx
pet
Buff
dela
minim
Skövde
stallet
snabbare
starkare
kommunala
Västerbottens
Ves
kronan
Sommaren
originaltitel
##para
##onica
Round
fritid
uppfyll
Benjamin
tolkning
Hua
Meh
1808
regementet
320
Leif
Tand
dramat
annorlunda
##mis
##burn
##names
Lith
##aniens
##examin
##teckning
domsagor
##47
##blod
bergen
högland
jordens
Statistiska
##anor
pur
bott
Schle
Minnesota
Conservation
##rt
##cell
ess
##ämnen
dies
kurs
mora
##vagnar
smitt
kriter
turkiska
Akademien
##mag
Vitt
##idaceae
Vinter
##svars
bokst
följt
inneb
utsedd
dotterb
byggnadsm
nominatformen
##49
##nist
##serie
Samb
möta
##avsett
regent
##urnering
stranden
##nats
##iktet
##riket
##vuxen
Vanc
nått
förmåg
potatis
##kir
Get
rekry
##ladd
##ångs
Barb
Sarc
talas
Nordisk
backhopp
förbered
Frankfurt
##lef
##mad
uppnå
Kiruna
planen
påverka
uttryckt
bergstrakter
##ätet
Kym
##strid
1816
Fant
Prot
djupt
Sección
attacker
President
benämning
##atl
##eros
##andes
1790
Meta
Mira
##komsten
##ändringar
##anum
##nets
##inella
Gardan
uppfost
##ebe
##vag
Håk
##platt
Huang
March
##sträckt
Felipe
talade
teckning
företagets
litteraturen
##attle
1826
mart
##nämnden
##akim
##ifer
##nell
##släg
##occus
Folkm
Statist
rollerna
kulturella
korsblommig
passagerare
Försvarsmakten
##43
##upa
##emed
##lish
##īyah
Joens
format
Aragonien
föreningar
##eks
##hot
##lap
##iren
Fed
Reh
##smuseet
behövs
brotts
hockey
fiction
statens
kvarvarande
##ungu
##ophaga
Eleon
Human
Kropp
Minsk
freds
skala
befäst
Kennedy
Kaf
##junkt
##narna
Jane
Pent
stens
Nathan
novell
Libreville
##apt
##vald
Föd
Mov
ked
ukra
verka
kronpr
##shem
cur
##bruna
Grip
##rummet
Forsk
Lucas
framträdde
Libanonberget
Fen
##udden
traditionen
Clo
##issing
inrym
Muhamm
enklare
Equatoria
Tafilalet
alternativt
##perna
drar
Julia
##heterna
Skandinavien
##hy
Åk
##enia
##owski
Ster
Nikol
Schmid
intens
inhemska
regeringens
##ellia
Saut
Vatten
ersätt
stenar
teknisk
##ivisionen
Kristianstad
pla
Shin
sämre
Georgia
belägna
##leg
GP
##akta
Sad
##ritar
##agasta
Kajan
##ubileum
Bolaget
kemiska
påverkan
AT
tet
Melan
grand
tävla
rut
##ianum
himm
beord
utgår
utgöra
hittats
##ajor
Fire
cykel
##produktion
anläggningen
##tio
##frid
##asser
##kning
Gonz
Tanz
Arist
Milit
svärd
riktiga
Lawrence
Impressum
offentlig
##ffs
##lisk
Rag
##nämnd
##ymnas
tjug
Megas
torget
Studios
statistik
##ple
Bord
Brod
busk
##ställa
höjer
Higgins
socknens
översättare
världskrigets
mong
Ejido
Petrus
Qornet
luther
##lom
##riskt
##veten
Micha
Dü
tomt
##landss
värme
Joensuu
س
##hua
1821
Luft
Pine
uteslutande
Kvarn
Milano
tydlig
Gerhard
händelse
slutspelet
##rach
Torn
##givande
Encycl
kvalit
orient
spetsen
Atlanten
fortsättning
##ofon
döptes
motorn
överra
fysiska
Exempelvis
##föll
Euc
cont
Bandera
presenterade
##nsh
##fort
##jade
1827
##akning
omkom
##tillverk
militärt
varierande
##vel
##nord
Sho
flagg
##ningsför
dubbelt
##avdelning
Upplands
##gått
##omon
für
Cruc
Iron
änka
sammanslagning
##ondi
Fun
möt
cover
varor
##DA
Pip
Lock
Mend
Salo
emig
##innare
Billy
halvt
Studio
Wright
amatör
##bong
Leo
isra
Kinas
Via
##berätt
Antof
Kashmir
stängdes
publicerad
##élé
##sikt
Web
Camer
sorts
Södermalm
avrättades
befälhavare
##ка
##ilum
byar
Operan
flitigt
släktingar
Västmanland
Éc
täm
Rond
integ
årliga
verkligen
##dez
##iás
##fyll
Fry
Oum
top
åka
##bilden
##satser
##skogen
tilläg
##republiken
Wer
Khar
gjut
Fam
kök
##frågor
Vägen
##enterna
recept
##instrument
Mariehamn
Antofagasta
##phy
##into
fac
anat
Lloyd
buddh
Skarab
omgångar
utexamin
tillverkad
Buch
Jeff
Dansk
magnit
patien
skilja
Academy
Michigan
riksdagsledamot
##ūd
##ademin
utmed
butiker
ara
Witt
lapp
##kusten
Vrelo
positiv
inspelningen
Bit
Lea
##ilder
Dana
staf
Morgan
stadsb
Habitatet
Megaselia
##ienne
##skalk
##otrich
Torre
legat
##stritar
textil
Edwards
Litauen
absolut
##odo
##eback
björ
Övriga
Kanarie
efterhand
uppfattning
##fast
Sou
Tord
kass
Trafik
innehålla
tonsättare
##deb
Rå
##ögon
##lidae
##stick
Bulb
Torp
show
Hunan
datum
karta
##skommunen
Republiken
go
123
Tis
Komp
rodd
##eve
##oles
##ouse
lys
##ulium
##åndet
Coast
Jimmy
lavart
tillkän
flygplatsen
situationen
##BS
##andi
Pus
lut
Bäck
fara
mamma
Karolin
däggdjursart
##ileg
Råd
Honda
##skolans
konsul
Khallet
##jah
کوه
fars
Ragnar
sammant
Hallands
Regeringen
##acea
##ikan
Jamm
Quer
våning
definieras
##75
##dor
##hra
lug
vig
##angen
Echin
##albumet
Cooper
Dongar
Middle
Student
rh
##akon
dan
gun
oce
##adius
1825
Mest
Cueva
ansvaret
gallmyggor
Kanarieöarna
Västtyskland
##ked
##yda
##osis
102
Job
marm
Karang
Breuning
fögderier
##rew
##röd
##enge
Grå
##uvida
Caro
Kunst
franske
placerad
politiken
turnerade
##ibo
##ekul
Born
rike
tekn
utse
labor
utsmyck
Nintendo
##akch
Jen
Mob
rem
##dräkt
Ignac
Ujung
Palest
hjälper
Institutet
##bers
Font
stött
Oliver
bildad
licens
Guanaju
Teatern
uppenbar
Vancouver
teckningar
tillgängliga
水
##bou
##ogl
##rup
##bred
##gran
göras
adress
pjäsen
habitat
havsytan
utbildad
Yorkshire
föreståndare
tema
##alismen
Större
födelse
hoppade
skadade
##adensiska
Shandong
byggnads
##litteratur
koncentration
Wy
##ijän
sov
##motor
Cann
horn
##beslut
##regler
upphöj
##sbolaget
övergång
##regementet
Tat
Pali
Sloven
hänsyn
##målningar
orsakade
berättelsen
Bid
födda
##snittet
Andrea
fabriken
##ejo
##vint
domare
freden
förmed
återin
vandring
konstitution
##has
##mån
Sok
Must
Pern
bryt
Härnös
##kontoret
##imer
##nick
##ymer
##efors
Book
##gårdens
deltar
namnen
tillfångat
##wen
öl
Hod
##ekade
##erber
Möll
utrop
kampen
Vincent
redovis
##eljé
##onger
1817
Isab
Byggnad
Guangzhou
Tavastland
##rogen
Doth
Gunn
Year
mens
Stand
Europe
Götalands
arrangerades
Peć
See
##regel
Smed
växa
Corra
forna
gransk
Eleonora
Operation
musikaliska
Bom
Pos
##afilm
Moritz
fattiga
Thompson
självständiga
##rero
##ådan
##plant
##örerna
diagn
Kajanaland
##zia
teorin
##eväxtart
konferens
Östersund
##āgh
##anas
framt
vuxen
##ifolium
##ophilus
Flores
Birgitta
Buenavista
Landskrona
##giz
##uaq
##uno
##agas
Lum
##skole
Munk
Eduard
berömd
Herbert
Lorenzo
pionjär
##DS
##chs
##deles
Sork
Warsz
##ological
kommunist
##onso
##undin
Flat
##anläggning
ringmaskart
individuella
portugisiska
##löst
##ukas
##srätt
With
snäck
##osaurus
grotta
##alum
##laus
##yeon
##ārat
Rek
fre
##arkiv
Salu
vände
##ipennis
Raymond
engagemang
##församlingen
Individerna
##kur
##umt
##ökan
fet
liter
Global
intryck
återfören
befordrades
##ollo
Cel
omd
Heart
Prist
##splatser
vänskap
##orporation
plattform
##iox
##opl
we
Ytt
cit
Elsa
Hudd
stan
##ierade
Power
legend
parallellt
|
##ulis
Pie
Fyra
##faller
kirurg
rediger
Guanajuato
uppmärksammade
Ock
##odrom
vild
Jonsson
Gis
Löf
##sbygd
Snow
körs
Strind
Dresden
Hangzhou
##hs
##xamen
##lärare
##äkerhet
bägge
kommend
Götaland
försvara
Stiftelsen
##GA
##sor
##ogle
Vanua
Päijän
Syftet
##alleriet
##ystation
indelning
##utställning
##ext
ih
##yton
Udde
dyker
nyare
Edmond
finner
Gangwon
tillgänglig
törelväxtart
Pall
Stav
påve
##utsche
Class
kördes
besläkt
framgår
slutspel
vistades
Brittiska
uppföljare
##olep
let
koret
uppåt
Fadern
Notera
utomhus
##ositionen
##gavs
##itus
##lino
Osk
##klock
1822
##strafik
inbjud
drabbade
Nis
##ilitet
##obergs
Gener
Schles
officiell
##ioc
##ocy
##cept
rön
Mind
##avägen
hjärn
Ingrid
Rasmus
femton
##forskare
Roberts
Flandern
Konstnär
liberala
statistiskt
##hult
Kram
Kärn
Satak
##umentet
Riddar
företog
aktuella
medicinska
##ampi
1823
skapad
##samhälle
##ctus
video
bönder
fläckar
recensioner
py
Kah
Viv
##ygger
Cart
##endens
Managua
spelats
Elitserien
handlingen
företrädare
##RI
##nö
DC
##ogne
Yng
Chev
skån
##sholms
Chlor
löper
##hållare
erbjöd
understöd
Anse
rika
Roman
styre
Jansson
domstolen
efternamn
##sås
##etus
##fron
Deh
Sax
Cumb
skött
Philli
detaljer
##nez
Kā
##oment
Diam
Lista
bruket
Serbien
flytande
förstärk
Hör
Set
Bjur
Fager
Honan
##ono
Cyrt
Kala
Quin
hack
slår
##eplats
##fallet
poesi
syskon
begravdes
##uvan
car
cor
Crni
Edic
kamer
färgen
mörkare
producerat
relationer
##inth
114
Sug
vak
Mack
Nora
##parten
Aisén
Field
India
Arnold
##issionen
Morelos
främmande
Djurgården
ambassadör
offentligt
##ffe
Kiv
Sop
##lager
finan
signal
Päijänne
centralbyrån
##eon
nark
villa
stående
tillbak
räknades
##distriktet
Playstation
##22
##viv
##kors
##sele
Dod
Ens
utexaminerades
<
##ject
Nāw
Pep
Gert
Hert
Madh
##âne
öron
alfabet
tropiska
törelväxter
##otik
lyft
Micho
celler
Kop
båtar
gemen
intresserade
Wes
Walt
stim
Nabaa
Lichenized
##hae
##lini
##tens
Pyr
##limin
Fjär
gata
line
##ulauan
intellig
##bun
kej
sax
##anson
##ossen
Jesu
Still
läger
Charlie
mängden
nordisk
##ème
pp
##manna
Poly
bond
##läktet
##åkning
Kepulauan
manusförfattare
##ád
##ône
Khan
poly
Îles
Alive
Carlo
sjunga
flyttar
Simulium
##agi
##chet
XIV
Gara
Last
identitet
##möss
Cook
Cran
##sbolag
tuber
##anthera
Edicions
nederländsk
##evac
##svis
##umen
Kis
end
bered
##akchott
Atlant
inspelad
Strängnäs
underrätt
Nouakchott
materialet
sekelskiftet
##hā
cl
Sour
hall
##planet
måleri
Deutsch
kontakter
##gal
söm
punk
vårt
Roland
Skånska
tydliga
##shistoria
varifrån
geografiska
Wo
##star
##ulen
Ule
Barr
bröd
Boris
melan
Ignacio
rapport
tidskrifter
##ockt
Lär
Swe
tib
Chem
Bened
##problem
Förlag
Lundberg
tämligen
Nipissing
##haus
##shot
Låt
Bruk
Saab
bens
##linger
Light
Melast
oblast
gammalt
kontinuer
tidigaste
elektriska
Norrköpings
arrangerade
104
##änger
Gast
Fartyg
Wester
helgon
tankar
Kristin
چ
##bow
##itim
##acher
1792
sända
##kroppen
##unculus
##ehandling
assister
reaktion
##oup
AC
NA
##kant
##slan
Mok
Gäst
Home
trag
##illing
besökt
Bentham
teologi
##ocephalus
Expressen
avhandling
Ald
Als
##alier
1811
tyskt
Linder
##elf
##rud
Väg
##alande
##ampton
Stens
utbildnings
##TH
tob
äta
##athan
Klock
Torne
taket
Älvsborgs
Storbritanniens
##iern
Tik
##ästar
flög
brann
Cecilia
Chengdu
samlades
nybildade
eventuellt
##65
290
Rhe
##grunden
snabba
störst
mytologi
distribut
prinsessan
Wi
##huang
##värns
##åkers
##graden
Marin
brett
##material
Michoacán
##agt
##aje
Ip
NS
##chez
450
His
Hack
##icolor
##ockeyt
stört
Hansen
Joakim
Ungdom
expand
kansli
##resident
Moderna
omständ
Research
kommersiella
##alar
##ikten
##artist
Sigur
befint
bevilj
tionde
senaten
hembygds
##ер
##bah
##auer
##ifts
##format
##verkets
inkomst
protest
##strå
Hyl
vap
Krit
främja
Nielsen
beslutet
framgångsrikt
##gade
##kron
##märke
##otrop
enlighet
##lak
MS
Ile
syr
Dall
Emer
Epid
Lika
##iculata
faktum
flagga
Won
##rantz
Einar
Norsk
##havaren
faktiskt
troligtvis
chefredaktör
naturskyddat
##ša
Roh
##ifera
Riga
Chaet
boende
multip
##entering
flygplanet
regisserades
##ŭm
##tur
Koz
lej
دره
##elett
##inett
##ändsk
Ping
Pors
Rune
Jammu
rundan
religiös
utländsk
byggandet
fullständigt
##EC
##ovs
##inha
Rhin
jung
##vampar
anmäl
fiske
Socknens
skillnaden
##chia
Flem
akter
Teniet
stödja
tagits
Dothide
Valpara
avvecklades
##ër
##etik
##orac
310
330
##night
rust
##änning
Isaac
profil
Cochrane
vanligare
DyntaxaDyntaxa
Fan
Jay
Lot
Moz
Taz
##varie
##skande
Juana
skrivet
kyrkogården
ES
Wim
##nätet
Frid
terror
årtion
farbror
tyskarna
Équateur
kanadensiska
##ué
##esor
lad
##ormon
Kelly
Namib
Otter
bokstäver
sjukhuset
##organisationer
If
##onny
##ståg
Gäl
Ska
##entuna
Goiás
dåliga
##spartiet
kvällen
senator
tillväxt
komponerade
Hé
##grens
sikt
värn
Elekt
deleg
stock
äldste
motorer
uppmunt
##här
hörn
##kommun
Accra
kvarn
##inosaur
avskaffades
byggnaderna
##illus
kaff
geomet
risken
Nikolaj
komplic
speciali
##iya
##pez
##elet
##iley
##rorna
##teknik
Bundes
hotade
Plac
Wend
##ylogen
Arsen
Zhang
##förbind
socialt
uppträder
festivalen
##igo
##pes
##ielm
Kass
Ellen
utredning
##rí
##öja
1789
Merr
Pond
frön
China
omlopp
språken
##sfrå
##skat
##togs
##alisk
##rollen
Kirgiz
Corporation
Riksarkivet
beskrivning
Verksamheten
Mund
Oulad
plock
tanke
territorium
##mät
##ppel
##stena
##bruket
Prote
borgen
indelta
konsten
växande
Lettland
förklara
representanter
##chis
##otor
340
nav
neur
säkra
förekomma
definition
bronsåldern
kommissionen
##ON
##styp
##text
Was
##litet
krön
begav
Beatles
Harbour
Produkt
Strauss
##aha
Nä
##emia
Roos
##verken
urval
bestämm
Pakistan
##mok
##ulum
Doli
Heid
cirk
Linda
gädda
inkorpor
unionens
sjukdomen
upptäcker
##tom
##rina
##ynch
Burk
##oneura
##sbanan
patri
stund
känslor
trafiken
småharkrankar
##rops
Museet
Russell
ez
Äg
##cock
##kryp
ult
Mara
##vikens
##vingar
bräns
Isidro
Tolima
utbyte
skadades
Pehr
flyga
nybygg
ämbetsman
fastigheten
##agus
öns
Nash
Forum
Carter
Martín
dirigent
magnitud
produceras
Svensktoppen
##almi
Cun
Cron
Haut
Prom
Pros
katt
Plata
Strat
pekar
hästen
sprida
målning
Rosenberg
Shakespeare
överenskomm
##vap
##ānd
##nier
Ekv
Fol
##ilian
Burn
Hult
ling
Borgå
Rayon
##actylus
Montré
##elleborg
##skillnad
garnison
samhälls
Chongqing
##emer
Koch
Rapp
raket
rätts
kropps
Auguste
kanaler
privileg
##befolkningen
uppsättning
q
Aq
##spar
1793
Skol
maken
medier
brodern
Tanzania
##irit
##mäss
böj
##iluft
##ünden
Prog
borr
rått
Schwarz
indelad
konstnärliga
Dothideomycetes
##tus
Meck
dryck
Connectic
SP
##rerad
##ularia
juris
bedriver
begränsade
konflikter
##iap
##icin
Mata
Kalim
odlas
Nicholas
försvaret
##áz
П
##igny
##aguay
Pong
Träd
Wain
##ellekt
Kymmen
Mindre
klarade
socknar
protestant
tillfället
Deep
Draa
##håller
digital
israeli
mineral
Byr
Sit
Yam
Meyer
kryss
underart
sammanfatt
rekommender
##85
##esen
##vesi
##avesi
Copa
Água
hänger
värder
evenemang
##etty
Mist
hits
##alisco
halva
Allmän
interi
orange
Divisadero
skillnader
il
##kade
beb
##anthe
Chan
Chim
##ventionen
halvgräs
inh
Hind
Sacc
Chalm
primär
datorer
ranunkel
verkstad
Political
##alg
Aït
Vest
Wick
barns
förluster
##CC
##iles
Haz
bis
Benn
bestå
rummet
sparri
metoden
överväg
genomför
##bäv
##oui
##vägar
Aven
Disc
Haute
König
Republi
riddare
naturvetenskap
##atörer
##visade
Graub
Författ
miljöer
Charlotta
existerar
kunskaper
spridning
##EN
##dou
Zel
die
##andah
##illan
Tama
Nacka
Satur
studi
ställe
sätter
oavsett
##byggnader
Holstein
kulturen
likheter
positivt
plötsligt
Karolinska
renovering
institutioner
121
Hund
tour
varg
##ommern
broms
##ophylla
Indiana
##stillverk
##asia
##tyska
Korp
Reli
vert
##ektion
Elmer
intog
pappa
rasen
tänder
##partiets
engagerade
##FA
1806
Clar
akvar
vilda
Kambod
Gustavs
Nyslotts
Satakunta
##jun
##esia
Rov
##omyces
Hotel
tronfölj
##olja
Qōl
##aktus
##arium
Feng
Kath
exil
##öderna
Schön
bonde
##ansaari
arkeologiska
##iche
##iyan
##ephal
euro
##regiss
Sigism
arenan
budget
skrivs
soldat
spelets
fullbord
resurser
generellt
Graubünden
inspirerade
Melastomataceae
Fuz
Ish
Pam
Scen
fili
sköt
##streck
Ouest
Surkh
besvär
nionde
##alistisk
Southern
##cs
Sip
##synta
mete
krigsf
bredvid
uppväxt
utmärkt
Castillo
regissören
##hyd
DD
##acht
##kore
Sky
Moose
Harvard
omtalas
Lindgren
centralt
##omba
AHL
Cox
Tät
båg
##rasset
Lagen
härrör
judisk
Swedish
us
##jakt
##asinet
##ostoma
mötet
kunder
Barbara
Jalisco
regerande
##anu
UK
pär
ment
spar
Detroit
ortodoxa
Trelleborg
##aby
##ylis
Ard
våra
##styrka
Bluff
bekant
gravid
hustrun
Valparaíso
##evan
##gärd
Hägg
Tung
skicka
Service
mördades
Reservoir
Tamanrasset
##gol
##äns
##eley
##egård
##uguay
1801
Liss
Jordan
center
##oglossum
svansen
Montréal
demokratiska
##wo
##nom
##iven
##yssl
Heb
Down
begå
drick
Extrem
Ronald
främre
skydds
ögonen
involver
##värm
Ojo
Rus
##iplin
##ktion
1803
röra
speg
avdel
union
talang
vingar
##orium
1807
skolans
afrikanska
introducerade
##ación
##klund
##iderade
stoppa
Magazine
löjtnant
förslaget
##FF
##low
##wat
##natt
##irect
##ataljon
försvin
lärjung
importer
fängelset
ni
Nass
Shah
Trad
Mendo
Piteå
omval
##språkig
Hämtad
säteri
Potrero
tvingade
konsthall
stadsfull
kläd
Jason
Tanete
##teringen
Montaña
vikingat
anknytning
producerar
gitarristen
##hk
##āz
##gad
##iqu
##riär
kyl
flor
lust
apost
##änderna
Antoine
##ća
Office
bränsle
Skaraborgs
Tjeckoslov
världscupen
##hold
##vind
##estan
Herm
Riau
Tort
Vand
tals
##rikansk
förebild
Kirgizistan
##wak
##iber
Civ
Gel
Kull
Ulrika
stabil
Nicolas
##företaget
sällskapet
mästerskapen
##nea
##sväm
Aph
Dix
sväv
##rupper
proport
striden
utgåvan
kroatiska
##OR
##hems
cup
tyg
Rita
fett
##permum
folkom
toppar
förstär
synonym
Stationen
akademiska
verkligheten
##isto
Rel
##vensk
##doktor
Women
enskild
sittande
##verna
Nouv
horis
Koppar
näring
Nuvarande
geografiskt
samarbetade
##adan
para
skull
samtal
kammare
gymnasie
konstant
Medelhavet
meddelades
##AN
Hs
Pá
öde
##chich
##varor
1805
klor
##arsson
Felix
##iformis
landshövding
##TS
##äds
##ugga
can
Nepal
negativa
invånarna
utformning
1802
Drew
##bräken
beväp
##atorial
Stuart
koalit
korall
Musiken
välkända
vetenskaplig
författarskap
Bum
##aniet
##längd
Edin
rena
Banten
tycker
Västerv
faktorer
grafiker
ersättning
##39
##alth
Loh
Anat
Tach
högra
ansvarar
jämförelse
undervisade
##utla
Dok
Hul
Ian
arch
loka
auktor
flicka
frukter
korrekt
utnämnd
tredjedel
anläggning
##iyya
ägo
##dömet
##osoma
Laht
rang
##lassen
Posten
##festival
##regering
Ik
##oras
Bey
##endal
##etery
Clin
Hole
libr
prat
##backen
Larga
Nästa
bygget
ration
socker
chansen
stannar
Wolfgang
domkyrka
hemlighet
##ève
##omar
##oupe
åld
##jukhus
##politik
motorcyk
förkortat
tunnelban
biträdande
nationellt
offentligg
##eza
Cry
Gap
##skomp
##träsk
Dalm
Gros
Ryan
timm
skjuta
Mission
upplagor
##antikvarie
Bengtsson
entrepren
##cien
Toc
Hanna
hyres
segel
Benito
byggda
##enstierna
föreslag
uppmärksammades
Rak
Öres
##agande
staty
ändra
##ogaster
##smedels
Idrott
gratis
släppa
##konstnär
intellekt
##hätt
##åsen
##stånds
indik
##versionen
Ål
Cad
Rim
##ovača
välg
palli
balans
triang
##amatcher
angräns
Cemetery
Franklin
dramafilm
##sim
Spen
Botsw
husen
ljung
##ination
##klassen
Cordón
##ysa
122
Eug
tje
##sätts
Sham
Eastern
brukade
sannolik
##beg
Rig
Orth
##arterna
antika
ryggrad
effekter
personlighet
Lod
lågt
span
Banan
oklart
ägaren
Eugenia
punkter
gravfält
försäkring
inspelning
Ló
##ason
slem
##bundna
Kevin
Mendoza
referens
utgjordes
framställning
Stri
Morris
höjden
kapacitet
publicerat
folkhögskola
##ра
##hes
##brer
##mers
bif
##spark
Andy
Tred
manu
##baggar
veter
tvingas
åsikter
##ïa
##arc
##ieu
##iot
##ivo
Sea
##albek
##eyard
Qark
lind
##storps
Alpes
Boiss
Karel
bränn
värdet
##undersök
Municipality
##acia
##ilda
##quez
Nin
Thé
sli
##värld
plund
##språket
aggress
hantera
##nak
##rok
##bygd
##etens
Groß
Kejs
Åter
##kestern
sträcka
muslimska
nominerad
förtroende
С
##mig
##yps
Cos
##livare
Blues
Found
torde
Luther
besöker
präster
typiska
##samlingar
UN
##onna
Katt
##eterna
fjort
läggs
förbud
Schmidt
evolution
sällsynta
##umo
Jang
Grass
utsikt
Baalbek
Sebastian
gymnasiet
municipal
##hoe
Vet
Wor
dia
värm
Tigre
flyger
spekul
Harrison
deltagarna
##lio
##nitz
Boc
Jup
Hawa
##outube
Norrt
Serie
kejser
Castell
tunnelb
operativ
tillverkningen
##onser
##värder
möten
Själva
orsakar
partner
Söderberg
gymnasium
säsongerna
SD
##liss
Nur
##roller
##stapel
spons
sägas
säljs
##egeiska
Ş
##tea
##ices
##mour
##exped
##lerna
atom
##itiska
skift
styra
Hermel
yngsta
överstel
##fat
##gat
##rén
kid
Work
##espond
Kimito
Nigeria
verklighet
införlivades
DN
bjud
dröj
Agnes
förklarar
dotterbolag
hj
sw
Lia
fen
Casc
Sture
Palmas
hörnet
kaktus
service
ytterst
Missouri
generalm
##iregemente
##stillstånd
giftermål
##iklar
Quem
that
Dagen
Guard
Torsten
Världsm
kapitel
blomster
biblioteket
##37
##aså
SL
##ways
alp
mad
Gour
Krok
Sard
##berger
fasad
Tipula
riktade
separata
Vallonien
operation
samarbetet
##ák
##hjälp
This
avsev
##elseled
Zetter
danske
genast
tanken
utförs
hittade
Örnsköld
glesbefolkad
##amu
##låt
Cum
bus
##ators
##Nation
Pablo
Miconia
Jonathan
Trinidad
jordbruks
##ïd
##hak
##šte
Iss
Nes
Trä
Culi
Jess
parv
##Donald
Hubei
fånga
##ifterna
Terara
bestämt
påverkas
personlig
##uen
##omme
Dup
Grä
Second
Wagner
Village
Mitchell
fastställdes
##xen
lo
so
##gilt
##odore
##sätta
Grev
insk
klot
##uminium
##följande
huruvida
##institutet
etablerades
populationen
##ogy
Kik
Bres
Kill
elit
fasc
Perry
läste
##formade
genren
utfört
Romanen
förlägg
Christer
patienter
##ifa
Fars
##ruppen
lagun
noggr
##erligen
Fuzhou
medaljer
##fus
##nio
##ākh
##mars
##kreis
##rimoj
Denne
Lincoln
Botswana
Kambodja
processen
avhandlingen
##jep
##acas
##oser
380
Dab
Börj
Deux
Jokk
Ness
Bulud
lätta
##alendern
Mississ
##forskning
##bid
##git
got
1780
Gris
Knock
agent
##karriär
säkert
Västern
bildats
Bonniers
tillåter
undersöka
fångenskap
##36
##ugs
SO
Sé
##läkt
##nata
##usta
Arc
1758
Horse
Kungl
Världs
upprepade
uppslagsbok
representera
##roy
##sja
##aspis
Proc
blek
Ahmar
kvant
Marcel
reager
report
kirimoj
Gällivare
periodisk
målarskola
##ohn
Zü
Oce
vel
1775
Kraft
Malin
sättet
demokratisk
##gart
Amp
Dut
grö
grafik
Theatre
hemliga
elektrisk
observatoriet
Oj
##imar
##ious
Kut
Beau
Sche
gult
bakre
plant
##ophorus
Normand
Salvador
##vat
1795
tyst
##dingen
Baden
Meadow
Number
vinkel
drabbas
uppdater
trollsländeart
Ole
##etisk
Blas
Rhod
##spopul
rykte
formul
palats
Jiangsu
vinnare
Nanchang
användare
besättning
erfarenhet
drottningen
##pre
##ühr
##ägna
Lug
Fest
Tull
bilj
##linder
byggs
##emokrat
Franco
flotta
berodde
påverkade
Ranunculus
Universitet
##ijan
##utgå
Keb
Pok
Rör
pin
##skiva
börd
krom
Bruno
Lorra
smala
stammar
halvgräsart
svårigheter
förhållandet
##åp
##acus
aff
gris
slöt
##använd
Naranj
bevarad
orsaken
Sargatal
ingående
tillhandah
##uis
##lian
##prov
Châ
##essee
fans
Sarah
##borough
listas
##spelaren
försökt
##producent
##örtsväxter
konvention
##qq
Ohl
kår
##sfall
Brid
jämn
saga
årsj
##remiär
Indep
Dicran
bevara
funnit
successivt
avdelningen
strävbladiga
HK
##rått
Tax
Stål
##cester
Miljö
dödade
Heilong
kvinnlig
assistent
rovflugor
##ET
##ún
##öpp
Sø
##idus
##rull
##ucky
vent
##bilder
##hausen
##tidens
Köpen
georg
grunda
rekonst
presidentvalet
##fång
##quer
Lup
Uno
Pien
hals
skål
##ismens
färre
avgöra
sonson
förklaring
gräsväxtart
konstnärlig
##buk
##usp
##ovica
##stuga
##yggan
frim
##gårdar
##stjärn
##örning
ryŏng
Dalton
Cayenne
Folkmängden
##ieri
##mets
Ist
##egraf
##hagen
##oning
##reras
Brin
From
Kind
Natt
amar
Negra
Caball
baseras
Huddinge
Uddevalla
Landskommunen
järnvägsstation
##38
##cz
##adet
##iane
Wir
##bered
##jande
opin
tork
Xiang
resan
Berlins
##röstningen
betecknar
förvärvade
Amerikanska
Organisationen
##hil
FM
pe
##atro
##opal
##orial
inkom
landsbygden
##tim
Brow
Tack
##mossor
##anterna
farfar
rösträtt
producerad
##adr
##emo
##āri
DS
Fru
Sán
##celler
Pećina
syndrom
AG
370
Moc
pub
Nahr
uttag
boskap
konstg
Kerstin
länsväg
substant
fördelade
specialis
tusentals
##nice
Beni
subst
favorit
Fernando
betecknas
officerare
Kristianstads
##áv
Bahía
##förklar
Paulus
##unionens
Folkets
bedrivs
Connecticut
Heilongjiang
##ūl
key
Tala
Ving
svid
vänd
##kommen
Helen
Helge
extremt
utbildningen
##öme
##čki
Ál
##ians
Eth
Göt
ris
viv
##sbana
1794
kult
news
ogift
##opteris
##önstret
Jönsson
överlevde
##iför
Liu
##onium
##skinn
##thers
Moss
Högsta
marsch
affärer
trettio
##förenings
Himachal
medicinsk
##avdelningen
Bamb
ligg
foster
angrepp
partiledare
##avan
##sher
##usia
Kotka
Saari
månen
Monica
förare
Florens
Spencer
mynning
##uns
CR
Rā
##embl
##inum
##ämpar
Mast
medi
Matthe
Uganda
commun
bredare
Resultatet
##oum
##zin
##ichi
##reso
##icana
1770
Gong
Gred
Look
##hammar
Arizona
##rosophila
##ŏl
##speg
Sey
##omens
##polis
##skamp
Aber
Fren
João
Pick
Patri
##lenburg
Adolfs
Alaska
Berätt
Oskars
Winter
beskydd
verksamma
Jat
1804
Tell
styv
Piauí
gravar
präglas
vänstra
föräldrarna
Västmanlands
##AF
##yā
Ted
lid
ped
##oberg
avvik
greps
##direktör
avsedda
Norrlands
återvänder
kandidatexamen
##né
Guer
nack
pund
##handling
ställer
Ekvatorial
##hm
##here
##ofta
##pper
##armén
Kach
Morg
blått
##sparken
##ulation
Adrian
rådhus
turnén
distribu
långsamt
finlandss
Oy
##asis
##öden
bidrar
##personer
##våningen
Evangeli
Vladimir
översväm
Aç
Jel
vas
leuc
filmens
studiet
Mercedes
Provinsi
digitala
sexuella
##föreningar
##valv
Sold
##ifiera
pjäser
flyttas
läroverk
Magnusson
Tennessee
studierna
Ekvatorialgu
##oû
##bis
##ijk
##yat
##ents
##ciper
##quito
Monro
Singeln
krigets
hemmaplan
kriterier
##vir
##öten
dyr
gam
fysi
##parken
Fisher
flyttat
stafett
katedral
databasen
##ives
Dir
Lut
Whe
Stenb
indust
##slängden
Highland
Hi
##padd
1788
Dhabi
Unter
fylke
Mohamm
dröjde
##regemente
Chalmers
Englands
ansluter
morgonen
reformer
konflikten
Konstakademien
##hed
##uls
Chir
Ghaz
Cerat
fjärd
siste
dittills
livsmedel
##ahar
Zen
ryt
Lost
glöm
Trond
##skeppet
Parker
Tierra
licent
samlar
utförd
svenskar
##ospel
##vernör
##ylland
Thomson
tretton
Simpsons
tjänsten
oleanderväxter
##ēr
##inae
##ulon
Jum
Full
Glad
Trig
hert
assoc
##förband
justiti
kidnapp
bidragit
tillverkar
levererades
sockenkyrkan
Г
库
##scen
##skra
dyk
tam
##ioxid
##track
Marl
Most
Chand
Vegas
Watson
distin
experim
katolsk
kalfjäll
kolonier
kommitté
kontrollen
svenskarna
»
##oge
see
##saken
Walk
##bunden
Nicol
##punkter
kunglig
samlingen
##haw
##uin
Bü
Hü
Tl
##jära
##ript
##rosa
doi
Cycl
Holl
Piet
##iseras
Master
hindra
stenen
Tidning
därtill
ovanlig
tillträ
bestämma
praktiska
studieresor
##com
##ussa
Ili
Seh
##endrum
vuxit
skapas
specifika
komposition
SJ
##ogna
Dou
Plag
##kunnig
Chart
Eagle
index
oblig
pågår
Precis
rättegång
stenåldern
hedersdoktor
kommunalförord
Б
##obo
##åla
##lief
Suz
##yttan
1799
Biel
##läkare
Force
myeon
Jensen
broder
##uropeiska
##arspindlar
Graveyard
##IN
##té
slo
Bath
Bengo
Medic
##onering
hämtade
närvaro
domineras
Sällskapet
restauranger
##eko
##gro
##heh
##ouia
Nim
1772
fril
chans
friluft
röstade
Kronobergs
kontrollera
##spets
Cliff
Mälaren
tillika
Montreal
##bres
##umma
Tyl
Xen
##annan
Child
Claud
Jenny
Sorkh
crass
desto
Library
Lorraine
alldeles
##bé
PS
##nekt
Kou
Zer
Erich
skilde
erkände
Nacional
tillkännag
uppskattas
Jal
##chter
Clem
Rail
Sauc
rall
##gensis
##ulipas
Dance
German
expert
ب
##blå
##soni
Azul
Mjöl
Vend
upphäv
##odendron
europeisk
##ppen
##roch
Rou
rim
##naren
Prop
scout
Lahtis
##steuropa
Sigismund
styrkorna
##bw
##jia
##osi
##åts
Pt
##karl
##ubel
Näs
Tum
Timb
holm
ståt
Gharb
Ornit
invad
##mässigt
Marcos
action
dubbla
stilen
Kimitoön
ögruppen
stationer
förmögenhet
##jou
##ych
Fro
##andro
##arett
##elekt
##kåren
##åkare
Ljub
##olycka
Skogs
##försälj
##gränsen
vikten
##spolitik
palatset
Tamaulipas
kristendomen
rapporterade
regeringstid
Cé
Eff
Pär
sad
oliv
Benin
prost
##ography
##ografisk
blomflugor
##non
##tla
Äm
##cium
##inis
Ming
belö
Malta
Cundin
förlaget
uppvisar
kommunens
Mississipp
inspelningar
##shi
##uron
##ylum
avt
##husen
##uncil
Muss
##erräng
Harold
Termen
Atlanta
##pera
##shög
nob
##spoli
önsk
unika
konung
##historisk
Särskilt
styrelseled
Cundinamarca
##gow
##oly
Joy
dök
##artid
##ystet
Tart
symp
Čuka
##entlig
##färgad
Stutt
gator
känsla
##förinnan
##hängande
manager
försvarsbeslut
##68
##gne
Gw
##ersk
##strum
##strän
gyll
##endorf
skaff
Kansas
besitt
negativ
avslutas
stamområde
iv
Sle
bio
##ifest
##ultan
##oliska
siffror
##alisering
Cornelis
tillverkare
##asien
vagnar
taxonom
stipendium
##kä
Tes
Wis
ful
hip
##rique
##romis
Köln
Thun
comp
##stemän
Olika
Stars
Store
stått
##rörelse
Canyon
bokför
konkur
statsk
Emanuel
etniska
indelat
statlig
utgivare
förhandlingar
##othy
##sval
Baz
Orm
Trop
##coides
Keith
##ualitet
Clarke
affärs
Kvarter
fuktiga
Encyclop
licentiat
Sundsvalls
nordligaste
##bak
##assi
##emus
##yrer
Doub
Racing
##sprojekt
Zab
spin
utdel
varar
##antverk
Nordir
kvalet
Branche
Digital
fornläm
regisserade
##uto
##grod
lan
##arsus
##knott
smör
hälft
Peters
isländska
traditioner
singellistan
##ogi
Agr
Gou
##stach
Ophi
Tank
Garet
tyngd
Garden
##jukdomar
##ställdes
folkmusik
Sovjetunionens
##bre
hk
##ehör
##kvar
Div
##byggt
Himm
loss
Utifrån
Deutsche
majoriteten
utgångspunkt
##göta
##ökar
124
hyb
1797
Vari
abstra
lägsta
orsaka
visats
Stevens
utskott
Gardaneh
befolkade
svidknott
förutsättningar
Д
##idy
##ruc
Yan
1798
Gamm
Nort
revir
tvätt
##rationer
uniform
argument
##agd
##vägg
Hou
##gaard
##igaste
Islam
nyŏng
##peratur
Samman
Warren
lektor
Merrill
skånska
utrymme
##arkarriär
statligt
Kristiania
Västernorr
##uds
dro
##björn
dras
Nedan
##usiness
nässel
samlas
noveller
kräftdjur
HD
Bīl
Tör
##sblad
##ultat
Batu
Spår
strå
Junior
Warszawa
akademien
Kalimantan
bostadshus
##ús
##lieb
##litz
##qiao
##rimin
Chef
sålt
##esiska
##istent
##projekt
Astrid
Paraguay
Köpenhamns
din
##ysant
Bong
rörde
Europam
adlades
koppling
aktivitet
Ü
##gau
##artz
Cut
Sis
##rings
Cang
Cten
Nanj
##nandet
##samman
##unneln
Albin
Medelp
progress
##bräkenväxtart
Tjeckoslovakien
##erh
##sler
##ollis
##revet
3000
iakt
Tredje
ansiktet
angränsande
##āra
##elis
##haer
##rish
##parti
##uston
Siri
Inger
López
Tower
Neapel
Fischer
Staffan
##skrivning
##urneringen
datorspel
kö
##otax
Wür
##alens
Base
What
kali
skar
bröts
sympt
Dennis
boplats
uttagen
Kymmenedalen
##laga
##ellit
##nberg
Gale
Lily
åriga
Bonnier
Ljungby
oblystet
genomsnittlig
##79
##avy
##him
##våg
##erbo
MTV
butik
utrot
kanoner
besegrades
1776
Dave
Golf
Shen
Denis
bollen
##kraftverk
##ynn
Gymn
Kitt
Tess
Fracc
Klara
spann
##skrivna
byarna
förlän
medför
##sprodukt
kardinal
uppvuxen
medverkan
tidpunkten
Riksantikvarie
föreställningar
##elkä
##esis
##nader
Dion
Flag
fron
osäk
Birch
Valet
Bridge
fästning
Trollhätt
##iw
##hov
##itiv
##ucan
Pim
näs
##ungna
Rams
tang
svagt
##uckerna
Rodrig
besöka
##aregionen
tekniken
##allsvenskan
arrangeras
försvarade
##mb
GT
##itla
##arivo
Sved
matt
##barhet
Hwang
Bibeln
Svarta
perfekt
Standard
katastrof
strävbladig
##lust
Cyc
Bard
Hjäl
Nees
sjönk
Breton
försäm
räknar
schack
seriens
Boissier
SR
##ijer
##jorda
Pool
gros
Karls
##jänsten
Steven
nyckel
pojkar
besegra
Dul
1791
Anal
Cear
Half
Kore
Nari
##agarna
##östern
koncernen
skandinav
departement
kritiserade
##dikt
##okar
Sli
Neil
Uleå
##racing
##krypare
Johans
flyter
konkurrens
##elop
Qui
Dala
Girl
quad
##vensen
Brach
Caroline
Gyeonggi
företags
inträdde
kategori
upptäckts
århundraden
##ол
##kah
SI
sab
##derar
Nors
bero
ägna
Chama
ämbetet
aluminium
universum
influenser
lägenheter
##če
IA
ah
##opod
Pom
Who
bäck
läkt
Pizzo
Roche
Record
Schult
chefen
exklus
spreds
verksamheter
##roman
rosa
Klubb
##terande
utbröt
Indiska
lanserade
##sföreningen
Epidendrum
flygflottilj
Ic
##ethe
1760
Kiev
##illeri
Zheng
##genting
Castor
Fraser
Hammer
Priset
Rayonu
morgon
English
sorters
Arvidsja
Kentucky
Vadstena
ovanliga
juridiska
institution
##infl
##rell
##eptet
##ocker
##valda
Fitz
Mili
Ocot
lörd
over
Raven
García
granit
införa
psykiat
##ournalist
Slovenien
grundarna
värdefulla
##zas
##link
Ved
##ognit
Qafa
Soul
Tier
Wied
##försök
Ceará
Mycket
Viking
arméns
medelh
maskiner
partierna
##lyn
##neh
750
Kuus
Sista
skuld
Niklas
strikt
Edinburgh
intresset
ga
##prof
390
Hat
Sef
Ula
##alypt
##blick
##ector
aren
Jinan
ateljé
vinner
tekniker
musikgrupp
Universitetet
##leh
##dale
##yoff
##esson
Tech
Jerevan
Simpson
Tävlingen
Historiskt
världsmästare
##abe
##asj
öm
##orak
##arica
Priv
snitt
Sibiri
härled
grammat
populationer
##íos
yr
Tac
tår
##agram
##iansk
Samm
Sign
Zach
##maskin
hyper
##tagande
indones
betraktades
##kens
##oshi
##ripa
##spat
loj
pra
##flick
Esen
Manz
Mull
Stol
ödle
##illera
##kandid
skrid
##strands
Cuesta
Singap
föredrar
ersättare
expansion
##āq
##pot
##tti
ss
##esta
##onte
##ämnd
Pré
hatt
##växten
fräls
regul
Madhya
nutida
föredrag
##etia
##witz
you
mäst
pröv
star
##iensis
Death
Islet
Sundby
avgång
series
dagstid
skulpturer
iri
jär
##chard
##föret
##perma
Kiss
##aktion
utnäm
##ervatet
Warner
lagets
Rangers
centralort
##eco
##leb
##hong
Tod
ext
##onden
Sahl
Ulla
timmer
Martins
uppdelad
Jordanien
striderna
överstelöjtnant
FK
##idos
##ipan
##rupp
Bij
Gagn
##slutet
explos
Kenneth
normala
Coquimbo
övervint
demokrati
##chan
##ikum
Aub
Ket
Chag
Slov
drän
##loster
Alban
Franc
Motte
Param
Stark
föran
barock
Antanan
Augusta
önskade
delägare
ekonomin
residens
Antananarivo
Sâ
Eul
hop
##oloma
Mare
syre
##manska
Evans
drama
kvinnorna
bekräftade
Mecklenburg
##alom
##foni
##vidd
ägt
##inata
Rund
Tian
##aniemi
##derade
##ession
Coron
Springs
svårare
decennier
Anledningen
fastigheter
journalisten
##uvor
##inson
##rädes
Vran
hier
##beteck
utsåg
##handeln
##ssystemet
Population
##èn
##fell
##trans
1750
Douk
Earl
Isak
tagg
Court
Unión
läder
Akadem
försågs
##ityskland
Fartyget
riksdagens
tävlingarna
##ël
##efl
##inac
##cover
grus
banor
nätet
Yunnan
männen
hästarna
Herrarnas
##äsong
Främ
Brist
Rouge
Seger
Texten
Burkina
Ferrari
antagligen
##bing
##sbro
##iidae
##moder
Xbox
##illade
##ischen
Jerry
Opera
enorm
gälla
Oromia
Edition
Mattias
Navarra
reflekt
storhet
Prefecture
allvarliga
allvarligt
representerat
##áp
##önd
Má
##neum
##emoni
##sviks
##sköter
runin
skörd
handen
typisk
##sköldlöss
förvaltning
premiärvisades
##fu
##jd
Toy
Wei
väp
##cheon
##ikens
##serar
Gorn
Ralph
hållas
##ammation
typiskt
serbiska
överklag
felaktigt
grupperna
kronprins
Björneborg
##lau
##lär
IC
Gay
##court
kred
Metal
växel
##orterna
voblast
##āsh
##asan
hat
##sträd
Gård
fött
##ektorn
Derby
immun
spred
Rosario
sociali
##uppgifter
tävlings
värnplikt
Moluckerna
##Nationalmuseum
Ém
##dans
##museet
##släger
##färgade
utslag
Psychot
brittiske
flygvapnet
Nazityskland
##icz
##ryn
##utet
##raven
Marx
vals
##crantz
Brahe
runda
##äckande
bryter
Arbetet
Jupiter
britterna
befintliga
upprättades
##ège
##abon
##näbb
##vitt
##esjön
Kend
##chefen
##sätter
Cather
##fabriken
slutgilt
arrangemang
##hin
##mez
##glas
Leslie
aspekt
##rukturen
Carlyle
utmärkelsen
styrelseledamot
##umbo
Kau
Vat
##ronom
Forn
Namb
Pard
Bourg
Laura
Qarku
rumän
varma
miljön
träffa
tyngre
##struktur
Cameron
Sánchez
Esenbeck
##مه
##îne
##asen
löst
Foster
diplom
##ollegium
Paraíso
avtalet
rektangul
schweiziska
##byrå
##alpus
##ština
Calv
Rach
##issima
Barra
Dream
Space
bibli
insåg
Observ
belägg
uppkom
liberal
dinosaur
marknads
familjens
grosshand
existerade
##EA
##opo
##gest
Cyr
Sup
##abler
Banj
Mask
earl
##vigdes
Klipp
sitta
synlig
ödleart
##sekreterare
helikopter
Tä
##ends
##adura
##ypter
1796
Carn
Mate
Roma
Ceder
Födan
Techn
huvudt
lägenhet
##örtsväxtart
##78
##erin
##omya
div
VIII
pale
angust
##sspelare
branden
Progreso
effekten
pågående
Catharina
effektivt
karaktärer
Bulbophyllum
oleanderväxtart
##aré
##nii
##lect
##olds
Haag
##fordon
##iskops
Bergs
Parac
Quint
bruna
##ografen
hittat
rymmer
begäran
amarylli
förvaras
serierna
Bec
Juv
trög
##idning
##sklass
Parry
##eleskop
heltid
Aleksand
utnyttja
##angs
##chel
##ckar
##enga
##iman
##perto
Five
bakåt
Dolich
marmor
närbel
Släktet
Utanför
existens
dominerade
##igua
Kost
Vind
Webb
oavg
Blanc
Blood
teman
Berger
Stjärn
klarar
spridda
##strafiken
fartygen
Lepanthes
##ŭng
avl
##bilda
##båtar
##icera
##resor
Sadd
tänd
##utöver
Diosc
Hyper
Rodnik
hjärta
utgick
##orkester
riksväg
avsevärt
släkting
trädgårds
##set
PR
Gär
Hope
Tings
tvång
##ellidae
Google
Sparre
buskar
sexton
streck
talman
Rolling
Villman
albanska
generals
nedanför
Förbundet
erfarenheter
##önen
##start
Camar
Kodra
beund
ljusa
##etscher
##onenter
Austin
slagit
##emiraten
Slottet
##fera
Pis
nad
Faso
Hern
Rush
palm
Latin
valen
Scient
listar
federala
utvecklings
Kār
##leton
Hatt
Mers
##hallen
baron
della
Zürich
hundar
hållet
utgåva
Stephan
keyboard
sakristia
fladdermus
Lus
Cien
Tree
viol
##formad
##upaten
mörkt
Conrad
godset
##jukhuset
klasser
##shuvudort
biskopen
uppträda
färdigställdes
##onda
##ramp
Rok
##alapa
##bourg
ombud
Inspel
floder
bidraget
##historiskt
Nationale
##skådespelare
pseudonymen
splittrades
##stadsregionen
##hill
##hults
##oleum
Förs
Munt
illa
köpt
##lasten
Craig
##skapten
underb
avlidit
skilsmäss
Ţ
pi
##entz
mes
1680
##länder
Parque
Sigurd
anföll
behovet
tillförord
Bottenhavet
konstruerade
Oberösterreich
Dw
##icht
HMS
Rin
Ahmed
stamb
dikten
landsväg
##sprogrammet
institutionen
Pj
##ulera
##undet
Daik
##eville
adeln
förbli
patent
Andersen
Gottlieb
arbetslös
uttrycket
medlemskap
utmärkelser
##cl
Taw
Ebba
Näst
Pieni
partis
Council
##aterialet
uppmärksammad
##hat
ho
##fack
fra
##linga
cert
dags
moss
##porten
##ägarna
Arden
Ouard
##osphaer
##kritiker
brorson
hertigen
horisont
ryssarna
sträckte
Francesco
Rysslands
tunnelbana
##cup
Jaz
fog
Perd
##nament
entré
natura
vacker
instrum
filosofiska
marknadsföring
##cla
##sti
Hig
Nog
Pag
Lima
Bränn
Parad
mötes
stred
Boyacá
kartor
erbjuda
Engelska
Smålands
Nordirland
riksdagsman
Östtyskland
produktioner
##TO
..
SF
##idis
Dyl
##cheng
Nina
kärr
##målare
##smatch
Brita
lärar
strim
Liberia
Piedras
Djurgårdens
##pu
##plat
Ses
Tej
hbw
Vinn
pist
##stjärt
Front
##ulturen
Zapata
försedd
##försäkring
Härjedalen
##imba
##rema
...
##ahavs
##assan
##emane
##rikas
##spett
Haga
Hast
Törn
Venus
antis
blott
Adolph
Dubrov
intern
omgång
pälsen
tabellen
problemet
biologiska
Ú
##itar
Läk
kyr
##riser
##smask
behöva
väggar
visserligen
generalmajor
konstförening
skådespelerska
##teh
##area
Ceb
Opp
Ork
##skoga
sena
skald
##ländskt
##stjärna
händelsen
människorna
ära
##inton
##stall
Bagh
Hier
kris
möts
##dynastin
hjärnan
beslutades
asteroidgruppen
Ór
##rank
Fès
Lyc
fan
mos
##sbild
1783
unik
varu
##arbank
##hållit
Debel
##amiento
färdigt
skotska
variera
inkluderade
##át
##ikh
##öna
##main
##opon
resp
##ningsk
Blomm
Pleur
Nicosia
Rudolph
Brothers
Nouvelle
##avel
##rida
##ämne
Sob
##anner
##fläck
lejon
##unition
Gregor
hemmet
##andarden
interna
ungarna
praktisk
utlandet
representation
##aa
##aft
##jab
##éné
Luz
Tio
påp
##slund
1786
Sitt
Edgar
möjlig
Bamiyan
misstag
staterna
svampartP
Tv
Uz
##leys
etn
Lach
Unes
kras
##strong
##jänster
##god
Mä
##ains
##igma
Chu
enz
Arte
Jard
##ulatum
Kvinn
Praia
sänds
##entliga
Planet
korsar
legitim
förbjöds
Stuttgart
##ów
##jte
##rab
ec
##fäst
##less
##änen
Ice
Lay
##egren
##isser
Dans
trum
##itaine
Chich
Marit
föder
mäter
Hawaii
högtid
restes
##ocladius
Separat
amarant
present
##pack
##skyld
Swan
##onomus
Burns
kurser
kapital
Lindström
##avia
##etin
dur
Dest
Kart
Muse
Rest
Cristó
Escond
balett
Människ
Zemmour
hovrätt
protokoll
Fig
sop
1778
Lamm
##onerna
Delar
Folke
Rhône
Stadens
tävlande
förväxlas
behandlade
##71
##ās
##alik
##chon
##icta
##skam
1660
Boys
Halv
Earth
Guilla
Sophie
dispon
förnäm
Pristim
Sevilla
konsult
Kingston
processer
Psychotria
##eal
##seg
##quel
##ukar
Gla
Xyl
Java
flex
##emberg
spelad
Daikondi
kärnvapen
kategorier
##glanssteklar
restaurering
kompositioner
##jour
Anc
Tla
##ssons
Chip
##nation
syssl
##räcklig
Porter
Jokkmok
attrakt
översatte
guldmedalj
##iop
CS
##odia
##ware
Eld
fla
fos
##sdjur
Lion
Frost
Pemat
okända
##sklubben
Kyrkans
Stadium
penning
statist
Constant
uppslags
##utrustning
Jokkmokks
accepterade
##AB
##ев
×
##vol
##mare
Fut
äpp
##iceps
Qala
Stro
##äcktes
invid
kross
cylind
womens
Bahamas
lånades
framförd
vinnaren
försvinner
förlängning
stjärnbilden
finansminister
##esk
##hild
##jerg
##lion
##oran
##rens
##ägar
##ådet
Ged
Raw
##mossa
##spels
Farm
##ifrons
Ensen
Hjort
skade
##erierna
##unungan
propag
Sandberg
frekvens
teologie
tillhöra
vanligast
lagstiftning
##bos
##adar
##emix
##quil
##rant
Aro
Ful
##bandy
##fullt
##ields
1785
axel
hörs
##räkten
Markus
differ
samiska
skelett
gymnastik
rättigheterna
inflytelserika
##95
##sån
Rö
##cias
##rana
Neb
##saker
däck
kund
Stats
infrast
##redningen
Förening
Pematang
redaktion
##sförsamling
jordbruket
kontinenten
producenten
utgivningen
Pf
vd
Jyv
het
Ätt
##riker
Unga
##sprocess
Ericson
Förenta
missade
herrarnas
##eves
##itri
##äten
Horm
Seco
fjäd
##iliser
Gården
##fjärilar
##rationen
lämplig
räkning
damernas
##spopulationen
##sla
LI
##unch
Khe
oft
sla
Guaj
Baron
Clear
Gordo
avses
läget
bränsl
Företag
jordbäv
avståndet
##yé
##ēz
##cat
##dia
Aou
Hut
Ske
occ
##lunds
Reid
##onting
Songs
Våren
skand
kanjon
Country
ledaren
egendomen
planerades
kvartsfinal
registrerade
tillhandahåll
reb
##enius
##linda
##regon
Never
bidra
träng
villor
Caribou
Kärnten
Nanjing
kämpade
biografi
Mellanöstern
##amet
##othe
Shay
anda
##ianska
##vården
Burni
solens
Malmöhus
planerna
Normandie
Pegunungan
tillfälliga
##oú
##ïda
##atti
##edad
Mia
Sci
Free
skor
##operan
Betta
innov
##ococcus
bomull
ansikte
##samhället
disciplin
förändras
diplomatiska
##orne
Pik
##arier
##unnel
timme
Patrik
pendelt
uttalas
testament
##DF
##bs
河
##ims
##ancy
##lica
##robot
##ührer
Inne
Shad
bast
essä
heta
pors
Ystad
jagar
##alyptus
##steknik
Landet
Collins
utställ
Dubrovnik
militären
##êt
Puc
Zan
avf
Gary
Ruth
Någon
sprin
##databas
skotsk
aktiver
industrin
befattning
holländska
kungariket
##löf
##alina
##manns
##oller
##ouine
Crow
Kiel
Wisc
mäta
valv
##ningst
läkaren
Nyköping
stjärnan
upproret
Pittsburg
##kok
AM
##emin
##idig
##skid
Mua
1719
##eloupe
Hymen
Canada
Jyväsk
Secret
gradvis
Projektet
##rättigheter
delstatens
##apo
##hwa
Poh
rat
##ulära
Dhār
Gift
Oruro
åklag
##delande
förenade
##ám
Р
##ief
##xor
##igha
##åker
Bale
Lerr
##lägsen
Morri
ritad
Fabrik
Rijeka
syntes
administ
medverka
stiftelsen
##98
##vä
##ibel
##utor
Hex
Bish
Tich
##apolis
Schne
arist
kolla
##araktär
Pueblo
Tallet
backen
ljuset
tiotal
##eliaceae
Ensenada
högkvarter
EC
Gn
PA
##cipen
Tuna
mell
Edwin
Greta
optim
satsa
##ðurland
Potrer
hinder
norske
operas
stärka
uppfin
Uruguay
liggande
Cristóbal
säkerhets
underlätta
indonesiska
##bir
##ydnad
Rocks
##regissör
Peterson
trycktes
upplösning
hu
##isha
##budet
Djup
Öarna
nejlik
##sproblem
Samhäll
##odactylus
Spaniens
kortfilm
passerade
eventuella
stadsteater
emb
Chac
Kell
Nott
ledar
Hessen
Ornith
skaffa
krävdes
terräng
härkomst
Strindberg
motsvarighet
huvudbyggnaden
##rädd
##ulta
##vare
##uquén
Isle
pall
pojk
skym
##baijan
Stors
gudom
##musiker
Genève
Gibson
Harvey
Plaine
melodi
Saltsjö
Bergström
##asso
##ätra
nöt
##arisk
Buyu
Hild
Rico
påsk
##hundra
Devils
Diablo
handeln
omarbet
Broadway
Italiens
Jyväskylä
Palestina
livsmedels
##esch
##vida
Kör
##orpha
##strup
Baby
Cole
Häss
anor
bonus
Ålands
dvärgstritar
herrlandslag
Eb
##itan
Cua
Bola
Cheb
Kemi
Samp
##planen
Redon
bibel
endem
##meister
ingång
Munster
Lycksele
Catherine
Cordillera
##td
##skick
Graf
deta
##ivitet
##järden
utforsk
Changsha
##regeringen
principer
generationer
##see
Ey
Bié
##oplan
1787
Dura
Kring
Tunis
återb
##orummet
sjukvård
Armstrong
Arabemiraten
översättningar
##ynt
##otti
meg
##allis
##imbab
brin
##ingart
Källa
skeppet
kapellet
planerat
undersida
utvecklar
##deh
##öga
##agens
##olata
tort
##idsomm
Plant
Dongri
puckel
flottilj
Boulemane
världsrekord
##76
##ŏm
kin
##emora
##jades
##yrkor
Alab
##uktion
Gully
grönt
säljer
musikal
omfatta
##uko
öd
##emark
##erara
##ferens
Bilen
retor
Valais
Platsen
tjänade
Fraccion
utmärkte
praktiskt
Fraccionamiento
Und
##miljö
Abda
Conf
Luck
Pict
##estads
##igment
Marne
buken
ringa
##slärare
##vattens
Concep
Hunter
anlägg
##ipendium
Chaouia
antiken
utvecklad
kongressen
##orax
##smus
##ynes
##ysik
Åre
etik
##vinnan
krönik
uppstå
Medelpad
belgiska
hårdrock
uppfattas
##fv
##ác
##ал
##orrh
Eck
Muc
Ång
##berna
Slav
##sträck
Amman
Labor
tåget
Summer
##ationens
färdiga
fördjup
Maryland
noterade
Champagne
kontraktet
Metropolitana
inkorporerades
Rō
##adón
Fou
Liz
##ergus
Coul
Stjär
##fältare
neutra
styrde
##lingenjör
katalanska
underjordiska
##jov
Dao
Carex
lyŏng
Verket
ordens
##föranden
främste
Lundgren
Ouardigha
Sas
nåd
##isera
Hudson
cirkul
nämner
Special
article
uppförde
##ää
م
##ambi
##ours
Cib
Gut
##marks
Dame
Grey
Värn
kört
lead
Casas
Eddie
Gallo
Tiger
Villan
begärde
ceremon
inledningsvis
##ein
Ez
HS
650
Nür
kosm
munk
räck
Apple
Korea
Refer
Acanth
Antwer
annons
museer
vapnet
Därtill
befälet
Holmberg
Marianne
artisten
##anke
##usan
Cyn
sec
##fader
##sprin
Bolí
Günt
Rode
lott
väte
Lotta
smärt
summa
utses
Amerik
Potter
##undament
tvungna
Guadeloupe
##ipe
##ojk
##smo
##usc
##alam
##opan
Haf
Mta
##rista
Svin
Clair
Wayne
pojke
Ängel
andliga
folkbok
forskar
gracilis
rollfigur
Handlingen
Pristimantis
##pis
##ehov
##iton
##prin
Dil
Hak
##achim
##swald
##ansvar
##atabas
Danau
Tumba
jobbar
##aliteten
##yndighet
bosatta
direkta
koncept
Bröderna
nederlag
inledande
automatiskt
##vävarspindlar
observationer
Västernorrlands
##sem
##ukk
##āli
Bek
Rég
Mult
Sind
lita
##alleri
styrs
##agement
målvakt
planeten
författar
riksrådet
##ни
##fakt
##ists
##otet
Nyn
Soj
rug
Åsa
Chak
Luer
##oniska
konsp
##löpning
Karnat
Madele
söndag
verkat
omöjligt
kejserliga
generationen
##sah
##ulco
Kai
##ifilm
##osaur
Poll
##charge
Gudda
anten
##öteborg
inleds
tänker
vertik
civilis
historie
seminari
Högskolan
preussiska
resterande
##opet
Taj
##övare
Hegy
Mons
Ston
golv
##ammade
Ehren
Tukad
ramen
##smarknad
Mirador
kommunik
skyddade
Kvarteret
Pittsburgh
##St
##uktu
Carr
Goli
vida
Enare
syftet
önskan
fullständig
##IC
##grön
##jača
420
Wak
##adian
##ramid
Salé
hört
##berlin
Henan
Oklah
Qarah
##teatern
Renault
Dalsland
Wisconsin
hemlandet
stiftelse
föreningens
Fredrikshamn
##stå
##alva
##chía
Lax
McN
Wul
ank
##orrar
Petite
visste
keramik
framkall
yttersta
Karlstads
husflugor
trädgården
##hoff
##matt
ABC
##värde
Pakt
Turn
Barranco
Färöarna
Ingeborg
Ć
##yna
##شمه
##aldi
##vala
Flo
##skoll
##umont
Epar
Tint
brud
##castle
##hästar
sväng
##brottet
French
Utbred
Väners
fossil
livnär
master
sänder
Doukala
förmågan
misshand
muslimer
mekaniska
någonting
värdefull
Foundation
anläggningar
förbindelser
administration
##alds
##yran
Laz
gig
##ölden
kväv
Guide
##stadion
##ändring
Kungen
Nassau
fusion
franskt
akvarell
Dalmatien
illustratör
##nev
##vre
ŏn
##rygg
Lal
Mav
Tog
mej
Hosp
Hoss
Sony
##märken
antrop
Dagblad
Varberg
skickas
Sibirien
Carpenter
Karnataka
##universitetet
IM
##bruck
Bing
Hero
Verd
##roppar
Phoen
##kanalen
##ografin
förråd
allians
bakterier
ockupation
sträckning
förhållandevis
##на
Dc
##urum
Eis
Osu
##idies
Foss
ende
pred
Närke
djupa
teolog
comeback
provisor
återstår
ingenting
noterades
premiären
Sarcophaga
Superettan
ammunition
##zane
410
bre
hol
##quetá
Clev
Utah
##stiska
Mahar
Shire
trött
##skriven
Pommern
##e
##r
##n
##a
##t
##i
##s
##d
##l
##o
##m
##g
##k
##u
##v
##ä
##h
##.
##p
##,
##b
##c
##ö
##å
##f
##y
##j
##C
##D
##1
##S
##"
##T
##0
##°
##L
##A
##M
##B
##-
##9
##G
##K
##2
##I
##P
##H
##R
##x
##N
##)
##(
##8
##E
##F
##w
##7
##5
##6
##O
##Å
##3
##4
##z
##J
##V
##U
##W
##:
##é
##/
##Q
##q
##'
##Ö
##í
##Z
##Y
##ā
##á
##–
##ó
##%
##”
##;
##ū
##ü
##X
##ī
##ï
##ñ
##Ä
##&
##è
##â
##ō
##‘
##č
##š
##ã
##ø
##ŏ
##_
##ć
##ô
##ú
##ç
##à
##ë
##=
##а
##É
##?
##Á
##æ
##’
##ē
##ê
##ر
##î
##!
##ه
##о
##Î
##ž
##û
##е
##р
##и
##]
##+
##Č
##[
##ل
##Š
##ا
##د
##ð
##و
##Ā
##н
##ŭ
##л
##ن
##ý
##к
##в
##Ḩ
##م
##ß
###
##ḩ
##ک
##ت
##ş
##ب
##乡
##ř
##ł
##镇
##ţ
##т
##ı
##ش
##ي
##Ž
##س
##с
##“
##у
##Ó
##*
##̲
##ḏ
##—
##õ
##ě
##д
##ő
##̧
##گ
##đ
##§
##К
##Ø
##$
##ی
##>
##چ
##ز
##ك
##山
##м
##ğ
##ج
##ق
##ə
##ц
##水
##α
##|
##ṟ
##×
##ò
##<
##ة
##ń
##П
##С
##ă
##동
##Ş
##ḑ
##خ
##Ü
##ع
##б
##−
##Г
##库
##»
##Б
##ο
##Д
##ч
##산
##Ú
##Ţ
##י
##þ
##̱
##Р
##ш
##з
##河
##г
##ň
##Ć
##п
##ّ
##ς
##پ
##В
##М
##я
##ρ
##ר
##ف
##大
##й
##Ç
##ẖ
##ν
##μ
##َ
##О
##‐
##ι
##ע
##́
##Þ
##ו
##λ
##ė
##А
##ы
##«
##ь
##⁄
##ה
##면
##غ
##ε
##τ
##Í
##ẕ
##Т
##ù
##ი
##Ō
##ა
##π
##拉
##ż
##道
##龙
##σ
##Ñ
##城
##ů
##ן
##ś
##Ḏ
##街
##ת
##ح
##ì
##Ð
##Л
##家
##ș
##东
##Æ
##Ч
##œ
##·
##南
##ٔ
##ِ
##고
##子
##봉
##κ
##ṯ
##ę
##ל
##西
##̄
##Ḑ
##溪
##`
##β
##新
##γ
##х
##£
##石
##מ
##•
##市
##~
##Đ
##ב
##ж
##Ī
##η
##İ
##ա
##개
##Ū
##ј
##ω
##江
##桥
##ą
##安
##א
##δ
##马
##골
##′
##县
##三
##υ
##ħ
##湖
##И
##Ẕ
##→
##Н
##أ
##ί
##Ś
##Ł
##ˈ
##庄
##ъ
##Â
##木
##ά
##阳
##平
##白
##ש
