[PAD]
[unused0]
[unused1]
[unused2]
[unused3]
[unused4]
[unused5]
[unused6]
[unused7]
[unused8]
[unused9]
[unused10]
[unused11]
[unused12]
[unused13]
[unused14]
[unused15]
[unused16]
[unused17]
[unused18]
[unused19]
[unused20]
[unused21]
[unused22]
[unused23]
[unused24]
[unused25]
[unused26]
[unused27]
[unused28]
[unused29]
[unused30]
[unused31]
[unused32]
[unused33]
[unused34]
[unused35]
[unused36]
[unused37]
[unused38]
[unused39]
[unused40]
[unused41]
[unused42]
[unused43]
[unused44]
[unused45]
[unused46]
[unused47]
[unused48]
[unused49]
[unused50]
[unused51]
[unused52]
[unused53]
[unused54]
[unused55]
[unused56]
[unused57]
[unused58]
[unused59]
[unused60]
[unused61]
[unused62]
[unused63]
[unused64]
[unused65]
[unused66]
[unused67]
[unused68]
[unused69]
[unused70]
[unused71]
[unused72]
[unused73]
[unused74]
[unused75]
[unused76]
[unused77]
[unused78]
[unused79]
[unused80]
[unused81]
[unused82]
[unused83]
[unused84]
[unused85]
[unused86]
[unused87]
[unused88]
[unused89]
[unused90]
[unused91]
[unused92]
[unused93]
[unused94]
[unused95]
[unused96]
[unused97]
[unused98]
[unused99]
[UNK]
[CLS]
[SEP]
[MASK]
##en
##er
.
##st
m
##är
,
##et
i
##an
##ar
är
d
o
##ed
##at
s
##li
##ad
##in
##om
k
##el
##ch
##ra
t
f
h
##ör
##or
##il
och
v
##un
n
##av
med
D
##kt
##on
##al
p
r
den
b
##and
##ste
##sk
##em
##ån
##lig
av
##tt
S
##eter
"
##es
##ing
g
##ur
Den
##ni
l
##aste
om
##aden
T
en
##am
in
##örd
°
##erb
L
C
1
##kten
##ederb
##ederbörd
##år
##att
M
ö
##per
##ol
A
B
##ud
##ro
G
##tem
##än
för
##der
##na
##ck
##ri
##rakten
j
K
##re
##ning
##ver
-
##ill
##unt
##atur
var
som
##ger
##enom
I
##eg
mån
##uv
P
##aturen
##peraturen
##eltem
##eltemperaturen
##ut
##sni
##uvud
st
månaden
##lim
##snitt
H
R
mm
##enomsnitt
##id
nederbörd
##all
##as
##is
##are
huvud
del
##ak
km
##ig
##ade
##ska
##pp
##ett
lig
till
ligger
##äst
på
trakten
##og
##ter
##ll
##ari
N
##ord
##ef
E
##ber
##sm
över
de
##ag
(
)
##ometer
##ilometer
att
år
runt
reg
##it
land
##ion
F
2
##iv
ett
##us
##maste
19
kall
meter
delen
##uari
då
##land
Å
det
##sta
##rat
##ent
O
##avet
##ell
##staden
##orra
landet
År
kv
##ik
havet
##yd
huvudstaden
##smed
##ot
när
mil
varmaste
kallaste
J
Årsmed
a
års
##gen
##art
per
##adrat
kvadrat
##nig
##kilometer
##de
genomsnitt
torra
##limeter
millimeter
##sen
##arna
regnig
torraste
regnigaste
##nederbörd
Genomsnitt
årsnederbörd
Genomsnittlig
##limat
##het
inv
##um
ut
##olk
sk
V
##ust
##os
invån
##ns
invånare
##br
un
pro
nord
syd
##ande
an
##äll
jan
sam
januari
##la
##ga
##efolk
20
##ster
##rå
be
##vin
##befolk
##le
Det
##ens
##uli
##sak
##dra
##giv
##ac
##ug
##te
c
##äx
hö
In
huvudsak
fr
##väst
##upp
##ia
under
##omm
juli
##går
##rän
fin
har
##ul
li
Trakten
sl
##ep
rå
##ic
##ost
han
W
##if
##ek
hög
##jö
##heten
väst
##ven
vid
##rä
råder
ingår
provin
##ningarna
##od
finns
vatt
##ades
##ark
St
provinsen
of
U
##givningarna
##ember
upp
väx
vatten
närheten
å
##ist
##ort
från
##ov
tv
##errän
##errängen
##ex
##ock
##ugust
men
##da
##op
Runt
pun
högsta
##lin
##ue
##äl
##befolkat
august
##drag
augusti
##ann
##ka
:
##yg
##iska
##ans
punkten
stör
##und
två
##ong
##ien
sö
kilometer
sp
komm
##ada
Ch
vattendrag
##ation
##öd
##ir
##eller
##skog
##ant
##ala
##stra
##ind
ber
18
##uk
##ess
##ap
##anska
sig
##ub
##rev
##den
##som
Terrängen
##opp
##ab
##sp
##orr
##ick
fe
##ilj
ä
##son
##im
öster
ku
fl
##ok
än
##ang
##bruari
februari
nordväst
sjö
##för
Ar
##det
##klimat
eller
##ligen
##ne
##ake
##aj
pl
Lac
200
slä
##ta
växer
##yck
##ktet
omgivningarna
##aw
Kan
An
##ars
##efter
##ung
##häll
Lake
##ram
##uni
gl
sin
##els
##äm
##alet
väster
##iskt
##itt
##yr
3
där
samhäll
kommun
##amilj
berg
##ats
Kanada
juni
##ikt
norr
201
dec
##ib
Cer
##åg
familj
##ionen
##arter
##skap
december
##ätt
##entra
##änd
besk
##rådet
nära
##erna
Cerro
åt
##ore
##era
efter
När
##isk
familjen
##ät
or
sep
sydväst
##revs
större
gles
##rö
4
bland
glesbefolkat
Cat
##awa
##ång
##tember
september
##amn
släktet
##sam
##ec
centra
##sl
söder
##ober
##indre
list
beskrevs
##ring
##ife
mindre
##ningsom
##00
##alog
Al
##ou
best
##ma
kon
##sh
##est
underarter
Life
and
##red
##äg
##he
##lev
/
##onen
Inga
Catalog
Catalogue
##östra
##ier
listade
centrala
##ten
##perad
##avann
kuperad
##ningen
En
##ob
##org
6
Q
huvudsakligen
nordost
inte
tid
##ott
Han
##ay
även
gr
kan
La
##rin
##ygg
##ev
ganska
##rop
##ara
samhälle
5
okt
##äng
Närmaste
oktober
##yn
##yt
##ekt
##oppen
##ling
##befolkad
mot
delst
##liga
##eb
##orm
vil
obefolkad
nog
Ott
mars
##ull
##rik
hade
Toppen
blev
##ål
Om
##ass
##oli
##ycket
##arb
##ligt
##rig
7
Ö
all
rikt
maj
nov
##ss
##ket
##aten
##pr
Ottawa
##edan
mycket
tät
platt
##ali
klimat
består
november
hon
##ount
##ken
##ora
##des
El
man
##oll
##iss
##zonen
##ast
##ran
sydost
##oreala
klimatzonen
##sv
##ina
##rit
hem
riktning
'
fick
genom
##smark
##ets
##ard
##erade
##sklimat
##man
spel
andra
199
##ft
##ili
fram
##ea
##uc
##io
##eck
så
regionen
##ropiskt
##alt
sydöstra
##öl
tätbefolkat
##ers
##aren
##oh
Ind
##olm
De
lat
##jär
##pril
delstaten
namn
##oc
första
Mex
##arl
##ild
april
Y
17
ex
först
talet
samt
##up
Omgivningarna
##ors
##ukt
jord
##ff
##så
Z
long
##ah
##verig
dess
sitt
##bruk
##råde
8
Sverig
##nat
##rinningsom
ny
kom
##ningar
##ie
##ellan
##igt
0
ant
##ons
Cre
##ip
##kring
ock
##arbet
##örj
##ras
##ds
anv
största
området
kl
##öv
9
##ölj
##ts
sj
Creek
vilket
##berg
##holm
##ry
##etta
också
omkring
##ow
##ew
föd
sven
–
##del
jordbruk
Col
al
##res
198
##ana
stä
kommunen
mellan
Sp
##iet
Savann
Savannklimat
##åll
197
bas
Is
##ilm
##ones
15
16
##inn
##ella
##verk
hemib
hemiboreala
##ytt
##åt
Un
Sk
##yrk
##nad
##lar
##erk
##int
någ
börj
södra
##ställ
bli
##ond
##bl
##amp
%
##ida
Qu
blandskog
##cker
Tropiskt
jordbruksmark
##je
västra
Gu
##ym
##ert
vär
sedan
el
##sb
Sh
e
För
##riv
sv
##fl
Med
##ont
##ola
##pel
##ern
##istri
##rist
norra
Sverige
öpp
sen
##nan
östra
##skland
##lien
196
växt
Indones
##akt
Indonesien
##our
##ich
br
död
##jord
Art
##lika
grund
annat
##ian
##osa
##amm
##fter
##pl
Mar
##arta
född
##iga
kull
##qu
led
##ys
Stock
ha
kun
följ
##ustra
##lighet
Fin
tr
hans
bar
##ult
##erat
##öj
##nas
##ity
omgiv
Ant
##vis
Stockholm
##ach
Joh
##onom
Ett
##nar
##ulle
bet
savann
Bo
##öp
Austra
##alm
##fatt
##lag
slut
skulle
##jön
Le
##iko
##äk
##elh
The
##entet
Klimat
Mount
utbr
rep
hel
bygg
inne
San
##ja
åter
##ser
Jak
##rinningsområdet
##asa
##gr
Mexiko
##ce
Sa
ur
##var
kulle
läng
##ater
##amer
##ingen
##alen
##ner
mus
Under
##iver
##yl
##ack
Th
Bred
strä
##ula
utan
arbet
utbred
New
natur
##skapet
verk
ar
##röm
##eras
194
omgivande
använd
195
basen
Pro
Br
Klimatet
Are
##orn
##håll
terrängen
##eng
Bredden
re
Finland
art
##ata
##iod
inom
##min
olika
Artens
##utt
w
##raf
##ningsområde
##yp
Bar
flera
ek
Sch
Fran
##ey
Po
öst
eg
##äv
10
konst
löv
##rid
##aget
Hon
nu
##ende
Jakarta
##mans
Efter
##itet
##ha
Arean
Man
senare
sina
##ön
##rön
##dag
dock
##ico
##esa
##omb
##jur
12
##ubli
##else
Av
bu
la
##älv
sydlig
inga
stud
##ron
##par
##igare
193
##enn
Gr
##hus
##förd
##ish
Island
vara
län
##ire
##eli
##olog
tre
bl
rik
##mer
stor
Par
Ma
##istor
öppet
bergig
##ansk
##amb
Sant
detta
14
västlig
11
##ift
##ine
##ld
##net
##kl
##väx
##olit
”
City
växtlighet
##borg
##nen
mest
sä
gäll
##éb
Australien
grä
##oma
192
##out
period
lång
##umb
##landsklimat
samma
##ica
##nt
buskland
busklandskap
sträcker
##sa
sm
savannskog
##ök
##ei
##empel
min
##ua
ad
ekonom
##of
##rätt
int
film
sjön
ser
##huvud
Québ
##ris
Québec
##ile
gjord
are
ort
res
form
Gun
liv
Her
bes
öv
lövskog
##end
191
##erar
tidigare
##led
##andet
##fors
##räd
count
själv
##ct
få
##spel
hand
##erg
ofta
Nord
vis
bå
##amerik
utg
Bras
13
kyrk
##ubb
##az
tem
##äck
Medelh
##rag
##erad
##orna
##lem
##veck
bild
##ya
##rod
stad
##gel
countyt
många
##enter
##bum
Kin
##rott
##rar
sy
##öra
svensk
##ial
sydvästra
##äld
distri
samhällen
##heter
På
##elsing
##co
mer
##lan
Helsing
##ström
Ph
Que
här
##sammans
förb
##eder
##erades
dag
person
##ario
svenska
##eln
ty
;
van
sock
##form
Mexico
##lia
##se
exempel
##urop
##derna
##stad
##ister
##bar
denna
##mar
##ationen
alla
regn
Inlandsklimat
##sten
fort
följande
##atch
##tid
##inge
män
##elsen
förs
##ura
Vid
##råk
##mark
##str
lag
##dseg
##ank
antalet
städseg
mål
##ägg
musik
Co
##ca
städsegrön
stora
##yra
##ago
##ena
##ón
##cent
tog
##eh
regnskog
##rike
##ium
##ämn
##partem
##ain
innan
##rav
##gan
##onsun
##erv
monsun
by
##orb
monsunklimat
##ings
nordvästra
Lu
kän
du
nordöstra
går
Väst
regnskogsklimat
##ppklimat
Or
Ro
##000
##sson
ekonomiska
gällande
Ad
X
the
boreala
##bb
##met
190
Fl
##nings
y
##raft
Ä
Kinsh
##partementet
enda
Kinshasa
Gunung
Helsingfors
##lingen
Ont
##ge
##by
dem
##ru
Ko
temper
##pro
naturlig
kat
Sc
Gö
##svar
Ontario
skog
periodiskt
##bygg
##ägen
sub
##alv
tillsammans
par
##osaik
gjorde
##ton
##ioner
lite
mosaik
##sart
##gång
Syd
##ph
##iz
US
departementet
##råden
Am
se
ord
##rakt
amerik
##oph
##tart
tillh
äg
##ellt
##slag
##kte
dessa
började
##smarker
##atan
Wil
##men
nya
##anni
##ille
gräsmarker
stäppklimat
blir
utveck
area
##ke
Ge
##ux
##ången
##ald
##gram
##jän
##rån
##én
##med
Carl
##illa
ger
##ärn
Mad
##satt
Bay
##sätt
Sö
##ongo
främ
öken
##bo
ön
##spr
landskapet
##tern
##iva
Mo
##yll
Bro
plats
##ennes
Alger
##bild
kallt
allt
honom
sid
socken
##uss
##orsk
##lac
ökenklimat
tempererat
##jäl
prod
##ilien
lik
##af
ind
He
Pa
flyg
kunde
Mon
förek
Hans
Ut
Loma
staden
##reg
Point
##urg
Be
USA
##cia
Ab
##samling
##kom
##vinge
använ
##ator
##una
##riget
början
Mari
Frank
Chile
varit
##eten
##gar
##han
##iken
Reg
##va
histor
189
Air
Sven
##dom
Per
do
##ista
000
Bu
folk
Sam
beg
tvåvinge
tvåvingeart
##utom
beh
##eau
Car
##minist
##vi
gen
##vär
Kina
hos
##als
kont
Ag
##anns
Sjön
##za
Dan
äld
fär
Öster
##huvudstaden
##sprung
pr
##ila
Ca
##rum
värld
##arande
##use
gick
##ering
##vatt
##anj
Los
ch
##aka
ra
polit
Se
Detta
##öt
Karl
Jawa
##sf
##van
fyra
##ritanni
##ensis
##ivis
##las
##rigt
några
ud
mark
##ministrat
Ed
##ej
tro
##anda
##ane
ska
##ärk
Storb
namnet
##yk
cir
barn
##anien
188
All
riks
hela
##lands
delstats
##yo
##eri
övrigt
medlem
fem
Storbritanni
te
Kongo
fukt
##öst
##emi
kommer
Brit
##äs
##ition
##bär
25
off
##ita
Eng
##che
##alk
Columb
administrat
flytt
gav
ans
##yrka
##ius
##issa
fot
tot
Tim
förekomm
##ork
Europ
##nit
kvinn
Arten
British
##port
Mor
tur
part
fanns
Re
bel
ursprung
ung
föret
##oder
##iel
##gick
udde
##ins
##lis
Pe
##ritt
von
akt
##old
ställ
##ultur
##ij
##teborg
30
enligt
Storbritannien
hett
##omin
Columbia
Ber
subt
et
Kh
ingen
##olan
Lond
##iker
##th
Colomb
fun
Medelhav
Havet
både
Provin
186
arten
Bur
bara
används
##ograf
##ånd
skap
##ationer
##ego
Medelhavsklimat
Quebr
##fördes
##stem
2010
Göteborg
##ående
##pa
##lade
Har
Ta
Öns
##skil
Desa
Brasilien
Bl
##oris
förl
##outh
##ebel
##pt
Quebrada
Till
Antalet
fuktigt
ta
rätt
subtropiskt
##ivers
London
Ol
des
Ang
Dess
##ress
##ära
##ektar
##ío
distriktet
Ru
##band
##ött
grupp
##rich
##vers
##adi
vann
##elt
##ternation
##örde
längd
##djur
##ader
bok
##öm
verksam
##ren
##ingar
##ama
##ög
##lut
##ommun
hektar
vän
##ret
##gent
norrut
Upp
får
barr
Gl
Con
spelade
##orth
##nisk
##äd
&
hennes
Lag
##jör
##iat
##ubliken
Där
plan
något
Je
##naden
släpp
gör
187
vin
tillhör
2000
cirka
##idae
Ty
Norra
##väg
##blad
omfatt
##ori
##orp
Dj
sätt
kort
söderut
hus
##oner
##ive
vikt
Kar
köp
And
univers
er
innebär
delt
barrskog
##uan
Ha
administrativ
Georg
##tes
##och
rom
##unta
##ash
John
##rukt
##ös
deras
bef
##olf
samman
väl
bil
##ale
##unds
Hen
val
lj
Las
2007
Herc
album
Río
##aga
tal
församling
författ
västerut
##roll
##ånger
son
hjäl
South
österut
##oss
##vina
##elser
##ler
##män
medan
stat
san
##ith
River
##nade
Mag
##ii
##ighet
##arkt
2008
##lex
##ova
Sm
kateg
po
Distri
22
Ba
Hill
Bosni
2006
Kust
ner
##ham
##to
##ira
Spanien
Dam
organ
Bosnien
2011
ned
##ley
Ny
##her
##ba
Mountain
endast
komp
##ika
förekommer
##ckt
engel
totalt
##öll
Hercego
##rek
21
Frankrike
Hercegovina
We
##ytan
känd
##ästa
##elm
##amla
uppt
Sveriges
TV
Ste
##ever
##list
bak
egen
##ador
##räns
trä
nation
##one
Som
##rim
##orter
Colombia
vill
##ander
##ilit
##ado
reger
ark
24
##ått
betyd
2009
##rade
Punta
##åd
23
##länd
låg
Kustklimat
SM
Sar
lär
##lat
Fred
Saint
em
##uel
avvatt
Arro
##ånga
Koud
prof
##ugor
Kon
##ivt
sex
II
num
säson
##roduc
##rom
möj
##que
fast
Pu
kung
delar
Sv
Ten
Jos
varier
##ropp
2012
##ho
##ht
pres
##delen
ob
före
##hu
ytt
kallas
##ice
ins
Ser
slutet
##ate
28
England
eftersom
##its
match
pop
Ne
glob
##fekt
Hu
utgör
##ård
##boll
äldre
##slut
2014
Enligt
någon
håll
##irekt
##stället
täv
##upper
ter
##skri
antal
##UC
främst
##ood
ge
##sför
##gård
##järvi
##tet
Af
##me
sär
Min
##har
27
##vit
lå
Mont
sista
##ifl
##ide
sn
##ströms
Er
##esi
##otter
skriv
##bland
IUC
Ou
IUCN
id
inåt
##erande
vilken
republiken
tjän
2016
##anden
##ix
Uni
fri
##ides
##ión
fall
värl
##olo
##ona
vik
##talien
Ter
##ric
program
publi
region
2005
met
2013
##ox
District
##sc
##växter
Em
spec
##but
##flugor
syn
väg
stort
människ
##ider
roll
milj
far
hur
26
Christ
Cl
rad
##plats
därefter
start
god
kol
##eta
##ker
##stånd
##etenskap
##hand
185
##klar
lok
mitt
##när
Rab
##ås
##lades
låt
kallar
befolk
Provincia
redan
helt
##skar
universitet
##eae
bruk
##unda
##växtart
kategoris
Centra
##ros
Tyskland
små
Ben
##ident
halv
kvar
##yc
##rinningsområde
##ound
##vän
##lek
At
##ement
Me
Nation
##ite
##ole
##otten
Sal
##ani
skrev
Tr
skri
Södra
##köp
##adels
ytan
Mesa
Ka
Arroyo
idag
##ument
Jean
mestadels
North
Mc
##fall
Wal
Pet
##äder
Ander
kultur
Lin
Santa
järn
##ytor
##án
Från
Bog
vissa
Angola
britt
##igheter
når
lyck
innehåll
kategoriserar
##olen
##lägg
##ligare
Svenska
##age
Ex
##ito
2015
globalt
tillb
##itut
##rades
sak
##rog
##jort
tiden
Indien
Rio
Can
##ordning
##uld
##ske
organis
##tter
##nes
und
kap
##orea
Stockholms
##enne
profess
##öjden
##elb
vattnet
delav
tred
personer
##ines
käll
Men
gamla
Te
##ps
##ath
##nande
##ies
divis
soc
Pas
##landet
varje
##lit
istället
##ament
##lo
##jer
allmän
##cher
Santi
åren
amerikansk
##HI
##omp
Peter
##stopp
Berg
##alb
slutt
##äknas
ma
dom
184
##ília
Algeriet
repres
##ynd
##rand
50
Brasília
Li
29
Ver
utt
##cis
##lad
SMHI
##tal
##procent
Johan
Bra
krig
Dav
2004
Santiago
##liv
uppströms
Lo
läg
##ogs
kyrka
##rad
##bert
##aler
Madrid
##ict
Fri
##oro
##kel
##eph
##språk
vattenytor
sjöprocent
Park
pre
##ocko
##aceae
##agu
kraft
fle
##kar
##fär
kring
##över
Mart
##agen
##ero
tillverk
gener
säsongen
bergstopp
Norr
Denna
tit
Marocko
sjuk
gången
därför
Film
forsk
##jen
båda
djur
popul
##lingar
##lopp
Kung
Mal
ol
rör
tyska
byggnad
Malm
##ism
##anc
##skriget
##plan
##alif
produc
Argent
hot
Medelhöjden
blivit
##räck
Bou
Erik
Su
di
##avs
sål
##atet
Res
rev
##agg
änd
##äkt
##isseau
##ae
red
vilka
kyrkan
Rabat
##ney
Mich
Tur
Ruisseau
vad
milit
klass
fisk
Även
##bet
bort
frå
##bol
##irk
##rika
1990
##äss
##ops
Ac
ry
byggdes
##oul
##iella
##iden
##fäll
sluttar
##ryck
183
Sim
##ydd
##unn
##oba
sc
##ementet
##orni
Mus
Brook
##träd
samband
##iro
Rom
höj
##ions
band
näst
##ämt
Sav
vers
##stern
Port
##äxter
York
##uta
tex
Bul
vidare
Argentina
##stitut
##assa
ers
kar
utbild
direkt
##ure
Lind
##oden
##atsen
ben
Cap
må
##ådes
##järt
##rafik
Mac
Kr
##ådespel
internation
##rinningsområden
‘
Österrike
##öda
AB
##terna
##ernas
hjälp
annan
31
##skolan
bifl
klubb
tillbaka
Nor
##uren
fjär
kallade
100
##komm
ent
##undet
Öst
kunna
##fer
##äster
lever
kvinnor
##äxtart
göra
im
moder
##ening
henne
65
##do
##okrat
public
##itz
sten
Willi
Tro
ytter
flöd
full
##jekt
Krist
lev
varm
##byggnad
Gar
##uch
##uvarande
##err
Di
##arnas
grev
##andra
##itekt
hitt
##nik
växtart
##iteten
framgång
##sch
##ino
mod
förd
##ene
krä
läm
##grupp
lin
Timur
##ält
fotboll
##huvudort
1970
produkt
##otá
##les
särskil
##gah
fått
Bogotá
##ören
Schw
sång
sna
##zo
berätt
gång
Bri
##oni
Ho
Jo
##korea
engelska
##oth
1980
Sedan
##län
Paul
Pi
##ela
2003
##sst
Luanda
##adem
Charl
flesta
##burg
Tanj
##ele
2002
biflöd
##märk
distrikt
##inal
avvattnar
##isc
##istan
2017
flödar
##äckt
språk
varierad
förm
sing
Mu
offic
##erto
##artyg
##esordning
utanför
##apen
biflödesordning
##ften
William
fortsatt
##lik
##yrkan
##förande
##ano
bildades
gånger
##omas
Región
Tor
ak
##blem
Cast
Gra
##ågs
##arm
Dra
Tanjung
Dessa
##riär
tredje
arm
amerikanska
##yss
##skan
##sala
##amnet
40
Ra
##sjön
beslut
dal
Univers
##ui
ang
fil
_
Cal
inter
konstnär
##lö
##vid
Barat
Europa
stöd
medverk
##jup
##atus
is
typ
uppg
samtid
skiv
snabb
ledde
gu
##järnen
##under
Danmark
teck
##vern
Paris
##atten
Gre
##farande
##cho
Rober
Cañ
uts
##förde
1999
plac
##lack
sidan
träd
Kl
nuvarande
htt
måste
##föra
kant
##kan
##sy
##gren
Tengah
##uba
upph
##usa
Norg
Laguna
Son
Djebel
nytt
arter
rel
Airport
Bel
kron
Sw
bi
Rh
oper
##ames
Lapp
Söder
com
##amen
släpptes
jäm
kines
skådespel
Wh
kända
Buk
##anan
ofrukt
krit
slott
bästa
##nämn
ibland
ofruktbar
gif
##ng
byg
Camp
filmen
Aï
##ben
##unkt
miljoner
Hall
##unga
for
##oj
inför
##emiär
##drig
ye
45
Bland
styr
Uppsala
##arktis
Vall
gift
##ängd
deltog
serien
70
##ologi
Läst
mon
Lund
Kat
##wa
ste
##ward
Mat
äm
##jud
längre
64
rum
riksdelen
##osit
Var
Go
inled
franska
flyttade
Lou
Buen
Alex
182
Lib
1960
länder
1800
Australia
Pal
Wien
##pe
##illo
##ständ
stads
##följ
##ruz
##efär
##bergs
Sand
bid
##helm
ök
##part
180
Puerto
##riga
2018
Do
am
ca
fortfarande
##ford
Sy
West
trad
Sl
##uck
varmt
##järn
at
181
##jut
tek
kropp
##anis
##eth
Peak
muse
divisionen
##lats
världen
##album
##shuvud
brö
företag
dra
2001
##ti
##evo
##ustri
##reb
##repp
##gor
da
Band
##yng
##iner
##olut
##skola
reproduc
##varande
såd
debut
##ump
##ny
Pol
Johann
##ve
##onia
avg
dotter
##iang
Nil
därmed
##useum
aldrig
##inner
ref
##cha
Kab
innehåller
vars
sjöarna
##iri
bed
Sen
mat
Dom
Delh
bra
ww
särskilt
Pri
www
1900
användes
##ota
Maria
hän
Delhi
skall
Land
##huset
##hl
##nu
cent
##ept
samtidigt
hamn
strand
Mel
##oende
Tid
Gro
##omy
##bel
##ye
Här
via
##kän
ljus
djup
##aja
samarbet
##ammar
##ländska
Gust
Nova
ytterligare
60
##jet
##ämnade
##vo
ork
Litt
världskriget
##eiz
##dar
Rep
##staf
året
Björ
Lars
infl
##ect
##blomm
Ul
##äls
##cc
ing
##ärt
##ugh
stod
##rikt
höjd
##igh
ås
gjort
Ak
Malmö
Scot
##loppet
Ur
kallad
representer
##åren
mag
Bern
##idé
##abrik
Mot
Ku
Met
rek
##ini
reproducerande
vi
veck
##go
##vet
intress
##uva
Norge
Ir
pol
Grande
Cor
slag
##samlingen
viktig
Bon
##ju
##pekt
Jac
##mann
Ni
##igheten
##ymp
##ockey
35
såsom
ungefär
Queens
sän
Mer
arbetade
##indel
##trä
Val
##yder
Alto
Maur
##vent
Ros
Lago
##idan
mis
##ski
##aria
tysk
##ima
Fr
studerade
##atte
kons
provinshuvud
historia
Tel
Lappland
författare
svår
##zz
##dern
anställ
arkitekt
to
grän
##ange
Blan
Då
exempelvis
##arr
hör
Gh
##tta
spelar
beskriv
stra
##ty
människor
motsvar
Ön
rit
Nya
##lick
##iellt
råd
orkidé
kinesiska
##otek
försv
Il
##ão
Kro
##iks
##eld
Tan
##ax
No
Don
##ias
Manit
##chen
##uf
höll
As
##inte
områden
##oria
vux
80
##alis
##mus
##film
David
säk
1998
port
##ko
grav
##anth
bandet
utgiv
##20
ack
område
pass
Vär
##inna
##tera
##aliforni
##rem
kriget
grevskapet
Saraj
framför
##agn
gå
krist
Bang
##gatan
Sydkorea
##val
http
##eiska
står
tar
egna
##till
##vist
##alj
##anen
Pot
Fredrik
Queensland
gruppen
Amer
Jan
Sarajevo
grundades
Bir
Chi
ål
lätt
Robert
##elen
Scotia
Aires
##mål
Filmen
Buenos
Pla
Manitoba
fortsatte
nästan
##nis
##sked
bred
bor
Wales
So
avs
Kali
Little
medel
ps
Gustav
Mil
##niska
Aïn
##olax
##räng
##onien
on
##arakt
färg
75
##skraft
litter
##öcker
##bi
##ästare
Lud
To
häst
Est
prin
sek
##own
Pl
förlor
##apan
##djursart
##på
##urs
skick
##usten
##sättning
numera
president
mö
Eg
1994
##amot
ovan
Dag
##skär
##istiska
trans
1950
##ère
Rich
##isa
##juk
##ette
##ulerade
priv
kors
Gustaf
##umm
spela
##ango
##orer
inkl
mitten
Ap
spelades
premiär
guld
##hop
##eningen
Na
albumet
1996
återvän
##we
poäng
Hol
##enh
Tri
säll
Rock
Gen
medlemmar
igen
försö
##sd
lämnade
Az
Jab
##igur
tjänst
visar
For
låten
##ivi
##stemet
##kor
gem
##effekt
##jo
elekt
as
Da
Del
problem
48
Vi
Kommun
Italien
Red
##ebygg
ursprungligen
näm
##kon
##be
179
##jan
Savolax
##orf
##ci
Pat
slutade
##väl
oftast
unders
Dar
##ign
1997
Count
Rap
Pan
växter
försök
##bart
##verket
punkt
Dal
##bin
Sel
##ovjet
1995
verksamhet
Louis
##rick
flert
bestäm
övriga
##osof
##cess
Kn
behand
ren
Vict
##add
mör
varav
Bor
VM
avslut
##emp
Kap
##ava
##ologiska
tag
##älj
Grand
förbunds
vanligt
##gu
##ikanska
ansvar
källa
sym
skol
yta
Bat
mater
lu
##yst
1992
kär
##ierna
Pula
##sjö
##bladig
Ek
poli
entiteten
respekt
fly
sju
guvern
relig
George
förv
##höll
Ga
Cla
fler
kantonen
riksdag
##nades
1971
ville
Cro
lyckades
liten
47
tän
##atien
ålder
af
långa
##ía
August
ver
##ato
Black
Pasir
tradition
kor
seg
##bok
##skommun
##förb
procent
orsak
##ror
röd
Gud
##vå
##stid
Ped
stark
##ejs
vetenskap
##anna
##ghan
Stora
arbete
##sens
förhåll
professor
##ment
##attes
##ory
sida
Cu
##hem
uppfördes
##ibli
46
chef
Internation
##alp
karriär
Glac
##cy
Sten
##etter
##arken
##ingo
44
##ary
Göteborgs
Lan
Pulau
vit
Domin
##fin
Bukit
##ffär
färd
##arp
1993
Mur
ab
##ckte
##line
##spro
##rikanska
##amo
Western
varandra
##no
##ote
bek
Ken
Charles
politiska
##ury
##illnad
=
indiv
##cu
##zh
funkt
cm
##hor
Wilhelm
Glacier
Feder
ackum
##ilis
##len
militär
dog
33
##ze
##seud
90
gamm
uppdrag
stift
##shus
Cam
##bil
Sur
Teng
##olag
haft
mo
72
Cha
dagar
Fer
Dep
Anna
49
Sil
Gora
bost
italien
##rör
sänd
arean
säga
anses
använda
##lor
Afghan
Alf
artik
##elle
Anton
University
Mark
hår
trots
?
##rient
brittiska
##ellen
Schweiz
lika
##iskop
pris
svart
Ryss
##marker
1991
ännu
##via
##brott
James
##lings
skalb
högre
ackumulerade
178
funger
##iens
32
Ham
Ke
##orten
bror
73
Fried
Ci
Ger
##hjärt
Nic
hov
Martin
Vr
##ligg
viss
vapen
##vik
Sol
Afghanistan
Sul
##ställning
##iti
Shan
insekt
##anten
##iff
trän
matcher
ungdom
ev
mar
bos
belägen
2019
##ifrån
Berlin
1930
användas
tim
wadi
Jebel
Cent
studier
Thomas
karakt
##ands
36
Rid
##formation
##di
Cab
Genom
Vill
Com
härad
Bea
##anter
##elli
aktiv
##enay
##jorde
##ki
##epp
##samhet
liksom
177
livskraft
##over
Mun
kopp
##ösa
##takt
Tam
system
##råd
trafik
##ban
Centrala
Tra
##nus
##eden
kontroll
Tar
försvar
##hi
##öld
##rets
##äcken
##inen
##ört
##au
Barn
Sagu
##rikes
Folk
exp
37
##akes
Brun
ordförande
##fisk
stil
##sman
’
bro
själva
kungen
gifte
##ugg
dels
##fen
miss
Juli
Cruz
uppe
##sons
##ervat
Kal
##gården
Van
##ael
regiss
##ådde
livskraftig
##köping
Köp
##orld
##ämp
##ulaw
Central
##organis
##ierra
##ague
serie
Long
##hjärtbladig
spindel
förbundslandet
##arah
##öarna
jag
norm
43
sch
##tra
Ram
Koudiat
Mic
tving
##ensam
använder
bo
##emat
Francis
Saguenay
##åten
##ield
riket
Ti
##po
central
Ing
uppmärk
##illi
Laur
##win
##let
Pointe
spelare
kanal
##ebb
europ
##enten
järnväg
respektive
##dem
omfattar
regering
insp
kn
dans
startade
##oa
##spass
Gab
##spelare
##ewan
##ringar
Västra
##gas
##song
Andra
##stein
Joseph
prakt
sil
1940
##gara
komma
1920
långt
Im
utom
tio
##omen
##omyia
Sask
County
övert
Sulaw
##ór
##sw
Phou
Att
Part
##oda
Sulawesi
##erhet
effekt
##slaget
filosof
Rad
##ids
##histor
Jabal
##way
Soc
Rob
##oua
skalbagg
dubb
##ces
mor
##iller
##vig
500
tj
Reserv
territ
Bre
def
Bak
##ois
Friedrich
##off
läst
flertal
##ädd
vuxna
Seoul
Luc
Stud
fåg
##ati
Bi
Konst
post
flock
Fa
skalbaggsart
##terade
Stat
grek
##edd
##gern
##olaget
ej
##ahl
##kta
##atchewan
Saskatchewan
63
Lar
dessutom
##ria
spår
bergspass
Agu
##annen
gavs
kejs
##allen
motor
Rec
Boli
##jung
##ré
##HL
skilj
##uter
##vs
Bas
##abl
tillf
Cas
Monte
avsnitt
1989
fartyg
topp
##förs
Anders
Christian
34
##ush
##olleg
Color
##acho
text
Des
##ace
läk
längs
dok
sydöst
May
##ight
Tre
Utloppet
##ovo
Någ
É
scen
Cañada
##itu
Tenggara
Dur
bestod
##ige
fransk
##ativ
Hel
##igen
##ations
Santo
Tom
##uts
vä
ton
Oued
vanlig
boken
War
egent
starkt
arr
damm
visade
uppgick
##anta
säsong
##öts
##vägen
Pass
##likt
##zi
släkt
invig
##staur
##ly
##serv
##skriv
##rättades
##hög
##gon
##gruppen
##ibliotek
##ansen
Ras
38
formula
##arie
1974
Region
Palm
##jäll
##ém
result
Skån
somm
##uella
Rud
myn
Mars
##cke
klubben
sked
yng
offent
##atum
jud
National
##river
##assen
skillnad
##isp
Vol
IF
Sid
regeringen
fäng
konk
##emål
##grund
1700
vanligen
1988
föddes
räknas
League
lä
bakom
##emot
jur
Beng
Andre
Lim
##ove
III
##lipp
##ration
röst
Tj
driv
##alli
##osition
##stes
##rottning
##linjen
skydd
55
71
##tiden
Juan
åtta
ingick
kallades
##stads
##aca
My
##skol
föres
der
ihop
##ischer
förklar
Bill
grupper
uppst
internationella
Nat
dikt
liknande
anspråk
Kommunen
##egro
##chi
Pen
rym
##urt
stats
tillhörde
Jack
##hav
gemensam
lät
Kabul
växte
Serra
påverk
gräns
Hög
Alber
Sund
##eira
Bab
Richard
Si
fys
Mak
gäller
##imm
ärt
togs
1987
Ax
självständ
##enskt
disk
##lund
##uer
##sbane
##åra
Ryssland
Pin
##rodukt
Prin
1986
Dominikanska
industri
roman
länge
##ads
laget
##aris
äldsta
delas
Namnet
fång
Arm
Henrik
utveckling
träff
Antarktis
talets
Brisbane
##örer
!
psyk
Adolf
fas
handlar
los
##odde
##aller
##ativt
Fre
##oster
brev
z
##rust
meddel
175
Mas
##rip
sett
spindelart
nummer
titeln
##rak
alltid
Labr
Leon
##yet
Området
62
såg
Polit
minst
Depart
1982
Ven
bytt
##alo
Kam
Sab
ann
förk
Cór
##ema
if
beteck
##sområdet
Shu
eget
##anga
vari
medverkade
##erbotten
##strukt
##ete
##öster
gård
domin
##namn
avled
##önster
##ivet
Hed
Räknas
gjordes
nådde
##rinningsområdena
föränd
66
låtar
Nusa
##skatt
##ín
42
##ington
inf
tilldel
fört
##oto
bär
##ungen
Hennes
dram
Alexander
##ral
ne
gammal
börjar
##found
##teck
landskommun
skådespelare
##lest
##wood
##inea
1979
tropiskt
Ob
ryska
sold
##vänd
Holm
ill
Bolivia
anslut
Jon
##öras
Alb
##shire
karaktär
à
Ran
##ilt
1985
##laget
hopp
prote
Pre
Divis
##lav
##ourna
Eli
Japan
##cip
68
Newfound
##eland
Brdo
Labrador
Många
##tag
##iku
park
Staden
Tal
##egel
Newfoundland
##atern
Flor
sjukdom
Ig
Mellan
Kasa
Centralaf
Sonora
##xa
1984
Federationen
##räckligt
version
Sydney
##cus
##unk
Stor
67
Marie
snabbt
gränsen
ass
Orient
##yggnad
Bah
dr
Ass
##sket
Sierra
Ali
##inska
Ox
##alla
samhället
fakt
mår
Smith
##ibi
Nar
höglandsklimat
Vil
##amento
Hus
##edes
1945
##ulpt
##ame
Ze
alltså
##uras
##ansson
stri
allra
od
##yggor
brott
##flyg
Big
Kroatien
företaget
##fte
Isla
176
##emb
betydelse
strid
1952
##mos
uppf
##sma
74
betyder
Hav
Plan
Bok
Plat
nordvästlig
##ji
##åk
##ulla
deltag
bevar
##uca
##esh
1975
centrum
såväl
Nue
luft
Adel
orig
##åning
omfattande
miljö
klar
Pic
Jar
betrakt
1969
begrav
Vin
lac
##stero
närmaste
Lev
erb
bidrag
git
##uma
Butt
Sr
ish
##ytande
världens
1968
vattendraget
##ifter
##punkt
Koudyet
beläg
##iell
##rep
gud
leg
##vens
##innes
spelat
##ynta
köping
##rus
##tar
tyd
indel
Ria
skedde
##udd
Grön
##ifoli
drog
böcker
##näs
svamp
Bulu
hust
##sted
tidigt
##ilipp
East
##seende
länet
tri
##alus
konf
skolan
##ryss
Trots
53
39
##iy
1981
##kont
utbildning
Stra
skär
Departamento
mårev
ursprungliga
##iana
heter
1973
Ara
fjärde
Egyp
##slä
Histor
##sväxtart
förlorade
##inister
Jer
Nun
medic
kontakt
inspel
klock
parti
##app
mott
Got
enbart
avvattnas
##ativa
1983
Henry
världs
##usk
valde
rapp
besök
##eställ
150
1967
##unnit
brukar
Morro
Befolk
Vis
##fört
##lekt
delvis
Matt
##ün
##lös
fred
Roy
återvände
Bal
1978
69
tillfäll
##yper
ledamot
Gi
##läg
Tas
restaur
tunn
soci
Cour
1600
troligen
ko
affär
##mär
bygga
Rib
häl
##mat
##orska
just
no
Dessutom
märk
känt
World
Edward
##rot
niv
##ital
Tab
Hand
52
##emang
Hond
Inter
snart
inb
sker
##skaper
Du
ström
Michael
1972
1977
social
170
##ättre
blod
spelet
##ega
Bez
##erats
Sum
##komst
##ligheten
##act
huset
ljud
nomin
hav
##gången
Olof
Pier
påb
##ee
##aming
Maj
månader
främsta
Fu
Spel
##san
##alit
dåvarande
##rym
##rarna
Gran
höga
Sec
Kamer
Därefter
Magnus
##ony
värd
sem
Territ
##atem
Sjö
##uri
##indlar
tvåhjärtbladig
1976
##ystem
##olv
##hang
ägde
##napp
Far
##oy
Kor
Alla
begräns
bättre
singel
##formen
th
sand
sommar
##dae
##erth
##ente
flockblomm
##ertig
befolkad
##une
använde
romer
##ahua
Nu
tills
Petit
##10
Por
##unc
nere
Victoria
##dal
danska
##arbets
Dub
##ords
##sväxter
Små
##almar
1962
Befolkningen
räk
Domingo
las
sol
drabb
hotad
Kir
##atis
teater
##ländsk
##ternat
##smän
##kall
mängd
makt
regi
brittisk
International
##eral
vanliga
##ellertid
##iji
Osc
parl
Sankt
Fal
ly
##oper
rec
##isten
flott
lövfäll
Lång
##ise
##nast
##ipp
ravin
lövfällande
##orum
##riska
blad
Kamerun
naturres
300
strax
dammbyggnad
Pon
Sig
##zon
Ju
framgångs
mynd
Suc
Hem
skad
##köpings
Album
stadens
##ston
stället
##aterna
Åbo
material
##aland
##press
##ranger
kost
##ical
ses
Bol
utnämn
Pr
bev
fortsätt
##klag
Grek
##num
Östra
##icus
Pap
Daniel
modern
##alls
ring
Liban
Johannes
Vir
Eur
hum
parish
grå
ör
Hom
Dem
webb
Oriental
påbörj
##aya
##horningar
Ah
##listan
Shuiku
fatt
jap
su
##osp
77
Hein
##eltida
##skon
myr
##ahu
mera
##stol
##minister
följd
Huvud
lades
Några
##stående
##rego
##ligheter
bildade
##qvist
skapa
Eric
Chihu
partiet
##edel
le
Max
Cr
energ
##åld
behöv
platsen
möjligt
##ower
drag
turn
litteratur
öar
fören
##stån
##pen
Dol
Head
Kast
fyl
##amerika
kronor
##ublika
##otte
utgörs
##lla
icke
Ya
Ren
##ärd
lö
##eff
flygplan
emot
Fram
vitt
vår
##andard
Castle
kör
motstånd
kontrakt
Mala
Bezirk
174
Skott
##ymnas
kommunhuvudort
innebar
##ornet
Sud
ledare
plat
##stift
häv
stekel
beroende
##orin
dansk
##urus
##ision
1965
kust
##ordon
forskning
##usen
##opsis
kamp
##stone
Belg
##atiska
mak
Norte
landets
samarbete
Francisco
information
##obb
ident
Guy
1964
##anthus
##sled
##andid
landskap
##fri
58
herr
1966
Stad
61
Angel
Chihuahua
defin
hösten
##rys
byn
bodde
##alan
händ
arbetar
nät
##ios
##älven
mask
benäm
Jes
##uppen
Villa
flygplats
Cop
##spindlar
långhorningar
On
##opter
King
Mauric
rock
präst
begrepp
##hall
Alberta
Tall
Inom
Sä
föreg
##ña
José
Prades
##ks
Liv
##pris
##cer
##wig
Guatem
##amba
1939
institut
flick
##onde
Neder
ap
##ose
##iter
##kh
51
ten
marknad
Andersson
Laurent
##enhamn
Sovjet
tel
lagen
kullar
Pradesh
sommaren
##anus
ledning
finans
beseg
Beach
##stan
##eda
57
##atta
Albert
armén
Srp
stekelart
##oret
politiker
##any
Nik
Dhar
Sri
76
engelsk
##andena
##arat
Köpenhamn
Sn
aut
Teg
##larna
##råket
Id
Guatemala
##ih
78
##ipl
Väster
vita
döm
guvernementet
##bas
It
##splan
upptäckt
Republika
medeltida
tak
##edra
Mauricie
filmer
##ellersta
Ng
prov
glest
sh
Senare
##bach
##xi
tolk
54
##gäng
##estiv
Fo
Srpska
##äcker
etabl
brän
##ür
bör
beröm
##wan
##skild
##steklar
Comp
##platsen
85
##ovac
silver
civ
##ympiska
he
Mid
rest
förutom
ig
##ogen
enk
fördel
stjärn
Bil
##myggor
##hard
##alitet
##abet
Följ
Up
ep
natt
##ademien
sånger
Nils
##heim
Córrego
Svensk
följde
samtliga
##skott
Lab
bergsked
##mak
ag
##si
kur
##person
bostad
Kuba
past
##ension
norska
##jektet
syster
Egypten
##öter
Î
Politischer
lokala
##bro
##eringen
Zag
##ården
Fiji
ersätt
blå
Cô
funktion
##dagen
##ule
##aret
sår
##demokrat
##samma
Skär
arranger
160
byggnader
profession
upplag
hund
Water
##strument
Mali
1944
##jul
##ondiss
Tillsammans
##ästerskap
Pseud
Tour
##éer
försökte
##ifier
##din
Ast
museum
Bå
##skade
besö
##ez
##ugu
Ecu
Jbel
##ares
##ville
##förhåll
emellertid
Fort
reserv
skriven
##uth
peng
presenter
syft
##pass
##ställningar
##ovi
##ubben
orkidéer
återupp
##aro
##ific
Honduras
##uz
##ike
Sing
Es
kri
Eftersom
posit
erk
forn
Spring
##apper
Indian
##partiet
hölls
##ycken
##rov
##ār
privat
uttryck
efterträd
Mes
Char
sammans
skepp
klassen
her
##bebygg
00
arbets
Mol
yngre
slog
journa
Tex
kombin
##ktor
Les
Bell
bong
förh
lans
##olution
##samm
init
undervis
Mos
##ädda
##tjärnen
##namnet
grundade
ed
##manland
##agua
grad
Lill
##ales
därpå
amb
test
##amin
08
dator
##lic
##ampa
invigdes
1941
##udi
prefekt
1963
Jacob
nivå
ansåg
Ecuador
164
Värm
skil
Pel
Song
##verka
Adela
##ekan
ishockey
##cel
##yntaxa
##edia
Estero
Côte
leder
naturreservat
173
##ängden
tryck
41
##urr
##förening
Lanka
vägen
huvudstad
dokument
##etag
Tiz
biskop
Sin
##ando
Perth
##gers
##emplar
Agua
Wood
##ense
ordningen
165
tidskri
Idag
Moh
Ki
##sterna
##ques
Pers
##porter
skrivit
##apa
Kyrk
dat
äkten
föräld
pat
lärare
Ep
##aco
##ringen
Skottland
slaget
student
##umet
##borgs
168
Hö
##ulus
Champ
Bad
Pil
Tak
arrondiss
Djur
##uh
##etaget
##oca
Adelaide
köpinghuvudort
Ban
kolon
mörk
##iger
Pod
120
##splats
orkidéart
##aff
Salt
##ordet
Od
relativt
##uga
##yer
skulpt
##sel
gul
Grekland
##kn
kommit
##ills
Ele
risk
Nam
##ylt
Californi
##acken
##cht
dig
frukt
1947
##bladet
##anne
vinter
##lind
##usive
kr
##alys
1961
##okus
##familj
sträck
represent
skrevs
programmet
Mah
reform
##nia
eröv
110
God
förlag
##mo
Sucre
##antarktis
Äl
##uro
Hot
##alist
56
Antonio
1918
dagens
Jord
##område
städer
lös
exper
##ötland
platser
projekt
1958
SV
finska
##åldern
hålla
acc
##mask
Á
##pan
##sholm
##jä
##sg
##yang
##eslut
Följande
moderna
båt
Öreb
##länderna
Ray
Suva
California
95
historiska
svårt
Bygg
Colorado
Bot
##iment
##lid
Två
##ismen
bad
tåg
ov
Otto
säkerhet
166
Irland
nöd
##roc
alternat
##edonien
Kungliga
##forsk
livet
omgivningen
valet
Oper
väld
##ografi
##still
##åga
Pres
lägre
glas
##styr
Nav
Parc
]
uppfatt
##ics
Alfred
##anes
trupper
##räg
Lakes
högt
ersattes
##ido
ätt
Egent
Rik
400
fabrik
##arens
Låten
##chef
täckt
nio
1948
inrättades
##aba
ban
Rod
Kō
##ridge
arbeten
demokrat
tävlingen
##arv
##mästare
major
##skl
Ker
turner
Dh
Libanon
Belgien
##undra
idrott
bytte
fjäril
uppskatt
##etts
Miss
Kaliforni
1957
populär
exemplar
og
Range
##bara
tidningen
##agnar
##fält
##fa
##ican
##istisk
Örebro
##enta
##atter
Barb
Stef
sådan
167
fel
##reter
Jämt
Flera
##amentet
ansågs
gäst
##skusten
resultat
##uda
kore
mel
Pierre
hustru
station
territor
02
79
Py
finalen
bit
##trem
Tot
Skåne
bebygg
##lam
tätbebygg
##kv
Sang
##ase
Buttu
dennes
##alism
gräs
##itel
utvecklades
##wn
1956
fyll
##ästerskapet
Sovjetun
##gs
##ställningen
Ari
armé
##gens
tagit
Kyrkan
inklud
##gin
##itionen
##imb
##field
Polen
Outa
italienska
Hamm
valdes
Jag
Bart
Fe
##atser
Borg
##yb
Cup
##gari
inrikt
bergskedja
##sminister
ras
Oc
Baie
Riks
produktion
Off
förut
##ophyll
Tém
##ouais
1942
titel
inklusive
88
Outaouais
##ink
##istr
##itch
##arten
##öns
vist
##marna
europeiska
gra
##kap
spanska
Riacho
senaste
82
Green
ide
Gil
##hur
byggnaden
05
83
förbätt
##cens
pri
1910
undant
Rapids
Darah
EU
##elia
1500
Wa
##ester
officiella
##öjd
##nare
Bert
förste
borg
fiskart
Lor
Kalifornien
misst
##pas
skriva
Pop
flyttades
##nst
sändes
Egentliga
Kastilien
##last
1955
##avica
##zhou
Eti
##ilip
antingen
undersök
lant
hertig
##opf
Guinea
bygger
såldes
prim
debuterade
viktigaste
[
perman
Syds
59
##iljö
Österbotten
##träff
+
Ör
ordet
tätbebyggt
Redan
##lie
##fenben
Hal
förvalt
inspir
##ulata
##ygt
##atanga
##omat
unga
##II
Ev
lokal
1938
##emente
Etiop
##grammet
##bäcken
Khor
mörd
##ami
Institut
Abit
##utbild
1946
våt
##aver
katol
våren
##ouk
##lagt
##ogel
sign
Bangui
87
Kol
religi
Um
Albumet
Records
allmänna
##row
1943
marken
introduc
##oki
##period
utsågs
##rona
##itets
framträd
följer
##adern
Zagreb
##eba
radi
171
Mi
Kristian
baserad
sim
Församlingen
##jus
##arina
Témisc
##läggning
##fta
skapade
Samma
##uell
Abitibi
Témiscaming
Sock
Sun
Isra
##aville
kro
1959
##ibland
Gol
ret
##dera
Cra
Margar
Témiscamingue
pil
Unit
erbjud
##hr
##ressen
##eo
##nag
huvudroll
Dr
svar
Dyntaxa
otill
arbeta
levde
befolkning
tidiga
igenom
Hid
befolkningen
Kur
##jänst
##stedt
Division
fotbolls
alli
färdig
##holmen
betydande
##jöl
Mig
tilldelades
klipp
##full
1936
Guad
##cin
##sväg
Lam
##bur
##smål
Katanga
organisation
Brazz
Nuevo
porträtt
förhållande
fyr
Ungern
tillkom
skola
##ugo
Freder
föremål
gren
##lare
1949
veckor
tävling
OS
Flyg
tack
rea
närm
1917
Ober
vänster
Phil
Brazzaville
ifrån
##ogae
Rosen
slutligen
##zer
röda
##zuel
169
Utt
##vand
intresse
föreställ
Rivi
sank
Elfenben
Ain
bäst
släppte
vol
##erberg
Elis
sag
fest
våld
Etiopien
Wind
mött
##examen
##adens
nordöst
##ams
##unden
1919
##ledare
figur
pengar
##mera
Över
förslag
##asit
grekiska
skiljer
##nits
ägg
##vinsen
##brun
floden
Axel
Mora
dagen
##eds
##hål
Tw
Elfenbenskusten
Sunga
upprätt
Str
tra
Vrh
Ludwig
##regionen
fokus
con
Mary
##rift
##slyck
##bord
##ogram
uppgift
##ool
##enden
##eton
##flytt
1954
vind
##orus
Bob
03
Järn
Samtid
däribland
Kas
köpte
Colonia
1953
##eir
inget
##ägare
Nederländerna
##elserna
##eborg
Johns
##ray
##far
Sof
lämna
rid
gar
latin
Karelen
##azz
##abeth
1914
##oar
##berget
hård
Tjeck
Durango
Ve
sist
Nilsson
Cacho
Lang
##ance
##liggande
##log
säger
##räk
Hum
Grönland
sport
säg
tjänstg
##atak
##mot
##ifolia
eld
Gal
samling
kritik
erhöll
Piz
##astighet
storlek
fi
Isl
Grad
Öv
##syn
sådana
fält
Lep
Ama
sjun
1912
Mb
Oscar
Förutom
Meg
jakt
##vä
utn
Sungai
##rah
neder
##fot
standard
Rev
Dong
Samtidigt
Hag
##dis
utrust
fylumet
Atl
##ums
SS
##färd
##osc
You
sön
##risk
##inerna
##ördes
tvingades
x
kallat
drottning
Esc
fäst
anfall
Bran
##gh
staten
Boh
1937
SVT
Tizi
Dev
förening
Costa
Minor
frågor
sankmarker
gått
mänsk
Tub
Första
prefekturen
##enni
straff
resa
07
Cur
Kron
byggde
##ár
High
Så
Win
1933
##området
brand
##sar
##alle
##annoli
Vasa
98
stäm
Rivière
97
ro
utspel
##agh
öppna
motsvarar
slätt
##iske
verksamheten
Baja
misslyck
##ear
Super
tillstånd
1935
höger
##förhållandena
##grä
Île
manus
ökade
öppen
egentligen
##aari
##lins
##ellet
##skydd
##station
##byggnaden
##ugen
##ikern
##öck
##alpa
drygt
erkän
Monten
##oka
studio
##eka
Guyana
##olis
##oe
ena
general
##öde
sur
utform
##byg
väldigt
##oundé
Ume
##uellt
typer
Will
Småland
Chap
Ron
tank
##yan
##röst
Kim
kem
##spår
arab
93
hämt
rund
84
Tu
krav
##änk
163
Iran
bank
##räkt
vunnit
mand
Stan
##ows
uttal
##holms
1928
insektsart
##ude
Sj
Alm
lopp
##well
1929
syfte
kandid
##sattes
Yaoundé
##ako
##elo
1951
befäl
1924
Myn
yrk
Johansson
Chil
##andin
Taung
jorden
Kaz
Vatten
matemat
##pin
Musik
inflytande
##bor
kärlek
Gör
##sförb
Lid
isl
Radio
månad
##grupper
pastor
lån
svenskt
Lik
prins
##orget
förbind
steg
ändå
Vissa
##sområde
individer
##räff
ång
##ypt
1932
olympiska
##yth
ensam
denne
bildar
##onym
##otus
ända
##odi
Tet
Comm
menar
1925
##useet
skild
konstrukt
##ensen
##lande
bestående
Stä
##igheterna
##nam
Top
##verksamhet
Tek
Chic
Ström
äl
Cachoeira
##gående
hette
brons
##ståndet
inn
Camb
Ala
How
##endom
1934
Jakob
##ute
140
svarta
seder
##bolaget
nämn
Åland
Ana
Asp
81
##amma
delarna
##asse
##växt
##allet
grod
bibliotek
strandlinjen
##ilia
blom
kvinna
gården
museet
sålde
ögon
##utveck
Ernst
##upen
McC
##öjt
skrift
##ötter
CD
##ättning
handels
process
##ektor
målare
skapades
Gunnar
##ikon
bal
##iteter
Lilla
säsonger
##edon
Pedro
tom
befinner
##ollar
Morne
håller
Montenegro
01
Stre
fru
##hålla
ställde
författaren
nr
Ghar
platå
##vetenskap
radio
1922
##ledning
Kalmar
Cay
kvarter
92
kvinnliga
Ri
mult
använts
##bal
brun
##aph
tidig
utnämndes
04
##uten
##bring
Madaga
NHL
1927
spelas
ti
handel
jul
172
Linn
1921
##distri
Glavica
försöker
##apé
##reterare
uppmärksamm
satt
##rass
Fär
##anskt
##asi
arida
sprid
Wall
##ångare
##frå
##iali
mac
Gott
visa
påträff
kanske
##hund
varför
Nap
arbetet
Turk
es
##örande
##rädde
##eman
##hamn
##häng
permanent
1923
beskrivs
interv
##jiang
Mine
Tib
undantag
##ere
Law
##orts
medborg
dör
##gå
##shavet
Utara
behov
1862
Kel
kraftigt
White
Madagaskar
Cours
Wik
komposit
##ilus
##jon
##jar
Colombo
upphov
##spekt
Sheng
refer
##sven
##ania
##stiden
1931
Hor
Mellersta
Reserve
##con
deb
minuter
06
run
##orden
##ulu
Kōh
##spelet
viktiga
##jt
ges
Dock
Ribeir
##odes
Heinrich
överl
##ikation
##kyrka
Igar
perioden
##vard
Ark
knapp
Hit
1907
##sburg
1926
99
fotograf
nationella
##su
##spelen
gymnas
##aktör
stab
bevis
fj
##oga
Ribeirão
##bud
Mitt
pal
130
##tion
öarna
kontin
inledde
##cos
United
musiker
överlev
##rage
Hab
kart
American
kräv
##läggningen
##ér
återfin
allvar
##songen
##aner
but
##ialist
norsk
Utöver
Norm
suc
##ionens
##ahr
uppgifter
Laurentides
flod
##kraft
rollen
##ior
saknar
Northern
##innan
cyk
86
Num
koreanska
publicerades
bord
Sovjetunionen
##eto
vanligtvis
##skepp
1908
me
eau
märks
seger
##ariket
##kra
förekom
fir
Lov
stann
##delning
översätt
##oun
##kast
##röna
##omer
##acker
Dis
dit
hål
1909
Igarapé
registr
Afrika
##skont
däremot
Der
Seg
1911
##saari
Stefan
utrikes
Lem
mol
sats
härst
klart
##stud
1890
resul
##mon
Kasai
kristna
Mang
Tang
##board
femte
##sin
Bod
inre
##ges
Hockey
individ
##gi
militära
tillgäng
##ello
##sbyg
##skaff
##so
Kv
behöver
1913
##irt
rädd
precis
##inger
##ynast
sociala
ram
nästa
##otes
##gångar
Kaj
##etten
##ologisk
Ferdin
1906
##ustrin
sovjet
##urer
utöv
Beg
Vit
##uff
##andinav
##onsin
officiellt
Wat
alb
##iph
funnits
Lunds
Sidi
möjlighet
sedermera
Exempel
##fton
sitter
Award
##edag
Mill
Wash
hemma
illust
genomfördes
ir
Ans
##eför
grön
betydligt
##west
hal
Mass
avsl
##ästaren
ledande
##färg
röster
##författ
mun
mur
situ
Bud
##rien
##āl
verkar
fängelse
Umeå
##oci
##xt
sångare
##vika
##anger
Guang
häck
##asin
Rav
berättar
##nens
Dor
återfinns
##lden
##mond
IV
rapporter
##atera
Israel
##edin
Ilha
Kec
stav
ting
Dre
Blanco
Europeiska
Esp
Ung
otillräckligt
##provinsen
Cuan
regel
##gårds
app
##svägen
Björn
Regional
##yeong
matchen
##smannen
giv
##blom
##avut
##iftet
back
Ann
fågel
utred
Tasman
national
speciellt
poj
##ilja
##stall
extra
Royal
framställ
##malm
upphörde
##yle
pian
övergick
Islands
verkade
##ogon
heller
1905
Gamla
##olly
Skärgård
anställda
##ilo
Ferdinand
pot
Star
##oko
##yre
91
##outi
96
Arch
##beck
säl
Robin
Simon
varierar
##rost
bud
Mynnar
initiat
alt
Abra
##algo
##otta
##uther
##ältet
fien
Cuanza
org
vinna
##känd
kompl
Angeles
##roph
Vas
snö
1915
Just
log
Somm
försälj
sal
ägare
##draget
##fabrik
##bury
Nunavut
rymd
##givare
Brown
Not
Chang
gruva
Ja
origin
meddelade
stadsdelen
##edda
Österg
Lad
abs
Gali
fråga
stycken
162
Jön
##igg
ärtväxter
Post
utgjorde
##räft
##skomm
##ryckt
Norrb
##isch
##förda
Caño
studerad
##ān
##jev
##agne
parlament
##rock
kra
förvär
##olina
##és
döda
biograf
skyd
Burma
bakgrund
Fore
##ils
tillfäl
##gager
##ourne
präg
regl
journalist
##dam
församlingen
##asaari
##umba
japanska
Ess
tolv
Jiang
##acruz
##vakt
pen
##esp
##stav
##ous
Ts
föräldrar
representerad
Music
94
spelaren
Larsson
äktenskap
Tay
##äpp
fur
framföra
##imeter
##ès
##inus
##ophila
FC
##icip
Bois
publik
forskare
Hidalgo
skatt
sannoli
##gl
torn
exister
##feld
##ée
##agan
Varje
Lagoa
##oker
Kun
##ingarna
gär
rygg
##skilda
##eby
##ome
Kenya
kul
Veracruz
vetenskapliga
##ét
##eiro
1916
##odor
konkurr
App
Ridge
utök
Stäppklimat
motsvarande
89
modell
gitarr
Skärgårdshavet
##orps
upplev
Osl
vare
engager
ställning
##rea
600
Ross
läns
##reich
##sby
Djib
orten
##tm
Va
Ple
stopp
ämnen
utmärk
dubbel
utvecklade
##ningss
##ily
former
hamnade
talen
bon
professionell
soldater
Brand
Ins
##anch
##musik
sårbar
princip
universitetet
Hell
##ningsv
##sidan
blomm
passa
Zac
##alific
publicerade
##horn
Deras
konc
enhet
Zeeland
Tidigare
anklag
vet
gran
Cue
Tin
##bu
Vie
250
bolaget
infördes
1901
##fartyg
myrten
Tol
tör
##zen
inslag
##akh
Tep
styrk
politisk
##asp
förhand
instrument
##bron
Lunda
Arn
Ludvig
Pue
##umenter
Pra
##system
högst
##dalen
resten
medeltiden
##rof
sa
##vatten
##ktes
Bet
sidor
##upe
webbplats
##ues
last
påst
##strand
qu
##språkiga
##änder
Za
##steg
rot
kärn
##tering
##ardo
Filipp
division
##klubb
##igalpa
kunskap
Miguel
##produkt
Djibouti
##onst
stjär
förlust
##50
Henri
hit
##pres
Gabri
artikel
##jak
##ence
Cord
Luis
liber
Op
kräft
försvars
##organ
uppn
Bag
Mod
arbetat
slottet
mät
utförde
fjärilsart
##lán
sänka
Jämtland
artister
AI
##ningens
##lov
Love
##museum
##stant
strukt
havs
bolag
dos
##iär
##mast
neg
Ljung
språket
fack
##ucigalpa
offentliga
Tegucigalpa
1880
##jas
Hur
##sköld
##atör
##arbetare
platåberg
##stil
Cav
vägg
Britt
fa
##förbund
koncent
Tasmanien
mas
Wolf
ac
fråg
##eringar
##ents
betal
##stronom
Dagens
Doro
översatt
politik
Gir
Pampa
Vän
elever
Mir
fungerar
Scott
Valle
bilder
##inga
##lige
Fir
lek
##ublik
##angeli
##ŏng
##arbete
##lay
##opus
mär
täcker
##fåg
Dalarna
Företaget
##olas
Sir
##ollen
konser
ärtväxtart
Aten
##ree
##högskolan
##fören
Gull
Run
##smiljö
##åtar
Rica
Uttar
utnytt
##ollege
Kom
Form
kroppen
Gri
riv
besl
innehöll
##nie
vänner
Hob
##for
kompon
Mul
##rey
Bour
##egy
Enc
1870
elektron
sammanhang
översättning
kyrkans
beskriver
Jär
vand
leda
Boken
##insk
Deb
utkom
Arthur
internationellt
au
jurid
##åningom
Day
hed
lade
##oso
Kot
Kong
##inder
rob
##klass
São
##redik
Franz
inleddes
Gross
##viken
##ender
##isen
återigen
##kester
skogs
##NA
##atu
Tav
##elius
kommuner
##arts
##olutionen
##tek
aux
beräk
##ume
##aljer
österrik
co
##dens
revs
##samheten
konflikt
Ace
priset
General
Tir
##nät
salt
##ieb
##ope
##osh
Alt
nedan
småningom
Havanna
##asc
##uru
Kenn
kritis
närmare
##chin
Lenn
tyck
##olt
##arder
##bolag
##afrika
##llt
##lösa
##rypt
läs
##adero
##neteck
Finlands
Nordkorea
##vänt
Bé
Horn
##oo
##ience
reste
Trans
serier
Tyr
slav
##amatan
avanc
samlings
Sib
Tubu
Adrar
öppnade
##ates
disp
våg
Yamo
tron
makten
##urch
skivan
versionen
mig
teknik
Lew
uppkall
Kecamatan
##oukro
dekor
Ps
synner
##uce
Steph
pseud
Washington
final
katolska
Nov
Levu
##quist
menade
##yen
Beir
Bost
Yamouss
##erien
vård
Yamoussoukro
##tr
Josef
Vad
singeln
Mün
Mach
super
##enz
Minas
Zh
##ävling
Addis
1904
gods
fastställ
156
Kef
Thunder
centimeter
##mäkt
##fly
motiv
renover
Byggnaden
riksdagen
stam
##mas
##arit
Abb
##pur
Eup
##delar
##ories
Zar
os
##istik
kast
##ologin
normalt
##ondo
Tjeckien
Serien
minnes
bön
##rätten
anord
Territory
1903
Bryss
##egr
##sök
alk
utvecklingen
Birk
måreväxtart
##områden
##apnet
gett
##ningsm
##ouz
sällan
##stens
övre
dott
nå
överg
##ävlingen
Spelet
153
Ash
##swick
Hart
sade
utgiven
##orier
täck
my
##dras
verket
##beroende
Ell
jämför
##värd
Kultur
systemet
sonen
gas
avslöj
##aki
ba
ens
snar
##skiftet
tids
kön
##betet
Häls
Bengt
##eus
##ction
##ömet
##hal
Leg
##ots
måreväxter
##gär
Svart
Tem
förbund
##amar
##igan
syftar
Centre
dollar
##ätte
Beirut
Brunswick
Ån
lista
Gäv
trumm
aktiva
Northwest
don
##acka
##tida
##ärare
##itze
valk
Oslo
mandat
hälften
##näm
##polit
storm
##organisation
kommers
Š
##iform
##illas
Bryssel
Mile
##AS
Ly
Tap
utst
Bank
##sida
##inc
anim
förrän
##hjäl
Gul
##oides
##slagen
Sofia
uppror
bomb
##aman
Jacques
Yo
School
Bull
##ystemet
Alg
Golo
accep
Nay
kam
##aliser
Ponta
Johnson
Väx
Cape
kött
##slott
##aza
Feli
1000
doms
pers
Harry
bevarade
Bam
1200
timmar
romerska
##udan
Pak
Rum
##itekten
##ografiska
##yld
Luk
Än
##grad
Kra
beror
Cons
insekter
##rateg
gränsar
##ryp
##lunda
##aliska
konstru
##kropp
##ube
Hyd
Hamb
semif
Hj
##ique
Älv
##rol
Dia
spän
##18
Led
Haw
Guan
Innan
minsk
##abas
uppstod
arke
##BC
Cri
Hills
skjut
politiskt
##adel
allmänt
Hil
1902
korta
troll
utgav
objekt
hyll
##jordes
Natura
utgavs
konserv
##rål
##hopp
takt
##ells
Anne
Wilson
She
landst
godkän
Konda
##ligaste
EM
Cir
##shand
##ussen
omfattning
##hole
världsm
Lek
eng
Tch
släkten
##rande
botten
förläng
##icum
Maz
##förbundet
öppnades
##minstone
Lok
Föreningen
utgå
##vån
##loss
Ay
Heli
Pico
parall
152
Ref
str
Verde
egenskaper
##col
##mod
##undu
Ach
Sinal
flockblommiga
extrem
tas
##ikk
1860
nationalp
##vas
Int
##vapen
Clem
skriver
cy
nödvänd
korsblomm
underhåll
##tep
Sem
Bent
Veli
##årds
One
värde
myt
kalk
gott
##stolen
##rafiken
kanadens
studioalbum
Hay
Adam
##almuseum
800
Fra
linje
Norden
energi
Och
##skrift
Vilhelm
##rie
kloster
tegel
mottag
mynnar
##ied
##orgs
gruv
Eriksson
Västerås
någonsin
studera
##usin
##smedel
Sinaloa
hjärt
stäng
gre
trö
##sund
##lah
##rane
##älla
kyrkog
Ky
Gall
goda
dipl
förkort
levande
intervju
Coahu
litet
Yuk
papper
tecken
internationell
tror
##12
stå
framförallt
##tain
autonom
Län
Sep
159
Kle
Lee
est
nig
##enser
akadem
##cykl
das
Dublin
listan
användning
Old
Gävle
##get
##akstan
09
##iler
sträv
##serien
visades
##19
##omet
betraktas
metod
special
tillbring
##oud
vinn
antag
reakt
##ás
##äckte
##orre
Dun
krö
##ology
##teri
flockblommig
kväll
##kommande
tillfällen
##arin
arv
hundra
kyrkob
Rey
hitta
Blanca
avstånd
##ytning
##öjtn
tillräckligt
##nest
slå
examen
Occ
sjöar
titt
##wang
kal
Peru
Mand
satte
##rörelsen
klassiska
##sport
##otal
tekniska
##odon
beslutade
##ekonom
Nob
omfattade
föreningen
##ycl
anslutning
traditionella
lägger
Östantarktis
##fe
##mor
##ipend
skid
##ydde
imp
brist
##örelsen
dömdes
Kvar
mång
##rez
##rivil
Zap
Dahl
Vers
Abeba
##elj
##leå
Åren
Linné
fotbollsspelare
##vård
Västerg
Ring
Bos
rättigheter
event
##ionerna
beläget
##opa
##arth
##quia
utseende
Mong
Vä
##ylus
Natur
analys
Hos
mass
gitar
Barran
Cant
##enberg
källor
liknar
##reformen
But
##meter
Prag
Franska
bry
Coahuila
historien
##skrona
anser
populära
##kin
1895
##eca
##rer
ägs
slogs
upplö
Nyland
gram
häls
Eugen
framåt
bron
##skrifter
således
Tit
##bod
influ
olyck
Prince
##ajär
Gruppen
bildas
hävd
##ules
flykt
##arg
trett
Olsson
lilla
läkare
Michel
kortare
känneteck
bib
Pit
vanligaste
Lis
Tig
yttre
anpass
doktor
organisationen
##undi
döp
##aväxter
Center
##unkten
Först
Rudolf
1897
Quito
Nordamerika
##räm
##äbb
Prod
nämnas
Lat
sattes
Rub
Yang
##arn
Cont
Jesus
##elk
max
##run
tros
syns
kyrkor
##lip
Kos
kval
skrifter
##uy
##ird
Asien
##sko
Kak
observ
##ison
lämp
Jones
Blue
förmod
italiensk
##ocent
Julius
svans
##smakten
starka
##ør
##iew
##efte
##faren
##osí
Knut
anlän
glac
svag
##österreich
Rol
##havare
Back
##räv
Ball
dött
##uco
ambass
gall
drev
##itioner
territori
ros
##cyklop
##kas
Tun
projektet
färger
##40
ärk
krets
köptes
##örs
Chesh
##aväxtart
specif
##bror
##flöde
definier
##ebo
##ipes
Forest
framgångar
##yrt
åtminstone
Pek
ax
##värg
##ademi
##jtina
pa
Pur
delta
groddjursart
##efon
##ugal
##cessen
närvarande
Ath
Rem
dägg
socialdemokrat
Inför
vån
Antio
Sumatera
Boul
Gold
Franç
Anth
Kairo
Canal
##anje
##hets
##annel
låta
##fjär
Gle
Hyp
##rats
utspelar
studenter
##rix
College
Ani
modeller
Piedra
viktigt
Prov
Seri
with
våtmarker
##entian
Jonas
Guadal
ph
##ajärvi
bidrog
territoriet
Samuel
passager
##otyp
Kasaï
Press
ordin
##mal
Ost
inträff
Cass
Säsongen
Llan
temperatur
Gard
ög
700
naz
1898
föll
##qui
##rac
##aket
slags
##osia
följa
socknen
##eran
finländska
##alia
förf
fortsätta
Cot
Brad
Bunt
vir
Ever
delades
närmast
##dle
##osus
##umin
Arg
##livet
fjäder
kapit
##raph
##vall
lov
##kyrkan
Pad
##spart
tillämp
sat
uppmärksamhet
##nica
##skåd
Skop
##omma
Herr
sjukhus
##oten
torp
##ottens
hästar
Bow
Beck
yrkes
107
Social
reservoar
Sydsudan
behandling
Had
banan
förde
Finska
Massa
krigs
genombrott
##arskap
##epec
Mosk
##ängder
##atcher
mekan
frågan
##gress
Året
##oft
##uen
press
kandidat
vice
##ventyr
##liknande
fönster
##erby
##pråk
muslim
Museum
##ivalen
Teh
inbörde
arg
dam
Paso
Liber
Upper
##vok
##ilen
Ud
Negro
Podgor
##mel
Et
##skjut
Järnväg
trädgård
Podgorica
##antha
##otan
Vic
##igenom
##bla
gräsart
Williams
Aceh
##ean
Trich
börja
Verk
##kes
medverkat
##indra
astronom
oberoende
##program
##sområden
ritningar
si
1863
##emen
kop
Potosí
Engel
Selatan
##arra
##dex
##uden
Chung
Därför
kontor
##oz
##terades
157
Glava
hjär
mått
##shuset
samlade
position
##ätta
begreppet
##cio
Kent
graf
rov
##ail
##folk
Sach
##vor
Loch
fant
Kazakstan
Mats
metal
grunden
##lu
##yi
##ophyllum
##nal
Mek
autom
fader
avveck
enkelt
byggd
planer
nordiska
Tai
Whit
##ligtvis
##abel
Tok
1400
##80
##älje
Clark
allmänhet
##fi
##vide
hårt
##ningsb
Värmland
##icola
##litter
fordon
##imen
Che
Club
utveckla
Territories
exped
Frö
Maja
Bandet
fullständ
Lept
Skopje
##ual
##oher
Koudiet
förmåga
Waterhole
element
ka
Bes
##föras
Fors
bröt
##ampo
uppl
bedöm
Vel
bekräft
bete
rank
##uber
skäl
##ensson
Södert
ständ
##släktet
sent
##ŏn
##hör
FN
Ret
ått
ordning
##ågen
Nag
André
##fiske
pans
lager
##författare
1885
Thor
##kul
Ib
##latsen
Barrage
##icks
##rio
##valt
Die
##liser
officer
##ship
##test
Bebygg
Gyeong
##amål
Falk
Kenora
arabiska
##festiv
placerade
##iser
##litt
Boy
Ton
##ingham
avhand
ekonomi
sälj
##meh
Seb
##aktig
sump
##olin
alkoh
föred
##mid
rörelsen
ändrades
avsnittet
##jöd
texten
frit
Lö
##geri
##inne
##sats
109
lock
tider
Chicago
##jor
musiken
Fox
Channel
##yla
Aut
Ent
##nämnda
forsknings
Pont
##VD
Province
Ot
##linge
regemente
representerade
grott
tävlade
kvalific
##oral
##hamm
mik
##ambo
metall
##ouch
1899
Yukon
##aken
Hard
varefter
##rare
##ligan
Ukra
dial
stål
visat
Kuk
##IS
##ball
lära
lägga
regelb
utställning
söner
Gang
bedriv
jobb
spets
transport
kg
Mål
ansl
religiösa
##igu
turk
separ
status
Taf
##mö
##ässigt
##distrikt
anges
tjänstgjorde
##stat
Gotland
nämligen
Socknen
htm
fjäll
##aterial
Darwin
##efatt
tillverkades
tillhörigheten
gro
Bali
kamm
Västergötland
##iba
Amb
Uí
Melb
##jaure
äger
viken
kapell
##ationerna
##can
##häst
##stre
##anken
Pter
intill
sockenhuvudort
Para
Ovan
natten
opp
glaciär
Nev
##osaari
##usch
sägs
fart
##skolor
fann
religion
##bes
##samt
Kil
Linköping
##ave
Das
Chia
##17
Mör
##sfisk
Frit
kong
Totalt
Fern
Nordmak
##fart
Ned
bosatt
##cial
1888
äter
##staten
##rekt
mob
##utbildning
##yds
borger
##edi
1896
Nin
skogar
##ča
##oken
Bib
##skt
avst
##ission
Hobart
öka
diam
original
##ynch
sum
##edom
##olla
Church
##idens
##fiskar
lyckas
Neg
Oxford
##kontor
Hälsing
Uíge
hom
##ocarp
1892
Sundsv
släkte
##stock
##arab
##rata
prop
Cyper
Ry
##liff
##idium
Simp
Nyheter
##16
##öh
hjälpa
##byn
Hang
Nordmakedonien
##ären
hyr
##lä
##röv
François
##du
Melbourne
##edo
##världen
##ores
Mem
##ento
Shet
gol
##ancer
texter
##ehr
##sberg
Filippinerna
besökte
##uu
Eva
##figur
Prim
ägnade
##30
Gabriel
utifrån
##unna
108
##orpor
Walter
Vattendraget
aren
Statens
##edalen
##urn
Pah
lägen
1300
Rosa
hörde
tänkt
hyp
elev
##ötet
##angan
törel
efterfölj
påm
Hass
Nyslott
Sap
kejsar
##kat
##anser
framgångsrika
##ić
fria
##uw
##oms
##priset
##idi
##shamn
##skrig
1889
Zacat
mötte
debatt
tränare
ingenjör
baserat
okän
nationalpark
abb
Vikt
mord
##ding
Guld
Ofta
##bandet
##rater
##talet
Great
tillgång
symbol
##vikt
pjä
1850
Familj
upplöstes
konstmuseum
##gift
jazz
##öjtnant
Andrew
enskilda
kapten
fal
transporter
##ätten
polska
premiärminister
##okal
landslag
Oh
smal
islam
##flygplan
##alencyklop
##uti
Ops
enkel
##icer
köpa
bilda
##ensioner
##efteå
Walk
komplett
##ms
1893
sällskap
grann
uppdel
##ders
Loi
Victor
lokaler
snarare
lett
Texas
upptäcktes
Myr
Hong
Estland
Spec
symb
tunnelb
155
Viet
orden
Antioquia
##slän
Jim
France
regler
München
##ulo
Kang
Rat
##oslav
avbr
##ändska
Arvid
fallet
##ls
1882
Charlotte
Guadalupe
##itat
Andreas
äventyr
marknaden
Coch
minor
mästerskap
##iets
Sah
##ställd
återf
Paz
svåra
undersö
1830
Group
fastighet
artist
årligen
Kj
Gon
##yrelsen
Juba
förber
Ale
fortsätter
vul
omed
länderna
påträffats
##asjön
##emann
välja
##centrum
##ordningen
Rain
Silver
morg
anlades
Ayn
tons
avskaff
##14
heli
IS
allmänheten
##ourt
Lav
##företag
austra
artiklar
##ampar
##banan
Cham
Mina
Buntu
härstammar
##äkring
Hå
Bulgari
sammanlagt
Organ
Malanje
privata
Cheshmeh
##mi
##vara
Bohus
##nor
##stal
Helsingborg
##rinningsområdets
bilar
minne
övertog
##sättningar
##rob
Vik
##ols
gemensamma
##tah
##vari
Bach
##etiska
frihet
##föreningen
Poli
Dolok
medlemmarna
##yrån
förvärv
##itas
##systemet
##jukdom
föräl
romanen
guvernör
bir
dyg
##raget
1894
#
##ese
kli
##idu
gat
Harb
dist
avtal
##chester
##atisk
gest
##uper
Lux
Akt
Sta
Fish
Bebyggelsen
##mande
##ulin
Björk
Mé
variant
börjat
siff
##amöter
##familjen
1887
berömda
tydligt
initiativ
produkter
##omus
Stanley
särskild
##eps
##makt
startades
göm
bestämde
Merc
##zal
##ilton
käns
varvid
##inosa
hemm
##urahan
nämns
polisen
universitets
By
##oler
Kär
##institut
##mäktige
##anza
tung
Crist
egentliga
##omys
Card
Svan
Kelurahan
##ombo
##konst
Mog
tredj
kräver
gitarrist
##wi
##essa
##varo
krävs
##ociation
mästare
människan
driver
Gib
päls
Ytter
utmär
Tob
sökte
##dong
folkm
Jas
Mäl
##omyza
design
Baj
fus
##erner
##ifest
närings
vintern
##ción
##isterna
##jub
DVD
Gor
mjöl
talar
Societ
ske
##enomen
berget
producerades
##skor
##satta
Valley
arkitektur
##iza
EP
Ug
##platser
##niken
##hamns
##edagog
##endomen
Barcel
miljarder
##skop
Grav
##öckerna
Katarina
Ånger
##cal
pul
##ostret
visas
Dig
reklam
##års
https
kontra
samtida
##omo
framstående
upplagan
##15
##berga
Trin
##errero
##estånd
##prin
Mik
Jung
##valet
##räsket
kände
Kum
##server
##ssa
erfaren
install
##ekar
hegy
##rif
teori
##ylla
##terar
##cen
##nipp
##rica
Bap
##endet
##kommer
Jackson
utländska
Götal
tillhörande
##hai
Cari
##maskar
känsl
##ede
tab
krimin
ordinarie
##lle
sekt
##dotter
gemensamt
frist
alternativ
##13
1891
##rerade
experiment
Out
Chrys
##quet
##äcka
##erier
Ling
kvadratmeter
oro
##illos
omvand
Slo
Amazon
rörelse
Naz
##sländ
Båda
Halm
Mika
##opt
##aker
##stäm
##right
##ech
assist
##pi
##oco
##skad
fors
honan
valkrets
##bit
##ults
##perm
##iction
utför
egendom
kommande
##sky
Good
Wild
##pet
Cle
finnas
##alencyklopedin
##tryck
Mall
Prix
försöka
organisationer
Hy
1883
Salv
##verkan
Cob
gula
synnerhet
##ivan
Ola
##kogel
Publi
##uge
hind
##py
toppen
##adas
##liska
direktör
##emon
not
1884
1886
Alli
kvart
##församling
framträdande
flytta
domstol
Tip
Jama
kommunal
Conc
Math
ager
leva
läkem
statliga
Blek
stadsdel
##reppet
separat
dyk
Sus
Four
psalm
sådant
självständighet
Fot
##byggd
##yph
##stöd
Ivan
begär
aukt
##räder
fadern
avgörande
attack
Turkiet
Cin
Övre
154
Kri
konfer
inbland
Distriktet
##ammer
Cand
varian
skrivna
Guerrero
Hors
Växjö
utvid
Vetenskap
##dahl
Napole
Florida
kostnad
utflöde
gruppens
Bla
styrelse
##ilu
##irs
Mü
##nummer
beskrev
Reservatet
påbörjades
##ärer
Ibland
##atar
Virgin
##eget
##året
avbild
vardag
Philipp
##ller
dim
fynd
##strakt
Billboard
##bag
##oke
SA
##anthes
greve
Jud
Pang
Tong
##yx
Him
Souss
klara
vecka
trod
drivs
##ekreterare
##ireg
uppfölj
resulterade
uteslut
Margareta
kalla
minska
##mes
ot
hjul
ovans
##oce
mynt
inrätt
##atra
Eurov
Young
etapp
konstnären
Vu
1878
Let
Sym
Cuch
Drae
Mans
Kungariket
genomförde
##iao
##iera
Gam
##istiskt
Mou
föreb
formen
tillverkade
Pav
döds
##CA
##lius
olj
##atalj
barnen
Occident
Norrköping
tidskriften
Buck
spri
försvann
XI
##stjär
Gram
block
stick
strateg
112
##dz
##fåra
Rein
Herman
detalj
##sö
seri
kusten
lagstift
sovjetiska
Way
fångats
ekonomisk
Doug
Draâ
##mannen
beställ
##esson
##iflora
Kit
##ammen
solen
##tyskland
##rest
flag
Lob
Bj
149
##ynastin
Elisabeth
##ves
##undo
parlamentet
antik
##ledningen
##won
158
Bark
Paulo
finansier
kommunreformen
##ime
Lh
utd
helst
##arby
Lagoon
Christoph
arkitekten
skivbolaget
##orit
##elset
bröst
påminner
Irak
inform
##itta
Hunt
innefatt
Phyll
##punkten
##eler
##idrott
autonoma
förbindelse
1100
##läggande
klätt
Erit
halvgrä
avslutade
##cé
fläck
förbjud
##avi
##shistor
##leken
make
drift
folket
##lägs
End
tyng
##sal
Opsjtina
exakt
Russ
##delningen
fungerade
##cas
Mr
127
stannade
##uqu
##ehand
Real
Arb
##industri
##smännen
“
##läggningar
##bev
opt
Greg
prot
jämfört
frågorna
##onn
Lap
Peg
##iffer
##skript
ligan
##yu
##lapp
##erska
##ordin
##tepec
skön
pastorat
rödlistan
##ornis
bakt
mönster
debutalbum
##worth
föda
##spektiv
##wald
##eti
Jun
##kol
##kins
Svenskt
Kre
Cerros
Vidare
romersk
Portugal
struktur
Act
Dick
Jour
årets
##svenskan
parasit
##fon
##osten
Iso
förel
Taylor
##reger
##räckning
##industrin
##tor
Os
##ioder
##samhäll
predik
Chiapas
##brän
Def
Tran
##elp
##skans
Melod
krävde
värv
Ordet
##lingarna
konsert
målningar
Östergötland
##tan
##rium
elva
Ita
Vår
Röda
Trip
##ologen
Bulgarien
##stä
Cy
##ombe
##issionen
förändringar
förvar
Occidental
##urser
from
saknas
styrka
sannolikt
strömfåra
##rut
##bank
##eval
Gera
flottan
cell
##evision
Ej
##essan
dvärg
feder
antogs
Alexand
##char
##antin
honor
##uka
House
Theodor
ersatte
tor
Stig
Persson
uppträdde
Aren
varv
revolution
til
sköld
tjock
fåglar
Hamilton
Eurovision
Lé
Sak
sni
##straf
Palin
fartyget
##atset
##oi
##oren
Puebla
##styrelsen
utbildade
##ipedia
civil
avrätt
Vent
Sound
ämbet
Hamburg
Hermann
huvudet
Glob
förband
ambassad
anledning
Ulf
##day
##ionde
Hoch
Pand
provfiske
målade
Göran
##oceph
stånd
bandets
##örn
ink
Drottning
inkluderar
##yv
##bom
vistas
drabbades
Association
##chn
löp
Laos
data
Andalus
kyrkobyggnad
##ants
##icol
vall
ökar
Reich
gällde
uppslag
##fur
Jam
rub
##illes
vide
##upt
##ktyg
##udière
##arpa
media
förstå
komplex
##eme
##ycke
orm
kanalen
1866
Beat
##ografiskt
Ré
volym
lanserades
Chin
görs
underl
Birkaland
##ftet
##teras
Emil
advok
Nieder
sumpmark
##utställningar
Kaw
Huset
##edy
##wick
Lana
Läng
Bandundu
##lima
rådsområdet
förhållanden
hotell
spelen
oss
Aust
##byggda
insatser
op
villkor
Dend
Hipp
##manlands
##ecas
##reds
1879
fördes
nej
Burg
##dare
opera
##fil
Alta
Arab
lägg
Provincial
##lagen
##jörn
neut
anställd
Č
##ynam
Karlsson
##edal
Nel
Sali
rysk
levnad
skolor
rädda
Drag
revolutionen
tillbringade
##ters
anslöt
rö
##slös
omtal
##illnaden
kvarteret
##ouan
kräftdjursart
##zig
##oman
##ross
buk
Nich
lämnat
##sättningen
tillverkning
schw
##cheong
åskåd
##kår
##sych
##storp
roller
Förb
Serg
spar
mänskliga
##ekyl
##kommit
##skapen
María
gogae
produktionen
##ssk
besegrade
##aku
Kall
Ther
Värld
kollekt
vardera
bin
vem
Orten
Nyk
##atiskt
Company
220
Ein
Moskva
totala
##alu
fysik
Burundi
##ättningen
##fr
##rester
lokalt
hittades
##don
##schef
##gerna
Kvin
Eskil
koppar
Klad
minister
sätta
Falls
programledare
##atik
Ford
Wang
Stein
personal
##hen
##stin
dong
Årets
Aur
skiva
##RA
##jav
##medel
SK
åkte
##ilar
##satte
Nicar
kunnat
147
sälja
##zan
fäl
sed
tryckt
Municip
Vo
gifta
Försvar
undvika
Blom
Grund
##sländor
##ologiskt
Teheran
kungens
##hel
Pha
splitt
Ask
##boland
System
konsek
##organisationen
##ës
##aks
##ungan
expl
gjorts
naturen
##etown
Dram
inneh
##iration
Rac
tapp
##ebiskop
metoder
järnvägen
##flott
undan
Vietnam
Skog
Gabon
##ssystem
Carlos
decenni
mängder
##ikter
omnäm
linjen
utgivet
förklarade
Ok
mic
resor
skydda
kungliga
Sydafrika
överens
León
dröm
live
##elly
Finn
##ophora
Katal
praktiken
Prem
##spolit
utvecklas
introducerades
##ialet
serv
känner
##ache
##ugis
##ernen
##önstr
Kamen
utman
##komma
##venska
avsked
lämnar
Mey
Bomb
##vention
sommarspelen
Raf
Toro
buss
isol
Enter
Porte
Gerais
##amas
##head
##äta
##ovis
##ularis
Ghana
saker
trapp
förespråk
dy
ute
väv
Klubben
producerade
##eni
åker
överfördes
##itos
Nan
pan
Amar
Lacs
Picacho
hastighet
Syl
##ensiv
##artade
misstän
Marc
dö
##inas
Allt
hålls
Slaget
låtarna
##föd
Eritrea
##fried
##sprogram
Chungcheong
territoriets
Albanien
Barcelona
Andalusien
Mut
hushåll
##ness
111
##olph
##orough
Dic
1840
##ugan
Troll
målet
sorter
##ards
Hud
##landa
Coll
inred
diskut
##reh
Fem
Ges
Veliki
Colline
Pir
stre
rådet
finländsk
##önn
##rion
##sters
Koudia
##jäs
Kay
ovanligt
säm
##rycket
Taiwan
uppen
avlade
##dals
##arbetet
##ongyang
utvecklats
Nas
Ryd
skivor
städerna
1867
1881
händelser
##äste
##igi
##mah
Acc
##antis
Carolina
naturliga
turneringen
frivil
Sudbury
##iral
tvär
ving
Contest
särskilda
orkester
Dim
Ingen
livsmiljö
Kep
Tec
##sgatan
Huidu
order
filosofi
Stur
musk
##gang
1871
##rel
##edig
##föring
Davis
##elsef
1876
Bond
borde
enheter
tidning
Män
ole
1848
Slott
fattig
##ods
##erus
##lista
miljon
Fas
##apest
mening
Windows
Asm
uppm
Rapides
Tysklands
##dorf
##rier
Fil
##svalet
Palindi
dialekt
låtskriv
medborgare
1864
delade
utvecklat
##idea
Fur
##adder
##ygium
Lagun
planet
##opio
##ialis
uppvis
formellt
tecknare
##uj
Mån
sagt
betala
##hö
trodde
##ape
##antz
##orerna
Ocampo
Abraham
##kun
##shöv
##water
##gärder
polis
Åboland
Pyongyang
allierade
##onc
Joe
Lisa
##ograph
händer
Budapest
Eri
tillåt
Internationella
XII
bur
Skell
nordöstlig
Ye
Hov
Både
föra
väder
##niker
##slängd
Reger
##eno
FF
Tres
Vista
etablerade
utställningar
Lip
job
##elbart
##umär
torr
behövde
medicin
Ursprung
Syn
Lilj
##inalen
##lint
Raj
ifrå
##skottet
modellen
##odd
##kong
##riset
lättare
nätverk
##röj
ru
Hun
term
##60
##yggen
Balt
Gord
invand
regioner
stylt
##hängare
redaktör
Herb
flav
Louise
Lanaudière
##orh
Hop
låga
pension
AIK
tvåa
digit
Istället
framgångsrik
rent
rött
antyder
##ogg
Åke
korr
##optera
##ellerna
trädde
Norrbotten
##hark
Karin
Paran
byggas
##wer
##onda
Strand
##wall
Kosa
tingslag
Pac
cer
1868
mjuk
slutar
kejsaren
##okk
##ittén
210
##ianus
1877
##ladesh
##chy
900
Sub
##linje
Beli
Mann
##raften
Lomas
förmodligen
Philip
artikeln
Jur
1872
##aritet
##iermark
träffade
uk
1875
oför
konstitut
förekommande
Pay
annars
##ornas
Ris
nat
disc
Aguada
tätort
Internet
Arbet
Västerbotten
Rand
gröna
idéer
Champion
##eva
##otis
Själv
Bangladesh
##bana
##plet
Map
Liksom
varianter
bana
##yon
##iae
Pett
sände
##back
##öder
Pala
landslaget
##odox
BBC
##estad
##produc
Roger
Uppland
utfördes
Ångermanland
##ival
Cec
##ningsområdet
##dan
##stjän
Mend
nyck
##fect
Cac
##inspel
Cypern
Lord
lärde
utsträckning
inbördeskriget
lab
Eliz
Society
##sang
##erbaj
Kirk
beslöt
långfilm
Hälsingland
vät
Stör
##ugoslav
##enny
Nicaragua
##ped
Edvard
##alistiska
kampanj
Bac
Oli
##given
##ställdes
##otiska
judar
träsk
##jöds
tand
##illverk
Glen
invester
ungar
minskade
utrym
Komm
trop
uppstår
1865
##erbajdz
klockan
möjligen
##eles
##iers
ved
##aterade
Svensson
##skij
Kort
akut
##mästaren
tillfälle
##rou
##wen
gärna
##emar
Hugo
förblev
baserade
sköts
##achi
##åriga
##egen
Kuopio
ätten
##ulation
##ividerna
Dagbladet
##ulf
Bara
Times
Zacatecas
##skam
Best
huvudrollen
IFK
torg
fullt
säker
romant
spansk
Helena
våningar
##oir
148
döden
Street
gyn
Mongoli
Nationalmuseum
##TV
##kons
##äger
Oul
##ekten
Arag
Tsh
##ängen
republik
##eria
Oax
Sha
##ställda
##historiska
representerar
regerings
konstnärer
##räckt
förknipp
##car
##bell
Tibet
turné
speciella
##lj
##ogo
Batt
Luleå
##MS
Augu
känna
orgel
total
kombination
##logs
sjätte
##bra
##inet
Howard
oleander
Fab
Filip
friher
230
##ality
hovet
förvänt
##ällskapet
grundläggande
##egg
##zuelo
##elsson
skada
benämn
folkräk
##mund
Magdalen
##etto
Amazonas
##ftonbladet
ärkebiskop
##etti
##ossa
Teater
partik
släppt
teatern
##acán
utl
lösa
##brand
##leden
Chen
##skyrkan
kyrkoher
##sakademien
Mam
Ord
1874
Station
##oks
##azat
återkom
funktioner
##ches
##imus
##wart
arkiv
diameter
Kladogram
##elin
##fess
Queen
ändamål
Georgetown
Västantarktis
##itté
Equ
Sex
Honor
reser
##skytt
fikt
Nairo
Typ
behöll
##ño
##vux
Sor
##entals
Teluk
Valen
Pargas
bebyggelse
ub
nerv
##skriften
##OM
skott
relation
##cken
Squ
Hann
fran
Holly
##aju
SC
vägrade
Steiermark
##ahn
##joki
Mis
Corne
##släpp
stater
Esper
flydde
##historia
ledamöter
##ugn
##öta
Kul
kab
utföra
avgräns
schweiz
planerade
brut
Prieto
rinner
regissör
producent
##gra
Serv
##ränsen
Universitet
bul
skador
kyrkliga
anger
belön
djurart
##25
##zuela
Fall
Nick
Armen
##splatsen
myndigheter
##ados
##opro
Vib
golf
flest
tall
Algoma
##kyrk
Sev
##älsen
Ernest
VD
##rang
Hir
hyd
Medan
History
hävdade
infanter
##epal
Röd
dokt
provins
##ipa
##kopf
näbb
papp
Campo
kritiker
Skandinav
##äcks
125
solo
söka
familjer
placering
##ffa
Nak
internet
motståndare
##etes
##berry
Gyll
Harri
påbörjade
##onto
##lever
rötter
ovanför
##blo
##iten
##ites
Tou
älv
##afazat
Nairobi
Mohafazat
##lagda
partier
ox
145
majoritet
##atorn
##ukten
häng
sjöng
dikter
##perioden
företräd
Syz
Pach
Cauca
Gilbert
frig
parken
styrkor
##bon
svär
ökad
inner
dåligt
koloni
rekomm
bosatte
##ural
telefon
##OS
enkl
skal
säte
anhängare
Bonni
lit
radik
##yta
kav
Punt
Janeiro
##tica
utk
adel
monark
moderni
Anderson
##ES
##angu
##äken
McL
ökat
paret
##vattnet
mission
##24
Tag
läge
makedon
deltagare
Olat
tillå
Festiv
Oaxaca
föreslog
Elizabeth
kommunerna
##äp
##stor
skot
##atorer
##fal
IK
Pul
Glas
hittills
web
Birg
amar
utgång
observer
Lewis
överv
Ukraina
Inloppet
Nagu
samm
##ulatus
##sstyrelsen
Iz
Len
##rera
##uropa
##emburg
##iaceae
Chabet
##bad
Jönköpings
##agor
jätt
##olver
Drain
Syzygium
##abi
ombord
Tors
medvet
Rå
helg
1873
använt
versioner
##amerikanska
##idaw
##iled
Buj
Ting
Boston
århund
begravning
Low
mästerskapet
ombild
rester
##asy
Dec
Vene
byggt
unger
##visning
tillhört
Jin
läsa
smak
passerar
##sid
##akan
##oter
ran
förbi
Napoleon
sammanslag
Rancho
tvungen
bröderna
kommunikation
##uku
bearbet
grekisk
Blekinge
Paj
Brän
Libyen
##jk
##evis
##mord
State
visst
idé
utvidg
##htt
##kort
1861
Wars
vägar
uppman
Däremot
##olia
Abd
Pia
tings
##sbyggnad
inriktning
Vig
##gifter
Cross
turist
upprep
personen
Leb
imm
##stans
rull
Psych
areal
Mikael
Branden
Samt
sönder
128
Sac
html
klassisk
förstördes
Ec
VI
##ungo
##ips
antas
möjligg
##skv
Log
##öring
Bissa
administrativa
##smäss
Rose
##örelse
mesta
Montagne
##osse
##skin
Dead
Main
enhjärtbladig
##fo
Net
##spitze
Gordon
Ble
##onga
Ore
Brig
Call
Kamb
bilen
diskuss
##innen
skapar
möjligheter
##tex
##äni
Tla
förvand
##pol
##ylon
Put
##pes
Ill
Ort
##zburg
Haiti
##sken
nut
enkla
##pression
ställdes
##orma
##pyidaw
Naypyidaw
diver
##akry
##jian
VII
Ljus
möte
invas
Tidningen
##atre
##terat
Dahr
Lak
Sala
bredd
lantbruk
fristående
erbjuder
motorväg
##öln
##äter
Tad
bostäder
Zhe
flit
##studier
tornet
överst
##ardi
##slätt
olja
dokumenter
melod
Syrien
##agar
##utan
etc
låter
Gradina
omgången
##omi
##onis
##ygen
hab
les
draft
längst
it
Fisk
riktigt
##mont
143
ker
Euph
Rolf
Gutta
Gren
##stek
häm
##fjäll
romaner
106
##arkivet
knappt
avancerade
personliga
##alem
##opol
##isaari
##floden
Borås
Magall
##mät
##idad
unionen
skådespelaren
##tz
Mud
Zem
Lager
Portezuelo
##rows
bål
##reta
fritt
fav
##råken
förr
värdef
omedelbart
##hou
föds
Person
240
svampar
konserter
Atac
Jers
lands
begränsad
historiskt
cap
sjunde
Lennart
hud
borgerliga
##byte
##bilis
##ional
Time
vinst
Bissau
Nou
Say
Homer
Magallanes
järnvägsst
konstruktion
Kö
Duck
Viti
Velika
varumär
##anschen
ansvarig
efterträddes
Oz
##egu
##fältet
Mongoliet
landsting
Nua
Heter
antog
##TA
##fru
##atoria
Tanger
stipend
sjukdomar
##erta
Bed
Margaret
Helsingborgs
##kam
##arte
##illon
##aktiv
Cher
##stjänst
bröll
succé
resultatet
##íso
Bh
##aran
##oon
borta
Zhejiang
filosofie
sistnämnda
##tog
##iano
##ione
mal
Moore
##lus
##tåg
##usik
Jav
Linköpings
föregående
##pat
##antus
grundare
Lett
syss
##pers
Open
Capit
Nelson
##imo
##löss
inc
1856
saknade
Luxemburg
##sunds
manliga
botan
Shakes
Cit
Hammar
sången
Nd
skilda
##antes
1869
##ställande
förflytt
##api
Ner
Lamp
överb
arrang
effektiv
upptäckte
##por
##maskart
Guangdong
ledningen
Ji
##opet
##visa
lung
reda
återkommande
146
Conakry
historisk
handlingar
##terad
##harkran
persiska
##ija
Soph
##acitet
Carri
spekt
klassific
Amph
fenomen
blandning
##osex
Lef
dvs
Mead
Wid
box
Pant
fasta
Cuchilla
Sydamerika
Cort
Asmara
restaurang
skapat
##cyk
Aqu
Nunatak
Gad
Rot
nyheter
##uela
McK
##eriet
Kons
Pahār
Staff
Harald
hävdar
Wikipedia
synd
##orlunda
Carlsson
##11
##jorden
Sachsen
Shakespe
tillfälligt
Venedig
portugis
##utz
##xen
up
skyld
försörj
stjärna
##iki
Two
DNA
Mez
dokumentär
Coc
News
##sbo
Fair
##likten
Peking
intressen
musikalbum
##bryt
##ersson
Douglas
Europas
##ultatet
##ällskap
insats
tävlingar
##abo
Peñ
Söd
##ned
hast
berättelser
##ppe
Sz
##ely
Jäm
Orig
Amerika
judiska
osäk
Crypt
##rationer
Skellefteå
makedonska
Dah
##ilong
vack
##rädande
Björne
Botten
Södertälje
tillverkas
##yren
Kash
vilja
svarade
##utu
##inos
##liens
##äkare
rätten
holl
anm
Town
frek
ockup
##sand
Wel
##anerna
Gösta
infekt
Katalonien
—
##udo
Care
brok
strål
inflyt
barndom
##rake
Inc
hant
##ariska
senast
maskin
Kristina
tjänster
##harkrankar
Magdalena
Television
##ennis
Vald
avgick
##sfiskals
Nicola
kvalitet
parasitflugor
##kär
fåt
Giov
ladd
sångaren
huvudsakliga
##lagd
strider
##lander
ungdomar
350
Oro
bem
Tomm
Hitler
aktivt
server
##pert
Tét
##bul
AS
Ås
Fåg
##deart
bom
mem
mid
Grim
skän
typen
tyckte
stationen
##iften
uppd
##rister
First
magnet
tonsätt
Familjen
återvända
##dy
##umentet
Premier
##90
##etsen
##sverk
Wahl
##kvarter
omnämns
tjänste
sekunder
föregångare
Championship
##agna
##linjer
Arena
ritades
##krit
##står
##oderna
##atz
115
Ull
kläder
##IF
Göta
##räde
##viks
Kari
möter
##éna
##atts
##fund
##ongen
Haj
##atchen
##sländeart
Mancha
landsbyg
Fat
Tony
Torr
veta
Atacama
arbetare
Karlskrona
u
Yu
Kok
Laj
##straff
##ocarpus
scenen
anlände
##onne
##sförbund
Patrick
Og
##staka
arterna
McG
pap
Kamp
kans
kraftig
##ämpa
Isid
Mato
utbrott
uppkallad
##juka
Gom
tax
##årig
Play
valt
mörka
Handels
begravd
Bohuslän
##isi
Birger
vattenfall
##uddh
new
Bend
Numera
##stjärnen
motiver
##ople
##ocera
Meli
Brian
reduc
##war
##ubbl
vakt
##handel
rätteg
krafter
##pool
Sär
Nueva
##ögen
##rätts
Virginia
##böcker
veckan
ockuper
gla
Nuuk
Jiangxi
kretsar
påverkar
Adri
advokat
##inho
##ther
Tens
likt
utfärd
myrtenväxter
traditionellt
Enda
##lemmar
##umbura
##utveckling
##mars
##ända
col
Thom
dater
stjärnor
nominerades
Igna
##lister
igång
##dad
Kjell
gifter
likhet
##stationen
utställningen
gal
##itter
Team
hamnar
ställa
Georgien
##anssteklar
##svetenskap
##myn
Gü
##anti
##örda
##ämnades
alltmer
tycks
civila
teoret
vulkan
##stig
ham
Ding
##avista
##escens
minut
bildat
kontro
Dry
mont
##ostnad
Christina
avslutades
##kriget
still
Mess
##bergen
Gotlands
litterära
##urner
nedre
sekund
ekonomiskt
##BA
##sha
##rito
populärt
kompositör
##irat
##sbok
##öden
Kors
Alice
halvö
rekord
##ental
##ijärvi
starta
##ämnen
Mell
framtida
Allen
människa
##emin
Nab
front
betong
förändring
undersökningar
105
Myc
##effer
##entes
anlit
anställdes
##kod
massa
Tallin
fungera
Ericsson
Nordiska
därigenom
utomlands
Östersjön
givit
heder
hälsa
plast
##krig
Pow
##venemang
him
Hela
helik
blommor
beräknas
undervisning
##dyn
##agare
bära
tunga
##struktur
Cambridge
##neby
##uterade
Jersey
Murray
144
Oliv
gnag
medlemsst
Ā
##juta
##ålder
körde
stall
vilar
Chilena
behålla
väckte
##lix
Wu
Night
Crique
Liding
##zy
##obi
Broad
strän
deltagit
##cast
fåtal
##amus
##komp
Bass
köra
##ologer
Norman
följdes
artiller
tidningar
##synt
handling
Ela
##jerna
##ssjön
frakt
##js
##ställa
lagar
Branch
Stephen
##df
##aton
Coy
sök
kard
##trädde
Antár
befann
pågick
Tétouan
gränser
medverkar
##lits
Aph
Six
Habit
##landern
Paraná
Samtliga
Tekniska
RA
amp
ost
Arne
beteckningen
360
jae
##stuna
sakrist
Marshall
##rans
##uning
Käll
unge
byggts
identifier
Nip
Steve
Organis
Azerbajdz
inspiration
myrtenväxtart
##ikte
Cho
Tul
Guay
bilden
skickade
##ctic
##ångaren
därifrån
kö
##ebre
Foot
Lincol
ungdoms
Allsvenskan
##ouf
##ffin
nöj
##skilt
##uster
förmån
genomföra
Ferr
fing
bergs
desig
##akar
Dos
Soll
Darreh
Pä
##fald
##boken
Swed
förord
alkohol
##läm
##sker
##ysia
Chris
Antártica
Qa
##ović
Hap
stridsv
##uit
Ce
##lines
##obius
rytt
##träsket
wh
Road
Lovisa
Caj
Bry
Bruce
Dhaka
Halland
lyckats
##23
LP
Media
tecknade
regisserad
##olyck
Playa
varpå
ki
Hes
Fast
Nuaf
Show
Micro
Arroio
gestalt
##vagn
Dum
ari
kod
teat
Institute
förkl
varia
upplaga
filmerna
##imi
ortodox
förlorat
##enc
##park
##ullen
beford
socialist
##ners
##rero
Mike
leddes
tillät
##idia
##stam
driva
samla
möjligheten
presenterades
Qing
gårdar
##arer
##ocal
Reb
konver
Hollywood
bestämmer
Kopp
##amarca
Marsh
avser
##mossart
Därmed
Miller
Dog
tum
Bästa
##arre
Has
1857
alls
##frågan
Lom
Sör
##andah
##esten
##laren
Bund
Häll
Vitt
lyss
robot
Sundsvall
marknadsför
119
noll
Thail
##yskt
vart
Bamako
Libert
faller
Bernard
utrustning
##tas
##stod
Häst
fiskar
##rottningen
##mir
Lun
##strän
Före
Kont
Pich
##sholmen
poet
försvin
regelbundet
##my
##nos
##bler
Ahl
##raser
iväg
Omkring
lösning
myst
finna
furst
Metrop
halvön
Bin
Slut
fäll
studie
förhindra
##esar
Kem
Sve
ekv
##temot
eleg
gatan
herrgård
##cks
##kust
##givna
Cove
arrester
Bujumbura
##qa
Daw
##block
ifrågas
monument
behandlar
na
##tend
inhem
zo
Llano
Offic
inköp
tätorten
##shan
sjunger
##oux
grat
omöj
trupp
##atoriet
musikvide
##departementet
##rh
##umi
Alan
##rakech
maxim
Norrland
självmord
##kopp
##alton
Gill
hembyg
Jamaica
Wad
sträckan
Bun
Mit
Palma
övertogs
ja
##asco
Ced
Musk
##smuseum
##ono
##fred
##udad
Dob
Golden
##70
##erie
##ving
Salm
imper
kusin
regionala
Schwar
minsta
underteck
försäljning
undersökning
##uez
Kid
belg
Motor
Micros
ju
##antik
1849
1858
camp
Mario
Walker
långhus
Marrakech
##mur
Vor
vic
Olymp
##ståg
##onsson
dräkt
minskar
##aparl
soldaterna
Södermanland
##vey
##ally
##hatt
stig
kolleg
luften
##oura
Row
Kunt
förra
placeras
kategorin
korsblommiga
##etz
##agon
##quin
Lena
Frans
##atorium
träning
storstad
styltflugor
##pren
##flykt
Live
andel
publiken
samlingar
##gav
Jr
Hub
Wen
diagn
##furt
##ures
Inf
Äng
##sfull
##sn
##hof
##egal
Sag
kas
##zar
##lers
Uul
Tamb
##evär
##ocke
##ossor
##åring
Baker
##aktigt
##arkitekt
##die
##yes
IP
##ändes
Hamn
##mosfär
hårda
##ager
Gray
Sara
##kultur
Strax
Narrows
ställen
framförde
lagt
##steater
diplom
linjer
föreläs
Är
utp
##íncia
bryta
##pressen
Begreppet
##insula
##eväxter
normal
Província
medarbetare
sekreterare
Taza
Minnes
uppföra
övertyg
*
##yne
##okar
##ägge
Xin
kir
medförde
##akult
##antan
##vapnet
breda
##redaktör
Centrum
##avtal
##skilj
Haouz
molekyl
bladmossart
dominerande
Tru
skytt
Rumäni
Skolan
Tyrolen
Raseborg
##obe
##roth
Donald
bedrev
1855
##21
Cou
##orbia
Skepp
Bergen
uppdraget
misslyckades
##fir
hä
Spe
##illar
Bron
##stenar
heliga
värden
Giovanni
##work
Anto
själ
##ningsvis
Manchester
Aftonbladet
##ïma
##barn
Stift
Storm
sekel
Tammer
##anz
Dip
Juni
dödades
sanddyn
Gem
Leh
##tiste
Vega
##listen
offer
mottog
Lah
Voda
ovansidan
##kre
Tow
##satsen
##elos
##cle
dop
##arius
##ylvan
loppet
redakt
ersätta
##åda
##förare
##stierna
Andorra
##sförbundet
Edu
##burgh
Lomb
Past
byta
##opogon
##reville
avlägs
framtid
Baptiste
evangeli
efterträdde
##chus
halvan
Brandenburg
taget
##itation
##klubben
Eskilstuna
betydelsen
placerades
##olid
##spunkt
##parasit
##lé
Pab
Lamb
uppför
Sat
sound
##wich
Sebast
trummor
##45
demonst
dottern
högskola
innehade
människans
Xi
##emba
##olle
Bis
Byn
Emp
##vande
Game
smitt
Disney
grundat
klubbar
reservat
Hin
Union
ritade
åtgärder
köns
##filmer
tidens
vattenhål
Europaparl
svampdjursart
##arka
##ygga
pansar
##löp
##raden
supp
brant
tempel
diverse
konkurs
##visades
läkemedel
Azerbajdzjan
förg
belönades
huvudperson
Åk
Sher
Sport
målar
Tensift
##skontrakt
skulptur
Peninsula
um
Abu
byt
Paret
Norges
hjälpte
kvinnan
Barranca
Tammerfors
fjädermyggor
##acá
126
Version
friidrott
##driv
Serb
##givning
Series
1820
Guds
Phyt
##ikerna
Grupp
##ripande
gnagare
huvudort
Värmlands
representant
##anto
##ient
##aljen
##byrån
1854
Corn
##entiane
Conserv
Cala
brig
träffar
##nem
Kad
1859
barnet
Christopher
Dow
Nem
##ehamn
Bast
mäkt
##ymnast
drevs
starten
områdena
Gyeongsang
##árez
Astana
kompani
tiderna
Jönköping
##efäl
##ifik
##smot
Clara
Lower
grader
myndighet
Fle
Sou
mäss
Jugoslav
Vientiane
naturskydd
##avg
tidskrift
presidenten
##AR
##nif
vag
Hali
sågs
Potok
aktiviteter
##areg
##icha
Gur
Ich
Umm
##lägga
Härj
befri
enstaka
Colorada
Industri
expedition
##FC
##fj
##eur
##ensus
##orall
1852
Sich
humor
kristen
svenske
flertalet
Konstantin
självständig
##smen
skr
Leop
Line
Roth
frik
Niger
ändrade
Ric
##kvist
Full
abborre
rörande
##elles
Shang
ägdes
##icornis
##parasitsteklar
protester
hann
Taoun
väljer
tillverka
Grosso
Hansson
innefattar
##hugg
Lyn
skogen
##landskap
Lon
symboli
##ordförande
karriären
Isa
spräng
skickades
inträffade
##afé
##hjul
dep
##havet
##smyck
sorg
avsikt
Frederick
skul
verktyg
anställning
##ku
##vest
Cow
##fåglar
åstad
expans
utförda
pel
##innet
Kurt
##FS
åtskil
Clements
handboll
Córd
##fas
Fly
Emili
faderns
Thailand
ständigt
mellersta
##ege
äkta
ämne
Jerus
medeltid
Frankrikes
Melodifest
fastlandet
Ytterligare
##smet
118
store
trakt
utöver
sidorna
perspektiv
okänt
Venezuela
##ateur
Radi
##istens
repar
Amster
##måga
##åndet
rakt
sällsynt
##anor
Inte
Åt
Our
puck
sens
kanon
okänd
Taounate
besökare
böckerna
katoli
Wag
Jöns
Rick
##erings
tronen
Mountains
##uke
Pun
##ourou
##alerna
##fecture
hamnen
bebyggelsen
##uil
##vad
##éns
åk
##ming
##yrus
Jen
##aderna
Arkitekt
Dals
förn
hundrat
utökades
##nd
##qi
ån
Pes
Utan
pjäs
förtro
införliv
rörelser
##nivå
##quim
kil
##verna
##kov
##eris
Sna
1853
Cond
Rocky
ranun
Elisabet
beteende
naturligt
##ER
##št
##lock
Alc
Lig
McD
nit
påven
bröder
Armenien
##bek
##sut
##yia
Córdoba
##bibliotek
semifinal
##hea
113
Academ
Hjalmar
efterträdare
Qar
söker
fången
Santander
##egas
##house
Cabo
Hamp
Elect
egenskap
##svär
gentemot
producera
##jin
##öte
##illy
Information
##fel
##ebok
##leby
135
Din
Saw
nivåer
Frances
tillträdde
Rang
tillägg
##best
##ellig
Sandy
ämnet
mannen
Leonard
partiled
Bear
bist
mode
##former
##repren
nyhet
vackra
##steatern
America
förfölj
trupperna
##ode
##esse
##skare
1838
Tomas
ligga
varken
hantverk
lys
ruf
##achus
##akien
sträng
tidpunkt
låtskrivare
Ix
Lit
Tah
Hugh
Kajan
Stort
huvudrollerna
Brö
Pitt
betyg
förny
Hooker
##http
Lie
##ssätt
Rätt
partiets
Programmet
##vil
Blå
Lop
Moder
priser
fladder
##struktion
erövrade
kyrkogård
##fram
##fulla
##plikt
Hoce
Nang
plöts
europe
##eaux
Leip
fångar
renäss
Gav
Gamb
Stone
1851
malv
##avsett
##sklubb
termin
Väl
Bald
##stenen
beskriva
Makedonien
äktenskapet
Brom
österrikiska
##pal
Aw
Ciéna
koordin
livstid
utarbet
§
##smod
Löv
lar
grov
triv
Skara
drogs
##yggnaden
pedagog
inl
ven
##ätter
titlar
##grå
Lyck
ankn
Hoceïma
Frederik
matematik
##båg
lön
##slösa
malm
##trafik
formel
operan
överste
##nah
##oza
Jap
akantus
##venser
rak
##antal
Dani
Ping
##uset
Hog
Nac
kre
rac
##ulosa
Fritz
Liver
##okaler
Graham
##itis
##lass
mjölk
Barrio
Tallinn
##yndigheten
##entligt
motsats
##omia
Oct
##funkt
kunga
tusen
##enskomm
##irektör
##ajo
##vert
##agoza
##dagar
ingå
pati
beton
dålig
nationell
betydelsef
generation
BK
##bost
##ladd
260
raka
tala
Papua
förväx
Cach
Robinson
Dé
Ea
##kamm
##svik
##ugou
##ulär
##ärta
stol
##röstning
styrelsen
##klart
potent
stadsplan
kontrovers
##sto
##apel
##orge
Sik
häll
ryss
Skivan
Turner
odling
rikets
Ciénaga
förmögen
Fi
##iggins
Tyska
##rustning
##enia
##isse
Oph
gräv
sund
upplös
##27
##andi
foss
avsedd
järnvägs
##olus
##omyc
270
Wald
inval
##enterade
##kir
##ebra
138
##raten
Lant
Kosovo
Salzburg
Zaragoza
klubbens
##orde
grac
Phnum
Urban
väger
Tavast
kännetecknas
##MA
Gas
Kru
Rog
benämns
Equatoria
##28
##ular
##ulen
Fören
fiender
påverka
verkliga
Petersburg
förekommit
##ante
omd
Cali
##manuel
##ötlands
Program
keram
klostret
skildrar
originalt
Ais
Fon
Rut
pla
##skrigets
success
Catarina
##okoll
##centra
nödvändigt
##ked
##rons
##ellus
avlid
Campbell
kraftiga
nederländska
##IA
116
orter
Endast
scener
Nordväst
speciell
##ians
##skat
Hof
##vårds
Kalle
##officer
perioder
genomgick
landsfiskals
Ursprungligen
##blod
Tuk
Harris
rektor
plus
Claude
Stilla
kyrkbyn
##26
yt
##skogar
Swamp
helhet
Euphorbia
##inia
##sträng
##högskola
##ästerskapen
kanadensisk
##skal
Now
##offer
Beaver
##resa
åtal
##sendet
##sdotter
Ciudad
Journal
ljusare
atmosfär
Gottfried
##nison
##recht
Ghow
bind
Lidingö
Delstaten
Individerna
organiserade
##ungu
ball
självständigt
FA
Kym
marin
meters
Hammarby
åskådare
##hä
pdf
1845
Svea
##ionjär
Prins
filmatis
Jerusalem
##aru
mut
1844
Karlstad
##debut
##amt
##jel
IT
XV
Aga
Maurice
Microsoft
##räda
Pied
mordet
opposition
##rew
våtmark
Kajanaland
trafikeras
Bild
Dark
Peña
exkl
##agasta
Chong
Nedre
kronan
indiska
fon
Peng
Bayern
Manuel
hittar
Partiet
huvudkontor
##niv
##ässel
##filmen
human
avseende
Amsterdam
berättelse
##sse
Wol
Fres
Chico
Porto
Bertil
gjorda
Ebb
sluta
syssels
kroppslängd
##lef
Au
lim
Trum
bras
brom
##exikon
Bernhard
1846
höst
Grant
Taman
femin
hittas
närliggande
tätbefolkad
##has
Sic
ford
Loren
åring
##tainment
förstärk
Metropolit
Ov
##rapp
##shem
##uman
##idion
##oppet
##platt
Your
stär
därav
inrym
möjliga
Böh
##arium
brotts
Kanarie
##rap
Doc
tennis
berättade
skivbolag
##hren
Muk
lav
##earch
##enson
Lawren
bokstav
traditionen
vagn
Nyköp
komed
##båt
##ved
##snivå
leds
##adelph
##atabas
indian
utgräv
intresserad
129
Saf
rök
##andar
Olle
rekt
Öland
integr
SE
Did
Volk
Lagos
##smanska
Jeolla
figurer
teorier
##ilog
##retsen
Antof
ombyggnad
##rax
##ocha
Ked
Nad
Mayo
förän
stödde
##imir
kok
##sborg
Marcus
häckar
homosex
Libreville
##uven
Bus
Salu
Vita
lapp
skärgård
Antofagasta
Suk
ärv
##skamp
idén
däggdjursart
##skyrka
Bandera
##verksamheten
Cub
##riven
##undna
fängsl
Kanarieöarna
##rina
##ocken
gäng
japansk
##gul
##ansch
##stadt
Fujian
##sledamot
bergstrakt
Viejo
värme
##ritar
välkän
potatis
##amns
Joens
Leeds
tjugo
Modern
positiva
Stu
Ujung
##arbeten
strids
snabbare
##arus
##föll
##valla
##hn
##fyll
##ophaga
instift
komment
ST
tav
rekry
kejsare
spelarna
situation
镇
##amet
Riv
Équ
##ogloss
underarten
Bahia
Mitch
Party
fakult
förbättra
amerikanskt
##light
Halmstad
församlingar
##ayo
Hoh
dygn
möttes
rösterna
verkligen
##halt
##utna
117
Rin
##utsch
Bott
piano
Wallen
##produktion
Beh
cal
Kvarn
Bengts
Werner
förlän
högland
förbundet
##bou
Hue
fris
##endron
##adh
##aktiga
Three
veget
##landsöarna
set
Hoff
Marg
dela
posten
äng
##ights
##inget
1847
##riften
Round
höjer
utgår
##intress
behövs
våning
doktors
##eben
##ångs
136
Cheng
Salto
hanen
export
emellan
##46
##lich
amm
##iskan
uppfyll
##alvön
serb
Preussen
kronprin
påverkan
##bran
##ouri
Palo
göras
mikro
Carmen
stenar
##läng
Gat
Gum
Mort
Awards
Georges
införde
##fs
lad
Tommy
verka
##fjärden
planen
seriet
##anas
##cept
137
Mim
Jimm
##örerna
Megas
medalj
Danmarks
traditionell
##achal
##ellia
Moon
##ysning
vacker
alltför
Esperanza
Mariehamn
folkräkningen
##gera
##ikel
Lub
Ral
Twin
##akning
självbi
häx
##aplan
Dana
segern
döttrar
latinska
stranden
tolkning
##box
Jör
Shaw
tänk
##ioides
blivande
1809
2020
Hösten
Joensuu
##ashi
##släg
##ronten
cancer
åtskilliga
Hua
Inn
Forsk
Oskar
Rafael
Holland
Vicente
##ättningar
$
##ble
Zo
åka
##lidae
##onger
##risen
##sborgs
Lasse
skett
Rumänien
Conservation
##29
##odo
##fver
Lith
finsk
förbered
annorlunda
inspirerad
Kub
##itsch
##niskt
##iliser
Karang
Petter
grundad
##roduktion
##instrument
konservativa
myndigheterna
IB
##ettan
##feldt
##iteln
1829
Pine
drar
minim
##stritar
dotterb
##grav
##ries
befäst
förmåg
##lemmarna
flickor
Habitatet
##LA
##nès
skräck
hjälper
Festival
benämning
korsblommig
Försvarsmakten
##ai
PC
##gått
väs
Alek
Science
framtiden
Entertainment
Middle
patien
delstat
däggdjur
handlade
havsytan
deltagande
benämningen
utrikesminister
##ollo
Mick
Pent
tran
Parad
Visby
Kristus
byggnadsm
Schum
##iebolag
science
innehålla
##oen
Alam
##alismen
Census
popularitet
##utställningen
Lü
##stick
kemi
ryggen
viking
##eståndare
##jäm
##bilar
1834
bott
##lington
Sweden
statsminister
##hol
Shi
täm
Brav
stanna
##ylä
101
##plant
##strid
Mant
attacker
professionella
Rt
Via
##undin
Iron
intens
kök
Trav
##issing
##bladiga
Kiruna
kammar
Bergman
militärt
pseudonym
##ejo
##unge
björ
##ämbetet
##akademien
Exempelvis
##iscus
##utton
Kropp
termen
födelse
##odrom
Ariz
Bush
Elli
integ
sorts
småort
spring
##veten
trea
Guanaju
European
presenterade
##iren
Leuc
Bromma
jordens
kulturella
kub
More
Diego
Stads
##eslutet
##försvar
herrar
ishockeyspelare
##35
Sarc
mora
tomt
tydlig
Til
obl
Temp
hemsida
##angi
##ungs
Slä
möt
##iguren
Fjäll
adels
##effekten
##ampi
139
Fac
Luft
tätt
##agemang
skilja
##hew
##sikt
lut
##odont
1839
##ägaren
tyder
bergen
framfördes
inflytelser
mix
1842
smek
##levande
Stewart
Aragonien
280
Boca
himm
Maxim
Schle
##snittet
leddjur
##itj
##ifer
##ögder
1815
kurs
Medic
hittats
Megaselia
##leg
##ergi
##fast
##ilum
stup
årliga
Södermalm
varierande
engelskspråkiga
Ll
Ler
Cruc
Gent
horn
tull
Nobel
##komsten
butiker
uppenbar
##anum
händelse
starkare
##ík
##kal
##aven
##lina
##para
Carp
Salo
##håller
bidra
stens
landshöv
söt
Breuning
modifier
##äki
##aric
Aer
Trä
aur
##riket
gransk
##landslag
underjord
##more
Ech
Örn
Vlad
Major
Monta
Vanua
karta
Felipe
States
docent
talade
enklare
utsmyck
uteslutande
Zam
##perna
Volc
Nikola
älskar
offentlig
gallmyggor
bryt
##ulauan
hänsyn
Tripoli
ombildades
undersidan
##ijän
Adams
Allan
##bildade
Commun
fögder
fattiga
kvartsf
Kepulauan
##able
##anny
Kala
Test
birds
överra
efterföljande
##opel
##ulium
##grunden
fritid
regent
passagerare
uppfattning
Samb
Saut
flagg
heders
inrikes
Of
##lier
Solna
djupt
Public
belägna
företagets
##städer
Ghowr
Satak
Tafil
förmed
järnåldern
##osis
Fam
rut
##udden
Tanz
Syftet
födels
uppgår
##lon
Guanajuato
kvarvarande
##ådan
114
Mab
##ilder
##ische
talas
##ecklist
singlar
##programmet
originaltitel
##narna
Cumb
mart
rätta
licens
riktiga
##branschen
##tio
Oue
##visor
Curt
Ivar
Corra
March
##heterna
tillfång
##ileg
##hy
##fäl
##xid
##ekade
gjut
world
Buenavista
sångerskan
##börd
##andes
##ileum
Helm
Rhin
Arist
Allmän
uppförd
bildandet
##uns
Coast
Pauli
Meknès
stadsb
torget
spetsen
##obo
Iv
##bäck
##stri
Over
##fördel
Kennedy
Västerb
regeringens
##oué
##osum
##angen
Arts
Lock
Mira
möta
##rigent
Kings
Laget
teorin
Toronto
rollerna
föreningar
uppföljare
Lys
##berätt
##venskan
detaljer
##ibo
##möss
Lady
positiv
ringmaskart
Jane
Meta
##smuseet
##ademiens
tillgängliga
##ppa
##ylli
##svampar
##hra
##star
Box
kallats
åttonde
##occus
Astra
mamma
##sförening
Football
##ages
103
Lec
##cupen
Penns
Polyp
befatt
anläggningen
##mån
##ups
##urk
utbildnings
asp
##avägen
Cooper
Säv
##itlán
Camer
##målningar
Tavastland
regementet
tillgänglig
Kant
Peder
beord
utnyttj
fortsättning
kommunistiska
Aj
Oak
Sek
out
Buff
koret
##förvalt
Aud
Euc
Sed
Boll
Flat
##givande
##eu
##akta
Novo
##faller
##kusten
egypt
apotek
Atlanten
orsakade
##astro
##varig
morf
Volvo
avdelning
historiker
##kamp
##först
1835
Benj
Fire
Gand
mans
##enbach
skala
Falken
uppfost
turnerade
institutet
##uve
##vagnar
varor
##strafik
tilläg
##adelphia
brasili
##teckningar
Oum
Sot
##ellow
freds
grand
Leipzig
absolut
situationen
litteraturen
##bow
Jul
Jeff
##rummet
Torre
##ipennis
##sträckt
Sången
Rij
nått
Prist
sämre
Sträng
kvalit
rådgivare
avrättades
Bug
Prot
Kanal
##sledare
##eväxtart
förstär
tillväxt
Jugoslavien
##ems
##lds
##zia
##issen
ditt
tema
vänt
forna
stödja
Projekt
Tafilalet
beteckning
##yeon
Ida
ara
tus
utrop
Päijän
segrar
##arum
##burn
Get
Roll
styre
svärd
ansvaret
inspelningen
##ebe
##nic
##bong
##övde
104
Emma
Libr
höra
isra
marm
Johnny
Kw
##nets
Ori
pet
##förord
Jules
Thomp
vuxen
triang
##omataceae
##ctus
##ökan
##olich
##rogen
Font
Yong
stött
##akk
##vel
##nika
alf
1810
Chal
rike
byttes
kemiska
underrätt
bergstrakter
##bat
##byt
motorn
varade
Anthony
angående
##festivalen
Kav
Pip
prom
Oscars
Viktor
nämnda
nyligen
redovis
1814
##fallet
Håkan
följt
sammant
plattform
Pettersson
Socialdemokrat
##mis
Dy
hy
Lorenzo
utbredning
Västtyskland
##bent
##emed
##klock
Quin
pjäsen
recept
##ävlingar
vandring
##deb
##eke
##afilm
##oneura
##upa
##nats
##tillverk
##apt
##ogl
##fort
Fed
ked
##uvida
Pint
Tand
Cueva
atelj
Notera
handlingen
##DA
##ky
##ioc
Leo
änka
orient
tingsrätt
##sä
självständiga
Wright
preuss
minskat
publicerad
##strå
##atlán
##vuxen
Emer
Last
##ämpade
adress
##idningen
##ehandling
##partement
teckning
alternativt
berättelsen
kommersiella
Pé
##löst
##serie
Khāl
mong
vild
Åker
Linda
Sainte
Strind
Päijänne
koncentration
##uo
##ça
Bom
grenar
Flandern
##BS
##vag
Dz
##deles
Chev
fara
fars
snäck
Operan
##ād
##tens
##azine
Gara
uppnå
##skådespel
Skandinavien
##hed
##rine
##ingel
##tendo
fabriken
##ody
##uct
Mob
See
Xia
##ulära
buddh
bruket
celler
ungerska
##āh
lug
ori
kand
löper
##äkerhet
Petrus
signal
skadade
konferens
Pite
dyker
##actylus
##bildning
Byggnad
Sommaren
Valencia
utse
tankar
intryck
kvällen
##anläggning
Pennsylvan
Västmanland
befälhavare
Wy
Müller
Nathan
fysiska
##itar
Kans
With
Stand
uppåt
Operation
##enge
armen
Johanna
Nintendo
musikaliska
Mov
Rah
Accra
Ekman
uppmunt
##litteratur
kommunala
##37
Games
aktuella
territorium
ess
Fant
cupen
läger
deltar
färgen
##sbolaget
Philadelphia
##ūr
##wal
##olep
##iktet
tillkän
törelväxter
vig
Fyra
Pond
framt
lyder
Hedvig
Nom
##parten
Huang
katal
freden
tagits
Équateur
engagerad
##ymn
##övs
##bers
##ianum
Grip
anal
fältt
hebre
snabba
##stånds
Claes
##veriges
terror
framgår
az
##attle
Billy
Honda
Higgins
framträdde
##49
##alax
##bred
Llo
René
byar
Lucas
format
drabbade
invaldes
konstitution
##aq
Död
Web
1833
Lita
Snow
tjug
båtar
##ystation
##isar
##onora
rost
slår
taket
villa
Motala
fiction
oavsett
##cien
##lino
Riddar
teknisk
Yorkshire
naturskyddat
##arh
Mack
##version
luther
flitigt
kvalificerade
##ulis
##ensin
##aniens
novell
##imba
##livan
Övriga
efterhand
py
Ejido
finner
placerad
törelväxtart
småharkrankar
##zel
450
Ile
mex
växa
##ifolium
bönder
byggnaderna
##nord
Pie
##asser
krön
påve
legat
Mauret
tyskarna
##stru
##ymen
##riskt
Fjär
Chlor
Human
bulgari
##stillverk
flytande
turnering
eventuellt
##ires
##ymer
sken
##oplats
utmed
##unculus
Eag
Gha
söm
Baku
Rena
vald
##fundet
##ingenjör
Nipissing
upptäcker
dis
Cran
läro
##ilitet
##enterna
berömd
##akim
Koh
##lager
Rinc
andre
gemen
argent
Bolaget
Götaland
Östergötlands
##36
##asu
##leb
##pper
##skolans
Isidro
Tbilis
Simulium
##hua
BM
##ourg
Fen
Kiv
##osoma
Still
vände
##univers
Kū
##rice
Bruk
studerat
Playstation
##organisationer
Vinter
återin
domsaga
Liverpool
Satakunta
teckningar
1837
Sina
Wain
Kymmen
längsta
Lindberg
tämligen
årsskiftet
Norrbottens
##felt
##olet
Thel
gata
Milit
Trafik
juridik
stallet
##dö
##atl
ih
##ikan
##rama
##yser
##planet
skicka
##entin
Kärn
##albumet
Juárez
syskon
Sullivan
inhemska
intellig
flygplanet
##hui
##ylis
Cong
bandy
halvt
Palest
hotade
kampen
##splatser
##teckning
omständ
##bruna
Reyk
Julia
Skövde
Hongkong
relationer
##mag
##gran
rön
1843
Born
Edwards
Cochrane
engagemang
##eks
pur
##oclad
Rond
Shin
emig
hjärn
stund
borgen
döptes
Fotboll
officiell
sångerska
recensioner
Mår
patri
dramat
Lawrence
flygplatsen
klä
##svars
Corr
bröd
anmäl
jämte
Studios
politiken
prinsessan
regisserades
sammanslagning
Dak
fet
Phys
Melast
helgon
besläkt
utgivna
försvara
regement
världskrigets
textil
utgöra
bestämm
intresserade
##âdi
##itor
Sad
stim
Plata
tuber
Teniet
##atformen
ts
##styp
Kob
pojk
stan
bränn
cover
skött
vanns
Leopold
stående
beslutet
verkställande
##bus
Nä
##rund
Fun
Sug
##oslov
1828
Riau
##format
Heart
bägge
franske
President
statistik
kyrkoherde
institutioner
##RI
##oti
##ceae
dryck
kropps
nybygg
parallellt
slutspelet
Tis
##regel
busk
junior
socknens
Balk
Must
##skogen
pekar
##ophilus
spridning
Pennsylvania
##eve
Taz
frag
korall
minist
frukter
kinesisk
distribut
företrädare
##48
Loire
##kroppen
skapad
Brittiska
tillfångat
##befolkningen
uppmärksammade
AT
vak
##arena
Bord
bräns
Studio
flagga
statens
Massachus
##nö
öns
##ikten
öron
Guangzhou
Stiftelsen
##almi
##ummer
Dipl
borr
rika
rust
population
Massachusetts
Ytt
sov
äta
show
##bruket
akter
##idaceae
övergång
behandlas
sjukdomen
Gustafsson
definieras
##chs
Dat
Poly
##elberg
byggnads
religiös
understöd
elektriska
##icle
##vald
Sip
Cook
Quem
säkra
Bentham
rapport
producerar
##CC
##rok
##esen
cont
##frågor
Echin
sända
erbjöd
Tbilisi
##uki
ES
GP
##oles
Viv
##elsel
##motor
##landss
Chash
Kelly
Moritz
spelets
kulturen
turkiska
materialet
##qing
legend
socialt
Upplands
Frankfurt
##dor
##lish
Carlo
Tirana
inbjud
rummet
värder
inkomst
känslor
##47
##lini
fac
##elett
##olini
##änger
Fame
Orth
befint
kontakter
##omon
1824
tals
##ierade
brann
gädda
Edmond
Milano
Naranj
##flottilj
diplomat
byggandet
Östersund
Prote
stoppa
Vincent
Pep
böj
skån
verb
Vrelo
faktiskt
öl
320
Buch
hörn
video
måleri
Charlie
databas
reaktion
samlades
Divisadero
##här
Eds
Jay
1841
tekn
Museet
dåliga
##igo
##onny
Rag
Hudd
##skanal
Sichuan
Benjamin
privileg
återfören
##utställning
##gat
Yun
poly
faktum
##avdelning
##sor
##cell
##kant
Sax
Bjur
Komp
enlighet
Wan
varg
Klock
utsedd
domsagor
##republiken
##vinna
kalen
Thompson
Mauretanien
##low
##hult
Roh
##onica
Crni
Skol
Smed
Bluff
basket
bokstä
kej
rän
Witt
cykel
##iculata
sjunga
resurser
tropiska
Ž
##lak
##ofon
Lum
Otter
datum
nyare
Corpor
##bun
##ockt
Ock
Wer
##ifera
Torn
Boris
störst
identitet
tillverkad
Us
Wo
##iluft
##skalk
Cart
##kapten
besvär
Nordisk
omgångar
trafiken
##ffs
oce
Cyrt
pappa
rasen
korrekt
##39
##ugga
Föd
rem
##nämnd
Hend
Quer
drick
expand
Verksamheten
##nell
Hyl
##linois
Kashmir
Eleonora
##ís
##ogle
##ossen
Tenn
Conne
Morgan
Potrero
skulptör
Sho
Moose
främja
samtal
Ignacio
Hangzhou
halvgräs
syr
##arbon
##märke
Flores
fläckar
målning
konflikter
troligtvis
##38
Cel
Draa
Flem
Jimmy
Ragnar
Gerhard
avgjordes
##fullmäktige
begränsade
offentligt
semifinalen
Ekv
##anthe
Dres
bond
tävla
motorer
bedriver
förluster
kontinuer
##DS
##iya
##rull
car
Diam
Mata
kass
kamer
kvarn
rätts
femton
Förenade
mytologi
Regeringen
Municipality
nominatformen
##ær
1832
Merr
värn
##innare
##verken
Kinas
Tolima
stängdes
representanter
rh
##kryp
##togs
##utla
Rhe
Frid
Isab
upphöj
gammalt
konsten
##ventionen
förekomma
##owa
Gy
HC
NA
##skiv
XIV
lej
##medalj
Schul
tanke
##havaren
indelning
cit
tob
##värns
trag
##oglossum
uppehåll
kunskaper
##afa
##gavs
##dräkt
flög
Kalim
fiske
förbud
mängden
ortodoxa
##roit
##anthera
##förbind
##ophylla
Fadern
beskrivning
##brer
##imer
##svis
gun
Kara
Sour
bered
tillt
Rincón
Managua
Spr
fre
##aktus
##rorna
##ekonomi
##kontoret
##företaget
verkstad
skillnaden
Ø
Won
Gert
Hert
Tort
##ologie
##otrich
##skande
Tanete
risken
kanaler
Illinois
magister
##tom
##otrop
1812
poesi
Moderna
Reykjav
Konstnär
##øn
Fj
överenskomm
sekelskiftet
##inth
##rops
##stag
Lea
##aspis
1836
##problem
bevilj
sprida
##alleriet
##ocephalus
Research
Olympiska
rekommender
##yda
##acea
##arkar
##vägar
Gener
Lloyd
Namib
domare
Academy
inspelad
domstolen
##ukas
let
##atörer
Fager
Lista
amatör
Chashmah
DC
##olja
##stab
##dragen
ändra
främre
hämtad
##material
Village
habitat
samhälls
fullständigt
##iste
pär
##yggan
Härn
Krig
Tung
cirk
sköt
##vingar
Braun
Schmid
Republiken
definition
##ormon
that
överväg
Nicholas
Tanzania
evenemang
hebreiska
vanligare
##uin
##yri
##ène
##frid
inh
##ephal
garnison
kongress
unionens
fögderier
kyrkogården
##ject
##uguay
Aisén
Vägen
Encycl
hänger
metoden
tillbak
Demokrat
Södermanlands
Melastomataceae
Lär
Vem
##elekt
Bahr
Jamm
trav
##ampton
sparri
ögonen
dubbelt
striden
vänskap
kommunist
Gou
tib
top
##avesi
slem
plock
Eduard
Sigism
faktorer
Mest
Pali
dies
##rasset
konsul
besöker
##ositionen
##gy
nav
hall
värdet
Harbour
brodern
begravdes
##yak
##ifts
##onso
Mok
Möll
indik
urval
stjärt
##skommunen
Birgitta
ranunkel
anknytning
borgmästare
##hyd
##laus
Leif
Push
parv
Graub
kryss
labor
Större
boende
Morelos
efternamn
förklarar
Tamanrasset
fastigheten
##irit
##ather
##artist
##sbolag
Elias
hyres
omkom
växande
##ext
##uno
##onald
##swana
Tama
rått
flyga
Jansson
bredvid
tidskrifter
Storbritanniens
NS
##otik
Cad
Tik
##nätet
Ster
Elmer
Tokyo
tjeck
Tipula
spelats
förslaget
protestant
##eon
##bräken
##ublikan
flyttar
##dé
##aha
Rek
Rel
##alisk
##arier
##eback
byggda
gravid
härrör
interi
Herbert
godkänd
##agus
##kors
##yssl
Sea
1790
Bäck
Pien
vert
##ansaari
utbyte
Valpara
svansen
producerat
Puc
Reh
##ünden
Hole
Jens
jung
line
Torne
##hållare
proport
främmande
##akon
##acher
##alande
Atlant
konstant
räknades
vistades
geografiska
gitarristen
##mäss
##sele
Hod
Champions
invånarna
medicinska
ögat
åsikter
##regementet
skillnader
Prom
körs
##änning
stört
hästen
plötsligt
konstnärliga
##gade
Grå
##efors
Gunn
datorer
orsakar
importer
Minnesota
tidigaste
verkligheten
##hs
##ós
sli
##arkiv
Rost
Tord
husen
kunder
skydds
förklara
festivalen
tillfället
utformning
go
##värm
Reli
kaff
nark
Elekt
odlas
årtion
tvingas
tydliga
Castillo
uppträder
ech
Strat
begav
ljung
##svenska
sätter
arkeologiska
arrangerades
If
ML
##shot
fen
Caro
sikt
Dansk
Nyslotts
Akademien
##universitet
Graubünden
Kristianstad
Ip
sax
##night
speg
##alisco
balans
israeli
språken
bronsåldern
##umt
##iley
##kade
Gäst
begå
neur
vilda
profil
operativ
Jämtlands
Vallonien
Deep
Kram
krom
halva
Meadow
Strauss
miljöer
tredjedel
uppsättning
>
##ovs
Fry
##alier
1818
Brod
Hubei
styra
##iserade
Muhamm
geomet
involver
arrangerade
##nick
Bum
Herm
Pomm
punk
##ophorus
näring
##allo
##gärd
##längd
Bened
maken
tvingade
Institutet
##varor
Roos
Tala
tråd
talang
pionjär
förebild
liberala
Nuvarande
Ét
Prog
##icolor
Jason
Nanch
gratis
enskild
referens
Wi
##inda
Tat
##rerad
Anse
Home
Mist
anat
Honan
palli
namnen
punkter
rovflugor
Key
##anson
##riger
##skomp
Europe
##arch
##cock
##iern
bif
osk
katt
ligg
##ademin
Warsz
segel
Dongar
skadades
jämförelse
##församlingen
öde
##quito
Pros
##permum
Eastern
##usan
##vesi
bilj
Bulud
##förband
Djurgården
Västerbottens
trollsländeart
##yah
Gan
Gap
Berk
spek
Knock
Stens
fasad
Fartyg
folkom
Shakespeare
##EC
310
##grens
Krit
brett
##isering
##politik
##skillnad
Produkt
##byggnader
värvades
undersöka
författade
amerikanske
framgångsrikt
##haus
Dix
Ska
Benn
##teknik
Oliver
skrivet
renovering
##omba
Zel
Jesu
Pern
exil
röra
Jalisco
produceras
Cox
Pos
Book
våra
Ungdom
avvecklades
##nsh
##chet
##irus
##itim
##umen
##uvan
##aguay
##sbanan
mötet
stock
Student
friherre
negativa
AG
##esia
für
vårt
##celler
Böhmen
##oment
##örning
bestå
teologi
Botswana
Pakistan
Medelhavet
##evi
His
kyl
##ätare
1808
Gour
##baggar
träng
Russell
genomför
hembygds
kapacitet
##itus
##ätet
##sätts
lust
Oulad
Schles
socker
utmärkt
samarbetet
##bilden
##herine
Auguste
portugisiska
##aje
Äg
Tach
Udde
##parken
##satser
Larga
studi
säljs
Eugenia
existerar
Aar
Drew
lyft
Grass
österrikisk
##agt
##vap
Fé
barns
Banten
Mendoza
hantera
utomhus
tonsättare
Norrköpings
inspirerade
##ein
##esor
AHL
##aniet
Power
Tigre
utdöd
kaktus
tävlar
Miconia
bränsle
##22
##amu
##inha
Keb
Rou
Väg
Was
##nämnden
Palmas
utredning
naturvetenskap
rä
Yng
##sbygd
Aven
Bird
Chim
prat
##rollen
Lhasa
intog
##arterna
##ändringar
gymnasie
##agi
##atro
##ulera
Korp
##stapel
Dalton
##stillstånd
patienter
drottningen
kanadensiska
personlighet
##âs
330
Kha
end
##junkt
##limin
##ovice
torde
inomhus
##ppel
##yton
Ens
Nora
Light
union
Linder
Teatern
effekter
muslimska
kommissionen
vinterspelen
Gäl
Lot
Löf
Set
ägo
##iatiska
bekant
##shistoria
centralt
tronfölj
Reservoir
dramafilm
290
Alp
multip
ration
Beatles
sträcka
##rosophila
##evan
Ves
båg
##värder
judisk
medier
svårigheter
##text
##ouver
Dama
Katt
##styrka
Bengo
Horse
möten
##uí
##rud
##uaq
Bru
##ygger
Burn
Scen
fasc
rena
värm
Borgå
deleg
##atorial
soldat
sättet
ägaren
komplic
ansvarar
Hs
##flöd
##ogna
##ulum
Kaf
Rim
##ilian
Class
##ogaster
Raymond
skolans
Götalands
DD
##iche
##ögon
##illan
Mara
Isaac
Joakim
klarade
partner
Kotka
Kimito
Philli
Cecilia
försökt
service
sannolik
speciali
Landskrona
##husen
##ästar
1826
Fren
fili
##lement
##läktet
Lagen
##språkig
Förlag
##undersök
brukade
introducerade
##ouia
##scen
##usta
SCB
mad
Walt
Second
bygget
orange
Constant
##ady
##hoe
##sås
##alon
##etik
##ägna
Ojo
Mind
Kungen
utsatt
sammanfatt
Gis
Kou
Raz
dia
Down
Inde
##rekord
##skonst
Saari
kirim
Carter
präster
processen
##asia
##quer
340
##ämpar
Rita
Arsen
Khallet
bedrivs
kirimoj
synonym
Valparaíso
##beg
##ppar
Pong
loka
skylt
##språket
bildad
krigsf
säkert
protest
föreslag
avskaffades
##bry
Ald
Kik
Wes
ult
Cang
atom
välg
Ouest
bonde
liter
Romanen
varifrån
högskolan
Corporation
Marin
raket
skull
Skånska
Fernando
##jat
##wak
Lia
Moz
##skiva
Mund
demon
hoppade
##uis
Meh
##obergs
läggs
##formade
Härnös
utsikt
Jonsson
Hallands
##mok
Bit
Cun
##rantz
Extrem
##alistisk
Swedish
farbror
mörkare
entrepren
Låt
kläd
lågt
##sholms
tycker
morgonen
försvaret
dotterbolag
demokratiska
##hil
##röjde
Micho
Dicran
tanken
fängelset
##oui
kid
##stalt
##synta
##ellekt
Denne
koalit
magnit
skjuta
Serbien
generellt
disputerade
##stuga
Corb
Cron
Forum
Jammu
kvant
dödade
flicka
funnit
angräns
stannar
giftermål
etablerades
we
##haer
Karel
polsk
budget
ställe
Författ
##elf
##akch
Kah
Hack
Vanc
Roland
flyger
släppa
Sección
berodde
positivt
Ål
##elns
##gilt
Eff
ROM
##använd
assister
mördades
utländsk
kroatiska
ho
##dets
##etty
##evac
##jakt
##storps
damer
##regering
Theatre
aggress
Kis
##sätta
Feng
Moss
smala
##osaurus
listas
Holstein
Lindgren
##hae
Hi
Cos
Batu
Culi
libr
genren
vinkel
hittade
Ranunculus
konvention
svid
tork
melan
spons
Bundes
Sloven
Profess
##eza
Barr
Pall
fett
##rupper
parad
foster
blomflugor
uppmärksammades
MS
grö
Dalm
Trad
frön
fullbord
akademiska
##lisk
Spen
Ward
byggs
Mindre
Ulrika
anläggning
släktingar
traditioner
strävbladiga
##ajor
Byr
Fol
ukra
##inella
lagun
Tierra
lexikon
bulgariska
##ysa
Als
Cann
Stav
Vatt
antika
##entering
##slängden
##ymnastik
##låt
##lerna
rang
Tetra
Volcán
chansen
företog
ersättning
födda
skapas
bestämt
huruvida
aktivitet
livsmedel
operation
Dut
Rus
bis
klor
##illing
##försälj
##skamper
affärer
ytterst
##versionen
nationellt
##ŏk
##ichi
Öres
riktade
Provinsi
Salvador
##örtsväxter
betecknar
LC
##emer
ment
Melan
Nästa
Arnold
hemliga
Southern
Expressen
Michoacán
Sok
tyg
1816
Cycl
opin
Cordón
tänder
Strängnäs
##acas
##varie
Pará
magasin
avslutas
##undinamarca
##valv
Gonz
Shar
Boiss
Gharb
horis
grotta
indelad
domkyrka
överlevde
##tyska
klot
vänd
Mission
bevarad
drabbas
ansluter
AC
Gaz
##ienne
Hanna
inkom
staty
##smedels
rösträtt
utbildad
pastoratet
##elet
##real
Bid
Fru
Lod
##ifiera
avsev
läste
rykte
tyskt
report
kapitel
förhandlingar
Pors
Ellen
Garet
tyske
##erligen
##ifterna
Roberts
flyttat
municip
##årskontrakt
halvgräsart
Organisationen
##ambi
##iven
##athan
##kning
1831
Clin
Rapp
hits
##lärare
akvar
oklart
användare
vetenskaplig
##aså
can
##otisk
Skarab
palats
uppdater
nybildade
specifika
Cundinamarca
tår
##iplin
bjud
sväv
##utsche
arenan
digital
Socknens
välkända
hemlighet
inspelning
##prov
resan
##sparken
Ingrid
jurist
sällskapet
##öme
viv
Roman
rekon
##kestern
##onesiska
Resultatet
avhandling
##bos
##oras
##ylum
Zen
läkt
##mossor
lätta
##gårdens
genast
äldste
##personer
rektang
Nanchang
regerande
gräsväxtart
framställning
##bäv
SP
##agas
##padd
##vind
Sop
Copa
Inre
varu
##entuna
månen
##emokrat
tionde
Musiken
avsedda
gravfält
##etens
Andy
Sauc
tyst
##linder
Berätt
toppar
##samhälle
backhopp
vikingat
Kymmenedalen
##imp
##ason
Rov
China
invad
utförd
Magazine
engagerade
##umo
Gw
1819
bakre
##önstret
batalj
årsjub
uppväxt
Liss
flor
Field
König
beväp
Gustavs
fördelade
förvärvade
översättare
##EN
##ymb
##ånds
Göt
Burk
fånga
gator
filmens
Stationen
svenskarna
tillhandah
individuella
##TH
##nata
Boc
Civ
Loh
Osk
Rasmus
Ronald
##teringen
omtalas
kvinnlig
afrikanska
samarbetade
##abaa
##omme
bevara
Nigeria
officerare
Dü
##rått
##vensk
Koch
Saab
##opteris
##verkets
konflikten
##öpp
##emia
##sfrå
##arsus
##kreis
Meck
Rhod
##itiska
sägas
Jordan
hörnet
pjäser
typiska
erfarenhet
##OR
##kvar
##sväm
Rak
1825
Laht
##remiär
avvik
Number
extremt
##imar
ped
##sfall
##stena
Ness
manu
Dolich
boskap
grafik
kirurg
sällsynta
##kä
##adr
##tur
belö
Falun
##våningen
##stationer
järnvägsstation
##elkä
##ielm
##rimin
Gros
para
Found
Kunst
fjort
stammar
utgåvan
likheter
##āt
Dod
vel
Brow
Gris
apost
pågår
baseras
Harrison
Söderberg
konkurrens
##asht
##natt
##vint
Ian
Sky
avl
##owski
##romis
Kull
Ohio
skift
kejser
##resident
befolkade
##lief
Pool
primär
Himachal
slutspel
intellekt
tillverkningen
##chez
##idus
lid
Gast
Jokk
Work
spin
Gyllen
Antoine
Castell
Dresden
förklaring
Tull
euro
fans
insk
Paulus
blomster
kristendomen
us
##garh
Lup
##Nation
Banan
princi
präglas
tillåter
##gad
##ías
cl
bus
##fågel
Chan
Hult
styv
##eister
försäm
indelta
konsthall
styrkorna
##jun
##hems
Kūh
##reras
Kill
Själva
##FA
SO
380
Hägg
Khan
Schön
vikten
favorit
verklighet
水
Ik
##onser
Dala
Lost
Madh
chans
Nicolas
förkortat
山
Nash
##cester
Sture
##inosaur
höjden
##ological
Ekvatorial
##väv
##acia
Dou
##dömet
##knott
##strar
noggr
##förklar
Wagner
dröjde
flotta
bredare
kidnapp
lo
Cten
Åter
tvätt
Breton
Zetter
utförs
långsamt
separata
pub
##hjälp
##huang
##naren
##träsk
1792
Lika
##tidens
Nepal
unika
Barbara
Nouakch
##röstningen
representera
DN
Oj
##chis
Cry
åld
1813
Look
dras
Elits
Monro
Precis
utfört
##sprojekt
syndrom
svenskar
Sigismund
europeisk
sjukhuset
Nouakchott
biblioteket
##iap
##alth
##berger
##derade
Kimitoön
Vancouver
##alg
##öka
Ow
Swe
fjärd
Stuart
##festival
##ningsför
alfabet
lärjung
förhållandet
##lax
Toc
##inett
##åkers
Gred
##ryckte
kansli
omlopp
Service
##bräkenväxtart
Ekvatorialgu
##eij
##arivo
##egård
Chiv
Mull
##kommun
##livare
##uminium
Oromia
nordisk
röstade
jordbruks
svidknott
##wo
##iot
##nekt
102
Moc
Tess
Kraft
Vegas
crass
##ualitet
##hängande
bidragit
universum
besättning
landsbygden
utbildningen
##uto
##inae
##onna
##ioxid
Casc
frim
trum
##ostoma
Sigur
##uppdrag
avgöra
invald
Särskilt
sakristia
förtroende
##slan
Hou
##ardin
##iidae
##revet
##saken
Hind
Mast
miner
Cayenne
Gangwon
angrepp
friluft
negativ
Mitchell
deltagarna
##jep
##alais
medi
Hunan
Pablo
Qornet
publicerat
tje
Haut
hert
angust
offentligg
successivt
##65
##mad
Dall
Stål
##eterna
##illera
skrivs
dirigent
elektrisk
restauranger
manusförfattare
##karl
##mour
Kod
Sit
glöm
Felix
Hotel
socknar
Örnsköld
upprepade
##reso
##skus
121
kår
##iklar
Elsa
Sold
Meyer
Perry
Store
rundan
förlägg
hustrun
närvaro
regissören
##skra
##usia
Tred
Wick
assoc
Morris
flyttas
##alisering
rättegång
##liss
##ulon
Hör
Xen
Force
sympt
##jänsten
Hansen
timmer
Merrill
utrymme
kalfjäll
kontrollen
##åp
##rox
##pera
Dir
iri
##mossa
Glad
Hund
myeon
Bridge
Canyon
besöka
Simpsons
alldeles
sittande
tillverkar
##sla
##otria
##maskin
##stjärn
Nacka
infra
##ocladius
ställer
påverkas
##antikvarie
##dez
##itla
##oser
##åsen
##sterb
Aber
Azul
Timb
loss
oblig
Spencer
rediger
uniform
Gyeonggi
föredrar
medicinsk
SD
##jaur
##esjön
##oning
Brid
Kevin
##rörelse
##partiets
ryggrad
Oberösterreich
Clar
Disc
börd
Chama
Dagen
Wester
konstg
##omycetes
Folkets
statlig
##ué
Grä
##oberg
1827
Guard
Negra
Zhang
scout
##lexikon
center
pendel
Nielsen
bröllop
erkände
reformer
kontrollera
##dah
##say
Cé
Wim
##yttan
Namn
slöt
Front
Alaska
räknar
##steuropa
bildats
periodisk
##yps
##öken
##anica
Kass
##backen
##barhet
##coides
Benin
bidrar
samlar
##ivisionen
Lettland
personlig
Amerikanska
tillverkare
##änga
1789
Kejs
List
Pick
Piteå
revir
återb
Uganda
commun
kanoner
kammaren
Hul
Rör
Sche
##vikens
plant
sjönk
meddelades
##fång
##harina
Miljö
föran
##elleborg
beskydd
distribu
ovanliga
palatset
påverkade
Prefecture
##GA
##manna
##spets
Posten
##spartiet
ekonomin
tekniken
verksamma
återvänder
##jära
sad
Nees
Nedan
branden
argument
##phy
##wat
SL
il
##ingi
##vägg
dyr
Esen
sålt
grunda
medför
kunglig
##āw
##gol
##zas
##iane
##illus
##värld
önsk
##otepec
hindra
marsch
tyngre
Berlins
Mälaren
##ssystemet
digitala
uppvisar
specialis
Cá
Vet
avt
vent
##kunnig
##ulipas
högra
Terara
##konstnär
orsaken
reflekt
tusentals
##ühr
##here
##sher
cur
##stach
1822
Muss
##åkning
Jiangsu
Pereval
##fus
##hot
dök
Guer
Stri
jämn
finan
orsaka
##Sveriges
koppling
Tamaulipas
fångenskap
komponerade
##FF
##ON
##bock
##lian
##nier
ast
Tower
varar
veter
##olinska
Franco
barock
indust
nässel
Thomson
Trinidad
##nez
Qui
##ismens
##mässigt
##skeppet
Cuesta
typiskt
Gällivare
##icin
Arc
Pam
##moder
##track
Rune
span
Norsk
Unter
kommend
domineras
illustrat
Kalimantan
##hes
Dup
aff
##istans
Cerat
skilde
föräldrarna
författarskap
##aby
370
Satur
Fisher
trettio
bestämma
producerad
##bah
##änt
Äm
##byggt
##nader
Shen
Marcos
Matthew
riddare
Wolfgang
Björneborg
moderniser
Agnes
##uckerna
vagnar
införlivades
oleanderväxter
Cut
Natt
Broth
Pieni
##borough
hänvis
Antanan
##skrivning
stamområde
##iles
pin
##teris
Berb
kult
färre
besitt
kolonier
sexuella
partierna
##arro
Bij
Tes
Wor
ris
##flick
##ktion
Bruno
butik
kördes
Lincoln
Litauen
Antananarivo
##ehör
##ppen
##krets
Ryan
##illeri
kolla
action
hämtade
Esenbeck
förlaget
försäkring
inspelningar
##TS
##eft
##gal
##opal
Rig
##ysant
Base
##karriär
exklus
##föreningar
nordligaste
##tla
ful
Plag
Tier
elit
syre
##kommen
Brach
Islet
stått
förare
Rosario
folkmusik
ämb
Trig
hälft
runda
Watson
##spelaren
Kop
Pom
hyb
1758
1821
##regler
Cliff
Sarah
skuld
Samman
Termen
visats
etniska
föreståndare
##hm
##tea
##ondi
Chir
Bonniers
Huddinge
ingående
förmögenhet
ni
dags
Islam
##punkter
Highland
Lundberg
kritiserade
##erh
##čka
##artz
##ofta
122
MacD
##bilder
##anterna
Nazity
närbel
##ografisk
skånska
vänstra
##odactylus
Boissier
Evangeli
##nea
##viv
##ilda
##nitz
##ovica
Lily
gult
Malin
##okument
Kristi
##uppgifter
bostadshus
##kur
SJ
##elou
##ieri
##offic
Bath
Krok
Child
nionde
yngsta
Harvard
Villman
fälttåg
mynning
ambassadör
populationen
Jup
nob
näs
vas
ödle
Adolfs
männen
antagligen
undervisade
##eko
Aq
##assi
key
##regiss
##odendron
Schlech
progress
##distriktet
Nazityskland
##arc
##hold
##ussa
Kut
Nordir
auktor
##uropeiska
intresset
lanserade
praktiska
majoriteten
förutsättningar
##anh
##gau
Himm
Wied
##växten
utdel
##ervatet
Neapel
Trollh
Världs
##sköldlöss
grupperna
regeringstid
##lect
##ökar
Eth
Heb
Koz
fra
tam
Bong
grus
kali
##unneln
Erich
spred
##strands
Fuzhou
Luther
Marcel
dubbla
upphäv
Kvarter
Michigan
inkorpor
pågående
rapporterade
##ïa
UN
##ahan
##speg
##ères
##hagen
Master
danske
Simpson
bostads
##samlingar
Connectic
##våg
##iför
kärr
##gårdar
Ceder
Helen
klarar
##örtsväxtart
strävbladig
århundraden
##75
so
##utet
124
##skole
##ungna
Calv
Gale
symp
##roller
väggar
därtill
tekniker
koncernen
fladdermus
##yna
##icana
Edin
##chefen
desto
Högsta
Zapata
##forskare
Branche
Svensktoppen
fastställdes
##lio
##sval
Ted
Pehr
corn
holm
iakt
##linger
##onerna
Lahtis
##jukdomar
##ryssland
Christer
frekvens
gymnasium
landskamper
PS
##aras
Oce
Râs
##hallen
skörd
vuxit
##onenter
ateljé
hållas
utgjordes
Tjeckoslov
cor
Trom
Kambod
bollen
##sprodukt
företags
magnitud
maskiner
##ici
comp
löst
avdel
spreds
stenen
Englands
tjänsten
översväm
stenåldern
tillkännag
##dou
##emus
##yrer
ryt
Proc
This
flyter
##följande
siffror
demokrati
##īl
##rup
##läkt
Gong
Holl
Pizzo
Släkt
känsla
Trelleborg
republikan
sw
##bered
Beau
Vand
Ving
##dingen
agent
bebod
Garden
Pushtah
katolsk
##löts
Amp
Wir
##asien
##blick
Ming
##ägarna
konkur
Florens
behovet
##fat
##anal
##itiv
##omya
Ork
ståt
unik
plund
Charlotta
studieresor
Zer
slo
##chang
1817
hier
Blues
Quint
##iformis
sociali
gymnasiet
erfarenheter
##ća
##ipan
Sis
##nandet
Chalm
Serie
miljön
motorcyk
Psychotria
komposition
##ieu
Dab
cup
ägt
##ocker
##banken
Einar
samlingen
##utgå
Gel
din
emb
1803
Riga
##eplats
##stemän
greps
hjärta
införa
svårare
kvinnorna
dro
##ardig
##artid
Chem
Golf
Half
anti
##jukhus
Haute
Norrt
Parry
Schmidt
Moluckerna
##stadsregionen
##etisk
barb
nack
Denis
##krypare
Clarke
Detroit
Jerevan
verksamheter
##ât
##usp
##vir
##adet
##parti
Year
##östern
insåg
läder
##klassen
Fraser
Idrott
hundar
nutida
ödleart
##forskning
##historisk
##producent
liggande
ögruppen
levererades
##yat
##exped
1807
Kuus
##atepec
studiet
folkhögskola
##uls
##quez
Jat
loj
Plac
Vest
önskade
##ulationen
##glanssteklar
##esta
ash
dan
1780
##gensis
Adrian
Uruguay
variera
Franklin
grafiker
skulpturer
fastigheter
oleanderväxtart
##cl
##haw
##infl
##ators
mete
##ekanis
Blanc
fjärr
siste
##äckande
Bibeln
utgick
Mercedes
Aït
##uncil
Beni
smör
##ektion
Hyper
Svarta
öm
##umbo
##alpus
Namb
Trop
##hausen
##sätter
Baden
åriga
##peratur
Parker
träffa
##spolitik
Västerv
hästarna
stationer
##mb
##hak
##acha
##elop
Haz
Poh
##onden
Deux
down
##försök
Keith
Klara
bensin
indonesiska
##eco
DS
##asis
##link
##orial
##ifrons
Birch
##rationen
perfekt
Paraguay
Magnusson
datorspel
helikopter
Anledningen
##ripa
##soni
##uron
Bey
tet
##egraf
Torp
Debel
##antverk
konung
vingar
Jonathan
Norrlands
problemet
angränsande
##gro
##ifa
##rén
##vat
Gla
Gamm
##samman
Diosc
listar
nejlik
Staffan
##kraftverk
konstnärlig
föreställningar
123
##andro
Dion
Douk
Fest
Tack
fött
Olika
utsåg
##skrivna
betecknas
##ckar
##ubel
##valda
Crow
Kind
rosa
##lassen
Motte
Nikol
fästning
##idy
##jou
hip
##armén
##ognit
Tank
##genting
##mängden
##projekt
hemmet
utbröt
tretton
kronprins
försvinner
förvaltning
utgångspunkt
Ket
Marl
Piet
Google
Mycket
strikt
Piedras
stipendium
chefredaktör
populationer
##quil
Tum
Whe
pröv
##hammar
banor
Harold
förbli
##ammation
Bahamas
tillträ
kategori
influenser
Bottenhavet
##EA
##ffe
##him
##tim
ga
##etal
##ucan
##witz
##onten
strå
##illade
Rouge
##erierna
Coquim
hittat
turnén
Arizona
evolution
nominerad
uttrycket
befintliga
##hk
Oy
1806
Dave
mäst
stilen
seriens
storhet
marknads
kräftdjur
institution
##ām
Lj
Lut
Uleå
moss
aspekt
Slottet
studierna
##chia
##esis
##kron
##opod
##spark
Grev
Hämt
hals
tour
##eleskop
godset
dittills
Bengtsson
expansion
Härjedalen
##umer
##emoni
Five
Marx
drän
lind
Praia
spann
Inspel
Medelp
Schult
utnämnd
Älvsborgs
presidentvalet
väp
Chef
Raven
gravar
##förenings
Sebastian
effektivt
Sällskapet
##etus
##ways
alp
What
Xbox
blek
terr
##upaten
rörde
German
Heilong
fuktiga
hjärnan
svampart
familjens
felaktigt
##lom
##pre
FM
##oula
rim
##klund
##spoli
drama
##ematang
anföll
kapital
krigets
##agd
gam
##ostad
Hope
##espond
bakåt
föder
Singap
härled
typisk
Pematang
striderna
fågelarter
arrangemang
schweiziska
##ET
##emo
UK
##rens
Brin
Buyu
Flag
##vensen
Chart
pälsen
Förbundet
lägenheter
##oge
##otea
##vidd
Cum
Tör
Gagn
Neil
Rail
##erräng
Martins
##åts
Yam
kris
saga
Koppar
Cameron
färdigt
människorna
uppmärksammad
##neum
Iss
net
Kiss
Vari
cert
##järden
##nation
##sköter
Chaet
annex
Standard
existens
fartygen
##ynt
illa
skål
Helge
Karls
##forskar
underb
##aregionen
skandinav
1811
antis
Steven
Singeln
##regemente
kardinal
hemmaplan
Rö
##grod
Joy
Råd
##ystet
blått
varma
##terande
##utskottet
ansiktet
Cordillera
värdefulla
##foni
##vitt
die
##alypt
##sbana
Nort
Träd
matt
vals
ägna
enorm
##ulturen
explos
nedanför
slutgilt
statligt
allvarligt
##embl
Nes
pra
##adura
1823
Groß
Kitt
Chand
Jenny
entré
mötes
##aliteten
Coquimbo
bekräftade
Cyc
##smask
1801
viol
##avel
Ish
Ses
##ellit
regul
Människ
uppträda
decennier
sockenkyrkan
##uds
##chel
Ili
Biel
bero
Racing
Warren
försågs
Uddevalla
Heilongjiang
Hig
Gård
fril
Derby
handen
samlas
Torsten
länsväg
vinnare
förvaras
värnplikt
Landskommunen
q
Elf
##annan
Bale
Muse
##äcktes
växel
Benito
behöva
broder
lägsta
Normand
avlidit
fornläm
normala
överklag
flygvapnet
målarskola
##hov
Mua
Sli
Tej
##manni
kras
prost
Jensen
granit
##sprocess
Jönsson
brittiske
##gow
##lee
##inac
Jum
Lyc
##fullt
Jess
Perd
Sign
mäta
##fordon
Burni
index
skaff
timme
Peters
##förinnan
kapellet
karaktärer
Muc
Tac
Tax
Most
hyper
svagt
##tagande
##unition
Monica
vinner
hertigen
Elitserien
##ersk
##spat
##chard
Främ
Thun
Claud
Dance
Viking
pojkar
Kyrkans
egendomen
processer
Sundsvalls
##set
##ikum
Tyl
valv
tyngd
Tredje
hållet
kriter
ljuset
Stevens
avtalet
Skaraborgs
allvarliga
upprättades
|
##blå
##hat
iv
##asso
##laga
Gay
MTV
Ula
enz
lan
##eptet
##odore
Garc
gris
##roppar
sväng
##entliga
dikten
begäran
uppdelad
kommunens
SI
##ware
##assan
##ingst
##ouine
Nors
kund
oavg
pund
##oliska
##stiska
Priset
uppkom
kärnvapen
praktiskt
partiledare
huvudbyggnaden
##åla
##erin
pig
##ehåll
##linda
Hjäl
##länder
##sklass
Gordo
uttag
planerna
britterna
390
fla
##icera
##jorda
##leton
Möln
exem
affärs
misstag
dominerade
Pt
##sbro
edu
Sved
Eagle
gälla
ljusa
margin
medaljer
##zj
Bec
##derar
##roman
##rädes
Stro
skar
tänd
##museet
##unungan
Castor
attrakt
##alam
Girl
Näst
Spår
hatt
Betta
tvång
##etscher
arbetslös
Gn
Orm
Pyr
Pär
VIII
bäck
skor
Coron
expert
sonson
oblystet
försvarsb
##Nationalmuseum
##iw
pe
Div
Hawa
Köln
fysi
##manska
Kvinn
Köpen
farfar
säteri
manager
Reykjavík
Riksantikvarie
##pez
Ic
Bié
Und
Blas
köpt
leuc
##outube
ornit
Mohamm
arméns
utgåva
##fjärilar
Chaouia
Deutsch
Cornelis
avsevärt
kungariket
restaurering
Sovjetunionens
##bind
##dale
##rish
##skyd
##ulco
avf
äpp
##andong
##släger
Albin
Malta
propag
Trollhätt
medverkan
##bres
##edad
##orio
Fro
Lug
##föret
##kåren
Klubb
Liberia
Ljungby
IC
##icht
Eug
Nur
Tio
Bamb
Manz
sitta
stamb
bryter
Fartyget
Progreso
##historiskt
aluminium
Pegunungan
utgivningen
##sti
..
##asen
##igua
134
gyll
Dream
gudom
Sundby
kartor
##orkester
Arbetet
experim
staterna
händelsen
<
##ämnd
mos
##ospel
Blomm
Latin
##ellidae
##steknik
##usiness
förbjöds
existerade
Dc
##räsk
...
Bulb
adeln
Dubrov
byarna
besegra
utskott
Kristine
regisserade
##efl
Jy
ez
Jel
Tod
hop
jär
##rikas
##issima
Villan
Munster
skickas
sträckte
Edinburgh
kontinenten
##fu
##lust
fog
##bilda
1793
Kach
##ardigha
Passage
erbjuda
##iregemente
Ouardigha
stiftelsen
säsongerna
##esch
Aro
##ector
##trans
Morg
tagg
##loster
Metal
Ralph
teman
##lenburg
morgon
Montaña
riksväg
sorters
upptäckts
tidpunkten
##hin
##ème
##fakt
##plat
Eld
Liu
Uno
##ikens
##skick
Carn
Siri
Danau
utnäm
medelh
Kambodja
Kingston
trädgårds
utvecklar
studentexamen
##dikt
133
Dyl
1770
Nari
Samm
möts
##aniemi
##färgad
##ylland
Franc
Rayon
anark
mäter
amarant
försedd
##eley
##elis
Ohl
##rista
##igaste
belägg
arrangeras
dvärgstritar
singellistan
Konstakademien
##85
##fera
##pend
##plac
kred
##olycka
Death
bomull
finlandss
##com
##lär
##roy
##tus
##onte
##ultan
##entlig
Parac
Param
Gården
jordbruket
##TO
##shi
CS
##yoff
##önen
##assau
##linga
##rings
Martín
Plaine
cirkul
slagit
##andarden
vanligast
##sprogrammet
Nordirland
##ijk
##uks
##öna
##ices
##lakt
##leys
rat
##onting
Oruro
##orummet
Foster
kurser
restes
ungarna
##aterialet
medlemskap
##AB
##igny
div
Anat
Tree
arch
lörd
beund
möjlig
schack
uppfin
Galicien
Connecticut
##hill
##isto
Dul
Emb
kin
##riser
1805
anor
lejon
utrot
Winter
##handling
Platsen
Pristim
musikal
##hab
Zü
Agr
påp
you
##berna
Earl
Rush
Clear
Space
Arvids
syftet
ledaren
Projektet
Sarcophaga
Tl
yr
Inger
fylke
högtid
skelett
Universitetet
##rt
##glas
Swan
##aktion
##slutet
Ensen
buskar
chefen
Västern
country
ovanlig
Encyclop
lägenhet
stadsfull
##86
##cz
»
##oly
Cli
Ole
quad
strim
##färgade
Akadem
Hudson
bokför
holländ
residens
producenten
visserligen
Kristianstads
##fäst
##iman
##umbi
sab
1775
1794
Unes
pist
##arsson
##ningsk
##ulatum
jagar
Sibiri
natura
Carlyle
##strafiken
ryssarna
uppvuxen
Hat
Hut
##ación
##nberg
##porten
tåget
Escond
Metropolitana
##oran
##orpha
1802
Djup
##hästar
immun
Johans
Leslie
stärka
Kärnten
förenade
militären
tillhandahåll
##89
##iton
##ämne
Ice
##uquén
Fitz
##eloupe
Kungl
syssl
Council
Georgia
Vladimir
misshand
underlätta
inkluderade
##very
##irect
earl
##ivitet
Acanth
säljer
##fabriken
Tidning
##each
Yog
##eijer
##passa
1804
klas
väte
Ouâdi
skade
##räcklig
Potrer
juridiska
accepterade
##ryn
##emix
rådde
##ändring
utslag
kritisk
generationer
Gär
Gymn
##onomus
Bergs
della
dynam
##orterna
astero
skaffa
antiken
tillika
landsväg
noveller
utnyttja
planerades
rättigheterna
##pot
##adan
Uri
##alapa
##iansk
Dura
Webb
etik
Fracc
Venus
snitt
Sophie
Fischer
skotska
Ensenada
amarylli
##apo
##litz
##umma
Börj
Forn
sena
##esiska
Stars
anten
avvis
Catharina
EC
##ehov
##gest
##mers
##ramp
Hex
Cear
From
påsk
##astrof
Kring
Nicol
innov
Saimen
Springs
##ynn
HD
##pack
Dys
##court
nätet
floder
marmor
Statist
interna
skeppet
uppslags
##entz
##gogae
1750
Chat
Kand
Nanj
balk
##strong
Blood
läget
heltid
##dynastin
Stadens
aktiver
Dubrovnik
Kronobergs
##íos
750
Näs
##slund
##vävar
Turn
Îles
##kandid
Delar
Skogs
ringa
Astrid
Warner
handeln
kommitté
kommunik
avståndet
premiärvisades
Ó
##avy
##god
##load
Ist
##cipen
##perma
Tich
palm
##iskops
Harvey
Indiska
Kenneth
boplats
förändras
Strindberg
automatiskt
Fredrikshamn
##sler
Suz
Brist
Evans
skand
differ
distin
puckel
rådhus
gradvis
räkning
avdelningen
anläggningar
journalisten
##IN
##osi
##abon
##unch
##uvor
fos
##ultat
Ceará
Court
Kuala
##amiento
Hammer
Junior
svarar
Navarra
Rolling
Världsm
ansikte
husflugor
uppskattas
befordrades
konstruerade
##79
库
##ipe
bio
sop
vap
##skyrk
Mare
Women
bröts
konsp
Diablo
besökt
##redningen
Damaskus
karakter
kategorier
närbelägna
##ript
Doub
Genè
axel
##våning
Våren
##handeln
Malawi
civilis
utvecklings
##alina
##ydnad
1772
Cien
Barra
slump
styrs
tänker
Emanuel
pressen
Barranco
effekten
industrin
försvarade
splittrades
mästerskapen
##ays
##kore
##lieb
##mare
##smus
Lamm
pors
##ferens
##orsäck
##stugan
blott
pojke
Andrea
neutra
fortsatta
beslutades
inflytelserika
##jd
IO
##alag
Pis
Banj
Cayo
resp
tort
invid
##alyptus
Fabrik
Office
##hastighet
filosofiska
uppslagsbok
Eb
##idos
Nog
Wis
Åre
##miljö
##orrar
##sdjur
Krim
trög
##utöver
Gully
Seger
Shire
Planet
Pueblo
bränsl
sexton
##yndighet
koncept
nederlag
principer
##qiao
##äten
##éerna
Hier
Mili
Mjöl
##arerna
##ektorn
##hundra
##sträck
Inget
Laura
Piauí
skämt
emblik
nyckel
allians
Emiliano
keyboard
utvecklad
förbindelser
##avan
##rank
##shög
Luz
dagg
##ingart
Medio
bruna
sänds
uppstå
senaten
Chalmers
##institutet
##roch
##ägar
Aou
Nep
occ
##agram
1776
Chac
Sitt
Tian
golv
Gudda
avses
berätta
Deutsche
horisont
löjtnant
bakterier
##struktioner
Saarijärvi
besegrades
centralort
betraktades
marknadsföring
##xor
pi
Who
##olata
##endens
Någon
##rikansk
Landet
Oskars
föresl
omgång
ceremon
planeten
tillhöra
grundarna
##atj
GT
##angs
##ated
##etia
Ard
Ske
##sviks
Isak
rymmer
ökande
Utanför
sporsäck
Nationale
Karolinska
Statistiska
registrerade
temperaturen
fo
fer
Isle
Rode
Tint
dens
kross
##ollegium
English
Zemmour
direkta
klasser
Warszawa
biskopen
begränsat
eventuella
Östtyskland
färdigställdes
Tjeckoslovakien
##ukk
##otor
##öten
Opp
reb
ära
##iceps
##äsong
1760
Ophi
over
intern
vapnet
##skarriär
medveten
intressant
##acus
Asc
Läk
Ved
##saker
1795
Qark
Rest
bibel
##gränsen
##jänster
Utbred
formul
lagets
Caroline
Lepanthes
skilsmäss
biologiska
##see
Ub
##enda
##utus
mes
##planen
Ahmar
Opera
Pedra
present
upplagor
lösningar
förlängning
lagstiftning
##uktu
##cheon
##ombin
##trakt
##ührer
Hast
Kiev
Lima
yrke
##idsomm
Baron
lärar
##brottet
##iderade
##kanalen
Record
Stjärn
ingång
Caribou
Jokkmok
planerat
tabellen
##uko
Baz
##sträd
Farm
##guvern
##sbergs
Casas
hälso
Campana
Kerstin
Schwarz
jordbäv
kolonis
lämplig
Jokkmokks
testament
Guadeloupe
trädgården
##ields
3000
Abda
Igir
Zach
skym
India
Patri
könsm
##ografen
nämner
patent
Nacional
passerade
uppfattas
svampmyggor
##âr
##opo
##matt
Fès
dur
##graden
##märken
Holmes
##ochromis
utlandet
##utbildningen
##havs
Thé
hat
Estr
##idning
Apple
Tukad
Ystad
vända
##amatcher
federala
upproret
Mellanöstern
##hwa
##quel
Taw
Yan
fund
munk
##nament
##tendent
Burkina
Network
Ungefär
bromsar
##jia
##qua
##öga
##fack
Sas
##ophis
Bola
Bung
Mask
Pard
Lorra
Trond
Guilla
Rudolph
övertal
erkännande
livsmedels
Dw
##mari
Pag
##emane
##jande
##resor
Slov
Tell
kväv
##crantz
Klipp
retor
smärt
stred
Verket
spekul
krävdes
##abe
##svä
##orne
##värn
Anc
Ceb
##ovača
##uston
Rach
Rico
Soul
Wolo
brin
##formad
##istent
Rocks
Stors
Austin
Arterna
##regeringen
institutionen
kompositioner
Rä
##vala
##zane
##allis
##erara
##oplan
Dest
Ljub
pale
##agarna
Sista
Tings
ritad
Öarna
##antalet
tolkas
begärde
bokstäver
framställs
högkvarter
##ains
Chu
##imbab
team
Födan
vertik
Mirador
Nikolaj
keramik
fattigdom
##kok
##opia
Håk
Kore
anda
flex
##bryggan
förnäm
förmågan
muslimer
##seg
##dans
fan
##inton
Bari
Stark
inser
utses
analog
dagstid
återstår
Armstrong
låglandet
mekaniska
värdefull
Västmanlands
##rí
##lea
##äns
##ancy
##ogne
##trän
Sadd
Seco
bast
##iensis
Earth
bekän
Parque
Rodrig
passar
Allende
Vadstena
omöjligt
musikgrupp
##non
pp
##chan
##isser
##ramid
Chip
pend
krydd
Niklas
Collins
uppförde
Palestina
inledningsvis
##vida
##accin
Dans
Haga
däck
ansträng
socialistiska
##tti
Kai
##manns
Dona
heta
Burns
Piper
Porter
söndag
grammat
Bretonön
disciplin
holländska
##ēr
##anu
##alik
Pus
##sbild
satsa
semin
mobilt
Country
justiti
samiska
skyddade
välgören
Carpenter
motsvarighet
##hla
##röd
##āra
##avia
##ktig
##mets
Wei
##ifilm
##lunds
Förd
Ulla
Rainy
##jukhuset
Augusta
Jupiter
någonting
##ningsområden
observationer
##opan
Raw
Vat
##nsjön
Arte
Rund
Unga
Neuquén
##shuvudort
Engelska
##utrustning
protokoll
rollfigur
nederländsk
förhållandevis
Éc
het
Ång
##ettia
Forb
Guaj
Günt
Kell
Kemi
##alister
hemlig
önskan
##strömmen
Företag
##zzi
förfl
Forcip
Smålands
inledande
tunnelban
##āb
Fou
Arri
Lion
##branch
##rostis
gäster
samord
##sproblem
indelat
föredrag
hårdrock
förväxlas
Riksarkivet
utmärkelser
Pristimantis
underjordiska
##othy
##sprin
##ranter
Gallo
##ländskt
sporsäcksvampar
##cup
Ferg
Luck
Samp
Tart
Törn
##ansvar
Ahmed
Monts
Adolph
Montré
Thelyp
krönik
ordens
villor
visste
Tävlingen
##swald
öfver
Devils
inleds
fördjup
Francesco
situationer
##vävarspindlar
##ekv
##gua
ug
##rach
##uger
Tut
1660
Faso
karp
mell
räck
hände
ormart
Ferrari
legitim
##hir
Lay
Neb
rån
##perto
Grey
Nouv
Vinn
Wend
Dongri
tiotal
##ymnasiet
Bonnier
Catherine
resterande
Cua
Cul
Fut
Lus
Sán
##oloph
Verd
##vården
Roche
annons
fysisk
spelad
Förenta
delägare
irländska
tunnelbana
##säg
##ibel
##orax
##itarr
##serar
1791
Inne
Munt
##målare
Carex
Conrad
jobbar
Doukala
Mississ
Medelpad
trycktes
vinnaren
Handlingen
##ša
##ouse
##ådet
Rok
fjäd
##eville
Enare
Kourou
kammare
fullständig
##eros
##unct
kyr
##erton
##quetá
1797
djupa
huden
series
forskar
densamma
tävlings
premiären
Köpenhamns
flyktingar
##äsk
##akam
##atti
##ists
##käll
##onal
##utor
##vila
Clair
okända
Mattias
tvungna
stjärnan
upplösning
representation
Ló
##tare
##unde
Toy
##anner
##ognat
Labor
Techn
hanar
##vattens
French
syntes
missade
##ournalist
komplexa
specifik
överstel
sträckning
Tä
##grim
##idig
##ljus
Kör
Boys
##hållit
##grundet
##ography
Design
anlägg
livnär
Norfolk
penning
##fördraget
Spaniens
kritiska
sjukvård
betydelsefulla
PA
ss
1680
Free
Lach
Vran
##unionen
vänder
Jungfru
kommersiell
utmärkelsen
##dia
##ishi
##orte
Dao
Job
Osu
##sprid
Hain
Sham
Stol
##läkare
prick
Maurit
Texten
synlig
Ålands
Redonda
skyldig
spridda
Norrmalm
släkting
municipal
ammunition
##ws
##lyn
##alco
##göta
##igar
##klot
Sle
ond
##värde
essä
gumm
Alban
antar
mörkt
ramen
##edralen
Pommern
framträ
Montreal
överleva
Mecklenburg
omständigheter
HK
SR
##ives
rug
Mers
Summ
hack
##doktor
Bränn
åklag
Hunter
Somers
##föranden
Fraccion
förknippas
Forcipomyia
Fraccionamiento
##häl
##stå
##väsk
##gaard
Pomp
##castle
optim
trött
överd
##araktär
Valais
balett
korsar
##maskiner
Muaskar
Rangers
Separat
Dalmatien
##avdelningen
##kå
##qq
##höj
Dil
##emora
##nerna
Lanc
bull
kört
Burnt
Olden
Karnat
Potter
psykiat
belgiska
ersättare
administration
##olds
lyx
nöt
Cheb
Dist
Ebba
Jang
Mate
Nina
Tech
##rätter
Arden
Valet
Samhäll
elegans
orsaker
ingenting
konstförening
##pop
##sah
##yga
##zin
Ey
öd
##cata
##ialt
cat
Plant
Trout
arist
expon
placera
primära
praktisk
departement
##BI
##llo
Hü
##enga
##orak
Maw
gig
##spels
kärl
##männen
Craig
Hwang
akust
gårds
Sparre
dispon
hannar
längden
##76
##bre
DJ
##chon
##ethe
##ulan
Pok
Sob
Heid
häft
##uktion
Matan
##agement
solens
bosatta
övergår
diskussion
händelserna
Bulbophyllum
ec
Pari
##imedia
##stedts
blues
punct
Jyväsk
Nassau
Utveck
fantas
##iskaming
kommuni
Brothers
invasion
stiftelse
Kk
käk
meg
##ussar
Priv
byte
fina
##estads
##lägsen
bibli
fusion
norske
närhet
Günther
brorson
medverka
##försäkring
Lindström
konstverk
riksrådet
tillfälliga
##enk
##ims
##cula
##gart
410
1788
Ramb
Serp
##berlin
##uppror
##vampar
##vinnan
Marit
Caquetá
Sevilla
Dalsland
kvinnors
Kvarteret
trädgårdar
Reichenbach
##oum
##smo
##osom
Disco
Pleur
Sigurd
blodet
fiktiva
omfatta
tjänade
dinosaur
akademien
föreningens
ull
Ston
Tuna
regga
tenni
Erioca
partis
statsk
uppvärm
innebära
inträdde
kulturer
fokuserar
##jab
##oxid
##alens
Bish
Carr
Gorn
Halv
Pozo
bärs
gros
Passe
##ococcus
Rijeka
flottilj
framförd
utgivare
Transport
förlängdes
##löf
##anah
##enac
Cru
höv
hört
##analys
##ianska
kungad
ändras
##stjänsten
Chongqing
Karnataka
beskrivits
kejserliga
##amor
Cyr
Juv
##rigen
Marb
kond
Edwin
Boyacá
Digital
adlades
assistent
konstater
Västernorr
hundratals
reservatet
Rox
kak
nye
##fläck
##utrym
skarp
hinder
Wallace
omarbet
Gottlieb
föräldra
medicine
klockstapel
##44
##lil
##thys
##ulta
##ätra
HMS
Jal
bot
Ätt
##obben
kold
##räkten
Dennis
kvalet
rymden
Stadium
generalm
gracilis
Jyväskylä
Slutligen
Foundation
Vitryssland
##bott
Pog
Tup
nåd
##oklad
Hatt
Sony
bonus
tobak
Markus
Zimbab
kacker
kulspr
reager
kackerlack
karaktären
produktioner
##DF
Sup
Baby
Este
oänd
##oniska
##skning
gröns
Galile
Toledo
styrde
Redondo
utställ
kvartsfinal
pseudonymen
administrativt
sammanhängande
##äc
##anos
Mai
Rhen
hämta
dialog
handla
slavar
stycke
Därtill
bedriva
brändes
globala
Rysslands
innehållet
reformationen
##kr
##ple
DDR
rät
Oxen
Poll
Jerry
Nabaa
##byggdes
##ografin
##stjärna
sänder
mångfot
historie
föreställer
övervägande
##AF
##vol
ank
##ulans
Pict
vore
Gudde
Schne
försk
väljs
Fuente
Pälsen
djuren
terräng
乡
##obl
##ränd
oms
##oller
##unnen
Pack
##operan
skönhet
exporter
reglerna
Timiskaming
##icta
##omar
##rida
Rég
Luer
##ungens
nytta
trium
Sports
konsult
Bröderna
Montréal
Nyköping
Providen
serierna
Slovenien
ockuperade
##dör
##uey
##hoff
##icia
Cib
Gary
Hero
oliv
Edgar
Vella
Gibson
färdiga
Broadway
indirekt
Boulemane
katalanska
##IC
##göt
Liz
get
##edral
##egren
Hern
Häss
Kart
Luke
boll
##minnes
båten
ihjäl
valen
Amerik
helige
fasaden
rovdjur
noterades
utrustade
inblandade
åstadkomma
kandidatexamen
##èn
Mp
##fish
##lion
lax
##eform
##medio
Kalk
Lise
pred
Längs
franskt
Lorraine
alternativa
##ohn
Tv
##ensp
Ged
Khen
##ential
Brita
Lejon
Tunis
Special
främste
släppts
argumenter
nä
##bing
##orse
prä
1796
Bing
Chry
Haus
Prop
korn
##ruppen
krans
##avtalet
##änderna
Malabo
öppnar
Osmanska
specifikt
##td
##opl
##emit
##båtar
Turt
vilt
##äckten
Bahía
buken
administ
##PA
##avu
##nev
##ebro
##hara
##ifta
##lica
##spec
Nyn
Såd
Graf
Vert
kosm
lukt
genre
omges
Heliga
Pedreg
Cerrito
provisor
puckelflugor
Fan
esk
jub
##essee
mört
tviv
##skador
Frost
Soledad
kämpade
övervint
Eucalyptus
##eves
Bess
Händ
Mona
ende
puts
Eddie
Nordens
avsluta
elektric
flykting
Extremadura
geografiskt
##TC
##aldi
##amph
1799
Nott
rall
##amanca
kopia
Petite
Utbild
benämnd
detsamma
mångfald
##sprocessen
grundandet
##arda
##ifte
##jade
##rana
##romy
dek
##emark
##riker
Giro
brud
Reyes
fräls
Santos
uppgav
##ospermum
Lycksele
årsjubileum
SF
##jour
##utes
##yles
Aub
Xyl
##umont
Munk
summa
sålda
invänd
andliga
befälet
Sicilien
användningen
##ML
##isha
Ful
##herre
##illen
avgå
Folke
grönt
ogift
aktier
Förening
utsattes
svävflugor
##sån
##skur
Sey
Wah
##ophus
Reid
##charge
Species
skicklig
lutherska
rosväxter
##sföreningen
försvunnit
centralbyrån
##she
Bü
Mw
##ulik
Cyn
##ative
##äkter
Jazz
Nest
##ammade
Korea
Källa
Morri
Surkh
dödar
moral
ritat
##skriven
Stelis
kostade
liberal
dåtidens
fragment
generals
tävlande
genomgått
Mississipp
Schlechter
##33
##ikh
##anke
##olob
##orro
Sci
got
mej
nos
##arica
##ommen
##osfär
Cost
##entris
betes
läkemed
blandade
illustratör
Sé
##orrh
##yter
Tha
##iatus
##prise
Shah
sfär
Wayne
spanj
Econom
ersatt
museer
gärning
bidraget
författar
tillskriv
utbyggnad
soundtrack
överlevande
avhandlingen
650
Hak
amf
väd
##albek
##itiva
##skärs
##ulärt
##vagns
Alma
Steg
Svin
soli
Något
##kajärvi
Använd
Hessen
bysant
palest
Enmedio
behövdes
##rättigheter
kollektivt
tillkommit
##skådespelare
förändrades
##ced
##gard
##ucky
ABC
Ada
McN
##skoga
Never
runin
Govern
Parken
Roslag
krigsför
turister
##bs
##lok
##otti
##ubut
##änen
Flo
Mix
Nür
##omphus
##takten
Chich
rösta
sjung
Slough
indelas
skatter
synliga
uttagen
erövrades
årtionden
besättningen
##egi
PR
Pá
##oshi
##yana
Ngo
##rique
Arec
Wing
Fries
Närke
Stats
Ulaan
numer
stjäl
exteri
startar
##flyttning
präglades
bestämmelser
##ège
KF
##adar
##urum
##hults
Peli
lott
Goose
täcks
antrop
Johnston
Shandong
festival
regional
brittiskt
gymnastik
obligator
ockupation
##bri
##area
##imat
Cem
haj
luc
##alleri
tänka
##öteborg
avsett
cylind
fältet
tunnel
radiost
Bibliotek
##anläggningar
##aft
fä
##odia
Gao
##fader
##rihet
##sbygg
##ssons
1719
Casa
epis
Ehren
byter
Observ
enorma
faktor
Baalbek
Library
Project
förbrän
överlät
strålning
glesbefolkad
##böj
##usi
##änn
##prom
Wul
##backa
Pago
Hardy
juris
Fleming
gentian
Sibirien
kortfilm
uppgiften
västerländska
##icz
Wür
Tvär
##smatch
Buena
benen
olymp
Tinaja
himlen
Nanjing
ansökan
yttersta
behandlade
presenteras
Anläggningen
##iret
##luoto
##viker
Salé
Vind
urin
tjäna
harmon
kemisk
Missouri
tekniskt
Singapore
frivilliga
##höjd
Cima
Clas
Macro
Berger
Sister
djuret
Italiens
##irta
##osen
##taro
Laf
Pré
##idigt
1798
Budd
Chag
Ruth
Songs
smält
##insaari
Sánchez
motsatte
satellit
tilldelas
##mol
##sem
##elef
##rädd
##zhen
Tog
##födda
Lasi
##ställe
Gabor
Lilli
lastbil
##arkarriär
malvaväxter
förespråkade
##55
##kung
##sbas
##uelo
Bli
Kib
Lal
##graben
Tiger
Hinter
Zürich
makens
bronsmed
Tennessee
manuskript
temperaturer
##bid
AM
hu
##egre
##åker
etn
fyn
Åsa
Roma
sess
Pirat
pilot
fossil
##fallande
##regement
kommiss
Peterson
eleverna
Mauritius
människors
##inspelningar
befolknings
generationen
Konstantinopel
##St
##xe
##Bird
##arian
##raven
olag
smäl
Orgel
delad
Secret
sprick
Buffalo
förstör
mineral
Hannover
debatten
etablera
offensiv
radiopro
varianten
biträdande
existerande
översättningar
##adu
HB
##elho
##neri
Eun
Wap
##etera
##radio
##sbury
Benz
grip
Dhabi
mjuka
Saltsjö
läkaren
målvakt
Marianne
albanska
våningen
föreläsningar
##kör
##erba
##iala
##ious
##slor
##utta
Eud
##achim
##onium
##ölden
Desc
Kiel
That
diss
##ellata
Guelb
Palme
Präst
räkna
##sturner
Julian
##kritiker
kompens
tappade
övertag
planeras
diplomatiska
##alva
##hild
##ynes
Gaj
Non
bip
##järns
1740
Cole
Seca
rutt
star
Griff
Målet
Qarku
Cumbre
fallen
utlopp
##ationens
Quemado
ansluta
vattent
artisten
bönderna
beskrivas
förbinder
Folkmängden
landshövding
##aly
Pf
hå
##bera
##osci
##yros
Béni
Tant
##aliskt
##istret
Giuse
Campan
stabil
gyllene
smalare
symboler
isländska
Topografiskt
##rei
##hart
##agens
##brunn
1783
Haag
Hosp
Situ
asyl
##adenia
##asinet
##examin
ombud
##kontroll
hypotes
samfund
fördraget
återkomst
köttflugor
##typ
##indi
##inum
Wak
##adian
Djel
Mons
Ríos
bark
##ughton
Greda
Stutt
Falköp
##ferensen
Släktet
förhind
pappers
##björ
Cuv
##annon
Rönn
##husets
Bureau
Madhya
efteråt
##ifikation
planerad
matcherna
kristendom
##71
##osan
Eck
Gala
Neur
täta
##musiken
likaså
melodi
ersatts
Ingeborg
uttalade
fästningen
Dud
Laz
##ichte
1778
marx
##ardömet
försen
vinden
##ocephala
budskap
passera
prästen
sågverk
##grupperna
frivillig
representerat
##ervo
##arias
##oming
##e
##r
##n
##a
##t
##i
##s
##d
##l
##o
##m
##g
##k
##u
##v
##ä
##h
##.
##p
##,
##b
##c
##ö
##å
##f
##y
##j
##C
##D
##S
##1
##"
##T
##°
##L
##0
##M
##A
##B
##G
##K
##I
##-
##9
##P
##2
##H
##R
##x
##N
##E
##(
##)
##F
##w
##8
##O
##Å
##7
##5
##z
##6
##3
##4
##J
##V
##U
##W
##:
##é
##/
##Q
##q
##Ö
##'
##Y
##Z
##í
##–
##%
##á
##ó
##”
##ā
##;
##X
##Ä
##ü
##ñ
##ï
##è
##&
##â
##‘
##č
##ø
##_
##š
##ī
##ã
##ô
##ŏ
##ō
##à
##ū
##ć
##=
##?
##’
##ç
##É
##ú
##æ
##!
##ë
##Î
##Á
##]
##[
##+
##ê
##ž
##ē
##î
##Š
##û
##а
##ß
###
##“
##ŭ
##Č
##ð
##ł
##о
##е
##и
##р
##—
##Ā
##*
##§
##镇
##$
##н
##ý
##Ž
##Ø
##л
##õ
##>
##ر
##ل
##ò
##ı
##ş
##水
##山
##ا
##đ
##×
##в
##동
##|
##<
##к
##»
##α
##̲
##т
##−
##Ó
##ḩ
##库
##ń
##乡
##ə
##산
##Ü
##م
##ř
##Ḩ
##ه
##ţ
##ن
##с
##ă
##ο
##у
##د
##̱
##河
##ḏ
##ğ
##̧
##ت
##þ
##ب
##μ
##ς
##י
##‐
##면
##К
##⁄
##«
##д
##و
##ц
##ρ
##ő
##ר
##ي
##ě
##м
##س
##大
##Ć
##ν
##Ú
##λ
##ι
##π
##С
##ش
##Б
