[PAD]
[unused0]
[unused1]
[unused2]
[unused3]
[unused4]
[unused5]
[unused6]
[unused7]
[unused8]
[unused9]
[unused10]
[unused11]
[unused12]
[unused13]
[unused14]
[unused15]
[unused16]
[unused17]
[unused18]
[unused19]
[unused20]
[unused21]
[unused22]
[unused23]
[unused24]
[unused25]
[unused26]
[unused27]
[unused28]
[unused29]
[unused30]
[unused31]
[unused32]
[unused33]
[unused34]
[unused35]
[unused36]
[unused37]
[unused38]
[unused39]
[unused40]
[unused41]
[unused42]
[unused43]
[unused44]
[unused45]
[unused46]
[unused47]
[unused48]
[unused49]
[unused50]
[unused51]
[unused52]
[unused53]
[unused54]
[unused55]
[unused56]
[unused57]
[unused58]
[unused59]
[unused60]
[unused61]
[unused62]
[unused63]
[unused64]
[unused65]
[unused66]
[unused67]
[unused68]
[unused69]
[unused70]
[unused71]
[unused72]
[unused73]
[unused74]
[unused75]
[unused76]
[unused77]
[unused78]
[unused79]
[unused80]
[unused81]
[unused82]
[unused83]
[unused84]
[unused85]
[unused86]
[unused87]
[unused88]
[unused89]
[unused90]
[unused91]
[unused92]
[unused93]
[unused94]
[unused95]
[unused96]
[unused97]
[unused98]
[unused99]
[UNK]
[CLS]
[SEP]
[MASK]
##ie
##er
d
##an
##en
v
##in
die
.
s
##ge
##te
o
h
##aa
n
w
##or
,
##is
##et
##el
b
van
en
in
ge
m
a
##on
##es
##at
##it
##le
##de
"
D
##ik
t
k
is
##ing
##aar
##se
het
##re
##as
1
'
##ro
-
##ers
S
##ur
p
A
##ig
##al
##der
##ar
Die
ver
##ol
##om
##ord
##oe
##id
g
##st
op
l
e
wat
##ot
be
H
te
##and
##oo
##us
B
##il
M
##we
##oor
on
(
)
aan
##uit
##ul
##ou
word
19
de
##eer
st
##aan
met
##lik
2
##ke
##am
P
##ir
I
se
as
K
N
##he
##ste
om
sy
T
##ens
##ier
##ry
##ag
##ad
##erk
##un
C
was
G
V
##ru
R
##ok
’
##iese
nie
deur
O
vir
E
uit
##ter
J
L
##ak
##ies
bes
##os
##em
##og
geb
##sk
W
sp
In
##ap
20
##aal
##ek
oor
tot
##me
hy
##ent
##ige
na
F
f
##ende
##ang
##rik
##aat
of
##yd
hul
re
voor
##die
##ra
:
##ings
ook
##aam
gro
##ch
##op
waar
##ale
##like
##ed
by
##ite
##eld
##end
vers
j
##sp
dit
##ri
daar
al
##ber
##aak
sk
##wer
##ant
dat
##ind
Af
ont
##uid
##heid
##im
##ne
##ion
##erste
##sie
##ele
af
Afrik
onder
le
##ond
##um
##oon
18
##uur
##sel
gew
##od
##ander
##wee
##yn
##ente
r
##be
hulle
##ia
kan
##ere
##orm
##ug
##ist
##land
##ank
##olg
gev
##ië
##est
##del
kon
##oord
##rie
##ene
groot
##ep
##ub
##wy
##tel
##oek
Dit
Hy
pro
eerste
200
##oos
##ic
pl
##oer
maar
##gel
##ip
##ierdie
##ruik
##stel
##wel
##aanse
##rek
##eel
3
een
##ied
201
##uss
toe
ter
##art
##asie
tyd
bek
##aas
##are
/
gebruik
##ann
Suid
gen
we
##iv
bl
ander
twee
##of
hoo
soos
U
##oed
##ans
ro
##ong
kom
aange
##ate
##ow
##kom
##af
jaar
##00
##uk
##ien
##ater
##iek
##dig
##aie
##ort
##sl
##ver
##ut
meer
##ab
##uis
me
beh
St
best
teen
Ch
##oen
–
##ryf
baie
##ussen
##kt
##ill
beg
##ger
##eu
##ron
gel
besk
An
##oem
##elik
##pe
vl
mo
##oop
##ons
##if
bev
##raa
hierdie
##ks
##oë
##ool
geme
4
##gter
##kel
##ud
5
Afrika
##ken
kl
##ae
di
haar
##per
tussen
c
bel
En
##kap
##este
Fr
kle
hom
;
##yk
##êr
geh
##geb
##iseer
##ust
##iteit
versk
bekend
##mer
199
Sy
##gev
deel
Al
naam
ne
gele
##ood
Br
ged
vol
##tal
##vl
bestaan
hoof
##urg
werk
ste
Ne
##ande
##na
##pr
verk
begin
##ore
##els
##elf
##onder
##ting
vro
##êreld
##enskap
##oort
##ubl
gr
##ide
ges
##ense
##reek
spons
kerk
##ac
##ass
gemeente
verb
gesk
##res
##pl
##ys
el
Jo
lig
##skap
stad
sl
6
so
##aap
spes
gest
##ieke
##asion
##ard
Daar
gem
##dien
##iet
##uwe
##ine
##ei
##rag
##eg
Ver
##eneem
##ef
volg
##all
##ker
Op
land
198
##hou
plaas
##rop
##yf
min
saam
##eds
weer
“
##ell
keer
7
##burg
Afrikaanse
water
##man
##van
8
##werk
##wys
##io
belang
##oel
Kaap
##log
”
gek
197
##ring
##ese
##ryk
net
##rg
egter
##amil
##one
##arie
##by
##lek
Duit
sou
##ster
##tem
##orp
##ief
ster
196
verv
gep
eeu
##iddel
The
##asionale
wet
##ante
##ov
nog
##isie
dié
##ikkel
##king
klein
9
Un
later
##ember
##inge
ou
##tre
##gew
self
##gte
##stad
195
##onom
##beeld
##gs
##sien
Amer
drie
17
##ib
Hul
##mp
##ink
nuwe
##olog
ber
bet
##inn
194
##ivers
##amilie
As
##enn
##wikkel
##aart
Joh
ek
##ure
Z
##ast
##ium
Mar
##av
##een
##ame
##dat
vorm
##ling
##ders
##ui
##omm
##wyl
##iewe
##oet
sw
##riv
staat
Van
her
##deel
Hierdie
##raad
verske
Amerik
##hede
##000
##eb
##ult
##uite
##sluit
##ruk
##êre
ontwikkel
belangrik
familie
15
Brit
##ha
Hulle
veral
##aag
16
Eu
##uns
per
193
##alle
##ess
##ors
##tes
##geneem
maak
mil
aanv
verl
sal
uitge
##ome
##saak
Engel
##dige
mense
##enis
##self
pol
pers
##ont
De
##atuur
##voor
the
10
##ga
rol
##ram
##enig
tydens
##gen
##ubliseer
verh
##oot
##ane
hoe
000
and
terwyl
##ins
##ob
##baar
##andel
Sp
##ye
lang
##tig
##gestel
##th
wêreld
##iding
man
ligg
##werp
Ar
##woord
der
neem
##tu
hier
##ff
genoem
gehad
stel
vier
mag
geword
192
laat
##ue
##owat
##staan
##weg
ar
##wels
wetenskap
##ekt
##deling
##dert
##ett
Europ
gemaak
191
afge
er
##tern
Jan
12
wees
dik
##bl
##amp
vert
ru
gevolg
##asies
##teken
##ina
gebou
##raf
Neder
On
##igting
##aks
verskeie
##perk
##ooi
##oc
Fran
gebied
grootste
dan
##ark
##onomiese
ger
sowat
##ober
reg
Be
gepubliseer
bed
##ook
##rand
dood
##oms
##ret
##isme
alge
moet
Ge
##ses
alle
##ade
terug
##iversiteit
##des
sle
to
##erm
Le
Gro
##je
##gro
mens
##unt
##ay
bo
0
##unie
groep
##ton
##ost
grond
##iste
##ius
##jie
##adat
##inne
##aw
behoort
##aans
##aardig
##iel
##rif
##dek
lank
verm
14
gewoon
dien
gebore
##estig
##aard
##ille
Des
##tyd
staan
Y
Se
##ich
Noord
liggaam
##iss
##stand
##oog
##aars
##inde
190
##elike
Kerk
dikwels
##akt
dorp
##anneer
beskou
##org
##ian
##yl
bew
##au
##eë
tr
##oont
##pro
ds
polit
11
get
besl
El
lewe
##iale
##ah
pr
##ode
##rivier
Wes
##ation
##berg
##ma
##vol
Re
dus
%
Johann
kind
##lo
##ly
13
##oorde
##int
Sk
hou
##bare
##vlak
##ole
##red
##kun
##anklik
##jies
taal
ske
##vang
##spes
Nederland
##osp
gaan
spesie
kort
vis
hoë
##selfde
lid
reeds
##ce
##idae
oorsp
omdat
Ind
##voer
genus
milj
ʼ
##ase
##dag
meeste
##ts
##gaan
wetenskaplike
##form
Jul
##wes
##aad
Met
##use
Duits
##ding
suid
onders
tweede
##oste
Na
slegs
##iland
geen
Chr
Aug
##eter
sluit
opge
verander
##ral
##oof
inge
vry
##arty
Mei
Bl
Desember
km
skryf
##eerde
middel
eie
org
kies
dieselfde
Ber
noord
##istor
189
reger
##tt
vanaf
##wing
##rys
##kl
##ommige
bevol
plek
moont
mus
##elde
Amerikaanse
##teur
##tige
##oorlog
##eks
August
##ves
bou
moes
##ronk
##aalde
amp
sod
ná
Duitse
##iers
gere
fe
Pl
Sch
Okt
nou
##ment
gestig
vyf
##ous
Oktober
##olgens
##duk
vroeë
##gang
voorkom
##erke
Britse
##enk
##dom
Nov
##gee
huis
##iede
Janu
lug
Frank
##oria
##aai
Kon
##wens
gesp
##iere
##bou
kol
verwys
##ident
gewoonlik
buite
##val
##illende
besoek
Januarie
or
Sep
Ma
Maart
##les
Universiteit
##min
##urende
waarin
Engels
Junie
##ange
Pro
Or
##nem
naby
##tell
##eng
tro
Johannes
188
Her
##orie
aantal
Verenig
##ote
Apr
##ise
ten
April
##oël
##gr
##onse
By
##iser
##aaste
Oos
Dem
gewone
##oeg
##lede
eers
he
verskyn
##ieg
##mal
geleë
##tember
Tr
September
verskillende
Augustus
Julie
November
##voorbeeld
skool
##ader
einde
volgende
vas
ontstaan
##rok
##oewel
##spesie
elke
su
asook
##ars
##sels
##riek
##ild
ak
Twee
Th
He
taks
binne
moe
##oi
##imp
bro
##vorm
beteken
steeds
un
voort
geldig
res
New
wit
oud
indeling
Cl
##ologie
sek
##rum
##vloed
Feb
##gie
koning
Rome
Verenigde
kr
verkies
##bel
taksonomiese
Wêreld
moontlik
##arm
oorlog
##ges
##igheid
agter
##ekaar
natuur
Franse
Febru
byvoorbeeld
komp
verw
##erde
ontvang
dig
prob
sponsspesie
bevolking
25
sedert
##its
Pret
##stelling
##vin
Par
ons
Februarie
##istiese
##ames
seun
kinders
##ël
kult
vrou
daarvan
II
geskied
nadat
##ern
##geveer
##ereik
pres
##ryd
##ric
verd
##ike
##oud
##rug
volgens
miljoen
##ongia
wel
ag
belangrike
hoog
regering
wanneer
verder
##bek
pos
hand
##room
Tyd
Ste
##ude
##tuig
ad
##che
##lop
##erst
##asse
##rat
##merk
jare
toege
jong
Ital
Om
Sw
##maak
##our
##ct
##lyn
kry
##saaklik
##ij
##ubliek
lê
##staat
ongeveer
fil
politieke
laaste
##ler
Europa
kw
oorspronk
bly
med
vern
ben
Gere
##gebou
sterk
##onte
kiesel
##ternasionale
bevat
30
##slag
akt
##aarde
NG
bep
##amb
##iter
##her
##sig
##anis
##ake
##onie
daarna
Afrikaans
Vry
Kaapstad
ind
Pretoria
187
##raal
dag
##gn
##stof
musiek
##reeks
waarvan
##ospongia
ontdek
##old
besluit
##rom
24
##elle
##fe
boek
##anje
kuns
selfs
##iz
gee
gehou
gekom
##ersk
ant
##ach
##ionele
goed
##imb
##lig
heel
lande
Ph
Hier
minder
vervaardig
skry
##dering
z
sent
##oeke
elekt
Gereform
hel
soms
Vol
2007
komm
Volgens
##amel
##aatskap
##trek
##off
##skrif
loop
god
maan
##onde
##ën
du
##vesels
gl
geskryf
##meen
##oorte
veroor
##ose
Gereformeerde
persoon
##atal
##ule
sponse
see
ontwerp
stand
##teen
par
swart
##ters
Groot
Frankryk
##punt
##naalde
##ospongiae
Christ
Demospongiae
##won
speel
spong
et
woon
am
##pervlak
21
ampte
spongine
kieselnaalde
sponginevesels
&
kons
soort
##itel
##woordig
Bo
##mene
insluit
Russ
##indelik
algemeen
##mel
##inder
aand
kop
vre
span
beskik
paar
##bos
at
##oep
##ms
mis
Is
moder
tre
##tr
groter
plaaslike
tydperk
hoofsaaklik
##ath
Kl
trad
hele
bereik
##ïn
goe
bas
##rig
##ck
##lag
##omp
verbind
##app
Lond
eien
##orn
arg
##heids
Duitsland
186
##weë
Di
##aro
##ork
##pre
sonder
woord
##huis
Me
geneem
X
Europese
eiland
##skyn
Tweede
##weeg
##leiding
##ologiese
Ad
##ttp
##oom
##aliteit
sommige
weg
nasionale
##unis
rolpr
wie
##rukt
ond
an
##ister
beskryf
gespeel
veroorsaak
##gawe
##iw
wis
vlieg
doel
##ograf
ses
##iaal
##ert
dr
##volg
Mos
dog
##gewing
23
##estyd
##afh
##igste
Johannesburg
22
La
##eth
Aust
##kundige
Ná
##neem
##isse
##inse
##gebied
Trans
sodat
##gelyk
##wet
##urger
open
##ial
##pp
vlag
##rale
reeks
mon
##py
##gevoer
Sh
produk
voël
##wat
##undel
Ed
histor
And
geskiedenis
##uut
toer
eer
##plaas
mekaar
##idd
mot
Enge
##redik
belangrikste
Nie
##oring
2013
http
State
gelei
##reer
enige
##qu
2011
oppervlak
Nasionale
Engeland
##olf
Vir
##tog
bre
##baan
##ester
kar
Ol
rad
##ity
##win
##stig
##ged
##oei
daardie
ke
wed
##SA
Engelse
kal
##ër
##hem
sterre
##veel
##tref
##ph
2008
Port
ton
John
##unisip
##skool
Jap
onderske
2010
ouder
destyd
stud
2006
##udeer
##gram
Amerika
gedig
##odes
##mag
prof
ch
ma
##houd
##ika
huid
##rasie
##stige
dele
##weging
leer
gegee
aanvaar
gedoen
sn
##ana
wil
Austral
leef
gebiede
##raat
rivier
##iaanse
spesies
langs
Kar
kleur
Rep
Tydens
##rien
##oef
##arde
doen
Wêreldoorlog
Am
Ro
kerkraad
##lei
##ham
##bert
sit
##kop
##ywer
‘
term
moderne
son
hoofstad
la
Col
##ukses
uite
##oemde
##enheid
##skynlik
##wa
stem
kus
##ict
##keer
##kant
##mat
##ontein
toek
Pa
algemene
##druk
##ensie
onafh
##rab
185
##istrik
getro
Q
##landse
26
huidige
vor
##teenwoordig
##kele
sien
##veld
##mate
vinn
ww
www
##verh
waarde
Mal
gemeenskap
predik
derde
tip
27
beste
##iële
sin
invloed
##oue
verkl
red
val
##ai
tans
grens
ontwikkeling
weens
##mit
ruim
Lou
##fer
##itêre
##uele
volt
2012
bekende
##und
##ering
##koms
Car
daarop
lede
##vinsie
mees
Rus
##wende
onderwys
Toe
bele
beheer
ide
sowel
2009
##uwel
titel
gekry
28
##amer
gedurende
Eg
tem
##etting
Bar
gedeel
##reg
##bes
Aan
enigste
IS
##tiese
##erstel
##ivier
vlak
##ten
God
##ower
##groep
2005
So
berg
##spel
bron
##urt
krag
2015
hal
oorlede
##rip
lewens
##ogen
kant
gewen
##woners
rond
##ersp
gehe
druk
sukses
Ander
vind
##bei
Uit
werke
##oes
##jare
verst
dae
##unte
diere
##agte
tradis
voltooi
##ruis
##geer
gevind
##leg
##sdien
Een
ooreen
##tree
##mee
##yne
##estelike
##pas
##ilande
##ilder
diep
Bes
verteenwoordig
gevorm
versamel
##roon
##ifiseer
vandag
handel
Bel
kor
##eders
tegn
##hal
##teer
sub
form
##skappe
onderste
Sc
##houding
pad
We
ooste
##uidelik
ken
klas
enkele
##urs
kun
vader
##vors
##itz
agt
aard
##anks
##jet
##oss
##ennis
skrywer
omgewing
]
##stuk
waarskynlik
##BN
##wers
elem
##gerig
##rak
maande
Sow
art
mater
ekonomiese
##akter
sos
meest
verkry
2014
gesien
##ish
gener
##werf
##odig
talle
##fontein
_
##hoewel
internasionale
eff
ve
##jek
gas
##ica
Te
Nam
##sten
Londen
##ergie
Party
lief
Jac
##erv
[
29
Gu
##wend
inter
gewe
verspre
##iam
##itter
geske
##inkryk
##ara
##lein
100
ouderdom
##lor
##arige
Hol
Vl
distrik
ISBN
Voor
andere
##middel
diens
besonder
im
plant
Griek
##bed
##vis
##oest
##unde
beeld
pas
dram
aangeb
##mos
rug
hoër
beskerm
bepaal
Gr
tele
organis
##wig
##raak
##ley
##rede
2004
Eerste
Onder
Ab
##agtige
militêre
Pres
##oun
noo
rolprent
##atiewe
inwoners
##ari
sekere
##werking
##co
Pol
##ula
Oor
Natal
tale
##grond
siek
##adem
uitgeb
betrok
com
president
##iteite
##son
cm
##vaal
Sowjet
Russiese
##loop
ryk
maatskap
##raag
Will
##minist
##ator
##uc
Sl
2000
##ve
##yke
##ette
##assa
50
##sh
Frans
##rit
kap
veld
Lat
184
streek
##78
##aamde
groei
wou
##useum
##kte
##water
ler
Teen
##stryd
send
oudste
Nadat
navors
Kan
erk
=
proses
dogter
oorspronklike
Romeinse
##raaf
##werpe
Ryk
Afrikan
Ged
pa
dok
##par
beperk
Tur
##gele
##iger
spel
Kat
stelsel
beide
vervang
fin
##riese
lei
##etterk
swaar
aangesien
mak
trek
prys
Hoewel
verklaar
##ris
Egip
beweeg
##bosch
##az
historiese
gedigte
geval
Vrystaat
Per
##up
toon
##owwe
dek
Ter
proble
##ming
temper
aangestel
##aksie
dra
##heen
31
rel
argite
Ale
Grie
Sou
probeer
wissel
##ta
veel
##vers
##met
stam
##ary
plat
rooi
##vou
##usie
plante
volle
direk
godsdien
##vind
kern
behaal
##name
getal
##boek
##pel
voord
##sonder
##sj
gevestig
##dorp
party
persent
Ant
##issie
##akel
dui
verkoop
Son
##ruin
som
verskil
woorde
aanvanklik
##ata
nooit
stig
York
##aris
2016
ruimte
##iem
hoogte
dro
filos
munisip
Pr
##enning
meter
##gesk
##tjies
##etter
ondersteun
##yc
meestal
Afric
2003
verloor
##enes
aangetref
gestel
binn
##waar
##kunde
mod
##own
##plek
amptelike
##orge
##kings
gebly
Wal
##fin
##onker
voed
Republiek
##lin
##ument
##iër
##ske
##likheid
y
energie
Transvaal
##esk
China
Arab
##ope
stre
opgeneem
Stell
spoor
betrokke
##atus
##uif
Har
feit
##ynse
altyd
kultuur
wy
Paul
##50
predikant
##lement
lidmate
Nederlandse
kont
Dié
Skot
hoewel
kleiner
##delik
Nieu
SA
##att
Ke
##weer
1990
uitb
lyk
brand
fun
bestuur
##order
##stelsel
tuis
tien
##ile
##udie
Pet
gebe
for
##liks
strukt
Rusland
Wanneer
Mo
##gevind
##seaan
##la
neders
##tuie
##ock
want
moeder
40
183
##stem
##ren
ab
Hal
Japan
volk
stuk
oop
Bot
huwel
kos
##ner
Kaapse
gewild
##yg
kerkgebou
simb
At
spesif
##gadering
##rol
Haar
##geme
##ja
opgerig
##oende
##keur
bedien
omst
vak
##oern
##dere
hoeveel
##alk
sogen
provinsie
##ban
Char
vroue
##lem
##ikasie
##ilik
keiser
##gelaat
reis
##rong
?
ol
Con
Sommige
Griekse
##igh
Stellen
VSA
bevestig
##ening
bloed
ondersoek
chem
sogenaamde
tek
##orl
Wit
leraar
uiteindelik
vrien
##aring
##ena
##handel
##itiese
verse
gedeelte
int
##ford
stads
Ang
geld
Er
raak
teenoor
##aste
£
##mes
2001
##antwoord
##atiese
##stroom
besit
lewer
Wet
noorde
##see
##net
oos
##omb
##engte
##ros
voors
Ier
Dan
Mer
naamlik
fot
Baie
##ikus
groepe
suide
gelyk
Besoek
##genoemde
uitvoer
inst
liter
kolon
2002
byna
##erd
Italië
##awe
kennis
##iele
verhaal
half
goeie
hê
##ald
Su
Man
##isies
beroep
Gen
verdeel
kil
slag
win
almal
Min
##rein
##ligting
beweging
administ
##ada
##leur
Pot
##delike
##uil
Stellenbosch
##lege
##span
vergelyk
##indig
Volks
Australië
##rus
onafhanklik
voer
##asil
out
aarde
Gedurende
klub
profess
##bum
##ime
motor
Sa
bring
##ute
##uiten
bied
##ydra
##ational
##wêreld
Wall
blou
kat
huwelik
Ds
Koninkryk
1980
verower
##ze
##beid
##edia
##lings
##inese
George
Rh
##rich
verhouding
plaasgevind
##ilde
##isoen
sewe
beskikbaar
Phil
waarna
##kuns
##best
##hoek
pog
##bin
2017
##urele
Rober
Pous
geg
##ilige
nood
betrek
getroud
##kar
##drag
1999
##sn
boeke
bewind
Mich
##atief
##oph
##sch
Ook
roman
South
##kie
hulp
voorsien
##stry
##uin
studie
##malige
oorle
##rim
##steen
toet
Bro
##ulp
Sent
##kus
##tjie
##alis
##aniese
##ran
##rate
stede
wap
reken
##idenheid
gedien
##ice
artik
hart
##rawe
1960
William
toest
182
punt
geplaas
wen
basis
##ella
##anning
skep
bi
oog
kunsten
eerder
donker
graad
bydra
##ville
##iets
##heem
gesl
##beelde
ry
bundel
oorspronklik
sake
Sedert
##deur
manier
Gre
##anklike
verkiesing
leier
daarin
skilder
verlaat
vinnig
eilande
mede
##ieë
verskaf
##rade
Oost
##okke
broer
universiteit
##ades
##beker
##aaf
##erp
Ger
plan
geslag
hoogste
Mon
##ament
##ire
##raai
##iging
2019
klim
1970
sterf
studeer
hoek
massa
##lang
Nuwe
##iode
Parys
Fre
##enburg
Swe
ern
Oseaan
gebring
voordat
##gelê
rep
gebase
##yr
Ben
##diere
oper
dier
stigting
##akke
behandel
geleent
terugge
natuurlike
onge
verskeidenheid
##etterkunde
##kw
##ometer
##ini
sê
voormalige
1994
Vers
my
lae
##iërs
##sw
Ap
##oit
aanged
##eniging
verhoog
fis
##ona
Indiese
##stant
vroeg
##hawe
nag
Gl
menslike
##iber
##naam
##hang
gemeentes
geraak
ap
Burger
sen
##ho
##ace
waarop
albei
verwerf
program
wes
wys
##rem
Pers
Aarde
duidelik
maklik
##ivid
warm
verantwoord
##abeth
Hoë
tradisionele
beïn
##lus
##mar
sosiale
##dam
1950
help
reën
Pe
geë
Chinese
##ieer
opsig
landbou
##kers
Pal
plane
##ita
Kal
heers
##kol
1997
##iende
gesin
aangebied
##idelik
500
##volle
gestuur
##blad
vere
Ek
Swart
##rou
##osa
181
voet
Ga
den
sust
##likse
##tement
Indië
lat
kompon
##iën
Dav
stryd
##bron
vlug
##aarts
##aasgenoemde
uitgebre
##erf
opv
boom
##urgers
##oniese
60
web
##neming
##uleer
vuur
pous
##fees
Hend
eksp
sames
##elk
##ets
toneel
oorsprong
sil
styl
kn
##toe
##ries
##groei
posisie
vaste
destyds
##visie
vertrek
##stit
gesê
III
goud
##heers
Mag
vanweë
##pers
openbare
Cal
Univers
##komste
nodig
##onomie
Ak
San
inf
Namib
rigting
pat
##eland
geskep
les
##entel
1998
##den
##winn
beter
gereeld
din
verbeter
Sim
##feer
temperatuur
fl
##iddele
opgev
Som
Internasionale
waaronder
Wil
blyk
teorie
##stryde
inligting
sir
erv
##ondig
##voël
rondom
##orld
verantwoordelik
Alex
##derheid
hout
mans
##gemaak
staats
Histor
kilometer
Eliz
i
##orde
##arg
##itte
##wyd
soek
##urn
Unie
verband
##eling
##ete
##anke
##plant
Net
voorheen
individ
Ac
Berlyn
sig
kamp
vertaal
##hol
2018
##krag
toes
ingesluit
vliegtuig
suur
##bind
##mith
opl
##ick
Du
Hen
blom
##eken
##ical
Arg
nywer
suidelike
inheem
filosof
##sieke
##valle
Bybel
##ida
seks
##euse
##ografie
materiaal
Mart
##tings
aanb
##uel
bedryf
herstel
vervoer
vertel
Deur
versl
destydse
##ëls
##wyn
##ieter
Fe
sentrale
leiding
insluitende
geken
##week
Mus
mat
##wol
toegeken
##vins
##moet
##eug
projek
sport
vloe
Katol
Nederlands
1996
Kru
##oï
mate
betekenis
##ici
helf
laag
swak
mee
##ettings
weergawe
##cht
1995
##ografiese
Beeld
moeilik
##mig
erken
tydskrif
##wis
weste
##gl
##aaie
Christe
gebaseer
des
Sir
##iko
Later
gewerk
latere
afst
voorgestel
geïn
All
tree
##akteur
##isering
##verk
geel
##ko
##bedryf
plekke
televisie
ouers
##ids
beïnvloed
##ive
##gekom
gene
amptelik
gestaan
neg
eienskappe
##iks
##aats
##open
##rael
Fil
Sal
Asië
omstreeks
Os
##ansie
##kende
##impiese
elemente
##med
von
geweld
priv
Klein
voorsitter
##heer
mond
sang
Rom
James
Italiaanse
##dedig
eenvou
koer
##20
##ka
versprei
##rel
##oris
seuns
rugby
Belg
ouer
vestig
los
Sin
toen
Rug
##gegaan
kulturele
##elling
Taal
##sprek
akteur
antieke
##bo
##ooste
##produk
geboorte
orde
uitgawe
deb
##trede
Elizabeth
##wyse
##aleis
helfte
##rid
##ung
Rich
sam
geloof
##pass
opvolg
Oosten
##wek
##ikale
sens
vanuit
voorbeeld
za
anders
benoem
genoeg
##ria
Hendrik
See
dem
wyse
##ny
##ott
graf
aangek
kommun
afgelei
prakt
1993
navorsing
1992
aansien
Bloem
Louis
Israel
sending
##okus
alleen
elektron
Roo
##omin
krit
studente
bekendste
##ail
afstand
##ski
##nis
Qu
noem
##verhale
Maria
##undige
vertoon
no
##gedra
##ola
##rad
##uldig
##iete
##abel
##ash
##wag
35
Middel
sentrum
oppervlakte
##oll
trou
##trent
##duit
vroeër
geboue
radio
1991
name
##genoot
Pieter
##ipp
Noor
Hoër
Christelike
ident
groen
Britt
homself
naas
Spr
mark
voedsel
Land
Dur
lied
##ekte
sold
periode
noordelike
spesifieke
##ix
minister
##olk
##spraak
maatskappy
##wings
##telsel
Omdat
deelstaat
##anksy
Vict
##ighede
loopbaan
##jin
Bos
1989
##umente
wentel
vloei
##uiwer
handels
ontmoet
Daarna
##zi
##ven
##ulu
jag
Brittanje
Vanaf
gesond
##wed
##melt
kenmerk
gevoel
##entrum
vertal
bevorder
##mb
verniet
Katolieke
Oostenryk
##elp
##likes
Alhoewel
Bu
eg
Boere
ó
duur
##gebiede
Maar
##ibl
produksie
180
Den
Sam
Press
digter
##mekaar
gelede
##yp
ep
vle
##assas
##okrat
alles
##ais
oorwinn
hem
Lang
##alisme
spesiale
magte
raad
##antiese
Robert
glas
gekies
##wal
##ray
volw
##ael
blare
Lug
buiten
##bundel
liefde
vrygestel
##ua
Atl
kool
Sentraal
generaal
##illa
geï
##apport
##oefen
geste
gelê
##linge
°
##arke
##usse
Isl
Lu
dub
978
bem
##ature
Sint
strek
óf
are
laer
Kruger
##baai
bok
oorheers
lok
##hof
lengte
totale
onderskei
My
##ligg
burger
##otte
jeug
##sters
##enewens
letter
##oede
##geluk
chemiese
32
##yer
##lekt
Air
Huis
kate
##jarige
vorige
##ora
##enter
sodoende
regte
##raham
##chen
##rugte
Egipte
uitgevoer
heeltem
Sowjetunie
##RL
##ree
parlement
bruin
verwy
##ery
Nog
sok
gepr
##ots
##ull
Ou
besp
past
##eeland
##ack
geleentheid
##mak
1986
gevalle
##inet
##mus
Tot
soorte
onver
##ino
mas
##useer
Ierland
voorwerpe
nedersetting
VI
##igte
stap
gevang
##tels
##ulke
Jood
gegaan
struktuur
##saam
##tm
1948
Ass
tog
Je
##ago
##ksie
duis
Ser
co
##leen
heeltemal
##ratiewe
omtrent
gekenmerk
totdat
Terwyl
##akk
##nemings
##iwiteit
eens
glo
1945
gevaar
probleme
##iddelde
##han
##ape
##mans
##epe
##fab
##sep
deelgeneem
##hand
URL
seisoen
steun
karakter
bos
album
War
voëls
verdere
University
meerderheid
##out
##ktor
Wat
##ref
tipe
elektriese
erf
##act
ens
Hong
Rapport
Mat
##ublik
temp
##ama
brie
Charles
lyf
daarom
norm
##gg
Mil
Seeland
Mur
stof
same
##verhaal
alhoewel
Spanje
hiervan
1976
1987
fees
##itaal
klassieke
##nes
Komm
##rond
dis
##abil
finans
Rugby
bloot
##ior
##rap
stroom
ere
provins
300
imp
myn
drama
aandag
vernoem
Albert
opgevolg
##anse
80
Jacob
Islam
Skotland
##uik
geveg
gun
##stein
##okratiese
##gebring
##ward
gemiddelde
Hel
##pos
##uus
##wintig
waarmee
Mc
dienste
gewilde
##etjies
##rywing
Wh
##omas
verhuis
##oedig
##werne
snel
rot
1975
praat
##gin
36
Hof
1930
##ba
##wyk
mm
wyd
Bloemfontein
Em
ko
Enc
Olimpiese
*
+
ekonomie
##waarts
siekte
verdedig
##ras
Dis
bewaar
kinder
Post
eenheid
uitgest
##etisie
1979
Park
##uge
##sm
##iseerde
gepraat
##haal
verhale
Raad
##ryke
##rieket
aanleiding
##ouse
Brasil
##stellings
vul
##punte
Intern
##wen
rede
Soos
aangeneem
##sa
David
verby
##leks
!
179
Tim
vy
skip
##ateer
##iidae
opsigte
atmos
elk
besig
1920
33
##dele
pop
leër
Grand
Wille
status
Franc
##mas
Mac
##iskop
##yclop
munisipaliteit
##gelyke
Brand
##onne
1949
Pool
1974
Ta
konf
70
kombin
Comp
verseker
element
##tz
##etiese
##skryf
Berg
waargeneem
iets
##keie
##wering
teken
bedre
grootte
Art
Drie
##nam
klimaat
##iote
eet
stemme
vriend
gewees
organisasie
##75
Mor
opdrag
1983
administratiewe
sel
World
##inklike
##uld
Kanada
samele
##uider
1961
##ain
90
##diens
Reg
Latyn
prins
##ence
Joodse
##mann
Water
oorbl
##itee
Turk
stadium
1982
vierde
1984
Ons
1985
##tien
##waal
Jaar
bepaalde
tye
somer
hoeveelheid
Durban
##riviere
fig
prote
Nederduit
nege
beleid
persoonlike
##oene
Dep
##duseer
vrug
enkel
jarige
punte
##bro
laasgenoemde
##uts
Namibië
##proses
Sj
saak
behou
##standighede
##och
maand
sa
##jaar
Sond
Willem
Afrikaner
verminder
verge
Mont
trans
pap
dorpie
Ham
miljard
##ias
##orf
##ory
klip
arm
beweer
##uig
##owe
eind
stert
##werneur
bepl
##vi
standaard
1981
##rigting
siel
##ops
hof
Encyclop
##ney
roo
bevind
##vat
Lit
toets
##akters
klank
##werke
1988
Middele
Portuge
bronne
##ware
##iedenis
waardeur
spanne
toestand
##kes
##dery
##orth
##steek
gebeur
45
Tsj
1966
Oorlog
##spreek
vermoë
opleiding
##maatskap
34
Kol
honder
##ield
Hug
skole
soldate
##rewe
Africa
oostelike
##10
koop
eks
##ca
daartoe
terugkeer
##arte
1952
##vel
##lee
##que
1977
##ademie
Swits
teruggekeer
##oele
##niese
part
##ropiese
##ume
##ommer
winter
Stad
kruis
professor
rek
1940
Ten
skrywers
aangesluit
##dem
uitg
verslaan
##ilj
feitlik
Ex
1972
geopen
##mond
Spring
eindelik
##leer
boer
1953
##gewoon
funks
verwyder
buitelandse
getrek
##olit
##omot
##versk
twintig
vernietig
htm
eeue
helder
versterk
geglo
inheemse
Saam
baan
##idings
regeer
grot
##bew
##otiese
bedek
miner
Spaanse
museum
versoek
##sburg
Suider
versameling
1978
##kerk
metaal
Don
filosofie
##gar
##doen
##straat
langer
teks
bewys
##afel
westelike
##ance
##chef
Oud
aanval
Jose
##onds
Med
Mad
1938
##stukke
##andid
##wetenskap
plaasvind
lys
##ipl
onafhanklike
African
##aagse
gelewer
Potchef
veil
inse
##agtig
insluitend
Switser
Potchefstroom
Vro
bevel
Pri
onderneem
behulp
vrugte
gereg
kleure
opgetree
West
indien
konst
geniet
Afrikaners
1967
##stowwe
toegelaat
##vormige
rolprente
Grieks
gedra
kunstenaars
bak
regs
##bal
##ikro
1968
##ulêre
1969
twe
publik
##vaart
sterres
pp
model
##ibliote
##orpe
1939
Elke
##speler
onderwerp
—
strate
teenstelling
Botha
onbek
##oning
##stens
##ury
dw
sand
Ooste
##styd
Can
Karo
Tussen
##eres
Arabiese
Steyn
koste
1964
Rhodes
##annese
##car
week
##iemand
##dienste
1973
Voort
koerant
binneland
oorgeneem
Nic
rig
##ble
##hel
##rise
regerings
uur
troon
##ya
super
belangstelling
##hoof
Del
volks
voorwerp
wedstryd
bestaande
jaarlikse
samelewing
##staande
##kels
Ott
##ym
Sm
##adig
Andre
##astie
##ount
1958
defin
onlang
Richard
oorwinning
Bal
1963
##vaardig
betaal
diale
Piet
##ones
mar
Anton
silwer
reaksie
##asp
##eme
Thomas
##yte
kloo
verenig
##bok
##ryp
##bond
teater
Kwa
Smith
burgers
meg
tel
joern
##80
##goed
1959
##telling
Rad
Pole
film
kontr
##to
##anj
##ions
##rake
amper
bedank
Jer
##ender
1910
kerke
uitbre
##orme
kam
planeet
wol
##volgens
##gesit
##akte
##treff
behoef
##gemeente
oë
Val
afdeling
skoon
verwerk
uitgebrei
riviere
##essis
Rand
ware
lyn
##theid
Georg
##yt
##don
##koop
Verskeie
gef
rots
Rooms
belyd
Tydskrif
##well
Bre
Ken
x
poë
##graad
##volgende
geslaag
konsent
##AT
Nap
gou
veer
Russies
afsonder
ernstige
##uman
##asteel
##kolonie
argitekt
##skry
##lid
atmosfeer
##komstig
geskik
argitek
National
##tans
suster
studies
##inc
th
1947
Ag
##lass
##spoor
Boer
jy
##komm
Pat
Rou
1946
Argent
poging
arbeid
aangedui
uitst
vergadering
1951
begrip
##ero
Jes
fokus
toekenning
##ioenskap
redakteur
1965
Verder
##opl
Plessis
##set
##ried
Fin
wind
Hofme
##otel
godsdiens
Sondag
formula
##ré
##orb
Ros
sol
begrawe
##iforn
kamer
##nit
##alwe
sterrek
bal
##delings
godsdienstige
dam
konsep
##za
##myn
blad
##erim
asp
Slag
sulke
troepe
verwant
##maat
1971
neer
##matige
bydrae
##arn
##oete
oord
aangekondig
##ides
top
veg
Paar
##Zulu
1933
##ioneel
1914
wedstryde
Flor
##ics
fos
##lande
Kong
mann
##gestelde
##ryse
##wêreldbeker
Super
Wallis
behalwe
terrein
lin
Prote
##umb
wyf
1962
breed
privaat
Ges
##hout
##leeg
Bas
Hofmeyr
onafhanklikheid
yster
##iereiland
jou
Stand
relatief
eint
voorste
##inus
400
Meks
dateer
Ba
uiters
##mot
kg
##meer
ingevoer
##ios
Wind
streke
heelwat
##ipe
##imum
##kou
##gres
Cent
polisie
##sem
gevra
##rone
##ili
##bele
leg
Instit
soortgelyke
boon
##baarheid
pastorie
##ioen
Bra
foto
##mon
Kn
olie
kandid
##irk
150
IV
Anna
KwaZulu
##ruit
1900
##oestyn
History
##sen
##weste
rolle
goewerneur
##aff
Dr
Fl
wor
toepass
hard
vra
##ala
##nee
##tor
Soc
heu
Louw
verpl
daarvoor
##anne
##voeg
Mel
##oster
gras
##isseur
##sver
skepe
weerst
Bul
iemand
##ardin
##groepe
apart
ontbind
##esd
duik
fakt
omstandighede
wyn
Aange
##program
##anda
Eers
ball
beslaan
karakters
Bur
1954
##ington
##rië
##tein
ass
##breek
Sinode
verdwyn
##avier
metode
##ensies
verlede
Hoërskool
##pad
1929
##40
$
##loos
##waalf
##orpor
##any
##ulasie
##eue
For
##stasie
stuur
suurstof
##wwe
##isch
gewys
##groot
vroul
suiwer
Ha
##anus
Vand
##erende
vereis
probleem
##genie
alfab
neut
No
ingel
gehoor
bestudeer
Il
Ir
##ieël
droë
sagte
opvoed
getalle
Ox
##gewers
verwag
1936
##erstof
##uim
mit
##reep
getoon
1905
##illiers
##estad
weeg
Boed
toern
##uip
oortuig
Japannese
Fa
Roy
1956
weke
Kort
##bon
Stud
toenem
vermoor
lees
skerp
##partement
##anc
Kom
opstand
##naas
gede
38
##ront
##sies
##erg
idee
vars
Oranje
finansiële
danksy
konflik
Es
##ules
prim
##imbab
##gaande
artikels
Bis
##wegings
oploss
behels
##beweging
Clath
artikel
str
letterkunde
##endes
Michael
moontlike
##oh
##era
hip
##ensis
grondwet
opn
omring
rekenaar
bome
gedrag
verstaan
verandering
##organ
Zimbab
simbool
vliegtuie
vergelyking
##retaris
verf
Alexander
##gawes
##nel
##boom
Feder
##laag
Mic
##etjie
##30
##ano
abs
gepro
wapen
##atte
nes
vloot
Bol
##brand
##iwiteite
##men
daarmee
##din
Ka
Aangesien
##eure
ower
geheel
voorstel
br
##sponse
ph
fyn
##ending
kyk
voorkoms
##sium
eeuse
lughawe
##ruim
ewe
##wood
amb
1924
##erjare
aktrise
##enner
1904
koningin
Wik
uitsonder
Ath
1955
boere
1944
opvolger
afkomstig
gesondheid
##24
##70
##ör
gesag
pot
hawe
##ektief
gebrek
tradisie
Kore
##liggende
##vangel
setel
gebeure
##di
1943
agtergrond
##ospitaal
pogings
##siewe
##enberg
verslag
Suidwes
onderrig
Red
Sil
##ün
##daad
##orius
##arch
koolstof
molek
werklikheid
##bank
##dertyd
##tering
voortd
##urtenis
75
##ife
##kamp
1957
bere
bv
##wese
spyte
Pas
kalk
##arings
##houdings
##ifikasie
##ories
eiers
ontdekking
##NS
niks
##afdeling
##waardige
##oth
Coet
produkte
##vlieg
##etters
Angel
##sy
##esse
Tem
Norm
nat
Wester
geskenk
600
##ridge
poësie
##kies
##BC
##aand
Freder
##taal
gram
dubbel
verleen
##lands
gely
vele
##olge
##rekte
graaf
Hom
merk
beklee
178
##genote
Mas
Sol
Meer
##bronne
posit
paleis
Karel
intern
##rot
##heim
##dal
##iew
Slaw
situ
Sle
prot
adel
##itale
getrou
oorleef
kru
##skakel
Kaapkolonie
onderskeidelik
u
Jean
vari
toring
##styl
vraag
etniese
belydende
##rep
Int
Toit
##60
##rifte
Weens
nuus
droog
blomme
vernaam
voorbeelde
Oxford
Rob
##aksies
vreem
##erskool
publiseer
##lys
##alin
Kun
1941
politiek
##elet
##oneel
##oy
##luk
Bi
##same
##inent
doop
Letterkunde
##gh
ys
##iver
perman
##fonie
broers
gesterf
grootliks
Lib
##ology
##ith
##ois
prop
Peter
Zimbabwe
##idde
feite
Kh
vel
bank
funksie
Museum
vertaling
##ooie
##slae
##toon
groe
geestelike
##da
##usk
Nav
been
Atlantiese
hang
mikro
vloeist
eksperim
##lose
1918
skyn
##uma
1912
##voering
België
betref
selle
twaalf
##gevoeg
rit
buur
##NC
##stro
terme
kommers
ligging
passas
##va
1925
aangewys
gebeurtenis
visse
Kr
off
aangepas
verskuif
stro
Akademie
Minister
vroulike
Ca
##iklus
1942
jaarliks
Gal
1934
##estem
##bestuur
aktief
literêre
##uth
1902
##nemers
gekoop
44
##uise
swe
herk
beurt
Latynse
publiek
wêreldwyd
geleidelik
Kor
immig
##ruktuur
effens
1937
indust
1919
Comm
Est
##gebruik
onmiddel
Waar
insekte
Voortrek
##anga
Corn
##woorde
deurs
Hierna
Koning
stamme
goue
state
result
##olis
##onst
sim
##lewer
stadion
##will
Skool
Indien
rus
Henry
regisseur
TV
##gewende
Wetenskap
Ra
skaal
Amster
grense
doeltreff
ur
##aamd
verkeer
eintlik
##ux
##grens
indruk
##fl
48
dwars
vorme
beduid
gesluit
Halic
benader
rekord
Vryheids
afgestig
Poolse
Malan
suksesvol
stowwe
Anglo
##utel
Brasilië
1899
besondere
##unisipaliteit
moord
##br
##cus
##brek
##aling
html
##oksie
persone
##vaar
eenvoudige
reël
misluk
ingenie
Carl
Jode
draai
famil
Amsterdam
##ight
nam
ser
##iksie
##inders
41
1932
dinge
vyand
##alistiese
55
##uther
1917
organ
skuil
verval
kombinasie
##istan
##pye
39
bewoon
park
konser
Euro
##iënt
##prys
##emarke
prest
styg
herinn
vooraf
##aka
42
##park
Ann
besef
debuut
Win
hande
##fort
##dh
##iges
##vlug
verduidelik
nedersettings
##ji
Les
##huise
##indes
dekades
37
Alf
##igg
##hard
##oloog
toekoms
##anië
vooruit
uitgereik
gedenk
##lassifiseer
##dra
Germ
##ign
del
1928
Victoria
log
dalk
vrye
Kuns
anal
kalsium
ooreenkoms
Aanv
wapens
mediese
Kaliforn
Konstant
stelsels
Denemarke
##oma
##gere
daag
saal
Gener
##wolusie
waterstof
jongste
Bern
stil
Swede
dorpe
Arch
ongeluk
toeriste
##loë
Karoo
verwerp
##iblioteek
gif
Mong
uitgegee
Murray
dogters
##uf
Goe
Halicl
geleer
univers
Westerse
##ips
Gall
bene
uits
bedreig
Haw
##ats
##band
arge
Postma
skaars
##gas
##skaal
1935
akadem
##FA
##tod
##lewe
Haliclona
##mis
dun
##rante
1921
##iaan
##merke
weet
Portugese
##aba
Ret
##ants
Luc
kre
##vorming
Francis
hoeveelhede
Bon
##ites
##gewer
organismes
Kim
VII
##vo
##con
##aming
##volusie
soortgelyk
samewerking
biskop
bokant
##ations
Alge
maks
meng
##elinge
toegeneem
##stra
simp
weermag
ingestel
bevolkings
##inië
brief
strand
heilige
kunstenaar
46
52
meet
##ruksie
nader
Nederduitse
##12
##zen
kab
vleis
geskei
data
##roep
Sen
##asting
##hu
##ns
##ura
##bere
##aties
##ani
vreet
Australiese
##iller
Form
##idende
primêre
betrekking
oorge
##ques
Ont
André
geluk
alfabet
onderneming
gevl
seker
##erspele
Wilhel
##gader
Alle
insp
media
men
Leon
Dal
##regte
straat
onttrek
toegang
##aur
##ept
Pier
Heilige
boonste
manlike
ondergaan
ins
mos
##gorie
##reekse
tak
##mo
##vert
adv
ingew
kontak
geklassifiseer
##ws
##ally
hulself
sj
##urige
toegepas
##halwe
1907
##artement
toernooi
Times
vrede
vernaamste
##inger
1922
gesig
Mosamb
ligte
nuut
Stille
##kig
##moë
Der
afh
##ction
King
Oscar
volwasse
Hans
Moskou
soveel
##okse
##igent
##siele
bedoel
kasteel
direkteur
uitgebeeld
1927
Prix
##stelsels
tropiese
Volksraad
Nag
##keland
inhoud
##ouers
selfstand
##ima
##rumente
literatuur
##var
App
##selle
Greg
krist
vermoe
versier
65
basiese
dinastie
verbruik
ed
##jien
eenhede
munisipale
##ec
Oek
##ato
ANC
tuin
##plekke
Hit
##moord
Camb
skade
satell
Aanvanklik
##etl
##went
bom
##rywig
Sant
glad
Mosambiek
afsonderlike
Publ
taak
verg
##adelik
Zoel
beskaw
##iana
Adam
Sand
held
inkomste
simbol
klooster
##yle
beleef
##ican
##rust
##adu
##rib
Sat
Prof
##gewone
Oekra
vyfde
Mot
##iro
##gering
opgevoer
not
##boeke
Klas
##komende
Cor
sorg
suik
horis
##gestaan
##organis
gegroei
International
1903
enjin
huise
genees
jonger
1931
Rooi
gepaard
Egiptiese
##alm
Sok
diam
seksuele
Departement
wye
byeen
##ennings
Vandag
##kens
maal
stoom
verken
genaamd
veldtog
Sek
soog
Self
Argentinië
tegnologie
kroon
kwart
politikus
Prins
Marais
waarby
optrede
##bre
##skop
##weef
##ersburg
Cap
rest
Ts
##seer
##arson
##berge
grys
isot
ingewy
Leu
##kwart
1913
vulk
##vereniging
skakel
##haaf
bood
##saal
orrel
uitbreiding
##maal
fas
##boot
Abraham
aktiwiteite
##lyne
anti
##erings
saamgestel
##slaan
Chic
Royal
sprek
##estemming
##age
##vul
dos
##kante
1906
##waardig
eindig
Heb
mor
Ierse
Spele
sekond
Clathria
ooit
dokument
vervaardiging
##go
##ür
bewerk
##esp
##iety
##bet
##word
Villiers
Demokratiese
##leef
Lad
ontpl
##lopende
vroeëre
werkers
##AR
Steph
##familie
##spesies
geeste
##lad
Edward
Ze
##stre
dryf
##gerus
spelers
##vervaardig
##hr
43
Nik
dans
Meksiko
waarvoor
eenvoudig
##tertyd
treff
krieket
City
##netiese
ob
##lekse
Jesus
voorstad
##zer
##ione
##orings
Im
lood
##sprekende
kommissie
Los
##edend
##state
Moder
slawe
stedelike
aansienlik
##roe
sak
##ferensie
aangewend
Pan
benodig
##agn
1890
gode
kwal
##gewings
Suidelike
##lok
bar
deursnee
Bir
beë
Co
Scien
President
oe
Hill
##bane
##gids
bru
##ipedia
##waters
Gold
redes
##giese
Roux
##iop
vi
##anger
1926
Ul
##spro
Klerk
proteï
lewende
koninklike
##gene
all
##todokse
onderteken
aktiewe
verloop
Vryheidsoorlog
gese
idees
hoeksteen
hospitaal
konsentrasie
##wn
ooreenstem
Mol
app
Reeds
toestande
##ines
1915
voorlop
bediening
Griekeland
##komp
hum
Karl
klass
Jak
##swana
##isasie
bewyse
geweier
vriende
brandstof
kommersiële
##let
via
##anteer
##rument
bestem
##ition
emos
spekt
##annings
##tigheid
huisves
oorgedra
##wige
##kleur
1911
Hoof
aangebring
Gel
Wilhelm
##speel
Hoog
koloniale
##geskiedenis
onderwyser
##isk
Christus
gesament
##kort
##reis
Ring
Joseph
Algemene
minstens
kortverhale
##tev
Here
breek
##kn
##pres
oors
hitte
toegerus
Av
##draal
noordooste
##bas
##iff
bol
Venes
##erivier
minute
kompetisie
passasiers
Vier
hers
##oksied
##ropolit
London
uitbeeld
ondervind
##entes
##geleë
1908
kook
gevoer
seevlak
argitektuur
##wit
##tesaam
valle
##alte
##wissel
beset
Britte
##asionaal
ligjare
voel
prent
Petrus
kritiek
erkenning
hoogtepunt
##ota
##iens
sout
##ektiewe
uitges
bygedra
##ieën
##erself
eienaar
##enaar
tema
Anders
planete
provinsies
##abor
Ford
Fort
##raling
kenmerkende
sterrebeeld
49
##ageer
##tydens
harde
woestyn
Kalifornië
47
Mark
Nazi
maat
letterlik
Po
1880
##ultuur
HAT
hare
juis
kolonie
verskille
vloeistof
Switserland
##zee
datum
beelde
##ags
##jes
##oors
Hind
Merwe
gedwing
onderhandel
##kur
viss
wild
medal
gedefin
##edendaagse
##ress
Boek
##risiteit
stigter
160
breë
oplossing
##ira
##oks
Ond
Hertz
effek
Martin
saamge
konings
saamges
voordeel
sterrekundige
##én
FI
##dheid
koue
Saint
heelal
sleutel
gevolglik
##ensiële
ingelyf
behandeling
##stal
prem
eksperimente
vervaardiger
##uan
berge
##hul
##feld
hid
Union
bande
vasteland
volledige
##11
##vle
##way
Sos
honderd
vryheid
##rywighede
beroemde
spanning
weerstand
oorbly
Burgers
##pat
afhanklik
Ur
Dar
fase
watter
##dia
##enkool
Fried
bakter
vermoedelik
##adel
und
heen
##iljoen
##tenare
pryse
Cambridge
waartydens
Bell
Hall
Bisant
vergroot
teenwoord
kommunikasie
##my
##annica
800
pen
prie
kaptein
klavier
beëindig
Middeleeue
bors
storie
verspreiding
##roc
##buur
Mess
post
##hi
ˈ
area
North
konsul
fisiese
leeftyd
Zuid
kandidaat
verbinding
ent
spir
staal
romans
uitdruk
##oeleindes
republiek
##iot
##kry
##istiek
Kanad
wag
onbe
storm
Keiser
##nr
##line
##rieke
mooi
Skotse
beplan
regter
samestelling
##oorn
ruk
hemel
vereer
afgeneem
Adri
##ht
##vall
verbied
publikasie
##erselfdertyd
##edie
intussen
Kel
1916
blok
Kanadese
##oewer
##uister
kardin
siektes
professionele
gemeenskaplike
##sky
##ideo
dir
##eksie
gelys
presies
duisende
suksesvolle
##osie
School
leiers
##pa
Que
mig
brug
vrag
##produkte
kalender
†
##ates
243
##atorium
lokomot
##oets
##press
Vanweë
Venter
Pearson
praktyk
##ando
Nas
sensus
##gor
00
##werg
120
Bek
ly
Myc
stat
bekom
Noorweë
oorgang
uitgebreide
Wel
stukke
liedjies
bekendheid
vaar
##ures
1896
Ster
Oekraï
skelet
monument
53
##voëls
Hoop
Iran
##ben
##ijn
berig
ontsn
##25
##over
##rick
##vent
##inell
broe
uiteen
Chicago
##skou
sing
swaarte
beskerming
##18
Ven
myl
##vloei
1898
getref
gevorder
Islamitiese
netwerk
Transvaalse
Max
prag
ervaar
minste
Company
aanhang
metodes
daaropvolgende
##19
Bou
##waarde
hedendaagse
##wye
Geb
1923
eier
versamelbundel
##iët
##raph
fab
pri
Rena
##etlaars
ooskus
##ador
Boeddh
verwar
165
Cur
##plante
Tsjeg
werksaam
Com
Sweed
landskap
##sme
Tro
wal
hoogs
volwass
##ox
ren
##vallei
Coetzee
vergader
toepassing
##urch
Vloot
suidooste
##oper
saad
nogtans
mededing
koninkryk
##paar
##anth
##oloë
##doende
##streeks
##ateriaal
onderdruk
##rac
ts
##idel
##neeu
##oven
Portug
Spaans
direkte
Hor
Somers
eiendom
American
##bu
##unk
heg
bewon
vakansie
vroegste
##amen
##siel
Walt
bereken
tegniese
mitologie
vierkante
##ania
##iform
##riwwe
slaag
##ialistiese
1886
with
Tafel
##gevaardig
##sek
##mark
Gew
from
golf
ontsp
streng
av
werklike
bots
##iebe
Dag
##field
##iment
volke
Kommun
##wan
Philip
sigbaar
afkoms
tempel
situasie
##isi
Jou
##bruik
redelik
##lie
Hu
rand
##toring
aantrek
ernstig
uitsluit
##been
##jins
##ronde
##usion
Graham
geskiedkundige
##lae
##pie
54
bot
##enners
Marie
steenkool
##abit
Che
Sweedse
Golf
##usting
wentelbaan
platte
##mie
##aria
pyn
vee
aangeteken
##ces
##ereg
gered
afgel
Europe
gedruk
vervolg
waaruit
werklik
Johan
##lê
mel
Mens
konv
gelaat
##wak
midd
Andrew
aanwes
bymekaar
spoorweg
uitgespreek
##inst
Ern
Vyf
##iaans
Hart
goedge
blykbaar
afdelings
tab
tal
Society
komponis
buiteland
strukture
##pak
Sar
##lengte
tipiese
middelpunt
##mod
##area
Staat
##middels
afstam
##14
Eth
##reëls
afske
aksie
##pies
Wol
##bokke
genl
bewus
##oernooi
##posisie
beeldhou
56
##diep
stab
tronk
##istieke
vlerke
##etal
##parte
band
papier
toekom
beoefen
bewoners
##bach
##vermoë
beginsel
lit
atoom
plase
spreek
kategorie
elkeen
produseer
##itsj
Beth
##spruit
Pierre
matrik
veiligheid
##pan
775
News
##ited
##ival
##vere
era
bind
Simon
skepp
Britannica
toenemende
Bet
Let
##aders
1901
draa
##bonaat
##ograph
partye
werking
Naas
finale
liefdes
maksimum
voorgekom
temperature
##ijk
altern
maniere
##maatskappy
Tor
Veral
##ging
##mont
Leuc
feder
medium
faktore
Somerset
goedgekeur
176
tekste
177
Fer
##anker
##mente
rang
inval
tuiste
slagoff
##laat
skuld
Hertzog
Portugal
gereelde
beduidende
##skip
con
Hitler
kerklike
sekretaris
provinsiale
##ii
85
ac
##amin
rub
Ross
sokker
individu
tra
##gehou
##geval
##uring
weersp
wetenskaplikes
##ony
Blou
muur
orkes
wette
Ortodokse
toekennings
moedergemeente
##uto
58
Dict
Volk
planne
families
64
mev
skeep
vrees
sewent
Jaargang
Slawiese
##ervaat
bespreek
onbekend
sedertdien
ondersteuning
teenwoordigheid
##dent
##reed
##staal
snelheid
##anz
##iëf
AT
XI
vog
##leier
1870
verbou
kolonies
tydskrifte
teenwoordig
uitvoerende
##amm
Mah
plate
##werkers
lewend
hanteer
##als
##omet
Merc
figuur
Lee
Vis
Half
##ublieke
feitegids
negatiewe
Ec
##aker
##olie
nut
##tenis
77578
gunste
Rust
Plaas
Lugmag
opgestel
##ism
##bers
Maur
Nasies
##arkt
Wor
pre
##iefde
##ingen
##kamer
Hein
Soms
gereken
aanvalle
geskrifte
##ico
Tu
Goud
##tellig
##republiek
##aarse
Limp
kans
Victor
gedefinieer
##iënte
##kappy
##seker
House
aparte
vorming
ess
musikale
bu
Mün
##fonds
swaartekrag
verste
opnames
gedeeltelik
daaraan
beperkte
tradisioneel
##bury
##manne
##riële
1909
skie
aanbe
##uum
##inte
##êrel
Lita
gemat
wyfie
Napole
onlangse
##anna
Gaut
spoed
##telsels
struik
Witwaters
##ti
reëls
verlies
Bor
Ses
1889
Limpop
student
toestel
170
gal
Viët
psig
verlore
predikante
##nik
nek
Oper
Inter
roete
##ërs
Het
onvol
Noordelike
onmiddellik
##ado
CD
##bevol
##ksies
##ördin
roof
dadelik
waaraan
Witwatersrand
Kas
gerig
vertolk
behoefte
gevolge
Intussen
organiese
ex
##aande
##rugby
dink
taam
neder
##oontlik
##teks
dokumente
verhoudings
##aland
Paarl
normale
waardes
Benewens
Persiese
##roue
Sod
ill
oral
gesel
straf
georgan
binnelandse
##uwee
gemeenskappe
Li
700
Sem
Beau
melk
slaap
gemeet
suiker
minerale
noodsaaklik
##iga
##endeels
immigrante
saamgesmelt
BBC
##oeder
##irivier
Daarom
##aliteite
uitstall
bewegings
##getal
perde
bygewoon
joernalis
akademiese
Mp
##rang
Tre
##orkes
##raaff
Groen
setlaars
spesifiek
##oni
totaal
##una
##une
Mes
Herm
vreemde
spoorlyn
##bell
1895
liber
verrig
vyftig
permanente
##etterkundige
Kub
Tit
##meester
Deense
optree
hervorm
verskynsel
##mand
Ast
Bus
Marx
haal
95
Din
Eug
Hand
selde
dertig
unieke
vinnige
##lyf
bond
proef
##13
##kan
bur
dipl
kere
##essies
verbindings
##du
NA
##reet
hoop
##ariese
Journ
klere
lente
gevier
##por
Bay
##ropolitaanse
##15
##ön
##dus
##fel
##werm
Gar
elf
ontle
nasion
##nestelsel
aanspraak
verwysing
heerskappy
skiereiland
##90
To
##otho
##medes
Vrede
wilde
naaste
hoofkwart
##vry
Spe
##bruin
Gesk
##opleiding
geografiese
63
herd
resp
ring
aangeval
boodskap
Friedrich
##visse
afgeb
##wetenskappe
##ci
Tog
hol
oom
roep
##iddeld
bestand
normaal
tegniek
nywerheids
organisasies
Boo
vet
Korea
speler
##ause
##ilig
##riet
Ram
Lind
##rasies
veranderinge
##view
1897
denk
gees
katal
nommer
voldoen
Laasgenoemde
##onk
##atis
Mul
spe
##ating
Heer
Melk
duisend
##karbonaat
##ough
Bru
skyf
Hertog
gereed
Andries
besoekers
es
##voed
250
Smuts
Roberts
##idge
##aarte
gewy
##gevang
vasgestel
##cert
Ryn
Test
gewig
oorblywende
##ser
##medesm
komment
positiewe
paaie
afgele
gasheer
bygevoeg
ondernemings
##aj
##rup
High
ontsnap
##ital
Hex
Pap
##ionary
brein
koper
Simfonie
katedraal
oprigting
##itt
ir
magnit
Hymedesm
ingeneem
62
Bep
##argie
Dirk
bekw
aansienlike
##ava
Sus
Black
volume
Romeine
##pon
##skrywer
rom
geheim
tipies
daarnaas
voorgang
toekomstige
##zo
##cher
##rens
##elders
##skaalse
bynaam
Ondanks
aansluit
omgewings
86
87
##andra
oplos
Luther
##wedstryde
grotendeels
##heb
##kam
da
os
##ning
Bad
hern
Johanna
volledig
hoërskool
uitsondering
Ob
##dad
##olwe
166
Amp
##ianus
Laur
##erkant
skild
vlakke
gehalte
selfstandige
Wash
Graaff
Angeles
susters
pe
##vier
ris
##skomm
weef
##projek
Grote
figure
kanaal
kompos
Arabies
natuurlik
Ys
Res
Kons
inde
herhaal
modelle
Duitsers
Tra
##ireer
##alem
##cien
ret
hoor
skei
Kerke
ronde
##voerder
gehelp
maatskaplike
US
##dier
##urend
Slow
reuse
##enthede
##hef
##skik
mem
Calc
kante
trein
Daniel
##klas
##ædia
vang
aller
aftrede
geëindig
belasting
wiskundige
##igde
Cape
verwoes
horisont
deeltjies
uitwerking
##bec
175
mol
##rekwens
College
##poort
Slegs
kontinent
elektroniese
Lim
benadering
vereniging
waarvolgens
88
Gi
##rooi
Tha
aandeel
skilderye
##rink
Munisipaliteit
omge
##moedig
Radio
beywer
deurdat
gewildste
mettertyd
soogdiere
##fers
##gryp
##inee
Sah
Polit
individuele
maatskappye
sh
##cord
Plaaslike
##derf
Cas
tur
1884
Geme
klem
Ottom
Kimber
tekens
Journal
Liv
##inees
mill
impak
##issance
beskrywing
##dis
Sur
smaak
Turkye
diepsee
74
tev
##bewus
beskawing
identiteit
Bat
toel
##wording
stories
##materiaal
magnitude
##gest
##endste
gemeng
hertog
koraal
onderkant
##gal
##nemer
grade
funksies
vervolgens
lof
##groen
##soorte
negent
mengsel
##fil
##skol
inte
aspekte
ervaring
personeel
##16
168
##esdae
Riebe
Musiek
middestad
Boereoorlog
Normand
66
oef
pan
FIFA
##iriese
##endheid
verplig
##tim
##uck
##artig
skiet
sodan
uitste
Hervorm
oorblyf
aangekom
altesaam
wiskunde
individue
##furt
May
Brink
##ootskap
Navors
verbrand
Vergadering
Ep
dors
hotel
verskyning
Asi
onm
##olaas
Sing
mening
opening
nabygeleë
subt
Goeie
White
##melting
briewe
belange
kollege
Noordwes
Kimberley
##teit
Gra
Vor
haw
##dings
skil
presiese
nywerheid
programme
Encyclopædia
Kap
verj
Selfs
denke
aandui
##ueel
Alp
Ele
Nob
Sak
##idder
##tydse
##astiese
##ople
sneeu
Sokker
blanke
hierna
opname
outeur
kulture
herinner
verbonde
instellings
instrumente
##ulle
Tom
pet
Weer
danke
kolle
taamlik
##amme
##ruise
Four
##bekert
keuse
steen
tabel
geproduseer
##wap
##liga
Lyn
##esting
Jakob
opgel
uitgewer
##UK
##soek
##sterf
moed
Alfred
bydraes
prosesse
uitgesaai
weergawes
##ifik
habit
sinte
Springbok
konstruksie
##rij
##yns
##ulus
##weld
stadig
##peratuur
Out
Cath
Midde
egpaar
promin
Joubert
bekroon
Washington
voortgesit
kortverhaal
verkiesings
##engel
##itaar
1888
Roman
##stander
##air
59
##sell
##woud
swem
##uiwing
Danksy
genera
hoofkar
Frederik
Germaanse
Indones
Belgiese
##album
lyne
##amente
Jacobus
toegeskryf
##enh
lad
1885
Grey
##musiek
musik
grondslag
##brug
##eton
##haus
Jup
1881
##allysp
tekst
omvang
##uer
##war
Komp
##geroep
Binne
intel
Botswana
Onderwys
##put
##miese
1893
afwes
gemiddeld
##get
##wart
152
emb
##inson
##telje
Angola
prente
Callysp
##gemeenskap
voortdurend
##fs
##aph
php
maag
tereg
Koninklike
Ax
Cat
dank
##uidelike
99
ves
afgesk
stasie
instrument
Cr
##orte
Noorse
aanbied
verhoed
moontlikheid
##aser
nas
##wedstryd
Gauteng
aangehou
uitbreek
biblioteek
##igs
Jud
Miss
Sowat
Formule
gevange
antwoord
vinniger
tradisies
É
##straf
##velde
Wood
medis
##ontwikkel
dialekte
elektrisiteit
##rium
1894
Barb
diss
smelt
##ensionele
woonstel
afstigting
##opel
##voud
##uwees
Kers
mere
mult
skrif
nywerhede
toestemming
57
84
Org
Vaal
alko
Columb
##idelberg
##oppervlak
omstrede
Wikipedia
Kir
Maj
1860
geïnsp
goedere
Testament
opvoeding
prestasie
imm
##essor
daardeur
##las
76
Bh
##umal
opera
München
beskadig
redaksie
##ordel
vorms
heuwel
vlieën
apartheid
Burgersdorp
##17
##ati
##gra
##imir
Mars
steek
kenmerke
varswater
##imn
##lam
##klub
mnr
##kinge
##lange
fond
##ikstof
##uiperd
Brown
Kruis
Media
leidende
voorspel
##ple
##etta
radi
beslis
motors
waarheid
administrasie
##ova
Gh
Bed
##anisme
rasse
onthou
##mid
##ider
##skep
Lode
wins
##istent
##wenaar
outom
sesde
afstammel
definisie
waarnemings
##jag
1887
aster
gehuis
##stan
Dre
perd
Woord
beloop
Antarkt
Ps
##vrou
long
Jupiter
##harm
DNS
opper
versorg
Asiatiese
gehuisves
sterrestelsels
##ave
##oerd
bor
sch
fort
inheems
uitspraak
Bart
meub
##oestand
dialek
##benewens
##odor
##seun
Arn
##kantoor
onlangs
reageer
kompleks
weerspieël
##ulf
tu
Nat
1891
Siber
insig
relig
wolke
toetse
##organisasie
##enc
##reël
ref
Long
tent
##vliegtuig
Christene
Instituut
##tyds
##lekke
##oogte
Buite
Human
tande
vlerk
leerders
Somerspele
onderwerpe
Middeleeuse
Middellandse
##do
##pleeg
##nemende
ingang
klasse
burgeme
##esco
Web
lie
##oedan
kaart
##ggend
Jans
eerw
port
lange
woude
geduur
teorieë
beginsels
##dy
##bak
webwerf
Napoleon
komplekse
wa
##eens
##apende
##istreer
siklus
aangelê
uitvind
ondergrond
##arye
##rywe
Wyk
Zamb
sokk
bevry
gekop
##ouer
oorsaak
onderhoud
##ouw
##yds
Wyn
##vader
klaar
sestig
letters
Italiaans
Han
teor
##verspre
straal
##produksie
Rhodesië
Pretorius
kalksponse
Ko
##agen
##angs
Pop
erg
##ual
##rast
Ell
wyk
##ienaar
##okrasie
besorg
geheime
Calcarea
digitale
##sku
FC
ca
##gegee
##onome
1877
Part
Town
teik
reënval
voorbere
1875
Tans
persp
Heidelberg
68
##arol
Hoe
lar
##aters
##ingel
Turkse
vallei
waarom
satelliet
##umin
##aster
##issing
##asiteit
##iram
nod
##usalem
deels
##lidmate
omrede
##standers
Viëtnam
kantoor
Parlement
##kr
fir
##angrik
prooi
sanger
wonder
##kommissie
##appe
##icus
parall
uitmaak
##ón
Xh
##hoff
##meel
Pak
Tru
##estes
koel
akkur
gereis
intens
Hamburg
vergesel
Bisantynse
hoofkwartier
174
1883
moer
73
##rama
##ïsme
##ietjie
Oranj
geass
Cornel
Kunste
Antieke
Hongarye
mineraal
##ema
ew
##port
##rees
Stra
Skand
Mycale
##dentifiseer
##agh
##yth
Anth
Deel
tipes
eksped
geneig
kleinste
verwante
buitenste
uitgestrekte
164
##osour
Evangel
alkohol
toerisme
beskuldig
##pret
Dus
##skrip
asem
##aanval
##isteem
beklem
etlike
Holland
kontrak
private
filosoof
1882
Mense
Hexact
oorweg
##westelike
Halfrond
groeiende
ooreenkomste
mass
##museum
Liter
digters
Jerusalem
industriële
72
gh
Nou
##arina
Just
preek
behartig
duidelike
Huisgenoot
Protestant
kwes
lens
temas
begraf
##oestande
aanduid
Hann
mure
teles
gesprek
Kos
##isties
gedagte
masjien
##kat
ha
##ogte
##ston
##uning
Wene
Vroeë
Litaue
Reinet
beland
modern
Hollandse
voorsiening
##riend
##aktiewe
##usionêre
Melkweg
owerhede
persoonlik
77
Sum
kur
##prent
##ieerde
verban
suidweste
gesamentlike
Tri
Wis
##eller
##matig
##wyfel
Chili
premier
Amerikan
burgerlike
69
##abas
##gewe
130
sem
Goue
kris
venn
broei
kampioenskap
##osi
Lé
##iden
Mir
koms
Babil
bodem
langste
intellig
afgevaardig
matrikuleer
Herman
Encyclopedia
78
##ilike
1892
boog
Chinees
kabinet
stigters
landelike
sendeling
Renaissance
##ove
dru
##offie
##ution
Jong
##aliste
Beide
Music
dwerg
diplom
volgorde
##bor
##bote
##tegn
##thur
##verl
Rud
Life
Sien
sink
omskep
onderhou
##ée
##eff
##oute
##riel
Bun
ven
Chris
##seisoen
Frankfurt
Hervormde
geleenthede
##omblik
##uskrip
spier
vermy
Mpumal
##wekkende
Finland
Ottomaanse
letterkundige
universiteite
kron
Kenia
Church
verleng
gestudeer
Vrystaatse
instelling
Lie
alt
Grond
geslagte
handhaaf
Konstantin
##god
##jan
##akes
Kro
ure
krygs
binnek
tydelik
##AS
Nab
##greep
Klass
gesit
leser
misdaad
Kaapland
##bekertoernooi
##OC
##ikula
German
##kundiges
honderde
gebruikers
##oseer
deeg
flor
ywer
##reerde
##vormig
Academ
Ru
##daar
Stalin
strepe
wenner
Venesië
Voorbeelde
Da
##kans
Lud
Jord
##esters
##handig
##histor
Derde
kwarte
gegrond
voldoende
##än
Hem
dre
##agtes
Bron
Wolf
Kongo
##ontwerp
elders
Welling
oomblik
voeding
moeilike
materiale
mannetjies
Oostenrykse
bekendgestel
##bar
##hui
##elli
##lems
##omen
Ball
endem
Middelburg
ingenieurs
grootskaalse
ras
##sterk
##oliese
Brits
serem
##aliseer
##ensiaal
afhang
Sending
afgelope
##bus
##slid
Lin
Mod
Vere
kode
belegg
senior
ontdekkings
##OS
ik
gang
seld
##onsent
veertig
agteruit
bykomende
navorsings
##roke
oks
##stell
Queen
Beperk
oranje
Uitgewers
##oto
pel
##mense
##beleid
domin
##onderstel
Christiaan
geïdentifiseer
##inaw
Ren
Hugo
mete
pale
neers
Grahamstad
Wellington
geïnspireer
Daarbenewens
lot
##asmus
Bill
Spoor
uitgeoefen
##35
Bok
##wente
plaat
oggend
gestaak
Christian
aktiwiteit
##sd
##onië
##tome
Leo
Ref
Irak
egte
##ograaf
bemark
Rewolusie
##uard
Nel
##party
gebl
links
##ialisme
opposisie
Voortrekker
deurgebring
Rio
##oorts
Trek
Opper
##verkies
evangel
liggame
owerheid
Rustenburg
burgemeester
##oli
##ydse
##aking
##kee
##nie
67
##ific
##kont
##utte
##gesel
drank
volop
##loopbaan
resultate
Mpumalanga
##hl
##aux
##row
##boer
##vatt
Daw
ZAR
##motor
Jack
Mary
Albei
oorwegend
glassponse
##ère
##okol
Sel
Anne
##bestaan
vervul
stikstof
Skandinaw
##ES
##bly
##kon
##glas
Sis
Sun
Apple
avont
Beaufort
gekombin
aanvanklike
dooplidmate
##ikeer
Star
eend
Green
drink
humor
##regering
spikula
komponente
##hm
##sit
##iene
##ique
##lete
##ydig
Camp
##oonlik
afloop
##inellida
toename
##genootskap
##orps
##teller
aarts
konteks
Vereniging
Hexactinellida
##igers
Gust
diak
Assoc
##dertaal
wedren
Moslems
##beh
##obi
08
##ronom
raam
##astiek
Harry
pragtige
Dictionary
voortgegaan
##ikel
##orwe
Men
##stone
opst
##afstand
sirkel
steens
##verander
formele
verdiep
Laerskool
intellekt
konsulent
kommentaar
departement
##iket
Mem
##igeer
Nord
Niger
brood
verre
interne
publikasies
ontwikkelings
SS
##iane
Rod
She
dak
##aceae
##ateur
Krieket
Lodewyk
erfenis
winkels
konserwat
manuskrip
oorblyfsels
##awa
##yse
51
##aven
ker
##proei
nasie
##ersdorp
spring
asteroï
religie
bergreeks
noordweste
##arao
##onia
getu
pion
##ublike
##utasie
absol
diepte
dokter
gevlug
kunste
onthul
dirigent
omliggende
##kep
How
Jos
ite
war
##geloop
Grieke
risiko
Lughawe
diegene
deelneem
tegnieke
toerusting
besonderhede
##ER
Od
##inig
Tib
klop
graan
prosa
elektrone
bewerkstel
##ikl
##ila
##rey
89
##bome
##tors
sed
Stef
##osieer
##sterre
Count
|
lu
##anie
Nyl
##spoed
Bened
chrom
aankoms
plantegroei
##beheer
gemik
oewer
vermaak
onbekende
900
Deb
##endom
Kron
Verk
vaardig
##ela
qu
##awer
Far
Lux
sag
##onies
##amiese
##streek
##ikaanse
vertikale
bewerkstellig
##bi
Dou
##ities
Main
konsert
opgemerk
besigheid
daaglikse
filosofiese
dé
wh
##anderd
Jacques
frekwens
funksion
steenselle
metropolitaanse
pare
peri
##vloede
Walter
korter
begrens
Volksrepubliek
##án
##kas
##yon
Dig
koe
boor
ramp
seek
tekort
mannetjie
beklemtoon
##leit
##ties
Len
##ibare
Brus
Vlaam
gevul
oorloë
Erasmus
Limpopo
graafskap
##KV
05
##seel
sur
Geen
Kenn
keur
skuif
kanker
verdrag
tydelike
onmoontlik
teologiese
##vor
##wind
Moz
Tay
##ellings
onderwysers
uitsluitlik
##sf
##iat
ra
Jon
Smit
##status
oorsk
Arthur
illust
bakterieë
83
Up
neus
##wendig
Athene
toesig
lidmaat
Switserse
##22
Gem
vlae
meisie
alternatiewe
##junk
Fel
vin
##elson
Drak
vinne
oorsese
##aboratorium
##chn
##ural
##wyding
##ydperk
aanbid
wyfies
hiervoor
##kru
##was
Rol
Sha
##sport
nage
sier
Mandel
simbole
Ot
##voet
Eur
Mit
dramas
setels
onseker
leerlinge
teenoorgestelde
##oa
##ekse
Jag
mer
one
sat
##bring
##tiewe
Dend
ensov
dekade
##idon
##roete
Geod
afwy
Palest
koerante
##ares
##ipes
Hum
Tex
##apper
##slede
benut
fliek
terre
Pruise
verdien
wêreldwye
horisontale
04
em
##enië
##verw
Kam
##under
olif
Scott
slang
diamant
sagteware
##urus
140
Nor
##ankes
stim
Vader
##angrike
Michel
ontgin
bewering
interess
sokkersp
assistent
slagoffers
ontwikkelde
##alt
##for
Map
##ameer
Cong
##isters
berus
katte
##skrifte
openbaar
ensovoorts
##mings
1850
Rock
Ther
##ikkelde
omgang
sekondêre
##VD
##oj
Mass
huur
herbou
verhit
makliker
79
##enjin
Barn
Chem
Saturn
getree
gewildheid
##cel
MI
Law
ose
epis
dring
##itzburg
Franco
kragte
##êrelderf
Suidoos
koördin
ondanks
Tafelberg
Teologiese
##ori
##ror
Ve
##resp
##etêre
gear
tref
Kroon
Moham
gelok
Messier
digtheid
aanhangers
terselfdertyd
..
##hele
...
##bleme
##stene
Soph
opvall
##oedeling
noemens
wortels
verhandel
##ax
##tus
96
Sn
Sec
vore
Sirië
Keltiese
##isa
##kool
Dam
##basis
##ioene
##stown
Otto
Stan
video
##intenis
Oranjerivier
bis
##jiene
##ostel
klok
Geskiedenis
bedrywighede
##eck
##etse
##ische
Rooy
##verbind
Kollege
praktiese
voortplant
##êrelderfenis
grondgebied
samesmelting
##ppe
##oire
##ektor
Meyer
gemeen
##skollege
dorsale
aangekoop
moedertaal
##ultan
1876
Margar
digkuns
gesteun
middele
fossiele
woonbuur
##bat
##rimin
meen
takke
atelje
ideale
wortel
Geestes
vooruitgang
##ão
##rae
##uay
##vre
##gies
Got
1871
Aleks
Liber
eienskap
##cul
##sey
##omme
1879
Aard
Kamp
edel
rotse
uitvoering
Sonnestelsel
hoofkarakter
Dun
Rog
verblyf
skepping
waarneem
lokomotiewe
##26
##geld
169
asof
https
Arbeid
aanlyn
Natalse
behoeftes
Standpunte
verklaring
sc
##ugte
Lam
koor
##haling
##sterwe
Charl
##ahn
Ach
##oniem
Bret
Good
gete
wese
##eneens
##huizen
##waland
opgebou
skuldig
deelstate
blootgestel
##28
98
##able
##utsch
ATKV
Wlad
##raking
Orkes
Sater
digte
Behalwe
gesteentes
##RA
Santa
skielik
vestiging
verwysings
##iti
Laat
hoef
Perse
newel
rykdom
gekoppel
voorstede
gesondheids
verdediging
•
##ilie
Pad
dim
##ienis
Vent
daal
##rof
Dik
Orde
miel
##winkel
skerm
Ethiop
federale
ingespan
begrafnis
navorsers
sm
koring
materie
magnetiese
kiesafdeling
##cl
##alon
##stip
Dom
end
##iansie
##irasie
gedink
kleintjies
buitengewone
##derm
##ienk
iet
bloe
pian
weier
Bosman
Philipp
liedjie
Pietermar
##ario
Spes
##stydperk
##tellings
Verdrag
aangrens
veroordeel
veranderings
veronderstel
##pen
Mi
##oppe
komitee
vrywill
afsterwe
suidwaarts
##ül
##rog
£1
Ray
det
##halte
Verw
gepl
##orting
Berlin
beeste
getuig
interpret
Off
Sny
1862
aansoek
Southern
##ues
##buis
##arius
1878
Kant
Leër
##geerte
Hawai
##pressie
United
bykans
Bernard
Christendom
Konstantinopel
##lip
##owa
Kle
1859
1874
Kath
pote
Weste
uitdag
daaroor
betreklik
biologiese
Springbokke
hervormings
##27
##ows
##unus
Moor
slaan
Staats
British
##bad
##ved
##fase
##yfer
Dor
##vorme
ietwat
waters
kiesers
patroon
rekenaars
prominente
Kommunistiese
##atie
Jun
Vos
1000
##esteer
bedrag
06
94
##inia
##oods
lim
##kruis
##lines
oseaan
tesame
Publish
gematigde
konstante
verbintenis
volwassenes
georganiseer
##23
Mase
Open
noordwes
distrikte
perspektief
##dae
Bank
Maan
##enteer
##migreer
Taylor
sprake
bietjie
Florence
Provinsie
ingenieur
leierskap
resultaat
gevangenis
toneelstuk
Brandenburg
strategiese
demokratiese
belangrikheid
##ede
##klop
Tok
reus
##imeter
##werper
Eduard
Harris
groente
Windhoek
benaming
eweneens
sentraal
stabiele
eindstryd
uitgemaak
sterrestelsel
09
##aber
bane
##ichond
afval
afgelê
stapel
uitged
deesdae
Daarnaas
gebruike
id
##agas
##borg
opstel
sterker
noordoos
projekte
##led
##stud
##maker
1866
1872
##ekteer
##sektor
Elekt
Ernst
Talle
graag
hoort
##waardes
enorme
heerser
besproei
helderste
Mu
##ivis
##ïese
Pir
##plaat
mode
rock
##hoogte
Josef
gehaal
geloop
krisis
tydstip
Generaal
senuwees
##rastruktuur
argeologiese
UN
##lust
##ther
Cam
wint
ekstra
Brussel
gestrek
##reservaat
algehele
generasie
gewapende
ondersteuners
##kige
##akker
##gebly
Liss
glob
##atting
##rigter
##vlakke
dusver
wetgewing
geologiese
é
93
##uiste
Alban
Kamer
blaar
brons
spore
uraan
##agtiges
breedte
vermoed
kardinaal
hulpbronne
Um
Syd
##iation
##voudige
Natuur
gespes
Moderne
Science
Berlynse
medisyne
teologie
Belangrike
##MS
Gert
fout
gesing
primit
sewende
Londense
driehoek
##eta
Kem
1861
Apol
Bull
Riebeeck
normaalweg
onderskeid
Skiereiland
##tsh
03
##urms
110
Leg
1864
##anseer
Geall
tagtig
meester
##struktuur
genetiese
oorhandig
Protestantse
##hid
##itus
##vard
##aaier
##glish
##skole
Cast
##namige
atome
dieet
welke
argief
begraaf
verdryf
Oekraïne
##ello
##hart
Pale
Franç
chron
Eilande
isotoop
nederlaag
geassosieer
areas
Nelson
reguit
Alexand
effekte
formule
gevegte
##acks
Kur
swa
pels
##werker
volgel
Komitee
Portugees
geselskap
geregistreer
##lan
Pt
Teg
Prin
Stat
sirk
namens
invloede
meganiese
skryfwerk
##aki
##chi
##eni
##moed
##ennie
##kaats
oupa
plas
##eregte
Grant
kanon
ewewig
aanneem
evolusie
standvoël
Callyspongia
1869
Serw
tier
##enaars
patri
Snyman
monarg
##anes
125
inn
1863
Klassis
ingedeel
identifiseer
##hor
##bode
##mund
Tel
##ement
1873
Sport
inisi
skenk
##ologies
##weefsel
gedoop
gereël
gratis
morele
baanbrek
gelyknamige
##cat
##sny
Et
Cec
Ped
##lywood
Lewis
Zambië
##beelding
Vorster
aanvang
Petersburg
bedreiging
kie
##burgh
##eerder
##gieter
Katal
opeen
Paulus
winkel
simptome
uitdrukking
##oz
Bei
##abaai
erwe
kaas
##erstad
Saoed
Virgin
Halichond
153
##stoel
Roem
##iekerk
##rokies
##voudig
Maleis
bestuurder
##rio
Pu
Kop
hie
##cester
gelyke
Pienaar
geleerdes
##fig
##fun
##pert
gra
lis
##antal
seer
meege
Samuel
telkens
internet
priester
##uls
##aald
##agan
##arth
##kure
##lied
##roub
Hub
##wasse
1848
dorps
Record
draaib
gelees
skildery
##oir
##rass
NGC
boot
neef
Malaw
fiksie
ligter
Studies
kerksaal
molekules
##temperatuur
waarneming
uitstalling
Brasiliaanse
Voortrekkers
munisipaliteite
##jew
##eler
Bri
las
Tele
##rikkel
Groep
klink
nodige
afstande
Hymedesmia
##DR
##ni
##edes
##itor
Rose
alled
bitter
feeste
wydverspre
Bey
ann
ink
##cient
Uite
onst
##beweeg
##duksie
##opsent
aankl
index
France
warmte
Mandela
Nogtans
spiraal
wêrelderfenis
##CA
##kome
159
Lord
##oordeel
aardbe
faktor
katalog
voorganger
Vrou
woud
Arist
Hugen
syfers
Kultuur
oorlogs
spektrum
doeleindes
ekspedisie
sendelinge
gebeurtenisse
##aire
Act
Had
nom
##otipe
##perke
Klip
##innige
world
beveel
vredes
##provinsie
ervarings
verowering
##kepe
Rub
sna
Krug
##ansies
hidro
tafel
##aamheid
Retief
ekonom
mynbou
vyande
##gressiewe
uiterste
Francisco
uitstekende
persoonlikheid
q
Inn
Pre
##isier
Gram
##sdiens
koffie
luister
restaur
##alisering
proteïene
##ted
Ku
Ok
##rief
##feder
##praak
##strak
voeg
##geleke
##ionidae
Hierin
metale
Litause
aanpass
geskrewe
versteur
##pes
##akul
wan
##plein
##tinge
Mann
sade
##tempor
gegewe
opkoms
pasiënt
Margaret
aanwesig
Mak
##rekord
tsaar
Nobelp
behoue
English
gekleur
weduwee
Heinrich
##vergadering
##ound
Aud
Leip
Wint
Storm
viool
verhoor
versoen
weefsel
liggaams
##icht
##ison
Sake
##bergte
##geword
geskiet
houding
vermeld
klassifikasie
##muur
##sent
154
##togte
1867
Gene
Ober
Rasp
##andeer
##onderd
Sahara
adjunk
geleef
##geen
##grawe
Vlag
hong
##geboue
##lewing
Pools
debat
Chalin
Moslem
bereid
welvar
woning
##vattende
verplaas
gedeeltes
vrygelaat
Afrikaansche
aangrensende
##arp
##ikke
##oolse
##stert
##temin
horm
boord
Apollo
Cloete
Microc
getitel
onderver
Hongaarse
##ié
##ito
##ukas
Vil
ryp
wer
VIII
##isoene
##teorie
Pakistan
voorkeur
##kor
##sief
Zam
Trad
twyfel
berigte
formaat
##redakteur
heersers
aanraking
skuilnaam
##skl
07
vit
##romag
leen
Books
berei
herken
besetting
skub
refer
verset
geteken
geskikte
miljoene
##ingsproses
vriendskap
grootgeword
##oft
Emp
Rel
gelykt
geroep
gekweek
suidwes
aangevoer
gevoelens
##roog
Gil
Rem
##peare
Khan
emer
kweek
Currie
Sydney
voorts
Viljoen
besluite
##str
##ugh
Ye
##oere
##werms
niet
inder
wille
Straat
habitat
sodanig
vermeng
Association
toepassings
Simfonieorkes
##itis
var
##ousse
##verdig
teens
##entskap
Shakes
Saterdag
département
##21
155
1865
Indo
uitw
dramat
ewenaar
ontwerpe
straling
handelaars
betrekkinge
intelligensie
Dj
156
Sav
##erson
##illes
##kloof
Taiw
onts
gasse
Singap
##geleenthede
noodwendig
standbeeld
##sing
Bow
Rot
tit
Matt
fant
harm
soet
Luxem
##ensburg
Golden
kristal
spesial
Westelike
verdeling
Uiteindelik
konferensie
##tas
##vir
GK
149
Att
##issen
##ydige
plein
akteurs
Dieselfde
kerkraadsver
televisiereeks
##ofte
##olië
DVD
nov
smal
##assade
agtereen
ingewikkelde
##duis
##foon
pal
kond
Karib
Mount
oefen
kansel
kitaar
opnuut
armoede
XV
cap
lek
##annes
##plane
dist
dwel
getel
##voeging
Olivier
getuienis
demokrasie
toneelstukke
Microcionidae
##cy
##gan
##shoof
1858
Alpe
gran
##issies
##nasies
Vlaan
Woorde
Florida
Madagas
gefokus
medalje
spoedig
vooraan
stertvin
verstand
vergeleke
##ska
##spelers
afname
outobi
Federale
twintigste
ondergrondse
##pot
##rina
##ulen
afs
Carter
dosent
geslags
Konstantyn
Shakespeare
infrastruktuur
##iva
##tra
##meng
##sole
167
Cra
Wag
tran
ineen
##steking
##torsgraad
Hollywood
Amerikaners
argitektoniese
##iac
##rimp
Cro
Hop
##house
##iklop
heilig
titels
vrugbare
verbruikers
afstammelinge
Bab
Tar
ork
##endel
bear
spits
Ooster
toenemend
1854
##trecht
droom
##rukture
##stasies
protes
besprek
voortbestaan
##ales
##hoop
##ives
##nike
105
ult
East
##inella
##oewere
##poneer
oorweeg
##bevolking
Potgieter
organiseer
##CO
Lü
Pic
kub
##ogram
Kiëf
##ankton
Insig
##skilder
veilig
toelaat
Wladimir
voertuie
##ked
Best
##uminium
fisika
stabil
geskuif
regstreeks
Byvoorbeeld
afwesigheid
##eet
##sed
##bout
##erie
##orum
dop
mid
1840
Nept
##itiewe
##orbeer
Pluto
ontev
##aktiese
Zoeloe
chemie
afgeleë
liberale
rugbyspan
kapasiteit
aangemoedig
##ukle
##skerm
##stadt
tand
##inning
##medium
##onders
Unesco
Gotiese
absolute
laerskool
voltooiing
##erye
ene
##issel
##voere
ruil
farao
diesel
linker
##onderwys
Congress
reaksies
Superrugby
##nag
Ry
só
Hell
heer
Award
Plato
##ameling
Ludwig
koppel
##voerings
Utrecht
siening
##redenheid
aangevul
gemengde
outonome
Federasie
##olo
##uke
##anni
##icle
Beg
Gab
##ifera
Lady
Vuur
bevor
omvat
Guinee
bevordering
Cont
hekt
halfe
menings
verswak
sprekers
kunswerke
alledaagse
platteland
persentasie
noemenswaardige
##és
##kin
syt
Edin
Male
Roos
##angers
##itasie
##erskante
##formasie
isotope
##verkiesing
religieuse
tj
##ipel
##kend
##oging
Azer
Urug
##moeder
skaap
##arivier
lektor
##trekking
laagste
meisies
##AP
##iël
##rin
##arst
##atom
##plan
Dat
Gio
Gord
Krim
Mozart
optiese
gevorderde
intellektuele
uiteenlopende
##wor
163
173
Top
dom
##ubbel
link
##biskop
##utsche
beurs
##ongeluk
##stalige
ekster
gevoeg
General
hoofrol
Indonesië
amptenare
##acc
##sye
##blou
##ilië
Hun
neu
hond
pool
##adiese
##iligheid
kontras
##orporasie
volgelinge
##gat
##hen
##iak
##zig
97
##chel
##onge
Esp
Inc
Now
##ography
beraam
oseane
Saturnus
selfmoord
Vereeniging
##kal
NP
Not
##enden
##iteer
##witte
1830
Joan
Tanz
frag
here
luuk
sest
##ischer
sover
kanale
skeeps
##harmoniese
Nobelprys
##bied
##mpel
##pool
##ript
Hon
##anjie
Skry
Werk
##termyn
##ellidae
Fraser
Rousse
Institute
##utt
##vand
ele
##imale
##orteer
Hebre
lands
Hawaii
Latyns
Quebec
gerang
verfil
komedie
Luxemburg
geweldige
proefskrif
##ays
##anch
##edig
##isel
Bak
You
##iveer
Pruis
ongel
vasge
##kenheid
Fourie
strale
toeneem
monargie
ouderling
##ET
##hn
new
rys
Cour
Princ
lugre
Oudtsh
kongres
##lub
##apie
Old
##houer
bees
skok
##gewens
##onings
reise
Hyalon
beroem
gestyg
##leidings
Topsent
afskeid
gesinne
dinosour
##él
##kyk
##boor
##icul
Gam
Sche
meld
Sulke
toesk
Aantal
Winter
kontro
boerdery
digbundel
Oudtshoorn
sielkundige
##ird
##ypt
Ny
##roef
##gshof
##oepel
##reeus
brei
tyds
banke
##gehalte
Tempel
tevore
benewens
depressie
distriksm
##alog
Lot
##ieder
##opter
##idasie
werks
kontin
Georgië
Nagmaal
boukuns
heuwels
prokure
Internet
seisoene
minderheid
weerskante
bevelvoerder
##has
Ev
##enlik
enig
fund
Gevolg
enjins
Niekerk
##idensiële
Roemenië
gedagtes
aanduiding
deelnemers
##ogg
##vern
158
Bah
Pel
Ron
als
fen
mes
##joern
Bach
##esearch
##ulasies
Enkele
Street
gekant
Polines
gebreek
spelling
uitgebreek
invloedryke
##apt
Jep
Reb
##rokod
Arts
Time
##meense
Henri
Russe
genre
kuslyn
lesers
aandele
relatiewe
romantiese
Johannesburgse
CO
##seud
Kre
Nes
##ukkel
ding
reuk
##leraar
Bundes
##resident
analise
verlief
##29
61
Arm
vat
##asium
##enders
##gesien
profe
##metodes
Orania
deelname
hegtenis
voertuig
keiserlike
komponiste
toegestaan
Kok
sny
##certo
##ikels
##vleis
Faro
Gard
Sewe
##ogings
##tuiste
Great
##orivier
##vandaan
ideaal
talent
##igerjare
##uitenant
ontleen
rituele
vyftien
vierkant
Robertson
gevangenes
SV
##midt
aks
1820
SAUK
pens
##massas
##spring
Graaf
Monte
midde
Newton
argitekte
kwaliteit
voorloper
vulkaniese
##aco
##sil
au
##blok
##erts
##oude
##strom
Book
##asties
##vestig
wegge
skedel
gekroon
hektaar
suidoos
eggenote
##skommissie
Worcester
komponent
helderheid
uitbeelding
##eto
had
mal
rak
##shire
tempo
gelang
gewaar
termyn
Academy
##kompetisie
opvoedkundige
##asië
##gate
##rift
Tah
pyp
1857
Litt
Riet
keel
toeg
rebel
tuine
##sentrum
rebell
Vlaamse
grammat
noukeur
oordrag
Hugenote
Rousseau
Thailand
ontploff
posisies
Kommissie
aanbeveel
oorlewering
skoolopleiding
>
##vak
##yde
##enez
##ista
##ruil
##skom
##gedig
Over
ensie
##asionele
##ualiteit
##umenteer
##wisseling
bewonder
dwarsoor
##walifiseer
Vlaandere
Voorbeeld
Madagaskar
Krugersdorp
Of
##vlei
Sab
wik
##gener
unie
teiken
ketting
verwoest
##sprekendes
##ublikeinse
Filharmoniese
##aret
Lor
##offel
Homer
vloed
##kinders
moeite
ateljee
monnike
Mohammed
##AN
Ib
##aals
##enda
lop
##annie
##woner
Versk
hoofd
opbou
skaak
##gebergte
vloeibare
##ène
##eich
Ari
duim
piek
##isiere
##streke
##aarding
Julius
droogte
##programme
kommando
stelling
##ss
Von
##atieke
##endent
ballet
geïsole
vesting
Azerbeid
dramatiese
##ami
##lot
##wic
01
148
Lar
ble
bul
pak
Beij
Bert
Buff
Paral
herfs
stoor
##erstand
Blacks
Hindoe
##ritiseer
magtige
vertalings
gekwalifiseer
##df
nu
##agne
lui
Ferd
amin
##akkies
##alleer
Sakse
##ariteit
##steling
beskry
onderd
##vaarders
aangedryf
veranderlike
##uta
##ieme
Aar
Boe
Eng
Koe
##ampte
##oseks
##yding
Boes
velde
gesproke
landgoed
Navorsing
doeltreffende
##kle
##ugde
Mill
wens
blote
inges
##gevolge
##sterkte
slange
streep
Lesotho
bouwerk
dubbele
heuning
opgelei
Volksblad
uitgedruk
waardevolle
##ilis
##inum
col
rob
##koste
##odict
Elis
Plan
virus
Taiwan
helium
Raspail
migrasie
sekondes
##po
##lug
##oda
##ompe
##skei
Kep
Ker
##ertyd
Lévi
kurs
buurt
front
metaf
##ondheid
##ological
##werkings
Landbou
wenners
Neptunus
skeiding
##tek
##urm
##oedel
##ondes
##verkl
buis
##rateur
beker
##verband
soewere
##atiwiteit
kritiese
opvoering
350
Zyl
Cons
Franz
Hesse
plato
opgelewer
##osof
Clem
Vinc
disk
##geskik
geëet
piram
vaart
##periode
korrup
voorsp
weinig
hersien
niemand
getiteld
medaljes
gekritiseer
##cc
##uz
Kw
115
Lev
Nar
ekw
jur
Kamb
Kent
tong
Gregor
betroub
perseel
Williams
##omer
But
Cla
eis
lag
1853
Geel
that
Adolf
behoor
gepleeg
verdamp
Sentrale
uitgawes
permanent
reputasie
frekwensie
begraafplaas
##ahl
##opot
##ators
##grote
##inale
onsk
wolk
##andant
##tevore
Beeth
verlig
Bybelse
Dikwels
herdenk
vergoed
vantevore
Chalinidae
emosionele
##AC
Cit
Uys
##mende
Bang
Onafh
Vroeg
geblyk
sketse
verwel
Kongres
chromos
minimum
Eindelik
publieke
laboratorium
internasionaal
vooraanstaande
Ng
##aude
##tain
##uide
111
##berei
##inand
##nasie
pole
Dendy
ingryp
uitger
prinses
Benedict
##historiese
Gevolglik
organisme
stadsraad
Boeddhisme
##atre
##tuin
Oce
rof
1868
GKSA
##roetes
Helena
integr
lading
daaruit
##ogenoemde
endemies
inspirasie
televisiereekse
##ih
DDR
ram
##odend
##right
##spits
##stede
Namak
kwant
strom
spiere
swaarder
toestelle
apartheids
verwerking
##li
##cil
Sig
##amien
##bande
##eters
Bost
Gods
Serv
Alpha
astro
ringe
##chester
Paryse
Wilson
komeet
Hebreeus
Transval
Beethoven
aanstelling
burgeroorlog
onderverdeel
##oke
Rab
tru
Sout
##isisme
Coles
Calvin
Siberië
inskrip
luiperd
mensdom
konserwatiewe
##can
##kum
##alth
##rist
Fred
Olif
ofte
Cecil
Lenin
helde
Buiten
##ifisering
Dinastie
operasie
platform
aluminium
draaiboek
inderdaad
Sedertdien
eredienste
afgevaardigdes
##klim
##mers
##braak
##grade
##imeer
##sempl
klin
##grense
Class
Guard
Moses
##energie
##keiding
afneem
rondte
spraak
Gerhard
sigbare
Ongeveer
afgeskaf
kragtige
Gregorius
sitplekke
teleskoop
uitgesterf
##vervaardiger
##ls
##aps
92
##aach
##laan
##valu
Els
Tal
tri
Bant
geag
##genaam
Dawid
Marok
Paris
geëis
Jansen
François
simfonie
Pruisiese
staatsgreep
##ardo
##ated
##erwe
##wyne
Lyd
Seb
##emmer
##owski
Caes
Mach
##ruimte
Venez
Modern
dieper
Adriaan
verjaard
Mongoolse
gekonsent
uitgewers
uitwissing
##öl
ا
Cy
##akye
##iums
##wald
Pin
Lion
aart
##tiging
Kweek
godin
##gangers
##keuring
Maurit
simmet
leraars
skynbare
Frankiese
stadsgebied
##eri
##aton
##dale
145
Lig
Neu
##ooide
1838
Koos
Gustav
Schoem
markte
Stephen
soldaat
kenmerkend
##ikk
##hire
##maan
##onga
Tul
1855
Glas
trop
Alice
begro
dwing
gewes
manne
waarsku
akkuraat
plaaslik
standpunt
teoretiese
##har
VS
##doms
Bob
##isika
##oseen
##paaie
##sraad
Tour
Strand
uitsig
gewysig
meubels
spreker
uitbarst
Ferdinand
ambassade
Winterspele
taalkundige
##uru
81
Ech
Benj
isol
##hertog
kabel
##geskryf
geheue
luukse
Gewoonlik
voorberei
##pote
Nep
##verse
Marc
Leucandra
afgebreek
gerangskik
oorwinnings
teenstander
vrystelling
##ball
##beck
##besk
Fir
lip
nav
##slied
##tende
Hond
Stel
Group
##matiese
Arabië
Online
kaarte
pianis
sektor
streeks
verjaardag
##ontwikkeling
kwalifiseer
verhandeling
Sosialistiese
##kope
##rels
##rose
Mis
moo
teë
Pyth
##ulture
pienk
skadu
##aanvalle
##toestand
Bekende
Uruguay
Warskou
bundels
eksempl
visuele
ontspring
lewenslange
kommunistiese
##aft
##iph
##los
##uff
Vo
##urig
Dec
Mid
##asser
##iodie
##soort
spin
##kanaal
anale
omver
poort
##ienaber
gesoek
##iklopedie
##ûe
##wiel
Bez
Das
Gir
Lag
##model
Juan
mane
##enjins
draad
Malawi
Soedan
gehand
hipote
legende
geliefde
halfleef
Oostelike
gespesial
kardinale
elektromag
##oens
ast
hef
##ogter
Toer
##aledon
Grens
##ifikaat
##issaris
Drakens
aanteken
effektief
kreatiewe
rewolusie
vuurtoring
gemeentelike
##dade
##kong
nul
##magte
##blokke
##inhoud
Stock
snags
opmerk
bladsye
lesings
sekonde
Benjamin
Opperman
Rensburg
binnekant
lewendige
versamelbundels
##pt
EU
##uage
Pra
##begin
##blare
Java
sodra
##ersparty
##saaklike
dertien
kritici
portret
Hollands
kwessies
gehandhaaf
potensiaal
##arl
##elt
##paal
##uist
VOC
bus
1800
Beer
Giov
Wild
rept
##tredes
Finse
albums
geklop
tennis
verwes
##dioksied
fossiel
Ethiopië
Grondwet
adellike
Colesberg
biografie
strategie
toespraak
verhoogde
kunsmatige
##ango
Kry
##reense
Phill
blaas
##rekteur
klanke
korrek
dagboek
regdeur
tempels
Christen
ongewone
Kompanjie
kandidate
prokureur
Kweekskool
teenstanders
##bene
##leet
##aagte
##prins
##emeyer
gelde
##srivier
onreël
blankes
voorval
##vliegtuie
duikboot
opgedoen
weergegee
inisiatief
##ason
Cru
bio
##orden
Tien
##intese
##vlakte
##weldes
stere
katalogus
verwelkom
werknemers
gekomponeer
##aik
##agon
##tipe
XII
emp
wete
##ooreen
fases
kapit
##omineer
##verskil
##werings
aanleg
nasies
organe
helling
verlaag
Lutherse
Slowakye
Kot
Ple
oën
##boere
##waart
Bour
Erik
Iwan
Uits
Viss
Fries
Pasif
Xhosa
supern
populêre
definieer
doelwitte
plattelandse
##ardt
##odie
##wand
Hab
sku
Belf
Film
Viln
klei
##ktiese
##lopers
##rieved
firma
fotos
herop
##annemeyer
Verwoerd
sangeres
terreine
Singapoer
weerkaats
##BI
kro
Bond
Coel
Kate
test
##lopend
##oorloë
Valle
silik
afgesluit
outomaties
doeltreffend
gepaardgaande
##cor
It
do
kok
Coun
Glen
Maag
afsk
paro
vrae
wolf
##etisies
##gedrewe
##ingskap
Beiere
radius
Hermann
botsing
ekwival
stingel
##aliseerde
begeerte
verbetering
Paralimpiese
##apa
##hoe
##isp
FA
Ty
##olas
##hagen
##oeier
Adel
ontw
poog
##lating
treffer
Curriebeker
##mir
Go
##kern
##vuur
Ein
Saf
##datum
Pont
pleg
##alings
glets
offer
Kepler
grotte
namate
Mesopot
daarheen
eksterne
konserte
fundamente
DA
ri
134
har
oue
pil
zijn
##vanger
Sarie
landd
ongew
Corpor
bestel
tonele
Ancient
geslaan
winters
meesters
veertien
weereens
bemanning
Antarktika
##kampioenskap
bestanddele
Az
nl
106
135
Alt
roe
##ollar
Andor
gedaal
invoer
regoor
oftewel
tegelyk
leerstel
omvattende
fr
bon
maj
##spele
Leeu
items
Arnold
Darwin
gedryf
termin
##imnasium
gelyktydig
standaarde
##bedrywighede
##len
##iona
McC
##uster
Dalí
Plat
arms
##urings
##illidae
Sekere
Records
proteïen
webtuiste
funksioneer
Burgeroorlog
82
Vi
##iêre
##uier
Pen
##wonge
Bark
cont
minn
munt
Egypt
Helen
Vroue
Volume
betree
##akulteit
Baltiese
Nienaber
leerling
Omstreeks
ingeskryf
kloosters
staatshoof
verskynsels
##agram
Broad
Texas
Venus
geheg
##iformes
rofweg
besliss
gevaarlik
##adi
ba
##aily
##ikal
##reem
126
Cyr
nab
Down
koud
##alisie
human
popul
##geskiet
##komitee
Indust
aanbod
beroemd
hernoem
Tanzanië
Frederick
Hebreeuse
indrukwekkende
##nd
##ali
##holm
##atius
##recht
##skrit
Waal
##eksies
Reitz
tabak
##legging
##lokomot
##winkels
genooi
Provins
indring
sitplek
Karibiese
spannings
gekombineer
##hed
##isee
lam
Amph
Zeus
hede
stok
Jones
films
##korting
tiende
##houdende
Masedon
##spresident
gebruiker
##DF
##koel
##vens
##vlag
oes
##ikaal
Bulg
Inde
##esdrif
##gename
##igings
Ocean
##ondhede
Verdere
vandaar
daagliks
Aleksander
bogenoemde
golflengte
primitiewe
vernietiging
voortdurende
interpretasie
##apen
##hage
##skut
Gas
##endam
Coll
noue
skape
Beyers
County
Montre
Muller
bloeit
##geskakel
Vilnius
aangele
##wenteling
versamelings
##spl
##anka
Cer
bad
lem
##iffer
Hipp
Sene
Sund
koll
mand
rass
stop
gelow
moskee
ontken
##gemaakte
fisieke
Pasifiese
##geel
##iano
Meg
seg
##logie
Glob
Shar
ione
##prente
Einde
Villa
beton
kwaad
##ieerdes
Boston
Leiden
Vermont
middels
waaroor
fantasie
raamwerk
seldsame
kategorieë
aartsbiskop
##Net
71
##sche
Hil
Kit
oer
sop
werp
##hawens
Kalah
Oorsp
deure
dooie
##denking
Bulgar
Clemens
oorsake
opgelos
Francois
kapitaal
voordele
andersins
doodgemaak
gebaseerde
##teg
118
Tip
1842
1849
Emil
Guide
Patri
advert
slegte
toegewy
dwarsdeur
Gö
##astr
obl
oms
##opsis
Prim
sone
take
Armen
energ
style
Herero
veilige
##federasie
##geregshof
tydperke
lidmaatskap
##ambo
Aur
Glo
Myx
##onium
baai
##oureer
fasil
spirit
Rooisee
aartapp
herkoms
derhalwe
satelliete
onderwyseres
##ijl
##osh
##ywe
##kien
Neo
One
lir
##aktor
##oment
##uimte
1852
imper
julle
magne
uiter
##respond
##waartse
Geodia
People
Sweeds
moeras
##temporêre
Nicolaas
Oosterse
skoonheid
Lt
##ifer
##vret
##athan
##ensel
Band
Week
horl
leeu
line
Zambe
kampe
##gevalle
Atlant
klippe
Belfast
fabriek
geloods
kwessie
vulkaan
Mercedes
periodie
plastiek
voortged
komposisie
meegebring
##bour
##hulp
Etr
Mex
für
Salv
Kleur
Somal
breuk
gebed
onaan
Barnard
Harvard
Nikolaas
binneste
rekening
Benedictus
besittings
molekulêre
ballingskap
Terselfdertyd
##ao
##dens
onw
##eties
##oetan
##ussyn
Boon
Gill
wyke
gemak
uitgew
vertak
##voerende
Kenmerk
restour
kookkuns
histories
onderskeie
##omo
Sub
##akels
##braan
##isers
##teite
Club
Dmit
slot
Voord
##terrein
Bhoetan
gevlieg
##doeleindes
arbeiders
aanvaarding
betrokkenheid
##ος
##usa
##boog
##gooi
157
Day
Kho
sup
##oogle
1847
Crad
Poet
daad
Swell
klubs
uniek
##volging
aminos
sultan
amateur
filosowe
##azz
##ikh
##lis
cl
##iner
Hud
Lae
Lys
bid
nad
##ellie
##ulose
Kemp
##makers
Faroë
ammon
Gerrit
erosie
Schmidt
abstrak
toeganklik
vermeerder
##kos
##enos
fon
Naud
##arbeid
Praag
nomin
Louise
vlugte
Mediter
Constant
rebellie
Elisabeth
noordwaarts
##pyl
##tro
91
it
##outh
Las
aff
##ensus
##ostig
1814
1856
Hugh
Lanc
gooi
over
pond
Turke
gekos
Ysland
##streekse
##ywerheid
Estland
Organis
hiermee
variant
Administ
Buitelandse
voedingstowwe
wisselwerking
##ty
##uï
##edy
##haw
##kons
Jim
##iston
##storm
Cass
Cham
Niss
##blaaie
Canon
resep
rooib
warmer
Limburg
gelykop
oorreed
Deutsche
spandeer
priesters
##verbindings
verwesenlik
##gers
##siek
Toy
##blaar
##nodig
Hers
##iggaam
##uiting
Carol
Public
Theron
##projekte
periodes
radikale
verpleeg
dramaturg
oplossings
herinnering
##gri
##beer
##bord
##rest
##veer
Cir
Vat
pdf
##redes
Brah
Tang
buig
rook
semi
##onteer
Ronde
Sodra
Barber
geweet
Rossouw
televis
spesiaal
afgestaan
geskilder
beplanning
##anon
##palm
Ian
Lab
gay
ple
este
ewek
##dadige
##itters
##siekte
##wapens
Maand
##netwerk
Micros
geraam
reekse
Beijing
dagblad
herdoop
miskien
sestien
musiekgroep
subtropiese
voortgeduur
##II
##zz
##idea
##reën
##wane
Fas
##herbe
##kring
Homo
eise
sell
Hamil
advok
bergp
skulp
voete
behoud
bestry
gepoog
ongeag
patrone
naburige
pasiënte
verliese
heersende
interaksie
lokomotief
##eder
##ener
##stam
104
tou
##graaf
##ogene
##skepe
Beng
Prem
geur
skad
Namate
Neders
Vrydag
sinode
skubbe
Deutsch
gewasse
liedere
hoofstuk
Woordeboek
algemeenste
sterrekundiges
Cab
SAN
sug
##entoe
##woude
##gevoel
##vertal
Bloed
Elect
##pliseer
Island
larwes
magtig
raming
##pression
Giovanni
Malherbe
uitoefen
uitgestorwe
##lob
VN
##vate
##skoon
##stoot
##trein
##ucamp
kaal
seën
grawe
koors
##bewuste
gegooi
Marokko
olifant
Publishing
Namakwaland
Arbeidersparty
##uch
##perd
##stil
mob
##gewig
1837
Carn
Cost
myne
ruit
##oriese
milit
gesonde
sisteem
uiteind
bewaring
diamante
dienstyd
Aristotel
Transvaler
beskikbare
gereedskap
konvensionele
##bs
##óg
##kla
BB
py
##uben
##ways
Fal
##odale
dikt
meed
news
room
##regter
##woning
nukle
oprig
##feriese
##verlies
Caesar
Milaan
kamers
katoen
snawel
##bewoners
Weermag
koshuis
eienaars
neerslag
verbreek
verkeerd
ideologie
afhangende
beleggings
##dt
##ég
##uda
##boel
##oepe
##vloe
129
Ash
##beurs
##itief
olyf
##burger
##osfeer
##sprake
##wenner
Baden
mites
##enstein
daarby
Cradock
inwoner
kortlys
Hamilton
Research
missiele
sediment
stemming
Standaard
Corporation
##rea
##atra
##kery
##kins
Mun
##erige
##iness
##worth
Cron
Road
##maklik
##oender
golwe
visie
inform
reghoek
Spoorweë
##bestuurder
Catharina
goedkeuring
sterrekunde
##cal
Va
##acht
##inae
124
McG
##endum
Warm
luis
skets
Colomb
inboor
kringe
oorsee
volhou
vlugtel
goedkoop
ontbreek
sterkste
historikus
verwarring
interessante
AE
Si
ال
##ager
##etto
##mens
##tens
##uber
144
Aut
Lis
Pit
##ichte
##opher
Alan
Eric
Penn
Peru
Roes
koek
ouma
romp
##ennium
kapel
aanger
bevrug
strewe
teweeg
Fischer
bekwaam
formeel
hoogtes
##bewegings
##verskille
Oorspronk
gunsteling
halfleeftyd
##IS
##ов
##agu
uk
##cker
##myne
##ulum
rem
##araat
##osoph
##ouder
##skrag
Nich
baba
heet
##tenaar
Theod
vesel
##ginning
##iserende
Retrieved
Genootskap
sokkerspan
kontinentale
tegnologiese
ontdekkingsreis
»
##ahs
##itse
##nood
##ship
146
Ltd
##derye
##elles
Afro
rewol
toesp
##entheid
##stenaar
Nissan
beseer
sakeman
vogtige
Arabiere
Bulgarye
optredes
offisiere
herdenking
Meksikaanse
vergaderings
##iwal
##snel
##spre
128
147
reë
1815
##oerant
finaal
kamera
moorde
vreeds
##rigtings
Windows
kanonne
parallel
##waardigheid
gekonsentreer
##uw
109
127
Gael
dome
##atidae
##kamers
##kundig
##metode
##vuldig
aspek
kring
##voeding
Meeste
bestee
bestyg
Douglas
##endenfeld
offisier
simboliese
Pietersburg
uiteindelike
sosialistiese
voorbereiding
##massa
From
Knys
bewe
osse
##awerny
##houers
##ivisie
Danie
Naudé
##grootte
##oosheid
Cliona
Herbert
Noordoos
uitmekaar
ontbinding
onmiddellike
##gow
##meg
##tse
Sz
##alje
##bels
##orus
Abd
##itaat
##plase
##telle
Buro
Moun
Prot
##brecht
##enteen
##gebore
Domin
gaste
penis
oewers
opgedra
##angerskap
Amerikas
musikant
effektiewe
gevaarlike
oorheersende
α
##yten
Tas
##splig
##uiwel
eksk
heid
Chond
Koran
parad
speur
##aartjie
##liggaam
Donald
bekken
modder
##ampioenskap
voorstelling
##ki
##rob
##toer
##atome
##istik
##uiden
Ferr
Stok
nier
steil
Dmitri
Tradis
geïnst
instit
strome
##boerdery
Heerden
mielies
rotasie
Astronom
meervoud
sendingwerk
##col
##ilo
##akom
Fac
##anter
##riewe
Mans
emig
Trich
infra
metrop
opneem
verbod
Voordat
gegewens
halfeind
gesamentlik
##iza
##yna
138
RNS
kas
loj
ore
##geveg
Burg
perf
Herak
Istan
Soort
Spanj
inhou
riwwe
Keulen
oorskot
##erstelsel
kampioen
tekstiel
telefoon
Steynsburg
parlementêre
##ket
IK
##oryx
Bag
Fern
Meir
Daily
Spart
breër
gesny
Aucamp
Hubble
Sonder
etiket
hervat
Columbia
Hyalonema
ekonomies
ingenieurswese
##apel
##haar
108
Pil
Pul
Sri
Vas
##liter
tone
gesne
onwet
varië
bladsy
kultus
Johnson
Letland
verkope
sterftes
##verhouding
Bellville
ontleding
##enne
##golf
##aloog
##enoeg
##istem
Hard
##ekseer
##leiers
Opera
afged
dreig
stene
##preteer
##vervoer
Senaat
oorwin
##loosheid
Standard
vertraag
«
##hai
##rary
Eer
Mam
##ymast
Hoff
infl
jonk
seil
##entius
opgra
spook
Groote
dollar
komete
doelwit
bekostig
vaderland
##verandering
##volusionêre
450
Fab
ion
sap
Mail
Mant
morf
tyde
##ossing
Color
honde
##rediker
Groter
hawens
teleur
Caledon
oordeel
verlang
korrupsie
agteruitgang
sendingstasie
gevolgtrekking
onderhandelinge
02
##bagh
##icks
Loc
Roe
dod
hek
##stuur
Dord
anim
lord
detail
tonnel
Leipzig
Theatre
geskoei
sokkerk
bemiddel
neutrone
monumente
doktorsgraad
saamgestelde
eksperimentele
##ín
Ug
##verg
Ric
##ative
##redig
##eriese
chlor
##onneurs
Hennie
Kinder
Review
herwin
legend
Vryheid
Guardian
inwyding
ontplooi
tweeling
verteller
Skandinawiese
##ryn
Oh
##etti
##asing
1839
Anat
Love
buit
mags
##heemse
##osofie
Chron
Plant
##halings
Aliwal
gewond
martel
##apporteer
oorgebly
Mesopotam
Kunstefees
Nederduits
uitvinding
##jo
##alo
##sis
##uro
##atum
##ledge
##rasse
Call
##telike
Motor
beswaar
Koningin
Salvador
agterkant
dinamiese
lugredery
krygsgevang
RA
##ional
##verst
Koue
trom
##idiese
##owitsj
Assir
Khmer
Turks
damme
##ekening
##initeit
##administ
natrium
##houdelike
Schoeman
oksidasie
besonderse
eksemplare
yl
##aeus
##spos
##uste
143
Ske
Suz
##chlor
##ennes
##usiek
Cook
Gott
comm
door
krom
wels
##gebase
Sterk
koppe
##wendige
Acanth
kortst
elektro
ongewer
afgekort
Koreaanse
aangehaal
bygestaan
emeritaat
Swellendam
Aristoteles
dinosourusse
voorafgegaan
##ér
##iae
##oca
##reus
##vrug
Dok
Gib
Oct
Syn
Tol
fra
##ining
##legte
Juda
Rach
Uran
##enhage
Apost
Atlas
Schol
tenks
Daniël
Saoedi
Weense
operas
##skrywing
Edition
Japanse
matriek
geesdrif
Normandië
Uitenhage
Lendenfeld
CH
##erig
##prek
Cop
Tet
fik
##artet
skat
sosi
##estown
Ptole
##metings
##ombarde
Boeing
supers
vereen
Andorra
bekwame
Romaanse
infeksie
ingestem
variasies
prestasies
regstreekse
moontlikhede
Mediterreense
##jar
Ho
£2
##serv
Dek
Lus
Oom
pig
Fair
vide
##rokkel
Front
regop
Jonker
beslag
Tulbagh
kameras
versnel
stigtings
noordoostelike
##sin
##uor
##auer
##book
##groe
##more
##uter
Dro
Inf
sye
wek
Bass
Leop
bier
##iverse
syfer
volst
##ambidge
##gerings
Hudson
gedraai
wettige
fabrieke
Keiserryk
aangegaan
aanwesigheid
##SV
##mac
##blyk
##roei
Dev
##essie
ters
werd
onrus
troue
##geriewe
##ruksies
##ulering
Monaco
Oossee
konink
##odendoryx
belemmer
grafiese
Europeërs
resensies
##instrumente
Ekonomiese
beskrywings
fundamentele
Lissodendoryx
€
##ize
##ërf
Gn
##gond
##repe
##riën
Big
Cic
##welik
Abel
dade
##adelph
Baker
insek
##gebreek
Eugène
assosi
petrol
advokaat
gelukkig
Christopher
<
##vey
##etts
##ists
##ière
##ppel
Gri
Hoo
Hou
##luste
##onnis
heks
intr
plus
trag
ophou
soeke
Queens
agterk
geseën
kolleg
Jakobus
bevredig
Statebond
woonbuurt
diplomatieke
bekendstelling
##ève
OS
##iwid
##olic
##onto
##osoï
##ross
##sake
##uile
Hay
ewer
gate
##iviele
##krywer
##sessie
Techn
langd
##stituut
gronde
salaris
strande
daarteen
nagenoeg
volgehou
kleinseun
Philadelph
geïnstalleer
##kei
##daag
##odin
##uime
Get
bege
porn
roem
##organe
dwelm
vlekke
Susanna
Polymast
afrigter
##gebaseerde
Stockholm
hoofreeks
ondersoeke
omgangstaal
Gregoriaanse
voortplanting
##Cl
##xt
##aut
##enz
Zü
##male
Fid
Sas
São
tol
##front
##ublin
##velop
1843
Bush
Conc
Marl
publ
rele
##arming
River
dekor
deurg
versn
##duction
Gordon
sonlig
stappe
vlakte
##storting
Strauss
stabiel
Airlines
Boergond
haarself
vertroue
vlieënier
onvolwasse
verkenning
tereggestel
noodsaaklike
Kaapprovinsie
##had
##ents
136
End
Hav
Irc
MIV
##bevel
##vlies
Fins
trap
Kings
beleg
Breyten
afspeel
magneet
torings
landdros
rigtings
slawerny
Ontwikkel
afkorting
situasies
toegedien
uitgevind
beskawings
bestemming
vergemaklik
Geallieerdes
##ID
Iz
Tw
##http
##nees
101
Reë
tub
##fried
##ideer
##üller
1851
Geor
noul
Borde
Lange
swerm
##sinnige
Living
Distrik
afgetree
avontuur
maatreëls
vertoning
Gemeenskap
hoogleraar
universele
radioaktiewe
##ft
##iep
##uri
ok
##apia
##eman
##link
##omon
##woon
Pos
##motors
##odicty
Filip
gewas
winde
##wekking
##unikasie
geslote
geïnter
soektog
Kalahari
##bestemming
Nasionaal
Vaalrivier
toeskouers
Provinsiale
##är
Ö
##lex
##iton
##ness
139
Hur
Jam
mik
##azine
##uthor
##vanne
##vlerk
Brun
Veld
town
Deens
Grobl
Urban
gewer
seest
skoen
##aarsdag
##endings
##resteer
##uriteit
Burton
agtste
lugmag
oblast
onverm
Sisilië
mooiste
profeet
bibliote
meegeding
vereensel
vordering
wentelbane
geldeenheid
##bie
##blom
##suur
Cha
Him
bat
tee
##inius
##ktore
##ospha
Jane
Kern
pomp
Boris
Roode
Google
Zürich
essays
oorsig
Council
Nigerië
geregte
teaters
verslae
vlaktes
konsepte
strokies
hervorming
preekstoel
vereenselwig
##SO
##roo
##tsj
##krab
##pyne
103
Kob
fol
##aafde
##ather
##eskat
##itzer
##oetse
##plate
2020
Lour
paal
##bedien
##raagte
Marsh
Yster
sperm
wesens
##volution
aanvoer
vreugde
Kerkraad
redelike
aangedring
vaardighede
Philadelphia
##oeb
##enia
##rion
Vel
nig
##anaal
##kampe
Auck
Bred
Ever
Hels
Kuba
buff
##eskoop
##ichten
##vensie
##watini
sluip
atlete
gerest
geïnteg
neiging
operasies
skryfster
vereistes
referendum
##IC
′
##hip
IX
##huys
##ious
##plat
114
Dol
Kab
Maf
Tob
Balk
sein
tenk
##oldate
##vleuel
Beste
Ceres
Anglik
propag
rukkie
somers
nouliks
protone
Bezuiden
allerlei
deeltjie
positief
goddelike
seremonie
beperkings
genomineer
welvarende
grondwetlike
blootstelling
kerkraadslede
##IA
##MA
##SR
##das
##heg
##here
750
Fou
kel
##wagen
##emente
##ingers
Visser
Indiane
geplant
##aatskappy
asteroïde
luitenant
verwagting
##SG
##VO
##ohn
##vas
##aval
##eper
##jaag
##olet
Tan
okt
rou
##dring
##wette
1846
Anto
Keet
Lake
helm
##ragtig
megan
##honderd
Little
beoord
dissip
orgaan
uitgel
##entering
##jektiewe
graniet
aangegee
aangekla
agterste
beïndruk
homoseks
koalisie
voorkant
Microsoft
regverdig
##maatskappye
swangerskap
##TA
##mm
##isj
AP
HD
##orrel
Arge
Binn
Mold
limf
##koming
vernu
wraak
##ization
Morris
Toyota
verfyn
vorste
eeufees
gesetel
ontruim
verfilm
Armeense
tuisland
vorentoe
kwarteind
prototipe
periodieke
Uitvoerende
bevestiging
herinneringe
kontemporêre
administrateur
##ift
##uli
Ce
##ague
Pur
bin
han
##achus
##antes
##rokke
##roman
Last
ling
##genome
Globe
Barkly
Knysna
skuins
Michail
gestoor
rakende
Arktiese
Auckland
Waterberg
Egiptenare
Nederlanders
ooreenstemming
##lim
##kson
##uela
Imp
Twe
Var
mac
##amiek
1836
kler
##missie
heter
##irigent
##vlaktes
Cannes
Sophia
America
boustyl
indiwid
rebelle
kollegas
korrekte
massiewe
patriarg
reptiele
Klassieke
Stephanus
diensplig
verkondig
Spanjaarde
opvoerings
verbrokkel
vergelykings
natuurreservaat
##etus
##pous
##ramp
##snit
##stok
113
Riv
##gewys
##ofski
Jeug
Innoc
gesof
spont
##anismes
##ivering
Kaukas
toepas
##ulturele
Kasteel
gesloop
kantore
verkrag
verloof
Regering
hipotese
##ontsteking
Coelospha
gekleurde
Tsjeggiese
waarskynlikheid
SW
fa
##arly
##wild
Def
Osl
##achet
Werke
optim
##rokodil
Dreyer
Wright
diaken
##openhagen
beplande
pouslike
aanbieder
wolkekrab
hoofkantoor
manuskripte
##oro
##hond
##ysel
Gun
Hau
Tab
cha
don
##ivoor
Swaz
wyer
##idente
##sitter
skare
##wegende
hemell
mantel
middag
vleuel
##probleme
Russell
afgesny
kragtig
verrass
volkome
kombineer
aardbewing
teruggetrek
##vervaardiging
buitengewoon
ontspannings
##uv
##oul
##ners
##rans
##reik
##role
Lan
##illig
##wagte
Diam
Vrye
##rondte
Slees
Stone
pleks
##getalle
Molten
giftig
ridder
Kennedy
Ongeluk
georden
globale
horings
huwelike
kristall
welvaart
Japannees
ontvanger
sirkulasie
persoonlikhede
##irurg
##lehem
##lander
naald
nadel
##distrik
boonop
geluid
herder
hewige
hoekom
ontleed
oorkant
##ometriese
##raagteken
Sleeswyk
silinder
Kroonstad
oorlewing
negentiende
##urk
Tj
##seen
Rid
ops
Toul
ples
solo
##oedere
metab
natur
Boland
Jersey
balans
gestem
vesels
##ongiidae
Zoeloes
eksamen
monding
Gemeente
Masedonië
gevestigde
vervolging
verskuiwing
huishoudelike
·
##aya
##eft
##nus
##tet
##ump
Wa
##loor
##raan
Cle
Wie
##domme
##osaur
##uteer
Bird
Term
angs
comp
spog
##ostuum
adres
pleeg
aksies
prosed
befonds
Hannover
lugvaart
omgekeer
skilders
Namibiese
uitgestal
gevolglike
agtergelaat
oorheersing
##lat
SI
##obbe
##rome
##ulie
##moder
1824
slym
vals
wesk
##vaders
Basil
fiets
##digheid
Jacobs
Maritz
Vander
eksent
gerief
lyding
nuttig
##olitiese
Italian
demonst
history
logiese
merende
negende
##handeling
hawestad
lisensie
deurgaans
middelste
Kannemeyer
binnegeval
##zt
##fee
NH
##aags
##arts
##mure
##oond
Ned
1834
Beck
Mosk
Seun
Zuma
mite
pass
Costa
Lanka
vries
vergif
migreer
stewige
bewussyn
opgeteken
saamgewerk
ontwikkelende
##vy
##aaik
##hoor
##atore
##epers
1844
Fire
meeb
##ottent
glans
##ketting
Antwerp
Senegal
harmonie
meebring
historici
vasgevang
Israeliese
Rondebosch
Antarktiese
voorstander
Guy
Ved
ang
##abies
##erger
##oveer
##rosia
##waens
1500
Caro
Khoi
Kock
Pius
kosm
kwik
Neeth
foute
##attings
Walvis
##lewering
museums
##deeltjies
Hongkong
Montreal
Walliese
argument
geweldig
Palestina
alliansie
ingesamel
aanpassing
voorwaarde
Mesopotamië
verwantskap
bekendgestaan
##nek
£3
##igan
Roc
bye
##wurms
fasc
##ettige
Rudolf
aankom
Leopold
argipel
emosies
geheers
uitmond
Axinella
Neethling
reservaat
wikipedia
doodgeskiet
sestigerjare
##esi
##jord
##llust
Mand
bang
belê
vark
##besoek
##ondige
Davis
lewen
##klameer
Commun
byvoeg
Archite
Meiring
gesogte
hardloop
leefwyse
uitgewis
##aangedrewe
aanmekaar
dominante
bespreking
Anglikaanse
kommunikeer
simboliseer
stabiliteit
voorwaardes
ondervinding
verdedigings
opeenvolgende
##bren
##otro
##wich
gat
##astad
##rence
##skiet
Marg
naak
Heter
Imper
Steve
Tokio
inner
##funksie
Mossel
brande
genood
gespel
terror
Glasgow
broeders
verouder
Vaderland
beeldhouer
uitgesluit
ontploffing
Halichondria
uitstallings
onderskeiding
##amas
##ible
##igin
##ject
##mere
133
aas
##odeer
Maas
Song
neste
veraf
##gedigte
##gedring
Dublin
Empire
Matthe
gesins
oortre
spieël
stadsk
Molteno
Premier
rekords
Cilliers
gunstige
onsukses
vertaler
erfgenaam
roofdiere
kommandant
verbeterde
##organisasies
koraalriwwe
##omstandighede
legendariese
##ál
##ío
#
##ceae
##cial
##prof
##rant
##sych
##wick
Acc
BBP
Dut
Hat
Lid
nóg
##brief
Tuin
arch
reik
tril
werf
wolwe
Madrid
aanpas
belowe
weskus
##likasies
Klavier
##publiseer
Sanskrit
neutrale
ontvangs
skoolhoof
kolletjies
merendeels
##BS
##yi
##abi
##uba
##ombe
##witz
220
Log
keë
##bosse
##geste
Camer
Point
bosse
hulpp
##vuldige
Napels
Verlag
betwis
liturg
##monument
Babilon
Central
Georges
adellikes
genoodsaak
invloedryk
mislukking
vereenvoudig
suidwestelike
##jak
Ja
XX
##avia
107
Ali
Sag
##orped
Paro
Rail
Slam
Tegn
##hausen
##oplane
Bonif
Serge
Vries
bemoe
kaste
knoop
koers
veels
##stermyn
Handel
Herald
magnet
konsilie
Assiriese
asteroïdes
sintetiese
sokkerklub
toegespits
tronkstraf
baanbrekers
besoedeling
skilderkuns
bevraagteken
merkwaardige
Potchefstroomse
##grims
##igraf
##neder
##stegn
Gent
Kell
Line
fact
indi
##stante
Barok
elite
klomp
leërs
waens
##isiteit
Destyd
pligte
vertro
##houdinge
Patrick
##afdelings
##skakeling
onwettig
variasie
potensiële
beslissende
ondergeskik
ooreengekom
verdiepings
gewelddadige
vegvliegtuig
##km
##bom
##zon
MP
iP
up
##duik
##laas
Wen
Who
pyl
vag
##endal
##odont
1845
Pant
ontl
##iploma
Allen
Perth
Reich
##dekking
##masjien
##ocument
Magdal
genade
moedig
landing
rubriek
duikbote
standerd
vensters
gelanseer
Nederlande
handelsmerk
uitgeskakel
##aac
##gun
##ija
##jon
##jou
BM
##rica
123
Eis
##aaide
##amika
##onent
##talle
1812
Byna
garn
tuig
##bourne
##inasie
arist
bruid
diagn
##steorie
##temente
Cachet
aaneen
rubber
uitleg
##kompleks
jagters
joernal
mislukte
Professor
buitekant
naamwoord
regerende
Alexandrië
noordwestelike
##bol
##urb
ja
##aken
##raft
##tend
##offer
##risis
verhe
Franke
fondse
oortref
sosiaal
tweetal
vuurpyl
masjiene
negatief
teenstry
Philosoph
herlewing
oorgegaan
onderbreek
onduidelik
bloeitydperk
##NA
##fels
##lymp
##pans
Mek
nal
##rolle
Alas
Fall
Minn
Rost
fosf
Linux
longe
##illerie
Galile
Persië
geverf
implem
deeglik
gedurig
gevrees
verkoel
##strukture
drasties
onverwag
praktyke
slagoffer
Argentynse
Kopenhagen
strukturele
verbeelding
##urf
##oung
##ylon
137
Afg
egs
etn
mej
##atory
##sbaai
Nuus
Scot
fran
mang
##alende
##brengs
##tienne
Cheet
First
Kolon
Leeus
bloem
Ruimte
gesorg
getoer
sistem
uiting
vissies
Holstein
Maleisië
Skrywers
biologie
biskoppe
platinum
Charlotte
politiese
ouderlinge
tegelykertyd
onderdrukking
##abs
##esc
##ches
Civ
Joe
tow
Fest
Foun
spek
wiel
##gereer
Andro
Champ
##lekteer
horing
onstab
kollekt
monster
oorskry
viering
##velopment
kompakte
bestemmings
onreëlmatige
georganiseerde
##ieu
##oan
Ey
##eiro
##hebb
##rete
116
Blo
Mov
Ras
afd
amf
##elein
##iegel
1795
Anti
Alger
agent
potte
seesp
##udering
Müller
Sebast
beroer
hoedan
massas
onbest
bearbei
ruimtes
siviele
uitgelê
uitlaat
##achusetts
Mongolië
tuisveld
##istikeerde
Filippyne
Istanboel
Seelandse
industrie
afsonderlik
mededinging
eersgenoemde
wydverspreid
Massachusetts
##DI
##èl
##ely
Jy
##oder
Gou
Hob
Sip
esk
put
##klier
##koers
##koper
Brad
Brig
Chap
wing
##manuel
gekon
Eiland
Wonder
behuis
bekeer
Konings
aankoop
erkende
geestes
geloofs
verwaar
Brandwag
beweerde
##sekretaris
Ongelukkig
koördinate
langdurige
besproeiing
tagtigerjare
##ór
##ск
##loo
Ti
##raam
Age
gov
##cover
##hinus
##ights
Nico
Apart
Earth
Illin
onreg
##osaurus
##verslag
sander
##dediging
##onderrig
gesteek
Habsburg
gevonnis
legendes
skielike
sekuriteit
godsdienste
wetenskappe
##LA
##uy
##yx
##eley
##ongo
##volk
Oks
##istes
##meyer
Batt
buik
kors
##laagte
Susan
siele
swael
wiele
##studies
##werpers
Genève
kampus
##oekenning
ingedien
vererger
verenigde
volkslied
##besoedeling
aanbidding
wetgewende
woordeskat
krieketspan
Hymedesmiidae
oorlogvoering
Alb
##arman
##artes
##gorod
##umann
Ding
ferm
teel
##ipline
essay
opset
ovaal
vloer
##minster
##voegsel
##ationale
Bedford
mindere
prikkel
##atuurlike
Bethulie
Illinois
aangepak
gedrukte
geleerde
konstant
nietemin
##aktiwiteit
##verklaring
woordeboek
oortuigings
senuweestelsel
sewentigerjare
##ng
##byk
##ados
##aise
##oldt
##opro
117
119
240
Aqu
Tes
Ton
kog
##breuk
Blue
Brug
Clan
Oman
Paas
##atoria
##iering
Hotel
Libië
hiper
regie
stuif
##luiperd
##sporing
Cicero
embrio
gekook
kursus
ongere
oordra
spruit
wakker
welsyn
Boshoff
Destyds
struike
voltyds
bepaling
termiese
voortaan
##verwerking
afgelewer
onderdele
opgespoor
teenstand
verseboek
Saamgestel
Vervolgens
immigrasie
vlugtelinge
Oorspronklik
##vé
##zy
##ckl
##ush
##anas
##leër
Pac
##gasse
##nisse
##sdorp
Kirk
note
spys
Alber
Eloff
blind
hulde
stief
supra
weder
##kontrak
Onlang
inneem
vertol
Theodor
Western
eksklus
genader
ingebou
swanger
besigtig
skynbaar
gemonteer
gesneuwel
hieronder
koloniste
Mosselbaai
uitvoerings
gerestoureer
Republikeinse
vervaardigers
##CD
##hek
AG
##alia
Eeu
Ost
##ktuur
Kryt
##apping
Relig
Strat
geann
##istraat
##verdrag
produs
waterd
##minister
onluste
oorweld
sintese
uitbrei
valleie
verkose
vervorm
Afgesien
Sodoende
begrippe
vereiste
verklein
absorbeer
bedanking
konflikte
oënskynlik
taalgebruik
stoomlokomot
##fa
##dun
##mun
##ijke
Cos
Jay
Mob
##iensw
##molek
1828
Card
Heel
pors
pref
seep
skul
Braam
nakom
doktor
##elemente
##snelheid
noodlot
plesier
Robinson
Stefanus
plaasver
voorraad
finansies
veldtogte
burgerskap
oorlewende
subspesies
voorstelle
##grid
##grys
##riba
##sloo
##work
Ama
Bod
Ide
Leb
rye
##gevat
##itees
##loper
1806
Gide
##ikkeld
##keerde
##olusie
ellip
integ
parke
radar
trage
Letter
Randse
Willie
gemoed
respek
Plinius
Boksburg
soogdier
##tegnologie
verkeerde
##ienswaardig
astrologie
hartaanval
##away
##ench
Bud
Oer
##enton
##meter
##odium
Coop
What
bose
##enkamp
Brook
Enige
Verre
betre
tweed
##erskant
##ustheid
geform
Anthony
aanvall
getoets
nooiens
Oceanapia
gesprekke
korrespond
Biografiese
bestudering
deurlopende
familielede
kerkverband
IP
ps
##ctus
##edok
##fale
Cel
Dys
HMS
Lei
Mut
Tsh
bod
est
zij
1825
baar
knop
regt
sleg
##deelte
##ission
Fidji
Gesch
Space
bruto
Econom
Laaste
hengel
treine
geriewe
gestrem
missiel
vergeet
##teleskoop
Californ
Hierdeur
eweredig
kilogram
openings
Mauritius
kristalle
seespieël
bondgenote
lidmaattal
menseregte
rotsagtige
gesofistikeerde
##dha
##melk
##roor
Wed
raa
##cture
##lekte
Data
Dist
Iber
Koer
Mike
ryke
##enbach
Indep
Isaac
staak
Balkan
gordel
##hangende
##saamheid
##woordige
aardgas
ambisie
vennoot
voornem
Bordeaux
Dagbreek
Magazine
metgesel
moondhede
voortgaan
kusgebiede
langtermyn
rugbyspeler
verwydering
##oots
##part
Kes
##ellow
Brak
Crus
Linc
Nasa
Xhos
ioon
pont
tuss
##ekteur
##ikking
Chile
Roger
count
geall
ultra
##tydperk
##winning
kalium
oorkom
aanwend
kwantum
motiewe
neutron
savanne
afgeskei
politici
Dordrecht
abstrakte
ingevolge
Oekraïense
geëmigreer
ligsterkte
Normandiese
omwenteling
verspreidings
##afe
ie
##verf
Gaz
Wür
##aedia
##ansel
##iseur
##vakke
1835
Bols
Lieb
Sach
Tart
sikl
##feeste
##making
##ommers
Samoa
Tibet
stryk
wreed
##vaarder
Airbus
Python
geraas
grafte
meteor
##kleurige
dialoog
ontplof
Honneurs
Language
botsings
Antwerpen
sielkunde
verpligte
werkwoord
komposisies
voorgangers
voorgeskryf
##deb
##iant
##kema
##ogie
Otj
Vul
ell
law
rat
##iella
##inner
##quist
Nama
Oslo
gery
##ombard
Lucas
Schul
Trust
gholf
houer
kraak
Barcel
Lincol
eendag
onwaar
##verbruik
dokters
Militêre
eertydse
ongewoon
vermoëns
##ooreenkoms
byeenkoms
maandelik
onwettige
dubbelster
Verskillende
presidensiële
##heu
##loï
##uie
##aten
##fish
Asp
Bau
Cre
Río
##dhede
##manak
1818
Gray
stry
##elings
gekyk
##amilies
##terende
Weskus
##aartjies
Jackson
Wynberg
bedrywe
geringe
vername
oorgrote
tersiêre
vervreem
Bethlehem
Politieke
geldelike
ministers
oortuiging
ruimtetuig
agtereenvolgens
Au
IR
va
£5
##bard
##head
##oman
Ens
kin
##anche
##bloed
##chell
##ppels
##titel
Haag
Prop
vlam
##stiese
Chang
Moore
dowwe
gebak
helik
hetsy
navig
##fabriek
advies
gedood
meting
vermin
verryk
werwel
keisers
Cheetahs
Lawrence
sinoniem
oorweldig
restaurant
gemeenskaps
geproklameer
voorafgaande
toekenningsaand
##jas
##not
Ju
##klip
Gon
Has
Tos
Veg
bil
jun
##entyd
##ragte
Appl
Priv
newe
takt
##besker
Donau
seine
Bergen
Ingrid
States
hierop
korrel
Prinsloo
bekommer
fiktiewe
Barcelona
revolusie
stellings
California
ontginning
dokumentêre
##bep
##low
ib
##ieel
##iper
##luit
##skyf
##tand
102
Kyk
Rey
##brood
##melte
plof
##adueer
##geskep
##tiende
Sycon
##siektes
Cyrill
Wagner
kerkie
##digtheid
Janeiro
melding
outeurs
sterkte
uitslag
Besonder
Cornelis
Edinburg
afwissel
geregeer
polities
vitamien
deurbraak
opvallend
supernova
vlerkspan
ontmoeting
##efs
##bepl
##kind
Arc
Are
Bene
Gran
spot
Howard
Miller
Report
aanbev
derdes
nikkel
Artikel
Homeros
Jameson
Kinders
herroep
meeding
Business
Nowgorod
debuteer
##publiseerde
gebruiklik
minderhede
Westminster
aangeleenthede
##iwe
##sid
SC
##aros
##emen
##ideg
##meet
Lem
Myn
rif
##aping
1831
Brem
Hout
Pict
Sher
brûe
luid
Adams
Barry
Nepal
fluit
leuse
passie
tevrede
Hermanus
indertyd
opgedeel
stukkies
voedings
Gimnasium
bewegende
hantering
tekeninge
voorouers
Boeddhistiese
suidoostelike
##ky
##dor
##hok
##inki
##lank
##pleg
Maz
tam
##isels
##okkel
Dion
Sald
base
ment
##matiek
##strand
##ydenis
opger
##gewasse
##william
Center
verhef
Indiërs
aanslag
kwartet
skepper
uitgang
sodanige
waarteen
gearresteer
grootgemaak
##bit
AB
DC
us
Bry
Kaz
Rhe
tim
##holte
1829
Beta
Heil
kwad
##aringe
##onstru
bruik
sytak
##goedere
##planeet
##reaksie
Hester
Marius
Teater
afgest
gekont
Library
Wessels
stasies
Beweging
stadiger
voltydse
Revolusie
aangetoon
musikante
onderlinge
sluipmoord
Innocentius
sportsoorte
verbranding
verwoesting
gepubliseerde
##TV
##atri
##imba
nar
##ergte
Dick
Rond
##endaal
Genes
drome
stral
voorl
Aletta
Cooper
Gerard
Tahiti
galery
hierin
torped
##illeerde
##voertuie
Hottent
Lincoln
Stanley
skrifte
##ienskappe
gebergte
Groenland
Lydenburg
ondergang
verdubbel
Bundesliga
omringende
bestanddeel
waarnemende
atmosferiese
##94
##ooks
##vark
##wang
Sea
##spore
##style
Gest
blog
kuik
naar
tend
wend
##atalog
##imente
##inidae
##roonde
emble
krimp
Alaska
Conrad
Saldan
Totius
Vroeër
roetes
##sprekers
Siriese
molekule
Evangelie
oopgemaak
Goewerneur
artistieke
onbestrede
werksaamhede
##kh
NS
Ni
##iagn
##odus
##olph
##vest
Was
##arold
##horst
##ision
##ragon
Berk
jazz
poel
##aadjie
##kondig
Olymp
##aksiese
##iformis
Centre
Kambod
Noorde
marmer
vorder
##dersburg
##voorsien
stemreg
oorvloed
uitsteek
voorgelê
afgeleide
meganisme
kontinente
Reddersburg
onderwêreld
##84
##zan
bef
##fiets
##ronge
Kret
besm
Force
Skots
Story
bloei
##irigeer
##stadion
Social
Tibett
geleid
logika
people
uitgen
horison
oorneem
tentoon
jongmense
verhinder
Biblioteek
aantreklik
koninkryke
voorlopige
geannekseer
voorsitters
EF
Ly
Ri
Wy
##urst
##enste
##illon
##istog
##prakt
Burn
bord
sons
##dation
Adela
Album
##uiwings
aanhou
benede
strook
Antonio
Jordaan
Kerkbode
Openbare
##enigvuldig
instituut
sandsteen
kinderjare
ongelukkig
kortstondige
onderliggende
##ME
##bem
##jun
Ah
IA
Nu
##alms
##hare
##hoog
##okal
##wall
Ban
fem
##duits
##ivore
##pryse
Brab
Geld
Hamp
Harm
vise
##brandt
##vallig
Agter
Claud
soute
##ersnood
##verenig
Afghan
Harold
LitNet
Proven
Reform
kommer
monnik
Winburg
besoeke
bestend
buiging
kostuum
lineêre
lirieke
enigiets
nabyheid
ontslaan
totstand
Siberiese
gelowiges
geplunder
subfamilie
toevoeging
inboorlinge
herhaaldelik
hulpprediker
SN
jr
##leep
##olle
##rank
##rese
##urge
##wicz
but
def
his
lus
née
wei
##banke
##gebra
##innig
##wapen
Krit
eleg
##ksamen
##lesing
##tekens
Hymen
onbew
ritme
verke
verlof
##chloried
geruime
Carolina
swartkol
variante
federasie
Manchester
ampstermyn
Azerbeidjan
ambassadeur
belangriker
Ef
£4
én
##arge
##ieur
##sens
##agter
Clar
Laer
Midd
leeg
riet
vlot
##iggame
##navors
##raksie
Larry
afger
alkal
hoeke
title
Gallië
differ
geskat
lekker
versig
##ikkewyne
Mississ
Toronto
gearbei
hoender
##utherland
##vertaling
membraan
stygende
##onstruksie
Venezuela
afwykings
millimeter
wisselende
donkerbruin
outomatiese
gemeentelede
nasionalisme
verkeerdelik
besienswaardig
##dak
##lia
##asma
##vale
Agt
aar
dia
dof
let
nit
##atoom
Jeff
guer
spor
waai
##aktore
##letter
##mering
##vegter
halwe
##patroon
Boonop
Ernest
gaande
gehang
gladde
##skopiese
Stander
article
gedroog
waartoe
Bretagne
taalfamilie
verjaarsdag
wetenskapsf
soewereiniteit
##arin
##ases
##ctic
##emia
##ourt
Buc
Lac
Str
##ensch
##etaal
##krans
##names
##oping
##rates
##spunt
1833
Past
aflê
erts
##arisse
Hemel
genes
komed
##breking
aggres
jagter
vakant
Raymond
giftige
herleef
kenners
uitreik
Adelaide
Altesaam
Helsinki
aandrang
merkbaar
opbrengs
beskermde
bestempel
bomwerpers
gedirigeer
intensiewe
Onafhanklik
AS
Bp
IU
VK
##ukke
##uses
Fen
Fox
Ing
PDF
##azaki
##oland
1600
1652
1821
1841
Dres
Gaug
Pink
gluk
Drama
sfeer
stort
strat
##burgers
##landers
Bridge
dapper
metaan
naweek
notule
oproep
swerms
Fransch
medeler
opgehef
##geselskap
##voorwerpe
Spesiale
Toulouse
Upington
ledemate
sieletal
Marthinus
bedreigde
bevryding
Sutherland
vergoeding
woonbuurte
vloeistowwe
Encyclopaedia
##ße
##abl
##inf
##iny
DS
##aren
##cken
##lees
Bai
Erf
Gees
apte
damp
kake
pakk
##riidae
##wagter
Aires
Young
about
kruie
rooil
##ucation
Poetin
aardse
doring
reserv
##concerto
Bolsjew
episode
vingers
##inellidae
##roduction
Sciences
geïllust
opstande
piramide
Mettertyd
eksoplane
inrigting
##aktiwiteite
Kenmerkend
restourasie
suksesvolste
gekombineerde
##bul
ho
##gras
##ools
Sof
##armen
##besit
##ipper
##owers
##stall
##werwe
Dame
Free
Kotz
Petr
Tony
Wern
fisi
##klasse
Child
Field
Sotho
##ietydse
##verskyn
Health
gehuur
hinder
opvang
proton
reliëf
##sprekend
##ubenfels
spysver
venster
vertrou
vryskut
astronom
gewoonte
uitspeel
helderder
planetêre
stadsdeel
bergagtige
produksies
Soortgelyke
kombinasies
hoedanigheid
voorgestelde
Nd
##enta
##ukes
##video
Opge
Word
borg
##alidae
##olisme
armes
reden
staaf
##gebonde
Benoni
Buenos
Gideon
territ
weders
wester
##ontinent
beroepe
gediagn
profiel
senuwee
akademie
eintlike
misbruik
sanderige
sterrewag
toernooie
vinnigste
egskeiding
sentimeter
Philippolis
##aï
##asi
BA
##cast
##nell
##spat
Det
dry
ped
syn
##overn
Phys
Rein
Simp
##gordel
Fritz
epide
Daarby
Oliver
Sunday
aldaar
opgelê
sukkel
vinger
##ligtings
Konserv
Vanderb
Wallies
hormone
senator
Olifants
realisme
snelhede
Binneland
behoorlik
innerlike
nomadiese
realiteit
Queenstown
uitstaande
Clanwilliam
moeilikhede
realistiese
stigterslid
gediagnoseer
##RO
##ät
×
##tef
##ums
##veg
Ov
##ctor
Dak
Ope
Stu
doo
eed
Rout
Wolg
bote
roos
##kanker
##ommere
Boliv
Kriel
Power
ontbl
##ometers
Ridder
Uganda
besmet
swaard
bosveld
openlik
##toestande
Phillips
rangskik
voornaam
benoeming
donkerder
impliseer
spektraal
tydgenote
dissipline
grammatika
opvallende
uitgebring
Apostoliese
Franschhoek
Skandinawië
##aaikorporasie
##beg
##fir
##sak
##utu
Ré
##ekal
##ilda
##kors
##umen
650
Gog
Lep
Vic
Vit
tap
##rilla
Shep
gegr
hosp
##figuur
##herine
##ivisme
##kelder
March
Puert
Rynse
Soest
oriën
varie
##uleerde
chloor
genres
motief
##ondiging
Libanon
Mongole
kolonel
notasie
opgewek
nageslag
oorstrom
aangewese
sonnestelsel
Hooggeregshof
outobiografie
##dok
Id
##gell
##hall
##ikot
##ilus
##issa
##undi
##vrye
Aus
Yor
##innek
##zburg
Elsa
Hano
Iers
More
##heimer
##ressie
huist
Martha
Morgan
epiese
massam
Springs
Tipiese
Wesfale
beroeps
moeders
snelweg
soliede
bemoeilik
porselein
vreedsame
waarnemer
boodskappe
fotografie
hoofstroom
inskripsies
nasionalistiese
##gi
##deen
##iang
##pyle
##reke
Eff
Mao
Six
bls
kaj
rib
##apest
##osies
Horn
Naby
Trin
weld
##akkals
##gestig
##gevaar
##terdam
belig
blink
sonde
##bedrywe
##okolade
Angkor
Rivers
walvis
Scholtz
aktivis
gunstig
ingerig
oorgegee
seewater
stadsaal
uitnodig
Cornelius
Boekhandel
deurgevoer
omgekeerde
skaaldiere
geneeskunde
Engelssprekende
Do
Sü
##balk
##born
##imar
##odon
550
Hid
Por
##angel
##draai
blik
derm
##utiese
Lande
Night
Wilde
immun
skoot
Schwar
Wynand
geland
korpor
Gauguin
Lombard
stukkie
vasgelê
avonture
bevriend
##partemente
Magdalena
begroting
Mississipp
Volkswagen
aartappels
Afghanistan
uitsonderlike
veranderlikes
sokkerafdeling
##ims
##lav
##wyt
##jekt
##olon
Ery
Lut
Rap
##broke
##itage
##setel
Keur
stra
##gronde
##nesium
geërf
manif
pseud
snoet
Moeder
anneks
radiod
Hanover
Campbell
Colombia
jeugdige
olifante
Rotterdam
botaniese
noukeurig
toewyding
Laubenfels
spirituele
restaurante
wydverspreide
Halichondriidae
##cia
##esj
AC
##ensy
##luis
naa
##ettie
##media
##êrens
Kuip
NAVO
sind
##ctions
Echin
ewige
gedek
gewek
Schalk
aanwys
anatom
antrop
koepel
vernuf
##skynlike
Polisie
Catholic
Kaukasus
akkurate
verdring
waterval
konsessie
integrasie
waardering
verenigings
##wetenskaplike
##EC
##bot
CN
##heme
##odem
##tale
Fut
Row
dip
pik
##spoel
Eden
Mend
Whit
konk
vand
##untjie
Light
Tonga
onkru
param
Depart
batter
gedeta
sommer
verlam
Barbara
Maandag
chirurg
hormoon
hotelle
omskryf
produkt
Monument
Opgespoor
Trichardt
fondament
stadskern
uitgenooi
verdieping
verkryging
vennootskap
totstandkoming
##rh
##umm
##ekom
##heit
##neef
230
Miy
cal
##assau
##gange
1823
Play
neig
##beskou
##tennis
##wedren
Doorn
Lente
addis
beoog
dried
entre
##medalje
Carlos
Filipp
Zambez
Vincent
ensieme
ontslae
seehawe
virusse
opgeroep
treffers
Germiston
Melbourne
gewoontes
onverwags
Foundation
betroubaar
omgeskakel
leerstellings
ontevredenheid
##aga
##atl
##hav
##hin
DF
##ards
##unda
Lyf
Ose
Rec
heb
##tipes
1822
Nice
bure
khan
seeb
##abasis
##riters
Denis
Salis
evalu
onbet
oppon
##groting
##tekende
bevoeg
kultiv
minuut
##atoriese
Genesis
oorgawe
Jonathan
geskatte
isolasie
Mycalidae
Scheepers
fragmente
materiële
passasier
woonagtig
standbeelde
Victoriaanse
ineenstorting
##RI
##key
Mr
##ular
##wyke
Bac
Cet
Ins
Naz
##istry
##oreer
##rales
Hent
Isab
Stem
Toet
gryp
slim
##gramme
##leksie
Bayer
kruip
loods
sekel
##verkeer
Advent
Edmund
League
Schuur
##beginsel
Apostel
Boeddha
Persoon
diakens
stadige
uitruil
wrywing
Columbus
Kersfees
Michigan
Noordsee
##ertifikaat
Routledge
opvolgers
simmetrie
Walvisbaai
ekologiese
illustreer
verspreide
hongersnood
##itu
##ône
MA
360
beb
lib
##okale
Expl
Joeg
dame
seem
vaal
##behoef
Halle
Parow
Thoms
Titan
trots
Scient
Ulster
afkoel
beswyk
kriter
violis
##ermusiek
##verwante
Sjinese
aanloop
swakker
uitklop
Andromed
Nietemin
Stigting
blywende
identies
moerasse
sentrums
sewentig
beligting
estetiese
informele
Queensland
elementêre
veelvuldige
beduidendste
bedryfstelsel
##ML
GN
##enke
##esig
##gart
##giet
##imer
##umes
Mnr
Zen
att
##erwes
##gsame
##inter
1700
Peng
Stil
Vill
Vlad
vlek
##affing
##wortel
Felix
Natur
digby
gedok
immer
##iewelik
Rivier
gelowe
kleind
rooilys
verkort
industri
keramiek
kosmiese
Fordsburg
Roodepoort
kontrovers
landskappe
stadstatus
byeenkomste
interessant
verstedelik
Raspailiidae
rolprentfees
vermindering
dogtergemeente
##EA
##öm
##uun
Wi
##asia
##sjoe
##skas
##sund
Bpk
Fis
XIV
fer
hak
hib
##adorh
##alise
##meens
##ophon
##orbas
##prene
1200
Benz
Chel
ekst
Almal
Bonap
Ellis
polis
##patrone
Boerem
Nasion
Uranus
blokke
geweeg
uitkyk
Cladorh
Myxilla
Stewart
intense
##nywerheid
kritikus
protokol
voorneme
Alliansie
Wallabies
aanspreek
belydenis
onderling
chromosome
regterkant
Polinesiese
fotosintese
groothertog
##spr
##ôre
Ut
##alie
##igel
##ikon
##inda
Nad
Tod
tik
##skaja
Lyon
page
##strate
##vrugte
Andes
Persk
Steen
flora
ingeb
samel
stoot
Boheme
Desmac
Paleis
Puerto
Vlakte
Grobler
aanmerk
nuutste
verbode
verlate
Transkei
grondleg
navorser
sierlike
Salisbury
moeiliker
suggereer
baarmoeder
vertonings
Hertzogprys
kompetisies
onsekerheid
##no
##hib
##ohl
##zel
##dood
##drif
##erem
##icum
##wana
Kaï
##wolke
nooi
##letiek
##teater
##usters
Gnost
Psych
nalat
paras
##hebbers
##veldtog
Claude
Hellen
Vierde
akkomm
patent
##geskrewe
##weergawe
kombuis
##direkteur
##ferensies
##idariteit
Marshall
Swartsee
egtelike
gewissel
inflasie
klinkers
Inligting
bekragtig
evangelie
onderdane
ooswaarts
Department
analitiese
berekening
opgrawings
vermenging
aansluiting
geleidelike
uiteengesit
voorsitterskap
##ps
##som
##ych
##ESCO
##aine
##chem
##imus
##odot
##oema
##rogl
Moo
boe
gol
hië
zal
##ikaan
##rande
##ubile
##uiker
1832
Aber
Dien
Ivan
item
neur
saai
##studie
Faure
Stein
facto
skrik
Donder
Nature
skroef
##masjiene
Armenië
Oosters
Phorbas
Preller
##ifikasies
Bonaparte
doelbewus
fotograaf
goedkoper
Polymastia
daarenteen
millennium
debuutalbum
geïsoleerde
middeleeuse
Verteenwoordig
liedjieskrywer
vermenigvuldig
##VS
##sê
##NET
##jat
##uul
##via
Fu
po
##enko
##iker
##otor
##rieg
##town
210
Akt
Squ
##arium
##ascus
##golwe
##ogeen
##welde
Shaw
Sier
muis
spil
staf
waag
##haalde
##straal
Kotzé
Murra
Rodin
gejag
vervo
##ronteer
Marcus
UNESCO
moment
opstyg
Century
Galileo
basisse
gerugte
oogpunt
sitting
toegewyde
herstelwerk
afstammeling
dertigerjare
ongewerweldes
volwassenheid
##vet
##aase
##osse
Eva
Fle
Hag
Hot
leë
##aries
##gesin
##ineer
##lesse
##skuns
1826
Mang
##antiek
##streep
Democ
nagte
ordes
wurms
##aardige
Gedenk
bedags
esaach
gedaan
gehoop
deursig
instand
verbond
##cklenburg
Einstein
Richmond
spoorweë
voortref
waarheen
aminosure
bewerings
sekerheid
Historiese
aangeplant
hereniging
geformuleer
##EL
##FC
##PS
##loe
HT
##akse
##ithe
##reig
Gek
McL
Tat
tir
##draer
##oonde
##owing
##tuele
##vorms
1811
Leer
Math
Vlak
Voël
vigs
saams
skand
steel
##elikste
Castle
Indian
Justin
Observ
beloof
##duisende
##gestigte
##perature
England
Ircinia
belofte
diverse
eiersel
vertoef
##instituut
##sprobleme
##stellende
Operasie
afwyking
kragsent
reguleer
skuiling
besighede
infeksies
anneksasie
vyandelike
Livingstone
sterreswerm
buitelanders
uitsonderings
##pol
Mé
VP
##lear
Sud
##ality
##angse
##ermat
##hardt
Asia
Flag
Lied
Orch
amps
onop
vond
##erveer
##iensis
##onieme
Fanie
Oksit
SANBI
drein
##kiewicz
##oseidon
Jooste
indeks
Algerië
Meisies
Renault
beskeie
oorname
troonop
aanvraag
eietydse
hierheen
kernkrag
inleiding
postmoder
uitdaging
uitgeloop
artillerie
eksperiment
selfstandig
##aus
AW
Ky
##onso
##sler
##xton
Hip
Jur
hun
wij
##bonde
##jekte
##skoop
Gote
Lund
##ellige
##vlieën
Annie
fonds
knope
kolom
spele
##diploma
##entrums
##kultuur
##woestyn
Global
agtien
begryp
domein
gevare
honger
regent
verrys
##prosesse
##stigting
Dresden
bankrot
voortge
##stilstand
Herschel
Jaarboek
Miyazaki
Wolfgang
beserings
hervestig
opvatting
Antonissen
huishoudings
uitdrukkings
##MI
##iki
##essa
##jaer
##peur
##rook
##üger
Apl
Kad
Lov
Mow
Syl
Tam
Vik
Viv
pra
##awing
##gaard
Bast
Graf
Mari
Rain
Reis
Swan
mini
vent
##kitaar
##sperim
##ysmith
Eugen
Noors
etiek
kloof
Onders
Xhosas
eredok
gesent
heront
nasate
rektor
stewig
wandel
Hiermee
install
##ifiseerde
Festival
Melville
meermale
monsters
voorrade
aangetrek
lughawens
testament
afgesonder
insluiting
onvoldoende
illustrasies
konsentrasies
gedetailleerde
ooreenstemmende
##DA
##GS
##⁄2
##non
##ices
##klam
##loof
##murg
##oesj
##stes
235
Baf
Tir
aal
##ading
##arter
##chten
##iereg
##skerk
##tella
Athe
erns
haai
knap
##baring
##enebes
##tekste
Boeke
Kelly
Place
Pseud
arbei
draag
Altern
Grande
Tsjegg
Valent
Valley
geboor
gekonf
junior
kondig
regime
sement
waterk
##oefening
denkers
hieroor
deeglike
aangaande
feesalbum
ongekende
simbolies
toegevoeg
Krugerwild
magistraat
Axinellidae
Geallieerde
Mecklenburg
betekenisse
onveranderd
teenswoordige
##KN
##на
##ced
##oux
##uka
##huid
##illy
##proe
Dir
Lex
Ork
bra
##alies
##bleem
##broer
##dadig
##ibiot
##ignon
Duis
Font
Kind
Olga
Riga
inly
##teloos
Anast
Brian
##temberg
##vryheid
Ridley
aanbou
altaar
meubel
rasion
##verkoper
Andreas
Service
Thomson
invalle
Griekwas
Onlangse
Provence
atletiek
boorling
hierdeur
opdragte
Geodiidae
Sesnasies
Swartwoud
kalksteen
teleskope
##versameling
medeleraar
propaganda
Wêreldbeker
alternatief
welgestelde
Taalbeweging
##DS
##het
##ils
UK
sr
##anol
##oïed
Osc
Pik
ham
##ibaar
Dene
Room
Turn
Yale
drag
gimn
haat
howe
ruïn
##leself
Fenis
Liszt
Model
twees
vakke
##lewende
##onansie
##rydings
Lynden
Sterre
geteel
##groepeer
Laeveld
herdruk
sektore
##beeldings
geseënde
herehuis
klimaats
tragedie
handeling
weerstaan
oorgeplaas
Organisasie
bestuurders
verwaarloos
besproeiings
bonatuurlike
Krugerwildtuin
##zj
##ич
##ols
##pap
eS
ka
Cun
Rij
tor
##gorit
##reuse
Hess
Jung
Trot
##beperk
##horing
##komend
Clark
Romeo
Schwe
frase
sleep
##sterres
Hughes
agtige
geboer
onderw
##landskap
##spanning
afsluit
afwesig
vakbond
vissers
##essorteer
Broadway
finansie
westerse
endemiese
hulleself
Israeliete
kommissaris
##jt
##omf
##uez
Dü
Nk
##asso
##bees
##cted
##ofil
##oses
##staf
Mik
Oes
Xen
rid
seë
##obbel
##yfers
##ytler
1827
Reën
mits
skak
##ouspel
##riveer
##roleum
##vinder
Civil
Ghana
Paulo
Pedro
Stutt
##enhoven
##gerende
Milner
Rooyen
missie
pendel
stelle
wettig
##meesters
##voertuig
kliënte
novelle
omgesit
silikon
##president
Kambodja
diktator
nagelaat
plankton
##vaardiging
Steenkamp
gesteente
treffende
Vanderbijl
asemhaling
bevrugting
entreprene
reusagtige
konsentreer
uitbarsting
Nederduitsch
Tradisionele
versterkings
vyftigerjare
geheimsinnige
transformasie
##té
##ahu
##eus
##ido
##neg
##duur
Dub
dol
hok
tas
Gron
Pach
hiër
pype
wand
##enings
##eridae
##ompson
##sparty
About
Linde
Sarah
bokke
engel
etage
##ientjie
etiese
kliere
konson
kopieë
lankal
onvolt
snitte
##icksburg
##steuring
##ttemberg
Centaur
ingelui
ontneem
Poseidon
apparaat
infanter
seksueel
##onderwyser
##voorsitter
Clathrina
Edinburgh
hemelruim
opkomende
Klerksdorp
oorgesteek
uitdagings
aantreklike
funksionele
vrugbaarheid
presidentskap
##urd
Cu
EP
NZ
##burn
BMW
Jav
Vet
ape
ope
sab
##agoge
##akers
##ebook
##ikles
##vinne
##winde
1810
1816
Dood
Lede
Show
XIII
##gewend
Beach
Colin
Early
Parad
Suide
Tower
ivoor
onsig
Alekse
Bremen
Krüger
Warhol
##stenaars
Assirië
Kestell
algebra
floreer
melodie
Steytler
aardkors
kwartaal
neerslae
webjoern
aanvaarde
beperking
meetkunde
verligting
Sondagskool
Progressiewe
beeldhouwerk
##gem
##ijd
##oeë
##sor
SO
##doel
##heff
##neus
##stru
Hie
Sad
Sau
rég
##appie
##esies
Mali
Tran
bont
diff
skol
##heuwel
##kliere
Krige
Basson
Disney
Hooper
Serwië
ensiem
linkse
##skomitee
Brabant
Deesdae
Kaptein
Lichten
Normaal
bystand
embleem
kuikens
onderwy
rooster
staande
verhuur
verteer
##stoestand
Studente
eiendoms
oorgangs
deurdring
gereageer
inwonertal
medewerker
Württemberg
aanpassings
natuurskoon
boukommissie
ondersteuner
##rod
##aale
##arit
##cess
##oras
##riep
Dum
Way
bog
hys
kou
##ahili
##hoeke
##lyste
##skant
Hold
Krak
Ling
Niph
Rhab
burg
kwyt
pros
##skloof
##vision
Aster
Delta
Joego
tweek
Elliot
Minder
Sciënt
skouer
tydjie
##aadpleeg
Kenneth
Riebeek
paleise
sangers
verneem
##dadigheid
Vatikaan
chemikal
eggenoot
ingepalm
ontbloot
uitgebou
vrugbaar
afmetings
sjokolade
uitgeroep
Grantiidae
kerkgeboue
prehistoriese
krygsgevangenes
##OR
##cts
##gil
##uga
##amma
##anti
##diek
##itas
##mala
##noop
##odos
Rav
neo
##adeel
##ierse
Bibl
José
Mall
Mian
Suur
sint
sken
##metaal
##wendes
Allah
Bruce
Olimp
##bekende
Lewens
onvoor
##iserings
Express
Gebruik
Kosakke
Naspers
getroue
onderhe
ondersk
Thompson
Virginia
pelgrims
Barberton
Princeton
diskrimin
kanselier
sonmassas
Veiligheid
grondwater
geregtigheid
##run
##vra
##elid
##klok
Aff
Sex
Sul
##blaas
##fonte
##illas
##kaart
##marck
Kasp
Live
Nine
Perm
Plut
keël
##argite
##produs
##stande
##stelle
Ester
India
Tunis
kieue
outor
tensy
##planete
Basoet
Eugene
Rugbyk
doseer
gelaai
liewer
mister
Ontario
Stevens
sytakke
volmaak
Albertyn
Perikles
eSwatini
groepies
uitvoere
verlange
verskill
##kunstenaar
Ladysmith
bomwerper
ontwerper
besoekende
versiering
Breytenbach
Grensoorlog
motorongeluk
sterrebeelde
Zambezirivier
##GB
−
##lar
##tye
Fj
##arra
##arre
##aver
##insp
##pels
Cep
Kus
can
lab
onn
##buurt
##proef
Curt
Eerw
Jepp
Schl
geëk
kers
wyle
##aktief
##strale
Nasou
geaff
##kollege
##liggame
##viering
duiwel
entoes
kognit
krater
storms
Boesman
Etienne
Leonard
Solomon
Twintig
parasie
vaandel
Anatolië
Atheense
kunswerk
neergelê
uitgeput
##instrument
Raspailia
anderkant
satiriese
verspreid
vloeiende
mededinger
aanbeveling
aantrekking
beskikbaarheid
Metropolitaanse
##ED
##EN
Î
##Van
##bod
IB
eu
##buro
##ibar
##ioon
EOS
Era
Voy
led
num
rym
##klank
##owitz
##usser
Cult
Kast
NASA
Wien
geko
gids
##aanleg
##eerdes
##kering
##ration
Bosch
Bruin
Moraw
Orion
anker
sonne
##persoon
Lusaka
Nassau
Stefan
aftree
basies
geweer
Coetsee
Gaelies
Sentrum
arbeids
broeder
krities
varieer
verbyge
##standaard
European
horlosie
bekroonde
##departement
bondgenoot
variëteite
vergelykbaar
vrywilligers
Vanderbijlpark
plaasvervanger
Coelosphaeridae
ruimteteleskoop
stoomlokomotief
##iba
##iri
##isc
Bö
LV
##dene
##ikum
##munt
##nede
##nels
bij
tin
##grepe
##iling
Stap
baas
cent
grav
suig
wets
##aldiek
##antser
##hebber
##ooster
Athen
##gesette
##heuwels
##ktoraat
Junior
Libert
Oscars
persep
verbas
Persies
Tsjeggo
binding
dominee
respekt
weerlig
Bismarck
beroerte
lidlande
ondermyn
##literatuur
Ficksburg
gebruikte
voorregte
##voorsiening
Jeppestown
Kaapstadse
gegradueer
verdamping
##lé
Š
##gio
Ik
##ever
##opol
##roop
CHO
Lip
dor
its
##adium
##ikhoi
##kruip
##pping
1789
Buys
Qing
kart
mine
oudl
prom
stol
##isteme
##osters
##ratief
Carlo
Meint
baard
bemar
gelas
omhul
spoel
##beiding
##ialiste
Donker
Schoon
Soweto
immers
inslag
paneel
tuberk
vurige
##rekkinge
Mianmar
grootse
skouers
trouens
sluiting
Depressie
bedoeling
ontevrede
##imensionele
Langlaagte
vlieëniers
Drakensberg
skoolgegaan
verskillend
vierkantige
##38
##cha
##oie
##osf
##diet
##reen
##sekw
Bog
Kil
McD
Mig
Oeg
Suk
gru
##awayo
##lades
Kens
Levi
Lock
Pall
nael
sonn
##andeur
##oepass
##ersport
Canada
Mulder
Opvoed
beraad
litnet
skoene
Ptoleme
Schwarz
diagram
geweste
herstig
nuttige
visvang
Khoikhoi
Tegniese
befaamde
wetgewer
geslaagde
skadelike
uitvinder
weswaarts
geneesheer
naaswenner
onderhewig
onderwater
riviermond
statistiek
toonhoogte
addisionele
slawehandel
uitbarstings
rewolusionêre
##RU
##ра
##com
Rö
##meld
##meul
##vrag
Dah
Tig
##erwat
##rough
1801
Bure
Emma
Page
Stre
geni
##chemie
##endorf
##stitus
##ysburg
Phoen
##bestand
##handels
Faures
gehore
resens
Montagu
Schulze
eerster
##skrywings
beoordel
inlywing
pioniers
##sverkiesing
Tegnologie
betroubare
parallelle
Development
Griekwaland
geallieerde
gebruiklike
gedenkteken
spesialiseer
ongepubliseerde
##cle
##eps
##oba
##oid
##pyn
##tak
Mk
##eden
270
Akk
Tac
##elewe
##orsie
##oterm
Dean
Roth
snit
##spoort
Basel
Petro
akker
stres
##kleurig
Erylus
Liverp
regtig
rooier
##skrywers
Country
Voyager
gedreig
gesteel
welslae
bergpiek
groottes
territor
vriendin
hospitale
konsistor
opleidings
versoening
Langenhoven
Venesiaanse
teengestaan
geïllustreer
Callyspongiidae
##acy
##seg
LP
##amba
##fone
Jin
Lub
byt
soö
##leide
##nings
##oenie
1813
Boom
Cell
Gand
Kiel
Yang
hert
meel
nous
##ateurs
##orpsie
##spanne
##vlugte
Aplys
Broek
Hough
gewag
nouer
oksie
poste
Blanke
Daneel
Dertig
Silwer
Sultan
Toneel
gelewe
lesing
naboot
perdek
pilare
stekel
Senekal
feesdag
Mountain
medestig
Apartheid
opwekking
toesprake
Fauresmith
Margaretha
Wetgewende
ekwivalent
finansieel
Protestante
aardbewings
eilandgroep
invloedrykste
betekenisvolle
outobiografiese
##34
##hod
##help
##illo
##kane
##melo
##ocal
##reez
##vari
Lil
Mej
Pun
##ommel
##ompel
##wiere
Dors
Druk
Stru
Thab
balk
jaag
##verton
geïmp
knaag
kwaai
stoel
Etrusk
System
flieks
geskil
krimin
##bevolkte
##ektorale
##families
##gedeelte
Cardiff
Patriot
orkeste
styging
Bulawayo
Krokodil
Teenpous
benadeel
##odictyidae
Banglades
Tafelbaai
uitsprake
vertikaal
Geschichte
winsgewende
spysvertering
##OK
Á
##uks
AI
##lêre
##oeid
##velt
260
Mog
##ietse
##raags
##reira
Cran
Frei
Mere
Sele
Verl
Vest
abdy
barn
##enseer
##huldig
##miraal
Langs
Maagd
Malta
appel
denne
duine
menig
plaag
##opening
Brandt
Russia
Weimar
Wolmar
kajuit
sitrus
spioen
Airways
Swahili
konsekw
ontstel
suidkus
##entydperk
Afrikaan
Martinus
afgekeur
ammoniak
kritieke
speserye
Fakulteit
Rugbyunie
Sebastian
Simonstad
bemarking
geïsoleer
moderator
Boergondië
Historical
Mickiewicz
immergroen
vertolking
intensiteit
Bezuidenhout
relatiwiteit
##66
tw
##etty
##phis
Esc
Ign
Sed
far
hij
pes
##deeld
##graph
##kraal
Bapt
Hahn
Poel
palm
##ffende
Clare
Geref
Hegel
Pompe
Rabie
Terug
intre
neuro
suier
##anderye
##heilige
##menging
beleër
regist
rykste
worden
##gedwonge
Herodot
aandoen
fisikus
geluide
ledetal
paleont
pionier
sintuig
##agentskap
##beskouing
Hambidge
Hiervoor
Moskouse
direksie
omgeskep
Hospitaal
Liverpool
Visrivier
Wolmarans
oorvleuel
pektorale
stimuleer
Publishers
assosiasie
bewustheid
##gemeenskappe
Babiloniese
vaardigheid
vertellings
gedeeltelike
##rd
##KNK
##mad
nr
##ians
##itar
##quit
##roll
##smis
##udes
Nef
Wys
inc
non
##artel
##dagte
##kroon
##oïede
##ström
##wyses
3000
Help
Kana
Krem
Maro
Neil
Sorb
beur
guns
lans
weiv
##okrate
Alles
della
tante
##tellers
Archae
Beukes
Protea
niggie
selfde
verpak
werker
##ografies
kubieke
magiese
regisse
strawwe
wetlike
Leonardo
Saksiese
Tsjeggië
aangetas
animasie
stroming
##verbinding
westekant
Etruskiese
geadminist
reghoekige
Wetenskappe
kapitalisme
Volksraadslid
skoolloopbaan
##RC
##TS
##cta
##oje
##atsj
##buch
##ibus
##venn
280
Cav
His
##aakse
##alina
##eksel
##hande
##usies
Gros
Well
onaf
opin
##figure
##oniële
Haven
genot
Linden
Norman
botter
onvers
steppe
Bosveld
dorpies
hoofman
##absorbeer
Jordanië
Oberliga
erotiese
oefening
tekstuur
Biography
Donderdag
stuifmeel
subspesie
kommunisme
regulasies
standpunte
Bolsjewiste
Christoffel
eersterangse
##39
MS
##alde
##beur
##chot
##kerf
##roos
Esk
Nem
sus
##endag
##iekte
##radio
Cart
KKNK
Okav
Stry
Thai
##anghai
##endien
##fiksie
##verein
Famil
Psalm
Psamm
Satan
reële
vinde
##kedisse
##osoïkum
Duncan
Inform
Stuart
kameel
kliënt
lopies
newels
ondeur
ruïnes
trappe
##dagtenis
Kroasië
Maurice
Perskor
telling
uitsaai
Nordiese
gletsers
halfrond
meganika
tragiese
vlagpaal
vlieënde
worldcat
Konvensie
aanklagte
afgebrand
behuising
bepalings
vernuwing
moeilikheid
sameswering
veiligheids
versierings
vervaardigde
kW
##ampe
##doek
##lich
##lope
122
Dop
Gut
Jah
Put
Set
pul
ski
taf
##racht
##ramas
1803
Mult
Pass
Vred
##ograwe
Krist
Marse
Preez
Regte
Seine
manip
##idegger
Brahms
Marion
Sergei
skeids
skriba
Ingenie
Penguin
toevlug
Northern
antibiot
episodes
grasveld
heidense
hellings
leefstyl
stingels
veldslag
magnesium
ooreenkom
versigtig
Harrismith
afskeiding
bergreekse
definisies
elliptiese
jagluiperd
kognitiewe
motivering
vooruitsig
eilandnasie
breedtegraad
##ès
##pil
Dh
Ig
vC
Ral
Syc
##oteer
##polit
##vanië
Gamb
Home
Kalk
Sina
##ensief
##messel
##siklus
##violet
Ancor
Evans
Miner
Nicol
Proto
babas
##atiseer
##ienaars
Bureau
French
Leucos
vonnis
vreemd
##pansberg
Beierse
Niemand
Somalië
meerder
vanself
vrouens
Anderson
Boesmans
aansteek
gesukkel
Chileense
Gemenebes
amptenaar
handelaar
reisigers
rooibruin
verbouing
Hindoeïsme
afgehandel
naamwoorde
kommersieel
Drakensberge
##cz
à
##EFA
##pyp
##hope
##itol
##laai
Eas
FAK
Gor
Run
bej
das
rok
##biter
##euvre
##illan
Bonn
Kart
Ohio
Omar
Spir
Wang
klou
krap
##blomme
Allan
Damas
Freud
Ganes
Grové
Organ
impro
juris
##ensieel
##gerigte
##soldate
##voedsel
##ïstiese
Voorts
bevolk
gesink
##asioneer
misdade
Cornwall
keiserin
slagting
slagveld
##stoestande
Azerbeidj
Churchill
Heidegger
gewaarsku
oorstroom
Evangelies
Kensington
biblioteke
onderworpe
##kommunikasie
maandelikse
nooiensvlug
samelewings
uitnodiging
geadministreer
gelokaliseerde
onderhandelings
С
##gis
##oga
##udi
##wey
##aaks
##amfl
##anos
##beek
##blyf
##etin
##yker
Gob
Mev
Pep
Tou
##chron
##ocken
1819
Borg
Gerd
Jura
Late
Opel
uitd
##inisme
##opolie
swaai
Heever
Latere
afstig
hierbo
matige
slakke
##andering
##erstraat
##ondheids
Emerson
kronkel
ongelyk
uniform
vertrag
wysheid
Voorheen
hartseer
verwagte
Education
akkedisse
navigasie
resolusie
vrylating
waterdamp
##instellings
atoomgetal
inligtings
linkerkant
republieke
wêrelddele
ingewikkeld
nagedagtenis
stelselmatig
Hellenistiese
Ringskommissie
##aza
##igi
##nal
SG
##erte
##loyd
##pomp
##ulde
##unes
ABC
vib
##cript
##ugter
##urius
Audi
List
Mayf
##koning
##planne
Forum
Reken
dikte
gefun
gehys
genoe
Crella
Maputo
Sanlam
bywoon
dieret
houers
inname
opgesk
tiener
##ografieë
Culture
Henning
Laurens
koolhid
vulkane
wapensk
Aardklop
Nicholas
heiliges
huistaal
kleurske
kruising
onvermyd
moordenaar
alfabetiese
mededingers
medewerkers
ontspanning
wolkekrabber
##asa
##cep
##kul
##enst
##erep
##onis
##othe
##wurm
##draad
##etika
##honde
##ialis
##owwer
Comb
opro
taai
tant
##inette
Enter
Jeppe
Rhône
boete
##avarman
##geleier
Planet
Rondom
bosbou
gemerk
huldig
tender
##alisasie
Sosiale
gekruis
gestand
maklike
pigment
stempel
wonings
##behoeftes
getroude
ingetrek
landerye
skeuring
verdrink
Louisiana
Semitiese
dimensies
onderdeel
opgeleide
willekeur
##onderneming
aanbieding
geantwoord
Meisieskool
besprekings
bloemlesing
magneetveld
seremoniële
joernalistiek
##ст
##ovo
##sex
##yes
UP
##isma
##note
##othy
##teor
112
521
Chi
Fig
Hig
Slo
opm
##schel
##vraag
1804
Emir
Helm
Swak
geop
puls
will
##enhuys
##itting
##oriete
##sproke
##stenby
Artem
Eskom
Kaïro
dames
doods
draak
harte
heeft
##ithecus
##jaardes
Govern
uitgra
##ications
Gabriel
Omtrent
Romanof
Stadion
binnens
fontein
ontvoer
Calvinia
emigreer
##anklikheid
Boedapest
aangename
geteister
manskappe
oostekant
portrette
inskripsie
kamermusiek
merkwaardig
uitgevaardig
##äl
Pi
Vy
li
ye
##apro
##chan
##ving
##accio
##orale
##tiges
##yster
1798
Boys
Dark
Drac
Kurt
Verm
##aaiers
Bronk
Court
Mikro
Tiber
Tugel
drieë
gefin
lesse
##oestyne
##ondanks
Fjodor
radiop
trofee
##alisties
##artikels
##versamel
Witbank
bergpas
eensame
gebesig
kunsmis
staking
##kondiging
Ferreira
betaling
geskille
regsgele
verengel
beoordeel
deurbring
konvensie
vollengte
lewenswyse
##stitusionele
argumenteer
bekendstaan
horisontaal
volwaardige
advertensies
kleinkinders
nuutgestigte
instandhouding
##ey
##ий
##bye
##jad
##lep
##rah
##ube
ut
ál
##igna
##kwis
##skat
##stap
IKR
Kra
Pha
Weg
fut
##adeus
##allus
##okken
Gogh
Iron
Luft
Orle
Rood
epog
gaar
hars
kaka
sure
swer
##meting
##strong
Mekka
Palmy
pamfl
##diening
##ikasies
##stadium
Manuel
Prince
gering
kontre
kranse
##oestelle
Faroëre
Ferrari
Memphis
bespeel
ontwrig
vandaan
##meganisme
Moorrees
kettings
vuurpyle
woonplek
Friesland
geredelik
identiese
sportklub
stamvader
tientalle
beantwoord
suikerriet
Independent
bearbeiding
benaderings
dissiplines
kleindogter
belanggestel
noodgedwonge
##65
##avi
##cke
##uni
##abis
##cock
##cons
##uels
##wael
sec
you
##drama
##omeer
##vesel
Holy
Hope
Laos
Loch
Nort
Nova
Plac
Real
Zeit
kwas
lyke
plaf
sulf
##castle
##ektrum
##gesind
##matuur
##meisie
##oeland
chaos
holte
munte
swaer
teleg
urien
wilds
##gesinde
Sierra
betyds
datums
fynbos
geberg
gebots
Collins
afgeset
glukose
teikens
vissery
doodmaak
waarborg
Bisantium
Katharina
Konserwat
Vredefort
hoofvakke
voortduur
Navorsings
kroonprins
lewensduur
Binnelandse
ensiklopedie
gerapporteer
staatspresident
##95
##NP
##mi
##amo
##cio
AM
##ache
##aume
##ikat
##itch
Bam
Hed
san
##aalse
##estra
##ringe
Herc
Sang
heil
sees
song
##asdorp
##volger
Bulle
Genua
aldus
first
kloue
tetra
toere
##wagting
Kanaän
eksist
kompro
sekret
##hebbende
##orporeer
Aleksei
gestort
kondens
malaria
roeping
volumes
voordel
geologie
kriteria
meerdere
baskitaar
saamsmelt
stilstand
taalkunde
toegetree
uitgedraf
uitgewery
Sekretaris
benoemings
byvoeglike
taalgebied
versorging
woonstelle
Engelbrecht
geabsorbeer
Onafhanklike
gestasioneer
uitbreidings
respektiewelik
##xi
##ор
β
π
##aer
##mbad
##norm
##roph
Dru
Kön
Sib
cum
kul
set
sif
##irkel
##langs
Alfa
Guid
Isak
Koch
Kors
Less
Mede
Ming
UEFA
bede
cons
home
samb
skim
##amings
##ersyds
##indaba
##ostrat
##trokke
Griff
bomme
multi
orals
slaaf
Peddie
Vanuit
author
dierer
druiwe
gebind
gewrig
stroop
##geboorte
Antoine
Kershaw
rustige
##istreerde
Colorado
besoedel
seleksie
seuntjie
##veiligheid
Georgiese
Mercurius
##verskuiwing
Venterstad
betreffende
chemikalieë
huishouding
nalatenskap
Konfederasie
alleenlopers
konferensies
geïntegreerde
Olifantsrivier
##ady
##ams
##pte
pg
##abon
##ancy
##awes
##ores
##osus
##spot
Aer
Ble
ISO
Rac
##attan
Agen
Aram
Niet
Poll
boks
katk
last
##appers
##skoste
Acarn
Arame
Bower
Edgar
Goede
Kreta
Wolga
empir
##astings
##mesbury
Republ
Welkom
ambags
##beheerde
##ekteerde
Betsjoe
Daarmee
brander
halfpad
kastele
komiese
omsluit
oorgaan
weergee
Herakles
Waterval
document
gedwonge
geletter
ongeloof
##biblioteek
rotsriwwe
transform
Malmesbury
aangespoor
verplasing
wedersydse
fasiliteite
joernaliste
Ontwikkeling
boumateriaal
eenvoudigste
mededingende
veranderende
##64
##bru
##gom
##irs
##von
##ühr
##dans
##osis
##oter
##ovis
Doc
Sup
Umb
cod
pur
##artre
##ctive
##drift
##iesel
##regor
Bain
Crit
Kall
Kuil
Pope
Welt
noot
##geraak
##raadse
##spiere
Indus
Piket
woede
##oopbaan
##tegniek
Gewone
Litaus
Mexiko
Pirene
Secret
Sondae
Steven
baarde
oeuvre
sterte
streef
##pertoire
Frances
Philips
Rossell
aanname
bepleit
mangaan
somtyds
##brandstof
geledere
seldsaam
argumente
raadgewer
staatsman
Bangladesj
Keiserlike
afsettings
aangespreek
geraadpleeg
mitologiese
onsuksesvol
oorstromings
##IN
##ril
AD
IT
Zh
##esië
##heil
##igen
##imil
##muis
##obil
##tika
Sie
has
sun
##court
##olini
##vloot
Darm
aust
life
mosa
perk
vuil
##akstan
##reepte
Antho
Elsas
Fleur
Karen
deput
fauna
ongun
tesis
wense
Maagde
Parker
iewers
immuun
oornag
prinse
roteer
senaat
Darling
Munisip
Orleans
afbreek
leerder
omgekom
##amptenare
Hoogland
afgesien
hoofdoel
nadelige
skouspel
herhaalde
infrarooi
prosedure
voorlopig
Amerikaner
opperbevel
opvattings
pontifikaat
ultraviolet
dankbaarheid
fotografiese
baanbrekerswerk
##Hz
±
##bis
##ees
##fot
##oko
##opp
##éné
CA
IC
##chus
##gebe
##irus
Fos
Gan
Kou
Lob
mut
##broek
##scher
1807
gamm
kiem
##aglike
##bouing
##edskap
##itieme
##ospong
Death
Linda
Surin
Volke
antis
hange
houts
inher
klier
kouer
semin
skaam
##ianisme
##ivision
Barend
Centur
Motors
oneind
Almanak
Kuruman
beampte
filiaal
orrelis
uitloop
##igrafiese
Brooklyn
Rebellie
genoemde
netwerke
paartjie
Catherine
Piketberg
databasis
uitgestel
Palestynse
bestryding
sensitiewe
liggaamlike
werkersklas
Krokodilrivier
verduideliking
##agi
##git
##orw
Jr
ov
ta
##oïde
##pale
##öper
Agn
Ibn
Kin
Sac
abd
sul
wig
##adies
##anges
##maats
##plank
##reise
Anal
Gren
Nero
Tale
Trip
biod
kass
lawa
styf
trui
##vriend
Guern
Jesuï
amfib
gepas
innov
lense
##gevegte
##houdend
Jacoba
Markus
Verkry
Werner
bevoor
geleen
geprys
invall
##rikuleer
Erfenis
Pireneë
algorit
eweknie
opgehou
radiale
suborde
voorreg
##skilderye
Leucosol
kopiereg
lewendig
opspraak
Andromeda
Crusaders
Stuttgart
denkbeeld
geestelik
populasie
Bredasdorp
byeengekom
generasies
hoofstukke
liturgiese
Tibettaanse
golflengtes
verhoudinge
hemelliggame
operasionele
liefdadigheid
##bn
μ
##auw
##hay
##mem
##web
##etel
##opin
##ovas
##ratt
365
DFB
Joy
Pia
Sid
osm
één
##craft
##perde
##reeds
##tasie
Alab
Jama
Ploo
Vish
Voet
laai
rein
rust
wyte
##tingen
Baron
Brief
Colle
Cross
Diere
Roose
Sowel
Versa
sinne
trope
##analand
##kwartet
##lektuur
##nelheid
##vallige
Schaik
majoor
solank
somerm
suiwel
##vertroue
Kremlin
Windsor
kerkbou
loodreg
plegtig
selfver
sigself
verweer
##steurings
Stanford
Volwasse
versmelt
bejaardes
beskouing
betogings
naastenby
sewentien
vastestof
verwering
behoorlike
infanterie
##universiteit
advertensie
Eersgenoemde
verdedigende
universiteits
voorbereidings
##aë
##ía
##elo
##uxe
##ensi
##imet
##knap
##onna
##poot
##teau
330
Bil
Dia
Dra
akk
ban
hig
lob
mic
##actyl
##binne
##gekry
##verte
Besk
Mbek
Muur
boul
dies
giet
maje
ruwe
vors
##debuut
##kshire
Greek
dwang
fluor
klerk
nabye
rotte
Iranse
afvoer
atleet
intrek
##bewaring
Batavia
Kempton
Phoenix
afstaan
besware
omverge
renbaan
##organiese
Carstens
Isabella
Lissabon
Pulitzer
luislang
reddings
seebodem
verdeeld
Newcastle
barnsteen
bloedvate
kraakbeen
opperhoof
wysigings
afskaffing
onderhoude
Rossellidae
medestigter
middelgroot
Engelstalige
republikeinse
negentigerjare
landbouprodukte
##45
##DE
Bé
##ieri
##inka
##uras
##weis
##adige
##obbej
##rywer
##wanda
##witsj
Bere
Goet
Joer
Tier
haas
roet
woed
##agoras
##eldorf
##hawing
Nuwel
draer
griep
jeens
tromp
##iacidon
##puntige
aanvul
geaard
gebede
promos
selfre
##afrigter
##chemiese
Dracula
Lindley
Lourens
begelei
bespeur
oplewer
redding
webblad
Bretonse
Petrosia
Wiskunde
berokken
deurslag
entiteit
landings
poëtiese
resensie
skaduwee
##beplanning
##persoonlik
Bulgaarse
daargestel
vervanging
kollektiewe
Hymeniacidon
Publications
voortreflike
Faroëreilande
afgevaardigde
gematrikuleer
meestersgraad
Duitssprekende
##32
##cou
Rü
##edel
##korn
##lote
##ulia
Abb
Aul
Eks
Non
cir
##immet
##richt
##siene
##slang
##wiele
Bath
Niel
Seep
Sker
Wool
gord
wond
##aresse
##beraad
##maties
##reiner
Hanse
Stern
Stryd
Turyn
Weber
baken
delta
kente
krans
meeld
saans
velle
##anzibar
##gelewer
Nikola
Ronald
fosfor
gaping
gewese
slotte
##tekening
dieptes
kontant
prefekt
reserwe
swartes
##gaderings
Geograph
besigste
deurskyn
sinagoge
Armstrong
Gotenburg
gaandeweg
konsensus
skryftaal
swartkolk
Pretoriase
ambisieuse
volhoubare
voorstanders
voortsetting
gesondheidsorg
##31
##adv
##law
nm
pH
##acus
##iken
##viso
Meh
##rotte
##stems
1817
Drag
Isma
Laus
Lewe
Mait
Neur
puin
turb
wyne
##iaceae
Guate
Konst
Strij
Tambo
gerus
mosaï
optog
pluim
spuit
weers
Awards
Himala
Lening
Siprus
growwe
hierby
oorerf
poeier
wynbou
##pleister
##skripsie
mobiele
terreur
verduur
Magalies
Salzburg
neutraal
onvermoë
reisiger
sienings
verkeers
verskrik
Uniondale
gelukkige
grootstes
klaarblyk
simboliek
Bonifatius
Impression
Versailles
aanmerking
mondelinge
verhitting
Michelangel
minderheids
Betsjoeanaland
##dog
LL
##foto
##idas
##sper
Bav
Cot
Dio
Jas
##edrag
##iemna
##parig
Fees
Huyg
June
Konf
Muss
gety
late
lint
skou
##betaal
##gelees
##kaarte
##romans
##skamer
##strome
Grove
Mbeki
Nabye
Orien
Sarel
Women
afric
niere
##entasie
##erskole
##oensdag
##vreters
Biemna
Deluxe
Studio
blinde
hakies
search
##planting
##settings
Daardie
Prinses
berugte
groepie
raaisel
ridders
torpedo
##anselleer
golwende
uitgeken
uitgelok
Bergquist
Swaziland
samevloei
volgehoue
Bronkhorst
afgekondig
saamgetrek
wapenskild
Verdediging
onttrekking
statistieke
hoofdirigent
Konserwatiewe
Letterkundige
##DP
##osc
##vee
##éon
AR
PU
SP
##ebel
##imes
##inas
##ires
##ïene
Amb
Num
Vod
##allen
##idium
##stale
##ungen
1780
1799
Diet
Mind
Nick
René
fres
hoed
pent
sluk
##appies
##ionale
##ornado
##stogte
Bolog
Mahar
Parag
Skryf
Under
bates
bulle
gerek
miere
regse
wydte
##wekkend
Boshof
Gebied
Slawië
afland
omtrek
vakuum
Artemis
Limited
apostel
indirek
mandaat
nommers
ontvlug
wedloop
##lementeer
Digitale
Marxisme
Zanzibar
bevolkte
erediens
heropbou
hersiene
opstelle
perfekte
pottebak
verreweg
Marseille
eiendomme
uitstraal
##verenigings
Viëtnamese
Wilhelmina
bemannings
drinkwater
kilometers
skoolgebou
vriendelik
##stemperatuur
Durbanville
aanvaarbaar
stadsentrum
##sterrestelsel
Introduction
gekanselleer
Konservatoria
noodsaaklikheid
##fie
Vf
mg
##oney
##orst
##skil
##veau
##wolk
Heu
Tad
Via
edu
##amens
##ments
##tande
##telik
##viron
Back
Glad
Hare
Moon
This
seël
skel
##anners
##balans
##buurte
##ischen
##maande
##maanse
Irene
Moerd
Skrif
anime
kodes
kruid
lêers
norme
olies
poele
##beampte
##verdige
gelief
koppie
veront
##plankton
Digital
Project
onderst
swembad
uitkoms
##itiwiteit
Afrikane
Plutarch
boomveld
huweliks
oorlogse
##erstellêre
Katalonië
Roosevelt
ouderdoms
Kaaplandse
bewoonbare
strandmeer
veelsydige
ondergronds
samesteller
afvaardiging
protektoraat
verbygesteek
Staatspresident
##ju
##lu
##éd
##kof
##aman
##iose
##lige
##otip
##sted
##uine
Dog
Dyn
Fok
Sap
##enson
##onoom
##ordes
##wande
1792
Gaul
Inst
Onge
That
Wies
have
klep
lamp
rekl
##iviste
Carne
Conne
Heart
Hills
Klaas
Spies
forte
skywe
##adiging
##duisend
##koerant
##ranglys
Austin
Bitter
Ermelo
Garden
Sparta
Temple
akoest
Dysidea
Honderd
Huygens
gebrand
tonnels
ywerige
##maatreëls
Berliner
Boererep
Discover
Hercules
Heritage
Intellig
Kameroen
Mitchell
reëlings
valskerm
Darmstadt
Hentschel
Shepstone
Universit
bloeddruk
enkelsnit
enkelvoud
gevangene
Fraserburg
Italianers
deskundiges
programmeer
gelykstaande
verslaggewer
##chu
##hum
##spe
IM
Lo
##affe
##appa
##moer
##nest
##tgen
Asc
Boc
Coc
Hoh
Lav
Our
Pod
dye
eko
ibn
vou
##acher
##encia
##ental
##etrek
##firma
##fliek
##ryers
Anim
Düss
Myth
Ward
ekos
knie
oork
pret
roer
##drukke
##ensuur
##toneel
Begin
Delph
Magte
ammun
hegte
inent
koeie
kopie
sweet
##iculata
##mingham
##rikaans
Common
Jannie
Korint
Rachel
bedink
begeer
gewerf
goewer
sentra
##enigheid
##prekings
Cameron
Mediese
Network
October
Program
Treviso
alreeds
kleding
metings
onsterf
vanwaar
vennote
versleg
##abiliteit
##ombardeer
##regisseur
##versaking
Handbook
bewaarde
bloedige
eenparig
toegewys
Amptelike
Direkteur
Groningen
Guatemala
Nelspruit
Riversdal
herhaling
kweekhuis
oormatige
Amerikaans
Cyrilliese
Geldenhuys
Technology
aanwending
agtergebly
middelklas
frekwensies
kolonisasie
tuberkulose
landbougrond
Wetenskaplikes
##cer
##nen
Cé
LC
Nj
##agos
##arca
##arms
##colm
##heed
##ophy
##slaw
Div
Ent
Fun
Mok
car
seb
Île
##atops
##endra
##habil
##light
##mouth
##swaai
##uters
Chan
Cill
Lamb
Liga
Stof
USSR
anus
etim
liga
noor
##asiese
##gewerk
##oggend
Bruns
Ivoor
Teher
Thebe
Walde
gashe
kinet
onged
onuit
pouse
##aadjies
##iliteit
##teenoor
Rupert
Triton
bouaan
meesal
mielie
nouste
person
##straling
Malcolm
Urbanus
gletser
katalis
neutral
riglyne
##filosofie
##verdeling
Strijdom
bejaarde
bindings
chemikus
opgevoed
sendings
Leningrad
dramaties
eksotiese
emigrasie
idealisme
metropool
weeklikse
##oppervlakte
plantasies
verdienste
verwerping
somermaande
humoristiese
hoofkarakters
hoofredakteur
##TP
А
##ché
##acea
##dorf
##efse
##esie
##film
##plec
##stat
##tsch
225
Fri
Wei
cur
##achim
##ephal
##gereg
##luise
##stock
1790
Klop
Lynn
Maat
Pors
Siel
Steg
Tall
Tian
aset
chol
klav
oond
reds
##anthus
##schaft
##verste
Energ
Horde
Plaat
Study
muise
rante
##jinerie
Bowker
Elkeen
Esaach
Euplec
Plante
Thiele
holtes
paddas
vegter
##agteware
##ematidae
Buffalo
Marlene
Matthew
Mayfair
Sterrek
kosbare
spinnek
stukrag
vegters
Division
Franklin
bedeling
begaafde
opgeknap
rubrieke
saamwerk
Babilonië
Bowerbank
Lancaster
Polinesië
agterpote
voorvader
##verhoudings
Düsseldorf
Literature
belangstel
middeleeue
tweetalige
Straatsburg
eensaamheid
omvergewerp
teenstrydig
geregistreerde
##jé
##si
##cla
##ech
OB
##gels
##ooth
##verd
Cou
Kie
Pom
Rut
Vac
ort
sko
##buise
##katte
##naval
##oides
1794
Algo
Jare
Mond
Roll
alom
more
olig
##berger
##gedrag
##schapp
Andri
Assur
Pasch
Tuine
antik
pleit
skema
##aastens
##geslaan
Design
Esperi
Friese
Turner
ergste
gesked
ontlok
paring
Alabama
kollega
sensuur
suikers
vroulik
##handelaar
Berkeley
Slawiërs
argeoloë
baksteen
sekulêre
verwoord
Katalaans
ammunisie
deelnemer
Birmingham
Romantiese
kreatiwiteit
kiesafdelings
onwaarskynlik
ò
##byt
##lak
##wem
##atha
##cell
##enny
##icon
##opus
##orno
Eck
Fly
Gev
Gol
SAP
bab
sav
##gelas
##iteel
##oeste
##skalk
##skomp
##slote
Bund
Cole
Falk
Mons
Tuis
bann
pies
teer
##isiese
##istics
##markte
##skraal
##ugtige
Bergh
Freed
Jimmy
Trias
artef
bende
beveg
lippe
merke
##heffing
##iramide
##lemente
##patrick
##vesting
##wigheid
Kanaal
Nieuwe
fisies
nadeel
opgang
opwind
tjello
##kampioen
Charlie
Tunisië
entstof
herders
ladings
paradys
verraad
##opithecus
Facebook
Liberale
kwesbaar
Tsjeggies
aangedoen
generaals
medikasie
opgegrawe
uiterlike
##onsentrasie
Gesondheid
handelinge
professore
Uniewording
diversiteit
demografiese
seksualiteit
sistematiese
teweeggebring
longontsteking
##99
К
WW
##klep
##zona
Lap
Low
MiG
USA
Wer
doe
mir
tat
##elius
##ompie
##oskop
##steke
##stort
##wersk
1750
1797
Cort
Fore
Kill
Kome
Pand
Plus
bars
kafe
kano
stor
##ifieke
##imedon
##leutel
##oestel
##skunde
Jager
Names
akwar
papeg
skeer
tjell
vlerm
##gestort
##instein
##oplasma
Butler
Langeb
baseer
stilte
uitset
Dingaan
Nicolas
Psammoc
Wikings
beboste
gebonde
geskors
ingehou
mitiese
ontslag
versper
##onstrueer
Appleton
Iberiese
Leipoldt
Schumann
aangerig
agterkle
gebundel
gewikkel
joernaal
speeksel
##ersfontein
Christoph
beginpunt
bekommerd
deeltydse
doktorale
oplosbaar
sensitief
Amphimedon
Metropolit
ongewenste
voorgelees
buitewêreld
Bronstydperk
Kaliforniese
Sciëntologie
werkloosheid
korrespondensie
##nu
М
##agle
##reef
##e
##i
##n
##a
##r
##s
##o
##t
##d
##l
##g
##k
##u
##m
##v
##w
##p
##h
##b
##.
##y
##,
##f
##1
##D
##"
##'
##S
##0
##-
##A
##c
##9
##2
##H
##B
##M
##(
##)
##j
##I
##P
##N
##8
##K
##T
##C
##G
##ë
##V
##R
##5
##3
##O
##E
##’
##7
##4
##L
##6
##J
##W
##F
##:
##ê
##z
##U
##/
##é
##–
##x
##;
##“
##”
##Z
##á
##ï
##Y
##%
##q
##ʼ
##X
##ü
##ö
##&
##ó
##Q
##‘
##]
##_
##[
##=
##°
##?
##£
##ä
##è
##í
##ˈ
##*
##+
##а
##!
##о
##и
##—
##$
##ç
##р
##æ
##α
##е
##ā
##ô
##н
##ا
##†
##с
##ː
##ø
##к
##в
##л
##ο
##ς
##ß
##É
##ν
##ə
##т
##å
##ل
##à
##ã
##|
##ō
##́
##ρ
##ú
##ł
##•
##ι
##š
##û
##â
##λ
##τ
##ε
##ī
##−
##>
##ɪ
##×
##ū
##ɛ
##′
##ر
##д
##м
##م
##ò
##μ
##ń
##й
##ي
##π
##ن
##у
##я
##»
##ñ
##«
##σ
##ɔ
##ð
##ı
##€
##<
##Ö
##و
##κ
##β
##ь
##ب
##·
##د
##г
##δ
##ē
###
##ʃ
##ч
##ė
##⁄
##ɑ
##י
##س
##γ
##б
##č
##ό
##ί
##п
##θ
##η
##ά
##ω
##ʁ
##ы
##ć
##С
##з
##Š
##Î
##Á
##ɾ
##î
##±
##ś
##υ
##ɐ
##А
##ɡ
##ו
##ş
##ع
##К
##ʊ
##ר
##ř
##ğ
##М
##ה
##В
##Р
##„
##ý
##ž
##~
##ל
##ة
##ʒ
##έ
##П
##ʻ
##φ
##х
##ή
##̃
##ì
##Å
##ح
##ŋ
##ی
##Δ
##ˌ
##་
##ت
##ه
##}
##→
##ě
##מ
##ù
##Б
##א
##ج
##ת
##ש
##ц
##Ü
##ύ
##И
##ق
##ा
##χ
##ב
##ă
##Н
##ę
##̯
##ف
##õ
##ּ
##ד
##נ
##ǐ
##̊
##ɣ
##Г
##्
##र
##ḥ
##ɒ
##Π
##ش
##İ
##ַ
##ǎ
##ز
##ш
##Ž
##Д
##ж
##ա
##{
##្
##Ø
##Κ
##Μ
##Т
##أ
##§
##ְ
##ע
##ك
##រ
##ʿ
##ё
##͡
##@
##ą
##і
##ط
##ṭ
##œ
##ɨ
##ф
##Ł
##ʔ
##О
##Α
##Ó
##ż
##ɕ
##ი
##Č
##ִ
##Ἀ
##Ä
##ώ
##ָ
##ų
##ם
##न
##Ş
##َ
##ა
##ǔ
##þ
##า
##Ś
##Л
##ṣ
##ן
##া
##‰
##®
##Í
##ő
##Ф
##ח
##خ
##ג
##Σ
##ξ
##ъ
##ص
##ា
##ǒ
##̪
##Е
##म
##ů
##Β
##ि
##Ç
##ɲ
##ʌ
##त
##ร
##ទ
##Ż
##щ
##ն
##כ
##פ
##ệ
##ʾ
##ր
##\
##`
##ș
##ʋ
##ק
##क
##ន
##ế
##ῖ
##ź
##ȉ
##У
##ס
##ल
##ʕ
##̩
##Γ
##Ō
##З
##э
##ю
##ט
##ى
##व
##ἀ
##₤
##☉
##州
##Θ
##Х
##Þ
##Ω
##Ч
##Я
##پ
##स
##ी
##ท
##ម
##♭
##中
##大
##Ε
##ک
##რ
##ǀ
##ʀ
##ո
##ु
##ე
