[PAD]
[unused0]
[unused1]
[unused2]
[unused3]
[unused4]
[unused5]
[unused6]
[unused7]
[unused8]
[unused9]
[unused10]
[unused11]
[unused12]
[unused13]
[unused14]
[unused15]
[unused16]
[unused17]
[unused18]
[unused19]
[unused20]
[unused21]
[unused22]
[unused23]
[unused24]
[unused25]
[unused26]
[unused27]
[unused28]
[unused29]
[unused30]
[unused31]
[unused32]
[unused33]
[unused34]
[unused35]
[unused36]
[unused37]
[unused38]
[unused39]
[unused40]
[unused41]
[unused42]
[unused43]
[unused44]
[unused45]
[unused46]
[unused47]
[unused48]
[unused49]
[unused50]
[unused51]
[unused52]
[unused53]
[unused54]
[unused55]
[unused56]
[unused57]
[unused58]
[unused59]
[unused60]
[unused61]
[unused62]
[unused63]
[unused64]
[unused65]
[unused66]
[unused67]
[unused68]
[unused69]
[unused70]
[unused71]
[unused72]
[unused73]
[unused74]
[unused75]
[unused76]
[unused77]
[unused78]
[unused79]
[unused80]
[unused81]
[unused82]
[unused83]
[unused84]
[unused85]
[unused86]
[unused87]
[unused88]
[unused89]
[unused90]
[unused91]
[unused92]
[unused93]
[unused94]
[unused95]
[unused96]
[unused97]
[unused98]
[unused99]
[UNK]
[CLS]
[SEP]
[MASK]
##ie
##as
.
,
p
##ar
k
s
##is
##ij
v
u
t
a
##ga
n
i
d
"
##es
##an
##tā
##ai
##al
##er
un
ga
l
1
##au
##in
b
##um
##at
no
##en
##on
##st
m
gad
##ās
##iem
##am
##ik
##ot
##or
##ur
ar
##il
##ijas
##ār
##us
##ta
P
ir
##āk
##dz
##ēj
r
S
##īb
ie
A
)
(
##tr
L
##ien
##ir
iz
##ol
##os
2
##ei
K
##ad
##ts
19
##ija
##el
##tu
##em
V
##om
##ek
T
uz
##oj
c
M
##ak
par
##av
##iņ
##iek
##im
##ēr
##šan
B
ap
##aj
R
D
##et
##ām
##āl
j
##isk
##īg
gadā
20
at
##ēl
##op
##ti
##ād
##ies
g
z
##od
pr
gada
pie
##āj
f
##it
##īv
##id
##ru
##ul
##īj
##āc
I
##ika
dz
##ok
##ais
N
kur
-
pa
##ijā
##iz
sp
bija
š
##ēm
##ības
##ab
arī
##iel
G
pār
##īdz
##ļu
##ēt
##tāj
—
J
kas
##atv
##iet
##ev
##iju
E
##ed
##ēc
##umu
##rī
##ez
kā
au
F
lai
##āt
##ion
##iv
##sk
tika
vai
##ān
##eid
##ej
##ums
vien
##un
C
##ic
val
##ēja
##šu
##az
##īn
līdz
viņ
##ils
:
H
##īt
##ec
Latv
##dr
##ep
200
##va
##ob
##ajā
kar
##ap
##irm
201
##niek
##gr
##ist
Z
##ers
##ūr
##and
sav
##aļ
##arb
##nie
##eļ
##gu
O
##ēk
##šanas
sk
##ību
laik
kr
##gas
##auk
##oš
##ub
##ov
3
##ņu
bet
st
##stā
##īm
##itā
##uma
kom
liel
##aul
##umā
U
##ac
##str
Š
in
sas
##až
pas
##aun
vis
##ma
pirm
##inā
Latvijas
##akst
##la
##eb
##iev
var
h
##ant
18
##sp
tr
##of
##oc
pēc
ka
##īc
##īja
nov
re
pils
tā
aiz
atr
##las
##ārt
##oja
kon
##ināj
##audz
##īgas
##gl
to
darb
vie
##ens
sāk
##ši
##ip
##veid
spēl
##ra
##eiz
##rāk
##iešu
##ība
##ēta
##var
č
Kr
4
##odas
199
aug
##ut
##ikas
5
##ib
kop
nos
dzim
##ain
##arp
##emp
##te
##ācijas
##sts
ne
##ēn
gal
##entr
##tāv
##uk
##ūt
##ven
pl
##ņēm
vēl
izm
dien
laikā
##usi
##ēd
##ēs
gr
##šķ
veid
##aut
/
vairāk
dzīv
##mas
##iāl
##otāj
##00
tik
##aules
##āv
##oz
div
tiek
##niec
or
##etr
##ri
##da
pagas
##nes
##ež
##dal
##ah
kl
##vid
##ošan
##lu
Pēc
##mu
##ībā
ī
##īga
##ņa
##pa
ģ
##dzīv
gan
tur
An
##emb
daļ
##ots
##tī
##kl
##oties
;
##du
##lē
zem
##ūras
ak
##ig
##ināt
br
viņš
##empion
##ast
##ina
##tās
##ču
##iedr
not
##pr
Al
centr
##bal
##oti
6
vir
##īr
##ūd
ter
##ons
an
##vas
starp
##val
bal
iek
čempion
##ent
daž
##vien
vid
##ag
Rīgas
##ētas
##olo
##tor
gar
##ds
##iec
str
##ams
##ka
##he
jaun
194
##īgi
vad
sa
##nīc
Pr
atrodas
##ju
izveid
##ūs
Au
##cijas
##ran
##ņem
komand
7
kļu
##umi
izmant
pal
daudz
##gs
##isko
##itor
##istr
##āz
pret
lielāk
##gan
##ota
##ter
##umiem
8
lab
su
##nieku
gru
17
pat
##iekš
##orm
In
##irop
Ar
##auc
##vēr
##ied
##zīm
##ionāl
##ada
piem
##eic
Par
##ēts
sl
tikai
tās
cil
##šanu
198
##eh
##ūn
##āja
##ezon
izc
##me
al
ziem
##avas
##pl
##eš
fil
##br
teritor
kad
##uš
##ēst
##iskās
##ināja
##ans
pam
gadam
12
No
##sim
##ēram
bei
##īts
gadu
15
##bol
##iskā
Tā
W
##umos
##era
##ajiem
##tas
##eg
##ījās
##auj
##ator
Val
##ku
##āks
of
ek
maz
Br
mu
##ogr
sal
193
sezon
##aud
sastāv
St
pil
Liel
skai
192
##iņš
viņa
9
##ks
##īz
##tāl
##eik
##dev
10
kļuva
##ona
##iski
##nu
iet
##iž
##īta
##ētu
##ni
##ost
##ubl
##ētāj
jau
##up
rakst
valsts
##ikā
tas
##īgā
nosauk
šah
sar
197
AS
##ītāj
km
vec
16
##ēv
##der
Eirop
##ier
##vēk
ķ
Kriev
ta
##kr
Dž
##ūv
nav
##umus
uzvar
med
##ojas
galven
##ne
##stāv
##iež
ier
##if
Ap
##oloģ
Gr
##ing
##īk
ok
196
##šanās
Bal
##embrī
##sm
min
191
##skat
kat
pol
kara
Pas
ļ
rad
ASV
gadsim
dažād
##ijs
ot
##tes
savu
nod
paš
grup
reiz
##ējās
##itu
##ild
latv
cilvēk
vār
##dien
##īs
ko
##āb
vald
##pils
iegu
piedal
##aus
apm
pus
##min
##emes
195
##aim
##li
”
##na
ats
aut
##og
mil
##eks
nep
valst
##eri
att
Č
##adom
Sp
tam
Lie
##vār
vēst
##kar
##ūz
priekš
##lai
##šķir
##ātr
iev
##iņa
Dz
dzimis
##iniek
Pirm
##imp
čempionā
##est
as
0
##den
##ētā
##ļa
##āp
##unk
##ojās
īpa
dienvid
##ult
skol
##ošanas
nek
##gal
Mar
ūd
##nieks
ku
%
Kar
##ējā
##ivers
##mp
##osm
dr
##ēji
pasaules
mar
##ēļ
–
liet
iela
##atīv
ieg
13
##eru
##eja
Iz
##ūk
novada
ciem
##tur
##obež
##vai
sta
##ef
valod
rez
Ā
##ultā
##ejas
##kal
el
##omēr
##ūst
##šana
Fran
11
latviešu
ma
##ņas
##ējis
##ins
##ajām
Pol
##istēm
pav
##iņu
##lis
##sar
##niecības
paz
Pasaules
iesp
##des
Eiropas
ol
šaha
tād
##dza
otr
pak
##ieš
##kārt
##eļu
nor
ār
jo
##dzīvotāj
14
apr
virs
šķ
Un
##aur
##āciju
##de
kal
klub
##iez
ies
##teik
kuru
##atu
##ācija
##ama
kurā
##taut
pilsētas
##ajās
##ijai
viet
##viet
am
At
##ņēma
##SR
Austr
##ber
stu
jeb
##onu
##asti
##ņi
izlas
##rīs
##ud
##ents
Latvijā
##ists
kopā
##ļi
ez
##ept
##enes
sac
vēstur
##edz
##vu
##ask
vēlāk
uzskat
notika
Kop
##di
##enc
##ojot
pagasta
##tē
dzies
viens
##aznīc
##vad
sastāvā
##iversitā
vietu
Krievijas
dal
##stāk
up
##sta
kuras
iedzīvotāj
uzņēm
##aļu
cit
taču
Vis
nozīm
##ess
ab
organ
##ēju
sek
beig
pārstāv
imp
##ch
ties
sasnie
##ener
##eļa
##auga
##man
##ors
##īgs
##īst
sistēm
sad
##aug
sak
iekļ
##ūsdien
##aid
'
māks
nev
izcīn
##ājas
atkl
##āf
##ēz
Ziem
##šanai
##elt
##ruk
##īgu
attī
part
ziemeļ
arm
te
##iļ
##iku
##tīv
PSR
##usies
##ia
nes
Ķ
##īl
lik
viena
sāka
veik
Lai
vāc
##eju
##acionāl
bar
sv
##evi
ļoti
##otā
##āts
uzb
##ort
ģim
##ējo
reģ
sab
Sav
##āta
trīs
##ns
##otas
Tas
mir
vēr
##ūra
##ata
strād
##stu
tie
##aks
##000
##īti
##ind
lauk
##ālā
##onom
Tr
kād
Am
##ūl
##ķis
##žu
##eņ
vietā
##īd
##pat
##ākā
##omas
##ars
kura
baznīc
daļa
##ami
kap
##le
Jaun
sept
##āko
##iti
##skol
turn
##ver
##cija
kurš
mēr
Fil
muiž
īpaš
##nieki
##onas
padom
##mā
attīst
izp
##urs
„
##gabal
##nas
piemēram
Sk
##iņas
ž
##ih
savien
dom
##end
##ākais
##gad
##erat
es
##rīz
pirmo
būt
##ēģ
zināt
##ektr
gl
ieguva
bij
bez
##inc
izr
siev
##ciju
viņu
##ijām
uzs
Balt
piek
tel
lid
il
izd
##strād
##ēšanas
turp
##ānu
kok
##kas
pamat
mūz
dev
##uv
##els
The
komp
##aš
fin
Tur
##asar
##ojumu
##ērijas
##ātu
iel
dib
##āna
##āka
##īnas
##uc
šo
olimp
##form
2009
izdev
##ūp
austr
vieta
gadsimta
the
##utbol
nekā
kol
aizsar
pievien
māc
raj
nel
pilsēta
##iks
gados
##elz
augst
##ījis
neat
plat
raž
##ms
##ināts
##to
##eni
##ībām
##iskais
organiz
##otu
##elta
Dien
nom
starptaut
kras
190
spēk
##adās
##oni
jūras
čempionātā
##ark
##ara
alb
##lēg
##tav
##ogram
##ofes
rezultā
ad
pirms
##opul
vienu
##tic
punk
kam
apgabal
##obrī
robež
gais
Ol
##lī
##autas
##gā
##ezid
##glab
mod
Lietu
##īgo
sabiedr
##eit
Kal
##ādi
iespēj
##pus
ietek
##tiem
centra
2010
##oh
Rīgā
##erb
II
##ojums
kru
##ska
parasti
##iens
##ējs
pēt
##istu
##ējais
##erc
op
futbol
četr
Uz
##ajos
##ehn
apvien
2008
##oks
mat
hok
riet
kor
Sal
##ana
##epubl
##entu
sat
polit
25
novēr
tomēr
Gal
##ls
sam
ēk
##ēti
2011
##ministr
##cēl
##āls
##iš
veic
##fr
Ch
zemes
##ināta
PSRS
##orta
Kur
mūsdien
##art
pieder
Dauga
pla
publ
tir
##das
##onā
pan
Otr
jan
piln
atgr
kult
##erv
kļ
30
##enta
##asp
##ienā
milj
##āves
dec
virz
arh
daļā
metr
##reiz
dab
##ķu
##ējot
me
vasar
##ern
Viņš
noteik
jūl
brīv
Kon
vidus
biju
pul
##eriāl
izv
##ation
Ž
Sv
put
jūn
māt
Līdz
and
##ovs
atz
pap
kuģ
##ait
turnīr
līg
##otn
##ošanu
ned
##tors
vācu
dēļ
2012
bēr
eksp
janvār
##lo
##mal
form
piedalījās
##isti
popul
pēd
sen
stud
rež
aprī
pagastā
##ord
centrs
##land
##āns
inter
##ņiem
ūdens
To
tad
##ebru
##uši
##ļiem
##ienu
grupas
##iena
sais
izpl
Zv
tēv
##eln
##zemes
grām
biež
##inām
##ītas
##oto
w
okt
izs
spēlēs
Str
tajā
Dienvid
karal
##ībai
biedr
##jaun
##ekl
attiec
lv
Kl
##jā
##vis
##ogrāf
Sa
pasaul
##iskajā
laika
##rs
##re
##oši
##top
for
##ojuma
2007
##ūru
ātr
Ne
El
pies
##urn
pastāv
elektr
Vēl
līn
##io
dzelz
apmēram
zaud
prezid
profes
##erikā
2006
##mi
divas
##amas
##droš
##ozīc
Ziemeļ
Vil
atbal
21
vadītāj
##ijās
##būv
kopš
sezonas
##eli
##ukārt
##ank
##āli
##ņā
##ānis
reizes
##itū
##ietu
##evišķ
sim
pers
##uz
##anc
##adēm
##ena
mež
##ānijas
##ītu
##ojek
##ard
dep
Pl
program
daļu
##oļu
##ties
##aļas
##ieši
##ācijā
2014
##jer
laiku
Vācijas
šād
novad
##umam
de
neb
##vald
rakstur
fon
##jiem
sezonā
nāk
sugas
##stitū
##ķi
##aru
atradās
##ebruār
iedzīvotāju
neliel
##īna
Rīga
konc
##āla
##ro
kaus
##akt
māj
2013
sākumā
##ipr
000
ministr
ilg
##inot
visu
##onijas
atšķir
##nē
##iska
Ber
ievēl
##ova
##ves
##lik
##isku
krās
##enē
spēles
miris
bijuš
kauj
saglab
“
##eis
reģion
ceļ
##īnu
##eriod
sacens
##aliz
palīdz
##glīt
Zem
##bil
sastop
##āva
klas
##gaun
universitā
##iņi
##aļa
dalīb
Ir
Pie
##tus
##ič
nosaukumu
pavad
##laik
##omu
kosm
februār
##akš
##tiv
atjaun
##skap
##īte
Liep
Ē
##vaig
##cel
##ociāl
##ārs
apriņ
parād
met
av
temp
##pp
##isma
līm
2005
vārd
komandas
##ērs
##ron
##ījumu
##tuven
##amo
period
gadus
ķer
dat
##ējas
189
##īskap
##aja
pel
beigās
tehn
##niekiem
2004
##ākās
##iskajās
##ītā
##ālu
##šanā
e
Liv
Sl
Igaun
bijis
##nieka
reizi
##oru
##ošanās
##gād
ob
administr
En
22
Valsts
nodroš
sap
pārd
##tuveni
rūp
proc
teritorijā
##ķa
lielākā
##igz
ja
##ejs
##ora
aizvad
##mit
##ītes
bieži
māksl
spec
krust
##āņu
##īra
izplat
##eti
galvas
24
autoc
##stipr
sauc
##gār
##ūtu
lpp
veido
2000
spēlētāj
pazīst
kriev
mēn
##ošana
##austr
##aspēk
##lēm
projek
##eta
tiem
2016
apk
kust
##ībās
Polijas
atgriez
svar
##onis
##af
cī
2015
spēlē
Kat
pasaulē
stāv
##bur
##ene
##ānas
Pils
Aug
##ža
##ava
dzelzc
novembrī
Pēt
maijā
##ula
##andr
Or
##erikas
treš
net
Universitā
apdzīv
decembrī
##ilp
23
citā
##gļu
##āti
Fr
Lietuvas
##ko
##aka
Kopš
jūlijā
##ījies
beidz
izmanto
##gul
kontr
jūnijā
##ustā
##gatav
Republ
izstrād
tuv
agr
ind
būv
Ind
##okārt
##šanos
Viņa
neatkar
attēl
piec
posm
##āca
janvārī
Vec
##riet
Mask
##atā
martā
##skas
##iciāl
##kā
slim
oktobrī
karaspēk
sadal
nacionāl
##rād
##gur
Kan
Ab
aptuveni
##enis
apakš
##bei
kārt
##irk
loc
Zviedr
sarakst
mas
tai
##ojoš
vietas
prod
lap
2018
##ino
##ari
##smes
izlases
augstāk
nosaukums
komandu
Aleks
teātr
šī
Dr
##ond
pirmais
Saei
šajā
##inājās
zinām
##ojumā
main
vairākas
septembrī
##ūkst
##aba
Ņ
##ajam
tagad
##īder
##okr
oper
##irz
##inās
galvenokārt
2017
##ust
##ajai
īs
konf
garums
temperat
##ēšanās
##dzim
Maz
##tek
cilvēku
dziesmu
futbola
valodā
Kār
vērt
ast
muz
cm
notiek
Baltijas
##sl
##īšanas
draudz
##zem
režis
deb
paredz
inform
valodas
100
panāk
##itār
iekļau
##ita
armijas
##ein
dzimtas
fak
zv
gadīj
##eder
##lam
iepr
ekonom
##ēšanu
##ēļu
Šajā
rom
Kom
mon
##cijā
savas
##darb
di
##und
partijas
##elga
Padom
##rakst
upes
gadsimtā
##ruņ
Pār
augustā
mūzikas
##ējiem
pārs
##ert
kuri
X
skaits
##pēc
##ela
ievēr
kan
##ša
##ieru
##gales
Itāl
##iecieš
188
Starp
##uru
Som
##ciem
##amb
##īzijas
public
bl
Vai
administratīv
pilsētā
##all
Vi
caur
redz
##ebr
Ja
Centr
Tomēr
līgas
##ja
nepiecieš
sin
aprīlī
##pas
##ēnu
impērijas
##ārz
institū
26
##stād
##ojies
Ant
ietekm
hokeja
iem
paziņ
##drīz
izl
atsevišķ
izcīnīja
citu
rok
##āra
##usu
##ila
50
ezers
Francijas
##tais
vil
izveidoja
##ovas
##tp
nebija
28
Min
2003
1990
Vol
##for
##ce
lit
dzīvo
##ākajiem
2002
##nis
Sāk
Tās
##ki
##īties
krastā
##evol
##kār
##ējusi
februārī
locek
##istes
Vid
prov
piemin
dēl
##ell
savā
aktīv
iekš
##umb
Andr
##oreiz
##inas
nok
##jek
pirmā
Nacionāl
27
Romas
viņam
krievu
darbu
Savien
##ian
##utā
Dzim
gandrīz
##ola
_
##ētās
sporta
##ats
##entā
konk
iepriekš
sma
Riet
##ūrā
šīs
##oloģijas
svēt
##iera
##erikāņu
vīr
uzvarēja
samaz
##iest
40
Otrā
ierakst
ligz
##sal
sociāl
oficiāl
##amp
2001
glez
bi
186
pagasts
##īgās
dienas
##otāju
##idu
##asket
##ināšanas
ielu
akadēm
##als
izglīt
Daugav
gadiem
##ine
rind
ģin
##atas
##amu
°
viegl
dok
##inieku
Jelga
Le
Lat
##ieris
nop
god
kultūras
saim
##amā
##ošo
##gi
kontrol
sm
vecumā
fran
##itek
##otās
##āru
Lu
##eles
##uss
rezultātā
##anu
bāz
Ī
##ieg
savukārt
187
mākslas
rek
noslē
vidusskol
##šas
des
kļūst
grupa
##ļus
prot
##dzības
izvēl
virzienā
##ādu
Kurzemes
##otājs
dzīves
izpild
##ālās
##īns
piekr
##iskas
pieņem
##asketbol
snie
piešķir
dzelzceļa
##ādas
##iedru
##dāv
FI
kār
ciems
##ilt
##ura
##ālo
##augu
##ceļ
zīm
Jānis
##itān
mazāk
##nāk
ģener
gu
##tām
##ill
visas
&
##eris
Sta
##tin
##avu
##oma
sauk
##žas
Olimp
Bēr
##itr
Ak
nodib
##isks
Bl
##ow
##pār
fiz
augu
Daž
Ed
Y
##otnēji
sasnieg
notik
##auca
##ētājs
īpaši
##nā
amerikāņu
Galven
Kad
##enu
##ets
##ulk
##HL
gaisa
provinc
##ved
bals
viel
##uld
Er
##lud
Aiz
##ojusies
##īru
stā
uztur
titu
##ld
##saim
kval
2019
##ida
Vēlāk
tāl
Ģ
teritoriju
##enti
rīk
##idr
##tājās
##tālu
##inātu
iespējams
##oņu
##eģ
oke
Livonijas
##osl
##šru
salas
Paš
citiem
dzied
##akstā
1999
atkal
mal
pusē
31
##ča
dabas
objek
atp
##ators
##ometr
sistēmas
##skis
teritorijas
1998
Zemes
ziemeļu
##ji
plān
okup
Te
##āda
29
spēc
medaļu
bīskap
žurn
Vidz
sākās
##aist
celt
##jeru
##emon
##osa
Ļ
##ere
##ušies
##ejā
Šī
apkārt
Mon
pakāp
##sēd
basketbol
devās
baznīcas
uzbruk
arhitek
beigām
varētu
##oņ
simbol
herc
##ošanai
##ards
##maņu
##orv
deputā
Pa
Latviešu
##mes
tek
ac
ieņēma
##ang
##aļā
padomju
##meņa
pilsētu
Aleksandr
##ēto
bat
muižas
Igaunijas
vidū
##iskie
ievēroj
trad
tiesības
tāpēc
bruņ
pabei
galvaspils
##skait
##ritu
##erm
tūkst
Pirmā
Sen
ciet
pārcēl
atgriezās
balvu
proces
darba
##īgais
Amerikas
filma
##one
##urv
teor
##ug
##entāl
tirg
funk
neiz
##ātāj
ielas
##ojis
##ņemot
##niecība
film
##qu
dzīvoja
##ific
##BA
##inātāj
izviet
ģimenē
##āju
ģe
jā
tos
pakļ
kuriem
##ail
##itāti
1920
divi
ht
īst
##embr
##britān
##deņa
mājas
Il
saņēma
##ogu
regul
1940
priekšsēd
##olu
##ista
maršru
tautas
dzimusi
##uj
##iss
skaitā
Lielbritān
##niem
##zas
spr
##aku
stat
uzņem
nol
##ols
spēlēja
prec
sasniedz
##lab
kod
Filmas
zinātn
sport
sudr
strādāja
dir
##andid
konst
##oga
ierī
attāl
##sol
olimpiskajās
person
man
līgumu
lielu
Var
##pu
##āni
dienvidos
##ānā
##mēr
##emokr
##ojoties
##itātes
##kop
tēl
##ica
##ušas
##īkst
Kor
turnīrā
autor
##ātā
uzsāka
##ījums
kluba
nāves
Bar
iedal
##līn
ūden
##ēdz
1997
##ošā
zvaig
##ējādi
Angl
ik
##oci
medaļas
##kan
##viel
Kol
elem
liela
angļu
atm
vadībā
##skal
##ģijas
Rob
noz
sieviet
##ektor
jaunu
pirmajā
##ālajā
Tajā
tip
##veida
Ta
ziemeļos
##opr
izrais
##ces
Eiropā
pozīc
vasaras
brī
##iņiem
komanda
zir
Čeh
##krain
Ma
nodarb
atkar
Viļ
##eklē
1991
##brīv
piedāv
led
##bild
##kāp
##āku
audz
##āri
produk
##omā
Mūsdien
dienvidu
tic
##uni
ww
revol
##alj
mant
vairāki
##ākie
Padomju
Joh
www
1993
mūsdienās
saistī
Apdzīv
1992
##eņa
Mal
Jap
##inu
1945
skait
star
1996
pagastu
1944
šķir
rietumu
’
##ešu
com
ska
prob
mēneš
Ukrain
fr
tran
Gru
##ajadz
visā
viņi
##zijas
diev
Gl
1919
##tos
austrumu
meist
ordeņa
tī
sadarb
##oka
ieguv
zelta
Republikas
##ājis
uzdev
##oniem
materiāl
Arī
##ifik
tām
Med
aprakst
Lond
kreis
##ibli
##āki
likvid
##skai
cen
parakst
##raf
##ekļa
Man
##starp
Starptaut
Sark
##nāca
##ušās
uzbūv
+
apzīm
##ienas
vienā
papild
Os
##efek
Karal
atbalst
profesionāl
mel
##bilst
Kā
##avā
##ird
Rēz
sasniedza
1918
Dzimis
ner
Saeimas
##ings
##etur
run
sākas
sieviešu
##orld
mūsdienu
spēj
Nik
##veic
kurs
sēr
citas
Zviedrijas
ziņ
##ogs
##opol
nomin
paliel
vārdā
orb
krast
tirdz
##ienes
ielā
Jau
lēm
1995
režisors
akt
Krist
##uns
##āles
problēm
mei
autom
##ēšana
##agn
Apdzīvotā
##oļ
##ēna
»
augš
skolas
baznīca
saglabāj
«
ķermeņa
##isl
bag
vēlēšanās
##vērt
lat
salīdz
##mens
noslēg
##inieks
##kst
##ālis
##eņu
valstu
kandid
##elis
pašā
spēļu
iegūst
Nov
ziv
pārtr
darbojās
##ukt
speciāl
Vidzemes
##embra
pašvald
##manis
Rēzek
Ār
##ojumi
=
Pat
sti
##cēla
Ad
Inter
apgabala
apl
##iešiem
tau
##vi
##ināti
piel
1994
##ha
##ass
apstāk
kausa
Mak
##ošanā
##vil
sava
Lab
plaš
##ions
##ātos
Liepājas
##iste
##auz
citi
##ibliot
ebr
ievēlēts
Rad
http
spār
##estr
Tāpat
Jēk
Daudz
ķīm
##tam
ezera
iedzīvotāji
rindās
ligzd
##niecību
##īdu
Mad
pag
vajadz
uzbru
dator
nogal
et
ēr
vienkār
atbrīv
batalj
izcel
##ity
60
Austrāl
##eliģ
krist
karjeru
apstipr
valoda
Har
nākam
daļas
priv
uzņēmums
pārval
Parīz
vers
id
militār
izteik
##ase
Mat
indiv
##50
Jūr
aizvadīja
Tautas
dziesmas
Vien
čempionāta
##ož
Mir
##skāb
saus
##esel
apkaim
##aik
Sarkan
bron
tren
uzskata
galvenais
Pal
##uks
vel
##kalp
##orn
##vā
##igr
stāvok
padomes
piekrast
##ērā
ietilp
##ētāju
pārviet
##ele
Com
##iģ
##taj
##ējos
##inājums
literat
veica
!
##mat
Up
nem
##entiem
Vācijā
##maz
boj
konkurs
##či
##eva
##otāja
franču
darbību
bir
##emāt
##ortu
##niedz
šķērs
darbības
##aiz
##ism
As
##oda
Vir
##isc
##ira
##ījusi
stacijas
tum
būtu
impēr
Izviet
##ht
Stu
ener
##īcijas
karjer
ps
Jur
Atr
##inga
##ļas
mm
kārtas
##ieķu
saist
mū
##akts
noris
komis
kons
World
##ras
ā
##cien
metod
spēku
##les
##fa
Āfr
apsp
##vērs
brauc
rit
##ve
pētīj
##tion
izgatav
##pil
pad
Maskavas
cēl
##ītāju
tāpat
Em
##ēns
res
red
izveidota
palīdzību
bur
fakultā
##int
sacensībās
##ējumu
dažādu
cetur
##ošās
guva
##erenc
gaitā
transp
izlase
seg
kolon
varas
din
kg
posmā
##ādes
##aiņas
##ējums
koka
orden
citām
klubu
vairs
lietu
tādēļ
##īto
gs
mēģ
pirmās
reģistr
pievienojās
##tec
##ojumus
##res
iestā
##ants
til
Fl
izmantot
šeit
kurām
Sas
##meist
Eir
piešķ
Ek
Vāc
valdības
vadītājs
karav
##usa
##itas
dzej
##jas
##ieri
sugu
##obrīd
##kriev
##ākajām
pieminek
1980
ciema
sudraba
##kaņā
kompl
izmantojot
jaunie
Itālijas
##oņa
##ojām
##ibliotēk
##laš
grupā
vēsturē
filmu
princ
##osf
ra
##esta
##ējie
labi
##īderland
nāv
cilvēki
skat
līdzek
##arā
mik
##osp
##olog
meln
1941
tieši
##idae
Šis
turnīros
Mež
pras
rietumos
seš
##ēties
Piem
cer
Universitātes
visi
bijusi
Pašlaik
jautāj
##ācis
veidā
parlam
##th
##inieki
ē
vadīja
##ovāk
##gāj
fl
valodu
Div
##erts
del
dokum
Alb
brūn
##ikl
Apvien
##IA
##ips
dek
pien
##run
San
pats
mus
jebk
##oprojām
per
nedaudz
apar
##ķiem
vismaz
šūn
181
Vents
ziemas
Mu
liec
##20
##etes
austrumos
80
atdal
##ērb
iegū
eks
Jelgavas
##kai
vasarā
darbojas
atbild
Mūsdienās
dēv
līmeņa
otrajā
##ou
desmit
nozīmē
##inājumu
teātra
pārvald
pārcēlās
Sil
veiksm
##lēp
gāz
##celts
temperatūra
kāp
karā
Mil
##ijam
##gārijas
##ārā
piemēr
NBA
novadā
formula
##fs
##isms
pieej
III
Daugavpils
##lietu
##ikai
##otos
##īnā
##emokrāt
mazu
Jūrmal
##ozof
##eor
Kaz
hokej
##īšanu
184
##ījuma
Sm
sarkan
Hol
1939
iegūt
netālu
paziņoja
uzvarējis
nevar
autors
##ākas
##ēstur
vispār
aizsardzības
stun
varēja
joprojām
Ez
##ump
##ingr
dārz
revolū
ieņem
##ņus
netika
pilnībā
uzskatīts
lieto
draudzes
atveid
tādējādi
sezonu
##ieta
num
Ķīnas
##gām
amat
krustojumā
##oms
atbilst
Vald
##egor
aps
skr
em
##mier
##iskos
##balv
gub
##āļu
kuk
suga
##istiem
##eo
##ošu
aizs
ilgst
telev
kādu
##ES
Brīv
katoļu
turpināja
dienu
##gres
autoceļa
autob
visiem
##nāb
##eica
imper
viņas
īpat
1989
Th
##antu
valstīs
##ise
Zināt
int
Her
dziļ
##ošanos
##sti
##nāz
##oku
datu
##atur
##šņu
##auts
Kārlis
bibliotēk
##ēra
##oģ
skolā
sistēma
Spānijas
##ējumā
Vidus
##enas
Somijas
##hol
ēkas
uzsāk
##SA
##ņaz
grupu
Tor
fron
185
Cēs
iznīc
ziemeļaustr
Šveic
tūr
##muiž
apriņķa
mak
bronzas
##spēl
##ign
atvēr
komun
Su
zil
##ay
##akas
ierobež
kil
##eirop
Jēkab
otrā
atklāja
dzīvi
##icionāl
lielāko
##hs
reliģ
gadījumā
Is
1960
paša
robežas
deg
politi
##FA
Aut
kalp
##ēšanai
Gar
dist
lomas
stad
##strum
balst
##aiņu
vairākus
pirmoreiz
tor
1949
##aists
##ūg
Mor
NHL
uzstād
izglītības
##abr
nomet
čempionātos
Me
180
##ipl
albums
##avs
izmantoja
##irds
Pirms
pārl
valdība
##ži
pārr
kurās
pamatā
##ole
1970
35
dēls
absol
##itāte
peld
Vairāk
labāko
##ciet
šis
##iežāk
##ījusies
valstī
piedalījies
##aujas
eksped
republ
1988
Savukārt
##ulas
##fin
Ēr
##žen
kļuvis
strukt
britu
titulu
##ināšanu
183
trim
##go
##nīcas
zvaigz
##ļos
vesel
pārt
Atrodas
##īgie
seriāl
Indijas
Op
apt
Sar
32
nesp
##iežu
##atoru
##ļuva
Meln
##nēm
##eļš
##ish
komit
##ieķ
kalnu
##cen
bērnu
##ba
dienvidaustr
##rā
sarakstā
debit
karalis
dzin
ģints
kin
##āņa
bijušais
##istē
biez
##ujor
gatav
##uter
179
Taču
vārdu
##rietumos
rel
Nīderland
##alv
##ics
##por
Ņujor
##10
##eres
##oloģiju
teritorija
##iep
Bul
Džons
aizstāv
izcelsmes
filmas
filozof
kāj
kompon
filmā
pietur
čempionāts
##žņu
galvenā
cilvēka
Bur
##ītājs
ietilpst
o
##obil
##ānija
##gāja
lauksaim
##erbur
sistēmu
apbalv
##oss
ris
uzvaru
dar
pelēk
ban
šaur
galveno
Kru
##eda
##nīca
##vairāk
##īds
mot
start
atrod
ģimnāz
Ukrainas
Ac
droš
prezidents
##alp
pietek
vēstures
##ge
##bergs
vair
ieb
##stās
##biežāk
glezn
Berlīn
##hel
Tie
##ēni
70
saņem
otro
##ace
##īda
sugām
Šo
Augstāk
##enk
New
studijas
līder
čempionu
Pēd
atkārt
ru
zaudēja
##pras
Augu
katru
?
##ini
##fic
uzbruc
karaspēks
##otāji
##andar
rajona
Bo
##hy
Sh
dziedātāj
##met
pārdēv
##ēķ
top
medic
piet
atļ
anal
##DE
##TC
Dom
krasta
muiža
satur
noslēdza
Bērz
nevis
uzlab
dažādas
##niecībā
##iedz
metri
##izrād
stacija
Daugavas
##lant
##azīst
Norv
##ādā
##atora
Rēzeknes
vidēji
##erim
tālāk
##iro
##its
tulk
saņēm
feder
universitātē
diviem
okupācijas
##astr
##tāk
##klāt
agrāk
##esk
klubs
ārpus
izdevās
##gau
De
efek
dzimta
dzelt
##adsm
Darb
##āras
kurus
stil
mugur
##prāt
##amās
##daļā
Vik
Ter
##rup
lielākais
tirdzniecības
īsten
cel
Lielākā
##nieg
Eur
1950
nedēļ
nen
rep
jauna
Frī
Ul
ha
##ījumā
Diev
dienā
##dentu
iemes
##ismu
plaši
Latgales
##lad
bē
vietās
Rom
##āma
liels
##aup
singl
strauj
krastos
vārt
interes
90
aizl
Grieķ
##āg
##ords
der
atstāj
starptautiskā
##iķis
sākotnēji
##ore
##ānijā
Paul
izdal
ug
barojas
pazīstams
lomu
##istā
##erg
Vār
miera
krit
Norvēģ
paslud
apkalp
piešķīra
1935
līnijas
##esp
karjeras
pirmizrād
centru
Ziemeļu
##ēli
Mel
krāj
##emjer
piedzim
##iskajiem
##ains
Viens
dinast
universitātes
##desmit
izveidots
vies
Bel
##brauk
##oša
sevi
##iskajām
Ziemeļam
36
##laic
psih
Piemēram
prezidenta
savus
karaļa
grāmatu
##onus
št
##irn
##aina
Nr
iep
ļauj
sev
ebreju
33
##āšanas
Nikol
kilometr
Nāk
iekar
arhitekt
Bu
##ionā
krū
##ītis
kompozīc
##eras
atl
vienmēr
Ben
nosūt
dziesma
palika
Krievijā
lielā
jur
1917
##irs
##upes
Zvaig
Ventspils
##are
pier
nokri
platība
##ovu
biedrības
Bau
1930
tēvs
domes
Tika
##formas
##īni
##ošs
meh
Austrum
##osta
hokejists
veida
org
plan
basketbola
##maņa
divu
jauno
Tim
skolu
iekārt
##ieni
sastā
##īvu
slav
saviem
pāves
kategor
iekļauta
salu
182
pārsvar
pirmizrāde
##ori
Re
##ūks
Kam
1938
beidzas
##skaidr
izrād
##ātas
spēlējis
##ink
sarun
UTC
lok
sol
tīkl
##put
apkop
##augst
##denti
##otajā
individu
##uri
armija
bojā
dibināta
##maš
##ālais
##ulis
##ojumiem
##ack
##īvas
šos
vairāku
cik
sil
zināms
attīstības
nodrošina
##orf
##niece
Aleksandrs
Ku
ēka
Braz
##ivil
piedzīv
FIDE
##arm
rezerv
##estiv
1987
kontin
formas
##lap
def
darbi
Šīs
rajonā
distanc
valstīm
pabeig
periodā
##ūdz
vecuma
##tis
ledus
valstis
koncentr
##oun
Mol
inžen
polic
mācību
##gor
##īri
divus
##griez
drīz
Mār
cau
##ganiz
##ētāja
grieķu
kaut
45
Spēl
##pie
##oles
zob
apbūv
finans
dzīvnieku
Rietum
Tēv
Māks
daudzi
##ētais
ielām
luter
Kaln
mekl
divām
paplaš
##atl
ieguvis
Tar
izdeva
##deva
Bor
##ulb
1986
grādu
Valmier
##dā
##daļu
zāl
pakalp
izcīnījis
pārtrauk
cilvēkiem
Ū
##ich
##ulu
Av
jos
līgā
laikrakst
Māc
šim
zied
hercog
34
lielmeist
aģ
pienāk
daļēji
kaujas
kopumā
Sākotnēji
##ieva
kārtā
skaita
pārveid
pussal
varu
satik
metrus
Dzies
##evs
ien
##arh
Tall
178
atkāp
dažādās
##enā
##erā
paaugst
cīn
esot
pieaug
##audas
Arm
dienvidiem
raid
putnu
ep
Vlad
puses
Pirmais
attālumā
##oņi
##eram
##nīcu
putni
Savienības
ierind
sabiedrības
domin
pieņēma
##II
##eiv
##amat
neap
Anglijas
kab
kolek
diž
Prūs
##burgas
apj
tieš
dzīvojoš
Lielbritānijas
##ope
slep
redak
tradicionāl
##omb
pāri
Lielā
iegād
##ičs
##galv
miljoni
NA
iestājās
##eicās
Fin
Baltkriev
##ci
koku
##isa
Oz
Tād
##ala
##ational
##enh
##ūsu
##enī
atrast
Ād
zar
##padsm
kompleks
##ete
##prec
ķerm
skaidr
reģionā
##tora
por
Izvietojies
izdots
ģenerāl
savstarp
1937
##autu
nomain
##auguš
Vācu
telp
##tein
Bij
Pav
##augs
##ējies
##anšu
pašu
Rakst
šahā
mol
Konst
pareiz
tīk
sacīkst
##akus
būs
maks
viņiem
uzņēmuma
##rietumu
sacensības
1924
albuma
sīk
##ones
instrum
‘
Galvenās
Brazīl
piepras
klubā
riteņ
izvirz
valsti
Be
se
1984
##zu
radio
pasāk
režīm
albumu
noviet
divās
pasaž
##skr
Kap
##opa
karu
scen
izlasi
savienības
okeāna
brīd
##oloģija
##ork
nostipr
##iķ
slēg
##elā
##lim
177
pili
Sig
lī
##rag
nosaka
četras
pievienoja
on
1962
esoš
tais
produc
Kino
centrā
sagr
##ektors
pilsēt
##erk
##auta
1925
1977
astr
zviedru
nodibināja
ēd
fot
gads
punktu
Āzijas
##rad
sala
Kopā
##eļi
dol
oficiāli
neatkarības
Bez
festiv
##anas
##ares
Beļ
virsmas
##īvi
aktr
ģimenes
##jām
iesaist
izmantots
##ostas
##ējuma
Pirmo
pavas
informācijas
##ton
guber
Osmaņu
##itāl
Mih
##gaidu
##lēma
leģ
##eld
situ
slēp
##niekus
mis
Pap
##matā
Jāņa
kaul
laikme
piedalās
##mām
disk
kustības
smil
##ušo
igau
standar
zemi
kuros
žurnāl
##drih
Centrāl
Jo
militā
##andž
##entus
##iniec
poļu
1934
skāb
grāmatas
vienas
sign
pēdējā
trener
vietām
##ald
##ņģ
##ametr
Frīdrih
izņemot
##cion
televīzijas
izbūv
kaujā
vārds
apkaimē
Bet
atrad
ierīk
hip
iec
Universitātē
##eims
##īrijas
pilskal
Āfrikas
Zemgales
##kt
Iv
datiem
##īgiem
##ūzikas
dažādi
godu
populār
lauku
parks
sagatav
konferenc
##ācijai
jaunas
##alas
##inoši
pamatskol
1936
matemāt
1956
dažādos
pārb
asoci
josl
tikt
termin
##īšu
##ary
He
Latvija
mikr
##inātas
partiju
strādāt
IV
Vilhel
##vēl
##ūti
##īšana
akadēmijas
##ūtas
1975
izveidojās
##no
ietver
##ock
##odu
37
izpēt
darbs
miljoniem
term
vak
uzman
##ibīskap
uzt
##aju
##mugur
1974
La
1982
gāj
sievietēm
1928
1979
Piedal
pierād
attiecības
##11
tuvumā
##īņu
Kanādas
1985
atbalstu
##mant
##valst
1922
Vilj
spied
samērā
veidojas
]
##okas
juni
Saules
Sab
ceļu
##esti
Per
##eiksm
kated
sākuma
daudzums
pur
norād
oktob
maš
sub
partija
##yc
##māk
##šte
ēku
##bu
biz
500
Filma
kamēr
dalībnieks
##ani
##iņam
Mēn
Svētā
Šķ
1976
iekļauts
uzņēmumu
##ovskis
Miris
vienības
Gu
kosmosa
sec
dzīvoj
kņaz
##īgajiem
Atlant
##estā
##oras
kāda
Univers
##īrs
sapul
revolūcijas
##gāz
Kopumā
Tuk
vēsture
##lodz
sezona
Francijā
Met
izt
upe
1967
##otais
muižu
##odes
sapr
amatā
šādām
Mus
##eicoties
nozīmes
ieskait
##iga
##otājiem
##ite
laiks
##ram
dažas
stip
apprec
ieradās
##ero
##ice
Arg
##istor
loceklis
##artam
1978
##TA
mēdz
##cionāl
enerģ
izslēg
Parasti
ciemu
1972
Q
Gol
minēta
iezīm
rezult
##adēmijas
visbiežāk
atveido
purv
popular
##ināšanai
it
scenār
organizācijas
##iniekiem
##erd
##ežģ
pārsvarā
##arī
##etā
##opu
##anta
And
Mai
klim
arhibīskap
prēm
kriti
komandā
nosaukuma
38
dzimt
fināl
Austrumu
priekšsēdētājs
00
##bo
vadītāju
##ēnas
##īcija
Alber
kukai
hron
pasu
lietuv
las
vē
savva
1946
minūt
##aktiski
uzskatīja
līnija
##etu
pulka
##retā
150
os
##toru
reizēm
iespēju
1959
apmekl
brā
kuģa
ietekmē
##brauc
nega
##pol
are
kravas
##aic
reak
maksim
Rietumu
##žs
Din
apmet
1954
Hen
##emat
##evas
ied
1921
mērķis
Stud
pozīcijā
Gais
viegli
karš
Vēstur
nokrišņu
Dei
Sch
garš
##ācijām
Džord
līc
##amais
bāzes
konflik
1973
tram
aktieris
Austrijas
centrālajā
pieteka
ziemeļiem
##ābu
##onos
Dzelz
lidmaš
tūkstoš
##denī
mitr
##SD
Lap
tab
radi
ātri
1968
##aģ
avi
Cēsu
Ro
##ps
Baznīc
[
##ood
##ietis
kino
##auda
##ālas
mātītes
##raēl
kaps
sākot
aizsardz
##enz
ūdeņ
Zelta
skola
ser
Japānas
##ey
##su
iekļāva
##ilvēk
##inieka
aktiv
##tiz
abi
##ējām
aktīvi
##oll
1965
augs
lielas
izkl
pieliet
ieskaitot
Trīs
Antark
koncer
korpus
##ajs
##inājuma
iespējas
##galē
civil
pārstāvji
visvairāk
##uli
sacel
##liel
Geor
izcil
##edag
1964
Kuld
##ļav
##akaļ
##ciema
Saul
pietiek
olimpisko
Car
Tai
iero
##ate
##otes
Con
##ājās
Tran
līdzīgi
Ur
##ial
##ēdija
##adas
##ītāji
Krim
Ph
paliek
punkts
##ūta
balvas
atklāta
##ifikācijas
Tel
##rīt
Mik
spēlētājs
visām
##oloģijā
ierakstu
42
##asta
##berga
Az
##ājot
##celta
Tiek
treneris
##CO
tu
veikt
##12
##gar
##ģip
##ates
rād
1983
ienaid
modern
##tsp
Tour
nonāca
Ru
Ven
##ach
##īšanās
iekār
gaismas
periods
Nacionālās
garumā
##ovākijas
veids
##anda
dod
##āniem
Ungārijas
##ann
plak
otrais
sēd
atzīts
politiķis
san
Gulb
post
##iests
karaspēka
Sim
trauc
dipl
māte
1981
anim
##ājā
koncert
spēlētāju
Austrālijas
amata
##mai
1943
Ēģip
Roz
padz
##fal
##eter
Nok
1961
##pe
##iņām
izlasē
Bi
darbība
##āji
1958
1923
Maskavā
princip
##vēt
##āniju
Robež
svars
lej
##ology
nepār
radās
snieg
Izraēl
300
tipa
Dob
##īšanai
konkr
##epr
##dzas
##mon
ārst
##ītr
asins
##ostac
biedrs
gadījumos
43
##ējumi
pild
pārstāvēja
120
1905
blakus
izveidot
##nus
Ast
Tam
pulk
projekta
1942
lēmumu
Roberts
##ēras
bul
Grand
paredzēts
sastopams
etn
##iskiem
programmas
##izācijas
Petr
pilsoņu
bumb
Džeims
##rīn
##til
Rum
##ošais
sēk
##dustr
iedarb
Jan
vielas
dibinātāj
Rub
Bijis
##ive
##onam
Portu
cilvēks
Es
##guva
##olej
1969
izcī
UN
pavēl
tūkstoši
##hip
##ence
##vielas
nozīme
vied
##ējam
Pan
izmantota
nepieciešams
##žā
citās
interne
olas
Ministr
Lin
##ējuši
Kinoak
1929
tiesību
##īvs
##audu
dažādiem
##ažu
##balt
Valmieras
teritoriāl
##dus
Iet
Amer
daudzas
##čs
##eds
##ātiem
##irg
##tāla
Māt
cīņas
vēd
apgabalā
eksperim
dub
gara
vārda
konstruk
##60
turku
knāb
absolv
##ārās
šķērso
sastopama
##īva
##ieti
Radio
iecelts
ģeogrāf
|
##dzot
##tipr
Hel
1931
##fer
##osā
Se
##otnes
1926
1932
liecina
autonom
piederēja
Kinoakadēmijas
##ici
kak
##draud
strauji
debitēja
1947
miner
##laicīgi
Saskaņā
sūt
ienāk
sasniegt
Ver
##struk
1933
teātrī
pakļaut
##tei
plēs
strēl
Argent
Turcijas
veidoja
piekrastē
##orts
Sup
pastāvēja
##uras
līniju
pasažieru
##irst
##olas
##tajā
mās
Kara
ezeru
SIA
jūrā
darbus
##iesta
barības
##stei
Kok
##ese
Mod
divīz
piedalīties
Treš
kareiv
Pil
##pilī
mit
##padsmit
Ham
aic
1957
paral
skaitu
##ciems
Šveices
iedzīvotājiem
##aktī
poz
##atvers
diena
rajons
kustība
palaists
deva
institūta
1971
ieguld
##esi
##anti
Tāl
guv
Visu
sarežģ
kurai
kopējā
robežojas
##īzes
Chess
##āro
beidza
apstrād
##alu
##aha
39
1963
gadi
##ight
igauņu
##iņā
75
Dzīv
visus
pārbaud
##ilpa
Tad
naf
uguns
pārliec
##tern
##ķī
Saeimā
paties
Sak
##ems
##tel
##nīcā
##ināšana
aizņem
##ads
konkur
Konstant
##emjerministr
##šs
TV
##oņiem
kaln
##arda
galā
##inājis
Alūks
šķidr
finālā
resurs
olimpiskās
##jūras
1966
##ītājiem
orbītā
pū
##īciju
metru
vārtus
##ojev
##atnes
inf
##sa
1948
atmosf
uzvaras
šau
##eļiem
atpakaļ
nosauca
##ong
sistēmā
##āfr
48
arhe
kādā
defin
departam
##aini
atzīm
reti
##ide
##andes
biznes
vairākiem
Intern
direktor
##erl
Kult
akme
Europe
##bl
finanšu
rezultātu
Form
pazīstama
saj
tramv
##ervator
uzrakst
parādījās
##obi
##lavas
##nesis
aizlieg
norisinājās
iecēla
pavadonis
##dzes
##ināl
Serb
gaiš
Lit
Tals
Champ
kļūstot
##ick
##oli
1915
darbā
jauniešu
##ters
Pilsēta
##ošas
Pāv
atteicās
reformas
##bes
Bol
līdzen
baznīcu
Red
##ījumi
##ati
forma
ticis
##ēru
nu
##niedza
Sociāl
ieslodz
viļ
Pilsētas
1927
##āmas
apvid
divīzijas
##ubāz
sist
molek
pieturas
ražošanas
cēlies
pos
For
Salas
##ingu
Top
##atīvi
##otiem
Krust
izšķir
ministrijas
##ītēm
Sib
vairākās
##ikt
##eksu
##eka
##our
44
Van
##eriem
Strād
trans
nedēļas
trešo
ordeni
grāf
otru
Press
sportisti
karali
Ra
##ment
izdar
Kopējais
##fil
##cijām
amatu
nakts
novads
##ādē
##ēņu
##eniek
skatu
##ical
##līdz
muzejs
pu
galvenās
##ienē
##iesa
##vārdu
rodas
Polijā
kvalific
ietilpa
ministrs
studentu
premjerministr
spēlēt
##ieniem
valdes
vienād
pabeidza
##ēva
##aistī
vienību
funkcijas
1914
kopvērt
55
žan
##ājumu
punktus
##oza
rudenī
##šiem
##iešanas
apgalv
parakstīja
##dens
otra
apgād
tiks
##isam
##ģistr
starpā
mīt
graf
mobil
Pel
kun
kuģi
klost
izskat
komerc
augstums
pir
tap
nozīmīg
zinātnes
atkarībā
saraksta
Jēkabpils
Portug
nodaļas
Lib
Mārt
Latviju
attīstību
##ņām
identi
sākotn
##CA
##gen
Dab
demon
vienīgā
pārvad
##jē
tēr
spēja
mantojuma
netiek
##embrim
##lija
##ozes
jāb
akmens
##iņus
viss
iztur
aktrise
kultūr
labākais
punktiem
pārvaldes
qu
ūdenī
vidējā
autobusu
līgums
veidot
##30
##bed
pārsp
1953
izmaiņas
Olimpiskajās
##aib
labā
zīd
##ūdens
adr
ide
izcīnījusi
mājo
uztic
panākumiem
piemineklis
Don
41
Gun
vērā
zemnieku
naudas
##estu
##nam
Hein
##muižas
kausu
nolēma
Ju
pārāk
##aiļ
sekretā
sastopamas
Zil
datubāz
##ulā
Ban
mai
##ences
##iskām
Pēterbur
precīz
Sy
strat
turnīra
pilnīgi
galvaspilsēta
hidr
##organiz
atbalsta
pavadīja
##akal
Rein
stabil
##gn
##unda
svin
apdraud
sērijas
Ministru
##air
##mar
##iene
vara
spēli
Vāciju
augstskol
##tak
##pers
trūk
nomira
vajadzībām
##eitn
nosaukta
##upe
dis
##ys
FIFA
So
neveiksm
##amību
krāsu
grāmatā
1000
visa
vienība
Sat
mūsu
lietot
mātīte
starptautiskās
korpor
augstākā
Tērb
sakaru
##ilg
Vīn
bud
##ēšanā
Lauk
Eirov
##ītos
##iskajos
likumu
reģiona
saskaņā
##kav
Los
viz
##onija
##ētāji
vojev
realiz
##evišķi
pameta
ES
##ojusi
vilc
armijā
oks
nonāk
ievain
apspalv
informāciju
Iek
jūr
rada
##imb
125
Can
AB
Parīzē
diplom
izdota
līguma
pastipr
##auju
##ītāja
##īze
pedag
##dzis
##tatā
Agl
ceremon
pārgāja
izmantoti
Nīderlandes
apstākļos
Pēr
Sol
transporta
spēcīg
milz
pilī
pēdējo
Ex
SK
Feder
drošības
Champions
##plat
##pek
##undes
nepie
jāp
sald
salā
jaunā
ātrumu
rezultatīv
migr
radīja
īpašības
Tek
rekor
##dar
visai
pieauguš
vienīgais
##her
1951
Kosm
kāds
dienesta
draf
tāda
spēki
elektron
dodas
silt
##tuv
Dub
daži
štatā
brālis
piekrastes
##āle
##ījumus
vīriešu
##vēra
##ītās
goda
magn
labāk
pāris
plūs
olimpi
mēnešus
zaļ
nams
##ten
1952
##CI
##adu
##ith
liter
ūdeni
vēlēšanas
ain
tādu
##iezgan
##īp
balvai
##ogrāfijas
##ījuši
jābūt
bijušās
Klus
stila
##kon
##vusi
rīc
visp
austrumiem
##ods
##zemē
bri
##40
raķ
Gust
numuru
Art
Nob
Comp
gāja
ievērojami
##gam
startēja
pirk
ļāva
##valstu
aizsargāj
##ham
##raķ
Lid
##cijai
##iforn
skolotāju
cita
astoņ
atzina
dažādus
##ūm
##ands
400
balt
strādājis
Pēteris
##eses
biroj
notur
apbūve
sacelšanās
##nēs
Cilvēk
Vladim
aizsarg
junioru
##āvās
ceļa
krāsas
##ovā
cīņu
##ājs
atšķiras
Nos
Londonā
Pirmajā
dibināts
Bija
tēva
##dienas
nodok
##una
dob
paug
nesēj
##daļ
dinastijas
##āto
Island
staciju
176
vadītāja
prezidentu
konkursā
Mic
citus
izstā
Sc
##oriz
arhitektūras
##16
##osas
Vit
Igaunijā
uzvarējusi
Ste
meklē
Cl
abas
##laikus
Mas
mērķi
neliela
##slāv
##skatā
kuram
Baltkrievijas
1955
Johans
pārtikas
sakarā
LU
masu
orien
spēle
latīņu
salīdzinoši
49
vides
tirgus
kājnieku
##ican
veidu
zinātņu
im
Kub
atom
likum
viedok
Nap
##kalnes
konstat
vojevod
pasniedz
##ķestr
Čehosl
##neš
##uls
##etas
Prūsijas
##ili
šādi
Britu
Nokia
ietvar
intens
grupās
institūtā
publicēja
meža
Īr
##ekven
mežos
##št
uzskait
Air
aud
Pers
aizm
aprēķ
pārņēma
mez
##āzijas
##gudr
ģerb
##ījumiem
lūg
iznāca
atbalstīja
vidusskolā
ieros
dažādām
valdību
Kir
liek
##orator
Ietek
##dri
Ozol
##ules
kav
##atoties
lielāks
pieredz
komitejas
atsp
##iežas
tēviņi
apkārtnē
piešķirts
##ails
##vielu
Norvēģijas
po
##eniski
jūnija
beidzās
Kārļa
atgād
pievērs
Atlantijas
literatūras
##kor
##ekcijas
dzelzs
Satvers
satiksmes
##elu
##ākiem
vairākkārt
diezgan
ed
Edu
Kas
##kom
##ris
lu
oriģ
##niekam
##aga
Atšķir
maršruts
Ņujorkas
vienīgi
##ainu
cauri
##bē
protok
itā
Sten
virk
##ējumus
vairākām
##ologs
##ūstot
joslā
padar
janvāra
##be
##hn
fabr
ievēlēja
##zijā
170
segumu
darbiem
patēr
65
Af
##onto
Got
klāt
rajonu
Pārstāv
##tsar
ārzem
arvien
##kaul
Dan
kaz
ceļš
bijuši
Lielākās
nopiet
Itālijā
futbolists
47
apz
sai
dzimtā
jūlija
##ērija
Nākam
##tīvi
ant
Jūras
apmāc
uzcēla
##kaņ
##vin
##īgus
armiju
diametr
pašlaik
University
šiem
atlik
##istiskās
iekļautas
Ik
##iklop
##inājumi
piedzima
autoceļš
ziemeļaustrumos
##āč
pirmie
neatkarību
Ligz
Pirmās
Brīvības
lietuviešu
##celt
##otie
diz
astronom
nākamajā
jēdz
mātes
deputāts
##ale
Rod
statusu
Kuldīgas
##ids
pp
Rec
##olejb
##raudz
metāl
kongres
sabruk
pavasarī
veidojot
##NS
##ieži
##jauk
Vīt
##inter
jauk
turpmāk
organizācija
##ski
uzl
Dānijas
Lietuvā
ekonomikas
svār
##efs
##opl
##ance
##emin
All
Kaliforn
luterāņu
##ūc
##elf
##ure
52
On
Ļeņ
konstitū
##ūšu
saz
tumš
naftas
izgudr
uztver
##usī
##īgos
Imp
ziņā
Wh
Nacionālā
Šar
šie
jūru
mira
sievietes
uzbrucējs
paaudz
regulāri
strēlnieku
Starptautiskā
##turn
aģent
vecāki
Aleksandra
do
##ētām
Sac
dibināja
rūpniecības
##spār
tēm
pašreiz
##ucion
##andžel
##ācijās
komandieris
studēja
##lus
##lers
bas
##laiku
##tegr
##aines
Stok
Uzņēm
Gre
ieņēm
Agr
sum
meitas
##star
##ācās
video
centās
katra
##īgām
tumši
čempiona
##icis
Hit
Pak
tol
mēneša
nesējraķ
##ializ
iebruk
astes
šobrīd
Zvaigžņu
demonstr
ciemi
Aglonas
brīvprāt
pagastiem
problēmas
##zes
jūra
cieta
sācis
karaspēku
Viena
vadības
reģionāl
uzskatīta
jum
miljonus
policijas
##ainā
##enko
Ker
nekad
temperatūras
dienvidrietumos
trij
saistīta
rakstnieks
175
saņēmis
lau
rakstu
Lau
apskat
grāmata
mācījās
apakšdzim
Biz
Ser
vielu
##inājumā
māksliniec
Ner
grāv
##īniešu
##nī
51
kļūt
strādā
noskaidr
teik
ģimene
isl
nez
stipr
augstā
orķestr
apgabalu
Čehijas
norāda
53
pati
Mēness
nac
taut
mājās
##ūnas
spēlēm
##lor
Gada
##ze
Bat
Jēz
bagāt
nolai
klases
46
##icas
Hal
grēd
valodās
Dienvidslāv
##80
##tra
Meks
minim
bērniem
##ESCO
atklāts
##olfs
šādu
arābu
karag
programmu
Ko
Polit
izlai
muzik
vienkārši
##per
##ingt
##īgajā
pozit
Tukuma
piegād
vienkārš
iegūstot
−
Bern
virsp
pateicoties
##ros
Spr
Varš
romiešu
stratēģ
panākumus
##pt
##irka
##ofil
##valsts
norit
Dienvidam
vas
UNESCO
bibliotēka
##eču
Kij
##ojuši
telpas
izslēgšanas
paras
vēlēšanu
piedalījusies
le
Bon
##rīkst
prim
lielāku
##TV
Dev
1912
atstā
maija
kopējais
##aras
Iev
Lei
##ītiem
mūra
visās
##enēt
pazīm
tīkla
papildus
##13
Vel
Krās
telef
trešā
izmaks
dalībnieki
kopvērtējumā
Pu
##ovska
Sank
ietvaros
ievad
##ējumiem
atklāj
pieņemts
politisko
robežu
iespēja
deputātu
provinces
##ļā
##jan
##skā
gai
vide
Lielais
Parīzes
Berlīnes
dzīvnieki
profesors
ziemeļrietumos
##smi
##omen
aizv
atzin
pārvēr
patstāv
Kultūras
dim
kul
##ējoties
piecas
Marijas
Lī
fig
Reiz
pusi
##eitr
Šeit
ciemam
automaš
Of
Rū
##iskus
Draudz
##pes
kv
mūziku
##ināšanās
maģistr
##jam
##ajas
160
1916
marta
starta
savienota
saimniecības
##ane
##daļa
##ektu
##endas
sekm
arest
Andrejs
Viljams
##ium
Flor
savai
pārstāvis
##rim
bērni
itāļu
laul
stundas
##ests
asfal
iestādes
sastopami
sauszemes
##rom
##iona
Rez
smag
Napole
kūr
Savu
kuģis
skaņas
trolejb
raksturīga
klien
rietumiem
Ka
Put
rec
Grieķijas
Karalistes
##aidž
##krās
Nor
Soj
Eliz
deju
##ējusies
apriņķis
slimības
trešais
##ode
vok
saukta
putniem
leņ
Augš
##ozīm
Frīdrihs
direktors
izraisīja
izveidojusies
156
##ējams
industr
nespēja
dž
Mag
Zaļ
Tikai
ģintī
svētki
parādās
##ler
##zināt
glab
##tt
##ruka
lielo
pareiztic
galvaspilsētu
Līv
neuz
studiju
sasniedzot
##ke
Ats
sirds
Svētās
dolāru
iestāj
Henr
##ations
nosac
zivju
joslas
kopējo
HK
jomā
Nobela
Alūksnes
kuģu
polār
##eim
Alfr
##ināties
valdīšanas
Bru
kris
ietekmi
apdzīvota
apdzīvotās
##olā
##gaļu
##kiem
##ortā
##tera
abu
apzīmē
Bab
##ojama
bīskaps
##sku
SS
##otne
##āliem
##šanām
Kriš
Pētera
lietus
##ieda
kolh
iznāk
katedr
robeža
turklāt
##ienus
komb
grūti
France
apvērs
skaitī
uzcelta
distancē
##īdi
zemē
gredz
pēdējais
##NO
Kn
##ošie
##īgāko
ceļā
eiro
divos
##ņos
Lud
Rič
Mākslas
##esa
##ālos
##ētajā
infr
mūža
filmās
metāla
##šev
##aukāz
slik
Ger
##eklis
Deivid
savieno
##dab
jauns
smadz
uzved
pusfin
##irms
Lub
draud
sievas
fakultātē
Staļ
lieli
Anna
pasugas
Losandžel
01
##auti
Bud
##atori
sekoja
Championship
Oy
van
##pild
Di
##ānos
##emor
ton
Sojuz
daļai
slaven
lielāka
pasnieg
versija
Publ
zeme
Dinamo
projektu
vidusskolu
##āšanu
līča
Robežojas
##iru
Vasar
Lor
singls
izmēr
Atšķirībā
musul
laukuma
muguras
informācija
##gru
##lauk
Mūzikas
novembra
##igs
##apar
162
##tori
Enc
šīm
zvaigžņu
pasludināja
##osk
Ho
Rai
ātrums
Stokhol
ieguvusi
##otr
sēn
Šie
##ovičs
likums
spārnu
aizviet
apstiprināja
##bas
Līb
Viņi
Histor
akciju
pašvaldību
57
disc
treneri
Apvienotās
International
##18
grib
enerģijas
Co
##rita
##ējus
šķīd
pārbūv
Londonas
Vin
jap
apgabals
Satversmes
56
##vars
kreisajā
##hu
##ildu
labajā
##14
##ņās
vada
šādas
programma
dī
lie
Horv
grād
katrā
laborator
58
atra
somu
iekļauj
pilsētām
##īrā
##ūda
##rihs
kampa
savām
Formula
paziņots
##ites
meita
cietoks
strādnieku
Qu
ses
komisijas
Pri
altā
naktī
nosaukts
##MA
Antarktī
atg
Zviedrijā
dial
produktu
sacensību
158
izdzīv
Liepājā
apprecējās
štā
54
##elas
pārm
##ung
##unds
stilā
##ss
##āde
iepl
celta
biedru
uzreiz
Bauskas
process
aizmugur
##isi
##ogl
##oguļ
Hels
krāsa
Elizab
apciet
līmenī
##eng
Gan
Valst
kalns
normas
iekļuva
darboties
03
Dar
##ember
tostarp
Tērbatas
Brazīlijas
Ev
veltī
hercogistes
##yn
tēviņš
medicīnas
##za
##lin
Sēl
bru
daiļ
pagar
##čiem
brauk
padome
sastād
lielākās
programmat
riteņbrauk
pēr
Astr
Zinātņu
ordenis
##adarb
##trauk
izšķ
priekšpils
##jos
UE
##enci
šai
##iekst
prop
vari
četri
##āmu
##ainas
og
##ēriju
štata
European
pirmajiem
##KP
Rīgu
jebkur
impērija
skaņu
##erbaidž
uzmanību
##tal
##ēles
opt
Leon
cīņā
viņai
##iešanās
Profes
novērt
##ote
165
Gro
##imetr
krīz
kādas
atklāt
nociet
Sku
daļās
pazem
spāņu
tilts
minūtes
jaunās
kaujās
muzeja
tiesas
##rai
##vest
##ēzijas
dienn
cenšas
Eirovīzijas
Valdem
du
Vas
##ītais
izrak
lapas
atstāja
vārtsar
starptautiskajā
##brūk
##samb
veselības
teritorijām
##īvā
Ķīnā
salās
##lā
##ima
##roc
09
von
raib
Juris
klāta
Krieviju
demokrāt
##onīm
kaž
kvar
mērā
x
05
##umbr
svētku
##ekas
##nības
izvai
apriņķī
sevišķi
##ojam
Sin
##ūdams
kapos
karam
##eiropas
1906
Viļņas
augstu
vairākos
tehnoloģiju
##eč
sekund
apvieno
sh
##liet
##vadr
Mer
tenis
##niecībai
FK
Kau
##ikācijas
valdīja
uzbrukumu
##lēdz
##ainās
Klub
##enciāl
formu
izvēlējās
vidusskola
##eros
brīdī
kājas
Jēzus
Augstākās
##oduc
##aista
upju
pārdēvēja
##ēterbur
tolaik
animācijas
64
Lo
Iesp
koled
##iltenes
dzelten
##hof
##kos
UEFA
Talsu
laikos
ligzdo
neliels
interneta
ekspedīcijas
##ētikas
veikta
pavisam
85
ev
ogl
loma
saistīts
##ches
Dav
Sev
Ernes
izveidojot
##oze
Mac
metodes
izmantotas
lielākoties
##lop
07
oz
Not
UCI
ret
Sanktp
kapitā
stipri
Sept
apme
ilga
finiš
priekšsēdētāja
##ano
ch
Spec
##nov
LP
Tir
Jelgavā
izraisa
izpau
Vilhelms
dār
svītr
biežāk
guberņas
starptautiskais
##ly
##fab
##iers
##ojams
ieviet
brīvības
##eņi
##varu
Horvāt
uzdevums
pakāpeniski
##tajām
bēgļu
izska
ievērojam
Franc
komandai
##vie
##āvu
Tuv
##entālās
pilsētās
atjaunoja
##alk
Pagas
##otajiem
integr
##SP
##ūrs
##uldas
balta
otrās
Sanktpēterbur
LV
fol
saīs
šāda
zirgu
pētījumi
akadēmijā
Ie
Part
Teod
Fo
##ētos
1910
tekst
auguma
Jūrmalā
zon
1904
##ošajiem
Pagaidu
lietots
##ēnā
saimniec
Sel
Gaisa
mestr
ūdenst
##kap
##omer
##ali
Dib
salām
septembra
Ziemeļamerikā
##spr
FC
LN
Turp
mehān
##oloģisko
komandieri
##iat
##ūnu
##ekli
enc
mīl
Visas
savvaļas
uzņēmumi
##ekt
mut
paši
##grīvas
sērijā
doktora
viduslaiku
##ēb
##amm
##anku
Izglīt
pienākumus
atvas
augšu
Kanādā
piemīt
vārdiem
Slovākijas
krāsā
atkārtoti
veiksmīgi
Ost
rei
otrs
esošo
Pilsētā
īpašumā
apvienības
dzīvniekiem
##TO
##ner
164
Cor
##ciemi
Kolumb
automāt
beidzot
pētījumu
##din
02
##ākos
vecākais
norm
apbed
ieceļ
dienām
Turklāt
ieviesa
ministru
Hor
##navas
lika
Elektr
kustību
likvidēja
meit
tuks
frontes
protest
Krievija
Krustpils
Sun
Ungār
debijas
personas
##gaid
174
ādas
##ēnijas
tādas
ansamb
veidots
darbinieks
##ārl
ur
##māju
Cap
gaiši
aprīļa
šosejas
vienlaicīgi
95
Wil
Vies
pašas
Šobrīd
Austrālijā
##iko
##ners
##ņģēl
kursē
nacionālā
Jūl
Vēr
pot
Jans
iekārtas
##ws
##ims
Nep
nogul
šūnas
vēsturi
čempions
operācijas
smal
##īļ
##mās
Hu
dem
1913
asin
frak
vīru
izmēģ
līmenis
##raž
##ford
Pir
dalījis
militāro
##atus
raksturīgs
##ife
Let
izstrādāja
kausā
62
##klāj
Aiv
izpr
nokļ
dzīvē
kādreiz
Dārz
klin
mežu
nopost
varian
Sabiedr
procesu
Tādējādi
laikmeta
##tad
Nav
Rei
cep
tādi
artil
ebrej
rajonos
1908
Mart
grupai
rekordu
Dag
##sties
māju
spēkiem
##ule
##eiropā
tūkstošiem
##ops
IP
##uriem
Kasp
cent
##teinis
karavīru
platības
izplatības
parlamenta
##kus
Dal
darbos
krusta
Džeimss
vietējo
157
trī
Ņujorkā
fakultātes
pašvaldības
Tehn
ligzdošanas
##AR
##āņi
##mans
labākā
izglītību
##ca
##īles
122
##kalna
base
##ipt
Padomes
augstāko
##otnē
Jaunā
inici
kļuvusi
biedrība
Han
Mur
kalend
aizvien
pretest
la
end
sapl
Tartu
musku
iecirk
apmeklē
My
##inātā
Tomas
nepar
Zvaigz
kreisā
vienam
pāvests
ierindojās
Jug
Kos
Pazīst
##ļģ
168
pulc
sultā
visliel
pakļautībā
by
##ātās
Fer
sag
ģenēt
piedzīvoja
atjaunošanas
Kv
##ostu
quot
vulk
nolik
reorganiz
06
##aris
hum
##oriem
Somijā
##ātus
mor
##urgas
vēja
kodol
saukts
pierakst
vienlaikus
##uka
iest
tuvu
preču
Anglijā
nodarbojas
Reg
blīv
dekl
rezid
##istānas
saules
Āfrikā
organizāciju
##andas
nelielu
ministra
bataljons
mūsdienām
##iča
##jet
mācības
tagadējā
##ml
neitr
smilš
Gaujas
savrup
atsevišķi
daudzveid
##rig
mač
aprīk
Azerbaidž
ran
saul
debes
iepaz
uzaic
apglab
kontroli
##AS
##po
Ken
apgr
priek
##iskajai
##odr
04
VD
utt
1911
Star
medī
##īšanos
kristāl
pārvalde
##dir
59
daudzu
pamata
turpina
##odi
##stūr
Nar
ģimeni
frekven
četriem
piešķirta
ieguldījumu
mākslinieks
##izē
tīr
Saks
plašu
prosp
##program
iestād
scenārija
nodarbojās
##ieģ
Ag
izcīnot
objektu
ģimnāzijā
##zēl
riņ
grūt
kart
alfab
kvadr
pārraid
##17
Slov
auto
aizvadījis
##aktīv
zemēs
Berlīnē
Dienvidu
nomainīja
republikas
##iešanu
klubam
prēmiju
piemiņas
##ema
##aure
tvai
Filip
emigr
nereti
Tallinas
specializ
##ella
##ismā
Dāv
ziņas
toreiz
##ymp
IS
Vaš
ārkārt
sarunas
sadalīta
Izvietojusies
##jus
08
##iecēz
1900
Iekš
Pastāv
zināma
stāvokli
festivālā
##ags
##aura
##ētie
Osk
rud
##ozi
##ardi
bēg
##orizon
Marks
priekšā
decembra
populācijas
Annas
atlas
deleg
nogād
radīt
taisn
sudrab
uzturas
kompānijas
starptautisko
##etē
Upes
māja
rekon
ziemā
barību
aizmain
pagaidu
rakstīja
VI
Skr
dažkārt
province
##eps
##edia
##ejot
aktu
karagāj
līdzīga
nepārtrauk
ziemeļaustrumu
##žēl
##omot
Tol
tal
velt
Pavad
apmeklēja
kompānija
##ertu
Rūd
Sam
##skābe
gāzes
laukumā
procesā
dalībnieku
kategorijā
##19
##ūdu
##ūna
Kazah
Vācija
pazīstam
##adā
dv
Sof
Herc
Sent
##kls
##lig
Kaut
Prix
rotā
##ionāļa
izbei
hercoga
ietekme
##sardzības
##ibr
sā
##tajos
##ēniem
1907
Ciem
puse
pulks
ķermenis
##iki
##lan
##ītāk
Čikā
līderis
meistara
Mam
ēkā
ķēn
##ament
##ezers
Meža
NASA
sark
galva
Čempion
##emj
##len
##astu
##kalns
Zied
nāvi
Saldus
Spānijā
uzskatīt
##vok
##ūdr
##berg
##vuši
130
vic
izaug
krastu
vēlējās
vēsturiski
fāz
tun
tīm
Daži
##ojumam
##ūšanas
grupām
##15
Pīt
##skaņ
mūzi
gabal
izsūt
masas
pagāt
nokļuva
oktobra
##alds
noteica
rekords
iesaistījās
##ry
##ont
Ob
labu
noveda
daudziem
attīstība
##atīvo
Open
balva
augsta
Kristus
papildu
Nikolajs
##pusē
250
tauk
noteikt
##arta
Vēst
##piebal
novērot
piedāvā
veidota
glāb
Divas
pievēr
veidos
ūdenskr
mi
Der
##burgā
##ināšanā
sniedz
stingr
Francija
skatuves
##nei
Go
ņem
##salas
##atūras
posms
Jaunzēl
autoceļu
sabiedrībā
63
172
spēkā
stāst
##emd
Pļav
Sarkanās
vidusskolas
čū
##ipēd
##rist
Cel
##antast
Dabas
Ogres
savienība
##inoties
priest
politikas
##TS
kauja
##išķ
##ians
Mis
##entos
Skot
##skābes
bulvār
turpinājās
Indi
Edvar
objekts
apkopoti
reģionos
##vē
Ha
eļ
Viņas
rokas
Marija
noslēdz
saraksts
log
Bill
komponists
literatūrā
##han
Po
Ģe
600
kaim
tank
arhip
Sarkanā
Demokrāt
##ieved
York
uzkr
Tādēļ
Nosauk
partiz
augstumā
pakalpojumu
##okš
##tras
##gaism
punkti
iekļāvās
iesaistī
spēlētāja
priekšsēdētāju
##ardu
##kins
apg
1903
garas
koord
noraid
daudzumu
Ziemeļamerikas
##eig
##mir
##uļu
hol
jās
##dauga
##inājumus
augusta
daudzās
mehānis
paredzēta
nesējraķeti
##ēlās
Jam
spal
baznīcā
vīriešiem
nacionālās
##use
##over
nāca
Laikā
zivis
monarh
septiņ
##kāj
169
Bos
Buk
staf
formā
pāvesta
Argentīnas
##saimniecības
##ilu
angl
lapu
Dieva
dažāda
Mācījās
Tom
##andinā
enciklop
zel
##uniga
koks
izceļ
Iman
Prezid
dažiem
locekļi
atgādina
##bor
##tecē
bīst
Augst
svarīg
veikti
atšķirībā
Piedalījies
##azām
Led
lic
ver
diriģ
jurid
nodaļa
##īks
Col
Bieži
Starptautiskās
##stac
##stam
dēvē
baltu
Pe
155
Lik
noš
##aides
##iekas
##ienos
dekor
praks
izstād
neizdev
pieauga
arhipelā
piedāvāja
##ph
Muz
lēn
Mark
jāiz
avotos
dzīvot
##IS
##iles
mazuļi
stāvoklī
salīdzinot
##uth
Ren
Retr
pagr
vērtību
Republika
kilometrus
ziemeļrietumu
76
##ited
doi
masa
pamet
Jūrmala
iebruka
materiālu
pietiekami
izvietojusies
##ple
##ķed
99
##anis
indi
zemēm
rezerves
##ater
##latv
Irāk
vizu
bīskapa
saistīti
##ūns
##enēm
Gai
rekl
seko
Komun
putns
ģitār
flotes
novadu
Ah
##ices
rot
##emāti
Bird
dzēr
iekārtu
uzņemta
Beļģijas
##elē
##vež
##ušos
izz
palai
Jak
##alc
##tāja
110
Blu
siž
Muiž
tilp
Balvu
aviācijas
iegādājās
173
Prā
aptur
oblig
profesionāls
##žiem
rev
Hans
Visi
cilts
sieva
pārkāp
Nākamajā
##isu
##ertik
##oniju
##bergas
vieglatl
kapteinis
īpašnieks
##mer
72
Plat
serv
nācās
preten
raksturo
atsevišķu
pārtrauca
čempionātu
Vad
vāj
memor
noteiktu
konferences
Lielbritānijā
1909
reāl
nāvei
##indu
123
Por
##ināto
Serg
laure
nosūtīja
finālturn
kukaiņiem
Lev
Nev
War
skaņ
##augiem
parka
dziesmām
mēģināja
imperators
##pi
det
Viņu
Futbol
Jaunie
nepieciešama
##ect
66
apš
pārz
partn
nogalē
turnīrs
turnīru
Centrālās
palīdzēja
parlamentā
##ae
Abr
Pla
You
Toms
anti
zālē
zinātniskās
163
Den
plank
triec
augiem
##ilj
minēts
##ingv
galvu
tautu
##veidīgo
spiests
apspalvojums
šūnu
Plesk
modelis
meistars
pussalas
Pj
dū
Deb
##ement
dižk
izmeklē
apkaimes
##aph
##iālā
nodal
Daudzi
Vidzem
bankas
Olimpisko
ekspedīcija
##⁄2
##rīd
##glis
152
##ārajā
attiecībā
nodrošināt
Arh
upi
##kaidr
agres
##ojušies
spir
sešas
savstarpēji
##ieb
##gāru
lib
##cijās
Laika
ostas
savam
iekaroja
rezultāti
Dienvidslāvijas
##empl
Net
guvis
uzdevumu
Pēterburgas
##ožu
XV
šķiras
slimību
revolucion
##jai
##ēks
Īpa
pārējās
uzsākta
impērijā
nelielas
imperatora
##esl
alk
vaļ
Glob
skan
##akmens
##skolas
iemeslu
##fel
##oph
Ang
##ājusi
Minh
dzirn
Reizēm
bagātā
##itam
Čārl
Birds
Lejas
ciemā
iespaid
reģionu
iekļauti
##ķus
ANO
Jum
acīm
slāp
piekāp
teorijas
atrašanās
zinātnieki
##kara
pasūt
četru
Valkas
augstākais
Gri
Men
und
tras
unik
nozīmi
reform
Vašingt
beidzis
laukums
atspoguļ
uzvarētāju
popularitāti
##olf
Til
privāt
pakāpes
potenciāl
##šč
Pek
garuma
Baznīcas
bataljona
attīstījās
hal
Stef
cauru
izmir
nogāz
pilson
izskaidr
dzimšanas
transport
##eck
runā
Trans
nozar
plūst
sauca
Krimas
saskar
Izraēlas
dzejnieks
iepriekšējā
##ega
IM
cip
##ojumos
Tāpēc
malas
Āzijā
apliec
iesauk
Latvijai
redaktors
mākslinieku
##last
aizsargs
galvenie
##ejām
tornis
##īšanā
ideju
cilvēkus
matemātikas
##ēls
KHL
sod
purva
Otrajā
operas
Madonas
perioda
dienvidaustrumu
##UC
th
##ainais
Lielo
Scien
diecēz
tiesībām
ūdenstilp
darbinieku
##zi
##īša
Nesk
Viss
vidē
##izācija
apmetās
##ēg
##būt
Ps
##aino
##dzies
īpatn
Mūsdienu
attīstās
ražošana
Est
mēs
rub
##varas
Beļģ
sakar
konven
sniega
##age
##cer
77
Ref
##ētiem
līga
##atīvās
##landes
ezeri
nenot
horizon
praktiski
kvalifikācijas
##ilis
interv
likuma
posmos
pēdējos
Iespējams
pētījumiem
97
##inam
Oto
līk
##iesti
elementu
projekts
##ģērb
ķieģ
Japānā
uzbrūk
##azd
##trop
##entam
Ties
##oļšev
Neat
atver
citos
atteik
dāv
Drīz
garu
Virsl
pakaļ
refer
dziedz
dzīvok
līnijā
novirz
romant
##fl
##asa
##eph
budž
mais
katrs
kombin
Retrieved
uzbrukuma
politiskās
kompozīcijas
tehnoloģijas
##ente
##iepjas
lielk
idejas
vasarnīcu
##ea
67
līd
##burgu
glob
rokās
sacer
##ījušies
draftā
administratīvi
##okl
68
##lass
reaģ
##došanas
politiku
##ītie
##ūdeņ
Afgan
vertik
divreiz
vācbalt
##ezn
159
##formu
Anat
Prot
Syst
apbalvots
kandidātu
atgriezties
Prov
ļaun
plāks
līmeni
okeānā
Gruzijas
Jūrmalas
kontrolē
dibināšanas
##dze
Mot
Veid
nākamo
kosmosā
nominēta
##III
dati
##istikas
Alfrēd
augsts
eksist
Deivids
fantast
sociāld
nodrošināja
##astāv
deklar
konserv
balstīta
Galvenais
##ekm
Dis
Hav
##jeras
filmai
spektr
##maņi
sievu
Inform
Krievu
Na
XI
pusl
Kazahstā
##che
##omi
Ot
Ros
avār
delf
izol
miljonu
Nacionālajā
ķeiz
Grupa
strau
trešajā
lielākas
##īkšu
Tēr
##ailes
Dažas
doties
dažreiz
aizmainīts
##ēma
er
##augi
##iāli
vag
Cent
Vest
aizvadot
Ain
pasta
Augusts
vērtības
saglabāja
pārstāvjiem
##AF
aptver
ieņemt
##iji
87
##bruk
##obra
Reģ
##aunas
##īviem
plāt
##embris
balsu
apsūdz
radies
pamatojoties
##onī
gū
##omās
126
kanc
programmā
##EL
##ūku
Pur
##līgas
##ģu
##ath
##omp
##ogres
Norm
Parlam
līdzīgs
izskatās
##eto
167
800
Pet
naba
kalpoja
nepieciešam
##agi
##olds
##āvas
Mau
daļām
Indijā
uzstājās
vidējais
Portugāles
##bals
Space
mēnešu
sastāvs
##zs
jāt
##biedr
Ekonom
##rietumiem
##jās
##tavas
Pauls
eirop
lielāki
##oduk
##ālam
Nes
##tajiem
kritu
visos
Pirmie
##oloģiskā
kultūru
uzbruka
Vidusjūras
124
kājām
svārst
uzskatā
problēmu
bataljonu
lielgabal
galvenajiem
teritorijās
##andu
cie
lieg
Sākot
telpās
vadība
##ingradas
lidosta
nevarēja
skaitlis
nogalināja
##šo
##ģis
izj
loģ
dievn
plāna
American
##gai
##orb
Kin
##āriem
ilgi
##abiedr
pamatu
seriālā
tūrisma
Serbijas
sf
##ekts
Šād
##dienu
##āzijā
spīd
iegūtu
##avi
##āms
##atīvā
cieši
mājām
Andris
kalnos
aparāts
pamazām
cilvēkam
vispirms
neizdevās
74
Za
##plan
ras
stik
Kristi
mazāks
mirusi
nodaļu
februāra
##uku
##daļas
##iešus
Pret
meteor
##ekļu
1902
zvej
mezgl
Ūdens
Aizput
dienās
##vām
cuk
##leitn
pens
kuģiem
dienvidrietumu
##och
is
Rud
SKS
##ieriem
sadur
veidi
nodaļā
pirmsāk
paredzēja
166
Hil
Jos
Meh
##lustr
##onijs
krūm
iedala
elektro
arhitekts
nodibināta
##tīm
aus
tīģ
krāt
##iedarb
Filmā
Medic
aplenk
katram
objekti
pārdeva
##ceļa
##mane
Pen
1901
sveš
paugur
lietoja
##inājumiem
##upu
##otām
Tik
##āšana
Viet
semin
militārās
y
mār
##ienam
Braun
mēnes
Ludzas
altern
atjaunota
jaunatnes
atgriešanās
ērģ
atzīta
ieroču
##itācijas
artilērijas
##BC
##lēk
##ālē
##asts
Tib
##ensis
gult
zvēr
Seriāl
žurnāla
Rev
sep
Magn
Maks
kait
Franču
Viļakas
pieteik
Rumānijas
##ītei
gov
gliem
tīklu
vārdi
fināls
beigšanas
##aujā
klāj
garumu
stacijā
statuss
savrupmāju
##rid
Aus
Kai
##atīvu
Savā
neil
uzpl
Klusā
piesp
tirgū
tuvāk
zemju
autori
Records
šahists
deputāti
stadionā
##auja
kungu
Maikls
pielāg
Alberts
pilsētai
73
Ies
##oskop
3000
dzīve
saprot
History
Visvairāk
Kun
lād
frag
palik
Papild
intern
Dziesmu
Zviedru
trenera
atgriežas
atklāšanas
##ūdas
Bār
Lāč
Skat
japāņu
plašāk
nacionālo
nacionālais
pastāvēšanas
##ūka
Edg
test
datus
nopirka
sadarbībā
Dur
Brand
tikpat
vislab
kristiet
pabeigta
attiecīgi
dziedātāja
riteņbrauc
##enda
##ātes
sēkl
##fon
Black
klaus
##ētājiem
kontak
kilometru
##aļus
##iņai
##otus
Bra
izk
Virs
Katrī
ielai
spilg
mātītēm
partijā
tēviņiem
zvaigznes
##ск
##akļ
Št
dzimum
koncep
kosmon
Franciju
sadalīja
čempioni
##nd
98
##iesm
##ikāņu
Grām
stūr
oriģin
sienas
tīmekļa
cieš
hipot
kolhoza
Dienvidāfr
##ilas
##islavs
tilta
zāles
Salīdz
propor
##iņos
dump
Group
Čehijā
atbilstoši
pamatskola
veģ
##iskajam
Toronto
##TP
##isas
##ošos
##pret
##vadu
Džo
abām
vain
##ķer
##abil
acis
nepil
teoriju
Austroun
impēriju
sastāvēja
69
mij
sens
vecumu
sistemāt
versijas
sadarbības
##bar
Rih
##tuves
##urnal
Gand
gala
skul
bater
izraudz
tagadējās
lielākajiem
##bi
Sand
īpašu
fotogrāf
##tār
dubul
nesas
retāk
daudzus
metropol
laikraksta
##alis
lomā
brigād
kritiz
128
Fre
Jāz
grī
##ester
lapām
izslud
tikusi
negatīv
atmosfēras
federācijas
Kalifornijas
##ģa
С
##obs
Ras
Stīv
bakt
pašn
Olymp
Sezon
Lielās
kopīgi
prāves
savvaļā
ķīniešu
turpinās
Neskatoties
##nāc
pļ
##inus
tādā
balss
brīvā
##istiskā
piespie
##efic
##iete
##iālo
lož
Brit
##āšanai
ceturt
vadību
Neatkar
jaunais
pēdējās
Ēģiptes
Vēstures
diplomāt
Sibīrijas
##dem
##uts
Vair
simp
kalpo
naudu
Anders
lidojums
priekšme
ag
Rep
Grob
krita
London
organizēja
asociācijas
celtniecības
##bēr
Ped
Ielā
dēlu
##īnijas
paātr
rotas
Vispār
filmām
sapulc
Džordžs
lidojumu
##eku
140
##īzijā
Limb
domē
boļšev
biznesa
##teņu
dzi
Vīnes
Jēkabs
Sacens
pilots
veidiem
127
Mēr
Mars
krim
vietējā
Zvaigzne
samazinās
basketbolists
Boh
lēc
taust
Priekš
virsmu
teorija
##aki
brāļi
izvēr
šķirnes
attiecību
God
##īdiem
folkl
astero
nespēj
Labākais
maģistra
rezultāts
temperatūru
administratīvo
##čus
Dec
##hards
##ovākijā
atkāpās
rūpnīca
Vecpiebal
kompozīcijā
##any
##ēla
86
##eļus
##urus
Mill
dažu
nesk
citur
redzams
pētniecības
LSD
čeh
##tājas
Māksl
Tagad
spēka
lielās
sociālo
96
##entas
deta
plānots
##ire
Eg
Ep
149
Ann
Nort
zonā
sīkāk
zonas
četrām
ietekas
laikiem
##oloģiskās
##āvi
eva
##dienā
79
##avār
Zig
meži
Ezera
remon
Bizant
birojs
gubern
sakāva
paralēli
institūts
Li
Abi
Bas
Esp
Jar
auk
gaid
lejup
sprin
asfalta
##gus
##plē
Ass
1897
Prei
maza
Toties
Sw
malā
trau
Triju
attēlo
cīnījās
gadsimtam
##OS
##ame
##dzi
##ārņ
##anka
1500
Luks
nodev
sakārt
provincē
##ēmu
84
##gress
jāat
Četr
Priek
vēlas
pārskat
uzbrucēja
82
Vo
Del
cīņās
degun
Koknes
izmain
laikam
spēkus
slepkav
valodām
gadsimtu
norisinās
publicēts
Konstantin
##gol
doc
##ušais
segm
sint
atskaņ
pārņem
Karjeras
galvaspilsētas
##ķe
88
##ikul
dažus
karogs
meklēj
Premjer
##onim
Jul
from
##ombard
pieci
pretr
##izāciju
Kijevas
Mārtiņš
faktiski
##ER
##IM
Arn
Fel
vij
##astes
##istus
Bost
Brun
Popul
gaisā
mikro
ģenerālis
##īne
##šņi
Ri
dažām
##kopības
August
##ket
##lijs
Kab
John
savās
Pārdauga
izplatīta
##ome
##īzi
sir
iztek
neaiz
mainās
romānu
stāsta
pieskai
sekojoš
lielkņaz
matemāti
noteikta
skaņdarb
Od
lā
Phy
gari
##rakstā
##oloģiski
Dobeles
krustojuma
galvaspilsētā
##ģi
pieļ
apsar
stāsts
Stenlija
karadarb
programm
uzņēmumā
spēlētāji
universitāte
##pal
##vaļ
##pīte
ķēd
Gren
spēks
magnēt
hercogs
planētas
apdzīvotā
skolotājs
notikumiem
##tēm
Cr
dru
obs
##āties
Metr
manev
ārsts
Dziesma
evaņģēl
datubāze
Austrumos
##osu
##tīst
Hab
Sid
cits
firm
nervu
datoru
mācītājs
noteikts
##ollo
##ālie
Sap
patv
##assvēt
##vēstur
posmu
uzvara
funkciju
mijiedarb
pārsniedz
standarta
##CP
Ug
##arts
##krit
Kle
Moz
1896
Frei
seno
##audzis
oksid
tiesa
Mammal
lielus
pievērsās
pilskalns
politiskā
karalistes
vācbaltiešu
##unic
bērn
apdroš
apstei
komandām
pārstrād
##iedzīvotāj
skatītāju
Mc
Apr
Inf
Rok
##onijā
##īsies
fiks
##grieķu
##inātās
nolūk
apģērb
Gustavs
oglekļa
valdībā
pozīcijas
##ile
##Base
##inae
##iras
##oper
##tece
Romā
mand
mier
model
paceļ
##eficien
īpašumu
paaudzes
populārs
##jetn
##ālus
Inc
Las
jān
##ošiem
##entālā
##šteins
izcīņā
simbolu
elementi
otras
tajās
kanāla
būtiski
pasauli
tradīcijas
##ume
##stas
dej
mirst
trauk
bīskapu
miljard
Gulbenes
stadions
Savienībā
78
##onal
129
viņus
bijušas
reģions
uzplauk
##arg
##ānam
Pam
Frank
līdzi
medaļ
nospēl
raksts
simbols
##log
##andi
##daļfin
akmeņ
biedri
Rakstos
ķermeni
##ahs
##edž
##giem
pop
Čer
Baltic
atpūtas
ugunsgr
Siguldas
bibliotēkas
##jū
##apt
Ig
avots
noslēp
relatīvi
##enb
##evu
##āte
Eksp
atris
līdzīgas
Napoleona
Ziemassvēt
##aida
##desmi
##polit
##ojušās
##otajām
##ņēmums
##tēšanas
iestud
līderi
nedēļu
klimats
sastāva
National
mājaslap
skaitīšanas
##ņai
89
##arch
##ējai
him
neļ
##īgākā
Bald
aste
##atīvas
##iedumu
atņem
Krista
Ziemas
eksplu
ilggad
vēdera
Īrijas
efektīv
eksempl
piešķīr
terminu
filozofijas
##āļa
abiem
balts
atsauc
elements
##obr
1899
portr
Organiz
nedrīkst
ražošanu
##si
##šus
Do
##erus
Dek
Des
Fiz
rak
##ainis
trak
with
##ēšanos
asist
kanāls
##īņas
##ūrai
Rūj
Son
Zar
Kand
koal
##elektr
šajās
metode
piespr
klasific
##uļ
##akar
komēdija
spiediena
valdnieku
virsnieks
pārvietojas
##aļi
92
##auss
mīk
roka
##nieces
piecu
saslim
ph
##trīc
Lok
baz
dif
Kurs
bijušo
ligzdu
četrus
Journal
Vasaras
piesārņ
konservator
saglabājusies
##ahu
US
##olfa
Okt
vik
dabā
groz
lietas
nomaļus
uzņemts
Čehoslovākijas
XX
##lera
bun
con
##kaņas
##stāvu
atlai
pulku
iesvēt
nodeva
izvairī
kontroles
##kur
##ove
Bri
1895
ezerā
parkā
pseid
smagi
mīlest
pulkst
Viktors
valstij
##ty
Hy
uzz
Karl
kron
Viņam
paņēm
attēlu
Sad
ten
List
grav
Labākā
Pēters
esošās
raksta
labākajiem
##lic
ēt
##ušie
Sem
##ālija
Iepr
Dzint
nevēl
areāls
pamats
##ināšanos
koeficien
aizstāvēja
lielākajām
vienošanās
83
##idas
##ubil
Ein
##yclop
LPSR
Svēt
bāze
iedz
klav
māko
saukt
saņēmusi
##ante
##emts
##meņu
Vor
Kaukāz
paaugstināts
##alur
##iedu
bār
ritu
mašīn
personu
darbojies
##epa
Iec
Tan
atd
Barb
Džer
spēju
##ušā
Mo
sār
##īnija
##alitāti
muzejā
kapitāl
metriem
maršrutā
pārējiem
uzbūvēja
Visbiežāk
inženieris
priekšnieks
pareizticīgo
saglabājušās
##AN
##eša
##osipēd
Johan
karogu
septiņas
čempiones
nodrošinātu
Universitāte
Apm
End
dig
soda
brīvi
ierēd
posma
dienestā
zināšanas
##žers
Dep
##muiža
##ūrijas
Mājas
vārtu
pārnes
pulkved
saldūdens
*
##ecu
Ba
ul
##chen
700
Rus
peļ
teles
##tiesību
##ogrāfija
valdnieks
ceremonijā
vojevodistē
Pod
##ītajā
Riga
##valdes
ilgums
militārā
rezultātus
##vēc
Aļ
##gale
##otni
Sub
fas
cikl
##iešana
Savas
kaval
bijusī
karavīri
mazuļiem
panākumu
attīstībā
lielmeistars
riteņbraukšanas
##ott
##ecas
##tiec
##tekus
Komp
tāds
super
mūzika
saistītas
alg
Ļoti
beigu
##ikāciju
izpost
nabadz
pirmos
nozares
konfeder
nozīmīga
Bulgārijas
##ов
61
Bei
augi
fizi
Dzelzs
Juglas
Jēkaba
Sākumā
izpētes
rakstos
ārlietu
inženier
notikumu
zinātnisko
##own
##uļa
kora
Džeks
Pamat
viela
fakultāti
jaunākais
Ke
sevī
ēras
##iniekus
##ētajiem
pāriet
sliežu
karjerā
Heinrihs
kosmisko
komplekss
darbinieki
##igh
ass
##astrukt
##gorodas
Filips
korpusa
##ifikācija
Gen
Bars
osta
##laikos
##opoles
##ēdijas
Stamb
ekstr
Grupas
jaunus
koresp
tobrīd
akcijas
pārdots
vērtība
diennakts
lidmašīnas
Daugavgrīvas
kvalificējās
##efa
##vel
##grāf
##imal
Hār
Pus
Indr
kred
tekstu
##urnament
tramvaju
dižkuniga
##bit
##sen
Om
##vara
Gaz
Balk
Karls
lauka
muižā
##pilsētas
iestāde
atkarīgs
Horvātijas
##tēs
##zemi
##ātam
##iedza
Daļa
##dienās
ciltis
dzimuši
##hr
##ogn
##glāb
##oņas
Hip
1890
Gold
Pols
gran
##izglīt
pēcnāc
Ričards
nominēts
##aub
##nešu
Lam
Res
Ķer
Raim
##otajās
Salac
telpu
Izveid
modeli
tradīc
apriņķi
vecākiem
degvielas
vietnieks
parlaments
##ionu
Kāp
Arāb
taur
tēvu
##ēmijas
fragm
vienībā
kolektīv
sabiedrība
struktūras
trolejbusu
##ūž
##izveid
bakal
līcis
sarīk
sadzīv
kandidēja
##ON
##ade
##ejai
##gans
##unas
134
gār
##aiziv
Zemi
stund
##mūzikas
stundu
Kurzemē
neviens
Karalistē
nosaukumi
##iči
##iksme
Piek
tālu
##isijas
tīkls
Ēriks
vecākā
lielākie
sociālās
##ētājsistēm
braucienā
musulmaņu
virsnieku
apzīmējums
##cs
##ezu
##ūts
Ec
Tos
##īrijā
1898
ziņu
Venēc
karog
kārta
##valstīm
pavada
##alitātes
Luksemb
Čikāgas
stāvoklis
##net
##tru
##knāb
##ojami
nepat
telpā
Tomass
augstas
sacīkstēs
dalībniekiem
brāl
evaku
aizvada
izteikti
##mah
##amil
##ated
Nam
tru
bank
Klubs
portu
dzejas
redzēt
atjaunot
savienību
##deg
Vu
sāp
intr
iemāc
paraz
atdala
balstās
identific
##tif
##ulf
Tu
##erta
##ēmas
fos
kaļ
ķau
Princ
Atjaun
pārējo
spējas
Kristof
radniec
šaurums
līdzekļiem
##ēku
Plan
##ektoru
intel
pusēm
##īņ
×
##ger
##etona
aprūp
atslē
skulpt
veģetā
Valters
neizšķir
dzīvnieks
apstiprināts
##eces
Dok
##ozefs
robežās
Iepriekš
atkarīga
referend
Vladimirs
pusfinālā
sabiedrību
##rof
##ales
##eiks
Zob
prok
advok
griez
seksu
tiltu
Kontin
atguva
ierīces
izcīņas
##ct
##astā
##tāru
Bruņ
klīn
oran
slīp
tropu
Voldem
pakāpi
rietum
Šveicē
Aizputes
vienībās
apvienojās
Pateicoties
jautājumiem
##dž
Vē
vi
##meņi
Burt
past
Women
Irānas
Viktor
gaitas
specif
locekli
spēlējot
##uļi
##īls
##dārz
##enca
Fac
Sah
mūž
kolēģ
vidējo
Futbola
vairums
spēlētājiem
##oth
##grām
##punk
##skābi
##īgumu
Ivan
Autoc
Maķed
melns
Sīrijas
progres
pārējie
populācija
##kat
Hum
nej
1885
gūst
kravu
Centra
frontē
##darbības
Antarkt
ligzdas
Daugavpilī
infrastrukt
ista
pulkvež
funkcion
maršrutu
individuālajā
##eņģ
Lak
##males
Bosn
klajā
apkalpo
priekšu
uzskats
pārstāvējis
##eno
tēls
##vienības
augustam
maršruta
vilcienu
atsevišķas
sit
##joties
piena
Slokas
seriāla
uzbrukums
velosipēd
##ovi
##aņas
Jup
Liet
Siev
plānu
tiktu
sekretārs
rekonstruk
Apvienotajā
uzskaitījums
##hi
##tāju
Luk
ķir
foto
karb
namu
United
kaptei
Eduards
Meksikas
Saksijas
sapulces
##ādz
81
da
##iels
##ūrām
##ākajā
Šaha
ietekmēja
uzņēmumam
apstākļiem
GP
Bil
ukr
galu
līvu
Albums
opozīc
zemestrīc
sabiedriskā
93
##akti
##jera
##lašu
##neši
154
Anti
Džen
krūt
Indon
fonda
ierad
plata
uzrād
Pēdējā
singlu
vientu
##emokrātu
Lielvār
vienīgo
profesoru
piešķīrusi
##raža
tuk
##elniem
##ūkstes
apspr
katras
apgaism
iespējam
neatkarīgi
##sis
ex
glu
##upīte
Turk
dāņu
Viest
paman
Pašreiz
stafetē
ievēlēta
##UCN
Tec
Ferd
uzstā
toties
vācieši
latviski
smadzeņu
atšķirības
aizsardzību
##egu
##ilk
en
DNS
ekr
##iežot
dzel
drāma
ņemot
spēcīgi
ārzemju
vietējās
##oft
##pēt
Gut
ogļ
Raiņa
kalni
Madrid
Maksim
sprieg
Augstākā
kolonijas
piedzimst
Tournament
jaunizveid
##antes
1892
Paula
##atoriem
invest
rūpniec
Encyclop
komiteja
līdzekļu
lielākajos
sastāvdaļa
##ucks
kaf
diskus
Jaunais
strauts
saistībā
platformas
##āš
>
Im
##ausa
##ūkas
emoc
relj
uzvarot
Krāslavas
Ziemeļāfr
pārdēvēta
##atnē
Als
##itātē
Vels
smar
ieejas
orient
skaitļu
vīrieši
ģeometr
kvalitātes
AP
Ge
Ram
auga
līcī
sien
##inskis
##tāciju
Ulmaņa
nelielā
Varšavas
mēnešiem
##rās
##tle
##enss
##grāv
##ieša
##likt
##mani
##evičs
damb
plud
aukst
pulkā
enerģiju
Pleskavas
##ст
Ib
We
Len
car
krūšu
meitu
atzīst
panākt
preces
parametr
bakalaura
fantastikas
Vecpiebalgas
operētājsistēm
##adi
##īno
##ītus
Comm
##estaur
ātrāk
nepiet
augsnes
vārtiem
kompāniju
vidusdaļā
Ern
Gor
##audis
##ējošo
1893
##mugurkaul
rūpnīcas
veidoties
absolvējis
##oļi
air
īsu
##board
sāls
Diena
jauni
jubil
Ferdin
iecien
orbītas
sākumam
apstākļi
saglabāt
pētījumus
sengrieķu
##ikam
##otip
##ovam
Tat
##ošajā
ražo
roku
slov
Projek
Liepāja
Papildus
konkursa
nozīmīgu
simbolizē
struktūra
##fur
##ativ
##mits
##āžas
Atm
Dim
Hot
garn
pied
##spēles
Maurī
atvaļ
galam
plašs
##enesans
##aņ
Nī
##aidu
Dir
gat
NATO
ilgu
solo
Katru
##inātāju
romāns
jaunāko
attēlots
turpinājums
##pel
##neša
Bir
fen
Turn
Artur
spīti
sērija
dzīvības
augstākās
celtniecība
Mi
##tons
##malas
Skuj
Spār
plau
sākt
topā
esošā
radik
islāma
mazāka
kareivju
##ito
##īzeļ
Sek
kup
vēj
##iālās
1880
alus
Žurn
##toriem
brīdi
Nāciju
izmēra
kabine
veicot
īpatņi
Branden
čempioniem
##ex
Dre
miz
Dievs
tajos
Izmant
darbam
glezna
klubos
zviedr
Lielāko
Ukrainā
Administr
veicināja
palīdzības
samazinājās
##ric
Šv
##stru
145
Bīb
##ārais
sānu
alkoh
graud
līdzs
Valstu
autoceļiem
izveidotas
žurnālists
PS
dur
##atūru
##aujot
##ājumus
Georgs
sākumu
novados
pastāvēt
zo
##ctic
##denc
Dun
Sei
nam
sel
##ostud
Mazā
Senās
sabrukuma
raksturīgi
universitāti
##orā
gen
gūt
cīņa
pacēl
uzcel
daudzām
klātbūt
veidoti
apraksta
situāciju
premjerministrs
Du
##ālijas
fizikas
sezonās
sekundes
##onia
##tāls
##aidas
##ition
##komit
biot
mūžu
pres
##šteina
liber
jūlijam
lielais
Skandinā
tehnikas
##BL
##kub
##ozas
##vert
prez
sver
##istānā
Darba
Nozīm
Pīters
Gandrīz
pieņemt
Grieķijā
divīzijā
direktoru
līdzekļus
priekšroc
iepriekšējo
##redz
##gorit
1889
Port
Virz
prakt
tiesu
attiek
garīdz
izaugs
likumi
Augusta
karavīr
pārejas
resursu
vēlreiz
polārstac
struktūru
apvienojot
sasniegums
Cy
##ling
##ulti
Jun
Tal
ved
##krauk
##āņiem
Vjetn
##fu
##pēd
sī
##īdas
Eli
lim
##atiem
##ticam
Dunda
##istisko
baltas
metodi
Ernests
instruk
izlaida
lidlauk
##iedes
Piec
čehu
plast
grants
līdzās
nopirk
Losandželosas
##esu
##que
lam
traģ
kauss
Katoļu
Staļina
piestipr
Dienvidamerikas
##icīl
##vers
Dol
Pot
cir
boks
cenu
sasp
Teātr
kanād
spons
dalību
filiāl
trešās
Daugava
Galvenā
Literat
apvienoja
partizānu
##KA
##elli
##etus
##īnes
Nei
##ērijā
1870
Vana
maiz
##ēšanām
cilvēc
uzņēmumiem
##okā
##ste
##ermā
153
gul
##berts
##kavas
Jupit
līdzīgu
komunistu
teritoriālās
##viegl
Berg
gald
mēra
##ošajām
vitam
Rezultā
izveido
kvadrāt
speciāli
##āmi
##aksas
##atīva
Helsin
grāvis
olbalt
pirmajām
sadarbību
vajadzēja
Izglītības
laikrakstā
Pārstāvējis
##ēģu
Dru
##organ
IUCN
autoru
kanālā
nodedz
Jelgava
iedalās
izvēlas
provinci
Salaspils
uzstādīja
##ago
##frī
##atūra
##centr
##vieta
##ējošā
dvēs
Natur
iesāk
Krišjā
teorēt
atmiņas
dzinēju
kultūra
Aizkrauk
krimināl
turpināt
observator
GM
##ovskas
izmai
##inājies
Edgars
iedves
kanālu
nozieg
izstājās
sportists
##bola
##ekul
Ievēr
svara
Bērziņš
Company
ietekmes
dzelzceļu
institūtu
izgatavoja
izmantošanu
bezmugurkaul
Maj
##īgums
Post
evol
##amatur
savāk
zīmes
stikla
##latvijas
Abrenes
##omām
##ostā
##ārus
132
##ildes
kapi
apvidū
lēmums
sagrāb
Studēja
atvērta
sacīkšu
Medicīnas
elektronu
slimnīcas
mitoloģijā
Ok
135
Lil
Rap
##būves
asti
norv
koris
palīg
padomi
##UR
lo
##ānus
##otājam
bruņu
kuršu
reize
troņa
Termin
okeānu
papīra
izcēlās
attiecas
uzbūvēta
##ows
EP
##alst
##aver
##ises
##nesa
ikgad
Skolas
režīma
slānis
Mihails
identitā
komisija
noslēgts
piesaist
virziena
ūdenskrātu
veidojusies
programmatūras
##ya
##īle
Cal
Soc
Tab
art
Konf
pārkl
gaitās
saites
Kalniņš
pieejams
##oki
##izēt
grie
namā
##ojamas
Vārds
uzglab
ticības
versiju
zvaigzne
izpildīja
nominācijā
saglabājies
##antā
aer
grauz
##īgākais
cietokš
platums
ģerbonis
apvienība
ekonomisko
##ley
##nik
Dem
Fol
##entes
##skalo
Līga
Mold
banka
kabin
armēņu
bruņur
kongresā
noteikumi
atjaunošanu
ekv
augl
piev
balti
dārzs
plaša
nekust
nevien
noskaņ
Ķermeņa
##itucionāl
ilgstoši
nepiedal
CS
##auna
Hon
Rot
Staņ
Izdev
štāba
##valstis
Raimon
bumbas
knābis
ložmet
rindām
kapsēta
molekul
Vēstnesis
ekspluatā
mākslinieka
##ēzi
##icus
Int
##tūras
Jeru
Sport
Jaunās
četrās
Ārlietu
uzvarētājs
##do
71
##ectr
##ster
##ukal
##cieni
Leip
gvar
vecā
##astrof
##gaidām
laukā
parad
Lielbritānija
91
##opus
Nom
##lēdza
biatl
sacen
virtu
Harijs
padara
pamest
punktā
ražoja
Turpmāk
termins
zaudējis
Skandināv
kristiešu
##ime
##ojs
##āžu
##īļu
##kurs
138
hier
mačā
Varakļ
Līdzīgi
ceturto
mērķiem
studijā
Mācījies
Smiltenes
izplatīts
##īši
##ķim
##aust
##ikss
##ints
Hru
Ier
Rol
purvs
mākslu
preses
vakarā
laukumu
pildīja
lidojuma
stiepjas
izrādījās
vēlēšanām
##mb
##ako
##ūdes
šāds
Kazim
pretī
turpm
diametrs
Billboard
ministrija
vienošanos
##manu
mie
5000
##sburgu
pēdas
##inātājs
##valific
atsauk
audzēk
Lietuvu
Pagasta
Zemnieku
enerģija
vārtsargs
federācija
saglabājušies
koncentrācijas
##EC
##mus
Ox
lē
##aila
AHL
asi
1866
Char
Kras
hlor
prom
Willi
Ģener
ungāru
Ādolfs
pārstei
atpazīst
ceturtais
pieprasīja
tradicionāli
##izēja
Purv
aspek
normu
tauts
nemain
pakāpe
krājums
nometnē
pieciem
pārvalda
sacīkstes
elementiem
ģimnāzijas
##ull
94
##ekļi
##encē
tēlu
Bavār
dīzeļ
krastiem
balstoties
vairošanās
vieglatlēt
nacionālajā
rezultatīvākais
##anču
##ekss
##tics
##tālā
Diž
Fon
Nel
##ījumos
David
Domin
spārni
tituls
ceturtā
iestāžu
nākamās
restaur
apglabāts
dibinātājiem
##enim
##ipul
Nem
alu
Skrun
Nikolaja
neapmier
Valdemāra
dalīšanas
locekļiem
##ET
##žot
##zeme
abs
1860
trop
Šāda
atcel
sējums
vicepr
mainīja
nozīmīgs
##ekļ
##kam
land
baltā
sasauk
sportā
##īgākajiem
vārdnīca
apvērsuma
ievērojamu
##urg
##enei
Lad
STS
spož
##antiem
##šoties
Muham
Sporta
Vidzemē
arheoloģ
vienībām
vislabāk
##eif
##way
1888
abās
Music
tanku
trimdā
pagātnē
piekrit
##desmitajos
dinastija
##fas
##indr
Ket
1894
Serv
aizr
prof
serb
dzird
nodēv
parku
sākta
zivīm
gaismu
paveid
uzņēma
draudze
Aleksand
rakstura
Aizsardzības
##SAT
##ido
##ĢIA
119
Lim
men
Abas
gūstā
Edvards
iekšējo
pamatlic
Dienvidaustr
##emi
sē
##ardo
##avēl
147
##iplīn
Budap
tūres
iemesls
teātris
izmaksas
Fe
Pad
īsi
burt
pāra
zāļu
aplūk
klasē
pavēli
##veidīgie
apskalo
uzraudz
##dzniecības
##ür
##ītām
##omagn
Sant
vidi
Māris
kakla
stilu
vairo
apmier
augšējā
sieviete
sportistu
##akās
1864
aizd
##istokr
##sliežu
vingr
virsm
Preiļu
Valent
izdala
medību
algorit
jautājumu
##ital
##veda
Isl
Oks
hom
##aisti
Rock
nesa
Šarl
cīkst
patri
Otrais
mestrs
pārcēla
slimība
veikals
kapteiņa
korespon
oktobrim
slimnīcā
producents
izveidošanu
pretendentu
##VD
##out
##ailu
Tok
##odien
##ojošo
reit
##enbergs
##ītajiem
mūziķis
Grobiņas
Eirāzijas
atjaunots
priekšmet
Encyclopedia
līb
mūr
māti
nama
zāle
##ekļiem
https
plāns
ražot
Tallinā
režisore
veidošanās
##šā
lū
##metr
139
##amies
Life
estr
putn
Anatol
Bulgār
dienēja
sakāves
aicināja
ārvalstu
##apr
##gle
##ežis
Ford
Paral
Mongol
Sigism
OlimpBase
vojevodistes
##liem
šāv
sekr
krievi
pacien
vienai
##ifikāciju
aģentūras
zinātnieku
##AL
##šās
ABC
Strad
kalna
nojauk
atstājot
pozīciju
provincēm
skolotāja
arhibīskaps
kultūrvēstur
profesionālā
##egov
##ures
Dor
Luc
Sud
rat
##ētums
Vils
izzu
oriģināl
organismu
Nīderlandē
dibinātājs
##let
##galā
##mana
Eti
##skolā
Glez
Visp
sašķ
bērns
josla
vārdus
special
lielākajā
imperatoru
laikraksts
Azerbaidžānas
##ač
##amie
##asas
elp
jūd
gaļas
temat
mainīts
augstumu
piekrasti
##ilv
##not
##sme
##ilda
##vietu
1861
Mind
Taur
kant
Sicīl
sintē
pašnāv
iesnieg
lielums
Republiku
aktivitātes
##kun
##ūrī
Us
Zo
##kait
##slid
##vilc
Hok
Nod
Sir
##ariem
##ektīv
Pant
galer
gūstot
##ostacion
nodokļu
vienādi
notikumi
spārniem
palielinās
##tēja
Nig
guļ
garām
Lietuva
gleznas
pazīmes
dramatur
izdevies
politikā
disciplīn
aprakstīja
##ērš
##oņus
Pac
1891
garā
##karībā
suver
izliek
kartes
martam
pretrun
novērota
pieejami
Lielākais
Savienoto
attīstīta
korporācijas
##ior
##odē
##čos
blo
kri
izst
##vietas
Bundes
Micros
saknes
centrāl
##rūp
##inda
##otān
##vain
##ūlīt
Rek
##stūra
Ikšķ
Skul
Tieši
brāli
presti
smilšu
apdzīvoto
atgriezies
attīstībai
ienaidnieka
##bruņ
##stes
Māl
Disc
Ekstr
osmaņu
##materiāl
astoņas
pieejama
pierobež
Brazīlijā
##edo
##line
137
Rel
kub
##burga
##forma
Play
skraj
uzvār
šķiet
atļāva
panāca
dziļumā
pēckara
žurnālā
pārdēvēts
dziedātājs
pakalpojumus
administratīvā
##auri
Alt
zib
##puses
Artūrs
ieskai
latgal
Aptuveni
Kokneses
Lielupes
##āne
Šl
##koku
148
##ograf
Jāni
meta
kārtu
melnā
Turcijā
aristokr
vadītāji
ūdeņraža
arhitekta
centrālās
iestājies
materiāli
apgabaliem
##EF
##ājiem
1878
City
dēli
Poliju
bijušā
slavas
šoreiz
Skotijas
pārbaudes
virspavēl
##ozā
##āļi
115
Lar
kot
nob
fonds
sasta
ārējā
dēvēja
Provinc
aktieri
vadījis
žurnāls
Uzņēmums
cietoksni
divdesmit
krustojas
noteiktas
Piedalījās
septembrim
savienojumu
#
##ube
##zin
##zir
##burg
##ivas
146
rādi
step
izlūk
ebreji
olbaltum
Zviedriju
galvenajā
tiesnesis
##vir
SA
Sn
##ināms
2020
Amst
Jauno
vidēj
Lāčplē
kokiem
Alfrēds
Limbažu
ciemats
rakstīt
prēmijas
pārstāvot
Profesionāļa
##čas
##mitr
Mah
got
jūt
##uktur
nark
##lendas
Apple
melna
nesta
Martin
kapitu
austrum
izveidi
lidojumā
Bizantijas
Ļeņingradas
atbrīvošanas
##evā
bo
Afr
Niks
Trad
kāju
māsa
avotu
krustu
mainīt
repres
centrālo
pirmajās
##ogā
##gana
##īgai
Ķem
Land
Svar
##ītājus
mīkst
##inājusi
augšup
Teodors
manipul
Atsevišķ
Vairākas
aizsargā
dzimtenē
operāciju
vēsturisko
noteikumiem
##DS
Sām
VDR
vāk
Otra
Skol
Wind
dikt
nogr
Attīst
albumā
Andreja
armijai
konsult
labākās
rakstus
spalvas
ražotājs
noslēguma
uzstādīts
neskatoties
lielmeistara
##ng
##rus
##egul
##odot
136
rāp
##dzied
##tific
Jura
fosil
karst
kursu
lielos
romāna
starpz
ķieģeļu
Čempionu
kanādiešu
##del
##iša
##gadu
bin
reg
##īniem
Vank
morf
zāli
Galil
galma
savos
būvēta
noties
prasības
ģimnāziju
gleznotājs
izplatījās
izmantošana
departamenta
reorganizēja
fe
Šr
##arkt
dot
Karp
Team
ugun
Ledus
Olympi
aktīvs
nobals
rindas
veicina
Lāčplēša
Politehn
tūkstošus
pašvaldība
##agu
Sec
Klai
##omotīv
##īgajām
dzemd
prūšu
##tācijas
Apollo
Christ
Irākas
draugs
savain
Sergejs
periodu
Sākoties
izraisīt
uzņēmējs
Virslīgas
Bj
LE
##enbr
BBC
Cer
##spalv
##ārtas
Gran
uzsp
Jeruz
##ofestiv
novērots
lidmašīnu
let
##iform
##ologi
veco
Telev
radot
tikās
##ušajiem
augsti
ielejas
karalim
vienāds
medicīnā
nodarboties
skel
Andre
Ezerā
North
Eiropu
atkrit
slēgta
vecāko
ieviest
Krišjāņa
Norvēģijā
katastrof
##lava
Ceļ
Ves
arg
izej
tiešā
torņa
vārti
pieņēm
Zilupes
cietumā
##enesanses
iepazinās
Lip
##aksts
##valds
Saim
iegr
polim
##vienība
Akadēm
alians
trijās
nolemts
kopienas
Pirmoreiz
izveidoti
jautājumos
##cin
##adem
##ādēs
zud
Ķek
Grīn
Poļu
Stad
Džona
banku
sēnes
siltum
Budapeš
precīzi
Armēnijas
pastāvīgi
novērojumu
pieminekļi
sarakstīja
##āmā
##ceļu
##ejam
##runā
laps
godal
Maltas
Valdis
celtne
karoga
portugā
robežām
Rezultātā
basketbolā
migrācijas
##rit
Īs
Hāb
1886
Sast
dinam
senās
dominē
garniz
zināmi
Latgalē
spēcīgs
Stacijas
autoceļi
##fīl
Lū
##aišu
Grī
Sum
##ijiem
##izēta
Ferr
Wild
soci
zīmi
māsas
nesen
katrai
konkurss
atbrīvoja
##co
##bul
##eca
112
Lav
repr
reizē
Dailes
ainavu
mēnesī
redzam
ūdeņos
##iežoties
aparātu
klimata
pietekas
pārspēja
stāvokļa
valdībai
Vēlēšanās
automašīnu
priekšmetu
##ambl
##stal
Bob
šķē
##bergu
##filma
1887
Hand
##icisma
Etiop
Bolder
maijam
raksti
Apmēram
medicīn
biedrību
ražošanā
satiksme
brīvprātīgo
instrumentu
##ра
##īkl
##apaļ
##eita
Rūp
apd
den
1881
mazo
Liver
brāļu
iegūta
persona
plūsmas
Austrijā
daudzuma
absolvēja
apgabalos
##alā
##virz
Bad
Cam
Lis
Mos
pēk
Neil
Past
Kalnu
kokos
sejas
antrop
autore
atrastas
samazināt
##ff
##je
##pos
##ņep
Āb
##ning
vab
šel
##kalne
atvēra
galakt
kareivji
##alizācijas
valdnieka
kinofestiv
##idi
##cess
142
Mit
##ologu
arod
atšķ
nepr
Arābu
saraž
maiņas
sākums
ieguves
ieņēmis
finišēja
Microsoft
vadošajiem
##ifs
##ozu
##illa
Kaļ
Raj
Kons
aizbē
keram
neies
Oxford
dramat
nedēļā
stāstu
veikts
grādiem
pretēji
mācījies
pilnveid
decembrim
olimpiādē
##mē
##pir
##ēka
SM
##iļas
##īras
##īrās
nec
sku
##ezera
##iskai
##stitu
##ājams
mežā
zīme
balto
datora
pārcel
bombard
Atkarībā
Olimpiskās
risinājums
ekonomiskās
Premjerlīgas
##pēj
##rah
##ņik
##ešas
##mann
##vigs
107
jāv
vol
insp
latu
suņu
##entālo
mutes
simpt
teror
##omagnēt
nosauc
jebkurā
jūnijam
kārtību
oficiālā
viceprezid
##yr
##dan
##aine
##dzin
##ival
##onio
##ēnās
118
But
##arbūt
##ulaik
Kongo
plats
runāj
Vankūv
Mātītes
apgalvo
jebkuru
Frīdriha
izlaists
Stokholmā
vērtīgāko
sabiedrisko
##gt
##een
Pul
Tun
Zeme
cilšu
plkst
patvēr
atviegl
norobež
paralēl
centrālā
sistemat
studējis
iekļaujot
Federācijas
202
iesk
stie
neleg
##inājuši
nākamā
lieluma
dievkalp
noteiktā
virsotne
lietotāju
raksturīgas
##tim
102
##oviča
Bank
Kron
News
Tērv
Public
saņemt
autoriem
Novgorodas
izveidojas
##kās
##šos
##odis
Gad
Ins
Miķ
likt
lēni
Indri
Palest
mākslā
tādiem
Stīvens
ikdienas
intereses
pievienota
zaudējumus
##nai
##par
leg
##eriku
##ische
nosl
##opagan
Deuts
moduļa
virkne
okupēja
signālu
Vilhelma
materiāla
Si
az
##īdus
Seb
Sur
VII
##ances
##izēts
##ograph
izdom
lugas
piekļ
garant
māksla
pārvar
sajauk
##eliģijas
dzimtai
mazuļus
rūpējas
##ifikācijā
Piltenes
kontinenta
pārvaldīja
vēsturnieks
##fran
##pres
moš
##adelf
##ājumi
1871
Citi
mājā
Techn
leitn
nejau
Sastop
ledāja
sintez
aparāta
koordin
monētas
pedagoģ
Baldones
kosmiskā
uzrakstīja
##jut
Da
##ridz
##īnām
143
akc
##tions
Bris
Rost
Salu
Canad
Super
katal
patīk
Komanda
asociācija
Ziemassvētku
##cu
##ho
##org
##āze
##ēze
OS
##auru
##enču
##gari
##ikām
##tīts
jām
epid
Hrušč
Revol
slāvu
zirgi
Sakarā
atcēla
kāpuri
orgānu
vielām
dziļums
pussalā
izmaiņām
uzdevumus
##ķos
##aram
Bah
Ļub
##eicis
##mātes
Holiv
Iztek
satura
stājās
Teritor
atklātā
uzņēmēj
latvieši
piekrita
Ventspilī
problēmām
augstākajā
izstrādāta
It
##atos
##jans
##ogle
acs
stai
vāji
Georg
Liela
atomu
avoti
fondu
septī
īpaša
sēklām
daudzos
padzīti
Filadelf
Ilūkstes
iepazīst
Elizabete
Ekonomikas
sarakstījis
##aužu
103
Vie
acu
1876
##ētajām
##alitāte
mēnesi
piecus
Petrogr
misijas
zvaigzn
motīviem
noraidīja
izraudzījās
transportlīdz
##udu
##chaf
Hom
ren
##tajam
1873
##evskis
##otājus
franc
sindr
medaļa
nemier
tabulā
pieslēg
izpaužas
viedokļa
iesniedza
objektiem
republiku
##NA
##edr
##ney
##oju
AD
##emas
mom
Ever
Prim
Russ
horm
line
eļļas
skais
skand
troni
Ādams
šķīst
Jarosl
būdams
sākusi
Amerikā
Rūdolfs
Sociāld
analīzes
politika
īpašībām
priekšpilsētā
##kol
##īza
tv
##ikās
##ores
105
Adr
Lej
vēs
Ital
Phil
Vīnē
grun
##ānijai
##pilsēta
Konrād
Viļānu
iezīmes
svarīga
ukraiņu
kabineta
personām
virzienu
ceturtdaļfin
##RA
##bs
Mao
Jers
nātr
lakst
ķirur
dialek
dubult
Oficiāl
trūkums
funkcija
jēdzienu
##ular
Cir
Tap
King
sešu
Ivans
Poloc
Ungārijā
veidotas
dokumentu
izvirzīja
šahistiem
sasniedzis
##ķīm
##okol
##ward
Les
##skata
Film
Iela
abos
durv
malu
mums
##enieku
Trešā
šelfa
##ticamāk
Karību
rīcībā
šķiedr
neviena
dzelzceļš
kontrolēja
##van
##enos
##kaņu
109
Zol
##otība
mazas
pienu
Program
brīvību
svētkos
Metropol
nozīmēja
publiski
rajoniem
##endu
##ness
Alž
maj
1812
alas
jezu
neir
diser
sēriju
Amsterd
ķīmijas
Hermanis
organizē
aizliedza
##ifr
##opi
##ever
##raga
##āzes
210
Rib
Ķīm
Patr
rīta
zirgs
Skonto
nebūtu
prefek
Itālija
bruņoto
norvēģu
videokl
Vēsturiski
pretinieku
priekšnieku
##žok
##aids
##enam
Hof
##ikuši
##inska
Birz
Peru
Prec
fakt
zelt
Žans
Kamēr
##instrum
Melnās
draugu
privil
procesa
bulvāris
ierīkota
##jl
•
Jā
Pū
##aven
##spīd
##ēzes
Lut
sūk
##skola
hrom
Marsa
Satur
Vesel
stumb
Stacija
atļauju
nelieli
reformu
centriem
Strādājis
īpašnieku
##BS
##īvo
##eātr
##osmā
farm
vīri
##oģijas
dalās
vadīt
krīzes
labvēl
discipl
kukaiņu
univers
Viesītes
prāvests
dzīvniekus
##ēnus
Nat
Žem
melni
Krusta
ātruma
Martins
Rēzekne
##kubācijas
amatpers
nosūtīts
veidošanā
bīskapijas
funkcionāl
##ор
##hal
##koda
Ing
Rac
1865
benz
kods
tādās
fronti
Daudzas
daļiņas
nevienu
Dundagas
tagadējo
noslēdzās
konferencē
##nos
Nop
leju
Ielas
Kings
natur
mēroga
Science
avotiem
pārējām
Šp
Tru
Pres
klus
laup
pēta
pļav
Prāgas
analiz
albumus
spēcīgu
vidējās
laikmetā
Iekšlietu
##ato
Fu
co
LSDSP
brīža
būvēt
cikla
Dējumā
Jāzepa
Kauņas
haiziv
ierodas
atrodami
nestabil
struktūr
braukšanas
kapitāldaļu
##nijs
Arv
ins
rob
Hart
ēkām
izdot
Electr
Latvia
piekļu
##inoteātr
Alberta
darbībā
aizsarga
zinātnieks
##itz
##ēvs
##ētai
Štr
##gades
seši
##ējumos
diagn
membr
cilindr
futbolā
varonis
Hercegov
##umbriedumu
pazīstami
pārstāvju
riteņbraucējs
##bern
##tāra
May
Viš
##ietes
izot
krēs
Agrāk
minor
##ējušies
Robert
atdeva
izlēma
tērauda
uzcelts
austriešu
intelektu
Kolumbijas
pašvaldībām
##IT
~
##odā
Die
īss
1863
1883
Stor
nedz
upur
##enieks
telpa
Lielāk
Superl
fizikā
metālu
Visliel
apstākļu
teleskop
publicējis
##jes
##mūr
##tāri
Rem
vjl
1848
Kost
daba
zeltu
Čīles
Pasaul
Skatīts
hierarh
Pēdējais
automobi
Aizkraukles
Starptautiskajā
##Sat
##iņās
117
Pop
Temp
##brauca
##ogress
Jauns
apgroz
biroja
sēklas
budžeta
jurists
pilsnov
pieminēta
##ue
##agar
Eva
dop
1882
Amaz
##erence
drīkst
numurs
saturu
virsma
platību
sarkanā
sastāda
Zviedrija
##IP
##eza
##erss
##ošām
Mīl
hid
##ēnija
##ūšanu
izmēri
kontek
modeļa
Bostonas
Komandas
attēlota
skābekļa
uzbūvēts
nepietiek
Dienvidamerikā
##ažas
##tive
Līd
fac
žir
leop
dārza
ierīc
aizstā
startē
iekšējā
mašīnas
Dibināts
uzskatīti
iedzīvotājus
enciklopēdija
##LA
##ogo
##tup
ūn
##etro
som
##itāra
Fren
Ostr
komēd
mēren
ārējo
hokejā
apdzīvoja
pseidonīm
Lielvārdes
sacensībām
mākslinieki
profesionālās
##ban
##kul
##ziv
Id
MS
##omāt
##utas
133
Rim
Vat
##ieres
##ismam
##kalnu
##nieci
Merk
Slim
kļūd
##asties
##ekmīgi
lācis
kopiju
īstajā
kritiķu
Paralēli
dienestu
padarīja
propagan
sadalīts
apriņķiem
reliģijas
republika
##mūz
##ammy
ves
##arctic
dažās
aiztur
teksta
dzimumu
seriāls
Centrālā
##yl
<
##aps
##ādo
##šot
Um
Eng
Kul
1815
1879
Ezer
Merc
Real
bāzi
ideja
iekļu
milzu
slāņa
trīsp
vecās
Tēviņi
grēdas
Henrijs
skolēnu
Kandavas
Pērnavas
atzinību
ievērojams
Konstantīns
tirdzniecību
##NK
##ius
Cit
Rož
lēz
##taisn
Asar
Simp
pund
kauju
brūnas
izglāb
Beļģijā
apdzīvo
dzinējs
karavad
kompens
komplek
siltuma
kukaiņus
Albānijas
Nacionālo
Nosaukums
attīstīties
celtniecību
apdrošināšanas
##emu
##inn
##iema
##inis
##teru
mīļ
##guvis
Pats
sēņu
melno
Netālu
ienāca
mātītei
filozofs
pasākumi
Antarktīdas
##hei
##migr
Kev
##īriju
toks
čaul
ilustr
priežu
pussar
restor
server
Gaismas
iemesla
gadījumu
simboliem
##icu
##unt
hi
##aunu
##etam
##ingā
##vins
104
Ned
gals
html
vaku
Īpaši
Jūlija
Saulkr
Oktobra
nākotnē
jēdziens
pavadoņa
tehnoloģ
atbrīvots
##iva
##anus
144
Deg
Get
Vīr
nār
##lases
1868
skuj
Dmitr
Tālāk
aizsāk
sanāks
Ēģiptē
Maskavu
pakļāva
pasaule
pavadoņu
vietējas
Apvienoto
novembrim
piedaloties
Austroungārijas
##dru
##ony
##ser
##gali
##usas
900
Gir
##istam
Katra
valde
formul
iedalīt
izcīnīt
mazākas
pretend
pretējā
divīzija
koncertu
atkāpties
augstienes
uzskaitījumā
##ārd
AM
##ines
##kāju
##laid
##okļu
##ošus
##īnam
Jev
Pro
sān
lauz
nitr
Šāds
apval
karaļ
Katram
Oskars
plašas
fiziķis
izvēlēts
februārim
nīderland
situācija
augstskolas
Čehoslovākijā
##īlē
HC
ber
##teces
Blau
Krak
Laur
##desmito
atrasti
mainījās
samazina
būvniecības
##ee
##low
##andē
Rit
Heid
Teks
mazā
Karol
Times
salik
##genskal
Grammy
aktīvu
daļiņu
raibum
Sēlijas
kalniem
Dziesmas
Frankfur
ārkārtas
ģenerāļa
apstrādes
nopostīja
reakcijas
vērtējumā
nodrošinot
dižkunigait
kategorijās
##ilb
##īgāk
1867
Romu
Step
apšaud
Čārlzs
Holivud
Interne
aktivitā
pedagogs
populāra
bruņurupu
komandēja
spiediens
rezultātiem
##pū
##anh
LR
Šai
##īguma
Rund
Tiem
mazs
sest
Katrā
vidum
zemāk
noform
pārceļ
saimes
saista
simfon
Zinātne
meiteņu
paslikt
brigādes
sarakstu
studenti
Parlamenta
iznīcināja
##LC
##har
##nām
##iety
##igur
106
Upi
Zir
Šim
dots
epiz
##ējušas
atpal
biržā
trium
iegūts
negaid
parāda
preciz
īpašuma
Āgenskal
profesora
##āros
108
Cup
##otehn
1875
##oodārz
maiņu
veter
Teātra
Itāliju
biedriem
iestādēm
izvietoti
##aci
##eat
##idž
##ury
Nol
##ainie
Club
diap
spalv
mazākā
mobilo
pakļau
sagūst
##ogrāfiju
sastāvu
iespējama
proporcionāl
CO
LA
SP
Pab
lop
##dencš
##ganas
Long
Neap
bezm
rītā
tiev
vīrs
##oficiāl
izsauk
režīmā
samaks
Baltijā
Ekstral
Dzelzceļa
organismā
precējies
sabiedroto
##eam
##ibu
##ilā
##osē
Ģim
##agiem
Mets
inov
labs
##meņiem
##tākais
stils
zaudē
locekļu
dominēja
interešu
atmosfērā
atsevišķās
Kazahstānas
nepieciešamo
##jo
##akā
##akšu
##nera
##ētus
Def
Lan
zīl
##ision
Jurid
padev
Google
noapaļ
padomē
parast
punkta
zariem
Babītes
Pilskal
Vairāki
daiļrad
indiāņu
skaidri
vientuļ
attīstīt
ierosināja
neveiksmīgi
producentiem
##ен
##ņģa
##ūkl
af
##hers
##eņiem
Proc
bloķ
cien
sakr
##betona
Zinātn
baroka
ikvien
mediju
nodzīv
rudens
teorijā
dzīvojis
klostera
pieredzi
starpzonu
Iedzīvotāj
##St
##TM
za
##http
Far
##niešu
1877
glik
##islava
Pried
Sākas
infic
kriet
nolas
smaga
tādus
##enberga
Ludvigs
kameras
vienreiz
čempione
dienviddaļā
##goļu
##gram
##meni
##skār
114
##ājuši
1800
##gubern
bries
atstāt
karbon
tvaika
varbūt
celtnes
krājumu
labklāj
minerāl
noziedz
Autoceļš
prasībām
rīkojumu
##veidīgajiem
Pēterburgā
pamatskolā
pārtraukta
aizsargājamo
nepārtraukti
##GM
##bek
hel
##austā
##trauc
apaļ
savs
progn
##augstāk
ieteik
Sezonas
Rūjienas
izveides
nopietni
pavēlēja
atsevišķa
##ake
CD
##ieku
izn
druk
līci
Ivars
pagal
statu
vieni
Karaļa
Ventas
gleznu
##igācijas
Windows
aptaujā
projekt
kompozīciju
nepieciešami
Starptautisko
М
##anā
##olē
##āno
##ēle
CK
Tw
##avad
##ield
Dam
Band
brem
takt
īsas
Mugur
neiet
slēdz
summa
tīklā
Dagdas
basein
mašīnu
mūzikā
proced
sāniem
atvērts
sekmīgi
zemgaļu
Turaidas
barošanās
frakcijas
tulkojumā
vietnieku
Dienvidkor
pieminekļu
Baltkrievijā
##mo
##iew
Et
##kājas
Kamp
harm
##ūcijas
Luijs
izvad
kinor
rangā
vakar
##atīvais
Mazais
bagāta
nozare
aprīlim
signāla
Skrundas
direktora
Losandželosā
premjerministru
##šķu
Oh
har
Coll
stim
Viteb
Volume
nāvess
virkni
Dzimusi
Rēzeknē
žurnālu
iekšējās
koloniju
palīdzēt
Dievmātes
elementus
jautājums
lietošanu
veidošanos
Ņū
##eitu
##ojum
##titu
HES
Kob
Rug
kori
pakāpē
blīvums
pazemes
hronikas
komandiera
pievienots
##dim
##hes
##iālu
Auk
Sul
Love
rota
pārus
ģermā
Dānijā
apjoms
efektu
kariem
Februār
Helsink
Karjeru
atrasts
arestēts
līdzekļi
pieaugušo
pievienojot
##wks
##elsme
##enhāg
##otrop
4000
audi
ostu
tele
##atoram
Kamer
modul
runas
Corpor
atstar
meklēt
palīgs
saturs
baseinā
redzama
junioriem
kinoteātr
spiedienu
oficiālais
pretestību
temperatūrā
Jaunzēlandes
izdevniecība
profesionāļa
##dib
##lav
##umt
##vāc
##ceļš
Kel
1600
Gruz
koši
##otības
Bērnu
Cetur
Krasn
kaulu
Polija
pašpār
režīmu
Baznīca
atliekas
baznīcai
iedalītas
publicēti
Antarktīdā
piešķirtas
ziemeļdaļā
noslēgšanas
aizsardzībai
##egs
##erī
Bus
gāzu
Barsel
komtur
leģend
apbūves
paceļas
impērijai
organisma
iepriekšējās
##CC
##nim
##ober
Auto
dēla
pārp
Roman
sekas
Heinri
radīta
Spānija
kreisās
ierīkoja
##ativitātes
Savienība
baltkriev
cietokšņa
iegūšanas
reģioniem
iedalījuma
##atr
##iķi
##žam
##ogām
Gom
Jeļ
Ses
Tit
Tum
ādu
##skolu
##adagas
##niekos
Night
kņazu
Iztece
Saeima
kardin
muzeju
Indriķa
ekspres
metodēm
vienlīdz
apkārtnes
rakstnieka
##my
##jot
##īpa
##ļļu
##oram
Hug
Ron
mer
##istei
1872
Kipr
Lazd
ferm
dejas
plauk
Johana
ārējās
sociālā
spēcīga
pārcēlies
##QL
##на
##ausu
Kem
faš
nul
vēž
Rang
alum
krāš
būves
knābi
##iformes
četros
sniedza
Valmierā
izcelsme
akadēmiju
nogalināt
Aleksandru
pieminekļa
automātiski
П
##gļi
##aiņi
Abd
laba
manu
##ekciju
Kriss
Madon
iecer
tūlīt
Krasti
narkot
Džeimsa
mazliet
vieglāk
diecēzes
interesi
kongress
jaunajiem
starptautiski
##EN
##māc
##māks
##orks
Sov
hek
olu
##ingas
##spied
##tecis
##īzija
Goda
Lars
##ekcija
Katrs
atgūt
Senajā
atrada
rekord
Globusa
dziesmai
diriģents
virsnieki
nogalināts
##aji
##ceļā
##eing
##roku
Hai
##ēlija
1884
cirk
dziļi
gaisu
kņazs
labās
lūdza
asinis
simetr
lieliem
valodai
##ostacijas
dubultsp
ieguvējs
virziens
ziņojumu
Stokholmas
izvietotas
saglabājot
##ogi
##tīs
sc
##atom
##ensa
##epar
##eļas
##kina
##dents
##viela
1795
Baku
Klas
Kārs
sedz
slud
žaga
Rīgai
brūns
mieru
tronī
orbītu
rīkoja
Kaukāza
trūkuma
Arābijas
Pieauguš
Virzienā
apakšējā
apkārtni
ieguvēju
piespieda
atsevišķos
bibliotēku
##ipi
##uša
Lā
##plūd
##ūzas
Kuk
sup
##ātāju
Krūm
Nord
Saus
Vers
apjom
fizik
torni
ciparu
kopums
līgumā
Pēdējos
Species
divkārt
izstiep
Strādāja
Bohēmijas
Republikā
lietošanas
materiālus
##leč
Oļ
##unks
##veri
One
VEF
##ērijs
Fern
laic
##maņiem
South
valda
Albuma
augļiem
dzejoļu
sarkano
vāciešu
oficiālo
folkloras
karaliste
mugurkaul
tradīciju
pārdošanas
##mita
Abu
USD
kai
##entār
##skārt
##stiem
Kalp
atdz
dārg
Vecum
elast
Čakst
Antons
ielejā
piecām
galvask
koledžā
angliski
mācīties
priekšte
##oloģiskais
Burtnieku
Jaunatnes
akadēmija
ekonomikā
pārraides
pretinieka
konstrukcijas
##SS
##red
##dras
uzd
##stein
Atkl
Sidn
plūd
##amības
Ezers
Pēter
maina
Muižas
apguva
skolās
Polijai
brāļiem
hercogu
signāls
neizmant
reklāmas
atšķirīgs
arhibīskapa
##CH
##drab
116
Kod
##embri
Izplat
dzimst
iepret
padziļ
slepen
atšķirt
dzimuma
izdevums
lidostas
pabeigts
Pavadonis
pārmaiņas
Pārdaugavas
##emot
##iela
Jer
afr
bob
##jelga
##logen
Stat
Teil
burv
kari
skar
##umtaut
Miera
atsāka
debess
holand
mārket
##ogrāfijā
zināmas
Ziemeļos
polārstacija
Duk
agl
##atīvs
##niekā
nees
##kaukāz
##projek
baros
jumtu
melod
tauta
izdoti
spuras
izpilda
jaunajā
palicis
pilnvar
katedrāle
neoficiāl
apdzīvotas
Corporation
##ūsa
Bak
Bek
Fiš
Vāg
Bart
Sval
Cēsīs
galda
iebūv
izdod
neatr
nežēl
recep
System
uzņemt
##amerikas
kapitul
locekle
pagriez
vienāda
reliģiju
spēcīgas
atšķirīgi
К
Bog
Cim
Ieg
Raf
##amība
antī
kapu
taks
vajā
visd
##grupas
akcion
bērnus
trijos
Daugavu
dekādes
iedvesm
parauga
pilnīgu
piekāpās
pārvaldē
Dienvidāfrikas
##alt
##kli
BM
CH
##funk
Day
VDK
Arch
Kaug
##celona
##ikspār
Singa
nepieļ
Dažkārt
Minskas
lietoti
vidienē
Pazīstam
apmetnes
pieminēts
izgatavots
kosmiskais
Kalifornijā
##lag
Ve
##eksa
##gles
##iero
##vili
Run
LNNK
Mont
Pavas
apmai
jomās
mēģina
spēkos
lidapar
aģentūra
militāru
privilēģ
režisora
Piedalījusies
##ipa
##īla
##tava
Vīl
est
Baik
Drag
Lind
simt
Biedr
bazil
reduc
Krasta
šodien
svarīgi
trimdas
Galvenie
Jaunavas
dzimtajā
laulības
sadzīves
sievieti
variants
vietējie
molekulas
sākotnējā
galvenajām
izmeklēšanas
##šk
##div
##īzē
Fj
##ejās
##puse
##edzes
1772
Oper
brīn
suns
Meier
noved
patur
zarnu
##tionary
klinšu
ķīmisko
kapitāla
Barcelona
Jaunjelga
pavadījis
miljardiem
Vašingtonas
matemātiķis
##ash
##cil
##gaz
##rug
##atlē
Gat
Kēn
Miš
Stā
##iekot
##ojošā
noder
##ikācija
tenden
ieguvuši
laureāts
noteikti
partijai
pavasara
sadalītas
divpadsmit
nogalināti
##gli
##ūza
##īlas
Akn
Gil
Jas
kaŗ
##amily
##ocēna
##osies
##zīmes
bāka
ceļi
torn
zona
##ektora
##ulozes
brāļa
marat
neiek
terap
tiesā
##enbrāļu
Academ
vēders
Žemait
nacistu
kongresa
nometnes
norādīja
produkti
lietotāja
neatkarīgu
Tradicionāl
ziemeļrietumiem
##TF
##ulē
##tēti
Gem
Ogr
Sus
nēs
##uzņēm
1200
Caur
LETA
Otro
Tren
sena
veda
grēda
jumta
Aivars
Spring
durvis
iegāja
pagatav
plētums
janvārim
liecības
nepareiz
Amerikāņu
izveidotu
uzturējās
Salīdzinot
Je
##ikts
##miņa
##ārie
##šais
113
Kot
sus
##ander
Vern
Volf
dioks
operā
Dienas
ekspedīc
pamatnes
pārcelts
Basketbol
apmācības
produktus
vieglatlē
izvēlēties
izmantošanas
##cī
##išu
##mam
##men
##iksu
##otam
Kād
Uld
##avien
##ieder
##olīta
##spēļu
šauj
Igors
Monre
disku
lidot
skrēj
redzes
sprādz
ļaujot
Dažreiz
kopplat
objekta
Bosnijas
Vārkavas
ģimnāzija
reliģiskās
Sanktpēterburgā
Hj
350
Hēr
Rop
Laim
Time
nokl
Light
Viļņā
apkar
nodar
serbu
sienu
Modern
Spēles
kreiso
labdar
##īgākajām
aktieru
finālam
pelēkbr
titulus
uzvarēt
nākamais
datubāzes
internetā
politiski
militārais
ģeostacion
departaments
##bā
##ер
Jac
Jek
biļ
Šau
##askas
Blue
Fish
Sven
lapā
retr
Švar
##otajos
Laikr
nemaz
tiešs
##interes
Pāvila
iekais
pilotu
pētīja
Society
līdzdal
medaļām
ārzemēs
ievēlēti
atšķirīgas
dzīvojošas
Inkubācijas
darbiniekiem
##zē
##abi
##mod
##nās
SO
##idge
##jana
Ieva
Ilgu
matr
plaz
Detro
Simps
viļņu
ziemo
Latvju
Sākotn
astron
diapaz
##ological
apmetne
hronikā
lietota
piemērs
Helsinku
fabrikas
Venēcijas
materiāls
mazākumtaut
profesionālo
##arks
Ces
##akovs
##denes
##putns
brāz
koki
labo
##iešanai
neilgi
Vairums
izteica
ordenim
pieveic
veltīta
Ķekavas
ekspozīc
pasniedza
palielināt
apakšdzimtas
so
Oke
desm
klej
##lietas
Uldis
histor
uzbūve
izrādes
kapsētā
platuma
stingri
strāvas
veiktas
Aleksejs
iestājas
pasākumu
sistēmām
prospekts
automašīnas
konstitūcijas
##ēp
##ašk
##eus
##īka
##ande
##book
##gala
##tehn
##tona
Nek
fosf
gulb
kūdr
Svalb
burtu
domām
pingv
Aknīst
Boeing
apgāds
režīms
Pļaviņu
bērnībā
lielumu
formulas
novērstu
ekonomika
vēsturiskā
Kontinentālās
elektromagnēt
##mīl
##tāns
Pon
Riv
slā
tec
Vecā
##īgākie
hindu
Freder
Pēdējo
mūziķi
vadītā
Madagas
kursēja
Astronom
Igauniju
Persijas
darbībai
šķidruma
Impērijas
kompleksa
revolūcija
##ft
##ico
##ofs
##tul
##anam
##dera
Mūsu
dedz
maču
vērs
##produk
Regul
bobsl
filtr
katol
neier
##ālajiem
asfalt
joslām
pašiem
vulkān
krietni
lībiešu
saņemot
iespējamo
Elizabetes
visticamāk
Nacionālais
izveidojies
savienojums
traucējumiem
##atne
##cher
##pili
101
Jān
Tau
saš
Jord
Māte
loka
lūdz
augļu
bankr
ārstu
##vienību
Galvas
devies
kursus
Rihards
gliemež
piepild
iekšienē
savulaik
telefonu
izdošanas
nr
##edes
##nija
##ocis
##šals
Bay
##ājums
Just
Tēvs
distr
ilgāk
siltā
areāla
dekādē
dzimtu
locīta
Arhitek
Balkānu
dizaina
gājienu
Ikšķiles
Stradiņa
sistēmai
iegūšanai
kinorežis
patiesībā
šaursliežu
Profesionāl
materiāliem
##auž
##ker
##štā
Gam
ISO
1862
Māra
pian
##ālisma
dolom
Arturs
Bankas
aktīva
amatus
apjoma
rakstā
tikuši
Publish
faktori
distanču
elektrov
medījumu
pakļauta
boļševiku
iebrukuma
paredzēti
portugāļu
prospektu
īpašnieki
Izmantojot
ierakstīja
palaišanas
reģionālās
vispārējās
Maķedonijas
produkcijas
tautasdzies
laboratorijas
##ado
##kup
##ērp
##ango
##nese
##tīti
Cat
Mes
Moc
Oct
##itāru
##āšanā
Doma
Maur
blok
būvē
Šādi
##vielām
Citas
neatz
niedr
Konven
cilmes
ezeros
krasts
pasuga
apgriez
fabrika
iekļaut
izstādes
katedras
pagaidām
atdalījās
protokols
lietotājiem
sabiedriskās
В
##eji
##kad
##jevs
##laus
##ievēr
##ūšana
1869
gudr
Ķīnu
brūna
cenas
smagā
ārsta
##darbību
Imants
Velsas
maksāt
mazais
savdab
Finanšu
formāli
formātā
rūpnīcu
zoodārz
Livonijā
radusies
Luksembur
izstrādes
apsteidzot
literatūru
pirmsākumi
##df
##rīk
##īvē
ov
##icks
##ūves
Bag
vāv
zos
Cons
FIBA
Pits
##gailis
##īgākās
Saule
ziedu
balvām
palikt
sarunu
vecāku
apvidus
attēlus
dzimtās
nepastāv
tautības
olimpiādēs
tradīcijām
iniciatīvas
##eet
##usā
##ganu
##inča
##bergā
##darbu
Jevg
Kemp
LĢIA
Must
Netw
kaļķ
##ojošās
Kembr
gaiss
Leopol
Piedzim
inteliģ
Varakļānu
Zobenbrāļu
laikrakstu
Afganistānas
korespondencš
##gls
##yst
##orus
##skan
##tain
##ājos
Bīr
Tīr
Bras
Cīri
dzir
##ensiju
Bruno
Dievn
apgūt
dzeju
metro
purvu
Deivis
Dāvids
Vanagu
kvantu
kālija
uzstāj
Ļeņina
Valstīs
ezeriem
padarot
Igaunija
atklātas
Krievijai
latgaliešu
kategorijas
gravitācijas
nepiedalījās
##ан
##ipu
##ģes
LS
##irdž
##prūs
Bād
Rik
1830
Giro
itāl
##fordas
biezs
kaula
krūmu
pērti
ranga
Vidusj
sešiem
Džordža
Turcija
sprintā
vecumam
Discover
alfabēta
apvienot
kampaņas
komisijā
mazciemi
princips
zaudējot
kandidāts
atteikties
Savienotajās
nodrošināšanai
##ym
##FSR
##anto
##ovan
##veik
##īnus
Cēz
1874
Bron
Herm
neie
rumā
šādā
Guide
imigr
joslu
klint
pasts
tvert
##esearch
formām
misijā
neredz
paslēp
Industr
Institu
pussalu
rūpnīcā
tūristu
caurspīd
saraksti
Slovēnijas
piedāvājumu
priekšnieka
simboliskajā
nepieciešamību
BK
##ultu
450
##nīcās
##valda
Miha
smai
dažos
kopas
piram
Lietuv
nolaiž
tēviņu
Jaunajā
Svētais
Viljama
ainavas
dopinga
hidroks
##komitejas
attālums
draugiem
veicināt
pulkvežleitn
Tirdzniecības
##ix
##led
##pak
##inču
##trol
##ults
##īvās
##ūnām
bed
jon
indo
##atorus
Kubas
Skots
atlēk
tātad
šūnām
##sabiedr
Atbrīv
ierīce
nodota
notiks
sakāvi
Roberta
Tibetas
atklāti
septiņi
balstīts
panākumi
tehnisko
eiropiešu
piesaistī
pamatiedzīvotāj
##ол
##eed
##jon
##ody
##uda
##kais
##tnes
Aer
Ilg
noj
ort
Droš
band
##odroma
žanra
Durbes
Venecu
iejauk
ievies
nacion
privat
Sēlpils
uzbūves
uzvārdu
versijā
tautsaim
atbalstīt
kvalitāti
paredzētas
problēmists
##RS
##dor
Mez
Ruc
XII
pud
##iestu
##lašāk
##teini
tips
zirn
Pāves
pacel
putnus
Armijas
Matches
guberņā
kontein
korpuss
mēnešos
sudrabu
##enerģijas
aizsākās
Vjetnamas
raidījumu
vietējiem
strādājusi
konstitucionāl
priekšpilsētas
##IC
##ook
LZ
Asp
Sed
USA
inc
loj
##eckas
bitu
krīt
zēnu
##oseksu
Krast
kuģus
vokāl
ceļiem
melnas
notikt
pielik
pārējā
vērsta
ģintīm
kosmopl
likumus
pievārt
redzami
##raudzības
Research
atšķirīga
bērnudārz
priekšgalā
##eši
##eits
##teri
Sky
##atern
sing
sodu
##ements
Enter
Kalna
dēvēt
paved
Japāna
ciltīm
dzirnav
Polockas
izbūvēta
izcīnīta
izdevumu
panākums
pavadoni
pārstāvi
zemnieki
aizsardzībā
metropolijas
Lielbritāniju
##AP
##wn
##lah
Koh
dūņ
non
##kājām
##ograp
##ējošu
dome
seni
##odinam
Turku
pārdev
nokļūst
Jersikas
atbalsts
kalendārā
lokomotīv
zaudējusi
neizšķirti
arheoloģijas
##diena
1859
Arkt
nešķ
James
cietu
faktu
trase
##osistēm
Transp
apstād
vaivad
leģiona
Progress
likumiem
ekonomiku
pieejamas
pulkvedis
sadarbība
karavīriem
##IN
PC
##omat
Tob
Tri
Ņūd
Juni
##pektīv
zirga
pļavas
trūkst
citplan
ieņemot
lekcijas
līderiem
persiešu
mājaslapā
dokumentālā
likvidēšanas
pārvietoties
##MS
##āģ
##guši
##ūsas
##tajai
Bran
kopa
mazi
ostā
##iniece
##maiņas
##āvijas
Matīs
balsi
darīt
labas
##osfēras
Jumava
transl
atlases
augstāka
autobusi
pētnieks
reakcija
sadursmes
savienojumi
organizācijām
Austrumeiropas
##ID
##hen
##iza
iP
##līgā
Gav
basģ
tapa
Pengu
bumbu
noņem
optim
autora
finālu
klimat
pamatus
Kristaps
Minhenes
apkalpes
pievārtē
skābekli
noslēdzot
izplatītas
velosipēdu
starptautisku
##ego
##jat
bu
##ažād
##ento
##itās
Visk
amin
citr
fona
galv
##entēja
Dombr
Liber
pilnu
tvnet
dators
modeļi
##pasaules
Kaspars
Mammals
Sarkano
iekārta
līdzska
pieaugu
Bavārijas
atšķirība
bezmaksas
pienākumu
vairākums
Vienlaikus
##šin
##ette
##hauz
Fly
Laz
jut
Arhe
Smoļ
feod
trib
grāfs
volej
Šādas
##ājumiem
Kēnigs
Padome
aizkav
mazāki
Kongres
Korejas
biogrāf
kukaiņi
simtiem
stundām
tēviņam
Tērvetes
apgalvoja
centraliz
inženieri
pārtraukt
sacelšanos
televīzijā
visaugstāk
čempiontitu
konstitūcija
ģenerālgubern
sociāldemokrāt
##isp
##ītē
##bija
##lasa
##teci
##ūrās
Jor
Kaž
Roy
##antus
##eniem
##karas
##masas
##nozīm
Drēz
iera
nebr
vaļu
zobi
Eesti
Mazās
tādām
Hamilt
jāveic
profil
raķešu
uzsākt
Kosmosa
Varšavā
attēloti
dzimušas
vienojās
Vairākkārt
apcietināja
##AD
##ий
##cas
##ault
##imas
##klub
Rog
col
##bilda
##āriju
Riod
riņķ
Ligzda
brauca
depres
iepirk
izvird
primit
jauniem
kultūrā
parastā
sacīkstē
slimībām
publicēta
valdnieki
pārveidoja
koeficients
neatkarīgās
savstarpējās
programmēšanas
##td
##izl
##pur
##tie
##ecom
##oter
Bēt
Koš
TMA
##chaft
##irkst
Pots
Stju
Santa
Ērgļu
izstar
vidēja
Gustava
detaļas
atbildes
cīnīties
izdarīja
lietojot
lēmumiem
Pazīstams
centrālais
##dzu
##hid
##omo
##čes
ēz
##aime
##augļ
Bik
Paz
uzr
##ātājs
Gabr
Soci
dzer
lapa
neko
rotu
sega
##iālais
Gener
notic
svaru
Dzīves
pārdot
Iecavas
raķetes
ārpolit
īstenot
Voldemārs
līdzstrād
##kv
##dam
##eth
##los
##sko
##unc
##ēlu
##pool
lip
##irgus
jāuz
Kārli
Lapas
atoma
Daudzu
kažoks
Ķemeru
atļauts
pussala
uzsācis
grāmatām
nogalina
provincēs
atradusies
principiem
māksliniekiem
##son
##tai
Mid
Moh
##auces
Veis
cara
Dažād
skrej
trasē
anatom
apmērā
izvērs
biezums
eksistē
pētniec
svarīgs
kārtības
pievieno
priekšst
sadalīti
karalisti
starojuma
konstitūciju
##pā
##upi
##anci
##unga
220
Aig
Dic
Kuz
##ainos
Pier
kont
izņem
klase
smagu
vēsta
##beidzot
Brauns
Singap
Sports
menedž
pietuv
pļavās
Francis
baseina
kārtībā
##oloģiskie
pārraudz
##izglītības
izšķirtsp
lietošana
līdzenumu
līdztekus
īslaicīgi
attiecībām
ekonomiskā
##RO
##igm
Kļ
pj
##ello
Poz
##acion
##umāfr
Buld
klubi
Riodež
gaisma
mežiem
pamatv
Kembrid
uzskatu
zirgiem
izteiksm
ģenerāls
izplatība
neatbilst
ražošanai
##ave
##ihu
##ēkā
Jū
NO
Lem
Nau
Oil
Anim
Biju
Broc
mani
māla
rent
##aneiro
Belgr
sevis
Ārpus
iegūti
Drošības
mākslīgi
Sarkanajā
produktiem
veidošanas
Pārstāvējusi
Brandenburgas
pieaugušajiem
Sociāldemokrāt
##eib
##etic
Nas
Pom
lod
tml
Klīv
abus
asiņ
tums
riņķa
Lakers
slēdza
teātri
Jeruzal
aprūpes
dzīvību
lejtecē
vienotu
Floridas
konfigur
saimniek
zaudējumu
izstrādāts
disertāciju
Filadelfijas
Metropolijas
Riodežaneiro
##itē
##iļu
##leru
fer
tub
Hall
gaļu
kond
Absol
Arist
Baltā
atseg
deviņ
pašam
pilnā
sešus
vasaļ
Bermon
Pāvils
aiziet
dēvēta
grāmat
sagaid
##lantijas
efektiv
kopējās
līnijām
uzliesm
Studējis
kapteini
nelielās
neskaidr
vienībai
zvaigzni
šķidrums
aizliegts
izvietots
operācija
pilskalna
baktērijas
finālturnīrā
##šie
LC
##fabr
##ismi
##ūres
Pik
Sār
Mazo
bišu
Engur
mītne
nekav
upuri
Parīze
Rietumv
kondens
atradnes
kurienes
principa
astronoms
izklaides
nelieliem
pētījumos
neatkarīga
kontinentāl
sportistiem
fotogrāfijas
likumdošanas
##arus
Mēs
##isija
1840
Grāv
Main
stād
viļņ
##cilvēk
##nešiem
##obrauc
Homēr
tauku
viļņa
zonde
Pekinā
augsto
piecās
plūsmu
##ostudijā
izdodas
norises
nātrija
pieļauj
vēstuli
šahistu
Enciklop
Kaspijas
Sāmsalas
iespējām
partneri
veidošanu
Ferdinands
būvniecība
zinātniskais
##IV
##eil
##gin
##hib
##ous
##urr
##oraj
##ower
##sala
##uris
Bai
ros
rēķ
vaj
##apunk
##enhof
##tajās
1850
CSKA
Frid
Šādu
Maija
Organ
human
nelab
reižu
figūru
saslēg
sižets
jebkura
medikam
pārcelt
veikali
veikalu
režisori
vēstules
emocionāl
ūdenskrit
filozofiju
pārsniedza
Ziemeļāfrikā
Komunistiskās
AG
Ļv
##enēs
##gaļi
##šala
īsa
Linu
topa
##gadīgs
Motor
Potsd
Uguns
lomām
centri
kodolu
okeāns
Lubānas
aizgāja
beigusi
interpr
labprāt
spiesti
gadījumi
izteikta
telefona
Maurīcijas
koalīcijas
kandidātiem
nīderlandiešu
salīdzinājumā
klasifikācijas
##guļ
##jur
##vei
##odon
230
Cep
Lep
Teh
##aires
##izstā
##muižu
Daba
Kļav
Rosa
Tamp
stab
Ķīna
##ection
Civil
marts
tonnu
##valstīs
Buenos
Mikrof
bezgal
kvalit
sakrīt
planētu
uzlabot
zinātne
vēlētāju
glābšanas
iekšzemes
ievainots
uzvarētāja
А
si
##endā
##ieto
##inka
##mers
##ongs
Būt
Iļģ
pdf
sun
##ilpst
##undam
##zonal
Glāz
Rich
upēm
atzīt
plašā
Moldāv
dizain
grunts
izmēru
kaimiņ
palīgu
Klaipēd
Tuvajos
eksport
izdarīt
ietekmēt
mācītāja
raksturs
veidojās
visdažād
distancēs
konflikts
priekšlik
sākotnējo
apvienotas
frekvences
Ligzdošanas
Neatkarības
apbalvojumus
sasniegumiem
##ūri
IX
##ēnes
Alf
nan
##ative
##lijas
##otību
nest
nāve
satv
multi
stāvā
##apstrād
##pilsētu
Izšķir
karoja
nopeln
America
Arnolds
Augustā
Lielajā
Metalur
aglomer
nezinām
Kopenhāg
##23
IB
##gvin
fok
sād
sāļ
vīt
##zbruk
dabu
raga
Dzelt
Dzied
Kolor
balsis
beigas
Systems
mazulis
posmiem
puslodē
skaidrs
Blaumaņa
tikšanās
atsevišķā
festivāla
līdzenumā
nospēlēja
ārkārtīgi
Interzonal
pieminekli
##CAA
##igā
##ijos
##ofiz
##pusi
##spal
##ākus
jen
##oliem
##ulauk
Birm
Pārt
aizg
feld
flot
vētr
brīvo
karos
marks
Parīzi
kooper
##emonijas
Ozoliņš
klientu
princis
pārdzīv
##ajadzības
ierīkots
Antarctic
pieaugums
priesteri
ģitārists
draudzības
pieņemšanu
sabiedrībai
izveidošanas
nepieciešamas
##ck
##ando
##aste
##omed
Him
Pic
##ciemā
##diriģ
##ojamo
##īgāks
1856
Brod
Manu
Roll
jonu
pale
zobu
Piren
adres
strup
Amatas
Hanzas
kritēr
landes
uzskai
British
karjera
monogām
sultāns
Katrīnas
ieviesta
rakstīts
uzskatāms
iegādāties
infekcijas
reģistrēts
uzaicināja
finālturnīr
vislielākais
##wa
##enr
##iae
##oko
##rugv
##īpaš
Koz
Leģ
VIII
gruz
inst
perē
sulf
nekas
nodot
runāt
##agement
##iniekam
gramat
izrunā
katoļi
knābja
zināmā
izdevis
muskuļu
sakarus
Austrija
akmeņiem
pirmajos
Vitebskas
karaliene
krustnešu
meklējami
pabeidzis
palielinājās
specialitātē
##īš
##loc
##uki
##īnai
ASK
Hem
Rat
XVI
āda
##vārds
PSKP
barb
zemu
##inātos
atpaz
dodot
koraļ
moder
mūziķ
rokām
teica
tranz
Šajās
##ography
Mazuļi
absolū
izbeig
nepārs
tehnik
teksts
Minhenē
melnais
pāvestu
Islandes
Jaungvin
arestēja
diagnost
grūtības
virsdzim
Dienvidos
Izglītību
dzīvojamo
populariz
pozīcijās
sekretāru
uzbrukumā
Austrumprūs
apakšdzimta
##atē
##elp
##hor
##agon
##akām
##onso
##umul
##šņiem
Ceļš
Emīl
Gadu
Gord
Lies
Piet
##ālisms
cīnās
domas
izņēm
saboj
sakop
Maršru
aktier
krūtīm
tonnas
ļaudis
Apgabal
Prūsijā
izceļas
orbitāl
diametrā
meistaru
pētnieki
izstrādāt
nobalsoja
zvaigznēm
horizontāl
##hov
Gv
##diem
##ides
Ebr
WIM
##istas
East
Pens
Taiv
eksk
Human
apsol
atsāk
izsek
modes
pelēc
sākum
bronzu
izbrauk
kustībā
platībā
virspus
rezidence
dzīvojamās
pamatskolu
piesprieda
radioaktīv
pabeigšanas
tirdzniecība
##ģe
##iķu
##kil
##akot
##hron
##umin
Kov
##aksta
##opole
Apes
Dzir
NCAA
Slam
Zelt
krup
līgu
prav
ķirz
##ekretā
##entāla
Alive
Buļļu
Dzirn
fāzes
ienes
kādam
kāpēc
Abavas
neskai
īpašas
Fratern
privāta
sapulce
apbedīts
Liverpool
Stambulas
intensīvi
līdzeklis
vāciešiem
īpašnieka
zinātniski
##ear
##ugh
##unu
##yon
##āzi
gļ
##ibas
##igan
##iāls
fog
##salac
##ēdāji
Kant
mult
##inskas
##ījušās
gatve
otram
Italia
apjomu
atrieb
laikap
landtā
nokļūt
piektā
zinātnē
diferenc
galapunk
partijām
slāpekļa
Helsinkos
Kalnciema
dzīvojamā
klasiskās
vajadzētu
Strādnieku
traucējumi
civiliedzīvotāj
##eu
##igi
##ižņ
##mēm
##inss
##meti
##piem
##ēdams
##ējoša
mežs
port
##ometru
Himal
arēnā
inves
lauks
nomed
##zinātņu
Jurijs
Raunas
Vītola
esošie
pelēks
zemāka
ģintis
Austral
Olaines
ieteica
deputāta
orķestra
problēma
saglabājās
aizsardzība
pretestības
Dienvidaustrumā
##ekr
##ike
Aš
IT
##cilt
##kovs
Aps
Els
Hir
Hop
Kim
Ltd
Trī
han
žur
##aniņu
##itāro
Mast
Tbil
dekr
māsu
##ētiskā
Banka
Marta
Virdž
bundz
delfi
Ņemot
Akmens
Atēnās
baleta
dēvēts
klasei
skunks
tautām
##tiesības
Ulmanis
izteikts
uzdevumi
apkopotas
savienībā
transform
Ekstralīgas
pamatskolas
Skandināvijas
priekšrocības
##OL
##ifu
##osh
AC
##mena
##olis
EUR
all
bil
Delf
Janu
grem
pāru
rall
senā
slān
upēs
##onista
augus
pēcte
Škoda
Metall
brīdim
konsol
piekto
rīcību
Pilsētu
drošību
izvēles
krājumi
prognoz
ģermāņu
ķīmiķis
Aknīstes
iespaidu
iekšlietu
meistares
pārspējot
mēģinājums
rakstnieku
pasniedzējs
pārtraukuma
izcilākajiem
##är
##alg
##aren
##eidz
##lapu
##part
##utis
240
Ahm
Viz
Zāl
Mein
pirc
zvir
Under
Uzvar
dārzā
bāzēts
izlašu
izpeln
krusts
pārgāj
tenisa
mongoļu
atrodams
balssties
novērojama
sākotnējais
##62
##yd
##enš
##ute
##ūžu
##aisa
##šies
Out
Vic
Vēd
WGM
rem
rup
##estas
##olīni
Lang
Sala
embr
##tācija
Denis
eksām
kalnā
karte
kulta
##ējošais
Aizsar
Mātīte
nepiln
brīvmūr
emigrēja
pieņemta
centimetr
Universitāti
##oro
##oder
##īnās
Maļ
bio
izb
##estam
1793
Mant
Park
Spar
Kened
Mobil
dievu
sapār
##aušanas
ieleju
maksas
vērsās
Matemāt
Tbilisi
izskatu
pirksti
tehniku
piešķirt
reakciju
ieinteres
iznīcināt
pasniegta
izvairītos
navigācijas
pievienojas
vieglatlēts
starptautiska
##TR
##ér
##orp
##ērt
Rh
āp
##ager
##gals
##ingi
##iter
##ture
Dig
flu
new
upē
zeb
Ilze
Otrs
tetr
vecs
šahu
Micha
Vatik
Vides
stāvi
izkārt
kreisi
nokrās
nozarē
pasarg
prepar
radīts
sniegt
Kalniņa
aizstāj
izskata
klubiem
miljons
pārdoti
##eiropiešu
attālumu
avārijas
kāpuriem
Karaliste
labākajām
Viktorijas
konstatēts
mēģinājumi
samazinātu
Salacgrīvas
Viduslaikos
##PS
ņ
##don
##mju
Dj
##amos
##aria
##aval
##avor
##eņus
##rust
360
mun
žem
##icion
##ēģipt
Oslo
Vaiņ
tīrī
##unicip
Apakš
Great
biezi
lēnām
##iekstes
dzīvei
mazāku
pieeju
plūsma
regulē
saskat
Katrīna
konstru
uzvarām
Ņūdžers
Pirmajam
Raimonds
izcelsmi
izdevusi
atrodamas
monogāmus
piemērots
dalībniece
perspektīv
renesanses
konservatorijas
##US
##lid
Ni
wh
##dala
##dams
Fox
Lūs
her
lak
##annas
##princ
Feld
saik
vējš
zema
##valsti
Spēle
Tiesa
pusēs
Maskav
adrešu
dalīja
nošķir
sadala
Meierov
Pekinas
auditor
ieročus
biedrībā
dalījusi
divīziju
piektais
studijām
Krimuldas
Līdztekus
palielina
klasicisma
noteikumus
Buenosaires
brīvprātīgi
izvairīties
lielmeistare
##ipe
##herc
##hidr
##skim
Leg
Lih
Mun
mēb
tār
##ojošu
##ēzijā
Greg
zivs
zīda
##ementa
##istika
Angļu
maijs
proti
visur
Associ
vietnē
korpusu
noticis
prasību
strādāj
Uzņēmuma
augstuma
zemienes
likvidēta
reģistrēta
zinātniskā
Rietumeiropā
bruņniecības
glezniecības
Ziemeļameriku
##xt
##att
##žos
##eksp
Ali
Mog
hib
inv
mes
##eivis
##evska
##pretī
1819
1826
Coun
baro
cena
skār
##ukalna
##ējošās
galmā
novec
Šajos
ūdeņu
misija
subjek
vecais
Ferrari
ieskauj
skaustā
izpildīt
nākotnes
projektā
Argentīnā
izpilddir
pilnvaras
Zinātnieki
konference
parakstīts
studentiem
palielināja
pasludināta
##24
##ece
AI
AR
IF
##agen
##atni
##enad
##ugām
##wood
##elsat
##eviča
depo
ekip
garo
krab
migl
olām
satr
sēdē
Uzbek
Gemini
Ordeņa
apvain
lielie
Angliju
Gulbene
rekordi
septiņu
##inājusies
dievnams
atklātajā
pilsonību
sabiedriskais
##AC
##amus
Bit
Egl
Nīc
cūk
lāč
tan
##ebras
##gāzes
upei
##ington
##ījumam
Vienā
agrīn
apmat
malām
šajos
Atmodas
minūtēm
nozarēs
paraugu
uzturēt
zviedri
principu
rādītājs
pieaugumu
pievienot
atvasināts
dzīvesveid
gleznotāja
Austroungār
Jaunjelgavas
civilizācijas
##aro
##āvs
Emp
Hod
Ign
pīl
Kust
poļi
šaut
##ālajām
First
barus
operu
raķeš
aprind
attēls
iegūto
izmērs
sektor
Cilvēki
analīze
pamiera
uzbrukt
ieraksts
norādīts
īpatņiem
šķērsoja
arodbiedr
atrasties
kosmodroma
vadītājiem
noskaidrots
##MT
##erģ
##tij
##esch
Aks
Eks
##baltu
##oskāb
##ušajā
##ējama
##īgāka
šovā
##icijas
Niedr
Urugv
ēģipt
asambl
plaušu
saukti
veidus
Meksikā
pavēles
sezonām
Februāra
Moldovas
janvāris
tramvaja
Vienotība
keramikas
kilometri
cietoksnis
situācijas
vajadzības
Fraternitas
papildināja
##ech
##īlu
Šč
##dzēs
##plic
XIV
lāc
##amiem
1806
Brat
Sauk
beis
prat
zilā
##iemžēl
Pāvil
Zolit
Imanta
Monako
kultiv
maziem
vietai
Bībeles
debesīs
lēmumus
plēsējs
Ģenerāl
introduc
pārsvaru
pārtrauc
konfliktu
pasākumus
##ojumprogram
##aika
ārā
##draba
Klār
Smil
Vecr
##elsons
##izētas
##optera
Ludvi
Saūda
Tātad
domāt
pretu
Sparta
saskaņ
sazvēr
veicis
October
Spāniju
Vācijai
atcelts
metalur
augšanas
viedokli
izvietota
Nīderlande
spēlētājam
Iedzīvotāju
izsludināja
viduslaikos
Demokrātiskās
premjerministra
##yg
##100
##alb
##nia
##yth
bau
bit
dez
php
##iedis
##ilijs
Helm
West
augļ
##spēlēs
Briež
džeza
maiņa
pants
Volgas
ciemus
neļāva
plakan
pārlid
runāja
uztvēr
Kosovas
dzimumi
figūras
rīcības
sarkana
sultāna
Austriju
mikroraj
minerālu
parādīja
slimnīca
vilciens
vismazāk
Interneta
maksimālā
uzstādīti
Indonēzijas
institūcijas
##oe
##ūb
Р
280
##autob
##ejevs
Anrī
Odes
Pulk
Pārs
dubl
tēmu
vest
īsti
Green
Krišj
Melnā
Stars
attur
medus
pasar
tikko
Barona
Slovāk
ziņoja
Stefans
prestiž
romieši
Williams
gadījums
meklējot
orķestri
aizliegta
apkārtējo
iekļaujas
izplatību
likvidēts
aprakstīta
elektrisko
samazināja
instruments
sagatavošanas
infrastruktūras
SW
Sj
##eltu
Are
Ziv
jād
Ķeg
##frīds
##lands
Bell
Endr
Fort
mērķ
news
rāda
##ītājam
Found
Maiks
Uzdev
ofens
smalk
stand
##olution
kancel
turpat
zīmolu
Engures
dzinēja
esošais
ieraudz
izdalās
saglabā
Lielākie
Zinātnes
iekšpusē
lidlauks
pavadoņi
ražotāju
zināšanu
Napoleons
Nopelniem
dzīvojuši
organizēt
pašnāvību
rakstījis
virzienos
attiecībās
dziedātāju
ierakstīts
organizācijā
nostiprinājās
##FI
·
##iba
##ijus
##ēnos
Ans
Tul
eur
īru
##stīja
Brēm
plec
briti
numur
pilda
reaģē
Katrai
Kursas
grenad
neguva
neveid
sienām
vadošo
ģildes
cietums
deviņas
izlasei
nometni
skolēni
traumas
īpašību
štatiem
pārvaldi
aizvēstur
nacionaliz
pavadoņiem
statistikas
##cis
##uga
##elle
##ifor
##ikān
##kārš
Dat
##zemei
Alpu
Cesv
Mans
horv
rags
##itātei
Adams
Linux
Sirds
Stīvs
dievs
Columb
Compos
Indiju
nodots
studēt
objektus
redzamas
triecien
īpašumus
faktoriem
konflikta
uzskatītas
pasniedzēju
apstiprināta
##gla
##ory
##ret
##upē
RS
Big
Biķ
Šos
Bērn
izīr
kops
lies
Ļubļ
Bolīv
iziet
nosod
prasa
rīkot
staru
Bijusi
Centrs
Neilgi
Peters
Tikmēr
atrait
celtas
laukos
rumāņu
##saimniek
lokauta
rašanās
eksporta
kopvalsts
bruņinieku
Āgenskalna
ienaidnieku
в
##žus
##etil
Apl
Rak
lep
##eitas
##ickis
Kamb
Knāb
adap
Ābol
ložas
pilot
stūrī
topos
īpats
Senāta
aizspr
atdzim
izpēti
tēviņa
Tallina
atrasta
digitāl
filiāle
neregul
uzņēmās
īpašība
kabinets
likvidēto
augstskolā
dokumentos
labdarības
oficiālajā
skrajciemi
nodedzināja
uzbrukumiem
Rietumeiropas
##pend
##riti
##undu
Hin
Ņūt
##wards
Rudz
Torņ
tipu
Cēsis
Prāgā
bloka
cikls
kakls
kažok
##istiski
Piemin
Somija
mugura
noteic
orgāns
riesta
Cilvēka
Michael
Pasaulē
Zemgalē
apkalpe
nekādas
acīmredz
koncerts
krišanas
režisoru
klosteris
noslēgumā
elektrovil
populārāko
pretuzbruk
rūpniecība
pārvietošanās
##OR
##ifa
##īma
##gādi
##kout
##tulk
##ālām
grū
gum
īsā
##ankas
Jana
hosp
Dalas
Tautu
dēlam
fakts
platā
Pirmos
apgrūt
bāzēta
kompet
Galileo
Spēlējis
klosteri
uzspridz
pastāvīgu
sastādīja
atkāpšanās
sastāvdaļu
ekspedīciju
kristietības
pārstāvējusi
##AM
##cīņā
Edm
Inč
LKP
tri
Tark
agrā
domu
Bever
Domes
Paras
prior
smilt
varen
##ūsnības
attīrī
efekts
īslaic
Panamas
dižcilt
īpašums
Madrides
apmaiņas
ieguvēji
izvēlēta
Hābsburgu
protokolu
veikšanai
vārdnīcas
aizvadītas
ievērojama
ienaidniekiem
##Hz
##ка
##edu
Fed
Zīm
alp
Ķen
##glezn
##ēzija
Adam
Fjod
Spil
izsp
Cīņas
Makss
Mandž
bērna
ceļam
gadad
krasi
melnu
skotu
Īrijā
Robins
lejpus
monētu
veiktu
Leonardo
dziedāja
masveida
parādību
koncertos
novietots
standartu
uzvarētāj
apcietināts
administrācija
riteņbraukšanā
##dai
##ecē
##šķi
##ūnā
##akla
##krip
Sma
##akstu
##dabas
1851
Džou
Ober
Priv
Zvej
dara
kodu
nekr
##knābja
dārzu
presē
piedēv
uzturā
ģintīs
apģērbu
bezkrās
faktoru
kinofil
prefekt
sadalās
sprinta
bērnības
noritēja
ķīmiskās
aizmugurē
piemērota
virsotnes
arhipelāga
personības
priekšmeti
gubernators
investīciju
speciālisti
nocietinājumu
arhibīskapijas
##tol
##egļu
##eikt
##varā
##īdam
krī
mud
##ovski
##veidā
Camp
Link
agrī
izbē
izdz
mazd
Pedag
Union
anekt
ausis
polig
rindā
ārēji
Bruins
draugi
iesāka
pirmat
draudzē
vikingu
Penguins
Vidējais
attāluma
dienests
ebrejiem
izstādēs
uzlabotu
Olympiads
Slovākijā
debitējis
ekosistēm
kontekstā
radinieki
apsaimniek
Jaunzēlandē
korporāciju
ekspluatācijā
kinofestivālā
konfederācijas
ģenerālsekretā
##ye
ER
Oj
##ersa
##okur
##āram
ADW
Boj
Sor
izš
##ēvičs
Cita
Valm
apēd
bara
sird
šova
Smits
Vecās
cukura
nelaim
praksē
pēkšņi
sertif
uzsver
vakara
Rangers
aizbild
aplenca
bizness
detaliz
ieplūst
klavier
liegums
svarīgu
tabulas
Džonsons
daiļslid
matojums
alumīnija
samazinot
arhitektūra
evaņģēliski
maksimālais
nosaukumiem
neapmierināt
##anes
##eton
##greb
##ietā
##ēlas
IKP
cun
māk
##strīd
##ūsets
1858
Augs
Elis
Kārt
Piln
Radi
Ross
Natāl
garen
Carnik
kūdras
piebūv
piesāt
secībā
Daniels
Trešais
pārtiku
veltīts
braucēju
bīskapam
ieviests
konkursu
paskaidr
provinču
iebrukumu
muižnieku
Superlīgas
atsevišķām
grenadieru
saglabājas
##maj
##ose
pūk
##umuiž
##īgāki
Kādu
Dzērb
saska
ērģel
grādus
maizes
nekādu
pildīt
sadedz
skaist
noslēgt
sadursm
Vispirms
apakškār
izlaista
izstrādi
tiešsais
uzmanība
vēlētāji
atbildēja
cenšoties
distances
iespējami
pilskalnu
sarežģītā
apkārtējās
apmeklētāj
augstskolu
jautājumus
latviešiem
apbalvojumu
mazākumtautību
##ešs
##alus
##dedz
##ortē
Kaš
Puš
Sti
Web
slo
kars
brūni
heter
hiper
lēsts
pakal
plāno
##amerikā
Boriss
Indian
jūlijs
singli
sports
telpām
##augoties
Melnais
Militār
novērst
padevās
personā
prasīja
sagrāva
braucējs
daudzumā
mācītāju
Apvienotā
kontrolēt
noteikumu
pludmales
strādājot
Information
Atbrīvošanas
lietojumprogram
##ör
##ия
##ušs
Šū
##azds
##mora
##takt
##ūnās
Sēr
amb
##ikiem
Falc
audu
dota
kokā
vīra
zonu
impul
jaudu
kartē
klasi
krāšņ
pilis
vilks
šķiru
Mēneša
Smoļen
firmas
ieslēg
pārsūt
Uzvaras
altāris
nejauši
šaurumu
Saskaņas
Torņakal
izstrādā
uzvedību
atrodoties
elektriskā
izcīnījuši
konkurencē
piedalījušies
Nu
##mārs
##nesi
Dzj
How
Juk
Kup
Nad
alā
lēk
lūz
Ātr
ēst
##audžu
1820
Hugo
Mand
mies
tilt
vidu
Ēkas
##oņmant
Emanu
Mines
Pomer
audzē
eskad
krīze
upīte
zvanu
Gunārs
Viņiem
albumi
braukt
ierīču
minūšu
mātīti
nolemj
orgāni
sakaus
##ostacija
Tālavas
apkaime
dzimtām
plānoja
stadijā
Handbook
autonomiju
deputātiem
iedalījums
interpretā
lielākajai
mikroautob
karagājienā
pasniegšanas
universitātēs
Cj
##aulu
##eļļu
##salu
##ujas
##āres
Joz
lāp
##astas
Roma
kopu
Šādā
##aistās
White
kamer
krauk
Grieķu
Sentlu
absorb
izraid
lielām
pieeja
pāriem
ticību
triumf
ķauķis
Neretas
galdiņa
kļuvuši
laikmets
baterijas
gadsimtus
iekārtoja
politisku
rezidenci
sasniegusi
Literatūras
priekšmetus
starpniecību
##cr
##ин
##iner
BAF
Sau
##andra
Ņižņ
##acīkst
Atlas
Laiks
kafej
lasīt
##inātais
##čempion
Family
Jozefs
drupas
iztvai
kameru
pāreja
spalvu
Mārtiņa
saistās
Kolorādo
atrodama
personāl
pārcelta
sistēmās
svārstās
daudzviet
pierobežā
uzstādīta
baltkrievu
patstāvīgi
Antarktikas
nekavējoties
##urb
##ķes
##ūni
##ēnām
LNT
##ights
##putni
Anal
Divi
Maik
vice
##iskuma
##ockout
Novēr
kādai
pavēd
pārta
##estības
Golden
Leipci
izspēl
radītu
rūpīgi
Evaņģēl
garīgās
kampaņu
procesi
pārsauk
Jaroslav
kamaniņu
veselību
zīdītāju
Provinces
Pakistānas
pārveidota
vieglatlētikas
rekonstrukcijas
##bār
##ned
FM
##ound
##prom
DVD
Fir
Gab
eti
klā
pac
##eckis
##ēniju
1700
1857
Celt
Heat
Zaļā
arāb
īsto
##uskrip
Arena
Brest
Ziemā
atvai
triju
Vasarā
būtībā
jaunām
kaujām
pelēka
Phylogen
racionāl
telegrāf
Andersons
Cesvaines
Discovery
asistents
komerciāl
septiņiem
standarts
piederības
pseidonīmu
##36
##39
##DA
##icā
##nit
##ūža
##aidi
##icer
##ieņu
##iger
##vels
##etiem
1710
Engl
Mehm
Rumb
baid
nobr
Energ
Spēlē
Vasiļ
flote
klāts
slavu
world
Jūlijs
Kipras
augļus
izpēte
ķeizar
##inācijas
izstādē
nometne
nostrād
rasties
sarunās
spiesta
tehnika
tekstil
Mazsalac
atlikušo
iesaukts
procentu
stacijai
Detroitas
Potsdamas
aplenkuma
atgūšanas
izgudroja
izplatīti
kolekcija
lidmašīna
scenāriju
apstiprina
aristokrāt
plānošanas
priekšroku
sarakstiem
trolejbusi
##aff
##eki
##eme
##klu
Dv
##vilk
Biš
Zel
eņģ
web
##angas
##cisko
##zemju
Aval
Flam
Live
Schw
Tādā
glud
info
pigm
BAFTA
Class
Dažām
Gagar
Vissv
citam
devis
iemīt
sešām
sugai
ungār
štatu
autosp
barība
infrak
jūnijs
starts
stimul
##zemnieku
Sanfran
aizsāka
jaunākā
līdzšin
ceļojumu
līdzekli
nenotika
atlēkušās
atspoguļo
festivāls
nesekmīgi
piemēroti
uzskatiem
aizvietoja
kopplatībā
ministrijā
revolūciju
zemniekiem
olimpiskajām
##sn
с
##bus
##sto
NK
ZA
šļ
##inār
##ovai
Eiz
Koc
Map
##ājuma
1839
Mend
Skal
##ogrāfs
lodes
masīv
pried
Dragon
Sofija
ezeram
kļūdas
Seriāls
Vilsons
grāmatv
municip
Kazimirs
Knockout
Musolīni
miljardi
neapdzīv
Veselības
desmitgad
savienoja
tirgotāju
Žemaitijas
ceremonijas
speciālists
zinātniekiem
nozīmīgākajiem
pievienojoties
##dom
##iķa
##endi
##ēlēs
aļģ
ūdr
##tonas
Pump
rīko
Masač
Peter
later
rotaļ
attēla
dobumā
ķēniņš
proklam
Rietumos
aizsargu
Priekules
dzinējiem
uzvedības
projektiem
Sanfrancisko
pievienoties
##ре
##dex
##eip
##obe
##ske
IA
##aind
##jers
##kapi
Dai
Flo
Mūz
Pag
WTA
Žor
##oviču
Annu
Plāt
amer
zaru
Mazov
kļūtu
motoc
sāpes
Blakus
augsnē
graudu
kalpot
Kazaņas
Rakstur
lūgšanu
milzīgu
nevajadz
nomainot
notikusi
novadiem
Atjaunots
novērotas
rekonstru
zvejnieku
Sacensības
ekonomiski
ierobežota
opozīcijas
prezidentam
speciālistu
elektroniskās
##aži
##ekā
##ļit
##ceļi
##rīda
Gud
Lun
Mem
Pau
Sai
vīn
##antas
##dzirn
##valks
Good
July
Kord
cenz
loku
lugu
saka
vilt
Evans
Indiv
Luiss
ielūg
kauli
montā
tēmas
Arvīds
Kijevā
Satell
Somiju
pāreju
trases
Reinhol
platīna
veidotu
augštecē
ieročiem
kapsētas
komiteju
Portugālē
vietvārdu
Masačūsets
Saulkrastu
nosaukumus
risinājumu
uzbrukumus
indoeiropiešu
koncentrācija
vieglatlētikā
##idea
##iktu
Ārm
##inošu
##otova
##āļiem
##ņēmis
1821
Hold
Kell
Klim
Pale
Tais
Vīks
Zaļo
agri
negr
orde
puss
zaļā
zems
##eldorf
##estern
Hanss
Lauku
March
Oļegs
latīn
Nereti
asinīs
atskai
eksper
guvusi
tuberk
Beidzis
Džozefs
Otrajam
biznesu
laikmet
psihiat
skaitam
konkrētu
sarkanbr
##versācijas
nozīmīgas
piederību
plānojums
reliģisko
svārstības
diskvalific
paplašināja
populārākajiem
##yp
##asu
Šm
##atch
##ball
##edim
##eisa
##grup
##hips
##ogor
##ophy
##ākām
##īgam
Būv
Ori
rīs
##anche
Hant
Mērs
dzil
vēža
##valodā
Avots
Blues
Brāļu
ainav
ierun
izaic
kuņģa
žanru
atvien
ieleja
kārtās
spried
dūņains
jezuītu
līgumus
spalvām
stundās
Deutsche
Partijas
zināmais
uzņēmumus
aizsargātu
sadarbojās
Luksemburgas
kvalificēties
##pul
##ēmā
nū
##karu
Cuk
Ret
jūs
##lapas
##ocīti
##vedis
##ātāji
##āziju
1814
Adri
Jurj
Stal
grez
kādi
papa
diviz
iedom
svēto
##polijas
Izteka
Oskara
apsvēr
idejām
krasti
mazuļu
Hitlera
formulu
parasta
pilsoņi
plankum
pārtiek
trūkumu
Jupitera
bateriju
satiksmi
dokumentā
kritizēja
nevēlējās
notikumus
laikapstāk
parlamentu
pretošanās
Mākslinieku
atsevišķiem
neatkarīgas
##oba
##onk
IN
Iļ
##ects
##ekom
##inta
Alk
iez
##isons
##ākumā
1300
Vill
slap
Studi
ekspl
krātu
leņķi
lieti
spētu
##ajektor
Racing
Valgas
drāmas
lēzeni
Ādolfa
Millers
izklied
apmeklēt
paliekas
policija
publisko
reliģija
šķidrumu
Silēzijas
daudzkārt
neatrodas
elektrības
klausītāju
pievērsies
rūpniecībā
vēsturiskās
cilvēktiesību
administrācijas
##FR
##dra
##gak
##old
Pļ
##atās
##ikum
Boļ
pip
ērz
##augus
##iecas
Acis
Graf
bēga
koru
krok
##āliešu
Strau
atmat
grāfa
ident
sekot
Neliel
apaugļ
atmiņu
lietām
zināmu
Izraēlā
Konrāds
ietvēra
modific
stumbra
ģimenei
Brestļit
domājams
ieraksti
karognes
pieveica
saistību
platforma
pozīcijām
Kembridžas
gadsimtiem
gremošanas
īpašniekiem
nostiprināja
pašreizējais
rezultatīvāko
Administratīvi
konservatorijā
lauksaimniecībā
##žņ
##kss
##mala
##riem
##vācu
##aitis
##akaru
##oplaz
Ciet
Korn
Trip
##cessed
##eisons
laiki
mazās
pilna
vēlmi
Animal
Narvas
Tēviņš
astoņi
garīgo
masīvs
nolaup
burtiem
Dienvids
apmācību
notikums
troņmant
tuksneša
Staņislavs
profesijas
dzimumbriedumu
##ро
ec
##anga
##inst
##tuve
##vent
##vīns
##zīmē
##ānai
##ītam
Fri
LTV
Leo
ign
##ologa
##ungas
##ēmija
##štāba
##ūstek
2500
logu
Atlan
Emīls
Muzik
abstr
novāj
Center
brīvās
piekri
pundur
šaujam
Hitlers
izstāde
mantoja
nedēļām
saprast
ieņēmusi
izbūvēts
nopirkts
lielajiem
nopostīta
pilskalnā
rotācijas
komponista
pārvaldības
pārliecinoši
Konstantinopol
##eak
##ovo
RP
##hans
##ilde
##miem
550
Osm
Tak
Tip
Tām
Ķīp
mala
viol
##esties
Dievu
Kastr
Katal
Luija
dīķis
kņaza
sekun
čakst
Ernsts
Noteik
Tukums
briesm
kūrija
līdera
pagrab
respek
##meistars
Konkurs
bibliot
nebrīvē
rīkotas
Sieviešu
apstākļus
dziedzeri
pārošanās
startējis
mārketinga
##āh
É
и
##bir
##opt
Cī
##arth
##klas
Eiž
ost
##padom
##skara
##vārdi
Base
Nept
Ring
Ziep
Zirn
barā
būve
##bridge
##entāls
##ētiski
Iļģuc
Svēto
droši
izcir
viesu
grieķi
ievieš
izsaka
minūtē
šķirne
Antonio
Apspalv
kalcija
labākie
medības
ražotne
sapulcē
sauktas
skaitļi
kontrole
regulēta
ierakstus
parādības
resursiem
velobrauc
žurnālistu
Afganistānā
##šņ
##osof
##stot
Lop
ala
maģ
##dziņš
##itāšu
##lines
##ējamo
gleč
kāpa
naid
Šķir
##ojušas
Donas
Teher
favor
norīk
skaņa
žanrs
##ūdzības
iedzim
jūdais
kapela
pierad
stāsti
##andināvu
ekstrem
etnisko
hronika
izveidē
jebkurš
Grieķija
grāmatās
meistari
balstījās
kolonijās
tieslietu
ķīmiskais
Basketbola
Prezidenta
atsauksmes
uzvarētāji
##lay
##noz
PM
##anna
Ark
Beh
Eth
Jeh
Jūd
Pos
Tūr
lāz
rūg
##harda
##onika
Ariz
Bens
Brež
Pērk
balk
gamb
mārc
simf
turb
Šahu
šifr
##otājas
Stend
botān
brīvu
ciklu
fantā
Barons
Visiem
Vērmah
kodola
pārlūk
stumbr
čūskas
Bērziņa
antarkt
kopiena
Eirāzijā
Kristīne
ienākumu
prototip
resursus
vilcieni
klientiem
trajektor
dzīvojošie
novērojumi
organizēta
kontinentālās
##KS
##LV
##mel
##ogen
MTV
SCA
Ved
čig
žok
##aceae
##enerģ
1853
Aprī
cars
Ciems
Ordas
Skola
apņem
posmi
##inātāji
biroju
pacelt
saplac
Draudze
galamēr
ierīcēm
radījis
servera
ērģeles
atslēgas
fiziskās
koncertz
molekulu
nometnēs
organism
pakļauti
procesus
ansamblis
attīstīja
interpret
platformu
Bolderājas
Dictionary
Vladislavs
izveidojis
delegācijas
politiskais
tehnoloģija
##45
##fi
##ox
##ün
##lie
NE
##eiss
##omet
Dik
Has
Hat
Mūr
Zen
##hawks
1846
dzes
svai
Atēnu
Enton
Kājas
Mellu
Skolā
Volks
jūrai
Dānija
citādi
domēnu
mirušo
Ārmstr
Fizikas
Rūdolfa
brīvajā
kritiku
sekundē
Konfeder
konkrētā
skujkoku
Bibliotēk
Darbojies
Holivudas
Sicīlijas
apvienoti
mīlestību
novietotas
pazīstamas
pašreizējā
rakstniece
Televīzijas
tradicionālo
Organizācijas
##35
##LS
$
##onj
##ozo
##taš
##ych
SE
##tēvs
Avi
jak
##aktiz
##ister
1789
Bull
Krēs
jāap
##ējušās
##ētisko
Avīze
Smilt
argum
korup
nebūt
nepab
rediģ
īpašs
ķēdes
Baltās
Fricis
Kaujas
Pareiz
Romāns
avīzes
pazīme
sižeta
tankku
ķēniņa
Biology
Celtics
biatlon
kušanas
nepatīk
Dmitrijs
struktur
Mikrofona
manuskrip
tradīcija
veiksmīga
apdraudēta
pašreizējo
Galvenokārt
profesionāli
tradicionālās
##tl
Г
##zob
##ažos
##ieks
##lins
##otņu
Kep
LBL
mag
Vaid
skaļ
šaus
Kaļiņ
Laura
Wings
dzint
nebūs
German
Kambod
cauruļ
ieguve
liekot
patska
pavair
platas
sašaur
Leonīds
Uzskata
noturēt
resursi
stipend
Rumānijā
Teksasas
Valdības
augstais
komandās
parādība
produkts
puslodes
Vankūveras
futbolistu
holandiešu
uzņemšanas
izstrādājumu
lielmeistares
##38
##FK
##žo
##ērk
Cro
Cyc
Old
jār
sēj
##felds
##itāna
##plūst
1802
Alun
Bend
Dubl
Plān
tēma
vīna
##istikā
Babil
apņēm
šādus
##planētu
Islāma
Series
izlaup
kodols
neveik
orbitā
vētras
zemkop
Balodis
Seriāla
aktiera
sanator
simboli
kolonija
nelielos
pagastos
pieteica
platform
turpinot
uzticību
ietilpība
nopelniem
arhipelāgā
##75
##ājē
Lē
##gulb
##ožes
Leh
Log
Vēj
bai
muš
pon
##antam
##grupa
##malās
Psih
Slav
Tadž
kvēl
lauc
tēli
zoss
##izplat
Biķer
Sunta
Ziedi
atves
hidro
Alojas
Būdams
astoņu
ekrāna
kartup
mēness
piecos
pusvad
saknēm
nolūkos
planēta
pārējos
skaitli
vienota
Transilv
iecirknī
koncertā
lielherc
Habsburgu
attiecība
dzīvnieka
mehānisms
Foundation
Management
dibināšanu
karagūstek
karaspēkam
komerciāli
instrumenti
nacionālistu
ārstniecības
klasifikācijā
##āķ
п
##ēms
FA
##ania
##eria
##olus
##vītr
Gēt
Kiv
Pip
Ral
Rēv
Wal
XIX
##ental
##uttle
1832
Albr
Džon
Nils
izsm
suņi
##enieki
##ūzijas
bremz
diska
pankr
purvi
stāvu
##veidīgi
kopīgu
krūtis
šaurāk
kaimiņu
līnijai
mājdzīv
privātā
pārklāj
##ogrāfisko
Molotova
Pireneju
ieraksta
sacentās
apvienību
dzirnavas
fosilijas
izpostīja
mantojumu
mikroskop
Centrālajā
Sabiedroto
Vecumnieku
##ел
##cus
##efu
##jaz
Vī
Yo
be
##alda
##ogļu
Bot
Max
Veļ
rām
6000
Hosē
##adsmit
Bened
Vilis
aviok
bieza
kaķis
motiv
ornam
prote
stāvs
##grāmata
Attiec
aizsāc
areālā
hromos
Braiens
Jansons
meistar
privāto
ratific
Communic
amatieru
iestādēs
obligāta
reģistrs
sniegumu
zemūdens
diplomāts
elpošanas
iesvētīja
ievainoti
jubilejas
vairākumu
literatūra
patstāvīgu
arhibīskapu
Hercegovinas
ieslodzījumā
profesionāla
sabiedrotajiem
##act
##ēri
Eš
OM
##audi
##idži
##ioni
##usam
Cib
##burgs
##uļiem
##ēnijā
1783
1855
kaķi
pārv
Brukl
autos
galos
retos
uzdāv
##lēkšanā
aptiek
deport
gatavs
ledājs
likumd
līdaka
savāca
spārna
šādiem
##ervation
centram
izdotas
izstāžu
paveids
ūdeņiem
Gagarina
cilvēces
fotograf
sākoties
tramvaji
vadošais
saglabātu
sasniegts
Augstākajā
Rakstnieku
diskusijas
eksemplāru
meklējumos
piedzīvojumu
Brestļitovskas
##īzu
Āz
##tavu
rod
tul
##dziņu
##otnēm
##tures
Mana
Miči
pump
sfēr
Imant
Putni
ignor
jomas
lejas
uguni
Frenks
Skaist
atņēma
doktor
iekļūt
nepiek
Jekater
Jelgavu
Nākamās
komētas
pārdota
svētceļ
Spēlmaņu
Virslīgā
bijušajā
lietotas
mazākais
pussarga
speciālu
vērtībām
kandidāta
Austrāliju
dokumentus
mikroorgan
monarhijas
pārstāvēta
laboratorijā
savienojumus
##FC
##dena
##okam
Jeb
SWH
Ten
ent
##aitot
Gauj
Hark
Oliv
limf
loks
plac
sina
Ķerm
##ažieru
##kontin
##ocentr
April
Autom
Latīņ
Nāves
Ozols
Valda
spura
stiep
sānos
titul
šķaut
gultne
lūgumu
prokur
slikti
vecums
Libānas
Sebasti
slovāku
ziediem
kontrast
nelielus
ģenerāli
balsojumā
pasākumos
pierādīja
piespēles
prezident
uzņēmumos
pilsētciem
pielietojums
komunikācijas
proporcionāli
##iksa
##prov
##ērso
##īdes
Gib
Hob
Hun
Lon
Vul
ple
##iness
##menis
##ovkas
1845
Emmy
Jāņu
dzen
ragu
vilk
visk
##ekonom
Lielu
Stone
jūrās
piekt
ražas
tirgu
vaina
varai
##ētiskās
Baikon
Fransu
Mariju
izvēle
izvēli
skaitl
īsteno
Šveici
Institū
Romiešu
adreses
antenas
sarkans
saskatā
Dzintars
apzīmētu
septiņus
Etiopijas
Valdemārs
dinastiju
viedoklis
aktivitāte
būvniecību
karalienes
pārstrādes
zemestrīces
dalībvalstis
ceturtdaļfinālā
##icka
##nesī
Fīn
Sik
Urs
##anovs
PFSR
Šanh
##estras
Books
Purva
Sultā
jauda
jāpār
mācās
sēdes
##istisku
Soviet
altāri
deform
franku
grīdas
klints
metāls
##inājumam
Vairāku
ciemata
kritiķi
norādot
pazīmēm
minimālā
nozīmīgi
homoseksu
priekšējā
lidsabiedr
romantisma
individuālo
teritorijai
piedalīšanos
nepieciešamība
##cē
##āž
##ofā
NV
SI
us
##elop
##kult
##olam
##tonu
Mēm
Expl
Grod
Visā
atpū
heks
litr
##grāvis
##kārtas
Arsen
Imper
plato
slāni
Ropažu
akumul
kamera
mikrof
uzbūvi
Izraēla
Klusajā
Kuldīgā
Renault
atveras
doktors
pabeigt
pasargā
Dibināta
glabājas
indivīda
modernās
Evolution
Grūsnības
Minesotas
apvērsumu
elementār
esošajiem
atkāpšanos
novērojams
precējusies
Tradicionāli
Л
##Tube
Amp
Aur
Baj
Hau
Kum
Ler
Maž
dīg
hem
pod
zin
Ģer
Īst
##ojoši
##opter
##čenko
##ējošs
##ūciju
1842
Kaup
ball
reta
##eslavs
Glāzg
Kluba
cīņām
nostā
vergu
Kevins
Liesma
Report
datums
izejas
sūtīja
terora
vilnis
Četras
ķīmijā
bezvadu
pareizi
pēdējie
repertu
tikušas
Žurnāls
Oficiāli
apraksts
atbrīvot
izšķiļas
pulkvedi
raksturu
tiesneši
Aizkaukāz
informēja
notikušas
lietošanai
noliktavas
dalībvalstu
konservatīv
Demokrātiskā
sociāldemokrātu
##AZ
##OC
##elam
##enus
##vina
Abh
Cur
Liz
McL
urī
##usiem
Datu
tril
##valdis
##ālajās
##ējošas
kursa
perif
pusei
tēlus
Siguld
baltās
Madonna
Mihaila
Studiju
William
YouTube
slavens
ķīmiskā
ansambļa
koncerti
Hamburgas
Norvēģija
Sarkanais
augstienē
musulmaņi
nosaukumā
Mongolijas
aparatūras
padomnieks
māksliniece
uzņēmējdarbības
ģeostacionārajā
##46
##LB
##agus
##ežas
##iems
##inks
Jūn
Rab
vēz
##īgāku
Liga
kaķu
kāpu
pērk
teic
##ustecē
##īgajam
Queen
Sever
dzejo
mērķa
strīd
ziņām
Produc
Trešās
aizdev
mašīna
muskuļ
render
##emokrāti
##ināšanām
draudzi
teorēti
zinātni
Iesākumā
Līgatnes
ievērību
sertific
Cambridge
novembris
regulārās
sadalījās
nepārsniedz
saimniecību
elektronikas
kinorežisors
starptautiskos
##ич
##agā
##dis
##isā
##oad
Og
##kaņa
Chr
Zon
atc
pūl
ķīn
##ēdiju
Kast
Laud
Over
apgu
patr
zivt
##ardarb
##centrs
##deguna
##istiku
Otrās
karad
opera
sēnēm
##inātāja
betona
Kalpaka
tehnikā
Intelsat
Sibīrijā
nelielām
piemiņai
straumes
svētkiem
decembris
iemesliem
mehānismu
pieaudzis
projektos
tehniskās
ieņemšanas
populāciju
vidējciems
disciplīnās
Ņūdžersijas
eksperimentu
konstrukciju
nosacījumiem
apvienojoties
##iri
##sas
##ynx
##Team
##ovka
270
Gur
Rau
dia
dīv
Žir
##aktis
##kalni
##press
##umtir
##valde
1807
1818
1841
Hell
Konc
abon
nost
Čern
##dzenes
Delta
Jānim
Musta
Nomet
mātei
nauda
neats
šķērš
George
Komand
adrese
asaris
atentā
gūstek
likumā
tatāru
Ķeguma
Sarakst
Turciju
aktrisi
koksnes
mēnesis
pielīdz
portālā
veltīja
Antantes
Ziepniek
Budapeštā
Canadiens
Vladimira
apprecēja
arhitektu
atbildīgs
atklāšanu
izveidotā
līdzenums
Karalienes
Sigismunds
aprakstīts
jūrasbrauc
uzstāšanās
nominācijās
pieņemšanas
vēsturiskajā
##ejo
##ihs
##imu
##vab
##zar
Ef
MP
RT
##aint
##arhs
750
Izm
LZA
Lot
Lov
Maš
lei
sul
tot
##berta
##manim
##īrija
##šūnas
Alex
Damb
Fron
Pred
Sard
bars
ultr
##ovanni
Brežņ
Lisab
##ionisma
Apbalv
Janvār
Nature
dibens
izzudu
konfes
purvos
ūdensp
Patriks
Rolling
Saturna
aizņēma
izlasēm
praktiz
prasmes
Kārsavas
atradies
etniskās
komisiju
meitenes
pieredze
seminārā
Reference
piespiedu
pozitīvas
vienspēļu
lietotājam
piederošās
##ал
##īms
DA
SD
##acep
##avai
##ient
##kolā
##ustu
Bod
Had
zīr
##īdams
Bord
Dzēr
Gvin
Hann
Sams
Sing
Stop
rīkl
##ēlijas
##ījušas
algas
apceļ
atrib
variē
zemūd
štats
##ensijas
##ingenes
Septiņ
kazaku
ligzda
mestra
mācība
pelēkā
plāksn
pārmai
Fransuā
Pilsoņu
Termins
apskatā
istabas
uzskati
žūrijas
Rundāles
Viestura
datoriem
dzērienu
izsūtīts
meistare
pārsteig
Vietvārdu
gatavojās
izcīnītas
viesnīcas
Baikonuras
kolekcijas
kvadrātkil
luteriskās
nodibināts
ziemošanas
filoloģijas
##78
##96
##vec
##ahas
##graf
Sea
##ekļus
1790
Hidr
Somu
Wall
iekl
##iekārt
ozols
##istēmas
Franko
Pilson
apšaub
arhīvs
harmon
kultur
misiju
slēgts
Aristot
Eduarda
augusts
izklaid
prēmija
publisk
sarunām
vāciski
Mežotnes
Vaiņodes
dzeltenā
lieliski
slimnīcu
darbaspēk
kompleksu
savienoti
##rūpniecības
Lielākajai
scenārists
slēpošanas
uzdevumiem
zīdītājiem
ģenerālmaj
absolvējusi
##26
##70
##ар
##aio
KP
##elim
Mīt
eds
lūp
ped
roz
##arbon
##landē
##triec
##vator
##ējami
Bred
Briz
June
Plut
Prok
Sald
rāts
##izējot
##kapitu
Irānā
labus
monum
šūnās
Apglab
Desmit
Flyers
dēliem
iezīmē
izgāja
kopīga
pavilj
riekst
zarnas
January
Rodžers
deportā
gruzīnu
meklēja
pārziem
suveren
valūtas
absolven
aizstāja
stacijām
varianti
balsojuma
ceturtajā
Kristofers
jauniešiem
ministriju
pārraidīts
romantiska
ienaidnieki
Austrumeiropā
jaunizveidotajā
##eņos
##ukle
##ānes
##ejiem
##iniem
##kalnā
##odroš
##ojamu
1831
Alfa
alās
iežu
matu
sēne
Nakts
kamie
kļūdu
nobei
plais
simul
vijol
ūdeņi
Jāzeps
Līvānu
Reinas
Sadarb
Sevast
apriņķ
domēns
nošāva
sajauc
seguma
teikts
ērglis
Daugavā
analīzi
cietuma
uztvert
Grieķiju
albumiem
grafikas
interese
izaugsmi
krāteris
līdzvērt
pulkveža
oficiālās
zaudējumi
Aiviekstes
vidējciemi
##akl
##icē
##bols
##itis
##posp
##āpju
ATP
Doņ
Hjū
Mēk
amp
nir
žēl
1809
Andu
hist
Ivana
Prāta
Royal
Vētra
Šmits
##orfisms
##ītākais
atzars
fronte
piloti
ģitāra
Bratisl
Haralds
Pavisam
Pāvests
Sahāras
aprīlis
futbolu
hospitā
komentā
nevienā
profils
ģimenēm
ūdeņrad
November
Uzdevuma
Vienības
trīskārt
Jēkabpilī
Kristians
dzimumiem
februāris
funkcijām
veidojies
kopvērtējuma
olbaltumvielu
##25
##ос
##elk
##het
##mor
##meta
##ondr
Vak
##iksas
##ikātu
##latās
1792
1828
1847
##aiņiem
Skrīv
izple
rezon
summu
Berlin
Ebreju
apbruņ
dārzos
garāks
lauvas
leņķis
otrādi
pamati
General
Izraēlu
amatiem
dievišķ
identif
nelikum
pasugām
##materiālu
Draudzes
advokāts
dzeltens
jātnieku
miljonos
produkta
##oloģiskajā
Volīnijas
iedarbība
inženiera
piederošo
raidījuma
Sacensībās
automobiļu
daudzdienu
ierakstīta
iznīcināta
lielgabalu
dziedāšanas
izpildītājs
korporācija
slepkavības
konstruktoru
privilēģijas
##ua
##ozs
PA
hr
##amām
##prat
##ētam
DEL
Fēl
Šte
##austa
##oster
##tropu
Deju
Edin
Manč
gāzi
lētā
maiņ
##galvas
##ējošie
Mozus
Parad
Power
cepur
ekran
klāja
manif
negad
nodaļ
##pilsētā
##šteinas
Person
dziļāk
ģintij
šausmu
Shuttle
amerikā
brāzmas
gvardes
izveide
termiņu
ķermeņi
atklātās
estrādes
līdzinās
pagastus
izvirzīta
kompleksā
pārbūvēta
arhitektūru
Pamatojoties
piekāpjoties
##ат
##lat
##ojā
##ēki
EC
Ēd
##aktu
##ange
##arag
##eļam
##pēja
##uzes
##ēnam
##šķēr
Das
Šer
##aunes
##izēti
1825
Beng
Indo
Plaš
Smit
With
peln
stār
##gadīgo
Auces
Eirol
Hjūst
Kannu
gadal
gaitu
kaklu
krīzi
papīr
rubļu
sagād
slīpi
Mēklen
Rugāju
attēli
būvēts
minēti
neilgu
nepāra
Valstis
iegūtas
##krievijas
gredzens
koledžas
koncerta
ministri
vilciena
asteroīds
dzīvojošo
luteriskā
nomainīts
septembris
Inflantijas
##EM
##rd
##oca
zu
Gra
Ton
dēj
lir
Balv
Mari
Tram
egļu
geto
plēv
rīdz
##aziņas
Savva
Vestf
Ziņas
amats
birds
failu
mačos
pilns
pētīt
saind
Bauskā
Kanādu
Lubāna
Review
amatam
durvīm
mezgls
mērķus
nepiem
skaitļ
uzsvēr
zibens
Charles
indiešu
izklāta
nosūtīt
Jaunpils
apkārtne
bruņotie
gadsimts
iesākumā
koncertt
nodēvēja
trijstūr
vietējos
šķiedras
aminoskāb
bataljonā
dzeltenas
ieviešanu
izglītība
negaidīti
palīdzētu
pilsoņiem
procesiem
skolēniem
tirgotāji
tulkojums
futbolista
priesteris
rietumdaļā
rokmūzikas
sadarbojas
uzplaukumu
sastāvdaļas
vēsturnieki
apvienošanās
viceprezidents
##VR
##vās
##ēda
##šal
mē
##akta
##deru
##grun
##ione
##tājs
##vera
Izs
ilk
##ocītu
##torus
##īziju
1854
Aste
Grif
Kaul
Prob
Raid
Trin
marķ
prām
##itātēm
Brīvā
abpus
helik
Valstī
dalība
veikal
Natural
Volfgan
vizuāli
Heinriha
baroties
ievadīts
iezīmēja
krājumus
politiķi
pārsnieg
Kristiāns
dibinājis
ierindoja
klātbūtni
miljardus
personāls
principus
sekretāra
Eirovīzijā
ceremonija
iesaistīti
katedrāles
militārajā
pakalpojumi
Apspalvojums
Ziemeļrietumu
##ny
##erē
##aksā
##intē
##līšu
##āgst
##īkas
Reb
mūk
##arovs
1774
Burg
Krem
Siet
Veik
izkr
lido
meli
staļ
##ission
##īgākas
Tajās
cīņai
klašu
lieta
ronis
stari
tējas
prakse
sakari
ūnijas
Donavas
albumam
atrastu
bezdarb
iekarot
krājumā
līdzaut
robežai
##alizācija
darbībām
esošajām
negatīvi
tūkstošu
literatūr
orķestris
uzmanības
izteiksmes
kosmonautu
plastmasas
##21
†
##eum
##mēs
##urp
ib
##apul
##ders
##itar
##kava
##kova
##otis
Beb
IBM
Jon
aci
koš
soļ
Piev
Reik
bēgt
vent
Capit
Dzimt
Kastī
Zemei
atvēl
nospr
satel
Aigars
Kosmos
atlīdz
jaunos
orbīta
pārmēr
McLaren
atomiem
guberņu
neatbal
portāls
species
vardarb
Individu
Studentu
pieskait
automobil
bibliotek
gadsimtos
pasākumiem
skulptūras
kavalērijas
saslēgšanās
smilšakmens
asfaltbetona
iesaistīties
pieprasījuma
pieprasījumu
organizācijās
##EG
##TI
##apz
##idā
SC
##utes
Ari
Buh
Cre
nās
##ebook
##ermat
##āzija
1844
Džes
From
esmu
##enhauz
Andrē
Botān
Džonu
Vilks
islām
putna
skudr
##akcijas
Albreh
Guntis
Havaju
gariem
izpirk
skolām
uzdeva
##ētiskajā
Trešajā
aktīvas
baltais
lietišķ
nomināl
perpend
seriālu
atšķirīgu
dokumenti
Publishing
identitāti
iedarbības
popmūzikas
priekštecis
lauksaimniecību
##ón
##itm
##sil
##deni
##okss
##ērti
Acc
Fen
Obs
Pāl
Sep
kļū
Žeč
##iekur
##ities
##manes
##vaigz
1804
1827
Pavl
augt
kapa
niec
olīv
page
zils
##bedīts
##inavas
##istāna
Dinab
Emīla
Strēl
akust
apstā
artic
atain
iedib
prets
svilp
turki
Šarls
Deniss
Lielie
Margar
Zagreb
atlasē
drīzāk
ielenk
muitas
paziņo
##metrāžas
Dalasas
Ernesta
Liepāju
Lībijas
Sarkand
bijušie
skaitļa
ķermenī
Žečposp
##istiskajā
Kongresa
iespaidā
indivīdu
izslēgts
lejupiel
militāri
turpmāko
Savienību
Ziemeļkor
neatgriez
patvērumu
pieskaita
vienkārša
Austrālija
aiziešanas
dramaturgs
iznīcināti
sabiedrisks
saimniecība
##aux
mg
##etēm
##feld
##hone
##iets
Alc
Fot
Fur
pik
Čap
##endor
##ution
##vušas
1813
1843
Dzin
Dņep
High
Lady
Olga
Ster
tārt
##imetru
Ducks
Galva
Plant
ainas
dzegu
ievāk
teikt
ļautu
šveic
Nākamā
Vecvār
fināla
klubus
stobra
virzās
zirgus
Biznesa
Diemžēl
Pārējās
Vikipēd
latgaļu
parasto
sadalīt
sarkanu
Ļeņingr
atklātņu
objektīv
piegādes
populāri
vīrietis
dzejnieku
maksimāli
nogalinot
veidošana
bibliotēkā
bioloģijas
pietiekoši
trīsdesmit
Sarkandauga
palielinātu
vēsturiskais
##DF
##išs
##nad
##oid
##tab
##askā
##būve
##lova
##umas
Pin
Raž
Urb
dūm
lem
##odams
##rimin
##vilas
1834
Adel
Džim
kūrf
rokr
tūrē
##kajiem
Strat
Visām
Vitāl
medīt
ozolu
smags
tēmām
Ģertr
Knābis
atliek
ieskaņ
lietās
lēmuma
miniat
nedzīv
satiek
zvirbu
Mālpils
ogļūdeņ
pelēkas
pludmal
Airlines
izgatavo
procesos
projekti
sarkanas
vadītajā
zemnieka
Krišjānis
Leipcigas
labiekārt
pārvēršas
Pitsburgas
dziedātājas
noteikšanai
programmatūru
administratīvās
##tee
##āža
Tj
##entē
##film
##šūnu
Equ
Nur
ben
##izētu
##ojamā
1582
būvi
kamb
nagi
sūdz
vārp
##ējumam
Dažos
Ekvad
Intel
Ohaio
Sauli
malās
miega
redze
zelts
##strāvas
Zariņš
cerēja
mision
pavēle
skolai
Atbilst
aizbēga
aizpild
būtiska
horvātu
kopskai
padzina
saprata
spējīgs
Priekuļu
izdevumi
pretojās
aizsargāt
attieksmi
grāmatved
pavadonim
veiksmīgs
zemesraga
komponistu
olimpiādes
labklājības
Enciklopēdija
populārākajām
##90
##ña
μ
##fiz
##ren
##ruc
ež
##ecka
##prot
##pulk
Jen
Num
cek
für
jāk
##ajevs
##isiju
##tālāk
##tārio
##ēlijs
1758
Book
Ceļa
Cīru
Grin
Jack
Line
Rafa
saas
Ģerb
Ķeiz
##ikānis
Abdul
Stock
Video
amonj
augļi
defek
nokar
risks
Lattel
Singls
franči
gatavo
sastap
skatīt
sportu
vieglā
Ēģipti
īpatņu
Bulduru
Partija
Robertu
atsakās
izteikt
mandātu
pārziņā
Alsungas
agresīvi
atdalīja
beigšanu
efektīvi
izrakumi
reģistrā
subtropu
Vienīgais
amatnieku
atklāšana
atkritumu
iekšpuses
konkursos
Blackhawks
Mazsalacas
palielinot
piemērotas
savienojas
standartiem
Olimpiskajām
publikācijas
##VA
##oo
##aša
##gāt
##kes
Sī
##ajev
##angu
##erit
##kāpa
##malu
111
Aga
Att
Zas
pūš
sur
Ķel
##elles
1796
Andž
Gail
sekl
Juven
avota
sakņu
Šeksp
Candid
Marine
aģents
biedre
izvērt
titula
Ribentr
apmetas
diecēzē
filosof
izsnieg
reljefa
sikspār
sociāli
tīģeris
Piejūras
klasiskā
daudzumos
ierašanās
izdevumos
komplekti
projektus
nekvalific
pasūtījuma
standartiz
vislielāko
Bundeslīgas
Ziemeļaustr
##42
##arl
##ize
##ool
##aurs
##azdu
##sies
Kib
Lom
TCP
emb
##asput
##etari
##ostat
##otips
##ītākā
1253
##a
##i
##s
##e
##t
##r
##u
##n
##ā
##o
##k
##l
##m
##d
##p
##v
##j
##.
##ī
##z
##g
##ē
##b
##,
##c
##š
##1
##"
##0
##ņ
##ļ
##2
##9
##ū
##S
##f
##P
##A
##h
##L
##)
##(
##K
##V
##T
##ž
##M
##R
##B
##D
##8
##3
##5
##I
##4
##6
##7
##ķ
##N
##ģ
##-
##E
##G
##č
##C
##J
##F
##—
##H
##O
##:
##Z
##y
##U
##Š
##w
##/
##;
##W
##”
##Č
##%
##Ā
##–
##x
##'
##Ķ
##„
##X
##Ž
##“
##Ē
##Ņ
##Y
##Ģ
##Ī
##_
##q
##°
##&
##о
##Ļ
##а
##и
##’
##+
##»
##«
##е
##=
##!
##р
##с
##н
##Q
##é
##?
##к
##ä
##Ū
##т
##ü
##в
##‘
##л
##]
##ö
##[
##|
##д
##−
##á
##С
##м
##у
##я
##й
##г
##⁄
##п
##ó
##ы
##í
##×
##ь
##*
##>
##б
##з
##ŗ
##А
##К
##О
##α
###
##ч
##Р
##М
##ß
##Н
##П
##В
##•
##~
##х
##<
##ı
##è
##ō
##õ
##И
##ė
##ł
##Т
##å
##ñ
##Г
##Л
##ç
##ц
##ο
##μ
##·
##ρ
##É
##ς
##Е
##ν
##$
##Д
##â
##ş
##à
##ш
##ø
##Б
##†
##ж
##ф
##λ
##π
##τ
##æ
##β
##ا
##ι
##Ü
##ú
##`
##ε
##ų
##Ö
##±
##ë
##ã
##γ
##ń
##î
##ю
##ğ
##ý
##Я
##Ø
##У
##З
##σ
##→
