[PAD]
[unused0]
[unused1]
[unused2]
[unused3]
[unused4]
[unused5]
[unused6]
[unused7]
[unused8]
[unused9]
[unused10]
[unused11]
[unused12]
[unused13]
[unused14]
[unused15]
[unused16]
[unused17]
[unused18]
[unused19]
[unused20]
[unused21]
[unused22]
[unused23]
[unused24]
[unused25]
[unused26]
[unused27]
[unused28]
[unused29]
[unused30]
[unused31]
[unused32]
[unused33]
[unused34]
[unused35]
[unused36]
[unused37]
[unused38]
[unused39]
[unused40]
[unused41]
[unused42]
[unused43]
[unused44]
[unused45]
[unused46]
[unused47]
[unused48]
[unused49]
[unused50]
[unused51]
[unused52]
[unused53]
[unused54]
[unused55]
[unused56]
[unused57]
[unused58]
[unused59]
[unused60]
[unused61]
[unused62]
[unused63]
[unused64]
[unused65]
[unused66]
[unused67]
[unused68]
[unused69]
[unused70]
[unused71]
[unused72]
[unused73]
[unused74]
[unused75]
[unused76]
[unused77]
[unused78]
[unused79]
[unused80]
[unused81]
[unused82]
[unused83]
[unused84]
[unused85]
[unused86]
[unused87]
[unused88]
[unused89]
[unused90]
[unused91]
[unused92]
[unused93]
[unused94]
[unused95]
[unused96]
[unused97]
[unused98]
[unused99]
[UNK]
[CLS]
[SEP]
[MASK]
a
##ch
##ai
##ea
s
##in
##na
##th
,
.
an
d
##ir
##bh
##is
##ar
ag
l
##il
g
##mh
c
t
f
na
##us
i
##an
##on
ch
agus
##dh
m
ar
##ta
bh
C
n
"
##la
##ío
##gh
le
##air
b
r
B
##ain
##ach
S
##ean
##id
T
##each
1
##eo
##éa
M
A
##ra
-
in
I
é
de
##or
th
##li
##ear
sa
is
D
h
##iú
go
##ith
##aigh
##ao
##it
p
##ic
chu
sé
##al
##inn
G
##ad
##án
##ig
##as
F
L
(
)
R
##aith
##áin
##er
##ail
##im
##ais
##cht
'
##os
N
P
Ch
##eann
2
19
##ol
##re
##ile
gc
mar
##omh
ó
##te
fh
##ga
##onn
bhí
##eas
dh
##ur
##om
Bh
##eadh
##ine
##tá
##ath
Is
##nach
o
sc
mh
##liain
##tha
##uair
##éad
##ann
##igh
##áir
ina
##aidh
##am
##le
sin
e
leis
E
##áil
Th
##ór
##río
20
bhf
nó
Tá
##aí
##un
##en
##eal
bhliain
##ín
seo
##eacht
##aithe
sh
tr
á
dt
##óir
ach
##tar
gh
##eir
##eoir
/
fé
##íonn
##el
H
##ac
:
##eag
##ist
as
##eil
ann
##éir
O
##sc
##aibh
##uir
##ia
##tear
##imh
##éal
##éar
am
##anna
##áid
##ge
##íoch
##ithe
atá
##io
##lach
##abh
##uil
##aid
ph
do
í
##Éir
raibh
##gadh
##íocht
ná
##ion
##adh
##ás
##ús
den
Bhí
##ru
chun
##oir
##es
tá
##oil
fao
du
##ro
air
An
eile
mb
si
##ainn
##eamh
##ug
##íodh
##int
##inne
##arr
gur
chuid
san
iad
##íos
##tas
##ua
##ib
Mh
J
lá
ea
##aile
##úil
cu
st
##ana
##taí
##isc
##ich
u
mó
18
W
##se
##ial
##rú
su
sí
féin
##ige
siad
##ír
Sa
##ip
##lu
##onta
##and
##dir
##acha
201
##eanna
ro
##idh
nd
200
faoi
##if
bhfuil
##ite
Gh
##ob
lea
##ún
U
##úr
##anta
K
##ice
im
##eacha
##tr
##ud
Ar
ain
##oc
##naí
##ras
##acht
##ill
dá
##rí
##ead
##ois
idir
##ona
##eith
##iún
chomh
##ag
##áth
don
amh
##airt
##áis
##ait
##ing
gC
Mar
Éir
V
Sh
##ne
trí
##athair
##eall
##áinig
##iúil
chéad
##ont
##all
##íochta
amach
Ó
##óid
##rea
##aint
##ontae
ón
Ga
mór
##ma
##eola
’
sna
duine
3
##eart
lu
dó
##ri
##sa
##éag
ainm
##rá
aon
co
nuair
##de
áit
Ba
##éana
sp
ba
##óg
ní
##ár
##ugadh
ché
##bhar
Ph
##tach
##idir
##eilge
##ís
##ise
níos
dtí
##ánach
ac
comh
##imp
##pa
##ibh
##aill
##och
##iaidh
##aim
##ríomh
##ce
nach
or
##íor
##st
##teach
##tt
##aoine
##ara
##reis
##ál
cé
ath
##um
Á
The
iom
bli
##ul
##íomh
##radh
##ph
##eachta
of
the
##úsáid
##ós
In
##eanga
##00
cl
##oll
##aon
bun
acu
##ró
aige
##aic
##áirt
chuir
##raí
##easc
deir
úsáid
##las
tháinig
##od
Sc
ceann
féidir
chéile
hÉir
##ard
##iar
4
Ní
199
##ll
##eoirí
ré
##saí
5
##nn
##at
##eidh
maith
##eán
##lac
##éanamh
##aig
##eol
leith
##reisin
##og
##ogh
hÉireann
freisin
éir
##thu
##tain
##thar
##ón
mB
##aobh
##pla
chur
cú
thar
##lí
ab
##ála
Fr
w
##éid
Le
##ómh
nua
amháin
##aire
De
cos
rud
##ian
##úir
cuid
suite
##ré
daoine
éis
iar
dhá
##eic
##da
;
##ríobh
##raith
thug
##iv
##fh
mí
Sp
for
Fh
##éarla
stá
##rach
ng
##ie
##úch
##eath
isteach
Co
##sin
réir
##earm
##ríoch
17
##eang
Dh
tar
##éas
##lacht
##éin
Aont
v
##osaigh
##aisc
##sh
gach
6
roinn
Gaeilge
ts
##íon
##iúnta
fad
St
bp
##uaigh
##eirice
cho
hA
##ónaí
198
##ed
bheith
##impeall
##eidhm
neamh
–
##eap
##úd
##illi
8
##lb
dhéanamh
##uireadh
tu
eag
##aois
gn
##óirí
##sú
léir
16
##abhairt
##artha
##aol
nG
Lu
##ríbh
##agh
Aontaithe
##áirithe
##earr
197
##rom
##lo
bu
##ris
7
##ána
tS
iona
##ins
teanga
Átha
##ruth
##éan
##thair
cur
##laí
rial
to
##fach
bhain
##ord
##the
##ladh
##amh
##land
9
lena
##iúla
##ugtar
ion
##ire
15
measc
agh
príomh
bliana
##óis
aghaidh
%
##ios
##et
##éis
uair
aist
##rao
fáil
timpeall
inn
##ómhair
ndiaidh
##ers
196
Jo
##iche
éag
##liath
Mac
lé
##inic
Stá
##oils
##lt
éirigh
ghn
Fómhair
##ort
##úis
##uid
##iu
tír
and
rugadh
aith
orthu
##ách
beag
##ibre
faoin
##ád
gan
##óin
##anc
Cliath
##ent
##ims
##iam
iarr
##ant
dhiaidh
dul
##taine
Domh
fr
roinnt
##lú
rinne
taobh
##íní
##lán
linn
##bair
##ou
domh
##eannach
##art
oir
##ae
##íre
lán
##achtar
##ág
##ap
lit
##ampla
bás
scéal
thu
##eor
Br
haois
fuair
cheann
roimh
chathair
siú
##scoil
]
áfach
##isce
uir
chuaigh
Éirinn
[
bhun
com
##oin
##sp
##íl
Nuair
leath
##aing
194
bliain
mhór
##ttp
deireadh
##lann
##aist
sean
##ala
fu
##ow
##ifig
195
##lé
cosúil
##ítear
##ot
lucht
##ionn
##fa
daon
clu
##úna
##earmáin
réal
os
##iom
##son
lár
##eireadh
##áirtí
déag
shampla
##eabh
ansin
##iúr
##orc
##eana
foir
gcomh
##ríbhn
##uint
Béarla
leabhar
Sas
##eist
##asc
##naíodh
##olait
##aisceart
##uill
gcónaí
##laíonn
##nacha
##ileán
##lacha
##000
##bhach
cinn
scríobh
##ong
Du
##arb
##ton
##aeilge
##ibr
cath
##ov
hE
193
191
##áiste
minic
##che
Bu
Spá
##íne
aic
##ocht
leic
##mp
Ag
##óras
##éil
mac
cuireadh
##ráid
##ainne
Y
Con
192
É
##eolaíocht
##ailte
obair
bharr
Tháinig
##tal
Eor
##uintir
scann
imir
10
Na
##ell
bhíonn
rith
##scéal
##oth
Joh
aois
inniu
úd
teacht
dara
bP
arís
##ola
##lais
##man
##eis
nós
##eantar
##lic
12
Meirice
Bíonn
##ond
##ineál
000
éagsú
##ost
##ló
Oll
##ime
##ainc
blianta
##ang
##thi
bíonn
feadh
##aip
##bhair
##orn
cáil
##arc
http
##raobh
##luais
##asach
##op
##úint
Ne
tion
uirthi
Ro
scríbhn
Éireannach
##aíocht
11
rí
dtús
##aoil
Iar
##ipeas
síos
éig
14
thabhairt
##ipeasóid
ard
dé
Baile
##úl
##rán
gco
##aighde
##ná
##av
##ay
fear
céanna
tíre
éagsúla
##ec
##anda
sraith
##tais
##ke
##ter
##éamh
Rugadh
##ít
##eac
##inneadh
thosaigh
0
scoil
Rinne
rá
céad
Stáit
Go
tré
##rad
##raigh
fhé
seacht
phríomh
dío
Nua
gcuid
dear
Rí
##rac
##eoil
##illiún
uisce
staid
John
##ocal
##iúir
mhaith
Ard
##maí
##iúin
##ael
ais
##eachas
háirithe
##reid
náis
Fuair
leo
”
##áisiúnta
##eim
##ealach
anois
##idí
##raíonn
lean
##éim
##onna
ghnáth
13
Contae
leor
bhaint
stair
Col
##char
##bhaile
leictr
lámh
##ert
##laim
ww
www
cru
bhu
##úirt
oifig
##eirt
##ilt
“
k
##ánaigh
eola
oll
##rúpa
##íse
##oirm
##ast
##rian
As
chl
##orm
aims
##eangacha
aici
##oblacht
hI
Brea
##chán
##aite
##aomh
##les
Re
ghlac
Éireann
##ab
tábhach
Ghaeilge
dír
iomp
ria
Meán
##eachtaí
réig
Ú
##isceart
##eanta
##ut
##aif
gContae
##láin
Spáinn
mhó
sm
##cha
##eartha
fhág
##odh
Ma
fós
##órtas
baint
##áist
##eannas
##éanann
##úin
##agann
_
fud
##ealtaine
ainmn
chontae
Ean
##laigh
leag
##iona
##ok
teil
Cé
##qu
Chuir
‘
##ict
páirt
hagh
me
cr
réalt
haghaidh
úr
##fadh
aistr
Al
te
##árta
eipeasóid
##imhse
##eithre
##cs
##our
son
saol
int
dT
tús
##aimh
níor
##ram
Samh
bhF
bain
áirithe
##ialta
Tar
Su
##mhar
##ein
chaith
##und
ró
áir
##ly
##oireann
##me
Loch
##ianta
polait
##ósta
thaobh
Comh
Cath
ceol
##aoin
Mí
bunaithe
Mheirice
##tóir
##nas
Eanáir
láthair
bith
ábhar
190
##chathair
##iméad
##ry
##osc
milliún
rialtas
gceist
##lóid
feidhm
Alb
San
Uí
scannán
Cl
##raíocht
cúig
stát
Am
##ailli
Bealtaine
br
##ille
##eam
##ick
Rúis
Gael
##umann
##oid
##áit
aer
##aisle
dóibh
po
gheall
scríbhneoir
##uaisceart
hEor
##arraing
##aitlic
Z
##únasa
Iúil
##airí
##aidir
baile
##obal
Ach
déa
Lúnasa
##aíonn
airde
##ub
cum
mbeadh
##ata
Un
##isiún
réim
bhfeidhm
##ff
suas
fháil
##est
láid
sao
##neach
thóg
Bhaile
Iris
fada
con
##rainc
##úrsaí
##íortha
##achta
fhor
##éantar
daonra
Aibre
##ind
##aighd
2010
Chomh
Ollscoil
##adóir
##áthair
##res
Chuaigh
Sean
189
=
##org
##arth
##iob
athair
##ey
##oile
##ríos
##ts
airg
Scríobh
dtugtar
fhr
org
##em
Mc
##cháin
Franc
Pa
##áire
di
##aise
Car
aice
##ainm
##sáid
arm
##bhu
gurbh
oileán
chuig
##úrtha
##eagh
##itianta
##umh
Márta
gcoinne
##fr
Shas
##ásta
ionad
##tu
tac
##ógadh
bhaile
domhain
##eatha
dúch
##úige
thart
##tion
riamh
Air
##ollaig
Deireadh
##eisceart
La
##alla
leas
leagan
##uas
mBaile
##eabhra
##pe
Lond
2016
##ley
Í
rad
dlí
Thosaigh
chlu
so
##tm
Nollaig
##eabhar
imr
Irish
##ghn
Gearmáin
chos
eis
##bairt
##iteach
pl
188
siúd
tuair
Com
##aige
##iris
ie
chum
lagh
##roich
hEorpa
2011
##leách
New
##ity
nár
mhar
níl
dú
tras
##íol
dar
Eorp
Theas
##achtarán
Deir
Feabhra
móra
##ód
##aíodh
##eitheamh
Tugtar
##paí
##éabh
fearr
##airle
##thaí
eit
##anach
Aibreán
##úic
##aoi
éigin
&
##ráin
thuaidh
##ca
ríomh
Níor
Bhuaigh
úsáidtear
##reith
Naomh
stáit
Shasana
Mheiriceá
Bo
Níl
teilif
##áirg
dhu
##spleách
##ber
éad
déanaí
iomlán
##chl
Breataine
##easa
siúl
##ioc
Par
bhfad
##imhe
##lainn
tréimhse
##ik
##bhainn
Luim
##raithe
##eice
teangacha
##úla
##dach
##tigh
foils
##rios
ceithre
thiar
éard
gurb
Sasana
Samhain
rinneadh
##eimic
óg
Laid
##olla
Te
dif
##racha
##illiam
luath
##alamh
2006
Thu
fhad
iarraidh
##nd
nD
alb
mbli
Meitheamh
##aoth
tríd
##ans
##alar
lch
##óiv
Meiriceánach
lú
##álta
Ina
lae
##aireacht
Cuireadh
fhoireann
Q
##táil
pró
iont
##eathrú
25
30
chruth
fhoils
mbíonn
tA
##aighn
Bunaíodh
##óp
Pro
##ust
Im
##naigh
##éann
##eanach
##ríocht
cumh
díreach
muintir
##aili
##isic
##ireacht
Ró
il
se
gair
Ca
##náisiúnta
Eabh
club
úrscéal
##óil
##uigh
oibre
##reo
neamhspleách
bhuaigh
##oradh
iris
—
##áirc
chéanna
dí
##reach
Iod
fiú
##eirbh
Ind
mbliain
Mór
Aon
##untas
nao
?
##east
##iall
##mhór
tábhachtach
uimh
hO
##nigh
Or
siar
re
##ráma
##uireann
##lis
##eata
##oill
##enn
##ailt
##eicn
Thug
teor
##inear
Ríocht
cathrach
##aince
##thear
##íochtaí
leithéid
##ver
Cu
dhear
nu
##éadach
##áile
láidir
Fraince
##ens
##éarma
##aoir
Chon
##end
##ior
##eat
##aighdiúir
náisiúnta
on
Cho
##mhe
clú
tríú
21
ocht
##irt
bunús
##gn
##oláiste
##annach
##raig
##léas
##éabhlóid
##nadh
Imp
Rob
saor
##ung
déanamh
togh
##anúint
X
2007
ionann
William
##lam
tugadh
##obail
éirí
Gr
##éill
##ichí
##reacha
sain
eolas
Eag
Man
focal
##ointe
staidéar
bl
amhrán
##roch
domhan
thoradh
##ue
##eog
##ld
líon
Domhanda
Ghearmáin
oibr
chineál
##aib
##bur
##rion
gníomh
##tic
Ros
fhéidir
Fhrainc
gar
##réig
he
##rann
tal
mórán
córas
al
críoch
##áistí
Cogadh
Me
##eirm
mbun
mhuintir
##ies
ho
187
núic
##olainn
Ste
##achtaí
##aightear
186
fir
fór
##ius
Mo
Jam
##ileáin
Bhrea
bheadh
##aird
mio
Ed
##raíodh
roimhe
cathair
##aine
fo
Ac
coitianta
##íche
##ama
##ore
ur
teilifíse
##lín
beo
meas
##ánacha
saothar
##lá
##faí
##iath
albam
Chontae
eas
Rómh
##ogaidh
Bhain
ceoil
##eile
##áite
22
déanta
##eolaíochta
iarracht
##lath
rath
imirt
II
ainmh
gluais
##ste
##éasc
Tu
##yn
Idir
lonn
Craobh
Thuaidh
Geor
23
Dara
##ier
speic
Do
nád
##ríbhinn
##ler
24
mhí
##nú
##álacha
##arraige
Se
##éacs
éin
iontu
##omp
##ideal
Londain
Rú
##eaga
osc
##reacht
réigiún
##iscint
##eaghlach
2005
cear
má
2008
méid
eacht
Eoraip
##féar
##tair
adh
##lin
##eiceáil
##onar
##ealbh
##eirbhís
##eoga
ord
##áine
##agairt
traid
##ocail
comhdh
bhall
##iúnach
oiread
Leabhar
Stát
labh
léi
tionsc
cor
##leath
##ck
dta
2009
##eoiric
Cor
díobh
Meiriceá
cheantar
##ba
km
bhunaigh
##anaigh
dhuine
ball
Clu
glac
##tháir
Char
##ádraig
##ream
bhean
2000
##romch
##íd
ins
##raol
trá
##thóir
frith
##osta
choinne
gceannas
##oibr
contae
toisc
méad
Bain
cónaí
thugtar
##ól
##bal
dán
##aíochta
cúpla
anuas
##ford
sráid
##eolaí
Úsáid
##ghas
2004
2017
##eachais
##tú
26
##ys
bheag
##ern
fuinn
Tom
airgead
##ithn
##rucht
maidir
##eoin
Dá
fil
##amp
##damh
##eilig
185
##liocht
##eoch
Seán
tuairim
##irg
shaol
##aide
sol
##ics
2015
uimhir
aig
istigh
Bhéarla
27
##tacht
##ió
##gaí
oc
vó
Domhain
##saíd
míl
2018
téarma
tam
##ugann
Eabhrac
fhu
184
teach
##éam
Má
líne
##abháil
James
##ruach
##óthar
##óireacht
saighdiúir
##ak
##ory
Dé
2014
bhaineann
##óiste
réamh
áireamh
tóg
##íneach
sul
##raítear
tionchar
##era
##iel
hAlb
údar
athrú
foireann
##aor
##itheoir
##ren
fhás
##ten
có
##ríofa
nasc
##aisleán
oifigiúil
##feadh
adamh
##óga
mu
##cair
Dav
taighde
##álach
##ainist
scéalta
##éire
##ide
Sna
##leann
##theanga
fhoilsigh
##far
Tr
spás
##stá
##óra
##éirí
Agus
Astr
##lachta
##iméadar
fás
shin
##isiúnta
gá
cionn
Gearmáine
##reag
Iodáil
##pp
28
tharla
##onnadh
fíor
fhéad
labhairt
Dan
par
céim
##lian
cogadh
##imeád
gr
##nacht
Mich
talamh
##gar
ár
##namh
fó
gearr
cineál
En
amuigh
Caitlic
Fran
##ack
##íocha
scol
iarthar
Sch
fhéach
##uairt
##úchas
##omórtas
Chaith
29
Wh
Cumann
##ears
nGael
Luimnigh
Po
##iz
##ina
Oir
mhac
chú
##lan
cabh
mhair
sásta
##noc
car
##use
Bhreatain
##iach
him
##faidh
dheas
duill
Pol
Náisiúnta
##sk
gnáth
##one
curtha
##itheoirí
aistriú
mbliana
##oire
col
bhíodh
##aidí
cead
Chr
Sóiv
Duais
dru
éineacht
##eapadh
imreoir
óna
míle
Laidin
Bro
Gearm
Mur
2012
mion
##neacha
réaltbhu
##iste
éigean
lonnaithe
George
mo
Cú
bua
##rio
##nama
gnó
Chill
Eorpach
##léibh
aithne
Simp
thion
##ess
bhfuair
##iallaíonn
uaireanta
Sasanach
gcéad
##len
Ad
Ire
ionas
##liabh
ions
beirt
pland
And
1990
##ism
##aidr
##raic
teorainn
##aothar
##ult
Mu
tra
##eimh
##oghlaim
##tacha
fá
cas
##ew
ós
leibh
tíortha
##fort
iníon
##uirtear
nuacht
reilig
comórtas
##ah
##raid
aisteoir
Fo
##airis
Ber
##romchla
##scríbhinn
inti
Gailli
strucht
183
teideal
tos
seil
cluiche
oid
fiche
tógadh
Simpson
bláth
##raf
ri
Ireland
##álaí
dath
rogh
##aispe
##eachtas
chogaidh
##íoga
##aifead
deich
Robert
##rab
Fion
##nó
##yd
##iblí
##dú
cult
cuma
Chorc
y
##roí
Rial
Thom
##laíodh
príomhchathair
Ain
##ass
Oileán
##uilleadh
dhaoine
##ash
gu
##aice
gaol
2001
caith
Tagann
éil
##gaidh
ceart
scaoil
chríoch
##tad
Ghlac
##iliméadar
##oirt
turas
scríofa
bunaíodh
##onad
chor
coth
idirnáisiúnta
##old
Cr
ear
2013
hAlban
Ala
Gae
Lou
theas
j
bean
lorg
##inc
##aidió
##ailís
##anann
##ney
áitiúil
sóis
grúpa
##ve
##ling
##námh
##tachta
##eala
Uladh
Úsáidtear
##ish
##úile
Dar
Val
dea
meán
##eit
31
Ab
At
##áilte
suim
##van
Faoi
Ansin
Ceann
##uithe
dóigh
##eolaithe
ru
##obel
##rath
cheol
fhill
tugtar
leabhair
nádúrtha
ís
Trí
##oilín
##ars
##ipt
##éise
brú
##laidh
hiom
chuireann
##ose
##insí
léinn
RC
##laimint
##leathan
##iúl
abhainn
gcomhair
bia
Roinn
##ailleadh
##ive
ad
##eadar
uile
Spáinne
saighdiúirí
##lár
##éig
clár
leigh
##iss
bán
##rutha
##earach
talún
##rd
##ere
##íochán
feiceáil
##ty
Seo
Rinneadh
##tóirí
sular
##aw
dúchasach
Bar
2003
Domhan
theanga
Brio
eala
Eaglais
##aitic
##rionsa
##eilg
Arm
fios
##áras
##reabh
Muir
##bail
alt
tharraing
Nor
dócha
ionsaí
Wal
ama
Deirtear
choinneáil
bo
##éile
fórsaí
##stit
pháirtí
+
##ada
##imhne
foirm
ábhair
mBéarla
lo
litríocht
##ní
##lúth
Ath
##lainne
chinn
dúirt
réimse
Cathair
##dar
##ock
##tes
Lá
##ings
##umhan
chon
##cadh
Afr
stíl
trom
tabhairt
áiteanna
##tre
##éara
2002
háit
Nobel
Albain
suntas
Simpsons
fág
##éithe
##inearálta
##iorc
slán
uachtar
ról
cruth
tor
Pádraig
##aisn
mná
##ianna
amhrá
smacht
eac
Bhun
páir
##intí
##ress
179
Tex
Aontas
##amb
Mon
##ealla
gcás
tsraith
ceannais
##samh
deac
leanas
beagnach
El
iomaí
##ias
##ealaí
##arraig
beaga
freag
Gre
htm
##seach
samh
dhéanann
##áint
scannáin
réaltbhuíon
##ward
difr
Cos
Fear
chúis
##eantair
##iúcháin
laghad
##ho
##órt
réad
trácht
hu
##fidh
##aoise
##iosta
##naíonn
##oghchán
oirthear
##órais
Amh
ocsaíd
réigiúin
Dún
thit
Poblacht
ceang
Feir
at
súil
troid
##reath
tábhachtaí
Ho
##óire
la
Iom
##easta
Mhuir
ndaoine
bhr
##ríost
1980
féach
Nu
For
##aighdeán
Be
##ington
##scoile
Gu
ainmhithe
##sí
##oiste
##omhas
##burg
Séam
bhrí
long
Eoin
fuaim
https
cruinn
iompar
##óireachta
##inch
Mhic
mháthair
stáisiún
Gar
##rád
sins
chlo
##scéalta
gceann
ghrúpa
Chogadh
bunúsach
Éire
chósta
##iúd
##iseas
banna
ans
##ailín
Cill
uaidh
cúrsaí
teoiric
rialtais
##eod
##aict
forleathan
##50
ío
caint
seirbhís
##ka
##roim
182
##ánaois
stiúr
Frainc
deireanach
|
##erm
##imir
##obh
lim
breis
luach
##únta
baill
Astráil
nGaeilge
##lif
##iúint
tagairt
##tail
seachas
thagann
tosaigh
speiceas
##osa
##áip
Scoil
Afraic
##réine
##áthar
1970
##íocháin
##der
##éit
Pr
fola
##óide
##san
shu
láith
comhair
##olc
##níodh
sine
Fu
##ien
gclu
Feirste
eacnama
50
lig
phós
##lag
##íniú
##éasúr
chath
Uachtarán
##óidí
##aireachta
mic
##taseolaíocht
##eill
David
Hen
bhás
##ev
##tí
ailt
faide
canúint
Mhór
Eil
##roichead
pholait
Ru
##adhb
Chraol
cluichí
cogaidh
Rómhánach
Iarthar
##luaiseacht
creid
##aróiste
craobh
leibhéal
##ríonn
Qu
éal
íomh
##rag
um
##stair
1996
modh
suíomh
phríomhchathair
##phy
hid
soc
Laigh
##itheach
Maidir
thógáil
Pe
##thas
Wil
Dhún
Paul
Chéad
dtreo
##raíochta
mharaigh
##niú
dár
##eastal
Rúise
gal
thoir
cuairt
pr
##óigh
bháis
forbairt
181
##eocht
Ainm
Chaitlic
duilleoga
##ott
##achaill
##ainistir
##uc
lao
##ation
##ínigh
fhan
teicn
##str
1994
Aire
seilbh
glacadh
Fer
##ional
Meas
triúr
chluiche
##pt
##ábh
##berg
sio
uath
##nachta
##naithe
formhór
Spáinnis
gcathair
##ane
##chomh
Charles
Pháirtí
chosaint
##lia
##lig
dia
Mart
##iúdach
ail
##eagmh
chóras
aimseartha
scríbhneoirí
##eics
##lasaic
dráma
chaill
Impireacht
##bla
##ual
Sm
##áithn
Chorcaí
dtuaisceart
Mhí
##earta
1997
seis
##airc
scaip
Christ
Phoblacht
fhóg
##eanada
##bo
40
##inte
iasc
Thomas
trasna
##ork
adhm
focail
##adar
##ivers
cúis
cheimic
##aille
##radam
##lachtaí
bheirt
cm
chumh
bláthanna
eagraíocht
##ham
bre
Náis
Sóis
tacaíocht
páirtí
tháirg
Déanann
##unt
##aims
100
Bur
léiriú
Coláiste
##own
So
Lit
post
breith
He
traidisiúnta
##ary
Inn
Louis
ngach
##ianaise
##dheisceart
##aits
##rúpaí
##ontach
ndeisceart
Óg
##atam
galar
bhuail
##ment
dtír
naoú
droch
CL
##earg
Sta
Páirtí
Tógadh
amhlaidh
##óideach
##no
atm
##láinte
fosta
##ugh
1998
bhanna
##eoireacht
##que
##óirt
Mel
##oinse
##arthas
##fe
loch
##ápa
Corn
báis
dúil
shoc
taist
##rat
##thaigh
Mumhan
##thuaisceart
##óc
##par
##óip
Lú
1960
Liam
damh
tráth
##ríochta
chruthú
imp
##olg
##taing
##ica
Ale
Mus
Daon
neart
##ísh
Er
óige
Amach
Bhunaigh
foilsíodh
AD
hU
Aig
Har
cla
cine
léar
##ortaing
atmais
##das
Rich
##ight
rang
##léibhte
sacair
Michael
bhfoirm
##sey
Chl
Ju
be
rac
chóir
cothrom
sráidbhaile
##eab
##ife
##ster
Ios
Phil
Dúirt
leictre
Sóivéadach
##itim
Eogh
##cho
##lao
##balta
luas
##gas
##arry
Fre
riar
##aitear
##anacht
Thiar
rialú
cheart
chuige
eaglais
Cel
##athar
Acad
chlub
ndear
##rial
##róid
Ban
file
darbh
solas
téacs
Déantar
phobail
áirítear
My
Bre
ghabh
táirg
airgid
##nan
180
coir
##írinne
##ríostaí
##airg
##olog
néar
##antúil
peile
leictreach
Tim
anseo
##to
##ghu
mbeidh
raidió
thugann
réabhlóid
##chu
##pag
##áidí
limist
##rid
##ríosún
##imsíonn
##nu
##eora
##be
las
géin
##thú
1999
mair
trád
ríocht
ghlacadh
##riú
en
Ail
Ang
Ceil
duais
teas
##éalach
Gaillimhe
##ula
Ón
CLG
pro
Ball
litir
mheán
gairid
##eanad
fich
##eannta
máthair
dheireadh
##aigheann
leictreon
!
Bó
Mor
##ollag
daonna
##tor
ana
shaothar
##ood
##éala
##éanta
##ialach
Mheán
rudaí
##aidreamh
Abhainn
teaghlach
Seap
Sráid
Texas
dearg
dheir
##éadaigh
cáiliúla
deirtear
struchtúr
barr
##ghníomh
poiblí
##chú
lon
aont
##oibriú
ceimic
faoina
ábalta
ainmnithe
fhoghlaim
##ale
cheap
##earsanta
lámhscríbhinn
##rais
hIod
fhearr
fágtha
Eas
laeth
saoth
liosta
Rialtas
Univers
##aitheoirí
new
html
oíche
stairiúil
id
Ríoga
liteartha
##icsean
dhaon
##iotá
cao
##leach
Láir
mais
##iarraí
cheana
bar
iúl
Nollag
páirteach
ciliméadar
ban
##racht
scór
##ríocha
ceathrú
Em
ll
##airm
##olas
##itéin
liath
Iomána
séasúr
Cuireann
dhí
##ester
##ornia
inar
ollscoil
shliocht
clo
rún
##ealsú
Néill
Tugann
chreid
##gan
Fl
mé
##http
tur
##idéal
##implí
Ráth
chult
laoch
##achtair
fhéadfadh
##ical
##iúlt
##ruinn
ceantar
##ita
cón
##únach
Béal
Port
Sual
Éirí
núiclé
##unc
1995
gcló
dlúth
##iana
Mad
##ríodh
##arsáid
##eastail
fhógair
##íc
stádas
##eoireachta
##ks
oil
Conn
chaitheamh
##ini
sr
ta
##dála
##roid
Hit
Tuir
ainn
géar
To
sta
##iarna
seas
Tugadh
##lifornia
aithean
##úlra
##ochta
dream
##illeadh
##riseadh
fl
##iceo
##mhara
airm
aithint
ginearálta
óga
##airde
dubh
mara
rogha
sruth
tú
bhféad
domhanda
heipeasóid
##va
##raidh
1992
tonn
eatar
##láinéad
eolaíochta
príomhbhaile
##sca
fhear
cáiliúil
sl
##eard
##iúid
eol
##thach
tSín
with
bhfód
##dy
Pet
fóill
smaoin
ríomhaire
uachtarán
tharlaíonn
Gra
aib
móil
##oghadh
aithn
aonair
foirgn
spóirt
míleata
##ons
##ród
fú
Vict
chlár
iomána
##éireacht
##ruithe
brí
fair
radh
phobal
eatarthu
Féin
díol
fisic
gcúrsaí
aistrigh
Bun
##isteoir
bhlian
amhránaí
ndeireadh
chiallaíonn
##ven
dl
##taigh
Club
##eictear
fheidhm
oibrigh
freastal
##iac
##iúna
##well
Soc
##fhabh
heag
##isiúin
##aitheach
##eolaíoch
áitiúla
fhorbairt
##bama
cap
Mhar
##istory
Frank
sheas
Thairis
chogadh
##ee
##ifigiúil
##ábhach
##orcaigh
Richard
tuiscint
##out
##ánaí
Mag
dún
hion
solais
éileamh
cumhacht
té
##úrsa
1991
inch
star
tair
fhada
polaitiúil
##ield
West
##úcháin
Ben
gabh
tamall
Atl
Bhíodh
oileáin
plandaí
##atamaitic
##aiste
Mary
phró
##leacht
hiomlán
dtíortha
##ulainn
##ismitheoirí
##iotaseolaíocht
##lean
Star
comhartha
deartháir
##oria
Hom
McC
ghnó
##arbóin
ceath
éadan
haoise
Gabh
scoláir
Baineann
ainneoin
##bour
sam
##bartha
Brian
Conradh
farraige
##rig
##úchán
1950
spreag
hIodáile
nA
1981
seal
bhfor
háite
amhráin
gcomharb
Sasanaigh
gColáiste
##co
##óm
##uss
Lean
tiom
##iúradh
teocht
##úchasach
Ham
##aítear
##úchais
mharú
##aitheoir
##arach
cois
thír
Príomh
againn
##arla
ngn
mheas
pobal
##lathach
toradh
##toghchán
leathan
Chathair
maraíodh
##ner
##itear
Press
aimsir
dheartháir
Cum
Sam
sách
##ure
Ann
##léasc
Dála
deal
iars
dánta
##óim
1940
eisean
foirne
mbaile
lárnach
dhó
hAfr
roghn
ghearr
IS
No
peil
##tanach
ceapadh
cheannas
neamhspleáchas
##BC
##eth
##gra
cam
##rasaí
##mra
##nal
comhlacht
SA
##ailc
##onadh
hOll
##rítear
iarmh
shean
dúchais
Gearmánach
ainmneacha
##yr
tre
Jose
bhog
mhic
athbh
chlann
páistí
##aoiseach
imeacht
sóisialta
x
##mas
##ónta
##údar
##éalaí
cheoil
rialta
tamaill
fuinneamh
##ker
##ool
##eirb
Sal
Instit
##ití
abh
##thchl
scoth
dromchla
hAfraice
cheannaire
Hitler
##arlaimint
fhaightear
##éint
fol
##réigis
Henry
Naits
##raoladh
Oil
##adach
torthaí
bhealach
chuirtear
chruthaigh
##lla
##rún
1920
oigh
baili
fhios
hainm
scrios
imeachtaí
##RA
Cas
Nic
##andam
Jack
Thóg
shol
##reagadh
Meastar
réaltaí
taifead
suntasach
hi
Don
uas
##aigin
Gaeltachta
##usp
sín
gluaiseacht
##ted
##íonna
##aoirse
speis
##eagmháil
deacair
hÁ
Inis
naoi
araon
##landa
##tastú
##chruth
##pháirt
##aistigh
Chulainn
atmaisféar
##ithre
chois
réalta
saghas
fhreastail
stiúrthóir
##per
ga
##fiúr
##ther
saibh
Lo
Her
##ontas
fadhb
nGall
ndóigh
##eicsiceo
roinnte
Ri
##chas
##reac
bhFrainc
##10
##lie
##mar
##edia
##earbh
1993
sibh
scoileanna
##ifr
##labh
éif
Glac
neod
ealaí
Martin
tagann
##by
##min
##ral
gcu
##ompar
Dubh
Léir
tithe
##ainnigh
chúige
deiridh
##ha
##neas
##silt
##acháin
cháil
Laidine
##oma
cúl
tob
Lugh
eagrán
Laighean
aitheantas
Eo
##táin
Bal
log
Airg
soch
##iteann
##aisnéis
thuilleadh
##éine
cod
##ustra
1930
baict
##ng
##ges
Str
Eoch
##áireamh
##eachaigh
Chainnigh
##ix
##rar
Sir
cúige
tailte
##rit
##iseal
Imríonn
Francach
##aem
by
Per
lín
haon
sampla
ghníomh
cuireann
##20
##80
##go
##eau
##ino
##mer
Ta
Bhu
fhoirm
##ghabháil
polaiteoir
Tal
1982
dhúchas
ionfhabh
##vel
bó
Vít
soil
chabh
##ionlainn
gceantar
eolaíocht
litreacha
vír
thús
##bourne
##eascóp
##óilíní
Ghael
Chumann
dTuaisceart
ma
##atha
Wash
brath
pósta
Alabama
filíochta
##my
##ole
##éach
500
Gal
##eimhr
1985
Alex
Réal
Uair
aird
dual
pict
##impeal
Foils
shain
##ealtóir
leanúna
dhéantar
Réabhlóid
wh
docht
cailleadh
Ap
##liana
##reoir
##riangh
pointe
##up
##imic
Lio
Sim
aigéad
thábhach
##oss
Sé
##onas
##tter
Cap
Lao
1979
Phós
hamh
achar
léamh
láimhe
simplí
déantar
##eb
Aer
gCo
1975
1989
íomhá
##yl
##orta
Dub
City
rian
gairm
huair
##ti
##íle
164
Nat
##ithis
Patr
roth
tóir
Oirthear
Idirnáisiúnta
##ano
80
tI
Pob
She
##xford
bhrú
bhonn
##earradh
##thchleas
tuairisc
##aimseartha
spreagadh
##iúc
##tón
##orld
Osc
deo
dian
news
ochtú
cealla
crutha
tuaithe
Chiarraí
ith
Éad
##ainse
raon
thíos
bPáras
comhch
Aontais
Uachtar
University
chríochnaigh
Os
##inín
##ríon
óir
##olais
Chum
oidh
ársa
##órtais
gléas
fírinne
shroich
mblianta
Luimneach
thionchar
Washington
Chaitliceach
##wn
##ocl
60
sula
Thoir
théann
bealach
Pl
##aisp
1969
1988
Brit
ceap
bhunú
gnách
bhaili
toghadh
cathracha
scaoileadh
des
##ionad
fanacht
canúintí
##ville
Leag
Creid
Lucht
##naíochta
##omparáid
pearsanta
Art
1922
scar
Gréine
laghdú
##áithníní
déanann
leighis
limistéar
##ony
tí
Cro
Bheag
chónaí
sonraí
##lav
str
##ríosú
Deal
mhal
tábh
##eilleag
##leabhar
beatha
##cy
##stát
Mil
fac
cloch
##incheap
##cheantar
nuachtán
saothair
##ítí
Ser
íoc
deis
Faightear
##fí
##Óg
##ora
Book
croí
fúthu
choinn
chomórtas
##inis
1987
##áiríre
India
hAstr
hÁise
meath
eagarth
Comhairle
##BN
##achas
from
réas
síol
##laithe
chuma
gclár
imigh
##réimhse
coilín
##ze
Lé
Ken
Murphy
Róimhe
gcionn
##uel
dr
gin
rás
1945
cosc
##éaloid
Liotu
cabhair
hAstráile
oideachas
##oy
##outh
Nao
ocs
##ónach
##30
##urt
séú
Cuid
Fionn
Peile
Joseph
scoile
Scríbhn
chumhacht
##ater
##gham
Jer
grá
1974
Giúd
mílte
iontach
tarraing
Chomhairle
hoifigiúil
Caitliceach
##tam
RT
Mal
ilch
Edward
ainmhí
gcóras
##II
##uirg
pho
1916
mian
stop
tapa
mhéad
íseal
##iúltaigh
abhaile
dírithe
thaispe
cholainn
ceangailte
##car
##reat
##éide
##íosa
Mer
Sín
díl
##iocht
ISBN
Téann
Oxford
shaoth
##rich
178
ghéin
bainte
sreabh
##chta
##íona
Tír
eir
##annán
1978
Maigh
mhóra
Gaelach
36
gorm
soir
California
##za
##any
##nóir
##iobrá
Celtic
##aighníomh
bronnadh
177
áis
gcor
Oibre
Tomás
leatha
eachtraí
núicléas
tábhacht
##lish
Fis
tag
##ainnis
##eagasc
eolais
Ríochta
orgánach
radaighníomh
##den
III
Bill
Long
##úinteoir
##itz
32
35
##súil
##eadán
##rámaí
Aodh
bonn
Árann
##annaigh
##inearál
Toghadh
Bronnadh
##lad
##lit
##rón
##umb
crann
tsean
##oileáin
bhreith
ficsean
baineann
dearcadh
bog
##rainn
1984
sing
Austra
radharc
leictreo
##lasaiceach
ceannaire
##olf
##úra
ór
##llmh
##neam
Cal
Sin
buí
sheach
bhfocal
pharóiste
hInd
léig
Chath
feabh
maighn
##irí
##yan
##ence
##sing
##ítir
Róimh
hÍ
Lov
Tur
1968
Síne
chas
fuil
Máire
mbain
bheatha
iarsmaí
taisteal
##NA
##ih
##way
##chur
160
lag
Cona
##éarmaí
dúinn
Mhaigh
ndeachaigh
##uch
gl
Éig
Faoin
labhraítear
Miotaseolaíocht
##earc
##ilte
##oirn
Pla
Amer
tSean
thuas
ollmhór
seachtú
cuirtear
Uaireanta
speisialta
On
##ánna
Ger
can
##ander
##roinn
King
##ríosta
Araib
deirea
freagrach
##are
##ush
Fe
##gáir
##ited
##altaí
Gall
glas
méadar
príomha
choimeád
laethanta
tuilleadh
ghluaiseacht
polaitíochta
##iew
##lith
1972
Holl
##adóirí
longa
Samhna
shocraigh
##km
##iabh
##iarm
##icil
##óige
Dáil
Gear
iarn
léas
thos
iseat
saoir
Vítneam
chúrsaí
leasainm
reiligiún
##iod
Cru
Rua
Vol
##ipéal
##mheas
1956
1973
Labh
aire
char
chón
rach
Íosa
daing
eitle
tSeap
titim
hÉirinn
radaíocht
90
Dr
Bri
cás
scoilt
##aillithe
conradh
##red
Kar
geal
feirm
##íochána
Náisiún
leigheas
tionscla
Choláiste
##ull
Dhu
athch
fórsa
teang
ealaíont
tSeapáin
##ek
##órsa
alc
1948
coimh
phost
Séamas
hidrig
fhágáil
##eaghlaigh
##tastúnach
##ium
Af
Ex
##alta
Bel
cró
##chadh
##field
treibh
athraigh
fadhbanna
oideachais
Nap
##laise
consp
spórt
##aispeán
láidre
seisean
difriúil
ghabháil
scr
ubh
##chlár
1939
Áise
ruaig
##nuasach
##liantúil
sinsear
tuaisceart
Bra
##lanna
1986
dtar
##antach
scéil
vótaí
Crutha
fréamh
seirbhísí
##dheal
Saor
treo
##iúchán
chloí
gcuir
##iobraid
reatha
náisiún
hé
##earn
luí
##aidhm
##órach
grúpaí
Victoria
difriúla
scoláirí
dhromchla
##ilí
##tán
et
##líne
##ánta
Lár
##eanan
Níos
##éiseach
##mheánach
ndearna
gcomparáid
comhdhéanta
##ame
##tra
##aich
##dhío
##taen
RTÉ
lgh
##chair
##chéim
##easca
##éanna
##eadóir
scéim
breath
chraobh
eachtra
fuinnimh
carachtar
##40
##br
hin
1977
Jean
Virg
seachtain
##baí
Ur
pa
Chu
Inniu
Peter
dtaobh
uirlis
bhruach
Tarlaíonn
##ble
##ike
Cá
Cur
Dlí
von
##erson
arbh
theip
earraí
tógáil
##ódh
Ao
Eur
Rom
más
##cheál
Comp
chéim
seach
##laítear
Críost
tsaoil
Mícheál
##íod
##wood
béim
marbh
cúigiú
tugann
Scríbhneoir
ed
nU
##einm
##istí
mhe
##thain
1962
Cnoc
uisc
aonad
saola
bhunús
gcaith
údarás
ionradh
##rích
Gen
##inson
Cair
Harry
feith
##éadacha
Sraith
##ríobháid
clainne
filleadh
##lec
##reim
##nithe
1976
##eimice
##íleata
##íreach
##álaithe
Chláir
theacht
Fhionlainn
##ss
it
##ance
##lack
Dhá
tro
##oirgn
Chol
Tuirc
monar
seans
chiall
cinnte
cuidiú
fhreag
staire
##ireachta
fianaise
Melbourne
buachaill
phríomhtheanga
Ós
##ball
Aug
Bru
1918
mhio
Breat
Steph
chead
##onnacht
##reachta
##eachtach
éiríonn
hoileáin
Éireannacha
##bhe
##gart
##isin
Can
##ainte
##iacha
hath
infh
ullmh
Impire
Fraincis
Ainmníodh
caidreamh
leanúnach
Fionlainne
##icí
##ibil
##ones
Gro
Ghae
nimh
stór
that
##omhais
Danmh
bhris
chúig
mhais
##ganacha
gCúige
##insearach
fuarthas
gCathair
saolaíodh
##aiv
##ipe
ua
##orth
bac
Glas
chúl
siom
buaite
mhinic
aibítir
Corcaigh
laistigh
leaganacha
##ild
##liú
Ear
Eli
fóg
mol
Donn
chan
déan
##phointe
Mhacha
Séamus
Portaing
Dheireadh
33
##iamh
##lábh
##lúin
##réige
fion
##ontacht
baineadh
fhorbair
##ailí
##reas
##ture
darb
##iombail
oscailte
cheimiceach
gcomharbacht
##gi
ex
##ríom
159
##abhar
1983
##mhainn
Shóiv
mórth
páirc
##aiscirt
cultúr
Críostaí
##ome
##úsaem
mhol
Valera
sléibhte
Foilsíodh
Lúthchleas
Tuaisceart
riaracháin
##16
##ya
##iol
Fri
Sol
##dháil
1919
bhua
ghin
rann
méadú
##imisiún
Láirge
leacht
miotal
luaithe
tAontas
foilsithe
Thuaisceart
##eng
##nat
##ors
##idil
##ónna
Ior
síc
blas
hiar
faigh
##rianghraf
au
##aont
Pal
Ver
mín
##ology
1963
astu
##insear
##arsáide
casadh
leanbh
aitheanta
iarmhairt
Ré
##mharú
1966
1967
2019
seol
##éarach
mBéal
gcrích
pháirt
##rey
BBC
Cam
Cla
dor
res
##naill
Mars
##iciúil
drugaí
imeall
##raitheann
mhalairt
leictreoin
##aca
##ocs
##iety
##ranc
Jim
Róm
##éasca
1961
1964
Tion
World
##eallach
rathúil
Chonaill
leithead
caighdeán
##ki
##ican
##wart
she
tug
##anais
Bund
Conch
sheol
taisc
cumann
cuntas
gradam
traidisiún
##12
##osh
##ríona
##landaí
Green
casta
saoil
saoirse
##eilleagar
aistriúchán
sá
##fear
##tála
lío
##cráin
Life
ailse
húdar
iomrá
ealaín
Pholainn
forbartha
$
##ald
##ery
##thur
pol
##uspóir
Cúige
Móire
Teach
ceathrar
Den
gás
hip
rug
sár
tao
tuir
Virgin
cearta
céadta
sclábh
dteanga
soiléir
tharraingt
tháirgeadh
##try
##éist
175
176
Mol
SAM
slí
ámh
éan
1971
Cent
Fáil
York
conas
deara
mhíle
pheil
chumas
##eachtadh
##eachtain
adhmaid
saothrú
chanúint
gníomhach
litríochta
45
##eirn
300
Lin
Trá
easc
gComh
spéis
Ghrian
Tharla
ionsaigh
oirdheisceart
##rap
##chan
##eodh
##ions
hal
Áit
Marc
Tour
fogh
rabh
cheil
sliabh
##ríochtaí
Caisleán
dochtúir
gcluiche
Je
##chum
##oirp
was
clúd
##acaigh
##staint
craic
dúlra
ríthe
cultúrtha
##ura
##roma
arb
##shire
Séar
crua
##ábhair
Iarla
Simon
téann
##ioblóid
Fianna
riocht
bpríomh
dteannta
deisceart
cineálacha
##elm
Kö
##atag
##illa
All
cro
ghr
##aithí
Thír
cóip
##ulaing
Seanad
riachta
airíonna
nI
##arca
##chen
Jan
gun
Naofa
gcath
Phádraig
polaitiúla
##tóin
aeir
fhir
lear
éalú
##eochan
Peadar
fhocal
stiúir
Chríost
húdaráis
##oise
gla
##angua
1933
##úineadh
aithin
History
Saoirse
meastar
imreoirí
próiseas
##bor
##ains
##eigh
##idhm
##nann
ola
shl
1953
Airm
scrú
éisc
##eangal
Scott
Times
ceist
dhíol
dóite
##umhacht
pobail
miotail
bhfoireann
##zh
°
48
Lac
Sul
cén
##chath
1921
1947
Ange
bhar
meit
Páirc
céile
anailís
##chruthach
##ift
##men
70
##eamp
##igin
##imhn
##láth
Der
fho
gas
Chur
File
Pápa
sábh
##taithe
Anraí
naimh
Dublin
ngnáth
thalamh
deirfiúr
innealtóir
##ida
da
un
bor
1965
galair
luaite
##lannaigh
toghchán
críochanta
náisiúnach
iarthuaisceart
##70
##cí
##ja
##ps
tU
##ston
##imint
1958
##eirlín
plean
spéir
Ísilt
amharc
ríomhairí
scríobhadh
smaoineamh
Mheiriceánach
##oph
##pen
##sta
Dia
##scáil
Carl
##ánacht
Bhéal
traen
##ealsúnacht
##bec
##eats
##óine
cle
Acht
chom
cuir
Bhrio
Smith
ciorc
mhéid
dealbh
bhféadfadh
##ark
38
Kh
##iail
##nard
mad
1957
caol
dlús
imth
Inter
armtha
víreas
móilíní
Baintear
##ríomtheanga
foirgneamh
##íog
Roy
##iolla
##ultúr
Cart
Eilv
carb
ghal
Black
fásta
linne
spáis
##iúlacht
fhuaim
Cuirtear
meánaois
Cathartha
nGearmáin
eagarthóir
##ger
##ran
Dó
Far
cló
ind
Áir
East
##ionann
##lathas
báire
coinn
laghd
##naítear
Garman
córais
ghéill
Patrick
logainm
seasamh
sliocht
Chonradh
Cuimsíonn
dteangacha
iarrachtaí
##78
nE
IRA
1914
1917
##rasaíl
chroí
amhail
##chomhartha
úrscéalta
##impeallacht
##iev
##uin
##win
34
Ha
##mara
Tre
ceil
corp
##ruinne
eagla
súile
United
bailte
cosanta
Iodáilis
##eathaisnéis
z
##tún
##irim
##ough
Sao
all
app
##ghabh
##ghlas
habh
##earadh
##lamach
Féach
aeráid
Society
Ísiltír
ceoltóir
Gearmáinis
##eid
Yo
##abhta
##loine
##uille
1949
##áirtín
Scéal
Rúisis
tugtha
cumhachta
Mheicsiceo
comhdhúile
##els
##leá
##yle
55
##éime
Fac
Ins
Ion
mal
plé
##onald
Park
chás
Allen
Gaeil
aidhm
ciall
uathu
fhionn
huaire
nóiméad
rialacha
bPoblacht
##sm
##insc
##ttle
Nov
Rad
Sun
War
##dráma
##ithne
##áipéar
Tríon
aicme
ndéan
##uairisc
Tiarna
fágadh
##éaloideas
réasúnta
Naitsithe
caitheamh
Briotanach
##ros
##ríd
Gl
sú
Dam
##ábhar
1946
Mont
deacht
iasach
##eannaigh
Acadamh
Ceapadh
Ghaelach
Virginia
mbealach
Fhraincis
núicléach
##60
TG
##adal
##orma
##oscó
##ramh
Sac
cré
thr
##áinis
chap
dona
trae
Oifig
íocht
##lannach
Planda
sceimh
##aisnéise
meascán
Rómhánaigh
##25
##ero
##ipp
##lat
##tús
##icht
##ince
May
##onnta
Mair
ráta
Manch
cláir
easpa
shamh
Gleann
iseatóp
Caitlicigh
##14
##of
##tis
AE
Bir
Pre
dam
eip
##intín
Cast
Eala
Sion
bord
Gréag
Kenne
caill
Sliabh
sciath
##imhneach
##laiminte
Eoghain
Rúisigh
suíochán
fheiceáil
##adóireachta
pholaitiúil
##ric
Il
##eirs
##raon
##ridge
1937
1955
ísle
ghairm
Oileáin
chonaic
Giúdaigh
léiríonn
réiteach
cainteoirí
##mon
##sch
##imsí
##onac
Eng
cad
1941
Dhomh
Diarm
Neamh
##bharnóir
Stephen
póilíní
athruithe
##ella
150
Gab
had
úin
Cheap
siopa
##eorainn
shealbh
Maraíodh
Spáinneach
##15
##ibe
43
tO
##bert
Kat
Ceol
Lios
tinn
tróp
##eadáin
Chúige
amhras
dlíthe
dochar
imoibr
chruinn
iompair
prionsa
tríocha
Gaillimh
Droichead
olltoghchán
##low
Iú
##eird
##elly
##raoi
Los
osp
##leoir
##órsaí
Part
shíl
Fisic
##athanna
crainn
##aoileadh
ghluais
éagsúil
adamhach
baictéir
Tríonóide
##ota
39
##íosp
Dom
oib
sío
téa
##leabh
Matt
Miss
##oclóir
clann
locht
##eacháin
Aigéan
Mhuire
seomra
dhiúltaigh
##ux
##ée
##bas
##nam
49
##óiré
Mat
Rec
Rud
Tor
Áth
##eicthe
##úlacht
Duine
athar
meicn
scáth
inneall
Francaigh
cheantair
coincheap
iomaíocht
leithéidí
scaipeadh
críochantacht
##cas
##oda
Que
Tos
Camb
gram
Cheil
Cásca
breise
fhásann
gnéithe
Eorpacha
staidéir
eacnamaíochta
##18
##gen
##bach
##nais
iol
1944
cion
gior
Grand
chine
##ghuaill
##mannach
Teanga
tógtha
##eachtáil
iarrthóir
Ra
##íteas
Gard
##tomhas
Phort
Ostair
ealaíne
feachtas
modhanna
difríocht
Institiúid
##caí
Jac
eur
##arrth
##aslag
Mass
ardú
bhfo
bhfu
ceal
hEag
stad
##madóir
Cloch
cnámh
Ungáir
foinsí
theast
Eilvéis
coimeád
sláinte
matamaitic
##lim
##úsh
qu
Fás
God
Lew
1900
1929
1959
Chun
Diúc
nDún
dúile
tSual
##ochtúir
adhmad
neamhch
##eolaíocha
##fá
sn
##féir
##idae
##ison
##ligh
##oird
Fir
sil
Gold
bpró
ilbh
Chair
chorp
fhine
lonna
##faíocht
Arthur
Jersey
aimsiú
oidhreacht
##we
##esar
##rael
##íonta
aníos
##eirteab
throid
hathair
briseadh
hOileáin
liathróid
##icn
##ski
Gn
400
Cha
fos
##aidhe
##llamh
##oinge
1936
Leis
Stud
##teacha
toirt
##eaglais
Giúdach
ndáiríre
labhartha
foirmeacha
##ave
Sk
##bhrú
##chúis
##icsin
Bige
Rogh
Ryan
##ailíní
Caith
caird
riail
Oilimp
fhrith
intinn
##andamach
seoladh
##aoirleach
National
sheachaint
##han
##éiv
##isco
##rama
uil
Éam
##aidin
dtag
eite
form
gcón
olla
uirb
Stair
scamh
dteach
imirce
faighte
colainne
theastaigh
##anadh
1905
bheo
inde
Sampla
gceart
Polainne
iriseoir
lámhscríbhinní
##uk
##lóv
Ir
Sn
##port
Die
gcl
srl
Colm
hard
tacú
thrí
##phobal
##eartach
bhfear
eisigh
cearnach
gcuimhne
leanúint
Poblachta
scríbhinn
sholáthar
Gearmánaigh
hÉireannaigh
##zab
Min
aim
##muigh
fonn
vóta
##otball
Amhrá
beidh
##láinéid
thraid
sibhialta
úsáideann
##IL
##ser
44
Vo
Mos
##bhsaí
1954
Beag
chla
éist
##athach
##oillte
Réalt
eagar
##anguage
##aisleáin
American
ainmníodh
##ídí
Vic
##áchan
##insias
haith
réidh
##ealladh
réimsí
thugtaí
choitianta
teaghlaigh
##ci
##eop
##vis
óm
##mond
##éibh
Hor
Pró
mbu
shá
tru
##aistr
##shaol
1952
Cait
Ceap
arch
mísh
slua
Seirb
##atagóir
School
damhsa
moladh
stoirm
dhúchais
carachtair
thuismitheoirí
##FA
##mí
##ade
del
##aidís
##aitin
##stáit
Mark
##éasach
Anois
beagán
cailín
nósanna
iompaigh
ceannairí
oirthuaisceart
##zo
ha
##arbh
##cach
Fil
##íobla
dhéan
polas
snámh
fheabh
oscail
##íochaine
##raíochtaí
cruthaíodh
##dán
##tte
##imth
Byr
Med
sná
1913
1942
cumas
##ealaigh
##ánaithe
##éalaigh
##cheathrú
iomáint
trópaic
Gaelacha
dathanna
##zy
##clo
##its
Rh
hÉ
ne
óc
bri
gcú
##uirbh
##áistir
Leath
Mhair
shaor
##onartha
Cosúil
Danann
chultúr
pháistí
teilifís
Mainistir
oifigeach
##shu
Oc
##chaí
169
doc
his
Fine
##asacht
Staid
talmh
trádála
ceantair
luaitear
mhíleata
Cailleadh
Creidtear
gearrscéalta
iardheisceart
##eaf
##ibé
37
42
##inní
##raim
##wick
hÓg
min
uaf
1926
Coll
##labhra
Angla
féile
gCill
Johann
atáirg
saoire
singil
cruinne
##adóireacht
faightear
##ía
##bar
##rae
##ril
##úsc
Úr
##ongó
##ister
##mhach
Hall
fuar
Roimh
dhomh
mhodh
seinm
##aothair
League
bheaga
bheidh
bhuach
fairsing
ceoltóirí
toghcháin
dheireanach
##ln
##ago
##bro
##rew
##uig
Bl
bá
##lint
##uine
Chú
##uaird
1912
1932
lead
##ghaire
Young
uasal
##saíocht
Eoghan
nUladh
pointí
thréig
##eimhridh
aimsire
thomhas
Óglaigh
Bhrasaíl
Cathrach
feidhmiú
samhradh
ficseanúil
saineolaithe
##13
##19
no
uk
##elle
Eis
Lee
##earsa
Arab
Chabh
ríoga
seasc
##gaíocht
##úchasaigh
Iarthair
cumhachtaí
##TA
52
##arat
##iocl
Bec
Ter
##tions
Airt
##ianach
##imirce
##íochas
Mhóir
Yeats
mbéal
drámaí
imríonn
próitéin
Atlantach
droichead
struchtúir
##óta
Ge
Ka
Ul
gru
##pholl
crios
giotá
cheist
húsáid
Araibis
críocha
iomláin
Iodálach
léarscáil
sceimhlith
Éireannaigh
##ect
##enny
##reap
ian
1923
1951
tuar
##chtain
Oíche
cósta
##óireáil
Polait
leathch
Eorpaigh
Rúiseach
Williams
caisleán
cheannaigh
thuaisceart
thábhachtach
##dha
##iver
##léis
Íos
##caigh
1911
1943
Chan
bhia
nítr
ordú
tine
Homer
fhuil
luibh
othar
##iteacha
bóthar
hIndia
stáitse
foghlaim
nuachtáin
##ghuaillithe
hOllscoile
##ima
##iadh
##itch
Des
Max
McG
ghu
han
tub
##chill
##ublic
1935
##iscirt
beart
fhíor
hocht
tuath
Raidió
adaimh
comhth
tábhair
mhilliún
leathanach
##iog
75
Ly
168
bád
hAr
comp
moth
sórt
##chreid
Coisc
Sheas
léann
eitilt
imithe
shaoil
cosaint
##éireachta
scoláire
stairiúla
seachtaine
##df
##tts
##usta
158
Lis
Red
Rod
trú
##únadh
Maol
línte
##eangach
Caesar
gcoróin
inchinn
thionsc
uirlisí
clubanna
gCeanada
imoibriú
##ope
##tel
##tiú
##itic
Hav
Mah
slu
##iaigh
##ition
##osach
##éinte
##ósadh
Adam
Hein
mban
##choirm
##chóras
##reoirí
caite
nádúr
radac
thras
léacht
Laoghaire
*
##anga
asp
vol
##cyclo
##ianad
buan
deas
tiar
bhith
láimh
mhion
mheasc
pháirc
triail
Éigipt
imrítear
síochána
bparóiste
riachtanach
##itt
nO
##esse
##ords
##réim
Ais
Ass
Lib
Tru
dTu
dte
map
##eilif
##iosca
arna
dáil
pian
Anton
South
dhath
August
leaths
##aisteach
Phríomh
éalaigh
Ghréigis
Danmhairg
cáithníní
chomhartha
comharthaí
##42
##key
Lug
Qué
bal
dti
##ásach
1931
Sinn
fáth
##aistil
##lianta
thuig
tsamh
Máirtín
bhfaigh
gcomhar
tarraingt
##aighdeánach
daonáireamh
feidhmeanna
##itl
Có
Es
170
Oid
One
Pól
##aisce
##áille
Buck
Hill
Leas
guth
##earraí
nárbh
chuala
taispe
Mhanann
Teachta
gCogadh
gcogadh
saibhir
##ortaingéil
Chríostaí
príobháid
tacaíochta
##DIL
##imí
85
##iubh
##lius
der
##lasta
chlé
Carol
dheis
gceol
grinn
shóis
nochta
ospidéal
tosaíodh
ilbhliantúil
##ii
##led
##yer
##iorad
##ipéid
##áladh
1904
Finn
Rock
dhír
eDIL
héil
##fhocal
próis
Franco
##lachtach
ceimice
dheasca
déanach
fhoinse
gluaiste
##unn
00
65
##gair
##ithr
You
gov
1934
filí
úrsc
##zabeth
bhaill
gaolta
borradh
choilín
mhaithe
lasmuigh
Daonlathach
radaighníomhach
##hr
##ij
##ür
##day
##ink
##oib
##sla
##une
##áng
Dú
Ve
##dúil
##eara
##inse
##olsc
Rev
seó
##andia
1903
Aist
Féile
aisti
fhile
bpobal
foinse
##eannasaí
Cluichí
léirigh
damáiste
stáisiúin
tábhairne
Law
Ord
scá
##airtí
##aisin
##táirg
Lear
Stre
aibh
ithe
marc
mích
##taíonn
##áirimh
##óidiam
Georg
Lewis
thine
##spidéal
planda
Angeles
dtagann
neamhaí
scríbhinní
trastomhas
ocsaídiúcháin
phríomtheanga
##fer
##ily
##mha
Ev
##cigh
##aicme
##einim
Mill
fiac
hIar
horm
beann
chloig
fhuinn
sochaí
Kennedy
iasachta
Elizabeth
deireanaí
idirdheal
tsiombail
Australian
##nar
##inge
##tein
Bob
Pri
Ren
bus
##aontú
Köln
Sant
corn
##anacha
Leigh
Gréige
gréine
Úcráin
aithris
codanna
nasctha
Coiscéim
Saolaíodh
réalteolaí
ceimiceacha
##oic
##ume
ca
rú
##nall
Joe
Lim
Mul
Más
##sanna
liom
mill
ngrá
##shruth
meáin
##iocfadh
##túnaigh
##íneacha
Bhuail
Québec
ollamh
##oisteáil
Domhnach
Timpeall
féachaint
ionsaithe
airgeadais
tábhachtacha
##11
##ko
Bor
Bán
Pow
##troma
1906
Cinn
Harr
Rinn
lion
##éanach
Aithn
Dhaon
House
North
caomh
fhéin
mBrea
##uillinn
##áithnín
##éireach
leanaí
##eartaigh
Sóisear
cuimhne
speictr
séipéal
acmhainn
thaifead
Fraincise
gcumhacht
tarlaíonn
bhforbairt
##69
##cu
##cher
##líon
How
Mic
Pat
und
##chuid
##ilton
Lena
Open
cóir
##ionary
Holly
Ionad
##alafort
chaint
liobrá
##ioblóidí
eascair
tréithe
charbóin
teastáil
Thiobraid
bliantúil
orgánaigh
##ign
##éisí
DNA
Syd
mat
Flor
Phro
breo
pion
siúc
Byrne
chlúd
Philip
fichiú
tagtha
oscailt
phléasc
Aibreáin
Cheanada
imtharraing
mhatamaitic
##eld
##ron
59
us
##pend
Lad
Chró
##mhíniú
##ratach
Niocl
##ilíocht
gcontae
phointe
tuaslag
aithnítear
himeachtaí
##hl
63
##anaí
##eoidh
##iotal
##oille
##ánann
mach
toir
##radaim
cuims
thall
Roimhe
dúchas
theach
##bhealach
Iosrael
Seapáine
paróiste
teagmháil
##iop
##aife
##illy
##leic
##paic
Ali
ing
spr
tiú
##íodar
1910
1938
dála
Fhear
croch
gréas
naomh
Chaill
bhronn
chláir
litriú
loinge
Séarlas
speicis
ranganna
mBreatain
theorainn
mhúinteoir
##SA
##irm
##rith
Tro
pop
##bhard
Ciar
diúl
##iseach
##tracha
Marie
tsolais
athchóir
ilchríoch
maireacht
Ghaeltacht
Ghearmáinis
Oilimpeacha
Protastúnach
Meiriceánaigh
maireachtaint
teorainneacha
##oi
cá
up
##bhun
##iota
##raen
cgi
pat
Rith
dáta
##ideann
Shéal
seand
##iúnacha
##rachtaí
bealaí
chothú
imdhío
pléasc
páiste
tréimh
úsáide
Stewart
cobhsaí
comónta
Meánaois
hÓglaigh
lárionad
tionscal
##tastúnaigh
tSualainn
##vo
##ün
##ude
58
ól
##ampa
##inen
##isín
##leac
163
##rithe
1928
Shak
Táin
aonú
gheo
ómós
##achuse
##allamh
##áistrí
##álaigh
bréag
irish
óráid
leanann
oighear
##achusetts
Football
taispeán
measartha
thuiscint
##arraigeacha
dteagmháil
theaghlach
ú
##din
##tto
##ute
It
##idim
##imid
##osca
##stáb
##udio
VII
Van
mil
##ansas
##ochaí
Beat
Chor
dúsh
Moore
coibh
rúnda
teirm
thiom
fhisic
mbíodh
##eachtais
neamhfh
stiúradh
cathartha
thréimhse
##ríostaíocht
Massachusetts
tuismitheoirí
##17
##irk
##sen
##uld
Tw
##irte
##lege
##réal
##ults
Mid
Reg
Tol
opt
1915
Crom
admh
chló
donn
gcur
smao
##eaball
##eoladh
Teamh
leata
scála
##achtach
##lainnis
##éaraigh
Fhionn
##ealadach
Spáinnigh
eagraithe
foirgnimh
úsáideadh
Polaiteoir
Olltoghchán
ealaíontóir
##iner
Lia
gao
##achán
##eamaí
Land
muir
namh
Liath
##bhailte
##águaird
cainte
##ibhialta
archive
iarainn
léargas
féachana
fíocháin
léirithe
rochtain
athraíonn
láithreach
##ace
##asa
##lyn
##enns
##ácht
##óidh
Alf
Bhr
Cró
stu
##aisín
##istor
Stan
béal
chlú
dorn
gCon
holl
mura
scor
##ialann
Foras
socrú
##ifreann
Gabhála
ceannas
léitheoir
chúiseanna
comhoibriú
##gs
##kin
##ree
##thir
Pho
Sil
art
pdf
##imhir
##luain
Love
Mann
##abhair
##cyclop
##ideach
tiubh
Amharc
Cluain
síolta
éadrom
dhaonna
dhaonra
##oirgneamh
ocsaigin
hidrigine
seachtóidí
Pharlaimint
##22
##iff
##lip
##aitn
##kett
165
Gir
Hol
##ceach
##eland
##uisce
##vania
1899
##allach
##ennsyl
bocht
gclub
géill
onóir
teasa
Daniel
thuras
trúpaí
chrutha
gcineál
phósadh
pictiúr
craoladh
Francisco
bunreacht
intleacht
seascaidí
##ennsylvania
mórthimpeall
##CH
##cc
##emy
##omb
##onc
46
##áide
Day
plá
##álann
##óilín
Dict
Pier
bard
docs
Clann
díosp
##árthach
bruach
cóngar
daltaí
sheinn
habhann
réimeas
shraith
spiorad
bpríosún
ndéantar
Chonnacht
##mad
##row
47
Av
IV
ap
##arba
##fhad
Jos
rib
sco
thú
1925
cáin
díor
glan
hOst
mall
réit
##theann
cúrsa
dhéag
fhair
##earcair
Bóthar
aigéid
Aerfort
gcéanna
naimhde
reachta
samplaí
Chogaidh
fhoilsiú
máguaird
##eolaíochtaí
##ets
##usc
77
Ke
149
153
Abh
ham
acad
data
síor
##eadair
Galar
Maria
##rialtas
Conall
dhroim
greann
miotas
iasacht
phoiblí
pictiúir
pláinéad
Litríochta
cruthaithe
grianghraf
chiliméadar
##ray
##ithí
174
Cao
Joy
Les
bho
clé
dhe
dom
##arcel
##singe
1870
bhan
gáis
thac
##bailte
##léibhe
eastá
flúir
péint
##chuairt
Bliana
London
annamh
gcósta
oibriú
Conchúr
eitleán
margadh
téarmaí
cheathrú
daingean
poblacht
Airgintín
draíochta
fharraige
ruaigeadh
##tim
88
99
Da
Hu
eo
##king
##réag
600
Lor
1924
euro
fadó
last
phlé
scil
tosú
##loinne
##thóirí
##óidigh
mhóir
múint
Atlant
Chúirt
Ghréig
dtuill
gloine
##aisteadh
Indiach
aimsigh
chomhdh
results
Ghiúdach
baintear
tráchtála
idirghníomh
##lio
54
Ty
##inbh
##àidh
Dal
dtu
##aistí
gcro
gear
##ghsanna
Fisicí
Street
Sydney
College
ceaptha
##chomórtas
Comórtas
Rialtais
hamhráin
leibhéil
Osclaíodh
creideamh
oifigiúla
oiriúnach
£
##ces
##ury
##éav
cn
##sach
Alt
tap
##ainmh
Dúin
cill
dhún
Briot
Champ
Saint
White
cúirt
cúram
ghéar
##eithimh
Albert
Shráid
ghrian
siopaí
Francis
bpáirtí
taistil
Saorstát
iarnróid
íomhánna
Proinsias
comhairle
Cruthaíodh
daonáirimh
##wa
##tac
Id
Sw
fi
##bury
##vent
Gan
Leo
Tra
crá
##laith
##stáin
##throm
1890
1908
Camp
Carr
Piar
##ráinne
##rópaic
Brown
ghlas
uaigh
##íreanna
instit
roghnú
##eitheadh
##raiceann
Ghleann
Itheann
shuíomh
shínigh
teagasc
Sléibhte
múineadh
ritheann
bhuachaill
fhaigheann
Shinsearach
athbheochan
##bre
##ydd
57
64
84
We
##obar
##pach
Bla
Bul
Spr
sub
##iúnaí
##ómhar
Cadh
Math
Myth
Séad
bunú
mhná
ríth
##itinne
Moscó
##inneach
Feidhm
cumadh
##arcelona
##omórtais
Seosamh
chórais
hionann
cnuasach
Tuaiscirt
hEaglaise
Ciallaíonn
inmheánach
uimhreacha
##nag
Dru
mam
##alann
##rasta
##ógáil
1898
Bell
Norm
Voice
éasca
Bheilg
chomhair
haithint
shaothrú
theannta
traenach
craiceann
táirgeadh
bhfarraige
chaighdeán
leathsféar
dtuilleamaí
comhaimseartha
95
##ques
157
Ast
Men
Tam
pío
##aghas
##lóidh
##riall
##sheol
carr
gcos
##chloch
chill
index
muinín
dearadh
Ospidéal
Chonartha
Cumannach
mhaireann
ailtireacht
##feá
##fhu
Oh
##line
Blo
Lyn
bhó
##amhna
##ghaim
##riost
1927
chol
gcon
##ancing
Córas
teoch
éadaí
Dealgan
Glactar
feabhas
Hamilton
filíocht
Alexander
caithfidh
craobhacha
eacnamaíocht
##24
>
##vin
##ainí
##ilín
##iond
##mach
##éard
800
##áinne
High
Jeff
apps
bolc
bund
hAon
hImp
##studio
Chnoc
Ghabh
Jones
dhíth
sciob
##ealsamh
chloch
fealsú
príosú
##aíochtaí
Nioclás
Sinsear
##eimhreadh
Léiríonn
Pheadair
soláthar
Éadbhard
##scoileanna
idirdhealú
maighnéadach
##dam
##lor
##usa
##éic
69
89
dig
mla
##ealar
##úlach
bail
dhío
inbh
leat
##eanann
Award
Cille
chrom
##chumann
##ángthas
easpag
bhfisic
##raitheach
scáileán
uirbeach
veirteab
docstudio
lonnaíocht
theangacha
##mo
##ban
##ico
##ria
##óit
56
##ógra
Cul
##ionsc
##ordan
Greg
Karl
Nuad
Sand
Vinc
fost
físe
muid
##eachán
##earnóg
##áipéir
Dearg
Gréig
foréig
gcruth
seansc
##saíochta
trádáil
feithidí
hOstaire
míshásta
bhriseadh
staraithe
chandamach
léiritheoir
##ns
Esp
Tas
pas
##aillí
##ensus
##foirt
##riste
News
buam
##daithe
##ithise
##éanadh
Grúpa
Leith
##isteach
France
mhéara
staraí
láithre
scaradh
Fuarthas
comhraic
eagraigh
próitéiní
##ainistreach
Parlaimint
##27
##dre
##wel
Ua
##ibhe
##iosp
##lass
##stán
lua
not
sos
Bart
chod
##nítear
Phápa
cearn
ionch
##onamara
##uileann
gcónai
ionaid
rugbaí
##oghcháin
carbóin
##ailliúint
##olaíochta
bhlianta
gcomórtas
roghnaigh
sábháilte
Eagraíocht
bhFraincis
chuimsíonn
##ene
##oli
##roc
ce
mm
##eict
120
Ker
Mas
cún
has
php
1887
gcum
gort
hair
méar
peir
rinn
##saithe
bhéal
breac
nocht
Aigéin
Comáin
bpáirc
bpáirt
siúcra
bharúil
deichiú
fhocail
iontais
siombail
Dictionary
dheisceart
críochnaithe
53
NA
##idís
156
alú
cód
lip
##https
##mhuir
1901
Alan
hiod
micr
Catal
Water
buait
stamp
##eadóirí
##pendent
Annála
Factor
Freder
fuaime
fáilte
sprioc
thuill
ceangal
chloígh
Encyclop
choinnigh
##duc
78
Bá
CO
Cló
fig
glú
pla
##illte
1798
1884
Chos
imní
##rianta
Ghlas
Royal
cóimh
their
Ailill
choirp
snáith
Ceanada
##áthraíonn
Gearailt
theoiric
iompraíonn
leictreonach
##ym
##omen
166
700
Luc
##éadar
1895
Barb
Harv
Leon
breá
cara
foth
stoc
##fhreag
Beidh
Kelly
Seoir
aonar
maoin
##staintí
ngrúpa
sagart
stailc
uaisle
##national
Glacann
formula
laochra
thaitin
##airiseach
Baineadh
cheithre
cinneadh
éabhlóid
Sualainne
chultúrtha
deartháireacha
##lon
##innt
##ival
##sean
Gnó
Kim
Mir
Wat
íos
##eogra
##iúnas
##ríche
Chic
Tiom
cosa
##ublish
catha
greim
milli
##eananna
Wilson
cheang
níorbh
reibil
sinsir
spéire
tobann
##iocfaidh
Airgead
Shroich
iomarca
creidimh
sheasann
éifeacht
mbaineann
osclaíodh
Amharclann
##uis
Gw
Nó
##lámh
155
Nav
Sec
Sor
##arbón
##inger
##árach
1880
Rist
toch
ceirn
píosa
ócáid
##eampall
##laíocht
bogadh
chrann
druidim
léigear
tomhais
Albanach
cumadóir
fhulaing
##aighnéadach
geilleagar
Gearmáinise
Lochlannaigh
VI
##tent
Muc
Tag
aid
inis
ndán
sola
thrá
##laíoch
Fearr
Fried
eolaí
leasú
##annacha
##luaiste
##tachtaí
Brasaí
Giolla
Mharsa
Mhárta
choimh
pósadh
scrúdú
suirbh
##iúnaithe
Stailín
ordaigh
shaghas
Feictear
measctha
oibrithe
eireaball
comhlachtaí
miotaseolaíocht
##28
##CO
##alc
##ied
##rie
##urg
##ves
83
##aolú
##ílár
ADN
Lud
Ram
cin
mag
phr
scu
van
##aithn
##idire
##lasma
##raois
##riail
Brad
Corm
Heil
Jour
dtrí
lios
mBan
todh
Child
Rúnaí
eagrú
troda
##uintire
Morris
cairde
dorcha
Scannán
Churchill
mainistir
thimpeall
tUachtarán
leictreacha
##ye
##arm
##ken
##nis
##rág
79
Ep
Ow
##idge
##noic
##únas
Bas
Cab
Ian
Pot
cis
ste
tás
##eagal
##itinn
Téav
Uíbh
cros
ghrá
##aifíse
##treach
Ruair
Táirg
ardch
leann
trách
##aingean
damhna
gabháil
réamhth
nGiúdach
núicléis
áiseanna
aibhneacha
##ghuaillíocht
difríochtaí
shaighdiúir
##tl
##bha
97
##ighe
Ant
Bus
Pen
Ray
Row
##ibhne
##iomad
##oklyn
##organ
1902
1907
Anth
Fitz
Slav
beir
##faidís
athsh
cairt
craol
mhian
##aileann
##rancach
##taítear
Andrew
Ghearm
cabhrú
chúirt
gunnaí
##eallaigh
Chríoch
itheann
Risteard
bainteach
faisnéise
cloisteáil
labhraíonn
##tat
76
##adaí
##aimb
##réir
##ship
Dor
McK
Mun
Rah
Sur
Tit
arg
pra
unc
##raing
1891
Comm
Each
Mhan
cont
##iorcal
Léinn
Niall
chara
##bhearta
##áiltear
Londan
Seacht
capall
chaomh
mbeirt
mianad
tSicil
Bealach
Dancing
Leighis
sluaite
sóidiam
thúisce
##imhreacha
Vicipéid
nochtadh
Mheithimh
Tharraing
gcuireann
léirmheas
Sóisialach
ceolchoirm
ionfhabhtú
Phortaingéil
ríomhaireachta
##esp
##igí
##lóg
##aígh
##bhán
##ófaí
Ark
Bol
Dío
Rep
Vis
hom
##daigh
##eagán
##eoige
Anna
Uile
page
scan
##imintí
##lóvaic
Crann
áitiú
##eighilt
##lamaigh
Pierre
Tuatha
cruthú
dearga
reacht
tsráid
tógála
vótáil
English
Jackson
dtabhar
gabhadh
príosún
chuidigh
eitleáin
fearainn
teoranta
Áirítear
Christian
choláiste
gCorcaigh
chomhairle
impireacht
láithreoir
eagraíochtaí
maireachtáil
##hn
#
##ely
##let
73
ae
ob
Buí
Cat
Del
Ern
chó
##chais
##eople
##saigh
Dear
báid
gcod
Finne
aontú
deimh
gorta
measa
##iabhras
Easpag
saorga
cloiche
rachadh
Lacaille
smaointe
Cambridge
clúdaithe
páirtithe
duaiseanna
shóisialta
tionscadal
foilsitheoir
##tro
Ce
##rúin
##ucht
##álás
díb
mis
mún
##orcra
Arch
Coun
Iomp
bána
shlí
##aontas
aistí
dílis
gcinn
trian
tréan
cruach
gcrann
##ibheacha
##onacthas
Beatles
tsochaí
Éideann
Meicsiceo
ndearnadh
bailiúchán
cleachtadh
sráideanna
thaispeáin
ainmniúchán
ceanncheathrú
€
##tle
##yth
ir
##aití
##cáin
##ific
173
Clo
Ing
Kil
ata
Chas
Inde
Oidh
Thit
chru
inmh
port
Áine
##amhain
##iceach
##mhaire
cháin
feall
feist
gaisc
geall
réada
bPáirc
bhaist
bhrath
shocrú
##íollacha
Seirbia
history
Hollywood
faigheann
aistriúcháin
timpeallacht
##29
66
Ib
Kr
Ár
##arda
##bhuí
##ocia
##éadh
##éaga
Gru
túr
##earna
Cros
Mach
have
nÉir
##airdín
Shóis
Golden
Ollamh
maidin
mbanna
ngleic
bhunadh
namhaid
sraithe
Alastair
feictear
leictream
uachtarach
Shóivéadaigh
##uno
##wig
Bé
Dí
##ompu
Mod
Old
húr
mon
súl
Chap
Corc
Good
Juan
bhre
grád
##aigine
##taíodh
Foirm
Miche
deigh
fionn
inmhe
##aibidil
##eochana
Cathal
Suíomh
##gaíochta
##ruthaigh
##éadfaidh
Dúchais
coimhth
meáchan
neodrón
teorann
##imthriall
Deiscirt
Mharaigh
claonadh
limistéir
éifeachtach
##26
##mi
##íls
98
##mann
Lab
Lea
Liv
dtr
eil
gen
pri
Cumh
Rath
Stok
marú
##earmad
##éineas
##íodóir
Chrom
Saoth
lámha
tarlú
trína
uilig
clocha
gcúige
géinte
scoite
tiarna
bhuadar
chosúil
cásanna
cúigear
gCraobh
mianraí
scartha
údaráis
##aighdeáin
imeartha
cheannach
ghearradh
##ep
##gha
93
Hy
el
pp
##scar
##uman
Pas
lir
sur
##iléir
##iteas
Ever
Town
aona
##eisire
##laotar
##shaoil
Eilís
naofa
Liosta
chatha
coinne
fithis
gcreid
taithí
caillte
déantús
iliomad
sheacht
tAthair
##ánaíochta
Aisteoir
féinrial
tuairimí
gairmiúil
dtarlaíonn
roghnaíodh
tsamhraidh
Críostaithe
Leabharlann
sclábhaithe
Meiriceánacha
##ID
##he
##tz
##ión
##tem
09
##lain
##mhac
##more
##paig
##áirs
Aid
App
Blu
Gil
Hay
Lig
Mhe
are
fin
##acsaí
##ichiú
1897
José
léim
teip
##thacht
Sulli
caoga
gream
Columb
Críoch
bhreis
census
iarann
rothlú
aerfort
stopadh
Franklin
aontaigh
gaolmhar
seandála
sheasamh
todhchaí
Friedrich
Shéalainn
imleabhar
Dealraíonn
Manchester
iománaíocht
amhránaíochta
thraidisiúnta
##úm
##cia
##ous
##sky
##ígh
86
CH
Ol
fe
##iann
##igan
##lóiv
Var
##uaidh
1848
1881
1888
Vein
ghar
láir
##inimic
##lasach
##ocsaíd
Caomh
gcion
nótaí
##daíocht
##eannais
Comhdh
##laoitear
##úilleabh
Conaire
Polainn
bualadh
leathnú
Aontroma
scaipthe
sreabhán
comórtais
Normannach
Lochlannach
leabharlann
shealbhaigh
seanscéalach
##irc
##mhí
##oni
87
Dy
##badh
Dis
Sea
rte
##istín
Iúpa
Main
cair
dhlí
tuig
##antáin
##eandán
##lachas
##scaill
##ábháil
Doire
Taobh
feoil
##minster
Eithne
insint
Prionsa
stampaí
Sullivan
Tosaíonn
chothrom
fhianaise
taoiseach
Aithnítear
breithiúna
ghnóthaigh
Amhránaíochta
##23
##eae
##iano
##rell
mur
nia
nÓg
##masóm
##oirne
Cois
Ivan
scam
Afrac
Joyce
fheic
##oilséiv
mhíniú
táirgí
Dobhair
Gréigis
altrama
luaidhe
Eochaidh
Liotuáin
hiondúil
nGaeltacht
radaíochta
deacrachtaí
thaispeáint
bhainisteoir
##ani
##kon
##nad
##scr
##itir
##unta
Ana
Ill
Jud
Stu
Sár
Wol
lom
##ieved
Gail
Seas
Wood
díog
rómh
##bheath
##eamara
##imisin
##théacs
Chorn
Santa
Tuath
##earnach
##lacháin
Fisice
ligean
móilín
##éalaíocht
hidrigin
laethúil
Barcelona
phláinéid
Ardeaglais
Chruthaigh
chomhlacht
náisiúnachas
##21
##eg
##ão
##ese
##ova
Mé
##ious
##itis
##oras
##sain
##íoth
Bay
fis
por
##earch
Mhol
Mura
Peil
Wind
acht
cham
gall
insp
##táiste
##éirigh
Coinn
Stiúr
coirp
daich
naisc
rompu
tirim
##ainnise
##teanach
Comics
Liobrá
Margar
Walter
canadh
troigh
ullmhú
bpolait
fichead
praitic
sibhial
##íshliocht
Language
fheabhsú
síocháin
Ceilteach
phoblacht
phróiseas
Atlantaigh
deireanacha
##TV
##oo
##ici
RA
##ange
##eyer
##kins
##over
##íoll
Pil
Río
Rún
1860
Fire
anam
cloí
heit
phlá
##easúra
Chinn
Ciúin
droim
fearg
##aineamh
##fheidhm
##phobail
Cheann
Chóiré
chúram
dTuath
fheirm
ghléas
páirce
##eanadóir
Associa
Ceaptar
Chicago
bunaidh
iarnród
leathré
screamh
Gréigise
fheachtas
shuíochán
cumarsáide
suntasacha
eacnamaíoch
hainmneacha
Pennsylvania
Protastúnaigh
##mán
##pín
04
74
##helm
##léim
##rúis
167
Key
Pop
Ria
inf
##agadh
##right
Ailt
Lorc
Réig
aicm
diag
dord
raid
siop
stró
this
tofa
##óiniam
Muire
garbh
heala
##artaigh
##impiste
Michel
bainne
bochta
ghlúin
mheicn
oighir
##ealarúis
##rámadóir
Academy
Beckett
Eochaid
Gearóid
glactar
ionadaí
thugadh
Catagóir
Mhantáin
téacsanna
##úilleabháin
Braitheann
ceimiceach
teicneolaíocht
##ky
×
##alt
##ère
05
Bon
But
Cle
pob
suí
##eanas
##lithe
##trach
Brún
Gorm
Lenn
Oibr
Sara
Tras
dtug
díls
hail
spré
Chris
Shinn
míniú
which
##ánachta
##íonacha
tonnta
##eisimint
British
Micheál
Máistrí
gaoithe
rathúla
aoiseach
gcanúint
gearradh
##iméadracht
Deisceart
Frederick
bhaintear
scriosadh
Fiseolaíochta
##iy
##erf
MS
gK
ló
##book
##erty
##pair
154
Mün
Som
##eagan
##gaidí
##obair
##óradh
1882
Cabh
Mike
Thar
cibé
##ingham
##rúchán
##íonadh
Fhine
##aoisigh
##cheimic
##fhocail
##ráithre
##trieved
Dhoire
##árthaigh
Cadhain
chumadh
gnóthaí
hábhair
Stáisiún
bplandaí
##scríbhinní
##ontachtóirí
Laidineach
Oideachais
##ríostaíochta
Sráidbhaile
fheidhmíonn
##so
##iof
##nes
##nge
67
##aimí
##aíon
##ipte
##phia
##riel
Hel
Pad
Pan
ait
hIn
idé
##bhadh
##iacht
##laoch
##roime
Alba
Cham
Céad
Hans
Lanc
Peir
aspx
haer
soic
##eartas
##eidear
##iscéal
##istear
##uairim
##untais
Páras
daite
tábla
éinne
McCart
bannaí
cúirte
reácht
strait
uncail
##einiméan
cuspóir
Diarmaid
Luaitear
cónaithe
Faigheann
Gaeltacht
Rúraíocht
fheictear
Poblachtach
##ft
##gal
##lua
##uck
96
##réan
Las
len
##icéad
##inéal
Cana
Show
peit
##allagh
##ingeas
##iseáil
##teacht
Teicn
Walsh
caife
ceard
grian
nglac
Bhreat
eastát
sileac
tomhas
##ileánach
Coimeád
bpointe
labhair
síneadh
Breandán
ghéineas
ndéanann
géilleadh
Uachtarach
mhainistir
parlaimint
éagsúlacht
##gu
##zz
##gor
##rop
##róm
Fa
##uirs
Han
Tib
##ience
##rence
1840
Bith
Brig
Ghnó
Roch
mona
nath
seán
##aigéid
##aoradh
##tánach
Jimmy
Planc
chaoi
ráite
tobac
##ailciam
##aileach
Fásann
léirmh
##aitneamh
##oibríoch
Journal
achrann
bagairt
bhailiú
cailíní
chomhch
dóiteán
fhágann
furasta
neamhdh
Lughaidh
##scaoileadh
Taoiseach
athraithe
dtiocfadh
sinsearach
##có
##dí
##nán
07
41
pá
##ends
##ette
Bea
Cer
Hal
Nik
gCa
##stein
##éanaí
Band
Toir
clog
féar
mean
##ascach
##iteamh
about
agóid
cloig
gaire
siúil
vitim
##aillimh
##aisteal
chúrsa
cleite
áitigh
éiligh
##eilifíse
Bhóthar
Deirdre
bainist
capaill
gcultúr
leagtha
pháiste
shuntas
tairbhe
Arkansas
gréasáin
sciobtha
##éalaíochta
Chaisleán
Christoph
háiteanna
leasuithe
leithinis
shaothair
gcomharbas
infheicthe
clasaiceach
pholaitíocht
##CD
##ji
##ÁC
##igg
##olk
Fé
##iodh
##mier
##áidh
##áith
Brú
Son
cal
gné
##earaí
1830
1883
1896
Best
Kurt
Russ
arda
grán
heas
iniú
tabh
ucht
were
##aidrid
##aolach
##ations
##ghaile
##phoill
Chamb
Luain
buirg
scair
tanaí
Alfred
Fréamh
Lennon
Níorbh
dhóigh
mhoill
##impléasc
##shaothar
Bernard
Wilhelm
ligeann
Eabhrais
Náisiúin
chinntiú
gcásanna
Sionainne
ceannairc
pleananna
soitheach
sraitheanna
International
tionsclaíochta
##TP
##orf
##sil
##ally
##eral
##nasc
##áise
Dun
Oli
Rog
Win
née
##chana
##eomra
##sincí
Fort
Hugh
Iasc
Marx
bhac
forb
##antais
##chadha
artic
rangú
##arbaise
##chríoch
##thaíonn
Ghréag
Island
Músaem
Oghaim
##leathach
Records
choróin
teochta
ainmnigh
sainiúil
tromlach
Retrieved
bhformhór
caitheadh
clúiteach
cúiseanna
dtarlóidh
fhilíocht
luachanna
míochaine
ciallaíonn
géiniteach
íochtarach
Parlaiminte
Westminster
##mes
##nae
##yne
##nell
Big
Bos
Dev
Mik
Sio
Tóg
mor
áil
##cheol
##ichte
##innte
##íosaí
1894
Clár
Sher
Shoc
Whit
thag
##ifeach
Aodha
Marsh
Neasa
mbaol
shiúl
taidh
thabh
##ormálta
##tréithe
Fhéile
Scaoil
chrios
vacsaí
Dochtúir
agallamh
cruinniú
gCeithre
Heilsincí
adamhacha
láithreán
turasóirí
ceiliúradh
hathruithe
pharlaimint
choilíneacht
Chríostaíocht
ionfhabhtaithe
##dhe
##kov
##law
##lot
##óch
AR
SE
Wa
Ór
##dair
##ians
Ash
Cór
Hub
Not
##inder
##rough
Pear
bhán
dTír
fabh
shon
tslí
##ictiúr
##intéis
Caird
Iorua
Neill
bhéim
cille
ionta
orgán
Alasca
Potter
albaim
dearbh
néaróg
##chreidmh
Fhianna
Georgia
Rahilly
billiún
bóithre
clasaic
gcuirfí
smaoint
##orgánaigh
gConradh
maireann
thíortha
Ollscoile
chuirfeadh
pholaiteoir
talmhaíochta
ubhchruthach
##ms
##erd
##riu
##rog
##urs
68
pe
##elli
Ful
##agart
##iúidí
##ordon
Clar
Kent
Lisa
Tele
gafa
gile
hArd
poll
thré
Údar
##chaint
##oscadh
Dhubh
Mhars
aisce
bíodh
déine
ghair
madra
sonrú
##inneall
##riathar
Chreid
Cormac
Cruach
Samuel
pionós
##olaíocht
Céitinn
Studies
content
##eanathair
oiliúint
phlandaí
sheoladh
Astrálach
bpláinéad
##imhneacháin
deoraíocht
polasaithe
reiligiúnda
náisiúnaithe
##há
##nia
##anto
##cast
##ilis
##onne
Tul
far
prá
##easmh
##iméid
##iúirí
##ragua
##ussey
##ution
Jane
Real
##ainéal
##iúideo
##iúrtar
##lactha
##rialta
##réacht
##ónaill
Cholm
Halla
Henri
Meyer
Mongó
Radio
hiris
teoir
uaith
éacht
Bheadh
Pháras
cúnamh
dTeach
fhórsa
héasca
intíre
Vincent
díoltas
srianta
Craoladh
bPolainn
gníomhaí
tréimhsí
##ithreachas
McCartney
acmhainní
Scaoileadh
fréamhacha
réamhstair
##kh
##ña
##ots
##zer
Ku
Mr
hÚ
##linn
##than
Rug
bas
cuí
pre
teo
##aidín
##eoite
##mpire
1909
Anne
Nich
Tenn
Vers
chún
cúil
disc
fung
##ídeach
Oscar
Queen
Super
chosc
cúigí
poist
prion
teilg
Íocht
Spreag
líonra
##eastóirí
Anthony
chairde
fhithis
frithch
páipéar
saibhre
tuiseal
##istorical
Tuairisc
fhéadfaí
cheoltóir
dhomhanda
gcoitinne
scileanna
atmaisféir
dúchasacha
taifeadadh
tairiseach
Gearmánacha
##con
##don
##ito
##now
##osp
my
##oman
##sail
250
Geo
Haw
Log
Pie
dhé
ort
out
tip
##ródaí
##talóg
##áinli
1892
Bhog
Doug
corr
dhia
gais
ghné
pail
time
##aidhme
##thiúil
Feasa
Reich
Stone
Theip
dárbh
teann
##aictéar
##éibhinn
Bliain
Eolais
innill
lainse
leadóg
mheath
téamaí
##lainnise
aithnid
bhóthar
dhéanaí
tiarnaí
Maireann
Síochána
breathnú
gCaitlic
aistrithe
chuireadh
sainmhíniú
tairiscint
ealaíontóirí
##hub
##sol
##via
Bú
##adhg
##icín
##inus
##náil
Are
Fam
Hab
Hob
díd
dís
olc
who
##illon
##mhéid
##worth
Post
Tasm
chro
daor
leac
seic
##easpag
##ineadh
Athbh
Dhear
Shéam
fhuar
gCath
uaire
##arraigí
##naíocht
Company
Síneach
lámhach
marfach
##achtanais
Margaret
milliúin
shábháil
Shocraigh
fhreastal
himreoirí
múinteoir
thángthas
cruinnithe
spioradálta
traidisiúin
Encyclopedia
bpolaitíocht
fhealsúnacht
<
##oto
Bio
Gio
Kel
McL
Off
Rov
asc
leá
lia
ádh
##aiche
##iúrac
##mharc
1861
hUng
phór
sint
áras
##irgint
Early
Music
iompú
locha
rúnaí
##labhraí
Ceimic
costas
ionstr
mhéadú
sreang
##oirgnimh
dhearna
dúnmhar
seisear
uillinn
##stáblacht
##úchasacha
Banríona
Heinrich
bhailigh
eolaíoch
radhairc
##aireachtaí
rialaithe
Úsáideann
parlaiminte
Críostaíochta
coilíneachtaí
turasóireachta
##di
##vi
##ffe
##tag
##íoc
UE
##róga
##ttan
##éite
Kev
WTA
##eiste
##idhir
##igine
##leith
##tario
##óinis
Fair
Gach
Hard
Ohio
Roll
This
fact
hÉig
shín
##ghleac
##olláin
Great
Ríthe
balla
bolsc
dreap
ithir
víris
##ascailt
##icheamh
Chiúin
Gordon
Orwell
Sheáin
choibh
ciseal
dtéann
álainn
##arrtháil
##eirbhíse
##itheacha
München
gcomhdh
líonadh
nascadh
samhail
##aisinéirí
Fearghas
chaptaen
dtéarmaí
imshruth
thaighde
##raitheoirí
léachtóir
mhéadaigh
samhraidh
feirmeoirí
hEoraifíse
Sóivéadacha
shaothraigh
Caitliceacha
rítheaghlach
Bundúchasaigh
réaltbhuíonta
tionsclaíocht
réalteolaíocht
neamhspleáchais
##ni
##iní
Zh
##anas
##eoid
##ippi
##loyd
##tama
Rio
dhú
sli
##itera
1865
1877
Fomh
Gram
Iarn
Inse
Léig
Mara
Pres
caip
coil
##ghrúpa
##ineach
##ualadh
deoch
dháil
glúin
loigh
##aileadh
Gradam
Graham
Ruairí
babhta
fhadhb
lipéad
uaithi
##aighnéad
Bhíobla
Chraobh
Ghailís
ailtire
breosla
fhórsaí
foraois
nGleann
phríosú
soicind
calafort
dúbailte
##grafaíocht
Ceilteacha
béaloideas
##bheathaisnéis
##66
##ari
##iaf
##rúd
##sex
72
FI
Ja
Od
##litr
##cacht
##lacan
##óirín
1879
Vlad
Wolf
cean
##daíoch
bhord
halla
Ábhar
##instein
##líonadh
Chonch
Lugaid
Tionsc
ceacht
fáinne
maithe
##leanúint
Arabach
Oirthir
neamhbh
ráiteas
tinneas
Ginearál
eitneach
fionnadh
himeacht
infheist
neamhghn
dreamanna
Chumannach
athchóiriú
núicléacha
phearsanta
Briotanaigh
gluaiseachta
príobháideach
##sy
ˈ
##gus
##iki
03
ul
##eirg
##ente
##rado
##róin
##thor
##óint
140
Gha
Iad
Kal
Kur
Mam
McD
dos
edu
geo
man
##konen
##raimh
##ratas
1863
1886
1889
Aith
Arag
Eric
Hart
Modh
agat
ngar
##eathar
##uilinn
##ullach
Breac
Brien
aimín
ghaol
hiarr
imbhu
leaba
meabh
mhuir
##leachta
##scannán
Choinn
hÍsilt
pholas
teagmh
##arsnacht
##chomhair
##riostail
##áisteach
Carraig
Gráinne
breithe
chailín
chúigiú
nuachta
próisis
sloinne
cathanna
daichead
hAirgint
stiúideo
teoiricí
Coimisiún
dheirfiúr
socraithe
Oireachtas
Scríobhadh
Uachtaráin
atáirgeadh
chabhraigh
scríbhneora
carraigeacha
sceimhlitheoirí
##sf
##sá
##mat
##met
##oim
##qua
##ump
##zco
Cy
UN
op
##aron
##artú
##ealt
##usan
##áití
Cad
Dec
End
Fox
Kek
Vín
cat
shé
##dearg
##eolog
##paigh
Girl
Hend
Lang
Otto
UEFA
taom
téad
umha
véar
##ailnge
##tashub
Rómán
aiste
cogaí
cupla
drong
maoth
méara
##éintéir
Carter
Little
Marvel
aonaid
chnámh
giotár
mhonar
script
treall
Airméin
aistear
fithise
ghalair
phlanda
cheangal
coláiste
dúnmharú
neodrach
scamhóga
tuirling
bogearraí
Theastaigh
ceisteanna
Association
ngluaiseacht
##LA
##SS
##és
##aih
##elo
##oks
CE
eu
##fair
##gais
##nóna
##olly
##wich
978
Túr
bhá
her
##éasta
1867
Bean
Bonn
Road
Will
hÍos
mioc
shár
##eanant
##theach
##éitear
Fiach
Kevin
Kings
Lebor
Méabh
Neipt
abhac
dhual
fáisc
líofa
rómán
Éamon
údair
Ciarán
Morgan
Stokes
buille
feasta
fhéile
othair
seanch
##lathaigh
Ceithre
bhliana
cheanna
glacann
gradaim
mbóthar
thairis
úsáidtí
##eilgeoirí
Boilséiv
Brasaíle
Ceiltigh
baictéar
bhfolach
oibríonn
chomharba
gConnacht
gluaisteán
##ráithreachas
Chaitlicigh
ghinearálta
##cú
##ira
##ube
##éib
06
51
Ló
Pu
Sg
##arra
##ealú
##eapa
##ital
##itín
##ores
##ruis
##star
Boy
Gla
Hud
Met
céa
##gairt
##oleon
##seáil
1893
Cuan
Four
Suas
brea
dhul
hais
lasc
tith
##aitist
##easach
Chuid
Cúirt
Mount
aonta
dains
haist
oilte
sáite
##earmann
creach
meáite
theith
Sláinte
chrainn
ngníomh
thailte
Insítear
Staidéar
Theachta
dóiteáin
eaglasta
mBeirlín
scaoilte
Contaetha
Leithinis
chóireáil
mhealladh
Sualainnis
seachtrach
charachtair
riachtanais
taispeántas
thábhachtaí
léirmheastóirí
##TI
##ced
##ila
##pho
ao
##léir
##ráit
##ures
130
Bow
Low
sla
éic
##erald
##etóip
##laosc
##naimh
##unity
##úsail
1850
Live
Ross
duit
dífh
fóir
toil
órga
##eachum
##uimhir
Billy
Peirs
Tadhg
aniar
bainc
boinn
buaic
chucu
##issippi
##lathais
##àidhlig
Bóinne
Philli
Sagart
araile
minice
sráide
troime
Antonio
Cosanta
Gabriel
Gnóthaí
bhféadfaí
gcuirtear
Polannaigh
gcomhlacht
gheimhridh
chlasaiceach
hImpireachta
gluaiseachtaí
##úb
##cer
##iny
##sis
##árú
##ící
##ents
##ghrá
##iarr
##mund
##ogha
##ríde
##rúil
##tell
##úirí
Who
fís
##ionól
##oladh
Barr
chró
gann
ghla
part
Dáire
Franç
Ghall
Shlig
Toisc
dhifr
facht
gasta
iolra
seolt
##áipéisí
chúpla
critic
hoíche
pheann
##chruinne
dtosach
dtugtaí
dúshlán
##ifteanant
##ríochaidí
Kekkonen
Tiobraid
fiabhras
náisiúin
phrionsa
phríosún
thaistil
Institute
Meánmhara
Naitsíoch
aistríodh
gcomhréir
Bhealtaine
Mheánmhuir
Stiúrthóir
Bhriotanach
##chn
##ded
##jor
##nap
##orp
##tml
##tti
##éon
BA
Tó
##ania
##anne
##chad
##hard
##iclí
##láir
##mraí
##raft
##unna
Cre
mbr
##stown
##úirte
1878
Dhia
Nick
cait
dhru
fais
hEil
##ailliú
##ithigh
##oraois
Clark
Dáibh
Ghiúd
Naíon
Riada
bPort
mhara
tearc
##roichid
Cowell
Gealaí
carbón
ghalar
inimir
lánúin
##iospráid
Aontach
buartha
Éiríonn
##mharaíodh
Napoleon
cabhlach
chaomhnú
insítear
ndéanamh
oifigigh
sneachta
Domhnaill
aontaithe
céimeanna
fógraíodh
buachaillí
Mississippi
bainisteoir
reachtaíocht
reiligiúnach
##IF
##gy
##esh
##hen
##oca
##ror
##tty
Ko
##dale
##fóir
##renn
Dál
Eac
Tay
ant
phl
##cheap
##cient
##eacán
##erine
##gnamh
##house
##litic
Euro
Hamp
Herm
Lady
Roib
Seic
dích
ingh
ndúl
##dinand
##oilsiú
##íteach
Sínis
gorma
larbh
pheit
tonna
uiscí
##mingham
##ontóirí
##tanacha
Briain
Gníomh
Ioslam
nGrian
phlean
thraen
##eallacha
##nachtain
##áirteach
##úsailéim
ghradam
polasaí
páipéir
shaorga
théarma
##dheighilt
iomláine
Áitríonn
Dúchasach
Mythology
Sasanacha
hÍsiltíre
ocsaigine
riospráid
taifeadta
gComhairle
prionsabal
chleachtadh
fréamhaithe
huimhreacha
iascaireacht
́
##die
##lah
94
Ak
FA
##head
##iain
##idhe
##léid
##náin
##uais
##ular
147
Liz
##acast
##bháin
##ghéar
##imhní
##inéis
##leáin
##ántas
Kath
Mala
Rann
aigh
coun
earr
Cross
Steve
Tarbh
Wilde
dubha
fhonn
ionsú
mbarr
##éineach
Breath
ballaí
ceanna
chiorc
gcaint
ghnách
matáin
thairg
##inearáil
##leabhair
Florida
Jacques
Shamhna
brainse
foilsiú
hadaimh
intinne
réaltra
áisiúil
barúlach
cheapadh
diúltach
gcluichí
géibhinn
shláinte
thrópaic
tubaiste
##aibhneacha
deachtóir
taitneamh
Dhomhnaill
fhreagairt
imoibrithe
taispeáint
theilifíse
tháirgeann
Shóivéadach
Sóivéadaigh
thaifeadadh
Portaingéile
lonnaitheoirí
##ct
##dle
##una
##anni
##anny
##chos
##dáil
##ghin
##imín
##lamh
##lein
##léar
##oilg
##ries
##view
145
Ges
ghá
rua
##anger
##gnóis
##istir
##ollar
1851
1852
Bhan
Cuir
Seac
bolg
cosú
dron
##iadach
##paráid
##uaslag
##íseach
Dream
Sarah
Sheol
caora
chorn
dóchú
gcúig
hailt
hipit
strus
thoil
tréig
##ruchtúr
Fhailí
Manach
Spring
abhann
bailiú
bhalla
báistí
lionsa
##tarraing
Chairib
Russell
dhearbh
slabhra
##tóireacht
Chumainn
Gréagach
Robinson
eolaithe
maisithe
iniúchadh
ollscoile
bhuachaint
léitheoirí
spásárthach
timpeallaithe
##oe
##ót
•
##mit
##oke
01
##adel
##aimp
##ants
##burn
##rald
##uala
Lat
Poe
##asamh
##mhais
##ustin
1800
1885
Eibh
Liob
Seam
acra
aill
babh
teit
##aitice
##chaidí
##ibrary
##iriúil
##lacadh
##uairne
##uirlis
##ádraic
##óraigh
Antar
Aoine
Hiond
Napol
Oisín
tSaor
thair
Bridge
Chloch
Leitir
Muiris
Tionól
bhfair
bhláth
boladh
briste
doimhn
dúnadh
músaem
oifigí
óstach
##phrionsa
Imreoir
coillte
cultúir
ealaíon
mhiotal
rabhadh
sagairt
ceathair
conspóid
eaglaisí
##isceartach
Ollainnis
fisiciúil
foréigean
léirítear
Ghnóthaigh
mheasartha
páirceanna
Christopher
treibheanna
conspóideach
seandálaíochta
innealtóireacht
##áí
##fan
##net
##pit
##saf
##uns
61
Fá
Jr
Ky
##gáid
##ines
Cra
Daw
Fra
Oro
Pic
Res
sás
##adhbh
##airge
##bháil
Bord
Dick
Meit
Mhac
Neil
Vata
Well
cent
chré
fine
gCar
mear
##aiseal
##chláir
April
Seice
alcól
iontr
mhill
threo
##eathrún
Howard
Taispe
chuile
fiacla
iadsan
loings
luatha
plátaí
##mhuintir
Gabhadh
eisíodh
streach
##íothlaigh
bhfithis
chultúir
meastach
turgnamh
##namaíochta
Ferdinand
baisteadh
bpróiseas
creidtear
gCaisleán
ghathanna
mhúineadh
saghsanna
timpeallú
gcreideamh
leathsheol
phríobháid
leathanaigh
caighdeánach
scoláireacht
iascaireachta
teicneolaíochta
##ić
##xt
##sco
##tré
##righ
148
Fad
Len
Out
crú
dtá
##aimín
1871
Naoi
Wall
doic
dáth
feir
iarg
ollt
##eiripe
##léacht
##ónaigh
River
anonn
buama
droma
mhoth
mótar
péire
ranga
shine
stéig
##bhreith
##chórais
##earsana
##uspóirí
Chlann
Matthe
Murray
Tiomna
bandia
coróin
dornán
shaibh
Leanann
Ontario
Rúisise
chumann
huaisle
inspior
seasann
##aitheacha
##arsanacht
##ifisiúnta
Ballarat
Napoléon
crochadh
draíocht
príomhch
radacach
Ioslamach
Spáinnise
athraíodh
dtoghchán
follasach
tionscail
tromchúis
##undúchasach
Dhiúltaigh
flúirseach
peileadóir
reiligiúin
peileadóirí
##tashubstaintí
leictreachas
neamhspleácha
##erv
##gin
##lum
##obe
##wan
##ích
Au
Fi
Ob
Sv
##ista
##nant
##oney
##oper
##tróp
117
Abb
Bad
Eir
Exp
Gle
Mhá
bru
dlú
##iotár
##naise
Cong
Doim
Giov
Linn
Lucs
Mall
cnoc
cíos
halb
infr
phol
siam
trad
trío
##eacáin
##fhoirm
##leagan
##ration
##éasúir
Maine
Texts
dalta
sacar
tAcht
téama
##eascóip
##oiseach
Coiste
Hudson
Queens
ficsin
mbaill
mheall
salann
##aighdean
##bhualadh
##éaloidis
Matthew
bhabhta
doimhne
dtugann
gCumann
léannta
##iterature
##laisteach
Imrítear
Shligigh
chuspóir
coiteann
nóchaidí
Comhdháil
hochtóidí
meánaoise
orgánacha
sealadach
Cheilteach
Cumannaigh
fuaimeanna
múinteoirí
taiscéalaí
timthriall
Independent
cuimsitheach
shaighdiúirí
##dad
##uar
##wyn
kg
ve
##blaí
##rent
Act
Adh
Doc
Gao
Gho
Jay
Leg
Sha
bro
cha
mhu
sho
tsu
web
##allaí
##astún
##ialla
##ighne
##igéan
##oifig
##pheil
##ártaí
1820
Alas
Bios
Coir
Deut
VIII
baol
bhru
hIor
##aigéad
##hattan
##orthaí
##óracha
Bharr
Trans
barra
choir
inite
sféar
##thaithe
Chorca
Donald
Lynott
Nuacht
Reilig
Steven
amanna
diaidh
saolta
scaird
##adelphia
bPáirtí
chealla
chearta
scamhóg
thabhar
Dhuibhne
bhagairt
bhfocail
dhíreach
staitist
tagairtí
theagasc
Learpholl
bhronnadh
iníonacha
dealraíonn
mheánscoil
réigiúnach
cheiliúradh
Mainistreach
heagraíochta
##dul
##isí
##uri
##óma
##enna
##ices
##ribh
##traí
##últa
Jun
RCh
hAl
##inois
Bush
Corp
Leic
Mein
Pict
Sacs
Time
reit
tais
##enberg
##leatha
##sanach
##scrios
##ustaim
Cóiré
Donna
Gruff
Jacob
Robin
amait
díriú
einsí
fíoch
hinch
inter
irisí
mairn
misin
scuad
trans
##bhóthar
##ónaidhm
Daoine
Rovers
Theach
bearta
dhream
déithe
mearbh
sealbh
##ithreach
##romchlaí
Ceimicí
Maidrid
earnáil
fhéadfá
freagra
mamaigh
meaisín
ruathar
seomraí
úrscéil
Giovanni
Lawrence
Ritheann
Tréimhse
ciontach
monarcha
seachtar
theideal
tonnfhad
Australia
Manhattan
traenálaí
Chaisleáin
Danmhairge
Sinsearach
Sualannach
bhfeachtas
bhfianaise
húrscéalta
##daí
##lem
##ody
##olm
##roe
##vey
##árr
08
Vó
tó
##adán
##agua
##icia
##líní
##ogra
Bab
Bat
Got
His
Way
tab
##acach
##fhaid
##fidís
##liuch
##áinín
##éadan
1858
Eile
Lion
Phar
Prix
Rach
Siar
chao
deil
easa
nead
##aistín
##iseadh
Alice
Macal
fhion
naíon
##eanacha
##scríobh
Athair
cosúla
heacht
impire
ngalar
toirch
##seirbhís
Aonghas
Ollainn
Publish
athuair
breathn
##imisinéir
bhualadh
ghlacann
language
shealbhú
suntasaí
##atamaitice
Seapánach
chnuasach
chúiteamh
conspóide
cóngarach
freagairt
gortaithe
sciatháin
seanscéal
sreabhadh
Seapánaigh
choincheap
Iarúsailéim
gheimhreadh
nÉireannach
príosúnaigh
##jo
##ör
##ghe
##ibb
##ote
##tan
Lí
##bast
##ento
##gana
##gáin
##ives
##smaí
Gor
Lau
Vit
bis
but
cel
fír
los
one
you
##ailtí
##inton
##iúltú
##nders
##otais
1864
1866
Call
Chlo
Dagh
Drom
Kean
Nord
alla
bhfr
##gnaimh
##iciúla
##ileáil
##áchain
Cúpla
Gusta
Montr
Roger
anall
aonch
ardán
athfh
ghoid
ghram
réime
shárú
urlár
##ifeacht
Corona
Damien
Victor
Volume
bhuirg
cnámha
madraí
Éamonn
##laíochta
siadsan
Columbia
Roibeard
dúphoill
fealsamh
gramadaí
traenáil
Fhrancach
ceoldráma
cheannais
coinneáil
Macalister
chailleadh
chreideamh
micreascóp
teileascóp
iomráiteach
polaiteoirí
praiticiúil
leictreachais
##pán
##udd
##urn
##var
##íob
PS
Wy
##aind
##ists
##laiv
115
Cav
Cim
Cli
Eug
Fin
Lus
Ras
Sar
Sic
Sie
cóg
gho
hur
lio
tío
Óir
úir
##eanne
##essee
##ingen
##opean
##áirge
##óiríd
1835
1845
Cass
Earr
Mand
Petr
Tony
ghas
hUig
néal
pait
tóin
##cheoil
##dhearc
##eranto
##graphy
##oiléir
Brand
Choir
Droim
Shéar
State
ambas
bpost
chion
laige
pages
steir
##éiteach
Eisean
Laoise
Ludwig
Manson
Ridire
Sunday
campaí
corcra
feadán
naimhd
seánra
táthar
urraim
Chluain
Holland
Premier
Réigiún
Seasann
ainmniú
anaithn
gcraobh
hAlbain
hormóin
héiliam
leithne
stóráil
sóisear
tapaidh
Einstein
Illinois
bhásaigh
chlúdach
díograis
hUngáire
iarthair
neamhord
réaltraí
thacaigh
Airteagal
Mheánaois
Polannach
cháiliúil
coibhneas
síorghlas
Cheannaigh
Roghnaíodh
ceannasach
laghdaíonn
liobrálach
rannpháirt
úinéireacht
##éadchomhartha
Fionlannaigh
bhunaitheoirí
turasóireacht
##AR
##Cl
##iad
##róg
##vid
SP
SS
Up
pé
íd
##ames
##iles
##imil
##iong
##ouri
##rass
##rise
##réas
##tóra
125
Hot
Nig
Ped
Sel
lúb
##achan
##annaí
##bhann
##eolas
##orcha
##údair
Déag
Lámh
Maor
Seol
band
bhFl
crit
foch
gcar
##eagail
##eorann
##iginal
##táladh
bholg
gCorn
gunna
hidir
leasa
mhúin
rotha
óstán
##aictéir
##aimsire
##estival
Gaelic
Norman
candam
chúlra
drumaí
díolta
giorra
mhaoin
polaim
turais
Gregory
buailte
gcríoch
manaigh
shagart
teannas
##rafaíocht
Ghealach
ginearál
slándála
Chonamara
Seanadóir
cainteoir
chríochnú
dealraimh
fostaithe
Feidhmíonn
Historical
amharclann
cúirteanna
fhuinneamh
páirteanna
urchomhair
streachailt
coinníollacha
díospóireacht
##gaz
##tta
##uer
KK
Ze
Ell
KKK
Mot
Ted
mba
per
tae
tse
Éan
##agáin
##arthy
##ingil
##izona
##leibh
##ories
##ránaí
Bern
Bríd
Cibé
Emil
Lord
Rang
Scot
Trád
gcúl
hÍde
##neasta
##tuithe
Death
Grohl
Shean
anáil
draoi
dúnta
suime
tSeic
Manuel
Saghas
Throid
coiste
cumtha
dhearg
hainmh
hoibre
hormón
seanfh
seinnt
seolta
vótála
##eampaill
article
bhealaí
chonair
eitilte
foclóir
shimplí
sintéis
Indinéis
craicinn
cáineadh
leathadh
oiriúint
Asarbaise
cheadaigh
ghiniúint
ghluaiste
luasghéar
nGaillimh
nítrigine
reifreann
reáchtáil
teitheadh
úrscéalaí
speictream
sóisialach
tSaorstáit
Phrotastúnach
logainmneacha
##ES
##bb
##do
##wo
##alu
##gon
##uff
##álú
62
##boys
##ilip
##ique
##otaí
##éama
Hib
Lar
São
Tod
Wel
aos
cná
inv
##aintí
##ensis
##fhada
##líthe
##uairc
##uilte
1603
Bhul
Down
Dúil
FIFA
Home
Léin
Mean
Tríú
astú
fite
ngnó
teag
##inness
##nachar
##táinis
##áltais
##éilire
Coirn
Group
Union
crith
céard
gcéin
hoibr
híomh
mharc
mheit
sáile
treor
##aidrimh
##iallach
##scaradh
Fergus
Madrid
Newton
Stuart
Tuirce
Uragua
chasta
eitinn
gclann
orgáin
patrún
píosaí
theicn
urchar
##eanadach
##oirthear
Buckley
Captaen
Ceantar
Cholóim
Johnson
Laighin
Séipéal
láimhse
##bhunaithe
##iotaíocht
Charraig
Idirlíon
Johannes
Manchain
bhuachan
gnéasach
loingeas
Caitríona
Dhomhanda
Ollannach
thabhaigh
thosaíonn
uibheacha
##eidearálach
Breatnaise
peiriadach
trioblóidí
Portaingéil
bhailiúchán
bunaitheoir
ionadaíocht
matamaitice
truaillithe
imtharraingt
teachtaireacht
##DL
′
##alo
##imo
##med
##uan
##áic
##ása
es
##aign
##fáit
##gach
##ibín
##isch
##olic
##onia
##thár
Bed
Div
Fid
Inc
Prú
Sig
tom
##elsea
##eofaí
##keley
##lútón
##sance
##sburg
1846
1849
Cear
Chad
Colo
Glen
Inbh
NASA
SEIF
Shel
comm
hAth
heac
taif
Ériu
##antóir
##lasadh
##lámhas
##éasadh
Barry
Dylan
Gaill
Johnn
Lloyd
Women
bhárr
desna
dhian
dhúil
gnéas
ionan
poill
Érenn
##antóirí
##eanainn
Disney
Gabála
Sebast
achair
dídean
haistr
tréith
##iallaigh
##onarthaí
Collins
Eibhlín
tiúchan
tástáil
##chathrach
Nicholas
ríochtaí
Íoslainn
áitreabh
Sóisialta
chónaithe
snáithíní
spreagtha
tuaslagán
minicíocht
Boilséivigh
breithiúnas
gCalifornia
talmhaíocht
tsráidbhaile
leictreonacha
chathaoirleach
dheartháireacha
siopadóireachta
##nt
##ori
##íde
##ímh
##únú
cf
##chlo
##iago
##less
##ltra
##ródh
##tist
110
Bhá
Lir
Rub
Sav
Tri
mod
mus
rós
##aifia
##airne
##ardas
##ardaí
##litir
##shlua
1856
1862
1873
1876
Bang
Dist
Forb
Phol
airí
dall
deif
ghás
naon
##Enders
##ideadh
##istéar
Barra
Davis
Monte
druga
gcine
miocr
raidh
scoir
Éanna
##aineach
Beilge
Bhronn
Prince
Sheinn
Taylor
aigéan
féilte
huisce
maraon
tSeirb
treoir
##aissance
Alexand
Charlie
Conaill
Hamburg
Pádraic
Shliabh
bhFiann
bhreath
cearnóg
dearmad
fhichiú
hamháin
heagrán
iománaí
mhiotas
timpeal
Amhránaí
Brooklyn
Chuidigh
François
Plancius
bhfoinsí
bhratach
chumainn
gceithre
gcomhrac
litreach
tharchur
Rúiseacha
Tennessee
bhunaíodh
choimirce
dhifriúla
suíocháin
thuairisc
EastEnders
Rómhánacha
daonlathas
dteaghlach
inspioráid
saoránacht
chaithfeadh
seanscéalta
Chríochnaigh
Súilleabháin
aisteoireacht
chaighdeánach
réabhlóideach
##ixon
##leas
##mana
##oirí
##vana
Fág
Guy
Lam
Nev
Tak
Web
##burgh
##ghaol
##ident
##omhal
##oscaí
##raise
##óstaí
1868
1869
Come
Free
Líne
Máir
Túin
fhol
féil
mhún
míol
nóta
pinn
stiú
##ailpín
##iarnaí
##scaoil
##talach
##ultúir
Brend
Keane
Orthu
Pilib
Sruth
Stiof
Tommy
caoin
nGlas
neach
ollmh
úráin
##lóivéin
Phoist
Wright
bhreac
cheilt
dtithe
dúradh
ghaoth
salach
sceall
sholas
suaith
##eachtála
##eartacha
##otaisiam
Cairbre
Seoirse
chasadh
chuairt
gruaige
bhfabhar
dearfach
shinsear
##pháirteach
Creideann
atáirgthe
buaileadh
chreidimh
dhochtúir
meánscoil
ndéanfadh
tionchair
traenacha
##eardchumann
Chomhdháil
cogaíochta
imdhíonach
ríshliocht
teileachum
##éintéireacht
gheilleagar
neamhghnách
polaitíocht
Bundúchasach
Fionlainnise
beathaisnéis
fealsúnachta
Meánaoiseanna
réalteolaithe
leathcheannais
scannánaíochta
##af
##je
»
##arú
##hof
##jam
##ows
##rim
##wer
##éac
##ílí
02
Ey
tE
ús
##lanc
##lóta
##mais
##oide
##raif
Bod
Búr
Fiú
Hon
Kir
Nir
Scr
Sub
Sum
cúr
nga
##engus
##ánadh
1875
Aber
Clúd
Moch
Writ
cách
eisc
fáis
gael
hinn
ramh
tadh
tasc
##aisley
##eacair
##fhórsa
##iasach
##teanga
Books
Paddy
bosca
gutaí
mball
ndaon
thogh
##ollaigh
##uilleog
Aetóip
Cineál
Keyser
Orozco
chluib
deichn
dtáirg
liricí
mheabh
míonna
shráid
tarrth
traein
úinéir
##chiorcal
Beirlín
Britain
Ciarraí
Harvard
Nicolas
Parnell
banríon
chreach
clúdach
deimhin
fíochán
hidreac
leannán
réitigh
tAigéan
Fraincís
Harrison
Próiseas
Santiago
admhaigh
deighilt
léiríodh
maraithe
tiománaí
##oideachais
Conghaile
Roinntear
cairdiúil
drámadóir
gceantair
éisteacht
athbhreith
charachtar
coimeádach
dhúchasach
feidhmíonn
iarmhairtí
Íochtarach
Oidhreachta
chomhlachta
saintréithe
chruthaítear
##PA
##cio
##fic
##icz
##lub
##tah
82
Ah
Pé
TD
UK
we
##ible
##icus
##ikip
129
Fóg
Isa
Pap
Tir
cil
lón
sci
##antas
##caire
##fhios
##idéil
##itage
##íréib
1854
1857
1859
1874
Aims
Béar
Jenn
Linc
Rand
Sain
Serv
Slig
That
agam
aibí
bhuí
gual
hadh
insc
mhín
rách
them
thre
##ascáil
##eascán
##ialait
##rianna
##umhain
##ónacha
Banna
Chart
Denis
Mhala
Party
Séard
cleas
coill
franc
gaile
géaga
taibh
##reispit
Butler
Connor
Mhoscó
Pheirs
Ulster
chraol
comhbh
comhrá
dhiadh
gcúirt
gearra
people
##ródaíoch
Arizona
Chelsea
Douglas
Freisin
Léirigh
Samplaí
Véineas
ailtéar
bpáistí
crochta
dhírigh
larbhaí
tImpire
bhainist
tosaíonn
##choitianta
Bunreacht
Esperanto
anaithnid
chraoladh
digiteach
sheirbhís
Airgeadais
bheartaigh
gcuirfeadh
hainmhithe
shuntasach
Gluaiseacht
Normannaigh
idirmheánach
veirteabraigh
##CA
##MS
}
##oln
Há
Va
##anch
##ider
##ipir
##ithi
##olan
##uire
##áice
119
128
Dur
Eth
Lon
OTI
lar
mas
##antan
##chuir
##chóir
##ibéir
##parte
##siúil
##stone
##áltas
1000
1815
1838
1847
Aram
Bear
Cúig
Last
Merc
Scar
cosm
crom
mana
muin
pres
said
tIRA
Éisc
##aiméit
##ompson
Buirg
Sport
Uisce
dhein
gcaoi
hairm
##ialacha
Iaráin
Ronald
Rudolf
Téarma
pearsa
##ikipedia
Paisley
Piarais
aduaidh
chomhth
dúpholl
scológa
éireodh
##bheochana
dhóthain
iarratas
mháistir
tráchtas
Gréagaigh
Teamhrach
ceadaithe
hEorpaigh
imshruthú
spreagann
tipiciúil
##eastalaíonn
Coronation
Innealtóir
bhFionlainn
chomhghleac
gcomhthéacs
hiarrachtaí
deachtóireacht
chomhaimseartha
##bc
##mb
##app
##aró
##eck
##jin
##mus
Sí
##ghné
##iomp
Kon
Lav
Mem
Nan
Pok
Síl
Vil
gob
rec
spi
##inigh
##insir
##iplín
##otten
##riain
Anto
Cole
Cour
Deas
Iúir
León
Lind
Mona
Pius
Shan
Thur
Togh
Tíre
camp
cúlú
débh
feic
fána
hiad
snag
they
##chiste
##daíodh
##dhearg
##eisirí
##finder
##iggins
Globe
Keith
Under
chros
ghort
laist
other
sealg
triom
##eastáin
##innsean
Cooper
County
Dónall
Ealaín
Flaith
Ghaill
Johnny
Maolch
Naoise
chuims
creath
diúrac
fianna
hIorua
maille
naonúr
rothar
satail
scaití
##lannacha
Brendan
Britann
Téaváin
fhoinsí
hÚcráin
salainn
tSraith
Daingean
Diarmuid
Thompson
aisteach
bándearg
ceirníní
dhearadh
lochanna
mórchuid
nimhiúil
Moslamach
aithníonn
gortaíodh
hinchinne
phláinéad
Laighneach
cailliúint
gobharnóir
léirscrios
mhíochaine
scríobhtar
##ainistreacha
inmheánacha
Philadelphia
ollscoileanna
príomhtheanga
##té
«
##aya
##bis
##nik
##ofa
##ret
MA
US
##ghná
##nade
##orca
##sche
##ársá
ATP
Ama
Gin
Kid
McA
aol
bra
cli
net
sce
síl
##earas
##gorod
##leton
##línte
##uncil
1803
Cead
Cóir
Koch
Ling
Otam
Riar
Sham
Stad
coup
inst
mbás
##aorach
##enburg
##leanna
##othrom
##ríodar
##timore
First
Frith
Niamh
Night
Roman
Wales
Walla
ardmh
feice
gheal
luasc
mhach
ndáil
ngair
ranna
shuim
##ipteach
Carlos
Comhar
Gardaí
alúman
críche
dúiche
gcrios
mhaígh
máthar
prátaí
taidhl
##éacsanna
##íochánta
Ealaíon
Phobail
Teoiric
díormaí
scoilte
shreabh
##fhoireann
##éisteanna
Connacht
pholasaí
rabhthas
##tastúnacha
Polainnis
beagáinín
gléasanna
healaíona
Coileánach
buaiteoirí
chraiceann
forbraíodh
ghníomhach
staideanna
Aontachtach
caomhnaithe
daonlathach
doimhneacht
prionsabail
saothraíodh
trópaiceach
Dhaonlathach
Neamhspleách
iománaíochta
proifisiúnta
trópaiceacha
dtimpeallacht
Príomhchathair
matamaiticeoir
##íg
q
##set
##val
81
92
XI
##ager
##aipe
##dáin
##ilyn
##ione
##lier
##nada
##onso
##éiní
##íste
124
Ita
Jas
Nie
Plu
gea
lus
##adail
##adúla
##ision
##leata
Idol
Late
Luis
Song
Toch
béil
dhea
heip
hint
maor
scag
stán
uill
ultr
##aisíní
##bhaint
##estern
Boyle
Scaip
Vársá
colún
gaird
ghlan
heite
mhóil
searm
thrád
thuar
trosc
##inneamh
Iaráic
Jeanne
Réalta
Watson
luchta
tosach
##aimhneas
##ílseoirí
Christy
Labhair
Seacaib
aeráide
aisling
bhogadh
easnamh
phearsa
tarchur
##iméadrach
Cónaíonn
Marshall
Oireacht
briathar
chruinne
fhírinne
hÉigipte
úráiniam
Chonchúir
coimhlint
fairsinge
fheidhmiú
fhorghabh
mionlaigh
ainmfhocal
chonacthas
gcaidreamh
gcomórtais
gcraiceann
láimhseáil
ríomhchlár
thraenálaí
Oireachtais
gluaisteáin
institiúidí
Chlasaiceach
gníomhaíochtaí
##AA
##FC
##her
##lix
##rin
##vir
91
Mó
Ok
er
ni
ol
##ancy
##dóir
##eoig
##eter
##lódh
##lóir
##nand
##ower
##pool
##uana
Cob
Cré
Nar
Sid
Tac
Ven
XII
cit
sec
tum
##ectic
##eofar
##láine
##tiúil
##under
##írigh
Beir
Gary
Gray
Noel
Roth
Tríd
brat
dios
gail
péas
sise
tanc
##ainimh
##ardach
##fhuaim
Elean
Fhion
Griff
Macha
Monta
Owain
Ruadh
bhreo
chlog
cnoic
dtaca
dtoll
mhéar
moill
thais
##ínítear
Claude
Miotal
Shaoth
dhráma
fisice
gleann
hailse
ionadh
ngeall
phoist
phróis
rianta
##chaeolog
Antoine
Ceimice
Choiste
Gallagh
atógáil
leagadh
ngleann
thrácht
íochtar
##chathaoir
##ingearach
##ithreacha
Bheirlín
Seathrún
bailithe
hiarsmaí
mionlach
neodróin
spailpín
##ainmneacha
Ardeaspag
Ceallaigh
Francacha
buntáiste
comhdhúil
deichniúr
dlíthiúil
dochtúirí
eitneacha
rásaíocht
thaisteal
choimhlint
colscaradh
greamaithe
paisinéirí
príomhchar
rothlaithe
réabhlóide
éifeachtaí
éisteachta
Renaissance
cuairteoirí
dátheangach
ailtireachta
dochtúireacht
##38
##po
##su
##alú
##awa
##ems
##ove
##íte
Az
Sy
óz
##adra
##aren
##html
##illí
##iria
##oirf
##uach
900
Aic
Arc
Asp
Bac
Flo
Jag
Sad
UCD
rap
reg
rub
sac
tán
##airce
##chara
##eller
##reang
##riúil
##róirí
##useum
1872
Bour
Chom
Grea
Meir
Mick
Plan
Ragh
Réad
Shíl
Your
bhád
cúng
eitl
iain
into
maol
meon
taca
thru
##ailigh
##aillmh
##annáin
##espear
##istéir
##solini
##tanais
Adolf
Franz
Mitch
Power
Theod
Trump
chrit
faces
hEoch
rásaí
scian
seoil
##ulaingt
Battle
Centre
Modern
beacht
bhráid
cliath
cluasa
hAraib
ngearr
ochtar
sheinm
sroich
sulfar
##omhórach
Ancient
Cromail
Eleanor
fhréamh
mbruach
mhóilín
nOileán
neamhsh
shéasúr
ultraiv
Michigan
Montréal
caogaidí
cáipéisí
cóireáil
dáileadh
fhreagra
gcolainn
Litríocht
Mussolini
cláraithe
féadfaidh
gaiscíoch
Bhealarúis
Gobharnóir
Shakespear
beartaithe
gcathracha
luchtaithe
##bheartaíocht
ballraíocht
ghéiniteach
gníomhartha
nGearmáinis
Asarbaiseáin
maighnéadacha
réamhtheachtaí
##VD
##du
##pl
##bín
##mid
##iper
##itte
##long
##ollo
##reig
##tóim
135
Hug
Lem
RNA
Syn
Ten
Top
dhl
eor
fód
jsf
les
##eille
##iclip
##icéid
##lands
##olama
##tadán
1500
1832
Form
Isab
Minn
Tree
ains
bPro
chód
gean
hosc
work
##ermont
##linson
##luiche
##únacha
Coach
Doyle
Eacht
Gearr
Meall
Media
Mhaol
Réine
beith
bhfás
mBrio
tsúil
##eachair
##eascadh
##ecticut
##ialaigh
##pháirtí
##raonadh
##éarmach
Dearbh
Dúradh
Nevada
ansiúd
chionn
diosca
manach
tSáile
teidil
théamh
Árainn
##acastáin
##uirseoir
##éalaithe
Library
Ryanair
chóngar
fantais
frithsh
glactha
hiomána
infridh
poitéin
Berkeley
Bhealach
Lárionad
Soiscéal
Vladimir
aimsíodh
cáithnín
gaineamh
gcroílár
iargúlta
iseatóip
mhargadh
náisiúna
rómhaith
thomhais
Chorcaigh
Gallagher
Meánaoise
Sealadach
aisteoirí
bunúsacha
caitheann
chaisleán
cuimsíonn
cumarsáid
gramadach
maighnéad
oibreacha
seicheamh
truailliú
tráthnóna
bhunreacht
camchuairt
eipeasóidí
fhéadfaidh
tithíochta
tseachtain
éigeandála
Ghearmánach
Shakespeare
bParlaimint
chamchuairt
coilíneacht
hAirgintíne
haibhneacha
gCaitliceach
hAontachtóirí
príobháideacha
##bs
##ez
##fo
##är
##apa
##eav
##sia
##éab
FM
IR
Mi
Rá
##ject
##lóra
##oirc
##tria
##ócas
116
Bog
Dem
Nel
Rav
bag
nan
##ampaí
##annon
##idirí
##staid
##ómach
Aois
Cant
Hout
Nasc
Scol
Slán
Tuig
aimp
cuim
drom
eoch
ngás
simp
tArd
áitr
##adaigh
##amburg
##bhaing
##gazine
##isféar
##masóim
##ontóir
##ínithe
Andal
Bhris
Bruce
Enter
Isaac
Liosp
Place
Réamh
Scáth
Talún
Uaimh
campa
chaol
chóip
ghuth
insan
nimhe
solad
tAire
tSamh
thóir
tátal
xhtml
##aithigh
##ghnátha
##nadette
##olamaes
Dhiarm
Táthar
abairt
fheith
obráid
uafáis
Bhreith
Iúpatar
Lincoln
Measadh
argóint
glasraí
léasair
mbailte
ngrúpaí
Úrscéal
éachtaí
##ainníocht
##aiscéalaí
##inscneach
Carolina
Coileáin
chonradh
faireoga
stiúrtha
tiomáint
uafásach
##eatharlach
Breatnach
Catherine
Liotuáine
Teangacha
bhunúsach
chlaonadh
cóipeanna
gComórtas
mbaintear
reisimint
siombailí
sruthanna
##pháirteanna
Lucsamburg
braitheann
factfinder
institiúid
lúthchleas
mothúcháin
riospráide
Shaothraigh
chuideachta
fhoirgneamh
oiriúnaithe
aistritheoir
idirghníomhú
bundúchasaigh
lánaimseartha
tromchúiseach
##37
##39
##ML
##zi
##gam
##ilg
##lov
##sal
FC
##essy
##fhor
##lite
##luas
##orum
##ovan
##sigh
##uide
##ófar
##óime
105
Fed
Ice
Liú
cre
gra
áth
##illan
##illie
##thers
##íníní
##óilió
1844
Card
Chao
Peig
Ruth
Salv
abhc
alfa
chug
crap
ráth
scrí
sioc
tocs
##uigthe
Milan
Riain
Stars
Sáirs
Villa
bheir
bhfág
cothú
geala
iarch
malar
sceit
scrúd
tréad
tsaol
##eangail
##eilifís
##iotáraí
##ruiséil
Dillon
Gerard
Mháire
Midhir
Public
Shakur
Walker
bhfile
chonsp
fanann
fheall
físeán
healaí
mhórth
máinli
seanmh
snámha
tacsan
##éalachas
Shínigh
bhFranc
bheagán
bhfuaim
colainn
fireann
ligeadh
teileaf
##phláinéad
Gruffydd
Tuireadh
aighneas
duilleog
litrithe
pláinéid
príomhth
taoisigh
Caitheann
Chrócaigh
Táirgeann
contaetha
ingearach
náisiúnaí
úsáideoir
Ginearálta
fhoirgnimh
##chreidmheach
Athbheochan
bhéaloideas
chruthaíonn
Saothraítear
##oh
##dia
##ket
##mpa
##áib
##árd
AC
SI
TV
##arún
##eron
##idsí
##ordú
##seal
##teen
109
114
139
ABC
Cri
Fab
Mis
Ned
Pac
Por
Raw
Ron
Thr
Ult
Ung
lan
óig
##ascal
##athra
##cáine
##eafar
##ennis
##teist
##ultur
1600
Ailg
Bolg
Kate
Luan
MacK
Phal
Shac
Stal
fads
garr
main
roll
état
##Hussey
##arthal
##lachán
##seacha
##áraigh
Luibh
Norma
Nuadh
astar
books
dhiúl
faire
fhost
fiach
gaoth
gcorp
hoidh
héisc
saill
##mhainní
##olution
##sailéir
##ántacht
Family
Fhilip
Harris
Miller
Oliver
Rachel
Review
bianna
cumhra
luíonn
mheasa
mhúint
rithim
tairng
##láthanna
Herbert
Houtman
Indiana
Thaispe
dóthain
hUlaidh
tOllamh
uaillmh
Araibise
Liospóin
Lochlann
Novgorod
ceangail
comhbhrú
dteideal
heaglais
ollmhóra
orduithe
thiteann
uachtair
Coachella
aithníodh
aoiseacha
chruinniú
chruthach
gConamara
leictrigh
phríosúin
tarrthála
úsáideach
Bernadette
bhliantúil
daingnithe
dóchúlacht
nDeisceart
scríobhann
Cruthaítear
Labhraítear
mórcheantar
bruachbhaile
fhorghabháil
gcodarsnacht
státseirbhís
bhitheolaíocht
Comhghuaillithe
bpríomhchathair
##ku
##út
##age
##iet
##rot
##roy
##ónd
CA
Nú
PC
pu
wo
##chló
##eaux
##gent
##hail
##lama
##lich
##lána
##onic
##stan
##íopa
108
DVD
Dah
Hey
Hum
McM
Sla
Two
Zor
gCú
ise
pór
##aimis
##airbh
##ather
##chumh
##eatán
##facha
##luair
##léach
##neoir
##níonn
##ostún
##rabús
##ártha
##ócach
##órans
1791
1841
1855
Blue
Bren
Conc
Fola
Game
Hand
Helm
Luas
Reid
Teil
cian
dtóg
héag
mídh
sabh
shás
slat
thri
##eiceas
##gerald
##laware
##luichí
##raonta
##tarach
##táilte
Aoife
Emmet
Field
Gléas
Powys
Seach
Tobar
aigne
anail
athmh
bronn
coise
murab
phian
próit
shola
sláin
tírdh
##bhaingí
##dhiosca
##lection
##rabaigh
##rocsaíd
Benjam
Bhríde
Castro
Chróit
Eilean
Hibern
Jordan
Maighe
Marcus
Phrúis
Poetry
bhfaca
bhocht
cianta
cliste
comhsh
dhaing
dhlúth
dhroch
lochtú
péinte
seasta
spéise
##eoidríon
##oilleadh
##silteach
Clochán
Friends
Thugtaí
acadúil
bhfrith
chiseal
deartha
gníomhú
hUiginn
insíonn
praghas
sábháil
##aisteacha
##mhilleadh
Festival
Republic
Teamhair
chuimhne
cumasach
cáilithe
foraoisí
margaidh
míreanna
pheiteal
Hampshire
doiciméad
drumadóir
fhreasúra
forbairtí
fáisceadh
hairíonna
intuigthe
luachmhar
mheascadh
thréigean
tuirlingt
##aisceartach
Cruthaíonn
Mhainistir
ardeaglais
chaidreamh
gcaitheamh
tháirgtear
domhanleith
fealsúnacht
thraidisiún
séadchomhartha
##BA
##IA
##má
##pi
##àr
##él
##én
##alk
##bra
##ird
##ode
##odg
##trú
##ues
##zen
##únn
XV
##heim
##ioch
##lion
##rúdú
##sons
##trún
##zhen
##únaí
Ans
Gob
fri
für
##ainín
##eilbh
##ement
##ifirm
##ities
##itigh
##rions
##senal
##tique
##uillí
##wartz
##óntaí
1801
1819
1839
Carn
Earc
Fish
Josh
Lagh
Mion
Year
been
dhíb
himp
sion
sult
##arsana
##bhuíon
##castle
##odaigh
##áinise
Adams
Beach
Geoff
Shaor
ceint
coirn
doras
fásra
líomh
maise
maolú
náire
shíol
uafás
##iúnaigh
##ábhacht
Amhrán
Foinse
Mhéara
Pháirc
buamaí
chairt
comhar
dóchas
gcaill
gcoimh
gcumas
minicí
ocrais
rannóg
singlí
##ógaíocht
Dónaill
Science
bhroinn
ceirnín
díoladh
idirlín
imirthe
lionsaí
lonrach
lóistín
measadh
móimint
neamhth
sonrach
tráchta
Chromail
European
Oibríonn
Teampall
fuaimniú
meaisíní
nGréigis
sciathán
Neachtain
alúmanaim
caisleáin
cháithnín
coireanna
comhthreo
eilimintí
fíochmhar
shiombail
áilleacht
Bhreatnais
Fitzgerald
Liobrálach
fionnuisce
iománaithe
ionadaithe
laghdaithe
tharrtháil
Leifteanant
chailliúint
fhorleathan
Caomhnaítear
amhránaíocht
sholáthraíonn
##dd
##edo
##eek
##iae
##iva
##pin
##rud
##tur
..
Ni
Of
##ESCO
##chev
##fore
##othy
##pper
##stad
...
Aus
Deo
Mov
bbc
jab
lot
may
sea
##níomh
##times
##traip
1836
Eimh
Fall
Ford
Lait
Paor
Tone
chuí
crao
phar
Órga
##aisist
##eallóg
##eirnín
##itions
Barún
Berry
Burke
Burns
Caist
Ernst
Haváí
Paris
Talmh
athnu
ceird
cúnta
dtóin
fhiaf
iarsm
scata
spást
throm
##achtain
##smalann
Apollo
Awards
Europa
Prúise
Séadna
Sínise
Tógann
UNESCO
beirte
bhFear
chlois
fuaite
gcoinn
imíonn
leáite
searbh
seilge
taoide
##iclipéid
Central
Eamhain
Imríodh
Leonard
bóthair
doiléir
gcoilín
mholadh
ríochta
suirbhé
tSibéir
vitimín
##oideachas
Cumhaill
Missouri
Morrison
Sligeach
aonarach
chabhair
chosanta
chugainn
cóimheas
cóngaraí
gluaisne
hÚcráine
leadóige
mícheart
pháipéar
thuairim
##aotharlann
Breatnais
Roghnaigh
canálacha
ciorclach
drochuair
fachtóirí
fisiciúla
foirmiúil
heaglaise
mheánaois
treoracha
chaitheann
shibhialta
Liotuánaigh
dlúthbhaint
millteanach
ríchathaoir
saothraithe
duillsilteach
ghníomhaíocht
meánaoiseanna
Séadchomhartha
phríobháideach
##Gh
##yb
##eds
##ili
##oms
##siú
##óca
Ea
Ig
av
##elin
##iang
##ileo
##lata
##load
##phie
##rock
##rois
##réad
##scao
##town
##yers
118
Ble
Fla
Fli
Hog
Loc
Pra
Ris
Tig
acc
aoi
bhe
hil
its
ser
##aicmí
##aidhc
##amáil
##bharn
##earra
##ianus
##ictly
##iform
##iléar
##incip
##ipéil
##stant
##tures
##áinte
1814
Bail
Chúl
Cort
Dona
Homo
Lane
Mend
Mong
Nath
Spec
cins
dheo
dhán
drog
nGae
punt
##aiginí
##airlim
##raighd
Buitl
Chais
Conor
Craig
Evans
Guard
Heart
Katie
Maoil
Pedro
Turas
athdh
bholc
báite
coisc
hiain
iarbh
stáin
sálaí
tarbh
years
##ialanna
##ruachás
##uirlisí
##ádúrtha
Aigéad
Artach
Chongó
Harold
Middle
Sicile
Stoirm
Thuill
bhréag
eiseam
fúithi
hiníon
maíomh
míchlú
nDoire
optúil
optúla
seasca
taighd
##chríocha
##ifirméis
##oibrithe
Idirlín
anatama
captaen
choiste
feidhme
gcéadta
geallta
hAbhann
seachtó
Benjamin
Heinlein
bhfórsaí
bunscoil
chluichí
díbríodh
gceathrú
inimirce
lámhaibh
olltáirg
Forbartha
Féadfaidh
hArabaigh
méadaithe
rangaithe
tonnfhaid
Chonacthas
Coimeádach
Eachtracha
Gheimhridh
Publishing
Thaispeáin
bhuaileann
ceimiceáin
sheachtain
Shóisialach
aitheantais
bhFomhórach
mhaisiúchán
bhfoirgneamh
Protastúnacha
hAthbheochana
##32
§
##aíl
##gie
##ibl
##imé
##jan
##rik
##ruc
##rum
##tob
##uta
##war
##zig
71
Li
Um
af
##enta
##fast
##gate
##imer
##iolc
##itil
##lymp
##rair
##rict
##wald
##work
##éalú
138
Din
Hun
cul
gio
umh
##adáin
##meach
##mhéad
##omhan
##round
1649
1829
Cáil
Hunt
Sior
Téal
Zeit
bair
cadh
cart
chin
féid
gclo
mbád
míos
phat
will
Áras
##arcach
##rónach
##uaisle
##áipéis
Craol
Cuinn
Droma
Julia
Major
Mhuin
Sheán
Spéir
bhail
díolt
gCnoc
matán
seant
since
spíos
tobar
veidh
##arthóir
##bhliain
##eánaigh
##áidheal
Claire
Edmund
Plútón
flaith
gruaig
halbam
hoifig
inneal
mhaolú
póilín
##imreoirí
##iúlachta
##éibheann
Antaine
Choróin
Gradaim
Mathúna
Nirvana
ardaigh
cumainn
díolaim
fungais
maoiniú
mianach
thaisme
##eirmeacha
##insiasach
Cathaoir
Delaware
Eabhraic
Gàidhlig
Péintéir
chleacht
cliseadh
dheacair
imeachta
marthain
mhiotail
núicléit
pleanáil
ráchairt
speisial
##chomórtais
Bhruiséil
Ceanadach
Comhaontú
airgeadra
buaiteoir
fhairsing
rialaíonn
socraíodh
síochánta
Chabhraigh
Mocheallóg
Muslamaigh
cheannairí
chogaíocht
comhábhair
fhiafraigh
gcarachtar
plaisteach
tSamhraidh
tionscnamh
Aisghabháil
Connecticut
drámaíochta
pheileadóir
chomhlíonadh
géarleanúint
ceannródaíoch
chomhairleoir
##31
##IS
##bó
##ef
##hi
##yu
##ác
##cat
##esa
##ffy
##ged
##iúb
##mir
##nac
##tus
##ánn
Sá
##edon
##illo
##iúic
##loch
##niss
##ourt
##rett
ARN
Arn
Bhl
Bhó
Dán
Eva
Hid
Lae
Lex
Net
Pay
Riv
Síc
fhó
niú
phá
scí
##aicle
##airte
##eatóp
##ghorm
##immer
##ments
##saíde
##óladh
1792
1818
Bhuí
Bres
Cala
Caol
Drag
Iúgs
Joan
Jona
Mana
Scam
aimh
bior
fead
haem
more
punc
sait
##aighre
##ainéis
##lútóin
##omhain
##ontais
##áirine
Anuas
Iníon
Locha
Loren
March
Murab
Olymp
datha
deifn
fiáin
fráma
snáth
strío
##borough
##eamhnas
##rooklyn
##ruinniú
##scéalaí
##éaracha
Brecht
Choirn
Horror
Ionaid
Kultur
Sínigh
Trácht
bardas
bheart
dollar
feirme
gceall
luaigh
moille
nGearm
sainmh
scanna
voltas
##óideacha
Clinton
Council
Díreach
Grianna
Stanley
Thomáis
bhíodar
dáiríre
imríodh
síníodh
Acadaimh
Augustus
Strictly
Tarraing
fhoclóir
mBascach
meitibil
mheastar
tSlóvaic
##chruthacha
Aistríodh
Tagraíonn
heachtraí
meicniúil
ngairtear
stíleanna
Iarsmalann
Phacastáin
Rúraíochta
ceannairce
cheannasaí
cuideachta
gcáithníní
Fionlainnis
Gaeilgeoirí
Taispeánann
bhuachaillí
cruthaítear
dainséarach
gcrobhaingí
heolaíochta
sheanathair
tubaisteach
clasaiceacha
gníomhaíocht
príomtheanga
teangeolaithe
ionfhabhtuithe
Portaingéalaigh
Teicneolaíochta
##hu
##fil
##ibí
##isa
Lt
Py
mú
##ding
##gang
##imes
##lett
##náid
##náis
##ogle
##reab
##tana
Búd
Dow
Eit
Fro
Gúm
Hur
Mao
Nas
Plé
Rón
Sev
chr
now
orm
ton
##ainis
##conom
##ellan
##iness
##mouth
##night
##uston
1650
1842
1853
Cian
Doth
Héil
Maur
Read
Rosa
Stóc
Theo
call
doil
easp
gcao
hoil
inár
nAlb
sleá
tíor
##achais
##achall
##ealamh
##áinlia
Chorm
Dedad
Gorta
Lacan
aoise
bhfir
céime
léigh
muirí
there
éirim
##eallúir
##ríomhar
##éalacha
##úicléas
Ainmhí
Bíobla
Chatal
Léinín
Murchú
Warren
aicmiú
atheag
dheimh
paraim
stuaim
##eirmeach
America
Donovan
Galileo
Iompair
Katniss
Muintir
claonta
claíomh
dtailte
gCluain
gléasra
gnáthch
mháthar
oiliúna
Áitiúil
Aontacht
Bhailigh
Bhanríon
Catholic
Cruachan
Iúpatair
cairdeas
chodladh
eisiúint
faisnéis
fichille
garastún
ghealach
indéanta
leataobh
rachaidh
trópaicí
##ábhachtach
Teaghlach
bhunscoil
feachtais
feiniméan
iompartha
neoidríon
riarachán
tseirbhís
Birmingham
Moslamaigh
lárphointe
tríochaidí
chumarsáide
mhinicíocht
imdhíonachta
olltoghcháin
Portaingéilis
##35
##Br
##eh
##än
##ív
à
##iús
##nna
##oba
##oft
##oon
##say
##ska
##ène
LG
Tí
só
##albh
##furt
##hrer
##ifer
##irth
##naoi
##oinn
##olph
##pera
##sóir
##tine
Gas
Nag
Nia
Pav
Rac
Sen
bhi
bot
fam
fío
hóg
úll
##allad
##bhuan
##eidís
##ipeal
##isigh
##lucht
##unnaí
##zburg
##óinia
1825
Boys
Cork
Dave
Elec
Ghin
Humb
Líon
Owen
Page
Snow
Stop
What
banc
bhri
fóta
mang
sail
seac
##ainéil
##ecraft
##iméide
##ionaid
##iscéil
##orcóir
##untain
##óndras
Beaga
Broad
Danny
Droch
Raith
Valen
chrua
ciúin
meall
ratha
rince
rátaí
smior
séimh
##achtadh
##ibhneas
##scríbhn
Castle
Helmut
Milano
Monroe
Rómáin
Scrios
bunáit
cheird
fágáil
mbocht
micrea
reoite
síoraí
##imisiúin
Ailtire
Bhriain
Carroll
Eanaigh
Veinéis
Wallace
bratach
bídeach
dheacht
dtógáil
gcrutha
inbhear
ireland
líneach
patrúin
scamall
stáitín
titeann
vacsaín
##imhnítear
Domhnall
Ghlaschú
McCarthy
bhóthair
ceachtar
dealramh
feiscint
ghlanadh
nítrigin
oileánra
ruathair
réadanna
smaointí
teagaisc
##thuaiscirt
Baltimore
Waterboys
ceannasaí
chinneadh
choiteann
cháiliúla
dTeachtaí
dtréimhse
phríomhch
turgnaimh
Bhunreacht
breitheamh
coimpléasc
mBealtaine
réabhlóidí
teicníocht
##ghníomhartha
Springfield
cumhachtach
inscríbhinn
sclábhaíocht
Fhilipíneacha
feidhmiúcháin
timpeallachta
ultraivialait
bolscaireachta
feirmeoireachta
neamhchoitianta
##79
##DA
##yp
##ος
^
##acó
##eto
##ido
##iri
##omm
##pha
##rak
##rov
##rys
##tai
BC
Fí
Pá
##amaí
##aria
##bhás
##iomb
##kien
##reen
##róir
112
Acc
Cin
Dro
Seg
Ton
Voy
est
mír
íon
##ainsí
##daite
##eisia
##elong
##other
##ovich
##éinia
1822
Banc
Cher
Dian
Head
Sing
caid
cuan
ever
moil
most
muna
stua
tsíc
##churad
##eagáin
##eantas
##litics
##litriú
##éiniam
Aleks
Braon
Colin
Filip
Ghear
Luath
Léann
Matam
Stand
buach
buíon
gcúis
huath
pianó
púdar
sliog
spéic
##itheora
##landáil
##rannach
##éanaigh
Abhann
Fágann
Gailís
Loings
Manann
People
Talent
bhfine
fluair
gcúrsa
glaoch
glaodh
inscne
lantan
produc
sleamh
tSiria
##ealaíonn
##easmhach
##einiméin
##fheicthe
##idinimic
Arsenal
Glacadh
Hermann
Higgins
Tabhair
Uilliam
bleacht
chapall
cuimhní
eisithe
gcealla
guairne
máistir
Caitlicí
Champion
Colorado
Maryland
Mitchell
comhdhúl
hipitéis
idirlíon
tSairdín
teoirice
trealamh
Fógraíodh
dhearcadh
géarchéim
heolaithe
leasaithe
próitéine
roinntear
sreabháin
tuairiscí
Choimisiún
Literature
gcaithfidh
scéimeanna
Danmhairgis
gcaithfeadh
nGearmánach
neamhrialta
oidhreachta
shíothlaigh
cheanglaíonn
shamhlaítear
tionsclaíoch
seachtainiúil
antashubstaintí
##bad
##fly
##nev
##ólm
XX
éa
##ador
##aitr
##asca
##bard
##lóga
##naid
##ning
##ysen
106
146
Aut
Beo
Bud
BÁC
Ele
Fol
Lly
Sci
Sib
Vas
din
fhi
fre
nat
pac
rob
río
sno
Éil
##ascar
##board
##brook
##faigh
##imhín
##iníní
##onnie
##ouver
##riopt
##óisín
1795
1831
1837
Basc
Bull
Chór
Cook
Emma
Fred
Just
Spás
ailg
dtre
dóch
fíon
hibr
only
##aidiam
##bhaidh
##insint
##laoise
##mhairt
##ologna
##réalta
##saíodh
##éadair
Earra
Ellis
Ríogh
ceall
chuas
foirc
mhúsc
seilg
tacar
tuisc
téamh
world
##eascáin
##ullaigh
Darwin
Ghaoth
Harvey
Julius
Reacht
Second
Ulaidh
aontas
braith
eolach
ghnéas
glúine
hairde
hobair
iontas
spotaí
Éadair
Údarás
##amhránaí
##iniceach
##mhargadh
Coillte
Earrach
Edwards
Gailíse
Mikhail
Statist
Stócólm
Western
admháil
babhtaí
carraig
dréacht
géineas
lastigh
nÓglach
sléacht
éirithe
Albainis
Bhulgáir
Bunaithe
Ceoltóir
Chadwick
Neiptiún
amóiniam
cailciam
chúntóir
meáchain
péintéir
shintéis
Caithfidh
Comhdhála
cothaithe
craoltóir
criostail
eagraíodh
mbriathar
seirbhíse
slánaithe
thiomáint
thábhacht
Thaoiseach
bhfuarthas
gearrscéal
giorrúchán
mhéadaíonn
príosúnach
Briotanacha
Spáinneacha
amhránaithe
bhraitheann
athchóirithe
coimhthíocha
cothrománach
deirfiúracha
toghcheantar
Chaitliceacha
uachtaránacht
heacnamaíochta
miocrorgánaigh
ceolchoirmeacha
léitheoireachta
##34
##BS
##dé
##cad
##gán
##aily
##bell
##feld
##gram
##róis
##ways
136
Aur
Est
Fly
Gon
Gua
Lag
Lod
Pir
cog
mao
pár
que
tál
##acter
##aíoch
##eamar
##ierra
##illop
##matic
##mhair
##oilsc
##orial
##pacha
1641
1828
Cons
Fhir
Gaul
Ghrá
Henn
Mais
Rhod
Rois
Scór
Tian
Tigh
With
atha
cuas
fiún
lamh
máir
rósh
rúnd
teic
thás
éasc
##annamh
##iúnais
##éaladh
##íonach
##íothas
Bruno
Cionn
Essex
Leamh
Liver
Madra
Saird
Seans
Speis
Theat
abair
bháid
contr
dtion
gailf
ghorm
gutha
hAlpa
inniú
lasta
mille
sheal
thonn
uatha
##aoirigh
##eabhair
##phléasc
##rafacha
##réaltaí
##teachta
##úlachta
Amstar
Anglac
Carson
Dáibhí
Fástar
Gallda
Maidhc
Nelson
Rugbaí
Turner
Táidsí
chuici
coille
cánach
fhaide
fáinní
fótais
phíosa
próise
tSínis
éagobh
ócáidí
##onntanas
##ottenham
Aramais
Cluiche
Dálaigh
England
Palaist
ceaptar
eochair
fathach
gcóngar
publish
##tharraing
Arabacha
Jonathan
Mearcair
Tosaíodh
astaíonn
chónaigh
comóradh
dlíodóir
haimsire
ocsaídiú
scamaill
suimiúil
thuaslag
éadroime
##ifeachtach
Biography
Clúdaíonn
Treehouse
bhunaithe
feistithe
heitleáin
méadaíonn
phríomhsh
roinneadh
##raighdeanas
Britannica
Reifirméis
leachtanna
thagraíonn
aithnidiúil
chumhachtaí
frithbheath
hoidhreacht
mbéaloideas
comhdhéanamh
dhaonáireamh
thaispeánann
mainistreacha
réalteolaíoch
comhghuaillithe
##rm
##ér
##ank
##eta
##ful
##gat
##igo
##new
CF
DJ
##adac
##aive
##anie
##arta
##biam
##eirf
##essa
##iúnú
##lice
##quis
##rain
##riog
##serv
##éimí
144
Bou
Cop
Hem
ITV
Mig
Múr
Rou
Wic
bin
dTr
dha
fia
hab
hac
mbe
nod
##adadh
##aibid
##itter
##orton
##oster
##taire
##uaire
Bran
Garr
Léim
Nash
Raoi
Saol
Vanc
cala
diam
eamh
fhos
focl
grea
guta
ionc
land
mbrú
mhír
strá
sárú
##eanais
##eighil
##ionale
##lation
##mhithe
##orpach
##placht
##welder
Airne
Bhios
Gorma
Kenny
Luach
Mharc
Neimh
Neoil
Obama
Pearl
Tales
Techn
Thuig
Troid
bhrea
bhuan
dhubh
dhích
gcabh
glasa
luann
mothú
ngaol
troma
##illeann
##inbhins
##raoithe
##reascóp
##teistim
Afgana
Boston
Connla
German
Grande
Stalin
Swartz
chluas
fhaigh
misean
moltaí
ngléas
ridire
rubair
siolla
táirge
##asamhail
##iotáille
##reatlach
##réiteach
Ailgéir
Chearta
Cruinne
Culture
Donncha
Georges
Iarnród
country
dlúithe
dualgas
foirmlí
gcomhch
gcórais
iachall
iondúil
réamhrá
thógann
tseomra
Anderson
Cuailnge
Slavacha
ardaithe
chailíní
cuspóirí
déileáil
farraigí
fhoirmle
figiúirí
freasúra
tearmann
trialach
Oideachas
anailísiú
bunscoile
coilínigh
freastail
searmanas
thiocfadh
aerárthach
chlúdaíonn
chosúlacht
dheachaigh
dtabharfaí
ionstraimí
##aighnéadacha
ghluaiseann
irisleabhar
Swartzwelder
eacnamaíocha
mainistreach
thrópaiceach
mhaighnéadach
náisiúnachais
thábhachtacha
Poblachtánaigh
coibhneasachta
imtharraingthe
##IC
##LT
##au
##vy
##íb
##bon
##ika
##pos
##vor
##zar
##íom
AP
Gi
Kn
Ll
lí
##dear
##eson
##ilia
##mber
##ness
##rait
##tarn
##velt
127
Age
Cón
Has
Inf
Kla
Ore
Wag
bec
ndá
ngr
##anagh
##bhean
##einid
##gacht
##imble
##iméir
##liant
##nando
##ochlú
##réidh
##sithe
##urtha
##ógach
Abra
Aind
Arna
Dahl
Dire
Fren
Garc
Hann
Kirk
Magn
Maon
Pete
aing
bádh
caoi
cimí
ghru
than
Ágas
##bheart
##chiorc
##illing
##ionath
##oidiac
##ordach
##strong
##tachas
##ásaigh
##íolóta
Aonad
Athle
Bholg
Brady
Carey
Chóir
Cohen
Crios
Cruth
Dráma
Lizzy
Three
class
cúlra
dátaí
gCéad
ghais
linbh
luain
mionn
moite
sobal
stria
síoda
tosnú
uaimh
uaine
uainn
under
would
##aighead
##aisféar
##mhairtí
Chipir
Europe
Fhranc
Ghéill
Mamach
Micros
Pobail
Taking
Thairg
Valley
cheath
chraic
cártaí
folamh
fásann
gcampa
gealaí
geogra
hionad
ilghné
prótón
soláth
stampa
taifid
##choimeád
##daíochta
##reimeadh
##éardaoin
General
Phillip
Rowling
Solzhen
Tolkien
alúmana
churadh
gréasán
meitreo
prótóin
éadaigh
úinéirí
##ailiúchán
##earthacht
Afracach
Caistíle
Chambóid
Jennifer
Magazine
McDonald
Muileann
aidiacht
ceadúnas
dhéantús
fhaireog
nEorpach
oifigiúl
phictiúr
sainiúla
vitimíní
##caireachta
Armstrong
Cosacaigh
Jefferson
Rawlinson
Reisimint
Spéirling
Vancouver
béaloidis
neamhoird
##innseanchas
Archaeolog
Comhphobal
ainsealach
chomórtais
comhfhreag
ghéilleadh
líonmhaire
meastachán
néarchóras
Afganastáin
Fionlannach
Iartharacha
réigiúnacha
athraitheach
feidearálach
frithghníomh
sráidbhailte
cuimhneacháin
ríomhaireacht
##UP
##mm
##uf
##dae
##elf
##imm
##kee
##oom
##oro
##ule
##uli
##úda
By
Ná
##airn
##bhal
##dham
##gard
##hill
##inné
##irse
##leen
##lica
##lota
##léad
##mont
##roth
##ulus
##íotr
220
Bhi
Dob
Fut
Jon
Ltd
Pit
Slo
Sír
aom
gha
hao
ilt
inc
pis
##aigne
##antán
##aster
##chinn
##chtas
##eiriú
##illen
##ionós
##itsyn
##lúine
##otail
##rioch
Bard
Chré
Grey
Guil
Lake
Lost
Menz
Mhíl
Rose
Samp
Work
cnag
feim
lait
mBun
píob
stud
suth
triú
téip
view
##chadas
##liosta
##theoir
Bhord
Breas
Chait
Focal
Gaoth
Human
Libia
Linda
algaí
cisil
corda
deach
deise
faois
fócas
gcoin
hEilv
haill
itear
molta
torth
áille
##aistriú
##igríoch
##áineach
##ánaiste
##ídeacha
Albany
Batman
Darren
Dennis
Ernest
Geogra
Gluais
Mhéabh
Napoli
Roinne
Ronnie
Sharon
ariamh
choirt
diúltú
gCearr
hirisí
orainn
thriúr
##aileacha
##chloiche
##incheapa
##orgánach
Banríon
Chonaic
Earcail
Foclóir
Marilyn
McLaren
Seattle
Thomson
Tuircis
Winston
bolcáin
choíche
chuntas
cuntais
domlais
dtionsc
gcumann
líonraí
smachtú
spairne
thagadh
##chuirtear
Corónach
Patricia
briathra
cúramach
hIaráine
mheáchan
teallúir
Limistéar
Tottenham
breithimh
conarthaí
dearthóir
eisceacht
iasachtaí
ionstraim
seanadóir
Ceiliúrtar
Mhaighdean
bhfilíocht
chreidtear
cruthaíonn
freagracht
ghramadach
hÍoslainne
imbhualadh
thaoiseach
cosúlachtaí
deasghnátha
gciliméadar
##bheartaíochta
Mhuineacháin
ilchríochach
Bráithreachas
léirmheastóir
Mheiriceánaigh
bitheolaíochta
uachtaránachta
príomhchathrach
##45
##IN
##bi
##ny
##ím
Ö
##bat
##iti
##úit
ge
##erta
##form
##icks
##ingo
##olar
##olis
##uamh
##vine
##úire
350
Cip
Cup
Fle
Fur
Hop
Mín
Nac
Uly
bod
cab
dho
dis
med
mha
ráf
úra
##avier
##bhail
##ghais
##onacó
##scála
##shiúl
##tachd
##taice
##zhnev
##ítigh
##úirín
1642
1824
Play
Prág
Temp
aoir
bata
brad
chóc
déch
meil
nóis
over
phas
raic
rilí
ríog
ródh
tigh
##asaigh
##eatóip
##oicind
##scrúdú
##éisiam
Chumh
Duibh
Déise
Mhíle
Roose
cheal
chnoc
chúil
cráit
fhoth
first
fuath
gcead
gháis
miond
nithe
oibrí
portr
sícia
tinte
##acstáin
##eitheal
Aonach
Berlin
Booker
Cúirte
Fiacha
Gríofa
Oilibh
Stiabh
Talamh
deacra
dhaite
dhuill
dhánta
foirfe
fosfar
ghrinn
liathr
mhórán
neacha
neimhe
réimis
sainch
scairt
shíniú
##chumainn
##ghabhála
##lathacha
##ultúrtha
Chéasta
Theatre
Thionsc
aerlíne
bhfoils
century
chosain
cineáil
dócháin
earrach
feicthe
ghrúpaí
griangh
ionramh
peitril
scáthán
suntais
uathúil
##chumhacht
##eastaíonn
##raitheoir
Athletic
Chabháin
Childers
District
Northern
lonnaigh
léaráidí
shoiléir
sleachta
theachta
traenála
Amstardam
Ghréagach
Liverpool
Microsoft
báisteach
chanúintí
chatagóir
cheangail
cosúlacht
fuinneoga
hEilvéise
hoibrithe
saibhreas
trioblóid
##scolaíochta
Breathnach
Matamaitic
cairteacha
chathracha
cheoldráma
choinníonn
geimhreadh
irishtimes
seinnteoir
teangeolaí
uachtaráin
bhfaigheann
chainteoirí
theaghlaigh
Solzhenitsyn
heolaíochtaí
intleachtúil
léarscáileanna
##36
##BO
##cl
##fi
##cal
##dom
##dís
##eak
##gue
##olo
##omo
##rah
##rín
##tír
##yes
CS
DC
Om
Té
Vä
ib
##amen
##andy
##ello
##enos
##itíf
##test
Aib
Chi
Dol
Fia
Had
Jar
Kap
Mob
Sus
day
fon
hir
hon
ndó
sún
tsa
##aimid
##istic
##itíní
##tural
##urong
##íreas
1763
1804
1833
Abor
Bald
Bird
Bona
Cúba
Dúch
Find
Fogh
Hist
Over
Sabh
Shee
Síol
Wool
agur
diop
fliú
gcap
hind
hocs
iond
life
ribí
rámh
some
tall
teir
term
##bhanna
##innimh
##istigh
##riocht
##vision
Court
Files
Garda
Grace
Madog
Marco
Númen
Perry
Relig
Scair
Shane
Tráth
Wicca
astra
bhreá
chomp
fhogh
gCeil
nDaon
ogham
scrío
sport
sáinn
tuama
##arthach
##eannadh
##earacha
##lachais
##loscadh
##uirling
Chaoin
Church
Daonna
Fágadh
Fáinne
Ghraon
Kelten
Mhanch
Office
Rómáns
Stefan
bharra
chroch
europa
fisicí
hábhar
tógann
##aibheath
##ghuaillí
##iarracht
##scannáin
Atlanta
Conrach
Deutsch
Eisíodh
Firefly
Forógra
Rolling
Tianjin
Titeann
achainí
bhraith
domhand
fhoréig
fichidí
ghairid
iarmhír
leathmh
malairt
shamhlú
talaimh
uireasa
##ghearradh
##isteanach
##ordanáidí
Campbell
Caroline
Guinness
Liatháin
Ungáiris
bhanríon
cabhrach
céatadán
diagnóis
droichid
déanacha
ghlactar
ghnéithe
mearcair
mionsamh
nGealach
pearsana
soladach
tagartha
##eanúicléas
Comhlacht
Iodálacha
Otamánach
Shasanach
dháileadh
dhéanfadh
gairmiúla
ginideach
hEochaidh
heaglaisí
nDeireadh
seicteach
tSlóivéin
Ciméaraigh
Scríobhann
comhdhlúth
comhshaoil
inimircigh
leáphointe
nDroichead
phróiseáil
praghsanna
roghnaithe
sliabhraon
sóisearach
Íoslainnis
amaitéarach
coimhthíoch
ghrianghraf
mbeirteanna
páirteagail
teoiriciúil
Championship
Daonlathaigh
bPortaingéil
Chonstáblacht
bhfealsúnacht
cathaoirleach
abhacphláinéad
domhantarraing
##BE
##Ch
##GB
##MI
##ää
##amt
##ián
##rai
##rod
##tch
##uma
##uru
##zio
Dw
Tú
hí
##anus
##asal
##chog
##eaca
##iden
##irce
##isil
##iuch
##lity
##láta
##mata
##néal
##orda
##part
##phró
##rall
##teur
##tton
##úise
Bav
Bil
Esc
Hut
Iml
Iúr
Mhu
Ost
Pur
Rho
Sco
Sky
Teo
Viv
Wes
bhl
die
thá
Íde
##adóra
##arsan
##berry
##náith
##stock
##welyn
##áinní
##éamaí
Cais
Danó
Feic
From
Gill
Heal
Lamb
Laoi
MacD
Réim
Shaw
Stro
Trac
Trib
dtos
fomh
fríd
gcla
héad
oird
shuí
stro
##alainn
##laoigh
##ondúir
Balar
Beann
Chand
Class
Coill
Diego
Edgar
Heath
Helen
Intro
Larry
Meáin
Ríomh
Watha
brúid
cnuas
dhíor
dtogh
eitil
gceap
ghrád
great
guail
hEabh
impir
leamh
milis
méith
srian
Óstán
ísliú
ózóin
##aistéar
##iformes
##traithe
##ánachas
##íteacha
Cheoil
Clarke
Dáithí
Feiste
Ghuine
Hughes
Kansas
Luther
Moladh
Series
Social
Survey
bhfíor
chaite
choisc
cuimse
círéib
gcairt
gránna
idirch
magadh
phéire
tSeoir
theilg
tránna
íogair
##lannbhuí
##ostaithe
Cosgair
Dhearga
Epstein
Fiachra
Glaotar
Insíonn
Menzies
Seoladh
Stiofán
Taighde
busanna
físeáin
hoileán
mBliana
mbeatha
nascann
scannal
Chonaire
Conamara
Conchúir
Giúdacha
Stanford
Tuireann
Valencia
aontacht
bhreosla
chatalóg
díobháil
fhicsean
fulaingt
leathair
muintire
nGlaschú
rialaigh
teampall
veidhlín
Athraíonn
Cheiltigh
Cárthaigh
Déardaoin
Gaelscoil
Ghiúdaigh
Impiriúil
Liteartha
Mhearcair
Roosevelt
Shéarlais
chaibidil
chrómasóm
fhuaimniú
fhuinnimh
méarchlár
nAlbanach
Chonnachta
Iartharach
Mongólaigh
Polainnise
bhFrancach
ceimiceoir
chomhdhúil
haisteoirí
iarrthóirí
leathchéad
luibheanna
ngéibheann
stoirmeacha
taighdeoirí
inscríbhinní
athbhreithniú
heagraíochtaí
healaíontóirí
straitéiseach
mianadóireachta
##OH
##yg
μ
##ART
##ats
##cán
##nav
##usk
##wne
##zie
MP
Oz
Si
Us
nÉ
##amon
##chon
##earó
##iata
##ilde
##imov
##iúró
##ogne
##quer
##ucky
##ustr
Aos
Asc
Bás
Hir
Hus
Khr
McN
Nah
Nis
Now
Ois
Tub
ast
rep
ter
##aicis
##arbas
##chter
##fhiac
##ghafa
##graph
##hávan
##ieval
##ifige
##innir
##inter
##ische
##nucha
##tacal
##talta
##ynedd
##íteap
1595
1790
1796
1813
1821
Aifr
Bass
Burg
Cine
Cruz
Flow
Hull
Kuno
Leop
Moon
Oigh
anto
cais
ceir
down
géag
heis
móid
niúm
tosc
trag
tÉir
when
##cheart
##dlíthe
##iction
##iotail
##neysen
##thainn
##ántach
##árthaí
Astur
Banks
Ceang
Ceith
Clare
Edwin
Hanna
Mhura
Muham
Málta
Phiar
Stein
Sular
Wells
aosta
bpoll
béite
charr
chosa
cróga
gCair
hAirm
hArag
pheir
siorc
stróc
úsaid
##aiteoir
##dhéanta
##enstein
##indberg
##ireland
##nachtaí
##ushchev
##íleacán
Ailbhe
Cheart
Chionn
Dealbh
Dearga
Living
Maifia
Minnes
Museum
Viseag
copair
cógais
fliuch
gialla
iaidín
mhairn
oidhre
oilith
paistí
public
ramhar
sléibh
##faíochta
##nachtana
##úirteach
Cameron
Desmond
Foirmle
Mairéad
Táidsíc
adharca
athainm
bhfeirm
chanadh
chanáil
fionraí
ghleann
hannamh
iarmhar
ngluais
ocsaíde
soilsiú
sreanga
tabhair
##thoiseach
##thuiscint
Children
Cumadóir
Fernando
Kentucky
Teachtaí
alúmanam
breacadh
ceannach
chríocha
cláracha
fosaithe
machaire
meascadh
mianaigh
misneach
normálta
réaltach
sclábhaí
shaoirse
shloinne
sileacan
stoidiac
tochailt
tosaithe
tuigeadh
íochtair
##aispeántas
##eilleagair
Dubhghlas
Fharraige
Léirítear
adhlactha
chailciam
comhaontú
crómasóim
hIndiacha
lainseáil
réaltacht
saineolaí
tagraíonn
thosnaigh
tiocfaidh
Pholainnis
Strindberg
Thurneysen
Wathaurong
creathanna
fheachtais
gcaighdeán
ghéarchéim
iarsmalann
luasghéarú
seanathair
##antóireachta
chailleadar
dTrioblóidí
gcuideachta
independent
astaróideach
ghnáthchaint
taispeántais
dealraitheach
máthairtheanga
mháthairtheanga
taiscéalaíochta
π
##eva
##fri
##gne
##hem
##ief
##ils
##kel
##kes
##lea
##ols
##oly
##sau
##sor
##uña
##íll
CD
OH
Op
SO
##agne
##andr
##atch
##barr
##ermo
##etic
##etta
##grád
##idad
##itar
##khan
##leán
##liot
##onan
##rast
##rish
##ultz
##ásaí
101
Aqu
Már
Nam
Sho
chn
dóú
mbó
ndú
##eiric
##ender
##gaire
##imhin
##ledge
##osoph
##press
##óisir
1812
1827
Andy
Arts
Cont
Cora
Dead
Dmit
Déan
Fuar
More
Pala
Rail
Rick
Thor
Tine
Tuar
bogh
both
buna
cuar
díon
faid
hAnn
haca
hidr
héin
mhis
scua
shil
thap
thro
tram
##chúrsa
##ealbhú
##itéiní
##ources
##outube
##staigh
##tléire
##órtáil
##úchadh
André
Bloom
Ceoil
Chann
Dhonn
Fight
Grean
Jamie
Judge
Space
Story
dhara
facts
flosc
folús
gcill
mhísh
máist
míosa
ultra
veict
Árnaí
##aintlín
##eanaigh
##shuíomh
##uairimí
Cnucha
Croise
Déanta
Electr
Fliodh
Gaulle
Gerald
Leagan
Leinín
Liútar
Maíonn
Nikola
Oregon
Sacair
Sophie
Willie
agóidí
alcóil
bréige
champa
comhfh
lasair
mionch
monarc
núiclí
roinne
véarsa
##banhávan
##ithneach
##leibhéal
##oilsithe
Ceathrú
Farrell
Lorcáin
Lorenzo
Maurice
Roberts
Scamall
Schultz
Siobhán
Tasmáin
amóinia
antoisc
bhandia
bheoite
caorach
chostas
dhíbirt
dtaisce
nathair
riaradh
scóráil
shásamh
tiomána
trasdul
##phoblacht
Ceannais
Hennessy
Llywelyn
Phrionsa
Preispit
Síneacha
Teilifís
achrainn
beochana
deineadh
dheiridh
dteoiric
dtuaslag
giotáraí
iontaisí
rúndiamh
staighre
thástáil
tsamhail
uisciúil
urlabhra
##aignéisiam
Connachta
Domhnaigh
Dílseoirí
MacKillop
Oifigiúil
Sibhialta
airtléire
chomóradh
comhdháil
comparáid
deacracht
ealaíonta
gcaisleán
ghinearál
leachtach
published
tsíocháin
Labhraíonn
Speisialta
chiallaigh
fhisiciúil
inveirteab
saoránaigh
teileafóin
bhfaigheadh
inghluaiste
neamhfhoirm
scéalaíocht
thabharfadh
treibheacha
tánaisteach
Náisiúnaithe
díograiseach
fhuaimnítear
meánaoiseach
mbraighdeanas
chomharsanacht
déantúsaíochta
réamhstairiúil
##TO
##bu
##oa
##ów
##fín
##iot
##lex
##oso
##tró
##uth
##ánú
Né
Ts
bú
mi
pH
ra
##achu
##arck
##eant
##haus
##imis
##mhal
##miam
##oven
##rand
##sius
##trón
##utin
##vert
##áinn
##íola
Ade
Arg
Bai
Cub
Cúl
Fon
Gad
Sex
Vik
XIV
did
gcó
hís
nic
pág
tit
ver
##eilly
##ellow
##fford
##ights
##ileic
##imice
##irime
##naeus
##radar
##róidh
##taein
##uirge
1751
1793
1799
Beau
Binn
Corr
Damh
Dath
Dorn
Gair
Graf
Kill
Magh
Nine
René
Traí
bana
chat
each
gcró
hArm
hEol
neas
róil
scig
sead
tint
wiki
áite
éadó
##aitsil
##chuing
##ealbha
##fhisic
##lamtha
##oldóiv
##onnach
##pheile
##rasach
##éisigh
##éitiam
Apple
Cairn
Cúnta
Eddie
Girls
Jason
María
Mheas
Nolan
Other
Pálás
Salam
Synge
Thart
bPrág
beath
boird
chaip
chéid
dtras
early
gcroí
ghéag
hóige
ladar
mbonn
níotr
sidhe
stíle
éiric
##achtóir
##aimpíní
##eoranta
##onnaigh
##éanacha
Angela
Canada
Center
Clanna
Coruña
Darach
Fómhar
Louise
Mhaígh
Nation
Pailís
Pluinc
Poiblí
Reilly
Sierra
Wander
aerach
bhfeic
chaird
fágann
nimhiú
oideas
srutha
teicst
toghch
tuirse
éilimh
##imhneamh
##tainment
##undation
Brennan
Cogaidh
Eastóin
Meinhof
Sevilla
consain
croílár
dhomhan
dáileog
muineál
naíonán
sheomra
shinsir
snáithe
sínithe
##ainteanna
##airlimint
##eisteanna
Diúcacht
Fheisire
Foireann
Geoffrey
Manannán
Rómhánaí
Thaistil
Wolfgang
abhcóide
athshond
bhunaidh
bríomhar
caoirigh
ciorcaid
cispheil
dhualgas
gearrtha
gharmhac
lámhaigh
mhórthír
micreath
ndéanfaí
ochtóidí
shaoradh
siomtóim
slabhraí
táirgthe
##eicslóvaic
Buaileann
Choinnigh
Fisiceoir
Ghinearál
Gréagacha
Murchadha
Oifigeach
Princeton
athlasadh
chraicinn
community
dromchlaí
dromlaigh
fhéinrial
forlámhas
mBráithre
oibríocht
réigiúnda
teagmhála
treallcho
urlabhraí
urraíocht
##pháirtíocht
Dhroichead
Ríshliocht
bhfuiltear
caighdeáin
ceannaithe
cheoltóirí
coincheapa
comhionann
deimhneach
ghlaoitear
ghrinneall
gnólachtaí
scoilteadh
sholáthair
Vítneamaigh
bailiúcháin
cheisteanna
ghobharnóir
infridhearg
pholaitiúla
bitheolaíoch
ceintiméadar
fionnachtain
seandálaithe
shráidbhaile
Chathaoirleach
phéintéireacht
##ex
·
##bel
##boy
##gio
##hal
##ids
##omy
##ínn
Hä
fa
##acal
##ader
##anca
##ener
##erns
##folk
##isto
##leog
##life
##liop
##maid
##ogue
##tiqu
##tone
##uain
##uary
##ínis
Aud
Gib
Jak
Kem
Kit
Pom
Ric
Sce
che
dao
fán
ghl
sch
tua
Áed
##aibhe
##aolaí
##eagra
##ishop
##odach
##úbtha
1580
1597
1740
Bhrú
Bhán
Chop
Crao
Cúis
Dame
Know
Like
Muin
Phob
Stoc
Trad
Wars
coch
cuil
cócó
fadt
fein
gCum
know
ling
pair
prós
sana
sinn
tArm
uain
Ársa
Óige
##aihiod
##angelo
##eagram
##ichimh
##matach
##nachas
##olgadh
##ologie
##raoise
##áracha
Faith
Grant
Haber
Loire
Nuala
Slóiv
anoir
bPápa
barún
chart
cuarc
della
duáin
fógra
ndeir
shlán
tháin
##bhriste
##duction
##grafach
##itheadh
##rónaigh
Badhbh
Breith
Doctor
Duibhe
Eugene
French
Grammy
Miguel
Search
Staire
bhuama
cnónna
dordgh
dtraid
fuaire
gearán
ghream
mhadra
míolta
reanna
ráflaí
scríbe
shúile
socair
thaisc
Átháin
##imircigh
##omhairle
Chester
Connell
Gabhann
Ghinéiv
Gwynedd
Houston
Kenneth
Mairíne
Raymond
Túinéis
adhradh
ailléil
athaont
bhfórsa
biseach
chandam
charbón
dialann
fearann
fhicsin
galánta
ghreann
giotáir
glaotar
mórthír
neamhsp
nÉirinn
scairde
Éadaoin
Asturias
Cambóide
Cúailnge
Florence
Guardian
Mháirtín
Michelle
Mountain
Paróiste
Scotland
Shamrock
dhéagóir
forleata
homaighn
iontaofa
machairí
machnamh
mheicnic
scriosta
tacsanom
thorthaí
triantán
Baisteadh
Ballstáit
Eolaíocht
Lochlainn
Minnesota
Muslamach
bhreacadh
cruinneog
dhraíocht
dhúnmharú
diúracáin
fhreagair
fisiceoir
guthaithe
híomhánna
mbaictéar
saoránach
teanglann
troideadh
tuaiscirt
Aboriginal
Khrushchev
Queensland
bhfaighidh
chinniúint
fhairsinge
leathnaigh
mianadóirí
substaintí
suíomhanna
Mhurascaill
Saothraíodh
cothromóidí
friotaíocht
teallúiriam
Idirmheánach
Lochlannacha
choibhneasta
críochnaíodh
dúnmharuithe
gcruthaítear
iarmhíreanna
tairngreacht
ghearrscéalta
Chonraitheoirí
díospóireachta
réalteolaíochta
##ME
##RC
##ön
##aki
##fus
##har
##uad
Cn
Ió
NH
Wu
fí
if
##aimf
##anic
##ease
##ghan
##ifil
##igne
##ihan
##léan
##quez
##riam
##rong
750
Ara
Gai
HMS
Imm
Kam
Kav
Kor
Rab
ang
bil
gor
lib
nav
our
put
reo
##alair
##dóirí
##erick
##inyin
##iscon
##raoch
##tters
1660
1707
1789
1802
1808
1834
1843
Aidh
Bohr
DART
Dana
Here
Jump
Kiel
Moss
Rice
Sail
Siúd
Sony
Thin
cist
dint
dána
dúth
harm
mhin
must
prof
shíc
tEas
##ailles
##aimsir
##aiméir
##athail
##eatach
##maíonn
##scrait
##teocht
##toíche
About
Aires
Cháin
Crick
Dhíol
Ealaí
Fuaim
Grian
Janis
Johan
Julie
Mairt
Mhong
Never
Pobal
Seand
Seven
Shlav
Wayne
Wille
Wolfe
chách
claon
cárta
dheal
féith
gabha
ghior
lenar
mhaol
nuach
spont
taise
thoch
thosú
##deachta
##dhíothú
##ictiúir
##omhairc
##tálacha
##únaithe
Aithin
Anders
Browne
Cobain
Inbhir
Lathar
Parker
Veinis
aonach
fiosrú
gaiscí
léasar
maisiú
nduine
neamho
phrint
sceith
theang
triúir
##aiteoirí
##cheimicí
##earbhall
##eilgeoir
##omhaiste
Barrett
Brainse
Briotún
Brother
Celsius
Daghdha
Norfolk
Presley
Thaitin
altanna
bPríomh
beartas
ceamara
ciorcal
dochair
eastáit
einsímí
forógra
gcúigiú
gealach
loighic
mbeidís
mhéadar
scagadh
shaolta
torrach
treibhe
##chogaithe
Alasdair
Brezhnev
Chormaic
Indiaigh
Sacsaine
Sairdíne
Tuathail
aimsithe
carraige
chlasaic
choimhth
dhéanadh
dualgais
fiaclach
gathanna
háitiúil
inchinne
iomadúla
léachtaí
mealladh
muileann
niúmóine
teicnící
uasmhéid
uilleach
Úcráinis
##aitsiléara
##íteaplasma
Ghaelaigh
Vatacáine
aigéanach
bhaictéir
ceimiceán
chabhlach
chomhalta
feithiclí
fhíocháin
fuirseoir
hoscailte
miotalach
ngluaiste
próiseáil
Eolaíochta
Riaracháin
Réabhlóide
Réalteolaí
bhfarraigí
cháithníní
dtoghcháin
eachtracha
gcoigríoch
horgánaigh
scaoiltear
amharclanna
dtabharfadh
gcainteoirí
gníomhaithe
mairnéalach
núicléitídí
ollchruinne
shainmhíniú
sheachtrach
stiúrthóirí
Soláthraíonn
anatamaíocht
comhairleoir
dlúthdhiosca
minicíochtaí
tSeicslóvaic
uathoibríoch
áitritheoirí
gníomhaíochta
huathoibríoch
caighdeánaithe
cheanncheathrú
urchomhaireach
mhatamaiticiúil
##oj
##uz
##100
##amo
##dez
##eig
##erg
##fur
##gae
##geb
##idd
##jar
##sed
##tav
##uda
##uly
##unk
##wen
##yna
##ónú
Di
OS
Zü
##arch
##ardo
##cáil
##ghla
##iter
##lash
##lend
##lúid
##olid
##othú
##pler
##quil
##reon
##roqu
##shaw
##teas
##tern
##trom
##túir
##ving
##áisc
##úine
104
107
502
Amy
Int
Ise
Mes
PhD
Roc
SPD
Siú
Squ
Yuk
bór
har
hat
hoc
##dhonn
##gháis
##imíní
##iséad
##liffe
##shúil
##tober
##ódóir
1700
1810
1826
Airí
Bism
Bras
Bric
Bulg
Cara
Guth
Hong
Hugo
Lead
Leip
Line
Mait
Méan
Rafa
Stra
Stío
Week
bPol
bPró
coig
dabh
faic
fail
fhiú
gáma
hach
póir
scro
sogh
thál
##aminer
##arbais
##chuarc
##eicteo
##eodach
##ltaigh
##reisiú
##réasán
Blake
Bruns
Carlo
Ceart
Chros
Chuan
Daily
Dance
Dhéan
Duinn
Feidh
Fheis
Garbh
Gonne
Hayes
Hutch
Nancy
Nuada
Oklah
Paulo
Pléim
Quinn
Terry
aonrú
arsan
copar
diosp
earcú
géara
luadh
print
seanm
seirf
##araithe
##fhicsin
##ghluais
##iachtaí
##thanach
##theoirí
##íodóirí
Beinid
Crimth
Cumadh
Legend
Léinte
Mendel
Muirch
Nuadha
Rhodes
Seanch
Stauff
Titley
Uimhir
Wiscon
Zimmer
bpéirí
clanna
consan
dhíriú
donais
gcloch
meafar
nIocht
phláta
thoirt
tionól
##antiarna
##iméadair
##lóideach
##rannacha
##réanainn
##ánaíocht
Abraham
Century
Colóime
Crosáid
Dáirine
Liobáin
Princip
Taifead
Vermont
bardais
bhreise
chrioch
clóirín
comhrac
cuartha
deontas
gaiméit
garmhac
hIarmhí
iallach
líneáil
néaróga
pionóis
spréite
teicteo
theocht
thriail
troscán
uilíoch
Ágastas
##bhealaigh
##eanannais
##iompartha
Carraige
Chambers
Chartaig
Heritage
Magellan
Mhuilinn
Pheirsis
Phillips
Ríoghain
Salzburg
Scoláire
Thacaigh
bhruacha
dhíoltas
ealaíona
gcodanna
léaslíne
nglacann
príomhsh
rialtóir
soithigh
staidiam
tSléibhe
teilgean
vótáladh
##aidhmeanna
##mhaireacht
Bharraigh
Bhriotáin
Briotáine
Cathbhadh
Chollaigh
Chónaidhm
Dhiarmada
Louisiana
Sebastian
Thángthas
Wisconsin
athchruth
cleiteach
easaontas
fhuadaigh
gaolmhara
nGaedheal
pléascadh
scríobhaí
tairseach
Cúirteanna
Versailles
criticiúil
gcomhartha
haoiseanna
monarchana
méadaíocht
sheanadóir
Liobrálaigh
Sualainnise
Sualannaigh
aimínaigéad
athghabháil
léiriúcháin
oibríochtaí
Stauffenberg
chriochnaigh
idirghabháil
ndaonáireamh
náisiúnaíoch
príosúnachta
Ghrianchórais
Réalteolaíoch
Shúilleabháin
bruachbhailte
comhthreomhar
féinrialaithe
intleachtóirí
reiligiúnacha
hollscoileanna
comhchainteanna
##AD
##TE
##VF
##cm
##fó
##yk
##eno
##gel
##ghr
##hon
##isi
##tae
##vol
##ára
##íce
Ay
HT
ID
Zú
Éd
##aeim
##agen
##ante
##atan
##cóis
##eiro
##idel
##irit
##ondo
##ouse
##sula
##sáil
##túil
##vers
##ínte
134
450
550
Cec
Civ
Doh
Eol
Ida
See
Sou
Uir
Zar
aip
ceo
grú
hag
oth
pló
pón
Éag
##diach
##evala
##ighin
##léidí
##mainn
##owski
##stell
##theus
##ólach
##údach
1816
Back
Bapt
Bert
Bris
Dall
Dark
Dean
Fing
Hert
Iarr
Isle
Lyon
MacC
Morn
Mung
Móir
Móra
Prof
Teas
Tiar
Tomé
Tusc
Yale
béar
cons
gcan
luch
ngan
ngin
slis
sona
tung
Íomh
##adacsa
##aoithe
##ardáil
##caróit
##chaith
##eilidh
##leoirí
##phéist
##roughs
##tadocs
##tische
##uairte
##uireán
##íosach
##únaigh
Aaron
Bille
Chlár
Colla
Dháil
Lenny
Marge
Price
Rhode
Riste
Rosen
Siond
Stern
aneas
béime
chuan
cinnt
einer
gCamb
gcnoc
hAois
hEala
mairt
peann
pláta
seang
tairg
tuill
urram
##aipeist
##raonach
##ualainn
##íochais
Andrea
Austin
Féiníc
Hussey
Loinge
Molann
Myster
Report
States
Strong
Tibéid
Tulach
Vargas
adharc
called
clúití
fhásta
figiúr
foirme
gciorc
geataí
ghréas
mamach
meatán
ngrian
orlach
páirte
shiúil
shruth
splanc
stiall
théacs
tuilte
ualach
árasán
##amhlacht
##aoineamh
##ródaithe
Alfonso
Belfast
Birkhan
Cearnóg
Chronic
Clasaic
Frances
Geelong
Scéalta
Síneann
acadúla
custaim
dhlíthe
dhíothú
gCríost
gheofar
maothán
seisiún
sléibhe
sorcóir
spleách
tSeicis
éadroma
##choiteann
##dálaíocht
##mhuintire
##éarlagair
Bismarck
Caoimhín
Chlainne
Dhónaill
Droichid
Oklahoma
Shéamuis
Victeoir
chodanna
drochamh
drochíde
ghathach
gnóthach
habhainn
iontráil
shaibhir
staonadh
tSeirbia
timpiste
tséasúir
##aighnéadas
Billboard
Brunswick
Caighdeán
Longfoirt
Oilibhéar
Shaorstát
coimisiún
cumadóirí
deiseanna
dílseacht
gcoláiste
hAragóine
hOllainne
imirceach
luchtanna
mhachaire
mhuintire
phleanáil
Ainmnítear
Dheisceart
Fomhóraigh
chloigeann
chloistear
comhphobal
fhuascailt
foghlaithe
móiminteam
thacaíocht
Cheanannais
bhfairsinge
chabhraíonn
cheannródaí
comhrialtas
daonlathais
díorthaithe
grianghraif
ngeilleagar
scoilteanna
tSualainnis
taispeánadh
##eanúicléasach
Talmhaíochta
críochnaíonn
cócaireachta
ghluaisteáin
leabharlanna
Uachtaránacht
bundúchasacha
hidreacarbóin
iriseoireacht
Phrotastúnaigh
##59
##yc
##úg
##ов
~
##CHO
##ado
##dan
##dem
##dun
##eri
##fho
##fra
##isb
##mhu
##naG
##pez
##ulf
##ved
##zon
IX
Og
em
##idín
##imal
##imíd
##inna
##lton
##mant
##rias
##rift
##sala
##sses
##zech
##éidí
##ítis
Bah
Dra
Fhl
Kra
Lil
Lip
Orá
Ret
Tab
Tok
Uis
Vel
bol
bró
ciú
dra
hAs
slo
##airit
##anama
##ances
##anner
##avski
##imiam
##lóirí
##ordaí
##raítí
##ráití
##tanas
##trúin
##íleam
##únais
1690
1775
1776
1805
1809
Adel
Berg
CELT
Cape
Cele
Chal
Cinc
Clay
Coch
Crow
Disc
Folk
Forg
Hold
Hóim
Luke
Réam
Sile
Thrá
Trek
Walt
bear
bhag
carn
chrá
coip
dámh
déar
galf
para
thal
umar
Éist
##aidrín
##cheann
##eatóin
##iewicz
##orfach
##ránach
##seacht
##undalk
##íonann
Abbey
Balla
Blood
Brigh
Búrca
Córan
Dixon
Duffy
Feith
Fharó
Gross
Hotsp
Krist
Mared
Mario
Montg
Moran
Satur
Scann
Sound
Teang
chaid
champ
ghuta
ihrer
luais
mbunú
shúil
spící
suímh
tuige
Áfach
##ailliam
##ardaigh
##icheall
##imreoir
##istéirí
##mhumhan
##roquois
##shaolta
##stáblaí
##talacha
Bundes
Caolas
Corann
Dothra
Eanair
Econom
Father
Fuller
Glaodh
Google
Junior
Reácht
Ruaidh
Theith
Truman
Valent
blaosc
dhreap
forais
gcnámh
gcúigí
líonta
móramh
piléar
scéala
tapúla
íomháú
##Ghaeilge
##anguages
##aslagtha
##eanannas
##ventures
Chloígh
Comhair
Fomhair
Leacáin
Mumhain
Network
Níltear
October
Parthal
Seoighe
athbhun
bhailte
chliabh
fileata
haigéid
hamhrán
iarradh
oirthir
phléann
product
reitine
siúlóid
##éindlíthe
Bhásaigh
Briseadh
Cearnach
Christie
Fealsamh
Iúgslaiv
Leabhair
Philippe
Téaváine
chapaill
cheirnín
dháiríre
diagacht
dochtúra
déantóir
gCarraig
gconradh
iomráití
mhuineál
torthúil
ábhartha
Ainmnithe
Dhomhnach
Lovecraft
Troideadh
aonaracha
aontaíonn
cabhlaigh
fheiceann
flannbhuí
meabhrach
pictiúirí
poblachta
potaisiam
spéirling
tuirseach
Chathartha
Iompraíonn
Murascaill
Veiniséala
chumannach
chumhachta
dtiocfaidh
fhadhbanna
fithiseáin
gcoimhlint
leictreoid
monarcacht
mínormálta
poblachtaí
thiontaigh
##aighnéadaigh
Chasacstáin
Ghraonlainn
ailtéarnach
dhúchasacha
inmheánaigh
iomlánaithe
leictreoidí
mhúinteoirí
tionscadail
uachtaracha
Introduction
Michelangelo
cheimiceacha
lonnaíochtaí
siamsaíochta
tíreolaíocht
bainistíochta
neamhoifigiúil
theorainneacha
##33
##ER
##IR
##RN
##hy
##mö
##bow
##lev
##orr
##pre
##rás
##tec
##ław
PO
je
##ablo
##aicí
##anti
##eilt
##enix
##iley
##ilít
##impi
##kers
##nett
##táit
##uilf
##usch
##áthú
Clé
Hip
LGÉ
Led
Lom
Ola
Our
Pon
Rós
Sud
Vóv
aor
dub
hap
múr
och
pod
##aváir
##bhinn
##erary
##fhear
##ibald
##ipalu
##loads
##línse
##oslam
##rachd
##reamh
##trabh
1778
1794
1797
1811
APSS
Bank
Bodh
Bána
Cord
Cúil
Dind
Doir
Gond
Gran
MacL
Mons
Móin
Pail
Pont
Prim
Raif
Rain
Väin
also
chal
dhig
dhíl
doch
dáin
fuad
gcom
hart
imdh
limf
pers
phra
siúr
slad
tSúd
túir
áibh
##amtdar
##chtadh
##insean
##leáite
##luaite
##raíoch
##reatha
##tation
##unting
Abhac
Again
Bhoth
Chala
Chiar
Colum
Cécht
Fiodh
Kiely
Leeds
Spáis
Suite
Valar
after
bhund
béile
caola
dreig
dréim
fhilí
fhoch
gcóir
gnéis
mhona
moirf
múnla
phioc
preas
raith
siond
árach
##agascar
##airgead
##chorcra
##ictreon
##itíteas
##ucation
##vidence
##àidheal
Ceanna
Cipire
Cúrsaí
Ghaeil
Naoimh
Orange
Regina
Ridirí
Scoilt
Sinéad
Toledo
ainmní
arbhar
bhuaic
caibid
cartha
chuing
cloíte
dobhar
dromch
ghaisc
idirth
míchum
ndeara
plasma
rothaí
snasta
soithí
treise
##aineacht
##asachtaí
##ascailte
##staintín
##stellung
##éarchéim
##éifeacht
Danmhar
Eachtra
Easpaig
Eimhear
Hubbard
Laitvia
Leopold
McKenna
Miranda
Númenór
Ulysses
Versuch
antraip
bhféile
bhunáit
caomhnú
ciorcad
comhaid
cánacha
dhúnadh
gairdín
gléasta
leagain
léitear
malartú
miotais
réamhsh
shingil
##aimhneach
##aistrithe
##alladolid
##eachtacha
##struchtúr
Aifreann
Aontroim
Cairdeas
Ceantair
Choimeád
Chruinne
Ghleanna
Latharna
Liatroma
Neamhord
Risteárd
Tasmáine
Tuircice
Turcaigh
allatróp
bhfeadán
carranna
coláistí
críochnú
crómasóm
deiscirt
dhéantaí
draoithe
ghabhann
leathana
mhullach
phróisis
tuigtear
##easmhumhan
Aleksandr
Gesamtdar
Rómánsach
Seantrabh
Teampaill
Yorkshire
aonocsaíd
astaítear
buaileann
chónaíonn
dhúbailte
diagachta
faoiseamh
gcuirfidh
hIndiaigh
hOllscoil
iriseoirí
mBrooklyn
malartach
mearbhall
substaint
éagobhsaí
##isceartacha
ambasadóir
bhfoghlaim
ceantracha
cheannairc
finscéalta
gCumannach
mbuachaill
naimhdeach
thiocfaidh
Dúchrónaigh
bhfaightear
bronntanais
fireannaigh
ghearrscéal
hiodrocsaíd
mhóilíneach
Dinnseanchas
Ghrianchóras
Publications
chomhlachtaí
cosmhuintire
fheidhmeanna
héifeachtach
maireachtála
réamhtheacht
scríobhaithe
spontáineach
teicníochtaí
Seacaibíteach
gCríostaíocht
olltáirgeacht
mianadóireacht
teangeolaíocht
##BM
##Ph
##gl
##uv
##bus
##get
##ips
##iro
##liz
##ról
Bi
Fó
##agan
##ards
##eáil
##ihad
##ivid
##liam
##lonn
##tura
##éasa
137
Boc
Cyr
Cán
Def
Dum
Eip
Fal
Hew
Job
Kol
Lap
Oak
Pin
Rap
Shu
Tío
any
liv
mit
sia
Áis
##airic
##ardún
##chabh
##dhomh
##earth
##easár
##fóirí
##ithir
##luach
##namaí
##oirfe
##omery
##overy
##spict
##sóirí
##tiúla
##urnae
##éiste
1691
2020
Circ
Coff
Fhor
Gaol
Gius
Joel
MacN
Nott
Poké
Poll
Raon
Sula
Síle
Zola
barb
bloc
déir
fiar
gcas
gcol
heir
mbua
ndún
phop
thur
tiús
trua
writ
##aipisí
##airiam
##bridge
##dhuine
##eolach
##ghaill
##illian
##loings
##oiligh
##oirbis
##ratais
##shuite
##úsaeim
After
Bayer
Buach
Casey
Faigh
Gaibh
Hills
Monar
Plean
Siria
Susan
Years
brící
bunch
charb
choim
dhúis
eithn
gCúba
hAodh
loisc
ochtó
phail
pholl
seacl
shoch
smuig
tuile
##allaimh
##athairn
##bharúla
##ervices
##ference
Bheann
Chaist
Comhch
Inglot
Mobile
Piaras
Wagner
brabús
deoise
einsím
eoraip
fuíoll
gCúirt
gaotha
gciall
gconaí
litiam
luaith
lámhsc
naoimh
neartú
phósta
soilse
thirim
théadh
toinne
##aiméadar
##eannacha
##earcaigh
Baváire
Hotspur
Leipzig
Meitreo
Mhúsaem
Oileadh
Tagairt
Whitley
caighde
chóstaí
chúinsí
daoradh
drogall
dtugadh
feabhsú
fhanann
fháinne
foirmle
gaeilge
gainimh
haillte
leagtar
leathbh
loinnir
mbreith
sulfair
séasúir
thógtar
Áiseach
##aitheacht
##bhunaíodh
##rionsacht
##thchleasa
Agallamh
Bráithre
Cléirigh
Iarnróid
Maredudd
Nacional
Oibrithe
Speiceas
Ungárach
bialanna
buíochas
básaithe
chearnóg
ciorcail
dearthár
dhomhain
dtaighde
gormacha
innealra
litriúil
mullaigh
ritheadh
seanchas
sféarúil
soiléire
spéiceas
éalaithe
Glaoitear
Henderson
adhlacadh
cheanntar
cumannach
dheighilt
dtraipisí
inbharúla
rómánsúil
shainiúil
tuisceana
uirbeacha
wikipedia
éadomhain
Donnchadha
Ghinearáil
Montgomery
Statistics
Valladolid
athraítear
breathnóir
chreideann
drámaíocht
hEabhraise
inghlactha
inniúlacht
liostaithe
meánscoile
scolaíocht
seandaoine
taidhleoir
Éigipteach
##aistealaíonn
##icneolaíocht
Anglacánach
Ghaeltachta
Seansailéir
bhreitheamh
camógaíocht
chloisteáil
dhearbhaigh
foilseachán
phríomhchar
scothdhearg
shroicheann
staitisticí
Fhionlainnis
baineannaigh
breathnuithe
dheireanacha
eachtrannach
gCríostaithe
ionsaitheach
veirteabrach
Caitliceachas
bhfeidhmeanna
bitheolaíocht
fantaisíochta
mótarbhealach
seanbhunaithe
feirmeoireacht
chaighdeánaithe
críochdheighilt
urchomhaireacha
##wy
{
‐
##hib
##kar
##lús
##rez
##ruz
##uty
##óig
Ci
IN
VE
ff
tv
Úg
##antz
##aora
##dána
##edom
##eppe
##ghnó
##iday
##imos
##ites
##iúra
##main
##mans
##ráca
##súla
##tery
##ógas
122
360
650
Aim
Alo
Bib
Che
Ché
Cic
Dir
Dou
Eld
Gay
Get
Mug
Mum
Org
Pór
Sep
Syl
amú
bpl
fab
foc
nIn
ndu
old
thé
##anáis
##arraí
##artán
##dacha
##eanaí
##ilítí
##imirí
##inéir
##leigh
##léans
##macht
##naidí
##réamh
##stand
##thors
##velop
1588
1756
1784
Aibh
Army
Blan
Brús
Curt
Eóga
Farm
Fede
Gene
Lána
Maas
Mian
Ming
Nais
Pass
Pirk
Shar
Slóv
Spen
Uins
Uisc
arán
bach
back
bhig
cáis
date
dhif
east
fual
féir
gCol
graf
hola
horg
leon
like
ndru
paró
phor
phro
##aisean
##gether
##ghaidh
##imheas
##irimid
##isbéic
##luadar
##onnell
##onnúil
##uanach
##áitear
Aongh
Chief
Chúis
Derry
Díoma
Earth
Freud
Himil
Lanca
Leary
Linux
Macad
Nocht
Point
Reach
Vítne
again
aicmí
being
bpeil
choig
chrap
comhr
could
cúngú
dtuig
eadar
eipic
geata
giolc
music
móire
ruaim
shíor
tSile
usáid
##ainséir
##anachta
##athaigh
##chineál
##inseach
##lington
##phearsa
##reabhán
##thaíodh
##ulation
Aonaid
Bailey
Chrios
Criomh
Dhearg
Genera
Inglis
Ionsaí
Monica
Peters
Pléann
Sheoir
Zürich
achoim
bolcán
cleití
comhri
curadh
dhalta
díonta
feabhs
fógraí
hirise
indibh
nDéise
ndiadh
threor
treabh
##ailleach
##chluiche
##ialaithe
##ionnaigh
##lections
##ological
Ceapann
Críocha
Doherty
Díoladh
Ealaíne
Freeman
Goodman
Granada
Griffin
January
Keilidh
Orléans
Seachas
Service
Trádála
bhfadhb
bhfreag
bhlaosc
bialann
bisiúil
dinimic
dtalamh
easpaig
feadáin
féilire
greanta
hothair
leatrom
mhaisiú
ocsaídí
phionós
tadhall
thrasnú
threibh
tuillte
##dhearcach
Cabhlach
Giuseppe
Kingston
Laistigh
Richmond
Réadlann
Tolamaes
Tuigtear
athraith
bPríosún
beartais
bhFíníní
cheamara
chobhsaí
foghlama
fonnmhar
football
iascairí
mearbhia
mheaisín
nEathach
scornach
shamhail
spásairí
Beinidict
Burroughs
Ceoldráma
Christine
Community
Críostóir
Fhearghas
Iarmhairt
Seapáinis
Stevenson
bhaictéar
bhfeighil
dtimpeall
gcruinniú
siúráilte
teirmeach
ullmhaigh
##thuaslagtha
Adventures
Bheartaigh
Ceithleann
athnuachan
chomhshaol
comharsana
digiteacha
foghlamtha
féitheacha
hollscoile
huibheacha
imoibríonn
ionramháil
roghnaíonn
scrúduithe
tuarascáil
##nagrafaíocht
antaibheath
meastacháin
phrionsabal
scolaíochta
seachtracha
teileascóip
ultrafhuaim
Bithcheimicí
Ghluaiseacht
Sóisialachas
bhfeidhmíonn
contúirteach
leictreonaic
sibhialtacht
Iarthuaiscirt
bProtastúnach
mbundúchasach
phríomhpháirt
dealbhóireacht
hidirnáisiúnta
iriseoireachta
múinteoireacht
farantóireachta
##90
##edy
##fón
##hid
##iap
##iga
##ivi
##lap
##lik
##oul
##ouv
##owa
##yev
##zoa
##áiv
AN
ci
pi
##aina
##araj
##bria
##cais
##deen
##iliú
##iopa
##lect
##losc
##mair
##mhas
##ours
##phol
##shuí
##teár
##uler
##unda
Bey
Dog
Fay
Gem
Grá
Kee
McE
Mho
Neg
Tob
Why
cri
lóg
osn
rem
src
two
##andar
##bhall
##ienne
##light
##lotte
##mhadh
##mpton
##orman
##rífín
##scadh
##tista
##uinse
##water
##óiceo
1780
1823
Bach
Bend
Chir
Cóil
Easp
Féad
Gort
Hess
Leac
List
Mans
Méad
Ríor
Sons
Sorb
Stam
Tair
Tans
Uill
Vall
YouT
bhfé
bród
clos
frio
hIos
lang
mbia
uaig
upon
vótá
##aicéad
##asacha
##asbarr
##chuach
##drámaí
##eabhac
##erbury
##iainíd
##ission
##iteoir
##lected
##otaigh
##roinnt
##réithe
##úscraí
Bhinn
Bobby
Bunús
Corne
Dhoim
Dúill
Karen
Maige
Nixon
Notre
Octav
Poems
Ranga
Roche
Seala
Ville
Woman
Woolf
bhard
bhrat
bhéil
chorr
chúng
dabht
diaga
géire
leabh
mheon
móide
##aidheal
##airdíní
##arscoil
##iochtaí
##iseatóp
##luairíd
##reasúra
##ríodair
##urgnamh
Armáid
Asimov
Bhailt
Bruach
Chairn
Chuala
Coille
Conrad
Enterp
Feasta
Fíachu
Ghlais
Iorras
Maraon
Máille
Palmer
Philib
Pieter
Rannóg
Róisín
Satarn
Sayers
Seamus
Whedon
aistir
analóg
bliant
blúirí
choill
clinic
collaí
diopló
dtábla
fiacha
fíorbh
gharbh
líocha
míntír
oghaim
saille
seónna
stróic
síntiú
taisce
thrian
Óglach
éadach
óráidí
óstáil
##bhuailte
##eastalaí
##iúnachas
##litheoir
##mharaigh
##éiseacha
Ascaill
Bharróg
Bologna
Bratach
Channel
Dearadh
Ioruais
Madison
Mhéabha
Munster
Pokémon
Spencer
arbhair
dornála
fiannas
flúirsí
gabhair
hamharc
hinnill
liostaí
mBostún
mBíobla
magaidh
scarann
síceapa
thaithí
thiontú
tríológ
##aighneann
##aitheanta
##oilíneach
Brothers
Caibidil
Celtique
Fánaithe
Iriseoir
Kavanagh
Machaire
Medieval
Neimhidh
Salvador
Scottish
Seirbhís
Siondróm
Soiscéil
bhrainse
charraig
chlaíomh
comharba
corónach
dreaptha
fheisire
ghnóthaí
healaíne
istoíche
mallacht
mhalartú
nathanna
státaire
tancanna
tsléibhe
##imhneachán
##ismitheoir
##uimhreacha
##óireachtaí
Albanacha
Antartach
Frankfurt
Ghaelacha
Newcastle
Somhairle
Wanderers
aolchloch
aontaíodh
bhealaigh
buachaint
chomhbhrú
chonartha
cleamhnas
comhaltaí
comhábhar
cruthanna
dhlíodóir
dleathach
dtimpiste
duilleoig
feiniméin
fhostaigh
fuilteach
gabháltas
ghiotáraí
laghdaigh
litisféar
radacacha
réalachas
shléibhte
snagcheol
tSeoirsia
thacaíonn
thimpiste
Úsáideadh
Ghiúdachas
Mhalaeisia
Mheitheamh
Phalaistín
Shéalainne
gcoibhneas
gcoincheap
gcomhairle
ginealaigh
imchoimeád
láithreáin
sceitheadh
scrúdaithe
éigeantach
Chumannaigh
Ealaíontóir
Gearmáinice
comhcheilge
criticeoirí
oibriúcháin
praiticiúla
radharcanna
sibhialtach
taispeánann
bhunaitheoir
chosmhuintir
coimhdeachta
soláthraíonn
spásárthaigh
bolscaireacht
choinníollacha
leathsheoltóra
treallchogaithe
##57
##68
##IT
##MA
##ls
α
##bhs
##ghl
##ité
##ned
##pes
##rix
##she
AM
CR
Dj
Io
bí
nm
##asco
##cail
##chat
##eace
##ects
##elan
##hamp
##ibus
##imus
##kala
##laid
##loic
##oisí
##ural
##urch
##ween
##witz
Bia
Ein
GAA
Gam
Glo
Jes
Kno
Let
Lie
Mná
Qin
Rae
Rag
Tem
Urd
Yeh
blá
dro
etc
muc
neo
sre
tod
tri
Éin
Óga
Úna
##ebook
##eldof
##ialaí
##igthe
##iteán
##lated
##luinn
##olcán
##ought
##ource
##raoin
##rátaí
##ádach
##éatas
##órtha
1492
Atha
Buff
Cool
Dest
Done
Edge
Film
Korn
Laud
Peng
Polo
Sach
Shad
Shah
Séas
Tiob
Trip
Uibh
Wild
drag
dísh
foll
laga
line
músc
such
urch
##aithne
##arsoom
##balach
##bhaigh
##chtana
##ealadh
##eallaí
##earman
##inders
##iúrtha
##olcáin
##ollach
##tracht
##ything
##éising
Curry
Cósta
Damer
Democ
Doirí
Dúlra
Eamon
Feirm
Fhéin
Freag
Fórsa
Gerry
Guide
Hotel
Light
López
Meics
Mhóta
Pablo
Revue
Scéim
Seren
There
anála
chriú
clúmh
hInse
plána
sceir
seana
toirm
ámhar
##dhaoine
##eachtar
##schrift
Aighne
Baader
Beatha
Canáil
Chuinn
Chúlóg
Compan
Fanann
Ferrar
Forest
García
Geldof
Hubble
Knight
Lemass
Lingus
Lionel
Luíonn
Nigéir
Peirse
Rafael
Rannán
Soluis
Sunder
Wolver
Xavier
ailgéa
baicle
buirge
cónasc
dorais
fóilió
heolas
húdair
nGaoth
ndúirt
ornáid
tomhal
torthú
##eascairt
##ineálach
Chanáil
Gilbert
Ioruach
Ioslaim
Kripalu
Sheanad
Thalamh
Voyager
YouTube
amhairc
anallód
baolach
bprótón
codladh
crapadh
ghnóthú
inbhéar
mBóthar
mullach
onórach
phatrún
roicéad
rólanna
shliabh
tIoslam
tSúdáin
through
tríothu
##aighdeoir
##churadóir
##ithneacht
Ceanainn
Cheathrú
Coinnigh
Longfort
Mhongóil
bhreithe
bochtáin
chlainne
chúigear
ciníocha
dtorthaí
feabhais
fheicfeá
gcríocha
maraíonn
mhaoiniú
mheascán
ministir
mórshiúl
postanna
rochtana
scannánú
théitear
##aighdiúirí
##chreideamh
##dhealbhach
##ochartaigh
Ceannaire
Charlotte
Chatalóin
Coitianta
Eagraíonn
Scriosadh
ainmneach
bhfíochán
bochtanas
cogaíocht
coinníodh
creideann
dorchadas
eipiciúil
gcaogaidí
hAraibise
iomarcach
iompaithe
mhonarcha
stoidiaca
taobhanna
##ondúireacht
Cairdinéal
Chabhlaigh
chaisleáin
chathartha
chruinnigh
cosúlachta
dofheicthe
fisiceoirí
gCeilteach
iartharach
móilíneach
péisteanna
seiléiniam
sobalchlár
thurasóirí
Mhaighneann
Neoiliteach
baineannach
choimpléasc
chomhfhreag
comhbhrúite
dtríochaidí
inimirceach
iompraíocht
mBriotanach
tráthrialta
Choireallach
athainmníodh
athbheochana
bhfireannach
scéalaíochta
cruthaitheach
hinscríbhinní
thrópaiceacha
Craobhchomórtas
loingseoireacht
##56
##58
##CN
##DF
##iè
##yo
##ôn
##ск
##FTA
##alb
##ava
##chi
##cus
##ela
##elt
##gii
##hav
##iút
##kor
##nig
##trá
##trí
##uca
##òmh
EU
UC
hÓ
jp
wp
##amar
##dhia
##erek
##esta
##ffer
##frey
##ghma
##inae
##iost
##lige
##lock
##ogad
##oine
##phas
##réin
##unny
##vier
##áirí
151
230
240
Aga
Deb
Lúc
MTV
Run
Saí
Sem
Suz
aif
alm
cir
cór
ean
fan
gCó
loc
mBá
met
ref
sal
see
ucc
##actar
##adhra
##agoza
##altas
##amhan
##andal
##eaney
##eline
##enton
##hanna
##icíní
##idhre
##igire
##imhsí
##istin
##ovsky
##rádaí
##teoir
1625
1750
1783
1785
1806
Cobh
Díol
Eigh
Fand
Godd
Iain
July
Kara
Kiss
Moll
Máis
Néar
Pers
Robb
Shol
Slam
Tara
Trin
Wend
blog
bodh
diúc
dtur
dúis
feil
fhoc
fhód
fusa
gCru
hAis
hear
iata
mire
nIar
ponc
reis
rísh
scun
what
##acthas
##bhalla
##chrios
##daíonn
##eachtú
##erdydd
##mheasa
##phland
##smacht
##ughter
##éigean
Advan
Alban
Aspal
Barth
Bhean
Chadh
Creag
Gharr
Iósaf
Mater
Oghma
Phrág
Sorge
Talla
Where
chian
cistí
clárú
coirt
eipid
every
imeag
shórt
sínte
theil
tÉirí
téada
Íomhá
##aisleac
##bhealaí
##chealla
##chumadh
##ealacha
##eapaite
##hampton
##ispheil
##líneach
##ontaobh
##ontúirt
##oration
##tánacha
##ónaíodh
Alison
Ciaróg
Conchu
Davies
Fórsaí
Gheall
Gustav
Julian
Leictr
Luaigh
Mhaoil
Peiriú
Record
Tailte
Trevor
Wimble
acusan
barraí
before
dhoras
faisin
fánach
gairme
hEilbh
híseal
laibhe
laoich
lipéid
namhad
ngaoth
optaic
rannán
roimpi
suaite
túisce
##aitníonn
##eannacht
##imhseach
##shláinte
##thuigthe
##éagartha
##ílseacht
##óideacht
Aisling
Augusta
Baldwin
Caitlín
Chosaiv
Dhearbh
Humbert
Manainn
Morning
Neipeal
Phoenix
Rialach
Síltear
Theodor
Windows
Writing
buamála
cainéal
codlata
cromadh
dhaltaí
dlúthch
ghloine
glanadh
oiriúnú
raidiam
rothair
sreinge
thógadh
tóiriam
voltais
íobairt
##easmhacht
##ification
##litheoirí
##ostaíocht
##ógaíochta
Chaistíl
Choirnis
Chróitis
Cnuasach
Farraige
Fhionáin
Kalevala
Limerick
Oscailte
Portland
Scáthach
Sáirséal
Zaragoza
bprionsa
bpáipéar
bpóilíní
caibidil
faomhadh
fhormhór
fhómhair
finscéal
húrscéal
ionraidh
laisteas
liostáil
meicnice
ospidéil
saighead
tréigthe
tsoicind
##aispeántar
##fhorbartha
Bealarúis
Bonaparte
Cearnaigh
Eoraifíse
Mhéadaigh
Mongólach
Mungairit
Parthalán
Wimbledon
bhfaireog
cearnacha
chumadóir
deachtóra
feirmeoir
fothracha
gcruachás
lastuaidh
máirseáil
osclaíonn
randamach
reibiliún
thionscal
thuirling
Úrscéalaí
Hutchinson
Oilimpeach
Oráisteach
Taiscéalaí
bhFlóndras
cainteanna
chosnaíonn
cóimhiotal
dílseachta
fadsaolach
fairsingiú
feiceálach
fhorbartha
gcogaíocht
greannmhar
leathsféir
spriocanna
tiomnaithe
tírdhreach
Réaltbhuíon
aithnidiúla
bparlaimint
hOllannaigh
shroicheadh
téarmaíocht
Cheatharlach
Fiannaíochta
bhféadfaidís
foilseacháin
meánchiorcal
mídhleathach
Chumannachais
Reifirméisean
bPennsylvania
fhionnachtain
mheánaoiseach
saotharlainne
tharraingíonn
Matamaiticeoir
Mheiriceánacha
matamaiticiúil
##wr
##zt
##на
Č
ا
##200
##anz
##anç
##bol
##can
##des
##dis
##dra
##ede
##ele
##eny
##fax
##idy
##imb
##lee
##ulu
##uti
##uto
##zan
##áíl
##éra
Et
Eu
IC
vo
vs
zú
##aibí
##aigí
##ands
##ches
##cker
##idan
##idiú
##ilov
##inas
##liad
##náth
##oste
##temp
##tico
##umar
##unes
##uron
##ámaí
##ánas
##óise
103
Cod
Dig
Fat
Hag
Mrs
Naz
Psy
Ran
amf
bio
##a
##i
##n
##h
##r
##e
##s
##t
##l
##c
##o
##d
##g
##u
##m
##í
##b
##á
##é
##,
##.
##f
##ó
##ú
##p
##C
##1
##"
##B
##S
##T
##A
##M
##0
##I
##-
##D
##9
##2
##G
##F
##L
##R
##(
##y
##)
##P
##N
##'
##8
##v
##E
##5
##6
##k
##3
##7
##4
##w
##O
##/
##H
##É
##:
##J
##U
##W
##K
##V
##Ó
##z
##’
##Á
##x
##;
##–
##j
##%
##]
##[
##Y
##q
##”
##Ú
##“
##_
##Í
##‘
##Z
##=
##X
##Q
##&
##—
##?
##ö
##ü
##ä
##+
##|
##°
##à
##!
##è
##а
##$
##ñ
##и
##ç
##о
##ł
##*
##ò
##е
##α
##ā
##р
##£
##ο
##×
##>
##н
##ˈ
##ã
##с
##š
##ć
##€
###
##́
##ν
##ō
##л
##â
##ə
##ς
##ô
##ρ
##т
##æ
##в
##č
##к
##<
##ð
##ë
##ù
##ι
##′
##ì
##τ
##•
##λ
##μ
##ː
##ê
##å
##ا
##ū
##π
##ø
##»
##}
##«
##ε
##ß
##σ
##ī
##κ
##ń
##ž
##§
##ě
##Ö
##^
##ē
##д
##у
##ί
##ل
##γ
##ч
##−
##ά
##θ
##я
##ɪ
##ό
##м
##ر
##·
##ï
##η
##ɛ
##г
##ś
##δ
##ي
##~
##ý
##β
##υ
##φ
##ن
##п
##{
##з
##‐
##⁄
##ı
##و
##î
##ω
##б
##ą
##Č
##й
##د
##ы
##ь
##õ
##À
##Š
##ɣ
##م
##ɔ
##С
##ب
##Å
##ę
##¶
##ř
##י
##Î
##ă
##П
##س
##ħ
##ǔ
##ו
##→
##ɑ
##ʃ
##Ł
##ŵ
##Ə
##И
##ц
##ة
##þ
##ʊ
##К
##ɾ
##М
##ŷ
##А
##Г
##х
##\
##Æ
##Ç
##ύ
##і
##ה
##Đ
##Ō
##ɡ
##ר
##`
##ğ
##ʁ
##έ
##ή
##È
##û
##ż
##ǎ
##ʒ
##В
##Р
##ت
##œ
##ź
##ǐ
##ʻ
##Н
##ּ
##ל
##ج
##─
##¡
##đ
##ŋ
##ő
##ş
##Д
##ד
##ف
##Ś
##ŭ
##Ž
