[PAD]
[unused0]
[unused1]
[unused2]
[unused3]
[unused4]
[unused5]
[unused6]
[unused7]
[unused8]
[unused9]
[unused10]
[unused11]
[unused12]
[unused13]
[unused14]
[unused15]
[unused16]
[unused17]
[unused18]
[unused19]
[unused20]
[unused21]
[unused22]
[unused23]
[unused24]
[unused25]
[unused26]
[unused27]
[unused28]
[unused29]
[unused30]
[unused31]
[unused32]
[unused33]
[unused34]
[unused35]
[unused36]
[unused37]
[unused38]
[unused39]
[unused40]
[unused41]
[unused42]
[unused43]
[unused44]
[unused45]
[unused46]
[unused47]
[unused48]
[unused49]
[unused50]
[unused51]
[unused52]
[unused53]
[unused54]
[unused55]
[unused56]
[unused57]
[unused58]
[unused59]
[unused60]
[unused61]
[unused62]
[unused63]
[unused64]
[unused65]
[unused66]
[unused67]
[unused68]
[unused69]
[unused70]
[unused71]
[unused72]
[unused73]
[unused74]
[unused75]
[unused76]
[unused77]
[unused78]
[unused79]
[unused80]
[unused81]
[unused82]
[unused83]
[unused84]
[unused85]
[unused86]
[unused87]
[unused88]
[unused89]
[unused90]
[unused91]
[unused92]
[unused93]
[unused94]
[unused95]
[unused96]
[unused97]
[unused98]
[unused99]
[UNK]
[CLS]
[SEP]
[MASK]
##st
##se
k
.
##al
##li
,
t
##ja
##ri
##on
##mi
##le
##ma
##si
v
p
a
##at
##ni
##ne
##de
e
##oo
s
##as
##us
##me
##te
##ast
ja
##nd
##ud
o
1
##na
##ks
##re
##ra
##la
##ga
on
##is
##id
##uu
##ad
"
##use
##it
##ik
##ng
S
##el
##ut
##ust
m
K
T
##ar
te
##he
se
j
ka
A
P
##ti
##gi
-
l
mi
##da
##es
2
ko
)
(
ku
##õi
##il
##va
##ku
E
19
##ge
aast
##ta
h
M
##in
##ee
##är
L
##est
sa
##lt
##or
##er
ü
ta
V
ni
##mise
##ii
##an
##ak
##oon
ma
R
oli
va
##gu
20
##ro
li
##ist
##ul
vä
al
i
##tu
##ka
või
N
H
n
##lle
##vad
##val
##ol
##di
##ab
##lise
##eri
##ki
##nud
I
##et
la
##sa
B
val
##ur
ra
##lik
##kon
–
##ati
##öö
J
##mb
ning
##sid
##nt
aastal
##ub
et
##uh
##atud
##vi
##sioon
me
##ko
##ha
si
tu
##ää
##ndi
##ke
##hi
kas
ki
mis
##mist
##esti
pe
##jal
##des
##õp
##kt
tä
##aa
##ve
##ise
##ada
:
oma
##õr
##lu
f
##üü
ne
G
##en
suu
C
kui
##ide
201
##ht
##mal
##nn
##ju
as
##bi
##vat
##mine
##os
esi
##ot
##nda
aasta
ei
##nna
ar
le
D
O
##mu
200
##ari
##ale
mõ
##ama
##pi
r
koo
F
Eesti
põ
kes
re
##äi
ri
##äe
##ru
sõ
##mis
selle
##sed
##akse
3
/
kasut
##du
sü
to
##ali
##õu
po
##lja
##je
Ta
##list
##uste
üle
na
##õt
##pe
##sti
##iku
##maa
##lis
18
##liku
U
pa
mille
##pa
lä
kü
##tse
jär
##uuri
##ood
##siooni
ole
##ori
vast
Sa
##line
Te
Ku
mä
see
kuu
##met
##ngu
##ata
koh
##alli
kor
'
##ts
##itse
##amise
##mas
##tsi
töö
##las
poo
##selt
Ü
ke
pro
##ig
##atakse
##aal
##nde
su
muu
##ate
##aste
ve
eri
de
##igi
##ala
kuni
5
4
##res
eh
##ine
199
juu
##hend
##ini
võ
välja
##rit
##konna
##ed
##ter
W
##uses
##used
kir
b
##les
##ch
maa
##mp
kee
lõp
##00
##ril
##iir
##hv
##oni
##isa
ajal
kuid
u
##im
kon
juh
in
mit
##del
##ral
##kti
##tud
##nist
##nik
##hel
##jut
##nime
##jand
d
Ka
sai
os
##nis
##eg
##ug
kõr
##õh
esime
##ärast
##ste
he
##ika
##nas
##oogi
õp
Talli
tema
jä
##idu
##av
##ene
##kus
##elle
##sse
##umi
loo
ol
##ooli
##fi
##kas
##ike
nä
##un
6
tõ
##kse
##teks
Ra
##its
##dus
##rel
tule
st
Ma
See
##iv
kol
##alt
##ksi
kus
##ris
##uti
##adi
põh
##nes
##ida
Al
##gus
##lus
##neb
##gra
##kogu
##ani
Li
and
vii
##ir
##ool
##inud
pal
##pp
Ko
##ngi
##oloogi
##valt
tege
##nu
##tes
suure
15
7
##nne
##ba
il
194
##üh
##atel
vee
17
##tee
##lo
##nts
Tar
nime
8
jõ
kä
seda
osa
##uud
##rist
pi
##ses
##um
inime
pä
##anud
##ber
;
or
##po
##vast
vastu
##eta
##kku
##nti
aga
koos
##avad
La
0
##tel
##usel
arv
##usega
siis
##kor
##oori
##miseks
##dest
olid
mida
kõ
##ie
##aja
ro
##mad
ise
##isi
198
võib
üks
Aast
kesk
ühe
alg
##ksa
##päe
16
##nni
taga
##õige
##ates
Va
9
##iti
täna
suur
##tus
võimal
##misel
193
##liselt
Le
12
nii
##vä
##äiteks
maail
nende
##maal
10
soo
##iste
Roo
Se
##am
asu
197
##idi
##test
##to
##jad
linna
##ooni
tee
##stee
ehk
ti
mär
##mo
##kond
##atsiooni
ela
##uur
##vit
aja
vi
##vate
tal
uu
##adus
##liste
##atsioon
toi
##hu
##no
##sik
sünd
##med
##mber
196
##uroo
##nst
##uba
##või
Ar
##õttu
##kk
Tartu
##ard
##lised
##oodust
nimet
##be
##ns
Pe
##oh
##dega
ter
##akon
192
##jas
saa
195
##mus
Re
##inna
##su
ehit
järgi
##laste
vahe
##kir
##asi
##konda
##asa
Val
di
##lust
##üm
Euroo
##ho
eest
ha
kogu
##lane
Vene
sel
Tallinna
##loo
läbi
pärast
##set
piir
kül
c
##ld
##anu
##rik
##tis
##õukogu
##usest
##iki
saab
##isu
too
##sel
korral
##takse
moodust
jää
11
pea
%
näiteks
ele
##ür
##mat
14
##usele
##uda
hak
vähe
ette
##vahe
ena
##jate
##ole
linn
191
##nge
##side
rahv
##eeri
aastast
##inu
ees
Selle
##uk
erine
##aani
kat
kahe
##ina
teise
##ndus
##likult
võit
##jandi
mitme
Pa
##lased
lii
uuri
13
põhi
ä
##gas
mu
Ne
aval
##useks
sõja
##dele
##stus
##ilje
palju
Mar
##meeri
Eest
ee
keeles
##por
are
##hti
vaid
##lub
puh
riigi
##tas
fil
##ugust
##emi
Ro
##pu
õi
##ääne
##ia
par
##uta
seal
Me
all
kohta
rah
hul
Pra
##pte
##vas
##iljem
järg
g
pik
ab
##rid
nad
##muti
II
##ndu
mitte
küla
##nga
elu
##sal
keel
sur
##dal
##õl
##mbril
##itu
olu
Tema
##seks
vahel
##nast
pra
##sit
##tele
##konnas
##last
Ja
##maks
##riku
Kui
aastatel
##ega
liik
eel
Tallinn
##der
##oor
##nal
##mast
Euroopa
võr
##ss
kal
##ron
õ
mil
ho
kuulu
kokku
nagu
##ime
tek
suh
He
poolt
pere
##kra
no
võt
lähe
##vus
##üüd
kaks
##ck
olnud
##ver
Eestis
olla
hal
aut
##oli
##mä
##000
Esi
Sel
kin
##sta
##seid
##mbes
poole
##esk
pii
meet
ase
veel
##iselt
pee
##oone
##niku
Rii
km
##likooli
##usi
eesti
##utse
##ree
pool
abi
##mär
väga
##usta
##for
kind
maailma
##udu
##ner
pü
##mmi
lood
asub
##ita
##sis
##ce
##roo
ainu
##tte
elekt
##istri
määr
ge
##sest
tead
poli
##mme
kirjut
##graa
##jandus
Joh
Aastal
##õuna
kõige
umbes
ots
##ltuuri
##juh
##vis
##rem
##od
##hte
kuju
##oloogia
Ki
sajandi
Kar
raama
##ule
##otsi
##võt
ap
##tega
##ria
Si
vab
kelle
kaitse
##das
##ost
##lli
tra
Saks
hiljem
Pärast
##ele
##vaid
kõik
rahvus
##uri
kuning
##pro
##per
##tt
mo
Vab
##võist
##gist
Põh
kuna
##ustas
##and
##sete
##etas
juba
tagasi
pre
##una
tü
##jär
##lil
teg
kasutatakse
lah
##jel
##che
##ooks
##asse
##eva
Z
##sk
##väe
##amiseks
Vä
Ri
Tä
koha
##sika
##lut
jaanu
Saksama
##iko
orga
sest
maakon
##malt
##his
##ktoo
##dab
Soo
käi
kar
##sus
##eritud
hä
Prants
end
tõttu
##SA
##steemi
aastat
toim
##ktiiv
kohal
lk
##olu
amet
##fe
##ili
##võ
vald
##bru
##mee
##ntud
mõi
##minist
##oolis
sündinud
septe
##ade
##iiv
kõrge
##päeva
Esime
##hist
hi
Rootsi
##meet
ainult
##jä
ing
laul
St
##eti
põhj
neid
##dit
##og
alla
##ran
##kirja
asut
##ev
##pt
##mes
päe
of
pole
##nevad
august
jät
Mõ
_
##koh
##oot
detse
Ameeri
Vi
##alis
##mm
oktoo
##matu
väl
Mi
##isko
lai
##op
##uks
var
##itud
##lisi
##ük
von
alates
##hke
##aril
##rite
##kü
keele
sajand
##gust
raja
##muse
us
##ntsi
##mata
w
taval
Lääne
##par
april
kii
toimu
for
##pool
25
Lii
mere
nove
##ov
sead
30
##unud
##tro
##son
iga
##gne
ala
Ha
veebru
##ps
kinni
##kul
need
The
Õ
esimene
võimalik
##misega
korda
##ndas
##riigi
Na
##lase
tähend
##egu
##mõ
Liidu
Põhja
##nnu
##alise
valits
juuni
do
valla
andme
##asta
##ndis
teh
##ngus
lu
##jon
##osoo
üles
koost
nõ
Nõukogu
ümber
lisa
Vil
tar
##oks
samuti
##luse
met
##sil
##graafi
##mar
puud
##adatud
##inn
##SV
vär
valitse
USA
##vere
lo
X
Suur
##nsti
kirja
##deks
##vuse
##lit
##elt
kog
har
De
##nenud
##pis
Kon
Jär
pid
sise
näit
liige
mõne
kõrg
##tab
vasta
Har
ajaloo
##ob
paa
tuli
Ch
uue
Saksa
##mik
kau
##ikide
##are
Pi
##oog
tun
##men
Po
##ond
##vale
In
##õja
tur
Johan
##osa
##ci
sar
##ou
hu
jooks
is
jal
sage
täht
ühend
puhul
##lat
enne
##likud
2010
jõud
viima
ras
000
##laar
2017
##nike
jäi
kultuuri
tuge
maailmas
peamise
##kord
##ssi
2011
##must
##ruu
Ge
rohke
##mbri
##unkt
klas
Ale
Nor
##öör
##tle
##ca
õh
sisal
sil
##järel
190
põhja
päri
##ski
##atri
järel
##dasi
##teeri
Ju
luu
seisu
##päeval
NSV
ob
väik
##rand
##pal
Ameerika
Y
an
mõis
##om
##rat
Pär
eesmär
21
##raal
kolme
##jää
2013
leid
##alia
Par
abiel
kiriku
töötas
hoo
vali
Ber
##pil
eks
##sion
hü
##vust
teiste
osal
märtsi
Aust
oktoob
lõpetas
##etaja
##jekti
seot
Venemaa
##hk
##rich
asus
##like
##jõ
Ba
rohkem
##atu
eral
kasva
##ser
Pal
sellest
##ment
juhti
Prantsus
enam
sama
saav
##iga
##etud
##sele
Kü
Lä
##ande
Ülikooli
##maid
##ngis
vana
muutu
##lasi
üld
kolm
võivad
saanud
surma
Vii
##vest
2009
##eld
vaadatud
24
raamatu
Ni
liiku
ide
seotud
22
##rts
säi
pla
kasuta
##ret
##oodi
##atus
ära
2007
sisse
##vik
inglise
isa
##mendi
Nõukogude
##likku
##akt
##chi
Rooma
teda
##bu
vallas
##pä
juures
protse
##oola
bi
##siku
2014
##bur
##ile
##mid
##sia
2006
pan
##let
##valits
Ita
##hul
suuri
Kesk
##ktori
##gis
täie
##hed
ul
2015
Lisa
väike
##ras
##vin
2012
jooksul
kra
raud
komp
##seeri
##tide
teo
Ke
##stit
2008
##taja
sõlt
##co
peamiselt
vane
ga
ju
##ation
##ble
juur
valmist
esimese
jaoks
##gia
Maa
endi
##nia
müü
##mete
##ppe
edasi
rü
##vo
23
pärit
paik
sajandil
##mees
##sü
kut
Ing
tuu
lü
##suse
##male
pil
##rü
Kal
Pro
sõna
vara
sugu
##ataja
##ktuuri
##misest
hää
2016
To
##man
##red
##eru
võitis
##mel
##vu
##mini
##eed
saavut
lahi
##ndid
##ardi
##gal
liht
Lu
tüü
väär
ema
##uro
peale
tõl
tuleb
organis
kuulus
##vii
kirjel
##ajal
kooli
kiire
inimest
kunst
##vali
kaasa
tavaliselt
=
##art
26
Wil
Lisaks
anti
htt
puu
##rita
kohtu
tegutse
##kes
##roon
##alist
##mate
oo
##desse
põl
##kaitse
##mne
Š
vene
##osas
Pre
Su
##muu
##isse
kujut
##kade
tänav
Saa
28
##guse
osale
##olla
kuninga
?
Aastatel
189
##ümpi
pol
##eni
andis
##utus
mees
##jale
##git
Ühend
And
Soome
aega
piisko
##vaks
##maat
##sust
##pet
era
mõisa
hakkas
ruu
pu
Mari
peab
##ry
##peri
##mula
##atiiv
##mises
sotsi
##vel
Vabari
##hite
##kva
preside
võimu
peal
mängi
##joni
loodus
teist
##miste
nimetatakse
##ning
lennu
jalg
Rahv
kaas
teine
tegi
Co
so
Täna
2005
hari
##mised
##ald
##leja
27
välis
##istrivõist
2018
##eli
##reeri
##misele
##stu
##nim
##anne
Kir
rake
pri
koosse
nelja
##uudi
##vee
haldus
##dina
##htu
saksa
##mmu
rahva
##hulgas
rahvusvahe
territ
ker
Lõuna
kontro
]
oleks
##pla
##osoofi
kuulub
##mper
##aania
2000
Saksamaa
##nduse
##pse
pak
pare
##teri
Tallinnas
mõju
kaudu
##este
Üle
[
Sch
##lid
eriti
millest
ö
kiir
Ve
üht
##asti
säili
the
ühis
##hit
2004
ww
teadus
www
kaot
##liini
herts
Liivi
##ooriumi
olemas
kasutada
##üüsi
kodu
roo
188
##lises
##jaks
teada
##ato
##ormi
toot
juurde
tähe
##ag
##kuse
##sma
##riti
##ised
##reid
tunn
##uure
##rooni
##isp
##lest
siiski
##seis
formula
tekk
ühi
tööta
abil
##igis
##itsi
enda
##aalse
##terjal
tuntud
suri
##meti
##tuse
29
pöör
käigus
##ndada
##zi
kogud
##abi
Alates
##gede
Mä
##ami
##likoolis
aastani
toimus
saad
##ugu
Samuti
##tei
##ldi
neist
heli
##emia
##var
lub
##rad
kõi
##meid
##mperat
jõe
##esse
##tik
##ose
##ustatud
majandus
##ord
lääne
##datud
##poli
maakonnas
##väär
##stru
Ho
##kest
##one
##dia
##ant
##rika
##oomi
taas
##ude
van
##kee
##pära
##ndatud
Or
100
##asid
Kes
##ende
1990
##ff
##puu
tüt
##all
riik
kil
##unkti
##ted
talle
##ograafi
##deti
##jud
viis
Muu
õppis
##ooria
##oos
teha
##masti
pää
kirik
##usse
##misi
##tiiv
Mos
hea
Kol
##ota
iseloo
##vide
vaja
##mbris
Han
juunil
##atori
##nõukogu
võttis
##ustega
mõjut
pind
Fri
So
Lee
##ten
väikse
lõ
##iina
##isri
raudtee
läks
##alu
liit
Kas
paav
vaba
anna
klub
ast
Karl
saada
##ll
##ikud
Ida
##aduse
##liseks
Mon
##nä
##raama
##up
Fran
##kuju
##mann
##ell
edu
aine
##kat
Lo
##amisel
valiti
kaug
##land
osales
##qu
võist
Seda
liig
##jus
ega
##vil
keh
##ib
rää
poeg
sündis
nõu
lõuna
uus
##oleku
##keel
##stis
Jaa
sellele
arvat
alguses
50
asja
Car
##imu
##menti
##af
ver
31
anal
poliit
Bra
jaanuaril
##bert
teat
186
##kla
Saare
Pärnu
Näiteks
kand
muusika
Mo
2002
kunsti
##pani
##gul
märtsil
septembril
ener
kul
para
Rahvus
lõi
Hel
filmi
mon
seas
kihel
kuningas
klassi
##pingu
##omeet
samas
Be
elanik
kõrval
Bal
Her
##mma
187
New
##NA
##Kr
hulka
mängu
ilma
2003
rel
valitsus
##fes
sõltu
päeva
##kust
##ndaja
Kuna
Ühendri
##joon
süsteemi
detsembril
hakka
milles
##samb
noor
&
##duse
Prantsusmaa
##vol
sarna
sal
Rah
ordu
##lustel
õigus
##orga
paig
lev
##gna
õppe
kest
##aeg
##htud
augustil
otse
juulil
##go
seejärel
mar
aeg
##ms
jääb
õpetaja
##umis
##ngud
tul
Ca
kla
inimese
sageli
mail
##sõ
Poola
##riks
##äära
##usu
2019
2001
proble
haig
ring
kontse
av
muusik
Di
##ngim
##sen
oktoobril
##fo
kuul
Jõ
perekonna
tele
http
möö
##kro
III
käsit
##üks
võrd
taime
õnne
Nar
##ressi
Sama
##ler
aprillil
küsi
##naasi
vära
novembril
veebruaril
ilmus
nimi
juht
Võr
valge
inimeste
##kooli
Tu
mul
##ze
elas
noo
##atuse
inter
avast
üksi
sõl
ilmu
##ren
sõjaväe
##th
##pordi
jõu
ps
##maja
tähendab
tähist
##ustus
varem
##kur
poliiti
##ake
“
##mäe
kontrolli
Pü
sealhulgas
Põ
##grammi
El
külas
##ima
tekit
küll
Vana
valmis
aastate
##taal
mõiste
filosoofi
olema
##pti
Pee
rahu
muud
Er
keisri
kri
ettevõt
ad
lei
##kut
maha
##elda
##rus
Je
##gune
##atav
mõle
##ritanni
alustas
Tõ
valda
40
##fil
##poo
1940
##age
ava
tas
Taani
maini
auto
Geor
kõne
elektri
An
##sist
kuigi
Vabariigi
peri
Euroop
##ktor
##aalne
##sioonide
mõõ
arhite
Peter
rüh
Inglis
##janduse
##tust
Linna
Paul
Tš
isik
##ikku
cm
##hol
##korda
ää
##võte
##kaal
saat
lae
koht
##useid
pidi
##port
toimunud
nr
alles
##jest
##maale
said
eba
peetakse
##ümnaasi
##üri
Hisp
sta
##rele
##ander
As
1992
Teise
saar
isegi
##jast
pat
selles
##eb
provin
pari
mitu
kah
tegele
##enä
Ad
Kõ
##pid
##ua
aad
hoone
##ngute
##nev
##töö
õig
Hi
##eris
Pari
hõ
kohaselt
##saare
lähedal
##alle
##teid
##mused
##sin
eKr
##reeka
##ige
põhjust
lõpeta
##likke
toimub
Bo
##riga
nu
##ngut
suhtes
laulu
ede
kerge
aktiiv
vil
##steem
popu
##tin
##kis
talu
##har
võeti
ehitati
##aline
Ab
kur
##mand
raske
enamasti
##ustele
Inst
##uli
##petsi
Itaalia
funkt
##II
##amä
hõl
Pä
##tatud
1999
Nii
toime
##iri
##ela
On
##made
##ndab
##hoone
jalgpal
piiri
##berg
’
id
isiku
##kist
mõist
rä
koosneb
pindala
##kivi
laste
##kal
##pee
##mina
##konnast
##tor
lis
alal
Nende
liikme
maailmame
##volut
##den
Kuigi
tüüpi
koda
ülikooli
##lisel
##50
##elli
##jekt
Kuu
miljon
##linn
No
õige
keemi
##avi
põhjal
##dada
##nid
+
##britanni
Too
##ring
Suurbritanni
tor
##hes
##ndati
suurem
stru
Need
##iili
Mat
iseseis
kli
##vald
##amine
tegu
##so
##adio
taast
kasutati
meetri
1944
krist
esimest
##ute
##inas
Ti
ilm
##oto
##davad
##hut
Fried
Sta
##ph
##ase
suurt
lisaks
välje
kuts
##bo
esine
Hein
##fess
##panu
vür
##maati
madal
August
millega
kuuluvad
Töö
Sõ
##vist
ida
samal
Vee
tänapäeva
Met
territooriumi
kivi
##uni
trans
vähem
##ite
võime
Hen
metsa
##leeri
##ikas
vaat
##välja
sellega
ravi
tol
##vara
##dis
1991
kõigi
võim
##üsteemi
hulgas
##rak
Sal
1998
##juu
Por
juhul
Aaf
vajal
##rest
hertsog
tut
psüh
olevat
seni
Viljandi
##ümpiamä
##ustati
Suure
lää
peaa
184
1996
teki
##mon
Sak
Ste
pur
##riik
vesi
##do
neli
##jana
##lles
##veri
##oosi
toeta
materjal
##cha
mur
muut
vallut
##võr
eelk
tänava
Oma
##hni
##pit
##arja
sümb
##ustes
pikk
lang
##ndia
laie
##ndite
Pri
el
##likus
üldi
tõe
##mokra
populaar
las
##ppi
##koha
##ikese
##oonia
##ditsiooni
San
kätte
Eri
Kõr
Austria
Ant
prants
nimetati
##eeriumi
##lar
##jaama
keha
lõpus
järv
##hal
koostöö
##lused
##tm
1997
1993
Bar
Riia
##mer
##amata
neil
järve
mine
##jul
##luma
##ster
süga
##mani
##iser
Instit
Kuid
Is
##akonna
jaanuari
##mitee
##kesk
ülem
Gu
Riik
##itis
##dust
kuidas
##vab
maja
puna
##odi
##usa
mm
##dati
sotsiaal
##kide
Friedrich
omavalits
vaimu
##nese
##ulu
puudu
##gid
Nad
##ikides
määra
Il
1995
tegev
##nk
##burgi
täis
temperat
piirkonnas
seo
##olo
kasutusele
selleks
vastavalt
1980
##20
##nevalt
nüüd
##net
1920
Sü
1994
Unga
##fa
alguse
liide
tänapäeval
##kel
gra
tund
##em
##musi
hõi
aset
Viru
Hiljem
hakati
koosseisu
fina
Ed
Ena
Sil
##pin
##lisest
tunnist
181
##ure
##stan
toet
inim
spetsi
meetrit
##oolu
##enti
suurim
1945
Tartus
##lal
jõudis
”
##nesid
otsi
Ele
raha
teised
##ksu
„
##orm
##pea
Mad
##ger
1950
##kiri
##kan
##risti
piira
1960
##arv
peaaegu
vähemalt
##rina
##ister
mäng
##onis
rüü
##dala
erist
magne
##ona
Riigi
abika
##jat
##lite
mitmeid
##ondi
ait
lõu
##lan
eksi
annab
punkti
miljonit
##udi
1970
Kõige
must
Tra
esma
imp
arvu
kuulut
päritolu
seis
laeva
##pää
lange
Alb
##jaid
Krist
##ndamise
kirjutas
just
reisi
1918
püsi
##iss
##miselt
mõned
Võ
mängis
lahku
##likuks
ain
lõpuks
luge
loodud
esineb
millel
##ress
juuli
tõenä
##eh
##hha
##adid
asuvad
regist
##tri
hävit
##äit
##ikult
##raa
antud
##aka
180
##her
mü
##nimi
Raa
##gen
joon
tehtud
Narva
Os
min
maailmasõja
##nguid
##min
##linna
Jo
##ndina
koor
Mit
Läti
Vol
Da
öö
##ikat
tii
##keskus
##konn
alusel
1941
Ter
sobi
piirkonna
##ümpiamängu
1939
seisuga
eb
eesmärgi
ligi
rajati
õpi
haa
dü
kalmist
##muste
vari
seega
tähele
##olf
suhte
Püha
##nad
##pii
rist
##ue
Est
##hta
teatud
Saksamaal
Tal
##ator
maan
kos
##tada
##rah
nt
Rahva
Et
##gru
Riig
Tee
meele
Q
kunagi
sünni
Uni
Lond
Ukra
artik
Akade
poolest
##lad
##ndiks
Kul
hilise
maal
##ndamine
##rast
sõda
##koo
Jaan
vang
jäl
##ustest
piiskop
##esi
provintsi
pikkus
kasvat
##ümne
Fil
Ga
##peal
##utas
##za
Põl
##siini
##pärast
mitmes
Do
Mõne
##utud
auh
Euroopas
##ndri
tihti
##põ
kate
1919
##mistel
1989
söö
Uus
##idest
asutati
##kül
##ette
Ser
püü
tegevus
asemel
##kä
##ktsiooni
Nõ
##ulge
##ett
##pes
##mala
185
!
##ves
enn
183
##ossi
tuntu
##nikud
##ino
meistrivõist
##utatud
ist
sä
Var
füü
moodustati
##liko
oku
##uru
##jaam
##minister
Ülikoolis
##ksid
tingim
lüh
##rei
Esimene
##ndamiseks
60
Johann
##tead
Hispaania
autori
alam
Loo
rõh
##amist
Balti
tööd
##detud
##piir
ameti
loodi
alga
lapse
hinna
Samal
##utasid
Moskva
juhataja
Kor
sün
teeni
##ly
keelt
nõud
##wa
##fik
ser
##assi
Con
##jäänud
##pan
jaga
Holla
##reet
ajakirja
valmi
regu
##küla
vas
##ndeid
arengu
##idus
praegu
##uut
huk
Norra
varase
abikaasa
Bi
##ikus
Üks
##seumi
põge
tütar
säilinud
Viima
levinud
##ades
##ip
mets
##ootori
värvi
võrrel
sub
##landi
Enne
Kat
üli
##viku
Ver
kuld
osas
##hing
##astiku
##gem
##ind
mõõt
nõukogu
##pane
käitu
alb
seet
##imi
##kki
esimees
väed
seetõttu
parla
##bergi
tõu
##tur
##raali
lihts
hästi
inimesed
##eldud
##plo
##tavad
Prantsuse
huvi
soovit
mate
juhtu
liiga
##miku
nor
ajale
ehitatud
##juures
au
gru
##cti
IV
sada
eraldi
Puna
külast
kuhu
##seum
ladina
##alal
Per
armee
Pariisi
##ort
plane
Bel
##aine
kasutusel
##medali
suud
ohv
arvest
tagajär
mist
##aasta
kvali
Gra
teost
##aasi
##mide
tehn
Lin
kindla
uuesti
##kar
oluline
##kri
Itaali
püüd
1930
##hn
mistõttu
per
Seal
ääres
##utakse
##sioonid
##oe
ed
##old
Tor
kasutatud
alati
##jala
##seme
kool
Seejärel
linnas
armast
president
lahe
loomi
sõlmi
##ft
Man
Ot
##gast
Pet
doku
täi
eta
##ääri
tsi
tuh
õppi
järjest
##just
##ilt
##astik
##kste
aastaks
##atsioonide
##cki
##utu
##tati
kilomeet
ulat
##ndavad
##asut
##fitse
Ungari
Liivimaa
##bus
Johannes
jne
Inter
koguduse
Tule
projekti
##tusi
Või
Siis
jõgi
ümbri
35
##ct
Kaitse
profess
ümb
efe
lahend
Yor
Võru
sinna
korra
toidu
toimi
täp
Char
õhu
##sena
##uselt
Tänapäeval
##leta
midagi
##kst
algas
kaotas
silma
mai
rat
hoi
sisaldab
peat
selt
##vane
teisi
##rd
arvut
keda
kroon
Mu
š
Hal
Rak
vaim
80
avati
##rüh
##format
protsess
Ru
keeru
##osf
##iini
##protse
nimetatud
##volutsiooni
##pik
määrati
##kke
Preisi
##ruse
Harju
side
##kte
##gud
lepingu
##mite
ümbritse
Suurbritannia
kloo
maks
kohale
last
Juh
jagu
##ivi
suunas
tekki
##sioone
saks
krahv
##juht
##sead
##mba
##ilia
polnud
keiser
##isti
reakt
At
##neri
raamatukogu
kg
üheks
John
moodustavad
##elu
##gika
takist
paljud
##lai
ven
kindlust
##ör
##piisko
Gre
kauba
##sna
##ürgi
Sto
##viisi
muutus
##ako
seadus
õpet
pide
süü
Leedu
algul
näid
objekti
vo
##pida
astus
##kud
##maani
##gel
##kordselt
##oondi
1988
inte
182
##luses
avalik
avaldas
##neda
suurema
probleemi
süda
eemal
suve
Wilhel
Ala
##manda
##pol
##luste
ühte
tähtsa
32
endine
praeg
##deni
piisa
ruumi
naise
##üle
Kana
Ol
piirkonda
##bis
tulem
neile
179
allik
##utses
##ven
##mere
loe
Ühendriikide
tasa
Aleks
äär
def
##ora
##ots
##oti
##pre
##pide
nõr
tähelepanu
eesmärk
mikro
##ndust
Briti
##orf
abiellus
##ustav
paavsti
omad
##pri
Kur
##pere
##uma
suun
tera
keskus
##formi
Küla
suhe
##umist
kö
erinevat
endale
sõjavä
##liik
Kee
lee
meie
võimaldab
sat
Aasi
täielikult
stand
tehni
##tra
##kol
ori
##ener
viie
##ndit
##nus
kehti
sisu
tunne
##ogi
Euro
struktuuri
nn
pinna
##kohta
jt
võtta
Aleksander
##leb
koosseis
olles
pidas
eelkõige
1938
tipp
der
Hiina
##utati
iseloomu
usu
paavst
tulemuse
##pia
Fer
°
instit
lenn
Kä
Riigiko
käsi
prantsuse
erinevate
##tav
teooria
proo
viimane
##igid
Len
jaot
kolle
##ritud
##10
##we
rahval
tegutses
Gi
jumal
##oma
##eriti
omakorda
##etakse
jalgpallik
##päev
kiri
kuber
##õpetaja
korralda
ansamb
keskkonna
##ton
Liit
arvuti
riikide
dire
Seltsi
##meel
inf
jut
vormi
lõunas
##lubi
##idid
##palli
peeti
löö
##jääri
##ys
massi
##dro
andmetel
##tule
mude
##ngel
hõbe
Hu
uni
##võime
kasutab
kiiresti
jala
##kuu
##ši
##onia
oper
meistri
põlluma
##akaal
külanõukogu
##õda
okup
peavad
tekkis
kommu
tugev
##meri
Bre
teel
anda
Väike
traditsiooni
Bur
bak
##lin
kan
hõlma
##hingu
kuus
kust
kom
ajast
tegemist
##gor
##õig
Hor
lap
##idide
signa
kindral
leitud
Must
pike
temperatuuri
moleku
##alda
liidu
##ente
Aafrika
Keskk
##era
laine
näi
võis
jäänud
##mit
Aasta
Heinrich
##ustada
saare
leidub
veebruari
##riigis
poliitik
##mõt
fa
bä
##utab
Inglismaa
Niko
Posti
jaanuar
reeg
##utada
kuuluv
Esimese
##mokraat
##servat
##ker
seost
##ille
elab
AS
soovi
kasvab
kre
##erida
##stri
ilmunud
kasutas
komple
Ukraina
##dunud
##ndil
Lou
33
maad
erinevad
indi
mõeldud
Pu
millele
tõenäo
##uga
koge
##ndasid
Oli
##koht
##ktri
1977
levi
##liga
##ministeeriumi
kehtest
##atavad
valitsuse
##ümnaasiumi
Mere
##ill
Alg
peapiisko
##organis
##int
akt
##ilma
Lõp
##itakse
##atia
##dusi
jag
##pul
kel
hoon
##lisele
Eestimaa
##konnad
Robert
saavad
##manni
arva
maantee
Linn
##mentaal
tänu
##kiir
kord
Ur
Valge
##ong
Bu
oblast
Fi
pruu
inimene
esial
looma
##aalselt
tekib
meetod
##sitsiooni
##kteeri
##soni
lugu
##graaf
igal
märg
märts
##oom
##dik
##aduste
psühh
Mü
45
konf
##htt
##usid
36
Lood
ajalugu
ettevõte
Ülem
vanem
Pii
##lestus
naiste
vürst
kasutades
##ismi
ent
kosmo
lõh
##pen
##poole
tekkinud
veebruar
##amisega
sõn
##au
kaota
Ä
##uto
70
püha
hulk
vää
Sõja
energia
##nemine
raamat
euro
rolli
##idel
kad
mäe
süüd
otsustas
##nur
täit
näitleja
##sent
##atsioonis
erinevaid
##tõttu
Jüri
Pol
tööle
##nit
##dag
##sega
liideti
##cal
kohe
näha
##taar
ot
##80
teisel
vend
tõlge
mitmed
##leid
##ratsiooni
Sellest
##pat
energi
##hh
##kret
##nder
vabast
##nniku
##sioonis
Sotsi
##jooni
##bor
peaks
##nikord
süsi
väärt
##vür
luule
medit
temast
teeb
ühtlasi
Mag
##haani
##oloog
järele
##salu
fir
Th
sul
##koolis
##likogu
är
Willi
Raud
mee
##tti
##stuse
##järv
Haa
Samas
##ustasid
##jooks
##listest
##nõu
##juhti
##hia
salvest
##kind
sega
krooni
##mehe
##hnika
##urgi
We
avalda
pron
Saksi
dünast
Seetõttu
com
##stra
rohe
##hää
1936
detsember
##kõ
kanna
keska
maakonna
##aari
vähend
##lev
kümne
kontser
veebi
##ustel
##ndamisel
Hii
Kõik
elektron
##rma
väe
päeval
lipp
sunni
##van
kann
enese
keske
##atide
##ero
##ligi
##ulga
lihtsalt
tüh
lahingus
peak
##lika
lähed
poolel
seoses
##nemise
##akade
##kub
##tari
##erib
kaht
##vahel
##nemist
##ater
##mbrist
##ket
komb
tehti
Aja
polü
##ent
Berliini
suhteliselt
1987
Brasi
kaal
sõjal
##seni
politse
##tanud
fra
aprill
1917
##ula
Vabadus
peetud
nur
Ühe
teen
##bel
Seega
progra
oktoober
##mikus
Rein
tegevuse
##iks
Hari
Ger
üsna
##misjoni
siht
Kunsti
ba
soome
##raamatu
##ley
##jatele
tegevust
programmi
suut
päris
Fa
##ikoh
Hol
##teesi
Saar
Helsi
rünna
Vast
Dav
##nema
##listes
vilja
##pon
##misväär
##dub
Kreeka
mööda
##hoid
poksi
##antsi
ts
150
##listel
##leti
Mär
##ndide
Venemaal
Kuning
Georg
ik
leida
1972
niis
viit
vägede
Järg
selge
kava
##hil
tekst
Otto
alist
lavast
##tege
arvatud
ehitus
es
##sesse
##teedi
##siiv
1935
##ndist
##ila
meest
viidi
Wilhelm
##gar
tõi
november
##formatsiooni
kuulusid
arhitektuuri
Kri
##poliit
##fina
##kad
Lü
organi
##lia
käe
##vet
##idab
Pan
Akadeemia
kateg
##ndamist
saavutas
##sitiiv
90
piiskopi
teatri
september
##klas
Rahvusvahe
##ktuur
dis
esimesed
liigi
1937
iseloomust
IS
hooli
##ya
##likust
kaugusel
keskel
##süsteemi
paikneb
##ping
##tult
tulemusena
saatis
tihe
##ling
##rük
mõlemad
##lav
raadio
##alit
##neva
terve
kaheks
pär
##kasva
mais
teatas
##mest
##liidu
##rä
z
heliloo
periood
kuningriigi
ooke
matemaat
1986
võetud
füüsi
ükste
Peeter
tiit
leidis
##ži
vabari
Kale
mainitud
##aber
##adel
pidada
lahingu
Ara
gene
tri
moodustab
õpeta
##beli
kõrgus
mingi
noorte
värava
##kreet
Valla
Riigikogu
##atas
##maad
##kand
kodus
Poli
##gali
Edu
kasvu
tuvast
##kute
õigust
##janduste
ajakir
mat
aru
kaits
##kondade
34
##liit
tel
kaub
##buri
püh
Sar
erinev
kandida
##veeri
vaen
saadud
##rile
idee
siin
sügi
##mõõt
jätkas
##wi
##likool
mehe
asuv
##steeri
Mee
vajad
selg
Gustav
eelist
inimesi
##atsioonid
##erimise
regi
märki
koon
hertsogi
meditsiini
sti
Carl
algselt
võrreldes
##ava
Kunst
Stock
liiki
Tri
omavahel
##30
##nat
Vahe
##of
Šve
ühes
tava
luua
lik
##ndama
kasutavad
kaup
Peale
hinn
juhtis
klubi
ülikoolis
hakkasid
##mente
määrat
liikmed
maksi
##mple
sõnast
info
seku
##vid
1976
##kümne
Jaapani
Jä
piirkond
elus
1975
mõtte
mõni
##rea
##jõud
##has
##ikeel
valimis
##vasti
taht
##ikute
Itaalias
koosseisus
väljas
foto
ütle
paljude
##vatest
sõltub
Kuni
NA
##egi
sees
madala
linnuse
alus
valgus
William
Tho
Aleksa
Pla
Egi
Noor
noore
aastail
äri
kasu
##neti
37
kait
väide
Rich
kohaliku
võõr
##raani
1934
vide
kandis
katse
maakond
##burg
ülejäänud
juhtimisel
##maade
1968
minut
rahul
kasutaja
##ano
https
##cke
vor
##metsa
##lina
asunud
tap
voola
pääse
1973
##seeritud
mälestus
plaani
asula
##sol
liitu
##gre
esile
bio
##ilaste
1985
Tege
##kin
##sionaal
päl
Mõned
##armee
tõsi
usku
sellise
Iga
##eldi
esmakordselt
läb
##rom
vere
vih
##detakse
dolla
puudub
##sch
##gina
##tles
Kiriku
##kulpt
##voolu
pärineb
vajalik
##pera
1979
1984
##jõudu
Maarja
##asu
Suu
##kvara
1974
##oss
500
1978
ennast
Phi
Kan
1949
er
178
analüüsi
alev
kirjutatud
teenist
Kirja
##ride
em
lahti
##aast
endise
##60
sid
järje
Järva
joo
Ö
##xi
1942
töötab
partei
##bas
##gib
lõppe
##eme
presidendi
##kov
viimase
##võimu
rühma
tegelikult
##saar
DNA
##sina
risti
##para
jäid
Riikliku
##aki
nimega
04
viir
kauge
esindaja
algab
1982
sealt
Fre
1924
1981
Stockhol
välju
süsteem
##usena
01
Anna
##soo
sh
##umine
kit
##III
##ehit
Partei
sõdu
pakku
##yl
ligika
##ööd
vall
ming
##ataht
##hvi
##öder
des
spordi
suurus
kirjandus
177
##ndiga
reaal
süüdist
##roni
##idele
##lastele
lühend
1965
##datakse
##mentide
##lisse
poja
##nite
##orit
##aga
igas
asutas
toon
teema
Cor
##vise
kult
organisatsiooni
likvide
Jak
lahkus
väärtus
##vata
Kii
sini
##atava
##liiga
##rikas
sõp
Portu
vahend
##roma
kalmistu
autor
kordu
##estival
##arvu
Lk
##fon
##vasse
hoid
Valga
religi
juhatuse
professor
##ces
aato
1954
##lide
ühel
riigis
Mal
Uue
##40
300
karist
##stik
lähtu
käsitle
erialal
keskmine
38
Maria
Kultuuri
##chen
1956
Cha
miljoni
Aga
pub
prakti
kirjanik
Prantsusmaal
##õigus
pühend
1933
##meenia
tugeva
##sem
Gro
##ustab
##ndatakse
##abiil
##ame
male
kulge
Mer
##keele
##ulka
tööstus
toimusid
##kude
##lusi
Isa
tõenäoliselt
##lari
Vir
Valits
03
1983
##pres
abielus
Hans
##punkti
1946
kolmand
##mendid
##kool
korr
ER
For
##ova
Lud
üksnes
Uuri
##alismi
##likkuse
Charles
##cht
75
plat
Mis
Rakvere
Martin
tulnud
##vöö
1964
##büü
##nte
##rahv
##vent
##nismi
Ajal
langes
Go
##kka
ainus
India
komme
ürit
##ksikon
pes
##vene
##mele
mõtle
Taval
kujul
tants
sellel
ellu
Qu
##järve
vastas
pun
##lema
teinud
kujunes
##mängu
ametlikult
##teist
##vatele
kunstnik
uut
ulatus
##aar
##ire
##jev
Siiski
Christi
uusi
1971
olümpi
avatud
kasvas
mitmesug
het
olulise
saadeti
##hard
albumi
Kär
aastane
klassik
##tava
Pea
oht
Teine
üldiselt
1958
hele
##komitee
muuta
##võit
Neid
ametisse
##vadel
pigem
##ardin
mälu
Inime
##ane
##nger
Kö
##koda
##ooti
Van
1959
Jaani
valgust
päikese
02
allu
##avasti
##ikuks
pani
##materjal
nimetas
esinda
Postimees
##kate
##amet
1921
1969
füüsik
oja
tagajärjel
##leht
Kad
##onaal
1943
ajaks
##jo
järgmised
Tur
##ktsioon
külge
Peterburi
disa
näide
Rä
Kooli
##konnale
stii
Hollandi
tõest
##kr
##lü
##anna
enamik
##gent
1966
proje
##sas
siir
##tš
##vormi
kirikus
uud
perekonda
##õõ
##ational
##ction
##meister
oluliselt
protsessi
röö
elanike
panna
rajoon
ost
1963
##mil
##olümpiamängu
hääle
jalgpallikoondi
aluse
Selleks
##paist
##lova
1948
##uvad
##idega
##ressil
##oodud
##tasid
Nõmme
auhinna
laen
##meetri
Ema
suvel
##iu
05
vede
gaasi
kasutamine
##stantin
##ratee
##müü
##nen
##stõ
42
Juu
muutub
Koo
asutatud
Soomes
tegutseb
magist
##http
1928
1922
Jumal
##oloogiat
Tre
kuberma
##ges
##tli
teoori
##maalt
Am
relva
taot
üliõp
kõiki
lõppes
hooajal
##12
aastas
õiguste
tugi
diplo
##dutse
##oliik
1967
paari
##visiooni
Are
##aliste
rahvaloe
Ker
püstit
üksteise
##mir
1957
hooaja
##ola
väli
##miseni
kaitses
konkreet
##jõu
1962
Mosk
toimet
##oloogias
##üül
1961
rakku
ookeani
##sad
08
Du
lühi
kahju
ligikaudu
sajandist
##janduses
Paa
osut
osaliselt
##ussi
ajut
tihed
olukor
##listele
öelda
##ode
##rismi
akti
olemasolu
kihelkonnas
##onni
perioodi
##joone
liitus
anne
htm
osalenud
nädal
lennuk
tre
positiiv
Tii
hüdro
Nikolai
arvuk
kolmanda
1923
##hü
##arti
##gatiiv
nähta
##fere
piisavalt
Kogu
##dam
##üsi
##ajad
39
##erimine
geeni
##dist
##inga
Sise
Brasiilia
kala
Järve
##äär
Fe
##leri
##spe
Ameerikas
liini
##igast
1932
##bra
Louis
##dav
Tšeh
parlamendi
nais
huvit
lõpul
Fra
##kunst
##ograafia
filosoofia
võidu
##pidi
elama
##kultuuri
##käi
mõt
1925
##aria
Loodus
maastiku
##sam
saarel
##üla
1947
Richard
##üki
##pinna
maali
analüü
##aduskonna
##gene
seits
Eduard
##kult
arvates
##riikide
kuulunud
48
MM
Bor
konstru
mängib
##wig
esimesel
Egipt
asuva
musta
magnet
selgit
##ühend
meen
##korral
##tamine
Instituudi
##assa
põhjas
efektiiv
##ske
EK
Don
edast
osakonna
eesmärgiks
##19
##ndades
##vatel
1929
##radi
jõudnud
kõrvale
##kil
##tama
põhiliselt
##gad
Austra
##ovi
rajatud
§
määral
nimeks
põhimõt
##ved
##meni
ande
Vla
kaetud
kindlaks
David
moraal
pul
##sside
Phili
valik
õu
Jose
turni
suured
Selles
##bia
Keskkooli
läänes
ooperi
##ult
##harid
Kivi
##utamine
##atest
##laeva
##meeste
väiksem
ime
##happe
näitab
##gressi
valmistatud
##bri
aastaselt
Nime
##atur
##teet
##RO
looduskaitse
vasa
##misa
Univer
##kta
häi
põlv
##letud
##pus
vahele
##teed
1953
konflik
kogus
##htede
ülesanne
ülemine
##orid
##otüü
##con
##lae
##amisest
Bro
toitu
seemne
kaheksa
da
##haig
raku
mõnikord
##andeid
elavad
omandas
07
##usaa
Paljud
Kau
##ward
##reeti
##ndanud
kellest
mägi
fot
põhineb
Sy
XI
##dava
Anti
##reeritud
uurimis
##usti
##seadus
akade
kohalik
##likule
##uudis
poola
meetodi
trük
##pinnast
juhe
dünastia
##istrivõistlustel
posit
##ens
pinge
##pole
##poolse
##lastest
06
120
Hiiu
stat
tohi
viid
##teenist
1926
##ndub
400
Kre
Mart
##mati
##post
##kohtu
mälest
määratud
näe
##ants
##hju
##ow
ilmselt
kohust
##lee
idas
55
järgu
kahte
Aastast
##olog
hääl
1927
Alex
lehe
kardin
Wal
Kokku
Praegu
1952
Ette
teenis
doktori
seaduse
##atee
##niga
##uber
kõrgusel
44
##vang
Pik
üldse
minist
##15
Austraalia
Nov
õiguse
47
oh
##nide
##umise
lõpuni
perekond
kolmas
SS
lüü
viib
##iivi
Ühendriikides
##näit
##tungi
Rootsis
jaama
keskmiselt
##gat
##uss
##ordi
Hoo
Osa
post
Välja
skulpt
Saaremaa
##dru
##idust
##regist
vaate
Lätis
##mul
koond
##mõis
kuue
Kari
##toni
tuuma
##matult
##aega
tehnoloogia
##aljon
asusid
trooni
septembris
##ilas
hõlmab
##hvat
põhje
pin
sport
##põl
152
##õna
##lusel
kellel
##eer
##ura
##ärvi
##cy
##oomia
surnud
##geva
liigu
170
1931
opti
##meistri
##akond
Tele
1000
##oorium
heaks
valminud
##nar
##valitsuse
vanemad
käis
##tamise
standard
avaldatud
64
##cher
##oris
riiki
rahvaloenduse
##õnne
õnnestus
99
Sir
liikmes
spe
gal
arsti
aladel
1951
ülestõ
hap
suunatud
##kkus
##osoof
pida
valitud
printsi
territooriumil
kuud
võrra
Maailma
vägi
##vägede
kutse
##minaal
ettevõtte
##11
kahest
liikmeks
jaanuaris
haru
##ndade
tõst
kuulutas
väikese
alad
teate
##enne
##tist
lossi
augustis
##kava
Mik
##muusika
sügisel
teistest
##beri
tan
Esimesed
##len
vaadel
##tmosf
võitnud
reguleeri
valimistel
##han
##üklo
hoopis
Iiri
saaks
##star
Mak
ühendatud
Ind
tõus
kategoori
43
mängus
##cus
Taa
kaeva
97
George
alt
Orga
##likkus
uueks
hob
##siga
laulja
sõjas
ettepane
En
loetakse
Jan
jälle
Es
tarkvara
töötanud
jm
kapte
loomu
##aberi
65
##märk
tõr
##ajate
pandi
##TA
##kaid
Bulga
püüdis
##paiga
##nikuna
haige
Las
kolis
negatiiv
Türgi
paremini
##üt
Aleksand
##mur
##ory
rež
olev
osariigis
##utamist
võimalus
uju
##akadeemia
##tek
155
haridus
##igas
rootsi
vabataht
##etu
##abia
##parte
aluseks
##asja
por
1955
trü
läheb
seltsi
teises
rajooni
tru
##põhi
##õjas
loob
und
viia
Vladi
##evi
##ista
##vinud
ringi
astron
##laine
Juli
##tentsi
Estonia
##laad
Indi
mõr
digit
tase
tarbi
Min
##teeti
areng
ühiskonna
Ass
kloostri
Konstantin
##kast
vis
##stunud
andnud
olümpiamängu
Haap
mobi
tš
Enamik
meistriks
kirjutanud
##atsi
punkt
mootori
##vitš
ranna
kannab
Lennu
klubis
esitas
##18
pöö
rajas
vastuvõt
Era
rahvusvahelise
part
##dagoog
kliima
riig
##dades
Meri
hoida
Wa
sugukonda
##16
##zz
##firma
Jumala
##hoo
##dena
##mängus
Raamatu
ikka
##ham
valitses
x
lõpet
09
##ootor
##ongi
Puu
südame
perekonnanimi
##üts
##raamat
eksisteeri
##õppe
Ajaloo
##õit
Anne
##usteks
seksu
##õdu
##vastu
##lau
James
Mil
julge
tütre
kinnitas
kokkule
##cs
Päe
Tavaliselt
tume
kreeka
väge
##kalt
##mmer
märkimisväär
46
##keha
##amisele
keisririigi
en
##sise
##sul
##volikogu
okupatsiooni
##mägi
Jakob
ütles
täpselt
##ism
49
arhe
maetud
##oloogiline
##ratsioon
Wi
neut
jäävad
tasakaal
arvatavasti
##misjon
Horva
video
##dine
##risse
##öid
##sage
Põhi
define
Juba
##bar
Ex
eet
tunnust
##jõe
##laavi
nõukogude
XV
##itna
inse
##ndud
veidi
näht
##ndel
alust
täiesti
##abet
konta
uute
firma
koondi
univer
ühiskond
haldusüks
##kaalus
peamine
ant
##jandust
kihist
##lepingu
esialgu
laialda
##valve
##ndunud
##hy
laev
##aljoni
tuleneb
##eria
Kõrge
##liin
muudeti
raamatus
##hoon
Pil
Nä
##susega
stabiil
katoliik
rahvusvaheline
käes
koolis
##vates
jätku
##ntse
##rava
Kaa
Pere
kreisi
##ska
##lini
##miini
##gri
##saa
##steemis
staadi
orgaani
Eestisse
Kuld
informatsiooni
ak
romaani
##mälest
Rud
Micha
puhke
patsi
pidevalt
##cu
##ndo
##isra
parem
##dade
Vane
arusaa
juunis
##ES
Tuu
##puud
del
lau
tulemusel
kihelkonna
##mõisa
hüpo
kahel
##imetaja
##kuid
##gan
lipu
##nduste
##seri
paar
Bru
##üsteem
##wer
##miga
Bir
kandide
##lä
##anus
##eet
eksperi
tõusis
##eno
konku
metalli
##mmast
y
co
##hari
ting
Vaadatud
165
##ääki
võid
164
mür
##alised
atmosf
##uts
156
ulatub
nimetus
##mbrini
sula
kaldal
kriit
Vas
hii
varju
Kanada
tehakse
176
##liiku
Koos
linnaosas
160
raa
##akti
voolu
kahjust
täiskasva
andmete
suutnud
##ndile
##oloogilise
##bid
##kuda
##nedes
##raadi
taha
##ntsüklo
Af
Punaarmee
##koja
Tol
kasv
##oonide
pälvis
Elekt
lennuki
Hit
kavat
hakkab
omanik
maailmasõda
##gue
##uslik
telli
sõidu
joonist
hool
laiene
##astel
karja
##ros
abielu
hukkus
vürsti
väljaspool
##ott
tolle
andmed
Kahe
muna
kutsus
vangist
tegutsenud
##mia
küü
teksti
stratee
##hen
##põh
##maan
##üroo
detsembris
##siks
Ela
Andre
paks
praeguse
##poeg
sõnul
##lastega
##ntsüklopee
paiknevad
Kra
maak
##usesse
piiratud
andmeid
it
du
vangi
##by
168
##õiguse
juulis
oktoobris
175
##likas
##märgi
##setest
mõttes
peapiiskop
##relt
kva
Frank
parima
kogudus
##mut
##deri
##maail
##maalne
ranniku
lük
selline
Thomas
##lasse
##olise
Henry
##kondades
Jac
Mor
##lasti
##raja
Cla
Teda
##ass
##viis
##aktiiv
##reformi
väravat
arhitekt
##bit
162
##akeel
sisaldavad
##que
##vidu
##kordi
Mc
##omeetri
Helsingi
ita
##asutus
##valmist
##saari
õppima
Max
org
vapp
##nnikul
invest
##ull
Fo
##lori
vaata
Chi
muinas
##konnaga
##ness
##steini
leiab
program
##pra
sõitis
##ai
##osi
Del
õde
##võsa
voolab
ohvitse
õigeusu
##eeru
Eli
54
VI
absol
Sc
pealt
##ndatel
##pü
kutsuti
Ole
tah
Napole
Sii
vastav
venna
asjaolu
Ise
osaks
kommunist
Gar
1914
otsust
helilooja
moodustasid
##saks
vasak
laevast
##spi
158
Sim
Kos
##misse
teene
tähtis
revolutsiooni
##tern
aju
##erunud
Alam
värv
Hil
Kura
##utades
kompon
##dete
raadi
pronks
##fer
relvast
materjali
##mbi
milja
##LK
paist
meta
märtsis
liigit
merepinnast
52
##poliitika
##gn
##partei
lõppu
##TÜ
hulga
Teaduste
kraadi
ini
Cali
Ernst
bar
kannat
karika
linnast
##kida
##telli
parand
avaldati
Selts
muutunud
oks
Preisimaa
ristis
##dud
vulka
##tensiiv
esimehe
##duvad
naine
##valitsus
##ukle
Ants
deta
Jõgeva
perioodil
##hnik
minna
jalgpalli
toimetaja
Vik
##orite
Kures
Muusika
Vo
##init
täide
##ssa
Wor
valitseja
##dane
##oksi
reage
##17
tundi
liikumise
##tuaal
tundu
##vaat
suurte
##atege
##ustamine
organisatsioon
lõpp
##ara
põllumajandus
##likul
##vikus
viimast
Ul
ülesan
ž
orbi
##instit
Aasia
##nini
##nta
53
##ieri
Nüüd
##kraadi
viisil
Eks
aid
koori
lagu
ümbr
##BN
ska
muid
##cel
##lur
##geni
Mur
##äitja
eriala
tegeles
##anal
##tuks
##nikuks
##lovakki
Roomas
põhik
esines
määras
##isk
##daja
##kogus
##siidi
kohalike
lahing
kaubandus
Piir
valguse
Iisra
##asis
##ndik
Ülemnõukogu
poega
pärinevad
57
##graafia
kasutama
hukku
muude
registreeri
tuule
Michael
aadressil
##ministri
valg
võiks
pealinna
Ly
##punkt
Mihk
antakse
##versioon
paiku
ameeri
sünteesi
##ID
##mõi
ühest
kaardi
Andres
Teadus
mehaani
tegeleb
Ah
tsü
kulu
port
leiti
##jektiiv
kell
##sile
ara
Christ
kasutata
Põlva
esitatud
kutsu
disaini
muuseumi
##foni
172
Neil
Palju
Muusik
koordina
halduskeskus
##cc
##alo
##usk
ekra
suutis
vastut
filosoof
##egse
##mets
aitab
väite
preest
58
Ben
##lusest
oleva
projekt
ISBN
kõrgeim
##ok
Liv
osad
kits
auton
##finaalis
teadaole
##lile
##ppis
Veneet
##genti
arst
harva
pikku
Hü
surnu
elanikku
##ptsiooni
esimesena
kusjuures
Tam
##nevate
üha
näge
sool
esimeseks
vanema
koostööd
##demar
seadme
##het
domine
##tamiseks
##lob
##teen
raames
sekret
##lastel
suuna
1912
mujal
sunnitud
vaad
signaali
Portugali
##13
56
sõr
##rakku
1905
pandud
##grupi
##ndate
Gö
##gusi
##seaduse
Erinevalt
##14
Pariisis
Christian
mitmete
##ete
##ller
sele
erinevalt
##uun
kop
##jan
##vari
identi
sõit
tsivi
##võim
Rapla
85
##asia
algus
##ža
automaat
##nski
pidid
vahet
leidnud
Toomas
direktor
tavalise
##laag
##vuses
lagune
kasutamise
Gri
võtsid
tse
akadeemi
##reeni
itaalia
##bü
Mul
##kirjas
##äht
Gruu
geograafi
tervis
##arh
##aajal
läbib
sala
maeti
perekonnanime
##und
##ikuga
üh
##masse
karjääri
##adina
##ikest
Mõle
Ludwig
kilomeetri
tõlki
##uset
Tüü
muuhulgas
Mõis
pais
##laseks
toetas
kontsent
vir
##mile
Sini
katal
ostis
##mbrid
Ehit
Veel
157
Ent
Lai
Ž
95
##adust
##rääki
pakub
toodud
Suuri
##hnoloogia
##rahu
169
aitas
sellepärast
jälgi
##mari
vaimulik
##ky
##sson
Hab
Tõnis
säilit
Osma
noorem
lühike
##ony
##kab
##cro
##naami
ingl
aegade
##utatakse
kirjelda
##astus
Esimest
Inglismaal
173
kää
inde
vält
asetse
63
EM
füüsika
##IS
Vaba
##orison
##adu
##laul
Lening
räägib
viitab
väi
temp
Alf
163
Jean
Kaks
kolon
omavalitsuste
00
##iiri
##vürsti
##gori
##imed
##park
##ana
##jub
##alleel
Šveitsi
##keelne
köide
sätest
vees
instru
stiilis
##bli
talupo
suuremad
##eski
##atuna
miljar
tuleks
##ministeeri
kasutasid
intensiiv
valdavalt
##panii
##posit
##ravi
kevadel
Jees
keelde
Oja
lühe
##sident
aprillis
kont
mängija
##can
##ajaks
täpse
kato
Leon
elektro
eestikeel
kuninganna
Kla
past
CD
Ast
Ska
Kommu
müügi
koosnes
kättesa
roll
##ülikooli
Hispaani
versioon
##itasid
individu
Albert
##TO
##ltsa
##ndusi
##peale
Hanno
pikkune
##juhul
##innale
veelgi
Arvat
##mõte
##geeni
##rahva
klaveri
##urg
Elu
Vald
lahust
novembris
selet
DV
##sõja
nägi
##kera
põr
##adiks
uued
##oore
##oria
##tunud
person
teaduse
veebruaris
ühine
maitse
##auh
##vesi
Laul
Pool
Mes
Pat
##jõudude
elust
vigast
jalaväe
organiseeri
Büts
liiv
Juhan
Sotsiaal
man
##dusega
katkest
ütleb
taseme
kellele
bit
puuduvad
aust
põhjustab
kurite
##fitseeri
teadust
##lah
Olu
Toom
Põltsa
keelest
med
uurimist
##ded
##ifi
##ema
##odor
##meeni
taju
Nagu
Teataja
korduvalt
seitse
võtab
katoliku
retse
seisukoh
174
Aru
stiili
Selline
##irja
##ngul
Viimane
lõpetanud
##jor
Kle
##aks
##ühh
Mini
kestis
saabus
##cis
##skoo
##ikse
paljudes
##ajaloo
##tajate
OÜ
ket
kõh
meri
metal
erineva
mehha
##gon
##hat
##kule
haavata
ametikoh
riikides
saadakse
##õrje
##poolne
Saint
##pärane
Algselt
dist
põlet
vastab
##gale
West
kolmest
dollarit
62
App
##cia
Aut
öel
Viini
hõimu
##esta
protest
arvatakse
##järg
##klassi
prote
##nduses
lähte
suhted
majanduste
head
Teist
kant
mitmeke
esit
hir
##belis
normaal
linnaosa
##tena
film
Mehh
politsei
##ises
1913
##muuseum
##nile
153
con
lib
Tan
##õpet
miks
järgmisel
otsa
Risti
läinud
alustati
##isut
##onüü
##vile
Sur
Süü
##pääsu
diag
pääses
Califor
pealinn
sir
kaitsta
päev
muuseum
Londonis
saavutada
Ain
endast
##delt
##geen
##risto
kutsutakse
Sp
##lami
sild
kasvavad
##FA
läti
keegi
kuningaks
##laid
##astele
saate
##abe
Üht
Saksamaale
##haru
jaguneb
##siste
filmis
veekogu
rask
välti
Londoni
Aafrikas
##hl
Vel
liiva
##mootori
Vabariik
##imad
##anis
167
##aasis
Vara
##lusega
Bla
super
Šoti
laiali
algusest
##osakonna
lõpeb
origina
pidanud
##rek
kod
Tamm
##olekul
leidu
ulatu
##adlane
at
Mün
pühitse
suuresti
##füü
##jee
käivit
EL
##kunsti
surmani
kõrgliiga
projekteeri
Nu
##hause
1910
##erivad
Gr
Ps
bud
taa
sure
rekla
##listeks
sümboli
korraldas
##ken
Ei
##ngas
Inglise
88
##ktika
html
##atuuri
87
TÜ
##kaks
##lemine
annavad
potentsi
66
##ology
töötle
##dra
##likk
Joseph
##püü
sisalda
administ
##moodi
ametlik
poolsaare
##gur
##taime
käsk
sündi
Tehnika
##pär
##õidu
prot
tonni
67
ÜRO
kaotati
##ül
##lind
Moskvas
##plat
##voka
##korras
omadused
vallutas
põhjuseks
Lõ
Mets
soodust
##AS
Anton
reaktsiooni
laius
versiooni
##kirjut
Järgne
kuur
##mastus
kaksi
Esial
naist
kasvanud
osariigi
taim
##levad
lapsed
tarvit
##kii
68
##alid
1915
##stein
bändi
##fikatsiooni
##mor
166
tõmb
kulgeb
Sõna
piki
Filmi
Tänav
loode
eelkäi
naasis
objekt
tutvust
kär
elasid
Kirjastus
##alb
##istu
Abi
peh
eurot
loobu
##periood
Baieri
Haapsalu
poliitika
77
jõudu
kanal
##ikon
##vilja
Sage
pikka
Poo
kultuur
##kasvat
##utsiooni
Hä
##gevuse
levit
##kondi
seitsme
##ssu
159
Tänu
propa
##dž
Gen
##saatori
Kalevi
sõlmis
temperatuur
##vürst
##tero
lihtsa
##pruu
asul
lähist
peagi
liikmete
##bub
vöö
lasi
kitar
##ümnaasiumis
125
sii
##rühma
tähistab
saamiseks
tsaari
võidakse
funktsiooni
##yer
##oonid
elanud
tehnik
##hariduse
##AM
##aba
Nel
##jaga
##paika
vältida
meeskond
rikk
##ümf
##laev
mini
##jaot
##likkust
tiitli
esinevad
kujunenud
##nie
##atult
##kanne
##signa
Plat
Varem
park
Keila
debüü
arenenud
Kirik
edeta
tegid
õpp
lauluvõist
##nsi
##dusse
Paav
ulatuses
##aali
##jõust
tuua
Raadio
võtnud
##ons
##porti
##ppide
argu
Hoone
##konstru
võimalikult
##film
##reek
Gal
##ringi
ruut
vett
##led
##vor
teoreeti
##ny
##gade
149
kaard
järelt
##kinud
##lasena
Albaania
kujutatud
##nee
pressi
tradit
lubatud
Sh
##iseks
pära
##setes
##stiku
kohtus
maaliku
organismi
Umbes
##verentsi
haigus
kellega
##anti
tervise
Ras
meel
põllu
Die
##aalsed
Rudolf
soomus
##koor
tõh
##tesse
##tokol
##gitakse
Bütsantsi
59
##pist
Air
blo
##giga
kru
##kid
Arn
##lie
ülesandeks
Edward
termini
##positsiooni
peaminister
1916
kaupa
soorit
##pak
##matuks
Au
vanim
linnus
##paik
1900
Pihk
tegema
Jaak
kohustus
Kot
tsük
Marie
orkest
kaunist
meister
##akeste
Akadeemi
otseselt
asemele
Eel
Lut
minu
##nov
Rus
Keskkonna
##amises
stuudi
##ppa
ansambli
liikumine
Comp
London
##teel
##nevat
Sitsi
aastaid
##gula
##oja
Rist
radi
selja
arvati
Horvaatia
##ity
##ngs
omist
##OS
##pli
##ngust
pommi
riigid
##egne
##atsioone
##alisi
##idist
##pinge
kesko
ettevalmist
energiat
Liidus
tutv
tänaval
ese
##tavalt
masin
suurtüki
Bulgaaria
Za
##itide
ehitada
##sor
##kese
##vade
jätk
##itsiini
Ülikool
##tlus
kiirus
##ore
##via
##adis
Austraali
hommi
patri
programmeeri
##pind
loomade
##oga
Mäe
moti
voor
läksid
##juhataja
hoolimata
##ré
Dani
vita
põhjus
Gümnaasiumi
##bet
ph
Med
##ikust
Jaapa
kosmose
moodustatud
Ac
käs
tulid
Intern
kuningriik
ete
##ntide
rääki
loov
muusikat
provintsis
##olümpiamängudel
nat
##setel
valis
elaniku
vabariigi
##astme
##seumis
Jon
rikku
tühist
##akas
##kordne
kilomeetrit
koer
##lemise
kapten
##ji
##ulli
##maali
pika
vastupanu
##RNA
loobus
tekivad
Nen
Pak
lubas
jõudsid
satel
Hug
õitse
Osmanite
väiksema
FC
tungi
varja
välist
Lie
##astest
##sõna
##ntses
mudeli
loomingu
##sar
kirjas
nendest
##ffi
##roonika
##arne
avaliku
##lehe
Vor
toit
paigald
endiselt
kuulutati
##tades
moodustas
##msi
##dusid
##reteeri
nõudis
kodaniku
iseloomustab
##tera
harul
nõust
Teatri
soojus
##ae
154
võõ
##mängi
Belgia
põhjaosas
122
Kin
##mistu
Parla
##sioonist
Sellega
kättesaada
130
Lot
tulist
peahoone
meeskonna
76
##anded
mõista
##damine
##orkest
korraga
tro
##aalset
saadi
konkure
##duv
suudab
vähendada
##pur
lüli
tarbe
Vladimir
olukorda
tuntakse
kasutamist
##mpto
##matus
astme
##tamist
oblastis
##pel
##funkt
Taga
Vasta
sõprus
##hape
##kit
Ze
Tun
kirjeldab
##kaas
##nsüü
mitmel
Enn
##uguse
vare
tüdru
lugeda
vallutasid
##aldi
##sburgi
tulemus
##kru
Wit
poliitilise
##gude
##riiki
avastas
sümbolise
EE
Sakala
punane
Põltsamaa
elektrooni
AT
paralleel
##lei
##erus
kümme
##kirjaga
väikesed
##ograafiline
eva
##utama
##heri
Puh
Kanadas
##ney
voli
kinnitati
##mokraatliku
##mud
800
Gene
jõge
tekke
kirjanduse
600
rüütel
My
küsim
kubermangu
##nõ
##rati
##vada
suurima
tunduvalt
##võistlustel
teos
teose
suuremat
96
koli
saja
komand
suuruse
kuldmedali
All
1911
Kool
mingit
väikest
##nimega
popul
tanki
jaa
##ustades
sageda
minutit
moraali
tugevalt
ajakirjanik
##fra
##get
Kil
##profess
konservat
##lic
andsid
Tänapäeva
##nism
turu
täps
##starbe
##rige
##rism
##seud
##tser
##laga
graaf
määrata
##mf
74
##puse
Laa
##korra
suubub
##eks
gen
mõisas
tarvis
##mperatuuri
##oru
##uum
##atöö
här
vorm
##hvitse
küllalt
vastupid
Argenti
piirneb
##cz
nar
meeste
puhast
##det
##ndal
##osse
##tsei
Siin
kood
asutaja
RNA
teed
##võimal
kõrgema
##mpi
Tro
aspe
kaasas
horison
92
##ctor
##rias
õli
##abeth
Kalju
Madal
plaadi
##fri
##gro
72
jätkus
##päraselt
põgenes
madalama
Mel
mõte
##partema
##romagne
##õrd
Sha
kriti
tõenäos
tingitud
##ksis
hist
##utavad
ekspe
kindl
toob
##teadus
andmeb
ajalehe
##teo
Ange
edukalt
Universit
lõpetamist
Kr
##iril
##nute
matemaatika
##ook
##heit
Kind
osutus
##ere
olevad
valida
Dan
ahe
jms
##missa
##tuste
naha
Rohe
Raamat
liiget
otsuse
##programmi
##öderatsiooni
##likest
juhitud
struktuur
võl
parimaks
41
##juse
##lennu
monar
konkur
Gru
Vär
pakkus
asukoha
##zo
##ban
##tre
mudel
Bri
pet
Inn
##atele
Gruusia
mood
Organis
ongi
müüdi
tekitab
##zer
##mälu
##oogia
Ferdina
järgnes
##nden
##üüti
Cal
liha
tippu
Slo
Ven
tank
tunni
vastava
Rei
üleva
##pöör
##ustuse
album
astu
nendega
klassikalise
##ühi
69
test
##entide
##mburgi
suures
hõbemedali
##määr
laadi
mandri
##nimet
lamm
kapit
86
##mole
1908
paberi
valiku
tehnika
standardi
##kasut
Stra
arme
algat
Jaapanis
Tulemused
kasuks
##hus
SA
jääda
##protsess
Hermann
probleeme
##ndav
lause
hulgal
riikliku
toimuvad
Mol
##pealt
luba
##alism
Mõisa
##tsist
Adolf
Petro
kohas
seade
ebaõnne
##plaani
##kusi
põle
World
War
vool
Hiinas
##CO
##agi
##häi
1906
ekraani
järeltuli
##hla
ca
mun
##oloogiliste
##gs
##ount
vähi
##proble
taeva
kinnitatud
##vana
Amet
Alfred
kujutab
omavalitsus
##oc
51
bas
##nikku
laht
keelte
nädala
esimeses
##ngeni
##võtte
mehed
kõigile
79
Dra
##lasest
##ühingu
tootmis
avaldanud
##tan
##mend
VII
oktoobri
##85
##tä
nõus
panga
kõikide
teistes
taastati
arh
##keemi
##kutse
ehkki
häält
vulkaani
##beraal
liikumist
Stu
inspi
määrab
Vabadussõja
Ir
Ivan
ekst
Sti
Vin
ilu
Ring
lege
##laselt
##uth
##deta
muudat
ind
##nimed
Maja
Monte
Ob
Lea
##matud
vaadelda
##psi
Star
Kohtu
maailmasõjas
##bes
teav
##linnas
kaalu
palve
suuda
abiellu
taimede
võimaldas
ru
definit
sellist
teistele
investeeri
Üld
##kolle
Laste
ajaloos
leksikon
interneti
Mac
maade
jättis
peegel
##puh
Lat
viibi
teistel
##oriks
Franz
rüütli
kirjeldas
##kõr
##kuga
Lau
Sig
juudi
parim
pildi
mäge
##mperatuur
##aval
##nest
sood
82
selts
kontek
##protsessi
89
##onee
##vägi
put
neuro
muutis
mänginud
##ER
##Hz
##ois
tag
eeld
väidab
koostöös
eestlaste
laialdaselt
##deme
Täht
hariduse
Tim
##sikas
Aasias
##umid
Ren
##stuses
##enteeru
reside
termin
Eestist
väljast
Egiptuse
##abri
väitis
##endi
Kaar
lennujaam
Ranna
varasema
korraldatud
##fal
EP
##gaasi
lähi
lõik
Serbia
Jää
müt
puit
##mana
##ooru
Nord
järgmise
osake
lihtne
kihelkond
##raha
##vanem
kindel
tingi
kõrgust
##ndused
1909
##konnaks
keeldus
Kuressaare
##vool
vaade
mineraal
teata
##aalsete
##oses
##tuda
##likel
kaar
lava
kriminaal
ür
##pilli
vani
##vede
##idavad
geneeti
sagedus
Can
Dar
baa
alade
regulaar
Uu
##ania
##sema
hukka
silmas
##ndinaavi
Got
##aksid
balt
##muuseumi
lõunaosas
##sell
Ali
parema
sarnane
Majandus
inimestele
Novgor
Lõpetas
US
kompone
##filosoofi
##kj
##puna
##ruumi
1907
omavahe
Läänemere
koosnevad
147
rida
ensüü
##väli
Hist
Kose
Jal
Jug
Mihha
bakte
##inus
Tiit
Keele
lasti
töötaja
eristada
punktiga
##dic
##põr
Pen
pesi
##muusik
kaast
posti
väljatöö
luuletaja
lõpu
tähendus
##hoosi
kvant
lähistel
84
##reakt
##mendis
Tamme
mässu
lab
käit
##õigused
tuntuks
pikaajal
kalmistule
98
külg
Eriti
uuringu
läbirääki
##ked
##leda
kum
grupi
märgata
Veneetsia
jalgpallur
maailmameistri
##rant
##alide
Klubi
sügav
##ged
##ivo
ühendab
Siht
##sekret
kuula
##erimist
kasutus
##ung
##mikku
veerand
##nikatsiooni
põhjustada
Ap
bal
dra
sää
##ikate
vale
##elektri
##lano
juhtudel
klaasi
Alexander
kasutatav
strateegi
peapiiskopi
##alased
##feld
juhi
Trans
põhimõte
Leningradi
##hä
73
Sol
kera
##pärase
Mihkel
##kaitseala
ülestõus
Eu
sõjaväelane
##uule
Bud
Asub
International
##ing
##liigas
##TS
##hos
##mera
Polü
allika
Hää
##liseid
##organi
##mikul
##rö
##ary
##sat
Ameri
eelar
siirdus
Suurbritannias
##ye
Päike
võimaluse
võimalust
##tuna
Sam
peeg
sarja
toodi
nimel
##astamist
võimalda
##erre
Nur
##lisus
##pildu
##unda
saarest
##mü
##aris
kergesti
##koho
Los
Bene
arut
kõla
õppet
plahvat
laps
soovis
elanikest
silla
Sellel
keskkonnas
rõ
liikide
ümbruses
##peti
kanali
Põlluma
väärtust
transpordi
##nel
Ote
##itnant
##arvuti
turval
inimestel
kao
Feli
hall
Ühis
Valitsuse
##hor
##phi
linnad
##ube
##mino
##ikule
Kree
pikkuse
##jed
Pub
esineda
|
##oosse
##jatega
kolla
taust
Linnas
muudab
võrdle
pronksi
tulemused
##umit
Mary
Para
viibis
psühholoogia
territoorium
jul
##koori
kirjal
masina
poolda
##ksemp
##võttes
ühtegi
Sellele
##oloogilised
mobiil
Mihhail
Konservat
olemasole
Blu
Cle
##teeris
rahvas
armastus
Kül
kanti
saama
Muh
NASA
homo
Armeenia
78
kl
##geri
ress
##valeht
Mitte
##enda
##keid
roots
külastas
sõjaväel
##mbia
##tsis
##ford
Alt
segu
suus
ressur
olukord
Üldi
külma
aastak
##lovakkia
##mmat
Time
leht
lend
ES
php
##alade
VIII
kagu
loogi
nõrge
sooje
##raamatukogu
##een
##isest
Leedus
Enamasti
ile
##turni
võimule
##skar
##eedri
1904
York
füsi
juri
halve
muidu
saared
turniiri
##hof
##tiga
ERR
Pon
hau
Aval
Koost
mõnda
üksik
provints
fakt
illust
sadama
selgelt
üldjuhul
Ox
Kõi
teisele
##alistliku
matemaati
##jalt
imm
##poolest
minema
hinnangu
##wn
##vuti
Rat
suhtle
kontroll
Kommunist
erinevates
Jõe
##nnist
##etika
karik
##ustamist
##ümnaasium
Just
Külas
##öögi
asi
kirde
##energia
tagada
##olk
fi
Henri
võrgu
üheksa
Rahvusvahelise
##bed
Dis
õht
Klas
raba
Päikese
nimetada
jaanuarist
##mse
##itav
##saal
Täi
Vaat
liigub
tervik
##ministeerium
Ees
tab
kella
puutu
hapniku
spetsiifi
pronksmedali
Info
lubja
konvent
##edi
##mehed
##oonis
torni
##keskuse
sümpto
Ori
ste
##korruse
liigid
naaber
teiseks
sarnaneb
##äbi
124
Bos
##kande
Gali
paika
pruugi
tagant
rakkude
mõisteti
Eurovisiooni
UN
##adil
Mas
summa
XX
##sult
##pto
105
##adist
tali
Peetri
otsustati
##ltu
asumis
esmalt
kvaliteedi
##aldus
Det
toom
rooma
##dy
pidu
jätka
kande
maalikunst
Vest
Teised
esindus
milleks
kritiseeri
##lõ
Lan
noori
jagati
##rada
##atega
Frangi
Norras
erineb
teevad
##fur
##rune
Leo
meedi
Katari
##esu
elanikud
hilisema
##sula
parte
Rumeenia
##sto
##mõõdu
##semad
vastand
kalda
##gua
Land
Pihkva
produtse
kirjeldatud
##suu
##šev
Wind
õppinud
Arvatakse
haldusreformi
##iz
##abel
indivi
Peamise
eeskuju
##pargi
oksü
sattus
Neist
sulge
Münche
teosed
omadusi
vaheline
peamiseks
kategoorias
jao
rau
##likes
neljas
##ternatiiv
Hannoveri
juhib
Gregori
Jür
##kuvad
rünn
spor
Kuramaa
Iisraeli
suguvõsa
##kom
##ikul
Albre
Otepää
rahast
tollal
pöördus
rakendus
vihma
kriiti
Lemb
kamp
rinde
mootor
##lii
##kihi
Ran
tänavaga
esindajad
ül
##saad
rii
##astes
kale
Arnold
vabariik
140
##lejad
##ville
teoseid
võitlus
Tegemist
gümnaasiumi
Wol
##alaure
Paide
##ers
##sini
emi
##atust
rühm
##tiline
igapäeva
##küm
##menet
##stamine
keskmise
Rel
tuhat
riigist
Instituudis
110
##atama
kõrgem
Aastail
Muusikak
tähendas
direktori
##luu
Erik
Heli
##damiseks
atmosfääri
##ndusid
miini
testi
Julius
Paavst
Suurem
olevate
likvideeriti
Adam
rohk
Metsa
luter
saarte
Esialgu
##väl
Com
##sioonil
##rer
##rež
##utav
##sotsi
emot
samast
Gil
näeb
hetkel
##liõp
##oona
##käigu
ratsa
veini
omavalitsuse
Vig
Was
##imaks
##lesid
Kohal
##ibi
Oskar
vaatamata
lüüa
arreteeri
##diga
##tused
nõuab
metall
sõltumatu
ahel
kanda
naised
##eeli
##oodu
dia
jäe
lin
Tõnu
##lisena
näitas
järgmist
originaal
##car
1500
kaua
ajavahe
tähenduses
##ado
Ein
uuris
##daspidi
teenete
keskkooli
##ith
##tic
##vele
jagatud
123
##meeter
pöörd
puudus
##ngid
##plane
Välis
Stockholmi
134
Des
##manti
Õige
asuta
terro
varsti
eesmärki
Järgmisel
presidendiks
##paa
##etti
##filmi
##komple
andma
eduka
medali
puidust
seisneb
operatsioonis
##eeritud
eestve
mitmesuguseid
vai
Kodu
ühist
Francis
ühendus
Ak
põõ
Fili
rajoonis
Aleksandr
##bin
umb
ähv
Vali
enamus
kaitseks
õpilaste
piiril
teemal
##äri
jõuab
##lot
83
##sias
##siti
250
Res
unga
##nduvad
leping
pühendatud
##yd
Che
hisp
##süsteem
samanime
säilitada
##kite
##orti
127
Tru
##nemis
Christop
linnapea
kajast
##see
laia
##astamine
analoog
arvukalt
Dal
##allid
##ndude
##damise
##tilise
##õiguste
##päri
##press
Mark
inglis
hilisem
keelatud
rahvaste
93
Wolf
hinge
Sageli
avastati
Press
tõuse
##ations
ühele
Cat
##mentaar
põhjustas
kasutamiseks
##lem
##ovo
##tund
Igal
Apple
tekitas
visu
University
piiskopkonna
##ppu
monu
ehitas
finaalis
teadmata
##palu
anat
kode
Yorgi
##kaits
keskpa
tantsu
aktse
suleti
valmistatakse
##ndra
##uloo
Iraa
kaev
Taime
populaarne
Tir
##lemis
##seksu
3000
##küljel
seeria
kunstniku
TV
##onile
##alad
Tõr
##oodid
Liiga
##nil
##part
Fina
kulut
raudteejaam
##eto
##vär
##heimi
##seltsi
kaitst
protses
vahetult
##jalg
sse
1885
armu
Mõlemad
Peterbu
Voldemar
##bist
##suste
allkirja
sotsiaalse
É
##nos
1903
abist
##iro
ek
You
##piiri
Europe
##dumist
linnu
probleem
##itz
##rar
Kuus
mõjul
tõhus
esimesi
##ido
##rans
##allik
lõhe
##lejate
hinga
Vanemu
terviku
institut
tavaline
sing
režii
##oslaavi
üldist
mõjutab
lõplikult
tunnustas
Tü
Här
spi
kõva
järgmine
poliitiline
##col
##sip
mal
temaga
vältel
##atoimetaja
##ikut
Pää
##insus
##võrra
mitut
senise
toetab
vanemate
un
##iest
pesa
alale
hakata
kestab
kokkuleppe
##ов
##mund
sol
##gevus
##seeni
krom
Marga
isiks
kõigest
##ence
##ktide
tasuta
lämmast
aktiivselt
##iseid
meil
Ander
Laeva
jätta
nähtud
saades
reklaami
##rol
##kapit
sõnu
##susest
faasi
hiina
kompo
##teooria
##hula
##kogud
elav
Marti
kompleks
käib
##arhite
kandideeris
Reini
pikad
Jugoslaavi
##itsis
mand
room
algust
uurida
Veekogu
−
##kson
ham
##penha
##dumine
##rav
seon
sõlmitud
Berliinis
Mägi
##fta
##htla
kagus
leedu
riski
difere
sõjate
##festival
Kopenha
Ag
lt
##amaa
##ktid
Apol
hüüd
asjade
Ban
Hugo
Pärnus
talvel
##õli
##deid
1890
võimeline
af
##ppel
##maaeg
moon
elada
keemia
number
fik
Praeg
esitada
Vabadussõ
##une
##utuse
Noorte
kuulsa
##siidiumi
võistlus
koostatud
##ty
##atist
toodetud
viimasel
kaha
##vahetus
arengut
vabadus
eristatakse
##illi
võõra
impeeriumi
Rahvusvaheline
##laus
145
Dor
moder
vabalt
Ann
Nat
##matuse
koordinaadid
IX
##bral
##inte
kahes
peakor
poksis
väikeste
Burgu
kliini
Venemaale
Kopenhaage
Skandinaavi
##jes
ood
##oogle
Auto
Liitu
looduste
jagunevad
##TV
##vatud
Pala
reser
mereväe
näidata
iseloomulik
##gev
##isid
seg
kreek
luulet
##los
järk
Antoni
osakaal
vastuolu
onu
sade
Musta
kohati
kõigis
teoste
61
##kuks
##oline
Preside
võrgust
##alaureuse
##isel
Kru
Put
lase
mani
nukle
sellised
##ła
tran
kuuli
pääst
eksemp
departema
##aed
##pme
am
hävi
##vateks
tekkisid
California
##onist
##psühh
kujuga
ringis
Araabia
##vorm
##odeid
Pur
Spa
natu
jagada
oleksid
selliseid
tingimustes
‘
##isev
##eruus
Maal
ränd
##nikele
töödel
aastase
##ootiku
Silla
siiani
Soci
loss
##ndisse
asust
Ühingu
Sci
mõelda
##oole
1870
kloost
printses
suuremaid
auks
mahu
alkoho
ametist
##nias
##olek
laske
vande
festival
äärmiselt
##BC
1902
avas
peres
pseud
vae
oota
levinu
##eritakse
Liivimaal
##mant
##oride
##seisu
##kontro
##estivali
võimalusi
PC
126
##ering
haar
line
##raatori
alanud
olulist
Valitsus
läheduses
korraldati
##vati
1901
##istest
mittet
baltisa
eraldatud
##tta
Col
ping
Õhtu
Lauri
katke
seina
##gemendi
##tamisel
Iirimaa
õnnestunud
protsessori
##df
##ont
##pos
Bab
##gramm
##selts
oluliseks
##šee
##linnus
Korea
mäest
süste
tulla
##äina
Men
##beeri
Hele
tasu
Sarna
sõnad
suurvürsti
Õig
##innas
müüs
püst
näitavad
##sla
##mõju
Eva
Kogud
saata
võisid
Mehhiko
sügavus
kromosoo
Vastavalt
##ntsüklopeedia
##ndava
Järv
##saarel
Edasi
Ferdinand
##ote
toote
##sepp
Der
Mont
kvar
kehtib
Instituut
##nevaid
osakon
praegune
nimekirja
##pikk
Mõi
Spe
euroo
ajastu
vastuol
tihedalt
hertsogkonna
##reisi
##ühing
Harry
edela
Meistri
kirjast
mõistet
##aare
##ööri
##erimis
aadli
ümbrus
rahvastik
oktoobrist
144
##24
##rs
##did
Ost
när
##laadi
meeldi
olulised
julgeoleku
laag
lisati
tekkida
*
Ari
##anist
##mpli
##büroo
##istes
mürgi
valdkonnas
far
Tead
ükski
ainete
osalesid
##lehel
##nnik
##sing
##avõit
##ikooli
suurune
Ehk
Kolm
holla
pisut
valitsusvägede
Tori
Magnus
koosnev
moodustada
##fti
##gil
Teises
##aru
ani
dot
Kadri
kuiva
pehme
##istrivõistlused
##bal
##tid
Us
langeb
proovi
kodakond
peamised
##aut
##fir
##vski
XII
##nguga
Julge
lehed
##mbraani
94
##chti
##cker
Sen
##setele
##dagoogi
esindas
##kaar
Muuseumi
hinnangul
##atä
##yle
Ainu
tööri
kinnist
kombine
põhimõtte
##oko
kopsu
suuruselt
Raamatukogu
inimesele
tehnoloogi
Köl
Pad
ene
Leht
korraldab
positsiooni
##ikke
Tür
Riias
##kindlust
väheneb
juhtimise
##ša
##jalii
mõlema
##juhtu
putuk
Nobeli
pinnal
väljaanne
haldusüksus
magnetvälja
##iisi
End
Jer
Bern
Meie
Argentina
viina
Habsburgi
diplomaati
Austraalias
137
Võist
ainuke
vahepeal
be
##meres
mure
molekuli
suurendada
##tõ
Dü
700
valu
retsept
143
MTÜ
##maatika
##gio
##rete
troo
##nditega
õppejõud
iseseisvus
128
##ndaks
stsena
septembri
toiduaine
##anik
Les
sügava
kestnud
võetakse
##mens
115
Jor
Tom
##ajast
##amaks
tantsi
väljaand
instituudi
veebiversioon
##ossa
##otsas
mass
Micro
veetis
diviisi
aktiivne
miljardit
sissetule
Hispaanias
##cie
##vangeeli
süsiniku
##organisatsiooni
##IA
##vaga
neis
toetu
tsent
jagune
kindluse
vahemikus
##duste
torn
##nikke
tegel
arvata
Atlandi
esinenud
vastastik
##ght
##zen
##mude
Bat
1896
üldise
linnade
kergejõust
##ight
##ikuid
Lõpuks
##vabari
Kolme
öelnud
##ateenist
##perioodi
Elanike
##dama
Lõh
Lille
Barcel
teinete
mõjutavad
##rre
##amär
eit
##herts
Valgus
majanduse
Rot
rada
infot
enamiku
Novgorodi
ringkonna
piirkondades
##udes
##maast
tõlg
##musega
##riteeri
etapil
vastuvõ
väiksemad
##ple
Ros
süüdi
Paulus
viimased
horisontaal
##kah
##lla
Amb
##meest
enim
kõigil
klubiga
suundus
##ünd
EN
##goli
harrast
vallaga
##ndamisega
Valgevene
##hhi
##seeru
Vähe
##lusele
happe
##ün
fer
han
Balt
tähel
Siberi
Tšehhi
läheda
harilik
turismi
pataljoni
sõltuvalt
##ühis
129
146
aur
Super
sekku
viisid
Film
##jatest
otsas
rakud
koguni
praost
perekonnas
##iner
##pääs
emb
##otaani
##ubandus
baasil
sektori
komisjoni
funktsioon
##kovi
##lian
##noosi
koju
sens
##maalselt
Õpe
numbri
režiss
ansambel
aprillist
vkj
##keelse
##ndusega
välismaal
aastakümne
##fordi
ametis
##ask
##onid
Lar
Phil
ilmal
kreisis
käsitöö
erakonna
tunnustatud
##gik
lat
ilmusid
kõrgune
protokol
##uha
maist
Hiiumaa
pidasid
ajas
semina
kohalikud
##omi
öko
indu
veri
##ratiiv
teles
Põhjas
Washing
Konstantinoo
olümpiamängude
##näär
Läbi
##kohast
lapsi
abstra
koostis
##hein
##osad
##kommu
käsu
##stasid
troon
Milano
esialg
rajada
töötada
tekitada
##mega
maga
Tai
Mees
##steeme
valgu
##asutuse
paiknes
##niks
samb
##iestee
rinna
talve
revolut
töötavad
võimaldavad
##tub
ex
##üles
Luu
vajab
osaleda
##ühe
##baas
##erub
##nurk
Gor
##vaste
viga
nimed
aidata
vajalikud
bakalaureuse
##mõõtme
passi
##sagedus
pärand
sinine
finants
##kuning
Yorgis
tasemel
laialt
##akadeemi
kv
##lands
Mala
õhus
##pinnal
Peterburis
nimekirjas
varustatud
##rab
##miks
Tähe
bussi
Alekse
Ham
materi
hispaania
vitamiini
peatoimetaja
##jamaa
hekta
läbis
märgi
##kaja
1848
Laulu
Piiri
kohast
ööpäeva
kokkupõr
Sitsiilia
##CA
##amäe
bet
krü
##veres
##oolist
Maked
Vilni
meres
loogika
Burgundia
novembrist
##alast
##istele
võtma
Indias
minuti
tulemusi
71
##alune
glob
moel
kivist
tsiviil
vanaisa
lõpetati
sarnased
ühendati
territori
põhjustatud
##BA
##rop
GP
näol
multi
##haridus
omadus
##võistlus
bakteri
omaduste
81
##vaba
ore
tae
omast
selliste
##nah
##orina
##maailma
saartel
Maakonna
kiiremini
konflikti
×
##rõh
page
tulu
demon
ideed
meedia
##bul
##hma
##ški
uh
##hase
Sul
##likele
##damisel
kehast
juunist
Vaatamata
Põhjamaade
dž
sla
##konnal
õigused
##tung
Flo
Kab
Ots
Võib
autas
vilist
##pataljon
Keskera
##här
selgroo
sarnaselt
iseseisvuse
Hy
##mier
1899
ääre
kardinal
väärtuse
##kre
##seli
Fal
##egade
##kreeka
vahist
##komisjoni
##GB
##bon
pdf
##peatus
katset
sõlmiti
aastatest
põhjustel
RT
##ologi
Poolas
Virumaa
looduse
õpinguid
City
##atarei
Branden
artikli
ameerika
Saaremaal
tänapäevani
murd
mõnel
##valitse
Kaitseliidu
##juhi
Wer
Post
Rand
märk
##astega
alternatiiv
mahut
majas
saadik
leidsid
roheline
seejuures
##PA
##ws
##hold
kald
levis
##eskus
##roskoo
Google
tootmine
Eh
##ming
1880
islami
läbimõõt
UE
##veni
Brü
los
Kõrg
refor
minutil
kasutanud
##uv
##uutse
korv
Alles
vanal
Pierre
advoka
digitaal
okupeeri
Sellepärast
Rü
##raga
töös
hõiva
vertik
vahelise
järgmiste
##üksus
püüab
Vahemere
käitumist
skulptuuri
põhiseaduse
Teh
produ
riist
viiki
Viktor
Raudtee
vastase
alguseks
##igh
##ated
114
Kiv
toetus
ajalooline
##anta
##mmar
mars
saba
maksu
Estoni
muutuvad
Ang
##tuses
leiut
mingil
tuhande
Mõnikord
hakkavad
Ani
jälg
väit
impul
##erimiseks
##ndum
1866
muga
semi
Eestit
suletud
ühiskonnas
##öde
##ndes
osalt
asetäitja
##orn
##siin
mut
##randa
Firen
tööst
veres
raudteejaama
rö
##muleeri
liiklus
langenud
tootmise
##gli
##rie
##chel
148
aed
Berg
nahk
Daniel
##eruusale
ehitust
loomise
neutraal
tasandil
uurimise
septembrist
##rongi
##luseks
viidud
teisest
pataljon
Jeruusale
135
##akirja
tapeti
läbivii
valimisring
##bach
juhus
League
paljudel
Presiidiumi
##SD
##uju
Vis
töid
aatomi
asendati
transkri
volikogu
asustatud
##ED
##sh
##lük
##pad
##kätt
Kult
vanuse
##ustamise
kokkupuu
lapsepõl
vastavad
##tehnoloogia
õe
tehis
##graafik
ks
##majas
Lang
Giova
Santa
äärde
hoones
kantud
##rannikul
finaali
meelest
olulisi
otsusega
kõigepealt
##pendi
Kane
rongi
ikkagi
##win
kude
##terjale
Slovee
juulist
vahendusel
##kaud
Türi
apost
hilis
Paldis
salaja
Vabariigis
##mmik
##nami
119
mak
galakt
aktsepte
õpetajana
järgmiselt
##oki
##roof
##sast
##silla
King
morf
võims
tahtis
samaaeg
doktorikraadi
##mpe
##phy
##külg
##isena
##teena
Mati
##endeid
iseene
intelle
Kuningas
sakslaste
paigutatud
##adri
##nson
##pina
Koda
alge
Virumaal
avalikult
##mehha
spekt
nimelise
##vie
##võrd
epi
est
Elis
viies
ülemaail
kihelkonda
silmapaist
##koos
##kahju
mode
resta
toite
kuivat
nimetuse
Katariina
##ede
##gata
Eliz
Täis
##dumise
gravit
##teadlane
kaasaeg
kolmeks
##nor
##sky
##tees
##lejat
1897
##metega
varaja
objektiiv
iP
##gelt
##pper
##viti
##dakse
##nisse
##nessan
##vahend
kukut
Aristo
Mitmed
edukas
eksper
krahvi
vasalli
suudavad
##lega
1889
Ener
finaal
reformi
##gala
rub
Kihel
maandu
##probleemi
haiguste
seksuaal
praktiliselt
##öl
109
##stina
Oktoo
Serge
allikas
valmistati
##vasta
Kiievi
oblasti
kahtlust
looduses
kvaliteet
##ats
##nto
auhi
bänd
amino
mõnes
lõpust
esitati
elemendi
pedagoog
##lood
süve
Ph
Win
##aliks
radik
dünasti
tegutsev
armastuse
##ctu
TA
##aröö
1860
prints
eesmärgiga
relvastatud
evolutsiooni
##ār
ur
ök
une
##klubi
##gressiiv
vastuse
muutusid
##kuloo
kong
lask
##riigid
Rahvaste
kaugusele
FI
Ehkki
õppida
juriidi
kadunud
edaspidi
käitumise
kontekstis
##my
##ume
##idile
Jane
##auhinna
Nigula
kütuse
sisaldas
valimised
##kirik
plas
kaame
bioloogi
põhiseadus
##susele
elamu
pojad
##aastane
psühholoogi
##ktu
##lag
ülal
Satur
omane
ristu
süsinik
toodeti
##hoi
Kast
roht
savi
otsus
tõlkija
lõunasse
registreeritud
kd
##hoiu
Kagu
niiv
##pikkus
##nemisel
##ruktuuri
Tšehhos
mõninga
juhtimis
Napoleoni
##akal
##fakt
##fekt
Neu
rõõ
##kohti
Jour
Regi
ukra
Count
riiklik
##professor
##utt
makse
Jar
Mai
##oonud
Keisri
Saksimaa
kolleegi
##DR
##HL
##oro
CO
Ree
Kloo
Mida
elut
##semaks
osast
küsimus
Ühtlasi
liberaal
raamatut
ch
##mond
Red
üla
komt
loom
sümf
hävis
männi
##komissa
ruumis
##ooriumis
sisuliselt
Bak
amm
UEFA
Edgar
tuleva
asutasid
rannikul
Shi
Colo
Urmas
##jooksul
alistas
varieeru
##adiga
##tavate
levik
prakt
##mistule
graafi
olümpiavõit
##gy
Ny
Ada
United
ületab
Kreekas
kaubamär
kontrollida
##nbergi
##ugused
kombin
##juhtimise
sagedamini
spetsialise
##EE
##put
##saat
Cen
haiguse
rünnaku
tarbeks
staadion
troonile
##bat
##löö
##eläbi
##kaeva
kated
arenes
1898
jäät
##rigent
##metatud
##rakkude
##MA
plast
##mustest
neljast
Imp
##richi
evaku
käest
taastada
##ager
##dire
ülema
tihedus
##majanduse
uuringud
##taks
##ndida
Afga
king
##seisev
trüki
korpor
lihtsust
reaktsioon
##lani
flu
laad
suhtu
selgus
lühikest
kindlasti
qu
##heli
Fin
lümf
Belgi
näite
##teaduse
Napoleon
##tii
##keri
##ound
1892
dünaami
saarele
##ding
Rõu
dik
teis
usute
Varssa
keskse
sõnade
õpetas
sündroo
funktsion
Parlamendi
lennujaama
##auto
##oper
Pauluse
osakeste
Mot
##tehni
Lind
takt
##kaldal
nafta
interv
Haridus
eluaast
##gatsiooni
National
hektarit
harilikult
##hid
##maksu
##orist
tahes
tunde
Üliõp
allikad
ekspres
juurest
vabastati
juhendamisel
##rega
##sild
hil
##likum
tunnus
##kujuline
Giovanni
keskosas
Julgeoleku
seostatakse
##beti
##thur
##mpool
##utava
jahi
##maalse
lisada
dollari
konstit
##fic
Ky
##rade
##ting
Rad
##danud
##masin
##ansamb
##stad
##atika
##isega
##anlaste
##jaotuse
demokra
jaapani
erinevus
koondise
##valimistel
lavastaja
Pop
Fred
NATO
alasid
eeskätt
##nab
107
Ide
harve
kinnis
süsteemis
looduskaitseala
##rami
##üübi
139
mina
Black
soori
kroonika
Helsingis
Kel
Haig
Turu
nõue
konve
polaar
rakend
omaette
##bane
##rohe
Aeg
##krist
maale
vangla
reeglina
parandada
teadlased
Sotsiaalde
Stud
##gement
ühise
initsi
kirikut
##hai
her
int
ümar
suhete
kirjutada
läbimõõdu
Dev
Dig
##veski
Harilik
rääkida
##uberkuloo
eesotsas
Keskkomitee
##ches
##inse
##https
tahe
autot
##ttevõte
Pirita
hooned
IP
1893
index
mõjutada
##mokraatlik
küllaltki
##lava
118
naab
tahke
viisi
hakanud
maastik
##yn
##astu
##lenn
##vala
##mbrit
##panga
kihi
puht
##lasele
##liikme
##RE
##ito
Ron
modi
##arööpme
teoses
##rikraadi
juhatas
usaldus
tingimused
117
Son
Viki
vapi
jõuda
kõike
emotsi
väljal
toetust
##vatsiooni
programm
esimeheks
##bak
##ffe
##õpi
##sooli
elukutse
saadetud
Ülejäänud
Priit
elektromagne
##ähe
##üda
##tajad
luure
Viljand
personaal
##arch
top
võn
##rence
Võit
uurib
väljund
territooriumile
Buda
Peip
##ktiivi
##mustes
##pingut
tuntuim
sündmuste
molekulaar
##zu
1891
tagab
Süüria
Elektri
Ajakirja
kirikukogu
##ante
##kodu
##raku
Wat
koe
##ikast
õhku
Alber
nurga
##mängija
hulgast
##ndamisele
lisatakse
##sari
mono
kulla
arvesse
##gma
Bon
She
##adama
termo
Õppis
##aastase
toimib
##pidamise
tähtsust
konverentsi
kasvatatakse
Rüü
##mõist
5000
kaud
pale
Mauri
mängida
vaadata
hoolitse
koordine
territoori
nul
##avast
Bart
Kala
tipu
päevas
romaan
Afganist
Üldiselt
Jugoslaavia
detsembrist
Prantsusmaale
##jõgi
esse
võttes
elementide
>
##kui
##chte
##itöö
##oose
Lit
ebak
sein
##eeriti
Grand
ajaleht
hommikul
telefoni
lääneosas
pealetungi
##kohad
##kohas
##värvi
Loode
##atar
##ogra
Jen
Äri
1888
omaks
pojana
Jeesuse
diagnoosi
Aug
Vesi
osade
tehes
##tehnika
Komitee
iseloom
järvede
##lavi
glü
läh
##ranna
lubab
paratama
edetabelis
tänapäevase
maksma
treeni
voorus
välise
aladele
lineaar
teatris
nimeline
sekretär
võimelised
##htis
Lab
ben
##isele
##laulu
hing
ülikool
kosmoses
tolleaeg
missiooni
raamatuid
annekteeri
##itar
##tsid
Alu
õhk
##oonist
##seteks
Seoses
koalit
võimsa
aastatuh
alustasid
##olümpiamängude
##our
May
Prin
pidama
tuleviku
esindatud
##ntsüklopeedi
perekonnast
##utöö
##meetod
Kauka
keeruline
##nale
113
Ple
Nove
soom
rikkal
hinnata
##õbe
##inde
jõul
##lisuse
##raapia
##meetrit
araabia
sissetungi
ajalooliselt
##IN
##juda
##lleri
kast
andes
muist
##füüsika
##mistest
Theodor
korrald
American
gi
##atris
##onite
purje
hetero
uurimine
domineeri
elanikuga
##ned
##enko
Kus
##ajaid
Braun
trükk
##aalseid
eksperimentaal
olümpiamängudel
##lüü
ilmub
vabak
sõjala
rekordi
##fikatsioon
jagatakse
##riit
##rühm
##ööni
mas
mõõdu
Islandi
graafik
suureks
elemente
ühendada
##sten
grupp
juhat
kohus
Võimal
suurel
turule
signaal
##novi
ohtu
lisatud
##ooda
nel
##valla
Sõltu
loonud
Petseri
inimesel
liiguvad
märtsist
##aduskonnas
vallutada
protsesside
##pun
pard
Arhite
komitee
meetodeid
suurusega
Presidendi
##üli
soola
piires
tutvus
assiste
mõistis
rajasid
maakonda
toodetakse
Ai
Pel
##õidus
kahu
Üksi
##aladel
palus
##anlased
##atavate
Hooajal
linnades
##mesi
reno
abiga
koodi
Suurim
nädalat
##kari
##pilt
Hir
##jumal
##atiivne
Window
tekita
Sä
Tr
##kokku
klaas
külje
metsi
Arthur
juhiks
kriteeri
sellesse
Päevaleht
rahvastiku
##mäng
Sõr
##ktari
Kang
Tran
folk
heit
tundub
Esimeses
saavutamiseks
##baid
Musi
##amis
Fir
Lev
Suh
##magne
##itaine
jagas
Pärsia
auhind
Inimese
liikumis
ettepaneku
##mbe
Aa
Sop
Vit
pKr
Medi
Kalev
Ansamb
Kalmistu
Johannese
meeskonda
Pav
##muses
ohut
kaotanud
põhjapool
uuringute
##PI
##kli
fe
##gati
Ped
##aliik
Indrek
viirus
võidel
absoluutse
aku
nõl
voo
##jekte
##režii
Viet
liike
mulla
demonst
korrast
propage
suurtük
tähistatakse
##bil
##uer
Ty
##metus
ainsa
surve
Frankfur
räägitakse
##otüüp
##sisal
##eerida
April
##utamise
autorid
idaosas
puiestee
Riiklikus
dr
##ques
Dub
Jos
##kohal
Konrad
järgnenud
vanakreeka
samaaegselt
ag
Mõõ
rüt
Anal
Väga
foog
Põllu
puhkes
valemi
vokaal
kolooni
liikuda
kannavad
näidanud
tegelema
väidetavalt
##kos
ana
lastele
##low
##isis
##õhvi
Smi
fos
omab
nimetab
moodustub
##cas
Dr
It
##plas
978
mao
Kamb
Talle
artikkel
suureneb
objektide
##pub
##idil
##jevi
Lipu
vääri
Vigala
elementi
ühenduse
##MS
##sja
136
Roy
##ktora
palli
Olümpi
laevastiku
##ooki
##ateks
##mitri
Roma
vest
hoiab
Komisjoni
138
madu
korre
pinnale
Albrecht
valitsemise
##voo
##juti
##kkel
##ütar
##kuber
Dauga
rahvast
keemiline
põlvkonna
##idud
lume
Provin
riigile
meeskonnas
##muna
104
##ideks
tamm
Linda
Lukse
õhute
Taanis
##alistlik
Harjumaal
artikleid
sümboliseerib
##25
##ikar
Ana
mos
##ameti
##niste
##kiriku
tähte
##ajakirja
##ministriks
##orra
##mberg
##poolt
Colle
rühmi
edelas
tulemuseks
valmistamiseks
<
91
Cro
Eng
##grupp
Pole
##isugune
ülendati
isikutele
ülestõusu
##fu
Py
Ket
Kli
##roofi
kilp
nina
kohuset
preemia
jaotatud
venelased
ale
##liidi
##nitiiv
##linnuse
staabi
Journal
poolsaarel
Cu
##jali
Pit
Ruh
Ühi
##tuvad
litse
valged
peaksid
##iža
##lisem
saart
##mbridge
##ulundus
mitmekesis
Bil
pae
inhi
Sergei
okupee
üliõpi
märgitud
tunnistas
##püha
Sule
medal
naela
Reformi
Habsburgide
##hr
##ülem
Nee
Pas
Rae
alpi
faili
tohut
Walter
osavõt
##teistkümne
õpetajaks
religiooni
universaal
##vam
##tsus
##unnist
hõbeda
##projekti
detaili
seadmed
tulenevalt
dokumentaal
##arst
##kani
##mäel
1895
Vani
##liikide
saates
##erimisel
seeläbi
##õpetajana
saksakeel
ajaloolane
##ndaar
Schw
Stan
##jooksu
Artur
Keska
isole
loodes
täidetud
eesmärgil
##kot
ai
ang
rang
kalli
tõusu
isikute
##rin
##sused
Esma
sadam
võitsid
ametliku
muusikas
põi
##kohus
##looma
sammu
sarjas
vennad
kogutud
suhteid
Gregorius
põhinevad
üksteisest
Dre
osta
##ootide
kollane
liidumaal
##vend
Far
Stef
##damist
##matust
Magne
päike
Ühing
Mah
##matel
Jõhvi
räägi
hõlmas
eestist
statist
kuurvürst
täiskasvanu
##rakud
1894
Koor
Peet
lega
Lähis
Patri
tõene
veega
kihistu
pesitse
alagrupi
kateedri
kohtumist
tasakaalu
õõ
ülemaks
komisjon
##tsu
##issi
##vaal
##wald
XIII
omal
tõde
Guine
Tihti
toonud
eelnevalt
saavutanud
##bot
##mõõ
##daal
täita
õhtul
kirdes
kõigist
##way
##galt
Ner
##ääris
seeri
jätkata
evangeeli
märgatavalt
poolfinaalis
##elus
##taga
133
Rub
##mates
Leop
##tusega
lendu
Hitler
nimelt
paaris
vahetus
lahingute
valitakse
##kaani
Liik
mesi
##umiini
üldine
koostas
##instituudi
loomiseks
AM
##ffer
##meda
##amaja
##põhja
külm
paha
##terina
puidu
osakond
portree
eestlased
sakslased
kõrgliigas
põhjustavad
##ET
##olfi
##Eesti
Heino
lasta
efekti
##eel
rae
##vesti
##iguuri
Andrei
Riiklik
ajaloolise
Traditsiooni
##kau
olen
pala
##keeles
##vabrik
##vusega
Peipsi
##karjääri
lähedale
Cambridge
##any
Bä
##torn
Vict
odava
realise
vajadus
##enu
##lita
Pun
##dasid
Nico
rüüst
tsüto
põleta
ühines
##mpo
##otsa
lät
##iirus
##ituks
tung
##lemist
##atiivse
analüüs
aastapäeva
orienteeru
́
##keti
##ööde
106
Taim
ajakiri
pakkuda
Ukrainas
kasutuses
sp
##milt
Sub
##määra
Jupi
Põld
makro
raket
##kümmend
Sellise
abstrakt
vähendab
Testa
maavä
paljand
olukorra
paljusid
merepinna
Euroopasse
##roodi
Septe
järgne
kaltsi
värvit
loomine
sajandini
eksemplari
##korr
##reeg
Rahu
Mängu
Tõenä
aitavad
valimiste
##ppo
##skis
Hea
ret
ske
##utust
##venna
täielik
Austrias
Reinhold
meetodit
rakendada
korraldada
operatsiooni
##AA
##naga
Müü
##hääli
##oniga
surm
##teadur
infor
Harald
ajakirjas
elemendid
hertsogkond
Pul
asju
##ktiivne
madalam
kompanii
tähenduse
biograafiline
tiheda
kavatse
stuudio
tänaseni
##okk
IB
Mada
Franç
liikus
meenutab
kompleksi
kilomeetril
##ben
##ntne
rea
##ilast
1881
naas
##asjade
jäeti
County
punase
sarnas
##veeritud
Aleksei
eelkäija
Kirjandus
läbipaist
##ühma
Spi
keer
pist
##reeris
Hesse
##kandida
Tänava
eemale
asukoht
paavstiks
erinevatel
ringkonnas
##dil
##kõl
##mos
##foto
Sab
XIV
##adion
Inim
sobib
kommen
kirjastus
##gümnaasiumi
magistrikraadi
##ans
##ira
gu
##sumi
##tori
##kujul
Kiri
##tingim
Galli
Lüneb
levila
##meer
Fis
ope
Hend
saame
Bremeni
esimeste
veebruarist
##aksi
##ndat
103
nõnda
korras
Šveitsis
##wis
##kulu
Lae
##nberg
##vikku
pilt
lehte
põlev
tamme
Manche
juhend
mingis
sümbol
Microso
küljest
sõjalise
##EC
alu
Lipp
Port
tüüp
Liiva
Marsi
Tuntu
aseesi
tõuseb
##registri
täpsemalt
##rov
##dela
##heim
kahj
##leping
kolmel
singel
insener
tähtsus
rahvusliku
##uul
Ober
küüd
tude
Rosen
tahte
ürita
juhatus
regionaal
tulevikus
maalikunstnik
HD
Dia
##iilis
Bour
Matt
usald
harjut
misjärel
muutused
rüütlimõis
##nut
lg
Hon
varust
augustist
maailmare
religioosse
##ins
##wor
##stel
Holland
##late
##nina
Delfi
Helme
jälje
kitsa
##ranniku
eelmise
##uuringute
suuremate
rahulepingu
##kö
##kile
pop
palee
läände
kirjutab
juunioride
##lon
##õdi
##kuni
Leip
##maades
##mpiiri
##oondis
erand
saged
Amster
psühho
võrdne
keskuseks
##fitseeritud
116
Tex
Tõl
##mmeet
##olšev
Inte
katab
võitu
##aliseks
üritas
Philippe
Vabadussõjas
##ск
##itli
900
Lei
##bachi
##ngeid
1878
Peri
##atorid
##klaste
lülit
Ladina
millal
Mustamäe
parempool
võimalikuks
##tum
Colu
##oliselt
kooskõ
piirid
mõjutas
staatuse
aastasena
kategooria
läbimõõduga
##raan
##meele
muusiku
haldusjaotuse
Organisatsiooni
##22
Tsi
hel
##fondi
##ikuna
tõid
lisas
liust
pargi
puude
romaa
Paldiski
rekonstru
##alomis
jõkke
Õigeusu
ekspedit
seadmete
##akadeemias
lahendada
ülesandeid
Fu
##hast
##poja
gar
neel
##pressi
hinda
osaleb
sisend
tagast
klassis
uuritud
kõrgemal
Stockholmis
Iva
Kolle
hübri
menet
Island
profes
Viimast
eraldati
rahandus
Vai
sob
##dudes
##eeris
Anat
Ajale
Chica
leeve
kaugus
loomad
intelli
##kõik
##oome
##valu
Aad
Pes
##uudid
jõuti
maast
testa
täpne
Keskus
järgult
ajaloost
detsembri
Meditsiini
kehtestatud
##oob
##nuse
Ava
Bill
##kusele
valmistas
kuulipildu
moodustades
Sav
##steti
Ajut
fosf
stiil
väina
hektari
paistab
##perioodil
##atsioonist
##gub
##num
##uuti
aer
##paari
##koondi
Budap
maine
arreteeriti
##ão
##üüp
##amatu
okas
##oneeri
##sammas
Apost
kõikjal
autonoom
tõlkinud
väljendab
Ce
mete
vajavad
raudteepeatus
##erii
finant
Br
##ikaa
##liks
##uumi
Dur
1867
tüve
Väina
fakti
Napoli
element
kindlus
##likoolist
renessan
lauluvõistlusel
##ulo
##kamp
##rali
##istel
##itusi
##põlet
##retke
Sugu
psüü
kihti
maailm
##ahe
##jja
by
##ters
Tuh
##alaste
teatel
Indonee
##sur
##utz
Tul
USB
##ikool
##matut
kaab
kiht
klass
sattu
intera
võitja
##signaali
hooaega
sümbool
püstitatud
MK
Stali
asumi
eneseta
olukorras
##tluse
vabad
##ristide
kaarti
arendus
arengus
keskuse
linnust
Kristjan
vedeliku
mainitakse
Bas
##ikuju
##upidu
1887
Juri
##rajoon
integ
allvee
humani
seleta
ühendas
tulemuste
##ath
vt
##sehit
##usata
##waldi
Park
harm
##finaali
konden
keskaeg
tähtsusega
##end
IT
Alpi
##ptsioon
##päevast
Georgi
kiirgus
pakuvad
tõusnud
kohtades
lühikese
valdused
##positsioon
Kasutatud
Kro
Rec
kap
kaart
poodi
##sionist
jälgida
mõlemal
koloonia
##aia
##vili
Aar
Kub
Liiku
Vassi
labor
##struktuuri
probleemid
konservatiiv
##hald
olemus
alumiini
populaarseks
##tar
SK
Noo
Sin
##ugune
risk
osana
peadi
##stamist
keraami
regiooni
suurtükiväe
Joa
rönt
Stand
jättes
keeled
eelarve
##cer
##cari
##paig
##rovi
One
lõid
Leipz
ajaga
mõning
lühiajal
seevastu
##insuskaitse
valitsemisa
##ngo
Tas
jah
kilo
talit
taimed
##otaanika
##pataljoni
kirjaniku
Sw
##kusse
Kuul
ilmne
kange
tunda
Viimase
kunstnike
##hei
##iska
mah
##külje
##produ
ebas
Maale
##preemia
ekspon
jumala
planeedi
pääsenud
valmistada
sõi
##ajana
1884
Laid
Näit
Sealt
Võnnu
kodanik
tähtede
viiakse
otstarbe
##atsiooniga
ettevõtete
konkurentsi
##komb
##maar
tea
##adile
Tapa
demo
##moleku
##ritele
asendus
kõrvalt
varieer
kirjeldada
##LA
##bara
Upp
mus
valk
Kenne
##äite
Ken
##lassi
##astasid
muudetud
kodulehel
##liig
##lugu
##raud
##tana
Pie
##pedia
hetke
lõhke
##leeritud
osalevad
##hete
##uuma
usk
keis
nano
paneb
hukati
##aad
##ety
##raav
džä
##riini
Ingeri
asepre
isikut
peatus
kutsuda
##hire
##osop
Jalg
Kras
Vaimu
isikud
järgneb
muutusi
sümmeet
##maatiline
ajutiselt
##ardo
##king
##sünd
But
##inast
##latus
##nduda
kuum
Syste
vorme
##vendade
esindab
käsitleb
Filosoofi
seadusand
MA
##kiga
##agent
1850
osat
puid
vanu
##väärne
Madis
katast
Kristuse
Elizabeth
##lov
##abili
##elust
auru
ilus
Smith
##öderaal
Keiser
ehituse
paremal
Sellised
pikkused
##llen
osk
##metes
1886
Linnu
kvart
meile
piima
Lembit
arvestada
##mõiste
taani
Krimmi
peatre
##tegelane
Muuseum
avastatud
##kam
##arid
##gija
##mbur
##väed
Hun
##hnikas
remon
senti
sõbra
nimest
lahkuma
Märjamaa
arendada
muusikak
põhjusel
Reformiera
mittetulundus
##fle
##nin
##osast
Male
Ravi
värvus
##pedagoog
täienda
Bernhard
juhatajana
##či
##eeni
fen
##massi
##rakte
##teeni
Vaht
##ndajad
##paiste
kabel
algorit
Läänemaa
teadmisi
##ktsioonide
kiirusega
otsustasid
##ikad
##järgu
tooda
häältest
piirkonnast
septembrini
##ntsus
##schwe
1871
1882
lahk
##likeks
aktsi
##väärtus
ületas
Henriku
hakkama
funktsionaal
##not
##hvel
##mbki
Tat
vak
##fried
##iinide
Digit
##itamine
asuvas
detail
poleks
valitsesid
##nsk
##well
aje
##keeri
##namäe
EELK
Samu
asjad
Lõhmus
tekitatud
valitsuses
Rõ
##idis
##miin
##dumis
patriar
valdusse
vasakult
baltisaksa
##ükk
##oode
##üüdid
seik
##ralise
kevad
opera
võita
Üheks
Kanepi
Kristi
esitab
laskis
hoonete
kutsutud
muusikate
Aleksandri
ettevõtted
oktoobrini
Un
##mmas
##mori
Tel
##ritöö
Seni
fran
##raator
toimel
kontakt
võimatu
Tehnikaülikooli
##alas
##rida
Elva
Lahe
kaeb
piis
Kalle
hüper
##sekretär
saadaval
seletada
KK
Kasa
feno
sihi
##allika
igale
mõõte
neeru
pööra
Kohtla
Töötas
juhtima
Šotimaa
##revolutsiooni
bo
##jäär
##kesi
##mmel
##gradi
vaik
mulje
##ktorina
Brüsse
Nimelt
taandu
alustada
kolhoosi
kohtumise
teadusliku
täiskasvanud
##din
##dri
##mose
##ppes
audi
tõsta
##astatud
külaga
paksus
välisma
ründasid
ühendust
##ан
Arv
##lingi
##pilsi
##reldes
etapi
laenu
tõlke
vaenu
Andrus
teater
elanikkonnast
##atom
##tile
##vete
DVD
rib
Ülo
Kaug
hobu
##kaardi
Carlo
Helle
Maail
Virgi
Hendrik
kokkuvõttes
sõjaväelast
tahab
Kultuur
jalgrat
vesinik
##materjali
Projekti
lõpetada
täieliku
##cho
##ern
##umma
MHz
Wale
klii
õlle
Tõrva
ajalt
asuda
##reerida
##piirkonda
##fiili
##valge
##hausen
esitle
mängud
ordeni
Philipp
aastaga
vaenlase
lammutati
##teaduskonna
Braunschwe
sili
jääho
paisu
##aegselt
##politsei
algasid
enamuse
ükskõik
artiklis
##filosoofia
##formatsioon
tegutsesid
tegutsevad
võrdlemisi
##ugh
Fla
Ott
##härra
##ikale
Kant
Nimi
emas
Ateena
Grööni
loomist
varasem
kommenta
sademete
Barcelona
elektronide
##illa
##ngen
TTÜ
##stant
Step
adra
##dusele
##kirjad
Simon
järelevalve
Öö
##adam
##bade
##lale
##ükli
dele
##ootika
pildist
projekte
põhjaosa
transist
printsiip
##organisatsioon
Föderatsiooni
##oci
##llis
##ööda
tub
žan
##lause
seos
soov
viha
Kongo
maades
##asutuste
esimesest
Makedoonia
määratakse
##ees
aud
##ganda
##stega
##ution
Kaas
tööde
pankro
Andreas
aadressi
liikmeid
toitaine
transpor
Stockholm
tugevasti
##cci
##vig
##kiht
##lius
Mine
ruum
##semalt
##taseme
loend
ennust
vormis
kontsert
möödunud
stipendi
tööstuse
mõjutatud
hulgaliselt
##cle
##rum
SD
##rise
Art
Lub
aia
ohu
Pius
jääd
##burgis
##koosse
Jacob
Sport
##seeriti
Spordi
aeglase
Kolmanda
elanikke
##štš
##kala
Ilm
bul
plo
##elekt
##käiku
Emma
##värava
Iraani
liigas
dotsent
suursaad
kandidaadiks
Entsüklopeedi
##had
##rey
pilli
sõber
juhtida
François
töötasid
kannatada
pühitseti
»
Å
Gy
log
üri
##anuse
##hedus
1800
Kurt
baas
rest
tühi
##lisust
toetada
Vanemuise
PA
##eemi
Nik
Tie
sär
Hall
rõhu
Matti
heaolu
tulevad
ajalehte
teenistusse
##ilu
##mbo
1873
Kali
##ndajate
piirit
niivõrd
saamist
toimuda
töötatud
distantsi
koondises
##ac
##pöö
##gari
##uunal
jõel
pane
vaes
##ritest
Apollo
kukkus
ristub
debüüdi
õpilane
Hollandis
##ram
sad
1815
Sche
kiit
rööv
spon
##musest
Gabri
positsioone
μ
##iver
##käik
oda
tür
##ndiku
tark
Elmar
Küpro
toona
mitmest
kontakti
nimetust
seaduste
printsess
allkirjast
Ama
Hob
##uuris
1883
õhut
##piline
tungisid
##23
##row
im
##hani
kro
##liigi
##olust
veeb
##ckel
Net
aus
etno
##ünaami
miili
raskus
lõunapool
mõnevõrra
püstitati
Skandinaavia
kultuurimälest
rahvusvaheliste
##ksed
##vööt
##märki
endaga
##seerimise
absoluut
Läänemaal
##ич
##ESCO
##sala
##uuni
Bus
geo
##büüdi
Mina
Osal
Pfal
laama
püsis
Narvas
##vahetuse
mägedes
loomisel
Viljandis
rahvastikust
##aku
##dan
EV
Sun
##verää
Oper
müra
##kohale
sette
vanad
lauluga
psühhia
suurendab
üliõpilas
##oll
##olt
##giat
##ikogu
turb
UNESCO
panuse
alguseni
kodanike
koduleht
astronoomi
##GA
##mot
Den
Väl
nei
rõi
##album
Sand
kalju
omaniku
üksused
kaitseala
vähenenud
hor
Liht
Päri
algu
hind
##aloogi
Kroon
Panga
bolšev
tsivii
tungis
hääleta
tõlgitud
juhendaja
mitmesuguste
##üüs
dete
mänd
närvi
tolmu
venda
Hilise
küljel
aegadel
kõrguse
pakutud
vaherahu
ülemineku
hilisemale
kasutatavad
poliitiliste
«
##aluse
1830
Keel
mõrva
##nditest
augusti
mongoli
Tartumaal
käitumine
ristisõdi
OS
1864
hõim
toode
rääkis
##näitleja
protsed
lõunaosa
Õhtuleht
geomeetri
mõjutanud
##tod
##viga
Maar
Muhu
Space
pensi
soost
##valgust
draama
Hitleri
Politsei
hinnatud
kaugemale
kristalli
Sk
##tude
108
##tavat
Aser
alast
eeldab
##kapitali
avaldub
pärines
unikaal
Tõenäoliselt
##umus
inno
pilti
European
lisandus
pannakse
anatoomia
tuberkuloo
##out
##väel
##artik
##ngite
##polgu
##vaade
korp
Hooli
india
haigla
pooled
##üsteemis
lähedalt
neljanda
turvalis
valituks
#
spri
##tatakse
solist
korraldatakse
##etz
##hku
##tsa
Cas
Ainult
Aserbaid
graafika
režissöör
väitekiri
perekonnanimeks
##hki
Cy
ah
##itsa
##osade
##matest
hõbed
##alistide
magneti
sündmus
dirigent
osutunud
lahkumist
##õie
##jade
##orfi
##plik
küt
Bade
avat
kere
##mandas
kriisi
teists
serveri
parlament
lv
Kom
Pot
Kell
ebat
##muselt
Ehitus
plaati
##biootiku
ruutkil
viiruse
keskkonda
keskpaiga
##hami
ult
sundis
kogumik
iseseisev
Jeruusalemma
gravitatsiooni
##tion
Püh
##apara
##ngide
##steri
Thor
räni
seadused
Võrreldes
pealkirja
iid
##borgi
##paati
##pinda
itta
kino
##kiirus
range
käskis
##piirkond
tiitlit
kognitiiv
protsenti
kirjanduses
—
##hie
RO
Avi
XVI
##õigust
mahtu
meloo
Semina
vanade
Müncheni
asukohta
paremalt
toetasid
##EN
##kroo
Bun
##refor
Kase
samm
arvas
suusa
ühelt
##alistid
##pärandi
kuuluva
võitles
##ülikoolis
kasutust
paljudest
vastuolus
definitsiooni
##nust
##tase
Lomb
eseme
prefe
lademe
pöördu
Victoria
abielust
Tammsaare
##korruseline
Keskkoolis
uurimistöö
##ild
##reda
##sens
##pooli
##stiks
põlis
suits
teele
##abilise
hoonest
karistus
klooster
##meditsiini
augustini
viimaseks
eesmärkide
Põllumajandus
##gram
lip
##akest
##antse
##sinad
Liiv
##kanali
komöö
norra
Nimede
aktsia
restau
tütart
arendas
##liikumise
Vabaduse
formeeri
korrusel
teooriat
ettevõtja
tekitavad
##sche
##aalis
##laarne
turva
kolmes
uurinud
##tal
Õi
##erni
oru
oksi
##eruvad
Haldus
noored
raamatute
##oht
##väge
##fääri
##kaart
##vitus
koera
##hertsog
etappi
kandsid
Estonian
ülesehit
konkreetse
gruppi
õigusi
ehitama
vähenes
alevikus
turniiril
tuvastada
protestant
##rot
Mõni
vojev
hooaeg
Kuninga
hollandi
teenuste
puudumine
materjalide
ülemjuhataja
paralleelselt
##pas
Arvo
Caes
##utuste
Tiina
sõita
##akomple
Bosnia
Brasiili
haridust
viimastel
väljendus
Tšehhoslovakkia
##IC
##jäl
##piku
##väes
vol
##nerid
##stele
Raja
isot
Õnne
##otüübi
##ttevõt
misjon
iseseisva
keemilise
##mbad
##kivist
##printsi
katuse
kiirust
osariik
laiemalt
ametlikud
üliõpilaste
##adž
##oska
from
kraav
tabas
Maximi
Teiseks
Sarnaselt
##óni
##onto
##kesed
##ritus
1200
ioon
##võimet
juhid
radio
vabaduse
vahetati
territooriumist
##dha
##mmy
East
jäli
##ataval
##sugune
embrü
üksus
otsima
soovitud
sõjavägi
tuntumaid
vajadusel
ülemvõimu
Itaaliasse
##oloogiliselt
liigitatakse
##nse
AR
##proo
Pin
##liige
etni
##näärme
konti
korte
kukku
kulda
ohver
koolit
väljaan
kindlalt
lahingut
Seejuures
populaarse
##še
##rese
##oliit
Saad
##lahend
##takist
jutust
##hoos
ger
##aegne
##kauba
4000
Reaal
Rõuge
Seemne
Viinis
##teeritud
püüdsid
koondisse
vastupidi
##IT
Ee
nm
Mun
##ranti
##seseis
kaalub
monarhia
##inid
##tell
ple
##jõuna
##stani
##erinud
tormi
Loomade
olenevalt
tutvustas
linnaõigused
##28
Tw
fü
##maini
##pertu
##rinde
Abha
Jõgi
Roman
##mistele
oksüde
ravimi
tsükli
##kirjanduse
poliitilist
С
1879
liid
##kandja
looja
Angele
tõlkes
suurust
##iva
HT
Lää
1816
Pika
tüvi
tolli
interne
linnale
venelaste
##án
##ago
##dur
##gno
##alai
##susi
##naste
Kong
loet
Jaanu
lasku
pimed
Minist
leviku
tundis
vastupidav
##ón
##bla
##fika
##ukar
Fro
Hand
Dmitri
##psühholoogia
##ea
##rale
350
##ardid
uuele
Teiste
rannik
kiiruse
funktsioonide
Law
1814
rohu
##atavat
Veski
kõver
teadvuse
Christoph
Kaitseala
huvitatud
suurenenud
detsembrini
moodustamise
Riigivolikogu
~
Ts
Ges
1863
kuiv
menu
mosle
puhta
stere
tiiva
debüüt
võimsus
sooritas
edasisest
jätkuvalt
koolkonna
kooskõlas
rüütelkonna
##hm
##LKP
##lam
##mum
##ric
##ikes
##sted
##tekst
Sara
frag
jään
keld
Suurt
markk
mehel
nakat
võnku
alumine
leiavad
Esimesel
meetodid
aeglaselt
kaldajoone
kasutamisel
peaministri
Kommunistliku
##oi
##koodi
##kujut
Spar
pank
##holoog
dekor
tooni
##oloogid
arvele
poksija
kaotasid
##oloogilisi
Hoolimata
hinnatakse
jaotatakse
maksimaalne
##relli
##urina
Mate
NLKP
##ritega
Kirde
briga
seast
talli
igaüks
pojale
tulekahju
##jet
##ünna
Has
##ateid
##umile
2020
laua
toru
##uhinna
Raadi
##üksused
eluiga
koguda
juutide
laborat
vasakul
eeskujul
kaitstud
kompositsiooni
##nic
##uno
##museks
kummi
öösel
##ettevõte
tähtsuse
kogukonna
materjale
korralduse
##ст
##als
sor
##organ
naft
##ntsiaal
##vastase
jurist
suverää
kuningale
tervikuna
##kama
##nard
##rani
##ranž
##öömi
Gol
##võrgu
Laev
teab
kivik
tipus
ründas
##analüüsi
Statist
Uurimis
##gipoolest
loomingus
##sepa
kõl
pel
##kasid
panid
täitis
##koloogia
komtuur
substra
valdade
Varssavi
kohanime
kohanimed
renoveeri
valgevene
##opo
##oso
##fiil
##oomu
##rian
##suur
Ret
##ierar
1877
funda
rased
käinud
satelliit
Demokraatliku
temperatuuril
##amas
##avas
tär
##dused
Ilma
maht
##ustava
Karja
Vello
##erumine
hobuse
järvest
koondus
tõsiselt
##akirjastus
##visüsteemi
sotsiaalne
liikmesriikide
##lé
##kale
##alinna
##kordse
dekla
hääli
##projekt
##ustesse
##ühendus
Arengu
##esindaja
bioloogia
riigipöör
selgitada
##kaup
Olev
Andro
Roger
müüri
niini
plaan
ähvar
andest
värske
lahkuda
viitavad
Inglismaale
CH
##hale
##ksist
##üüria
putu
##lennuk
Algul
Katri
saagi
##otstarbe
kirjanduste
probleemide
##gend
##ridi
##rong
##rüki
EKP
Roh
##onise
Line
Talu
Green
Isegi
##seerida
Vassili
passiiv
kaotades
Täiskasva
iseseisvu
süsteemide
##avar
##komp
pähk
võrk
Donet
Götti
kasvada
keskajal
Elisabeth
tuletatud
automaatselt
##gusid
Dres
debü
##ntsuse
##numbri
Group
##oksiidi
sobivad
Tegelikult
Ühendkuning
##ør
##wen
rai
##miral
Love
Intel
toota
rekord
##relikult
andmeil
sekundit
kandidaat
andmebaasis
põhjalikult
##nnas
##ääre
XIX
##oolia
##oreid
Vari
hoiu
lina
alevi
vilje
privile
Ettevõte
Ühenduse
politseini
niinimetatud
eestvedamisel
##ław
##dami
##ikal
Nan
##andja
##hniku
hoia
Tehno
toksi
vaimse
milline
plaanis
vägivald
Meistrite
kirjandust
##bene
##musel
situ
##nkroon
meeld
staat
##misteks
Vaikse
armees
maksta
niiske
nimetama
##tani
Tos
Wür
bör
##onüüm
1806
Levi
Innoc
karva
oleme
maalis
publik
tiitel
##uunaline
hävitus
rahvuspark
##hik
##nkt
##öök
##meen
arute
külad
meist
metab
häälet
kuulda
arvutus
subjekti
Sloveenia
tegevuses
kavandatud
mälestusmärk
##rikk
##ujut
dat
estee
töölis
Nüüdisa
seadust
vägesid
magistri
miljardi
järjepide
kõrgemale
Õpetajate
tegemiseks
iseseisvalt
##bro
##duda
Eti
Lõu
vap
##mikud
##useta
1868
rokk
##ikohtu
peene
##objekti
naisel
treene
Herbert
vaheldu
kiirguse
Gümnaasium
strateegia
##gudes
külla
kaksik
näinud
reegli
tappis
Clemens
kaugele
kehtestati
##itus
##ikumi
Leho
haju
läht
visi
Gusta
laule
maksa
pikem
##ktoriks
Ungaris
toetavad
suurimaks
arvestades
eestistamisel
Aas
sõb
Koidu
juhtiv
küüdit
ametiko
Sihtasutus
##arva
##atse
##bula
Jev
Sie
##alale
meid
Laine
model
##atoreid
Koolis
suhkru
##oloogiast
allikate
looduslik
subjektiiv
restaureeri
##bä
Not
1865
Nige
vette
telesa
Klassik
##dineeriti
kodusõja
Polütehni
seisukohta
tagasihoid
NHL
ürg
##juhid
alle
ruud
##erisid
ladest
Madagas
mängima
tänavalt
teaduslik
tegelevad
##nai
##inen
##jatel
Cent
Lübe
kaja
##entius
##erides
kaela
kutsub
maatri
metsas
Antonio
Sellist
peatege
romanti
kirjutati
paigutati
väärtused
##27
##cto
##nuel
##lasega
Böömi
Kulla
infra
erilist
kiirelt
noorema
seadlus
telefon
käitumis
elektroon
paljudele
kinnisvara
##küsi
##kaalu
Gott
aspi
##juhina
parki
##meetodi
väitel
saabunud
sõltuvad
vajaliku
Egiptuses
sünninimi
Ray
##rünna
##villa
Sirp
Õppe
##utanud
Erich
taasi
##mehaani
Veebru
liikuma
rünnati
küsimusi
lennukit
märtsini
piiskopiks
##teatri
lõike
kogust
märksa
toodab
Frances
History
teateid
saabusid
arhitekti
teadmiste
moodustunud
administratiiv
##vits
1861
Play
milli
riiet
varia
##gevuses
##haiguste
##teaduste
empiiri
võrrelda
Gümnaasiumis
##dika
Fle
##rites
Engel
rubla
##allikas
eetika
tserem
Linnuse
kergelt
võideti
##visioonis
nimestik
säilitas
kaasaegse
##zzo
##sugu
##teni
##vähi
Lüh
##ensis
tsir
Antar
immuu
jõust
seene
dirige
ehitis
garnis
kammer
tunneb
##menteeri
preester
ekspeditsiooni
Füü
##müüri
1840
##hoones
konsul
mõnede
Benedic
sõdurid
millesse
vesiniku
platvormi
süsteemid
majandusliku
IBM
Anni
Mare
##lavast
Kauna
vedel
##uguseid
Jaapan
koopia
laevad
korruse
loobuma
hävitati
##sate
##nitsi
Esse
##ngaste
hoole
keeli
ideede
seatud
parameet
keskendub
##dr
##hre
Cre
1872
USAs
##ndites
taase
Kolmas
linnud
märgib
sisest
aspekti
kindlat
kohalikku
omanikuks
##21
##telt
Hur
osi
1869
Peaa
Ilmar
Mitme
kauem
regul
jaotus
jäetud
seisis
nõustus
põhinev
suunati
novembri
põhisead
andmebaas
##clo
Emi
den
##füüsi
##ovski
Norma
sõrme
aineid
kohalt
liinil
Keskuse
lapsena
Ettevõtte
ümbritsetud
ID
1876
Sele
helik
kütte
##sektori
labori
perspe
tööriist
kirjutama
membraani
Saksamaalt
##oid
Rö
##aküla
##ariumi
pidev
Kuidas
Tšiili
soovib
mängiti
teenuse
ühendid
elektrit
##teenistuse
homoseksu
##gr
##leva
101
ron
Pikk
Schö
##albumi
Stein
Studi
harju
leegi
rikka
##muuseumis
täiendas
Lüneburgi
Perekonna
opositsiooni
rahvusvahelist
##zon
##oost
Tot
##atuda
pisi
puru
Parte
ravim
ratsion
võtavad
register
tuhandeid
##26
##mato
Sut
##etšee
##goori
##randi
Bert
khaani
sobiva
ühingu
##tegevuse
kaasneb
staatus
Tartumaa
eksistee
eluviisi
tähendust
Brandenburgi
BM
Lö
##raat
##sand
Cho
amb
##minal
##venti
Doon
jada
mind
##kohaks
koomi
normi
##võrgust
Lihula
paikne
esivane
Peamised
isikliku
järgmisi
sündmusi
##piirkonnas
President
kindralma
töötajate
##bre
Õhu
Bori
Tech
kants
##demokra
raketi
üksiku
##komisjon
suurimad
kontserdi
Tallinnast
teadaolevalt
Á
##evu
##cken
##rang
Kai
Rit
Meta
nõrk
ärat
##gevust
Oscari
tundma
kaitset
suutsid
kriitika
loomingut
tuvastatud
##miri
##mmal
##umäe
ATP
BBC
Alas
Open
Sven
Tour
##mplitu
##utused
kogum
korru
kuive
Varsti
##register
##vaheline
ajalehes
rakendatakse
lih
##mburg
tiir
Music
##juhtide
##vabriku
Maakond
omanikud
filosoofiat
ut
Aud
Jel
##ester
Vilja
pagan
##pindala
##omeetria
kaitseb
kujutas
käsitsi
omadust
mobilise
seisundi
##fos
pig
1849
Minu
Associ
Assotsi
allpool
skulptor
medaliheit
käsitletakse
##istrivõistluste
##Si
##hana
##mass
##utis
Lis
suvi
##osakon
##ternat
Villa
jätab
pöörde
##majandus
##siooniga
olevaid
seisund
kirikusse
rahvuspar
vabakutse
##uva
##base
##nuks
##taim
Gib
Til
##tusse
lille
##ktiivse
iseenda
raudteel
Innocentius
linnavolikogu
##RA
fä
Idas
Mani
##reerib
##teoori
grani
Iraagi
Jeesus
depres
seisab
ungari
aprilli
tugevad
kalendri
##now
##zel
Zi
##sine
##tehn
##voli
##chaft
##tidel
appi
##raadio
Endel
Hansa
Vatika
jäädes
##steemist
võõrsil
lepinguga
##EA
##õhu
die
Köni
Rock
##lustest
##onaalse
##taimede
asuvate
kandnud
lähevad
reaktiiv
õpilased
aprillini
lainepikk
Top
Bere
Kore
Kasah
Rober
algne
katte
ümbere
majanduslik
##pot
##võl
pp
Ene
Usu
##hases
##lehed
digi
isas
##nditel
Flori
Väide
külade
saamise
alkoholi
eestikeelne
##alja
Bet
dii
##alase
Ühel
büroo
hierar
nähtus
omavad
tootma
ületada
lahkusid
##TP
##tia
##jaal
Bad
Bis
##raine
##teede
1859
heide
##ülikool
tegelik
germaani
ehitamist
tunnistati
iseloomustavad
##chs
##vedu
##kvali
##skaja
Manu
kost
null
Kasut
gener
kõnel
nimis
suunda
dokument
vahetada
elektroonika
##ych
Ten
mot
##loomi
aatom
alagru
Balkani
Premier
arutelu
restora
vahetas
värvuse
aktiveeri
seepärast
##sey
tunt
Kunda
Veebi
suund
istung
lihtsam
planeeri
soovitas
füüsilise
järgnesid
kuningliku
matemaatik
jumalateenist
Wel
jpt
tai
##atead
##pakku
##mbergi
Fland
Popul
hüvit
moodu
Naiste
asuvat
massiiv
mehhanis
esitatakse
tulemusega
##bona
##hall
Rze
hül
##suses
1826
Täie
inst
poee
korja
Henrik
vahetu
algatas
pidades
suhtlus
lahendus
viimases
Blo
##meist
Atla
ukse
##vusest
Detse
halli
jalga
metro
##nduseks
arvust
kandma
kitsas
lõpule
muutuda
põhines
substan
toodete
##latsiooni
inseneri
Aserbaidž
kindralkuber
entsüklopeedia
##rado
##udus
Mus
Web
##holmi
Endi
Kaasa
ained
haava
käigu
puhas
sooja
##ikoolis
filter
jõgede
asendas
konvere
objekte
kampaania
tingimuste
taasiseseis
##zar
sy
Tab
##osake
##plaadi
Vahel
haara
nälja
tunti
##erumise
kantakse
valduses
riistvara
võimalused
regulaarselt
##avä
##ider
1875
Cast
laulud
suguvõ
Belgias
Firenze
kolmnur
modelle
sattunud
tähistas
##ор
##uki
##fond
##itule
##nstit
1600
Gold
Allik
pinda
soosi
Protse
Punase
Record
nendes
arvamus
neljaks
emakeele
missioon
planeeti
üleriigi
stabilise
arhitektuur
vältimiseks
##koe
##ilis
haua
efekt
jõulu
tehase
õpetus
üksiki
Montene
##üsteemide
Seevastu
otsustab
tuntumad
demokraat
kirjeldus
Ministrite
põhimõtteliselt
##ah
##rt
##til
SI
##gens
##onit
##raaž
Syd
##ardia
##idiga
##liiki
lind
orus
ühil
Rzecz
ketta
poiss
euroop
Society
lindude
tahtnud
kuningat
määratle
nimekuju
novembrini
õl
##ving
päde
võlt
Frede
Liber
Oktoob
teleskoo
##49
##kvi
Bol
Tes
##stest
Schi
with
Acade
paras
tõmma
Samuel
luteri
teavet
millegi
tugevus
üleujut
##piirkonna
##utamiseks
loenguid
lähtudes
teadvust
katkestas
kindlustatud
ae
##hiir
Mõt
ade
##kirju
##raste
häda
##haanik
##paberi
täite
assotsi
ulatuvad
vastutas
defineeritud
α
Kõp
Sor
kae
1862
tehi
allus
endas
harvem
Filipii
juunini
halvasti
püütakse
ühendite
järgnevad
mõõdetakse
radioaktiiv
seisukohast
talupoegade
##gendi
Mand
Spor
Keemi
kogem
teket
Räpina
lubati
juulini
##seerimine
Pärnumaa
sünteeti
Peamiselt
Keskerakonna
##US
##die
##fel
##jer
##hias
sov
##andida
##häälet
Moldo
Peruu
lõhna
tervi
##atorite
astuda
kahele
algkooli
Kongressi
sümfoonia
funktsioone
valmistamisel
MP
tip
##aleid
##ngast
##üüdud
basi
rõhk
Saarel
metood
slaavi
üksikas
Suuremad
poolsaar
niisugune
rahvaarvu
protsessid
väiksemaid
##rii
AC
jo
Tiiu
horm
kana
##oonias
Peagi
Emajõe
kaugel
keelas
Kuusalu
hakatud
räägivad
##fot
NK
op
##ahel
aina
Jaama
mulle
teede
repres
##utunnist
huvides
pääseda
ründaja
tüümuse
Rzeczpos
Slovakkia
##atesse
Vaata
tappa
võtme
Doonau
eraldus
##29
##VD
•
##egid
##sure
##uges
##olekut
##uguste
briti
sundi
##telefon
hävitada
Kunstnike
agressiiv
tegelenud
##nce
##dale
##ohus
Anu
sund
##matute
ohvri
sirge
suubu
College
Toronto
kasvaja
millised
eksisteeris
##jur
##rent
Pir
##antsu
tarb
tüli
Julia
kadus
matka
Jacques
Võrumaa
elektroodi
uurimiseks
ajakirjandus
##suh
pH
##avate
Brit
Vide
omas
orja
peas
##üütide
jõest
küsit
##pärased
haavat
##vkomitee
Vikipee
asetäit
##vahendite
näitasid
sõnadest
Kaubandus
Cam
Rio
Vie
nak
##vusse
filt
##likuna
Archi
Etioo
Tarmo
foogt
publi
##ajatele
Vändra
riigik
jõudude
sarnast
litsentsi
väärtuste
antibiootiku
fundamentaal
ajakirjanduses
konstitutsiooni
##mara
##orni
##võrk
##lehte
taba
##piiril
Jaanus
eu
##sõnu
##torni
Teaduse
auastme
immuuns
keeltes
loobuda
mainiti
objektid
teadlaste
vallavanem
mälestussammas
##siit
Bob
Hin
Rid
##atuur
Paju
Laure
Proble
täidab
##kunstnik
eraldab
filmides
kõrgeima
##võistluste
elementaar
##ás
##pha
##ööv
##bast
##cial
##kaan
##rake
##arjas
lamb
##gooria
##mateks
inspe
##protses
Kaarel
kummal
##valdkond
nendele
statisti
hüpoteesi
lubjakivi
tsaaririigi
##kavad
Tegu
püüti
soolo
tõrju
ungar
##jaliige
laulis
natuke
palvel
Tirooli
korpuse
treener
Margaret
vojevood
kolmandal
õpetajate
järjekorras
##ía
fo
##dovi
##unne
##erima
##mmiku
##tende
Part
White
küpse
Lenini
kontra
reisis
##riikides
Alexand
molekul
seadmeid
positiivne
##až
##noo
##biga
##bour
##ides
##ispa
##nise
##wski
Möö
Vää
ulme
kavas
mäeti
pealtva
kontserd
elektroni
kuuluvate
ohvitseri
seadusega
suuremaks
varieerub
iseseisvaks
##yg
##lak
Cli
##aegse
Saue
##pinnale
kaalut
tausta
Saturni
mõisast
vähemus
##menetluse
minister
praktika
eesmärgid
teadustöö
sätestatud
haldusüksuse
##alin
##harm
##inis
##tent
veo
Kaja
Mong
Natu
Sild
##usliku
Nelja
mõõta
##onaalne
Kihist
Külast
hoitakse
hõivasid
reorgani
terminit
keskendus
aseesimees
tootmiseks
##dul
##psed
##vani
##view
Bay
##lusse
Konf
Ruta
hamba
oskus
puust
##tööstus
pardal
rajaja
tootja
##vahelise
Tiibeti
pärinev
reeglid
suurenes
peakorter
iseloomulikud
##org
Ci
1874
Blan
Sard
kali
##karika
##klased
##aliselt
Arvest
pärija
mängude
vastast
arengule
registri
teadmine
Microsoft
mõningaid
õppetooli
geograafilised
Kunstiakadeemia
Sz
##kett
##omon
Rau
Hoff
Kolu
liin
omaga
##diviisi
Draama
Punane
Viimsi
alevik
suunal
ukrain
Koostöö
kristal
soojuse
Columbia
eelistab
##arna
##aliga
sääst
##poliiti
Laiuse
rindel
##keelsest
Leopold
hävinud
monarhi
Portugal
Viimased
piirangu
võitlust
##lab
Bö
Dž
##omad
##reem
##tute
Nõu
##aster
Harv
sulg
Jaros
piire
Margus
kumbki
##kiirguse
kellegi
pooleli
##bioloogia
valdkonda
##öderatsioon
pressiesindaja
##dži
Ram
Neli
##riaadi
major
portu
##ünteesi
alused
ettenä
elavate
sarnase
Praegune
keskkonn
pälvinud
sõjaväes
avalikkuse
##cri
kaa
##uudio
Komp
kerki
peatu
riide
##paistev
##usataja
tellis
tänini
kasulik
tähtsaim
ülesannete
##kaa
##ors
##pank
##rell
Cru
##tiini
##ööstus
Asula
Mehhik
##kirjanik
keskkond
sündmused
debüteeris
määratletud
##när
##üüpi
Weh
##päras
Oslo
immi
suht
##search
##õpetuse
Baltic
majand
pääste
öeldes
Berliin
distsip
jagunes
asendada
sündisid
metallist
otsustada
tulenevad
vallutati
##fs
Dy
##kuul
Rää
STS
##hapet
##sõidu
Aino
punkte
##ühingute
antiika
kujutis
toetuse
peremees
põhiline
ümbritseb
saavutatud
##müür
##naat
Jõel
hiid
fassa
Karoli
Vormel
äärmus
##muusikat
põranda
valkude
selgroog
Euroopast
##peo
Tööstus
looming
mõõtmed
Võrumaal
ainulaad
kaardist
juhtimine
##how
mg
##voor
Eve
##cklen
mage
tuul
##allide
##ristid
ideid
nähtu
teade
terav
##osfääri
##kompanii
Meremaa
viimati
aatomite
väidavad
Benedictus
β
##ivar
##feldi
lõig
tagu
##aastal
Ferna
##chichte
isotoo
kaastöö
kunstis
##meistriks
kuberner
materjalist
ümbritsevad
tehnoloogiat
##ļi
##ajat
##hust
Him
auk
Jala
Kara
glük
puhk
baasi
joogi
hoonet
kaamera
teisiti
üksikud
Lasnamäe
kaitseväe
kõrguseks
kindlustus
spetsiaalselt
##kaste
Erist
aastad
oleneb
Rakveres
toituvad
isiklikult
##mö
##ер
##ono
##asaa
##uuta
##kesta
1820
Bent
Nais
valku
##visioon
Pariis
kaubanduse
##gni
Tit
##damis
##fekti
##ngist
##sikud
1856
José
##hooned
##kovnik
Viker
paind
pilte
venti
Victor
kokkus
Sõjaväe
kogemus
käsitles
tegelane
eemaldada
tõenäosus
piirkonnad
väljapoole
koalitsiooni
##на
##zis
##seen
##vaja
##raapi
##stide
Life
kalu
kitse
majut
jätkub
naistel
seekord
avaldada
takistada
vahendeid
ministeeriumi
##huvi
##tuit
halb
##linast
kuuma
seede
Bundes
Nerman
naatri
asustus
hukkunud
tunnused
mitteamet
Aristotele
##fen
##gin
AN
##iine
##ürit
Gul
Tõe
Wie
lep
##kkide
##uuria
##vajad
Lehe
kuva
##masina
Herak
köögi
Vallas
budist
laskur
mägede
refere
sisust
##pidamist
Poliiti
külalis
paiknev
pikkusega
Tehnokeskus
GB
##bury
##erid
##hääl
Aqu
Kate
Kärd
piks
õhtu
##keemia
##metest
##stikku
Tamre
intro
langob
Charlot
tänavad
lähtuvalt
mehhanismi
täheldatud
näo
##utult
6000
Sala
ugri
äsja
neela
hoidis
viinud
Ettevõt
tõendeid
inimestest
populatsiooni
hinnanguliselt
##eid
##orum
##rupi
men
##ikaitse
##ndustri
lähtub
tankit
valgud
vaatlus
maapinna
rahvaarv
keerulise
##AP
##ux
iso
##ative
Artik
##ustamis
##ööstuse
käisid
vormid
aeglust
eripära
linnaga
sekretä
tugevat
näidatud
poliitilised
##loomu
##taali
Vaik
pagu
rasv
häire
##kontser
Villem
päästa
komandö
vaielda
lõppenud
virtuaal
pealinnas
erinevused
ootamatult
##iin
##jani
##sime
##viki
Kää
##vitši
Igor
Mais
Rose
lade
##mootor
kaldu
minev
sulest
Toompea
integre
vedelik
Britanni
konsooli
põgeneda
dokumente
käsikirja
liivlaste
suurvürst
õppejõuna
mütoloogias
majanduslikult
##gla
Cra
Sud
bee
##vöönd
Side
##visjon
##märkide
Karksi
konser
Päikeses
kodusõda
mängivad
valitseb
Seepärast
ohustatud
väljapaist
##kko
##verä
Hul
apo
Linu
endo
##tolema
Ameti
häiri
telje
kaalus
Haapsal
linnaks
mõistus
trükiko
nüüdseks
üksteist
sümmeetri
##instituudis
Madalmaade
organismide
televisiooni
##hii
##ssal
##nelli
1700
Mana
Raha
mäed
sigi
##märgid
##nastik
Kopli
serva
##loomade
juhtus
eristab
monument
ülevaade
ehitamise
Rahvusliku
kujundatud
Keisririigi
demokraatia
##käe
1810
Sepp
aksi
tões
##ainete
Olles
meeli
samad
tulet
Antsla
rahvat
ähvard
surmaga
rohkesti
saavutasid
##tai
##bust
##ajaga
Seri
inva
raua
abiks
parad
veski
tegude
Chicago
grammat
tsivilis
ebaseadus
patsienti
vigastada
Montenegro
valitsenud
mälestuseks
õhutemperatuur
##mic
##rud
##ühm
EÜ
up
##idla
##ppen
##ments
Jorda
Tähtsa
asulad
haldab
loomaa
maksis
piisav
arhiivi
justkui
kõrgkooli
##kop
ep
Dun
Teo
ann
1857
akva
##arvude
##kidest
klavi
Maroko
reljee
Karjala
tootmist
keskusest
linnamägi
rügemendi
kunstiajaloo
##aagi
##hara
Uur
##hinna
Muse
Niis
jões
##mation
Massa
auast
fossi
Guinea
lojaal
lossis
Science
elluvii
mõisale
publiku
aastaste
akadeemia
diferentse
uurimisega
filosoofias
##akte
##dile
Mid
upp
##ngeri
Siim
Loomi
Singa
epide
naudi
resol
Stefan
Uppsala
##kirjandus
##maatilise
Jupiteri
sisaldus
ülesande
Kristiina
bakterite
molekulide
pealkirjaga
Looduskaitse
##IK
##RT
NO
Int
Rin
Võt
Ever
Luga
etapp
rütmi
##ohvitse
##tolemai
##üksuste
emigre
püstitas
sündmust
##sioonidest
positiivse
##arhitektuuri
erinevatest
okupeeritud
##ugus
äge
Demo
Eric
brit
tree
õied
Times
magus
plaat
teabe
aristo
ideaal
uurima
abikaas
organiseeritud
##paak
Sõp
##kihti
neur
##deleid
##plaati
tajut
antiik
idaosa
mõjuka
##likkuses
Debüüdi
erineda
##oloogilist
varasemad
teenistuses
usaldusväär
vanemteadur
##kle
##sea
##anid
##ello
##ndur
Bio
Inc
##aride
##tusel
Göte
##kuulut
Antud
Jones
riike
##astabiil
##eerimise
Liiduga
lugusid
keskendu
kollakas
vastutav
##kondlikult
kasvatada
puudumise
doktoritöö
##ateaduskonna
Kasutatakse
fraktsiooni
paigaldatud
##akat
##pten
Aus
Kare
foot
sari
Evald
Lehed
Toidu
leppi
sõpra
##linnast
##samblee
ilmneb
repertu
dokumenti
kirjeldatakse
##iker
##kõne
Moz
Bost
Leib
võla
Kolga
Lange
miski
##korpuse
Mandri
seadis
##võitjale
amplitu
Harjumaa
konflikt
lähedane
eeskujuks
vahistati
õigustatud
asutajaliige
##ев
Ry
##vees
feo
Arhe
gooti
pepti
tumed
lemmik
trummi
koguses
nimekiri
põhjused
Esimesena
klassifitseeri
rahvusvahelisel
..
##ella
##heda
...
Grü
prü
##ntsis
järs
kane
süüa
Loren
Marko
Olden
kohvi
taand
Palest
suudme
teavit
##CD
##erü
##mark
##naal
##ohtu
##otti
##kasvu
Küll
North
jahut
merel
Sander
endised
kitarri
kõrgelt
pinnase
Ptolemai
osakonnas
kubermangus
##RC
##cts
##lib
##gaga
Vid
##field
1807
ante
base
sino
##lisugu
Walesi
laengu
loomadel
raamatud
vajaduse
##valdkonnad
##võistluses
Pärnumaal
juhatajaks
Afganistani
eksisteerib
funktsioonid
valdkondades
Oh
SE
##kter
##ntis
tao
##katte
##raalne
poisi
arvuga
teadur
küllast
Leksikon
mitmetes
##volutsioon
võimaliku
programmeerimis
##onen
Ora
##lismi
##pikku
sina
Lapse
lääni
paber
talus
##atoliku
Boriss
Väikse
sõnumi
olemise
##ndamisest
Interneti
nimetanud
tähtsamad
iseenesest
negatiivne
okupatsioon
mitmesugused
##ON
##üür
PS
##esui
##rabi
##basti
##nikas
immu
lahus
pidur
taimi
##kaitsja
märgist
sõdurit
Tartusse
kaugemal
sätestas
kolmandat
orbiidile
sekundaar
sugukonnast
Rahvakomissa
kodakondsuse
Jas
Jur
für
##klaho
##polis
##õppes
Saab
kärb
mehi
muul
##gelane
lahes
tenni
ühtki
müüdud
saadab
##turniiri
Donetski
intervju
kujundas
kehtestas
vastavate
keskpaigas
projekteeris
Fj
##faali
##laris
1795
Sokr
rock
süle
Malta
alama
arhiiv
immuun
võimet
##leitnant
natsion
Septembris
kirjutasid
võistlustel
##ен
##isiku
Arag
##nerina
##objekt
Radio
käima
mulda
opere
olümpia
##vabariigi
aktiivse
sajandit
##cos
##luss
##rohu
##tegu
##äili
##ühik
Nie
vin
Camp
Koit
Sant
Maksi
serti
Mihkli
Rebane
##häälingu
##kolleegi
Tervise
esemeid
korrekt
nimesid
vanuses
õpetuse
vahelist
haruldane
uurimisel
kitsarööpme
##ikk
##cyclo
##sküla
allo
muld
Harku
luges
Louise
Oklaho
küljes
paraja
värvid
##ujumises
##vastaste
Albaani
kaotust
kaupade
linnuli
nädalas
soovinud
liitlaste
piirivalve
##sum
##utõ
##lica
##more
##asias
##chten
Kuju
Harri
akust
##mistega
Schles
varast
viiest
võimud
õnnest
auhinda
mudelit
töötama
veehoid
Pedagoogi
##yne
##puri
##ralt
##tuli
##veli
Mei
##briga
##pruun
##ruses
väin
zool
##ulatus
Alice
joone
tähed
##orgaani
altari
uurija
##oonilise
Windows
vallast
Vahepeal
protesti
öeldakse
teadaolev
teadmised
kolmandaks
gümnaasiumis
##ish
AB
##umil
##lahut
Vaid
ajada
lindu
Michel
Proven
kallal
keskne
nõuded
pannud
temalt
##eerimine
##keskuses
##üsaatori
heatege
punktis
Tõnisson
Kirjanike
maailmameister
Gab
Koon
hiil
##oodete
Seits
jaota
penal
rassi
tähis
##utsioon
tohiks
tohutu
lõppedes
alluvuses
positsioon
relvajõudude
##IDE
##stro
##origa
##raavi
1823
Abra
elat
##nemata
Laane
kulub
oreli
veest
Poliit
##ikomitee
##nemisega
isiksuse
jätkasid
ringkond
vahelduv
##sioonidele
Rzeczpospoli
kommunistliku
##mbu
##buse
##hone
##kina
##ngla
##tene
Bes
##fitsi
##innalt
Pomme
pulma
tõuke
##vastiku
kinkis
raamist
võrrand
aastased
paisjärv
Manchester
piiskopkond
##86
##far
##ère
sö
##otsü
##rose
Nil
Sky
nut
##ukarü
comp
hõõr
araab
##mendist
##poolsed
Katrin
Mõiste
aastaa
geenide
ravimite
taevakeha
teenuseid
võistluse
võitlejat
##ümpiamängud
##OL
##borg
##tset
Juan
Kõne
Pare
Witt
kokk
##litaar
vähese
Haljala
haiglas
rangelt
tegurid
paremale
##akia
Ore
Uru
##häire
##lanna
Guil
Main
jõed
staa
toel
õhur
##musele
eelis
glüko
turul
##järjest
##meenias
##vastane
Austri
Buddha
astero
vastus
##üüt
##dude
##ition
auni
dest
olet
##jaline
Relva
Theod
##ündinud
juudid
pastor
rahuga
##ümmeetri
##keskkonna
autorite
juhtinud
krahvkonna
reguleerib
##hur
##nõi
Mö
ii
##moon
##onna
##ruum
##salt
Bog
##itava
tuum
surid
uskus
eestko
hõimud
jõudes
Aruküla
harulda
kliendi
alternat
föderaal
komandör
nukleoti
põletiku
suudmest
protsesse
Kuningliku
##biit
##othe
Bou
iks
##avald
##naadi
Eura
Liis
atel
kael
Pauli
kõrbe
kõrva
pihta
ületa
##pidamis
senine
##asutused
keskaja
laevade
muidugi
terrori
##konnaliik
mängijaks
moodustuvad
ša
##pead
##jaolt
Salz
Vasa
##päevad
Sinna
söögi
tüübi
meelde
Platoni
indeksi
töötati
Võimalik
kihistik
ebastabiil
Ajalooliselt
sõprusmängus
tuberkuloosi
veerandfinaalis
##imä
##phe
##kood
##urea
##useni
Peki
René
##tavaks
heina
mehit
otsib
muutes
tumeda
Peamine
##atsioonil
valmisid
algkoolis
tehnilise
elektronid
mõistetakse
registreeriti
kontseptsiooni
##99
##zes
##ataks
##ootsi
1803
Scha
aegu
veni
Mõnel
hirmu
kasvuh
katsed
saatus
sõdade
näituse
põhjast
uudised
vormist
Budapest
riigipea
süsihappe
tegutsema
Luksemburgi
lahendamiseks
##zy
##roop
ane
Jões
Ross
jaos
mari
serb
##atasid
##lahutus
Piisko
jookse
mõistes
##võistluse
nimelises
vaimulike
järgnevalt
väljakaeva
juurdepääsu
põhjapoolse
##cca
##hila
Prix
istu
Felix
Kutse
Minnes
langus
määrus
vabaks
Jõeläht
jutlust
korvpal
mängisid
##enteeritud
teenistus
absoluutne
taastamist
tagamiseks
`
##cks
ET
##ffen
##loom
##eruda
##plaat
##ührer
Maan
mäss
##usaada
malev
väita
Carlos
Enamus
alalis
asumid
mõlemas
vastane
ebataval
liikmena
takistus
ühinesid
ülevaate
rahvuslik
jaamahoone
poliitikat
sünnipäeva
välisminister
##jot
##dorf
##tise
##vida
##wood
##puude
##uurid
FIFA
akna
eksp
plii
tšeh
##liigid
##utusse
Teater
huvide
peakon
Kindral
saaksid
samamoodi
lähenemine
Üliõpilaste
##gos
##kia
Ans
kih
vms
##oorne
##õpeta
Dire
põik
Ninte
lausa
merre
tööga
vaaku
troopi
##lemiseks
##ühenduse
kasvama
kogunud
kutsuma
leiutas
paremat
peamist
punakas
Erakonna
sõlmisid
jätkusuut
produtsent
kirjutatakse
##att
ac
##avat
##gang
##meru
Pia
Kaub
pead
põõs
Liver
Praha
manda
ühtse
##ettevõt
juured
kompro
Mecklen
infrast
jaotati
variant
Augustis
Provence
õppekava
dokumendi
humanitaar
kesklinnas
loodusliku
tähtsamaid
jalgpalliklubi
##ikak
##jalik
1846
1847
Frei
Mäng
##ndusse
kredi
omale
saabu
suhet
tsaar
Meelis
laienes
otsuste
paaritu
taastas
taustal
tähenda
konkursi
intellige
koguduses
kontserte
universumi
##cio
1858
Eber
Lake
Savo
Babül
Royal
##mängude
grammi
kohata
ristkü
läänist
maapeal
tõeline
##vahendeid
otsuseid
ülesanded
moraalselt
tagasiside
##hise
##tina
til
##vande
elli
pate
##ehitus
##toreid
##vanema
Tütar
slaav
unist
##dünaami
France
peatük
kohtunik
jaanuarini
Sotsialistliku
##xe
##näge
450
Ado
udu
##vangi
1855
Ivar
Sofi
Sigis
General
Oluline
redutse
Festival
jäädvust
raskesti
toetanud
vaidlust
viinamar
esilinast
kodanikud
Kirjanduse
Ameerikasse
##meks
Asu
net
tõm
zur
1813
Kiir
itaal
käsul
##hauseni
##sionaar
sealse
##programm
peadire
poolele
Komisjon
ettevaat
krooniti
paremaks
meetodite
transport
keemiliste
komponentide
##yt
Sve
Uga
##klori
##oniks
Toot
redu
kohad
laval
loeta
naisi
tõesti
viivad
Valimis
mudelid
Vilniuse
sellisel
tugevuse
kaunistatud
kujutatakse
##mpa
##guay
##ngad
##taan
Glo
kot
Jack
Vere
maat
skee
tiib
Jaagu
Raivo
algse
hüppe
püsti
##looduse
seondu
##leksikon
##vahetust
Frederi
budismi
Ekspress
teemadel
vanuselt
Oktoobris
esinemine
koolimaja
esindajate
##jaa
##dias
##faat
##kaga
Nas
eki
sop
Keva
leiu
truu
##seeris
Lossi
lahte
palja
ümmar
Kambja
Tuntud
ruumid
nüüdisa
ulatuda
##ikarjääri
##turniiril
muutmise
vastutab
Jõelähtme
erakorral
ülemaailm
põllumajanduse
##äie
##idul
##üüri
Ton
Saku
Õied
##nergia
##taimed
Edela
XVIII
ooper
##nimetus
ainsaks
läbivad
maadele
keisriks
parajasti
##Cl
##alg
##xkü
##stes
##kants
##ntsed
Märt
mista
##oondise
Jürgen
Kaarli
kõrgel
nimist
valgla
vääris
Alguses
sidemed
Francesco
valdkonna
valitsejad
##atsioonidega
Biograafiline
taasiseseisvu
##IM
##midt
##niti
Mir
##duses
Piet
müüa
nuti
žüri
##jateks
##päevas
Sarja
##lustele
valget
kõrvuti
õpilast
##koondises
ümberehit
Association
mitmesugust
poliitilisi
seisukohalt
##cen
##alse
Aav
##nisti
##soost
Plan
Poeg
auli
Robin
bulga
kaare
tegus
##medalit
kaotus
silmad
õnnist
apostel
režiimi
instituut
omavalitsusüks
##gava
##unde
##urme
##usku
Cel
loa
Free
Ateen
jagab
##laagris
Spring
Hamburgi
lääneosa
koondunud
Testamendi
eraldiseis
kohustused
riigipöörde
Viljandimaal
populaarsuse
##NAB
##got
##maga
##mede
##rica
##rust
hai
Test
heeb
komm
spin
võlu
salli
Õigus
Kirjut
ekstra
Ajakiri
hävitas
avaldasid
erinevusi
kujunesid
kujutavad
stimuleeri
troonipäri
##kak
##pho
Kim
##oorga
Viir
hajut
valib
##jooksus
##märgiks
Street
ajajär
mittes
##ooniline
Flandria
ekspordi
kohalikke
seksuaalse
elanikkonna
määramiseks
##hka
AG
##ukki
##vier
Alan
epis
jaam
pant
põll
##alasid
Toome
diale
strat
Kallas
Rüütli
motiiv
ajutine
eksiste
##ustatakse
mistahes
raadiosa
kodumaale
krahvkond
väljaõppe
väiksemate
MS
Pod
1812
suhkr
sureb
Hamilt
States
##tamisega
Madridi
kollase
rohkelt
rõhutas
seletus
Järvamaa
##korralduse
Venemaalt
kuningate
taastatud
paigaldati
tankitõrje
##bola
##hine
ETV
Sää
Tae
##kojas
KNAB
eksa
seen
Valen
##visjoni
orient
temale
Company
väljaku
Aprillis
Bulgaari
sõjaline
teadmise
teooriad
Vestfaali
katedraal
sarnanevad
individuaal
Aserbaidžaani
##PS
##cul
Wo
##nati
##sale
Keh
sih
##istid
##listi
Tayl
##eerium
Album
Salme
natur
Oxford
Verlag
tootis
väeosa
pianist
uudiste
Nintendo
koolides
veresoon
teistesse
poliitikas
samanimelise
silmapaistva
В
##isen
##vall
##cheri
##seina
1648
1845
olgu
sile
##instru
ahela
##maantee
helist
sõbral
maismaa
palverä
seemned
üksuste
##ktsioonid
Standard
Viimasel
enamikus
küsimuse
aktiivsus
enesetapu
võitluses
sagedusega
##hõi
Id
##meli
Cur
Ist
Kih
loh
##iinid
Pank
##sentri
Endla
nõuda
evange
kohaga
liblik
primaar
tooteid
esitanud
väärtusi
mõtlemise
kromosoomi
ratsionaal
täitmiseks
identiteedi
departemangu
läbirääkimisi
##ohn
##uge
##gile
##nari
##umär
Ruu
Uud
küp
##tonis
##võidu
2500
Alle
Face
Vorm
##alasse
##lejaid
lõiku
novel
löönud
viiuli
Põhjasõja
asetsevad
psühholoog
toiduainete
Ühendriigid
poksivõistlus
##ņi
##ansi
##eele
##relva
Ordu
kaob
##portsi
House
noorim
rikast
stardi
tõlkis
Stalini
püüavad
spektri
uurijad
##slaalomis
##valimised
süsteeme
algatusel
esimestel
vahelisel
##nnid
##viir
##igist
##järvi
##makse
Keha
##rikast
##saares
balle
juure
kaval
väära
lastel
sealne
Esiteks
partner
selgeks
liitusid
vastutus
##atsiooniks
Moskvasse
majandust
vahemikku
väljendada
kohusetäitja
rahvusvahelises
##EL
##ena
##rai
Thi
pad
##arsti
##žeeri
##kogust
##rannik
Liiban
Termin
elamis
genoomi
heakski
isiklik
sisserä
Sellisel
hõlmavad
tegemine
tõestada
Novembris
##röm
SO
##džis
##lüli
gri
1710
##bergis
Kohus
Paris
jalad
seest
energe
pingut
raviks
spordik
tarkvar
##kontrolli
kohapeal
mõõdetud
osakesed
##sioonidega
kongressi
kollektiiv
##ööt
##glas
##pata
##urni
##velt
Neg
Sai
ihu
Rake
hiir
lepi
##olümpi
lükkas
##oloogide
aitasid
hooneid
pöörata
Inimesed
kehtivad
kogukond
osapoole
##võistlusel
muusikast
Nüüdisajal
konstruktsiooni
А
##obi
##veo
##atre
##isus
Kod
Urb
Vaa
Chel
Lepp
Past
##loomad
Messi
Vastu
polgu
##erumist
##kohtade
valgete
arvamust
reeglite
sõnadega
tulevase
Viimastel
paavstile
Liivimaale
geograafia
süüdistati
tegevusest
##sionaalsotsi
Televisiooni
##sko
SN
##juur
ISO
##taami
1802
1851
alae
kron
Deuts
Kanti
eelne
moodi
mõõde
Joachi
heleda
kõrged
asetseb
raskusi
toetaja
Philosop
maapinnal
valitsusajal
külanõukoguga
К
##lum
##tke
##võtu
DDR
Sib
cum
##kraat
##lille
##rasse
1834
luks
##mitest
##tusest
Kirch
Noore
aland
laiuse
otsida
erakond
läbimur
aadlisugu
kõrgusele
laevastik
võimalike
kasutatava
suurvürstiriigi
##cture
##iinia
##lõike
1832
##meedia
Königs
püsima
##nemisele
Kogudus
kuidagi
luuakse
mingeid
suurtes
vallaks
Keskmine
silindri
kubermang
kunstnikud
lühendatult
Kopenhaageni
##CS
##ars
VR
##nõud
Wis
##alane
1842
High
soon
hoiti
valem
õhuke
##atavaid
##kattega
laurea
stressi
varemed
vägedega
korraldus
võistlusel
ümbritseva
vürstiriigi
##AL
##rõ
Ig
##mali
lak
##alalt
##isuga
Wood
siia
Mõõga
kohti
Juunis
auaste
maleva
osades
##misvõime
numbrit
bakterid
leitnant
assistent
keisrinna
##EG
##hoe
##tuid
##umuu
Rut
##kanal
Copa
Doku
kadu
tril
##number
##provin
##põhine
##uuride
hääld
jääma
##laatori
käivad
otsene
templi
erilise
imetaja
pikkust
muudavad
molekulid
tekkimise
dünastiast
lõpetamise
materjalid
aastatuhande
vaatamisväär
##ann
##day
##hin
##dens
##ismis
##klaav
Liss
fili
##oniaal
##saator
Brand
järku
##osakond
asulas
esiete
näevad
nähtav
perega
Bernard
Encyclo
Politse
peakraav
populari
põlevkivi
pealinnaks
suursaadik
looduslikult
##don
Av
õr
##kini
##mahu
##stre
##tunn
Sus
les
##eller
##takti
##termi
1839
uues
##ktuaal
Latvi
Reisi
##lasteks
intuit
sõidab
Iirimaal
arusaada
tooraine
üksikute
keskaegne
koostanud
muudatusi
lahingutes
sealjuures
Washingtoni
##zin
##naar
##sant
##tare
##sistu
Hong
Väli
kõhu
##järgus
##tavaid
Karli
fotos
halva
Domini
Rajoon
Saarte
antike
tähtsad
vanglas
Keskajal
aspirant
Kaitseväe
Palestiina
läänemeres
Arvatavasti
asepresident
##gita
##jaos
Geo
##kaare
##ridge
1525
Joon
Mikk
Vale
hüve
juga
väsi
##kriisi
Katal
karus
matuse
##atavasti
lahkunud
lisajõgi
allikates
sisaldada
##registrisse
küsimustes
##IV
Ya
##cara
##cast
##eriv
##laps
Bul
Gon
NBA
##inide
Fort
Muna
Püre
kine
maid
stre
##laarse
##ruumis
Milan
Sisse
edest
jesui
lehti
nõrga
saast
Nikola
plasma
tõusta
Tšetšee
##ranspordi
kinnitab
kommerts
rahulole
viimaste
Kaukaasia
infrapuna
tähistati
kõrgustiku
negatiivse
protokolli
probleemiks
Bj
MB
##best
##pris
##alile
Stru
##asteks
##meinde
Tuule
murde
##ndusest
jätkab
teated
terava
Iseseis
aladest
eriline
jõustus
kooskõl
koosneva
kunagise
kõikides
toetusel
töötades
vajadust
Põllumajanduse
##ML
##ée
##lio
##püh
##wal
JK
zu
##etus
McC
Oru
eas
##veris
Beet
Mobi
Sügi
ostu
sadu
##meelne
##sikute
mõjus
Punaar
pargis
fosfori
samasse
ümbruse
elupaika
paigalda
muinasjut
tegevuste
Baltimaade
kandidaadi
tähistavad
##ministeeriumis
##book
##veti
##netti
##saksa
##vokat
FIDE
Glob
Hõbe
Mars
kabe
saak
ülik
##matuid
Benja
Kölni
Näide
Stern
katus
kraad
löögi
armeed
liidumaa
töötajad
kongressil
Külanõukogu
##ray
##hika
##vice
Hat
1844
NKVD
rõhku
Soomus
Wehrma
kalapüü
keelega
patarei
arvutada
diplomaat
arvestuses
komponenti
plaadifirma
veebruarini
inspiratsiooni
##õrg
##atis
##nart
Hub
Tib
##itute
##lutöö
##tiste
##jaliik
Plane
fondi
Valter
karsti
ohtlik
bolševike
keskaegse
kristliku
ühenduses
filosoofid
##ий
##flu
ir
##gres
God
Rie
##kaame
##vinum
9985
Club
Diet
news
##stanti
Langu
liivi
ometi
Krasno
Temast
##sioonidel
Vietnami
Sõltuvalt
kokkulepe
patriarhi
ehitamiseks
märkimisväärne
##mäge
##tain
102
Koh
1852
Basi
Marc
Proo
kett
leed
roos
Bruno
ainet
kuues
paksu
sidus
Lissab
result
##metsades
##produtse
##tograafi
hotelli
vägival
Vastseli
kuningad
metsades
orkestri
mikroskoo
muuseumis
saavutati
väitekirja
salvestatud
ökosüsteemi
##olud
##riba
app
sek
##silva
Boni
Kure
##aasist
Ferra
valve
villa
Kaarma
Mesopo
Uurali
keemik
hiljuti
õukonna
##võistlused
Brasiilias
Detsembris
Vikipeedia
katastroofi
valitsejaks
maksimaalselt
projekteeritud
##üht
Ue
##bide
##rohi
##tame
Zha
##akobi
Niil
Stre
vagu
ühed
##aktide
##omanik
Bolog
Nõnda
klahv
kuusk
taset
Elektro
Rajooni
kolonel
paljast
suurest
järglane
kujutada
suuremas
takistab
võitjaks
Jaanuaris
enamjaolt
luulekogu
orgaanilise
Polütehnilise
täiskasvanute
PM
RA
##lass
Ral
vet
vit
Maga
femi
puuri
Plette
##tööstuse
aidanud
isikule
vastavat
##poliitikat
füüsiline
sõltumata
instrumentaal
##ive
##nurme
EKRE
Illi
Veri
paju
Koori
Yorki
sorti
##lastelt
##teerida
näitus
vasaku
##sionismi
mõisted
Sitsiili
pöörduda
teaduste
varjatud
markkrahv
protsendi
tervishoi
kahjustada
katedraali
##DA
q
##cta
##imat
##ldas
Fen
##endid
##itude
##kuula
##mõtte
##pommi
##retse
Seli
XVII
kreis
replik
Stackel
osapool
saatsid
soomust
uuendus
Frederik
varakult
avastasid
Maximilian
omadustega
saadetakse
personaaluni
##ол
TR
##nits
240
##otsuse
Boris
Rossi
kalii
##maatsia
topelt
##akomitee
##pidamine
Peaaegu
keelati
viimist
loomulik
vanemaid
kohalikus
rahvuspargi
##kod
##cent
##rase
Vür
ere
Hääl
Nort
##haigla
kaali
oranž
puitu
põles
röövi
antrop
sõnaga
##vesteeri
Projekt
kurjate
teostes
Pedagoog
kolmandas
tavalised
Geschichte
võimalikud
peapiiskopkonna
##lor
bü
##üksi
Clo
Rab
##karva
##seade
##tside
##väerü
1805
Jaun
ökon
##laevad
käiku
nägid
oleku
sobiv
täisp
Helena
Kreutz
##ülesanne
ellujää
hübriid
keskosa
otsusta
rünnata
tähtsam
kristall
sõdurite
##gratsiooni
Holsteini
kohustusi
pikkuseks
##materjalide
ideoloogia
##rez
FA
mud
##ähend
Bach
ammu
##oksiid
##respon
##sellul
Kanal
Karta
fanta
hoiak
katku
lepit
makst
polit
metroo
murdma
suitse
##kindluse
##meeritud
Moldova
lähemal
##süsteemis
mängijad
olulisem
valimisi
sugukonna
inimestega
revolutsioon
##ttu
##õnad
Kak
##piira
##radis
1853
Süda
iiri
samu
##isaini
##kalmed
Psühh
alamp
aptee
kassi
Medici
domini
mustad
talude
talvit
##meeskond
Martini
arenevad
peegelda
rajamist
ristisõja
##jar
##koge
Ase
Dee
Rwa
##haige
##kalda
##kaupa
##liide
1797
Igas
Riga
puri
##üüpide
Piret
Säili
oksüd
viiul
märkis
julgust
sõjalae
Abielust
kampaani
aastateni
korvpalli
laiendati
seostatud
ettenähtud
traditsioon
vabatahtlikult
М
##stur
##taat
cor
##ülema
Boli
Egip
ebav
lame
Alfon
Halli
Toulo
horva
##andmete
vaktsi
Inimene
puuduta
muutuste
ülekande
küsimused
##konverentsi
##els
##ese
NF
##muga
##baasi
##kkeri
##omorf
##rilli
##selli
Broo
Doug
Home
Rohu
##aaside
Steve
küber
sajab
Genova
uuring
Joachim
esemete
keelele
tehases
vaidlus
vajalike
Sardiinia
ehitamine
hilisemad
maailmast
polümeeri
riigiamet
roomlased
Statistikaa
fikseeritud
kindlustada
stipendiumi
##bun
##fis
##kem
##zzi
Reg
Sis
##kandi
1854
ENSV
Pant
Reet
huum
##neriks
kõiku
põhit
##ndusele
löödud
##haridust
koduloo
korteri
kursuse
punased
valisid
Research
edasiare
kirjastuse
järeltulija
kritiseeris
meditsiinis
potentsiaali
integreeritud
##DP
##imp
Gat
art
##kiire
##rohke
##võttu
1804
Fond
kabi
käia
segi
##ngvist
##rahvas
Ilves
lippu
##laevade
Osales
arvult
olekus
tõkest
##direktor
Aastaks
Kõrgema
Mustvee
Toulouse
kahekord
Järvamaal
asutamise
aminohappe
##gümnaasiumis
Mesopotaami
Vastseliina
##70
##gg
AP
Pö
##akir
210
##iksid
##terid
Imma
Olga
Semi
Vähi
##tidega
mässa
neitsi
poiste
tõstis
Energia
suudmes
tegelas
##toimetaja
kõrgemad
liitunud
tunnetus
tööliste
vandenõu
korraldasid
sotsiaalsete
##aro
##uja
##wan
Ax
##cana
##erik
##gani
Cit
Jim
Zyg
ero
pen
##puudu
1809
Hoon
Olav
Tali
hirm
ilme
leia
lõvi
rand
##raamik
iseär
seose
ühegi
##ndumine
Helmut
pikema
rünnak
söövad
Märtsis
Stephen
aatomit
domeeni
eluajal
lahustu
osaline
pärandi
sisaldu
esitasid
naistele
omandada
armastust
kinnitada
kitarrist
moodustus
Kihelkonna
raadiojaama
Rzeczpospolita
Č
##bür
##hir
##psa
FM
##cius
Cer
Rum
##trans
##utusi
Sten
laseb
laser
##utaguse
pakuti
lehtede
millise
eesmärke
nimetused
olulisemad
residentsi
üksteisega
meelelahutus
ajakirjanduse
##aud
##cra
##dot
##oke
##õpe
##ngule
ekvi
nakkus
sõjast
avaldab
mõisnik
toetama
kirikule
mineviku
rohelise
teeninud
viibinud
põhjaliku
tekitanud
täielikku
uuringuid
satelliidi
vallutatud
Kuningriigi
##weh
kW
##bele
Gir
Jät
##nevus
Kõpu
nägu
parv
##raalse
##vusele
Moore
Ponti
mänge
silda
##atavalt
Laidon
Noored
lõplik
täitma
##raamatus
##seadmete
Kadrina
Kontser
võrdsed
Roheline
magneesi
väljasure
parlamenti
korraldusel
##uc
##bad
##kai
##ders
##oime
##sein
##nasse
mõjub
parun
Gallia
Kärdla
eelnõu
elutse
faasis
jätnud
möödus
tekste
##kirjutaja
Gottfried
meessoost
##sistooriumi
komponendid
piirkondade
##tz
##ар
##ennu
##rana
##turu
õie
õue
##ctive
##kihel
##varju
Sher
Vaim
pato
##aduses
##järgne
##sustel
agent
aller
nõude
ürgor
Albumi
Marcus
ajutise
eesnimi
indutse
motiivi
tugevam
viienda
Koguduse
arusaama
sündmuse
nimetasid
pedagoogi
##funktsiooni
autasustati
emotsionaal
maailmapärandi
##EK
IR
Mé
##oste
Luh
Popu
kaad
##bitaal
##hoidja
tagas
vajut
lektor
osutab
võltsi
levinum
partisa
tekstii
laiendas
nimisõna
ühendeid
valitsust
fotograafi
vastuvõeta
tänavanimed
##kaot
##kuna
##ngli
##yeri
Ivo
ber
flo
Buru
Good
Seto
Vili
näib
rats
Kuuba
Zygmu
piina
püssi
rakut
##tegevus
##tiliste
Hertse
Magdal
fosfor
moodsa
pääseb
##mmatriku
Alžeeri
levikut
##membraani
algataja
muutmine
Charlotte
Transilva
alustanud
ettekujut
veendunud
##hüü
##law
##ckis
##gate
##rano
##tsed
##loogi
##muiža
Anto
Psüh
limas
##likumaks
kindlad
teiselt
toimuma
dialoogi
loodeosas
pindalaga
teoloogia
ametikohta
arendamine
Californias
dokumentide
kriteeriumi
potentsiaal
##TI
##alaks
##vaimu
lepp
lesk
##filmis
##metuse
loeti
mahas
vanas
värav
##itatiiv
##mendiga
##ngutega
Claude
System
##ological
Füüsika
arusaam
endises
võimude
Nicolaus
Oklahoma
vahendid
kultuuris
evangeeliumi
##akad
##dikt
##mena
##vena
Aba
Dru
Kit
##kurat
##teles
##tismi
1837
1843
Aare
Issa
Suve
Võrd
laid
rege
##bourne
Maast
Teada
##ajalugu
##kahjust
##leeriti
##tilised
nendel
trammi
##kasvatuse
Mälestus
Postimehe
festivali
parasvööt
atmosfääris
##100
##blit
##enur
##loni
##olas
##paal
Sad
Clar
Mali
Tere
##eskuse
Psych
eleva
ruudu
seati
areneb
oodata
põrand
taevas
Oxfordi
arvukus
jooksis
nõudsid
rahvuse
õppetöö
Fernando
teadlane
kompromis
lõpetades
pooldajad
valitseva
abiellusid
Muusikakooli
inspireeritud
##nam
##eena
##giti
Ime
fla
1789
Bona
näri
Angel
Marsh
tükki
stiimu
ülejää
vastata
aktivist
meetrini
Esmakordselt
##mie
##õus
AL
##reti
Pau
1798
kius
suju
##missar
Cassi
Pedro
Valli
püsiv
Türgis
diisel
lõppeb
Kennedy
Malaisi
külanõu
lugemis
kahtluse
sagedust
Esimeseks
printsiibi
valitsemis
intellektuaal
##gut
##hau
##ury
##litz
##nnet
##ulat
##stika
Hill
Kohe
Kull
Siit
Ühes
##ngusse
André
lendas
Pürenee
albumit
mõisniku
piirides
ruumides
veterina
Lombardia
vaimuliku
Ühendatud
eesmärkidel
Mõõgavendade
##45
##ets
##atra
##ball
Asi
hin
näl
##aloog
##olule
##tsent
Mona
õpib
##landis
##likute
Fondi
Kalli
Treff
Vilde
laude
levib
uudis
##tunnist
Teisel
ndatel
priori
röntge
##üsteemid
Gabriel
sealsed
##sionaalse
Benjamin
ehitasid
jalgpallu
kristluse
autonoomia
varasemate
Kuressaares
##saja
egi
##galis
##isaar
##kides
1828
niim
vile
##ktikas
##väljak
Päeva
Torni
luues
maagi
nähti
peeta
suval
takti
##ktorite
eetris
kasvav
saabub
##orkestri
soojust
toiduks
##valitseja
kunagine
langesid
loovutas
suurimaid
tingimusi
Population
andmebaasi
kontrollib
Ülikoolist
ruutkilomeetri
##EM
П
##cor
ml
##cole
##duri
##figu
##hvli
##wani
igi
moe
##ality
##isaku
##kaudu
##linnu
##ooperi
Pargi
unenä
##duction
##kaudiga
##kultuur
Kaasik
Platon
kaotab
otsast
püsiva
õigeks
Praeguse
avalikku
lennukid
rajamise
nokaudiga
Aristotelese
##hod
bra
hun
lüm
sül
1838
mikr
Moder
naiss
Beetho
Isamaa
Paljas
konson
kõrtsi
laeval
järsult
paistis
pöördub
rändrah
Selliste
langevad
niimoodi
uuritakse
arendamise
instituudis
‒
KO
Nep
Pho
Six
##avaid
##keelt
##oomne
##roosi
##vendi
Emil
Gert
##teemal
Toivo
farma
vanus
##astades
##ustanud
kolmik
nõunik
puuvil
pürami
sõbrad
##akandida
##orkester
kodumaa
Maailmas
edendada
vabastas
Saksimaal
kardinali
paiknesid
##reaktsiooni
küsimusele
kasutajalii
##35
##ach
##aju
##kase
##mune
##vaht
112
Big
Hak
##kraad
1831
Pale
Raim
õuna
##iivide
Aivar
Herts
##paigaks
Hooaja
iPhone
asuvast
avalike
histori
ioonide
kivimid
rahvala
suurele
##ustihedus
argument
asuvasse
autoriks
hariliku
soovisid
suudetud
kõrguselt
Viljandimaa
vallutamist
hüdroelektri
##vre
##elis
##ront
##welli
1783
Hani
Pjot
Stat
kemi
taks
teke
##ikeste
##matiiv
##metsad
##ustena
Costa
kuuse
muiža
mõtet
värsk
##geneesi
subjekt
vähesel
Hiiumaal
adramaad
kutsusid
määravad
tähtkuju
vaatleja
Gröönimaa
allapoole
sarnaseid
arheoloogi
protsessor
vangistati
perspektiiv
##ius
##tut
LA
##haga
Teis
##gnoosi
##istega
##tidest
Scott
hiire
justi
##eldakse
##itsiumi
Andrew
ekspor
laevat
Airline
Lennart
lõpliku
mõlemat
Kohaliku
artiklit
konvendi
aastaseks
fotograaf
paigutada
sümptomid
internetis
muudatused
ajaloolased
muinsuskaitse
##jö
##cil
Pl
##arbi
##mene
Boe
ree
##gusse
##ndika
1841
Soon
##inasse
Corne
Power
State
satub
tehas
Kliini
korpus
##protokol
Daugava
hõimude
kaotusi
keeruka
metsade
numbrid
peegeld
pinnast
põhiosa
Abhaasia
Assüüria
Leonhard
Vatikani
Göttingeni
poliitiliselt
territooriumid
Reformierakonna
##lepa
##vese
220
Jun
Ves
elul
imet
roni
Pihla
Võidu
isand
kompi
sansk
##ndajaks
Birgit
lokaal
otsese
vallik
Suurema
seadist
sunniti
liikusid
piirasid
Kesklinna
muudetakse
Eristatakse
klaviatuuri
prantslased
majanduslikku
rahvuskoondises
##sai
##kele
##lalt
##peat
Thu
##orest
1824
igno
kosm
mRNA
sööb
##väljal
Sulev
tohti
turis
Felipe
Riiast
hõivas
skanda
elusole
kaardid
mõisteid
mõistuse
rünnakut
kuurvürsti
organismis
elektrivälja
kergejõustik
parandamiseks
likvideerimise
′
→
##mst
##vey
##raid
Jul
Let
##hhari
##okond
##vitsa
Juud
Olgu
aste
punk
##paatia
Taavi
vunda
õieti
##veekogu
Tervis
artist
eukarü
skaala
üleval
läbinud
rahvale
otsustus
üksikuid
Münchenis
##ße
##dee
##hip
##mõr
##pua
##sir
Oop
kab
##külas
##peade
##ühiku
Real
Kerge
Tondi
juttu
kivis
tööks
virtu
viivit
Kaunase
Sebasti
hinnati
laevate
ruumala
ühiselt
ekskommu
olulisel
sünkroon
tingimus
üleminek
Vladimiri
indiviidi
kroonikas
mängitakse
kohustuslik
sõltumatult
peaministriks
professionaal
reformatsiooni
##mür
##tet
##alii
Kah
Oly
ada
bur
##ardla
1835
nood
##arvest
##kovski
Hüdro
Looma
Tansa
vajas
Töölis
asutus
kulges
näited
##eerimist
penalti
satelli
teatati
Kloostri
kirikust
leitakse
mängides
##festivalil
Haapsalus
operatiiv
talurahva
Indoneesia
peatreener
propaganda
statistika
valitsejate
pealtvaataja
Pr
##arve
##wigi
luk
##ringe
muda
mäel
##istide
Unger
hindu
pakse
refle
valke
##pruunid
Astron
Stanis
Württe
Jackson
esikoha
muutust
näidati
parimad
##liikumine
kogemuse
koostada
näitusel
põgenema
Selliseid
patsiendi
korraldamine
##dad
CS
##aeda
##rate
##reen
Kie
São
##faasi
##margi
Ahja
Noar
Palu
Sega
Sver
pude
rati
seri
##jooned
##ringis
püüda
sekka
teras
Haaber
Seadus
barokk
mõisad
Vaivara
jõuavad
kaasaut
korrige
meestel
privaat
##korraldus
tegemise
tuletorn
roomlaste
kuningriiki
territoriaal
Sellegipoolest
##ias
##too
##higa
##indu
360
äre
##ustöö
Ligi
süva
wiki
Volga
lakka
Korpor
kedagi
tagaki
##responde
seadusi
Ühendus
Livlands
eraldada
kogustes
sekundis
astronoom
purustati
tagajärje
vabastada
ristküliku
muusikavide
Demokraatlik
##biku
##idia
son
web
##ituna
##vikud
##nology
Brown
Mikro
pruun
tiiba
##mburgis
ilmast
lümfis
mikroo
seisma
langeta
legendi
teadlik
Järgmise
intervjuu
populaarsed
Muusikakoolis
tähistamiseks
##bn
##lipp
##phis
pas
Juur
saali
Maardu
ebasel
metsad
integra
Wolfgang
juhtisid
liikudes
tegevusi
ühiskonn
galaktika
kaubamärgi
inimõiguste
poolfinaali
klubikarjääri
maailmarekordi
##RS
##dar
##nieki
##olomi
Leed
Slav
Tuli
##haldus
##juhiks
##ktorid
##meriit
Enter
löödi
##portaal
kuldne
laiune
nimede
otstar
Soomest
Zygmunt
kaastööd
kapitali
mõeldakse
rüüstasid
väärtusega
##aux
##akes
##goni
##pala
##sbru
hab
##atuks
##remäe
##teeli
Hart
Otse
ende
turg
##semaid
Komme
eluks
härja
kulus
tõste
Descar
läätse
public
vastur
üksuse
##vahendid
Eestile
Jevgeni
ebavõrd
katseid
väljend
Kunstide
Nigeeria
tühistas
Haabersti
Jumalaema
edetabeli
mikroorga
omandanud
vahendite
ametikohal
mõõtmiseks
Täiskasvanud
##BS
##kie
##moni
Rob
##atomi
##olini
vaht
alkoh
##amiseni
Kettle
Ronald
läbida
põhine
Küprose
jällegi
arvutite
observat
induktiiv
inimkonna
reisijate
ametlikuks
Tehnoloogia
keskpaigani
tingimustel
elektromagnet
kondensaatori
##kää
##hulk
foo
##järje
##nduri
##vaine
Puud
nark
##linnud
liber
Levinu
ergast
kallis
kiirem
plasti
varand
ühiste
##kasvatus
eesistu
pakkunud
peatselt
raudteed
murdmaasu
tegemisel
väljakuju
Veebruaris
kohustatud
##rac
4×
EA
Von
köö
##iniga
##sandi
Blue
Gala
Päts
sõdi
##vormid
Fääri
Hohen
Kahju
Ometi
Pjotr
ralli
täitu
##ehituse
##utingim
Donald
kiitis
##ikidesse
holland
karikas
kolhoos
juhtkond
kodumaal
tundmatu
Eestimaal
laiendada
vajalikke
Constantin
ingliskeel
nimetusega
professori
päritoluga
järeldusele
professoriks
##ylä
Ud
##ales
##klub
##laua
Alo
Nõo
Nür
TPI
doi
hit
Bell
elur
faas
seob
##statud
##varade
Kihnu
Mulgi
aadel
hispa
osutu
viiel
##raudtee
Alpide
tooted
tšehhi
##nemiseks
Kosmose
piirata
õigesti
Harvardi
Peetruse
bensiini
vastaste
##meeskonnas
piirkondi
langobardi
Väidetavalt
informatsioon
Kultuurimälest
##sts
Ek
##nada
Fot
Näi
Ris
mor
nõi
##ender
Beni
Java
News
Opti
star
uude
##zation
Tüüpi
bibli
laiad
Anders
Regist
kontori
väljamõ
edastada
lepingut
tegevused
vastuseisu
Pedagoogika
tunnistatud
linnavalitsuse
##LO
##non
SR
##idae
##laks
##murd
##õusu
750
Poh
##kside
##medal
##urgia
1558
7000
Anth
Nept
Sisu
sooj
usub
##liinid
##opment
Ville
kulti
prügi
riisi
vabas
ülist
Fjodor
juhina
lauses
sõidus
##kaaslane
Barbara
püsivad
Jaroslav
järgneva
prantsus
botaanika
energiaga
pensionile
põllumeeste
konventsiooni
##zia
##redi
##serv
Ima
KGB
Mut
Uno
gro
##tagne
Brow
##arhiiv
##mängud
##teater
Juhul
Vasak
avada
kaane
Vormsi
nomine
punast
##telefoni
Tarvastu
Williams
seemneid
võidelda
õppimise
lahendusi
Petrogradi
kvaliteeti
lämmastiku
salvestada
pikaajalise
vabatahtlike
##yo
##rusi
##tete
Das
Pae
aro
lad
##ssoni
##vorme
1560
1819
1821
Foto
Sene
##ikeelne
##puleeri
galeri
säilis
Ilmselt
Newtoni
ajastul
lubanud
seletab
tulevik
kirikute
kohtusid
sündroom
viidates
võrdselt
Omakaitse
riikidest
saabumist
kergejõustiku
elektroonilise
Jü
Vu
##ooper
klor
maab
nisu
vase
##ndamis
Osale
muudes
paigal
pooles
Lepingu
osalema
sekundi
##festivali
Kadrioru
Wilhelmi
esialgne
ratsaväe
seminari
keraamika
kuberneri
plahvatus
rahvamaja
teenindus
tootmisel
nähtavasti
võimsusega
keskpaigast
järeltulijad
kindralmajor
##Li
##alus
##nity
näh
##neeme
##oster
1796
1833
Fire
Karu
Sead
gaas
varu
veen
##kurite
##latiiv
Heine
Laura
Steph
Suvel
võrku
Karula
Kingis
Rwanda
ilmuma
laetud
omandi
vaated
##kompleks
##petsiifi
asjaaja
aastasse
blokeeri
erinevust
kallastel
kristlaste
ohvitseride
ressursside
##šis
##egas
Hed
Õie
##amast
##atund
##utule
Peat
süna
vahi
##oolisi
Võrts
peate
##atiline
pealis
pildid
riigiga
kannatas
lennuväe
meetodil
Francisco
filoloogia
tihtipeale
##ин
##bik
##cou
Up
jp
##huri
Bot
Div
Ful
Hau
hüm
##ikiri
##kasse
##krahv
8000
alba
kang
##leitna
Münst
arvab
omada
saami
##teatris
Sadama
hapnik
Massach
filmist
karakte
otsused
indiviid
lavastas
sugulane
järglased
koosoleku
mehaanika
seisundit
võitlesid
leidmiseks
avalikkusele
organiseeris
alagrupimängus
##ilo
##pio
Bag
soe
##kivid
##oosne
arhi
hape
Joose
elast
Juulis
School
hädava
pöörle
sideme
väljak
##planeeri
Innsbru
Lahingu
Väikese
kaldale
suhetes
õigeusk
küsimust
täitmise
ööpäevas
Geograafi
konkursil
teravilja
lisandusid
toimetanud
eestikeelse
iseseisvust
##90
##ego
##ūks
##inõu
##oldi
##piga
##ritz
Age
Fon
##idiks
##katse
1836
Audi
bota
##leesia
Kujut
litur
tagal
Neitsi
Philip
haaras
kangel
Valgeve
hinnaga
teenima
rakkudes
toodavad
tulemust
valduste
Noarootsi
naabruses
rakenduste
transporti
diferentsiaal
##õik
Ill
brä
##gooti
Samo
Sony
Vala
##sidele
Halle
Kiire
sõlme
##ktorant
Herman
Nendest
Põhjala
vanaema
Etioopia
kogudust
##fitseerida
Kuninglik
Venemaaga
tüüpiline
valitsema
eelistavad
usutunnist
annekteeris
vähendamiseks
##MK
##ümb
##inat
##olli
bür
vib
##mudel
1818
Maak
Mill
Tšer
iner
South
silmi
##patarei
kalend
pideva
teates
##kvaatori
Wittgen
ensüümi
kirjand
pärimis
vaateid
puudusid
tasandik
toimivad
amplituud
ebaõnnestunud
kaasasündinud
##fest
##guri
Akt
Sec
err
##aside
Eral
Mili
Toba
modu
silm
vask
##lennuki
##ustavad
Friisi
kombel
tervit
toimuv
Looduse
endiste
muudest
sünonüü
Tööliste
Virginia
immatriku
loetletud
põhikooli
seisukoht
toimetule
Akadeemias
Massachuset
lõunapoolse
teineteisest
Organisatsioon
##fid
##koer
Lav
##kvaat
##likut
##hapete
##staabi
##tuseks
Allan
Heiki
Saudi
astro
kauaa
koore
kordi
nalja
##itamist
Trinid
Virtsu
doktri
kerkis
kodust
lasknud
maadest
millist
viigist
##reerimine
Horvaati
kinnipee
pretende
rahumeel
tasemele
ristisõda
talupojad
meenutavad
tervishoiu
##CH
##ēr
##reo
##keld
##room
##üüli
##lapse
##saade
Agri
jahe
kisk
##alused
laiem
rände
##tslaste
Varase
kabeli
lahkub
tasand
##numbriga
Noorsoo
laulude
meteori
muutuse
##rajoonide
##teenistus
härraste
Alutaguse
kirdeosas
väljaande
dekoratiiv
protsessis
rakendatud
populaarsust
valitsemisajal
##avy
Im
##onas
##witz
##ński
Inf
Tub
##mäest
Köln
Leid
Teat
infe
sinu
üüri
##deline
##istlik
Akvit
Kotka
dimen
hüdra
laast
sipel
illega
korrel
rektor
toovad
aadress
haigestu
justiits
kantsele
koolkond
militaar
organist
vaadates
võistlust
füsioloogia
mõisakomple
ordumeister
raamatukogus
olümpiavõitja
##rg
##ody
Lé
MW
##noos
##rena
##telu
Lah
opt
##vitud
Esti
Miks
Pann
Peep
##jevitš
Mõnes
Stone
lihas
muust
nooru
sibul
##krimine
##likumad
Billbo
Sparta
psüühi
usuvad
Boliivi
Termini
jäähoki
lagunes
meloodi
näiteid
õpingud
Bretagne
Leipzigi
mahasuru
võimsuse
sõjaväkke
Magdaleena
digitaalse
keisririik
puudumisel
rahvaluule
valitsusele
##CP
##omo
##ance
##chis
##uter
260
##minek
##pääse
##serem
teod
##ulaste
Belli
Misso
Union
apara
arvel
basse
kesta
repre
Linnus
Vastup
kaarte
maadel
Kõikide
karikat
tallinn
ühendav
Metsakal
haigused
hüüdnime
lahutama
troonist
Koostanud
kasutusse
kvaliteed
tegelesid
Filosoofia
ebaõnnestus
eksistentsi
korraldanud
klassikaline
tõenäosusega
Gü
##lamu
##rood
##stid
##sung
##tski
AMD
hüü
jmt
not
##utsch
##võrku
igat
nael
skis
##ooniga
##ressur
Proje
ühtne
Salvad
Sydney
rüüste
Kariibi
Stanley
jooksus
kogunes
osatäht
hallikas
põhikool
tegeliku
vastased
ekslikult
kahekümne
pakutakse
põgenesid
religioon
##ratigraafia
loomingust
projektide
##chy
##ous
##ceae
##edid
##hovi
##kloo
Moo
##arvut
##külge
Otsa
isla
##vision
Uexkü
rasva
vaeva
##teeriti
Caroli
Riigis
varise
andmise
kaitsja
kompani
näitaja
osadest
punktid
tasandi
teenida
keisrile
arendatud
kohtumine
komponent
ligipääsu
polkovnik
meelelahut
Braunschweig
Kopenhaagenis
##jät
RS
##alne
##ович
111
Aab
##käsit
##valli
Nova
fond
häid
loog
rüüt
tahk
##antide
##laager
##tilist
##utamis
Tuleb
majja
##rajooni
Tiesen
parasi
proovis
tollase
valesti
esinesid
jätkusid
kõikidel
järjestik
suurendas
tekstiili
võistkond
rootslased
vaimulikud
Ordineeriti
olulisemaid
teoreetilise
kasutuselevõt
infrastruktuuri
##ffa
Io
PD
##nner
##paar
230
Gua
Kam
isi
kuk
1825
Tava
##meeldi
Päris
kodan
kuule
##kiirgus
##poolses
##stiilis
impres
koguma
maalid
nõuete
paljus
astunud
hüpotee
värvide
Põhikool
Sileesia
puhkenud
Mõisaküla
küsimuste
lahenduse
suurusest
vastupida
Arhitektuuri
saavutatakse
##gab
CP
##hile
##anias
##oleva
##seene
1792
Gior
Inde
Salu
Wiki
soli
Liina
Neeme
džäss
kõrts
pikki
termi
tetra
tuues
üpris
Corpor
Ernest
levima
rajama
vektor
##iljemalt
Koidula
klienti
muutnud
rituaal
sügavalt
hindamine
kuninglik
Piirivalve
analüüsida
ebaõnnestu
võimalikku
##OP
##ár
##lesi
##urus
ake
##orral
Rest
Sest
ahju
dikt
huve
sena
##alvest
##varise
##ndamata
Varrak
klient
kääbus
neljal
ordule
relvad
Raasiku
kujuneb
liigist
peamisi
ukraina
Äripäev
##nimetatud
Järgmine
noortele
sugukond
sõltuvus
tegeleda
stabiilne
väiksemat
Kalevipoeg
lagunemist
praeguseks
sünniaasta
läänemeresoome
##ći
##⁄2
##vai
##īga
##eedi
##kesu
Dol
##atria
##ciems
1400
Band
Long
küün
##kirjel
##ktuure
##laulja
##ooniat
##ooride
##ustusi
Malle
Mängi
##usiness
Islami
võimul
Siberis
tarbija
vabanes
viimaks
järeldub
möödudes
lühikesed
nakatunud
ühtlaselt
##piirkondades
elektrienergia
korporatsiooni
süsihappegaasi
##gov
##rod
##puid
##vare
Hud
Joe
faš
imi
##märke
1715
Bure
rong
##ritori
Infor
Koeru
käega
märka
oligi
otsis
Venezu
kostüü
kuumut
raskem
magneto
##tograafia
Ansambli
Paljudel
pojapoeg
konteksti
rahvusest
tingimata
kahekordne
süstemaati
peasekretär
definitsioon
muinaskalmed
katalüsaatori
##NS
Hö
##stii
Jes
Umb
Vet
mol
##prote
##vismi
1300
Väär
jutu
##aalsus
##karist
Alūks
Andme
koose
seada
##rühmade
avaneb
kohtab
tulema
Levinud
filmide
heebrea
tühjaks
asetatud
enamikul
kunstide
meeleolu
puudutab
tehnikat
edelaosas
residents
soodustab
sugulased
Valgevenes
elanikkond
##mā
##hja
##ksü
##amar
##lisa
Hot
ööl
##silma
1829
peit
prof
pähe
##vamaks
Biene
artic
hajus
murre
##relvade
Daugav
Marcel
Tagasi
Ajutise
emeriit
isikuid
piiride
pikkade
seoseid
##erimisega
lõppesid
väravate
operatsioon
tegelaskuju
perekonnanimede
##jöö
##žan
By
##aaja
##ally
##erra
##hima
##nuna
##ndorf
1808
Ilus
Koha
illu
lama
laot
pime
üleü
##asandi
##istani
Morit
Serbi
tarni
##jalaste
Jakobi
Piibli
Vahtre
betoon
##vabaduse
##vatsioon
hoiuala
hooldus
kõvaket
muretse
tõmmata
Kullamaa
inhibiit
lennukite
maastikul
reageerib
aktiivsuse
esindajana
Põllumeeste
sissetuleku
depressiooni
professorina
kirjeldamiseks
##ix
##dio
##loa
EU
##ruud
##õisa
Wei
huu
##eldes
Ford
amat
arve
Heide
Klein
Silma
asend
kasar
pilve
saari
tähta
##roloogi
sinise
tüdruk
##teraapia
keskmes
latgali
loodust
tootjad
keraamik
tekstide
sõjakäigu
ühiskonda
ametikohale
##gie
##jun
##siis
Lad
##mänge
lumi
verd
##ikohus
##ngutes
##nikest
Kruus
Teisi
laevu
ovaal
mõnest
##poolsete
diplomi
mõisate
raskelt
Raamatus
Säilinud
anatoomi
asjatund
kaotatud
maletaja
sõjalist
kasutajad
piiskopid
tehnikate
grammatika
parlamendis
põhimõtteid
Akadeemilise
Ühendriikidesse
##hou
##tag
##aadi
##filt
##ooge
Ave
##hüdro
##iilia
1772
Homo
Saal
Valg
sõrm
##aanide
Saari
Täite
ndate
puist
##seadmed
Kotkas
vähene
kallale
reaalse
ilmumist
kivimite
kommunik
Institute
baltisaks
Preisimaal
Rahvuskogu
defineerida
##atemperatuuri
kasutatavate
ühiskondliku
##nka
##ome
##mehi
##mule
##õhku
##liike
1790
1793
Lõvi
Smole
Valmi
aisti
##politse
Mõlema
Teatud
asulat
esinev
kivimi
piiras
lindist
parteid
raudbet
tagatud
vähesed
väitnud
õpilasi
##koosseisu
##mikroskoo
Mehhikos
advokaat
ekvivale
kaguosas
konstant
väljakul
algoritmi
käsutusse
piirangud
põhikirja
füüsiliselt
planeeritud
suurhertsog
##én
##ра
##õhk
##aluu
##lill
##peed
##tsin
Fol
Zem
##alepa
##amaad
##kseid
##munud
##rassi
##rolli
Lina
Pärn
kirg
##skitar
Baden
Bändi
Valda
seond
tasku
##arhiivi
##istliku
Kaspar
Kosovo
gramma
mainib
##ndamises
Angeles
liitlas
poegade
rahulda
Böömimaa
Paljudes
õpetajad
kergekesk
sissetung
süüdistas
tegutseda
aktiivsust
astronoomia
kättesaadav
olulisemaks
prantslaste
õigusteadust
##göö
Od
##akäi
##anga
##ssen
Krü
Sid
Teg
Tou
Arte
Brad
Gord
Hawa
Laie
Teos
##dusest
##komand
##rükise
Kvali
püsib
raami
tarvi
Adolfi
Avatud
romant
suruda
tsooni
Seitsme
koolide
mateeri
vendade
õnnestu
##eeritakse
Ansambel
arvamuse
komposit
teemasid
ebameeldi
hindamise
veehoidla
sotsiaalset
ümberkorral
##elo
##osk
Leh
Uku
Beng
Raid
Sünd
Viis
laud
##kindel
Järvi
Water
musli
nemad
##utilita
##a
##i
##e
##s
##t
##l
##u
##n
##o
##k
##r
##d
##m
##v
##g
##j
##p
##.
##h
##ä
##,
##õ
##b
##ü
##1
##0
##S
##2
##"
##9
##K
##T
##A
##P
##f
##-
##ö
##E
##)
##(
##M
##L
##V
##c
##8
##R
##5
##3
##4
##I
##7
##6
##N
##H
##B
##–
##J
##C
##y
##G
##D
##O
##:
##F
##w
##/
##U
##z
##Ü
##'
##W
##š
##;
##x
##%
##ž
##X
##Z
##_
##é
##Õ
##Y
##q
##=
##Š
##?
##]
##[
##ā
##á
##&
##“
##’
##+
##°
##Q
##о
##а
##”
##„
##!
##и
##ó
##е
##ī
##н
##Ä
##í
##р
##ø
##Ö
##ē
##ū
##в
##с
##ė
##л
##к
##ł
##−
##§
##å
##т
##č
##×
##è
##ß
##Ž
##ō
##ć
##ç
##д
##ņ
##α
##ë
##ļ
##|
##у
##É
##м
##й
##‘
##æ
##*
##ã
##я
##ч
##́
##г
##С
##μ
##>
##<
##ń
##ú
##ь
##ô
##ο
##ñ
##ы
##Å
##п
##à
##»
##β
##«
###
##—
##б
##~
##ķ
##ς
##Á
##â
##ν
##•
##ă
##з
##А
##ρ
##К
##ų
##В
##ι
##′
##`
##τ
##⁄
##М
##λ
##π
##ε
##П
##Č
##→
##σ
##ð
##ş
##‒
##х
##ı
##Р
##ц
##ê
##Н
##ř
##ś
##γ
##ا
##ḩ
##ș
##И
##$
##·
##ő
##Ā
##Б
##Г
##ŭ
##ý
##İ
##κ
##ģ
##Ø
##ò
##Ķ
##ę
##ə
##ï
##Ḩ
##ш
##ě
##ί
##О
##η
##ل
##δ
##Т
##Д
##Л
##ω
##±
##ж
##і
##Æ
##φ
##ą
##ф
##ğ
##ό
##ա
##Ē
##ά
##Ł
##θ
##î
##ა
##ì
##‰
##ر
##υ
##ي
##―
##ი
##م
##ż
##ю
##{
##ˈ
##Ω
##€
##ṭ
##э
##Е
##ή
##}
##З
##У
##Δ
##ţ
##ن
##Ç
##Ş
##ț
