[PAD]
[unused0]
[unused1]
[unused2]
[unused3]
[unused4]
[unused5]
[unused6]
[unused7]
[unused8]
[unused9]
[unused10]
[unused11]
[unused12]
[unused13]
[unused14]
[unused15]
[unused16]
[unused17]
[unused18]
[unused19]
[unused20]
[unused21]
[unused22]
[unused23]
[unused24]
[unused25]
[unused26]
[unused27]
[unused28]
[unused29]
[unused30]
[unused31]
[unused32]
[unused33]
[unused34]
[unused35]
[unused36]
[unused37]
[unused38]
[unused39]
[unused40]
[unused41]
[unused42]
[unused43]
[unused44]
[unused45]
[unused46]
[unused47]
[unused48]
[unused49]
[unused50]
[unused51]
[unused52]
[unused53]
[unused54]
[unused55]
[unused56]
[unused57]
[unused58]
[unused59]
[unused60]
[unused61]
[unused62]
[unused63]
[unused64]
[unused65]
[unused66]
[unused67]
[unused68]
[unused69]
[unused70]
[unused71]
[unused72]
[unused73]
[unused74]
[unused75]
[unused76]
[unused77]
[unused78]
[unused79]
[unused80]
[unused81]
[unused82]
[unused83]
[unused84]
[unused85]
[unused86]
[unused87]
[unused88]
[unused89]
[unused90]
[unused91]
[unused92]
[unused93]
[unused94]
[unused95]
[unused96]
[unused97]
[unused98]
[unused99]
[UNK]
[CLS]
[SEP]
[MASK]
##на
с
п
.
на
##ни
,
##та
##то
##ра
и
##ва
в
##те
о
##ре
##ри
##но
##ка
##ст
д
##ко
##ли
е
##за
г
##ро
##ен
от
по
##ки
м
за
1
##не
##ле
##ти
се
##ве
##ди
##ла
##во
##ци
##ър
С
##ви
##ло
##ма
П
##да
##че
ко
б
##ски
пре
-
##га
к
а
##ми
из
(
)
##ния
##де
К
В
"
##ме
##по
съ
ка
2
19
##ча
М
Б
##зи
да
ра
го
„
“
##ска
##си
у
##ние
##го
до
Т
##ната
А
##ъл
т
Н
са
##ру
Д
не
##ните
про
ф
##па
##ор
си
##сти
##ста
##он
об
##ер
##ля
при
##лед
##чи
##же
Р
–
##ът
##пи
то
##тел
##се
##ар
О
раз
20
##ги
ре
Г
##сто
##до
##мо
като
##ция
годи
##ват
те
##ща
##ство
##жи
##ан
през
##би
И
##ят
##бо
##ване
##ръ
ма
въ
##пе
##ще
че
##рия
х
##гра
Л
но
Пре
##ско
ме
де
Х
къ
во
##лу
##ската
На
му
##са
##ца
##ур
##ня
Е
##жа
##со
##мен
##щи
мо
##фи
##ал
През
Ф
година
З
##ълга
По
гра
##ден
ц
##ето
ст
##ност
##вър
##ду
Ма
##ран
:
##ба
##сно
ста
##ския
18
ви
##жда
з
##ту
##ното
200
3
##лю
пред
##бе
##сте
под
##ку
пе
би
след
##хо
##ред
ве
То
##вен
##ник
##ше
##вата
кра
##нието
##ши
##ке
##ката
та
##част
##ята
I
##er
Ка
##лен
##ито
##кто
У
##вя
За
има
ро
201
##нски
##що
пра
пър
##ването
##она
##an
ми
това
##рат
##ври
ин
ч
ю
##ря
ли
##из
кон
##йто
##ън
които
##on
##зва
най
##зе
##зо
##пу
##мври
па
##це
4
към
Ко
##ници
вре
##след
който
##in
##дно
5
##ството
##ман
##вер
време
или
##ха
##пра
##лото
##нг
##ългар
въз
##лия
фи
##об
##кт
жи
##стро
##ша
Ч
S
ди
вой
##ел
##00
##тели
##en
##ул
им
##чва
##жду
##рен
във
дру
##ските
##пре
част
##рата
##стве
него
##дна
##дин
ня
##or
##кти
##кс
Ш
##пол
я
сре
##чен
##мира
мно
##ент
Со
##чни
Се
##лко
##хи
##ства
##зна
199
Ра
##съ
##ято
##бли
След
##ar
##ското
ар
C
ба
6
Ми
тя
##рите
##ържа
стра
която
##ният
A
бе
##нето
бо
##ции
което
сво
##гу
M
##цията
##ари
българ
От
све
пи
##тен
със
##es
години
##клю
Ви
##al
Ц
##кри
запо
##ев
##вия
око
##ну
между
##вите
##чески
##стра
само
осно
той
ле
Бо
пла
ав
##мата
##ti
7
##чно
##вете
много
##лно
P
8
##при
##ява
##зда
един
T
град
##нов
##фе
##ките
##нд
##ван
##лиза
няко
ор
ком
Те
/
полу
спо
Пе
9
15
Ро
##чава
Бълга
##тор
##фия
B
рабо
##вет
194
Съ
##раз
##рал
Па
Са
Ме
България
##ков
##тро
198
##тър
изпол
ду
;
ус
17
Ре
##рика
##ква
произ
##ене
##ьо
##he
##вно
16
над
##йн
##чна
##ците
Ю
##пъл
12
##is
##лата
##ради
гру
Из
ти
Ди
около
Та
Ру
##ността
##вна
става
##ласт
##нти
фон
Си
##щата
##рио
Не
други
##про
Й
##нията
голя
##логи
Ни
##йки
##жен
##чки
##вор
##дата
10
##йски
##нове
##телно
век
име
##лни
До
гла
##гани
##бу
оста
##вни
##ложе
##лите
##дето
##сен
Ба
ни
разли
път
##ление
Той
слу
също
c
##гат
##циал
L
##мия
197
##дъл
##ic
предста
бъ
май
##сите
пар
##ък
сред
D
Ха
##пера
преди
191
##върш
Де
m
учи
##тите
14
Ве
където
##ува
13
Ли
изве
##лов
##тер
##ун
създа
##пис
При
##гато
##вод
II
може
Мо
поли
##кра
##циона
край
ча
##мите
##лище
Пър
##om
ва
вър
##зия
##стоя
##вро
##фор
##ема
запа
##цион
##us
София
нача
прави
R
##тия
ѝ
N
##зира
##мет
##мина
хо
както
196
##лява
##тата
три
##сия
##сла
##дия
11
G
##род
ри
Ки
висо
же
H
##ся
##стви
чи
Ри
този
дъл
село
вси
##рията
##бор
Но
исто
##тни
193
см
органи
##ем
##прав
живо
##бра
дей
Ва
започва
##вява
##it
отно
сто
война
##мер
фа
##цата
Маке
Ж
вклю
насе
##at
късно
##лна
зна
##дена
##тори
##мей
спе
цент
мар
##лъ
E
уни
тях
##ъм
##дава
##вре
##лението
Я
##мерика
W
F
##ur
ки
Про
##ръща
Го
още
##ите
##вежда
Ге
използва
два
##el
участ
една
со
192
V
Ста
t
ръ
##лага
##бер
разпо
група
държа
195
пу
Дж
##дри
Бе
фил
##али
k
##стен
##щу
общи
##вършва
без
##ург
фор
Све
ос
##ут
##кре
така
##вото
0
##ol
##ове
голе
ези
##рак
продъл
пове
хи
##бро
област
игра
мя
##ърт
тур
послед
мал
##лан
##стъ
ал
перио
изто
##жение
полити
s
място
срещу
ру
Въ
##of
ку
дъ
Лу
Ан
##нява
p
##тура
Кон
##чение
Мар
##la
цър
кла
##ход
##кси
когато
края
няколко
намира
бъде
##бург
##et
##ch
Ал
Фи
ш
Ар
воен
семей
X
##лин
##тира
всички
Македо
откри
началото
d
български
##едно
##пен
##ристи
190
##кар
Би
##версите
##ге
##нската
##дите
Ла
##щите
##ческа
Фран
остро
##нес
##вият
##ву
##пте
##дени
Ку
##ров
##преде
##ника
##тра
оби
##ху
Ле
##ктор
##писа
##рез
река
извест
##чина
Спо
Пи
##000
Во
##дат
Ин
свето
##нска
##гла
##държа
##щест
##къ
##лет
н
съста
##вят
еле
тър
##еди
едно
##му
Раз
##ниците
ги
##птември
нау
##ed
две
##нен
km
##and
все
управ
разви
##лят
бро
##три
##ra
##они
повече
##рабо
сте
север
##бре
##дни
##il
систе
изда
##два
плани
Нико
##tion
##зват
##мати
##блика
##сна
##телите
##вните
†
Това
рай
ще
ж
of
тех
Да
тази
пло
заедно
селото
Ав
тези
син
получава
##густ
Йо
##ьор
##жава
##вар
##дар
##дж
Га
ла
септември
##чните
Македония
ха
##as
##мпи
##зика
бли
##кло
##нал
##рита
187
##стъп
##ерма
Евро
Але
Ос
##кия
стр
изпъл
##рича
работи
##дове
##коно
##дон
%
##чната
тери
основа
града
рез
университе
кръ
##гата
##от
кул
Кар
##мини
##вин
върху
ге
различни
свър
##зон
##спо
це
##ктомври
##дел
национа
Хо
кни
тре
често
яну
##рий
името
сти
##ствие
##ro
##тат
##стър
връ
##нали
су
##ia
##тре
##джи
b
октомври
награ
##мъ
##бва
##чо
януари
кри
##преки
##мента
зе
пр
##гре
##вната
СА
вла
Ти
##re
##граф
##казва
чрез
##мент
проти
юни
хра
##прил
##ница
август
вто
##публика
части
30
Геор
юли
Ло
опреде
Според
##лната
##гле
следва
##анд
##лий
##лови
##ген
189
##рон
америка
САЩ
##цо
вече
ръко
март
##нер
офи
25
мест
поста
##ември
##насти
##юз
нарича
април
чове
##le
##un
ноември
##щер
##шен
имат
##сни
архи
##жно
опи
O
##стига
##нските
Тя
##кември
организа
ця
декември
##тери
някои
души
кора
##фа
##стите
##дер
пол
w
##мат
импе
##волю
##нение
##времен
##лаго
f
дви
Об
музика
##връща
##бира
Вели
ши
##нима
##веро
##ститу
##ческата
вид
##ристо
##ing
авто
смърт
Север
крал
##id
##доб
##гава
##чев
съп
##чително
J
обя
##op
га
чер
##чели
##рябва
страната
побе
съвет
##жна
право
ху
##телни
##пад
участва
кар
The
##град
Георги
дъщер
език
K
училище
'
##утбо
##дра
##мор
##води
##спа
##нския
чу
трябва
Най
член
##чка
##ск
##телство
##су
##виси
##лени
Дими
могат
мъ
##мно
##чени
##изто
реги
##тва
##тов
##чват
разположе
##ян
ци
##писва
Гра
##реш
университет
##евру
##ac
успе
##тар
присъ
бил
##жество
##раст
##кръ
февру
изслед
ша
##зар
живе
дока
февруари
коман
##тна
км
пъ
екс
##бър
ад
##веде
албу
##тие
граф
уби
##части
Българ
##йни
публи
футбо
the
завършва
дъщеря
отново
##кта
U
##рие
##стан
##говор
Хи
##воре
##нат
000
com
##am
големи
##мна
съпру
истори
анг
##щия
##пада
##тали
21
##тан
Алекс
брат
сла
мла
револю
обе
##мът
##берг
##йна
##шение
188
малко
постро
ту
##йския
страна
нея
##тно
##нача
Че
##лена
премина
##менти
иконо
##стта
##седа
##гия
Сто
теле
пос
Никола
##ръц
##стру
##коро
запад
##тру
##рани
##тъ
##вобо
##st
писа
терито
отде
гене
24
наре
##кла
##телна
##зова
чети
22
изку
##пла
фе
e
##стри
мини
епи
империя
ло
сезон
##пуска
обще
роден
##вени
##ова
##дент
##стано
поради
Иван
тъ
##нова
оба
##нга
##лина
##кува
##ператор
##бата
помо
2011
##ране
община
##твър
##цер
соб
елект
стро
първата
участи
##хе
##нни
##нци
Бу
Герма
##вори
Ду
##um
##дът
##кнове
център
голяма
прое
##нан
##ланд
своя
обра
##пер
обаче
Чер
##щото
##стран
Александ
среща
усп
защи
##чин
##логия
##сет
тра
##сил
юго
бу
2010
##цен
and
резул
23
##ent
##бора
##рта
периода
##ският
дре
##дио
тру
##чат
##рин
Су
##кция
##йм
Бра
море
същест
отбор
##ствено
бълга
##вена
##сел
били
##ляр
##ul
2006
Германия
##лния
##кон
##гур
възмо
армия
##og
система
случа
##мени
##шна
първо
световна
страни
води
Русия
2008
##ена
2007
според
##ложен
изгра
##тера
Между
##форма
##квата
поя
##ил
първи
поч
##ri
Свети
близо
Бер
северо
включва
неза
##бия
##мир
##ус
търго
2009
харак
ек
III
съюз
Сан
##пло
Бал
##собе
фо
Франция
образ
Северна
сра
икономи
свърза
##бле
ска
Христо
живот
##рис
v
проду
Европа
ща
изпра
смъртта
бор
семейство
##каде
Анг
##ter
населението
представи
Въпреки
##лните
месе
2012
##вния
##рт
##ътреш
##реди
играе
Сред
режи
коле
##йската
поле
##тка
компа
##ин
Му
дър
Дже
##жде
акт
##министра
профе
##вич
##ческите
ней
Рим
печели
умира
##телен
времето
зем
##нася
др
##шно
роля
връз
n
##ган
проце
мили
днес
църква
27
скоро
представ
Има
##дина
##мест
26
28
специал
худо
##шава
##яват
попу
##вски
групата
##ческо
Вто
Вар
инте
жени
власт
влиза
цар
##йт
##сън
манасти
дължи
възраст
##чния
##стеза
##зъм
##os
##рото
##стер
наслед
четири
in
провежда
##мена
ше
##ческия
помощ
##ig
##дор
докато
##лож
излиза
No
Сте
##тото
класи
##обра
цел
##ad
##циите
Ке
Кра
Хе
род
##лено
##пример
Лю
St
програ
наро
##сква
жители
собстве
император
уче
няма
##турата
сце
първия
председа
гръц
##тур
##оръ
посе
сгра
##ности
разде
##талия
изб
баща
евро
пъти
##нени
ww
##ходи
лю
комп
##зма
ден
##II
##тин
места
##роят
изклю
Осно
##рана
##чество
оръ
осъ
##ec
пле
##кновено
остава
провин
##мон
вся
население
##ers
##лер
##гри
Ту
тъй
g
##визи
##кро
продължава
186
##вания
##въ
езе
##лица
клу
благо
акти
парти
##телството
##im
първите
начин
##яване
##каза
бър
твър
##народ
тран
##глежда
доста
света
Роден
иде
период
##кото
##циали
сту
разпро
##яването
фун
официал
Изто
##станти
##фо
състеза
ля
##od
##рес
2005
##йл
маке
бъдат
##бю
##вън
всеки
##ръб
Ча
50
сили
ог
Ор
Италия
окръ
##ерцо
##ut
съдържа
2013
Анд
##зване
##ula
##ет
дава
гу
форма
##юр
##хия
##чита
носи
##прави
Ch
##тисти
##ag
##бан
приема
Гла
теа
##em
особе
широ
##пата
голям
##чават
##тието
In
##щава
##лежи
29
хора
##вува
нем
##манската
пъл
Йор
дире
посо
##лист
Ша
мина
прези
##ot
твор
##сло
##висимо
Чи
Вла
дома
##падна
съот
Александър
поз
2001
##чена
##визия
малки
известен
2014
##ландия
40
Като
##бри
##мни
##бите
рим
##образ
Пред
използват
подоб
вода
групи
##шни
тит
Димитър
##кви
Фе
##вка
##джа
резултат
##ir
назна
бив
диа
Република
##стои
деца
##вал
бя
втори
достига
Гър
100
Пол
Дру
двете
шампи
##бен
2000
почти
тогава
опера
Щ
преминава
##тал
Константи
##тът
вер
##дан
##йска
свобо
височина
www
##рд
Първата
производ
войната
образова
кате
2004
##налите
##кул
зат
областта
##яко
влия
##кан
администра
водо
##беля
##чу
успява
работа
генерал
гео
##вели
спи
гражда
##фан
нови
2002
##зен
степен
##ждава
Америка
сви
Ню
##ation
##ov
##рих
филм
##шки
##дица
институ
##тката
територията
пише
република
##ления
кре
организация
христи
Велико
##стре
##вол
##грани
мор
##нос
Фри
##ново
меди
акаде
##лит
данни
##iv
отбора
живее
Цент
Пра
##жни
##ist
##мията
кому
##тина
препо
##ум
мач
конс
Фа
смята
подкре
заради
##ловди
Национа
карие
Миха
първият
##път
##цент
семейството
Мал
била
дни
##вед
същата
председател
##хва
преда
de
Фили
##запад
##ie
##тон
управление
коло
тем
##няват
##тай
дне
##чета
въста
##пози
тради
##дви
тео
пози
херцо
района
памет
взе
Тур
##фрика
юг
Мария
там
своята
##нин
първен
31
2015
своите
##ард
##графия
##кова
##мин
заема
Мон
съвремен
например
контро
песен
##нисти
##графи
##лийски
освобо
##начално
##дей
Май
##ловдив
кли
Ман
брита
##мират
##фика
##жения
##сят
Гор
##талиан
##слав
литера
Южна
##ряд
##блю
дори
1944
партия
сим
съби
##кови
история
##мис
##имен
фило
Гърция
##мери
##гне
остров
състоя
европе
##кции
##лището
гор
##ъг
изток
обо
живота
##мя
##ствена
##роятно
##нското
интер
състав
##цио
Уи
##йно
пръ
##шения
голямата
голямо
”
множество
##следствие
##нения
брой
Втората
##вено
матери
##дено
стру
площ
##вното
служи
изи
##oc
##лното
практи
##жението
##знава
теж
награда
обикновено
стан
##нира
сър
2003
всяка
##тана
създава
участие
##вяват
инди
##ъра
##гна
##това
Него
пер
пробле
##дения
##мар
сед
##чното
сло
дво
албум
##50
for
##ow
ново
фре
бре
##зни
съответ
анти
##ae
служ
представлява
позво
Пловдив
прия
нама
##зви
пси
##лев
защита
юж
Св
комите
##вали
Тра
дя
##кът
роман
Когато
##хан
пет
##спе
##хвър
Тър
Към
##тски
##сата
обу
##тров
филма
острови
##жност
вън
##ine
##теля
a
вест
американски
##роб
##скоп
връща
##кин
дължина
завръща
##ствени
р
##ционна
Петър
##лища
грани
Кара
Ско
вътреш
покри
кам
сери
доку
Така
60
министър
##ологи
отли
кос
загу
СС
разпростра
##нии
кня
##рид
сл
фло
##бива
разрабо
наблю
добро
бан
спа
##къл
##ждане
##лям
гимна
информа
църквата
особено
популяр
XI
Джон
оси
##лог
италиан
##лива
бра
архите
договор
рели
българи
Пари
ну
##ess
##лон
ръководи
##ний
##щност
##ce
дейност
добре
##нена
предпо
средата
съществува
##зата
историята
Три
##est
манастир
Освен
дълбо
писател
общо
напуска
Няко
мъж
##мб
##ерман
темпера
##дир
произведе
въпро
Бур
*
##ени
кан
##нско
присъеди
##сов
значи
##ствата
##вица
започват
устано
##зите
ако
##сор
##чко
озна
##вета
експе
Насе
##ец
##тика
тан
##вид
херцог
съв
еди
IV
събра
Доб
финан
##рение
##чението
ата
иска
мача
Бел
Гу
##ложение
пов
##ствия
близ
##тури
##блио
превръща
ВМ
сме
##ана
##лис
включително
##нала
Ху
##щайн
##чеството
социал
дра
пара
bg
2016
Юго
защото
музе
изо
дости
##th
##слу
184
състои
тек
линия
##мп
опа
##годи
причи
##ляват
##строй
##шните
стре
войски
##кога
въпреки
реда
свет
An
Бар
предимно
Карл
##ций
силно
състава
вероятно
избран
##рява
##тиле
##шната
ран
##ствен
1990
Исто
##нар
##тън
публикува
##лд
обеди
##мето
Луи
Васил
##лф
1999
Ши
капи
Пар
Сър
]
проте
##чето
геро
секре
расте
било
нео
увели
тро
президент
излъ
ори
крепо
допъл
нар
##ток
Испа
пое
Кор
##йските
##меня
Под
##стъпва
Балка
##нав
##тропо
##ne
80
район
##фици
##десет
##рати
видове
##рина
представя
##рени
##мили
##рена
1912
Париж
Фор
бързо
дълго
##нови
втората
вари
съпруга
[
185
##вник
неговата
##бори
комитет
##крати
вида
съд
##ard
статисти
##тко
##гот
##над
##сем
##ber
кор
българската
##лицата
връзка
##рей
##шка
##жат
Жи
##вода
зи
прев
хората
непо
##временно
Y
##гите
##ity
учител
худож
##сиона
##чник
Завършва
Кла
провинция
##ловина
сп
Пу
владе
народ
##рална
##лей
Лон
##лината
администрати
##лича
повечето
завър
Османската
##дрих
##лова
тер
големите
въоръ
##мага
обла
##раб
техни
##ap
списа
възду
българска
##йо
изче
##пар
радио
друга
стар
свят
##РО
Пла
##занти
френ
##тици
пор
поддържа
изди
еки
##крат
мре
##лник
организира
коли
Мини
##ay
##бет
определя
##дро
поня
енер
##йд
IS
зла
държава
опит
##СР
нов
##жие
жен
крайце
##чване
филосо
##гово
одри
##довете
##нението
Фридрих
автор
##моби
Ше
##пан
##тег
Ива
човек
##тация
мето
сцена
Нова
майка
христия
##ного
##дал
Шве
##мани
Кри
##ud
прину
ефе
македон
##соб
##кове
библио
h
35
##ритания
Це
Гру
Англия
l
дебю
Оби
Дей
строи
##ждането
Дра
характер
1995
Африка
##дели
Кли
Стефан
Само
70
телевизи
погре
Кали
_
Тео
##телната
183
сел
##ждат
песни
отбеля
##зу
##сан
—
##нген
казва
окръг
##дера
##шния
инстру
##деж
академия
движение
##мов
редица
##лети
четвър
##рова
##яр
##рил
наме
##ew
работ
управлява
##последствие
необ
##жва
Въз
Първо
пехо
##eb
1989
Населението
физи
Мари
##ub
пис
милиона
извън
тип
преподава
Вал
##миш
##all
режис
Джа
##ктура
##our
2017
ограни
Участ
спор
##рането
прин
зад
реката
Сла
1913
електро
маши
консул
английски
високо
Държа
сръб
дис
Европе
испа
##жават
##менно
пока
Разпо
1998
свързани
ръковод
любо
##юн
##лек
неговите
връх
есте
означава
югоизто
##ich
клуб
друг
##телните
##стрия
напра
постоя
вели
XV
##стор
равни
назначен
гори
##ian
пребро
##зването
##чено
шо
90
здра
##варя
1991
##сле
дивизия
реа
служба
##вла
##хра
##нет
изкуство
дипло
##лимпи
##нев
Влади
североизто
##ran
Испания
продължи
развитие
Софи
басе
##сът
##йско
Българската
##доста
ан
##кли
насо
стату
32
Великоб
##ствието
Фо
##пет
##ционен
сигур
##сък
Един
##карва
##вец
упо
Ер
##ат
религи
Великобритания
##сли
Пор
Re
сила
кита
##пълно
главно
##странен
Вер
##кен
1992
##ion
##лът
територи
Un
кило
политически
Ана
ред
френски
разположен
основно
международ
Джо
въл
Вил
Македон
правосла
##фли
нова
зве
как
##къв
##нати
Там
##явява
месеца
##телност
СССР
Япо
1997
образува
единстве
поставя
противо
правителство
##ческото
##ционни
съгла
нор
коми
командир
седми
ета
идва
##кцията
духо
Йорк
##шо
точка
Николай
Тре
издава
1945
1996
Все
разположени
оке
руски
шампион
Министер
военно
прите
решава
годишна
##дем
произход
##яло
##метра
##никът
продължение
предизви
Зе
Сре
против
Цър
##лив
Москва
държави
зву
останалите
призна
Този
бря
##наро
автомоби
1993
разру
парла
необходи
кур
##степен
##пия
психо
съпругата
Рай
кораб
##зона
Хайн
медици
##дят
хиля
##цето
евре
занима
воде
Лондон
##ph
Борис
##av
мястото
##щето
1941
развива
литература
Нор
оти
##вел
цялата
##BN
концер
професиона
##гер
##чност
крайбре
##ab
##лка
сътру
##вният
изра
ISBN
директор
##рист
1934
##шев
1994
квар
##висимост
първото
##und
гимназия
шест
разши
Зла
двига
##ралната
епо
лятото
региона
създаването
##денти
##ера
живеят
култур
намират
институт
Първият
Уни
Хар
другите
хе
Филип
##ални
полк
метра
##тени
управлението
книга
##кива
##рест
известни
##ob
театър
Някои
##йс
прода
##хрид
зада
компози
182
образование
известна
неговото
тръ
първенство
##тора
Голя
##гва
##хода
##дий
книги
1878
резер
едва
##пита
отношение
правителството
възстано
##стров
самостоя
##пти
дву
усло
Михаил
##вест
сега
##ферен
същото
Вър
##дение
##пус
преме
##ним
##сва
Тази
шко
земе
##жо
##щият
##сев
##нологи
последните
скло
омъ
Зем
##върх
Пер
##лкото
свой
инду
##пър
крити
##гипет
разлика
Роб
двата
пости
бряг
##зин
Pr
Бого
##чения
малка
мате
Тези
топ
##лира
##чите
Гри
181
##йка
открива
приро
Умира
180
##зиран
нав
##ell
Китай
##въз
Зи
##сии
класа
##дже
33
възможно
политик
##шата
Поради
##мократи
територия
позволява
##цу
form
центъра
уста
Сер
##ложи
##ak
предлага
информация
##хел
Воен
##ill
Азия
##III
вис
##рига
действия
кръг
Рабо
пореди
българските
##ik
гро
компю
Варна
трен
##юл
съществу
зам
##щение
кариера
##зов
##стове
унищо
гър
съпро
##ално
стил
1980
обви
развитието
##жени
карти
ролята
##сните
задъл
##сията
Ай
напълно
##чаване
рам
##тя
Послед
случай
Благо
mm
лъ
влияние
##графски
##tic
##телства
Много
45
##ос
планина
поме
свързва
##рю
Al
34
##ленове
##лие
!
цели
чуж
двамата
гр
Ar
##мбо
36
##рии
##ene
##ксо
Кръ
епископ
събрание
Стра
Хайнрих
повърх
##мби
роди
изпълнява
##кур
исторически
Ги
##тове
##qu
formula
значение
въстание
Полша
Във
мрежа
позна
##шия
Спа
##шко
Mar
##мана
Крал
проекти
осигур
Кана
изследвания
дете
телевизион
себе
Сърбия
Охрид
##гент
##циа
албума
Свето
Константин
##ратур
##щат
вестник
##лкова
##нският
прив
##дър
##зер
кораба
Япония
##минава
битката
меха
извършва
произвежда
XIX
##ord
##заи
##разява
малък
градове
употре
транспо
°
##каз
неговия
Наро
цяло
огро
1905
Же
жена
##евски
##щен
Шу
япо
##триар
успех
##нъ
Ев
игри
спомена
пило
фрон
графи
констру
изобра
##зан
появява
библиоте
гръцки
##пред
##йната
катего
раке
##ip
мета
клет
##йте
комунисти
##лект
##лски
военни
##ge
лига
членове
##йните
##нопол
Запо
##цяло
Австра
##сната
епизо
известно
вра
##лагат
осъщест
течение
##лн
Солу
часа
Участва
герма
Мла
стой
целия
актьор
желе
Унга
показва
професор
проект
##ъгъл
##шката
специали
##местник
##нените
##ймс
##гнат
##кса
Анто
##лекс
разно
политика
Западна
св
исти
общината
##КП
Атана
изцяло
оцен
земи
##нено
##80
близост
главен
Стара
Джор
изпълните
записва
##беди
праз
трети
##бни
##сий
обявява
възник
условия
Марк
Бре
стават
##idae
отбра
Йохан
Вси
##гло
1970
##стват
##треби
##лове
1988
династи
забра
Ел
Общи
##роди
##дните
##пор
##фер
Преди
англий
##тки
култура
компания
##урнали
поема
всичко
пови
музей
производство
събира
смет
##хен
човека
секретар
Z
официално
##уван
##uc
La
жела
пръв
мину
1943
следващите
помощта
Сти
##део
коре
Кю
##мият
##тните
състояние
179
свеще
##бина
изключително
архе
1987
to
##морска
##жан
2018
##ково
изу
доба
Света
##te
прие
съсе
1986
столицата
r
##прия
##рица
Съвет
##тска
езици
футболист
половина
##20
##гор
Le
опитва
функ
художе
Турция
##гото
пътя
съще
##юс
##веден
Индия
лип
##листи
##чов
косми
##дов
книгата
##ens
##приема
песента
##лизира
оказва
допълните
температура
последова
##чело
техните
1900
своето
застра
1918
Вилхел
религио
150
Дъл
получи
католи
##тев
##клопе
Видът
тук
##пите
XX
Уилям
кораби
##мера
##нциклопе
Мала
простран
дьо
южно
Берлин
##дил
##степенно
езерото
##став
бло
първоначално
регион
длъ
##мън
екзар
широко
##наги
сезона
планината
##несе
##ална
основава
Фер
епоха
&
точки
Кан
обрат
прото
следващата
средства
решение
отго
взаи
децата
започна
37
журнали
##if
експеди
стандар
титлата
значително
освен
водата
команд
принци
цен
канди
такива
Йе
сина
бива
разбира
княз
##ерт
En
разкри
райони
избира
процес
математи
##рови
пото
представител
Бан
конфли
съоб
##тератур
##уват
електри
апа
био
сна
##хваща
придо
##шното
произведения
##кър
синг
мон
острова
##бележи
елементи
зако
##рове
маги
макар
дело
##ulation
Укра
треньор
von
1960
сигурност
##ort
##дови
##гар
приятел
##новете
транс
дале
##дру
##тък
участието
системи
заги
госпо
принад
приклю
##лини
дворе
победи
Австралия
Кирил
Фло
серио
##туга
Джи
##тията
екипа
участват
търгов
разположена
патриар
митропо
годината
отказва
постоян
губи
Анти
включват
Египет
проу
##тински
отдел
##шението
##сово
##мяна
форми
Димитров
Университе
##мула
уме
Ако
##вил
работата
cm
Учи
пари
прибли
промиш
Два
##раства
##сента
българския
##opulation
Хен
Източна
поко
българско
гри
Вътреш
полуо
Намира
убий
версия
38
Първоначално
##доно
##култе
толкова
животни
началник
устрой
##чници
##стани
##жността
Къ
Ад
чув
##зени
армията
ман
модел
нощ
+
##пие
##мос
обществе
северозапад
##ръж
##зиката
дружество
##фон
De
артиле
##шите
Вене
##вяване
сестра
добър
##art
et
1940
500
еми
##СК
неиз
##ogy
##ален
##бита
понякога
военен
проблеми
компанията
##чките
списание
Още
##ьора
офицер
##хар
##дне
общ
занимава
укра
втория
##телното
##жните
разположено
##двиг
##сови
Кру
Джу
представители
висока
хими
##ьон
области
мъже
##тава
1984
##мба
обича
океан
Вилхелм
десет
мир
ниво
преброяването
Sp
доб
модер
##ou
изследова
##гни
##глед
##стата
момент
изпраща
южната
промени
##тла
##шени
възможност
етни
израбо
сметка
направи
епар
нали
десе
Австрия
запла
междунаро
флот
пълно
?
Ян
Тан
леген
ефекти
##лищ
гъ
й
##нис
награди
##хвърля
взи
километра
##гас
рамките
Черно
##зови
Шар
Йоан
новата
Нау
арест
##цеп
##кор
следните
##дя
избу
##зация
Брази
лу
Канада
Селото
византи
##ксима
фир
Бен
позиция
Тро
##сява
##коп
ката
##лео
месец
ок
отбелязва
говори
филми
причина
##телят
##ok
Ци
границата
зо
1942
приток
Унгария
##нета
план
проф
##запа
програма
турни
##тена
жан
##като
тялото
##дната
Васи
Произ
##гон
действа
изя
основните
##лм
##up
заместник
среднове
##60
фести
##дарение
чест
##тната
югозапад
Църквата
Гер
1985
1981
превзе
описва
революционна
годините
властта
отговор
##севдо
пода
сграда
##лният
##сон
##зират
##тив
1950
създадена
фран
впоследствие
правят
поне
пря
##йца
##нента
##10
##тива
счита
гола
герман
Бър
наи
случаи
##40
вяр
Com
попада
редо
Посе
##гро
Пан
хиляди
скорост
##78
##гове
архие
северната
способ
##телния
Румъ
Международ
##писан
##ционер
##рано
1978
Хр
села
Мекси
##юсюл
литератур
##место
едноимен
НА
слън
##мост
##зирани
Con
##30
##тати
аб
Мак
##женер
интере
##дъ
джа
Th
##мене
##хард
ави
##пов
Елиза
##йското
пристига
##мпа
оку
основни
предна
немски
##лета
##зията
##писани
интерес
сътрудни
фото
##тния
пролет
##ld
забо
##писи
технологи
Калифор
последва
средно
културата
Хер
напо
##шена
##ала
##АН
актри
1982
##нети
1979
кратко
##пя
изисква
нито
##бал
New
1968
1974
спря
##сове
северно
##рик
1976
##ней
Първите
щата
Дъ
Зо
хъл
взема
внима
големият
Пен
формата
Също
Тома
предоста
##деля
Хан
Румъния
лекар
Иванов
достигат
##мах
долината
Уе
##ОН
Изда
##ann
начело
гол
##лва
комплекс
Лан
псевдо
##жена
##циони
##зирана
фигу
##ta
##зина
Пле
ана
склю
##лита
предава
##турен
напа
военна
##кат
вариан
Уо
бивш
##ляване
ориги
посока
механи
фамили
кариерата
1939
завърш
футбол
установява
точно
Ст
Chr
Mac
формира
##org
##ory
42
борба
лед
Дунав
двама
съхра
седем
зона
##ционно
##рец
300
Тай
39
разполага
създаден
##ксу
стади
Владимир
турнира
Тодор
обрабо
##тегля
среда
##ковски
същия
Днес
видео
пада
после
Разпро
##блъ
##бир
95
Джеймс
астро
##леп
конгре
1971
маси
селище
Еми
сравните
1920
ис
##борите
##вяването
крепост
##рален
##нт
##нча
##фт
Името
##циалисти
престо
##йта
##пка
контрол
##разу
срещат
подпо
##чаква
родена
отношения
##лизация
##долф
##коло
##дам
пристани
върхо
Цари
120
материали
получават
##io
##хайм
разре
Брита
конкур
кмет
опъл
Северо
олимпи
редактор
1975
Интер
негов
обекти
посещава
##чването
1983
ВМО
##насят
Бру
##зно
общество
##ведени
индиви
##хт
##говете
Лудвиг
любов
национален
##чието
построена
Градът
плен
храм
##сков
достатъ
##тогава
извър
##кер
##ложението
Съеди
Бразилия
Чу
открити
парламента
езеро
Петер
избя
##ерва
настоя
Ир
##нците
църков
оце
надморска
Али
биз
стихо
войници
вижда
##бъ
##сред
БКП
Апо
засел
укре
Мор
издание
източно
партиза
убит
##кет
##гови
издаден
стъ
Спи
Започва
##ss
##стрий
земя
големия
наградата
ке
##лика
Ван
##готов
##ева
Следва
спече
##родни
ат
басейн
капитан
##вари
рок
ряд
западно
победа
##снат
столица
архитект
войни
славя
омъжва
избори
##кол
##фал
винаги
##рав
Украйна
Фил
пора
##рено
##зди
##70
##формира
##ктори
наричат
##тирани
##стира
1972
##ug
Поли
##нциклопедия
школа
подход
##арди
##логията
Запад
##ib
яд
1919
постига
новия
симво
факулте
##рея
##igh
бун
ръководството
почи
практика
История
Ара
затвор
##тник
българите
деец
бю
използвани
##жу
земята
Работи
##туа
Левски
##ind
съеди
1969
преми
предназна
засе
енергия
41
VI
Пло
##дента
Мексико
срав
##кара
##пове
##юза
македоно
##бах
рис
присъединява
разглежда
постепенно
##вора
Други
##дръж
Анна
##лово
продукти
##ливи
печа
напре
##стка
1973
Елизабет
права
1930
достъп
Гви
##стика
произлиза
клас
вз
##социа
Одри
навлиза
обект
Всички
държавата
##чката
високи
местните
Мето
##ius
млн
осман
##ts
организацията
ато
действи
##вето
конти
##жеството
производството
##тиви
ца
##менен
напред
Тер
остават
ФК
заминава
анали
налага
55
Николов
##писана
Земята
Тъ
отива
цялото
разделя
недо
##лес
Стру
ясно
националния
боле
##менова
##ционните
##улка
##ica
1948
университета
##колкото
бой
гора
брига
##чният
специално
спра
характе
##нец
##бар
проекта
западната
##ьори
##цар
##лар
пост
кампа
ВМОРО
различните
сравнително
##лън
##ivers
момента
##вност
Тук
##end
ак
титла
1947
твърди
чита
1977
федера
съответно
щати
източната
организации
Сара
българското
1946
веще
полуостров
болни
##фел
пъте
унга
опе
Родо
къщи
##ate
1962
местността
въвежда
##стън
##лос
граница
1967
##шено
gene
Търново
’
75
##дика
1903
##urg
мона
къща
подписва
сва
младеж
отделя
сле
лети
Бог
Син
мюсюл
Тогава
ръководител
Баща
Павел
##рони
##готвя
пак
помага
Член
43
брак
папа
основата
имало
компо
дърво
##лец
компютър
##рад
Еду
завла
##метър
##гане
##рещ
##сова
Пове
обща
иници
##нята
Par
унгар
Коста
Създа
1965
сгради
1966
##лация
подо
##казват
каза
революция
Жан
##ждението
прос
Кристи
колони
пие
реките
##уване
миналото
наблюдава
отделни
битка
автоно
##днага
теория
спечели
фамилията
превър
Ам
имена
режисьор
забележи
сградата
турски
инженер
Am
променя
Sc
дали
Сли
Югосла
разстоя
противопо
Виена
Институ
##берт
реали
160
отда
база
##торите
Голе
=
събития
##няване
митрополит
##чис
Хър
отглежда
Югославия
##oh
араб
кара
доктор
Игра
катедра
подготов
##бла
1929
подчи
наречен
побеждава
Етно
##рни
градът
православна
зависимост
науки
##успе
отнася
##шенията
##ционната
##скар
добри
фронт
свети
принце
публику
1893
##лега
##raf
пти
Константинопол
Разположен
системата
Калифорния
##сбург
трите
домакин
хар
##жието
кино
Джордж
1923
##ond
осем
независимо
стари
##ary
минава
първа
рано
##разуме
##чината
открит
стена
архиепи
##хожда
##руд
Или
Ото
##orld
Дре
1964
екзе
уси
врата
Дел
##ставя
Тракия
зва
##гел
Бил
Велики
00
##мети
##рали
44
художник
офор
##ано
##фициал
лично
броя
##чността
поп
Заго
##ралния
експери
Мюн
епархия
##ern
##тият
##чие
аси
тор
##лян
дола
мито
електрон
Чар
##леност
##бат
трудно
следващия
##сния
разу
оръдия
романа
1959
кот
Гай
##бел
превод
Централна
материал
an
Вра
##бани
притежава
стаби
изигра
влизат
##рални
Брат
манастира
##янов
Пон
##мански
независи
защитава
италиански
##мпе
Бургас
учеб
преимен
48
съвмест
##спи
##лето
европейски
Фу
Хай
52
премества
територии
##рийски
носител
крайцера
##стието
езика
Народ
просто
1949
направ
##зай
2019
Полу
когото
Заедно
уч
стане
взима
глава
мм
178
Кър
изчезване
Дон
##90
##бин
осъществява
1938
1963
максима
##рай
##лона
##шаване
Кал
кисе
коро
##ry
##мото
Бор
Посетен
сериал
услу
намалява
документи
##дото
##шават
еже
Ау
##мит
паза
нейната
зае
рядко
маса
кралство
1961
фла
моми
ръце
##пят
Френ
ен
##ствената
##ast
успешно
ико
вну
подкрепа
##вай
##зацията
дълбочина
##стина
##ork
##джан
Univers
##фен
##чия
##стендил
убе
1958
морски
1956
активно
опълчение
##ял
тъм
залив
1915
Освобо
##ev
##мед
маха
Автор
##печат
пътува
политическа
сбор
Скопие
Бито
паметник
никога
##метри
парк
номер
Докато
изследва
площа
##става
клуба
1877
1936
Акаде
Македоно
Кни
контра
туристи
##рация
вторият
Цариград
отколкото
##ies
##май
приблизи
##рово
създават
загуби
Спе
Запа
престъп
Ново
двор
стойност
Русе
селата
музиката
дом
водят
работят
източници
##мбия
##верен
вместо
Същест
доби
##ползва
##джър
орден
##тн
оконча
втора
Pro
Вис
##тични
##чик
##форд
държавен
47
##стой
слабо
обхваща
турската
експло
известните
жителите
продължават
##нда
Sch
показа
##чер
минути
обучение
##тират
доказа
##дот
##правител
##ливо
закон
люби
Разпространен
определени
птици
##ep
последния
##рит
Кре
##дават
расти
крайна
##вала
принцеса
сул
герой
вока
свиде
горе
Тъй
ръка
бизнес
партията
зас
стига
графиня
археологи
лице
Sh
Кьо
факултет
Стан
подно
##лацията
##стин
Солун
планински
достатъчно
##дка
траки
Ръ
##мните
кръсто
##sk
Дар
##age
##жден
Том
Пана
шоу
##тиран
Био
непре
##ien
ООН
1924
железо
използван
##лър
1000
##западно
Робърт
Елена
библиотека
##цифи
икономически
Швеция
##риди
##говори
училището
Балканската
реки
##нс
st
регистри
нас
думи
микро
##чева
Етнография
##щения
удар
разказва
Шо
чиято
##западна
##ряване
число
изстре
второ
тяхната
удо
##пени
конститу
##евро
65
##12
търговски
краси
извърш
Сен
успяват
##писват
брега
промен
Hist
бое
1925
Около
on
##комо
конта
учени
##тари
взаимо
войвода
БАН
##ach
пазар
Илия
размери
Кюстендил
закри
иденти
споменава
изви
##същност
##жът
остан
дворец
Пет
майор
твърде
използването
##ложени
страте
наименова
##ътре
централната
обса
обратно
ов
Пав
130
##говора
##ску
##ant
командва
свои
##ворен
1927
##зор
Бол
сингъл
Една
##az
избух
одринска
нару
добра
1935
преслед
цвят
##земно
дълги
майстор
##края
средновеков
eu
##анта
##източна
##дените
##еро
##дията
##форми
актриса
революционер
##ational
Саксо
творби
струк
дума
##тил
бога
типа
##гли
Кур
прекъ
строе
предполага
мощ
170
Хит
##мии
##ветен
задача
##дие
##дова
##кулп
норма
научни
Климент
утвър
##тивен
обяс
инициа
##рас
Франк
млади
Римската
##ани
албан
единствено
##гов
Колу
осигурява
176
1908
избра
Загора
pp
Любо
Министерството
##зеф
одринското
##ors
Саксония
He
дял
полет
потреби
46
##зена
##ith
400
рода
храма
1933
зала
негово
връзки
долара
##ish
застрашен
опо
Ен
види
##еми
клю
Андре
жерт
заповед
дет
гроб
такъв
Симе
1914
Макси
##шестве
Швейца
напада
християн
##сени
Бела
сайта
камък
действие
отряд
посред
Алба
Швейцария
##сбор
##сей
предви
затова
Хаджи
откъ
##ment
демон
Обеди
##ust
Бран
излъчва
Университета
черно
ели
1917
Кън
##сур
##бъл
##шат
Михай
серия
Bo
есента
См
Каза
труд
оп
родния
мине
оставя
##ve
##хран
фол
##ложено
Изра
Първа
пя
хре
Едуард
1928
постъпва
принадле
Q
построен
##тъл
Софийския
z
шах
##вю
зави
създаване
издига
##tit
Браун
старите
Кай
##рира
##обла
Жа
линии
продава
##линг
Ботев
национално
разпреде
споразуме
собственост
##кала
обез
Луций
##леновете
публика
177
огла
поет
аген
##15
полета
##ue
Скоро
нещо
1952
ражда
германски
Гене
полко
##черта
финала
наричан
континента
##ложения
потвър
бал
Община
ски
предприя
Кир
##18
оръжие
49
изглежда
провеждат
дават
стадион
дейността
уе
##сира
преподавател
##тии
положение
депу
##вана
##шният
##нея
Руската
Формула
тяхното
наследство
поче
статистиката
##ice
##вей
##зъ
пролетта
re
бази
храна
демо
##стът
излож
##лба
статистика
##рения
##дената
##ктът
##леда
1957
философ
израз
статут
##tern
корпус
земедел
периоди
персо
##ляните
многобро
##уа
върха
структура
Горна
войска
##do
##десе
162
1953
наречена
168
количество
##жина
##тец
##телността
1951
народен
##сие
изключение
власти
163
прилага
римски
##бон
последната
комисия
##вани
герои
идеята
Повечето
i
Мер
##хите
наля
конгрес
Мин
Българска
старо
Хитлер
##рел
##лим
##мисъл
десетиле
##ath
растения
##ly
завърши
##фикация
Бли
християни
Инди
заявява
##жната
самоу
неуспе
изкуството
назва
коме
##чества
##женията
заво
бур
152
Ac
53
org
скулп
програми
стопан
едновременно
175
режим
Петров
Мартин
отговаря
филмо
новите
VII
жъл
появяват
образуват
административен
1937
брон
камен
##ктно
World
предизвиква
##ial
1873
предприема
Дан
ква
Press
##зната
непосред
##жар
1922
##натор
международни
54
##тс
Марга
##ure
##тено
##чаването
изоб
поръ
характеристи
именно
##сар
##незия
лов
поредица
58
концент
Цар
ориен
прекарва
дълга
Йоси
офице
нейните
Ph
Ол
##burg
линията
богат
причини
замък
##фту
марш
бел
##хни
1916
Органи
футболен
основан
##alogy
веднага
Стоян
##йският
лесно
сайт
Въл
изпратен
самия
##мбарди
загла
спира
Рей
финал
племена
бр
Например
жените
негови
##ang
Съюза
владетел
85
##out
Над
##сича
селища
##хията
описа
склонове
устието
##ung
Мъ
тяло
Белград
Лео
турнир
1932
френския
л
1926
открито
##рос
Гре
глас
благодарение
cz
беше
сним
използване
поддръж
##сау
sa
Администра
стопа
##ost
166
##web
##стки
1904
основен
братя
играч
телевизия
##дово
съоръ
изго
цяла
наказа
чин
възви
Хари
##чини
##вести
фами
##ферата
спрямо
маща
##рок
56
Обикновено
уда
Макар
пространство
место
Купата
##ствените
лица
##бове
##нант
Каро
1931
добрите
високата
Плевен
техника
##лс
срещи
конферен
##рев
Голяма
медал
University
леги
Андже
Мюнхен
изобраз
164
Израел
##гнал
гале
кър
1954
капа
въпроси
##пява
Иран
##11
##хал
дефи
увеличава
##бно
законо
Бай
принц
прито
##бий
##вената
канал
##тови
64
мом
##лай
изме
##eg
попа
научен
##зву
кори
специфи
режисьора
Вел
ника
разка
автори
Първото
Ама
дебе
древно
изследовател
Сал
измер
чийто
Георгиев
бара
циви
изпълнение
##син
##нъж
космо
общност
125
голямото
##читат
##фера
подходя
лен
настъп
услови
роли
училища
покра
неу
юно
пеще
звезда
социалисти
##ff
железопът
важна
Част
Слън
въпрос
главния
изградена
##ire
градски
производи
##ляри
носят
140
постоянно
съществуват
##лията
Филмът
квартал
програмата
165
##per
##етна
##мната
Гвинея
импера
заку
##стори
всяко
##денбург
1921
##мове
наследник
##кратно
страните
##нди
euweb
издадена
крепостта
американската
la
##ass
##вността
издателство
командването
##жния
победата
общини
крайцери
genealogy
изследване
заслу
##19
##enne
##яна
##циан
Става
сер
1955
##ложена
ситуа
##ума
##ремо
чиито
щаб
орке
пропа
негова
функциони
ох
##ore
Вой
географ
съде
лейте
##дното
1910
Откри
относно
1902
гло
##цин
##рието
##iss
Малко
##поли
##уд
Population
квали
местни
мага
Добри
документа
##ела
нейното
съм
ВМРО
Шумен
Дейвид
гер
Атла
##ждават
нужда
##творе
##вий
философия
типи
употреба
сравнение
Уа
крайбрежие
##ницата
##iz
президента
кост
##шкия
равно
крайцер
правото
царство
##man
##етнам
претър
изби
##нема
сериала
нейния
##жия
друго
##змът
операция
Аб
##ловината
Португа
кандидат
Дю
##таря
Атина
62
скри
бомбарди
##сул
пехотен
мер
пример
определен
самолет
##даго
Лове
биват
Съединените
мис
икономика
сведения
Нидер
оттегля
Белгия
##тична
##кият
докла
БН
Върхо
военните
основната
##жите
174
научно
##чард
##rom
Петро
изка
кръст
пък
партн
млад
играят
Византи
софту
##ционния
Впоследствие
Ца
Истори
##вки
знае
##тей
Стоянов
Извест
експедиция
подобни
изпи
##рус
##шкото
мра
дел
##тю
##тиране
висок
относи
атмос
поредицата
източник
##цип
семейства
североизток
##твори
##чените
храните
Сви
главата
фолкло
##16
##гъ
##лените
##уването
Двамата
търговия
паша
рекла
племен
Български
##ati
Град
ид
##сец
водосбор
хър
Охридски
заба
машини
Корея
британски
гара
термин
Кня
югоизток
няка
Мол
бол
Ричард
##ck
гост
сблъ
1911
представляват
скъ
Ей
отря
Асен
еска
лейтенант
##14
##дъх
Мен
вулка
Прави
енерги
залива
седмици
##дела
Ран
Висо
протича
##мил
##джиев
даден
Сту
##кистан
##ета
Тодо
Вся
##ear
Хенри
##ain
##хау
изпълняват
ЦК
##ier
##тик
##били
172
лидер
методи
изграждането
Илин
хвър
размер
Маг
Йордан
довежда
Македонски
тема
Светов
Фре
Бело
Пара
автомати
Her
##ubl
аз
##мпион
отстра
##sh
Вир
##мирал
вила
тона
поход
##енти
155
продаж
посла
остана
Петербург
##вле
психи
характери
##НС
##che
##tienne
Адри
Олимпи
ro
първонача
##лез
Кул
каф
Албания
##йнт
Томас
показват
Южен
##няването
дове
Майкъл
173
моно
Ща
Награ
всичките
##рна
щ
##татите
нараства
членовете
##рално
сътрудничество
ули
ранните
##75
##лярен
градовете
модели
повлия
##родица
преминават
ползва
##ландски
романи
##юже
##мък
тежки
##ждение
селището
##СКА
##рета
156
дъж
##гледа
##гът
отборът
##публи
Богородица
етно
реши
Норве
Кънчов
впечат
##ys
функции
Ска
##ментите
##ical
##гръц
Публи
независимост
##76
карта
орган
Хра
науките
##мести
86
##зани
##вените
##бана
##леку
Съвета
асоциа
суб
##действие
##тория
Мери
Село
данъ
ресур
##ны
##шу
претен
хан
##морски
##ek
1907
повърхност
##тното
хил
възра
Вол
Гран
бригада
открита
затвора
изоста
големина
##ah
##ron
Хоен
важни
инструменти
образованието
обявен
##дини
завлад
обръща
Вътрешната
##мбург
повре
ада
##95
Слу
##au
проя
сам
зимата
запазени
обши
среди
целта
##бай
63
приет
привър
##ъд
комуника
Хол
основана
очаква
Стро
силата
вариант
88
##дния
промяна
Илинден
Официал
Европейския
##стов
Роман
камъ
транспор
подкрепя
68
инф
разпада
##yc
греш
##дън
##ьов
дивизи
стратеги
обществото
дан
годишен
проучва
нямат
сцени
отразява
чете
##рените
ниско
списъ
##пки
##гнали
руския
##пто
култури
##кус
##berg
1906
##динанд
прево
Националната
##цки
деко
##кво
ширина
демократи
езера
1885
дебютира
специалност
##жината
##стойчи
Габро
премах
изучава
##дис
присти
династията
фанта
арестуван
въоръжение
швед
орбита
##лената
посвете
Тю
Край
разработ
натат
полковник
американска
Macé
теат
##пси
Бро
##фалц
Macédo
Macédoine
##mon
академи
##13
##лност
##зми
##вието
Аржен
възро
правата
запазва
Теодо
живопис
завод
Гали
спорт
свещеник
##джо
язови
##зем
повърхността
Благоев
австрий
Фердинанд
Лъ
154
поро
##алната
метод
предвари
Ден
Chré
Мила
##17
рези
руската
обслу
космически
##ect
том
кали
Фин
Рейн
меч
Хон
монар
Атанас
съветски
##ас
##nal
##ганда
##лския
##носа
вице
Chrétienne
Вай
Втори
76
##тивно
Площ
Среща
влива
смисъл
##гър
Ала
подраз
72
Col
обозна
##шките
1895
##ight
153
##денция
##вети
##поле
върне
скали
индустри
##стъпи
Оскар
Фла
церемо
##ански
начина
Коми
##хът
##ралните
##спекти
##рет
##вицата
номини
единственият
##ide
Руско
82
преобла
##вие
##станове
ум
базата
привле
лаге
титу
##ey
нах
##вария
клон
лине
журналист
##ult
##шинг
подготовка
##мената
движението
1909
##рън
марки
##лио
Ангел
##дението
старата
Хю
und
Индо
##ническата
категория
##днъж
укреп
##снати
всъщност
Свет
необходимо
##чани
мост
Първи
войските
сръбски
партии
##образи
##щението
конфликт
##зел
зависи
приемат
##кос
##лик
Методий
Сливен
процеса
етап
отра
забеля
ранг
##алните
граждани
##знание
##сена
смятат
Демократи
##сам
ЦСКА
дипломати
думата
##руса
##водни
Христос
малките
Оста
кръв
специални
използвана
архитектура
Иконо
девет
такава
##gar
транспорт
84
безо
границите
##ina
дебют
##сленост
неговият
самолети
съдържание
Гро
Хел
Санкт
прекрат
гръцката
##нге
War
секу
ремон
##чил
гроби
Каме
Радо
Видин
Долна
моду
драмати
статии
Мел
##пул
Ну
##носи
консу
запознава
134
Ори
илю
Епи
накрая
##вили
авиа
упра
борбата
краля
търси
Пала
студент
консерва
96
единици
индивиду
135
##жаване
губер
федерация
##сио
времена
народна
марк
пече
фаза
Пру
конкре
Фон
Често
##ock
Ro
Ели
поред
чета
начало
чужбина
привлича
изборите
158
##био
##дев
##рка
128
вдъх
глед
културно
##кват
Меди
спът
придобива
вкарва
##вника
Андрей
епизод
##оби
елемент
погребан
стопанство
Лай
армен
педаго
##графията
броят
равен
преобраз
годишни
експлоа
придоби
пуска
Гар
четата
##нел
##рът
защите
доброво
Съветския
оригинал
островите
медицина
участник
Клу
задържа
Португалия
98
##ведена
национални
вещества
##дира
станция
600
Зна
##тично
нати
##таркти
Им
Бори
подобно
посетен
архитектур
##фил
двигател
продуцент
Георг
астроно
убийството
##кой
##тичен
Както
символ
Бъ
##съюз
Лос
Вале
къщата
събор
буква
##ством
играта
олимпийски
74
Тор
улица
предоставя
дисцип
състезания
Горно
концеп
земедели
пен
пясъ
магни
въстанието
##пур
##търа
57
##дрид
управител
избухването
включени
##ite
кула
наем
Христов
##lo
##фект
##мените
Попов
спуска
възрожден
каби
145
ляв
логи
Август
250
##лезе
Ката
моги
##ризон
110
1901
##крови
Аржентина
Националния
Бей
модерни
Института
##тича
убити
свързан
функция
свързана
хидро
кралица
музикални
климат
Народна
градина
аку
основна
Ap
##ърс
изиграва
катастро
##нау
##бран
Кам
##четата
##чеви
наси
планини
Йосиф
обикнове
светлина
седа
разби
създадени
Коло
тера
повод
Колумбия
парламент
##диен
цвет
Норвегия
##bo
##новка
бойни
132
десен
опти
##sch
рисува
изкуства
Поп
##ктория
флота
Ирландия
разпространен
59
теоре
##гау
хор
адво
морето
##парта
датира
предизвика
диза
чието
66
коор
приблизително
отбори
##собен
##land
писмо
офицери
завръщането
148
стъл
звание
несъ
прежи
фестивал
национална
снаб
##полага
Виктор
турците
принуден
ЕС
##erson
поло
шампиона
##ляни
хипо
##рала
допри
##къде
удосто
83
##роко
##гнати
главната
ул
##нович
лати
мачове
Виетнам
плът
##ская
Бон
##сене
Ек
американския
Ex
ради
j
равнина
годишно
##дки
принцип
династия
169
софтуер
##хов
Без
непрекъ
работни
##amp
Обитава
популярност
отпра
Br
##мберг
Кипър
138
Мона
уника
Едно
аристо
нощта
##ІІ
теро
зри
свири
Конрад
US
композитор
##yal
##гиня
##вуват
насочва
природата
Госпо
##лищата
дейности
Родена
Голямата
Кле
уеб
хода
преименува
Тран
пряко
Нови
трибу
недоста
##движ
##мски
меда
пилот
испански
Mus
##товче
съкра
стени
местното
al
публикуван
##ww
##взе
плат
църкви
отбраната
взри
нахлу
##новски
Атланти
трябвало
Реги
##годишен
Ad
код
##зидент
империята
нищо
Нидерландия
##лене
Eur
фра
##ver
Неа
Луис
анима
конку
Ъ
свое
##led
##нери
##шаването
финанси
превода
##фелд
##лкохо
говор
лека
мърт
останали
##жата
текст
##www
обита
##торията
##ческият
92
едни
тежко
гне
Сейнт
##ТО
##бул
##ненията
съчета
второто
Франц
съдове
компании
плава
##сват
главните
##дец
селско
сне
Comp
##ong
Vol
##маните
архиепископ
Be
Григо
Симеон
Ed
99
Скоп
силите
процеси
еко
Използва
##новен
Получава
124
регу
##рението
оценка
португа
последният
Гьо
помощник
Сам
апо
Спарта
Бавария
разслед
обър
традиция
Жен
Graf
Носи
въгле
политиката
##edia
зло
Министерство
##чево
бели
Смо
##фри
посредством
##пусне
трето
##ствения
##дии
##прият
дадена
##ходите
##лмс
Дне
##венту
Групата
##бол
обем
нарежда
бежан
участък
господар
превзема
Антон
##raph
Албу
##золю
159
73
Дължината
Добру
избор
Мадрид
##тис
правител
признава
Wh
световен
126
жа
важен
онова
францу
##бек
##ein
Сръб
позиции
##ънс
##мика
136
Мир
ученици
освободи
намери
промишленост
##леж
Co
##мения
тима
мисия
опити
пътища
Фро
слож
дири
южните
текстове
##цвет
##сиони
надпис
##уди
избе
##гос
##вестен
събират
##лиан
Път
леко
родителите
определят
Шампион
останки
свобода
##кович
почина
##леф
Същата
##ФА
##son
графство
Дебю
ръцете
проблем
Джей
Стани
долина
изпита
възниква
отличава
разстояние
замъ
##гъл
северните
##пува
Военно
единица
VIII
разкази
носе
установе
течението
ed
146
даде
##писите
78
народно
преврат
##редиземно
##опа
Ерн
Бя
##стия
прием
Сел
Ловеч
Ня
##копа
положи
справо
наука
сцената
министер
133
полза
потен
болница
##тек
ско
мени
интервю
археологически
##orm
Лин
##стопа
прео
синте
художествена
Тру
бяга
двора
технологии
##дник
##кона
символи
окончателно
##ton
клетки
оглавява
кампания
старши
Адолф
наци
хро
вди
##72
турци
родо
Хесен
##сус
1896
он
частично
69
моби
стартира
##уе
##жества
##тацията
пресел
##ляването
портре
банка
Битоля
ръково
Чо
Gre
препоръ
дотогава
1899
наличието
определена
братовче
Ул
Всяка
##образни
Филипи
пехотна
##зиране
емигра
##бна
##лева
Със
Хил
Лука
технически
144
създаде
##рум
der
бас
##стена
##oph
149
дърве
118
нуж
##тския
строителството
123
##ряват
##стени
загуба
приятели
капаците
##port
ръководство
Няколко
френската
##щем
##тири
атака
by
##вайки
бозай
##тинг
Волф
идеи
криза
трона
внимание
плоча
екзархия
Кол
тропи
##ack
##гури
##ct
##old
здраве
Ари
родни
операции
вя
Пау
сюже
братята
##ive
##ric
Лау
мести
стено
##тист
научна
възпита
Съществуват
някой
Ge
инвести
набро
##гей
##там
##шан
лагер
широка
музикален
##драта
Go
учен
отваря
##ктора
знак
вътре
WW
im
буди
##цев
1876
звезди
опита
Вен
метъл
молеку
kg
##лска
тече
142
net
криста
дъще
варира
##orn
##фони
Ники
физика
Среднове
Car
цялост
земите
икономиката
окупа
##дес
пусти
Екс
гар
##les
Всеки
имената
Средиземно
##клон
978
Михайлов
конкурс
маркграф
Сирия
Световната
ХХ
##сност
Заради
##ace
държавни
кал
певица
произведен
какво
ниска
##бени
Sy
фамилия
122
##стави
народи
газ
атакува
изграден
##снато
борда
|
Is
бест
##ows
##совата
въздуха
влиянието
##ans
ими
Вашинг
##ium
Ернст
##линд
самата
History
Joh
водосборния
свръ
малкото
des
Хал
неща
##режда
##вале
##онът
прести
##джик
споразумение
##руп
противоре
##елс
##данов
Хор
кандида
последователно
интен
прекра
Херман
зър
анализ
Българското
самият
##оните
опози
##надесет
руските
Стефа
храни
класира
##писването
##защи
##вията
##вление
Дания
##фур
имал
трета
Анаста
##СА
услуги
длъжност
city
##делите
избяга
Иса
Живо
##TV
##ex
x
##лии
Вюр
огън
възприема
##лайн
Пазар
оборуд
##кира
##лекти
факта
сценарий
сексу
горната
1879
окупи
Кралство
западните
бял
бреговете
Междусъюз
чужде
##af
корабо
##брехт
Анджелис
вътрешните
ar
Стой
##шето
Благоевград
Ах
пома
89
Черна
бившия
Wind
ефект
прими
05
населени
освободен
##можно
кг
800
газо
напи
Римска
латински
подпомага
##73
съвместно
129
##вършен
##тернати
третия
директно
устройство
##гната
1898
##мня
Главно
външните
либе
важните
Tim
курс
Жо
##тани
мощност
Подоб
присъства
##цов
индиан
писатели
Бю
Издателство
##солю
ъгъл
XIV
Еди
различен
##корд
гре
коали
##вис
огра
пресича
Rec
##загла
Гю
1894
трима
##ология
решения
##ровка
Теле
Тодоров
зъ
Шот
номина
Северен
задължи
седмица
международен
##iti
вери
изва
новото
напрежение
Музе
##совете
Основните
резултати
деня
науката
възможността
##дери
Ной
##варят
##ild
##ственото
високите
Ис
осъден
турне
съпротива
Успе
Дание
асистен
изразява
настъпва
авио
Доми
кера
откло
##вяне
наши
Затова
издания
##мунд
Mon
преу
хоризон
предаване
##йлд
143
рибо
Остров
състезава
знаме
импер
румън
Щи
прека
възлиза
Виктория
Ирак
Петко
##ментира
Бун
Божи
Стар
изчис
лечение
##нджа
Втора
93
##телски
третата
##79
Вардар
сут
дружина
Э
сх
##off
##нина
цве
##греси
79
картини
изградени
##тий
боя
сли
копия
##вов
##рене
теорията
##рун
следи
Еге
##фов
откриват
вследствие
качеството
##чне
цял
оръжия
подгот
##лози
придру
асоциация
сор
##71
титли
налягане
съществуването
Ней
сухо
приложение
притоци
английския
##твор
проби
чисто
привърже
Нов
самото
корабите
##хер
основател
Киев
колеж
##ata
##population
художници
139
##ватия
дела
законода
$
риба
активи
хърват
снима
договора
citypopulation
ева
стък
домини
##джу
фонд
##тенберг
валежи
лабора
моди
покрай
жп
##вказ
справочник
състезание
Цезар
спаси
##въд
Ат
##aw
##me
##брика
1897
пазара
парале
##шър
##спон
1880
направени
##дене
отдале
##рои
Дебър
първенството
жанра
##грира
разгро
##пъ
Люк
Ган
студио
Съюз
абат
построени
американските
Аф
Бри
##нало
##лакти
тегло
започне
at
Адам
подви
зана
Цел
Албрехт
##нор
хран
поведение
самолета
Анге
имо
##ждения
летище
различна
заклю
магистър
характеризира
мало
##печа
съветник
десетилетия
##дотв
105
арабски
песните
ръководители
тън
Intern
Вашингтон
световната
случва
недостатъ
добровол
поставени
08
Оу
##дски
продуци
световно
Югоизточна
##гол
Pol
Прое
граници
Вален
продукт
киселина
##чков
Кро
##сване
Алекси
излизат
##каля
XVIII
##ъци
51
Сити
идея
##нология
военната
##терина
световното
##мила
Изгра
архивите
Барба
предотв
Площта
Международната
##действа
поколение
##нио
Неговият
Фило
Вирджи
##йците
Босна
Хърватия
търговията
##пал
114
Попу
Paris
техния
обико
професионален
плане
дипломира
##ranc
закона
някога
y
списък
##pr
комуни
нос
батал
заоби
широк
Марко
силен
##фрид
алкохо
Продъл
Сици
##ograph
гледа
повтор
предмети
94
Ед
оказват
Чрез
##стката
заемат
поезия
##дко
вход
запази
държавна
##горе
##рните
##честър
Москов
Рудолф
основано
свързано
##лият
мен
държи
биологи
допълнително
»
02
ока
топо
##ьорите
##iet
##пела
контрола
##стъра
изпада
департа
съдържат
гръ
конкурен
мин
Основната
##борът
двойки
##цбург
отсъ
днешна
императора
09
труда
##ващи
разделят
Кло
Попо
##байджан
безопа
##ляна
Смята
обявена
устройства
##ляз
##нони
Кос
ресурси
##74
##rid
##кола
##тивни
певец
предпочита
пристанище
##ulgar
народни
поставят
Републикански
You
Cent
##комотив
заболява
ежего
предвид
търсене
##ros
##вой
Окръ
музиканти
отделните
европейските
##ous
водите
командване
112
##зания
##щават
невъз
супер
##лизацията
проявява
средната
тръгва
другата
средство
##шън
##вател
уско
работе
Индонезия
принадлежи
##rich
Бой
факти
камъни
проведе
потенциал
04
##вци
115
Авто
##европе
Конго
магистра
автомобили
##органи
затворе
характеристики
чичо
##стоява
пери
веднъж
##тео
нива
##ковието
лицето
излъчване
Зве
##pe
##стване
корпу
##манските
Световното
многобройни
Габрово
връзката
съхранява
##вядва
##матът
##ске
##вката
1890
архив
фу
концерт
тю
драма
включен
малката
##пва
##ъла
диаметър
заме
екзеку
устойчи
##мър
##ology
влади
злато
украи
версии
##rad
##рида
ван
фер
##ковете
съвсем
приключва
Льо
реч
##ктурата
принос
липсата
партньор
##na
##долу
person
##лант
гаран
предпа
птица
##ope
##шал
«
##ези
##бето
Шарл
подразде
социални
напу
думите
сражение
четирите
известния
Маса
Питър
XVI
##строе
Bl
Буда
фигури
комбина
##зербайджан
Рос
собствена
##бя
патриарх
##неното
карто
наследява
официален
##кле
котловина
домакинства
Перу
Средна
##uk
заведе
кв
##oman
купа
##крация
##ресе
Стре
Казах
##матика
решават
наречени
единствената
Близ
плато
митология
скоростта
щат
ланд
познат
граничи
колкото
предшестве
##бой
Може
статия
върховен
##шел
##тала
Сар
брази
броне
десния
##манов
##BC
Жу
##ence
##писано
мерки
потре
##дежда
Кост
гимназията
##77
##isch
Играе
Армения
изри
##лендар
печат
щи
Народно
##рски
замъка
едноименния
откриването
награден
конференция
##one
ол
завзе
пиво
пресе
наричана
Брю
##ick
##унд
танц
структури
отношенията
месо
##пълните
простира
инци
озву
##мяната
наста
постанов
##ma
##драт
Тар
##влича
##опера
Уил
Ленин
канад
абсолю
близки
вземат
Me
##мара
емо
левия
изнася
отстъп
депутат
Монте
съставя
##зните
Amer
еволю
кореспон
##mp
икони
нер
anc
ено
##дост
наред
убива
##сното
съвременните
##енето
##реден
религиозни
##курещ
увол
полски
средна
06
блок
стома
##ett
звез
зая
екзархи
отка
##америка
Кей
1870
съобщава
паметници
квалифика
Windows
революционен
състезанието
##създа
Неза
ам
чак
##дието
въоръжени
IX
954
Численост
Административен
##дация
тури
Санта
случая
##лом
Cl
ac
##ксън
метро
откъдето
галерия
наричани
значителни
##фро
самостоятелно
водещ
индустрия
Бла
##настоя
книжо
##зана
маршру
##ндия
поту
махала
протежение
Ген
Шан
дървета
влю
##рацията
отделение
##гал
Man
##логични
обществени
червено
Гон
иму
извършват
##гно
##ксел
Франци
изключи
Сил
теми
персона
##тивата
##настоящем
##йза
Гео
вне
Прага
машина
Добруджа
институции
##жените
зелен
York
спре
алтернати
##русалим
снаря
приета
##сето
Освобождението
Квин
##вещава
яр
частни
##мие
le
тен
Стивън
землището
анга
Майка
силни
заседа
Букурещ
Василий
Лей
##ностите
чуждестран
провинцията
##енеди
съпруг
##бена
Две
##тивна
паци
отворе
con
Вест
Чехия
##щане
бей
пътна
задачи
страда
Ma
119
##oll
Баден
екземп
окръга
##способ
събитие
Свобо
появата
желя
кола
стоки
Холандия
##чът
ниски
бира
Харак
Битката
##amb
пети
минима
El
##сберг
тежка
##рами
##тини
700
1891
дълъг
проучвания
Кари
адап
интерпре
##лем
екра
перси
ранен
концерти
оркестър
прикри
студенти
##дорф
подава
любовта
вулкани
##гуа
Майн
спон
##консул
Радио
важно
комби
обиколка
армии
##рно
My
##тско
разруши
средното
Поч
##тният
отрица
пее
Кръст
потом
апарат
##фин
реду
##чене
##куп
силна
Област
отхвърля
Прилеп
помежду
##НК
парак
Дя
##стични
интернет
Последният
допълнителни
Инте
дата
Капи
nob
местния
условията
музикална
Албумът
провинции
Семей
центрове
##сица
временно
##пел
##фери
предаването
##сис
Прин
последното
Нео
бен
Супер
далеч
документ
Ур
1886
Насау
евреи
администрация
##тиката
##ove
неут
еписко
златен
историк
обле
семина
Кристиан
разпространение
##бят
##щни
108
##ition
двореца
Теодор
царе
домаки
Смит
Грузия
поставен
1892
куро
03
##куват
рекорд
##ix
##вати
##славя
##тската
специален
възможности
##слова
Пиер
сектор
опитват
##фър
##вива
##хаузен
колекти
our
Уол
замен
македонски
##дол
tit
Носител
затру
епизода
##ür
##фюр
##калавър
назначава
##телният
полуфи
японски
собствени
развиват
Разположено
##ам
##ксон
сериозно
##ево
посети
печелят
##ife
тъл
пун
пълна
идват
дадено
монети
разделени
зали
феде
Qu
споделя
Весе
стръ
изпълнението
сума
##бът
##рят
ch
##веж
напусне
правила
##действието
##тически
нелега
##ционното
Балканите
##ena
##глото
##водство
Богороди
Локомотив
##майстор
ангажи
Аг
##образие
стените
##to
Te
##бере
Тит
шан
пан
съда
фирма
Средната
исля
палу
common
##вът
религия
бла
слой
Сталин
контакт
чувства
подготвя
1881
##зовава
бивши
дисер
##лост
християнски
##произ
##нора
royal
##тирана
неизвест
капацитет
##que
Сега
слага
Неапол
##знаване
британската
##пръ
Пале
паси
##несени
изтреби
обучението
народа
двигатели
On
109
Христи
##ляне
##ьой
##стовете
закони
артилерийски
ур
Малай
113
вло
Нача
невро
##ователно
прерабо
разкрива
##нта
женен
съвременни
##гиз
плу
##мация
подроб
обяснява
##рино
Песента
Ети
форму
понеже
Сю
мъжка
малкия
##йлър
ancest
##вайг
Зиг
XVII
Предполага
библиографски
##мични
Судан
оцеле
мнозин
отхвър
подвод
стария
сен
моли
съпер
диалект
пру
сформира
##рели
стои
хребет
издадени
Юна
вълна
##щица
представяне
сват
Наполе
успехи
##бус
##тип
1884
премест
##фу
зася
относително
функционира
##редно
измене
бакалавър
##дс
1500
озагла
ужа
Вътрешна
Наполеон
длъжността
##itt
дълбоко
торпе
дизайн
102
проку
Византия
околната
зони
муску
##тичната
древногръц
гли
разкоп
дина
възстанове
##стие
##бур
рота
Елект
##ксика
седалище
##рек
##ноно
Лий
вят
измис
Постро
почита
Междувременно
##сту
##тово
Вин
##чената
агенция
##НЕ
##верса
човешки
Държавна
намаляване
##оке
дядо
##тница
##мостта
грижи
фабрика
##lop
##алното
характерни
Спартак
собствен
комунистическа
местност
разузнава
116
усе
Погре
обитава
източните
разпространява
##гаря
##лиране
noble
вярва
titled
Косово
Or
Малайзия
ancestors
подкрепата
Тери
commoner
древните
интереси
##ата
ъг
ря
##метресе
произведение
гарни
африка
северозападно
1889
листа
събитията
италианския
##пр
Биографи
публикувани
чис
Прусия
Книгата
Конститу
добавя
планините
многократно
половината
инж
Коман
отбрана
##мони
синът
свойства
кафя
Йозеф
##rop
дол
Евге
неин
въздух
свободен
##сено
##кторите
дъщери
гласу
Войводи
Преобра
##iew
##констру
цветове
натру
противопоставя
##ъка
##ords
##мала
##фурт
верига
политическата
римляните
вътрешността
културни
съвременната
Лига
Казан
Северно
наброява
философи
жесто
кавале
##сексу
Нобе
султан
горното
писателка
стара
##станбул
обединява
прехвър
експеримента
служители
##тваря
##увани
##веждат
Ser
Мур
1860
бог
1883
гръб
патро
##ii
##сер
Ab
китара
интензи
##юзи
Чарл
крило
играчи
преговори
##нели
For
##жното
обсъ
училищ
Яко
вене
##хослова
сутрин
инструмент
##най
Stud
авторите
##ool
Берн
стран
лока
термина
Шотландия
##пена
бед
площад
Вре
##шествие
изчезна
Финландия
мъжете
смър
предприятия
Слова
достигне
пристигат
разширява
десетки
коопера
списъка
Слънцето
##юва
очи
##стрите
нивото
Диа
бул
Чили
десан
общата
##АР
##воен
Няма
агент
висше
кримина
##силва
румъ
Венеция
реакция
противника
Херце
3000
азбу
Марица
Молдова
##мум
##доле
Оли
Представ
четвърти
предложение
НАСА
третият
Граф
Адриа
Пирин
##шево
Can
творчеството
предлагат
вечер
Петков
желание
##ндж
##ктите
кули
хоризонта
ислям
общински
съоръжения
##дом
th
Юлий
мащаб
експер
##лки
106
##добре
Река
селскостопа
##пле
##нези
Алек
Целта
##ентъ
бие
##ленбург
свободно
полицията
Милан
ученик
екипажа
дио
##сково
асистент
Рене
##топ
Аз
##динг
етаж
близък
долната
сключва
творчество
югозападно
югоизточно
Европейската
##лус
Неговата
северния
контролира
##мур
непосредствено
ракети
женски
епохата
Цвет
мани
създадено
състезател
ев
съди
купата
##правят
Костур
##ходни
господ
частици
популярни
бяха
зара
##ll
##станция
издават
Дви
Тех
##възгла
Кинг
хипоте
маг
написана
‰
Вито
овла
балка
Сергей
Фол
Publ
Крис
вертика
Истанбул
##yn
бюдже
преду
Браунш
##нка
All
##якога
кръво
##жаването
##зии
##плани
почетен
Антаркти
Одринско
административно
Сей
##лекту
насър
класацията
стихотворе
конструкция
екип
съгласно
##тман
##хват
Хуан
века
##седател
##уз
##гвай
южния
заплаха
оригина
катастрофа
Gro
Лор
##редото
такти
световни
Bla
103
Кате
пояс
плодове
лива
Кристо
отпада
Понякога
Брауншвайг
##oft
порта
доведе
благород
Национален
телевизионен
софи
пропаганда
атен
племе
изнена
историческа
табли
изграждане
представен
##are
##ution
##ковен
склон
напускат
шампионат
произхожда
Управ
##se
##ze
черен
делега
полице
##текс
Дом
риту
наблюда
Res
хомо
запис
осъще
осигури
##шков
Лен
дейци
прости
Se
Заха
студиен
координа
германските
електрически
##ленд
104
Личен
липса
##лността
читалище
##ale
##ise
##ЕФА
музея
Квинт
оттег
Марков
гледна
родното
Мех
Уелс
Апосто
WWE
##ere
разкло
единствен
ара
белги
##золюция
насеко
основите
Йерусалим
Сгра
International
##унс
нераз
##ram
##кула
спект
подобен
Климатът
националната
плочи
специална
местната
Гло
ключо
Тайланд
Каролина
изгражда
позволяват
Богородично
##рам
##вард
##алния
урав
Съгла
Емил
Голям
младите
##милиан
Атанасов
температурата
##лята
##ковите
квадрат
учители
вниманието
##tor
1888
марка
упраж
гориво
южна
##мерите
мъжки
драмат
педагоги
изобразява
##ile
Ne
##вков
##мона
##страция
##ада
##веща
Бах
природа
свободата
Куба
УЕФА
Свеще
##сембург
находи
##мик
дребни
Ag
##оната
Коли
адвокат
инициатива
Хаб
охра
направен
римската
математика
##юрк
бащата
празник
тим
##ходът
промо
трени
басейна
решението
Благодарение
Ева
Рио
въпроса
регент
спомага
подчерта
наименование
Союз
Казахстан
финансови
североизточно
##ента
Чика
##ковата
Съвремен
заболявания
##ей
##гард
##тино
XII
Вторият
сериозни
коне
Враца
инспе
фирмата
77
##коман
##темберг
значителна
Оде
златни
дължината
07
ау
##лези
##сион
въг
корен
преобладава
вое
##нство
Архи
Крим
детай
патриаршия
##рур
##хор
пейза
каменни
##неса
##фицира
проник
##ряването
доброто
посочва
съсредото
Гражда
##кел
##декс
##скват
креди
сътрудник
икономическа
порно
османски
традиции
Пазарджик
самостоятелна
##лили
Бранденбург
доказателства
Реал
лицен
##int
Тръ
Дире
##ав
##йтед
##нато
Историята
популярен
##лират
##зено
претърпява
температури
##ир
##лил
покрива
представена
##bert
##скоро
ветро
насам
детски
племето
спечелва
э
Текса
##нически
загива
61
дефини
##нева
нави
досто
Музика
##говорите
момиче
фигура
Генерал
говорят
Вероятно
барабани
поставена
##роден
Соло
нагоре
новият
пределите
Академията
географски
We
##фите
Mic
##лизъм
Цо
усилия
##нят
хребе
раждането
допълнение
Гот
Ил
разработва
успо
корона
Любомир
катедралата
##ny
Мест
Мишев
такова
цикъл
полага
съседните
Ханс
гърци
качества
Друг
Наука
младе
личности
##lan
Gu
##земни
англича
медицински
публикувана
Пъ
##гова
секунди
четвърт
сценарист
##бло
издигнат
практически
01
from
небе
Опера
наход
считат
самолето
секретаря
##ДС
##тват
##гват
Едва
Стари
парка
активна
известната
##eth
##ism
##мий
Худо
македонска
независимостта
числа
##ленията
литературата
##ури
яй
##ics
бежанци
Неговите
едноименната
час
телевизионни
##кване
XIII
Архе
изпо
Златен
музикант
представени
##дад
мотиви
Ind
поглед
67
Трен
необи
посланик
Върховния
Ръко
Долно
Кавказ
Танзания
##ner
Червената
>
##зад
ток
##зирано
кисло
търговец
##ican
##ратор
Заема
норвеж
влак
##прием
мозъ
снимки
стотици
##минът
##коза
женит
##нува
##мония
гражданска
##уи
##бела
Еква
##ations
Корне
##ЕЦ
##бява
Бели
воден
страх
##кали
Център
богата
експлоатация
##фред
Жак
##гледи
оставка
титуляр
публиката
стандарти
##нон
удоб
детска
##морската
##джия
Иде
изчи
Старо
имали
купува
площта
НАТО
##olog
Гръц
Изслед
цилинд
пътуване
Есте
Барсе
##TS
добива
Организацията
##ome
виж
одоб
прочу
превъз
##личат
изгу
граду
Серия
обекта
централна
валу
основателите
##pt
Конгре
вероят
название
Херцегови
политическите
##сал
##совите
пиано
##ox
фоку
братовчед
Кения
архиеписко
Азербайджан
##рант
планира
Манчестър
падането
построява
предварително
##TA
Ву
дер
милиар
малкият
земетресе
##oth
служе
масово
1882
Пфалц
Люксембург
Джак
руска
кло
последен
обстоя
Манасти
светлината
##мовете
входа
извори
строителство
##рео
Закон
##соа
##стови
Юнайтед
принуждава
псевдонима
Швар
оръдие
корпуса
Известен
##пин
##atus
мнение
строежа
поддръжка
##ФК
Ямбо
джамия
##СКО
pr
##гене
1871
Кала
морета
изображения
изследователи
Кало
язовир
китайски
оборудване
Херцеговина
ети
##риите
конвен
съпрово
Дио
конфи
химия
Вюртемберг
направление
##деш
##анали
1887
Лазар
Разли
Флорен
германската
приеме
свободна
прехвърля
работници
##рол
иконоста
Клав
карте
Междунаро
издаването
##ford
Комни
##вара
##трий
##строи
Моха
пълен
Уилямс
повторно
представят
изпълнители
инста
предвижда
шампионата
Международния
##кани
##атър
Флорида
пренася
популярна
основаването
##зела
благотвори
##им
срещ
действията
ем
##ненти
терен
възстановяване
##мбъл
##халт
биха
местен
##стя
Остро
черни
Самият
Сицилия
войската
##inc
инфе
##менено
Драго
Анхалт
##зирането
базиран
майката
произвеждат
Папа
фраг
допуска
водни
Дър
апосто
изложби
републи
Ак
запи
##зве
##мета
Enc
събо
ежедне
фактори
французите
##ини
вземе
губернатор
тени
учре
##енбург
диригент
експедицията
##нгви
дош
1872
##ктивни
##ара
червен
Петри
Футбо
Милано
поражение
приви
австра
##полд
Невро
международно
##шая
##лога
Лаза
Беларус
Народното
Ебер
талант
изд
аеро
пази
срещата
властите
животните
дисертация
християнството
обединение
##холм
Мил
Зеландия
##unt
##тви
Хамбург
удостоен
##вения
Друга
чужди
##водството
##ксид
кой
##рината
артисти
немския
##ПС
##сура
минута
Четвър
Дой
низина
научава
Тон
джу
Профе
изпълнител
мандат
юноше
малцин
##ark
Право
планетата
It
кау
Барселона
Op
шот
съставена
##кис
##трио
Представлява
##ръз
основават
построяването
Саму
мемо
шоуто
киното
##лиев
западния
освобожда
##ux
##брю
##фей
писме
затруд
подобре
защитник
интелекту
фестивала
приложения
##ins
Главен
Bro
##ловен
поде
##начало
##гара
##миране
##ест
Мър
гвар
пожар
реформи
населява
ряз
Брай
Мара
заселват
обработка
телевизията
##нър
Ека
лин
Побе
растителност
##чар
##ертва
клубове
НС
Карлос
Кот
Аполо
Марин
Особе
дикта
рисун
жертви
##isc
##перка
околно
мюсюлмани
филология
At
жилищ
старото
##кораб
Йоа
вар
еро
мисли
написва
Македонската
##зра
##прие
##ручик
Алън
Вклю
наподоб
номиниран
Ата
##стрира
брака
декла
долното
отправя
##логически
външната
And
нарко
обработва
Обединеното
Мей
лошо
##ношение
поддържат
ува
1875
##новата
Статисти
провъзгла
сръбската
тенис
наложи
##ij
бавно
колежа
Интернет
Ком
фай
Либе
Макс
схема
младия
установяват
##лах
Скот
скла
участници
литературен
данните
собственик
1848
Франсоа
критика
останалата
##мел
огъ
изгаря
независима
подножието
##хай
ске
дели
Техни
театъра
бак
Балти
фабри
Луната
северна
социална
доброволци
##новъ
##ази
петро
Mag
Рез
##тации
Дина
разделена
##синг
хит
Дани
извърши
нападение
собствено
Тек
губят
редки
Австро
##ветовете
##бие
Иво
отблъ
##началник
калибър
загубата
##люс
конкурса
##alk
##ign
Фар
##грама
Федера
работил
астронав
футболна
германския
представителите
рак
##стоят
очите
наблюдават
британските
##rac
##жир
##мова
Бул
##подоб
удъл
грави
Europe
организират
##гю
нара
Агнес
оформя
етнически
Преображен
сестри
гражданин
международна
##ктур
##лъри
Кас
сърцето
##uch
##вления
##тинген
гради
БЗ
##yclop
##рната
дъждо
##ралното
Тексас
сребър
##мари
външен
загиват
нататък
писателя
Енциклопедия
##uss
##еве
##лас
ФИ
pro
защо
сърде
отстъпва
стила
изтича
Източно
сенатор
##ченията
остатъ
##ВС
##ира
съответствие
наречено
доброволец
архео
членки
интегра
книгите
почви
интели
надолу
превръщат
уве
##океан
Осман
Септември
Североизточна
John
Саха
Тихия
Комите
Родопи
омъжена
превежда
Аба
Топ
Анри
свръх
пивовар
Гъ
##бърт
##тници
##сиите
скан
##съвършен
##ald
врати
##силвания
покрити
##кио
81
##мния
##рево
Дал
попадат
включена
посветен
конституция
##iel
Вит
гнез
леки
##надесе
общественик
##цел
##шер
присъедини
##ТА
аро
есе
##слава
изсел
Сградата
##mer
##тос
Адел
Стран
личност
Оте
реконстру
присъединяват
разпространени
##рк
Закона
Records
разделен
британския
възстановява
римския
количества
##мс
##пно
функциона
Иск
Ще
##изда
заменя
Gr
мля
спортни
културен
##бърн
индо
крайбрежието
Средновековието
##own
##бил
Обще
Пише
##we
##жела
##ймън
Джова
петна
Публий
комента
съдбата
боли
близко
Терминът
класиране
отборите
дка
войните
околните
##атри
##леги
Branc
Илиев
остане
Монтана
pl
жиз
Окта
##рингия
модела
##годишна
продукция
увеличаване
##ual
##лък
тясно
популяри
мед
##вейцар
Чарлз
готов
Григорий
местности
Мада
главна
съветските
##ја
захар
Войната
Герман
Максим
Brancoff
разнообразие
##ад
##ler
##гин
##зас
дух
Мака
куче
срок
##графска
Василев
отделен
позицията
грамо
шести
##мпанията
Източен
Дор
##бната
Годи
Мора
Чехослова
Кова
искат
Варшава
команди
##ровки
Проф
##лирани
социално
двигателя
отказа
бозайници
намерени
резултатите
##бит
минало
швейцар
престола
Вирджиния
Ля
списания
активност
##ood
кое
##sp
Er
##хово
Влиза
Стамбо
другия
стихове
непрекъснато
Лом
бук
отсе
никой
Средно
причините
##шин
##стни
Доро
Ману
##българ
##турите
мирен
турска
##бърг
Лудо
Асоциа
Списък
##вит
Rev
##африка
дро
##stein
Совет
случи
батальон
свидетел
Биографично
en
##дале
вли
обслужва
физически
Ber
Южно
горски
un
Мали
Фера
##йци
Архан
проучване
##нук
БЗНС
Патри
общото
антропо
немската
Сили
Андер
бележи
планове
Пакистан
универса
ЮНЕ
обкръ
рекор
Афгани
месеци
онлайн
реформа
##пола
Мина
сменя
##водител
растение
различава
максимална
Северозападна
Сало
легенда
Император
възрожденска
качество
##сяват
5000
дю
Пал
алпи
Луиза
Фернан
различно
##сиран
##телска
Маври
ЮНЕСКО
натиск
движения
##шва
##енер
##жено
Одрин
Помпе
##рьо
1869
##растру
търже
конфликти
централен
##чан
Общо
риф
вино
земеделието
Гал
with
Ланка
##годишната
френските
действието
##гана
##дява
хирур
##дентите
Даниел
97
Давид
преобразува
##зят
Обе
##пване
##кциите
албуми
югоизточната
##НИ
вътрешни
психоанали
##жка
71
картина
половин
Ери
1867
Ямбол
борби
Търгови
съставен
формират
##ling
##мора
изстрел
предмет
гръцките
съединения
висши
размно
евреите
разграни
псевдоним
положението
неф
извор
полиция
преживява
притежават
популярните
##сина
Soc
1868
корпо
надеж
допринася
##колов
русна
списанието
БР
аре
циф
Съгласно
Ця
##сори
Ани
деноно
процеду
Комисията
МВ
ир
Добрич
бяло
турските
заболяване
##lor
##рот
Сул
диску
Провин
дървени
##вял
##циг
##рока
##товата
доклад
кучета
холанд
крайцерите
внук
пони
изгна
произво
Неврокоп
Ver
##серва
бюро
овце
Антонио
Общината
фар
отмъ
докторска
проблемите
дн
Уест
Кьолн
ер
##фийлд
Lond
юриди
##як
##лежа
Здра
##реждане
истории
Дер
##лович
##ровете
турнири
школата
джаз
разо
Именно
участия
туристически
опро
навод
славата
дебелина
Кири
факт
симпто
йо
##вска
трилър
календар
##ana
Юли
ген
региони
самолетоноса
Сава
указ
Хасково
днешния
психология
Езе
Хей
##ерцог
1864
Сибир
живопи
установ
Раковски
съставлява
##РБ
изпре
##КС
##полис
мото
служби
Основан
западна
теленове
Афганистан
##ail
##лница
##падат
Систе
Шарло
векове
преглед
насекоми
велик
набор
патен
ценни
лей
Авгу
евенту
победител
употребата
Нан
Боль
прав
диско
инструмента
социо
Делчев
разнообразни
подобна
източния
##hel
Die
##вница
##новите
Холмс
предупре
##арт
близките
духовник
Исла
##ловата
Двете
мексика
изпратени
КН
мрамор
дълбока
произнася
87
отец
Прото
едини
Тайван
Гоце
плодо
ресто
Разви
връщат
##ходен
погребе
Опи
##лийския
записи
сборник
Френската
отбраните
##las
##хим
ане
ход
избухва
##tis
Pa
фини
гласа
подготовката
Бога
фаса
триум
основния
Love
Джоу
соли
балан
разказ
написани
##ates
Cor
Чове
същите
##кал
ІІ
Fran
конту
London
Bar
Характер
Сток
краи
предим
радика
търсят
климати
председателя
##ринг
бестсе
използвайки
##lay
##мят
##ланта
Живе
охла
поток
##ci
##сро
##ледо
900
нена
римска
настоява
резерват
държавната
различават
Блан
Дона
корени
публично
##ase
##ini
##ple
Феде
Фели
дрехи
варови
пребива
Президент
Произлиза
Сед
прове
курфюр
художника
##ерар
##ерто
служат
активен
резиденция
##ено
##рийска
хумани
описание
инфрастру
Национална
##enn
##зано
субе
дъното
болести
званието
свързват
##ater
##ниите
Непо
подписа
времен
милиарда
автомобил
##гру
##сне
Оба
Есто
специализира
върховенството
уд
##гола
хал
Бургу
##денията
##знанието
Популацията
zu
Fre
##терии
##ентъзи
Синга
Служи
Присъ
убеди
Общата
помогне
Марс
зрители
артилерия
##зду
щур
Френска
публикации
##ол
Дори
атаки
National
##хове
чувстви
Энциклопедия
##КА
##ings
Яма
класически
##ari
Саво
бяла
напр
##сяване
жертва
##йк
##ерн
тъмно
Състеза
музикално
Илинденско
същи
Камен
крака
Варнен
##новява
издържа
съветската
околностите
Слове
скала
идеите
фронта
самостоятелен
..
але
##жията
Препо
полети
отличие
##зини
##мисар
##нената
компи
едната
редовно
определи
Ерик
басейни
риболов
##храни
рису
Торино
огромен
вътрешно
...
Хау
##дания
Имат
Леон
поети
Словакия
##върши
игрален
Bi
##ними
Албер
двадесет
##ОД
##виан
еги
Йоха
алго
белите
##фицирани
мрежи
вицепре
княжество
стойности
Държавната
контек
Бир
алу
глу
възо
фено
телефон
##ank
Хосе
адмирал
посветена
югозападната
АД
##менят
Крат
диск
флаг
Магда
Улрих
движи
##err
сол
виждат
самостоятелни
##stem
рей
хрони
лекции
синове
огромни
твърдят
принудени
усъвършен
##кру
is
Фал
Антио
базилика
заглавие
разкопки
##хли
Зон
1874
глави
ордена
българо
##ъс
водач
непри
съществуване
Краси
Брюксел
##пуск
##тене
Кен
1200
постоянен
плаща
Перник
приказ
ремонт
Ангелов
бойните
прослед
емигрира
причината
историческата
##щов
Уру
##бните
лагера
Холщайн
затваря
присъствие
бакалавърска
Tr
Ени
вле
##стичен
равнище
родината
категории
Асе
убие
Изток
масло
одобре
Словения
древността
определено
Александров
##дари
Осъ
##елект
замър
##корабна
суфект
##ogle
хълми
водени
отнасят
Земя
Роди
хито
изход
официални
журналисти
необходими
##vel
Life
отпеча
ситуация
благородни
състоянието
термо
запазена
Советская
Цан
##iction
Сингапур
полузащи
изкуствата
##член
Такива
##командва
преводач
вътрешната
участниците
потъ
Добро
кожата
императ
фентъзи
синовете
##att
оц
Дуп
##фанзи
леви
American
защитата
понятието
##lin
##ound
##теро
Gen
цена
Алжир
гиган
##родните
Австрий
Отборът
съвременния
североизточната
##ance
триъгъл
вещество
ИК
Гва
Искър
ранната
##line
##лините
канали
съответства
Карло
рицар
черти
Преображенското
Еман
заменен
масата
дъщерята
променят
литературни
##ery
що
##сани
Боя
лева
увре
##enburg
брони
Княжество
Виен
детето
източна
потвърждава
международната
##жд
##пуа
350
Тради
##ственият
Исторически
Атлантическия
##цена
Шри
баскет
отделят
екзархисти
##db
##съл
##бридж
Холи
военното
соленост
пиеси
главни
галакти
Държавния
възвишение
##рер
Венецу
##iam
Изо
##товар
##лозите
##стична
Злата
стрел
##годишно
застава
зеленчу
френска
Encyclop
##тания
сложни
стрелба
##фикацията
немските
обявяват
##мино
тела
##човете
Почти
Кръсте
Чикаго
нанася
Егейска
комплек
открития
планинска
националните
Окс
тай
мира
Леополд
комедия
декорати
##дясно
основното
##ral
нататъ
самите
Большая
покрови
Дебютира
Неговото
приготвя
Bra
Ази
##терия
Юлия
Успение
никакви
Съществува
Максимилиан
структурата
Мом
Тони
шахмат
Музиката
##лат
шу
отдава
търговска
Леона
##тенбург
бремен
Уз
Ins
хълма
ракета
##СП
Tra
сино
търговци
##ensis
Лока
роби
##лската
Джоунс
избират
завършват
наблюдение
прекратява
##ward
нуждите
##дона
мол
Арабия
бившата
северозападната
##дици
БНТ
##овете
Сома
Black
селското
желанието
##говата
Храмът
изложба
просвет
Владислав
Pe
1850
филмът
владичество
##ai
Арсе
трае
китай
ранени
правоъгъл
обществено
##anc
##нент
Стю
кух
букви
Народен
присъстват
специалисти
91
sp
бело
въглища
коалиция
Bulgar
граждански
База
красо
благоприят
##ash
##ица
Резул
Самоу
комбинация
чуждестранни
вълни
моста
постра
английската
##ьол
мл
##йката
сдру
грузи
Филосо
болест
текста
османската
##AR
Ър
Йон
щаба
ниската
истински
##пли
##риста
мело
древни
природни
използвано
##фит
ВИ
Scien
двойка
нейният
регистър
<
ru
вку
фал
изма
##писание
пенсиони
Население
##lav
##нус
##вици
Сина
колония
огромна
разположение
Вазов
богато
държавните
##ley
Струма
схе
##освобо
видеокли
##fer
изде
релеф
стреми
##лийската
Мохамед
мисията
правило
затворен
##глу
##хберг
спорта
обвинява
Венецуела
естествени
административни
Кама
дея
1861
сигнал
китарист
помещения
приемането
автобу
доминира
Флоренция
##рой
живи
##ливост
пуснат
филмов
публици
посвещава
##дек
съчи
занаят
Дам
богати
кратък
преодо
елемента
уз
##движва
англо
мисъл
говоре
мениджър
съгласява
##хта
##тант
метео
съдия
епизоди
земеделски
утвърждава
##права
нега
хотел
национал
суфектконсул
##chn
##летите
учениците
##хил
##лари
мигра
Близкия
последно
определяне
османските
##йв
къси
Класи
##пати
нес
##емост
Грей
Тере
##ournal
Джовани
слава
умения
тримата
вдъхнове
пропуска
##rans
##ниан
##стир
##носен
проход
станал
социали
убийство
##ОВ
Бавар
водеща
Шампионската
1866
Възра
Парти
общности
Mo
изсе
топло
колекция
отказват
естествено
СУ
Литва
писма
сърце
безпла
Стокхолм
вир
##редни
ликви
##положен
здраво
липсва
ракетата
Eng
Мая
Демократична
действителност
##ДР
вяра
каца
удари
получил
следват
##денов
Ниге
дубла
словен
Държавен
##цла
Music
докто
макси
Констан
Самоков
храбро
церемония
##мърт
Моза
какви
совал
разпръ
владения
Франциско
Чехословакия
##хова
Ето
вгра
яйца
##стично
Четири
кръвта
обявено
харес
произхода
Шиш
бата
тайно
пилоти
османците
завършването
Исус
##товете
успеха
Македонския
свидетелства
##банисти
резерва
##edon
Ави
фактор
целите
премиер
произведени
##мбик
Кому
сваля
Лудого
Представи
##елд
могила
преход
написан
византийски
##iter
##мбар
Arch
Мани
стая
Симон
известният
##МС
##rig
Шва
тома
1830
общия
стипен
практикува
предотврат
##пс
##ракът
##рович
бори
Иза
Оре
шпи
каче
Фреде
обслуж
позната
##демократи
потребителите
##ида
Щип
изво
Либия
камера
серията
##ънк
Per
бойна
влезе
##AS
##ara
##яни
##вост
Лъв
Нар
Санда
Погребан
войниците
##ame
къс
1863
отрича
успешен
владение
критикува
##oss
Диони
външни
исляма
писане
Разград
Последните
гражданство
##порт
Дми
Кърджа
певицата
Американската
101
##конти
нидер
селски
повтаря
##тела
Уот
Лайп
паметта
съдържанието
##бели
Тол
##тване
звук
горите
информацията
##стрийски
наименованието
Нобелова
дипломат
протестан
настъпление
##рини
изп
огъня
придвиж
държавите
##der
##евич
##отно
##слов
##ментът
##листите
##фициран
Алберт
родители
##аза
Павлов
милион
тениси
риби
спасява
постижения
##изма
bTV
мляко
доцент
Антоний
Подобно
категори
наградите
дружеството
##лок
ся
imdb
иран
подре
ранна
намиращ
нападател
гражданите
названието
забележително
##ake
##берий
Phil
Рафа
непро
стреме
##гън
СП
руско
хилядоле
президентът
опш
Икономи
трудове
атмосферата
териториите
##ora
##зони
екрани
политическо
противник
Ger
папата
дивизии
избрана
Лар
Грани
формат
филмите
съюзници
същевременно
##eck
##ried
бого
Аристо
натова
постъп
тракийски
технология
пристигането
##вуд
##тус
##ited
##снал
1865
Комп
деспо
височината
##li
изобрази
етническите
##ook
##ъри
духа
битки
замяна
##формация
Спомени
##тъм
##нгам
Трай
Нигерия
честота
Цве
лири
##тиците
Свищов
върнат
##тека
##грите
Строи
стана
Екатерина
бомбардирова
##вола
##ляво
##неца
Гил
лек
прова
градуса
оценява
принуди
историци
разрешение
задължително
##тят
бар
роб
йони
азбука
майстори
заселници
картината
##зец
Har
cod
Особено
Британската
световния
##лации
прозо
градче
обучава
##ис
бод
Бала
колонии
##толе
хла
Литекс
Рилски
твърдо
Ox
еврейски
##сър
лято
депре
Алфред
прегра
типове
познава
хранителни
главнокомандва
##esti
##брат
##говаря
Лайпциг
младият
##ris
оча
##етите
фаши
##истори
каква
момче
опасност
английска
принадлежа
средновековна
визу
взето
черна
предход
Останалите
департамент
##ящи
Лих
##тропи
Костов
учебни
##ид
##тица
Зал
##национа
##новъзду
албумът
заговор
##its
Сала
Романът
Мозамбик
параклис
обществена
нера
рязко
Брайън
Големия
##OS
ДВ
лят
зале
медии
##тирането
участъци
направена
преброяване
##ital
##нджи
Land
Клавдий
употребява
Pet
Мехмед
румънски
##ърд
DV
мисии
Помпей
църковно
железопътна
Histor
речник
запозна
неправи
Свещената
възстанови
реал
днешно
гръцкия
диалекти
продължителност
##алът
##дани
##читан
зени
късо
##чините
присъствието
предназначени
Аш
##брюкен
Библио
заслуги
##към
модул
вестника
станцията
урбанисти
наподобява
##мерно
повди
фирми
вестници
##пру
Кита
буле
отнема
постигне
Адрианопол
Председател
##ava
##con
Med
Лев
Оря
Салва
прене
##хме
обеща
израел
премине
фин
опер
сърби
неделя
излъчен
Освободи
обсадата
Ленинград
човешкото
първенства
##тес
пал
деви
компютри
изучаване
##гията
Times
##ствията
легендар
##тех
As
терми
състоят
тренира
посочено
ВВС
мул
Поче
чува
превземането
##хон
гости
македонските
##шеви
Рома
отвъд
столи
спомени
пристанището
##ger
Гари
зато
желае
репре
##вивален
туризъм
Маргарета
земеделие
признание
##цът
##нинг
Кау
Фул
Бари
подси
Масачу
изчезва
събрани
легендата
произведенията
сан
аргу
желязо
изкачва
##лическата
възрастни
еквивален
##славски
майсторство
##any
##рона
##хайд
купол
черве
прекалено
Мю
##стрел
##торът
Форд
англ
нараст
Архангел
изображение
##AN
##пир
##тките
Съще
баба
притежа
задачата
традиционно
единственото
##тизъм
Коре
Себа
завива
отряда
градини
кислород
полузащитник
ex
Cap
осе
##магни
Касти
спада
слънче
женските
механизъм
значителен
наследници
Мило
Райх
аван
познати
##ъф
##тинска
листата
##жба
##кана
Бяла
##дителя
пласт
театра
коефици
космоса
##графии
Рожде
Густав
##ландската
известност
непосредствена
##кум
##динал
кафе
Западните
Изпълните
чеш
Негов
##ществува
Западен
##ink
Дие
Кер
египет
планови
прекъсва
испанския
##борен
##листа
Андро
стабилна
историческо
##orth
##греб
##онер
##плава
отиват
Кола
изпълни
справед
третото
забелязва
човешката
Югозападна
пето
##рената
женитба
космонав
драматичен
дипломирането
Тейлър
умират
Основни
Mark
Палео
Състои
вилает
водещи
широки
техники
проведени
преименуван
опу
del
Боли
млрд
нации
отсла
околия
останките
##рдо
To
Mod
Лат
Сло
Араб
младо
италианската
##вко
##лиран
1856
##нерите
богос
очерта
особености
европейската
##ten
UN
##гнато
клини
Естония
Максима
експерименти
##къла
Бунде
##хранване
Масачузе
квартала
Биография
литературна
1862
кван
##гането
отток
завършен
Ким
##ралите
копие
творба
птиците
служител
Gl
Кръстьо
Сарафов
необича
Оттогава
пля
сдел
терена
##тея
##atur
##нгел
##ранже
Миси
купи
##тология
Комнин
пирами
преброява
##трова
молба
##olution
##говорен
жената
замина
спорове
събиране
Централния
##no
##esch
##вина
gov
##ridge
##нберг
##даване
гъсто
оттам
##тичните
морска
въздушни
постоянна
фео
##ходно
Маха
отро
Дълго
гърба
##морския
починал
съветска
противоречи
##трих
смятан
##обще
##пват
Нил
поета
метали
високото
стандарт
германците
кореспондент
производител
пои
имуще
посол
отделна
предгра
провеждане
##els
##зък
ТВ
##андри
News
Парла
клави
наимен
електронни
значението
##ТИ
волей
##ществен
Динамо
теглото
плит
Марти
лента
##щността
Micros
реализира
бъдещия
главният
Евровизия
Изпол
некро
тексти
##ino
##хам
##кому
##полож
Етио
Сене
Локална
късните
Селището
католици
частност
Хън
Парк
кожа
Пей
Желе
появи
динами
спортен
възгледи
##зово
##федера
Вместо
престол
ежегодно
Вардарска
##вес
Ски
Твър
##ликата
Карта
Завръща
Западно
Силистра
базирана
службата
освобождава
Кук
строй
Ати
Ливър
боевете
изделия
буквално
##вера
##листни
Плани
опазване
Air
уро
##гнала
групите
општински
Самоуправа
урбанистички
##yl
##ълъ
Боб
цир
Camb
тоест
откриване
социалните
годишнината
##зя
гръцка
повишен
следния
##местимост
крайно
мъжкото
водещите
ас
Тем
сри
1800
отче
##станов
бивша
Негови
външно
Journal
духовен
генерален
Сим
Водо
бунт
фалши
изрази
младежи
отворен
способността
историческите
освобождението
Sm
хай
поре
##метрия
издъл
or
Int
диви
Фройд
посрещ
датират
##ef
##бов
Фрай
вятър
Алексей
Специал
местопо
разказа
успешни
изгнание
Търговище
##фат
Седем
референ
феновете
японската
##ons
Ev
Шле
##ement
##дяване
##нна
##йния
външна
Sec
Еки
Нюр
##ision
вкус
есен
доказва
продадени
жив
случаите
##ters
##жище
медали
Катарина
дипломатически
##АС
##гони
##роса
ранно
взимат
стъпка
насилие
владетели
пространството
##бърен
##увана
актьори
терористи
херцогство
теже
групо
##фикации
причинява
завършване
мнозинство
организирани
##дее
Reg
трон
##пуснат
Северния
варианти
отличават
Постепенно
##лието
елит
внеза
тежък
##ES
посре
##бват
епиде
Всичко
незаба
страници
католически
Самоа
танка
##логично
##ктивен
оправ
пфалц
Компанията
разполагат
##лур
Ele
##улкан
Купа
изтък
Британска
##мео
1859
Петка
треви
екипаж
кратки
сражения
фантастика
традиционните
##пота
лежи
Сауди
режима
Балканския
Еле
смес
Дитрих
парите
as
Ass
Блек
##образен
Древна
катедрала
ака
пап
амби
Млади
Медици
славянски
##eph
Куин
алгорит
Основният
Резолюция
имоти
Норман
Панама
избрани
Стефанов
Независимо
Вила
обгра
керамика
съпротив
##ames
##тност
видят
Печели
курсове
преследва
ограничава
министерство
освет
Будапе
Роджър
Военното
равенство
Камбо
насле
плати
##рализира
стената
ландграф
принципа
творбите
##ren
Ус
Чел
Рила
Тимо
##денцията
съвременен
Hol
##ентите
марке
codice
Италиан
атаката
завежда
явление
Дружеството
Ака
##автор
Авра
Монго
чинов
надежда
капитали
изисквания
qu
##щина
##вския
Твор
апси
реално
операта
сингъла
Аделхайд
Понастоящем
##люби
##ктове
Берг
безде
оказа
засяга
количеството
di
##сенето
Лорен
лични
Станислав
способност
подобряване
прието
разчита
Кристина
организма
кампанията
##ka
#
##глъ
##хайо
Велес
##ити
назад
падат
земната
ползват
Родопите
##ax
##red
##tif
##мес
##ator
Book
бъдеще
развити
##тара
Тен
Пътят
гръбна
Следват
възможни
народите
Лудогорец
##снаб
##небург
набира
теории
камбана
късната
Главната
емоциона
израства
принципи
терминът
##рован
Ивай
магистърска
##лков
Жене
виден
Червен
o
##хла
Мат
плъ
преко
тайна
лингви
забранява
разузнаване
##снен
Comm
##бови
Кума
строеж
Себасти
изтегля
Ливърпул
##вра
##дос
##кина
Яна
Велик
крите
похода
Региона
обещава
всякакви
Microsoft
Семейството
ел
Крум
План
Памет
бъдещето
измерване
Статистика
принадлежат
І
Вън
Обя
мане
Търнов
небето
пиесата
Палестина
гласовете
цело
Муста
Папуа
Идеята
Мароко
инспектор
Софийската
въоръжените
##por
##йлс
ази
Rock
пана
диферен
сутринта
автономен
хомосексу
##tin
##мното
баня
фара
Roman
дизай
частен
червени
усилията
полуостро
##трин
Bill
явява
празници
Българско
читалището
##co
Джър
обхва
повто
градска
сферата
Фредерик
въвеждането
чл
кана
колона
магазин
собствените
##de
агре
ембле
Интере
организми
човешките
животински
Ов
хло
часов
Древен
войводство
##хин
Импе
анар
##гности
Художе
имигра
съвременна
##диа
кап
##стено
лъчи
Балкан
записани
конфликта
приблизителна
##раж
##доби
##мица
Ада
кел
носа
Алфон
звукоза
Корнелий
бестселъри
космическа
престъпления
Рика
усво
##мейски
героите
Кърджали
подножие
новосъзда
йе
DVD
##менат
##провод
отпад
пречи
сблъсъ
поведението
политическия
##жности
##писване
самоубий
Сандански
##ати
##ignal
рица
хуба
##гаскар
Известно
получаване
##ws
Ем
##обита
Мета
акту
##совото
Сатур
какъв
облек
компен
активни
почвата
Народния
задължения
Стои
копри
нейни
##грамата
Камерун
драматург
##rag
##брал
Cal
лета
профи
##ционният
заобико
гарнизон
излизането
съхраняват
Троя
фелд
Марио
Образ
Черни
Новият
развита
кабинета
Маргарита
Преподава
започнали
##лак
жанр
##правка
аржен
обяви
дървен
##ный
Фьо
каме
женска
местно
днешните
Конституцията
##lass
Лиса
десни
избора
провеждането
##уна
ед
##бати
##сбир
##рации
##стото
кани
кааза
руското
отглеждат
финансова
икономическо
##ют
450
Гол
провер
помагат
редовен
астрономи
компоненти
##сякъде
духовна
разпадането
шосе
наема
услож
##образна
Google
наистина
същество
Социалисти
партизански
Писа
откро
търсе
Красно
осигуряване
философията
международните
##здра
##лига
дроб
Еману
клубът
трибун
помещава
завършена
посветени
стопански
независими
рид
сфери
юрист
Избран
вратар
##леността
дясната
Камбоджа
въздействие
Aug
Бона
изре
##ski
##ull
##изе
Копри
бавар
желез
Саудитска
архитектурно
##ute
##ная
Санд
балет
Известни
Ас
Уор
Гана
Миан
анса
копи
изяви
Латвия
Основа
заседание
посещение
цивилизация
Уин
бле
Копа
Премие
избягва
някаква
Софийска
установи
впечатлява
Met
##новъд
##тските
Морис
уволнен
концерта
нападения
графството
##arl
##минг
пункт
реаги
слоеве
изпитва
съкрови
Исландия
канала
лидери
цената
Първонача
##емите
Пери
мону
младши
Етиопия
настрое
увеличи
Хъ
##миров
Брон
Троица
натиска
##era
##tain
смяна
хвърля
Сомалия
правосъ
писателите
##hem
##анг
Мори
палуба
Готфрид
болестта
контакти
##tics
въведе
легион
Главните
##йе
Буш
трав
Анато
изриг
инжене
кладен
предстоя
Cambridge
програмиране
##act
##form
##чици
##довица
##лирана
метал
Първия
##пани
4000
страница
националисти
ДС
##ходна
Токио
възвишения
автоматично
издател
договори
вилаетите
заса
еваку
аспекти
осигуряват
енциклопедия
##ML
##ney
##туро
##брани
Тунис
танци
Oxford
Гвиана
събота
превземат
стенописи
класическата
##ER
##ym
Баба
##бовете
експо
избегне
населено
сътрудничи
Плу
скро
щаст
##дяването
взаимно
Институт
Мадагаскар
##cus
Гала
долу
класическа
##кинс
##скал
Will
сама
хълм
олтар
радиа
##логична
редакти
##риан
гроз
строго
##сяването
опитите
Атанасий
Продължи
##сиа
Пли
съу
гласи
нисък
начини
действат
изследванията
социалистическа
##ke
##пий
поляр
слуша
вярата
Премиерата
тогавашния
производители
##дуин
##клет
ера
Ваймар
излезе
турско
наблюдения
професионални
##рук
кожи
екран
##тивните
комплекса
##ych
моря
##кратен
Птоле
Пламен
настъпи
Будапеща
общинския
##AC
Живее
оспор
Стюарт
автора
нападна
идеологи
co
##alis
##тони
Сев
##раните
заети
слиза
Доктор
потоци
предназначение
##ложки
##гистра
скални
разработен
разработка
специалист
формирането
Константинов
Af
##марк
неко
тест
Гради
възел
източни
османска
храброст
##цови
Кава
Сиера
незна
чифли
Ангола
дебюта
зоната
Стандар
прокуро
научната
1840
Джаксън
парчета
##ower
Нем
Мишел
Оксфорд
елимини
съотбор
фолклор
курфюрст
Българския
Tur
стиму
Мианмар
Академия
базирани
##ube
##ingen
Бундесли
##вската
образец
дисциплини
##сипи
Дари
съюза
делото
ръката
Дмитрий
умерено
годишната
основният
англичаните
образуването
##uf
##ближава
морското
военачалник
##tt
##осно
мле
##бителя
отраз
критик
осново
Главният
централно
подразделения
##вио
После
знаци
Херцог
сериали
Разположена
##бей
##зий
##ловете
изобре
учените
Казанлък
##вници
##техни
##стъпен
Април
Трите
йерар
указа
фунда
##крацията
отчасти
старият
Магдалена
призовава
растенията
be
##нера
Охайо
Проце
акции
мъжките
бяг
Бата
Сидни
вдовица
валежите
##rib
Sk
Мате
Шекс
Обаче
крале
Велика
вътрешен
Отли
каже
реоргани
преминаването
Wil
##тизма
поди
фили
вирту
##образно
достав
видовете
местообита
императрица
потребители
##ук
Ред
Мано
Отече
синьо
Година
надпре
унгарски
командващ
##ms
Рон
тата
отвори
находки
##жил
Pl
##месе
1858
Бохе
Преспа
##ничка
чере
трапе
Дупница
съпротивата
Мито
спекта
отделно
случайно
унищожени
футболисти
хва
даже
Светия
протести
преброяванията
##унда
пропо
траге
грешка
заливи
актрисата
##itz
##жки
##eral
##рудва
##блията
##карват
##леното
мисио
полка
Богдан
заснет
пещера
романът
заведения
ръкоположен
Пири
вали
момичета
##мид
##ром
##динов
Мало
кардинал
Последната
съединение
данъци
секция
имперски
съобщения
сигурността
u
hist
безкра
основи
постове
филмова
превърне
придружава
##емо
##лоза
мрежата
инцидент
##ces
##тим
КНР
##цента
Арно
Симео
домашни
мандата
протока
министъра
предишните
##рим
##шов
Po
Еф
##inus
Якоб
сами
Наслед
авиация
Възможно
крепости
покрайни
стихосбир
am
Порт
клетъ
##вещение
Емилия
убежище
постоянни
##лево
вен
Робин
блока
едина
серии
корабострои
човечеството
архитектурата
АС
Рус
аква
масив
##следова
православен
съответните
##ское
##перто
Gene
Абду
робо
Диего
ескадра
трасето
отразяваща
##erv
прио
светло
боговете
изпращат
актьорите
##кета
стаи
##деното
онези
среден
прилича
улиците
фрагменти
тропически
собствената
Net
Пъл
##ктивно
Ирина
Коледа
местата
нападат
признат
Източната
дружества
установка
##ели
##сили
Рам
##грава
Star
##зовата
живял
имала
хранят
храмове
значимите
разширение
##ит
Бео
Опа
##морие
Трини
Загреб
близна
брегове
преминаване
изпълнителен
##ОС
##лиш
Пие
пощен
##ническа
##ландския
пещерата
детството
библиотеката
Дале
Смърт
замръ
скъпо
##тистите
възела
излага
намеса
охрана
блокове
понятие
Археологи
религията
операцията
музикалната
предприятие
##val
##ините
номера
знамени
идването
изпитания
##тук
##ultur
очеви
старт
примери
общините
продават
подкрепят
##enti
Сбор
слад
##довата
Фланд
съвпада
композиция
управляват
българският
професионална
комунистически
per
##стова
##ганите
площи
темата
Разрабо
течения
Ив
лв
##гали
##кинг
Орден
коруп
Дейвис
лявата
обединени
компютърни
##зал
##хаген
датата
патрио
сребърен
правилата
архиепископия
последователни
##жният
##сността
лагери
невъзмо
станции
Филипини
енергията
демокрация
1849
Прос
Любен
издръж
колеба
рифове
описани
Нюрнберг
вокалист
обществен
взаимоотно
##пън
##чиев
##алите
риск
##ленски
Думата
монаси
огледа
съавтор
въпросите
побеждават
##ждин
San
ВМС
Трета
споко
растеж
учебната
подобрява
централния
##гона
Sup
мас
Кора
прозор
запазен
записват
Централно
##педи
реле
##полков
Валтер
Пример
условие
изработени
##мая
Кем
Сяр
##мелия
##шване
##ливите
Малта
данък
държавно
кръстонос
пътешестве
##йтън
##мощи
пале
Прези
стигне
подписан
функцията
##IS
полето
пропор
симфони
югослав
Салвадор
множеството
##ьос
##сара
гле
укри
учред
Захари
##робългар
изказва
обособе
огромно
смесени
Доминика
гръцкото
завладява
четвъртфи
комуникация
##фана
Сон
Фра
Майнц
geneall
Монастир
предната
##сток
new
Сън
Тихо
##страта
Новата
включваща
университети
##мови
##тиска
изпла
##щенията
полите
анализа
находища
география
естествен
десетилетие
еква
##кновен
колко
петте
System
обикол
танкова
чувство
Великата
албански
семинария
Фау
дует
уред
Сръбско
пистата
Западната
организирана
##gy
##duc
220
1853
боже
четник
експози
младата
планета
подходящи
стойността
глад
личен
газове
днешен
Джоузеф
Червено
британците
##MS
Dav
хля
ниските
раздели
реакции
изпълнена
Сао
флу
Tour
възна
##генщайн
римско
годишния
перспекти
Асоциацията
Em
Цю
##язви
Режи
Group
Микро
медиите
неочаква
##дея
дуз
##визион
крила
намали
разгра
записан
стадиона
Зад
Зев
##делно
##гинята
опусто
Философ
гробница
предават
гарантира
светилище
съхранение
Do
##рода
Dis
Гера
бокс
Славя
позволи
Проектът
военноморски
ПФК
асо
##лекто
наше
неви
особен
полица
живеещи
напомня
##ictionary
Библията
свободни
1857
канони
извършени
сръбските
##лоу
##мпо
Боян
##ждания
пеене
##ристите
Андреа
Никара
офанзи
здравето
практики
разговор
възникват
##зема
Защи
Лота
дена
улес
накло
##морските
Холивуд
отличия
предаде
заглавието
##ert
TV
##тона
изтег
празни
слънце
стъкло
Всъщност
днешното
Франкфурт
Същевременно
очер
Атлети
отчита
племенник
пустинята
екзархията
стихотворения
`
##дим
Wr
Лип
Тях
кру
##лийска
разбо
##ймбридж
##полковник
##гита
##глас
##tions
##сието
Еквадор
окупация
наказание
народните
електрическа
##вира
##пери
Юрий
феода
Стария
сребро
Джонсън
разходи
етническата
##мва
дал
каса
Педро
Смолян
Хората
автобио
полската
учителка
##hard
##board
##совия
почва
менидж
унищожава
##коли
Лили
едри
изте
##динами
Бракът
храмът
##освободи
недовол
стръмни
Салоника
оператор
предавания
##кту
Min
Хонду
бележ
тъкан
метода
сладко
почивка
извършено
концентри
##коре
##лерн
монах
Военната
съюзниците
гражданската
##зки
##зът
водно
Асенов
дадени
селищата
промените
ние
амат
мисте
Роберт
разоча
измерва
прогреси
разрушен
Рождество
подписват
сливането
символизира
##lex
##outh
240
##город
Рона
Яков
##тниците
бившите
военния
краката
процент
турнето
Създаден
покривка
функциите
##mg
##ймон
Рен
Труд
Фила
Веселин
задълбо
кръгове
##континента
катедрата
заболяването
##лани
##ьона
Шоу
хер
##лязъл
##хране
виру
Върху
ивица
сурови
направят
Никарагуа
привлечен
театрални
##лое
ню
##сьор
азо
Ланд
рисунки
танкове
препоръчва
##рян
##монт
##сини
Java
спортна
Кеймбридж
характерен
Централната
административна
##aus
Куку
жури
Ливан
запъл
селяни
изчисли
народното
Разпростра
Живков
младежки
невъзможно
докт
##ловите
##ционери
илюстра
##лиса
прис
кутия
##чителни
Джърси
наклон
Уругвай
върхове
тежките
изработва
социалната
##брана
хали
колеги
открие
стилове
отговорност
##ru
НБ
##ster
Sol
Ере
разред
Димитри
отбележи
биография
##ος
##чове
Айн
ензи
Славей
##uth
##еви
адре
провод
покрита
##ated
##план
1300
нужди
префе
Катрин
маркси
прояви
Съветът
концепция
##хаме
кози
##довлет
храната
Произведе
Александра
##TC
##РА
##кю
##way
##потре
Мине
лъче
просъ
двойно
Тиберий
успешна
Специали
въоръжена
направено
религиозна
специализирани
ХІ
Броят
траги
специфични
сма
Димо
вика
Литера
Арсенал
Републи
##стоянието
намираща
природен
изпълнения
##изо
stat
Били
Спорт
Кенеди
апарати
премиера
селяните
##сение
реван
Соломо
донася
##лника
##пусти
Волга
възка
литов
млада
издигната
разбиране
австрийски
##дват
##селър
Мике
шанс
Каспи
нейна
споде
Хондурас
ограничения
##мн
##вене
ДНК
Мис
##новия
##ризма
Уотсън
капиту
варират
болницата
платформа
обозначава
османското
аристократи
БСП
фос
Миро
Флавий
Валерий
богатите
резервата
дванадесет
институция
ограничена
разстоянието
##плъ
STS
Форт
куби
лега
Гаври
влага
внася
Ферари
хартия
Борисов
някакъв
Еберхард
Октавиан
истината
One
сег
##припа
наве
##стките
спътник
персонал
##ЕН
##ниг
##роу
Sal
ярко
Зограф
стъпки
великия
окръжен
Масачузетс
Inc
пче
##ловие
##проду
##сланд
Урал
фондация
църковна
отглеждане
##lag
##чук
чо
1844
секс
войво
враже
##матичен
##стердам
Накрая
знания
Иванова
метеоро
френско
северното
##лег
Дрез
Воден
серти
трупа
фикси
маршал
образа
участвал
личността
единствения
предизвикват
прес
Бистри
Киргиз
оценки
Централен
склоновете
##ume
ядро
##парати
Счита
велико
кралски
опашката
приятелски
взаимодействие
##теле
Коз
Малки
делят
задър
Бохемия
ограничен
преместен
ГЕ
вина
##вероят
апарта
гората
##ак
##дит
##нгер
##ланти
Ордена
Алексий
вратата
Островът
ценности
четирима
многобройните
главнокомандващ
Мно
Тето
вериги
многото
сигнали
автомобила
подполковник
##ик
##мут
##вини
хищ
##спорт
нефт
Гвате
неофициал
обединяват
##стат
оли
Гъсто
мечта
комисар
##тун
Pri
Роу
жре
зоо
лист
##диците
##живява
Верма
кадри
Филипо
изобщо
гробище
различия
привилеги
изследването
Арда
Битка
деспот
Факулте
станало
Монголия
продажба
средиземно
##res
Яку
бер
##кедон
##летни
1600
Зевс
записа
##BS
##мощ
##ветена
Малък
Траки
явления
##кл
##йма
##кир
##борд
##спект
Акви
Епир
поля
Група
линейни
замества
разтвори
Гватемала
възползва
изпълнени
##пев
боеве
Женева
формации
##tim
кръга
##тването
частна
хранене
навлизат
споменат
Национално
разглеждат
##бн
##мра
##earch
##ронто
##стаби
орби
Enter
Дъщер
печата
##становка
законите
ия
##жник
##фелс
BBC
##ковци
##ктара
Fried
диапа
Уганда
жертвите
погребана
растителни
организиран
способности
##пта
игу
Рено
##стенур
партни
приети
атакуват
насочени
Училището
автономна
електронна
отношението
##жди
##звиг
##мура
могъ
поща
тесни
Нейният
българин
запазват
пренебре
финансите
##лк
фрак
бързи
жълто
усеща
турския
мачовете
римските
народната
##мбу
заста
##говорът
войник
задово
Хабсбург
дефинира
бестселър
интересува
##фар
##ents
##вянето
Съпру
блата
изтла
ожени
Театър
изкопа
съкратено
Сула
Архите
Третия
обикаля
смесено
Йорданов
германска
вицепрезидент
##фик
Der
1854
Клуб
Грийн
зелени
премие
Дрезден
Теодора
извежда
потомци
Франческо
изграждат
##ott
##рище
Анда
Дома
Цюрих
Герхард
официалния
художествени
##ский
попъл
построи
академик
боеприпа
критиката
животновъд
##ja
##ict
##нак
Im
##дание
##чански
чужден
##ничество
Езерото
животно
образци
получат
продажби
сериалът
ефективно
повишаване
предложението
Републиканската
##ровъ
Mil
Бий
Чад
##генция
Йемен
Унгар
рецеп
написа
каменна
започнал
крайните
дисциплина
##olf
зап
##геров
##лищен
##несан
хижа
##диране
силните
композирана
##зат
##хем
##гари
##мокато
адрес
##тивната
старта
Шарлота
висшето
външния
възпроиз
Амстердам
цветовете
##скон
джи
ректор
изявява
проблема
характерна
el
Стен
инва
Проду
съзнание
Националният
##телка
Скор
къде
Одеса
износ
преиз
тайни
оранже
чества
Включва
Шлезвиг
поръчка
научните
доказателство
##ane
So
Аги
тъмни
монаше
алкохол
присъда
състави
защитени
##str
##нно
##хти
##тилда
##тените
Inter
акция
абстра
Солунската
##нян
кн
##дният
##загор
Маркс
Ривър
основание
Рю
##берку
Авре
зима
##йнинген
глобус
извира
Маринов
Изенбург
слънцето
хилядолетие
##радо
##ляска
##вентус
насла
дистан
легенди
същества
подчинение
Александрия
##къс
1829
набе
Близо
откра
Марина
Славия
крайната
##рето
##чата
лан
учреди
Веднага
заповядва
Територията
международния
##сика
засилва
красива
железопътната
парламентарните
Рок
##теран
воля
мино
равна
Григор
Ювентус
заобикаля
византийския
##va
##въри
мъл
##далеч
семе
Афана
безпо
видни
фонда
Бостън
следователно
##ury
##ганг
##пено
##пион
##хата
##гимна
сбир
тюрк
водна
предназначен
Правителството
##цка
Нел
Live
Спас
##морието
покрив
Барбара
гласува
плаване
Конгреса
диагности
принадлежност
##enz
его
##куван
##скопи
репу
##ченото
Хисар
закре
пиани
Нарича
днешната
примирие
изучаването
Ези
уст
юби
ръст
минават
резерво
топлина
псевдоними
неб
счу
Тене
плана
защитен
##нциклопеди
държавния
възраждане
манастирът
митрополия
Шко
##падне
Спор
цару
##маршал
насил
шведски
звездите
намиращи
градската
разрушена
католическата
##ios
поеме
поряд
базира
унищожи
Индийския
испанците
постигане
Действието
##alog
##кети
##лизма
трио
##ography
горните
критици
професия
трансфер
практиката
подписването
##пил
Месо
лече
Изклю
аудио
матри
Спасов
добрата
надписи
Фернандо
вътрешна
съществено
##ПО
Сра
##легат
##мерси
Столи
надви
Бремен
възобно
проведен
##orum
Paul
Обер
Наред
кралят
навига
метални
незакон
Странджа
западното
партизани
Lib
1806
жива
##ковица
Publish
Евгений
постави
повишава
източното
позициите
възрастните
##irst
въведен
завръщат
атмосфера
комисията
трудности
медицинска
инфраструктура
##umb
sh
Исти
враг
гъби
глаго
Монако
гръцко
сражението
конституцията
Пси
Чита
огне
Челси
Методи
Надежда
врагове
задната
скалите
убеждава
връщането
##иди
##унк
Ес
##шница
Перси
междин
Основен
хектара
ограничени
ситуацията
икономическата
##чива
##tical
##стъпа
Капа
допи
нере
стъпа
##ралният
душата
компле
новини
средни
Дневник
разстрой
официална
попадения
##ЗС
##ким
Alb
Уилсън
клетка
момчета
графовете
изискванията
##ita
##дум
##лони
Шах
сон
рида
слаби
зограф
масови
занаятчи
индивиди
магазини
навсякъде
официалната
администрацията
##uck
##бля
##йър
##мас
##heim
##mann
Жор
седи
автен
лодки
пишат
древен
роднини
оттеглят
съгласие
магистрала
преговорите
италианските
Изи
Уче
блус
кости
непод
богатство
паметника
плановете
Лотарингия
нападението
дой
Веле
агреси
разход
театрална
освобождаването
##яд
##един
ефи
##торни
скалата
##ктен
fmg
##право
Указ
Колев
Румен
късния
ядрото
гърците
завзема
културна
хуманитар
разработването
CD
Tel
княже
поглъ
улици
Общото
проток
свален
ръкопис
кралицата
композиции
населените
историческия
древногръцката
Av
Tw
уи
МКС
Пир
Рьо
Хано
сумата
течност
Първична
##гач
##work
##ляра
Димитрова
##Ни
##сос
##ella
Елео
Стър
##шените
обвър
прово
##чителна
Патрик
Социал
добитък
сръбска
здравеопа
разследване
##ванов
##лници
пожа
падна
прена
##матични
престоя
##ношението
приорите
Народната
незабавно
##нео
броня
товар
Револю
нещата
океани
сканда
опозиция
пфалцграф
съставени
##фра
Блу
##ember
1835
##лейман
Радев
##ственост
Висшата
Партията
разработката
Уч
Шер
Майк
нейно
кабинет
дивизията
предоставят
##конг
тон
Нами
добив
оглед
подзе
##логичен
Instit
##НО
##йтс
##клу
1812
Сера
Сезон
мазни
Излиза
диаман
морската
промяната
Манастирът
възстановен
Министерския
##је
##ream
бунтов
кръстен
ранното
Оператор
включващ
мнението
традицията
композитори
необходимостта
##yd
##бъри
##гени
Rad
грешки
целият
пръстен
##телствата
влизането
занимават
партизанин
фундамента
възможностите
##cri
##уре
Val
##воров
##родна
обмен
статус
Основна
църковни
телевизионна
Паи
##адата
Поне
Реда
Демир
изхвър
оставят
връзките
градския
депутати
отговорен
демонстрира
международното
##кя
##мус
##шир
##ouse
Чав
##ковия
Клод
Узбе
##тичния
Остава
лигата
пасища
значими
Бургундия
Европейски
понастоящем
конструкцията
##цлер
дар
Палау
пътят
Хоенлое
заловен
отличен
осъществи
македонския
Ску
отне
тяхна
Златна
Хоенцо
добавят
посоката
лаборатория
библе
палео
радва
речни
фланг
##минация
##новидно
еванге
поемат
ранния
Доротея
баскетбо
##дун
Сай
гот
дем
Дана
Армен
приба
прозви
Мустафа
марката
хребета
Началото
Хам
##поста
Кларк
Милети
енерге
защити
образи
апарата
заснема
поредни
портрети
демонстра
обвинения
математиката
предшественик
Мя
##ланка
Шест
царя
Чарли
прогимна
шампиони
обединена
испанската
##MI
ава
ками
прах
съща
##пелага
убиват
Птолемей
защитена
Светослав
манастири
европейска
##дзе
##ъфт
Дарм
Теса
##мнасти
Джери
Хамил
реста
##дора
##йното
1828
Галия
тръби
абатството
възстановена
##тхо
##чър
##мънт
Клубът
##стването
сборника
техниката
Гражданската
##дли
смо
##снали
Алфа
Тибет
Торонто
Костадин
Billboard
озаглавен
португалски
##дили
Гур
Пин
мем
Лари
лето
Илино
сфера
тясна
Самуил
Сената
кулата
Родителите
голмайстор
използвали
##зиви
Агри
Крепо
Таймс
Южния
бомби
искане
##сури
Mer
##ische
Харт
Гьоте
Джейн
Золмс
##стрията
санджа
##даването
оборудва
Антарктида
концепцията
работниците
старобългар
##OR
##мюр
Наум
Занима
ветрове
туберку
Валентин
централните
обединението
##ps
##ania
МВР
ела
чешки
горния
сушата
класове
изложени
механика
носители
сградите
племената
преселници
##oot
##зян
Хру
дево
Артур
Дисни
Второто
бронзов
жестоко
стомана
Джорджия
континентален
обстоятелства
разпространена
##тран
Дамян
ранни
асоции
водоиз
пехота
Волфганг
Мисисипи
отначало
строителни
обявяването
##pl
##ugh
##льо
360
Гале
Мичи
##дителят
рестав
Шекспир
изпрати
Създадена
Пенсилвания
##oz
##анда
##реца
ляво
уроци
моменти
депресия
сватбата
##ada
зря
сни
циг
##грява
Прес
Хуго
Драга
Амалия
оттогава
##ети
127
Сне
кле
##ister
##лянов
Ахмед
всеоб
директ
манипу
покана
чудови
щатски
Източния
изоставя
следната
фотограф
установки
студентите
##ON
##тиво
Хъл
Райн
##мъртно
Персия
подкреп
Западния
конструи
Московския
класификация
##enc
Узу
##тения
енде
къса
нико
реше
синх
покрит
гвардия
изписва
играчите
монархия
фестивали
##ком
##tica
Изд
мозък
Основно
Големият
Николаев
летището
затворени
регистрирани
##ПК
##ave
se
##сега
къл
линко
санти
издигат
Причината
##морско
загра
пазари
геометри
постановки
Encyclopedia
електромагни
##une
##мичен
##траки
Крит
Типи
серий
Узбекистан
военновъзду
##be
##gel
##йот
ано
##itann
Бене
часо
избро
миналия
Афанасий
максимум
партнира
монумента
освобождение
SS
##over
##валд
Дол
Дън
Мек
##систе
фрай
Артър
ядрени
Теодосий
запазване
постройки
търговско
украински
херцогиня
##йтове
водена
гласове
ренесан
снаряди
завършил
пропаган
създател
заем
##полски
поканен
размера
френското
православни
##sych
##гати
Лозен
Обича
топка
##ренията
##фицират
почива
наличие
Къп
изгот
Матилда
Сенегал
Комунисти
Продължава
##ИА
Fac
плаж
##ктивна
замис
престой
приходи
Провежда
Публикува
##йз
Emp
Праз
Леоне
залож
форум
##ходство
Беатри
Индиана
изменения
архипелага
американското
представянето
##мбе
Mc
Сме
кухня
Франко
бюджет
движат
махали
Ренесан
сърбите
дебютния
женската
физиката
интересите
крайбрежията
##urn
##пски
Женен
южното
натовар
описват
пластма
обитават
спортове
икономическите
##спор
107
Des
лат
1815
##менени
радиоа
скандал
празника
изненадва
разраства
Българските
последователи
##лея
##сим
111
Hot
Сол
##царов
летя
Андрю
австро
премести
кръстоносен
##цела
сек
1845
Трифо
Венера
писмени
венециан
##Hz
##lam
##сала
##ниран
Ивоар
личния
Милетич
обвинен
патриарши
##рък
##цит
vol
коса
банки
физик
курорт
специа
приемане
режисиран
фактически
##фни
##кони
230
Чен
Гней
##рийската
Йордания
Комитета
Софийски
гласуване
напояване
поражението
##гт
##дара
##цира
210
оре
бала
припо
Дармщат
социален
достигнат
Следващата
Red
##жките
##eschich
костенур
inf
Брук
Дама
тютю
Двата
заряд
Сатурн
добрия
раждат
непозна
протест
отговарят
преведени
ad
##гарт
##леви
##шира
Реката
Районът
харесва
червена
Бернхард
сериозна
електрони
##iae
##борг
##ролд
Мра
уто
Изпъл
отвор
претор
липсват
Страната
мюсюлман
средните
Основното
##ird
##год
##кст
##мец
##adem
##даря
Ахе
Вави
бита
заря
##ховица
взети
##силване
Сестра
отдавна
Картаген
сребърни
структур
Официален
селскостопански
##близо
влечу
##била
Off
Дьо
##водие
1700
1820
Фиджи
живели
обикновен
планинските
##tr
IB
##дони
##гунда
2500
Обра
##биване
бърза
слово
трево
богове
единия
кратка
надява
обособ
Харвард
детекти
звучене
романите
арестувани
загиналите
##крит
##нела
Стри
Хана
опла
сухи
Колин
екипи
парази
короната
площадка
правилно
поречието
четвъртия
##eng
##ola
Ая
##дроб
##изъм
##банов
Робер
костю
франк
##чниците
сложна
Company
връщане
четвърто
звукозапис
пространства
##скване
океана
семена
топлин
пътници
субтропи
Dictionary
Генералния
##лял
##фаши
Инг
сар
степ
Варша
монго
писто
##стиката
Къщата
Музеят
товари
мнозина
отклонява
безопасност
##уза
##мине
Ефе
Лонг
спла
откъм
##графиня
вливат
прибира
равнове
плътност
класирането
##ony
##рева
чар
паму
мулти
##ленската
аматьор
облекло
прохода
Сюлейман
квадратни
лъчеперка
##мфи
Of
##ченко
реци
целу
##грират
##мандри
каквито
разбива
формула
намаляват
Професиона
постижение
##AT
Ог
Шул
Award
селищ
навече
западни
предска
сръбския
Провинции
зеленчуци
института
съоръжение
обществения
стратегически
бръ
Воде
нуждае
##ael
##рейн
##шима
Гун
Чан
сми
##летът
Изку
проза
##електри
антаркти
етническа
предишния
##фю
##ano
Rh
##бини
Куз
платото
##ДП
Li
##iety
Кой
дубли
заета
слова
захран
дизайнер
естествена
компютърна
финансиране
##anz
Pre
БНР
1821
1855
игло
столе
##ландска
морските
посещават
разработена
##лине
ник
Никифор
ситуации
Страсбург
астронавт
писменост
революцията
##нас
Турк
дупка
долини
корабът
съхране
официалното
Ела
6000
Бара
борд
веро
##линген
екстра
фенове
историко
длъжности
хърватски
##tive
ГДР
Open
Шьон
върви
юноши
Среден
Почетен
Елеонора
просъществува
280
Пий
##мпсън
змия
##тинент
Оупън
икона
царица
детайли
еднакви
снимките
Наградата
параметри
поколения
разликата
руснаците
инженерство
допълнителна
By
Люд
1846
##новена
Книга
грама
пълни
откаже
разчлен
##пети
Пьо
Сът
##змите
успя
##работва
##ровките
Адриан
Влашко
Румелия
гостува
сражава
бездетен
театрален
##inn
##диви
##сиан
##стери
Кази
гроба
далечни
техният
Източните
оставяйки
експедиции
категорията
християнско
земетресение
##ike
Ur
##миер
въже
крие
пепе
##динген
##значен
Русен
гриза
Палеолог
планиране
художествен
привърженици
##йор
1852
героя
покло
члена
Ивайло
Коприв
читали
Нейната
бойното
ансамбъл
общества
##ВП
Je
##каче
##хани
ина
бърз
Полити
съветския
навечерието
##чица
203
бру
Роза
кухи
##повете
могли
опери
##ванията
ледник
минимум
Гъстотата
независим
##ET
he
no
Cro
1847
вита
неот
чака
отиде
локомо
изготвя
роднина
обществените
##news
Bri
Web
##риета
Play
дари
Намибия
македонци
идентичност
Arm
замо
суша
нация
Девето
отдясно
повреди
армейски
полицейски
провинциал
##aris
Гюн
Mich
кири
##ховете
##центри
ледни
могили
статуя
футболни
насърчава
Берлинския
##oy
##als
Баг
##добива
Медичи
древна
преместват
средствата
Ой
##фолк
USA
Внук
чуде
Братя
Грами
сърбо
##матично
костур
предше
обсерва
Калифорни
Ear
##дерите
нареждане
Германската
##ънд
##лити
##мания
##нната
Секре
пиеса
Звезди
Петрич
пещери
##itannica
диоксид
частите
високият
започнат
изискват
свещеници
академията
увеличават
##ude
Исак
заси
Бурга
движе
отряди
управи
височини
симптоми
емиграция
скулптура
унгарския
##рут
##бути
отв
Обре
упад
Пекин
##ровката
School
бившият
Йотинген
гимнасти
пресъзда
постройка
построяване
##йер
Скан
##стерои
Trans
албанци
обширни
светлин
възвръща
градчето
португал
минерални
сегашното
прекъсване
традиционни
##винг
Ага
Мах
сян
соло
Висшия
хитове
футбола
Андроник
Работата
прокурор
Парламента
републиката
##тво
##чек
##лана
##чести
Капитан
величина
рисуване
забранено
стратегия
конструктор
американците
##ИК
##полу
измъ
Татар
асфал
фарма
генери
настро
отгоре
плоско
родени
Радомир
Македони
обстановка
дългогодишен
правителства
##трея
СДС
Тим
Ради
Сена
Джими
завеща
съюзник
невероят
Балтийско
възрастта
Pal
Сем
Хем
шар
йеро
Леген
##ледония
водоснаб
формално
Каледония
съставено
преобладават
##каш
##живе
Хоф
злоу
Чарлс
Неофит
немска
Партиза
километър
##зис
Шей
Голд
щети
яйце
##хождат
##чевски
колата
Изабела
комерси
раждане
изложение
артилерията
##ade
Тел
гей
коня
областите
подредени
събитието
Киргизстан
проследява
противополож
усъвършенства
##бве
##шек
Кози
полукъл
четници
получени
войводата
екземпляри
привърженик
##ars
du
##веца
Цин
1839
1851
King
Боле
Джули
сочат
Бернар
промоция
турското
характеристика
##мад
##сбур
бият
##зените
##класен
##формата
дарения
британска
математически
sc
##реал
117
1837
Band
##гсбург
Юриди
нашите
Висшето
Фландрия
печатница
екземпляра
Gra
Кин
смя
орел
##несена
воюва
близка
обявени
оцелели
проявяват
регионални
световните
председателят
##тъни
Фир
уре
##бират
спечел
Куманов
разбират
разновидно
философски
четвъртият
##MA
##ode
##хол
##жката
##мерят
##шкият
1841
учат
##говоре
проро
кафяви
Преслав
знамето
спектър
тестове
отговори
анимационен
##кай
Кун
сму
High
обръ
цени
Science
Големите
##able
##ions
фри
Наци
васа
Макла
бомба
##адмирал
Льовен
Младеж
прилеп
учение
бизнеса
железни
заменени
изхвърля
подробно
ширината
совалката
квалификациите
##ОК
##каф
безс
закупу
пътеше
Франсис
Обществото
разпределени
##ets
##бад
##anth
##illa
1814
##enberg
хайду
##дарност
обхват
бедните
стипендия
##бюро
Яро
##ранти
Херо
Тоска
трофе
ливади
лиценз
считан
удовлет
Фондация
биографи
близкото
направил
годишнина
Мекленбург
ориентация
фелдмаршал
националното
професионално
##ДА
do
##квите
Лети
мюзи
едино
счето
Бангла
##образува
Боливия
политици
номинации
противници
##EC
Кел
##бълга
Уайт
Синът
##тинската
убийства
претенции
принципите
впечатление
полуострова
предотврати
##air
##дре
Dr
##налата
##ченски
Феликс
дарява
финансов
Хоенцолерн
продукцията
потушаването
представления
Хъд
Юпи
##миите
Стив
##тирано
Нерон
Трябва
вражде
Съдържа
победен
машината
##ks
ab
Абу
1100
##десетте
Опреде
прогре
Другите
жилищни
присъжда
тематика
Филипините
популярната
установяването
##дьо
##нил
ur
##бица
##ясно
Ник
Сор
Винс
Слав
хоро
патру
течно
излита
обсада
бандата
историо
излъчват
наследен
пътуването
четвъртата
журналистика
произведението
##ole
##тюн
ГЕРБ
гено
имен
послу
цветя
игрите
финали
терапия
достъпни
приятелка
##nd
Дим
Осо
##ities
баро
Въоръ
Джони
Милен
##лизации
Постоя
анекси
остави
походи
интерфе
индивида
Бундеслига
съвременното
разпределение
##пот
##кери
##движи
##сирана
##тенщайн
Арнолд
прозра
учения
педагог
Скопския
признаци
приписва
Себастиан
състояния
техническо
##gh
##til
##нът
##uman
##гори
##лопо
van
Дин
вкл
Игна
ябъл
##анализа
спечелил
делегация
картините
последван
СБ
Как
##берат
Мале
Саар
##препят
бъбре
карбо
мохаме
оптими
часове
нестаби
Оряховица
максималната
установяване
Pas
шеф
##деният
Долни
Новия
насти
отлага
Адмирал
доставя
поручик
експерти
Допълните
изобразени
отглеждането
##лици
##нито
Bre
ССР
##магат
Млад
меро
анато
дублаж
строят
сюжета
разгром
тръгват
класация
осъзнава
наречената
съответната
ТК
Сери
хард
##правки
Тирол
дълбоки
придава
атмосфер
църковен
полуфинал
съзнанието
правителствата
вка
##товите
Colle
Полит
##Николов
##подобни
Вернер
подходящ
следното
завладяването
Административно
##лоа
##тет
##мено
Шен
уха
##порта
Анжу
Жени
дупки
съдба
Алфонсо
братство
бъдещата
##IN
##ura
##сора
ова
##андро
1836
Гроб
екзо
##ративна
красота
неблаго
търсенето
характерно
##кий
неа
##нецът
##стинг
Time
мъче
Релеф
рибар
Караве
прераз
приспо
Социалистическа
##нава
##ктури
аран
гама
прате
Бащата
Кьониг
##пенхаген
металур
рациона
разгрома
##формацията
максимално
трикорабна
преподаватели
##ures
Джим
поява
##пването
##тинския
Цанков
възгла
спират
Бангладеш
автономия
разширяване
##ВО
иро
Демо
буря
тежи
##ровски
North
разпи
тесен
Банско
задвиж
Анастас
сблъсък
##становява
##НА
##ули
Ep
дъб
##андра
##снява
моза
реми
Влива
Юпитер
мозъка
полкът
предво
Лисабон
дървена
Златната
машиност
напуснат
изобразен
тържествено
##ays
Обо
хляб
Злато
Траян
тухли
джудже
съвети
съобра
Катерина
Парагвай
поезията
коефициент
християнската
##тир
##унт
##евге
##комп
##сели
##носни
##тината
дясно
Възник
Паисий
покаже
украса
намерят
преводи
Вермахта
следствие
царството
приятелите
##dae
wh
Паул
Хали
дъно
Джузе
лична
степени
кралството
основополож
християните
настъплението
традиционната
##unc
##кля
##жица
##чили
нож
Вера
орна
Берон
Взема
Руска
остри
хипер
Johann
профил
Животът
самоубива
##дере
Сино
белтъ
молит
завода
отляво
прикре
ролите
Занимава
архипела
Преминава
странични
съобщение
участвали
медицината
БА
##ject
##мънд
##стал
Оди
Лион
боен
пола
умре
##ловски
Горни
Речник
Дължина
завърне
актьорско
неуспешен
общността
направления
Don
Аса
Инд
Липе
обоб
Краков
артист
обичаи
пригот
влошава
завинаги
компонент
##ush
##диан
##сета
Russ
юрис
инова
патри
Михаел
Бистрица
Правосла
кампании
одрински
адаптация
включващи
класациите
продължително
##XT
##зър
Art
##мощия
Заги
##iation
##менена
блоки
Антъни
Кристоф
станали
използвал
конфедера
праистори
##жоа
Дев
Еги
##скови
Пъте
Грена
търгу
осъжда
прилагат
сериозен
размерите
Следователно
##hr
СО
##силия
Коле
Мемо
токси
випуск
гимнази
загинали
молекули
реставри
елементите
##мири
Пръ
Бонд
Младо
Хасан
въртя
причис
реперто
филмови
Анастасия
финансово
##aj
##бак
##тул
Рад
лъв
##устрой
късни
##годишни
Еритрея
гърдите
булевард
киселини
проверка
##физи
##цъфт
Bel
Rep
##новци
1838
Ерих
##чински
Прите
етажа
United
Култур
цигани
вулкана
завоева
съседни
##ническите
здравосло
Програмата
разработени
преименувана
##щна
##isti
Dec
Tre
ост
##schaf
1843
Леви
##ставят
попре
уреди
светец
красиви
химични
Андерсън
Командир
услугите
предимство
##зния
Mat
Сент
лорд
описан
цените
Третата
деление
радиото
сухопът
районите
осъществяват
##мио
##фран
##нтите
Дядо
отча
Канди
цвета
държат
паркове
пехотата
създадат
установени
Европейското
##кас
##ходя
202
Les
Аре
Буе
Hein
Боро
арте
зака
прид
можем
Philip
маршрут
човешка
единство
изобрета
напрежението
Sw
вио
##морец
1831
##македон
влюбва
любовен
противни
##юни
op
бои
вал
Грен
Свър
Вануа
атели
котка
Тялото
отдели
сатели
Хабсбур
работна
студена
Операция
Кристофър
континент
##гс
Хин
емир
##ратура
бягат
Франси
съвкуп
компакт
празнува
музикалните
##irl
##тум
Mor
Виа
Куни
бург
Перио
болка
звука
уебса
блестя
обиколки
просветен
пътешествие
##amm
Пис
##центи
Леони
адвока
голове
колекции
Копенхаген
премиерата
съществувала
съществуващите
##фори
Джан
Ориги
дошли
##ложката
Панайот
езерата
полезни
файлове
потребител
Пао
Линд
Лици
суве
заето
творе
техен
Релефът
##графската
дърветата
математик
химически
Аспа
Кори
поку
тихо
гъвка
убиец
Старото
пореден
Аристотел
самоуправ
следващото
архитектурни
##йф
##брод
##aster
##веното
Дъщеря
призем
родове
черния
обстрел
славяни
веригата
имението
епархията
пристанища
промишлени
мюсюлмански
промишлеността
Ob
##баго
Клю
##зното
Ибра
пала
Екзар
праве
уязви
измина
Джузепе
авторът
посреща
религии
Красимир
оръдията
успешните
разстояния
##ГБ
##amil
Char
сиво
норми
работещи
Friedrich
преследване
Управлението
разкъ
пленен
Илинойс
Хановер
повлиян
##eschichte
Трифонов
долините
годишният
престолона
Up
##гроб
##сула
##тъква
Малка
Розен
Слави
Витоша
полукръ
разходите
##улф
##лери
May
Транс
цифри
постигат
публични
студиото
природните
правосъдието
телевизионния
разпространяват
##ever
##мово
Аси
Сми
##дници
Боло
Стай
##звезди
Цялото
развле
стълби
разбере
тенденция
собствения
Международен
##вче
##сай
##фто
Щут
Игор
Цице
пита
##куване
Great
бойци
камара
точност
Построена
индианците
##бед
Fe
Sil
##ените
##татът
осми
събу
изчер
конво
въобще
##фицирана
единият
Окръжния
цялостно
Системата
заведение
транспорта
наследството
ph
Юр
##ring
##лепи
##ложка
Дийн
дама
крак
Сарди
конден
медала
радиус
болшеви
пейзажи
учението
отстранява
текстовете
установено
##ДК
##мак
##ванс
Jul
Sim
Жана
##ровата
помин
ръчно
жилища
замени
William
изправя
привати
джамията
човешкия
помещение
опозицията
британското
##зован
##няван
##тусиа
Енри
Кона
Наре
вожд
актьора
същност
абатство
мероприя
цилиндри
художествено
##соби
Обу
нао
David
Wrest
Сцена
присво
Карлово
Малките
гористи
подпомо
арменски
степента
изпратена
кандидати
френският
##Ма
##nik
##ото
##съла
##тената
подпи
чиста
пролом
сложен
Вануату
Лазаров
еднакво
материя
озвучават
публикуват
разновидности
##хоф
ФА
Наи
Бони
Доку
##шената
Лорънс
древния
напитки
предаден
отстранен
републики
##OM
##oma
##кун
Сво
порт
##довите
лекува
мъжкия
четене
съмнение
религиозните
##лера
750
Mal
щит
##атски
изли
Мизия
морфо
надлъ
парче
Тереза
внучка
##довицата
топката
министри
налягането
религиозен
it
##кьой
Wars
Люби
Пеще
Рико
преп
черта
Центъра
##изследова
съдържащи
мнозинството
##руда
тъка
удря
съсед
##тнически
Андреев
великите
прототип
четвърта
музикалния
##гун
##шич
Бив
##жесто
Физи
Принц
легат
Пуерто
Слънче
вярват
залата
районът
Соломонови
околността
съответния
предложения
македонската
Ии
##ралд
Лам
заеме
курор
схеми
високия
пълното
отворена
ръкописи
формация
интелигент
поддържане
##борн
260
##лезли
Дали
мала
Позна
импул
мечка
##тичното
валута
монгол
облаци
справи
Третият
измежду
летните
отрежда
пловдив
Британия
Участник
наричано
преселва
Северната
Балканските
##ca
Lin
МиГ
зет
##детел
глоб
кацане
Царство
осъдени
пострада
предприемат
##inal
##вано
##мъкът
##рания
1400
Брус
Каса
Коро
преци
такси
хармони
шахмати
комитета
вестниците
обслужване
растението
потребителя
необходимите
преименувано
византийската
##чъл
270
Ros
Ква
сън
тюр
преи
етапа
##станции
масиви
палата
Електро
Филадел
пусната
снаряда
престава
проведена
##ской
Тау
##press
##лязат
Клео
Пано
Порто
Трети
играл
породи
Никопол
намерен
Борислав
Симеонов
затворници
подпоручик
Литературен
собственото
all
Съв
Яне
##махва
Стоя
Търгов
местна
забрана
клиенти
споделят
##IA
##ъв
##кей
Гранд
##пресиони
Създава
животът
язовира
##йдън
pra
Поя
##ature
хели
Дипло
полюс
Лигата
връчва
храсти
дългата
предложи
английските
прекратяване
изследователски
##ль
##ats
##зка
##яти
Жорж
Музей
вампи
Байерн
майчина
останал
##ничеството
комунистите
забележителност
##хър
Сп
##цлав
Wal
Дри
##васто
Hell
Еври
слаба
Камарата
Колорадо
Шварцбург
наркотици
творчески
собствеността
Cr
Що
##atis
##сари
Mak
Апа
##лейки
Анди
Евре
Клин
Поле
райх
стри
трак
##делберг
##стрелян
Замбия
поиска
треска
Маргарет
нормално
Политбюро
##yr
##ай
##въра
Силе
чист
Катар
Валери
Зондер
Кръстев
Тесалия
ескадри
Великден
изключен
придържа
Вселената
Световния
психологи
извършване
##цина
Fil
Раду
хумо
Стоун
Мануел
Београд
близкия
изкуствено
Президентът
##мерна
Баку
писта
разкриват
упражнява
Априлското
архимандри
##gr
##край
##нест
##пина
Око
Вече
Гуан
Хора
перифе
Израства
Присъеди
Тринидад
географско
необходимост
Pop
Осе
##гръща
1792
Ромео
лодка
плейо
общите
порода
Ковачев
European
внезапно
всекидне
лекарства
възрастният
задълженията
психоанализа
предназначена
##дана
##сана
Post
Rich
West
бето
Габон
Таджи
олтара
вълната
гравита
Бояджиев
интерфейс
законодателство
##тол
##нести
Окла
алге
вещи
Цветан
здрави
заселва
Латинска
Люнебург
пътищата
критиците
Националното
департамента
произношение
##гео
##таж
##туи
##внява
##клина
Моги
Тара
##извест
##мовата
клиент
купола
осъзна
стигат
транзи
##тинското
Цицерон
другият
императорът
предпочитат
концентрация
##логът
page
Оман
Емили
саунд
Мадона
Чавдар
кръста
Августа
наскоро
недости
полукълбо
построено
екзекутиран
напускането
##дас
##дих
##мал
##ваща
##лете
БВП
##докия
##откри
Осло
Пробле
екстре
Ботевград
Договорът
конвенция
признават
боеприпаси
##erm
##бното
лауре
Empire
краища
схваща
прехода
Куманово
заменена
нарушения
японските
гробницата
изтребител
китайската
##ИС
##вик
320
Кат
Рой
дръж
Канта
Гюнтер
Отново
присъедин
сдружение
укрепления
Хим
1832
Приема
немско
секунда
управля
насочена
сключват
обяснение
следването
индустрията
##ani
##гио
##незе
##палу
Жъл
##затор
Кент
Того
дожи
дъжд
опасно
триумф
вечерта
предприе
художникът
сладководни
европейското
##ese
Цу
##инте
##андър
##ковие
##писец
##варата
бодло
делегат
добрият
природо
султана
разформи
посмъртно
разочарова
подпомагане
общественото
въздействието
Rel
##ковна
Олга
никаква
станала
улицата
организатор
##йнс
##юел
Вили
Смир
Друго
Robert
залага
игумен
устата
нашествие
обикновени
провинциите
##ИМ
##ващ
##arch
зре
ово
солу
атоми
чешма
школи
##кенщайн
компро
Преобла
Силезия
интегри
Младенов
одобрява
пациенти
получили
оригиналния
##нните
Кили
Напо
Тито
Айрес
кауза
отвле
Christ
велики
Култура
префект
съдебен
продаден
разрушени
Европейска
образувана
водоизместимост
офис
Понеже
архиви
Macedon
Network
иконите
скулптор
базиликата
изчисления
електроенер
образувания
определение
##CW
##ior
##sen
##мпли
Пос
Шон
хип
##денции
Наблю
вариа
изгон
вятъра
##ливостта
Смъртта
волейбол
довеждат
##ващите
лекари
хълмове
Гръцката
конгреса
призната
численост
##ico
##чув
##цова
##ждани
Воро
Юсти
тимът
##ждаване
тъкани
милиони
площада
полския
седемте
покритие
преврата
работник
разклонения
свидетелстват
Реген
физико
санджак
Wrestling
Костурско
Кралската
защитават
механизми
католическа
мюсюлманите
използваните
##гма
##зион
Ами
Ниш
Вран
Хипо
сочи
Бойко
Ватика
аромат
##лизирани
##ментация
Лимбург
безрабо
единствена
##ФГ
##рият
зъби
Ливий
влияе
Хърват
актове
неутро
Процесът
увеличение
обикновените
HD
##зари
##ноза
##телс
1834
изпа
Халки
Буенос
Новите
въобра
станат
проваля
изписани
фю
Hoh
mag
ерц
Муса
раси
Кораб
руският
индианци
намесата
церемонията
престолонаслед
ha
##chen
##ther
##рази
Hel
Айл
Зан
Sport
Нигер
борят
стоят
Дъглас
Негово
Платон
Хамилтън
главното
пилотите
Лайнинген
Федерация
изработен
характера
организирането
##omb
##лоси
##шкин
Bal
Неделя
разлики
очевидно
Копривщица
владенията
##рое
##никс
Дева
Дука
огни
салон
Ролите
сходни
човекът
въведена
краищата
превърнат
физическа
##съм
##хур
Ca
Kn
Ze
##варва
Норт
меко
Бруно
Милев
потреб
ентусиа
оттегли
Награден
фокусира
персийски
Българският
##МА
550
Ино
Чин
доц
рап
теку
Украи
успял
посоки
портрет
апостоли
##лау
БРП
лет
ума
Астро
Едгар
колое
Бенеди
Сахара
владее
умерен
Bulgaria
докторат
широката
изповядва
резултата
системите
Хайделберг
литературно
##номи
Чир
кош
##летен
гове
##нирани
Връща
Любов
Марша
султа
Новото
обясни
цигулка
биология
поставено
Витгенщайн
Вследствие
##ero
##nes
Виж
Ние
##писът
Брен
Коко
##мпания
Кевин
отказ
отдела
смърто
##tainment
##гистрала
просвета
писателят
##сения
1842
певци
логика
ожесто
правни
чифлик
Society
мостове
недалеч
шведския
Българите
подчертава
космическия
единствените
НОВ
Пул
##дност
някоя
натура
Петрова
реклама
абсолютно
комбинира
управлявал
разделянето
##пид
Jos
##грами
Сухо
##местен
Конвен
прогно
съвета
цветни
##алността
излизане
протокол
хипотеза
късометра
##uts
##чак
Удо
низ
Jena
Скри
Топо
арка
диша
мека
##ратори
Гонза
Мигел
Валдек
удовол
Мавриций
изписана
##ном
Кве
##дират
##русия
Мати
Оуен
хеви
##ченият
Apple
Матей
армей
макро
отвежда
Жителите
дирекция
##доосвободи
Литератур
подложени
проведено
вероятност
транспортни
туберкулоза
Hy
##ears
NXT
##жбата
##марка
##нител
##пяват
##ръбна
Арги
регла
режисура
Македонска
консерватория
##24
##odon
Del
ура
чай
##сибир
Пови
крат
ориз
пънк
геоде
Големи
Шишман
декара
напише
командира
императорски
##кве
Nov
ани
##бриел
Долен
Зимба
тетра
хорео
изменя
сирене
какъвто
начално
неравно
отпуска
таблица
Държавно
комитети
монтирани
иконостаса
събирането
##den
Сва
Чър
Даска
Сантя
любим
замъкът
печатни
Леонардо
прилагане
малцинство
##дво
Гел
##лиево
пота
охрид
Аляска
Джумая
Щутгарт
попадна
прототи
озвучава
творбата
изданието
особеност
Следващият
пътешественик
министерството
##ih
##ери
Vir
##тиста
Дени
ТКЗС
##ненски
Бенин
Троян
звуци
мотоци
Струмица
обучават
спътници
привличат
разболява
Следващите
аристокрация
##бс
##сният
Пото
Севи
Хене
бран
химн
##тското
Лерин
Русев
Патриар
средния
Господне
изпълнен
насочват
ресторант
стрелбата
##sc
##бета
бон
##ралата
флоти
волята
богинята
подчинени
инвестиции
съществувало
##кно
##ньо
##itor
XXI
змии
Проко
Стади
иначе
казват
събере
жанрове
каквото
Туркмени
варианта
въздушна
минерали
наместник
Черноморец
италианска
ефективност
партизанска
Цариградската
първоначалното
##сян
##ball
Leg
Гей
Лито
Манс
Сантяго
Изградена
господство
религиозно
##pp
##РУ
Соб
2020
зага
кърва
опожа
цензу
Пребро
##формират
интереса
конкретно
##ova
HT
##пило
##туна
Luc
Sep
РМС
Клау
Цвай
спри
верто
ритъм
тютюн
аспект
Примери
немците
кралската
инструкции
испанските
изтребители
обединените
технологията
цу
##aria
##леби
##маил
##нини
##парт
ВЕЦ
яро
##кърдс
Вилн
Синг
дълг
учителя
върховете
идеология
нарушение
погребани
необходима
югоизточна
автомобилен
стенописите
##ün
##ист
##стон
Pap
Арм
##логии
Димов
внуши
готови
Професор
кладенец
финалите
Таджикистан
IT
##гано
##йдър
Гръ
синд
вулкан
прогон
срещне
крилата
цивилни
Валенсия
неизвестни
освободени
суверените
освобождаване
Юн
дж
##ages
##ринт
Цон
Чау
енд
##числен
съпът
Уолтър
арабите
редовни
записите
представа
решенията
озаглавена
оттеглянето
##буда
##толо
##нейро
##ского
Georg
маски
версията
канадски
европейския
ЕО
##прое
Hom
Фан
##conom
бота
съжи
##вското
Брега
##ценберг
вектор
реклами
вярвания
признати
японския
ограничено
Американска
германското
##ias
##сол
БГ
##блин
##шева
Гюр
Гълъ
Кмет
котки
хибри
Голямо
камери
каквато
процесът
затворена
Entertainment
IP
##ette
##чията
Адал
езико
Срещат
белези
приложи
процъфт
Кралския
квартали
приказки
##сети
Бот
##лиева
амни
##стител
Elect
Киров
бунта
шифри
Тунджа
Крушево
Голямото
Залцбург
Построен
въздушно
дългосро
сестрите
артилерий
приятелство
съпротивление
Mad
Кил
Гора
Моно
оскъ
Видео
Джени
Милър
проже
метабо
диплома
замести
царевица
градските
Микронезия
квалификация
##кр
##ниш
##рял
Tri
par
мега
охлю
файл
Иисус
Парас
пазят
ултра
Нелсън
##ториална
останат
Каспийско
подходяща
координати
посетители
християнска
университетски
##och
##icus
##хара
Гиз
1833
Амур
Земе
кечи
вечно
бързото
емигранти
популярно
фабриката
колекцията
комунистическия
##TP
##ven
##фта
Пай
City
Боби
Мана
Нийл
музеи
измества
скандина
вътрешния
отразяват
Fl
##алци
##дант
Ару
сет
Мусо
Ербах
работо
урежда
Емануил
Великите
ползване
способен
паралелно
периодично
Възраждането
социалдемократи
‘
##гис
Ане
Греъм
Списъ
тънки
Бурбон
Цялата
опасни
сезони
Примера
мислене
подобри
Зимбабве
архипелаг
денонощия
разрешава
шампионка
бодлоперка
изкуствени
функционират
##теж
Акт
Орле
поете
запаси
започнала
настояване
конструкции
##зир
##cess
##стна
Лопе
моне
##десети
##коните
зърно
подоз
преса
поражда
превзет
Графство
приключи
състояща
треньора
взаимоотношения
##AP
##мска
##плен
##реми
Мед
сно
##гория
##санти
Евти
сини
Грант
Херак
Управи
включи
възпри
опашка
патрон
Хонконг
бактерии
въглерод
способни
възприемат
традициите
композитора
прилагането
##go
##сигур
паса
танк
Books
самоо
Фьодор
буржоа
някъде
учебно
##стичната
графика
Месопота
класации
познания
решаване
съгласни
Последното
тенисистка
документални
противопоставят
##SC
##СС
спад
South
Арена
довело
струва
конфигу
личните
разкрити
образуване
самолетите
югославски
Едновременно
престъпление
##ТФ
##зд
##вейт
##дино
##фона
Инду
миро
издир
приме
горещо
богослу
никакъв
прилежа
бронзови
лечението
библиотеки
подхранване
поставянето
художниците
##IC
Връ
Дву
##латор
фона
зимни
Победи
другото
пресата
разтвор
артистите
##вада
Вио
Сци
1810
1813
Herr
Хънт
Пирот
##носните
Аспару
катери
пионер
прецен
##лирането
модерна
спиране
Франклин
добавени
равнината
пропорциона
организирано
туристическа
##32
##86
##IL
##гоу
##няг
##нард
##хари
наса
##ктурен
Peter
Кайро
нашата
канцлер
отвлича
диапазон
единични
отделения
пътувания
построяват
##мити
1789
завою
князе
##матиката
зимните
##планински
Туркменистан
##uz
Ul
Вя
##ктър
пше
Дамя
Пети
диска
жлези
##носмила
карика
накара
водород
кралска
метропо
##ложенията
уравнения
африкански
стабилизира
##lad
##фата
Old
1825
Касел
търпи
##гряване
Играта
боснен
реални
Параске
заражда
неколко
Охридска
Франсиско
партньори
поражения
румънската
писателката
##бама
##дафи
##висион
Assoc
##графско
Граничи
климата
картечни
отстрани
постигнат
Старозагор
##EN
СК
##iana
##шият
UTC
##мерни
Денис
литур
Хауърд
далеко
Габриел
извлича
##европейски
изградено
публицист
австрийския
класическия
официалните
Разстоянието
документален
##ulus
##зино
Jon
тла
##бютел
##емата
##налът
Part
##веният
Психо
харду
нежела
отплава
Сериалът
индийски
декларация
споменават
модернизация
първоначалния
##тас
Aust
коко
пато
##леният
Извън
Събра
Фести
луксо
омъжи
осигу
Аполон
Йоханес
диктатор
подготви
Зу
##шина
Exp
сюр
шри
Кейт
нади
пнев
сбли
Расте
Франс
Ямайка
анархи
услуга
юрисди
Зигфрид
Мичиган
слънчеви
принудена
американско
##ных
OS
Пя
##змата
Монт
ваку
Непал
Родри
почит
тяхно
Signal
домове
методите
чиновник
Славейков
спомените
прозвището
търговските
интернациона
##je
##уей
##йорк
##твер
Дря
Prin
##годишния
Билборд
изстрела
нарушава
прекрати
привлече
отбелязват
Вселенската
подразделение
##ón
##риер
Шел
сух
##стоприем
Либерия
духовно
обръщат
Бонапарт
сблъсква
затруднения
средновековен
##unk
Pat
Мой
Места
облик
чести
неприя
дестина
##ландските
детската
сблъсъци
тридесет
бизнесмен
бразилски
водохрани
наречените
свободното
предполагат
##дай
##емон
Зай
Тал
##кевич
Овча
дъна
##делник
дясна
казар
Квебек
обширна
особена
клетките
премахва
премахване
Строителството
##вско
глю
Калу
Тува
доня
паро
##петски
##сткото
##търнов
късен
агенти
астерои
отлично
типичен
клетката
живописта
средновековната
##wn
##tra
Маги
##ченост
Висок
Остин
мощни
наново
обезпе
##местване
загубва
заглавия
пирамида
скъпоцен
Официално
интересни
разделяне
Цвайбрюкен
подводници
теленовела
възникването
##ić
Сад
Чап
дере
мирно
Вителс
Студио
запове
надписа
поминък
танцува
##нологията
органични
присъдата
строителен
териториални
##ba
##urus
##фицер
Звез
Кери
бани
плюс
Ланча
мярка
мъртъв
рицари
намирал
разцвет
Директор
драматур
контекст
финансира
инструктор
пътнически
съветското
професионалната
##ya
##док
##лиц
##мато
##душно
пряк
Review
сървър
##логичните
Heinrich
контузия
неуспешни
процесите
Филаделфия
доброволно
##gen
##кота
Aut
##несен
##стора
гени
кано
кога
Майер
вокал
завет
Volume
полусе
театри
висшите
северен
статута
разпозна
съчетание
Австрийска
Bad
Бис
куп
Енер
фору
##натите
Гевге
ландша
мъртвите
осветена
Цветовете
груповата
протестира
uk
Ря
##брук
##зове
121
Чал
##ublic
1818
Джен
Пауло
покръ
похва
свине
твърд
Волфен
Мисури
статуи
творци
Стойчев
конкурси
отпадъци
императори
редакцията
надпреварата
жу
##ique
кай
##пията
Съби
изна
моде
рамка
##несение
##стрелва
Издава
Калоян
експан
развит
светци
цикъла
##лийските
въртене
Вюрцбург
антифаши
съпругът
охлаждане
##хови
##мична
##преди
Води
Нали
Онта
кили
ледо
раса
Оливър
морско
езикова
силната
диалекто
Нормандия
електронен
произлизат
##oon
ерцх
могъл
преви
преси
трамва
фасада
Суперку
капитал
Световна
дивизион
задвижва
класират
подарява
оставката
покровител
Присъединява
##ska
##пни
##хии
Юни
Шипка
##стените
##чителен
Рафаел
застъп
Онтарио
тежката
събрания
Олденбург
взаимодей
интеграция
регистрира
Художествената
##AM
Оръ
##дския
##ризъм
Адамс
Клаус
колега
коорди
твърда
Цветков
Отначало
звездата
нацистите
Асеновград
неизвестен
Юридическия
североизточна
##ft
##вове
Бау
Шал
##енени
##ловци
1795
дива
##христи
Psych
Полог
##строена
Доналд
нуждата
населявано
Месопотамия
географската
##ida
Лас
##плика
##затори
амино
магне
Бесара
Дойран
идеали
покрито
последна
съветници
Херцогство
##взо
650
Йена
кипър
Швабия
артефа
Данните
обсъжда
Сардиния
въвеждане
контекста
индивидуални
##wig
##звез
Аби
УНС
Цер
баси
бижу
Абдул
Душан
зелено
радост
филтри
силното
типично
разпуска
следвоен
комплекси
приходите
унгарската
€
##пинг
##хман
Lab
Арн
Бек
Глен
герб
##пените
афера
репор
##тическо
билото
кодекс
частно
бъдещите
прабълга
Семейство
надхвърля
настъпват
отбелязани
##ТЕ
##лома
ото
тия
##скани
Night
литра
майму
##пуснати
Айлънд
солист
Апостол
пшеница
Разбиване
икономист
предадени
мохамедани
разделение
##ндон
Лоу
дати
есто
##сирани
Косми
азиат
есета
Хендри
прилож
Рекърдс
княгиня
условно
полубрат
реалност
Бесарабия
продукции
твърдения
съпровожда
навлизането
##рог
EP
Ga
##дими
Рот
Нике
гуми
Techn
карат
влизане
Основана
Световно
кристали
изключения
БМ
##орба
##стко
IBM
Комо
Томи
атла
бащи
узур
Рикар
Янтра
вдига
дойде
Тобаго
видния
Аврамов
оформят
островът
оцелелите
поставяне
скулптури
неочаквано
професионалния
##нек
##сед
##bach
##нослу
Glob
##строен
Power
Касий
Модел
възпа
предо
изящни
тексто
трайно
Алберто
заплата
сключен
Мериленд
учредена
успоредно
оригинални
Волфенбютел
Северозапад
Университет
популярността
##гай
##воли
Бле
Росен
свирят
пътуват
Министър
генерира
изключва
разрушава
придобиват
пивоварната
трансформира
##драв
Тъм
хет
Your
йезу
обсе
дружи
кален
множе
навън
отдих
пясък
Антиох
сатири
Завърши
равнини
гласуват
посолство
категорично
революционни
##eum
Люб
Щол
кол
сго
Alex
Арка
Отно
Тива
Цеци
рент
##ington
##биране
кмета
Пелопо
журито
истина
провал
завърта
записано
Барбароса
Каравелов
##африканската
допълнителен
##РИ
##arc
##eld
##ody
РС
##нтия
##реги
##шевски
Лотар
Панчо
Хаити
взрив
изпък
покой
състоящ
лидерите
Специализира
##vo
##юк
##ree
pol
##лярни
Рали
ходи
Амбро
Всяко
Дворе
резона
решено
General
дизайна
Петрович
охранява
Лозенград
съставяща
осветление
техническа
330
Ast
Йън
арх
нее
пев
##лония
Прия
Хава
##ischer
Super
елита
Michael
буквата
инцидента
Слънчевата
достигайки
##ops
##ria
##блу
##птя
Sur
Аза
Отец
Пере
купу
родом
баланс
болгар
платно
съосно
същият
рекорда
Атлетико
извършен
предните
проектът
съперник
изпревари
второстепен
светилището
##raft
вин
шум
ауди
взел
окси
Албан
отвън
Втория
Повече
богиня
монахи
снимка
констан
любовни
понятия
близката
застъпва
трансформа
##шум
коз
сгъ
##зиана
Проу
Media
пръст
##видност
Балчик
къщите
истинска
конкретни
осъществяване
реконструкция
обществеността
президентските
##яс
##ham
##ІІІ
##деа
##уми
Cy
ti
кеч
##време
##тение
нула
хромо
##тивното
Кувейт
миниат
потъва
##образието
бургграф
предшества
работилница
работническа
привържениците
##тарх
Вор
ере
##лкови
висш
болед
поляна
Мястото
ритуали
оръжието
отворени
редиците
Крепостта
възпрепят
прозореца
консултант
принуждават
##za
##rim
##anus
Тул
сля
УНСС
Учреди
масова
муници
паунда
съдебни
точката
числото
Genealog
Тюрингия
доктрина
некропол
информира
неправител
Стамболийски
##вир
##зъл
##рито
Бас
Шпи
##класи
##стява
Girl
общу
сняг
етапи
##стояние
налице
пълната
Непосред
зависимо
истинската
министрите
разпознава
оригиналната
ra
##ship
Крас
##гоизда
нужно
планети
видеоклип
разделено
спечелени
предградие
архимандрит
##ied
Str
Лие
Оке
тий
Cons
Андо
Дела
цари
##лийско
##натори
Груев
смени
цикли
Крайце
Тетово
жандар
ствола
##ological
монасите
отправят
концентра
популация
федерален
Дунавската
модификации
съавторство
##awa
##виц
##бари
Хро
мъг
##турни
Брез
Фокс
заре
##левски
носещ
преоб
съвър
темпе
Кастро
Констру
безуспе
притока
реагира
часовни
Нацистка
зрителите
извършена
##реи
##ield
##вела
204
реф
хоп
шоф
##лежат
инер
##пската
Купър
Харис
бокса
цирку
апсида
дъждове
фабрики
Макларън
Хилендар
губерния
нахлуват
оръдието
Столицата
Факултета
действащи
отсъствие
Американски
положителни
me
Тут
ула
##вките
1793
1805
Елин
Русо
Второ
Карие
##гледите
Армията
героиня
уважение
проектира
Регенсбург
географска
назначение
австрийската
побеждавайки
получаването
устройството
средновековието
##роа
Sa
##бово
Илю
аба
Хаус
слаб
Кариб
гъста
нарис
German
частта
експерт
Далмация
инженери
енорийски
завръщане
##пчев
адю
8000
Къне
Янко
ендо
##изпове
##тивите
Диана
Изпра
Прова
дебър
сюжет
Законът
делтата
пленени
##септември
##oo
##РК
ОК
##чино
Ема
##менна
Алпи
Руси
##ковска
мощен
сесия
##зовават
Center
фактът
Аврелий
заслуга
художни
остатъци
полските
намерение
народност
обособени
славяните
хумористи
##фира
Gold
Лацио
Мурад
знаят
пресъ
Йохана
Принци
Руанда
пробив
царски
##комуника
##ктически
Предбал
Research
Младотур
въведени
учебници
Бенковски
имигранти
имущество
отстъпват
Съединението
Трансилвания
литературната
Мъг
ХІХ
##дейки
Сайн
визи
сгло
Хюстън
обувки
природ
Жанейро
типични
Дионисий
еврейско
благородник
господството
##ni
##мъл
##ные
##angu
Кви
Кеч
същ
##пката
##товия
1826
Белиз
Проте
краен
Public
Общият
грозде
придвижва
резолюция
физическо
Geschichte
Антарктика
евентуално
кооперация
недоволство
транспортен
##няк
##дуей
##кисе
##фини
1797
шлем
##теката
Канад
ивици
аранжи
сингли
тотали
срещани
коритото
подводни
породата
Студената
дефиниция
старогръц
внимателно
мероприятия
Византийската
##ЕК
##ЛО
##ople
##хома
пул
акро
Морав
проче
слави
Добрев
адапти
златна
##разяване
Херодот
битките
възлага
коридор
##ждаването
уникален
околийски
продължат
въглероден
гостоприем
продуциран
##osa
##лич
##ногор
##трите
Serv
Бере
Сдру
бела
мезо
сиро
First
превъ
растат
западен
навътре
пограни
сериите
ангажира
заплашва
османско
съдържащ
съществи
отражение
преустрой
териториално
Университетско
##ürst
Tom
res
Пов
Таш
##ander
##cient
##държи
кода
отре
Маями
Шоуто
Кратка
пехотни
Иконоста
Полската
Откритото
планинско
прикритие
допринасят
византийска
собственици
местоположение
##зио
##хисар
Ital
пепел
влакна
глобал
превозва
Стамболов
бреговата
гражданско
продажбите
публикувано
самоубийство
##zy
##ълс
##ides
##дола
Ита
##мския
атри
заим
##бинген
Господ
вокали
дискри
колело
банката
изолира
мобилни
оцелява
въздържа
действащ
изчезват
формиран
държавното
еволюцията
пълноводие
тогавашната
##хот
ниши
толе
факто
лондон
America
офанзива
църквите
##хранването
Тихоокеан
Членовете
попадение
##ato
##джоу
##лока
##сува
Tor
Кий
лагу
Анали
Юлиан
Болоня
Еванге
Линкъл
##влението
бягство
пробива
училищата
разработват
архитектурен
##ble
##гьо
##меж
##asti
225
Out
тунд
Мавро
Секст
имаше
потър
обогат
Митропо
Монреал
редовна
Комплекс
завеждащ
свързващ
спътника
Състезава
геометрия
свалянето
Саарбрюкен
измервания
претендент
притежание
интерпретация
статистически
първоначалната
−
##муд
##метро
1804
1819
Гена
диха
##полита
ястия
##стройка
Картър
Севиля
саксон
повреда
сайтове
крайното
персонаж
ориентира
финалната
наследничка
##ki
SI
Mot
##лаков
What
With
Арта
Чети
##ктикът
Играл
грубо
капита
релефа
четите
патрона
епидемия
обектите
процесор
композира
средновековни
характеризират
Пр
151
Валд
преза
Disney
рентге
Лоренцо
изворите
сценария
удостоена
факултета
Александри
Единственият
##MD
##NA
##ovo
##utt
##гес
##чич
IC
пик
Бърт
дизе
##дската
##стотин
Елиса
родната
авторски
алгоритъм
генералния
разработки
учителства
благородници
##25
ГП
Liv
wik
Гау
год
рус
##тевен
Курт
##ischen
##стрибу
Champ
Гости
Забра
курса
слива
Алабама
Кантаку
дългите
налагат
прякора
титлите
Академик
кралския
наричали
съзвезди
процедура
съпътства
последвалите
##let
##щар
Печа
агро
беля
доза
изле
купо
##бените
Въста
бърка
комен
съзна
книжар
колела
стреля
Бюдинген
статията
Възнесение
Кънектикът
европейско
съществуващи
ръководителите
##ИН
##бис
Пак
бри
##рудни
1808
Наме
кону
отку
##чиците
Клара
##мбълдън
##сването
окупира
##formation
работите
съчетава
правомощия
традиционния
##RO
##йх
##omen
ООД
Тир
фен
Кели
възхи
стълб
текто
##бралтар
велоси
пожела
##стичните
дублира
описана
таланти
референдум
двигателите
споразумението
μ
##ues
Еър
вою
1816
Spec
Бази
овча
мотор
Пелаго
Ancient
Оклахома
Тюбинген
задържат
Границите
седловина
юридически
документите
устойчивост
образователни
##arn
##fin
##ади
ени
Блей
Уики
леля
мъжа
пета
Путин
Тонга
езикът
знание
влакове
селската
иконостас
пренесени
храносмила
произвеждан
изображението
##дет
##таг
Хоу
Види
колу
Сейше
##емостта
Маршал
доживо
затвър
отзиви
Тоскана
правопис
редакция
ставайки
Вестникът
младежкия
Фю
How
##верси
##нитен
##сткия
Боси
Нака
Спри
лиси
руда
Тбили
конен
##формите
болида
шестте
##ктивните
Главния
Леонард
изнасят
Дебърски
погрешно
Уимбълдън
балкански
публикуването
присъединяване
##бния
Хум
##носци
1790
Роли
Сюже
Юний
орто
рати
дузпи
изява
подво
рецен
тираж
##ведение
##западен
Кастел
сбирка
Линкълн
Награди
надгроб
тълкува
прозорец
регулира
Движението
античността
Калифорнийския
##by
205
Лаос
осмо
фази
Янков
бедни
интри
Бруней
Магнус
Саксон
Серафи
битови
татари
Нейните
висшата
духовни
обратна
часовник
изразяват
Хабсбургите
PD
##view
##лско
##мейн
##мела
Sun
##квизи
##пенди
Port
года
поми
##готите
Мориц
Срещу
петък
клетва
поклон
телата
дървото
завладя
Октомври
далечина
Батенберг
Използват
гробището
електронно
камбанария
специфичен
северозападна
~
##ret
AP
##фест
Рели
мони
рази
рали
южни
Запада
Джордан
дискове
задържи
маневри
станови
Кастилия
селските
традиционен
Екваториална
##доз
МС
##ille
##муще
##филд
131
web
Енг
Уел
Юта
##дийни
1799
1803
Мага
Сайт
##анската
##рования
ключови
преноси
сънарод
феномен
унищожаване
##лот
##тиш
147
Вап
жле
##бване
##пулос
Боев
Рига
##мюрджи
Карно
банди
##водните
Матери
Самата
Силвия
турнета
Мусолини
Гибралтар
безплатно
печелейки
изработват
интензивно
продажбата
ефективността
bl
##ндър
Kon
Хри
Club
внед
искал
качва
August
Струга
влажни
синтез
смесен
Издаден
обсажда
опълчен
повежда
подобие
Изграден
алпийски
маршрути
подложен
Управлява
образуван
артилерийска
възрожденски
революционната
##cer
Top
Оса
кои
шве
##клетъ
1801
Даун
разм
Берое
Горен
речта
Кулата
Настоя
заводи
учебна
Балдуин
бронено
изгонен
каменен
пълково
##български
##детелства
информационни
университетите
##ians
##йсет
##прес
лар
##жкото
Едни
Швед
целя
##славов
Какво
Покри
препят
бунтове
изгради
недвижи
сортове
Световен
Юстиниан
подготвят
вероизпове
Он
Тип
Дейв
Зени
##стронг
Герой
юбилей
Плутарх
Оригинал
Простира
продуцира
пясъчните
честотата
образувани
установена
##акт
##ной
Ty
br
Бря
Ньо
##гване
1794
Чипро
барие
парни
##ization
##тността
Узунов
Химлер
фемини
щастие
Титлата
играчът
изразен
активната
развеждат
##yth
ключ
лява
##ваните
Папен
декан
обема
прого
тийней
Президи
достойн
точките
##графически
керамични
Вирджински
служителите
##ala
##arm
##бери
Lud
Реа
тила
##дебург
##неният
остра
извора
Даниела
##а
##и
##о
##е
##н
##т
##р
##с
##в
##л
##к
##д
##п
##м
##з
##я
##г
##ъ
##.
##у
##,
##б
##ч
##ц
##1
##й
##ж
##0
##щ
##С
##ф
##х
##9
##П
##2
##e
##ш
##-
##a
##i
##К
##(
##)
##o
##В
##n
##"
##r
##М
##Б
##8
##А
##„
##“
##t
##Т
##Н
##ю
##3
##5
##s
##4
##Д
##7
##6
##Р
##l
##О
##–
##Г
##И
##m
##u
##c
##I
##d
##Л
##Х
##h
##Е
##Ф
##З
##g
##:
##p
##У
##S
##y
##k
##b
##f
##w
##C
##ь
##A
##Ч
##M
##Ш
##T
##v
##B
##P
##Ц
##V
##N
##/
##D
##L
##;
##Ю
##R
##E
##Й
##X
##G
##H
##ѝ
##F
##W
##Ж
##Я
##z
##Щ
##O
##†
##%
##K
##U
##J
##x
##'
##j
##é
##”
##°
##Y
##*
##ы
##]
##І
##[
##_
##—
##̀
##q
##Z
##!
##&
##+
##?
##ü
##Q
##’
##=
##ј
##α
##Ъ
##ο
##ä
##ö
##ѐ
##ς
##ν
##Э
##ι
##|
##́
##$
##ó
##ρ
##»
##«
##э
##á
##τ
##λ
##‰
##>
##ε
##σ
##і
##μ
##κ
##í
##<
##ć
##è
##η
###
##π
##ћ
##à
##ί
##ł
##ı
##`
##ά
##ă
##γ
##υ
##š
##č
##−
##ό
##×
##ω
##â
##ç
##њ
##δ
##ë
##ѣ
##ā
##ё
##′
##ş
##‘
##β
##љ
##€
##→
##ś
##ا
##ß
##ą
##~
##•
##æ
##É
##Α
##ή
##Ј
##φ
##έ
##ō
##ž
##Σ
##ñ
##ύ
##Κ
##£
##θ
##χ
##Ι
##Π
##Χ
##Μ
##ú
##ń
##ل
##Δ
##Ö
##Ε
##ر
##ї
##ώ
##·
##å
##⁄
##ə
##ī
##ū
##î
##ę
##ن
##ã
##Ο
##ș
##Š
##ò
##ğ
##م
##}
##ě
##Β
##Τ
##§
##ê
