[PAD]
[unused0]
[unused1]
[unused2]
[unused3]
[unused4]
[unused5]
[unused6]
[unused7]
[unused8]
[unused9]
[unused10]
[unused11]
[unused12]
[unused13]
[unused14]
[unused15]
[unused16]
[unused17]
[unused18]
[unused19]
[unused20]
[unused21]
[unused22]
[unused23]
[unused24]
[unused25]
[unused26]
[unused27]
[unused28]
[unused29]
[unused30]
[unused31]
[unused32]
[unused33]
[unused34]
[unused35]
[unused36]
[unused37]
[unused38]
[unused39]
[unused40]
[unused41]
[unused42]
[unused43]
[unused44]
[unused45]
[unused46]
[unused47]
[unused48]
[unused49]
[unused50]
[unused51]
[unused52]
[unused53]
[unused54]
[unused55]
[unused56]
[unused57]
[unused58]
[unused59]
[unused60]
[unused61]
[unused62]
[unused63]
[unused64]
[unused65]
[unused66]
[unused67]
[unused68]
[unused69]
[unused70]
[unused71]
[unused72]
[unused73]
[unused74]
[unused75]
[unused76]
[unused77]
[unused78]
[unused79]
[unused80]
[unused81]
[unused82]
[unused83]
[unused84]
[unused85]
[unused86]
[unused87]
[unused88]
[unused89]
[unused90]
[unused91]
[unused92]
[unused93]
[unused94]
[unused95]
[unused96]
[unused97]
[unused98]
[unused99]
[UNK]
[CLS]
[SEP]
[MASK]
##er
##en
s
##et
.
##an
o
f
i
##or
,
##ar
d
##st
##in
##el
b
m
t
og
h
a
##il
##om
##le
##re
v
k
##sk
##on
p
##ed
##al
1
##te
av
##li
##un
for
##ra
en
##ing
S
"
til
som
##at
##de
g
er
##es
##ri
##ter
n
D
-
##kk
##and
H
##am
på
##id
##is
##ol
##ene
##ut
2
##ør
##as
med
å
19
st
A
ble
B
##ver
l
M
##ge
##kt
(
)
var
et
##pp
I
##ne
##ler
##it
den
##der
##eg
T
##ag
##ro
det
##ske
F
##ste
in
N
##us
20
P
de
##ig
E
C
ut
K
##jon
fra
L
##se
##ent
sk
##ad
##ur
##ot
han
R
##lig
##ens
##ang
##ru
G
##ere
##av
##est
##ul
har
##ik
re
##ning
##ist
at
om
##ke
##ks
##ær
##ann
O
##sen
opp
V
r
##mer
##ant
##ikk
##em
##ok
##ord
##ap
J
##ell
##tt
##ir
##art
##ert
«
»
##isk
un
##ett
j
sp
##dt
inn
##ende
##os
##ch
##iske
sam
##ia
##all
:
##kke
200
men
kom
##år
el
##ak
##så
ved
før
##iv
Det
##um
##øy
##for
Han
##ov
##del
##ber
201
##jen
også
##att
##men
e
U
##og
##asjon
over
W
St
etter
##ger
al
##ft
Den
kon
##od
seg
år
##land
under
##net
18
##ort
##ser
be
##he
del
##yg
der
le
##yn
##inn
##adde
##itt
##het
hadde
sin
ikke
##yr
##sp
##be
##ien
and
of
##me
li
ar
##rå
##ion
##ic
pro
##den
##gen
3
mot
tid
##lag
bli
##ran
##unn
##ab
eller
##00
##ly
##ling
##je
##jer
##skap
fø
##ve
kan
to
##ass
##det
##ss
hv
##ud
##ker
no
–
/
De
##jø
199
##ier
##im
##alt
##lo
##ug
##per
##ige
##ub
ø
Nor
##lige
andre
##ie
første
ver
bl
##ner
##hol
An
##elt
man
c
##ale
##tter
se
##ust
##eng
tre
gr
##la
##ingen
##ry
4
bru
##op
##ten
##ære
##dre
##var
##ron
u
##elig
##ret
##else
5
reg
##ff
##ans
##ød
ny
##lere
##ket
nor
En
stor
land
må
##rem
da
##ster
##iden
##eter
##ellom
##øn
spil
##ark
Ch
##ob
gjen
by
pl
##iser
kun
##mun
198
fikk
In
##beid
##oli
##sten
##rev
hun
##ært
##nes
mellom
født
##elv
##let
sen
beg
##rit
##res
or
per
##get
bar
kj
##ard
##tte
##vis
Ar
##ek
##iet
##mp
##ip
##ide
##yl
##ast
Un
kl
##rig
##son
##met
##ire
##ven
lag
sl
197
##annet
##før
##sm
##akt
Al
sammen
lig
6
##allet
##elle
så
##ac
flere
##iver
hans
##ater
##anske
##ningen
byg
##und
##tem
##jel
##leg
##nom
##ev
17
ty
##isjon
196
##rett
hvor
##elsen
##vik
nav
'
##if
dag
##ille
##ess
frem
The
8
##alen
##oved
7
##ikt
##ian
##ult
Jo
##rupp
##lem
##itet
##rad
##kte
##ram
##eb
an
##kl
##tid
For
bet
ned
min
kommun
##rist
tidlig
grunn
##pe
##øm
dette
##istor
ha
gjennom
utg
##sb
nord
##pen
blant
sy
##anger
##ksjon
gj
194
##olog
##ull
##dig
tallet
hen
##ring
##ede
##øl
##red
##irk
##sh
denne
eg
Sk
9
ma
##io
høy
##ester
fly
##ember
##ansk
##utt
16
##ong
stør
##rik
##ren
##isse
##ib
hel
##olit
Norge
##oc
kv
blir
##atter
15
mil
##iste
Etter
##ars
lang
##opp
##ina
hoved
##amil
##iller
fort
##ekt
##ay
fil
død
195
##alg
ligger
;
##pt
##els
mer
##oll
være
##este
delt
##ba
##ttet
Y
##org
Os
##lik
blitt
Ber
Mar
##ind
kjent
selv
##gel
annet
##pet
sør
senere
##kon
##ole
vært
Hun
mange
##kker
##ill
##pl
arbeid
the
enn
10
sitt
run
fors
##merik
lø
tidligere
uten
bå
##uro
##ets
##les
193
##byg
##ivers
##ow
##au
##hold
##ninger
##jør
##ift
##old
##dom
##ulle
##ation
##ister
noen
hver
mus
alle
##ått
siden
##amp
Ne
##elen
##atur
##legg
samme
store
Dette
##eder
##olk
best
noe
br
Ø
Joh
gikk
##set
sv
begyn
12
Nord
norsk
192
##ine
##atte
sine
##sl
##raft
form
ant
stat
På
##skapet
##lekt
inter
dem
områ
ek
polit
##ys
##anu
##stem
Oslo
##inger
bruk
kunne
##na
##kket
##over
forb
Le
0
##sjon
Sp
art
##ial
##inner
##ce
ri
##sker
mid
##med
vil
nå
##ball
des
Fran
gang
Th
vant
##skri
##raf
##jem
191
##jell
##stad
mens
##ite
##uss
rundt
skulle
US
11
##erte
##gjen
##rom
##uli
##du
far
grupp
##ener
ser
bes
kont
eks
##illing
##yd
##ings
går
##ond
##aler
##ost
##000
fin
##etter
##ønn
Z
##rat
Re
##ah
##min
nær
##berg
##arl
amerik
##uni
forsk
##anuar
##tes
rep
14
##dus
skrev
histor
##ugust
bare
mest
sm
##innes
januar
##ck
både
tok
##form
##sf
13
gam
ofte
navn
dø
van
##rav
skal
##ich
Som
##pr
medlem
tro
##ore
##bake
disse
USA
##ges
##iker
##nt
##ban
rom
meter
her
##ben
tilbake
norske
##laget
innen
##lø
##hav
##tal
##ral
##ins
##jord
fot
off
ra
pre
##nd
juni
##ive
øy
w
##ue
famil
utvik
##øk
##ou
nye
##kom
##dag
##mel
##asjonen
Be
##ange
fri
my
##kken
ans
##orde
mars
ham
##ny
##dens
##fatter
sep
sent
##som
##iss
bak
##stand
##ktet
##ate
få
vest
##th
styr
##lagt
##uder
##irke
verden
mai
##ade
##like
##ighet
Her
##ity
##bum
fram
##annen
##by
sted
byen
pri
finnes
oppr
##ført
ve
##entet
##olen
##ma
##unnet
##anis
august
slik
føl
im
##kter
Sam
New
##sted
OL
hol
##our
nov
km
##rep
##ae
##ken
Univers
##ober
la
person
fire
##ører
valg
fl
##semp
kommune
Sh
##satt
siste
##elige
##ultur
Da
okt
Euro
kjø
##tember
rett
##up
##pril
øst
##dte
##rer
##rike
hele
##arbeid
igjen
190
##iner
vikt
##dal
juli
september
oktober
part
##elser
##terte
fran
org
april
##fer
##bu
Fra
##alv
plan
plass
##aten
fem
kor
sel
##sv
Der
##verk
##tert
navnet
##gang
deltok
##ebru
##dd
000
2008
##kur
desember
rekke
kal
start
##hus
##oden
Co
##føl
##ebruar
##ton
november
##hand
##lin
##jene
##oks
vid
##oder
ses
Hans
samt
ad
spes
##ct
##sy
største
##bygg
februar
nasjon
eksemp
2011
##ott
spilte
##enn
##unt
##rag
Å
Sch
kri
ind
Har
##ål
2010
##gram
##bru
##man
##des
Ty
hos
ang
kar
##of
liv
##ont
fle
2007
Sør
tek
##esp
##rid
##lert
##jerne
vanlig
##ha
##rakt
mu
te
ro
Se
tillegg
##asser
##are
##mann
først
##sel
laget
lok
årene
Or
2006
##ern
Ma
milli
Par
Ro
2012
##oner
##idler
y
kraft
##ald
##heten
engel
side
##sje
##ise
begynte
30
##sak
25
brukt
##usjon
bas
bil
Stor
fyl
brit
##ubli
##asjoner
hav
hand
kalt
par
##råk
##ies
inne
2009
Hen
lå
døde
##mark
##ropp
ca
##delse
##ilt
##off
Rom
##enter
Ge
gener
mindre
mø
enk
Dan
sønn
##olle
##di
Gr
##vin
189
##stru
Wil
Bl
##heng
like
åp
kunst
vann
El
kjen
##ph
##økt
menne
##gende
pr
opprinn
hjem
lever
stø
Pro
##assen
viktig
fotball
##ærlig
kong
##ius
Sver
Med
##pro
##ers
slekt
##erne
akt
ville
##oen
##ode
bok
He
##nev
ta
##duksjon
etab
Christ
egen
%
John
2013
##nene
##pa
kam
##dene
gre
##ativ
fer
##ave
##øst
Is
##use
intern
2014
deres
komp
verdens
##rift
kommer
##urg
Ved
tatt
##iftet
##va
II
gjorde
pres
leder
Under
Frank
bef
tr
2005
syn
##af
film
##idlertid
##gr
##part
musikk
##ående
kultur
Et
##sst
##ach
##ånd
##ile
Eng
Denne
##ium
området
##plass
##inne
mulig
&
##ork
sven
Ste
##nen
vel
##az
regjer
##eller
##da
##stit
mye
måtte
når
##val
beste
Men
ben
##isert
##mb
##ons
tur
##ung
større
##vat
fol
##lingen
lu
Lond
tiden
Tysk
2015
##ograf
ster
startet
Mo
##ongen
sol
ber
helt
Br
##stre
##ident
##nings
su
21
##reg
##vel
##ioden
Tyskland
##veg
ord
##ham
ti
tilh
produs
Ol
London
##ele
Fil
mor
22
##her
stud
ulike
##ank
188
##ris
klub
##ingene
##int
kil
krig
##ielt
videre
##ider
barn
tred
Per
##konom
Sc
sj
##bo
besk
Man
omt
##ærer
prof
##opul
##slag
Q
ganger
X
sang
La
Bar
utgitt
Norges
##inter
met
ly
mål
##sj
spiller
brukes
tyske
##delig
skrevet
2004
Bo
bygget
bor
##lymp
satt
##tre
natur
##ologi
24
imidlertid
Krist
##bre
kirk
##ette
arbeidet
##tok
kirke
##ment
forskjel
##svar
leng
band
amerikanske
slut
stort
hus
2000
eksempel
##qu
konkur
internasjon
milit
gamle
##heter
album
##vet
fleste
små
23
teg
full
##delt
##eld
ga
slutt
Hol
##ines
##områ
svært
består
##ns
landet
Te
sommer
alt
halv
2016
Vest
mar
##tidig
##ane
jord
ingen
Pa
##ock
##røm
##heim
##radisjon
skip
Gu
##vest
kort
##ress
skole
derfor
##enes
Me
utd
##ulg
dom
VM
mann
beny
Kr
##fly
gitt
nest
perioden
res
##vert
##uten
##par
##rasjon
##ikken
opprett
TV
sø
forfatter
##bar
hennes
##rum
##bl
##sket
kat
familien
##styr
##mar
særlig
##iten
deler
hvert
all
England
fjell
##tere
##iene
kap
ung
##ensen
tredje
Ha
##oss
##ipp
187
sn
##øre
##sn
id
##roll
program
##unkt
løpet
god
len
##fl
##po
##resen
tap
moder
Sverige
Com
Andre
##nelsen
dire
Europa
##ionen
##én
Ed
##ata
##ford
annen
skri
##skrig
Af
hjel
##mene
##ikker
seks
forhold
##yen
26
##alist
##istri
##ksom
##ath
fjer
kamp
lov
organis
28
##entlig
Til
##bet
##kluder
represen
##anter
##ign
100
olymp
##end
amerikansk
##app
Ver
året
2003
##orn
ste
utv
språk
skj
##sfor
Ad
sc
spilt
tem
Disse
##oren
slutten
Lu
186
##alte
##ped
##asse
sett
tysk
##kene
bed
Om
##rykk
##ummer
engelsk
du
##avnet
27
##ai
##rang
økonom
sku
vok
##jorden
gull
ven
Car
fast
##øv
ter
##anse
middel
##kes
##mand
##sam
Frankrike
##yre
##br
deretter
flyttet
kons
##idae
##satte
go
##far
popul
##ht
##eren
forskjellige
voks
##åd
##ps
Mid
dermed
##jet
##vær
##ld
oppt
ev
tradisjon
##anen
sesongen
rad
ba
red
verdenskrig
##one
##ith
##ga
ett
##øver
##minist
Bergen
ke
2017
end
Ind
##ias
kjente
langs
##ritann
##alder
millioner
po
2001
##skole
Før
2002
Av
1990
førte
##åpen
1999
##ras
##ij
##ym
##lev
##itenskap
Con
##ors
forbin
dri
inkluder
##rene
aller
##landet
bestem
nytt
sos
begge
Sommer
##tern
britiske
president
##ational
vir
##ustri
##stein
ru
##led
##spiller
fun
##ves
innbygg
univers
##itetet
gruppen
kron
job
29
Ut
oper
sjø
stem
com
##agn
##elte
Count
Land
gjerne
pros
University
##kj
nett
grad
Lar
##kret
luft
ret
eneste
stedet
skuesp
##ild
ledet
##jøre
##rond
##siden
##øker
nev
##atet
##ielle
mark
##ator
Norsk
##grupp
dre
aktiv
klar
tjene
##fin
øn
As
Tor
##bin
##attet
York
Rob
én
godt
langt
##ana
##aks
lange
##ania
##revet
Tr
ark
##rek
##mester
##amb
##adet
topp
##sd
##yt
31
innbyggere
tv
får
##holdt
Kong
krigen
gjort
gir
Storb
skap
fordi
185
##følge
leg
##fter
bid
Ant
##famil
historie
menn
##len
Ph
##stilling
1980
basert
Storbritann
Trond
utviklet
em
holdt
##syn
folk
gammel
utt
##als
##nyttet
##kring
##mon
##ley
kines
##igur
is
euro
##øya
lik
##urt
franske
IS
Kon
fortsatt
ob
liten
Ital
50
Sa
##iz
##its
mennesker
##sett
Christian
##roppen
##che
inv
##uk
2018
##holder
Paris
int
jern
studer
Histor
##late
San
##aker
hånd
utnev
##går
##iserte
stra
##akter
##førte
hovedsak
fått
Kar
Kom
##ølv
##dri
delen
Ser
Ale
mester
##rent
produksjon
##teg
##ack
kol
tilf
Am
dy
##ike
##ink
Er
##undet
Aust
##osisjon
##co
##aen
datter
Sel
Ny
rel
##idrett
hev
Opp
ak
Pl
##oret
##lands
vis
arter
forl
Kina
Øst
titt
##olf
elekt
fest
##resent
Eg
##jef
Bro
Peter
viser
befolk
kval
##ja
##sson
##ats
##æren
Can
støtte
meg
1970
forsvar
##ammer
grav
står
##ames
innt
filmen
fransk
##ule
##sta
##istiske
lin
##grunn
utbre
tra
##essor
1998
Storbritannia
##ager
keiser
##ica
samf
di
funnet
stil
tilb
opprettet
Kn
##året
##lene
administ
betyd
##ansen
samarbeid
##vir
##angen
utenfor
stad
##ivisjon
##isen
hatt
tren
ge
County
##yng
Fin
kalles
184
he
##oh
##medal
dat
##ivå
innenfor
##mens
Danmark
Dav
##handling
##dighet
##gar
versjon
##isme
russ
serien
moderne
fant
##riks
##aner
opprinnelig
valgt
##vene
##holm
krit
##ovjet
##lov
sit
##repet
##ningene
øv
henne
etablert
##adem
fe
omkring
Sen
##skip
Dag
dyr
gi
Fl
spesielt
##under
Russ
kvinner
##sjø
on
konge
##iale
Sy
Fre
##atene
##kjen
Sm
1996
Su
bre
##aff
mån
bo
Gre
1960
Mart
##itekt
Col
##ick
##ds
Karl
##isering
##lub
ren
At
perio
##anser
Bu
klubben
omf
Willi
##elles
litt
##ary
##rest
##unst
tran
øya
gjør
bron
sølv
stand
lite
##øt
##str
##ish
40
mon
##ada
##ligere
##ash
##amer
1994
besøkt
avsl
##bok
##iskop
solg
##ringer
=
vi
internasjonale
åpnet
##fil
##elm
1997
##uttet
lokal
##uth
Stat
tekn
##abri
tot
##havn
meste
##fører
Mon
##avn
gå
##ote
##ffekt
makt
So
##anten
si
fag
nesten
samtidig
ital
allerede
arrang
##ood
ky
Wor
oppst
Paul
offis
##inister
1992
tilhører
##vei
erst
Fred
Italia
##orer
result
##fug
##ict
Thom
Mich
##uer
skuespiller
##ogn
medlemmer
##ll
##ften
Afrik
##aw
bronse
gruppe
klass
##ygg
Ab
litter
181
kjem
mag
italien
##tatt
##sø
klo
##likt
gift
##agt
2019
tar
##ening
nasjonal
Reg
Pri
##RK
##stemet
kry
1995
bety
##ble
hjelp
gjøre
Fri
slag
htt
##atin
William
am
vanligvis
uav
##familien
Selv
svensk
oppdag
Sand
##mus
##borg
bos
romer
nummer
relig
ep
##partem
forbindelse
Amerik
##nende
foran
##syk
neder
Mc
##ørte
svenske
##leder
lagt
friidrett
myn
Ag
##okum
henhold
##varte
mang
##kalt
##aland
pol
##veien
183
##ino
##rådet
mør
distri
ol
##råd
begynnelsen
NRK
mod
##ales
##kraft
##gj
Ba
##ordan
ungdom
eget
##ensjon
##spro
Mus
ansvar
_
1993
##ktør
fortsatte
##istisk
oppg
provin
To
beteg
##20
rolle
##aven
ten
##orden
##BN
1991
##ric
ww
bruker
divisjon
www
##vil
tett
##elses
##ometer
personer
von
##andre
My
delst
Noen
rev
##ng
ISBN
##aller
Johann
bort
utnevnt
regjering
##verket
Og
mel
##ho
##50
##isten
aldri
omtrent
Trondheim
##ksomhet
Val
##vern
barne
sentral
##øg
syk
Robert
##enser
Berg
##jørn
##inen
##sport
##menn
Tid
spille
ei
kvinn
##burg
##iell
##ikere
betyr
##udd
sendt
Bes
ferdig
##eland
oppd
##ya
##ice
utbredt
##ypt
##østen
##bert
##sut
ytter
1988
##ward
##odet
Art
bi
karri
ganske
politiske
direkte
forv
europe
##lass
##havet
general
City
##ini
vei
Universitetet
##utter
##uler
##ollen
beveg
bandet
##ama
##mes
Mal
Jac
##rich
slått
##eth
Ho
##svis
Afrika
dager
oppf
eld
Je
ry
folke
Mil
##rø
nok
råd
We
##okrat
##sminister
vinter
##dde
lar
albumet
stilling
kre
##rop
##esse
Cal
##skj
motstand
eldre
skog
##oler
konkurran
professor
##skaper
Mer
##usen
##tak
##urn
beskri
bry
##øyt
sold
##yrk
##kjent
##ander
##enger
##servat
kamper
Air
olympiske
Ra
egne
##itar
fulg
sik
antall
##ase
Char
##ete
Berlin
rø
##åt
##ader
##olusjon
##histor
vansk
##erg
kjøp
regnes
World
##fra
##ublik
pass
sak
##ame
##pper
##bil
rask
##lis
Ben
##jeld
lys
sann
enkelte
arrangert
inneholder
##vann
Når
Siden
kn
kirken
##ico
Sol
##ara
angrep
veg
Jon
dannet
##elg
benyttet
tross
steder
viktigste
1989
1984
##ace
##ix
åtte
grunnlagt
Mor
følge
60
##stra
##ula
eldste
##une
?
kompon
##essen
folket
##mere
##ologiske
finalen
##deles
bygd
hovedsakelig
##ukt
Arbeid
##orge
effekt
rek
slaget
##ure
’
##skolen
##uden
1800
##klub
1950
partiet
hvil
årh
Amerika
spor
meget
Ander
##nte
##ical
familie
##test
##ktor
ab
arkitekt
##ta
dokum
neste
lev
##onn
prest
##ocke
##atri
##ttes
kilometer
endte
selskapet
##rukt
Austral
knyttet
ur
plasser
uavheng
Johan
##lekten
tilsvar
Ul
områder
Olav
Mange
hva
1900
##atisk
1945
##sch
##bane
Jap
Fo
Stock
Fol
konf
omfatter
##ori
sto
giftet
tri
##unktet
provinsen
##deling
bod
Mot
ødel
katol
kvalif
betydning
engelske
poeng
##urner
Ham
##inert
voksne
dikt
periode
gav
riks
David
midt
sty
tildelt
via
Byen
##rale
fork
##ativt
do
##skrift
lav
##reng
enkelt
##ømme
Pe
kli
orden
##asjer
##sg
suks
##værende
Russland
nr
komme
##stil
publi
ekte
##ksjoner
Intern
##landske
##arken
##way
vitenskap
##ital
dann
hverandre
inkludert
våpen
1940
##delige
dra
kongen
Ir
hy
ch
sentrum
avg
##dige
samfunn
etabler
Rich
brukte
Besøkt
Tom
prosje
borger
##arter
Senere
1920
##pri
region
##entlige
sanger
##arlam
midten
##dere
Inn
AS
Part
val
##esjon
##inget
##ellen
Mel
dagens
Thomas
sa
sesong
politisk
system
##terer
##ca
##ologisk
##orth
slo
bygge
##vingene
180
1986
##illet
arbeider
##økte
sing
represent
1987
Filmen
studerte
##ael
bruke
følger
finner
viste
Carl
sosial
fred
##cy
dansk
ne
Hel
Høy
hovedstad
seier
##oller
##urer
deb
##van
hvordan
utvid
danske
Gro
##formasjon
##banen
##giv
Blant
##partiet
##løp
##fjorden
##inae
sterkt
Arten
port
##vart
mente
##fe
Lin
tittelen
##essuten
lokale
Wh
##ømmet
Hoved
##han
Qu
Trom
mater
Over
##my
aut
##huset
##vok
##bund
##iendom
Port
##partementet
Sal
500
militær
finne
##we
##iere
bedre
latin
nom
Stav
##arer
##alk
feng
fremst
alli
##dem
##ira
dår
led
fakt
http
##elsene
Stockholm
##linger
##useum
felles
Kø
##kalte
Alle
vår
##ourn
nordlige
ass
offentlig
bred
Alex
##delsen
##upp
##edet
drept
##irken
hører
1985
innv
Øster
utvikling
##ze
##skom
##osof
eksp
Navnet
##ose
Sve
##stendig
##ibli
##ight
##sikt
forel
Roma
##ka
leker
vekt
industri
Mag
##iel
Res
Pr
##rael
##fjord
turner
bror
##allen
bek
##okk
##pan
##synlig
karakter
kontroll
##iter
##skog
minst
Ta
are
##slaget
##ida
##ola
##ifor
mat
##føre
##kont
National
##ury
verk
1972
##vere
tru
##ekom
sem
satte
##cu
##ics
##søk
sek
Beg
inntil
##rert
måte
##risk
##uren
fys
Far
forst
Ve
India
norm
!
##rafikk
##fest
betydelig
spesial
##yer
##kor
##tale
dram
litteratur
stre
Køben
Ger
fylke
182
West
område
##vor
Japan
Georg
##uelle
jap
løp
##ari
##nia
##ime
gra
vanskelig
##stedet
##alderen
regjeringen
Phil
yng
Ter
sørlige
##iteten
##vard
##album
kraftig
##sa
##aden
##ala
artene
##smann
samlet
##otball
##amen
insp
1979
##senter
venn
##rand
Bra
teater
landets
høyeste
##folk
##ming
Em
ettersom
##sberg
Lou
representerte
livet
80
fjerde
Bre
bygg
overtok
kolon
bom
psyk
##ismen
##ney
likevel
gresk
##rens
##setning
landsb
Gud
britisk
gud
##ora
tids
##atiske
Ke
produsert
ni
EM
alder
imp
##medalje
Martin
tall
Jan
Canada
##ited
ønsket
##ians
dro
##rige
forf
##egår
hjemme
rød
virk
kinesisk
lengre
kommand
##lå
suksess
politiker
##ksjonen
##igh
##gent
1982
##aget
klarte
slekten
1968
følgende
##unnen
mis
prins
##isjonen
##øse
nød
tilk
##bruk
III
Jose
##riske
lenger
Mad
bodde
hj
forskning
##ivt
1983
skjed
##sert
##ømt
miljø
##vig
såkalte
##isin
##øret
1976
##menter
##imot
regiss
Id
tekst
##aktør
##obb
universitet
stasjon
Stavanger
besky
##orten
35
Neder
foret
1930
##fjell
krav
Lang
Rik
stiftet
Norske
]
siv
James
##øyene
maler
ul
##nelse
refer
endret
muse
elven
sangen
Po
oppn
1981
##ugh
tapte
sterk
Bru
##ørsm
us
##lom
##kn
ju
valgte
##rigin
Angel
##ago
##fon
##felt
1964
##iret
energ
Gar
##isere
lenge
##holdet
sannsynlig
holde
##stitusjon
drift
svart
##ahl
##isp
1975
gode
George
erob
sentrale
##hvert
biller
års
70
Ex
bøker
Nil
##helm
##nn
##las
1973
natt
fyr
##øs
##ros
##ska
svarte
##stid
kroppen
organ
##azz
##age
bra
Henrik
vokste
##kurran
ide
##ynast
1974
1978
##lant
##organis
motor
fulgte
##chen
selskap
##erer
##itz
##delingen
Cor
lærer
##ockey
th
##agen
Lille
redus
##hov
Sovjet
##arab
fisk
##sle
syv
##anke
felt
##ona
Finn
##ublikken
Ju
disk
##ørs
olympisk
Spania
eng
unnt
##entene
opprinnelige
##ield
måneder
blom
##legget
Bla
høyere
sist
jeg
##rak
syke
##iddel
mist
gren
heller
prosent
##delen
##kkvingene
militære
kur
vise
Australia
By
##delser
##rasil
##car
stein
lett
mm
nivå
Do
sky
Vil
erstattet
##otum
lær
Stort
Vol
europeiske
##aga
tu
##flyt
resten
##iteter
Du
hvis
##ena
And
karriere
Hall
Don
##ertug
Brit
##fold
##ålet
fotballspiller
aner
jød
plassert
Sn
sikker
##alli
finans
##ions
Stud
x
styrker
raskt
stod
1948
Tre
Li
eier
parlam
solgt
Kristian
179
utgjør
##itter
400
##elva
##posten
fall
##ain
No
##føring
indiv
##ikal
##akk
cm
##78
Middel
##ibliote
unge
sammens
trolig
oppdaget
Rog
##ju
Ven
Tel
##ör
biskop
32
post
##vist
1969
Kommun
hvite
##ved
Rec
delstaten
##fart
grupper
gitar
ident
regnet
Erik
kampen
##ronotum
##parten
sport
romerske
##ios
krist
Bor
enten
skolen
##blemer
##aly
##iger
##ppe
Slekten
VI
trebu
okk
Asia
##rog
Egypt
eiendom
Ath
skjø
1967
areal
reiste
##ria
ene
All
af
Mac
##øren
##skje
styre
Roy
Lov
oppkalt
##rigen
[
Sim
fas
ed
1977
flag
gate
##keb
##que
havet
gul
Press
##peratur
##fall
##formet
journ
##sene
inng
till
skyl
##ington
idrett
##ruppen
Jer
##buterte
Hell
Richard
sna
##kning
##own
Ifølge
Rad
##rim
Fer
1971
Franc
Ni
kunn
gjel
##sli
Sammen
##igheter
Gra
##entral
##ilde
Instit
filosof
bu
##serte
##ano
eksister
Aften
Island
løs
##delag
straff
Byg
søn
Fredrik
##kar
##spill
øver
Aker
instru
forekom
Band
Ga
medal
##iens
København
Los
Mont
Met
##lys
Trøn
ko
##snitt
skjer
Cl
vari
##ilte
Fr
regionen
Nederland
##anne
##undre
størr
##ømmer
##opper
##bladet
høyde
United
33
russiske
ansatt
gu
##ås
jobbet
##åten
##eden
posisjon
##BC
Hal
nasjonale
##ivet
Mex
Flere
nordøst
##kast
sve
brun
tjeneste
hvorav
um
kommunen
45
Alf
kunstner
kombin
publik
##ony
##anning
katolske
##attende
90
stam
Ac
##ute
Di
serie
informasjon
##stene
Eli
Også
Pol
Amer
Kv
##ative
origin
regist
1965
##hu
Van
tol
Sovjetun
##stant
Mellom
1963
##beide
nordvest
dessuten
debuterte
Tim
##ante
amb
Michael
befolkningen
figur
##sky
##shus
kanskje
stadig
hær
Go
forsøk
funger
dens
Grand
##andid
##enet
blå
vunnet
##gene
##valg
##valget
kart
sommeren
##tein
##okus
prakt
War
gård
##eram
symb
profesjon
oppført
veien
##mo
alltid
1966
bolig
##vid
##iti
##melig
##øp
utdannet
aks
Maria
Pal
statsminister
##ørt
##oph
indre
møtte
##gjort
høsten
greske
rike
Bay
36
høyt
konser
kropp
grenser
##oth
300
##oper
Ly
##bia
defin
##kant
##gelig
##åp
##steg
Soc
hens
##sty
klubb
trakk
1956
event
bro
innflyt
lege
utstyr
Harald
##uts
pla
rapp
##ande
ram
##språk
bevis
##minister
sal
Johannes
soldater
##itler
sig
Gam
stats
strøm
Im
##elli
1952
skjedde
vist
##ente
Arbeider
##meter
klart
##istan
lære
gjenopp
##mest
boken
##vendig
##spunkt
religi
##eningen
##jor
Min
Wal
Dom
tilsvarende
##ringen
århundre
Hå
feil
vestlige
nådde
Trøndelag
##kkel
##stri
##jert
forlot
kroner
fug
kvinne
##enten
sub
mask
34
Califor
sykdom
##etten
##retning
##ski
mottok
konstru
helse
International
##fø
Pla
korte
sørøst
typ
##ella
slike
Ak
ann
Freder
##ika
178
verd
##gitt
FC
etablerte
innsjø
##rykket
##orter
##ledes
##atal
relativt
Bok
##lit
##sens
Del
1944
1962
##ografi
##ftet
##ci
Finland
fremdeles
Lud
Ze
##jorde
kontakt
forkl
##ronning
##virket
sommerfug
omfattende
##är
Tri
delvis
##ikkel
dårlig
test
##sutøver
kost
##løs
utgiv
varier
Vinter
Sl
grå
elva
##iserer
radio
##lim
direktør
søster
California
##asin
Hus
forteller
hentet
privat
##beveg
August
##ords
##æring
hum
##ikeren
Bjørn
##hen
Cap
bakgrunn
Kore
##legger
tilgjen
mennesk
sørvest
##kraftverk
Bil
fører
##raks
produ
sjef
totalt
##ival
Lib
begrens
##spl
holder
meng
##bart
ute
reise
##nere
##dyr
vind
Rep
trom
##vare
z
##kkes
Sven
grensen
##vers
##band
##amper
##urder
Charles
offisielle
##eres
##mund
hundre
1939
##spekt
Tra
1936
nåværende
##ky
trebukker
historiske
##ksik
##ün
revolusjon
punkt
viktige
##råket
Mark
journalist
ban
ir
Larvene
##arbeidet
gått
gangen
##ømte
##idene
jev
##brudd
##ague
Skott
Vik
parti
Lo
Magn
medisin
##ams
##ffer
##vens
Oper
##iler
Mexico
kommet
##ikasjon
epis
##eds
1946
hæren
##forsk
##områder
##gangen
sign
##sjekk
##vek
tak
##irma
##forening
ordet
prim
##osp
##rådte
hevdet
##istene
mistet
##ssy
##dres
##unde
##adene
fylkes
Ole
programmet
type
utvidet
beskrevet
##edlem
Hu
##kretær
Mens
##åg
møte
1961
forh
##ardin
NM
##kan
russisk
fart
resultat
Fly
##visning
History
Bå
dagen
##område
handel
ele
falt
##ærende
samle
ære
##området
##ridge
Sovjetunionen
sluttet
##ansert
økonomiske
Album
åpen
dynast
hem
ansatte
pas
##ving
lyd
italienske
Cla
administrasjon
Bur
gjelder
##ktig
Gjen
offentlige
Deretter
Red
ifølge
##sset
innsp
funksjon
##yp
##uelt
##ür
##ool
##ampen
gro
hopp
##ko
North
##på
lengde
ytterligere
##cher
besl
1942
sju
Ev
##sek
bel
Selskapet
Angeles
##har
1958
fores
fortset
spørsm
##annelse
utgang
Ott
VG
Juli
personlig
hertug
byens
##departementet
##landsk
regel
##sep
##iseringen
##range
filmer
spill
sendte
staten
##abil
formann
##egående
inns
erkl
1941
##rettet
##estilling
forsøkte
stammer
Knut
moh
##10
##kkene
##essig
1947
gl
##gor
Sant
kinesiske
##edal
177
bør
skrift
Louis
##nevnte
redaktør
krev
retning
##ux
Fort
utviklingen
kysten
kraftverk
skrive
Irland
##inc
##entar
drev
##ettet
alvor
byer
preget
Mol
altså
##byen
##issen
##plassen
Øy
##ivalen
rollen
Jacob
Brasil
fokus
Gi
##ction
befolkning
Aftenposten
##ønne
##liv
##orf
+
##asje
Sil
kontin
øk
##blem
##esser
fre
##za
økonomisk
##ita
Østerrike
##stilt
ført
League
##ikler
##sav
Israel
##igheten
##osit
handels
##ront
italiensk
Anton
##holde
##jøen
demokrat
##spunktet
sh
arab
Thor
Ox
##standen
Pan
sat
38
Ap
ledd
On
intro
##lav
##raget
##rans
liste
##ifin
##asen
##kjø
År
spillet
historien
strid
mener
sær
##30
1949
sovjet
bestemt
Ek
fortell
Colle
problemer
Dem
##inar
valget
1959
##dalen
Song
##aste
dr
##ih
##oven
etterhvert
##arte
sider
sjel
fang
ledelse
het
##aktig
##ato
eksped
Mu
sikkerhet
stopp
nærheten
Anten
##ktes
Polen
##ifisert
kristne
sammenheng
##talen
##gelige
hår
konsert
Kristians
bestemte
resta
##polit
farge
renner
organisasjon
Vid
Vi
1912
sier
hvit
lagene
støttet
underfamilien
tyn
Store
publikum
bill
##prisen
Kunst
##ts
Året
##elskap
Skottland
kjøpte
heter
tør
tegnet
##angel
##abeth
Inter
##ple
Hennes
kloster
1700
populær
##industri
##klubb
nab
##ellet
##etning
##60
##stander
##onom
##konkurran
##ittel
Bir
Ky
1943
Hand
linje
elem
##strøm
1955
Kl
##lubben
##alene
37
1957
vanlige
##renn
1924
områdene
##fag
okkup
1928
Museum
ving
Europ
Park
##isped
##fri
individ
midler
millimeter
##vo
##ranger
Ang
lignende
Beij
fengsel
spanske
bind
##følger
##iment
##udenter
##kjente
danner
##anlegg
dobb
##bruks
Anne
høye
##orte
##person
##iplom
##ding
skul
##liggende
arts
Gener
Ann
blei
Tro
bille
høyre
uttrykk
venstre
Spe
oppdrag
Sar
Lars
Rø
inse
Oscar
ves
fordel
##dagen
##uc
##ory
sla
Jes
##tet
Royal
styrke
hjer
roman
yngre
##punkt
matem
slott
##stat
Ka
##utvik
1954
klasse
##wood
1918
##rere
as
##mål
##innen
blod
Folk
gården
inst
oftest
##høy
##fte
150
##ifte
##film
Henry
kontrakt
uker
Både
##ship
Bri
behand
Ark
minne
inspir
Bern
stri
fiske
begynner
kir
75
##skerne
selve
Bod
Vict
##former
##omer
faren
Ass
##sper
mørk
##enfor
prisen
situ
skipet
hust
##kamp
##resident
##rerte
Pre
Gust
Cro
allierte
minutter
##por
82
##onia
South
##iør
##bare
##merket
derimot
undersøk
##ican
semifin
##asset
flagg
1953
jernban
studier
##iem
ellers
##bundet
##talte
IV
obser
Beijing
1938
motsetning
”
Belg
##unkter
1919
##gruppen
##ura
Nic
##fulg
brev
39
##krig
opprør
kristen
stemmer
##fle
1932
passasjer
##gruppe
##løst
Black
##40
Arne
##tiden
utført
Ali
##ktene
NT
Fyl
kyst
nominert
Nap
uk
varme
##egg
rik
avis
fj
avheng
interesse
Bon
Publi
betra
##hjem
andreplass
Stra
##ance
##andin
co
sende
Samtidig
Smith
##uel
Tromsø
Mos
##itte
sterke
King
solgte
lage
##ritor
bereg
samling
##alet
##IS
1951
skot
Sig
##illa
##ité
1933
spansk
brann
Ru
mo
vider
nødvendig
arten
FN
tron
Sveits
##bor
##bed
østlige
omtalt
avsluttet
Hann
etterfulg
fan
Ceram
NA
benyttes
Var
##vins
##pel
##virk
invol
1500
omd
handler
Antennene
femte
hodet
Kh
##krigen
tilfeller
##mende
ill
Idrett
##byc
temperatur
bydel
huset
Albert
klassen
kret
##illes
debut
42
##atikk
##ova
tom
Cerambyc
##bro
41
ub
konkurransen
##eler
myt
ting
Lind
Super
Champ
ankom
utga
Off
toppen
kilder
tilgjengelig
##ty
arrest
Hau
marker
me
Kor
Nordland
##akten
bredt
##bi
##sken
##ua
##andinav
##verr
snart
##stående
tog
riket
Fa
besto
##følgende
populære
Jean
##sstore
unntak
publisert
Midt
stjer
##ior
##raksis
Gjennom
arranger
##ations
opplev
hustru
Stortinget
48
##port
mand
videregående
##abel
politikk
Området
##inske
Bill
1600
##MS
arke
##stoff
Saint
styrkene
Ko
##reis
standard
##sc
Hed
saken
##våpen
utøver
egentlig
##ani
kvart
Bi
##blad
Hot
Kat
Cast
Frem
Nasjon
Francis
drevet
vide
vin
avgjør
nærings
##onen
Folke
##etts
fordelt
sammenlig
##ekter
##digheter
ordfører
##gerne
##ear
modell
##ses
Dram
##ush
dist
Victor
##ån
##raph
Korea
behov
##urtig
tolv
bidrag
##kel
regissert
Magnus
synes
##engt
College
bygde
pave
##formen
fremste
daglig
Frederik
fatt
blomster
flert
tittel
1908
Wilhelm
altern
enda
øyene
##bel
##edre
Oxford
forholdsvis
Albumet
##riket
##vate
##stron
fien
Wash
offisielt
##ralt
##undt
##røn
##øder
##biller
scoret
1914
##musikk
runde
##wer
arm
sli
vinner
##amerik
utenriks
møter
sette
angrepet
##atret
blad
##ón
##aken
fi
##bygd
nevnt
behandling
Kol
##sar
formula
##iren
Jør
##kså
kraftige
dersom
##lokk
myndighet
##inas
prem
Grøn
likhet
timer
##hr
##unnelen
historisk
##uell
vert
spre
##omet
You
vol
##iets
Ungar
Gran
##ror
##mos
årsak
##gin
##giver
##organ
##mennene
Stad
##økene
1937
##bas
hoff
##øyer
opphav
Records
vurder
fabri
kone
Joseph
##ledet
status
Sangen
##leve
##irka
##idea
Marie
Så
##shockey
##elskapet
176
Tot
##unget
innflytelse
ytre
Award
Vir
##rol
diplom
nokså
##agelig
overlev
middelalderen
##rykt
tropp
##imer
Peder
posit
##ower
fr
konsent
introdus
transport
hovedstaden
deltak
##veks
##spart
årlig
øverste
##plasser
internasjonal
##fen
Max
##yrå
Lund
Pet
Gl
innført
Pronotum
Compan
##inene
800
normalt
Første
##indre
55
1910
Europe
elektron
##ese
universitetet
Ele
##omen
tydelig
utstilling
pal
##antene
##loven
kob
##iction
##lob
Statens
##wn
vit
bøl
##ology
erkeb
forfatteren
##isc
brøt
##aer
gar
##ual
planter
but
virksomhet
grev
dømt
bygninger
##slam
BBC
nekt
former
delta
##orm
levde
religion
##vs
Sj
1000
##ao
Cup
besøk
lansert
American
plate
##full
Hum
##unge
EU
slå
Star
##ietn
##forfatter
Washington
Rh
strekker
inf
ekstra
##iang
##ues
fjellet
##produksjon
mesterskapet
##ec
##ieg
Hy
Liv
USAs
School
##unner
pa
##yret
administrat
##asitet
uavhengig
Hansen
dokt
rå
typer
penger
Rev
starten
MW
Kan
##gård
lot
##øve
##iro
Sw
Ken
##ones
God
museum
oversett
1917
Mosk
real
##chester
##ferd
Sing
frig
1934
vik
syd
##ays
Bak
##olis
spørsmål
##dam
##bon
##sept
##idens
##stiden
økt
lavere
Jak
Sv
ledende
kjøpt
grense
avholdt
dronning
forsv
Gö
##uri
1935
McC
##anda
47
##vekt
##rener
est
Gri
kalte
bevart
øster
Jens
##cel
ambass
stilte
##gn
Ur
##ørende
##field
##affe
veldig
##ogen
henholdsvis
CD
##olene
##sdal
44
##gjør
Kirk
##rinn
Hv
vokser
Harry
utgave
leve
Tek
avl
Odd
1929
##ksikon
Gul
tredjeplass
Fest
ødelagt
mun
##ledning
sitter
overført
sand
bese
tidlige
nærmere
sikre
Tour
##tidige
kle
##sik
Dekkvingene
##orien
Polit
Il
tusen
bakken
##useet
opprinnelse
UN
pap
##ryt
##dder
elev
private
systemet
SS
obje
Ry
Est
##nær
røde
##åte
175
kast
Verdens
##ksomheten
Edward
##ville
##cupen
kvinnelige
Org
virkelig
##stasjon
Agder
##bour
52
byene
tverr
sønnen
##stjene
trener
Hellas
båt
ansett
Film
størrelse
Bjør
legge
##forbund
konflikt
##to
Kro
##årene
oppmer
##uf
enhet
Sta
kunnskap
##lie
Forsvar
pin
##stemer
passer
problem
Gruppen
representerer
pot
##dørs
##sey
##atten
våren
##ife
##oer
Telem
tradisjonelle
##vent
sannsynligvis
vold
Tex
rekord
stoff
tal
##mot
Ros
##pal
Fotball
##AF
##lede
##sburg
samfunnet
##ratt
oppnå
1921
kg
spred
##dommen
##utning
bidro
engas
bestod
##historie
arbeide
avdeling
vannet
Tidligere
##ologien
akk
##bygging
Hø
##kkende
##rerer
kardin
##ces
generelt
føre
600
tår
##ordenen
app
praksis
bakk
Anna
Dar
##bud
##kka
mørke
##vingen
fullstendig
kop
konged
sosiale
##vokat
kandid
##grammet
japanske
##merk
inkluderer
Hill
sagt
Luc
stav
presen
dekker
##iljø
1922
jazz
##zh
##viste
dekket
skriver
978
Kle
43
hal
Miss
##18
##ami
##mod
##tten
kate
Ungarn
territor
Rock
##do
nedlagt
##mesterskapet
avvik
ork
##yting
##eten
Hor
##cht
rykket
provins
Begge
stift
Lev
lo
etapp
##ymn
hurtig
170
rund
##hard
bilder
Nik
ex
skiller
stille
##tek
##iana
utdanning
pil
Ing
##ussen
tilhørte
##pene
nøy
##arder
trekk
##vision
##ws
1927
kommuner
##ota
##win
detal
studio
Portug
olje
Famil
Håkon
##gum
lille
Syd
Nav
bon
salg
mik
oversatt
NS
##lovak
Mary
##edyr
parall
##kirke
##jev
Gunn
##fekt
##jed
##ome
##bard
mulighet
1931
##eremon
##nis
bilde
naturlig
##skriver
##mor
ment
fylket
##19
##rin
hovedroll
Hav
hold
begrenset
##pris
ekteskap
myr
driver
1923
økte
##ail
##ollar
##ddet
spillere
bass
sivil
Hels
dets
student
##kunst
illust
pris
Haug
Skolen
##spor
May
##elly
att
1925
bygning
unng
British
##bord
Kal
misjon
hode
begrav
##ynt
mass
erfar
cirka
ør
##urs
Company
akadem
overfor
##atning
##beg
##ering
tilknyttet
gjennomført
##enen
Scott
typisk
##iven
ungdoms
49
##arkt
reist
låt
innsats
##inere
tilsk
menneske
senter
romersk
##iert
Mün
##kap
protest
Belgia
kull
Bas
Kristiania
institusjon
betegnelsen
set
##allert
hellige
Rosen
##føringen
##mannen
restaur
prøv
Nar
Fried
erobret
jakt
##serien
seil
Eid
##skar
Samme
trafikk
1926
fange
##ience
mob
Ram
##sjøen
super
##ep
##assd
##skilt
##lått
##FA
65
Andreas
##side
Wien
Alexander
##oy
Kultur
##jes
Arn
##finalen
således
fløy
trykk
Fe
##12
und
from
kampene
##án
Radio
vedtatt
dels
eksempl
1911
vinne
##uen
jorden
##rader
turneringen
##ois
##sbyg
##cer
##70
##minal
Olsen
##stet
Stre
forekommer
##kjør
Anders
begrepet
##ograph
VII
dia
nyere
1905
Gal
##gaver
##ligste
Yo
Otto
ønsker
Finnmark
Kristiansand
jevn
##løpet
##sund
elv
Ib
vær
rock
Side
bibliote
##insk
junior
46
vek
strukt
listen
nedb
nevnes
gru
religiøse
##varter
fantes
Dermed
##asjonene
##80
Matt
##well
##elvis
avhengig
interv
##gi
sjelden
160
##yk
##esten
viss
nektet
Hvis
data
åpne
banen
opptil
offiser
skape
##sbe
##rud
##ografisk
tilp
Bet
grens
Aren
Ola
##aling
spen
grunnla
pian
##ards
interess
reser
##skl
fjorden
Øv
##selskap
##sekretær
doktorg
staf
##psjon
1916
neg
skade
##dan
strå
##än
hjelpe
dig
landslag
inspirert
skje
artsrike
sirk
musikal
Edvard
ishockey
nederlandske
##bevegelsen
regn
guvern
pat
1904
Fjell
##atør
Tran
Prix
vendte
forstå
elever
##ærlighet
##pros
tele
konger
##unk
##line
##ruk
##marks
aksep
antatt
##ifter
can
demon
skapte
antagelig
turn
bosatt
##gu
##alis
kongelige
tonn
Jeg
beskriv
distrikt
internasjonalt
dog
pensjon
##iblant
Ludvig
##skipet
##isa
hu
##lager
##park
dobbelt
studenter
utvalg
##flaten
distriktet
##neser
##edag
utdannelse
Des
##ament
strek
Universitet
tidsskrift
strateg
pe
østerrik
##elin
ank
gen
##osial
##anken
Moskva
dollar
bekre
##cia
dav
##ré
##åre
Bal
##urneringen
bisped
tjen
måten
##mat
Green
utover
##ssjef
1913
nø
##stitutt
##mir
##yggen
Hitler
fal
medlemmene
##pre
krys
Music
måned
symbol
representert
##melse
musiker
billene
Tu
Camb
##navnet
ender
varierer
grunnlegg
samarbeidet
##deren
formen
befinner
Sport
bestående
stå
eksper
stemme
##16
him
Athen
trekke
Ford
opptre
språket
innspilling
kant
##amerikanske
##oni
##samling
utsatt
tor
skiftet
Bj
##skont
gjennomsnitt
Ca
Ren
Riks
##produs
øvrige
Cerambycidae
##ikke
Teater
##kerne
hot
imot
##odi
virke
##rey
energi
mottatt
mesterskap
flertall
delene
initi
deltatt
sykehus
lufthavn
klassisk
Camp
NK
kommers
##act
##gående
forut
insekter
##din
1906
egg
##slet
bland
klima
Tar
ford
Flor
trær
beseiret
##iop
formål
##ön
Nett
sver
1915
legger
##ellingen
inngår
##ila
##23
arrestert
Leg
##bef
Tsjekk
skøy
##ydro
frukt
log
landene
##shire
##strukt
120
##gress
É
Bib
##ake
bud
##iod
##ulert
grunnet
daværende
##iety
legen
mek
Pra
tekster
væ
deriblant
##bærer
##zz
Times
Popul
174
with
økonomi
##skrigen
##føres
Klubben
##ati
organisasjonen
angri
##hi
1907
Beat
alene
dominer
##funn
##handler
##apt
bord
Gustav
fritt
General
Kir
Telemark
ph
##uther
tung
Tøn
##jøres
##formede
How
teksten
Tem
påfølgende
gis
politiet
skilt
forble
Nils
##illere
##åler
Les
##steder
omfattet
middelalder
##retten
endringer
00
Søn
Arch
gran
bygningen
##ES
populært
stab
tjenesteg
Serien
Lau
stjerne
64
##erep
Just
##zen
##ygge
##derk
##ogne
aktive
##irmaet
Que
hind
Cent
##but
ball
forlag
##14
##ødrene
Jakob
##otter
skar
stillingen
Lee
ori
Chic
##arbeider
##fort
verker
##figur
material
Club
prosjektet
Lik
eksist
Dagbladet
165
##verks
tilkny
##åter
Champion
##enez
innte
hard
##ific
Fjord
##aket
grunnlegger
##olin
##nsyn
##riften
forkort
##plan
eid
grunnlag
Middelsstore
##osa
##uch
##iteen
##aria
Ö
##lende
aust
Aller
##vinger
Son
kaptein
##fisk
vak
##pool
Først
##hn
##ublikk
##hv
##fors
Bel
Argent
uly
##alem
App
Kirken
planlagt
Jack
§
vet
##uba
##anden
Kap
##ikter
vinteren
##oter
164
Tru
High
Stein
Long
##etningen
##konkurransen
##urch
Ob
makten
85
Post
bøn
horn
avisen
173
slags
Akershus
##orsk
Inge
##kysten
århund
forster
##varer
styret
1909
##ssenter
##15
##cus
##rie
beskriver
utvikle
##stall
Ras
##nerte
tapt
versjonen
##lad
komponist
##iation
Tyrk
Kim
##irer
uke
##ettere
organisert
kåret
boks
Hodet
Petter
assist
forskjell
##lest
##vitenskap
utvikler
plassering
##anerne
Kraft
Result
vare
##odd
53
168
forretning
##post
##strekk
prosjekt
##NU
utny
faktisk
krigs
landslaget
resul
hevder
##elu
54
jarl
metall
skadet
redusert
semifinalen
masse
Lø
##ttelse
adel
Portugal
Arth
Wales
utford
hast
Zealand
XI
farger
artikkel
liber
hvilket
representant
underlagt
Ør
Journ
##oe
deles
##systemet
ekspedisjon
##sområ
oversikt
fjernet
Sogn
kilde
sovjetiske
ansvarlig
##enk
##onger
56
##vice
##iket
Grunn
avtale
##bus
Mat
Christiania
##arabider
produksjonen
##arten
##vå
##rel
Texas
Si
rul
1890
##foss
Aleks
føder
foreldre
##vende
##uan
registrert
##rette
Sentral
Jos
##grens
Videre
Elis
kr
##tning
Ring
manus
sjette
##kra
##barn
Alt
##orp
Fal
tyrk
dekor
Ung
starter
innb
Romsdal
Imidlertid
plante
byttet
Konstant
tab
##parti
kirker
pop
beholdt
##17
##sons
##90
##nant
hit
separ
forand
Arendal
##olket
##bygget
kjerne
verket
Uten
profesjonell
##iken
Fire
nærmest
##oul
stadion
Fær
kritikk
forber
forslag
representanter
##ubile
ukjent
unna
påvirket
##gjorde
##irasjon
##ters
Bodø
desig
Sigur
##amin
involvert
produsent
Mass
frivil
brede
kjempet
Ep
armé
##rede
##veis
Hard
yr
166
perioder
##unnel
##ye
trakt
Tur
programmer
opptatt
##ump
prinsipp
aktivitet
##NA
##jernen
sammenlagt
##cc
##fot
astron
##sborg
##utd
##affet
skapt
Arbeiderpartiet
Nov
##jern
bele
tema
etterfulgt
ring
##ressen
lande
venner
##ition
portug
Gil
ort
erkebiskop
Na
##ulen
##col
Fram
##samlingen
##utte
grønn
inneholdt
dekkvingene
##rar
62
##roller
kortere
Carol
tider
She
anlegg
##stav
Nes
funn
ent
##ografiske
landskap
##13
ag
islam
billed
München
Senter
japansk
håndball
flyet
##sti
øyer
løper
Halv
##ima
Friedrich
##asinet
Daniel
Vår
Pier
##low
Gol
Mount
Bandet
##board
Æ
##mord
Colum
materiale
overgang
ordenen
etterl
argum
##hammer
##asjons
totale
Leon
Dal
##fyl
##fabri
##aser
##oslav
jødiske
nordover
##høg
reform
##hy
##CA
Skip
atom
mangler
Kra
Mur
##una
##misjon
Bol
Orden
besøkte
Bab
##uppet
##mentet
forbundet
##irektør
Helsing
##uta
spe
It
##aktige
forestilling
berømte
Sur
såkalt
selvstendig
Wind
etn
##lever
umiddel
def
dyp
##igg
Hver
tvang
##iew
verdi
##forsvar
Chicago
varte
##uert
China
tegneser
myndigheter
##iseres
NO
austral
mal
##styre
Sund
##kkede
flyktet
##ogner
700
Mak
Wer
##øte
Strøm
##grupper
ridder
tvunget
##stillingen
krevde
##öm
Sunn
forn
spesielle
besluttet
58
##klubben
lands
skarabider
borte
##ærte
##iges
pav
##urat
Simon
sønner
##yin
endelig
##ows
bank
##essige
Venez
ka
Gunnar
Dor
Championship
##ela
bronsemedalje
typen
Nob
Scarab
jøder
velge
Cambridge
føds
Ast
bane
utgjorde
##ason
##lund
Liver
punkter
##ikkert
##merke
##anserte
##alp
Lyn
oven
tilt
priser
fungerte
sle
landsbyen
##ides
##clo
##kontor
kvad
Slaget
halvparten
Innen
##dar
anmel
unngå
kommunikasjon
Lag
##nede
muligens
##tm
1902
Natur
##amask
Norden
Bob
fær
##berst
sjeld
flekker
forsknings
organisasjoner
##øde
Math
##ianter
Vietn
Distri
Society
Sjø
##jal
Bry
##øytnant
##wa
turist
forholdet
arrange
kongens
Brun
konkurranse
Wo
##king
dør
##sto
Eurovision
kjærlighet
##tta
osm
Scarabae
##ence
elektrisk
korre
##omot
sørover
##rint
spilles
##dommer
oppmerksomhet
##albumet
1200
##ulf
Andersen
fotograf
Veg
ansvaret
Ingen
reis
artikler
konserter
bærer
##iktet
tronen
##ellene
##bot
Jim
##estad
##erepublikken
søk
##vensjon
##ebra
##inder
tynne
ger
##kanten
utstyrt
##iat
Beina
metal
Fro
Alfred
forskere
##kjem
levert
hovedk
uvan
kjønn
63
Bank
##ison
##iode
##båt
##ient
finsk
veier
##gren
syl
##lanter
egypt
Ku
##lovakia
##legge
kontor
abs
East
##itert
eksemplarer
magnet
Nær
Life
reguler
##iber
dommer
fen
saga
uavhengighet
tradisjonelt
MS
Hamar
parlamentet
sivile
bur
utgaven
Dr
##system
Luft
tegn
innled
salt
##forbin
https
Folket
sølvmedalje
Liste
##upen
##reservat
##achsen
marked
##vt
Jern
mikro
Mik
alp
Tan
drep
##akult
smal
##otte
Vin
##66
##sver
##delinger
kategor
morgen
hom
Zh
htm
næring
na
Mand
##stå
##ksim
Gen
Allerede
jobber
programleder
Rud
forvalt
Salt
gjent
##ønster
##mond
Hein
Derfor
design
##kson
##aksjon
skulpt
Gull
##årsak
il
analy
fortsette
##øper
France
##24
Ban
Hamb
mur
Borg
Liverpool
Mi
Pat
Høyre
##alest
##bøker
elementer
planer
minister
Mann
##rekk
revet
##spillet
virket
Enk
Konstantin
Rol
Bos
Troms
stafett
##engte
misly
filosofi
Pap
ligner
åpning
##atert
Olymp
kontra
##slin
##ado
57
1901
News
Larsen
minste
berg
##AS
##byggerne
bren
ekst
innvand
##lers
Mun
pinyin
signerte
vokalist
##resjon
##sby
##stud
helst
skøyter
##bakken
etterfølger
faste
Rogaland
99
##elling
##hai
Manchester
tale
##ugen
antallet
73
gjeld
Organis
59
dis
konkurrerer
##oft
##via
uttalte
250
Avis
hardt
Assoc
##kommand
##lubb
fjernsyn
NF
1898
Argentina
Wood
Ron
tempel
jurid
Sigurd
overra
Små
Hon
skoler
foreg
presse
prote
##folkningen
initiativ
##aton
##egn
##områdene
up
##brun
##geland
66
##aktiv
vekst
##skommun
sistnevnte
##CO
White
dynastiet
oks
Love
Lan
beskrev
flest
##vise
##itch
Høg
oppløst
##mi
Vilhelm
søkte
1880
milliarder
1903
saks
House
Tyrkia
Sun
sur
forleng
Kri
Dam
##21
##ude
gass
74
diam
israel
Glo
Vestfold
##ument
##ktiv
pen
##oppen
drive
trukket
installert
##abor
hemmelig
Nasjonal
tit
Bow
bygger
##ibel
##mosf
rikt
##esen
##ådde
##deller
måter
##kre
##ots
afrik
roller
studere
##kommun
innlem
Ragn
regi
Sval
##strand
årets
Gyl
##jent
$
87
##ther
Die
hensyn
##organisasjon
##opter
kommunist
##lokker
opplys
orkester
fel
Anlegget
naz
Rand
skille
eventyr
bære
dukket
##vi
78
snø
Gren
Kinas
##ms
Int
Statist
advokat
##haug
Arthur
forbed
tegninger
##eltet
foregår
##ård
Hos
just
Nå
##unden
##nad
Deres
keiseren
Kommunen
##uft
belg
tilsyn
personlige
sidene
##ulk
oppsto
##medaljer
##adiske
##oidea
formelt
##atelse
Group
returner
sil
hvem
##idar
##deler
utse
##25
Ivar
95
stortings
##neg
##øyet
utgangspunkt
alvorlig
avstand
##rifter
domin
overtatt
##hund
symp
Mau
Tønsberg
Law
##kirken
tilknytning
##æl
dvs
økende
vitenskapelige
kommunene
##ynd
##wan
River
anlagt
handling
##sfjorden
produserte
##åm
Molde
nedenfor
##awa
hvilken
levende
Lie
Romer
Beatles
autom
republikk
##TA
##sre
tann
reiser
##forbundet
dam
Bert
##rafikken
##hver
larver
Vietnam
##øyd
##ctic
##fjellet
Contest
##atre
##ulig
Sem
belig
rådgiver
84
169
drepte
bortsett
##versjon
##verg
Stan
Møre
Roger
konsek
konservat
##ffe
##minner
Esp
##ekte
oss
##fel
##fød
opph
øvre
Jesus
landsk
Bergens
klassiske
trop
##vatnet
##jul
visse
doktorgrad
utfor
meldte
polske
##erende
strand
##usalem
linjen
guvernør
skyldes
fav
##styret
utenlandske
hor
##adisk
mott
emb
##TO
##bred
##miss
##ynam
stål
Street
medaljer
##fab
##nst
##anker
##ordin
katolsk
1814
##middel
##ugoslav
kapell
##sler
not
##ism
Bæ
##11
##olia
##zhou
nem
landsby
Blo
Elisabeth
##alls
##fyr
bus
Bell
##feltet
##last
##grad
##iansk
halvdel
##right
plates
terror
Nicol
fortsetter
bånd
1896
øke
varer
##out
ende
nært
myndighetene
gule
eksempelvis
##unc
##byggingen
67
sjøen
##ttende
Jerusalem
##bruddet
1899
Iran
rang
153
##espen
##meste
Open
anerkjen
alternativ
##ronten
##klassen
##skudd
##ossen
portugis
Rundt
nederlandsk
middelsst
gradvis
##ove
forklar
##bånd
FI
System
bys
eies
forsø
qu
##resentant
artister
Prem
romanen
starte
##læring
##mid
kjøret
##øye
tyskerne
skotske
oldt
oppnådde
##dy
Dre
front
Person
Virgin
##edie
Dub
flyr
kommunest
IL
Cru
Dahl
04
plassen
##ymnas
enkel
fler
##ids
sveits
##skrifter
Musikk
etterkom
Dersom
##odor
markeds
Haw
skild
natten
##cyclo
nordiske
Svalbard
##able
Ball
kombinert
sikret
rammet
Sveriges
lager
##kil
Are
sag
anbef
##følg
##biner
rettet
68
Fir
hensikt
avgjørende
deg
erklærte
con
sosi
felle
Roman
88
forbu
moren
kvalitet
Lake
kny
##setter
rette
autor
##isch
##oten
spredt
—
pronotum
##xi
Che
fungerer
163
Hord
parlament
##skraft
avtalen
Moder
bevegelsen
rekl
Population
##kers
##kest
##rær
fullt
167
##ikerne
Steph
lokalt
##olo
Bach
begynne
##chn
##akes
tjenestegjorde
mekt
##loster
Pak
nasjoner
uen
Plan
tømmer
##mal
etablere
##viser
opphold
langrenn
Church
Veien
05
##oget
grunnlaget
##wig
##uter
kirkes
##melige
##rende
##risen
##makt
forfattere
dans
##etta
kated
nedbør
Cam
##elet
110
havn
fremme
tilgang
rettigheter
08
forhandling
glass
Juni
##aterial
kanon
kjøre
Barcel
bøkene
inngikk
##onym
spissen
Marg
##svitenskap
utelu
Bart
fersk
dep
##vannet
musikken
##smannen
##uret
retten
##akh
##osjon
##mede
Emil
truet
verne
Ray
Greg
76
Ross
foruten
Grim
Adolf
serier
driv
opptrer
anty
##angrep
Eksemp
indiske
##rut
07
atmosf
Journal
1870
leksikon
henrettet
Oh
##ologen
verdensmester
##aren
Ara
hellig
72
kanal
op
##spolit
CO
Fle
Ordet
overbe
rappor
##zer
##skon
##stam
1895
Corn
Pi
##fugl
fulgt
##rup
##meng
##sid
rot
skutt
forsker
betraktet
##navn
amt
tilhørende
undervisning
##vald
##derte
kvadrat
##öl
kastet
bein
900
NKP
Tit
##gården
studie
sporter
begrep
##henger
Walter
markedet
sentralt
Akadem
østover
Christop
Tok
krever
enheter
##dsel
##kultur
##zo
Einar
Kun
Rod
godkjent
Had
Lit
skikk
Sab
Litt
##inde
##ppet
arkitektur
##evel
fattig
selvsten
##smedlem
##foreningen
##bury
kra
latinske
##uru
Boken
##ista
flyt
DS
omkom
03
Pas
Venstre
gal
##assdraget
##hjel
Cra
innendørs
##likk
embet
96
gyl
Stille
Drammen
ress
##dinger
potens
borg
Ettersom
yngste
anerkjent
Bare
##etet
try
##melt
lyst
##voll
##ensis
ug
Mah
##livet
Holly
Lillehammer
Josef
Sin
patri
##kong
##stan
kardinal
##rerende
Ten
##ution
>
Lew
kanalen
trenger
##funnet
Kjell
Øvre
Jones
sekunder
kul
tolk
ødeleg
##misjonen
lyse
markerte
##yrer
Sav
nøyt
vannkraftverk
##ystemet
##lan
##omb
##ifik
introdusert
##OS
Lad
##ansett
##ti
Aud
Kil
merke
##ttene
Artene
##anj
##uck
Francisco
##ope
Aut
##seud
vekk
bredere
##ental
veks
filmene
##esu
Wolf
ungar
familier
disp
##løse
Union
1860
varianter
State
##uddh
Not
grader
rester
dokumentar
##ianske
##tegnet
arabiske
##stø
##skol
Bang
manager
middelsstor
naturreservat
oppstår
1897
hvitt
flytte
69
hud
Øya
##ygger
konsul
##edes
definert
##selskapet
##jær
Sus
##onsert
ordre
hjul
foreld
Dis
jobb
skader
stater
86
lit
##istikk
benytter
egenskaper
##riksen
hyl
ennå
Patri
##oma
##atnet
##liste
##ques
Kort
##arm
anven
##RA
##chi
cand
terreng
Football
Bø
##anna
##gift
##flate
Kjø
lyktes
06
finske
##anere
boka
saker
Tal
##bukt
million
instrument
##messig
##gaard
tilbyr
##gers
svar
ønske
Mic
master
51
##kampen
manu
Atlanter
##fang
##industrien
09
omtales
130
##egård
imper
Opprinn
betale
##ous
tilsvarer
foreslått
##mag
##ghan
byggingen
##arv
Vis
##ussel
arabisk
Jane
dyre
rus
##miral
larvene
Rolf
Strand
Barcelona
##SA
flykt
fisker
##uly
kalk
fjellene
##augen
komple
Jord
##esterskapet
biler
vitenskapelig
##era
gravlagt
tekniske
##fru
fry
##lah
ledelsen
Gib
ektem
fjerne
98
Day
lønn
##bjørn
pers
Fredrikstad
##skab
Cre
kjennet
##rus
159
Dra
##øyen
Ari
##jo
Ukra
Santa
unntatt
##aret
isol
soli
basis
maksim
karrieren
oppstod
rygg
mytologi
Hordaland
Bus
Gold
##äl
delte
havnet
teknisk
##yo
Ungdom
Østfold
One
##ioner
betegnelse
Sag
Filipp
Encyclo
Aur
kreft
Fylkes
##elag
Eliz
Ah
##sjef
##prest
##snavn
##demokrat
##dist
Forsk
ambassad
resultatet
##retter
tidspunkt
åpent
##ictionary
European
risik
ortod
##holmen
beord
fjord
statsb
Victoria
opptrådte
eksisterer
##støt
slaver
dokumenter
undergrunn
grunnleggende
bydelen
##arden
prøve
Hammer
##ibet
va
ild
fullført
Lat
uvanlig
vesentlig
Malm
mekan
returnerte
total
Nation
enkle
festning
Christopher
Lest
press
norrøn
Sachsen
à
forskjellig
Tw
Town
Kroppen
hersker
Filip
##ømming
komment
Sande
##tekn
NTNU
bevegelse
oppgave
##løper
Doug
Cas
##row
*
##fødte
##sopp
klare
utseende
kro
nærmeste
##esund
fullførte
naturlige
Amster
damp
##strakt
##oldet
Williams
partier
##ødre
prop
nasjonalpark
eide
nomin
isted
tradisjonell
Win
02
##drag
##ieren
Jackson
verdenscupen
1300
kje
takt
##merker
##partement
medvirket
Begrepet
Bærum
lagkonkurransen
utgivelsen
anal
glob
##trykk
##astro
##ivert
##maler
teori
Academ
barna
elleve
normal
forårsak
musk
union
##arbeide
kongedømmet
mengder
##ić
forsy
##jeneste
77
rute
prosess
infanter
bruken
##zon
##wich
innlemmet
Act
Holm
utmerk
Brown
155
Time
scenen
tiltak
Elizabeth
Institute
##bø
seieren
vingespen
##otiske
flat
spesiell
##ded
prøver
##åsen
sammenslå
##esi
##ppen
Bud
hvilke
##antet
mengde
bevisst
##krets
utsp
Lor
##itten
##ated
##riere
str
##vinne
##verdig
##ero
##vne
##rakte
Blom
alko
velly
singel
Ernst
##trener
sommerfugler
utgangspunktet
sed
struktur
IF
Wall
Svein
betydningen
Mars
tror
gjeng
##ordet
##ittelen
Atlant
1100
##forhold
endring
Johansen
##ittene
oversettelse
Irak
##edy
Hamburg
##alåm
utøvere
ski
Kron
##sammen
forsvant
Adam
hovedrollen
1892
Wars
danne
streng
##ommer
##gra
Coll
##avisen
edderk
sesonger
opptreden
ube
##ratis
platt
san
Afghan
Mod
Familien
institutt
##kle
Bull
frihet
utlandet
dalen
##igen
##serne
1889
Enkelte
høre
kurs
nemlig
##museum
Ask
Vel
1850
svak
lengste
betydelige
Ala
spilleren
Young
samtid
avsk
##olley
Grupp
sko
##bruket
##ume
Amsterdam
premiere
skyte
Ec
##reps
1894
eksisterte
Sky
##skript
dominerende
bot
tel
##hengere
fusjon
Kas
##lend
drives
modern
cup
##ement
båten
kjøpe
Ei
Stedet
vand
##jeringen
##ito
tilnær
##derne
gjennomførte
##orene
83
##ralen
forbered
##inge
Association
beslekt
##adel
laste
##somt
##vika
park
produsere
1893
Kent
innhold
##vind
loven
##ighetene
oppgaver
ombord
vingespenn
dekk
Hart
skjønt
Syria
påvirk
beregnet
bekreftet
##press
fylkesvei
##offer
marine
vanligste
hjør
stren
brødrene
hest
Hem
Nam
inva
lover
##geren
##hal
Lok
och
##manns
mult
skaffe
lettere
anlegget
folketellingen
##atorer
IA
produserer
##entert
herred
##arktis
identif
perman
buss
øverst
158
kjenner
Road
spli
riktig
skjold
ner
tenn
rektor
Big
lokalisert
Bah
hendelser
##lia
antas
fødsels
respekt
innebærer
komposisjon
Jensen
Capp
stasjonen
##bergs
republik
Od
sangene
##cks
Ris
1888
##mas
##alistiske
kore
passasjerer
Sent
stjerner
Jørgen
europeisk
tjenester
##inkel
PD
html
broren
79
styrte
93
Great
Hollywood
Lim
89
##sende
Central
Harvard
##vesen
demokratiske
Gamle
Georgia
Dessuten
##skoler
Stand
##redende
engasjert
nasjonals
Brand
kla
papir
Bad
##eleder
##ilia
virker
profesjonelle
Dagens
tropper
sens
dokument
fortalte
##ador
søke
lengst
publiserte
##semb
Cat
##akadem
regler
##order
Institutt
##ische
lese
lette
##sjektet
ekstrem
formid
jernbane
##imet
1891
##pes
Like
##visjon
base
Dictionary
Len
maskin
muslim
gjennomg
dal
Skandinav
##æs
##rommet
Team
bombe
gjøres
stoppet
gram
##amling
brutt
kongelig
midlertidig
97
Alexand
##leker
romant
Cy
##ally
britene
innsjøen
havne
opposisjon
##røne
Gir
##alget
flåte
skol
datab
fysisk
vedlike
tyng
##bildet
##dømmet
sentralban
Høsten
oppford
eksempler
##cha
##forskning
##ji
##ants
Jud
Ikke
2020
Shang
##angeren
røtter
tsjekk
Pors
prosessen
Lil
irske
##uper
##ubileum
datteren
nyhet
##miljø
1885
Sverre
artist
Sec
Mas
Anth
kvinnen
Fem
##utvikling
Mem
Rød
muligheten
tilfelle
Tysklands
##lagte
Skog
alkohol
sies
Div
Helsingfors
øyeb
regissør
EP
##inson
Knud
hindre
forlate
##ello
europ
umiddelbart
tråd
##evær
Lis
bonde
##ls
##iringen
Erling
situasjonen
##orre
riksvei
Lewis
Bjer
innbyggerne
##våg
FA
sum
resultater
sørget
##sreg
tidspunktet
Sul
##vekst
##instru
refle
klosteret
hebra
##kretser
Margar
mannlige
##arn
##iok
##ilen
bal
##ården
nylig
polsk
##28
ledere
Rot
rødt
##lement
unn
forny
årlige
bygda
spesif
##pass
leir
hovedkvarter
##tra
ukl
##com
skil
##imensjon
<
assos
idag
##lighet
prøvde
Fu
ån
Ski
##zy
fo
##list
Class
Gram
sch
kammer
Grav
datamask
ingeniør
konfer
arrangeres
vokal
stående
anledning
##virke
ferskvann
new
scene
trening
sportsutøver
Sæ
94
Johnson
##minn
Bygg
formet
sluppet
Emp
##VD
##see
yt
Pac
borgerkrigen
Moss
ple
Fjordane
156
faller
størst
vakt
litterære
##ørdag
elektriske
nedre
konsentrasjon
##fulle
skudd
##sprogram
Vo
sym
Tore
selskaper
forret
kunstnere
Henri
##orier
vedtok
End
##sjekt
spredte
##ulære
##somme
hørte
skatt
radik
Service
##ape
Center
kaller
forbund
##ures
Ash
##sstyr
##ksamen
##irektor
designet
forening
resulterte
##gro
forbudt
major
øvrig
krysset
##imen
tilstand
##bes
##algt
fakult
popular
##sal
prom
trodde
Asker
barnet
##inus
##prins
Best
utkom
154
live
produkter
Virginia
Rio
Cuba
flåten
pan
leddet
Net
kne
supp
damer
eksisterende
##bær
##auer
favor
Pen
kontrol
hunder
fukt
kred
Antwer
monark
bad
grønne
Trondhjem
##busjon
##forsker
benytte
##stillinger
jernbanen
##fugler
Ener
gress
variant
raske
##adron
konsept
beskytte
Gjø
kring
President
kapasitet
##bra
##iga
Cost
##arth
gutt
##hall
##hild
##dahl
##urser
leil
sogne
mening
kin
Charl
Rid
Play
##bein
rettss
##bygningen
bokstav
##ston
Comp
Napole
frigjør
##sette
drama
##uere
Bayern
vite
astronom
##emb
utgrav
##aldt
Top
Grønland
##hopp
##ström
gjest
##brune
bene
time
døden
##hånd
Villa
solo
Olavs
beordret
stemmene
##cup
##ional
skyld
tunnel
Cont
Hong
##litter
militært
fastlandet
##atus
påbeg
datert
Stift
tanke
Form
##29
##aka
##zig
åring
##president
##lyst
lest
Ker
hydro
vises
SV
##lish
##vold
Ord
Water
##program
kule
anten
oberst
intervju
##varet
##jan
1884
setter
##skil
##brand
Steve
miner
Pierre
fril
inner
bedrift
kontroller
Ri
1400
Partiet
##rys
versjoner
prosjekter
##iva
##rul
##plikt
østerrikske
##ifer
##ritz
inspirasjon
##sform
tradisjonen
individuelle
##esenter
Pakistan
drepe
stykke
##kas
Dy
Krig
tilbud
opprettelsen
##nem
##staden
bryst
##festivalen
Afghanistan
##iverse
klubber
aktivt
##filmen
modeller
Hov
##lesund
##likter
##spartiet
avviklet
Columbia
##ER
##aborator
norrøne
republikken
##gata
##ylor
Skien
opprøret
##elat
##skin
planet
##klus
Sof
anti
ordin
tilhengere
##remedlem
Ork
Harri
hull
##delsene
Arm
Sud
stol
Faren
##ère
bilen
##stasjonen
##ologer
linjer
#
gas
##htt
son
Laget
##spros
##ely
opt
strekningen
##don
##skop
stund
bildet
indian
graf
Franz
enden
synlig
landskapet
drøm
resp
##lege
##holdning
musikere
lad
teknologi
høst
gitarist
##ksh
SA
##ssel
Cath
matematikk
##ogg
elver
Årets
##alistisk
okkupasjon
rør
burde
styrt
fanger
Jugoslav
Beste
media
##27
##ønt
140
Ori
##serie
##urope
vill
Samuel
løse
##okse
forkortet
##weg
avledet
osmanske
Antwerpen
stabil
##øtet
forbi
##aster
##settes
Ax
jesu
sommerfugl
bredde
Ålesund
humor
melod
##konstru
deltag
Opprinnelig
detaljer
##kse
Rem
##ierne
spis
kontro
##zi
inndelt
malt
sender
Gylden
Bør
##budet
hå
Vas
##ienter
Golden
Bost
##skapene
sekretær
undersøkelse
korn
##kamper
##egården
hannen
Joe
##virksomhet
##må
##gave
diameter
Str
##utten
Lux
usikker
noens
##ni
##skiftet
kriminal
1886
##ttere
##handel
cupen
##atikken
Aleksander
##wald
holdes
modellen
##imal
Romania
Pedersen
trykket
##edagog
kulturminner
Lenn
Engel
uttry
1848
administrative
Slik
##legging
anled
Kongen
effektiv
fored
oppløs
##linjen
demningen
##oker
Syn
merket
krysser
##ardo
Dur
show
mesteparten
mannen
delstat
Jar
kalde
Bag
##kere
rov
varm
##ipe
##verden
presidenten
##spilling
markert
##furt
Penn
møttes
definer
##skogen
bysant
gruppa
Heinrich
mak
##verdige
dialekt
enhver
##innere
armen
##espiller
Nielsen
kvalifiserte
Gabri
Es
##utsch
gjenværende
Poli
bunn
innledende
01
Eric
Sankt
Medal
kjøn
##økonom
°
##irs
Rein
##nik
Foss
Schw
##teborg
avt
##kol
konservative
Old
hunn
motiv
foreslo
##skripsjon
vennskap
##26
bygges
##aya
dit
bispedømme
##pekt
##sdalen
utform
##skor
##anner
Prof
##avaler
frykt
virksomheten
Tsjekkos
blanding
##opel
Skj
##elsaks
buddh
##sbru
##ystem
Ukraina
Bygningen
gjennombrudd
beskyttelse
FNs
##rekord
tank
##ssenteret
kulturelle
forvand
##dekket
Morten
sprint
seremon
dannes
tvil
##ikkelen
States
dikter
##PA
annon
gammelt
gjaldt
##hem
preste
##tering
Wilson
stengt
##aut
debatt
noensinne
##engene
##asi
målet
norges
praktisk
innviet
overflaten
##no
##blom
observ
seilte
##tredende
Vann
kino
forente
##uene
Nye
##sland
foss
Føl
Gru
##foren
##alvøya
skuespill
1882
halvt
##sområdet
Aar
eksamen
Chap
Manu
frie
##iff
##los
##kser
isb
1881
interesser
drikke
velger
Møl
hunnen
forveks
##krit
lede
sammenlignet
moral
##okra
omgang
Göteborg
##igan
forsvaret
domst
Sørøst
ekspedisjonen
ånd
gjens
tillatelse
Viking
Balt
omgitt
parken
etterpå
##varig
brudd
Philip
##ii
##elvet
##strasjon
samtlige
##atan
sitte
forgjen
##ires
##umin
Games
Indre
tettsted
tidsskriftet
marin
sete
lista
Chris
stilt
Jersey
team
bytte
senior
kandidat
Douglas
Florida
##rister
veget
##onne
vers
selvmord
ambassadør
##IA
##rolle
tårn
brune
##itasjon
Spillet
endre
trengte
Lab
overrask
assistent
##cke
##sketball
1883
utelukkende
Danmarks
Elect
hjemmes
##hl
Ås
Preussen
##ray
##smål
Elva
undersøkelser
AB
##skriv
Live
Kos
feltet
125
##rikes
mobil
legges
##agu
##attes
inform
spiser
episoder
##valt
føde
hjalp
aviser
nettverk
McCart
lederen
##venn
##hevet
Norway
flyplass
##ique
Organisasjonen
katal
##oda
##familie
Nordre
overlevde
##syl
##unne
Hom
gri
organer
uro
1887
##arbeidere
røy
Kont
##enga
Linux
arkiv
minor
uavhengige
##atab
##oo
Bis
##ksped
kjørte
##iserings
Historical
jødisk
overvå
##bach
Meg
##filmer
ligaen
forfrem
punktet
##ders
##edia
Sic
overg
begr
Hånd
fung
##sforbund
aktiviteter
##RMS
kollekt
festningen
låtskriver
##éen
##ringe
øyne
smale
slekter
uh
øye
##odene
kapp
museet
Likevel
Sandnes
slottet
##ådet
slanke
igjennom
Programmet
##olleyball
originale
1878
Spec
##Wh
bandets
##vit
##yram
human
##ilet
##ataljon
fysikk
egyptiske
Ever
Guine
Skipet
##til
##orger
##istrikt
kampan
tidligste
nettopp
reness
overflate
Statistics
prøy
munner
blandet
Herman
skjønn
Wat
kapit
fanget
bibliotek
inkluderte
Fel
Formel
##otisk
adres
angripe
soldatene
##hjul
##produ
Davis
WoRMS
##uld
vinger
##imb
##pton
##ough
irsk
Kirke
bidra
##22
Hil
sort
##DR
##nivå
kult
##ransje
solen
##utningen
interessert
Rail
lave
Kors
tiår
kompet
wh
rent
Øystein
61
les
##ness
konver
##pon
##holt
##skan
Tidlig
gruppene
innvalgt
##attle
Hedmark
Premier
##ision
##slekene
Ferdin
artiller
landbruks
jo
Lord
profil
Jugoslavia
invasjon
##ørr
arbeids
grunnlov
Bed
politi
takket
representere
##fallende
mønster
Night
fugler
Røde
ulik
##lid
øker
Nepal
opplevde
Edd
##årn
##anes
Taylor
batter
Spar
tilsl
medalje
sekund
departementet
1875
Tele
episode
pund
skrifter
##uset
##skerud
feltt
##anni
##eliv
##splass
##sproduksjon
##asy
##icus
##skij
##shistor
opplag
last
baker
æ
Venezia
bosatte
##fun
##kår
it
##jort
søndag
Færøyene
Sir
Kapp
lærte
redde
Show
innledet
hjerte
##ava
Hele
kjempe
Britann
Va
Ferdinand
angelsaks
konvensjon
Dig
157
##fi
##innene
Sydney
##akon
Nedre
utføre
##slått
##struktur
Administ
##veren
bist
##ography
klasser
##ynes
##ikkens
##elatende
menighet
skrå
Little
##høgskole
redusere
regionale
Scarabaeoidea
Op
##dals
##pote
1879
Kval
##yndighet
primært
##vokst
Real
Prins
diskusjon
opplæring
##spe
Sib
Rose
##ctor
kvel
Wester
##yrene
forg
Tai
##reland
bakover
##TV
##givende
##setninger
Nilsen
Stef
Tall
forrige
ortodokse
##bol
sult
##medlem
åttende
Stasjonen
Reich
bedrifter
Nev
Huset
Junior
Master
operativ
skaper
innslag
##ikvar
##MA
Rana
innførte
Hur
Vat
deltakere
presentert
##aux
##byrå
##bourg
tang
vestover
##earch
##synet
Helge
egentlige
Mes
Force
trådte
##væ
##amo
##sida
Geir
yrkes
titler
Uru
inte
disku
eksil
nederlag
Heg
##IN
##ular
##nelser
oppfyl
##urens
##årnet
invester
Az
Broad
grunnen
##ungen
beløn
##kort
Soph
firmaet
tilpasset
Ses
los
Paus
ferd
##jering
Buskerud
protestant
gje
##avene
erfaring
##hode
Nordisk
Inc
Marc
redig
Bun
Kam
##fo
##ræ
Hay
Seb
##sider
Bulg
dele
seinere
Forbund
Wa
fabrikk
religiøs
nasjonalt
##ão
anses
figurer
##oke
Brian
trommer
##auen
Web
André
##formann
Tekn
Julius
nevner
##øvrig
hypp
##slo
##skamp
Alban
##liga
##achel
##odden
vulk
##elsens
Fox
##vakt
jobbe
helhet
Kai
Mov
tidvis
avlange
romaner
statlige
konstruert
##worth
medførte
flyg
##rukket
Guang
##sområde
regner
Sø
Kur
elvene
Idrettslag
##foni
slikt
settes
##cast
##icle
smer
stip
orgel
piano
utenom
trommes
##strekkelig
##etninger
DVD
trett
Terje
ud
bibel
##ønnen
bygging
selge
partiets
##havslekene
Social
##slipp
Main
Slike
##sskrift
ryggen
Sommeren
so
Squ
##bry
##vide
##punktet
##svoll
Estland
##wick
arv
tettstedet
##parken
##sforening
jordbruks
Tsjekkoslovakia
##nett
##omfru
Clar
Fame
fikt
avskj
Hugh
##egen
bukt
##servator
Middelhavet
Brad
##blemet
Brann
forlatt
Alan
##skaps
skisk
Andrew
1871
dirig
##anon
##egnet
##ailand
internett
##deri
Research
kombinasjon
kapittel
Antarktis
arkeologiske
71
ess
##veier
sees
##rikter
oppe
Ned
metoder
##ér
NH
egnet
frit
merk
integ
Bibelen
gjenstander
##kron
##levende
teologi
sjakk
Kamp
mangel
##ads
avr
Thailand
bebygg
planen
hastighet
Nobel
Pil
luften
Kla
Bour
produkt
##nor
tå
Gh
##serer
flate
ss
båter
tilsynelatende
Provin
Ok
penge
##pedia
Liber
Pres
minner
##bakk
grus
##hockey
metode
original
Atlanterhavet
Gjer
##melser
evangel
skipene
Midtøsten
Franç
Party
##terne
festet
Windows
ovenfor
Cappelen
Ey
bit
ded
count
finale
Fur
Hag
Lom
singelen
##bøl
Rør
Spart
1877
##klin
Lys
utførte
##go
##bygde
Malt
etableringen
##iano
gratis
##ía
##vey
##ways
foregikk
Dec
sene
steg
##avet
meld
låter
##atra
##vania
Catal
slapp
fraktet
snakker
Cle
Helen
91
institusjoner
Oli
endelige
##ops
Merc
gaten
Boston
flytende
fremført
Skandinavia
##organisasjonen
kommunistiske
##ema
1865
Burg
munn
##attedyr
##ario
Lami
NATO
vå
##iers
##fal
rit
vidt
Power
brødre
reddet
utbredelse
##achus
##neren
kavaler
##jest
oppbe
Mike
prøyss
##boken
hage
Got
farens
avdelinger
fylkeskommun
Corpor
fiolin
hotell
skatte
bri
oksyg
misten
rommet
##jar
høv
frist
funksjoner
Holmen
kritisk
muligheter
preg
##ittiske
diverse
##handlingen
Larvik
revisjon
Att
##atering
innspilt
Kre
jule
viking
uansett
festivalen
##ellig
reda
Margaret
##ammen
##atia
fasc
andel
lørdag
Hagen
bryll
Science
Lav
Tun
deleg
romerne
Sher
##iblioteket
##lete
fru
Rett
sykkel
Vikt
Rasmus
presset
jernbanest
kab
Cass
Jazz
Lamiinae
##ensel
styremedlem
mole
##kandid
##ffet
1876
fjær
America
klassif
klokken
##athan
gifte
Academy
handlinger
##iki
tyrkiske
##irektoratet
##BA
##ransport
inntekt
nasjonalsosial
NFL
Vig
kvalifisering
##slig
Urugu
storm
Dj
##komst
##verte
poet
allmenn
##ibia
Forlag
fysiske
verdier
Amb
Spes
snakket
revolusjonen
##æk
forbindelser
##86
begravet
##nest
påbegynt
##forbindelse
##reen
##breen
Good
jobben
##iks
frek
nøyaktig
##itu
##orld
##skyl
oppover
guddom
Publish
##bal
skotsk
Gun
diagn
Vä
1864
krigsf
forsøkt
Kongsberg
gjennomføre
UK
PDF
aktuelle
bin
##ature
Sten
##festival
##alymp
##ourt
1861
behandlet
##feld
##bestem
3000
middels
fjellkj
paven
foretatt
Cross
##ée
##ESCO
manglende
##oct
fugl
brasil
teorien
##språklige
##anene
##skrevet
fortellinger
##ssted
Lincol
omstri
AF
kjære
Industri
Army
Afric
##stjeneste
Billboard
##oto
heng
tykk
fylt
Chile
Ble
Awards
Snorre
nedover
##ili
betydningsf
Madrid
utspring
Haugesund
92
##ject
dypt
##fred
149
##ulær
kontrovers
anklaget
##DA
1866
1867
flykte
fro
tenner
Napoleon
Ye
##uste
##fekturet
motsatt
stridsv
81
katoli
halvøya
##bur
##ilm
UNESCO
##ór
Valg
Oppland
Upp
gjer
Ein
##ittet
##ettøy
Blue
Up
angiv
beliggende
##aft
Monte
pedagog
Festival
individer
Ti
Books
##ransjen
derfra
kanoner
##esterett
##ín
##ugg
##venser
##ird
UE
105
nyheter
##rør
Tony
offens
##eser
##skriften
forsøker
Stillehavet
ekskl
##edom
Tang
uts
##smod
##vidt
Donald
Kj
##ibiske
##seth
##ylon
danse
stamme
anerkjente
foreldrene
##øpt
##kons
Anat
Feder
Filippinene
First
godkjen
##ykket
##midler
that
eventuelt
##cient
fare
##nummer
ettertid
##ulus
Selve
partiene
##kal
drap
stede
marinen
Bruce
Hotel
bryte
fredet
statsråd
Mong
ordnet
##likevel
elsker
offiserer
Championships
##dis
Troll
helik
navnene
bestemmer
invasjonen
##BS
Gord
harde
ektemann
##ksen
##oser
José
##avstem
erklært
##ivil
Stone
trinn
Flo
nark
situasjon
Milit
avlang
##umen
konstant
Stu
Wen
Egil
##ospital
kryss
møtes
tyder
Høgskolen
##ét
##ting
##oty
Mü
115
rival
beslektet
edderkopp
Order
helgen
reaksjon
menneskerett
##rete
Dol
brig
fengslet
##EC
skaffet
reformer
gjeldende
##sko
##ouri
parallell
spek
##sloven
apost
digit
##sselskap
Nin
Stephen
originalt
##kins
##førsel
Konstantinopel
Rub
Guds
spillerne
tilhenger
forfremmet
Sub
##spris
Ringer
familieg
tallrike
##andet
1873
dårlige
ja
sår
XII
vende
Guinea
deltar
Gott
Kenn
hovedkontor
høg
opera
skjell
oppgrader
##isi
lekene
bevarte
##kamer
skilte
telefon
Tob
ulov
myrdet
##ells
utry
Uruguay
fremfor
##olet
Nan
Sid
1840
genet
##skjer
##fabrikk
fremmet
permanent
skrives
##bygning
klubbens
##adi
##mig
dype
hval
slet
##evin
Will
skad
##stone
##messige
cover
analyse
Massachus
opprette
passerer
fjerdeplass
##sfar
Petersburg
Antonio
elite
lokaler
onkel
betong
Mir
Islands
Massachusetts
jordbruk
plater
##pol
integr
##raham
Ober
varia
##grav
##user
vedtak
lokomot
sterkere
motstander
osv
##endeplass
underviste
Horn
verv
akkurat
skytter
##alin
Svart
##smessig
Frankfurt
Frog
evne
Totalt
hoffet
australske
Guy
katastro
systemer
tilsammen
Way
Kau
##feldt
Juan
##rering
Gammar
sukker
för
elve
##historisk
bidratt
##strå
##ferdig
##sleder
Media
landskamper
Leip
Ofte
Who
##ottet
taler
1868
##berget
innebar
##ople
bisp
diktet
manuskript
musikalske
##anc
##melen
Mans
##idel
Leo
Ret
Sum
målt
kritisert
uttrykket
##løste
lens
English
samtidige
Sandefjord
##ax
Colom
gjeste
tidene
antyder
prot
utformet
etterfulgte
Hug
##paret
Hvert
##anlegget
##ree
##yle
##cker
løsl
German
##back
stig
Dronning
109
Adel
teoret
Niels
nyn
støtter
tas
##denes
1872
myst
Mort
Wang
bladet
platen
trag
befest
naturen
Techn
|
stått
Fisk
##talende
utgivelser
##vand
##ities
1863
strøk
miljøet
hovedrollene
lån
Glas
Mill
klarer
talent
utmerket
##verd
Alli
studert
politikken
frø
Sist
Luxem
straks
gjenvalg
Lincoln
opptak
positiv
kolleg
oppgitt
FK
Shanghai
dekke
disip
##pson
##burgh
heste
Corporation
Maked
driften
Mål
seter
##dert
##ksam
##ofon
Sarp
##redaktør
Kongelige
##itat
##lagg
beskrives
besøkende
serb
##dingen
autonom
forlaget
##bb
##lings
orienter
tilstrekkelig
avd
don
tjente
##stituttet
frivillig
Set
##museet
Arist
##enterte
Republikken
##és
Of
ov
##light
tilbrakte
forårsaket
##moen
konkurs
flukt
medisinsk
kvalifiseringen
fund
##bandet
##vinner
Bh
##ares
bir
måle
repar
rapport
Kraftverket
bekjem
overle
skogen
##ping
høyden
##ellemann
##asjen
##vering
Trans
bygningene
##gate
muslimske
##St
##och
##ners
turne
tvers
forbedret
Xi
##gard
##gere
##rell
byr
##egrupp
##skritt
erstatning
##ube
##rot
##orkester
engasjem
åpningen
##øyde
##itor
Book
berømt
søsken
østsiden
tegne
malerier
avsatt
himmel
forhånd
kvalifisert
##spillere
ufor
##samisk
##arch
utøv
##oca
Elekt
håret
##ebo
##ktøy
Peru
##itive
etasje
skuespilleren
tj
Bot
##eldig
golf
bidrar
##linje
UEFA
##sbanen
selskapets
##stin
##virker
musli
forbud
SP
ap
Marit
herre
Athlet
begynt
##ordning
forøvrig
pasienter
Tokyo
##umb
øl
##båter
Line
hund
automatisk
##jente
Våler
studiet
##stog
Barbar
Pot
enke
##bourne
##møre
ISO
Jonas
gn
ørken
organiserte
##yth
Dun
Has
bens
alfab
science
rase
kjøtt
omdøpt
presteg
vestsiden
Østlandet
beskrivelse
hovedperson
påg
##bukta
Jordan
##råder
Disc
##uperte
Museet
alminn
##høyde
Alta
møtt
skih
##sfjord
tunge
Kongens
Fug
##iring
kos
ekspl
enige
Nu
##http
klær
finansier
Nag
##urene
1874
Lange
skjeb
##bak
##shall
##akse
spreng
undersø
IT
Adri
fattige
sveitsiske
Boe
Jah
spiss
Howard
greide
Carolina
temperaturen
##grunnen
lisens
DDR
herrer
mulige
omhandler
Student
##ief
Brig
##snavnet
##etting
forenk
jurist
mottak
nærliggende
##gede
web
hannene
##ritt
Cec
forholdene
##uma
dies
nære
##result
Arts
unders
bakter
tradisjoner
##hagen
VIII
##isjoner
Produksjon
Wol
sjeldne
varierende
##øtter
Barn
cont
kirkens
alvorlige
##ikan
##lagene
igang
##fronten
oppfølger
Benj
Jacobsen
##fast
##jenst
tide
foredrag
etterkommere
avgrens
Foreningen
synd
Vestre
vakre
##snes
##stedt
Potter
##periode
tanker
##ruten
Ohio
Drag
##ennene
##vadron
Gjøvik
##alth
##åring
konkluder
##bul
##ansas
Dublin
##kore
Ibsen
##ied
##sorg
Bog
1862
Dire
tillit
##olje
Mjø
Giov
cent
tørr
intens
kobber
##digheten
1830
villa
nordmenn
forsvare
kommando
konkurrerte
Ske
##seier
Europas
fremmed
visepresident
##elius
##amfunn
##ertall
umulig
Abraham
tillatt
##oro
..
...
Cli
##ulere
Human
bunnen
##tz
Costa
##ological
beskjed
Arkitekt
karibiske
samlingen
spise
Ludwig
utpekt
utarbeidet
administrerende
##årig
Pers
##skirken
hester
##enden
##minne
##skilde
Tol
fine
##sin
Medlem
opphørte
beskyttet
##dle
##kommende
grunner
##aki
##ovo
##hage
håp
dyrket
##setningen
Fag
Vinc
nevø
##kommanderende
Lam
Oversiden
provinsene
Lof
##azine
##havns
jager
##sarbeid
regelm
##repsd
bjør
fars
##olution
komité
##inist
butikk
styrken
flyplassen
Mr
##eger
##verne
årsj
kommandør
geografiske
##arts
Fant
geomet
##iness
Sarpsborg
Yor
Topp
skandinav
##yang
Blad
Pennsyl
##gass
##rine
liter
beskrive
hjemmebane
##con
##beck
plast
konstitusjon
##ksp
es
referer
motsatte
medisinske
sammenhengende
##ods
##omp
Ts
jr
likt
Hamil
guden
Gerhard
herunder
127
sluttspillet
Lü
Lamb
##ateriale
krefter
kontrollen
Out
Rel
plu
ranger
identitet
Ama
Wel
##kjempet
blomst
Leipzig
årsaker
Roll
Motor
samisk
sportsutøvere
##annes
##stadt
ledes
Philipp
stråling
Encyclopedia
blokk
malte
såret
Prisen
belgiske
etterlot
##alia
##oria
##røret
sympt
##ronningen
##elighet
##medaljen
foreningen
kallen
omtale
Publisert
handlingen
statsborger
offisiell
eiendommen
##asj
##mans
omg
broen
ruten
forvaltning
##öh
LP
104
omgiv
utgaver
Vester
Stadium
oppnådd
personen
Eksempler
frivillige
evak
minnes
##antikvar
vurdert
Bulgaria
idé
søy
##brede
trans
navngitt
##LA
##rets
din
##ensus
Jam
Operasjon
##rekke
Online
past
overt
Empire
Syl
null
Queen
##innende
##settelse
juridisk
Rune
Dansk
bønder
Forfatter
tårnet
prinsesse
Befolkningen
Nidar
absol
##agne
##ffen
Stadion
eksport
separat
tilskuere
##stilte
henger
barndom
##itiv
##lines
##ligaen
traff
Svenska
konflikten
Pass
Hjem
Nikola
BM
digital
inngått
fremover
turnering
##irat
firk
objekt
Utvik
145
##indret
østerriksk
Ton
Qing
##ettene
jorda
##vendige
Sebast
kors
Norweg
##insen
Kath
Forsvarets
historikere
parlamentar
konstruksjon
##sex
##uda
Tir
frag
##ulerte
Halden
fortellingen
teknikk
Bat
##handlet
lanserte
fiendt
liggende
“
##mad
reklame
utro
Særlig
Kristus
motoren
generasjon
Aas
##æringen
oppfattet
##snivå
protester
virkeligheten
##åne
hø
##df
Bened
##itsj
Cur
kveld
##kontoret
ins
opps
##bruker
Chang
jødene
virksom
Miller
Sosial
panser
##ordfører
montert
testamen
sogn
Konge
Morgen
kvelden
tegneserie
##illi
eter
sittende
##vint
Bou
##arin
Vær
vegne
signal
uttalt
vingene
kontinent
##rock
##dager
##lokken
fabrikken
Ner
asp
drar
Sog
fir
utnevnte
350
1859
##stab
##risme
refererer
##ido
##kyl
##ørene
fjern
##ages
##alla
Tab
turné
hender
mørkere
vanskelige
Cham
plat
generelle
fa
partner
##day
##rust
##ktige
nevnte
##espill
Grieg
Satur
vokst
trekant
##utdanning
Benjamin
forlenget
Glob
##ssystem
nordsiden
##ET
##burn
Axel
blader
##espillet
##olusjonen
Rosenborg
Nick
forbli
Him
stoppe
operasjon
Pennsylvania
lavt
Princ
PC
etniske
Jup
##akespe
løsning
Delt
Salv
##hallen
ventet
hendelsen
kommersielle
##dels
##orum
forståelse
##buss
Mye
styres
prester
tildeles
##veit
idet
kriger
##IL
##ested
nede
Michel
tredjed
##best
Found
dukker
statlig
portrett
sikkert
##api
##udi
##boka
veil
Castle
skjedd
##eremonien
gjenstand
israelske
veter
##givning
##wen
##aios
##akte
adop
svømmer
tekstil
klubbene
Pop
1869
dato
forsik
havnen
rulle
Serbia
innsjøer
stillinger
##utsche
færøy
##ertugen
##ringene
overta
##eo
IP
##klass
Gard
##edel
sære
##hor
Gaz
kok
germ
Malmö
operasjoner
instrumenter
Amp
Pel
gymnas
forstand
Color
##fjellene
regioner
Fern
##kammer
Fylket
utsikt
konkurranser
##ullet
camp
Patrick
handlet
budsj
Keiser
##aard
für
was
Shar
døtre
Haakon
forhindre
nestleder
eiendommer
##genting
avskjed
##log
Hoff
line
DC
væp
Shakespe
Jun
ungdomsskole
##stor
Cir
Pav
fon
Høne
Stab
bryter
mektig
vev
krimin
##skapasitet
Etterhvert
##dende
##sgiver
bevar
nytte
sverd
Halvor
Stanley
erstatte
##hast
##ffekter
sideelv
eksperiment
borgermester
##mak
##øpet
Run
Minnes
Deutsch
jul
##iatri
ligge
Mester
stykker
punktert
##gs
Armen
nivået
##ollene
graden
vellykket
Á
luther
vinterleker
##iri
Pont
invest
daglige
infl
pseud
single
Hamilton
##lon
##osh
katedral
##behandling
##krigstiden
basketball
gullb
video
##striper
##olas
Falk
Leif
minim
##shem
Ges
Vlad
Rudolf
verken
##amesterskapet
##head
##iget
Prest
Narvik
Frances
størrelsen
##bror
vara
beholde
afrikanske
##cal
1815
slår
##ingets
våre
##skyting
blanke
endres
dynasti
koal
Women
plant
stemte
Stockholms
##IF
byrå
klin
##ingham
##bell
aff
##alleri
##fa
##strup
##smedal
låten
traktaten
utgav
voksen
nordisk
Romerriket
pp
vernet
stykket
##bygger
avstem
metalli
restaurer
Spellemann
kjører
kontinuer
##ums
DNA
##ruter
##usk
Aqu
bue
##osser
##kongen
##forsvaret
Plat
##aterte
Program
forsvars
Alb
overl
ivaret
utgivelse
sex
##egnelsen
Københavns
##saker
Guard
##ingeniør
spenning
##orax
Vanlig
Edu
##olitt
##bers
besøker
motorer
##sych
Våg
hvile
nabol
bosetning
##forsamlingen
##biler
derav
forventet
spesialiserte
##ox
##ration
Seoul
observert
##fys
##sha
##uncil
besø
sving
IAAF
regjerings
##start
anim
pupp
##ikerer
Field
rumen
partil
brukere
McCartney
##EN
##bent
##jekt
Jiang
dramat
##anus
Comm
navne
øvelser
Stur
tørre
parker
hvorfor
avhandling
anledninger
148
sim
Giovanni
##smus
Gregor
Palest
allianse
fakultet
virkelige
##eper
omstridt
Luxembourg
##smark
##uster
miss
Stjør
butikker
##rier
Sat
Sang
Makedonia
allikevel
##stekn
134
elevene
satelli
##oa
##ating
fangst
Ancient
forstyr
##uz
##sbyen
Bakk
118
Jen
##arina
styreleder
##ross
benev
##arkitekt
generalsekretær
##pset
##politikk
volleyball
agent
Valley
rundet
arrangerte
Canad
beina
følte
fungere
trekker
objekter
##status
skjøt
##vesenet
meksik
OS
##othe
Spring
##napp
viet
intelle
betegner
##botn
1857
Historien
hjemmeside
##kul
##ody
##sels
Bac
leverte
Ran
Louise
Jupiter
##skjold
fremtredende
kristendommen
Hvor
blan
##offiser
divisjonen
Utt
##nader
hekk
rene
særskilt
##ais
##smo
fint
spar
innspillingen
Nyg
##teret
Larven
Anthony
reflekter
##rapp
magasinet
##ali
løst
Niger
Fransk
komponert
programvare
opplysninger
Inde
##cou
##regel
##iserende
##osf
##agere
Voss
lister
sendes
kapital
##anset
ramme
sammenhenger
Sö
Abd
##illene
fugle
offer
Sicilia
##avis
rede
Office
Anderson
demonstrasjon
DN
Cer
##listen
positive
hemmelige
annonserte
utdød
oksygen
##aet
Tj
##orme
From
ressurser
Arsen
Disney
undervis
kringkast
##bun
gjeninn
teorier
##ily
113
løv
1854
flyv
kjøl
Følgende
fortelling
##ebb
feiret
##stått
1837
dverg
innenriks
##rakk
Warsz
firma
gods
plynd
avdelingen
##rary
##andel
##redet
Nich
medier
øynene
posisjonen
##bout
hed
##atoren
føderale
påvirkning
##skyt
##grensen
signert
referanse
##EA
##sku
Olaf
##nadene
utløp
Resultatet
prøyssiske
territorium
historiker
Cape
##ortert
overfl
kommunale
portugisiske
Ric
rut
Wright
oppdager
##td
##esn
##itets
Alger
Asb
##arene
##stero
sten
slutte
undersiden
##ogle
net
sov
Stol
verdenscup
universiteter
119
døgn
##språket
gullmedaljer
##æd
##ulte
Tam
Fair
primær
element
Bent
tendens
istedenfor
inskripsjon
##jerte
Ellers
Malays
antikken
overgangen
Eva
Kab
Ull
botan
##raden
Alaska
Luther
103
Edin
##lesvig
fangen
Kroatia
##rod
gjem
iran
innst
Litauen
fortalt
##konkurranse
His
##ikert
Iver
Stør
Tidende
##vem
FF
besitt
oppvar
Kloster
Melbourne
Fab
forest
##osen
Hop
##gjøre
Kongo
popularitet
##ki
François
historikeren
##smed
##gener
Johnny
minutt
au
Sor
skarp
##temp
##ianus
Beck
konkl
aksjon
meters
ekteskapet
Kristiansund
Blå
##bolig
##aksjoner
1855
##arctic
normann
##smiljø
Barne
menneskene
spørsmålet
##lipp
##datter
dimensjon
##oger
135
ødela
bensin
selvstendighet
##bom
pasi
Claud
bevare
bemerket
##verdi
FIFA
ukra
Gabriel
pul
##tting
troll
##OR
lagde
overn
mennesket
##ubert
sank
Napoli
beveger
Dres
Amund
betegnet
Regjeringen
##gy
##ittil
Berl
karbon
kulturen
produseres
##saken
Game
##entrum
Hunnen
Sophie
jevnbrede
##uto
Jarl
vent
harmon
Council
utslipp
col
Kurt
Mess
søst
raskere
Gall
Stefan
Jacques
variere
##ego
snar
##inerne
oppvokst
##geb
Public
beh
Kampen
artikkelen
utstillinger
##lade
flam
##onene
Produ
kreves
tiltre
vinneren
okkuperte
geografisk
1856
tungt
##kretsen
kvinnelig
Ug
##erty
knapt
Verket
samlinger
identifisert
##xt
intellekt
Apoll
##redning
borgere
##lima
referert
Bron
kalen
antenner
menneskelig
IB
Siste
##oldater
tilbød
Galli
okkupasjonen
##itus
Vog
1849
fødsel
boliger
komedie
Hva
kas
tone
##skilte
##skiner
Maxim
enorme
##reres
bruks
etasjer
Las
blues
filmat
gjester
Airlines
GWh
Nel
glem
kopier
hab
##mouth
##kjøring
Library
plateselskapet
Hud
##klasse
sørøstlige
introduserte
sosialdemokrat
##etz
##urte
færre
volum
tverrbånd
128
Inns
beting
hoppet
kongene
tilfred
##bank
107
But
Muham
bekym
juridiske
##sun
fla
bakkropp
engasjer
utbygging
dk
##oken
147
pluts
fiender
jordskj
anerkjennelse
måler
krepsd
liberale
angivelig
##VI
##role
117
Mang
Scot
bebo
sats
##ktoren
Latin
106
Jeff
Mach
##jeller
##skjoldet
##aris
ske
Ivan
##alisme
##ulasjon
##idet
infra
##erledes
kvartfinalen
Asp
lat
phil
##ordnet
oransje
Fas
Ler
##ischer
Point
##ference
motiver
‘
##jiang
Fritz
walis
Colombia
##utstillingen
##iph
historier
Eirik
utdan
##kandidat
forsamling
Aer
Chron
omfang
1851
Your
Vestlandet
forløper
sykdommer
##irit
seriem
foretok
effekten
materialer
##stede
##lisert
Langs
Landet
Michigan
Tsjekkia
tyr
##kreps
graver
gutter
##ifisering
hebraisk
kjøretøy
Myr
##brett
brent
Nidaros
##alympiske
Harrison
tilfellet
Dak
##gaven
Turner
Hongkong
keiserlige
engasjement
##boks
amatør
ordene
omgjort
Micros
flagget
Wy
uteksam
tropiske
atmosfæren
Ltd
Sea
Praha
ferge
korresp
generell
Transport
forretnings
##omi
##hetene
medie
##stedene
##rekningen
SK
##ands
Khan
enorm
##evs
Helt
flatt
##kningen
framfor
menneskelige
Beach
utnytter
##pi
##rense
anne
blokker
bevegelser
##seil
##vidde
celle
Melodi
Nærings
##brua
Donau
såvel
distribu
Pu
asi
fargen
fetter
avdekket
Fylkesvei
##delses
soldat
##cing
Steen
##agnet
##rasjonen
Material
arbeidere
##rant
##aceae
Jesu
##ingenes
##veksten
##bec
##ils
HMS
Rek
##sjekter
Milano
innflytelses
##ät
##kjøp
vilje
##imenter
##direktør
Ill
##ipper
massak
kommunes
##wall
Våren
Marcus
dyktig
jesuitt
Christensen
##hum
scen
ukjente
ungarske
portugisisk
søker
##speriode
dominert
tort
##alister
##befolkningen
nu
Ear
Kari
##folket
Sunde
##inneren
videosp
IK
With
##aktive
keram
tilbak
uavgjort
distribusjon
##avy
##bler
##arkivet
ekster
planene
Hes
Hannen
##avdeling
country
norrønt
døds
ansikt
Hønefoss
##kors
ras
Handel
svekket
bakkroppen
Sara
smak
emner
129
##skrev
##tolem
mong
##ulering
Hardanger
annerledes
##oman
poly
##shavn
brant
lam
mig
##allas
assosiert
##anias
##romer
##stykke
Inger
##umann
##lingene
verdien
kjemiske
Frankrikes
sammensatt
Köl
våt
anså
Eriksen
oppholdt
##mert
##ivind
rådet
Commun
##rute
##horn
seire
Division
maskiner
144
motta
hyppig
##annelsen
##uropeiske
##avdelingen
familiegruppen
##født
naturvitenskap
##rollen
jente
Østre
Ragnar
koordin
psykologi
iv
Ian
##brutt
##selen
Monro
krigens
##orps
##urus
##sfjell
foreløp
kontorer
middelsstore
##etti
##gori
Hermann
øyeblikk
avanserte
trommeslager
##IC
munningen
##jd
##iles
Navy
jenter
Arbeidet
ordens
snakke
regne
##uminium
sylind
ulykken
##institusjon
kronologisk
##ayer
Turn
brunlige
Microsoft
##agon
##eløp
##verker
tennis
Theodor
Edinburgh
##TS
##cle
kledt
overraskende
##skes
Kin
Wik
Utover
regimet
vedlikehold
##bjør
Major
Foruten
Ja
##etisk
##ragte
##jenesten
kjennes
rangert
folkeavstem
##hof
koll
fulle
Libanon
ettersp
Norwegian
ac
##klar
Leop
##staten
møtet
overd
propag
##alo
Aks
##hjelp
Bush
Adams
vestre
grevskapet
bachel
q
##ynte
Ett
medlemskap
##haugen
ruter
etappe
leiren
diplomat
##oble
flom
vestlig
##aco
##kin
##renes
Lyng
Walt
##linois
Etiop
glans
havner
operer
##wart
senket
Studies
sammenslåing
##work
Sot
1858
friluft
presten
##hug
##srett
betjen
baserte
##ndal
##vtrær
Kret
slave
selvbi
##munisjon
utendørs
Ringerike
landhockey
##uks
AC
ust
##arkiv
Frans
Indones
sogneprest
##DS
Gang
inde
fenom
magasin
Bernt
Tradisjon
betraktes
##fol
##vic
Noe
##lagget
befant
stilen
inntrykk
bladbiller
##flukt
fasettøy
##okko
Krog
Firen
busker
hjelper
Illinois
fortjenst
##okal
##phia
Arg
Graham
Helgeland
påfallende
##uble
##couver
tydelige
Karen
slalåm
verdif
##jenester
kommende
##faren
pyram
fiction
mannskap
##itim
døpt
sinn
Indian
##rane
##spektiv
farget
Arnold
Bridge
visste
transpor
motstandere
##itro
Yng
Lennon
resterende
##organisasjoner
invitert
##utgiv
imago
mørkt
Tidsskrift
##sete
Boy
1852
brut
århundret
##søy
##leton
flekk
##budt
##osse
146
##aktor
##assdrag
Søndre
##veksling
##any
##lay
126
##engde
ling
høyest
persiske
Dri
nådd
Normand
løvtrær
overlevende
##drift
Upps
spekt
##vang
##istol
##sbygg
Kyst
roten
monument
ektef
svake
dyb
utsm
tilgjengelige
Pic
dop
skjel
innholdet
ideen
ryt
dirigent
restaurert
##mpro
hydrogen
underholdning
##års
Clo
Led
Lig
spør
hjert
Vancouver
##AR
bade
Moore
taket
Moren
hjerne
betrakt
matemat
sykdommen
##ilj
##ølle
##rence
##ørsel
Trin
##ylland
poesi
Gordon
økning
tempelet
akseptert
Sah
forandret
svenskene
kongeriket
sper
fartøy
morgenen
##bille
##habil
Balk
Prin
kryp
legendar
næringsliv
Fru
##vendt
tilby
Torino
hjorte
uteksaminert
##emann
##staver
Uppsala
Magazine
indikerer
hendelsene
Hjel
brakte
årsaken
språkene
forhandlinger
##houg
beb
##sseremonien
Sistnevnte
opprettholde
Mør
##norsk
##stasjoner
forbinder
Publishing
prinsippet
##arne
##stjenesten
frik
Light
uklart
personlighet
##vn
jus
Chry
Kart
arvet
period
##iev
##lich
Cav
Naz
Allen
tenkt
##si
Tak
Fall
stammen
forsvarte
div
eie
##herre
##murer
stim
##ikkerhet
kontinuerlig
##gow
##major
1842
gave
kode
##kaster
kjønns
velges
enklere
tyrkisk
dokumentert
nynorsk
konflikter
bysantinske
##witz
108
Charlie
episoden
##bey
##ents
visst
Bosnia
##sselskapet
familiens
##serv
##appar
##kehus
nei
borgerkrig
##uv
##endi
##kreis
##kshire
##sdatter
forveksles
undertegnet
1845
Boli
Centre
##pot
##iform
##svatnet
oppløsning
reformasjonen
##ible
Tsj
##assel
emig
##komité
##usa
Rab
rat
1820
Rams
dennes
prosesser
statistikk
##asa
Må
Pad
brannen
canadiske
##kking
dreier
##karriere
##sbygning
Håndball
framover
##engel
uken
ideer
Dum
femten
virkning
Internasjon
##craft
Tryg
forbru
opphevet
forklaring
nordvestlige
##hein
rovdyr
mellomtiden
##demar
##ization
samlede
oversetter
##onto
##stres
kolli
kompleks
nordligste
Bonn
##ialekene
ingenting
musikalsk
stiftelsen
##hjør
##skere
Heim
Whit
stry
musik
hanner
aksepterte
##edien
mord
stortingsrep
##ather
Bundes
rytter
##turneringen
##ogue
1853
Tett
dial
biografi
Ytter
turister
kommersiell
##39
tjue
Menne
##perioden
løslatt
distrikter
konsekvens
orientering
Riksantikvar
nødvendigvis
Sche
##estra
Miljø
Sudan
elektronisk
Sev
artium
avvist
narkot
hovedrolle
##væp
argent
##senteret
Firenze
regulert
Foundation
originaltittel
##mont
Alice
Alpene
misfor
IN
##enta
##sfri
Cop
##iteruss
Ptolem
admiral
personell
hovedtrener
prestegjeld
##erto
koret
Gyldendal
brygger
politim
##forsamling
Lady
Skole
leser
##agan
##isser
##slige
Hugo
hente
reder
trenings
Stiftelsen
politikere
Spen
innom
symboli
velstående
##teres
Nort
nøkkel
ytterst
negative
Alexandria
Senterpartiet
karakteristiske
Conc
kjøpmann
australsk
mete
skall
##hampton
mennene
ødelegge
seri
Tommy
peker
##GA
gult
kjemi
Deutsche
Marx
lukket
palest
Atlanta
Teksten
sørsiden
##arlamentet
Fac
bølge
endel
skuespillere
Pin
##ellow
Marian
tjener
kildene
skilles
116
nes
vitne
korrekt
Log
Hens
##ansene
##ansvar
Dagen
Elven
blått
lærere
Bernard
##ík
##aas
##ript
sab
Data
Sloven
synger
##lar
##svik
5000
Herbert
Eidsvoll
Wu
##ades
Year
opererer
forsterket
##eball
homof
lages
ekspert
antikkens
##ller
Løv
##velop
##sporet
skala
Frogner
ulovlig
forurens
arkitekten
##ár
we
124
Teg
østre
##søkonom
Philadel
##ikon
Row
Birk
##eloven
krets
iverks
kostet
Charlotte
utbruddet
testamente
Hentet
Queens
jevnlig
sammenf
variert
storting
svømme
angriper
okkupert
Ui
##overn
##planter
##baner
beskyl
tilbaket
kunngjorde
##PS
##asia
Num
Vold
grønt
##anny
McG
##sperson
tiende
##ietnames
avsnitt
forklare
tilnavnet
skiskyting
kontinentet
slett
luftfart
turneringer
##yan
inngang
troppene
##cept
##eles
Boeing
Schles
studioalbum
Svend
klipp
usikkert
##bad
##artene
##rieren
Storbritannias
##shøy
##sløs
Bug
Harstad
Standard
##anth
poli
renn
dødsf
skjær
økonomien
Dyl
Let
Dick
Poly
billedkunst
selvstendige
136
##engden
Svarte
blind
databasen
Asialekene
##sher
Vard
mere
heder
##phal
##analy
##ustad
##drevet
canadisk
landsbyer
##ips
##kir
Kypros
##holdes
##ørsmål
Carlos
Sesongen
oppfordret
##ned
##hoff
grep
dynam
lagets
nettsted
Kung
Flyet
Målet
##ografien
bøndene
fylkest
stemmerett
##bri
##uet
Ful
Mari
kupp
Lunde
flyktninger
##iko
##otor
pet
##round
isen
##rekker
Malaysia
festival
Cerambycinae
##sbane
Tipp
Hawai
Marine
Kennedy
tretten
pattedyr
##itære
Arena
tvilling
##ione
hittil
##rap
##øring
Wild
Reser
månen
voksende
##sma
Diam
##ibelen
kontrollerte
##bilde
vokse
##lus
138
Hero
vilkår
##produsent
parallelt
Mob
invaderte
Dia
Start
Vålerenga
forskjeller
114
fylker
lederne
reduserte
kommunestyret
##bat
Fyr
Vind
scener
statene
nordøstlige
franskmennene
sommerfuglene
KrF
laborator
engasjerte
hjemlandet
##egraf
forp
Kevin
vakte
Western
Sebastian
##orenskriver
Warszawa
bestemme
1847
nyopp
svømming
sovjetisk
Philadelphia
##kun
##erob
Pow
##fossen
illeg
##løytnant
konsesjon
##elven
Vers
rekt
øyen
Dresden
metoden
##klo
##uka
pdf
action
faktum
forbedre
kompetanse
salme
##stjerne
Econom
vinkel
Minnesota
##innte
århundrer
##iidae
##vestad
Bonde
slutter
redaksjon
femteplass
##misk
##sord
##atsen
Opera
kronet
Theatre
Lillestrøm
kontrakten
gjennomsnittlig
kelt
skøyt
melodi
samler
Wergeland
inntekter
ferdigstilt
##IT
##kost
##raff
toll
##statene
tillot
stoffer
ledetråd
verksted
##aro
amp
pig
fase
Singap
Sparta
##neth
##keren
Kjer
korru
Ronald
Glasgow
MF
##ifest
Ytre
pred
maleri
Hab
util
vegg
##seksamen
##rh
Eth
prosti
synlige
samarbeide
jur
bodd
Yu
##står
##abler
kaste
##rikanske
barnebarn
##oriske
Kristin
##aj
rak
Bast
munt
##rakten
##splassen
##litteratur
kommandoen
regelmessig
Home
landbruk
##omme
Ple
Moham
liknende
medaljen
tabellen
##iot
##fant
Yang
##steins
Asche
Winter
##àn
##råde
##ttede
arist
foten
Middle
bokser
kommen
fremgang
eksistens
plasserte
##ija
##aver
län
ref
jury
##plater
##treden
baron
innrøm
datidens
##oney
##shuset
##itekter
##alleriet
Fjorden
##uls
##more
##thers
##iksjon
Fabri
paras
danser
Brussel
håndverk
overvint
Stig
kjever
Johnsen
##skinn
talt
gruve
hertugen
Bom
Orch
##bebygg
Death
##sstasjon
kolonien
individuelt
ho
##stell
materialet
LO
##hatt
##sven
Bli
Back
Stats
Storm
akter
world
Aleksand
favoritt
##lip
##imir
##vileg
##tertav
storsl
Jin
Celt
matt
Kongsv
##itteratur
eksistert
utkjempet
##innspilling
##tall
##ragende
bredden
##üh
##lærer
koloni
##sforhold
senteret
tilfeldig
stasjonert
krøn
statens
muslimer
Røn
Klubb
##lignende
Arsenal
hunnene
verktøy
arrangementer
Jørg
Valen
lykkes
tim
top
##ading
Buck
Relig
tette
Forsvaret
##edd
##ssa
bøy
1838
##anisme
Svensk
tallets
Indonesia
Cæ
Helse
levet
laveste
tekstene
##ipro
die
Pict
##univers
Omkring
nedgang
studiene
##steinen
rekonstru
etterretning
Leonard
relativ
Vall
Sound
Stord
Munch
Taiwan
##posisjon
Slovakia
Skar
##ionens
embed
mektige
nøytral
##sliv
##tekst
Meyer
lojal
##atar
##kirk
##stro
hån
henrett
sivilis
komponisten
##bergen
##utstyr
statsk
mannskapet
beleiringen
##risitet
omsorg
Universit
Byr
##ksjef
Mest
Hydro
partis
grensene
plutselig
Scarabaeidae
offentliggjort
123
planla
Holland
avviste
begiven
fryktet
patriark
generasjoner
##tene
Evans
Asbjørn
bryllup
kommandant
##ssk
##illo
Köln
Child
kamer
Grimstad
metallisk
motstands
slav
tsar
##skysten
fortid
Unge
utbrudd
effektivt
IX
##engs
##imar
##velt
Rest
Geoff
Sever
passet
bassist
Australian
mastergrad
##etere
slank
Period
utbygd
figuren
Normandie
oldtidens
Clin
uttal
Forening
himmelen
##ores
gjø
Bren
Sibir
skulptur
demokrati
##ippi
Bond
Gustaf
avdøde
##mers
##ivene
kjørt
sne
Clark
Kenya
kalle
drapet
behovet
tropisk
avrundet
ekstremt
##opol
Vic
greve
Studio
avgang
inklus
risiko
Barbara
Gibralt
farvann
mes
ryd
Vill
leger
betalt
skjult
##splasser
Project
sykeple
troppen
utføres
Gest
Zhang
nordre
Spesielt
problemet
slektninger
##blå
##inga
##sand
##reise
Forum
jordens
##akademiet
##historiske
korps
Nelson
kompan
lysere
##ssp
arve
##artist
bataljon
Internett
##neb
##dorf
##ives
Tyr
Inst
Billy
angir
##sklubben
##owa
fortelle
plattform
##ML
##sbet
Low
Rav
non
##entes
mill
Tower
Verne
##aksjonen
autoritet
resultatene
##svir
Gon
1839
Innt
sert
Gården
sirkel
antikke
skvadron
hon
Grant
##ksjonene
##velopment
##hed
Gj
Ellen
løfte
##ktighet
alpint
fenomen
Hof
##orial
undert
##avei
mem
Janeiro
Lawrence
##vol
##menne
Brat
Viken
betalte
Aschehoug
##uin
Sax
##naden
Iron
##ognene
gudene
Henning
omtaler
regjeringstid
##øyte
##halvøya
strenge
hk
##entz
bab
What
##harmon
##iterte
Vatikan
progress
Cong
Google
indisk
potensial
##akken
spyd
utsen
Latvia
Venezuel
verdensrekord
##ipal
##ulpt
nrk
Modern
avstanden
##rått
jevnt
manglet
##strekning
dekorert
gullmedalje
dobbel
vassdrag
##ious
Laur
hale
MA
##roit
Hat
Ped
##ernes
samiske
plateselskap
Panamerikanske
##offis
Boys
stev
Derby
adgang
Armenia
betaling
biskopen
flyvåpen
fremtidige
##ilog
Cri
Boka
følelser
skyt
##ulykke
Apple
##bevegelse
skildrer
konkurrert
oppdatering
##oi
oblig
##savtale
Campbell
Stjørdal
tunnelen
presenterte
##jong
Møller
##gre
1844
Baker
sjangeren
kontrollere
sørvestlige
Acc
bol
##achim
molekyl
##rah
##sde
Aus
Ves
##marka
verds
Arabia
slippe
termin
mengden
450
leie
dater
##stykket
Etiopia
oppstått
planeten
rug
Deler
oblast
sosialt
139
key
Southern
##reb
IC
##skjær
##keberg
Report
##apo
##mit
##rish
Cry
væske
##iskoper
Record
meteor
Vingene
integrert
musikkvide
Kongsvinger
Ral
reisen
selges
Marokko
typiske
return
utvide
##run
fins
spenn
Trondhjems
finansiert
paret
roc
##stikk
enighet
Wag
##ilder
##ulgar
gunst
Steink
kravet
Kenneth
##spr
##ando
133
vogn
##genhet
kirkelige
##rådt
Globe
Mario
ytterste
framstilt
kjenneteg
kommunens
fellesskap
illustrasjon
##gain
Dion
Knudsen
steiner
stiller
Did
justis
##slutning
Antarctic
fødselsår
tilfredsst
avla
blank
halvøy
Branden
restaurant
##vedt
kub
utsk
utenlands
##eton
fli
nabo
##strakte
Avisen
adresse
Handlingen
definisjon
Kåre
isbre
Britannia
##okol
arena
temper
sorenskriver
Fj
##ware
Dog
Røy
##skipene
##ification
resolusjon
##atz
Free
Antiok
##ittee
bedriften
katedralen
komplisert
Hj
##edon
Din
##roget
Elver
Skåne
Slekt
kanaler
kretsen
kretser
##kov
##rennet
antar
Ingrid
Solberg
Inndelingen
##rød
Cab
Helle
erobre
kjøkken
vannkraft
regjeringens
##DE
ær
##domen
1846
Rena
back
lyri
##stolen
vedkommende
##kv
krom
Rolling
kjemisk
kategorien
##ög
##base
##finn
Rou
##artet
Isra
Seks
håpet
Madaga
storby
gårdene
påvirke
Ekte
utle
Byens
##hs
ult
##ibliotek
Historisk
Lj
Mig
##stadion
avbildet
kunstnerisk
##oz
##æn
Hi
his
Espen
vervet
##ève
##rethe
lyset
liberal
Pom
##house
Tanz
brem
krone
Matthe
astero
oppgaven
fangenskap
gjennomgår
forretningsmann
##spo
gæ
##pend
##ytter
Cole
##bredden
nivåer
forbryt
overlever
ammunisjon
forestillinger
##pani
##fluer
##motor
Verk
Volks
colle
egenskap
deltakelse
generalmajor
##amorf
##hausen
##vilget
##kurransen
Jama
Joachim
trebukk
`
Frode
evner
Pacific
negativ
depresjon
fremførte
arrangement
folkemusikk
kvalifiserings
Mam
sorte
mottar
Bernhard
radikale
nettstedet
##ahn
bær
##onder
Oliver
tolket
##ui
ABC
Curt
sporet
ekspans
omtalte
Broadway
Nordsjøen
##ekn
sje
Buen
Tibet
sørge
temaer
løytnant
provinser
oppmun
##administ
værende
##ches
137
Cow
Fager
dagene
##systemer
nødvendige
##revolusjonen
forsyninger
karakteristisk
##anka
Review
##ingsvalget
Ki
##ppel
fog
##splan
##elaget
##rådene
opprører
aluminium
##vas
AP
##plate
vink
##ningsm
synge
##personer
##önig
##teater
Sandvik
praktiske
funksjonen
##sang
Fun
Heart
åpner
utnytte
positivt
fremragende
£
rasjon
PS
Aug
##eling
##inden
##skning
Danske
larven
tortur
anvende
elektro
kunstig
verdensarv
##ssons
##ømmelse
kollap
foreløpig
##byr
Fed
Moz
Glom
Pitt
Pius
Brook
minnet
stasjoner
Maud
##alitet
##risten
##slinjer
videospill
kunstneriske
Conf
klat
folker
straffe
##onso
##uvern
1821
marx
##ctions
Cos
Raf
##kende
##plett
##key
##stol
bis
##owski
Bort
navig
medvirk
regulering
Ent
Pål
##lette
Bowl
brød
moderat
republikanske
##omon
bob
##unnskap
utvand
verkene
herreland
strategisk
##oka
Rac
##uston
dramatisk
kommisjon
##essel
onde
##styrke
Jimmy
forvandling
##IM
##éon
etc
##bunnen
Øyvind
kandidater
årsjubileum
##ists
##årige
Norman
landsm
sørkore
undersøke
Four
##mengden
Inform
Newton
People
smalere
tilsted
Distriktet
##sbo
##etiske
##sveien
bringe
hurtigløp
Card
dags
øvelsen
kommunal
Eks
##marken
Barry
Holstein
##issa
Vor
lun
sau
Isab
utvidelse
rapporterte
IM
Sad
##farge
##ights
NRKs
Final
Eil
##radio
foren
vinge
Öster
attent
farlig
Landkreis
sveitsisk
Gas
##egang
##riger
Bjarne
Detroit
Gudbrand
forfattet
AG
143
revid
##maktene
senator
jagerfly
kulturer
mangfold
oversiden
##rip
##adis
Lyd
##fallet
Cæsar
##atabase
verste
terning
sykehuset
##ici
##amisk
##elast
pels
Anker
huser
dramaf
manusforfatter
##RC
esk
Rica
nødt
eiere
##imentet
Toronto
digitale
Cons
Brist
Fordi
talte
##amentet
Mikael
Stuart
koalisjon
jf
sid
##celler
mynter
rundene
##skontrakt
beskytter
##pleks
Øver
##castle
##eta
##kos
AT
Fast
##kroppen
særdeles
palass
hjemmet
Singapore
gjenvalgt
forfatterskap
##ál
Trav
Conne
differ
Israels
bestand
inneholde
Ptolemaios
##ikum
##skov
Kristoffer
##hel
1843
##bekken
Edmund
Grande
kronprins
helikopter
Råd
svakt
##komiteen
syvende
drivstoff
##etty
Jay
Gaten
Kings
##smakten
Marius
folkes
##ssystemet
beslutning
kunstneren
##itime
##orisk
##ulkan
##farget
Hauge
grunne
sunget
##ordningen
påvirker
systematikken
Holt
konsp
global
Stewart
samsvar
Committee
idrettslag
##illy
Ost
røk
##ignok
Damp
hekt
hevn
Kelly
Fjellet
##eme
Zo
##enburg
Slesvig
forslaget
argumenter
Chi
hell
Daily
Sports
pu
Gor
Loc
car
NASA
krum
hypote
Bolivia
rehabil
Forbunds
##chan
##eman
##fried
##vensen
gårder
mandat
##sområder
varaordfører
Ide
##ledge
1841
likte
Airways
tilbudt
dronningen
##ssam
Bryn
Even
Ranger
antrop
dreper
alternative
##rong
Global
selger
Missouri
regjerende
##aph
Leb
##eløper
baner
skrekk
gjenspe
konkret
deltaker
annonsert
varianten
systematisk
##vege
blo
##aksen
Robin
endem
Reidar
Dale
Ordenen
Results
Russell
trussel
##gh
Wür
##iland
Cook
Kant
##letter
garnis
oppfatning
##sem
Dens
temp
##rørende
forkant
hjørnet
kritiker
løsninger
bronsemedaljer
##cen
##idig
Næ
##otten
synet
gjenerob
hertugdømmet
presidentvalget
##delte
ordfør
##prefekturet
AM
##ains
bomb
##gelser
##hengen
Blues
uoffis
##ialekter
##produkter
avskaffet
organismer
rettighetene
Mao
Gent
##sløper
Origin
Secret
inneha
autonome
##fting
Lyon
Vide
bundet
styrer
formelle
turbiner
gjentatte
Mé
Kate
Last
##herine
##lister
Rover
grovt
Census
##forskjell
aften
atferd
reglene
utslått
Innenfor
eksplosjon
Betegnelsen
##zona
Chen
Link
fett
##gruppa
Kansas
celler
Holmenk
snarere
Madagaskar
mit
##ogram
##basert
##distri
niende
handelen
kvinnene
teologiske
##afé
##bekk
##ries
##beina
kreve
##su
##opot
##rick
Spits
##anuel
That
Islam
##ED
Wi
ton
##ining
Dark
oppnev
forsøke
##idi
Mall
Pseud
antak
Region
##anuensis
forkast
Mongolia
arrangerer
1836
forvir
tilhold
retninger
arbeidsgiver
Styr
torped
konserv
Fremskritt
##mis
##lisk
Lex
Vang
tynn
tenke
Parken
fyrste
hårete
patron
##språklig
Studios
menigheten
##OM
##oga
##slov
Proc
bevege
##utvalget
fundament
erobringen
##ety
hier
plikt
##utviklet
Personene
inklusive
posisjoner
BC
Fren
Golf
Walk
have
##sakadem
Depart
mobilt
aggress
betydde
utforming
Fen
##skalk
##shoved
absor
grensa
oppfinn
elektrom
Eide
kopi
jomfru
install
Jonathan
innfødte
##skraftverk
lånt
pause
Anatolia
Prosjektet
##ohn
##barhet
halvk
raser
Chelse
Albania
##spolitikk
budsjett
bokstaver
biografisk
vegetasjon
flyene
rekrut
intellig
##ON
##erek
Viv
Erich
trium
Brensel
linjene
only
koden
oppgir
absolutt
##hre
Trygve
konstit
Böh
##alistene
##idd
##sbruk
Emma
Herc
mart
etnisk
##ippet
##berger
Tennes
palasset
##produksjonen
##eier
Eik
Cant
Dani
Symp
Røros
dannelsen
departement
angelsaksiske
kullkraftverk
vo
McK
Must
forval
isteden
statsministeren
##uez
##sråd
Drammens
belønnet
Š
##ksid
bulgar
latinsk
holdning
Ce
Abu
Mose
##riller
søraf
assister
separate
##kspedisjonen
skandinaviske
##lapp
##schaft
##kninger
kjernen
oppslag
rekorden
##still
grund
kirkegård
##haus
Imp
##onert
König
##ropolit
Horten
Persia
skriftlige
##kob
##sju
##øter
##staven
Abbey
Stang
##ttingen
Silver
##pte
##rice
##ysse
Hit
##hodet
1808
##hunder
##regiss
Eriks
stikk
urter
påvist
prefekt
utløpet
Augustus
hvorvidt
finansminister
##ße
Moe
##ikten
##rough
Hilde
Harris
Müller
avslørt
åpenbart
##pur
McD
list
##veland
##ainment
kilden
Country
Vincent
singler
Historia
fotballklubb
Dow
kår
##imert
Aven
Leir
Race
hyper
pilot
filmet
##gart
Seg
rec
##vente
hytte
vesen
history
##hastighet
slektene
##ilo
Nac
Down
Rick
##ismens
gramm
##melding
definerer
flaggbærer
revolusjonære
101
##tyske
##bilder
inngå
krepsdyr
##preget
Space
freden
Provinsen
akademiske
Roc
amf
evig
rekr
Malta
Place
server
Guardian
naturgass
etterkommer
protestantiske
ishockeyspiller
utp
##basis
##shand
Ming
Front
blankt
fjorten
forstør
bortimot
fremstilt
##fiske
1818
##urnering
Century
styrket
Colorado
betydningsfulle
##atem
Alp
Gau
maur
spøk
##ganger
spion
parentes
1832
Shah
Morgan
vitner
Internet
kontrast
konsernet
filosofiske
klassifisert
##send
Pur
##skikk
bedt
oppstå
Indi
polar
oppgjør
##jeselskap
korrupsjon
##ced
##melsen
Spareb
ballen
##valtning
anslått
germanske
grunnloven
##dad
##hau
1812
Amal
Berk
Hawaii
Britisk
##shistorie
Dallas
bladene
##mars
Hir
Sak
rykte
Robinson
##leir
Isa
Vad
huden
Digital
demonstr
radikalt
langvarig
oppdraget
forestillingen
Lær
pileg
rapportert
##brev
##dele
pga
Head
Steinkjer
Technology
Spitsbergen
kontrollert
fac
##stens
Lisa
dekar
snitt
Englands
rekkefølge
##eda
Haf
Democ
##bibelen
Leopold
##skomiteen
Six
Sverd
geist
innov
listet
pressen
reserve
bakgrunnen
##bs
##ektor
Mind
rockeb
bildene
##problemer
tilstede
besetning
tegl
spanj
Romanen
pengene
bombefly
frekvens
##lu
##osc
##apest
Story
##vinning
Valent
Mississ
rundede
Installert
intet
adelen
kriter
levere
utstilt
gjengitt
sjeldent
##idad
##stykker
enheten
barneskole
dru
ond
Paret
Electric
grunnleggerne
##eley
mac
Dist
##varende
Newcastle
sterkeste
Mek
you
##banken
Cecil
vente
innsatt
biblioteket
kallenavnet
##cho
##limt
møn
sopp
Theater
UNESCOs
styrmann
##biblioteket
##bakke
1810
##kilden
rapporter
sesongene
CS
Bran
ifra
tils
efter
fjellom
prestis
Venezuela
beskrivelser
##TC
##urin
kilo
hjernen
Oct
##kreft
monum
Rikard
foster
Ekeberg
disiplin
islandske
Dü
Ting
##historien
##programmet
##atn
##lett
##annel
##ellere
Forest
grener
stopper
##boa
##mass
Rey
markerer
##adal
Ont
Ferg
List
Poul
turen
Prince
ekspansjon
Guide
begrunn
stadiet
Hospital
forlater
Brandenburg
##egr
##bajd
##fsen
Hold
##ivaler
guder
spart
Porsgrunn
konseptet
##frem
##rass
Rap
1833
Dave
punk
rust
strø
Dylan
inntok
kongedømme
Torg
Diego
##serbajd
brenne
Chelsea
sjetteplass
##ος
ib
##smenn
##ønner
##ittisk
##svalget
##reisende
##esenteret
Levanger
fordeler
gruppespillet
uv
våp
anat
##jerner
Leder
flyter
opererte
Folkeparti
Ska
løy
##arker
Medie
farao
tibet
skjebne
Thompson
organist
psykiatri
##yndighetene
kristendom
##miljøet
Cooper
kamera
##serbajdsj
Northern
kritiserte
Ove
##følgen
Gunder
Cel
Arizona
GIS
tau
##utert
Bret
trygg
gasskraftverk
##mek
Sto
##agelse
tapet
##verkene
frakte
oversv
Raymond
annekter
grunnleggeren
##ém
##onte
råt
fornyet
##peraturen
barnehage
Stortingets
ris
arving
gullbasser
##litz
gater
betegnes
Ot
Lofoten
musling
Franklin
Petersen
fremtiden
bispedømmet
##ID
##ef
EF
##skede
Bolig
Balkan
utdelt
inngangen
zo
##inns
Nep
RAF
dos
Loren
Magne
forenklet
illustrat
oppdatert
innspillinger
Sha
verb
hunner
levetid
Dead
##skytter
Grammy
barokk
felttoget
kardinaler
##mpe
Fry
1807
##fangst
Civil
Theod
herjet
tidens
fienden
##vogn
##urbin
Genève
##atningen
ungarsk
Tennessee
Kob
pigg
##roleum
misjonær
ordinære
Studenter
##ålen
##nenes
##vegen
Krit
##asiteten
kolonier
firkantet
rollefigur
demokratisk
virksomheter
×
Leeds
Psych
Finans
selskapene
1835
Rapp
##irekte
##mingham
Manuel
hjertet
kunsten
opprykk
utnyttet
befolknings
Ege
Cart
##ulture
##atorisk
baseball
Command
Spiller
innføre
Sørensen
tillater
##utdannelse
Frederick
##forestilling
##ranter
##amester
##landing
Finlands
statsvitenskap
##bei
##ites
Død
Fland
Griff
lagring
##US
SF
Get
maleren
strømmen
tilflukt
##tertainment
##sja
##sve
##octor
Grev
Hunt
skand
tilrett
Rasmussen
##departement
##ofer
Bev
##oniske
bestå
Haugen
Countys
oversatte
Høyesterett
Dev
Rig
##streme
##ymnast
lovet
Klasse
##ommet
1816
Buff
Astrid
touren
belgisk
psykisk
Mul
Gand
Natt
øyet
Neste
Institut
fremmede
understre
observasjoner
administrativt
forhandlingene
##osoph
##sstud
1809
Strat
falle
fjellt
margin
defineres
utbyggingen
##mur
Murray
arrangør
dialekter
flertallet
utstillingen
Au
##ågen
Canter
Bristol
ødelegg
##gru
##ffel
NSB
Sri
##curit
Nova
##stallet
Berger
skolene
militæret
diplomatiske
Eug
matri
fredag
passerte
etterfølgende
##hren
Arild
Venus
##assende
Network
stipend
Amundsen
Ingeborg
kritikere
partikler
More
##veggen
##minster
Hessen
sønnene
storslalåm
##klart
midtre
sangeren
Materials
forelsket
Birmingham
respektive
##juk
Telen
##mission
##fabrikken
katolikker
Ulf
##neset
leste
Brothers
Wolfgang
skuespillerinne
##lé
##sor
Ted
Abel
##ssiden
lunge
graven
##gruppene
##forsy
Ryan
pluss
Hudson
Chrysom
##sbygningen
fengselet
Østersjøen
Tig
##rimin
lyder
temmelig
renessanse
hemmelighet
##ogy
220
touch
Special
lengden
pasient
selvstyre
##gl
##ates
##nskap
1813
news
Bladene
dedikert
situasjoner
##add
##bye
PR
##ikale
Imper
hunde
lyden
husene
Diamond
alliert
Formålet
vas
##inett
##skade
utlend
Moderne
frigjøring
##tegn
Ess
This
##ocaust
Business
##OC
Rut
beund
godkjente
nordsamisk
##rez
##anga
Rus
konsulent
høydepunkt
##øe
##anz
ped
tag
Gene
##rettede
UC
XX
Lem
##ariat
##ogene
hall
##punkter
Monroe
hesten
tanken
isolert
jordskjelv
##éd
Sz
alter
krang
360
##quist
##visst
3166
Sier
play
##ømmene
##advokat
Elverum
energien
##sprosessen
deltakerne
byprefekturet
##mt
Aber
koblet
uttales
gjenkjen
komplekse
aristokrat
alb
hat
unns
##listene
##overnment
domkirke
terningkast
karakterisert
##aman
tref
Skjer
Japans
alderen
middelhav
sammenhengen
##sfil
Grü
##iologi
##sidige
Bakvingen
konkluderte
##icks
hann
##ensial
##iklene
Movie
Listen
faktorer
kortvarig
suksessen
##phy
Nür
kid
tun
##ekene
tryg
##likket
Baden
Jason
Trygg
skåret
stedene
skyldtes
##kh
Sym
Greek
##kanalen
Friidrett
landområder
Pent
ansk
hørt
Libya
forelig
Hert
Rain
##vervet
bakke
sikte
varmt
statssekretær
Kyr
Sau
Sarah
Valle
hindu
Ninten
Department
Utviklingen
Fot
1831
Wisc
##baserte
##isteret
fronten
forklarer
##amt
RS
##amas
Dov
##uthor
Hipp
##støtte
##stoffer
Georges
mislyktes
biologiske
videreført
industrielle
##journ
Call
Organ
dominerte
spir
Elite
lanser
skifte
datamaskiner
Jr
##etil
Cet
Vanligvis
##EF
##hm
##bit
AN
Llo
##båten
kunder
gjenfor
Ay
102
CIA
Tjø
bag
Pros
Wiscons
##gis
##wal
Jess
##agement
##ordnede
Dakota
pannen
statue
ambassade
fokuserer
##iu
##uke
##ansler
Court
toget
##rekning
kirkene
feilaktig
tilnærmet
korrespond
##elem
Mum
##zburg
smalt
indust
skatter
Palestina
kvinneland
Claude
Steven
reisende
indirekte
##box
##opt
melk
term
report
sviger
##kulturen
demning
Sunnmøre
Chrysomel
industrien
##hardt
Flat
anse
##rinten
##samfunn
rektang
mislykket
Mississippi
##ype
HB
Sep
##iktig
##imbab
Christine
oppvarming
komponister
##eled
Omt
regional
Development
##anal
##lude
##smal
nym
##oment
##plant
1801
##righet
hvelv
antarkt
levevis
innføringen
avhandlingen
Ål
Nordic
ombygd
##amlingen
persisk
Forvingen
underjord
Nab
Selskap
Slovenia
relatert
kreditert
##enz
Grå
##kkelen
##mektig
##opptak
Eivind
høyder
Utenriks
Gibraltar
elektrisitet
##myn
Indiv
Grunnen
Tippelig
overlevd
privileg
Professor
etternavn
pasienten
bem
Brow
##rogram
Laura
sekret
##leksikon
kommunev
leilighet
retningen
bronsefinalen
ull
##edømmet
Paulus
busser
skihopp
skolens
gjennomgått
komposisjoner
##ey
##nberg
Test
impro
Werner
kronen
##årskrigen
litteraturen
##iy
RA
##book
##korps
nebb
Ralph
akust
Volume
ringer
smerte
måneden
rimelig
striper
gruppens
turnerte
trafikken
komponerte
##ás
Cha
Jag
##studier
##handelen
restene
Tittelen
Biography
Jere
Oklah
glede
##stammer
Birger
Nobelprisen
sosialistiske
tida
Hills
naken
Konrad
import
kirurg
##undervisning
##areal
##odset
1824
Battle
løftet
forvent
dårligere
##ieu
Dah
Vit
sjang
kreert
teolog
Orchestra
Gy
##edene
stum
Scene
##avtalen
anslag
rekker
forsikring
Kem
gli
Shan
article
skyting
##afe
appar
femti
unike
##elinjen
Kvinner
Årsaken
effekter
materiell
vestkysten
gravitasjon
##esh
oval
Helena
skoleg
##smessige
Kanalen
avbrutt
kjeller
##lyn
##øtte
##agraf
støv
##feksjon
knytter
stikker
sørligste
##næs
##vatn
gig
sog
##fullt
Girl
Homer
tønne
##itering
##feransen
innover
styrtet
dramatiske
##igi
Eag
Nat
lagd
trav
Lloyd
March
##seid
1829
bratte
tidenes
Jørgensen
erfaringer
Shakespeare
førsteplass
Entertainment
##heimen
antis
kjenne
trives
Montene
utstrakt
##mesterskap
underveis
##servatoriet
konsekvenser
##annon
##mengde
##raktaten
partene
##sperioden
AR
soc
Ster
utlå
birolle
hverdag
prototy
keramikk
Wisconsin
interessen
registrerte
##FC
Age
Gary
Rank
Antall
plukket
arch
sikt
skrem
avfall
fargene
Statistisk
##rug
##fartøy
Bibli
Staff
føres
##anskrit
##porsjon
syntes
tyngde
Express
perspektiv
studentene
utstrekning
##oko
##althe
Krim
Tolk
faglig
regent
vender
Nigeria
pianist
Hannover
nedtegnet
Akt
Nest
##edskap
##kommer
ein
##ulært
Liter
dyret
infrastruktur
##gul
##veiss
Defen
herrelandslag
##ful
##arep
##kall
Emb
##geist
Siri
Stutt
##organer
Amazon
novelle
hendelse
##cos
Hei
Sek
##arius
##sverk
faktor
##anti
##omene
##stripe
##vogner
Claus
Dream
##flyttet
ulikt
##ennelse
Marshall
tiltrådte
1825
##feller
dybde
embets
gravid
befolket
fullføre
utvalgte
fylkeskommune
##kapp
cru
Bred
Norr
liga
mynt
##skader
likes
yards
##oppdrag
Canterbury
##icht
Cho
Kub
fyrst
##sformen
tyngre
Zü
1834
Beau
Zevs
afro
glad
##skiold
Budapest
Tanzania
islamske
NHL
hyd
1826
skif
avdel
##amenter
##styrker
pioner
##ikv
##oké
##verv
fødte
hellen
Railway
Steinar
biskoper
oppvekst
##dra
Spor
##urdere
Mitch
Westf
indik
##musiker
Nansen
Natural
stanset
biologisk
##bbe
##hua
##sum
##svalg
##somhet
legendariske
##lof
mix
##ognen
##union
Hunn
forstad
puppestad
riksvåpen
symptomer
opplysning
produsenter
##EL
##ärn
skift
anvendt
fiktive
oppgradert
behandlingen
Banen
imperiet
verdensbasis
##cts
##unds
cur
##vinge
sjøs
##setting
##distrikt
Algerie
Evangel
##samfunnet
uenighet
Halvorsen
antakelig
Gim
Via
Hvem
feste
Garden
omfatte
##eting
##ommun
biter
brigade
evolusjon
Lod
##itage
Conrad
banken
Airport
Eiendom
jernbanestasjon
##uge
Ene
heavy
identisk
kampanje
uttrykte
Sølv
##retninger
framført
pavelige
kjennetegn
luks
kritiske
##onna
##skud
Nams
låne
##unneler
stoffet
regjerte
utgangen
##olph
##spark
tempo
forfølg
metamorf
opplever
##sev
Derimot
larvestad
##imo
sektor
Collins
tilstedevær
##jof
##kval
Tap
Haag
Moon
Shet
glas
##penger
utest
dommen
opphøy
musikkalbum
opptredener
##skal
##ykke
Houston
komplett
doktorgraden
##ña
##oles
##sbok
Fitz
fans
##skjerm
##sklubb
Vidar
striden
unionen
Scandinav
Rum
male
Adres
Herod
Tunis
gutten
##ynastiet
Italias
kravene
raskeste
erkebisped
datterselskap
innh
filipp
hekker
##ifiserte
forsøks
synonym
årrekke
riktignok
innvandring
##jere
##pter
750
Anto
avisa
tykke
utfører
tilrettel
vurdering
Mog
##sfelt
Julie
##kloster
Hughes
sittet
##ografier
artilleri
Liu
##været
1789
Care
radi
Kasakh
ligget
priori
avtaler
##leggingen
Byggingen
ordningen
bebyggelsen
##hamn
Bass
Fjer
Sort
##ockeyt
Herceg
stiger
Gilbert
Jamaica
senatet
bebyggelse
kategorier
##eli
##ået
##inet
##yton
out
Linn
furu
tegning
Sovjetunionens
##chs
##jin
##sman
lab
##stans
dekning
figurene
forsvinner
Nettbibelen
ID
Hest
##terende
Advent
besøke
husdyr
truffet
##visninger
mobiltele
planlegging
Lö
##polen
Moritz
Tettstedet
Cher
##formål
##sommer
Oklahoma
vassdraget
debutalbumet
##utz
SM
##uttes
Nytt
Hockey
foreles
present
grekerne
hebraiske
Dyr
##ovina
##lopper
Palace
##verdenen
Athletics
sammensetning
##ów
##gne
Uran
rosa
frisk
silke
Walker
##UF
##cio
sw
##iley
Bind
Hamp
##legges
##scorer
relev
Heller
Nissen
overleve
asiatiske
inspirerte
##opotam
protok
etterlig
##arg
Now
frå
Neil
Sann
Marin
innerst
nettsider
Agen
myster
Sørlandet
konkurrent
krigføring
Få
##ours
pale
##herred
Bille
reservo
delstatene
##fas
##kurs
Gab
Wei
Diet
Channel
Innsbru
sjanger
Vladimir
marsjerte
##cz
##iago
##iska
##stal
1828
Valget
valuta
##musikken
Westminster
Kul
Edgar
Løven
spons
##isserte
doktor
fantast
Geoffrey
kroppens
##arme
##steori
still
Nacional
##spen
dik
ikon
toppet
hverken
avslutning
##prem
Björ
##elsesp
femin
rasen
Rotten
##divisjon
hendene
representasjon
##bør
##eks
##yte
##orget
##stren
##verre
Piet
stemp
Sierra
Omtrent
teatret
##ferdighet
##versjonen
##politikken
nederlaget
##lam
Bapt
krise
øvelse
turisme
Anti
Fact
##skunst
handle
charter
bekjempe
forsvunnet
##ryd
Mis
##iphop
##stisk
##semble
Loven
Tiden
avgjøre
Schmid
belast
låtene
symboler
tolkning
alfabetet
##produsenten
håndballspiller
##ytt
##øtt
Frp
fiende
komite
framgang
skribent
strategi
Kristiansen
##data
##roen
##enges
##olske
treet
Andrea
liturg
fremtid
fristil
trykker
effektive
Chrysomelidae
DA
240
Ref
1806
1811
##onymet
anser
##egnelse
avisene
spredning
##pil
Pia
Put
##sfest
Nash
leds
morf
Våpen
##skampen
lagret
Caroline
utøvende
teknikker
##skart
nøye
Breiv
klokke
Britain
keyboard
Innsbruck
eik
fat
1819
Harold
reelle
##åfør
Kilde
##borough
Markus
marmor
minimum
foregående
prinsipper
konsentrert
sitteplasser
stridsvogner
##BI
##öld
##akene
Batt
Kitt
lærde
borgen
formell
skipsre
Katarina
teateret
Russlands
tju
Bend
Roth
##ansens
##berkul
frakt
heden
Inntil
Staten
Vannet
klimaet
redigert
innstiftet
##ize
##øys
##rose
Ida
bønn
ritu
øyas
##rester
Easter
Lambert
Mountain
familiene
planlagte
plasserer
holdeplass
Cu
IBM
Munt
oppsikt
redning
Fredriks
motstanden
standarden
Nederlandene
##gest
##drevne
glatt
nevne
Ragnhild
beleiret
##gt
##umet
baks
##avgift
sakte
Celtic
bemerk
syndrom
splittet
samarbeider
##afor
Dro
##ipend
Benn
smug
##caster
##repren
Jerry
bevæp
Flight
bestefar
Uttrykket
Conference
problemene
opprettholdt
Key
uregel
planten
rettferdig
##syre
Hær
mess
utfør
observat
##bebyggelse
mekaniske
stedsnavn
CA
dur
Hisp
Pink
##kkelig
Carter
Hviteruss
tjenesten
AD
Ré
##olsk
##abole
##ssels
##uerto
Here
##sikring
##bransjen
fastsatt
##kry
##øft
Cob
XVI
##ilene
Gror
eieren
BI
##ibal
1827
Bald
##festet
##istenes
Konger
patrul
##hør
BMW
Cou
See
åra
Brom
Lier
Them
##delene
runden
##tegnelser
##likasjoner
kulturell
matematisk
øyeblikket
##poeng
##raket
Bard
Stam
high
##edalen
bakhjør
plyndret
Universität
##sdepartementet
##aus
##akere
Beng
sykl
##imeter
Lokal
retter
##strømmen
Nintendo
koreanske
intellektuelle
##hord
Amt
Deb
Por
##okaler
Kamer
pastor
vinden
##bunn
##gens
ens
ost
Peng
##apolis
##grader
##fotball
datamaskin
forhindret
forskjellen
strategiske
##inda
pak
Æth
##ioksid
##opphold
spurte
Maurice
våpenet
publiser
has
spr
4000
ellev
hunden
kjøper
runder
oppmunt
stammene
lutherske
PA
##upet
Hod
Helm
##veissyk
Zimbab
adskilt
Westfalen
##stig
bun
mad
foreb
##inspekt
Ernest
bomull
##angrepet
##kilometer
Francesco
organisere
gjennomgikk
midlertidige
temperaturer
Rå
Das
Nør
bly
lek
sok
sus
måne
class
Panama
##alguvern
Flandern
koloniene
plasseres
originalen
230
##overt
Herak
Musik
##ualitet
French
reaksjoner
##bos
##ław
##viet
Neg
hul
##bygda
plak
takk
##fia
##rif
##usin
##øres
McL
hog
Prop
femt
bebodd
granitt
leverand
omdannet
##instrument
personene
bestilling
medarbeidere
##itas
São
##armen
##foner
Stri
støy
Camer
Holst
fritid
tretti
spesialist
##ledd
##iences
##ischen
##varige
Series
Halling
avgjort
antennene
elektromagnet
Fos
SPD
Tys
Crust
liker
##include
storhet
utdelingen
kirkegården
##war
##ypen
avb
grov
##høyden
Halle
koord
##feranse
tegner
Aristot
interne
Pettersen
tredjedel
forskningen
kraftverket
县
kW
Ferr
bratt
##smiddel
lektor
Iversen
satellitt
##bek
##nytt
Syk
pur
Melod
roing
søstre
Bakgrunnen
Sac
##selva
sunn
Lucas
fylte
Design
Resten
Apollon
Marianne
Varanger
Hensikten
brasiliansk
##bind
Lah
Try
##konge
##upert
Lagt
tyve
konst
formue
##sesongen
##overflaten
aud
##ograd
Chem
##engsel
Early
touchd
flytter
organisk
Tunnelen
hjembyen
Nationalthe
##BU
##HF
MG
paa
immun
litau
krysse
vingen
halvdelen
Tac
hug
Andy
sone
##etiden
##dingene
utdødd
kongress
nederste
##stjenester
referanser
statsborgerskap
##jetil
Oslos
Rhinen
Zürich
foreta
##folkning
arealet
##aktivitet
medfører
Louisiana
konkurrere
utdannings
##emen
lyn
kansel
nettet
kjæreste
proporsjon
spesialiserer
SI
##atoes
##lader
svov
Aires
Bygget
oppbevar
forvingen
undersøkt
##forskningen
partileder
##øen
##srud
sagn
bandy
prost
Buenos
Matthew
##abad
Heb
endt
evnen
forson
konson
skarpe
sønnes
##svarende
African
overbevist
##øvet
Klo
solid
Fergus
##kontrakt
Indiana
ligningen
##anto
##sses
Rost
Archae
Dionys
klaver
Valdres
væpnede
Valdemar
Stuttgart
rekkevidde
styreformann
Eu
Gw
Cort
rens
Hertug
egyptisk
hotellet
informer
behandles
fattigdom
##skuespiller
##atch
Lise
##atører
Eugen
analys
Rangers
embetet
leverer
søsteren
dokumentasjon
##mm
Kamb
Amand
visek
følges
Operatør
regiment
Margrethe
mellomrom
Bakkroppen
flyselskap
gårdbruker
##ireg
Ecu
ran
##esdal
##typer
freg
kona
æren
##havnen
hiphop
Nicolai
albumene
ettermid
romantisk
teoretisk
kroppsbygning
##iji
Båt
Alab
Cale
Korn
slov
trykt
##ologier
Doctor
vakker
Ontario
bystyre
forhand
##selskaper
Musikken
hovedfag
omsetning
sammenslåingen
##lic
##sinn
##stemt
##ygere
essay
##ubileet
Puerto
distin
sundet
Kunstner
##aps
ES
Hår
Ving
hero
##edning
Felix
seere
Mandal
Samling
territoriet
##ierte
Shaw
##endiat
Board
Family
avløst
kjølvannet
opprørerne
##instrumenter
arrangementet
##reau
##reft
##front
##pedag
Braun
abbed
anark
hevet
##analyse
##savisen
dyrene
Database
fengsels
stjernen
132
##sfart
##stads
Roose
##undersøk
ankomst
etappen
##dighetene
landeveissyk
##dea
##dor
##stegn
avslo
ivrig
medis
Parker
skroget
##esteretts
dødsfall
krigsskip
##aea
##ols
Má
SC
##inna
jøde
Domin
fylle
##markedet
hersket
stemmen
islandsk
##jakk
##klam
løpeb
##styrken
vurdere
anvendes
CP
Kid
Iowa
Titan
bølger
innstilt
konklusjon
distriktene
##iao
Oce
Zen
lete
Urban
##stanbul
folkegrupp
vanskeligheter
##okémon
##prosjekt
Clinton
##visningen
Churchill
Roosevelt
variasjon
bosetningen
spesialisert
##ović
##usia
ing
årt
Past
##fanter
fuktig
##material
##onerende
tallene
treffer
Scottish
rettssaken
oppdagelsen
##dong
1790
Kiel
Mira
##fabrik
markere
rikeste
Crustace
##ady
##jeg
##halv
##nets
Dat
Kiev
Loth
Species
vararep
barnebok
magnetiske
folkeavstemning
##umber
smelte
sprinten
modellene
##brid
Gog
1803
Blan
##orsdag
tobakk
ytelse
Engelsk
kraften
seksjon
skuldre
avhenger
112
Pod
SAS
akvar
myter
##spunkter
vietnames
##laug
##iesen
Pale
torv
skinn
sprang
snakkes
mangekamp
terrenget
utenlandsk
##ockeyturneringen
##EG
##ashi
##malt
Rug
Graf
foto
##hertug
##ringet
samles
Babylon
universet
forbindelsen
Kaz
vilt
Alive
##politisk
Adresse
rollene
##otyp
Høst
Earth
Klaus
snakk
studi
Lisboa
Karlsen
dramafilm
reduksjon
portretter
kulturminne
metamorfose
##yon
##tenes
Oliv
Sene
flor
##edderk
filmpro
færøysk
straffes
Kristelig
sendinger
vikingtiden
CF
Sli
##missær
doping
trekkes
##forskeren
##foreninger
billedhug
kongressen
kommisjonen
##35
Kast
fond
Minne
leies
leire
ovale
##alisert
##eldrene
##okolade
meksikanske
##strid
immig
skept
Survey
forsøket
##aye
##ocop
Fakt
gatene
Senteret
Nad
Sich
##kvarter
teller
fangene
felttog
rednings
varierte
##yc
##oil
##ulo
##krev
Luis
##kompon
format
ellevte
utgiver
##uligheter
konføder
##tu
##ebu
##rob
##natt
Mold
##avnene
Natal
Parti
Justin
Letter
Stalin
fiktiv
vogner
strengt
seksuell
definisjonen
tidsskrifter
Ørn
Nina
##skirke
##stemte
Løren
##firmaet
##sprisen
uttale
##opprøret
undertrykk
innvandrere
##ahu
##ftt
##oon
##rac
Alv
vig
basen
utgis
eggene
hvorpå
nyeste
analyser
fungerende
oppslutning
assisterende
##ragt
##aguay
posten
rødbrun
Innsjøen
regionene
utmerkelser
Produksjonen
kjennetegnes
##hø
##helt
Swe
Kjetil
bekost
bistand
hindret
komprom
mekanisk
sanskrit
Henriksen
forgjenger
##usj
##seng
Wis
Seil
faglige
globale
kansler
apostoli
høgskole
langdist
fotballklubben
alk
hyp
1660
pågikk
##utninger
eksklus
jubileum
stiftelse
deltagelse
Nr
##dret
##usse
Rau
Tór
roer
Crist
anstr
hedret
##fotograf
##utepunkt
##samlinger
geometri
kategori
oppfattes
fremstilling
##rica
1823
Prøy
athen
mister
samvel
kjønnsmod
Christians
##fus
ått
1817
Hund
irak
Metal
uskyl
##klasser
##krefter
oppleve
verdenskrigen
##øll
##bond
##ttem
NTB
Tau
##finale
April
Berkeley
politist
russerne
akseptere
håndverks
kommentarer
##anje
gum
hals
mote
søvn
##avtale
treff
Krigen
utløste
løsningen
besetningen
##kop
##sji
##ellan
##regissør
Selskab
behandle
innsiden
##utstilling
akademisk
##jak
Two
Arag
Isle
Moen
aktører
Demokrat
bidragsy
slektning
##yll
snl
##ortere
Engine
Guatem
##ringende
Discover
Nürnberg
Typ
inc
Nieder
brystet
Antallet
Armstron
seksuelle
Undersiden
interessant
middelalderens
##obby
##flåten
inten
verdt
##oniinae
Kaukas
Berlins
miljøer
radikal
Vestland
##akom
##rasse
ferie
##inering
Kosovo
læring
##sforbundet
Information
vektklassen
##réal
Quis
Julia
nerve
stjert
Isabella
faktiske
oppnevnt
Ach
Reed
eleg
forræ
bølgel
temaet
tilpas
Mosebok
Thorvald
litterær
øygruppen
tilstanden
Abdul
bakre
dialog
seksten
##strukturen
##svirksomhet
Kasakhstan
fjellkjeden
brasilianske
##bod
buk
mine
Offis
speil
##Station
##esserte
##klubber
Securit
syssels
måneders
tilnærming
Tilsvarende
1822
føler
##kammeret
##skrigene
Mission
Nicolas
vellykkede
##DP
##kko
Ånd
##isont
Born
Söder
reklam
skjule
baserer
fartøyer
Nordstrand
##ondo
##skisk
Tenn
agen
gale
ubåt
Saudi
fortet
grafikk
iranske
##jøn
##ocen
Lane
##dusent
##heimer
Kring
##kontroll
vinduer
Montréal
alpinist
Phys
lysb
Carlo
skilsm
Telenor
innerste
nålevende
semifinale
folketelling
identifisere
##agh
##yper
Fla
NTH
##ambar
Borne
Serie
jorde
Malcol
avgift
domstol
##smedaljen
Hammerfest
Ud
##onda
jet
##gitte
Tong
Avisa
Bremen
Schwar
Istanbul
Montenegro
kommunestyre
markedsføring
publikasjoner
##VA
##uns
##lips
Box
Sed
taks
##settelsen
Medaljen
håndtere
kunstløp
kollektiv
bosetninger
konservativ
##gal
NOR
Nem
Tod
##ælland
Bryst
toler
Jew
##fylke
##igers
arkt
Toten
dømte
##irkning
Hitlers
##retningen
alminnelig
lovgivende
FM
Tv
##ykker
Week
##fessor
Susan
forent
lengder
ovenfra
rasende
uniform
illustrert
nedbørfelt
##45
##dage
##kjøpt
##sfolk
ligak
begått
forven
Johanne
tilsluttet
formannskap
amerikanerne
##RI
##ulu
Cic
##sidig
Full
Well
Honor
Hyper
Names
Weimar
rikdom
##sforlaget
##bust
##agram
krim
##asiner
Morris
engang
larvestadiet
##leans
##ublic
Kjel
comp
valut
##følgere
ingeni
PlayStation
é
##bant
##cken
##etri
##flikt
##ichte
fakta
Scient
kanten
ringen
symmet
normale
overens
primære
Kry
##ferds
Kristi
Olympia
intervj
maksimal
gjengjeld
konserten
arkitekter
utmerkelse
BA
##jakt
##ølen
##ephal
##qvist
Kiell
Jorden
Olympic
begeist
##ropolitan
skikkelse
##igu
AI
##rodu
Sle
##skost
Deep
Sign
ofre
##ekting
##irkebe
grove
spurt
Dennis
skygge
Seattle
forbren
kalender
nøyaktige
foreligger
tsjekkiske
funksjonshem
Rah
##entre
Taks
Bakke
Valer
kaffe
kondens
etterlatt
systematiske
Lock
Ther
Theres
ruiner
utvist
##politiker
fabrikker
##republikken
involverte
kraftigere
##KP
Brev
##lekene
halve
online
bestilt
hushold
uttrykt
førsteam
borgerlige
sylindrisk
verneplikt
##dro
##iar
##myr
##kler
##skib
111
riv
Brem
rikets
kostnad
eksperimenter
ASA
teor
Dovre
Karin
Foster
sørger
1795
Peer
Plant
Stens
Sigrid
testet
Hannene
nederst
ettertiden
Tippeligaen
##tel
ku
##brig
##olar
sir
Mult
Oreg
tynt
Bobby
Indias
banker
villig
Santiago
Flyplassen
overlevert
##boy
##sfly
Sku
##atest
##mekan
beslag
falske
sultan
statist
ekstreme
kjønnsmodne
##kok
Hoh
scor
Franco
blodet
utskilt
plassere
imponerende
operasjonen
Paralympiske
##ims
##ethe
##optera
Somer
##ulturen
legenden
beleiring
##asp
##fran
øde
Sout
pans
detalj
Londons
Ishockey
utkanten
avgrenset
regisserte
oversettelser
##ès
##seren
##skifte
Dance
Matte
olden
##ørrelse
Austin
Jeffer
Väster
Augusta
Wallace
arrangere
inviterte
realiteten
beliggenhet
sentralbank
##cid
henge
urbane
knyttes
Zimbabwe
parkering
bevissthet
strukturer
pum
##roman
Fore
Jung
armer
##skorset
Gallia
Samvel
examen
Minister
overgrep
##kart
##cture
Serge
##veiende
Namsos
museer
##essverre
masking
suveren
noveller
straffer
##handlingene
kvalifisere
onlyinclude
generalguvern
##acy
Fi
##fene
##icum
CDU
Xin
##onald
kniv
##sprang
Peace
drakt
innså
Warren
##resentanter
Lid
pel
##teren
Muse
unik
Bjerke
skyldig
bakerste
forbilde
vurderte
frittstående
##ippe
##issel
Cour
Vera
troen
Stabæk
##atoriske
Heritage
Nicholas
oppfunnet
overføres
sammenligning
##Hz
1792
Type
yrke
##uksess
satse
##kehuset
Nesten
##kommuner
fargede
kombiner
stavkirke
tsjekkisk
divisjoner
Aristoteles
folketallet
##styrr
Stru
busk
miste
høytid
skrivem
##stedømmet
Orkester
##handlinger
Catalogue
##riv
##zar
##stod
##penes
1804
##ipedia
Metro
bygnings
landsbyg
Yorkshire
Aserbajdsj
210
Sex
kurd
Harper
vulkan
Finalen
Eisen
gaver
rolig
Harmon
arkeologi
bakterier
seksjoner
skulpturer
foretrekker
produksjoner
##pat
If
Dio
##masse
##reich
Frei
Sieg
asyl
Foran
Viden
Altern
relasjoner
sentralbyrå
##aha
##ftes
Mec
Ruth
Felles
##dekkende
beveget
muslingkreps
Årsproduksjon
##fond
Bul
##jeden
##stalt
##mingen
Glass
Willy
Africa
utkast
angående
rekrutter
##43
##ukta
Pun
##skrav
1805
Gutt
##skolene
ballett
forfulg
korstog
operaen
telegraf
skøyteløper
konstruksjonen
##hag
##olic
Fon
Rak
##icial
##ienne
##råten
Baby
Voks
##idelberg
Orleans
Tomatoes
##institusjoner
utfordringer
##vev
CN
##bryt
##kran
Fig
##stift
1770
Frit
utgi
ufull
##gjørelse
innsikt
flyktning
rapporten
sosiologi
æresmedlem
ferdigheter
##gjer
##øden
##ruppe
Hopp
Napol
##akademi
Summer
dominik
Administrasjon
##hyl
##årsa
Mack
Tian
##boende
Æthel
borett
klatre
slipper
Cetoniinae
instituttet
XIV
øre
##makten
Camil
neppe
hektar
##skripter
##kten
##illen
##veiene
Roald
drøyt
maten
talen
##tenberg
Elling
##estående
grundig
strakte
formålet
Andersson
Næringsliv
variasjoner
Budd
misn
dropp
været
##skomité
sammensl
opplevelser
##jas
HS
Nept
Rødt
Stem
##chwitz
##istent
black
retor
Viktor
radiok
veggen
Brødrene
##olid
##ulin
kna
rid
Nott
kass
Kairo
franc
hjørne
regime
Burgund
filosofen
produktet
debutalbum
høyesterett
vanskeligere
##ku
##muren
##vices
##kommen
Oskar
pålit
Police
kromos
etappens
Emmy
Chief
Milan
##metoder
Biskop
ensfar
stammet
##alog
##hodes
rakk
Event
Jomfru
herreg
satset
farlige
Nordvest
behandler
tegneserier
erkebiskopen
##odia
##øken
Dim
Bolog
Bratt
eventuelle
Hviterussland
Åp
##atens
Dong
##garden
Coast
Fridt
falsk
Galile
Living
radiop
passende
talsmann
##ān
##rea
hosp
##lemens
Høyres
seiler
kjemper
mandater
animasjon
filmatisert
##uy
##berne
##utgave
seile
##ffekten
Tallinn
komponenter
##ов
IIs
##hetens
Corps
Roland
transp
oppførsel
geologiske
tilskrevet
egenskapene
##öping
##rening
Miner
indoe
forsin
tiårene
rekorder
Gammaridea
##hog
##iae
##taler
Arke
Galt
Grey
Haus
Page
##elsess
meldt
slåss
fantas
sitert
##politiske
spesifikke
elektroniske
langrennsløper
##ppes
orn
rem
Bird
Soft
##skinen
binde
Parish
Sotsji
dagers
forlov
respek
vannpol
komiteen
folketall
##utviklingen
omgivelser
Svartehavet
DJ
Het
php
rig
##menes
Hjal
mitt
##maskin
belte
knust
##utgaven
Mesopotam
Fuj
##elier
##skild
Krag
Supp
Vass
Ward
enig
krem
Berge
Irish
##sformer
Böhmen
merker
Alabama
Ecuador
åpenbar
plasseringen
kh
##lyste
##skjel
Hare
Kons
Tron
Vent
ener
brakt
kolle
stemt
stjel
sydlige
Christie
##lår
Fv
Dit
Vib
##eater
1799
Elli
dreide
Malcolm
Roberts
Utenfor
singlen
dominerer
etterkant
religioner
aktiviteten
språ
##orgrad
Langu
##ystemer
steink
##regionen
##sprosjekt
Memorial
forplikt
##nar
Py
Suz
Whe
##sfull
Hole
spin
##vendte
Steel
rådhus
tuberkul
##utstillinger
##itær
Sey
atter
kjennskap
propaganda
##virksomheten
Hercegovina
argumenterte
utgravninger
##rij
##løkka
##korset
Brønn
Kvinn
anker
##konsert
salget
fylkene
dikteren
bokstavelig
administrativ
skuespillerne
##hip
Oak
Conn
kran
Lasse
passe
trilog
diagnost
Connectic
##sprogrammet
##beth
##icia
Ling
assy
Dokum
##økonomi
listene
walisisk
##48
##utan
Aff
jud
##garter
Hanne
Maurit
vedrørende
##ège
Wes
##oblet
##styrt
drag
kald
røyk
Maler
aksje
hoppe
derved
mordet
brukeren
mislykkede
##hart
##rukne
Glad
##avheng
Linde
Common
opplevd
tyskere
restauranter
studioalbumet
Ó
Sik
lade
Saturn
finger
oppdage
Benedikt
krigsfor
kanadiske
Brenselkilden
KF
##frek
Nas
Ose
Hauk
Trev
skum
##blomst
Bruno
Bladet
keiserens
##icon
##vari
hule
skru
trak
Denis
Ulrik
Instru
nyttig
todelt
college
oldenbor
venstres
akademiet
bokstaven
nettverket
tanglopper
##hot
##pendent
Invest
Sahara
ferdige
klokker
parallellsidige
##lat
Frø
sorg
båret
Catherine
omkringliggende
##ieri
##ucky
##water
Colin
Borger
begikk
pistol
##funksjon
boksing
lidelse
service
diskutert
Government
##jøl
##utch
##sleir
1780
rugby
Nilsson
kvinnenavn
##OK
##tr
##olt
##zzo
##andro
##estre
##varen
##hjemmet
##onomien
oldtid
Armstrong
oversettelsen
##små
##dale
tomt
##skrets
velded
Avtalen
fornøyd
karosser
##OL
##ça
##annede
##oppgave
Ibsens
omdisk
rotasjon
viktigere
solsystemet
##eved
Raj
Kreta
Sønnen
endrer
herald
smygere
##attholder
artisten
tingrett
romantiske
Connecticut
finansielle
kommersielt
Yes
Carab
##admiral
ulykke
trelast
##materiale
##uo
##acht
spp
##roner
Schwe
defens
profet
grafisk
altertav
landskamp
forandringer
550
Saf
##design
##sanlegg
##teatret
##ttemberg
Afrikas
menneskets
beskrivelsen
##65
##hull
CBS
##uerte
vaks
##kanter
dratt
Stones
dypere
##familier
Jylland
velferd
##magasinet
maksimalt
Bü
##åker
bio
##måler
Joan
Basel
Myster
pollen
antisem
seiling
sluttspill
##imus
##lock
##rama
TVN
etru
Pedro
orlog
##vekster
kompani
Maryland
grunnstoff
fortsettelse
Tah
##åndet
vårt
Oregon
sommerleker
Tradisjonelt
gjennomgående
##wo
UiO
Hval
Frukt
topps
barken
##landskap
##maskiner
Claudius
arbeidst
substant
innføring
kritikerne
LS
##usener
Førde
hevde
retur
kompli
opptrådt
skriftlig
betydningsfull
Rag
Miami
##hordland
Tilbake
Tórshavn
månedene
Festivalen
matematiske
avstemningen
##eny
##ingo
Java
Xiàn
mast
##negler
Saken
##vokaten
kvante
ordener
levninger
##atta
##polo
Gis
1750
Pant
Prom
Sult
Kreis
faget
Sønder
Republic
Gundersen
overføring
sannsynlighet
##jun
##fritt
1793
revy
##elærer
Cambar
avstam
kanter
sparken
kollisjon
skipsreder
kommunistisk
##ubb
##asis
##skur
FIS
sug
##forsøk
##ledere
Lanka
##givelse
bomber
streik
samfunns
##ssyn
Larry
##asjonens
##institutt
serbiske
utvalget
kollektivt
##uki
##lyde
lei
nar
##usler
Hang
Leng
##srådet
##øvelse
##pedagog
Square
utbred
Steiner
antydet
utsiden
sønnesønn
prestasjoner
mol
##draget
poeten
November
avansert
hjemland
tilbudet
Forbundet
eksistere
dynastiets
Hovedstaden
produsenten
##fund
##otop
nak
Psyk
hett
kjer
Burma
##spinnere
bystyret
arbeiderne
##ahr
Add
##sbury
blog
##utvalg
gælisk
ekskluder
besittelse
omgivelsene
##elia
##iese
##eback
##enerne
Atlas
Phoen
sanne
Borgen
aksjer
Military
Muhammed
Scotland
avslørte
alliansen
atmosfære
Britannica
ektemannen
konspirasjon
##DAP
##kets
##inent
Muss
brua
Tiber
indianer
overrasket
Mesterligaen
hjortebiller
manuskriptet
##imp
##isher
René
##ansere
Glenn
Språk
##skamper
mandag
nettside
detaljert
kontakter
fiendtlige
##yst
##etto
##imore
##isper
Sprint
Eastern
Bjørnson
diktatur
meninger
tusenvis
anbefalte
hvileperiode
##pas
Buc
våk
##gaten
##igner
dere
Albre
Energy
Nøtter
provis
Europap
styring
Aviation
samtiden
langkirke
##UC
##udde
rest
##bøkene
##sutvik
Linda
Mexic
##petanse
Energi
forbød
hevdes
Reading
erobring
minoritet
Klassekampen
Bek
Eck
vern
##slivet
legeme
ladning
Guatemala
innvilget
Heidelberg
konferansen
hovedpersonen
á
Sold
##aneren
Creek
teamet
ansiktet
beholder
##spresident
underhold
Johannessen
##chang
arme
Huang
##steiner
rakett
Systemet
gudinnen
Sparebank
forsvarer
##uga
Laz
doi
Handels
holomet
tilsatt
krevende
forklarte
ML
##core
##geir
stj
##liner
Orkn
About
Elvis
Grace
feire
Miguel
Sogndal
Station
sjuende
##ymnastikk
##ønder
kledd
Second
parter
Jernban
regnskog
Forskning
kritikker
sf
Cand
Eddie
antok
medik
pinse
rømme
halsen
Senatet
pyramide
bemerkelses
politikeren
Gry
Sla
##haven
1802
rein
##ativer
##eldige
Keith
imple
##prosess
Health
omvendt
sammenlik
Oslofjorden
holometabole
##ache
Lap
Skal
Nepals
bokmål
lovlig
##ationale
Kristen
Manhatt
turneen
våpenskjold
forvaltnings
##krat
Ili
##resse
##skjem
Bloom
filmens
kriminelle
presteviet
bestemmelser
##heid
Lot
##innhold
notert
portret
sentralbanksjef
##real
one
##ührer
Sitat
##delekene
Firmaet
kompens
Atlantic
centimeter
##egner
Half
##ørrelsen
##opptreden
fremstår
residens
samtaler
sammenstøt
zu
##rian
døg
##usset
##angene
Matth
Odysse
hånden
munnen
rittet
sjefen
forberede
toppscorer
systematikk
journalisten
##illan
dren
Søren
ressur
Johansson
underarter
gjenopprettet
cub
Know
Prot
##anismen
ordbok
symfon
tolvte
dødelig
undervist
##oba
dei
##ulerer
leide
søndre
Økonom
Kaptein
perfekt
symfoni
fødselen
opphavet
verdifulle
##fr
##sås
##otta
Zhu
##issens
Chand
Isaac
Labour
bestsel
nordlig
overlot
Mesopotamia
##nette
##ianerne
skjulte
Congress
Kentucky
planteetere
renessansen
##zel
##dags
por
##taket
kyrk
##ttelsen
Warner
svarer
lidelser
tunneler
tilbragte
forkortelse
##obi
##møte
che
tam
##sstil
Educ
Skol
##egrens
Banks
hager
Kambod
gerilj
skallet
Svendsen
spillefilm
##öt
##grev
##oras
epig
##ilding
##irater
##sykkel
Teleg
automat
foretrakk
mannsnavn
Management
modifisert
##sdam
##endet
Hier
hits
skud
gruved
utslag
vekten
bergarter
spanjolene
størrelser
restaurering
MP
AFC
Arc
##olini
olde
sjøl
##linjer
##stilen
rømte
fordøy
rumensk
Paraguay
##lien
##åren
Lek
dåp
snu
patent
pigger
Hjalmar
afrikansk
krigsfanger
##kton
##edikt
Kjem
kuri
leid
Sofia
Wayne
Bureau
##lokkurin
Mathias
kartlagt
Universal
kulturelt
Commission
##eby
##iuse
##kete
##stur
##ynet
Cun
MTV
Meth
Odin
Arvid
Prote
##kraften
galler
seriene
Mercedes
Notodden
astronomi
PL
##gerø
##olds
260
##ridae
1794
1798
Bagdad
Borneo
hinder
nedslag
ideologi
psykolog
Württemberg
Yam
Flag
Tone
bery
##hology
Færøy
Singh
##itrogen
jakter
##kurranse
kollega
horisont
plasseringer
grunnleggelsen
organisasjonens
##slå
##ikos
old
trå
Lapp
rose
Starr
Religion
forstått
halvkule
musikalen
Kongeriket
##universitetet
##stev
##ource
Oluf
adre
avdu
skuff
Wagner
eksplo
omringet
åndelige
kombinerte
illustratør
##apir
Ish
##elens
##sløse
Terry
proklam
samtale
anmelder
maritime
signatur
delstater
erstatter
anmeldelser
likestilling
##fos
##ends
##inte
##serkl
Edda
##føreren
Oberst
kurfyr
Konsert
ekspand
nedrykk
Gruppens
September
emigrerte
landbruket
næringslivet
##boe
##ppa
##yren
Alm
##istry
Svan
erke
##teinen
Bilen
Isted
Sheff
innby
##icester
maraton
Kaukasus
Sciences
Taksonomien
stortingsvalget
##usc
##cock
hag
vamp
Floyd
insekt
tysker
Karibia
##endringer
stafetten
##servatorium
Foreldrene
begrensninger
##lion
Beh
Cov
Oil
##ienes
Giuse
leses
Author
Hamsun
Munthe
##sselskab
Spencer
nedsatt
Auschwitz
innbyggertall
##emat
Hål
Expl
Fiske
Trist
della
kvant
hierark
betjener
kapellet
utlendinger
##fli
##lle
rab
##opran
##svart
##uller
Blin
snur
Three
utryd
Individ
Maximil
målvakt
aksjonen
debatten
Manhattan
strekning
symboliserer
ulv
##india
used
##strener
slovak
spekter
steinen
Dampskib
##75
##lage
Joy
##skatt
bost
iber
trent
Monaco
avslutte
magister
medvirkende
kjernekraftverk
Jev
Jor
Rib
##brann
##runde
brakk
trente
Herodot
høvding
hundrevis
religiøst
DR
EC
Rosa
Slottet
Stevens
geologi
jødedom
Litteratur
Jav
##gitar
##itsch
Frid
Snow
økos
##vernet
Slott
uform
Polens
##mesteren
Norfolk
konsern
lensmann
Blomstene
fenomenet
##rov
##sol
##tårn
Åge
##oster
##reper
Krak
lært
Tomas
Ullev
Illust
Presse
gråbrun
protein
veggene
ytterkanten
##rew
Vogt
Yuan
manns
rocke
##usselen
fravær
restri
summen
såpass
plantet
tiltale
Bortsett
Roskilde
thriller
Forfatteren
arkeologisk
Alk
##kyler
##yeong
boik
utsagn
hengende
pensjonerte
##lås
##rikt
##sfag
##kolon
turer
##stjernen
strømmer
festnings
medlemsland
utformingen
##cin
##jab
hodep
##raksjon
gjenåp
søknad
bystatus
skjønnhet
manuskripter
##gio
##jut
##malm
320
Cad
Tin
Crow
##illende
##trafikk
Grüner
Håvard
spekul
Akademi
trompet
##apet
##elter
##inese
Hind
reag
double
##malerier
sjømann
Singelen
fokuserte
strukturen
Fotballklubb
SN
Cit
##ioder
Næss
##graden
Agnes
opphe
Norwich
sporene
##alløytnant
##fell
##shast
Arab
Fund
Rhod
##antrop
##fargen
##rollene
besatt
rykter
##amfunnet
##elskaper
##EM
270
Was
lem
Jenn
##planen
##skreps
Diana
Tirol
Gruppe
horison
manuset
##elignende
##konvensjon
intensjon
##ifikasjoner
##ikre
Ice
##lagen
Olof
fots
##opatra
Tempel
kropps
rekken
revidert
##falt
Dir
Bruk
Allan
Classic
Ireland
Guangdong
##tsj
##eldorf
##konsul
Vegas
Justis
##rekorden
Frelses
imellom
kulestøt
personal
ektefelle
aksjeselskap
varmekraftverk
##isto
drø
##firma
Beth
Joel
init
##ommern
rykke
Januar
aksjene
brunlig
Giuseppe
Grenland
Kungliga
sjokolade
maskingevær
kriminalitet
##38
Ig
##atti
##jønn
##drakt
##ebook
Oden
Plut
##villig
Elias
Songs
Total
##kjernen
hviler
vektor
bygdene
komiker
samband
spinner
tiltalt
Revolution
journalister
undervisnings
##apa
##sisk
Cin
loj
Burn
løpe
##sekret
Frist
Moses
Years
angitt
District
rumenske
usikkerhet
virkelighet
##mil
##ambia
##lerne
1776
Menn
vels
##bridge
##umbria
grave
skjen
sådan
##kunsten
kaster
skritt
utsted
sigende
interiør
pågående
Leicester
##bestemmelse
misjonærer
##avik
##born
##svåg
650
USS
Arna
Rout
Tres
heft
løve
veit
Wille
hyllest
forfatning
fusjonerte
utm
##vning
Dunc
##sskolen
adelige
Encyclop
geografi
saksofon
##atu
BN
##edier
##vator
Gond
##slinje
##valgte
kosty
Kingdom
etapper
estimert
Handelshøy
planlegger
forekomster
innstilling
##mu
##izz
##vos
NG
Wed
Yan
Nanj
Vekt
##onerte
Bygda
Kines
urett
utgir
publis
sloven
skifter
##ril
emne
Versa
hengt
##okrater
Vesten
berget
andelen
husmann
ryttere
Baltimore
Vitenskap
sprintløp
århundrene
fotografier
hjemmekamper
investeringer
##hin
##aben
EUs
##okkel
##skene
Lion
kogn
##eledes
Antig
Glimt
kunde
Nations
gudinne
påstand
lastebil
Jefferson
overskudd
ungdommer
spenningen
##vitt
Rocke
tørke
dyrkes
fortelles
##årskontrakt
##anas
##cent
##ibil
##ndet
pra
tøy
##grønn
Disk
Verd
##eksjon
Marco
gravd
skips
Knight
##klenburg
Beograd
armenske
genetisk
##prosjektet
Aserbajdsjan
Č
##erd
##lot
##øla
##etre
##maker
Mats
NSDAP
Vinje
proff
senest
fartøyet
utbredte
utøverne
utfordret
endringene
medarbeider
##eto
Akk
Røa
##hvile
Most
larve
likest
Bologna
comeback
##romerriket
hovedsete
kongehuset
seriemester
justisminister
##nu
##varme
Area
Wehr
elim
måles
Edwards
Folkets
makedon
rullest
skulder
frimurer
Christina
diskrimin
herredømme
##II
##arf
Sug
num
1775
dame
emer
Craig
##inasjon
Canadas
nattfly
##bygninger
##prosessen
anklager
psykiske
avsluttes
##lær
##irus
##skiske
Intel
brenn
forbe
inneh
brevet
Solheim
leveres
særegne
skildret
generalen
guvernøren
jordbruket
konferanse
betraktelig
forfatterne
##pad
##sdo
##éer
##chus
##liger
Lost
orig
Geograph
mottakelse
##gud
##etøy
##svin
##affen
sognet
##steatret
Språket
Constant
Mitchell
Sverdrup
individuell
Idrettsforening
##ður
##enth
stup
svøm
##esport
abort
nybygg
Fantasy
Schmidt
ensfarget
Medlemmene
finansiere
kjøretøyer
oberstløytnant
##lau
##omy
Pé
##ylte
Pam
dum
##studio
manøv
##ografen
Gestapo
##spilleren
Politiet
rederiet
Cleveland
Riksantikvaren
videreutviklet
##gg
##äll
##feil
Hul
Lac
Von
skur
Fjeld
kabel
ypper
Spirit
herfra
attrakt
seminar
våtmarks
intervjuer
##vre
122
Aal
Fau
##sbour
##berett
##embran
##ending
Rasen
trene
destin
Kongressen
##zt
##änd
Gü
tø
Sok
oli
eval
levd
spec
Heath
fasen
kuler
Adrian
Marcel
Turist
salmer
visjon
Athletic
oppførte
referere
rødbrune
Sheffield
høyesteretts
##rib
yd
Toy
##smakt
##utton
Benz
##regnet
##komsten
bilene
knytte
massiv
venter
##tunnelen
Ferrari
Salvador
avholdes
ombygget
regulære
teknikken
introduksjon
##ollo
Kru
who
Flem
Vale
##rieved
##føringer
krigene
ruinene
Antiokia
Castilla
pilegrim
skihopper
stjernene
##aci
##opl
##ueg
##wehr
flø
##ygget
##øvere
Ande
Düss
Volda
frank
Peters
nærhet
Canadian
definere
visuelle
angrepene
østkysten
fasettøyne
Zu
##ixon
Gem
Say
pun
##illon
##plante
##stider
Myhre
sjanse
topper
landing
melodien
##orienterte
##bid
##tha
##flyg
Bam
Maj
mao
##ekret
##låten
roll
##kingen
Cliff
avfyr
reakt
##løfting
##smuseet
##svernom
hangar
klinisk
Sortland
nederlen
belønning
revisjonen
gjennomføres
konsentrerte
kvadratmeter
Tax
Else
school
tribun
##kspedisjon
elementene
##oge
##rio
##fatt
##rain
fed
klim
lukt
##priser
##sfeltet
Reform
plantes
prinsen
Regionen
israelsk
tønneformet
##amar
##elis
Non
Siv
gov
rav
##egler
##målet
##øller
##allige
Klima
Planet
##svømming
Knutsen
kirkelig
##historiker
Laborator
bakvingen
oppbevart
sykepleier
kontroversielle
Ä
Gat
USD
Donn
Lands
beher
melde
##verksted
muntlig
danskene
distansen
leiligheter
årsproduksjon
Als
Neb
Dest
Hatt
eierne
hyllet
stabile
Kielland
argument
primitive
holdninger
parallelle
oppfølgeren
##gå
##bren
##ærne
##verer
Bath
Hass
Tork
Again
bukta
metod
##kommune
Rogers
tildels
velkjent
Philosoph
slektskap
##RT
##elk
##ceae
1797
juris
anonym
Dagblad
plassene
Representant
##not
LA
##hail
asf
##celle
##innet
Yale
støt
Montg
georg
vendt
##ocument
tester
katolis
##vassdraget
borettslag
overordnede
##kjøl
##preg
Coc
Equ
cap
hov
ign
##strøk
##stuen
##wagen
##faglig
Shack
##anernes
betjent
ørkenen
##forenings
##smedlemmer
fiendtlig
universitetene
##voks
##yrus
Hub
##apeut
Crom
Glen
diff
ydmy
##øysund
about
messe
optim
##løsning
Nanjing
Stykket
kaliber
Brooklyn
Distrikt
Nationale
##hou
##udsj
Tyn
Rjuk
avkom
Norveg
Sigmund
Teknisk
innvandrer
praktbiller
##yu
##øgn
##ción
Kirkens
hjulpet
Kirkenes
Pictures
Grunnloven
##frie
Fan
Tog
##ccess
Karm
##skring
Basil
Ocean
istid
##skrevne
gulvet
krisen
fratatt
Nordmøre
Routledge
forekomme
dramatiker
tidsrommet
Adresseavisen
kvinnelandslag
tekstforfatter
##frø
##okomot
##serter
relie
tilhø
##chichte
våpenhvile
280
Bugge
Paulo
Uller
venet
##ørselen
Angola
Davies
avrund
##retnings
##forholdene
narkotika
Konkurransen
offentliggjorde
##gir
##icz
##jah
GT
##ught
Kit
##egist
Auto
Base
##holdig
stakk
andres
ordinær
Europavei
##ilje
##laus
June
##ariske
##sfamil
Cheng
Mozart
Mosjøen
regelen
Sjælland
Ł
##kje
##veps
Neu
UNI
##iverte
rifle
påfugl
dommere
Schleswig
angelsaksisk
##hab
##jevo
war
##acher
##appen
##chten
Hals
Krok
Sola
Zeit
Planen
forpli
fuktige
henviser
tenkning
Mountains
mektigste
bekostning
hornbiller
instruktør
Rü
Cub
Bres
XIII
Bismar
Interv
skjerm
Klubbens
Lancaster
##äs
##ega
##atius
Dean
Delhi
Kanal
dømme
##lysning
militæ
Nikolaj
ivareta
magiske
Princeton
menigheter
##fish
##hvit
Kay
Chart
preges
##skansler
herskere
ekstraordin
palestinske
kommunistene
##hon
##arag
this
##mestere
tvinge
østlig
##søkonomi
TVNorge
Aircraft
målinger
festivaler
Arbeiderblad
##viken
Sett
afgh
Hæren
##jellene
Phillips
befestet
improvis
##grå
Ign
McM
stu
##svold
##uering
Heyer
pater
Kaiser
melding
Byggverket
##kat
##fare
jon
redd
##elivet
##ighets
Figur
advar
murer
nobel
##ilsynet
##sfrihet
Agency
##istpartiet
territorier
Sosialistisk
Rö
Fat
Mitt
##acupen
##grønne
##isches
Risør
death
foresp
##artikler
Artikkel
negativt
utvikles
overveiende
Koch
Rico
Danny
Sogne
ambul
høres
kalif
sjokk
##medisin
korset
multip
stripe
tenker
avslutt
følelse
korpset
##organisert
gjensidig
ST
Pau
kyr
##livan
Broen
Hjemme
Fischer
biologi
krønike
Jarlsberg
illustrasjoner
NI
##olon
Emm
Hob
##ikant
Oran
##fisker
grand
##ferdsel
##skontor
##stegnet
Platon
##roduksjon
bidraget
mineraler
informasjonen
##alle
##omus
Reb
sav
##parte
##ukten
Helg
##andong
formel
designer
lagkamer
plattformen
##rd
Boc
Sho
ish
Pave
Rådet
Tross
##ropiske
finaler
massakren
spennende
utstående
fragmenter
##ckel
Rim
Bygd
##piller
##ricket
Boris
Naval
Rjukan
Chamber
stoppested
coverversjon
##æg
##kenes
Zhou
##estern
Karol
fleks
glatte
innbyr
søyler
serbisk
Fernando
Nøtterøy
maskinen
Crustacea
Kambodsja
Montgomer
Federation
oversikten
førstnevnte
##øyne
FBI
Jing
Meste
Herald
diesel
gifter
Laurent
strøket
Hannibal
Richmond
Stanford
insister
jugoslav
prosessor
ekspedisjoner
Gudbrandsdalen
##ulv
##boer
Hey
dek
##kkere
Tart
bonus
##orteres
Totten
fremre
romfer
##savtalen
påstått
Frelsesarme
generalløytnant
Yr
yn
##iban
Gate
dver
iron
##jektiv
Capit
Trent
##osfæren
Sivert
folkene
leddene
##smalnende
Sullivan
lokomotiv
forårsaker
Folketinget
hastigheten
regjeringer
##abelt
Schl
##lestad
##sprins
Artem
Edwin
rammer
Breivik
budskap
##høgskolen
formelen
oversettes
Informasjon
##unet
Era
Coch
Pearl
alger
urban
##slinjen
Columbus
Kristine
offensiv
overføre
##e
##r
##n
##t
##a
##s
##i
##o
##l
##d
##g
##k
##m
##v
##u
##f
##p
##b
##.
##h
##å
##,
##y
##ø
##j
##1
##0
##S
##9
##"
##2
##c
##D
##-
##H
##A
##M
##B
##I
##(
##)
##8
##T
##F
##N
##C
##P
##E
##L
##K
##5
##3
##æ
##7
##6
##4
##R
##G
##O
##V
##w
##J
##«
##»
##:
##U
##W
##z
##–
##/
##x
##é
##'
##Y
##;
##Ø
##Z
##ö
##q
##ä
##Å
##ü
##X
##%
##&
##Q
##á
##ó
##í
##=
##_
##?
##’
##è
##!
##]
##[
##+
##ð
##”
##°
##ç
##ā
##à
##ú
##É
##Ö
##а
##§
##š
##ß
##Æ
##α
##ć
##о
##ł
##$
##ë
##ō
##ο
##и
##—
##ô
##>
##ñ
##*
##ν
##â
##ς
##е
##<
##р
##ã
##н
##ρ
###
##ι
##ī
##č
##в
##ū
##λ
##|
##μ
##τ
##с
##ε
##л
##“
##Á
##к
##ا
##‘
##ș
##×
##ń
##ê
##т
##σ
##ă
##́
##£
##`
##π
##ý
##κ
##ž
##ò
##Š
##ı
##ì
##η
##ē
##ί
##−
##ï
##ل
##县
##д
##î
##ş
##ά
##δ
##Ó
##υ
##ω
##ر
##θ
##γ
##ό
##Ä
##м
##Č
##у
##م
##ě
##⁄
##Ł
##й
##ن
##ي
##ч
##ś
##þ
##ù
##φ
##Þ
##ǎ
##ř
##г
##õ
##•
##я
##ь
##ğ
##د
##Ü
##و
##\
##Î
##ب
##С
##ź
##đ
##έ
##û
##Í
##β
##ę
##„
##ύ
##А
##ț
##К
##б
##י
##Δ
##~
##س
##ǐ
##χ
##п
##ы
##·
##ή
##ə
##→
##Π
##ʿ
##з
##ǔ
##Đ
##Ž
##ḥ
##Κ
##М
##Ç
##Ś
##ו
##ą
##В
##İ
##ė
##П
##ˈ
##ा
##œ
##ǫ
##大
##ż
##Α
##′
##ő
##Σ
##ع
##Б
##ة
##х
##^
##区
##ی
##±
##山
##ŏ
##ح
##्
##{
##}
##ت
##Μ
##@
##་
##€
##†
##Ú
##ه
##Н
##Р
##ר
##ל
##र
##Г
##Φ
##И
##ц
##א
##ה
##ṣ
##中
##ف
##Ἀ
##О
##ա
##ш
##Т
##ج
##ệ
##ώ
##Д
##ق
##王
##⋅
##Ε
##ב
##і
##Τ
##Ş
##Л
##∂
##Ō
##城
##Λ
##ж
##ŋ
##ش
##Β
##า
##ế
##ŭ
##מ
##ː
##市
##ṭ
##海
##南
##Ḥ
##®
##安
##ש
##国
##ز
##‐
##ξ
##ร
##文
##ǒ
##子
##ك
##天
##Γ
##்
##ů
##ῖ
##ÿ
##ת
##ň
##ʻ
##李
##ʾ
##ễ
##Ν
##州
##平
##Ż
##Ι
##江
##ि
##น
##ल
##म
##Ā
##西
##ζ
##ط
##נ
##خ
##ạ
##ё
##Ω
##北
##Θ
##の
##ע
##क
##न
##त
##ả
##ư
##У
##ד
##ა
##人
##ー
##新
##ص
##ἀ
##明
##ф
##ն
##ი
##្
##德
##Ο
##Е
##阳
##À
##Χ
##ю
##Ē
##ņ
##أ
##京
##國
##ָ
##व
##武
##道
##Ș
##ी
##三
##ּ
##√
##川
##ồ
##ְ
##ן
##金
##ħ
##ɪ
##Ф
##太
##ɛ
##ា
##द
##स
##ン
##日
##រ
##上
##̈
##ψ
##∇
##帝
##高
##อ
##З
##Х
##ṇ
##寺
##ʃ
##ր
##ţ
##石
##ộ
##址
##河
##ִ
##公
##ơ
##ɑ
##ม
##प
##东
##民
##Ч
##ם
