[PAD]
[unused0]
[unused1]
[unused2]
[unused3]
[unused4]
[unused5]
[unused6]
[unused7]
[unused8]
[unused9]
[unused10]
[unused11]
[unused12]
[unused13]
[unused14]
[unused15]
[unused16]
[unused17]
[unused18]
[unused19]
[unused20]
[unused21]
[unused22]
[unused23]
[unused24]
[unused25]
[unused26]
[unused27]
[unused28]
[unused29]
[unused30]
[unused31]
[unused32]
[unused33]
[unused34]
[unused35]
[unused36]
[unused37]
[unused38]
[unused39]
[unused40]
[unused41]
[unused42]
[unused43]
[unused44]
[unused45]
[unused46]
[unused47]
[unused48]
[unused49]
[unused50]
[unused51]
[unused52]
[unused53]
[unused54]
[unused55]
[unused56]
[unused57]
[unused58]
[unused59]
[unused60]
[unused61]
[unused62]
[unused63]
[unused64]
[unused65]
[unused66]
[unused67]
[unused68]
[unused69]
[unused70]
[unused71]
[unused72]
[unused73]
[unused74]
[unused75]
[unused76]
[unused77]
[unused78]
[unused79]
[unused80]
[unused81]
[unused82]
[unused83]
[unused84]
[unused85]
[unused86]
[unused87]
[unused88]
[unused89]
[unused90]
[unused91]
[unused92]
[unused93]
[unused94]
[unused95]
[unused96]
[unused97]
[unused98]
[unused99]
[UNK]
[CLS]
[SEP]
[MASK]
##er
##en
s
##et
##an
.
o
f
##or
i
,
d
##ar
##st
##el
b
##in
m
t
a
h
og
##il
##om
##le
##re
v
k
##sk
##on
p
##ed
##li
##te
av
##al
1
for
##ra
en
##un
##ing
til
S
som
"
##ter
##de
g
er
##at
##ri
##es
n
D
##kk
-
##and
##am
på
##id
##ene
##ol
##is
##ut
H
##ør
å
med
st
##as
##ver
l
ble
A
B
##ge
M
2
et
##kt
##pp
##ne
##ler
19
var
den
##eg
I
(
##it
)
##der
det
##ag
##ro
T
##ske
##ste
in
F
##ig
de
##us
N
ut
P
E
##jon
##se
C
K
fra
##ent
L
sk
##ad
##ot
##lig
20
##ur
han
R
##ens
##ru
##ang
##ere
##ke
G
##av
har
##ul
at
##ning
re
om
##ks
##est
##ær
##ik
##ann
opp
r
##ist
##sen
##mer
##ant
##ikk
O
V
##ord
##tt
##ell
##ir
##ap
##em
##ok
«
»
##art
J
##ert
##ende
##ett
##isk
inn
un
sp
sam
##os
##iske
##kke
men
el
##år
j
##ch
##dt
##ak
##all
##så
##ia
før
Det
##iv
kom
ved
##for
##øy
##del
##um
##jen
:
e
##att
##men
også
##ov
##asjon
over
##og
200
etter
##ber
al
##ger
U
W
Han
kon
seg
St
##ser
##ft
Den
##od
##unn
be
år
##yn
##land
##ort
##yg
##het
##inn
le
under
der
ikke
##he
##adde
hadde
del
##itt
sin
201
##yr
##be
##sp
##me
18
li
and
##rå
of
bli
mot
ar
##den
##gen
pro
eller
tid
##ien
##lag
##ion
kan
##ic
##ran
##ling
##ab
##jer
##det
##net
##ly
##ve
##skap
to
3
##je
##00
hv
##ss
no
##ud
##jø
De
##ker
##ass
##ige
##lige
##alt
ø
##ier
bl
fø
andre
##im
man
##per
##elt
##hol
første
Nor
##ie
##ug
ver
##ner
##la
##lo
##ale
##ub
##ali
##tter
bru
–
gr
##ære
##ten
##ry
An
tre
##ster
##eng
##ingen
c
u
##dre
##elig
##var
##else
se
/
##ff
199
reg
an
##op
##lere
stor
##ret
En
da
ny
##ket
må
##ron
##ust
##rem
##iden
##ellom
gjen
##ød
##ark
land
kun
##øn
##ob
nor
##vis
4
5
##sten
##beid
by
##rev
##ært
##met
spil
fikk
##nes
Ch
mellom
In
beg
##oli
pl
##let
sen
##elv
##rit
##mun
bar
##tte
##get
kj
##res
or
##ek
hun
per
##rig
##ast
##iet
##ard
##son
##ip
##iser
sl
##ide
ma
Ar
##sm
##yl
##annet
så
##eter
##ven
##ire
##før
kl
##elle
198
sammen
##allet
##mp
##jel
flere
hans
Un
lig
byg
##nom
lag
##ningen
Al
##leg
##anske
ty
##kte
vil
hvor
##ev
##elsen
dag
##und
##ac
##iver
frem
##ikt
##vik
grunn
##isjon
##ian
##ess
født
##tid
The
##oved
nav
197
##rad
##rupp
bet
'
6
##akt
17
##ram
dette
##pe
##ult
##ede
min
ha
For
##kl
##lem
gjennom
##ksjon
##tem
gj
##dig
ned
##alen
hen
Jo
nord
##rett
##ring
eg
##øm
tidlig
##istor
##sb
utg
blant
denne
sy
tallet
##anger
##isse
##irk
blir
##red
##olog
hel
##rist
høy
fly
##pen
kommun
196
stør
8
##utt
7
fort
mil
##ull
##øl
Norge
##iste
##io
##eb
##ater
Sk
##sh
lang
Etter
##amil
##rik
være
hoved
##atter
mer
##ib
##olit
##ekt
##les
##pt
fil
kv
##ansk
##ren
##lik
##opp
##ets
##ong
##ans
ligger
194
##este
blitt
16
##oc
##ttet
##oll
##if
##ba
##els
selv
15
##ay
##iller
##alg
9
##pet
##kker
mange
Mar
##ina
enn
annet
sør
##org
kjent
fors
##ind
##ember
senere
run
;
Y
##gel
vært
arbeid
##ninger
bå
uten
##hold
##itet
##ars
##ulle
##merik
##kon
Ber
Os
lø
død
noen
hver
sitt
the
få
##ill
noe
store
alle
##uro
##jør
Dette
##old
##ole
##set
##dom
##ow
##legg
195
tidligere
br
##au
##elen
mus
##atur
mest
##byg
##ift
sine
sv
best
begyn
ant
##sl
siden
samme
Ne
kunne
##eder
dem
områ
##raft
På
##atte
form
##olk
bruk
##pl
delt
##stem
##kket
##erte
##over
10
##ivers
inter
##ys
Ø
gikk
##inger
##lekt
Nord
forb
stat
##sjon
Joh
mid
##ine
forsk
finn
ek
Hun
##amp
##ation
art
skulle
nå
ri
##na
polit
rundt
193
mens
##ce
##elskap
##jell
12
##aler
gang
##raf
Sp
far
##jem
kont
##gjen
Fran
##tes
eks
##sker
##skri
##rom
##du
##ener
Le
grupp
norsk
##ister
Oslo
##yd
nær
##illing
##ost
##sf
går
Th
sm
US
##ite
ofte
ser
bare
##dus
skal
##med
##rat
##etter
##ille
##ønn
disse
histor
van
amerik
skrev
##stad
##form
192
både
##bake
##anu
##rav
tro
##arl
##ester
des
##uss
##satt
gam
dø
rom
tilbake
##ond
##000
Re
11
##ah
utvik
ra
##jord
##ins
øy
##ban
##berg
navn
##ange
##øk
191
##min
##ings
##ck
##ore
Z
bes
nye
##ive
##uli
my
##laget
##ich
off
pre
famil
##hav
##asjonen
0
USA
her
norske
fin
ham
##stand
##nt
##som
##ball
##dag
medlem
14
rep
tok
##nd
##ktet
##mel
innen
##ges
##lø
##kom
##like
##irke
##orde
##tert
##ighet
finnes
##ny
slik
vest
styr
##annen
##iker
verden
sent
fram
13
im
##fatter
##iss
##bum
##ate
##inner
##pr
pri
##ben
##ført
##uder
##ått
##anis
oppr
hol
sted
ve
##ue
##anuar
bak
##semp
##kken
byen
##ugust
##sted
##ma
##ører
w
la
Som
Be
rett
Her
januar
føl
##uni
##ken
##lagt
##ou
fl
##olen
##by
##elige
hele
vant
Da
vikt
##entet
##ultur
New
kjø
##ae
person
øst
##kter
##iner
siste
plan
fot
##ade
##arbeid
##rep
Sam
##elser
##svar
kor
##th
fire
igjen
verd
##rike
##fer
org
Euro
##alv
##hand
##end
valg
##our
eksemp
##dd
##rer
##aten
part
##bu
sep
juni
##føl
fran
rekke
##gang
Der
##oks
##unnet
end
vid
##jene
##hus
kri
mars
##verk
Univers
fle
##rag
ang
##oder
kommune
spes
##ity
##sv
##ott
mai
##des
navnet
kal
liv
Sh
##asjoner
mu
samt
største
##ål
fri
##jerne
start
vanlig
ad
##lin
##ton
fem
hos
##gram
##bru
ind
tek
000
##up
##ct
##are
##enn
ro
Co
km
##rakt
kar
nov
tillegg
##idler
##sy
##ont
##ober
##of
##heten
##lert
Ty
##unt
##oden
te
##mann
##pril
lok
Å
Hans
##rid
##enter
##man
august
##oner
like
først
kraft
Sch
milli
Fra
okt
Sør
##ropp
##tember
##usjon
##ern
##sak
##bygg
##ial
bil
april
##asser
Har
hand
meter
y
mindre
##esp
brukt
årene
september
inne
oktober
engel
Se
kalt
##delse
nasjon
Or
Ma
hav
begynte
bas
##ise
mø
190
enk
juli
lå
ses
brit
##ilt
menne
par
##råk
side
##heng
##off
##ald
##stru
stø
døde
##erne
ville
Ro
##ha
syn
##sje
ca
##eld
##ærlig
2008
##mark
viktig
##kur
vann
kjen
kong
spilte
##terte
Stor
pr
lever
desember
november
gener
##dal
Wil
##olle
##nene
go
Rom
Bl
deres
##oen
##ebru
åp
plass
laget
##ristian
Dan
ta
egen
kunst
##gende
Par
akt
##pro
opprinn
Gr
##ebruar
##rift
kommer
##ies
##inne
Med
##pa
Ge
##ius
##ph
hjem
sønn
##idlertid
tr
etab
##ativ
##duksjon
mulig
slekt
februar
##ral
fer
Pro
2007
bok
gjorde
komp
##stre
##dene
Hen
##ers
##tali
##ubli
fyl
når
Et
25
##ående
II
##use
##eller
eksempel
Denne
##gr
30
mye
2010
bef
musikk
Is
John
kultur
måtte
2006
##nev
området
Eng
##ave
El
%
større
##nen
##ile
ben
##urg
##nings
gre
##alte
tatt
ster
film
intern
He
lu
Frank
##lingen
##iftet
Ved
Sver
pres
2011
Men
vel
##satte
##ånd
Under
##vat
helt
omt
##assen
##ium
##ons
ber
##ele
kam
leder
##veg
##mb
##stit
sol
##ingene
regjer
ulike
##ach
##øst
##vel
##va
2009
189
##ograf
krig
su
##di
Fil
Ste
tilh
fol
##styr
mor
##part
besk
##ielt
##ung
##elskapet
##az
tiden
produs
met
##ider
##delig
Tysk
OL
ly
Man
stud
ti
videre
startet
brukes
tur
##reg
barn
##tre
##konom
sven
##her
deltok
##angen
imidlertid
##ris
forskjel
Mo
fleste
##bre
kil
Tyskland
2012
beste
kirke
##vin
##skapet
##ident
tyske
##tet
##ank
bygget
##af
hus
Br
Sc
##ork
ord
##heter
svært
skrevet
gamle
2005
band
sø
verdens
##ham
natur
bor
milit
slut
amerikanske
##bo
album
##sel
##områ
kirk
utgitt
jord
teg
slutt
##vet
derfor
full
ganger
Lond
##tidig
##slag
##ologi
##ment
små
&
##ærer
##syn
fotball
sj
ga
leng
skip
alt
halv
Ol
ingen
pop
##radisjon
består
##ioden
stort
beny
##røm
Bar
##sert
tred
Bo
La
arbeidet
satt
##ette
##vert
##qu
kort
##tere
gitt
##tok
##vest
##ongen
dom
##iene
prof
særlig
London
mål
mar
hennes
##rasjon
##sket
Vest
internasjon
sommer
deler
Q
hvert
##bar
##ress
spiller
##uten
mann
landet
Per
##fly
all
##sett
opprett
##sst
England
familien
##ikken
kap
forhold
##ulg
fjell
##enes
Kr
##øre
hjel
##ane
##sj
Te
god
nest
##roll
##unkt
kat
len
X
2013
Europa
sn
##int
188
Norges
klub
22
21
Hol
##delt
utt
##rum
annen
utv
##iten
Pa
utd
skole
##ksom
res
##ikker
løpet
lov
##ipp
skj
forfatter
##mene
Disse
##ock
##nelsen
skri
##jorden
Me
##fl
##kluder
2014
##heim
##plass
##bl
organis
Til
##entlig
id
##ign
##ford
program
##ensen
##skrig
tem
sett
moder
Om
bed
ev
##inter
##rykk
##orn
##anter
Gu
Com
Af
Ed
##sn
slutten
voks
ste
middel
##ata
ung
##par
TV
språk
##oss
24
tap
økonom
2004
Ha
du
##ped
dire
konkur
fast
ter
forskjellige
red
2000
seks
##én
##br
##ionen
##anse
kamp
året
##mar
##øv
##ike
perioden
fjer
##kene
##far
##ator
##økt
Andre
##bet
oppt
engelsk
Ad
vok
Lu
##asse
tradisjon
tredje
langs
23
##sam
##app
##ode
##yen
førte
##vær
##mand
Sverige
##isert
Mid
##ath
popul
##eren
##alder
##ines
dy
##ses
##åpen
flyttet
dermed
bestem
dri
##po
Ver
rad
Car
amerikansk
verdenskrig
Frankrike
##avnet
inkluder
kjente
gjerne
##jøre
##idae
##råd
tysk
aller
##ht
##anen
##åd
deretter
##val
forbin
##istri
##rene
sc
millioner
##one
##lev
2015
ke
##landet
ba
sku
nytt
##ps
ett
##ai
187
vir
##ith
##ritann
sos
grad
britiske
##sfor
##siden
spilt
Av
##itenskap
##elte
##jet
##ga
##ild
sjø
nett
øn
fun
begge
sty
luft
##kes
##minist
##ves
##led
dre
##ustri
##oren
Con
gruppen
lange
186
stedet
ret
godt
##tern
langt
oper
mark
får
Bergen
##stein
Ind
ru
eneste
##ielle
##ym
stem
Ut
##stilling
##kj
kron
skap
gir
##agn
klar
##øker
fordi
Før
26
##grupp
Lar
28
nev
tjene
##alist
##ld
##ras
job
leg
ledet
##revet
aktiv
krigen
##ummer
tv
##attet
gjort
po
##rang
bid
president
##atet
##ors
utviklet
##skole
##følge
##roppen
York
én
##aks
##als
##rent
Rob
##famil
liten
2016
folk
mennesker
ark
27
fortsatt
holdt
Land
2003
##resen
University
##igur
##amb
100
##nyttet
basert
##kring
historie
##fter
##akter
##øya
inv
Storb
stra
##bin
hev
fått
skuesp
kol
##late
topp
As
##ania
##len
##kret
tilf
1990
##lymp
innehol
Kong
univers
##ational
is
Count
##ias
Storbritann
ob
##adet
jern
##ana
##fin
represen
hovedsak
em
delen
##itetet
Norsk
##teg
franske
viser
Ph
støtte
elekt
fest
##rond
rel
##førte
##osisjon
##æren
di
gull
gammel
##ns
##mon
##ley
sesongen
##aker
meg
ak
lin
vis
Christian
##urt
##dri
Tor
utbre
##lene
funnet
ven
2002
##går
står
euro
grav
##undet
hånd
samf
##yt
Kon
filmen
produksjon
betyd
kalles
Ant
##grunn
tilb
2001
utenfor
innt
##ammer
##dighet
arter
##iali
##ack
sang
titt
tra
stil
##ink
stad
##ja
Opp
##da
int
##repet
forsvar
##ningene
##handling
Eg
krit
Sa
henne
gi
##co
dyr
samarbeid
##sd
##vene
##vir
befolk
San
bre
##che
##øver
##skip
ge
Ser
Bro
innbygg
lik
keiser
opprettet
Trond
fe
com
Aust
##rek
##aff
Pl
##aner
185
##ule
menn
sit
Er
Histor
Tr
spesielt
29
Øst
studer
##sent
##ager
Ale
50
datter
fant
##året
hatt
Ny
##ats
##its
litt
##kjen
Itali
Storbritannia
##lov
gjør
##uk
##isen
##yng
Kar
##iale
bo
Danmark
omf
##olf
opprinnelig
omkring
versjon
1980
konge
innenfor
lite
##oret
vi
administ
##aen
etablert
Kom
##lands
moderne
##iz
##sta
mån
fransk
##ish
##ansen
Kn
##atene
mon
utnev
tran
serien
##orer
stand
##elles
##mens
##ringer
Can
Peter
##ames
si
gå
##anser
oppst
on
##ffekt
øya
##rali
##sjø
ren
##ligere
2017
tren
meste
##fug
Dav
nesten
##ij
##iks
##itekt
Am
Sen
innbyggere
Willi
Sm
##jef
avsl
##spiller
Sy
##anten
samtidig
tekn
##ick
tilhører
##resent
allerede
##ivå
ky
gjøre
##likt
Gre
Fl
makt
1999
##gar
##mester
VM
##rest
##uer
1970
fag
Col
tar
Karl
vanligvis
##uttet
Fre
##adem
##oh
medlemmer
forl
##ovjet
solg
##stemet
øv
##under
slag
##str
bety
##ble
kjem
hjelp
he
Bu
kry
Dag
At
184
Selv
olymp
##unst
klo
##ood
kvali
mag
##riks
##iskop
Paris
perio
gruppe
##fil
##ote
##ica
##nende
##ash
ekte
mør
erst
##ary
County
##tatt
Kina
##familien
##abri
31
##agt
Afrik
åpnet
##bok
uav
offis
kvinner
##sson
##ivisjon
##inister
mang
relig
##ygg
Mon
40
##ogn
##elm
valgt
##havn
##varte
##uth
IS
Amerik
litter
oppdag
ep
myn
##syk
romer
##okum
forbindelse
klass
So
bruker
sel
##ict
##ordan
tot
##ada
##holm
Su
##ll
internasjonale
William
Cl
kines
##andre
lagt
Fin
##sø
Mich
begynnelsen
##atin
Noen
såk
##vens
##essor
##vil
Reg
eget
1960
itali
Thom
##istiske
ansvar
##elses
bort
##dere
ganske
##ørte
##odet
Paul
Fred
Mart
neder
fortsatte
##mus
ol
##aw
##spro
personer
bos
Ab
beteg
##rådet
Russ
aldri
Italia
oppg
tett
##ksomhet
omtrent
forv
henhold
Pri
1998
result
rolle
mod
##ening
##gj
Mc
Kristian
##aller
rev
##ikere
##okk
utbredt
am
##ales
##iserte
Fri
##menn
beveg
##amer
direkte
Sommer
##uler
lar
##udd
ytter
##holdt
Mus
##iell
Og
##veien
Sand
sendt
pol
##inen
##verket
##aven
oppf
politiske
Stat
russ
NR
nok
skuespiller
##sport
##aland
##isten
bandet
##ypt
svenske
To
##avn
Ag
##vern
##esse
Wor
europe
spille
gift
##stil
##ino
barne
italien
##sikt
##kraft
dat
181
##ften
Robert
ferdig
##svis
##ric
##enger
Når
2018
motstand
von
##tak
kvinn
sold
syk
egne
##oler
Afrika
1996
ei
regjering
ungdom
oppd
klubben
##ometer
##østen
##burg
1997
##havet
skog
##ward
vansk
albumet
##ho
dager
eld
bi
Tid
sik
steder
delst
rask
angrep
folke
##utter
sann
##erg
kirken
##rø
Art
antall
distri
sak
rø
Kl
##skj
betyr
##ice
NRK
beskri
eldre
##åt
kn
##bert
##olusjon
##dde
tross
Johann
##ollen
fulg
kre
arrang
regnes
veg
##ini
##jørn
1994
lys
##50
svensk
foran
##fra
##borg
pass
##kjent
##vei
##usen
vei
##ader
##servat
##ølv
enkelte
##ublik
følge
##sminister
##jeld
##øg
##ete
effekt
##okrat
slaget
##rich
råd
hvil
##eland
##eth
ten
##deles
##partem
benyttet
hva
nasjonal
##mere
viktigste
##mes
meget
183
##rop
Je
led
Trondheim
Mil
Val
_
##ase
Char
grens
##itar
##ya
##ologiske
Mange
inneholder
Mer
##bil
##vann
bry
Amerika
##ukt
##rukt
områder
årh
##ama
##pper
stilling
lev
dokum
voksne
##ttes
##histor
Ra
We
Jac
Siden
ry
selskap
hovedsakelig
eldste
##ori
konf
##ame
My
1992
knyttet
ab
samfunn
##ula
##orden
##øt
neste
Berg
1995
=
Ho
general
ødel
uavheng
##ander
hverandre
##isme
##ksjoner
1800
bygd
##une
ur
betydning
##ta
kjøp
komme
kongen
kli
kompon
##unktet
Air
dannet
Ba
##test
karri
tilsvar
##vingene
##uden
##fører
sentral
våpen
divisjon
omfatter
lav
hy
spor
##ktør
dann
##nte
’
##stra
##atisk
##istisk
##delige
##lekten
dra
sa
utnevnt
selskapet
mat
avg
familie
gav
arkitekt
##BN
##sle
suks
fork
gl
tri
bruke
slått
##arken
brukte
konkurran
##ativt
prosje
inkludert
Filmen
enkelt
engelske
##serte
ISBN
Jon
midt
##reng
åtte
midten
##urn
##dte
##medal
##ure
vitenskap
bygge
hvordan
##rale
grunnlagt
dikt
vinter
viste
##asjer
##ng
##økte
provin
Universitetet
##fjorden
mente
finner
via
##ømme
prest
##arter
Berlin
mater
##entlige
##giv
sto
Sol
##værende
##orge
##yrk
jernban
sentrum
##øyt
nummer
##onn
##sty
finne
1991
bod
katol
sterkt
Fo
##ftet
##ara
publi
##elg
David
Mot
Ben
##isering
partiet
Arten
etabler
Ir
##inae
folket
##ico
dagens
##20
htt
alli
fakt
##sch
##skolen
##ace
##urer
kilometer
##ix
borger
fred
Christ
##way
##ose
##ktor
##inert
sanger
Pe
##deling
Senere
##alk
##formasjon
lokale
1993
##vart
dår
bedre
##iendom
periode
##fe
?
utvid
politisk
arbeider
##risk
Ul
Eli
##terer
Inn
feng
drept
##dige
##landske
##linger
##illet
##ellen
##sg
Mor
professor
60
hører
felles
##arlam
Australi
ww
##orth
plasser
www
Blant
##delsen
##ømmet
mester
bron
utvikling
##essuten
2019
##arer
kontroll
##føre
AS
tittelen
##elsene
##synlig
eksp
Over
Intern
##apan
##sa
##irken
##iere
bred
danske
##huset
##stendig
##alget
giftet
Alle
##my
1900
bek
port
##rens
##upp
militær
vår
##pri
system
offentlig
tru
måte
##søk
##oller
Fol
avt
##alis
karakter
##ca
forst
Olav
1950
Wh
minst
region
##cy
ch
##kor
sølv
Ander
Tom
World
##ologisk
##klub
Rich
nordlige
endte
Part
betydelig
Hoved
sing
##van
Gro
##ekom
##rael
Thomas
tildelt
seier
##ael
forel
Ham
##osof
industri
##rak
Lin
aut
1988
kraftig
slo
represent
deb
##stene
latin
Johan
sesong
##ight
##edet
##alli
City
fys
##pan
stre
##ical
orden
##skog
Beg
##ury
riks
Port
vanskelig
##riske
Hel
##vor
##ds
verk
kolon
kamper
dansk
Mel
##dem
##alderen
fremst
hovedstad
1945
samlet
område
Byen
ettersom
Mal
Qu
1940
##unnen
insp
##spl
gra
##kont
ne
##ibli
##vere
nom
##useum
Arbeid
##urner
følger
##uren
ønsket
psyk
nød
##stedet
livet
##rafikk
likevel
rød
##allen
180
##han
Alex
venn
ass
bom
Trom
Roma
##we
Stock
imp
Mag
bronse
mel
fylke
lengre
dram
poeng
inntil
bygg
##fjord
##fest
artene
virk
arrangert
##vok
mis
##øse
Øster
oppk
Carl
norm
##setning
Kø
besky
sørlige
Stav
lenger
##iter
##skom
##ocke
##atiske
gud
##øret
##rert
##album
##ala
skjed
krav
bror
##ksjonen
1989
India
##senter
Pr
lokal
tilk
suksess
dro
hj
studerte
litteratur
500
##uelle
vekt
kroppen
##egår
prins
Gud
##menter
Bes
innv
såkalte
miljø
##imot
regjeringen
##ime
biller
##bruk
Navnet
foret
klarte
Phil
Russland
tall
Ta
pla
##rige
Gl
Sve
West
svart
##ze
##ivt
teater
##yer
##nelse
høyeste
sannsynlig
##holdet
forf
energ
##ourn
holde
ul
ide
lenge
##stid
yng
svarte
##aden
III
do
##sut
Far
1984
tids
natt
##stitusjon
muse
are
##ørsm
sangen
##hvert
##iel
landsb
Ger
##kkvingene
blom
gode
##rand
##anke
kvalif
##rigin
erob
provinsen
kommand
##fjell
Ter
endret
##nn
##otum
Køben
##isin
redus
Bre
##kn
nr
##entene
regiss
siv
##erer
##nia
##folk
##ola
##øs
ju
Res
##bund
refer
!
hjemme
produsert
##igh
##atri
##hov
landets
Kv
drift
Ke
felt
heller
bodde
##arab
us
organ
##ømt
oppn
alder
##iddel
##ora
##obb
##ney
Bra
stein
britisk
Ve
sterk
##inget
sentrale
Japan
James
jeg
##aget
1920
##partementet
fyr
trebu
##ugh
høyere
elven
##fon
opprinnelige
##delser
##ari
stasjon
##ensjon
slekten
bra
maler
sek
Georg
unnt
##organis
##ka
##felt
##ente
følgende
fulgte
turner
##ålet
Em
Jose
Krist
raskt
hvis
##flyt
plassert
##orten
##ronotum
Mad
##øyene
Bru
fisk
##løp
forskning
Høy
jød
##isp
kur
militære
##vig
satte
lett
##iret
##ida
Stockholm
styrker
##føring
overtok
##åten
##gent
##slaget
1986
##øren
Neder
måneder
stiftet
valgte
##delen
syke
##ited
resten
##elva
sikker
Lang
lær
finalen
National
80
Ex
##ago
trolig
Canada
##age
ni
mist
bøker
Finn
unge
Lou
Jan
års
Po
##formet
1987
Henrik
europeiske
sky
Middel
##leder
th
182
fall
##isjonen
vokste
eier
##peratur
ident
##vard
motor
Stavanger
##ertug
George
##blemer
syv
enten
tu
fas
hvite
##parten
Don
skyl
mm
##ås
eng
##ira
gresk
aner
post
##fall
krist
cm
##partiet
##delingen
disk
fjerde
##skje
Tre
Slekten
##helm
oppdaget
Sn
vise
##iens
erstattet
utgjør
sist
eiendom
romerske
##smann
Bla
skjer
##ield
Australia
Spania
okk
Gar
35
##aga
Brit
regnet
##ppe
##ming
bevis
Cor
gul
##illa
1985
Do
##rigen
skjø
##lys
##sberg
reiste
stod
##enet
skolen
sem
##ros
af
70
ene
inng
bu
##kning
##fart
gjel
sna
forekom
##igheter
Asia
Stud
olympiske
besøkt
grupper
gitar
##ain
Norske
straff
##ynast
##dens
Egypt
##otball
parlam
brun
##vist
rek
Martin
kunn
flag
##fold
##azz
##idrett
##ibliote
solgt
##ria
No
Du
##akk
sammens
##car
størr
##ena
##ved
1972
By
instru
##bane
Sovjet
##gene
ed
##alitet
Id
##itter
##ington
Ifølge
Roy
kampen
##ju
Nil
##ios
1979
1930
##esjon
Jer
##itz
biskop
Flere
##melig
um
##attende
Ju
##ahl
##lant
##eram
Tel
VI
stadig
tapte
Vol
##spill
posisjon
##undre
http
Lov
##legget
##keb
Sal
blå
Rog
publik
##own
Mac
styre
figur
Hall
havet
filosof
informasjon
##ilte
##ska
179
##ative
##snitt
##sene
hær
ko
regist
origin
##agen
symb
kropp
forsøk
##ions
karriere
##ante
stam
alltid
Byg
##chen
And
løs
gren
##beide
##ital
##okus
##ikeren
##ilde
##eden
kanskje
Sel
indre
Gra
##anne
gate
##ruppen
##banen
tjeneste
Også
]
jap
hens
##iger
strøm
Franc
##sens
søn
Band
vari
tekst
øver
prakt
oppkalt
##vendig
kunstner
delstaten
høyt
Press
kart
Fer
dens
##ivet
Besøkt
##liv
##ute
lærer
##ano
1982
bolig
1968
soldater
##kant
Bor
innflyt
##ona
Li
Met
##meter
event
begrens
##ørt
aks
Amer
##rog
Mellom
##anning
Ga
rapp
##rasil
ram
slike
Rec
Erik
religi
dessuten
##aly
Angel
nivå
rike
##gelig
##ony
funger
feil
##åp
tol
Rad
Sim
skjedde
Island
vist
Hell
katolske
Johannes
##spunkt
##uts
befolkningen
Gri
Nederland
1974
##ringen
utstyr
##stant
defin
sykdom
nasjonale
sve
klart
War
sommerfug
##kar
##vid
bro
Aker
Sammen
regionen
##iti
indiv
journ
##isere
Ac
1975
sommeren
korte
gjenopp
1983
##opper
areal
kontakt
nordvest
København
1976
høyde
##oper
idrett
1981
##BC
1973
Instit
tilsvarende
forkl
##oth
Im
##sky
Richard
Cali
Mont
##ics
konstru
århundre
boken
trebukker
1978
konser
gu
##rykket
##que
##gjort
fug
##skaper
grå
mask
lege
typ
##ledes
forteller
trakk
##æring
##fø
Go
varier
hvorav
lære
Fredrik
1964
Tim
prosent
##itler
##orter
vestlige
Ni
All
møtte
##elli
##aktør
helse
oppført
##ismen
##enten
mennesk
omfattende
##shus
Bay
Van
32
kost
Michael
delvis
United
veien
fremdeles
##kast
forlot
høsten
##språk
##tein
relativt
dårlig
##ronning
gård
forh
kvinne
Di
##ty
##mest
Mex
Lille
kombin
produ
Hå
##ockey
hum
serie
ann
##gitt
Pol
90
##bart
grenser
##eningen
##urder
##delag
Harald
holder
løp
bakgrunn
1969
Alf
##jert
vind
##bladet
Ly
Soc
greske
tver
Larvene
##ømmer
Del
tilgjen
##andid
##raks
reise
##kkes
meng
##alene
##vare
Kommun
Dom
nordøst
nådde
jev
##entral
##beveg
jobbet
Stort
kroner
till
kommet
test
300
viktige
Sovjetun
Bok
etablerte
##jor
##lom
hevdet
revolusjon
sub
##cu
kommunen
##posten
Trøn
privat
tak
fører
punkt
radio
##retning
1967
##ika
##ikkel
utgiv
##lim
møte
sign
Califor
Skott
hæren
##ffer
##ikal
Ven
33
Mens
finans
##asin
##ande
##arbeidet
ute
##nere
##ublikken
##adene
pas
##istan
##kkel
##spekt
gått
russiske
##iteter
##unk
amb
[
Tri
prim
historiske
45
##bia
ansatt
Hus
##legger
Fr
fart
##oph
Grand
hundre
##ografi
Pla
Pal
åpen
Min
sig
##sjøen
##lit
gjelder
ir
##iler
kons
søster
##gangen
##virket
epis
##området
##mo
regel
hem
##steg
sport
besl
profesjon
##iteten
##78
Ze
##idene
bør
##ssy
trom
##eds
##lå
Lud
##råket
##vek
##valg
krev
##sep
Maria
##forsk
##ikasjon
##eres
sørvest
dagen
universitet
##sek
##ømte
1971
mistet
grensen
forsøkte
gro
##dres
##område
utgang
spørsm
California
##stri
##områder
økonomiske
samle
statsminister
fortset
##jorde
1977
Gam
bel
medisin
leker
lyd
Aften
utviklingen
##ords
mottok
Lib
##visning
erkl
##kurran
Ak
##sset
utvidet
##stilt
sosial
fores
offentlige
nåværende
##brudd
Bå
##løs
Gjen
sendte
offisielle
elva
falt
Charles
hentet
##ky
eksist
alvor
##etten
handel
##ör
fokus
##blem
gangen
øk
178
##rettet
##øp
##former
type
sørøst
ban
kysten
International
Los
##essig
ytterligere
Album
Freder
ifølge
Lo
Bil
spill
August
##på
##abil
##60
sluttet
beskrevet
##ktig
##skl
staten
stammer
ordet
##ving
##skrift
ansatte
vunnet
retning
##inc
##asje
innsp
altså
##ærende
##ella
##igheten
ledd
##band
##amen
hertug
klubb
skrive
##port
økonomisk
Bjørn
Oper
Wal
mener
##standen
##issen
ført
##forening
Anten
preget
##dyr
##ettet
##åg
##range
##ridge
ele
##spunktet
Sl
##ront
byens
programmet
hår
North
##irma
Magn
Ath
funksjon
Trøndelag
spillet
##hen
1948
Irland
##orien
inns
##steret
tyn
administrasjon
bill
underfamilien
problemer
strid
Tra
farge
##ua
sær
Selskapet
##kan
medal
##raget
Cla
1944
Mark
sjel
fortell
##istene
bestemt
parti
fang
z
1965
kontin
arts
##ønne
Hal
utdannet
Bur
sider
##aktig
skrift
##ialist
historien
ære
##ool
##nevnte
kinesisk
tør
##entar
fre
Israel
##ansert
sat
opprør
##osit
Red
##annelse
Fort
History
kristne
##ktes
bestemte
##osp
Kore
sier
1966
##later
sikkerhet
sh
##egående
etterhvert
##ikler
inse
##ux
handels
Deretter
publikum
støttet
stats
hvit
##buterte
sjef
##rådte
##plassen
byer
Finland
##aste
##stander
nærheten
##ski
demokrat
Mexico
##strøm
##gelige
##cher
lignende
ving
sammenheng
områdene
Ev
italienske
##dalen
Skottland
##arte
stopp
vanlige
kraftverk
intro
Cap
resta
##ivalen
ledelse
1963
konsert
##kkene
##ellet
dynast
blod
resultat
##rans
##ci
##oven
##person
##ction
##angel
elem
sla
##ko
34
##asset
moh
eksped
danner
skul
sterke
styrke
##ival
##kraftverk
organisasjon
oftest
uttrykk
totalt
linje
177
##medalje
fengsel
rollen
populær
nab
millimeter
##byen
behand
Sovjetunionen
midler
##liggende
oppdrag
x
Juli
høye
mørk
ves
stri
drev
Fly
Sven
Jes
Ox
1700
hjer
befolkning
##mund
allierte
Ott
Colle
filmer
##ampen
fordel
##ün
okkup
Øy
##ittel
##kjente
##mål
representerte
##ams
situ
offiser
##jøen
slott
fotballspiller
400
##har
Sant
skipet
##aliser
##etning
het
heter
##unde
Gi
##omer
undersøk
##ksik
##uelt
inspir
##sav
##rere
##rar
År
##anlegg
##isped
obser
1962
##bare
Knut
selve
derimot
##ple
lagene
Ek
Ceram
tegnet
1956
##iment
Vid
kjøpte
renner
On
##punkt
##stoff
Ap
motsetning
lengde
Østerrike
##byc
##valget
##industri
##fri
##orf
##ifte
uker
##ranger
avheng
1939
1942
fiske
Inter
Cerambyc
Ang
##orte
roman
##ita
vin
høyre
##landsk
##ory
kir
Royal
##utvik
bille
Vi
direktør
Pre
brev
Både
Antennene
##følger
Ole
lage
##fte
nødvendig
##ür
Song
matem
kristen
VG
minne
sovjet
Dem
Mu
##dagen
spanske
##edal
valget
Gener
##bas
##udenter
Tro
debuterte
interesse
##za
utført
Park
1941
venstre
##fag
##høy
hodet
##ding
Louis
personlig
temperatur
##ts
friidrett
##film
Store
##biller
Samtidig
sju
arten
fi
betra
Riks
kinesiske
##merket
##abeth
##sund
varme
politiker
##krig
dobb
rik
##egg
sende
##sper
sal
Vik
##prisen
yngre
FC
##ktene
Mol
Brasil
gården
begynner
##por
##departementet
##tiden
IV
##wood
brann
Ky
minutter
italiensk
kyst
##virk
##innen
##mende
Museum
##omet
##edlem
Cro
faren
##gruppen
Nap
bredt
Hennes
##uc
1946
invol
Jacob
ankom
handler
fj
##sstore
Vict
##øde
Henry
huset
fan
##ørs
Arbeider
arab
benyttes
snart
Hand
”
##bruks
bind
Anton
ellers
studier
omd
##alet
samling
passasjer
tron
ting
Bri
##ubben
Ark
##fle
hust
##tale
150
##itets
##stat
##polit
liste
flagg
##løst
Vil
behov
##eler
prisen
##stående
ub
##ican
##ritor
38
Thor
saken
Ass
##10
##enfor
styrkene
##estilling
##sjekk
solgte
tilfeller
as
tom
##ato
Sil
skot
forsv
1952
##krigen
omtalt
1961
blomster
##akten
stemmer
##gruppe
##itte
opplev
##är
avgjør
##inar
##våpen
##30
##ardin
Bern
stjer
tilgjengelig
EM
fien
behandling
tog
Kunst
forholdsvis
36
Oscar
marker
King
South
ill
bereg
toppen
Black
synes
riket
fylkes
østlige
##ome
1947
##yp
Polen
kilder
##atal
FN
sli
##raksis
kraftige
##sken
##pres
unntak
##digheter
sammenlig
mo
Anne
spre
angrepet
Gjennom
##kså
dersom
##onia
1943
enda
##pel
arrest
Ali
egentlig
##iplom
##bor
drevet
Området
Året
##øder
myt
##ance
populære
Bod
##essen
##hu
vider
inst
sette
politikk
Bir
Pronotum
avis
myndighet
Sar
blei
Stra
1958
vide
Smith
ytre
altern
vit
1936
møter
årsak
##iør
Cast
Hann
##sli
standard
kontrakt
vurder
arke
##mennene
##riket
##aken
regissert
nominert
##ralt
nokså
##ifisert
##las
eksister
##gerne
Midt
bidrag
Bon
1600
journalist
##vate
##ani
formula
olympisk
##bed
arranger
fatt
bøl
tydelig
1949
##øyer
øyene
##klubb
##mos
Bill
+
##rykt
##innes
##bundet
NA
besto
innflytelse
Gust
normalt
##følgende
##ateg
##abel
klasse
##amper
Angeles
##agelig
##ior
Var
konsent
##ekter
##vo
##ague
##inav
avsluttet
planter
overlev
##holde
Pan
##antene
likhet
37
##bro
Lars
vert
Albumet
bygde
##skerne
##unget
Mos
Ann
timer
publisert
Fa
transport
Aftenposten
##ror
##sik
kob
##fulg
##indre
##musikk
elektron
##mannen
##rol
##kretær
##sessen
##iren
vol
videregående
hustru
middelalderen
##onen
NT
nekt
bygninger
##organ
##veks
Belg
##bel
Ka
blad
Rep
##edre
##minister
Sangen
##sand
##inske
Nordland
Wash
##fen
##alisert
opphav
bydel
penger
##ations
typer
Si
slå
Så
##undt
Hot
##hr
redaktør
##kjø
co
modell
Francis
##økene
##stron
##atikk
##uel
Europ
##ura
##hjem
gar
Jean
rå
##uell
##rinn
1959
hoff
##40
posit
##formen
##inene
Dekkvingene
##orm
innført
##sess
##aer
kone
me
Hau
Spe
offisielt
##ush
utga
Tromsø
kret
arm
grev
historisk
sand
virksomhet
daglig
Magnus
brøt
##vs
##engt
College
##lav
lot
besøk
##leve
##rerte
1918
prem
##røn
##gin
flert
Victor
##lob
Vir
introdus
##andinav
##ån
Kat
##unge
Off
levde
Hu
strekker
but
Saint
debut
##ledet
etterfulg
uavhengig
Oxford
sikre
Kor
Like
##affe
leve
tolv
utstilling
prov
nevnt
##sept
##idens
Compan
årlig
##stasjon
Vinter
religion
Grøn
spørsmål
39
1955
##stiden
Award
veldig
økt
##etts
vokser
ekstra
fabri
Arne
##produksjon
forfatteren
##imer
Sveits
nærings
##loven
##deren
Ru
You
former
individ
Nasjon
##ferd
kalte
1957
##oer
avl
Albert
dronning
Folke
##sar
kle
##ower
##øve
##gjør
##asen
##bygd
##ear
status
tittel
Sig
nærmere
frig
Hum
Stre
fjellet
pa
bevart
##slam
##tidige
75
plate
##iets
##raph
##irka
problem
virkelig
systemet
fremste
mand
##edyr
obje
vannet
Ele
##vers
konflikt
##bon
oppmer
##vingen
Lind
mørke
vinner
##ledning
kunnskap
tverr
ødelagt
syd
##stemer
kvart
Max
starten
##bi
stoff
spred
vold
##olene
##årene
grense
museum
##pene
Washington
Joseph
1938
##sc
Super
delta
legge
private
tradisjonelle
inf
Records
meld
##blad
båt
pot
Rh
##nær
God
føre
fordelt
##unner
##ues
##ksomheten
USAs
American
hovedstaden
dømt
1954
sosiale
##wn
##full
1919
runde
Bak
League
##olis
Nic
erkeb
ledende
##dommen
##lede
Dram
ansett
##isc
oversett
##ørende
42
tusen
internasjonal
pap
1500
##gn
##kkende
fjern
russisk
sannsynligvis
sitter
dekket
Kol
Ca
vik
Gran
uk
fullstendig
sagt
##bygging
pal
størrelse
##åte
##urtig
Liv
School
##ryt
##ologien
kjøpt
oppnå
1933
Publi
82
##ih
Fyl
##astet
akk
##field
1953
##ietn
røde
øverste
##anda
##ering
konkurransen
EU
##iat
1912
##useet
overført
formann
Wilhelm
kop
praksis
mulighet
Harry
utenriks
skriver
enhet
Kan
femte
176
##iljø
##unnelen
##plasser
##ratt
Ros
SS
##ova
Rev
Star
bakk
##atten
Frem
Korea
##tek
BBC
##sey
##utning
Første
arbeide
##yrå
universitetet
##gård
##gum
skiller
Polit
naturlig
skje
våren
lo
McC
lavere
Org
hode
##iction
hopp
passer
tidlige
##stjene
fr
##ami
##mot
vend
##aksjon
inkluderer
##bud
byene
UN
bilder
begrenset
Tot
Hed
presen
administrat
##ité
nøy
lansert
konged
app
unng
Statens
trekk
Idrett
Fest
hold
##ese
##forfatter
tår
pil
overfor
pave
##giver
territor
stille
sønnen
elev
Kh
ment
Bi
Jør
erfar
##vent
##iseringen
bidro
##to
##arkt
Hill
1000
typisk
Tidligere
hal
Sing
mass
Edward
diplom
##win
Håkon
Hy
salg
Begge
menneske
bilde
parall
##merk
##omen
##spart
dokt
Ur
##atning
studio
myr
bakken
generelt
Pet
##bord
dekker
institusjon
##selskap
##mod
Stad
Sta
Beij
1914
fange
Forsvar
##viste
Film
Marie
artsrike
Ko
##uri
protest
Jak
##kester
##ville
##ail
##jonen
##assd
##tten
ønsker
Tek
CD
1951
trykk
hjelpe
##atret
Lund
utgave
##jed
##oide
##arder
##eten
##iven
fjorden
48
Luc
Miss
reist
##chester
deltak
Ken
jorden
##ays
##ddet
Tex
##kirke
est
Ry
##cht
henholdsvis
##iert
##spor
Rock
kvinnelige
##ards
ekteskap
Ram
bygning
##ollar
##ussen
Gul
olje
økte
##historie
##asitet
##ifin
stift
dets
##alle
1928
driver
41
spen
##ology
mob
bestod
prøv
strukt
ør
skape
Peder
sjelden
##ces
##ones
detal
avhengig
dels
således
Mary
jevn
tilp
engas
utdanning
##kamp
hellige
bese
begrepet
##lie
strå
##enen
hovedroll
Hvis
##føringen
##MS
vær
spansk
forekommer
##inere
##teret
viss
Gruppen
erobret
religiøse
##vekt
Famil
Telem
energi
misjon
vek
Ungar
kandid
Company
##gi
##kel
##kka
Bjør
illust
##gaver
nektet
##stet
att
Nav
##elly
##amerik
restaur
låt
##aling
åpne
600
pris
##uf
forstå
innsats
set
gjennomført
vedtatt
Dar
opptil
romersk
Sj
neg
øster
##grammet
tal
Il
Pop
begrav
##sdal
nedlagt
##ogen
ish
Agder
interess
Sw
1937
sirk
55
aksep
fantes
##vision
##forbund
##ep
##beg
NS
##mor
spillere
samfunnet
Beijing
Hv
1932
sivil
Pres
##side
bon
lille
innsjø
akadem
##grens
##flaten
Dermed
Hellas
Skolen
175
tilhørte
Cerambycidae
##emb
dist
regn
oversatt
##asjonene
##nis
Kle
Kro
billene
trafikk
##øvere
British
##uen
##bard
Est
seil
Hav
japanske
gru
1924
Jens
##iem
Kultur
tele
antatt
måten
konger
inspirert
jazz
Stortinget
##funn
antagelig
##urs
Hitler
##pal
##sburg
##kap
Scott
student
##ærlighet
##sbyg
ford
skade
nyere
Portug
##kunst
eksempl
nø
##ligste
skapte
##wer
##ship
bass
fløy
jakt
cirka
opprinnelse
dog
demon
insekter
##skipet
1910
May
avdeling
##ience
##eremon
betegnelsen
VII
Fried
nedb
##derk
eksper
##konkurran
##well
Tour
##melse
symbol
##ynt
bibliote
Sv
varierer
Odd
Hor
rock
##skilt
##elin
ank
##yre
utover
##utd
##ruk
##esser
kongelige
pat
##lager
Wien
1917
##jes
egg
##yggen
medlemmene
kommuner
Bas
tilsk
stilte
stav
Hansen
forut
##skriver
strateg
##bef
##esten
##bevegelsen
Europe
##ota
47
fylket
##ifter
Bet
pe
kateg
hurtig
Hø
##rader
800
semifin
Fe
und
formål
trekke
##pris
tjen
Lev
banen
klima
utsatt
170
##ordenen
imot
##psjon
bekre
legger
##iket
ungdoms
etapp
##kre
Edvard
1934
rid
tor
initi
##skar
Jeg
kampene
bren
stå
##kerne
##formede
trær
data
dollar
##gående
rund
grunnlegg
##føres
angri
##neser
delene
kommers
Anna
sver
52
krys
##dam
mun
##iana
##anken
væ
##park
vendte
##lis
Eid
##løpet
from
bland
Alexander
##hard
nevnes
##samling
##ois
elv
Ford
virke
musikal
##odi
##do
landene
Syd
##strukt
tilknyttet
tilt
##ec
##ksikon
##ografisk
Nar
##ws
##unkter
frukt
provins
Arn
him
mek
##jøres
grunnla
dig
Samme
##vende
politiet
bestående
innspilling
representerer
1935
Radio
måned
log
##marks
##ulert
##cer
##isa
elever
gen
44
opptre
160
pian
bisped
hot
hu
1929
##vinger
alene
Verdens
reser
dominer
Kri
tropp
##steder
mottatt
Kirk
##gress
Marc
øvrige
Folk
##iblant
samarbeidet
##ón
Finnmark
##slet
Fjell
Green
##asjons
guvern
skar
klassen
##alm
utvalg
##ikke
##ubb
gran
studenter
##jern
##skrigen
ambass
##ament
innte
stemme
##ograph
Ib
Middelsstore
organisasjonen
Ludvig
MW
språket
bud
Music
Belgia
Haug
dobbelt
Ing
Kristiansand
Des
bygningen
Mosk
##vokat
krimin
Camb
Matt
##ydro
bord
dr
horn
##rey
Hodet
##åter
Tran
teksten
nederlandske
skiftet
utdannelse
##navnet
##riften
forble
fritt
strek
gjennomsnitt
dav
vet
grunnet
##shire
forster
hard
§
ex
middelalder
##produs
grunnlag
befinner
##inas
##iety
Nik
##ife
##ymn
prosjektet
sykehus
##80
43
Ungarn
##act
slags
legen
tilkny
NM
##figur
utvikler
arrestert
Otto
##hi
##lende
##fisk
Camp
Champ
ball
##70
Fotball
super
##rede
vak
Gö
utvikle
##ake
hind
ender
aktive
tekster
bøn
##line
##plan
##ygge
##apt
##rud
musiker
omfattet
##aket
jarl
Bib
##handler
##sbe
##allert
##uther
Gunn
49
århund
endringer
rykket
forskjell
##rener
1921
Yo
171
Times
##urch
faktisk
scoret
##illere
avvik
utny
##varer
##holder
internasjonalt
Leg
krigs
beskriver
##alem
##strekk
Serien
##kjør
hevder
vare
##ettere
trener
Nett
masse
##fort
Først
##ttelse
##ikro
1908
tung
vinteren
forsknings
##oni
##atør
stab
kg
deriblant
makten
kull
doktorg
Aller
##lovak
##verks
økonomi
##stitutt
kant
##ødrene
##ieg
representert
uly
65
farger
##din
##sons
Rosen
utford
Mün
inngår
interv
planlagt
pensjon
resul
organisert
Tu
daværende
tonn
verker
How
NK
Tem
1922
skilt
Anders
Kirken
App
##yk
tapt
Grunn
bosatt
metall
flertall
Que
##arabider
påfølgende
Side
fjernet
vinne
Øv
##osa
skil
##orier
lufthavn
Olsen
nærmest
##but
utel
distriktet
avholdt
##hv
##ati
It
##otter
##iop
##oter
forkort
Wales
##bærer
hast
kritikk
##iro
redusert
Imidlertid
51
##alp
##ES
formen
ori
prinsipp
Tar
##stall
Prix
hvilket
##iserer
brede
forand
##olin
1927
##retten
##AF
Chic
with
##kysten
underlagt
ag
spesiali
Lee
Cent
##irasjon
##åler
120
##IS
##vå
##oy
stjerne
versjonen
turn
kirker
##odd
prosjekt
plante
##etningen
dekkvingene
High
forslag
turneringen
skapt
##enez
forber
##kson
innb
avtale
##anden
andreplass
dekor
spesial
1925
Flor
##rette
##vice
Gustav
frivil
46
kilde
venner
Tru
grunnlegger
##iang
1931
bele
trakt
Andreas
materiale
##mir
påvirket
liber
General
##ublikk
Jack
uke
beskriv
##edag
##NU
ring
vå
Jakob
##tning
kjønn
eid
registrert
1923
østerrik
Telemark
##insk
Kap
argum
##aktige
##sområ
produksjonen
Videre
adel
##zz
involvert
deles
##aria
Arch
##skont
kjempet
unna
ansvarlig
inneholdt
Les
Kraft
starter
##affet
##bygget
##irmaet
programmer
kr
funn
##serien
skadet
artikkel
tjenesteg
1916
ukjent
ekspedisjon
##kvar
Fjord
Ola
1905
krevde
opptatt
##ms
can
1911
##uch
assist
##cc
mangler
hit
tegn
beseiret
Son
kaptein
tema
forlag
##jernen
jødiske
listen
reform
føder
yr
164
nordover
##jev
##mord
anlegg
##rie
174
Kir
kortere
klassisk
grønn
##col
verket
1926
tvang
##NA
ishockey
##kkede
ap
##roller
avisen
##ulen
øyer
##bus
atom
##essige
flekker
skarabider
##olket
Beina
umiddel
spesielle
##aser
Teater
##yret
Lau
##endal
##ografiske
myndigheter
unngå
Cup
##lever
##ila
landskap
separ
Ep
ka
##irer
##grupper
##uba
tynne
##gjorde
Ren
Stein
Konstant
XI
978
##uppet
##ærte
besluttet
##lest
såkalt
forestilling
##FA
Post
magnet
##orp
Ob
##iken
velge
tvunget
dyp
desig
jøder
##senteret
##iation
flyet
populært
##utte
##oe
##vitenskap
##ellingen
berømte
##ikkert
tider
Zealand
kongens
forholdet
Beat
Scarab
Club
##nor
islam
beholdt
oven
kardin
Ring
Mass
##vt
Slaget
Alt
komponist
foreldre
Pra
besøkte
##rel
næring
Wind
aust
halvparten
ent
##rifter
stillingen
##hy
Gil
representanter
##ogne
Long
Kristiania
ort
kloster
##arbeider
Klubben
Hard
##igg
Bel
endelig
forbundet
dia
##pool
##ssjef
Just
##asinet
byttet
styret
organisasjoner
##systemet
flyktet
sovjetiske
##ows
##veis
dør
##innet
Mount
astron
Texas
oppmerksomhet
##cia
Athen
##amin
varte
totale
##dan
Søn
Sentral
Argent
spilles
##fot
Scarabae
##hn
kjerne
Portugal
##alsk
##båt
##king
tegneser
Bandet
Tøn
kjærlighet
forskere
##urat
##kanten
##mat
def
tab
manus
produsent
rul
anmel
forretning
##ogner
Dagbladet
spe
##merke
oversikt
Skip
##barn
typen
søk
val
##samlingen
uvan
168
ansvaret
##mesterskapet
##mi
Colum
bærer
etn
##ynd
fen
1913
Sogn
Bab
##unnel
armé
pav
Nils
konserter
##reservat
##anserte
reguler
drep
billed
##ré
##yting
selvstendig
##ao
173
Friedrich
172
sørover
##low
##ump
##ubile
##rin
bur
##årsak
tronen
Kim
Akershus
##ellene
##board
muligens
##ikter
Hver
##arten
aktivitet
##amask
##fabri
boks
hensyn
165
##øte
reis
##kjem
arrange
sjeld
Leon
É
fotograf
##nant
Hels
##nede
##zen
1915
deltatt
Carol
sønner
smal
##stå
syl
veier
lands
bane
korre
tradisjonelt
Ør
ligner
Bj
##stud
kvalitet
uavhengighet
Venez
priser
##sto
Ras
##mentet
helst
Rø
##ters
sivile
##stav
1904
Derfor
Society
distrikt
erkebiskop
ger
gis
Chicago
##stillingen
##engte
Mat
portug
Tsjekk
kommunikasjon
Inge
Pier
bank
kvad
marked
Romsdal
Na
Cambridge
Vår
kontra
##tta
uttalte
Nes
elektrisk
Bry
fungerte
##albumet
##90
turist
##sti
##mosf
Innen
fortsette
Bodø
Fram
planer
fjernsyn
##foss
Tyrk
##forbin
elementer
Nob
##brun
##kontor
Ingen
hom
Uten
egypt
metal
Sur
##styret
Sigur
##slin
She
1200
ekst
tilsyn
konkurranse
166
dokumenter
NF
abs
misly
saga
##sborg
##ianter
##stø
##omot
Allerede
hardt
Bob
skulpt
etterfulgt
foresl
64
##rekk
oks
Ung
##forsvar
møn
Sunn
##cel
Aleks
utgjorde
MS
##alest
gjent
##ition
##nerte
landsbyen
##anker
Eurovision
lande
##lot
mur
kåret
tredjeplass
##fyl
##onger
stadion
Sjø
drive
prote
##hund
Organis
##misjon
vekst
85
Jim
Moskva
jobber
##amerikanske
##skriftet
NO
tale
Wer
1906
innvand
berg
mikro
parlamentet
700
##itert
1907
##system
minste
Frederik
##con
##iode
pen
utstyrt
Gol
##vise
##rut
Journ
Vietn
hemmelig
##ulf
gass
faste
East
osm
##legge
Mak
Norden
antallet
foreg
morgen
beskrev
##pre
diam
##urneringen
##aktiv
##finalen
overra
artikler
Arth
rikt
##delinger
so
design
larver
sidene
##bot
##områdene
##uft
Tur
borte
##än
symp
Christiania
Gal
##lanter
Petter
eksemplarer
##AS
il
bære
Lø
Enk
fel
Bal
Sport
##ugen
##øyd
Mur
foregår
##sver
Simon
trukket
Halv
##rerer
Luft
bygger
##eltet
måter
##dar
skoler
oppsto
54
##byggerne
forn
1890
skille
salt
##hou
Små
søkte
bin
House
økende
forvalt
Jern
konsek
Æ
##lad
##ason
53
hvilken
##una
##renn
##spillet
Daniel
Kra
utse
##atelse
initiativ
dukket
Nov
Strøm
perioder
saks
kontor
##øyet
00
tegninger
na
Rol
levende
##clo
overgang
Dor
##vatnet
sle
##ktiv
##mond
naz
##ulig
Liver
avstand
handling
israel
Hos
##deller
##skudd
##hver
drepte
revet
alvorlig
##ye
Dr
Konstantin
##høg
##kommand
Ast
afrik
##uert
tann
tempel
##anz
filosofi
hvem
visse
##sekretær
##anerne
plassering
utgangspunkt
##18
##øytnant
Klo
representant
##ksim
1909
##bøker
##sfjorden
trop
##iseres
eventyr
flest
dis
landslag
tilknytning
Fire
##iew
##ibel
skyldes
gjeld
opplys
mott
##enk
Wood
milliarder
etterfølger
reiser
##gren
##otte
##middel
sil
##berst
tyrk
vitenskapelige
Borg
Brun
##12
øke
##deler
##ument
bånd
ordenen
Ron
Sval
Nær
Vilhelm
##akult
dvs
##nad
56
varer
hor
##klubben
myndighetene
Pat
##ude
analy
##kv
##sby
formelt
##CA
Pap
sistnevnte
##CO
##itch
bortsett
Dersom
##án
##bånd
levert
Veg
bus
studere
Alfred
Blo
##skommun
Street
pronotum
##organisasjon
Bow
##ystemet
natten
##lers
strand
kulturm
##abor
Jesus
Bank
Bell
øvre
snø
eksempelvis
##iteen
middelsst
##ekte
München
62
oss
##usalem
##fød
terror
oppløst
##ela
##erende
##ialet
Love
anlagt
##fjellet
forklar
fortsetter
##ön
Fro
##espen
presse
hensikt
Hein
anbef
##jent
##kra
gule
enkel
keiseren
Math
stål
kjøret
##verg
domin
gradvis
##aren
linjen
klassiske
Romer
Sigurd
forleng
##egn
nært
forbu
Mann
Gen
Hamb
##ient
spredt
alternativ
Glo
rette
##ima
##oppen
##anc
Mand
Assoc
produserte
Troms
lager
Jerusalem
##rær
##ronten
##geland
Deres
fungerer
River
overtatt
##ffe
Jos
##19
Sund
tyskerne
Gull
flyr
atmosf
##læring
plates
##ulk
##ots
Mi
Bol
##wa
ordfører
nem
##derne
Elis
##neg
##atre
$
##ynam
Liste
skotske
##ebra
##parti
##rafikken
Mun
Liverpool
ende
rettet
##ado
Orden
profesjonell
utenlandske
##meste
fær
regi
##forbundet
Arendal
250
jurid
Rud
erklærte
##dommer
utgaven
sjette
sur
ph
##ossen
##styre
Nå
Fær
avtalen
spissen
##ordin
##iges
##lund
##via
autor
starte
avgjørende
Fal
##ård
fav
Rundt
tilgang
##bred
austral
verdi
News
Group
Church
overbe
##hammer
##øye
##achsen
overf
innlem
front
sjøen
potens
rettigheter
Kal
kny
truet
virket
republikk
autom
fullt
##jul
Lil
Hon
Lyn
##angrep
##bruddet
##fekt
##ikerne
senter
sosi
##unc
Natur
grunnlaget
##strand
##versjon
krever
##rende
prosess
anerkjen
belig
Law
##fyr
##feltet
konservat
##edie
Contest
fremme
White
up
##æl
Lag
Roger
begynne
Argentina
kommunist
##esen
uen
anty
opph
##følg
##makt
Result
artister
Bos
deg
##vannet
tømmer
tit
driv
pin
sag
##byggingen
Die
retten
halvdel
##ttene
skild
begrep
bein
##estad
rammet
Rand
returner
mekt
etablere
##henger
Gunnar
##14
oldt
markeds
havn
Gyl
##oten
utelu
rappor
sko
moren
##sler
bevegelsen
##tering
sikret
Vietnam
##16
kanon
åpning
fler
ress
dommer
Senter
##melige
østover
58
##fugl
Virgin
Rogaland
Distri
##iod
lyse
kjøre
##oget
rekl
musikken
Høg
##derte
trenger
##sid
Eksemp
ødeleg
153
betraktet
forhandling
##mid
oppstår
Int
romanen
Ku
katolsk
lokalt
Andersen
##gu
##setter
162
##atert
qu
fersk
##uter
##ammen
##dy
1902
nøyt
vekk
##alls
hud
emb
Salt
##skraft
Arthur
forfattere
opptrer
Ettersom
markedet
japansk
Stan
skutt
##adiske
##irektør
Lie
Vestfold
etterkom
Ban
##lovakia
eies
Møre
##oslav
##ådde
bredere
lyst
kapell
##ansett
##kultur
##risen
fulgt
foruten
rot
nordiske
Bach
##akes
henrettet
landsby
##dsel
Gren
##alisme
verne
—
##uta
skikk
France
Dub
Haw
Sun
##assdraget
63
##able
merke
egenskaper
kul
Bert
føds
manu
##kirken
hellig
##idar
##grad
Vin
naturreservat
flytte
##mede
borg
landslaget
not
##right
##ids
tolk
##TA
##likk
##haug
sentralt
##out
Boken
rang
middelsstor
try
bøkene
arbeids
##onym
kastet
fattig
Svalbard
System
Dre
Manchester
Hamar
ordre
dynastiet
##løse
##atnet
##unden
dans
hvitt
flyt
roller
rester
opphold
guvernør
##foreningen
Moder
##hjel
##kers
##melt
##talen
##ific
Tyrkia
enheter
grader
Artene
betale
arkitektur
##miss
risik
markerte
anven
##arth
##TO
tilbyr
løper
stater
Mau
lyktes
Kroppen
selvsten
##ison
##ppet
##skon
##elling
ennå
Ö
lønn
kalk
##gift
Avis
hjul
Ordet
foreld
slaver
tilhørende
##fab
Ragn
##kil
##istikk
kommunene
larvene
##livet
ønske
glass
Bare
Litt
isol
152
Larsen
72
Dis
kra
skader
Iran
saker
nedenfor
Musikk
mesterskapet
##ove
fjord
inngikk
årets
##smannen
veks
godkjent
hyl
1880
Roman
doktorgrad
##meng
svar
signerte
Tit
undervisning
patri
Ray
##dinger
kated
nedbør
fjerne
polske
##arm
gyl
Ern
Ivar
imper
con
felle
forbed
Bergens
169
##ianske
benytter
##sette
Ball
studie
##ipend
komple
minister
instrument
portugis
anerkjent
op
kje
kvadrat
omtales
fry
spesif
personlige
99
plassen
enkle
åpent
##omi
Gib
ild
##oidea
##ides
parlament
Fle
##industrien
Corn
##tegnet
57
##messig
beord
bevegelse
installert
edderk
nederlandsk
##wig
Are
##asi
##olia
punk
rådgiver
##SA
##akon
prøver
##elet
##fru
##cyclo
forskjellig
##chn
##etta
1898
Folket
ug
dokumentar
163
omkom
uvanlig
##ourg
musk
tiltak
##alisering
##ution
Steph
##oma
##oldet
1901
identif
##øke
##ther
##ulære
##opter
##gården
utseende
tidspunkt
##oul
grunnleggende
66
74
Adolf
Fir
kjennet
vokalist
Oh
##seud
Kort
forårsak
disp
advokat
oppstod
betegnelse
oppgave
Esp
Holly
##uru
Ti
##aton
bevisst
##bukt
NKP
mekan
klare
Stille
eksisterer
##esu
Forsk
flykt
va
167
forsy
##fel
Pak
teori
##awa
##ygger
##strakt
Cra
unntatt
byggingen
##spolit
Tønsberg
kanalen
håndball
foreslått
##fors
##gers
latinske
introdusert
##fang
glob
damp
sommerfugler
Opprinn
vesentlig
##ioner
naturlige
rus
soli
kreft
Dam
oppnådde
Greg
Hord
varianter
Øya
alko
million
ledelsen
biler
mening
Francisco
Aut
##anere
##biner
##øyen
hvilke
gravlagt
Had
##uck
##holmen
prøve
Walter
radik
##15
mengder
##jær
##navn
belg
takt
Beatles
Jones
bruken
indiske
mesterskap
Sab
##folkningen
Mic
press
Union
gjeng
velly
##arbeide
Begrepet
definert
vingespen
bys
##augen
Molde
fjellene
##ilia
Patri
vannkraftverk
Eliz
utfor
endring
Elisabeth
59
kapit
##forhold
festning
tjenestegjorde
##astro
boka
delte
isted
Od
##press
##ttende
spesiell
tilsvarer
##fødte
meldte
##klo
nærmeste
##odor
Life
prop
##onsert
##yrer
partier
nasjonalpark
##zo
utgangspunktet
Kil
anal
barna
jobb
tror
##retter
Ari
##upen
Dra
##antet
##arv
DS
##otiske
streng
lit
Open
havnet
Bæ
scenen
##anj
##mag
##edes
##hengere
forsvant
fullført
vitenskapelig
Sus
##verdig
ortod
rute
Sin
påvirk
##era
dekk
##ghan
tekniske
Marg
##reis
mal
##slått
##ologen
Josef
##rup
##egård
skaffe
##ence
##adisk
##funnet
##ordet
kjøpe
tilnær
##sende
1903
dyre
frihet
##somt
##tekn
produsere
Øvre
State
riktig
Enkelte
##13
##merker
skjold
Lit
ner
teknisk
##OS
##kong
Vis
##iansk
innhold
95
Ten
utgivelsen
900
Doug
innebærer
Lad
Filip
arabiske
høre
kongedømmet
##tm
Rod
ube
kurs
skyte
komment
##kommun
##edy
##opher
##serne
Act
##manns
maksim
##misjonen
##fi
danne
##akultet
Jackson
dominerende
##lend
##iktet
Elizabeth
virker
78
Cam
vand
lover
programleder
struktur
opptrådte
Kjø
loven
mengde
##ular
##ødre
##ighetene
Atlanter
bydelen
Anlegget
avsk
skøy
vingespenn
67
Dahl
##ero
Not
Filipp
hersker
Mah
mytologi
##drag
infanter
filmene
betydelige
##anna
##ism
Plan
nemlig
Universitet
buss
stren
##orene
manager
##atorer
Win
svak
forbered
##lah
Cre
One
##rakte
##viser
oppgaver
1870
Ross
Akadem
Victoria
Aur
inva
yngste
manuskri
##entert
kjenner
platt
resultatet
Sav
NTNU
dalen
Champion
##bruket
drives
Arbeiderpartiet
##arktis
skjønt
##gra
73
Aud
hjør
samtid
lettere
##vensjon
84
vink
ombord
tropper
søke
skudd
##skab
ridder
##arden
##ussel
##uan
Bus
britene
##ensis
prosessen
##ralen
1814
tjenester
hest
formid
regler
undergrunn
Sag
Jord
fortalte
utlandet
hendelser
statsb
Strand
master
##skrifter
opptreden
lese
##RA
##ement
gjøres
Nation
bekreftet
130
##lan
gal
respekt
Lew
hindre
##voll
laste
##smedlem
86
##maler
stjerner
muligheten
##ittelen
Bang
Wolf
Blom
Gold
sangene
san
familier
fisker
terreng
##ymnas
Santa
Kommunen
##alit
antas
kanal
Sveriges
vedlike
##ques
ekstrem
Ara
Mik
rygg
##ugoslav
Time
tråd
Familien
spli
dokument
str
##antiske
øverst
betydningen
utsp
alkohol
beslekt
##esi
Dal
Lake
eksempler
##ppen
Olymp
rekord
##olo
##bjørn
1896
fysisk
##uly
159
fusjon
brødrene
spilleren
gjennomførte
flat
Nasjonal
##jeneste
norrøn
##svitenskap
1100
1300
76
##trykk
nasjonals
utmerk
##wan
Kun
perman
premiere
##rim
##inge
bot
Williams
situasjonen
##slig
oppford
##adel
##ommer
1899
sens
tilfelle
##ratis
##ittene
nomin
marine
kla
Brown
96
Tw
stoppet
##wich
Town
##zon
87
htm
Prem
Irak
embet
serier
1860
bombe
vanligste
Kent
beregnet
##oft
unn
union
##vald
tel
##itten
pers
styrte
Kron
refle
##geren
Hammer
produserer
##ressen
##kretser
Pas
innled
##åsen
eide
oversettelse
##vika
leir
konsul
trening
Stedet
returnerte
156
##ieren
papir
Afghan
seieren
hovedrollen
##zer
##iringen
hunder
##sjektet
røtter
##cupen
Rolf
gjennomg
Institute
155
kro
Dessuten
##chi
kirkes
##skoler
sveits
Østfold
semifinalen
##virke
##rerende
kombinert
flåte
Encyclo
Wall
eksisterte
dam
##jo
88
ån
basis
finsk
Football
kongelig
##serer
Helsing
Journal
umiddelbart
##last
Grim
sørget
##tal
mult
68
sies
##stolen
Day
Syria
Ikke
lokalisert
Kjell
faller
Hordaland
Lat
##somme
##bakken
##imensjon
innlemmet
##lighet
##demokrat
tidspunktet
Ei
##com
spredte
nylig
https
elleve
formet
FI
vakt
##rommet
base
##sammen
prøvde
forlate
klosteret
##igen
park
irske
##öl
tilstand
##akh
##isch
elektriske
Christopher
##evær
##hai
##pass
Hamburg
produkter
Veien
ledere
muslim
##jeringen
europeisk
##riksen
Einar
Ah
assos
##redende
Sachsen
komposisjon
øyeb
Drammen
##lagte
modern
fukt
##angeren
##stasjonen
##kampen
republik
##skol
Wars
trodde
forbudt
datamask
konsekvens
##brune
##dømmet
sed
rødt
stasjonen
Che
beskytte
hørte
lette
opposisjon
##row
##alif
##urser
Road
hovedkvar
##ista
##ti
##imet
Cat
benytte
sluppet
sporter
##ous
havne
tanke
brutt
konsentrasjon
##orre
kontrol
Young
Bø
##uddh
konfer
publiserte
tyng
Fredrikstad
bal
maskin
midlertidig
lengst
Cas
flåten
kaller
##elat
passasjerer
Academ
monark
##bær
jernbane
110
borgerkrigen
sum
bygda
##ders
##elag
##bildet
Hollywood
##alske
anledning
##lia
IL
skatt
ukl
Association
##esund
##instru
Gamle
Ala
Ernst
Mod
leil
nasjoner
singel
årlige
##museum
skyld
##ogg
##ården
skol
forny
setter
krysset
##ume
Sky
Coll
##uper
båten
nedre
##pes
barnet
innbyggerne
ple
Sent
litterære
##liste
##ictionary
##bein
drepe
rettss
##semb
Great
hydro
##17
ferskvann
Hj
##sre
##vne
1895
leksikon
Ask
gress
selskaper
resulterte
##olas
##ialer
beordret
datteren
##ls
Bull
92
##aret
idag
demokratiske
##rus
hull
popular
Rik
finske
Jud
vedtok
kunstnere
98
indian
##fugler
broren
anlegget
alp
Service
konsept
##DF
##aldt
scene
##stol
##fulle
Big
Hem
Rød
junior
Alexand
##likter
##settes
bildet
tilbud
prom
Napole
Person
lengste
tilhengere
eksisterende
kontroller
##miral
kred
Sem
stående
##iok
Svein
forret
tradisjonell
##ants
158
Wo
##inus
Cal
planet
##ape
døden
grønne
leddet
##ito
synlig
##alistiske
yt
##sjekt
live
miner
hannen
##partement
##öm
##varet
burde
Lok
løse
##skil
Adam
sch
utgrav
inspirasjon
##delsene
Vel
Hart
institutt
##forskning
orkester
##skop
Ris
opt
datert
fanger
sommerfugl
##bø
##plikt
gutt
stykke
##sopp
Lim
##bygningen
rør
Georgia
intervju
kammer
Anth
Ungdom
gram
Water
##VD
##inson
Kirke
Høsten
designet
##dørs
##plos
##edrag
Brand
##utvikling
##ctic
##løper
##vind
##krets
##lement
##sutøver
sammenslå
##see
##vesen
opprøret
stol
enden
bad
resp
forening
##bes
##imen
sym
linjer
arrangeres
##ologer
stund
##otten
bene
digit
Virginia
tradisjonen
profesjonelle
dal
##gaard
##ivert
holdes
1850
Form
effektiv
militært
drøm
##ures
##vi
End
##prins
Jane
anti
Tysklands
##lokk
##ystem
stabil
rov
##rul
##erep
sender
hå
##ador
bonde
forbund
fullførte
fastlandet
##tra
Margar
##sprogram
##kle
EP
Sande
Institutt
Skandinav
##gata
undersøkelse
stortings
Lillehammer
Gram
favor
kontro
1897
Atlant
solo
spis
supp
##ston
Tok
vises
forvand
Pi
styrt
Bærum
artist
herred
musikere
##mas
##sreg
Fem
##irektor
##bury
##stillinger
mannlige
Grønland
##amling
bredde
Len
##miljø
modeller
hunn
Dagens
frigjør
##budet
##vekst
korn
tvil
##avisen
>
Nam
Capp
Erling
Central
enhver
trykket
##hem
overflaten
69
##våg
Gir
lad
##olley
##legging
Stand
detaljer
diameter
medaljer
Mem
Nat
aktivt
Sul
Stift
Center
hunnen
klassif
##konstru
varm
størst
versjoner
##lyst
##skamp
Best
##ibet
elver
##ubileum
Comp
merket
frykt
teknologi
##ope
##ally
##ienter
gjest
##litter
malt
øvrig
Barcel
engasjert
##rys
Sec
Knud
ordin
bilen
administrasjons
kne
kore
##verdige
Slik
beskyttelse
Lor
07
Pac
uttry
son
1400
forbi
##erst
blo
trans
##esenter
pan
##busjon
##virksomhet
##ello
ansikt
##bour
##stan
##elsaks
##program
usikker
Net
fril
##konkurransen
##prest
Grupp
kring
##ialistiske
fo
##verden
prosjekter
drama
CO
##lass
Emp
jernbanen
gjenværende
##nem
bedrift
##ksh
opprettelsen
utform
mesteparten
##pon
05
observ
medvirket
##ylor
Bad
alm
amt
##riere
innsjøen
humor
##kser
høst
##dekket
seilte
sammenlagt
##offer
Cont
blanding
dannes
##medaljer
°
##uene
mannen
##aborator
regissør
##auer
154
Rid
President
Kongen
organer
##må
##ønt
##øtet
##avaler
major
drikke
resultater
Div
time
kalde
motiv
Lis
foreslo
##ifer
##lish
Ash
Emil
tunnel
interesser
Championship
##bra
##urope
Play
kulturelle
##aft
77
##okse
##ische
graf
deltag
tårn
bygges
##ely
Venstre
veget
##ulær
gjens
sammenlignet
Vo
kin
spiser
gitarist
##ni
##slo
##skogen
Johnson
seremon
Holm
Johansen
uh
media
##hall
møttes
##ilen
Bah
endre
velger
tillatelse
Opprinnelig
##alister
ingeniør
ånd
kapasitet
karrieren
##hild
##handel
trengte
##pekt
dit
Grav
##egården
markert
nettverk
##utten
arabisk
bronsemedalje
##linjen
##givende
praktisk
##opel
brune
Pen
lede
Sverre
Cuba
##ual
bytte
gjaldt
Afghanistan
##AR
##omb
Dy
overg
matematikk
anled
selvmord
forkortet
Dictionary
nyhet
slanke
virksomheten
Bart
frie
##kere
Steve
bunn
Joe
och
##xi
show
røy
gammelt
##varig
vite
##nivå
##adron
Columbia
##bergs
Mars
jesu
melod
08
Skog
annon
utkom
Ri
Mas
Bygningen
debatt
Fjordane
##iverse
##spilling
Bud
mak
kjempe
83
##egen
gri
##ttere
Lewis
festningen
##zy
Bygg
Jørgen
konservative
øyne
Ukra
##skapene
##festivalen
##akadem
Spillet
presidenten
undersøkelser
##tredende
aktiviteter
##kol
##lesund
stilt
Old
foss
testam
politi
##holdning
06
##ierne
tank
legges
uro
øye
smale
parken
angripe
Sæ
##mask
tenn
osmanske
isb
Poli
øker
Høyre
##kse
Pors
bidra
Likevel
soldatene
sesonger
Cru
##snavn
##zig
feltet
##odene
Franz
påbeg
##skor
brudd
Bayern
etterpå
1888
##æs
omgitt
Organisasjonen
##atus
##ørdag
Arm
Him
bokstav
republikken
Harri
ungar
gruppa
Dur
gas
Bjer
forveks
oberst
solen
##fallende
noens
Partiet
variant
à
##cks
##ringe
reness
vinger
modellen
04
##engene
tidligste
ekspedisjonen
##gro
Penn
museet
##skripsjon
kino
##yo
Gjø
målet
##brand
##elvet
##inder
##trener
##skiftet
fanget
utelukkende
Bost
Rail
just
fung
##oker
hebra
mobil
kompet
##strasjon
##itasjon
Sørøst
##sselskap
##arbeidere
Krig
##klassen
lederen
overrask
FNs
krysser
originale
Medal
Pierre
stengt
##aut
inform
##blom
##yram
forsvaret
overvå
overflate
bispedømme
Jensen
##uere
Asker
kampan
blandet
Pakistan
##kas
Ener
vill
##ransje
hjalp
delstat
bysant
bakover
Laget
Villa
##ikkelen
nettopp
Hov
##yrene
bandets
##11
Aleksander
##filmen
redde
jødisk
artiller
1894
omgang
folketellingen
##iva
##anner
##elatende
Sic
1892
##rister
Preussen
slottet
##gave
##sland
bryst
overlevde
##kort
Sud
batter
##unne
utføre
avledet
adres
Jersey
lave
sort
idé
igjennom
##ER
Henri
Douglas
interessert
Kas
##foren
føde
forsker
Ålesund
egyptiske
##stam
##umin
Barcelona
inkluderte
##produ
ulik
aviser
kollekt
##ilet
##cus
##edagog
##åm
##los
forente
angelsaks
skuespill
1889
Tore
human
fugler
89
##wald
Skj
##kår
##attes
konver
strekningen
##hevet
redusere
rent
halvt
flyplass
##røne
Wilson
Moss
##furt
overt
rektor
##utningen
noensinne
02
Cath
uavhengige
Jar
utøver
grunnlov
Es
sitte
Nordre
Heinrich
okkupasjon
Ori
1893
prøy
disku
##aster
tå
##utsch
Gylden
kulturminner
Rem
##selskapet
Kinas
skaper
total
forgjen
ambassad
##serie
Lord
diskusjon
opplæring
ov
##klus
##stab
tiår
##alistisk
##pote
Prof
armen
takket
kardinal
##IA
##otisk
States
79
##innere
Charl
dialekt
##ray
Cy
##venn
140
Syn
Top
Tidlig
østerrikske
administrative
Lan
##urens
skrå
opplevde
tilpasset
##ji
##ask
wh
smer
Samuel
grunnen
##ørr
93
Rein
raske
hjerte
vennskap
vers
arkiv
minor
##yndighet
punktet
sentralban
team
##sering
##sområdet
##eliv
ferd
definer
##strekkelig
Chris
skjønn
bedrifter
*
Schw
Slike
Amster
Lux
##alvøya
##attle
##veren
erfaring
kontinent
##ksped
Kont
Vann
oppløs
overle
ski
##skriv
Ker
metoder
Bag
Lami
settes
sete
##splass
Skien
slikt
Scarabaeoidea
episode
innviet
klubber
nederlag
##hjul
##blemet
dikter
episoder
##forsker
inndelt
figurer
##sal
##rolle
##medlem
innførte
Ord
anten
##sida
Balt
Frit
dele
Bør
##icus
lest
##ikkens
primært
##ådet
Sir
preste
Sof
Golden
##støt
tilsl
samtlige
##bry
##edel
sees
lærte
##attedyr
##struktur
##ough
09
feltt
Britann
innslag
forg
kult
egentlige
##rukket
Engel
Sankt
##ardo
Lab
##avene
kjøn
ryggen
Fylkes
avlange
##setninger
97
##okra
##uset
avr
##antisk
åring
Gru
Hong
regner
religiøs
gjenstander
##uld
helhet
oppfyl
skipene
##onne
Philip
festet
tilsynelatende
##ylv
bist
Lamiinae
03
Team
Venezia
##bur
Meg
##rikes
Eric
##sdalen
Faren
innledet
medførte
Hele
egnet
##årn
selge
Skipet
luften
normal
Møl
stemmene
tettsted
telefon
bibliotek
hypp
##slekene
##ness
inte
mangel
##innene
forlatt
orienter
##lid
verdensmester
merk
##ii
##væ
##til
##rekvens
Taylor
jo
loj
##aka
skrifter
låtskriver
##igan
##øper
Linux
##president
##resentant
##asy
Edd
flate
##ræ
#
les
##sider
##eleder
kapittel
oppe
Force
##sjef
##dahl
los
1848
minim
Florida
##spe
##mater
##terne
metode
Guine
pund
SA
heng
##filmer
##agu
ortodokse
##årnet
planen
Ama
roc
irsk
sogne
nevner
NFL
Little
menighet
##vold
Elect
##aya
##ungen
##melser
##staden
oksyg
regionale
konstruert
arv
Broad
trommes
Antarktis
94
operativ
it
##ikvar
Huset
Danmarks
##ère
fysikk
##hode
Kors
Nepal
utenom
Ax
##omfru
Cost
Kapp
##alisten
Windows
##eger
tidsskriftet
vidt
vokal
rommet
##slige
1891
##irs
Bed
cup
fikt
##punktet
minner
##hånd
æ
beløn
presentert
Ås
Manu
Night
vestover
hastighet
AB
Fu
Wat
McCart
1885
anses
Røde
munn
institusjoner
produkt
lista
muligheter
gjennombrudd
Prins
Amsterdam
argumenter
##ians
##egnet
##teres
vulk
orgel
katal
Nye
flyg
misten
<
##ipe
penge
Ferdin
fraktet
oppbe
kommunest
##nelser
bygging
##nett
Horn
##ialis
evangel
ovenfor
##bøl
båter
eksil
flytende
##alia
Fox
grus
bibel
sekunder
landskapet
rit
##ision
##sområde
kompli
romerne
##skyl
European
##anon
fysiske
handlinger
presset
seinere
jordbruks
Middelhavet
Lenn
bebygg
uansett
utbredelse
##ated
##kron
Nev
Programmet
frit
kavaler
Dig
sekund
##etninger
##havslekene
arkeologiske
##jering
jobbe
polsk
diagn
paven
##familie
##levende
##bach
Foss
Tele
preg
bosatte
##skv
##atan
##ffet
##wick
##orger
##parken
Nielsen
##krit
Rose
norrøne
internett
##DR
DVD
yrkes
middels
statlige
Lest
Show
Reich
##atia
##ires
157
fru
##bygde
##bestem
##espiller
forrige
##no
##ynes
ess
Årets
Norway
kjørte
kritisk
høv
nasjonalsos
##orsk
Kos
Mes
gruppene
##aliteten
Ferdinand
Web
Gabri
Indre
gifte
Bibelen
Wester
forfrem
gjennomføre
Nedre
foregikk
reddet
inntekt
##ettøy
sult
1884
aktuelle
demningen
##iff
##iga
utførte
##rint
Føl
Hom
##odden
##veier
fasc
Sandnes
allmenn
forsøkt
ss
ud
##jan
kvel
elvene
oppover
fylkesvei
tenner
##hl
##earch
Hugh
buddh
ded
steg
Brian
bryll
Vat
Malm
kombinasjon
Aar
new
Cass
tykk
låter
endelige
storm
FA
Live
munner
Midtøsten
edderkopp
##stisk
redig
verdier
slapp
sølvmedalje
andel
gratis
singelen
##sproduksjon
funksjoner
##shistor
kvinnen
##ulus
Elva
##TV
opplag
##ransport
teorien
##cker
##pton
Lincol
behandlet
##bol
##ellig
forsøker
nasjonalt
##anene
Spes
Snorre
fødsels
bestemmer
Ever
prøyss
snakket
Cle
dypt
Romania
Formel
##økonom
##midler
Master
manglende
##edom
##anni
##elsens
firmaet
fare
Mov
Morten
##achel
jule
hotell
kandidat
Tsjekkos
fylt
Statist
snakker
##dals
betydningsf
revis
##MA
##strå
Burg
klasser
nedover
##klin
##worth
gjer
romaner
revolusjonen
##fun
Vas
gje
ligaen
nøyaktig
##Wh
Op
##IN
##spartiet
##anes
avgrens
eksamen
forbindelser
Squ
##verte
skatte
tidvis
Pil
trett
flykte
Research
Str
##ctor
Fel
Spar
kjære
søndag
utøvere
eventuelt
Stasjonen
##rør
##øvrig
Paus
fremført
kontrovers
Juni
hage
##vakt
fjær
kapp
godkjen
kanoner
##åre
tyder
Brad
bukt
krigsf
##don
##atab
##neren
katoli
Trondhjem
##eldig
##ønnen
Alan
bri
Chap
##imb
sår
fabrikk
Jugoslav
##sko
Sommeren
Hay
Hur
Party
guddom
avdelinger
##fo
riv
Main
Inc
##ilm
Andrew
##itu
Nobel
##ibia
integ
stede
brødre
Vinc
motsatt
##bakk
konstant
##erepublikken
Napoleon
anklaget
reaksjon
##komst
Rett
Sher
nark
##etet
Corpor
##DA
##vidt
##breen
Army
Shang
angiv
foretatt
##deri
##ads
##gor
##smod
count
invasjon
##achus
stridsv
##holt
Sos
skad
etableringen
125
harde
skjell
Forbund
##forbindelse
##auen
##reen
dirig
##ibiske
##likevel
offens
ettertid
festivalen
Kur
foreldrene
##vey
2020
Malt
spek
##skerud
skøyter
Zh
ulov
offiserer
uts
html
elsker
teologi
individer
møtes
America
Kai
kab
blokk
##edia
Alban
skaffet
##aux
piano
tsjekk
tettstedet
##organisasjonen
##zi
utry
##ography
##ugg
Hil
fro
1886
fiolin
vende
Skandinavia
IF
##boken
##skrevet
viking
Pedersen
##sfar
evne
Julius
fredet
tallrike
##vokst
##ways
##ylon
Spart
klarer
##ava
##dist
turné
Viking
avlang
##cast
Sib
Wa
##atra
Rio
ekskl
Boston
dårlige
originalt
##førsel
reformer
##ops
##sbru
Lys
avskj
Rør
innspilt
kule
bryte
assistent
fortellinger
Va
parallell
##vide
that
fremmet
sterkere
bit
##inde
Guds
##ykket
Mike
##smessig
trommer
frø
marin
##stjeneste
##oo
Fame
Margaret
fylkeskommun
sene
##amester
vedtak
Brann
farens
situasjon
##amfunn
Liber
##irektoratet
Bruce
##servator
individuelle
sukker
Hedmark
##vit
Tekn
##erste
##rering
##ittiske
Øystein
##ourt
##ksamen
Merc
##sloven
europ
invasjonen
##ivil
Stone
erklært
miljøet
katastro
helgen
##språklige
staf
kryss
jobben
punkter
sekretær
Atlanterhavet
Att
Ned
cand
dype
Buskerud
##fred
tas
Kenn
Academy
AF
osv
Ofte
stamme
fremfor
##oct
plu
Selve
##messige
slekter
systemer
kritisert
##byrå
##grav
Seb
kommunistiske
##äl
##jest
##pedia
genet
##atikken
partiene
menneskerett
106
##oke
Lom
fjellkj
cupen
integr
diverse
opprette
tilhenger
##inst
Hvert
##olleyball
landbruks
Gh
##ssted
poet
proses
titler
akkurat
straks
##stilte
Helge
spillerne
Got
Az
##lagg
Amb
Helen
utformet
##arn
Sø
lisens
bevarte
##weg
SP
elve
derfra
tilstrekkelig
1881
Nilsen
Science
datab
helik
Donald
##båter
1882
##ferdig
Estland
antyder
marinen
##BA
##skjer
begr
##kamper
samtidige
Kre
gaten
##istrikt
myrdet
##skaps
jordbruk
##zhou
Good
##BS
##avstem
Awards
hoffet
Lincoln
halvøya
##ESCO
dekke
varia
##melen
Stef
Herman
profil
##verd
Fur
Tai
rase
##bygning
##athan
trag
fengslet
pasienter
##adi
##uste
##vand
Olavs
Administ
##alin
Tall
musikalske
Class
##ransjen
Konstantinopel
skilte
##enga
##svoll
bidrar
håret
diktet
Ukraina
manuskript
støtter
invester
jernbanest
motstander
Tony
hval
stråling
kvalifiserte
149
brig
Geir
flukt
naturen
##ktøy
Billboard
forårsaket
Ok
PDF
fakultet
Soph
UNESCO
invest
trådte
lokaler
fund
cover
familieg
innebar
beslektet
måle
skogen
klokken
frivillig
UK
Stu
Rana
temperaturen
Cappelen
anerkjente
##ili
##mig
##virker
##øpt
hannene
uttrykket
##lipp
repar
bidratt
##ject
Nin
strøk
bekjem
teoret
permanent
hovedkvarter
##ailand
danse
befest
begravet
bygningene
##iers
##løste
1878
Cross
Stillehavet
hovedkontor
Blue
betong
tidsskrift
##ional
Anat
Vikt
##aksjonen
hovedrollene
representere
Hag
##nik
##eser
Franç
fugl
opptak
##sketball
Filippinene
konkurrerer
Flo
plater
mønster
bakter
partiets
sykkel
slet
Thailand
##amo
Svart
driften
kolleg
##ells
utspring
##ssel
Chile
lørdag
forholdene
##ifik
løsl
##høgskole
hjemmes
lokomot
Dronning
NATO
begynt
forhånd
##cient
Hotel
Ble
etasje
undersø
hund
klær
##stone
ufor
Milit
tvers
##skamper
Kj
stått
Publish
varierende
NH
Dol
##nummer
alminn
Oli
##asjen
plat
##grunnen
China
##alisjon
##gede
Power
deleg
##ordning
##historisk
synd
tunge
##bibliote
positiv
##och
Kamp
skotsk
beliggende
##paret
##råder
utøv
mottak
eksplos
tegne
intens
kirkens
##lete
påbegynt
##andet
Troll
Guinea
Jugoslavia
1883
kveld
forbud
##esterett
alvorlige
høyden
konkluder
##smål
platen
pedagog
rapport
##vering
beskrives
Vig
##ottet
sympt
turne
spreng
Massachus
Tsjekkoslovakia
drap
sjakk
erstatning
##ittet
Gord
trinn
hovedperson
påg
Bulg
møtt
taler
Industri
61
Ein
1887
Will
kjøtt
bunnen
##skriften
disip
tanker
##handlingen
##ulere
##egrupp
avviklet
Massachusetts
utmerket
ørken
tjente
umulig
Østlandet
##kommende
Sid
deltar
sjeldne
##dingen
Hagen
spise
Stephen
Oversiden
##brede
##uperte
Beste
finansier
Ey
Tun
tørr
enige
original
##øyde
##iring
håp
Bun
Ski
beskrivelse
##ario
##høyde
apost
musli
opera
talent
malerier
besøkende
##user
Guy
fine
##festival
##enden
tradisjoner
115
1871
##teborg
skjeb
##pson
Elekt
organiserte
Way
prot
østsiden
Frankfurt
##ouri
nære
onkel
unders
##burgh
##sforbund
##itive
beskjed
muslimske
australske
##kins
Lav
Monte
forlaget
don
##linje
Media
bladet
01
Ye
Davis
gn
##olet
Terje
##stog
Museet
English
ektemann
beskyttet
##valt
vestsiden
German
hester
navnene
##lege
##ners
Kla
##lings
##alo
avd
tide
kommando
selskapets
tillatt
Kau
mole
Trans
Sydney
##umen
fattige
tilbrakte
øl
Dec
Mort
lens
##oty
Who
##denes
XII
##urene
anim
damer
Corporation
Feder
vakre
passerer
høg
bjør
##idel
Kam
krefter
oppgitt
1875
##akse
omhandler
styrken
dyrket
kobber
##ronningen
Dj
ja
søy
grunner
beskrive
Gjer
Order
omgiv
karibiske
handlingen
##moen
himmel
##digheten
medisinsk
##86
##ople
avsatt
forsvare
##bb
engasjem
Høgskolen
Set
Forlag
##smus
kors
Rasmus
##gere
##ique
##rete
Dublin
blomst
samlingen
nærliggende
målt
Göteborg
konflikten
Potter
Sten
mulige
Festival
motsatte
tilsammen
##api
ledes
foredrag
##umb
politikken
##oca
nyn
##jente
VIII
André
henger
enke
igang
##vendige
##liga
##bukta
SV
##gate
##skilde
fiendt
utarbeidet
Bis
##stituttet
geografiske
Book
##fabrikk
termin
fremover
##ørene
åttende
kontrollen
##ksen
Mir
Pot
Alli
drar
jorda
nordmenn
##forsamlingen
##gjøre
vurdert
##oser
##kjempet
105
Nordisk
Frog
Afric
berømt
geomet
jødene
Yor
Medlem
Foreningen
..
##sorg
...
##øtter
##ettene
mørkere
##dert
##feld
gjeste
fremmed
##yin
Arist
Gun
Ses
kast
heste
science
Kongsberg
##elighet
##anlegget
årsaker
tyrkiske
##EC
1840
##berget
First
bønder
studiet
frivillige
##gard
##røret
##iki
Sist
butikk
etterlot
71
1879
##ree
##kandid
##spillere
##setningen
Sum
likt
fortellingen
virkeligheten
##fast
Adel
Techn
flyplassen
eter
spiss
såret
stoppe
personen
åpningen
Rub
##ensel
##lagene
##periode
utpekt
skrives
oppgrader
##spris
stig
konkurs
##oto
##hage
##pros
Leip
Ringer
Harvard
langrenn
omdøpt
Færøyene
konstruksjon
##raham
bisp
traff
kos
Mari
##ømming
løsning
utgivelser
##ief
##akte
Fug
##ird
##kamer
1865
Howard
##nest
##rikter
Særlig
søsken
Europas
oppfattet
Bh
1864
ruten
kvelden
##behandling
##reland
Provin
##remedlem
Mål
opps
Premier
vingene
Eksempler
forståelse
##æk
evak
##bandet
##fronten
Oppland
Carolina
nyheter
sammenhengende
Mill
ventet
oppfølger
Of
##icle
##ospital
automatisk
Fisk
Haugesund
1861
Mester
Kraftverket
##ér
##etting
Castle
finale
skjedd
forfremmet
vanskelige
##ares
Ober
##æringen
##itor
vegne
Madrid
trekant
generelle
eiendommen
##htt
Jazz
##sfjord
sylind
studert
etterkommere
##ofon
##ennene
objekt
##ube
Ret
##minne
null
Human
Islands
Student
inngått
##ods
##omp
##olje
bens
lavt
##ellemann
##24
109
protester
Leo
##light
##ulerte
##ertugen
blader
minnes
Kristus
eksport
##pot
##alier
Colom
absol
herre
##yth
##ktige
##back
vev
villa
forbli
Idrettslag
Barbar
##jar
##uret
##buss
historikere
medisinske
Gott
Line
endres
gjenstand
Produksjon
nytte
Jordan
presteg
hendelsen
##isi
Upp
##åring
1876
Ohio
frag
pupp
Penns
malte
barndom
punktert
##årig
##stede
Pers
utro
##kommanderende
##alth
fla
##handlet
tårnet
1877
dukker
##ruten
seter
##isjoner
##ringene
##settelse
Operasjon
instrumenter
Disc
bevar
##striper
konstitusjon
hender
panser
forhindre
##ikan
##itat
Dun
Hånd
regelm
##vint
Queen
sikkert
foreningen
##reps
##ollene
##ssystem
herunder
ins
##sbanen
broen
Prisen
##antikvar
skuespilleren
##mph
##arch
lån
##ffekter
omtale
referer
forsvars
Mr
##skirken
Hug
Maked
##ax
##ylvania
reklame
Etterhvert
Fag
tang
Arkitekt
##arts
past
Hamil
jager
styres
forøvrig
hø
forstand
1866
guden
kriger
navngitt
##sfri
Brig
ligge
liggende
##rot
##stedt
Niels
##genting
eksperiment
kommersielle
Utvik
tidene
størrelsen
israelske
##ansas
1867
nordsiden
Tang
firk
nede
##azine
havnen
oppnådd
Romerriket
##givning
Antonio
vellykket
##sex
din
tend
metalli
montert
tildeles
Ibsen
prester
tredjed
##agne
hvile
riksvei
kontinuer
fars
årsj
utsikt
PC
##møre
løv
Arts
##atoren
forstyr
hvorfor
klubbens
underviste
##insen
Adri
spenning
tj
##irat
Barn
##kammer
besøker
eiendommer
##algt
Egil
idet
##resjon
væp
DDR
Fant
sluttspillet
cent
Vanlig
Lam
kok
##styrke
##olution
ivaret
kallen
operasjon
skandinav
Nidar
forsik
##sforening
##log
Glob
slår
##sarbeid
offisiell
operasjoner
##risme
##dis
##avet
innledende
##ting
overta
identitet
Pass
veil
analyse
handlet
##uma
##rock
##ulation
Vester
opphørte
##St
##skij
beholde
##cha
IA
Peru
nevø
avstem
lanserte
##krigstiden
plant
innsjøer
Lof
##sgiver
daglige
Republikken
##ée
uttalt
##itiv
##pset
DNA
##ataljon
århundret
Jah
##dager
Lamb
fangst
##aksjoner
##kongen
Satur
Larvik
observert
byr
##ffen
##snes
Holmen
norges
##atu
traktaten
##post
##rekke
cont
##staten
Larven
Vestre
tegneserie
Has
finan
skinn
virkelige
##gass
##hagen
##sutøvere
deltakere
Found
statlig
Cli
følte
##utdanning
refererer
es
vokst
Ludwig
øynene
virksom
##ialistisk
fabrikken
restaurer
uni
ranger
brukere
##oria
adop
tørre
utgaver
was
fungere
portrett
Forfatter
##LA
##skan
klin
##ebo
##olitt
Gall
Juan
fint
##aios
Benj
oksygen
bir
sverd
##inneren
rundet
vernet
##ological
##iano
løpe
etniske
Cec
beina
Kongens
blan
verken
##tz
Jup
Wel
web
##iness
Philipp
##elius
prinsesse
kristendommen
Mü
golf
medalje
forventet
ressurser
##yle
Alta
pasi
##hallen
Jonas
blanke
voksen
Giov
senior
Vær
##synet
dato
mektig
elevene
allikevel
##anus
budsj
stykker
germ
tillit
Abraham
##aki
jul
##ullet
##formann
Totalt
objekter
kvalifisering
##dle
##orld
##shall
trekker
##osf
Jam
##agere
camp
våre
nabol
video
påvirkning
forvaltning
##feldt
infl
Antwer
teorier
oppdager
undersiden
##talende
greide
nevnte
##sha
LP
Bou
dies
kjører
motoren
gjeldende
statsborger
Nu
Aqu
erstatte
konvensjon
##arin
##orum
##annes
##nader
##stekn
sendes
allianse
##esn
##best
plynd
afrikanske
ambassadør
etterfulgte
Pennsylvania
##ksam
Mjø
##edikt
rene
##bygger
parker
##hal
Mong
gjem
##egnelsen
Dire
##akespe
##nadene
samisk
Leipzig
##leker
låten
oppvar
intelle
tekstil
##latt
last
##hast
##klass
ramme
##mal
##orme
1830
stykket
Wen
##ulasjon
departementet
separat
##ingham
91
sim
Helsingfors
sex
løst
sving
kreves
##kontoret
fortelling
programvare
opplysninger
##napp
##jerte
##ikerer
fugle
skarp
sogn
brasil
luther
##bak
##beck
fortalt
utnevnte
generasjon
145
##smark
Hunnen
Sicilia
bakkropp
##uda
127
Gard
##stadt
##ligaen
positive
undervis
parlamentar
fa
##dels
rede
offer
beveger
ungdomsskole
Hjem
Grieg
Palest
Hamilton
##head
Wol
Nicol
Empire
normann
referanse
Encyclopedia
sammenhenger
##ulte
Tan
##skjold
Sandefjord
Out
Shakespe
regioner
##åne
##ages
Pel
##espill
Marit
alfab
##öh
##seth
landh
dynasti
betegner
Cape
besitt
variere
innspillingen
##rakk
Ner
aff
##verne
pseud
bevare
satelli
##olusjonen
##institusjon
##mak
rut
Nick
Pont
##ganger
sittende
Cir
##ruter
Drag
menneskene
##ić
mennesket
utgivelse
##burn
1868
Princ
troll
partner
##bul
kjøl
dverg
fangen
Tob
##samisk
karbon
Resultatet
særskilt
sveitsiske
stemte
81
Ton
##listen
derav
Roll
jevnbrede
Hvor
slutte
##oger
##rapp
Color
##snavnet
line
##embourg
pinyin
spørsmålet
##illi
##regel
1873
rulle
##sbyen
veter
graden
skytter
Forsvarets
atmosfæren
sære
##smiljø
forsø
Miller
Deutsch
Kath
Sarp
Galli
kulturen
stillinger
Glas
primær
##biler
##uncil
Minnes
fremtredende
##ét
##pol
overn
##inerne
plast
##vesenet
##ox
beh
##havns
Bakk
Gjøvik
Heg
##bolig
##osser
##ström
Dansk
Michel
##skjoldet
Historien
##23
Bat
statsråd
Comm
bruks
dimensjon
tverrbånd
provinsene
##stått
aksjon
feiret
medier
1863
menneskelig
gjeninn
annonserte
materialer
fir
Motor
##politikk
##rust
fon
##anset
Stanley
borgere
benev
Keiser
teknikk
anledninger
##iget
Stur
##oldater
bosetning
bekym
butikker
juridisk
IP
tungt
fiender
##go
##ão
104
Lange
døtre
##alåm
Nan
inskripsjon
jr
##stor
Jupiter
hemmelige
demonstrasjon
350
Tir
sov
celle
astronom
prøyssiske
territorium
Ske
##ktoren
magasinet
##IL
ødela
Program
Falk
oransje
hjemmebane
DC
##ianus
pluts
enorme
istedenfor
##befolkningen
universitets
##osen
beting
##ía
##aet
tilbød
forlenget
bakkroppen
##25
viet
okkuperte
##botn
##mans
Online
##ET
##result
element
vent
##fjellene
intellekt
“
##sun
##keren
##verdi
1872
popularitet
##gener
gods
Disney
tilfred
geografisk
Tol
pul
dramat
Jacobsen
anerkjennelse
##orax
##sels
Cham
kongene
##day
##saker
flam
##sych
##ikert
døgn
spar
leverte
bevegelser
ekteskapet
Sebast
Ancient
Benjamin
sykdommer
Real
##urte
Shar
##bun
##ody
glem
tropiske
##pi
##språket
Spring
effekten
##geb
##ido
##osh
##usk
##boka
Ges
Landet
historikeren
Våler
##ingenes
forest
motorer
för
##arene
serb
flagget
betegnet
Kongelige
Halden
Hannen
lekene
identifisert
##bror
##onene
flyv
##utsche
##imenter
##evin
Bom
Prest
enorm
##iserings
Gerhard
Wang
fargen
omfang
Antwerpen
##rod
Utt
für
3000
Game
bebo
firma
Luther
komité
##forsvaret
utdan
Patrick
##gs
##hor
arrangerte
posisjonen
menneskelige
Salv
kopier
utbygging
##blo
##agnet
færre
framfor
motiver
lagde
kjøretøy
##bell
Våg
skjøt
harmon
koalisjon
##bom
##saken
##skilte
boliger
samlinger
##wen
##rary
belgiske
Spellemann
##seil
ske
graver
turnering
Delt
sank
##arkitekt
##fys
##idet
##jekt
innk
tiltre
Petersburg
##øpet
Cur
##bille
brent
##erledes
historier
Topp
navne
Alaska
angivelig
komponert
kledt
knapt
Anderson
distribu
produseres
Mans
liter
utløp
brunlige
kvalifisert
visepresident
OS
##ordnet
Tab
vilje
stipend
Tal
plateselskapet
Sat
asp
ras
##vtrær
ettersp
antikken
##redning
Bulgaria
overgangen
introduserte
|
##rense
frekvens
Vestlandet
##redet
##tting
Inde
referert
##lingene
etasjer
generell
avdelingen
##ortert
Haakon
tiende
Frances
planene
##uz
1862
gullb
##kningen
selvstendighet
##stin
Jun
##lines
signert
arbeidere
middelsstore
118
Sub
Edin
Fair
##skyt
Jesu
Napoli
tilfellet
##aard
hab
##status
walis
galler
avdekket
##fal
Sog
smak
Gregor
avskjed
pp
##ping
Guard
blues
føderale
##irit
utnytter
##bal
miss
##delses
##stiske
Langs
måler
##lima
##rine
Bac
##ulering
Stadium
oppdater
utstillinger
##bers
Scot
filmat
Up
##kore
134
148
anså
##jeller
Public
ekster
##selen
Kongo
Johnny
##espillet
Council
kjemiske
kringkast
bue
Nich
Rune
utgav
##rasjonen
liberale
##hopp
hed
##reres
flatt
svekket
fasettøy
kommunale
##aris
Sang
snakke
raskere
tilskuere
massak
løvtrær
From
tort
##hetene
botan
elite
forenk
HMS
tyr
##norsk
##aktive
Apoll
utsli
##sjekter
regjerings
##ørre
##DS
motta
volum
dominert
påfallende
##smed
Canad
##styrker
Fransk
øyeblikk
Sarpsborg
Blå
Claud
havner
leiren
##OR
##itus
Hud
Mye
##lagget
utdød
##EN
byrå
##othe
##andel
##ross
Hoff
tone
Rudolf
##perioden
artikkelen
##ily
Boe
Fas
Micros
fødsel
Makedonia
##oken
Hva
Armen
dyktig
konkurranser
113
Run
##jenst
møtet
vedlikehold
His
annerledes
Lü
##sleder
##stykke
Barne
tydelige
assosiert
##bent
Hop
slave
ukjente
Giovanni
visste
katedral
McCartney
##idea
##sform
1859
Anthony
##horn
mig
Ellers
Nikola
innholdet
distribusjon
innflytelses
1874
fulle
overd
hyppig
komedie
forretnings
##orps
Books
pyram
##ating
##veksten
Melodi
Verket
Library
universiteter
##21
##ebb
Valg
Office
Valley
omgjort
forløper
portugisiske
Bog
##ration
##skritt
innst
##td
##lade
##veit
Las
Nyg
##bourne
Guang
okkupasjonen
##mad
##rier
Edu
Produ
symfon
bemerket
fenom
hjelper
verdien
verv
flekk
regne
krigens
maskiner
sykdommen
Regjeringen
##vem
##romer
1815
Beck
Blad
auton
rådet
##grensen
psykologi
Luxembourg
Sea
José
Mach
Latin
Berl
Monro
farget
minutt
inntrykk
##bout
Maxim
mørkt
Københavns
##erty
##brett
Bush
svenskene
##kyl
musik
##jenesten
transpor
##sku
våt
##skrev
Jeff
propag
divisjonen
##alla
##avis
GWh
Gaz
##arina
stilen
morgenen
##etz
##bler
Ric
##mouth
##ubert
stim
##indret
hjorte
jordskj
koordin
sørøstlige
engasjement
koll
##munisjon
##kking
Alger
forbedret
brut
ideen
forsamling
grevskapet
overlevende
##ums
119
roten
Arbeidet
infra
kalen
##és
keram
søker
verdif
##evs
DN
Stab
motstandere
UE
Noe
regimet
naturvitenskap
##df
##vidde
Bron
##illene
glans
medie
soldat
prinsippet
##flukt
skjel
spekt
meters
kontorer
Tradisjon
juridiske
##rute
##ørsel
Point
##spektiv
hanner
##jort
Ran
døds
agent
rovdyr
##uropeiske
engasjer
hydrogen
##avy
emner
##offiser
Nidaros
betraktes
##list
##drift
Tids
sinn
avanserte
##hjelp
gymnas
##annelsen
Jacques
årsaken
innvalgt
kvinnelig
opprettholde
##TS
##ied
##iph
iran
Transport
##kons
##ittil
Navy
sper
friluft
Microsoft
styremedlem
##tolem
##lesvig
Donau
Malays
##leton
anne
Costa
Fylket
østerriksk
##organisasjoner
kas
svake
hjerne
Normand
mannskap
hendelsene
##ipper
Clar
Spec
##museet
##ovo
Asb
Field
Konge
Wright
##kretsen
fartøy
foretok
gjester
trommeslager
##uks
Games
ruter
Utover
busker
enklere
akseptert
FK
Dak
lam
Your
bade
såvel
##æd
##fol
##aceae
##srett
poly
##klasse
##urus
##rimin
Muham
Våren
lagkonkurransen
##boks
##klar
Eks
##ertall
frist
##jenester
oppholdt
kontinuerlig
reformasjonen
##oro
Ill
##snivå
Helt
##folket
##rane
##vendt
ideer
Kristiansund
Nel
##rollen
hjert
tilby
Narvik
ordens
taket
Ear
Frederiks
personlighet
Kab
##sbygg
Kampen
Stadion
baserte
videosp
##cle
##ogle
kryp
brant
ferge
##assdrag
forklaring
keiserlige
familiegruppen
##hjør
##wall
Aas
nådd
##uminium
Hardanger
resterende
##cup
befant
au
##iles
sten
meksik
country
##seier
##strup
ulykken
Axel
økning
##redaktør
mellomtiden
##vn
‘
iv
Ish
##etisk
##stikk
##sfjell
tenkt
Harrison
Stockholms
##eo
##appar
Stjør
Michigan
##éen
##ynte
Alb
Warsz
vinneren
forandret
ryt
##svatnet
partil
betrakt
vestlig
nødvendigvis
overraskende
forhandlinger
##rant
Fab
Høne
scen
visst
135
But
stammen
##smo
##øring
operer
Edinburgh
konflikter
##ego
##væp
##stedene
fetter
ødelegge
##ils
##mert
Gammar
velges
brannen
invitert
kongeriket
Hi
##artet
##inist
døpt
Eirik
##itim
Dres
Amund
mennene
aksepterte
Cerambycinae
Tam
Stol
mord
folkeavstem
##ragte
Shanghai
sats
utsm
Adams
jente
bryter
presten
ingenting
IT
##shem
##brutt
##smedal
imago
Serbia
framover
dokumentert
Cer
##ities
betjen
François
medlemskap
kvalifiseringen
##budt
##wart
103
Jarl
##speriode
korresp
##xt
##brua
Kin
Pav
sammensatt
administrerende
Kurt
With
flom
sammenf
kommersiell
##oman
Ian
##raden
misfor
narkot
norrønt
episoden
##bjør
##work
Ltd
##artene
Litauen
ytterst
kommende
monument
negative
avhandling
Aer
Frans
single
verdenscupen
##oa
##gaven
bølge
avvist
117
Kyst
gave
pros
jesuitt
restaurert
tilgjengelige
##IC
Leif
Frankrikes
plateselskap
##ritt
##ingeniør
kjennes
historiker
##hum
dyb
hente
leser
Social
##sbygning
forurens
Chang
Foruten
pattedyr
##kest
Clo
1869
Ug
vitne
Milano
vestre
##veksling
Svenska
##ølle
Major
Bridge
forklare
Mess
ordene
ulovlig
##iri
##agon
146
gult
Arsen
Morgen
nøkkel
språkene
forsterket
##conom
##ssent
kali
147
dreier
##ikkerhet
fiction
korrekt
kompleks
Walt
frik
peker
høyest
selvbi
skilles
indikerer
##phia
eie
##aktor
seri
ektef
poesi
amatør
Wy
Ull
##allas
##haugen
munningen
BM
nu
##ible
Nag
##isser
Hens
Firen
Commun
iverks
foreløp
symboli
uavgjort
kontinentet
##role
kolli
personell
Dri
Chron
lukket
##lignende
Abd
Wik
Bour
tilbaket
##baner
##eloven
brakte
originaltittel
##vic
koret
musikalsk
##hug
Vä
##cing
##kjøring
sommerfuglene
##bec
##edd
Plat
##kshire
forbru
angriper
turister
sosialdemokrat
Jen
col
##habil
##renes
mete
Tokyo
innenriks
Bot
Ler
Iver
dial
tempelet
borgerkrig
elektronisk
##skinn
magasin
øvelser
Fern
Halvor
Libanon
oppløsning
##oda
107
grep
lages
Naz
arvet
Marcus
bøndene
Khan
nordisk
regulert
Ett
sab
familiens
##osjon
Qing
homof
volleyball
Riksantikvar
karakteristiske
##mpro
Vog
Menne
skala
senket
Division
##temp
bysantinske
##skes
##skere
Mang
Siste
Charlie
inngang
Arg
##ayer
126
1857
##rekker
Louise
persiske
virkning
IB
økonomien
vokse
Indian
niende
Population
velstående
##analy
vilkår
##stasjoner
gjenvalg
##asj
Graham
Gabriel
##inent
forveksles
##hof
##bank
Tett
128
##umann
Beach
##ference
##eremonien
##IF
Ork
Turner
løslatt
reduserte
##utgiv
##planter
uklart
tendens
Stiftelsen
##iev
pu
##craft
##sporet
ledetråd
##utstillingen
borgermester
Cav
Light
##avdeling
Fjorden
politikere
lat
ling
mere
##skyting
Stefan
beskyl
voksende
basketball
Boy
##anias
##verker
Målet
##witz
Sah
beb
##ifest
Etiop
slett
kjever
inntekter
Foundation
skuespillere
##års
pig
##murer
grønt
gutter
hunnene
Alexandria
##elven
Norweg
kildene
##ality
Marx
Prin
statene
forskjeller
##bey
Sor
##lærer
1849
klipp
faktum
overfl
undertegnet
##osse
blått
jevnlig
metoden
Magazine
antenner
bestemme
##udi
usikkert
##faren
##isont
forp
##ennende
lister
legendar
kompetanse
##ín
isen
dynam
Indones
Colombia
Pic
månen
bachel
Ja
129
rat
ordnet
Aks
##emann
##ivene
UEFA
stoffer
kriminal
sørsiden
reflekter
kontrollerte
##engde
##ested
1854
Home
Ptolem
variert
klubbene
nordligste
franskmennene
##itro
##ylland
dødsf
##rence
tjener
Kroatia
samlede
opphevet
materialet
stiftelsen
##rell
##sete
##sløs
Fritz
Sistnevnte
oppfordret
##står
Myr
Fis
nes
##assel
Hjel
dennes
palest
Helgeland
Fru
Voss
##statene
synlige
okkupert
##bilde
Lady
##oriske
Yng
##vestad
Moore
Hermann
Publishing
Storbritannias
Asp
##styrken
tillot
syvende
##forsamling
##konkurranse
116
1837
Gang
Studies
matemat
fase
avsnitt
bladbiller
Christensen
Hongkong
Fall
uken
Moren
Historical
##ór
Eva
Heim
vegg
Følgende
hertugen
invaderte
underholdning
rekt
endel
kaste
vinkel
tilfeldig
skjær
lederne
Pu
Boli
##engden
Galler
verktøy
matt
##skapasitet
##holdes
paras
kronet
samler
selvstendige
Tj
##råde
##serv
lærere
århundrer
##okko
Dum
emig
samfunns
##lok
Alice
koloni
##vensjonen
utbruddet
##kul
##lay
Allen
Firenze
Airlines
Ringerike
##ellow
##linois
##sperson
risiko
brygger
opererer
##alismen
Alpene
håndverk
statistikk
##vileg
Conc
stry
synger
kolonien
luftfart
##søy
IK
Dyl
Log
##kehus
Østre
oppvokst
overvint
Köl
øyen
Dagen
Handel
kommunes
kommandør
##erob
kupp
vakte
scener
forbedre
eksistens
##uet
##ather
Gordon
studioalbum
##hunder
##staver
behovet
blokker
##cept
##slå
1856
dirigent
##ips
Må
##raff
akter
##søkonom
jurist
##jeselskap
effektivt
testamente
nordvestlige
##VI
ac
##født
Kennedy
utføres
##yan
asi
jordens
Illinois
net
##sbury
Niger
Arnold
##ordningen
##ema
##drevet
hebraisk
problemet
Statistics
##vang
Rab
##spørsm
Philadel
arkitekten
1855
konst
##sselskapet
Sophie
portugisisk
##uls
##erto
144
østre
fryktet
##PS
##ript
fal
slank
##arkivet
plutselig
samarbeide
##eles
munt
term
bensin
nynorsk
Scarabaeidae
innrøm
##anth
Fac
Hes
hån
pet
Data
jury
Ytter
flyktninger
##lus
##ned
##pend
Løv
Kari
##anisme
tette
fortelle
rak
##ivind
Hero
Ragnar
betalt
lagets
hovedrolle
Num
##ttede
pred
konkl
overv
tilnavnet
gjø
##sforhold
nei
skjult
henrett
prefekt
##vadron
Miljø
levet
venst
##steinen
sivilis
Rosenborg
rekonstru
kommandoen
mannskapet
Mør
Pad
Teg
##ansvar
femten
lysere
Teksten
##pte
Ts
##innte
krøn
kommen
politim
talt
##plater
avviste
statens
avrundet
Normandie
antikkens
utkjempet
##demar
##marka
util
korru
kostet
lykkes
Theatre
mektige
Lyng
Queens
##ografien
begiven
Spesielt
##velt
Leop
##rakten
##itekter
jenter
Herbert
spesialiserte
##blå
##mpe
##egraf
1851
##fossen
Sudan
uteksam
##datter
stafett
ekstremt
dk
kelt
illeg
Centre
Theodor
relativ
datidens
Internasjon
prestegjeld
AC
tils
Catal
Nærings
avstanden
generalsekretær
Rot
bryllup
parallelt
##bad
poli
sirkel
Western
eksistert
##fa
##fant
##utstyr
rytter
figuren
metallisk
ryd
##shuset
Gibralt
tropisk
sportsutøvere
Row
##iidae
Dick
arist
seire
##ksjonene
##stjenesten
##omme
arve
##sesjon
grensene
generasjoner
##aco
rangert
beleiringen
##kun
Mob
##order
undert
fenomen
verksted
##innspilling
##edien
##herre
strenge
##orisk
væske
Søndre
Tidende
demokrati
##kost
##oble
McG
##major
Olaf
##tertav
korps
ferdigstilt
##EA
muslimer
##ML
##agan
Vingene
betaling
##phal
Nort
Steen
##splassen
trebukk
##ki
##tene
Led
flo
inde
tvilling
##http
løfte
passet
##IT
##aterte
blind
drapet
Britannia
forsvarte
næringsliv
kontrollere
##røy
uttal
planla
steiner
forbinder
slektninger
arrangementer
jus
Whit
##steins
Hawai
##skipene
ytterste
stemmerett
Wild
##kaster
påvirke
orientering
Philadelphia
##bri
##bergen
Geoff
##ktighet
action
108
136
Sunde
leger
tekstene
motstands
##engs
##ipro
##itsj
##kandidat
biskopen
følelser
Rek
snar
adgang
melodi
himmelen
landsbyer
styreleder
##lar
##ippi
Fyr
##våpenet
##avdelingen
sammenslåing
##asia
##houg
##atsen
##estra
kalle
Omkring
Wergeland
kunngjorde
##arne
leie
Sound
kamer
Svarte
depres
##eper
##reise
fins
Tower
reisen
laveste
typiske
gjennomgår
##kin
Ful
##produsent
planeten
##abler
##iterte
foten
skall
oppstått
gjennomsnittlig
##gow
mes
##illes
Gest
Vers
sert
Tommy
senteret
##iot
Pict
jevnt
Schles
larven
fremgang
Bent
Turn
##ragende
slippe
manglet
##litteratur
maleri
##splasser
tallets
Internett
fremtidige
##amorf
##fluer
meteor
nordøstlige
etterretning
1820
Seoul
sideelv
##rap
##bebygg
gruve
##sdatter
gullmedaljer
tim
##strid
Buck
Frogner
troppene
Minnesota
fli
vogn
kjemi
Bosnia
ekspert
favoritt
skulptur
##arlamentet
autoritet
vedkommende
##ernes
Bernard
Gyldendal
##sbet
hon
Bonn
Ekte
##iskoper
omsorg
sosialt
nettsted
##more
##amisk
##overn
nedgang
biografi
##any
Fabri
gudene
progress
Forsvaret
integrert
##hein
Poly
##stykket
omtaler
##rekningen
vassdrag
oldtidens
Bli
Trin
fortid
temper
Eriksen
##hoff
##ndal
Bernt
Death
finansiert
##ione
sne
Ytre
Lennon
betalte
##kors
toll
Inger
plasserte
engasjerte
##ands
Balk
pist
blank
Deutsche
innendørs
fellesskap
forvandling
IC
##svir
Hugo
gunst
kirkelige
##aliseringen
##onto
Clin
Grant
lyset
##bevegelse
##ät
##bat
##anny
bodd
##posisjon
nødvendige
forsyninger
regelmessig
##hatt
Spen
Storm
Viken
##ietnames
utnytte
sjangeren
definisjon
##uto
rumen
avdøde
non
##thers
##velop
##celler
sørge
bredden
framstilt
##PA
##lon
##naden
Kart
Sara
tjue
##keberg
Apple
antar
negativ
tilfredsst
Cæ
##sher
Chry
mong
evner
hittil
dekorert
ho
Bond
håpet
nyopp
Sparta
Norwegian
##ulpt
bab
##menne
prosesser
Handlingen
##rått
heder
mottar
return
utvide
Leonard
Tak
##genhet
Helse
reder
##strakte
Kypros
kompan
Holland
##strekning
opprører
Krog
baron
Hønefoss
presenterte
Rel
##skjær
Gården
selges
elektris
laborator
krom
Ronald
signal
##medaljen
komponisten
Pin
Rest
##bunnen
erobre
mengden
##ikon
Reser
Lig
angir
kommandant
##enta
1858
##personer
landbruk
patriark
praktiske
ammunisjon
##yang
Women
oppmun
Forum
enighet
IX
124
antikke
kjemisk
LO
Lik
Upps
##rådene
Uru
bær
##forsy
Orch
Relig
Antiok
Malaysia
brem
period
stiller
Melbourne
Boka
ekspans
gårdene
hjemmeside
##iko
##uin
114
123
1842
Billy
greve
utbrudd
utslipp
oppgaven
regulering
Byr
##ibelen
##jd
##mont
##arkiv
##slinjer
Dog
##domen
Iron
Vard
vinge
##skysten
nordre
forbryt
kjenneteg
katedralen
regjeringstid
færøy
tolket
adresse
tilsted
overlever
plattform
karakteristisk
##asa
##okol
Deler
isbre
anvende
skildrer
ungarske
billedkunst
##usa
Tyr
top
##ensus
slutter
undersøke
##kir
Singap
nivået
Storting
illustrasjon
##farge
##sbane
real
åpner
Studio
radikale
uteksaminert
forestillinger
Eth
##ature
sorte
##stjerne
Sebastian
oversetter
##tekst
Vind
sporet
fortjenst
offentliggjort
##ilj
ær
Hab
Let
Ple
Detro
utsen
Secret
bassist
påvirker
oversiden
##rød
##opol
lun
Vlad
halvøy
statsk
Uppsala
Eidsvoll
studiene
Sev
die
##ilder
##alisere
atferd
##styrkene
kjøkken
Back
egenskap
nabo
##artist
##treden
danser
omtalte
##historiske
##mers
##pani
##tall
138
##slags
Kjer
kravet
Aus
Karen
rasjon
##ores
##stro
Elven
Praha
kulturer
barnebarn
##cal
Must
##ansene
Child
##kninger
Marian
kanaler
samiske
horisont
##vege
Dion
Innt
Year
marx
Flyet
kollap
Rav
Syl
##inden
Skole
farlig
Project
mangfold
Indonesia
turneringer
##üh
##alid
##aver
##ppel
##rick
Jap
mem
ref
ult
##kende
brød
pels
Clark
krets
synge
bringe
kunstig
smalere
avbildet
esk
Tryg
##harmon
Munch
dagene
##ious
##rådt
1845
krum
##bruker
navig
prosti
Nordsjøen
restaurant
Ui
##ware
##rieren
Fordi
##direktør
bestand
konkret
Bowl
Bren
slav
Kevin
Opera
Junior
svømme
temaer
tortur
Rolling
##ekn
##ents
Free
Glom
##ømmelse
kretser
Lawrence
kunstneriske
##lip
dop
##eball
Mest
dags
Evans
Middle
Dresden
Harstad
##kirk
bol
Piet
minnet
Forening
resolusjon
102
Wag
Birk
medaljen
arrangement
Vold
nødt
tilbak
elektro
hovedtrener
##rish
bis
##entes
##plate
1852
Nelson
fangenskap
strategisk
folkemusikk
##imar
Cop
##onder
Bast
##marken
konsp
sykeple
Pow
##eling
Baker
kjørt
##rikanske
Selskap
fredsav
Charlotte
sovjetisk
komplisert
musikkvide
Sax
##roget
Cong
utle
Jiang
oppfatning
sje
##beina
dreper
stasjonert
Cow
hevn
svakt
Vatikan
kunstnerisk
rapporterte
gæ
##ognene
kreve
verste
bedriften
sau
##vensen
Sibir
##hampton
moderat
straffe
terning
særdeles
tabellen
##cke
##oney
##svik
key
FIFA
onde
hypote
trussel
beskytter
dronningen
##gh
##shøy
##etere
aster
bevege
dramatisk
##RMS
##ches
133
bøy
paret
liknende
beslutning
##ilog
alk
##inkel
##ittee
Isra
avgang
celler
Barbara
fett
krone
regjeringens
klat
Modern
innkjø
inneholde
##alie
utsk
##farget
innom
##maktene
Madaga
kjønns
Tsjekkia
løsninger
kontrakten
we
Kret
##ssystemet
elektrom
absor
##stoffer
gjenspe
Au
hårete
Glasgow
Standard
forslaget
utforming
##base
What
##bredden
revisjon
aluminium
oblig
##halvøya
##systemer
digitale
hale
Marine
##aliserte
oppfinn
Bug
bundet
admiral
forsøke
hjemmet
##start
Boys
Pitt
bomb
tynn
grovt
Kennet
Broadway
kategorien
##gy
Vic
WoRMS
Kongsv
Taiwan
samsvar
værende
grunne
aggress
##aas
##ives
Pom
##letter
foren
etappe
garnis
partis
##administ
Southern
nettstedet
##cou
##splan
hell
likte
kandidater
Stig
##smakten
sprint
Asbjørn
verdensarv
##ssk
attent
Bonde
differ
utvidelse
Hat
##ippet
Inst
Etiopia
sørvestlige
Vit
Vall
antrop
fremragende
systematisk
Asche
##imentet
reglene
handelen
gjentatte
alternative
##usj
etc
##riger
Maud
Vill
Svend
Carlos
##slutning
redaksjon
Hydro
Sloven
vegetasjon
##engel
##ignok
##komité
Mario
Warszawa
rettighetene
##byr
##rah
##otor
canadiske
stasjoner
Moz
##basert
synet
forvir
verkene
innfødte
betydde
##eton
##finn
143
Isab
phil
##barhet
##ID
##ights
##etiske
##hengen
gårder
formelle
sykehuset
skyt
Historisk
Ptolemaios
Inndelingen
##adis
##ikum
1853
Sche
Bundes
Report
mynter
utvand
##brev
eiere
halvk
tenke
oppstå
##forlaget
##produkter
drivstoff
fundament
vannkraft
sikkerhets
resultatene
republikanske
tsar
baner
huser
kompl
kjernen
kvinnene
foreløpig
fjerdeplass
Gj
##illo
##jong
maur
sunget
medvirk
tretten
Acc
Ivan
huden
rekrut
selger
åpenbart
fremførte
retninger
posisjoner
Cry
Köln
##bekken
gjenerob
intellig
`
dobbel
tennis
##velopment
hjemlandet
videospill
datterselskap
##GA
112
Råd
Røy
##motor
##årige
Globe
Klubb
Edmund
Campbell
Innenfor
##ype
Tsj
##repsd
Meyer
plikt
Econom
Google
dramaf
Brussel
Detroit
##æn
##aph
##gre
##ksid
##rekord
Hentet
##ningsm
Volks
Betegnelsen
folkes
jomfru
torped
Israels
##ikten
linjene
kunstneren
hertugdømmet
##vol
his
Skåne
Newton
storby
Venezuel
funksjonen
menigheten
angelsaksiske
Ide
##pleks
##shavn
Arena
urter
##mengden
Stuart
farvann
stadiet
Á
##orial
hier
kopi
##gelser
bokser
hjørnet
protestantiske
avslørt
løytnant
SK
jf
##idig
##løytnant
kub
Bend
Bort
talte
Australian
##IM
##oi
##rip
##ains
##onso
Stord
Oliver
kriter
utenlands
erobringen
årsjubileum
NASA
##rørende
Bolivia
tunnelen
nestleder
arbeidsgiver
##sbo
kode
Region
blankt
mobilt
seriem
##kesteret
##sområder
hvorvidt
radikalt
absolutt
Proc
Svensk
vitner
kommisjon
arrangerer
##ller
##uble
Cæsar
isteden
australsk
Lyd
##itære
have
ballen
Branden
rundede
Holstein
PS
Ves
back
raser
Stewart
tilbudt
skvadron
##ades
stj
Sever
colle
grund
hytte
stikk
##utviklet
Arsenal
Kenneth
##aj
only
distrikter
sid
Marokko
styrket
kontrast
Committee
Seks
ukra
Spits
påvist
##akademiet
holdning
##produksjonen
##atz
MF
Rou
##house
sopp
Heart
Kenya
arena
inngå
skisk
kilden
Ordenen
rehabil
bortimot
demonstr
fremstilt
Prosjektet
##entz
Ral
temp
Byens
##sbruk
Inns
Barry
Front
levere
oppdraget
forfatterskap
##kob
ABC
##radio
Cons
Curt
vesen
palass
hjernen
##spr
450
Cos
Tanz
Rikard
positivt
Did
Stats
optim
skrekk
avskaffet
kronprins
AP
##lapp
Kristin
pengene
Historia
konsesjon
betydningsfulle
##ssons
bedt
Brist
Brook
rykte
Matthe
People
tilstede
landskamper
##ED
##apo
##lette
##uston
styrer
Mam
Nep
ton
##ogram
lyri
Henning
Knudsen
bildene
jagerfly
Hof
amp
##basis
bladene
##aro
##øter
1838
Helle
Lunde
kvalit
##karriere
festival
Lillestrøm
##run
##ssam
endem
spion
Mississ
langvarig
skriftlige
sogneprest
##vogn
##zona
Røn
Laur
hunner
Englands
Aschehoug
##etty
##omon
##opot
spanj
Fjellet
tilhold
landhockey
139
ond
råt
rekr
##melsen
Fager
Origin
forven
Anatolia
frigjøring
grunnloven
vente
argent
herrer
tyrkisk
dannelsen
Madagaskar
bakgrunnen
rapportert
Kung
##ctions
##fallet
kontrollert
##hre
##offis
Jørg
Skar
salme
kommunens
Kongsvinger
Vide
mart
Armenia
Atlanta
palasset
Celt
evig
##stridt
Parken
kapital
##ries
##sang
##shand
polar
indisk
##alistene
Befolkningen
##preget
Jimmy
##atabase
kvartfinalen
##edon
##eley
Damp
Styr
pigg
##samfunn
revid
Augustus
konkurrerte
amf
##delte
Brat
##ellere
pileg
Review
##forskjell
div
##hodet
##ulært
##vilget
Persia
Gudbrand
##smenn
##enerne
##teater
Johnsen
forkant
befolknings
##amesterskapet
##add
##akken
Ellen
adelen
landsm
##sseremonien
1847
pause
Norman
begrunn
fordeler
strømmen
revolusjonære
statsministeren
Rac
pilot
separate
##revolusjonen
##hs
##key
##etti
Hauge
geist
filmet
forlater
##chan
##leir
##lisk
##slov
Urugu
##ulykke
Robin
trygg
##still
Dens
Conne
Pseud
utbygd
##ici
##skikk
##uvern
Shah
##bilder
antak
innov
##iteruss
Latvia
kretsen
##spolitikk
deltakelse
##OM
##eda
##ssa
Verk
rust
Danske
Møller
etnisk
kjøpmann
kolonier
##eme
##ists
Cab
##herine
##varende
##vinning
Countys
fienden
Grimstad
Vålerenga
Bret
Russell
Eksempel
Spitsbergen
##vas
##imir
ped
##egang
##riller
Abbey
Moham
flyene
frakte
server
utnyttet
##sfly
Mao
Rena
konseptet
rekkefølge
generalmajor
Ped
Øver
##risten
folker
##atningen
forstør
##kspedisjonen
##éon
##elast
Fast
##oriene
Tennes
prestis
budsjett
##vedt
That
strø
Avisen
fjellom
Mig
Trav
##streme
spart
freden
akademiske
##eman
pdf
tegl
Romanen
Missouri
Universit
IM
Four
##castle
Daily
##verkene
Pacific
fremtiden
##send
Ent
Fun
Vor
våp
Cook
ifra
touch
lagring
skjebne
bombefly
partikler
biblioteket
tidens
##elem
##inga
##iland
turen
Ekeberg
tilrett
Stjørdal
##yndighetene
korrupsjon
##aksen
##stell
##jerner
oppgjør
kritiserte
##hel
137
##ulkan
øyet
pressen
psykisk
tillater
filosofiske
trium
##eks
AG
##frem
tau
Slekt
herjet
belønnet
##oz
dru
##kreft
##stens
Card
stopper
skandinaviske
Dale
##støtte
snitt
pasient
Singapore
understre
pga
##arker
##skalk
##ønner
##berger
Space
monum
Formålet
betegnes
energien
kritiker
Wu
Jay
mill
Islam
falle
##ization
annonsert
teologiske
##osc
MA
Din
ris
##itime
Krit
Last
Kings
##unnskap
omstridt
rapporter
situasjoner
klassifisert
##veland
guder
##stykker
Arabia
Canter
Century
hjertet
levetid
##problemer
diplomat
tilflukt
forelsket
forestillingen
Dow
##achim
Conf
Head
##sidige
tapet
Boeing
Mikael
mastergrad
##TC
##eta
##issa
fog
##roner
NRKs
##veggen
Malmö
gater
arving
singler
##peraturen
##mek
Aug
Gon
##orenskriver
##ommet
Espen
##melding
##ropolit
Kansas
anslått
trenings
##agelse
oversv
##ialekter
##historien
faktorer
fremmede
uv
##bekk
##ipal
Berk
##landing
barokk
germanske
kirkegård
vinterleker
Raf
Cant
##gruppa
intet
Silver
oppgir
gjengitt
temmelig
observasjoner
##ando
1839
Blues
dekar
kamera
##esenteret
##hastighet
disiplin
inngangen
konsernet
kristendom
##umm
Stør
Airways
Studios
ødelegg
besetning
forfattet
##turneringen
##spo
##ève
##annel
Down
inntok
innføre
sterkeste
##avei
Leb
##skret
Start
Solberg
konserv
Franklin
kritikere
##hau
##hausen
Anker
skand
##gl
Loc
Diet
fylker
##sin
kaf
##båten
##nskap
##assende
Grammy
grensa
kunsten
levevis
rollefigur
AR
veld
alliert
utløpet
utstilt
##dad
##enburg
##ivaler
lovet
Bladene
pasienten
##bør
Fen
##ttingen
Global
##ialekene
Sesongen
##sem
##ining
fyrste
tanken
Forbunds
##ysse
Roc
##urbin
bestå
senator
kongedømme
selskapene
##anka
##atem
Gas
hyper
hoppet
katolikker
virksomheter
##spen
##klart
##vegen
##irekte
Ingrid
flyter
graven
##reisende
##sprosessen
mit
##fried
Link
Dylan
Drammens
konkluderte
##uke
Fj
Buen
##følgen
Civil
krang
##ainment
markerer
forklarer
kallenavnet
##imert
1844
##minster
Hawaii
indust
Vanligvis
Inform
hemmelighet
##pur
##ryd
Yu
McD
Record
husene
Internet
landområder
##sor
hørt
leste
##atorisk
##studier
koblet
gjenkjen
etterkommer
##22
Leir
Mall
##banken
beund
##kroppen
##gruppene
idrettslag
##ced
##smal
Pur
1821
Dark
##ømmene
Theod
UNESCOs
Imp
Kåre
##skning
Grande
Slovakia
bataljon
fengselet
##gir
##hed
Eil
RAF
##iklene
felttoget
provinser
renessanse
IN
##utert
Dave
Frode
listet
oppnev
Bernhard
biologiske
oppvarming
##sveien
inneha
Joachim
Cu
##önig
Böh
kid
##essel
Even
Gent
Lyon
hekt
tref
Valen
smalt
Prince
anslag
fjorten
ordinære
Bakvingen
beskrivelser
##nenes
##iverset
rockeb
enheten
forelig
Northern
##forestilling
##ahn
##neset
Lisa
varmt
inklus
Øyvind
isolert
latinsk
Colorado
barnehage
##oga
rug
##anuel
1846
anat
Eriks
Leder
lunge
sammensl
Gibraltar
komplekse
flertallet
##tyske
##fangst
Neste
##miljøet
##rong
##valtning
Arizona
godkjente
middelhav
terningkast
industrielle
Næ
Golf
avla
Erich
Kelly
gramm
Pål
##visst
sikte
Dallas
utdelt
##partment
skyldtes
Utviklingen
##ON
q
nym
Gand
##ocaust
Harris
Slesvig
sammenhengen
##ledge
Rover
Universitets
utp
Ferg
embed
##stilles
firkantet
suksessen
respektive
hvelv
midtre
Toronto
Vincent
fronten
Seg
##fiske
##iktig
smerte
fokuserer
##cos
##alymp
##minal
Røros
Gustaf
pannen
privileg
##tegn
Rick
Fland
Gaten
alter
Jonathan
Robinson
Thompson
bokstaver
##onte
##couver
Venus
stedene
deltaker
opererte
##sve
##viken
##roleum
Monroe
history
innover
kirkene
Sö
##ates
##mass
Dev
Dead
Hunt
unns
##ranter
##isteret
##porsjon
##lich
Gor
Buff
Mind
Ting
Unge
hann
Mater
##sformen
##stallet
Morgan
justis
syntes
parentes
Asialekene
Ki
McK
tønne
partene
Tennessee
kortvarig
puppestad
varianten
##FC
Sad
##ogene
##onert
lyder
barneskole
karakterisert
##cen
##mis
ull
Democ
##smessige
Spiller
digital
Guardian
diplomatiske
etterfølgende
Lær
oval
##ittisk
##baserte
##mission
Murray
Uruguay
tilnærmet
Kristoffer
forhandlingene
##aus
tryg
##kkelen
Malta
##punkter
Hudson
rimelig
stikker
utstillingen
##ofer
Chi
Emma
Story
dyret
toget
Ranger
##årskrigen
Forvingen
datamaskiner
konsekvenser
sikt
##lister
##ordnede
##organer
storting
symptomer
##reb
##tids
Bev
melk
rektang
leilighet
##ikv
Ost
hall
##schaft
avfall
fornyet
dominerte
underjord
presidentvalget
you
Aven
Forest
skifte
Aleksand
reisende
##utdannelse
regjerende
##bit
Gau
Oct
gli
Fren
Hold
Mose
Census
mandat
effekter
militæret
demokratisk
##idd
##sju
CIA
Hit
5000
Walk
støv
##elaget
kjenne
rekker
utlend
overlevd
mislykket
grunnleggeren
##ety
Viv
spir
Steink
uoffis
Command
striper
sønnene
##itteratur
dårligere
##owski
##plant
Bran
Holt
skrem
larvestad
Omt
fac
vas
Vang
##ssiden
##sklubben
Lofoten
skatter
aristokrat
Isa
bag
##omene
Hipp
##feksjon
kronen
vervet
erfaringer
gullbasser
bispedømmet
gjennomgått
Ce
bem
hat
##stripe
Strat
##setting
Torino
Network
antarkt
metamorf
sangeren
jur
Medie
##handelen
lengden
utbyggingen
vo
##ikale
##sfart
Cart
ansk
hindu
Marius
trives
##kulturen
forvent
kjeller
Vancouver
materiell
komponister
manusforfatter
Årsaken
##fabrikken
dedikert
##departement
flyselskap
Mississippi
grunnleggerne
Dani
kvar
Psych
naken
world
Leopold
Palestina
##edene
##oment
Hunn
unike
Raymond
innsatt
mislyktes
industrien
perspektiv
AM
##seksamen
Britisk
##shistorie
feilaktig
indirekte
studentene
##heimen
Place
føres
##listene
Ninten
Grunnen
skolene
deltakerne
##ilo
##ålen
fjellt
kunder
Albania
Country
Six
##ektor
Imper
Tibet
tyngde
skolens
##programmet
##jiang
##ulgar
This
antis
Cooper
Moderne
Electric
Trondhjems
forretningsmann
##atn
##rass
##urdere
impro
restene
videreført
behandlingen
£
lyn
Yang
anse
##ansler
Newcastle
Canterbury
jordskjelv
##rough
Rica
sjang
busser
statue
molekyl
reserve
Technology
hunde
retningen
innspillinger
Wi
##dende
##opptak
Diego
fargene
install
misjonær
utstrakt
ritu
##somhet
Hessen
bratte
Kloster
Brothers
##rh
##idi
gig
1841
##elefon
##asiteten
Bristol
definerer
Brandenburg
EF
Sri
Grev
Hend
Race
skih
Court
Theater
naturgass
litteraturen
##hm
##gru
Haf
Natt
tyngre
passerte
Publisert
##lu
Cel
Diam
søraf
domkirke
Studenter
defineres
##eier
##sinn
Herc
ulikt
biskoper
fullføre
##tertainment
##EF
Fed
##geist
##sfelt
##ionens
Trygg
krepsd
margin
sektor
##ikasjoner
canadisk
Installert
##formål
akust
##residen
faglig
##sbygningen
evolusjon
##opt
Nova
tida
##bibelen
høyder
plukket
Tittelen
Østersjøen
produsenter
##ais
##icks
Vad
##rethe
1843
lagd
##skjerm
##edømmet
Ont
Libya
tykke
gravid
Railway
biologisk
illustrat
utstrekning
##uez
Grå
Paret
Dakota
hendelse
artilleri
dialekter
gravitasjon
##atar
1808
Bjarne
imperiet
sjeldent
selvstyre
tilstedevær
##mur
zo
Elver
Battle
hverdag
utfører
Hospital
silke
import
verdensbasis
##39
kår
##octor
##rettede
ringer
omfatte
relatert
##sfil
122
Ted
Tjø
Wür
##korps
##ustad
Ryan
##føreren
vestkysten
##anal
Chen
afro
Leeds
opplever
Llo
Mek
##skede
Rapp
glad
faktor
kritiske
kroppens
overleve
Venezuela
trafikken
vurdering
SF
##skader
Griff
Oklah
figurene
organist
forsvinner
##undervisning
tag
marsjerte
tilrettel
##ognen
radi
##avtalen
##terende
##feransen
##ey
##juk
##skraftverk
underveis
departement
innføringen
infrastruktur
##teren
##zburg
Rain
##utvalget
maleren
keramikk
##US
##dorf
101
Tipp
tunn
König
hesten
avtaler
uttrykte
Høyesterett
Age
##agraf
verb
##rogram
lyden
Winter
husdyr
truffet
dramatiske
##stig
##vinge
Cult
##kilden
rasen
Spareb
kreditert
##myn
Kob
##polen
innh
##likket
Cecil
##ennelse
##raktaten
knytter
kravene
kommunal
##EL
AN
XX
##fsen
Lex
Eide
Camil
##svalget
unionen
sorenskriver
##owa
##curit
##itage
##oppdrag
framført
##vatn
Cet
Wisc
striden
kampanje
##sats
##ksjef
fans
glede
##elinjen
veksel
fiktive
##limt
##mars
Dov
hyd
##ierra
Bryn
rens
Sverd
bered
koden
lanser
stiger
nedtegnet
##boa
PR
Indi
##ariat
1812
Horten
kirurg
##språklig
stoffet
opplysning
##adal
Abu
Eag
##uddet
Brow
aften
Astrid
dommen
##overnment
komposisjoner
Mul
##akene
##annon
##kreis
Kant
More
relev
skift
Claude
##sstasjon
Derimot
Wiscons
anvendt
Amundsen
Business
etterlig
##rice
##sommer
##agement
lagret
vender
##urnering
avgjøre
Distriktet
forsikring
##inett
##osoph
##været
furu
##vogner
Verne
besøke
myster
##spørsmål
teknikker
krigføring
organismer
##éd
##ful
##inet
##unet
mac
Sali
Defen
appar
pluss
uenighet
effektive
innvandring
RA
##uthor
Hisp
Ming
femti
##itering
fylkest
registrerte
##deb
132
Nab
Hills
##strømmen
##akom
løy
nivåer
##leggingen
helikopter
kategorier
##eløp
##haus
##kapp
##sbok
Baden
Lloyd
Sarah
##sperioden
oversatte
##lude
##pert
Død
Dist
Gene
Movie
Organ
Telen
Chelse
sekret
skoleg
##hren
Skjer
frisk
##ialisme
##verdenen
##kh
##pter
Abel
Aber
rosa
Homer
treet
bakhjør
klimaet
planten
##retninger
Bibliote
sørligste
sammensetning
##fullt
1810
sjøs
Rotten
dekning
##visninger
symboler
riktignok
##gis
##uttes
##kommer
biografisk
nederlaget
Get
Hir
Rig
1807
1818
male
Zhang
likes
handle
hverken
innerst
tegning
bekjempe
identisk
inspirerte
Lem
##skade
##sters
baks
##elsesp
Dream
Paulus
hellen
ligget
##aliteter
brigade
Nederlandene
Moe
Hilde
fiende
priori
måneden
stanset
Frederick
Konkurran
ordningen
forsvunnet
Ål
##issør
##kanalen
Valent
hendene
befolket
Porsgrunn
##etil
Tig
sog
##areal
##hardt
Test
heavy
##dighetene
Westminster
##ui
Jr
Torg
##amenter
Collins
turnerte
høydepunkt
sosialistiske
##bs
##box
##egr
Rap
ens
##foner
Eiendom
Evangel
utvalgte
problemene
bebyggelsen
Beau
Flat
sakte
Amazon
Reidar
global
hunden
skåret
##sesongen
troppen
planlegging
NSB
Rut
dybde
heden
##prosess
hekker
Department
Shakespeare
##ieu
##ykke
Bibli
Trygve
pioner
administrativt
Sau
Jason
glatt
klokke
touchd
##legges
##steori
Loven
regent
##amlingen
##anga
##abole
##verre
bevæp
fyrst
##univers
syndrom
baseball
kjennetegn
1836
trav
##opotam
Express
Marshall
beleiret
Rasmussen
Fitz
List
##ioksid
##penger
Steven
senatet
Professor
Wisconsin
koloniene
kulturell
##biblioteket
bebyggelse
##bunn
##jere
##sven
Fot
Ove
Spor
##shoved
opprykk
sjanger
komplett
spredning
motstanden
prinsipper
Nobelprisen
Entertainment
elektromagnet
AT
Ot
##imbab
Call
Ralph
farao
Balkan
Genève
Vannet
foreles
styrtet
Sunnmøre
##ols
1832
Bass
støy
##sakadem
Orchestra
cru
virv
##delene
Valle
foreb
Airport
Geoffrey
grekerne
tolkning
samarbeider
stridsvogner
##DP
##gul
##irak
rec
##eting
filipp
gutten
gjenfor
##ogy
##fting
Sann
ikon
låtene
sviger
Tettstedet
##onna
Laura
Loren
Werner
liturg
reelle
vinden
planlagte
rettferdig
konsentrert
CS
Gw
##slok
lab
yards
Nansen
grener
##likasjoner
antennene
Bakkroppen
konkurrert
##hør
##sja
##stren
bønn
fødte
Omtrent
synonym
fastsatt
nordsamisk
Hert
Haugen
patrul
##BI
##øtte
dik
##drevne
##ledere
evnen
avbrutt
novelle
oppmunt
delstatene
##data
##sman
Nür
Sot
hul
nrk
Shet
Tolk
lånt
pale
krise
bemerk
embets
protok
formell
proporsjon
legendariske
RS
Jama
Pent
sykl
##feller
##mengde
anser
Advent
eieren
report
##anuensis
##overflaten
temperaturer
##spark
##rester
borgen
islamske
fat
stum
##egnelse
forfly
toppet
medfører
UC
##anti
##åfør
Gary
Listen
##musikken
Oklahoma
plyndret
gasskraftverk
##nberg
##festet
##kkelig
Herod
uregel
granitt
minimum
oppsikt
leverand
Hensikten
korrespond
##ytt
Lj
Dia
lek
Mitch
efter
still
##rekning
Channel
vassdraget
##ået
##misk
##armen
##østre
luks
Garden
Helena
banken
krysse
marmor
forstad
sørkore
observat
behandles
forhindret
opprettholdt
1813
Jess
Heller
##ffel
##unds
aud
Zevs
nøye
##avgift
##righet
Berger
opphøy
retter
Georges
forfølg
plasseres
komponerte
reaksjoner
##svalg
##edalen
##stammer
Rhinen
nettsider
sesongene
intellektuelle
##øres
Kval
Claus
Guide
forvingen
interessen
##OC
220
##distri
liker
Gilbert
strategi
utendørs
matematisk
##litz
##seid
Low
avb
##journ
##taler
Uran
##edderk
koord
stemp
valuta
regional
mekaniske
Bakgrunnen
overbevist
Development
##usse
##yton
bun
##iphop
mess
mynt
spurte
antakelig
Siri
##iologi
prototy
organisk
erkebisped
##bos
##esh
##lyn
##øvet
##enges
grov
##ansens
Sørensen
Tanzania
utøvende
familiene
metamorfose
##usin
360
bly
##akere
Musik
Klasse
present
kommunev
oppbevar
oppvekst
Cha
Sak
Pius
liga
kjøper
skarpe
##ingsvalget
avslutning
organisere
utdannings
opptredener
strategiske
##øtt
Akt
Cho
Eug
Kyr
bob
Fact
foreta
skuldre
improvis
informer
forskjellen
Lod
Digital
avisene
skrivem
etternavn
##øe
Sym
##typer
Girl
##fartøy
fredag
trykker
Få
Via
svov
Liter
Gunder
Inntil
vingen
treffer
magnetiske
representasjon
Sek
##skytter
avgjort
demning
flytter
pianist
Ingeborg
Sørlandet
Uttrykket
opprørerne
Nest
Sort
Antar
Manuel
Chelsea
debutalbumet
##ohn
##fanter
Staten
bølger
forson
Britain
splittet
inklusive
##DE
ein
##ilene
##sfest
##edning
utfør
Müller
Volume
redning
Biography
##sord
Fry
Anti
natu
##varige
tjenesten
##gart
pur
1809
nettet
##angrepet
våpenet
krigsskip
referanser
##utz
Cri
##union
Moon
plak
takk
March
Kanalen
##versjonen
fylkeskommune
Ay
##hamn
##ralis
Hest
Magne
spons
Sports
turisme
##stjenester
tredjedel
undersøkt
ib
##upet
##arius
Nash
torv
orient
Algerie
omdannet
asiatiske
konklusjon
##roen
ombygd
interne
Wolfgang
keyboard
plasserer
##lett
##ypen
mad
##raket
##herred
vurdere
avhenger
stammene
Churchill
personene
medarbeidere
kroppsbygning
##afor
##ites
1835
Haag
Pink
løftet
ankomst
halvdelen
innstiftet
konkurrent
finansminister
Zo
##arme
Cole
Ster
sagn
##tegnelser
regjerte
romantisk
##gt
##yte
##ssels
lete
Bille
immun
formue
adskilt
datamaskin
førsteplass
##atoes
Stri
Stru
Hughes
bomull
bulgar
Houston
##su
##fas
##umet
car
bratt
lærde
nevne
dyrene
gruppens
kjæreste
gruppespillet
FF
Sep
Roth
anark
kraften
gjengjeld
kjønnsmod
ligningen
##oko
##rose
Gim
Jere
øyas
Roose
##ologier
##smiddel
charter
vanskeligheter
##gå
##bbe
##amas
Emb
ost
##høyden
##repren
##stadion
eggene
forhand
Flandern
Nintendo
straffes
##instrument
fotballklubb
##ém
Grü
Ska
##quist
Bapt
måne
##feranse
fuktig
##fotograf
fangene
leverer
tidenes
##fia
##kry
##phy
søvn
Banen
Breiv
Greek
Håndball
nederste
spyd
abbed
solid
Hannover
slektene
##forskningen
##servatoriet
kirkegården
hk
##klam
##ledd
##malt
Hår
Syk
Tac
##sfull
fylle
hevet
medis
##analyse
Valget
sundet
Janeiro
##aktivitet
styrmann
lutherske
Sølv
nebb
Derby
artium
samles
##svarende
anvendes
Roosevelt
Steinkjer
Batt
Prøy
##vervet
Staff
skept
Konrad
ettermid
Statistisk
DA
##jdsj
Tap
alb
Stang
pastor
##ferdighet
Valdemar
hotellet
terrenget
##ftt
##sev
##olph
Dah
##serba
Agen
Sierra
stedsnavn
##tu
Fi
jøde
Bygget
Design
arrangør
innsiden
verdenscup
##instrumenter
Alp
has
soc
leies
fritid
##serbajdsj
pavelige
turbiner
##eli
##kos
Dro
Linn
play
##engsel
forval
fengsels
konføder
teateret
akseptere
dramafilm
midlertidige
HB
##icht
##prem
Hær
##lader
1833
sone
æren
##semble
nerve
bølgel
Chrysom
##uligheter
mellomrom
##idad
Them
snakk
Dionys
væpnede
redigert
Provinsen
##lé
##oin
##berkul
Westf
frakt
Resten
rødbrun
trekkes
Institut
løsningen
reduksjon
variasjon
##verv
1816
Poul
Eivind
##BU
##cts
##pil
##øyte
sunn
myter
globale
storhet
universet
larvestadiet
Loth
hals
##ringet
avisa
fylte
leire
##skampen
Easter
analys
smelte
##onerende
oppleve
rettssaken
dokumentasjon
Vå
hug
dren
##okolade
bebodd
tobakk
##aman
Jerry
Konger
læring
tretti
##undersøk
Apollon
behandle
utgangen
##ár
Jin
pak
Beng
smug
##borough
Walker
satellitt
Undersiden
kjølvannet
tilstanden
Cob
ran
Bred
Cher
Palace
doktor
Lambert
##samfunnet
Mongolia
dødsfall
stjernen
fattigdom
oppdagelsen
##bye
##gens
Ulf
##bygda
1789
##ateriale
miljøer
konsulent
musikkalbum
Dyr
##tenes
Bald
Stam
uskyl
##mingham
søstre
teolog
##ifisering
mekanisk
rednings
jernbanestasjon
Dü
Key
åra
##odset
Hamp
stev
##atører
Bolig
Edgar
Melod
oppkjø
##bransjen
uttales
gjennomgikk
750
årt
låne
vilt
##spunkter
aktører
årrekke
Musikken
forbindelsen
stortingsrep
##bond
Jag
Ving
##onymet
Bryst
anstr
hiphop
bestefar
##halv
out
##orget
##selva
leds
tyve
##imeter
Våpen
tibet
mister
vakker
Aristot
Babylon
##politikken
stiftelse
fremstilling
##mit
##bind
buk
Rams
strengt
##produsenten
##cho
##næs
##syre
Try
##ambar
Care
##skunst
trykt
Fergus
##utninger
teoretisk
Championships
##forsøk
##havnen
Lucas
Birger
distin
##imo
##sum
Mis
Pia
dur
##apolis
tempo
Panama
Parker
stjert
Valdres
##bebyggelse
innvandrere
##ög
##øll
PA
Marin
akvar
treff
##inering
##innende
Special
hersket
sjuende
analyser
innstilt
##lam
##kran
Ege
Sto
gatene
birolle
##foreninger
##dage
Neil
Pale
##staven
##ymnast
føler
immig
inten
Hertug
dialog
tilpas
hindret
kondens
Katarina
Fylkesvei
undertrykk
kulturminne
identifisere
Kitt
lysb
Early
basen
skjule
skroget
sylindrisk
øyeblikket
##esdal
ovale
##dingene
Conrad
Clinton
fremtid
utløste
innerste
sveitsisk
middelalderens
##jeg
##lic
Sha
##skart
##grader
femin
ivrig
toler
klaver
seksuell
##skirke
Slovenia
faktiske
kjønnsmodne
kronologisk
definisjonen
folkeavstemning
##enz
##iley
##ragt
Here
Sign
gale
Herak
##include
Justin
Krigen
##leksikon
Finlands
Louisiana
##uka
Fos
##ierte
##umber
Gror
agen
Camer
Titan
forræ
##ringende
Steinar
svømmer
politist
Birmingham
folkegrupp
tilnærming
interessant
##omy
##usia
1824
begått
runder
komprom
snarere
seksuelle
##institusjoner
eksperimenter
##oon
1801
##sklubb
fiktiv
pågikk
rasende
foregående
##kurs
##overt
blodet
ringen
Italias
originalen
##fus
##round
Bind
##vernet
Arild
##sikring
Hannene
ovenfra
Senteret
forsøket
søsteren
territoriet
Rum
##ading
irak
vara
##skiold
bakre
Letter
fortet
touren
##iserende
Halling
Chrysomel
Xi
McL
Nams
essay
feste
grove
bekost
villig
##prosjekt
Hitlers
brystet
albumene
##aea
##styrr
avslo
##markedet
kompens
reservo
vinduer
##visningen
fartøyer
##jof
##hord
##ytter
##etiden
Gallia
sørger
vellykkede
##iago
Gab
Kid
freg
high
Carter
følges
Kvinner
forbren
rollene
Byggingen
Mog
NHL
paa
##upert
1825
fond
studi
Maurit
Isabella
håndtere
bestilling
besetningen
sw
dep
Andy
Mali
##isserte
##ulturen
##komiteen
##samlinger
bakerste
ekstreme
##strukturen
differens
gjenvalgt
Nettbibelen
##ße
##ilda
Kul
Sac
##Station
##irkning
markere
varierte
deltagelse
##oka
##yper
##hertug
##iences
##formene
Archae
avgift
##divisjon
##ifiserte
##opprøret
fantast
alminnelig
##rez
##obby
Kub
pum
##skost
Lier
Scene
speil
domstol
sitteplasser
##ef
##natt
Ene
Benn
Series
ekspansjon
arrangementet
cur
##olske
1831
Halle
athen
##ystemer
Antall
lengder
akademisk
kjennetegnes
##dor
##rif
MG
Kem
##stift
engang
felttog
Mountain
##ygere
falske
##kontrakt
geometri
regiment
bakterier
nøyaktige
##svirksomhet
Tilsvarende
verdenskrigen
##mm
Heb
##esserte
Ernest
utdødd
Londons
eksklus
egyptisk
framgang
rekkevidde
Rost
##kompon
etterlatt
herreland
bevissthet
amerikanerne
systematiske
##ize
##uge
##ibal
Nordic
ingeni
primære
stemmen
uttrykt
foreligger
involverte
utenlandsk
statsvitenskap
##jakt
##ovina
Kamer
Oslos
Zimbab
begeist
kostnad
Database
kongress
skribent
ambassade
depresjon
statsborgerskap
##book
##ours
hog
sus
##agram
##ortere
##kammeret
persisk
tallene
Discover
omsetning
slektning
elektrisitet
##øen
IBM
##vente
glas
ferie
Herceg
bistand
intervj
Jørgensen
kongressen
markedsføring
##CC
##gest
Båt
##mekan
mote
Japans
skilsm
tegner
arealet
baserer
realiteten
##dret
Akk
Put
Shaw
mine
format
rikdom
symmet
##skrigene
##retningen
##settelsen
Varanger
bidragsy
islandske
skuespillerinne
##brid
##itas
Tys
innså
alpint
Matthew
normale
overens
rikeste
##skomiteen
inviterte
konserten
PlayStation
spesialisert
##ahu
##fene
##flikt
##sidig
4000
Isle
arkt
eleg
femt
halve
##ualitet
forent
kanten
Indiana
seksjon
syssels
litterær
##hø
##dea
##gne
Jem
Ånd
tynt
Flight
provis
##alguvern
holdeplass
oppgradert
kraftverket
Ecu
spøk
hebraiske
##anto
##midt
Das
Nytt
kniv
ofre
##førere
jorde
maten
Brensel
konstit
nederst
slipper
utgiver
plassere
overføres
##ocen
Now
Sli
Typ
##konge
skygge
##ordfører
seksjoner
Eu
##ikom
##olsk
##ykker
Hund
grend
Survey
hjørne
faglige
Medaljen
strukturer
Ref
dos
##stegn
1826
Peng
avdel
Petersen
##rac
ing
##ephal
##roman
Alab
ubåt
Board
Earth
forgjenger
SAS
XVI
##althe
Cale
endt
##ighets
Jorden
arkitekter
tidsskrifter
vanskeligere
unik
Final
Tunis
bakke
miste
##følgere
komite
temaet
Conference
kvinneland
bosetningen
foretrekker
Kamb
Løven
troen
##ubileet
vogner
snakkes
overgrep
##cio
##edi
##reft
##stemt
1819
Anim
##essverre
fargede
avgrenset
imponerende
utfordringer
##hyl
##war
##seng
Hod
Fakt
Quis
armer
French
banker
belast
Burgund
Levanger
etappens
koreanske
regionene
##cent
##ktert
Bard
lukt
Puert
gaver
Family
Nissen
ruiner
forbilde
russerne
oppdatert
portretter
kommentarer
##kov
Mé
##ireg
##otyp
NOR
##front
avløst
grafikk
##sliv
spør
Doctor
Markus
beslag
##utepunkt
beveget
måneders
BI
Rå
##srud
##sstud
1834
Somer
suveren
Tomatoes
lovgivende
ferdigheter
oppslutning
##pat
240
Oce
sir
vig
øde
foto
fakta
##metoder
Engine
Harold
oppfunnet
##illy
##skjel
kaffe
museer
rikets
slalåm
ytelse
grundig
formålet
beleiring
ettertiden
kommunestyret
##caster
ufull
##skontrakt
onlyinclude
##neb
##rob
Box
##penes
Helm
veggen
knyttes
##ropolitan
legenden
nålevende
rekrutter
spesialist
parallellsidige
##vev
Munt
Past
##oniske
japan
##eldrene
ensfar
##folkning
innsikt
Fredriks
Christine
eventuelle
##EG
##lubb
Æth
1829
krim
##ismens
Stutt
slåss
kansler
Caroline
stavkirke
øygruppen
kommisjonen
utmerkelser
pel
##sfolk
1806
##asiner
kromos
nyeste
sprang
##kontroll
korstog
skyldig
Berkeley
Sovjetunionens
frå
jet
Julie
falsk
farlige
angående
bygnings
erkebiskopen
##bek
##dra
##igi
##anje
Gog
##pedag
Lane
##fabrik
##makten
rolig
været
##handlinger
tiltrådte
##lips
##masse
pans
##porten
Domin
olden
Guatem
utkast
billedhug
utdelingen
bosetninger
kvalifiserings
Saf
Borne
stjel
Kristi
Parish
reklam
forfulg
parkering
sendinger
operasjonen
##lof
ID
##gjer
##aguay
##jeden
Well
utlå
seile
##oniinae
Antarctic
rapporten
beliggenhet
ES
SI
Vidar
biter
forlov
samvel
##ynastiet
kjemper
oppdage
brukeren
utkanten
Francesco
oppførsel
produktet
konstruksjonen
##jøn
Phys
##uksess
Holmenk
passende
illustrert
overføring
spesifikke
##KP
##riv
##sfl
##uns
##ynet
##årsa
Cou
Neg
kna
misn
utgis
Malcol
Berlins
Armstron
##helt
##kets
Swe
##leans
1790
Graf
Napol
seere
verdt
Nesten
##gjørelse
Securit
vurderte
kjennskap
ishockeyspiller
##hag
kW
##muren
Blan
Muse
Urban
alderen
åpenbar
fabrikker
oppfattes
kraftigere
skulpturer
##bant
teatret
Scottish
kombiner
Westfalen
##bod
##inda
##reau
hule
henge
visek
##ffekten
respek
runden
utvist
Elverum
Seattle
filmpro
liberal
forplikt
egenskapene
##ims
##styrt
##skifte
pålit
Galile
embetet
avhandlingen
##jakk
##spar
Aga
Amt
##garter
Peace
brakt
dropp
prost
##musiker
Weimar
nyttig
Mission
aksjeselskap
##elsess
##heimer
black
knust
moral
##fotball
##skolene
Jeffer
diagnost
##VA
Ess
belte
Öster
##advokat
dreide
pollen
kollektiv
konkurrere
##ppes
Rug
rig
arch
##mingen
##veiene
posten
skikkelse
omgivelser
Kristiansen
sammenligning
##ensch
Reed
kona
skum
Klaus
Susan
##anskrit
Biskop
barken
Nigeria
Ontario
bestilt
##alympiske
##kilometer
variasjoner
doktorgraden
Rey
Tau
skru
Dovre
Stalin
detalj
Vestland
Yorkshire
dominerer
håndverks
komponenter
Gy
##ftes
##olic
230
##jetil
1660
1811
Krim
busk
kolle
neppe
##veiende
Finans
##dekkende
standarden
opplevelser
publikasjoner
Py
Jew
kran
Honor
matri
passe
klatre
sønnes
todelt
strakte
velferd
autonome
landsbyg
##handlingene
argumenterte
##boy
AD
sok
##ellan
Brem
kass
##boende
##ikerte
##spinnere
Wallace
tiårene
rotasjon
##utviklingen
divisjoner
##RI
##myr
Rus
##rasse
##garden
Felix
Puerto
sittet
behandler
tilsluttet
verneplikt
Senterpartiet
##agh
FM
##atch
##olar
Dio
IIs
øre
##orsdag
##sprisen
forsin
masking
residens
svømming
arrangere
##onda
asyl
talen
hushold
utmerkelse
gullmedalje
##øden
##rukne
##chwitz
##ischen
Adres
##ørrelse
Indias
lidelse
##isterende
Heritage
straffer
fjellkjeden
oppdatering
ku
##ethe
##nytt
Sene
list
utgi
Julia
regime
Scandinav
hvileperiode
Nept
enig
dypere
Samling
opplevd
Marianne
overlevert
XIV
1828
krem
##vendte
Matte
dratt
utest
Franco
iranske
diskutert
propaganda
tegneserier
##igu
Sle
##menes
##aturen
##avtale
##savisen
##sformer
Bremen
Kaukas
fantas
belgisk
holomet
barnebok
telegraf
##hull
##kommen
##vinner
Metal
Minne
båret
Kosovo
salget
Nürnberg
Ragnhild
nettverket
relasjoner
See
Grey
Mask
##vekster
Police
kvante
Montene
Mesopotam
menneskets
solsystemet
Produksjonen
tju
##illen
##lyste
Galt
Kate
##egrens
##opphold
Cambar
Dennis
Nordvest
Aristoteles
individuelt
CN
Deb
Fla
##hodes
hedret
##ografier
hjembyen
##republikken
borgerlige
geologiske
elektroniske
holometabole
##atest
Kiel
##klubber
foster
Maurice
aktiviteten
##HF
##ady
CA
##stod
Ida
Kast
Oliv
Dokum
Frukt
endrer
Iversen
sydlige
kalender
Chrysomelidae
##UF
orn
Arag
Arke
Frei
##kanter
Athlet
mordet
Utenfor
utsiden
viktigere
religioner
vikingtiden
sannsynlighet
sug
##berne
Brev
kald
tomt
Chief
Plant
Avtalen
Orleans
Ré
##negler
Corps
Irish
medik
Jomfru
Sahara
hvorpå
omdisk
ferdige
##skuespiller
Born
trak
Amand
April
Bobby
orlog
satse
Schwar
antisem
arbeiderne
##møn
##viks
Stem
Tiber
ellev
Telenor
##virksomheten
omgivelsene
##aps
##fran
##inna
Ach
Rau
Tod
Prop
##hetens
Holst
spurt
Andrea
Harper
Nicolas
Rangers
skyting
Landkreis
hjortebiller
##dro
##bryt
Por
bask
sorg
##usener
Living
fornøyd
oversettelser
##hog
##iji
##ulo
##rodu
Sku
##iesen
Ther
Steel
teller
Halvorsen
forandringer
##yon
##öld
##laug
##ichte
Deep
Sjæl
mitt
Kring
##pressen
dagers
romant
etappen
ladning
atmosfære
Folkeparti
grunnstoff
##acy
CF
##dele
##eater
##igers
##irkebe
Carab
rival
derved
parter
##sprosjekt
tingrett
animasjon
filosofen
kritikerne
mislykkede
Stortingets
avstemningen
konspirasjon
sammenslåingen
omkringliggende
##ilus
ått
##apest
##skild
##stalt
##varen
Fore
etru
modellene
finansielle
gjennomgående
##aha
BA
våk
##isper
1792
litau
herreg
African
Nicolai
antydet
Vladimir
oldenbor
filmatisert
betydningsfull
##øft
##abad
##fritt
Lise
##finale
Eisen
hevde
retor
Warren
##materiale
etterkant
flaggbærer
Universität
If
Nem
Aires
anker
Morris
##utstilling
##amt
##asp
##nav
Lock
Oreg
flyktning
Tradisjonelt
##elier
##ublic
Kiev
news
rakk
Løren
Buenos
Claudius
Hviteruss
arkeologi
fiendtlige
##viet
Vera
##blomst
Eugen
valut
kompani
avslørte
tusenvis
anbefalte
Zü
Eik
##water
##inspekt
##oppgave
satset
ansiktet
arbeidst
forklarte
kollektivt
konservativ
##skib
aksje
franc
indoe
studioalbumet
##kop
##ondo
Alv
Dat
##oblet
1770
Full
Soft
hosp
kurd
språ
##annede
##givelse
##kehuset
##konsert
legeme
tilbudet
tilskrevet
meksikanske
##éer
rem
Ørn
Week
##ipedia
Braun
alfabetet
kontakter
underhold
kommersielt
utgravninger
skuespillerne
##ssyn
##ølen
ASA
nar
##seren
1803
1827
Mack
Orkn
hett
Saken
halsen
velded
service
tyskere
altertav
månedene
##ál
##flo
Sex
##bered
##issel
##usler
##vices
Venst
##skorset
begikk
bomber
herald
vulkan
stammet
levninger
Cetoniinae
Hammerfest
bestemmelser
##arg
eik
län
##ekene
Parti
Altern
fordøy
kanter
##endringer
Flyplassen
instituttet
##ος
142
vårt
##eldige
meldt
Instru
Saturn
patron
fylkene
diktatur
innføring
##chs
Chem
røyk
##stilen
Kairo
drakt
Kjetil
Lisboa
##landskap
lidelser
kanadiske
besittelse
romantiske
manuskriptet
Mec
##uerte
Cour
Muss
Peer
lade
##ansere
Celtic
Square
hevdes
noveller
Nr
inc
##gitte
##onald
##ruppe
vaks
Dance
kledd
##krefter
seksten
avansert
fremstår
Kons
rest
Miner
hoppe
defens
munnen
radiok
Engelsk
article
landing
Tunnelen
kriminelle
##tel
##udde
påk
##cture
Glass
Health
Karlsen
filmens
apostoli
meninger
samtiden
forenklet
##DAP
##åndet
flor
##ulerer
steink
styring
krigsfor
regnskog
vedrørende
##rug
Metro
Tiden
mekanis
Zimbabwe
walisisk
distriktene
##si
##imus
Oak
Yes
##løkka
Nina
sanne
stemt
Austin
merker
dødelig
omvendt
Nicholas
kollisjon
matematiske
SM
nak
##måler
Haus
Page
retur
##sanlegg
Felles
Orient
insekt
lovlig
Demokrat
detaljert
Fremskritt
våpenskjold
hovedpersonen
##cken
##ulin
SPD
##sleir
Mult
Ward
##istenes
ressur
Afrikas
skjulte
bergarter
debutalbum
Cic
mix
røk
##flåten
pinse
##innhold
hånden
pigger
Malcolm
Santiago
vietnames
overrasket
spanjolene
restauranter
systematikken
Rah
1795
mast
##angene
Event
rømme
skallet
keiserens
femteplass
konferansen
##otop
Wis
Baby
Bakke
faget
imple
##itrogen
Myster
finger
jakter
kategori
krevende
renessansen
oversettelsen
Mum
##kraften
artisten
dikteren
Oslofjorden
##ulu
##dale
##iska
##spres
Java
vern
##maskin
Bolog
Lands
sitert
uttale
bemerkelses
Two
comp
##slivet
Foran
forbød
Information
##iy
##små
Alk
dere
##ockeyt
##stemte
Alive
Maler
aksjer
##asjonens
grafisk
tuberkul
høyesterett
produsenten
lei
Hauk
Vent
kjer
livs
Coast
hager
sultan
##distrikt
##politisk
Jylland
Mosebok
forberede
sammenlik
##skal
Fon
Ferr
epig
sognet
##atoriske
turneen
Scotland
hjemland
talsmann
Henriksen
restaurering
##ña
Wes
##strøk
Kjel
Roberts
erobring
oppnevnt
##izz
##ingo
Brom
Isted
hodep
##steiner
Roland
##funksjon
pyramide
alliansen
Nordstrand
##icum
##skur
dåp
##svart
Shan
Tenn
Energi
eksplo
konson
poeten
college
operaen
singlen
Utenriks
overskudd
##pas
##apir
##krat
##skjem
Mold
##orkester
Alabama
forstått
generalguvern
Årsproduksjon
##OL
##usc
DJ
IR
##bakke
Norr
Supp
vamp
Stones
oldtid
portret
protein
Systemet
foretrakk
frittstående
begrensninger
##alog
##stal
Whe
arme
##dusent
radiop
trilog
Selskab
ballett
listene
Brødrene
maksimal
ekskluder
##beth
##enser
Conn
##linjer
drøyt
leide
##ianerne
##pendent
rådhus
helikop
verdifulle
Nationalthe
##ów
##ippe
Zen
Budd
økos
Larry
atter
utryd
Borger
Nepals
Nieder
avstam
svarer
Ecuador
spekter
ideologi
samtaler
Catherine
Russlands
bokstavelig
##olid
Bul
CBS
Fig
Hare
feire
##østrene
online
patent
veggene
Thorvald
partileder
ytterkanten
##itær
Nac
##taket
##embran
Miami
##vokaten
profet
rakett
jubileum
kulturelt
skriftlig
krigsfanger
fotballklubben
##Hz
##nu
##olt
##sses
Sed
##veiss
Moen
Voks
sjøl
skif
yrke
##lemens
##mektig
Brønn
Names
teamet
tunneler
døg
Kiell
Elling
Mandal
##maskiner
##ørrelsen
hovedfag
Forbundet
Mesopotamia
Sz
Åp
##rening
antok
Jamaica
Kunstner
kritikker
##vre
Het
hyp
##usset
1817
Mira
assy
lært
subst
##klasser
ulykke
Manhatt
omringet
##bestemmelse
Svartehavet
symboliserer
##heid
##lyde
##rama
##ucky
Høst
Psyk
drag
Colin
Prote
##usselen
ellevte
samtale
halvkule
hengende
åndelige
fortsettelse
##asis
Hei
tam
##atens
Toten
Invest
Sigrid
Station
Blomstene
sosiologi
##bust
Liu
Ose
iber
##stabil
Kasakh
Theres
sjefen
Muhammed
strømmer
religiøst
regisserte
skiskyting
forvaltnings
journalisten
##acht
##etri
##møte
Ruth
bery
leid
##ativer
Abdul
klokker
proklam
##smedaljen
Armstrong
strukturen
størrelser
sentralbyrå
produksjoner
##iae
##ukta
Rak
##reper
reag
##galler
utbred
opptrådt
Connectic
##erek
##kete
##serkl
Leng
Vass
##hjemmet
gælisk
Bjørnson
debatten
fungerende
Aff
rab
##kolon
##stads
Jung
ener
erke
revy
##fargen
Fridt
larve
rømte
##firmaet
ekspand
perfekt
spinner
fødselen
opphavet
##smedlemmer
Stuttgart
##wal
DR
sf
##utan
dei
1805
Bened
uform
##tenberg
testet
vekten
##idelberg
hierark
Military
##sprogrammet
AI
##kart
Riv
Crow
Bladet
jødedom
##magasinet
festnings
##sdepartementet
##bei
Má
snu
Hole
Tali
kilo
leses
##petanse
Borgen
plantet
smygere
##institutt
Innsjøen
akademiet
maksimalt
spenningen
##iar
##obi
kvant
Steiner
sparken
steinen
nettside
##sforbundet
fenomenet
landbruket
##jøl
##kok
##ttem
Sla
used
##teinen
Carlo
Eddie
Lanka
Valer
Harmon
Summer
restri
rykter
såpass
gråbrun
eksistere
hundrevis
##utch
##avheng
##opatra
Bratt
brunlig
nedsatt
##mesterskap
ektemannen
anmeldelser
medlemsland
111
##adder
##kyler
##sløse
##ührer
Labour
bokmål
hviler
Government
##vins
##lerne
Æthel
Böhmen
Namsos
kurfyr
##familier
##elignende
Maryland
Minister
gudinnen
afrikansk
potensial
##cz
##ønder
Floyd
Africa
gruved
##stedømmet
forsvarer
Festivalen
##fos
##dags
##rikt
stu
##imore
##ridae
Roald
##sfeltet
kollega
##politiske
kartlagt
gjenopprettet
##cin
IU
##malm
##skov
##allige
Keith
skritt
høgskole
karosser
Connecticut
plasseringen
##yll
tøy
Luis
Most
Sold
##design
##umbria
Grace
Langu
Phoen
##rollene
spekul
Tilbake
imellom
utskilt
KF
##rian
Wei
##brann
##endet
##olini
Bird
Nott
brua
##villig
kaster
søndre
Jernban
rekorden
ML
##core
##drakt
1804
Pant
##istent
skuff
tørke
Oregon
filmreg
kapellet
##vari
Emmy
fots
rein
##planen
Trist
##illende
##prosessen
Antallet
Auschwitz
tønneformet
brasilianske
undervisnings
spp
heft
rose
måles
Borneo
brevet
urbane
hyllest
påstand
##olds
Add
Kay
Pun
ulv
Gond
##utgaven
kropps
Augusta
sjokolade
kombinerte
usikkerhet
prestasjoner
##rygg
Sult
Elvis
##stanbul
tysker
sporene
Manhattan
##ded
##bern
##preg
snur
Rasen
fravær
##hordland
Adresse
høvding
Guatemala
fokuserte
##fell
##tekt
por
elim
emne
brenn
gravd
manøv
Økonom
Karibia
astronomi
Commission
Ud
##eled
Nas
hag
mol
utm
##hvile
##skatt
avdu
kogn
grave
turer
Bjerke
borett
databasen
arkeologisk
forskningen
utlendinger
virkelighet
Hoh
##haven
1822
roing
##admiral
Foster
nattfly
skulder
psykiske
Margrethe
bakvingen
finansiere
underarter
##utstillinger
organisasjonens
##ylte
NTH
drø
##fylke
Trev
##rennet
##skript
hengt
istid
kunde
søknad
utsagn
Diamond
endringene
fasettøyne
##haz
##grønn
##draget
opphe
rocke
##billene
Kristen
gjennomføres
##OK
##fli
SC
##yren
mao
##shast
1780
Prom
##raksjon
tiltalt
Republic
fortelles
modifisert
Forfatteren
herrelandslag
##kall
##urin
##vitt
Hier
Type
spin
utsted
Eastern
anmelder
førsteam
rødbrune
administrativ
##atta
lem
##vator
##opping
utgir
adelige
skipsre
Politiet
utformingen
##øks
Ec
Dit
##liner
IAAF
Joan
Banks
Bloom
Kilde
Zürich
##mesteren
andelen
Congress
utvalget
misjonærer
assisterende
journalister
manuskripter
##elk
##ndet
550
bio
snl
##oster
Odin
hits
##svernom
Author
Nøtter
Memorial
danskene
angrepene
investeringer
##iu
##yst
trå
##missær
Karin
Slott
ensfarget
planlegger
århundrene
forekomster
##dder
Arc
utlø
##orgrad
Warner
besatt
summen
visjon
dominik
Aviation
thriller
eksplosjon
sluttspill
##jah
##grev
Edda
Elli
Rødt
Skol
Mexic
Shack
brakk
urett
fartøyet
psykolog
Management
centimeter
##fond
##øken
one
##råten
##smakt
1823
Korn
##optera
Albre
##ropiske
genetisk
riksvåpen
skjønnhet
teknikken
Kongeriket
fotografier
210
Vib
løve
vels
##uttene
Chand
NSDAP
skøyt
Odysse
##estående
Slottet
Tippelig
avsluttes
konferanse
medvirkende
##ku
##øgn
##onom
##liger
skur
##sykkel
fasen
skjen
massiv
##malerier
Norfolk
skifter
forkortelse
næringslivet
##apet
##ends
MTV
##gitar
##plante
Burma
Lokal
Sitat
##kunsten
##sfrihet
avrund
nordlig
visuelle
våtmarks
grunnleggelsen
##lage
##ograd
##reich
1750
Hval
blog
##bøkene
##utgave
Antig
##ttelsen
venter
automat
aksjonen
avslutte
hurtigløp
intensjon
ungdommer
##jak
##hart
##veps
flø
##ferds
Tver
Wehr
Offic
forbe
##kjernen
##pedagog
attrakt
sigende
regulære
herredømme
##åren
Alm
Bruk
Tian
Tron
##adalen
Atlas
dyrkes
manuset
Castilla
Roskilde
lastebil
sanskrit
musikalen
Medlemmene
##lær
##prof
##skrav
Teleg
##ørselen
Bagdad
astero
Istanbul
November
Forskning
mottakelse
innstilling
##PC
##jas
##etøy
##lion
##svin
EUs
rav
Basel
Denis
avfyr
rykke
knytte
Konsert
samband
##romerriket
Universal
fiendtlig
forfatning
spillefilm
##EM
##gal
##sfag
Gis
##verer
1793
Educ
##sundet
Fiske
Språk
Wayne
Common
livsst
publis
##stjernen
uniform
komiteen
Pettersen
holdninger
semifinale
Cad
USS
##celle
##ienne
Sout
Verd
diff
aksjene
Kentucky
anklager
betjener
##resentanter
jordbruket
forfatterne
##øla
##fund
##tårn
Frø
Neb
Know
##korset
angitt
påfugl
sjanse
Firmaet
Atlantic
argument
generalen
hornbiller
intervjuer
sentralbank
konsentrerte
##rea
yd
##ilding
##irater
vektor
##føringer
Senatet
##bygninger
kullkraftverk
##stur
##alism
1799
Hatt
Svan
##graden
Rocke
Willy
kosty
kuler
Wagner
rekken
##ialismen
geologi
sekvens
mandater
diskrimin
narkotika
Hercegovina
overordnede
##iese
##målet
##scorer
About
Three
Vegas
ypper
nærhet
bestsel
fuktige
ordener
overlot
Benedikt
Paraguay
##vassdraget
stjernene
tilbragte
utfordret
Grunnloven
Tv
##chus
KrF
##gaten
##ioder
##ygget
##eledes
##holdig
manns
katolis
klinisk
plantes
##smalnende
skildret
Jefferson
##kje
tø
Kry
##okkel
Kjem
bost
##trafikk
gulvet
hektar
pågående
ektefelle
langkirke
slektskap
##lle
zu
##ingu
##ource
Björ
##studio
Bruno
Vesten
prinsen
stabile
forekomme
primitive
våpenhvile
##ppa
Munk
orig
Hanne
Ulrik
frank
tester
Natural
krønike
geografi
Aserbajdsj
Gammaridea
##not
##rica
##affen
boik
levd
##ambarus
Ibsens
anonym
Bortsett
kirkelig
nederlen
##prosjektet
Cleveland
oppbevart
undervist
kjøretøyer
betraktelig
bronsefinalen
BC
##illan
Dunc
Meth
Creek
Matth
Terry
binde
kabel
##veissyk
berget
hangar
Gestapo
Herodot
Budapest
District
Sciences
målinger
##orienterte
Grunnkretser
##born
##lock
##ærne
##ienes
Flag
##stider
##sutvik
avkom
gjenv
##økonomi
eierne
tvinge
##shemmede
ivareta
tiltale
ungarsk
raskeste
parallelle
##fare
Cun
##gjøring
kansel
##sselskab
krigene
strekning
folketallet
kommunistisk
##emat
##icon
##slinje
Glenn
fleks
vendt
Planen
forpli
gjenåp
høytid
##retnings
Kingdom
tildels
definere
maskingevær
planteetere
##65
Zu
##jønn
##sisk
##øyne
AFC
Cand
Rhod
ydmy
Diana
stakk
Kaptein
bygdene
guvernøren
##fre
kh
##cock
##åker
Lid
Oil
old
##lagen
Oskar
husmann
tenkning
##erd
##ibil
##svåg
##voks
##edier
Tong
Figur
Hyper
Starr
sådan
hjulpet
Religion
nedbørfelt
videreutviklet
BN
##ashi
dum
##onisk
##vning
Blin
eval
metod
Spirit
Tempel
interiør
Litteratur
Administrasjon
é
##ollo
Tin
##stuen
klim
abort
advar
messe
##løsning
##smuseet
Kambod
Laurit
andres
Ireland
bakerst
melding
Antiokia
erstatter
Foreldrene
Hviterussland
informasjonen
##ockeyturneringen
kontroversielle
Røa
##istry
Seil
Isaac
Kvinn
Hockey
ruinene
tilsatt
trelast
##forholdene
Klassekampen
##grå
##oras
Beh
Crom
Snow
Stykket
korpset
Montenegro
forårsaker
##mt
##bid
##ppene
Lasse
Stens
##spissen
Bureau
døgnet
øvelse
muntlig
Dampskib
Baltimore
gjensidig
bronsemedaljer
##ogue
Hål
ign
##andro
Sich
hyllet
nybygg
Nations
utvikles
Britannica
Revolution
##fr
##uy
##elter
##øller
Plut
##faglig
Linda
Linde
relie
krisen
regelen
Mountains
utstående
Heidelberg
leiligheter
##apa
##egner
##qvist
dyrk
korset
rammer
Frelses
elementene
##oine
roll
##regnet
beher
##inasjon
fremre
glatte
##sprosess
ørkenen
sønnesønn
etablering
angelsaksisk
##ahr
##ław
LS
PL
Cit
war
Hvem
ambul
sjokk
##skrevne
Hamsun
søyler
tolvte
Stevens
følelse
leddene
Laborator
belønning
##servatorium
##mil
##enth
##frie
##wehr
Non
dek
Bygda
Illust
##verksted
serbiske
##ès
##jin
##sol
##zel
##hvit
FBI
##rings
Cort
redd
venet
Viktor
##opptreden
oppførte
##frø
##omt
##rib
##ebook
Josh
Lost
##osfæren
Bismar
foresp
herfra
tenker
nedslag
varmere
Ishockey
overføre
velkjent
hastigheten
##35
##oké
##utu
##etto
Joy
melde
Sønnen
##skansler
##forskeren
Kaukasus
Pictures
bidraget
maskinen
mineraler
menigheter
Lö
##aldi
##inte
Cin
Beth
Prot
##onerte
Førde
karbond
utbredte
fusjonerte
##bren
##ilje
##bridge
##bryter
##icester
##ografen
ordbok
preges
Handels
Maximil
##esteretts
tilpasse
Kongressen
arbeidskraft
##iac
##kjøl
##otta
Fau
Suz
oli
ork
##itsch
Donn
##grønne
##uering
lektor
Bologna
Chamber
Norwich
avholdes
Vitenskap
Kasakhstan
elektroner
Riksantikvaren
##wo
##veri
ISO
Area
kyrk
##anernes
bilene
##regionen
Operatør
østkysten
kostnadene
bronsealderen
##oge
Dim
##enaen
ansl
Saudi
Tross
##orteres
Rogers
notert
magiske
Geograph
Friidrett
emigrerte
Næringsliv
bekostning
brasiliansk
##yrus
Rib
UNI
##sprins
pater
Turist
innbyr
oblast
stripe
Results
pilegri
spennende
tsjekkiske
fasettøynene
##ache
Rag
##utton
##valgte
Elite
##skuddet
##roduksjon
fargerike
avgjørelse
amerikanere
pensjonerte
Gry
fed
pun
1776
##elivet
##fisker
della
gripe
##ttemberg
rødlige
smellere
tilskudd
territorier
Bü
##iatri
##maker
afgh
Cliff
##lysning
nedrykk
passere
nitrogen
##kspedisjon
oversikten
##45
sav
Fund
##piller
Ebert
desper
doping
pistol
budskap
børster
dommere
folkene
leveres
referere
massakren
illustratør
politikeren
introduksjon
##lat
MP
##road
##sdam
pra
##hology
##ommern
Capit
Kropp
Selev
Sogne
trang
tribun
påstått
negativt
dynastiets
likestilling
forsterkninger
##elia
Tah
##illon
renn
##iverte
Klima
kaldt
##komsten
forver
romfer
sjømann
kjønnene
landeveissyk
##boe
##gud
BMW
Bam
Cub
Was
##opran
kjeg
##jøring
nærmet
Fantasy
fredsavtale
##gg
##gerø
##ikos
Bek
Dir
Ili
who
##abelt
Base
dame
Larvens
fornuft
gudinne
befestet
gulaktige
innvandrer
praktbiller
##brig
Lap
Laz
Næss
##sløper
Avisa
Pearl
Songs
##forsyning
avslører
begrense
signaler
oppmerksom
permanente
plattformen
##eved
260
##atius
Montg
Tirol
dømte
høyst
ordinær
##ymnastikk
Sortland
##edderkopper
festivaler
formannskap
kriminalitet
##uga
yn
##fish
##quin
Fay
##apeut
Pave
Milan
skips
altfor
mandag
topper
øvelsen
frimurer
##forbindelser
##spir
Lot
Sok
iron
##ariske
bombar
biologi
Christie
Mitchell
herskere
ombygget
mektigste
kvalifisere
##48
##hin
##sås
##anas
##ektiv
##foret
##forum
Burn
Krag
##teatret
Januar
Knight
Johanne
Notodden
henviser
revidert
fragmenter
progressiv
offentligheten
##gam
asf
##sonen
Arna
##bassen
##elærer
##serter
##sfamil
trent
skinne
Tallinn
kjernefys
kommunistene
##ulv
HS
##feil
Åge
##igner
1794
Made
##priser
Rådet
aksept
formel
gifter
Mosjøen
profess
##oba
##aben
##olon
270
1798
dver
ryttere
indianere
observasjon
omdiskutert
forbrytelser
fortellingene
##mpet
##pser
cap
Iowa
##oppene
Offis
Serge
vegger
##søkonomi
Språket
fuglene
strøket
utstedt
##ssystemer
formelen
skadedyr
Sparebank
lojalitet
Eksempelvis
oldenborrer
##27
##flyg
Lek
acc
påt
1775
Oran
Rosa
Skal
Singh
bandy
murer
sabot
##visende
flyttes
tillate
forskerne
innvilget
kvaliteten
##66
##nar
Eck
Sug
##elens
##møtet
Lion
lord
##minner
dødsst
skjerm
Edwards
betjent
moralsk
Phillips
israelsk
krystall
meningen
eventuell
fenomener
legemiddel
palestinske
elvekraftverk
Say
##smask
Bath
Nike
Fjern
Kreta
Schwe
brått
høres
ørret
##ståelse
Grüner
destin
##amfunnet
respons
Napoléon
estimert
forklart
##alløytnant
Leicester
Gudbrandsdalen
##utta
anta
##stater
##utvalg
preke
Montre
giftige
Singelen
armenske
spillene
kvadratmeter
##ège
##kled
##pere
##zing
##skene
Dest
Vinje
##okrater
Miguel
Moritz
Kirkens
substant
September
##II
##ieri
Reb
USD
cub
##seres
##varme
Hind
Patt
Rjuk
Yale
##aneren
Craig
Heath
Meste
urban
##medisin
Second
redakt
##rekvensen
Salvador
bevaring
likevekt
utallige
Forholdet
ekspedisjoner
statssekretær
##jun
##ceae
##iuse
##udsj
søt
##acher
##ambia
##ikset
torg
Danny
Fjeld
Romas
akutt
##stegnet
Mozart
Planet
Platon
foruts
sårede
hvelvet
gulbrune
mystiske
innsamling
##gio
##irus
Gla
##wagen
pirat
##jellene
brytes
unions
##artikler
maritime
Gundersen
definerte
enestående
katastrofe
oppmuntret
edderkopper
overveiende
tekstforfatter
SN
Tone
roer
##ischer
Chart
Years
domst
##akademi
Stabæk
militæ
østlig
##oppgaver
støtten
lokalene
##spresident
Discovery
detaljerte
indianerne
illustrasjoner
##ík
##iao
##armer
##kkere
Viden
##slinjen
avbild
treffe
Spencer
beregne
seriene
stilles
innsatte
lensmann
returnere
Mesteparten
coverversjon
×
##klor
Sik
flu
YouT
Ocean
raste
topps
##blokker
massen
Halvdan
Mercedes
barndommen
##ixon
##ught
CDU
Kaz
Buss
Rout
stiv
bukta
##stiller
rullet
##klenburg
Schmidt
komiker
overleg
Richmond
##stendigheter
administrert
##ril
num
1802
Flem
Rank
pant
##farten
##skende
Pedro
Monaco
slange
Innsbru
legitim
Canadian
rettssak
##omus
##sråd
##kreps
Basil
utbet
##smidler
markant
##spilleren
forsinket
universitetene
Sett
##rettes
##ungene
Giuse
Total
death
##ralitet
Adrian
##stedelen
Canadas
hjemmel
misnøye
Nøtterøy
kartverk
magister
gjennomgang
styreformann
##hot
##ärn
McM
##assis
Sieg
cell
veit
##sekret
manip
Milton
Montré
Symfon
kinoer
minist
##tunnelen
##vandring
føttene
Grenland
forstørrede
landskapsvernom
Coc
Cov
##firma
Jenn
lodd
scor
Naval
Stato
bæres
melke
Castro
helset
overgi
school
Aircraft
Sjælland
maleriet
offensiv
Schleswig
eksperimen
filosofisk
NG
TVN
##blant
##eback
Ande
Auto
this
##berett
##skring
Hæren
kidna
nobel
##stredet
Agency
trange
omorgan
bibelske
halvbror
guddommelig
oppfølgeren
trådformede
##aper
##psyk
650
UiO
abd
##alidae
##øysund
Inner
Davies
aspekt
kaliber
trompet
Magasinet
Montgomer
##kat
##ueg
NI
São
ler
søkt
bonus
statt
##førende
Peters
skyter
material
førstnevnte
karakteriseres
##ikant
Blod
##eløper
Essex
amfib
plata
arméen
datoen
gjelde
juster
mindret
statist
Hannibal
Montréal
manifest
offentliggjorde
##lien
Raj
Sey
tet
##chten
Pete
Vekt
halen
Palmer
Europap
Svendsen
langsomt
normanniske
LA
##hets
Fat
Von
hov
Vale
olde
trene
##onering
Munthe
akkomp
plaget
fredelig
entrepren
##gran
##stue
Nad
Yam
Dean
Herm
akse
sans
Belle
Never
Nathan
forbruk
Kirkenes
Tidsskrift
distribuert
##uki
##mler
Sho
Bres
Fart
Allan
##forslag
Presse
rommer
senest
trykke
aspekter
melodien
##prosjekter
avrundede
domstolen
forhandle
forkastet
påstander
umiddelbar
##zt
cy
Maj
NBA
Pod
tun
##avisa
garan
Tacitus
bystyret
##organisert
lokomotiv
verdslige
lovgivning
kompliserte
##fargede
##ografer
Herfra
bispes
båtene
gyldig
teleskop
arbeidene
avstander
kollapset
kommentar
statsover
undervann
kommenterte
##fy
##cid
Gat
##klene
##osofi
Half
fing
Søren
myten
Rjukan
snudde
Montana
fratatt
symbolsk
Innsbruck
Württemberg
##cl
##tha
Fuj
##sevne
Pert
eien
##ricket
about
alger
salmer
Sogndal
aktuelt
Brooklyn
Columbus
Encyclop
karakteren
##29
##kko
##boys
Elev
##ageren
Myhre
brung
##sjøiske
etapper
kategor
##betennelse
kongehuset
##rij
CP
##flue
##heit
Hob
Expl
subt
##paniet
Polar
grand
sover
##skontor
Holmes
bombet
Knutsen
YouTube
forsøks
leddete
ordning
redskap
reperto
saksofon
forbruker
forsyning
fødselsår
overvintrer
##eri
Hul
##dekke
##sving
Glad
Berge
broer
innsk
lykke
##chichte
##flekker
##ationale
psykiat
folkelig
rederiet
Frelsesarme
Als
Era
Pam
##runde
Gate
Krak
bløt
druk
kaos
myke
trygt
seiler
Giuseppe
isolerte
melodier
##sforskning
trusselen
ekstraordin
edderkoppene
hjemmekamper
omstendigheter
Disk
René
##husene
oppgi
reson
uttrykke
fjernsyns
geistlige
potensielle
##pus
Jor
Lac
Snø
##elekt
slov
##motorer
##shaugen
Polens
Sønder
middag
skarpt
ekvator
ekteparet
offensiven
presteviet
Johannessen
medarbeider
presenterer
Metropolitan
rettferdighet
##yse
ST
##arag
##owns
##livan
Frid
svin
utru
##faktor
Sofia
Misjon
Terror
##anningen
Breivik
politid
Amazonas
hovedsete
undergruppe
##nok
Wed
slu
##iering
##øvelse
Angola
Kaiser
lovene
munker
seerne
krydder
Sverdrup
mistenkt
nasjonen
reduseres
walisiske
begravelse
forpliktet
veiledning
anledningen
tilstedeværelse
##etre
##okal
Nym
##almar
##uller
katt
pump
skilling
##gods
##rien
she
Amar
Agnes
Tomas
Uller
reakt
boksing
makedon
rundene
innløpet
opphøyde
tidevann
ytterkant
kunstgress
oversettes
tidsrommet
emer
Advan
Pompe
sankt
steng
Håvard
##delighet
forblir
krepsdyr
bestanden
soloalbum
Mesterligaen
##bie
##has
Hub
Maz
##feste
1760
Brah
##asjert
##ffield
##ladesh
Moses
dømme
læren
Hjemme
Interv
Rhodes
innløp
muskel
Christina
blomstret
varmekraftverk
##opl
##rio
Fan
NBC
Sty
##ivået
Benz
fjor
Manus
##agelsen
Herald
Samvel
Folkets
##ikasjonen
Sullivan
keltiske
kvinners
##vesystemet
Princeton
investering
finansiering
##spis
jon
##asert
Tork
##afjord
##båtene
##slalåm
Elean
Kines
Uganda
Wehrma
erkjen
##uropeisk
Mathias
Prøysen
seminar
symbolet
Holocaust
partikkel
ansvarlige
sykepleier
Independent
##ofte
Tog
Code
Glen
skred
##sparken
##rustning
bandene
varslet
vulkansk
Pittsburg
beskjeden
kalkstein
utforsket
##ebu
##irm
1797
Emer
bark
doble
Reform
Väster
anglik
showet
tilvær
flyvåpen
sekundær
kampanjen
dramatiker
EC
az
##prøv
NTB
Utre
kren
Arvid
Delhi
Nevada
lårene
overga
##iorkester
Nordmøre
designer
stranden
Andersson
Kambodsja
Routledge
innlandet
skinnende
kunnskaper
oberstløytnant
##sdo
Ig
WW
##dikt
##ossa
ink
Øyg
##shore
bart
Annie
Bilen
Ullev
skjem
tåler
Derfra
sjansen
likheter
nazistene
teknologien
##28
##iper
dug
##ubber
Arab
Oluf
Rico
plag
##jektiv
Apost
lufta
##ilsynet
Energy
fyller
utveks
##stendige
avduket
konfron
irakiske
råtnende
Philosoph
Federation
folketelling
##amar
##isto
Aal
Doc
agg
Oden
Watt
desto
førti
krutt
lagre
uklar
##ogaland
billig
operere
begreper
regnskap
forventes
##mu
##ylt
##atic
##lipt
Nymph
Trent
promo
streik
stress
Artikkel
kavaleri
Lancaster
forberedt
##kal
##uum
##laus
##vink
##ukten
Karm
##næring
brunt
muren
årige
Flying
##atninger
Simpson
gjødsel
skillet
langdist
Selskapets
regjeringer
sjetteplass
årsproduksjon
##ibus
Jot
##ender
##flate
##ovner
##rasia
Mona
tåke
##estern
Autom
stolt
##ariatet
Justis
##e
##r
##n
##t
##a
##s
##i
##o
##l
##d
##g
##k
##m
##v
##u
##f
##p
##b
##.
##h
##å
##,
##y
##ø
##j
##1
##0
##S
##"
##c
##9
##D
##2
##-
##A
##H
##B
##M
##I
##T
##(
##)
##F
##N
##8
##C
##P
##E
##æ
##K
##L
##5
##R
##3
##7
##6
##4
##G
##V
##O
##w
##J
##«
##»
##U
##:
##W
##z
##x
##–
##/
##é
##'
##Y
##;
##Ø
##Z
##q
##ö
##Å
##X
##ü
##ä
##%
##Q
##&
##á
##ó
##_
##=
##’
##í
##?
##è
##!
##]
##[
##”
##°
##+
##ç
##§
##É
##ð
##Æ
##$
##ß
##Ö
##à
##ā
##ú
##—
##š
##ë
##ô
##α
##ł
##>
##ñ
##ć
##ο
##*
##ō
###
##<
##â
##ν
##ς
##ã
##ρ
##а
##“
##|
##ι
##‘
##μ
##о
##λ
##и
##ī
##č
##ε
##ū
##Á
##`
##τ
##ê
##ń
##е
##£
##р
##×
##н
##−
##ș
##ا
##σ
##ò
##π
##ï
##κ
##́
##ē
##в
##ž
##η
##î
##ί
##с
##ı
##л
##к
##ý
##ă
##θ
##Š
##δ
##⁄
##ω
##Ó
##ì
##ά
##т
##ş
##ل
##Ä
##υ
##φ
##ό
##γ
##•
##ر
##ś
##Č
##õ
##þ
##û
##م
##„
##Ü
##ù
##Î
##ي
##Þ
##д
##ě
##β
##ن
##έ
##Δ
##ǎ
##ę
##ğ
##·
##→
##Ł
##ř
##و
##đ
##د
##~
##ύ
##у
##ب
##м
##χ
##й
##י
##г
##œ
##Í
##ή
##′
##Π
##ч
##^
##ț
##ь
##Ç
##±
##Đ
##я
##ə
##س
##Κ
##ė
##Ś
##ו
##ą
##\
##ǫ
##ź
##С
##ˈ
##İ
##†
##@
##€
##Σ
##ż
##Ž
##ǐ
##ḥ
##Φ
##ŏ
##ा
##县
##Α
##ǔ
##Ἀ
##ל
##К
##ы
##Μ
##б
##п
##}
