[PAD]
[unused0]
[unused1]
[unused2]
[unused3]
[unused4]
[unused5]
[unused6]
[unused7]
[unused8]
[unused9]
[unused10]
[unused11]
[unused12]
[unused13]
[unused14]
[unused15]
[unused16]
[unused17]
[unused18]
[unused19]
[unused20]
[unused21]
[unused22]
[unused23]
[unused24]
[unused25]
[unused26]
[unused27]
[unused28]
[unused29]
[unused30]
[unused31]
[unused32]
[unused33]
[unused34]
[unused35]
[unused36]
[unused37]
[unused38]
[unused39]
[unused40]
[unused41]
[unused42]
[unused43]
[unused44]
[unused45]
[unused46]
[unused47]
[unused48]
[unused49]
[unused50]
[unused51]
[unused52]
[unused53]
[unused54]
[unused55]
[unused56]
[unused57]
[unused58]
[unused59]
[unused60]
[unused61]
[unused62]
[unused63]
[unused64]
[unused65]
[unused66]
[unused67]
[unused68]
[unused69]
[unused70]
[unused71]
[unused72]
[unused73]
[unused74]
[unused75]
[unused76]
[unused77]
[unused78]
[unused79]
[unused80]
[unused81]
[unused82]
[unused83]
[unused84]
[unused85]
[unused86]
[unused87]
[unused88]
[unused89]
[unused90]
[unused91]
[unused92]
[unused93]
[unused94]
[unused95]
[unused96]
[unused97]
[unused98]
[unused99]
[UNK]
[CLS]
[SEP]
[MASK]
##de
de
a
e
o
,
##ra
p
c
##nt
.
##re
##do
s
##ri
##or
##as
##os
co
##er
##ma
##ta
##is
##es
##in
##da
##ão
f
##me
##qu
##ro
"
##ic
##al
t
##an
u
##ar
en
A
se
em
qu
com
##ci
##on
C
##en
m
##nte
E
1
##to
S
##di
##te
##ção
que
##le
##ti
re
-
es
P
n
##la
os
M
por
v
##ara
2
##li
##ado
##res
##ou
as
##tu
um
B
##lo
##un
O
##em
ma
)
(
uma
fo
##ha
para
##ia
b
g
D
T
R
##ol
F
su
##ve
é
con
##il
##ica
in
##us
##nto
##va
20
##ce
##dade
19
i
L
##pe
##gu
##ria
G
foi
##ca
##mente
##ho
##he
pro
##ul
##co
d
I
##am
##io
##si
J
##ran
N
##po
di
j
como
l
##dos
##ões
##mb
des
##vi
##nci
##ira
##mo
##so
ou
H
po
##ent
an
ex
##das
##iro
##el
me
##pa
:
##ni
##go
##ist
##ram
ca
##ru
##ando
##se
V
##ir
##ém
##mento
pri
U
no
##ras
ta
##rio
Es
ent
##it
##ver
##ico
##ções
##ga
al
h
sua
201
ap
##ntes
Em
par
mais
##na
200
so
##mp
##sa
##du
##za
/
##st
##ça
at
##ita
est
cont
##ina
##cu
pa
per
##ali
seu
Co
for
##vo
##no
##ito
##ros
esta
##ncia
##fe
##ici
ser
não
En
##at
##gi
tem
##ista
W
ter
to
##be
##ndo
Re
##tos
ele
Ma
##cion
##ment
##que
ar
##lu
##ral
á
3
##ces
##ne
prime
mo
K
fa
do
##idade
te
##ur
si
##ados
tra
tamb
comp
##ch
também
li
##ais
##ência
##ter
##um
entre
du
Se
##gun
##ix
De
##ing
dis
mu
lo
##ge
##gra
fil
##ber
pos
##pu
##ês
out
Pa
vi
##vel
##ano
res
##man
##almente
##tura
##bre
Al
18
##mi
##nta
##cor
##ez
são
##qui
pode
##tado
mas
Uni
##nter
le
##bo
##ens
##gos
##bl
4
##ric
##gem
##rado
##ino
mes
jo
##icos
##pos
##ona
5
##rá
##tor
pre
##ana
anos
ob
esc
;
##ili
##tas
##ári
na
##icas
##orte
199
##nde
##pres
##je
##mas
##nti
##bro
of
pe
Sa
##ba
##les
##endo
Ca
As
era
##ós
##ário
##ço
Por
##inha
##cia
##min
Con
cas
0
##for
##são
car
##rande
Ro
forma
Os
##ris
##ja
au
##tes
##rada
sobre
##ís
ha
cidade
pres
##dia
##bal
##tar
foram
##rie
tor
mar
##ane
##aram
##ição
da
##titu
##lia
##ass
fe
segu
##tica
##fica
##ração
##cional
In
Jo
##cio
##vol
##tiva
fun
ro
##tal
pr
##dio
la
sé
cor
##iste
até
seus
##im
##rante
##su
##lação
##ida
##ende
Mar
ab
onde
6
ho
Ch
##heci
##anç
##ine
##ase
esp
Le
Fo
'
##ador
##rg
pes
imp
mun
ba
##ck
ver
##tiv
cri
cam
##tra
##enta
nome
produ
##pois
Su
##ero
198
##con
loc
##anto
vez
##ân
##las
ne
tempo
##indo
lu
7
ra
k
##inal
##stitu
ano
##tó
##mentos
The
inter
##enas
dia
##ide
primeira
8
sa
grande
Na
##vis
São
contra
10
Esta
Mo
##rea
primeiro
##ários
dire
##aliza
ú
No
##dades
espe
Ar
can
ge
##erra
##via
inc
##et
##ús
##gar
quando
trabal
9
parte
parti
Bras
inte
An
segun
sendo
gra
Gu
##ória
cha
##ín
sub
##inda
##iros
##rica
##ima
ban
##tou
##hos
##ceu
##rior
tran
Q
ti
ju
está
##iu
##rin
conheci
##gua
##stru
##fere
##des
##rasi
##embro
197
faz
Com
princi
##és
##pon
##rou
mesmo
ad
come
dois
##rasile
X
##bu
##itos
##om
Brasil
##tion
##cer
Ba
##cial
regi
##por
rece
##cont
##meric
##tivo
##rem
##ido
##ôn
part
##ente
pol
suas
##gia
go
Car
atu
ori
##cre
Qu
##los
##est
##anh
Ele
popu
##ala
##ig
vo
##per
##lb
fam
##rar
durante
depois
##der
##ntos
##este
##óp
maio
##uro
##aliz
qual
##mos
Pe
km
##fic
Y
trans
che
gru
ass
##ior
##ves
##cul
##aneiro
álb
Fran
##cesso
Di
##rito
##istas
Cam
##ard
La
Po
cer
##and
##ril
Foi
##th
15
Lu
outros
##úbl
196
##ib
##gre
17
encont
torn
va
Ap
##ju
vol
##ani
desen
%
hist
So
##rde
pass
Te
É
cons
equi
chama
##tá
edi
##ada
mús
ela
ainda
##versi
##ismo
##tro
pu
##side
##rês
após
##íp
apres
Bo
hab
##vam
Ne
##val
##ança
##ível
##ena
##sos
##dado
##vido
##cie
álbum
Me
##tico
##has
país
##son
mil
##tt
já
Z
Li
inclu
gover
muito
##ad
lanç
##ulo
16
pesso
##ças
maior
apenas
ven
fu
##ício
três
##cos
##pal
##plo
Ja
##pre
##rias
##ília
def
12
Rio
##car
##mbro
–
##ten
##ton
##ér
##cis
##culo
gu
##fa
ve
nov
Pro
is
americ
filme
tinha
polí
the
segui
prof
Ge
##ncias
Par
##ze
##bol
partici
dist
brasile
##atro
##cas
##lti
##sim
##orta
##tili
##êm
Para
##ula
w
final
sido
##ren
vis
constru
Du
##gues
To
fre
atra
##ene
##ação
##forma
##men
##ust
duas
Mun
Paulo
então
ir
##ale
Ra
men
Lo
ci
estu
cap
grupo
##adores
11
conside
##grama
repres
população
estado
Fa
dez
rela
##hi
liv
##íst
mel
195
af
##00
anti
##reira
este
##ven
sem
ac
##ntu
org
Ale
auto
##gens
desenvol
Be
série
us
segundo
##segu
estre
##ias
conf
uni
##riz
área
Cas
##dic
##mina
##tebol
##sas
##hor
##zação
##úm
##ás
publ
##lha
##ítu
utili
região
##veis
##rí
##esta
mé
ins
##inu
##pare
##guns
Universi
##gal
##ên
##entes
##inas
cu
Ho
14
194
Fe
cent
começ
comun
Ex
espé
##mes
banda
fic
##ribu
Go
##árias
base
##lica
##onal
sete
##ital
últi
empres
mor
nova
todos
##ulho
##vimento
##visão
13
##itas
##corre
habita
Estados
siste
pas
algu
teve
desta
##cada
##quanto
possu
bo
desde
##rit
família
inf
Portu
##ências
##pan
pi
##bili
tendo
##logia
Da
esti
##vés
pl
##gue
##dida
difere
partir
193
##mar
Unidos
##lio
##tório
##ess
Bar
tro
bem
##ts
Jos
##rios
##mpe
lon
acor
música
##dor
conce
história
##ária
and
##ios
##orn
outras
Vi
cul
##ble
##ke
##tros
##tubro
##onato
##ill
próp
Ta
proje
núm
##unho
norte
2006
jog
##óg
##ular
compos
cada
##quis
##anos
vida
títu
##one
##gas
##ry
##id
Bu
_
Á
antes
”
##alidade
apro
assim
##quer
diver
##ntro
portu
##inho
##cado
“
##icíp
dé
2010
man
##her
casa
Des
pla
pou
##icial
Ga
##reiro
sob
Am
##ério
##gosto
##tação
##idente
##peonato
pra
mul
##ío
##rial
estava
##ical
ide
##ern
Ju
##ável
Ant
art
ind
acordo
alguns
##dido
cria
jogo
públ
##ixa
Segun
##poca
##tivos
servi
##pera
julho
aca
##par
##oso
havia
##mou
2011
através
orig
nas
pessoas
##tido
##lube
##pen
eles
]
II
conhecido
##tada
municíp
comple
##tre
fez
##ice
2012
amb
Sul
geral
programa
##alizada
##cha
época
ale
##jo
século
##gen
fin
[
##vas
##rando
##duz
##ços
mundo
##ór
além
##cess
vezes
eram
il
##ído
##veu
consegu
Man
##vado
produz
importa
Universidade
2013
##tados
##cola
cerca
tornou
##ini
lança
Um
##ph
##dou
enquanto
##ância
número
colo
##eno
Is
quatro
##lado
novo
seguinte
aco
##cri
##rais
##dial
sistema
Janeiro
##fer
192
##ví
clas
realiz
vários
Euro
lançado
##osa
##iras
##tamente
perío
2008
##dar
lugar
##mã
americano
apare
temporada
##ers
cur
pers
##ições
##mula
mus
##den
conta
##fre
governo
##cido
##fia
##ie
resul
##gres
fran
##ttp
Ou
recebe
Inter
Tra
janeiro
Cor
##wa
dispu
ún
At
##vem
##greja
sol
##peti
Ha
apresent
##ntre
##rico
ante
##vereiro
2009
habitantes
Após
outubro
trabalho
Col
##gni
191
Do
##tores
pequ
exem
##dro
##che
principal
início
ch
##issão
apo
organi
dezembro
##ly
##lar
só
fal
##vil
##mão
25
podem
##ticas
ce
especi
setembro
ru
##cide
##cur
título
##gou
representa
Nova
filho
30
##cou
2014
##ques
&
março
fi
##ón
##ite
agosto
2007
##vista
##gado
José
##gn
cin
Portugal
caus
##cimento
col
período
der
##xima
tri
abril
##iss
##riam
##tivi
quais
2000
##hões
ali
##cn
##ixo
João
junho
##fo
canção
novembro
##tivas
estão
##vos
escol
obje
mos
##xo
##rados
água
espécie
##dios
continu
passa
trabalh
Cent
##uma
prop
##ka
##hn
##ang
2016
equipe
##iz
começou
##ticos
2015
tele
##cla
##ntemente
##tan
há
##xi
local
Maria
##ono
##esar
devido
##issi
##elho
município
deix
##para
Estado
on
passou
cara
lado
ag
presidente
##icia
##pec
##ré
escri
volta
Nacional
Ver
##amb
##ída
##ins
eve
##tural
##rido
segunda
00
sul
situ
##lus
##pel
morte
Fu
##ornal
##lares
##our
isso
persona
brasileiro
He
ata
ep
Ab
Uma
For
várias
terce
21
carreira
##minist
via
Cons
outro
http
24
Mus
nor
mili
apresenta
tarde
futebol
home
##gação
reg
##ted
##bora
entanto
fim
##má
Au
Grande
tu
Ru
todo
##íci
##ty
ocorre
fevereiro
##pi
##pes
competi
meio
##inist
utiliz
capa
contro
funda
recon
##tando
##érica
##tali
##erva
cole
tur
22
inici
##bri
cl
participa
##bele
##pais
melhor
##ses
##dição
##dência
lhe
espa
ganh
Mas
##mon
Campeonato
rei
##pas
##ron
##ológ
lev
ten
diz
produção
Guerra
pai
##ff
##ds
##écn
algumas
##berto
Santa
muitos
##rida
##ficação
sal
##ki
impe
##au
Este
edição
exemplo
tre
##ntas
sucesso
##gl
Pres
Mi
pró
indi
##tante
década
##nacional
##ich
Segundo
bas
##rb
23
Ela
##ía
Entre
orde
desco
##esa
John
empresa
##rador
##lho
2005
##ell
Fre
##cho
respon
##terior
incluindo
versão
chamado
signi
##panha
fazer
clube
Pri
aju
total
##ws
Cha
##deira
dias
Sal
classi
dest
diri
econ
##dica
##volu
##bilidade
val
z
deve
##unci
—
##lí
##guês
Como
carac
Sua
2017
Ci
encontra
todas
recebeu
sing
Durante
public
##íde
##mada
grandes
##cação
possui
El
arqui
Per
campe
##cidade
##socia
##gada
28
pare
estabele
##ença
##pende
##zada
##heiro
el
livro
Wil
##ley
2004
menos
##érci
##ridade
mode
##esse
##osta
##emin
pois
##mbo
seja
milhões
sur
##dri
seria
##ys
##cionais
Depois
expe
ri
cinco
mate
quar
##enso
##ública
terri
Pi
##mica
Mu
##té
##all
##ciais
ww
##ko
##ance
exp
existe
be
##mane
www
nacional
mesma
principais
perten
mã
Fede
escre
obra
##ise
administ
cober
Além
sen
##ág
memb
##cto
fro
26
##tri
##dici
000
##pou
inde
27
##tr
crí
Comp
##lan
Sil
##tivamente
influ
##ong
##dan
jogos
muitas
epis
##rança
Seu
América
Lis
posição
Nor
##sia
histó
conju
derro
##gh
##ligi
##mal
gol
anima
afir
longo
##cente
##ecu
Sta
maioria
ami
formula
##ense
Quando
qualquer
##turas
interpre
##tamento
efe
Copa
caso
permi
constitu
##ons
países
rec
100
##mia
##II
proble
##tic
##wn
ja
Mé
Brasile
técn
pop
terra
##ham
hoje
##mana
substitu
##ciona
Mundial
Hu
promo
conte
##igh
##radas
desi
190
guerra
##mando
##ército
lín
capital
##tanto
Sen
##isti
uso
int
##grá
##damente
##ritân
ocu
=
conhecida
##diu
##fico
jornal
##mpre
##eros
ficou
tipo
pouco
permane
##inos
Mic
usa
ga
projeto
poss
termin
processo
##rus
##vers
Fil
cres
Francis
super
##ork
quad
papel
bar
disso
##bi
rio
publica
2018
França
##erro
Carlos
princip
##gio
##pública
Ri
estru
poder
##land
profissi
membros
##od
corre
ace
##sem
Norte
Pla
And
episó
alc
##vesti
diferentes
##lic
lin
##var
relação
ó
##tego
##bel
construção
Cu
##tera
sempre
Or
or
##itar
público
ado
oficial
29
##isto
desenvolvimento
Pal
##íveis
##eles
San
comer
et
toda
envol
prote
he
informa
melho
##vida
aproxima
##límp
Pol
##quista
##ger
av
Igreja
##culos
corpo
##boa
##lores
##ya
TV
##quia
2003
##mado
linha
retor
mer
##vio
##pé
##ônia
cient
português
##inema
##alização
##inado
##tora
Tamb
religi
New
Ste
morre
##lub
pal
acab
##zo
189
aconte
single
obras
##ft
Porto
ativi
mon
primeiros
execu
Gra
##guesa
eleito
rá
Bra
principalmente
ima
##dual
junto
2001
Ban
centro
##cí
Lisboa
Também
##cal
importante
2002
desa
Institu
##unda
##êmio
quase
supe
pontos
arti
outra
dentro
##sidade
##mens
porém
##vada
##ames
fora
localizada
##ll
quem
origem
deter
##rão
##ística
##isa
?
##rist
##alizado
proví
obs
embora
política
Lon
má
##cais
integra
##gon
##rista
sede
fra
último
nível
cir
território
##menta
têm
##reas
Hist
tal
República
significa
##bra
##ônio
Sou
idade
##fi
vit
##nos
interes
##istência
pesquis
##ôni
##xa
cant
##pla
##ual
anunci
simp
##iram
cal
##ld
##giu
Ser
Tem
##glês
metros
prova
proprie
##bert
Ka
Jogos
Je
##tras
##grafia
##ruz
##veram
##velmente
Ti
dados
##ardo
Pre
##essor
atual
esse
##bur
canto
##onais
Europa
catego
Ber
ref
irmã
Can
##ál
##cra
##cida
##leção
sho
##ok
Reino
##nia
Futebol
##íti
##inais
Roma
##eu
Val
Dire
Pra
deno
##mit
filha
31
próprio
institu
##vid
##tualmente
Hen
anterior
disco
##orge
##tel
##mor
prefe
##cem
bair
##ficado
fica
Har
ponto
chamada
##log
Pedro
Paul
Americ
essa
!
##ensão
##vela
fase
itali
Gre
experi
op
##pira
Pos
##deu
fos
Francisco
seguintes
##und
##tin
##rina
seis
##quele
regist
tanto
##gido
##xto
188
##talha
deu
##enh
Sh
Dis
cobertos
Imp
investi
den
50
original
lançamento
povo
televisão
##rim
diversos
##manos
pala
##dy
##riores
##dução
##ler
jogador
pad
deste
Tu
teo
verdade
##tário
##cies
Bro
escola
Ed
brasileira
amp
Sé
luta
##alidades
##ns
Tor
inglês
##vação
Fern
personagem
##ética
diversas
##porte
##ximo
##ciedade
insta
Tri
fundado
##ferência
novamente
exib
mãe
##âne
##mara
cé
##ward
ens
conquista
##ura
##áveis
We
Mor
chegou
gên
filhos
##cesa
conjunto
britân
##teriormente
moder
##fici
social
Fi
##ans
popula
ilha
##manha
##lusi
##ick
logo
sus
Si
Mel
##cês
membro
distribu
XV
##cle
Mat
grupos
represent
lei
Alex
her
Eu
especial
distrito
govern
censo
##bar
Ve
feito
exce
cli
tent
Ter
divi
##icipal
Ad
único
cos
lista
Char
Ama
##zes
##ácio
##posição
pen
plane
##vin
##ental
Apesar
##cima
Pr
##ture
decla
pré
##ntal
campo
lide
Ce
Th
##melha
considerado
Alemanha
Não
estilo
##uel
##dita
terceiro
maiores
província
femin
comb
cultura
Cens
irmão
##quência
##ntar
revista
##cendo
geralmente
palav
Pat
desem
estú
movimento
militar
lí
##ntamente
leva
##lada
meses
##gan
Regi
Bel
##gora
empre
##ânia
deci
língua
forte
real
docu
disse
1999
precis
edu
##hão
##reau
##dições
campeão
filmes
ganhou
##clu
competição
Edu
criação
##zar
simples
##dir
caracter
##ntidade
2019
Census
senti
Af
aber
##ínio
porque
hi
Oli
presente
br
##mun
tenta
qua
##ue
##ender
neg
ambi
resta
político
bran
##olu
meta
##tia
1990
fato
arte
termo
escrito
##áss
##heres
instru
##ultura
##lin
usado
defin
causa
áreas
er
##riu
respons
Ros
possível
##ps
187
##curso
Aca
##ãos
cientí
cidades
cargo
Federal
40
##oni
##posta
##ney
##vor
nenh
última
ofere
Bureau
estavam
1998
alcanç
##gis
bi
##ntou
espaço
espécies
atualmente
Cal
Res
##unca
estrutura
Instituto
assum
expres
gre
média
Paris
##ner
musical
huma
##anas
##estão
direito
bus
##dão
antiga
##zi
##by
##til
inicia
##zado
You
##pro
homens
arma
diretor
Sch
##mentar
##sões
participação
##tual
Mc
Her
Glo
##anças
##tival
víde
##una
##vendo
##rás
##ét
única
Wor
cinema
##ísticas
tradici
conseguiu
##don
##estival
formação
Ing
momento
dom
reun
Internacional
##vou
##dá
##isso
Pu
Gar
186
candida
força
professor
##dores
Hol
##âmara
Vo
criado
data
sim
visita
##manda
##ulas
time
##gna
própria
quanto
$
##nas
eli
cola
##ânt
Wal
##cção
##mental
mostra
Ben
homem
##anhia
##gando
bairro
flores
Centro
antigo
decis
##emo
União
aproximadamente
regu
Lei
ajuda
##gram
##usto
Cap
##úst
##guas
comunidade
evento
gene
espos
rede
Santo
origin
modo
nasceu
ope
euro
##mita
##enci
Lou
York
##áb
##jas
##int
marca
##bate
##itor
Est
partic
US
##lhas
minist
meda
frente
Mon
##cando
1996
##ventu
Ang
Itá
Super
prin
arquite
##fíci
nunca
modelo
desc
nu
dispon
Terra
##han
profissional
##cê
ama
reconheci
mulher
eu
popular
Prime
##terna
comum
##icais
##anha
vitória
separa
estúdio
evi
##sociação
ordem
##dico
Assim
1997
participou
Edi
##dres
mulheres
Espanha
##verno
##ixas
ener
Partido
Olímp
fís
aplica
##har
Casa
problemas
Mais
igreja
serviço
Ara
##mico
IS
##ossa
agora
Willi
função
disputa
vice
Recor
1980
##omia
dele
##mer
opera
Itália
##range
mudan
##volução
Silva
##tional
Minist
##úde
##pão
##cy
nomeado
interna
##rir
resultado
Atualmente
XI
cantora
Cla
##icamente
locais
apoio
rap
procu
##esso
mane
##risto
div
necess
##tida
francês
parce
ext
acesso
episódio
homena
##usti
##ion
##mais
conse
hu
lançou
##hou
fregues
direção
redor
importantes
##tur
##ct
##fício
Í
##ônica
forças
##van
estudos
##mpa
inau
##fí
Wa
##essa
Che
alta
neces
apesar
##mance
novos
inaugu
##telo
esposa
##we
##nça
##ficos
Condado
indica
##dap
estuda
ouro
depu
figu
qui
Cana
exército
prá
Desde
conhe
cabe
destru
acabou
categoria
transforma
músicas
##tadores
jovem
##ást
##uns
reti
manda
##terra
fronte
1995
localizado
vence
possi
##ple
Ph
##ispo
sex
Sam
ambos
##iden
Mal
1994
inten
##nou
##cadas
vai
somente
Bill
envi
lar
receb
William
acima
Londres
Deus
Império
##ações
##enos
cic
descri
##neio
##rações
185
##deste
Japão
mercado
gênero
exer
##tem
acomp
##my
##ity
##net
altitu
varia
##gados
teria
contribu
divisão
demo
##cados
##didas
x
cla
pp
##didos
Ir
intro
valor
interior
controle
##metros
realizado
enfre
##col
##cno
1970
americana
Eles
ocor
morreu
Santos
Ke
Arg
##vens
Escola
Mundo
##laterra
##cus
United
Inglaterra
tais
seguida
inti
ocorreu
Bas
##rinha
1992
infe
melhores
Unido
forne
##arda
##idos
escreveu
altura
##enda
autor
igu
Está
serviços
campeonato
objetivo
ren
personagens
portuguesa
din
liber
Real
Gru
novas
independe
estreia
del
atribu
Cat
##mática
##tima
##ES
sofre
##lidade
##gente
tinham
Segunda
fazendo
posteriormente
natural
##ricos
refere
equipes
europe
World
aba
organização
##let
pág
##icialmente
faixa
##lor
será
torna
##chi
##mea
##ár
##ire
vídeo
flu
##ky
refe
##ks
##manas
Jes
##ish
##dun
##iam
III
##rique
##minado
levou
terceira
alemã
##ândia
##radores
capacidade
Ana
##ricas
identi
responsável
##tam
atividades
Vila
##riais
##ético
juntamente
apa
Fer
##rilha
acre
dou
David
ade
tenha
##ight
##ãs
descre
regiões
XX
tão
aten
##inhos
presença
##ung
##ístico
Mil
site
estar
mascul
##elas
gravado
estação
##teiro
internacional
Nas
##osp
pessoa
##eta
##xico
especialmente
energia
##ker
##tares
##cel
##osos
##ries
adap
##tórios
alemão
##dra
##dados
superior
##bun
60
Embo
trabalhos
##ardi
explo
##én
canal
fede
##respon
recor
Que
equipa
semana
1991
##ará
##gresso
secre
##reia
Luís
##III
Câmara
sin
japon
Sant
Geral
Embora
most
##riga
##ídos
##ião
Clube
canções
##cula
livros
Cali
##cursos
35
80
fosse
normal
próximo
##todo
##zer
funcion
sí
algo
##ling
##pção
Ori
criada
mí
abando
Dou
ator
partes
Já
Vol
##wo
Era
’
solo
oito
Geo
conver
##íb
san
primeiras
183
dirigido
peri
Europe
##20
aqu
recu
y
assass
partida
design
campanha
##tão
compu
eventos
gara
##inação
##tus
Acade
empresas
feita
##yn
tes
realizada
##ring
remo
##lubes
oeste
liga
##quentemente
##vador
bastante
##alo
ocupa
##ones
184
Aust
atriz
deixou
China
sat
minu
Conselho
Monte
Ín
##anda
Bla
econô
+
##hora
perto
War
elementos
1993
Sha
livre
central
##ouve
##tadas
Los
##tir
##ceram
governador
Cl
##ford
Dom
##quela
Flo
particular
ocas
##endeu
urb
##atos
##tador
##ges
##ícia
mont
##rimento
##jam
publicado
##bas
##eira
##gramas
suce
##lias
##mentação
histo
correspon
##quistou
##icion
cláss
##mba
sociedade
serem
alto
lançada
tornando
fale
Liv
Minas
Ko
contrato
nem
ferro
noite
universi
##UA
##tim
##ort
##duniden
pequena
Cruz
Orde
Tur
tudo
dar
Vic
casamento
Mos
densidade
show
ensino
desse
Aug
adqui
##iblio
##ónio
mant
comando
gen
mudou
##ússia
##cíp
##pó
Costa
Bri
##ntino
artistas
##frica
entrou
espanh
mundial
confir
denomina
##gin
conclu
estaduniden
not
##ud
afirma
votos
##cios
voltou
##amente
1989
James
##ncipe
##rativa
África
Olímpicos
##rans
elas
##forme
1988
estreou
##cidos
quarto
crist
menor
##ticamente
1986
rock
##sen
ação
##rol
##sion
venceu
Bran
rea
##riamente
jogadores
tempera
poderia
Tom
Chi
guitar
Bat
começa
vila
maneira
##deia
Mer
Pen
##culdade
##veira
##ny
engen
localidades
un
raio
desempen
##siva
bate
Inte
deles
##ast
##pical
teoria
1960
##teve
respec
##tm
Brasileiro
##gência
estudo
Bre
rus
Liga
Festival
localiza
##hado
##gress
utilizado
crianças
##pol
emisso
Brasileira
##jos
Municipal
##ed
turn
pertencente
escrita
##cidente
Pan
semelha
Jesus
freguesia
Men
horas
mani
##fé
##icação
##ord
Sete
artista
zona
Mes
perce
Sol
usu
Er
##pado
Tim
##mbra
Gene
respe
##logi
aumento
conquistou
direitos
##poli
##nes
Comun
casos
70
vivo
##hes
##cessos
Rede
Dia
##ares
sele
##missão
terminou
Gal
##xe
##cidental
partido
intitu
##bos
México
##vie
tornar
##bus
##berg
##adas
##BN
neste
dig
Há
influência
dessa
dese
rou
##hael
chefe
##taram
EUA
expan
##él
Ainda
##iciais
iniciou
##can
anunciou
bio
aus
Fernando
nomes
prepara
##partamento
##oro
##usão
##entina
Antônio
Cont
##logo
##rama
##NA
Jack
indic
##ficar
32
líder
##enco
tema
CD
Enquanto
batalha
##lida
##risti
resi
leste
##creto
Tro
36
mês
##BC
##amo
quantidade
mis
Pas
sexo
##lamento
##vídu
##gisla
Bal
Museu
Ac
amor
##teca
##tle
características
Jú
##tina
##mó
Manuel
programas
animais
States
Grupo
Gon
Globo
imperador
pilo
##ington
##ães
Sho
científica
##pl
velo
reno
torneio
pequeno
baixo
classe
##ics
##ku
##ex
##rismo
raz
##yo
Music
Atl
nesta
estes
Alguns
##ores
reduz
##art
Ordem
produtos
indivídu
lá
Rock
Fin
##leza
condições
Va
ataque
90
prefeito
Jorge
Miss
ating
trein
fala
acus
História
Tho
##eld
luz
Porém
##media
material
natura
refor
abs
##ony
##tions
##nder
##port
Isa
eleições
Mart
divul
pesquisa
realiza
fronteira
cantor
demon
baseado
assu
conven
##nidade
My
##pp
Stu
trabalhar
Cidade
Mara
sistemas
fab
Alexand
elenco
Seleção
indúst
1985
inspira
##rava
##ash
estadunidense
pintu
inse
##AS
sobrevi
##guel
situação
termos
blo
Cou
confli
##mano
##ville
Met
caracte
##ith
##cnologia
Ita
geo
Associação
fundada
considerada
combate
Ali
transfe
composta
massa
cita
vista
Robert
feminino
comanda
atua
curso
##blic
##gráfica
Michael
mal
##50
decisão
Cata
##imi
##ntado
Bur
futu
estimada
##itou
1987
terras
ISBN
##cular
##xim
Sim
##AR
##ércio
Essa
minutos
inclui
All
Abril
entrada
cóp
glo
obser
##ER
vir
semi
Exército
Star
##ídas
##bor
amea
deputado
Award
busca
impres
##clusi
homenagem
clubes
Ni
demonst
relacion
libe
Lin
esquer
Bor
Academia
##centes
quil
Bi
Rich
##ustiça
transmi
limita
Sp
sono
##cionamento
dá
trabalhou
##ódi
##ficas
espor
Presidente
criar
Gol
algum
concent
##itão
litera
##raram
##ory
##ológico
htm
##ot
dedic
últimos
princíp
##ânica
turnê
##lhos
deri
Constitu
##porto
##dem
##heiros
500
diagrama
equ
cele
##bs
falta
alun
produzido
XIX
Bah
extra
Prêmio
##illa
##tis
Estu
##ficada
Senhora
viol
escu
##idas
##éli
Mari
##line
extre
##ng
St
Rodri
esca
Hel
tropas
##zadas
##pendência
inicialmente
##dge
saúde
conde
##tureza
movi
Peter
##íg
##mber
Faz
##ospital
vari
33
teatro
incluem
##xas
##cil
ideia
imagem
dado
##inou
hid
volu
edifício
originalmente
tipos
182
Maio
##cro
convi
1982
interesse
ín
##osas
Ribe
estra
ps
##usa
#
criou
exa
militares
Dist
Dani
asso
usada
obteve
##hel
cuja
boa
armas
1984
##ctor
foto
##dimento
Novo
pública
plano
sociais
defini
medalha
##die
Pl
##onas
##ficiente
##tividade
mol
prática
##tiu
rest
Tal
estadual
tiveram
ministro
##ae
nave
Ass
descobri
segurança
##idamente
referência
provavelmente
bor
Secre
##FA
qualidade
##deo
caval
acredita
etc
formas
Social
escritor
recursos
##dam
Tre
taman
Cri
Calif
palavra
Gerais
atin
sentido
Rei
##rita
visto
abor
Assem
finance
aparece
isto
Vir
cru
suge
Melhor
##pela
##ingu
decidiu
Central
cujo
aer
usando
##ôs
tempos
apre
dific
rele
rádio
ing
oficialmente
prêmio
compara
Ven
son
##pula
##tagon
autoridade
funções
Nossa
Rus
University
##rel
resol
##gro
Miguel
hon
##leta
indivi
atividade
Tele
educação
comuna
Mont
Canadá
abaixo
favor
introduz
atrás
torno
Região
##board
padrão
longa
Lat
pais
##adora
##eses
masculino
##plos
George
informações
caminho
##rinho
Impe
propriedade
1983
Club
missão
descon
metade
##unha
mi
##mann
estados
construído
baixa
afe
Primeira
##cli
vem
Rússia
##ortância
títulos
gradu
altitude
veio
##ênio
Filho
1950
az
teste
mic
los
Del
especí
##cl
Funda
Esp
Wo
##égio
seleção
Fun
Austrá
populacional
existem
##riedade
Isso
infa
##10
Gil
Dez
1979
manter
importância
reco
##ut
Dra
##ológica
nenhum
gols
##idades
##tude
##ware
designa
multi
##dura
Outubro
Argentina
##onso
Anton
crescimento
retra
espanhol
acer
depende
##tória
contrá
Bol
##rés
Austrália
##vidos
hor
emissora
On
composto
unidades
##quim
Fili
45
##ridos
Ministério
##king
traz
Jer
economia
determina
##rena
destaque
##ridas
Direito
##usta
Van
##verso
##lie
faixas
Ior
tradicional
protagon
irmãos
Esse
apos
continuou
##bunal
natureza
perde
anál
posi
unidade
Trans
##iana
##zz
##vados
##TV
Amb
Henrique
usar
Art
condado
Records
compre
##ática
cabeça
consiste
esteve
amigo
##ilar
##órnia
exclusi
inimi
##tua
relações
existi
crítica
»
jovens
##ban
eletr
34
possuem
##udo
houve
##ervação
##rest
arre
casou
encontrar
##graph
##iva
episódios
dificul
contém
##bras
linhas
Califórnia
##ntor
ambiente
avi
##deiro
portanto
cre
bil
Nov
comercial
1974
ves
problema
##ílio
gas
##ous
Iorque
Mili
180
romance
Antes
##lico
##dis
«
Jun
velocidade
##ânico
##dada
colabo
planta
vocal
classificação
##gam
##met
IV
##ches
frequentemente
Press
dupla
finalmente
diferente
##írito
Série
##ílias
começaram
carro
Ger
banco
veí
defesa
Julho
##wood
indust
##ji
##way
Bern
formato
conhecimento
38
Cur
##gir
Cer
Demo
descober
Trata
escolas
coro
Frank
italiano
cató
existência
anal
##del
##ônico
quí
dinheiro
António
Camp
##gamento
##ná
Pop
FI
resultados
Junho
##gida
##rino
chin
##issões
1978
apoi
1975
profun
eta
conceito
companhia
##roso
##minu
confi
cultural
órg
##ólica
##gé
##ght
general
1976
##timo
97
partidas
PS
formado
concelho
rapidamente
nove
dó
distância
##bleia
##tidos
##hat
Existe
passando
demais
provo
Dar
Min
##mbia
enc
##ório
impos
produtor
viz
##ódigo
incor
37
solu
Jose
##minar
Faculdade
Ram
##liz
##osofia
imedia
amigos
##pia
peças
##posto
##asse
tamanho
Bahia
manif
federal
técnico
propor
permite
##fil
abertura
Governo
comprimento
escolh
Trabal
Oliveira
##pri
Neste
exi
futebolista
pros
medida
##cessado
##cam
##cimo
costu
##rizo
Angeles
mine
##ye
oficiais
futuro
##lec
##eroporto
diminu
##elha
marido
##dente
Setembro
##fície
Índia
Até
sequência
##rez
nos
##run
circu
comporta
esses
chegar
Divisão
pós
##vios
##amento
##ró
mudança
autori
##ritos
##áu
costa
##ficados
Papa
palavras
1981
Gran
anteriores
governa
Interna
Ferro
##rensa
aux
passado
estrange
voz
afirmou
inclusi
chu
tratamento
dete
##end
humanos
##AN
##venção
##taria
lic
Za
apresentou
##óis
Anti
##rvo
continua
normalmente
Vit
superfície
##tantes
artes
fonte
##hu
Charles
video
indústria
##peração
##lações
##âme
semanas
Sy
##micas
acaba
##çado
##iblioteca
##VD
Dr
##lim
lingua
Sin
publicada
##iano
cópias
independente
Mul
britânico
##ixos
nar
Entretanto
ações
texto
administração
perdeu
##ficou
ingles
aspec
naturais
Arqui
alterna
prí
##tive
mandato
atuou
civil
habili
##triz
##cese
##ânea
Verão
Vis
carta
bra
##órias
associ
##fícios
captura
##ambu
asc
antigos
##bio
##ater
Billboard
1973
Março
181
##enário
marcou
moda
passar
##ster
distribuição
##uais
sec
ape
##gares
##rinhos
id
##orna
##tero
##picais
Love
compositor
Bon
##crá
seguir
Richard
efeito
transporte
deco
Don
conhecidos
##lh
Eg
ráp
##inada
##melho
acompanh
min
chega
Fla
entrevista
ant
aerona
##eiro
Bru
reforma
##tária
Ric
##ardim
assumiu
municípios
##leo
##dice
í
estrela
##íram
grá
1930
Jean
contrário
##estre
1968
Pes
nascido
King
1977
##itura
##vidas
titu
nesse
integ
Vale
UF
CO
1964
Black
##30
restau
projetos
álbuns
##din
Seus
artigo
##haria
##rgia
meados
francesa
encontram
##yer
person
1972
corte
Agosto
##lido
##ls
##úcle
Prof
poucos
Alegre
##fera
Parque
nenhuma
sof
inclusive
alte
##bia
##rael
##garam
##vações
Gr
Vas
##có
estas
versões
audi
##mentou
Guil
esfor
menci
Novembro
italiana
bal
histórias
##ncio
comunicação
Gi
compro
jornalista
Pode
metal
peça
negó
##ladas
contemp
##ltra
Espe
famílias
##ary
1969
Wi
permaneceu
Ku
39
Possu
##õe
adul
Sem
##dias
DVD
parceria
Ala
Cristo
##ramente
técnica
empa
Mag
##anhas
##gor
apareceu
##burgo
##tz
aé
argu
##icidade
avanç
##venida
##its
48
Hou
plata
##dicina
##vistas
Amaz
##graf
atenção
trabalha
Serra
viagem
Portuguesa
Rua
nego
City
País
we
##wer
advo
devem
##chado
##nal
Teo
invas
som
tel
##portu
publicou
realizou
##CA
##micos
inicial
histori
##letas
mante
você
Home
##gios
receber
Dio
essas
espec
##dal
branco
Lea
##ático
participar
##ars
dando
frequ
##isas
American
passagem
escra
Liber
Cul
médio
realizar
cores
ani
bene
sent
incorpo
doença
quer
##rano
pequenas
Cara
Jornal
formada
histórico
elét
fru
drama
efeitos
nada
am
pensa
Thomas
##cher
##madas
bispo
Paraná
pessoal
portugues
dela
porta
tradição
ris
Roy
experiência
##public
modi
Pet
Eduardo
árvo
##uncia
dor
escala
manti
temperatura
Teatro
igual
##mação
Ag
satéli
bol
##anismo
##ntagem
##vão
bom
fize
Sub
dispos
políticas
##tável
necessário
fontes
##use
semelhante
revela
West
Catarina
Ciências
comércio
Dan
taxa
Han
##nar
prisão
eleição
Dezembro
##fra
##olis
42
dança
respectivamente
protes
##ms
visão
##reo
conso
##mith
soldados
Pereira
##ristas
Paulista
casas
##ocu
##vadas
mão
Daniel
Assembleia
construída
refle
professo
Ind
instituição
##ceae
les
disti
Companhia
##hip
razão
Leon
médico
##pt
Ham
Batalha
1971
tentativa
jul
joga
44
cicl
associa
imagens
##ônimo
Estes
Part
cruz
##iago
concor
Den
##ronze
informação
##teral
Estre
análise
1967
bre
políticos
##tte
haviam
estádio
##tain
pequenos
Cultura
Tour
|
##ún
utilizada
179
Hi
Luiz
alguma
ino
anteriormente
##ncial
##vez
plantas
Eli
diretamente
##bes
americanos
##duais
Of
lugares
sabe
##lados
##anização
tecnologia
Salvador
##rick
Def
guer
47
Ent
cél
Militar
totalmente
agra
Consta
vin
nota
##ntil
Isabel
alcançou
Sco
##dêm
parece
vas
##versal
Lima
respeito
famoso
##iri
##ath
conteú
##órmula
Martin
Joa
posto
##ícias
1966
fen
dólares
passaram
ampla
Fam
Cro
desapare
patri
##zou
aconteceu
extensão
esquerda
cida
críticas
Roberto
Comissão
finais
##rindo
>
##mu
derrota
prata
She
Pin
300
##ntada
indivíduos
descrita
fazem
cuida
##lau
estraté
Sociedade
estrelas
41
valores
capaz
particip
##zações
Estima
navio
velho
muda
quilô
temas
##ek
##dito
##quina
Fro
produto
rua
nomeada
vio
49
##édia
##guai
##emas
##gráfico
fas
poten
##mentais
Todos
##ulos
cena
Castelo
príncipe
##sivo
##âmb
intitulado
##âncias
Nesse
compar
fis
1940
fizeram
Artes
emi
anunciado
alunos
01
##itais
internacionais
1962
oportu
Blu
reconhe
Wash
Air
programação
##ópolis
serviu
pressão
células
##cent
##mite
##ibili
Come
exti
Rá
tex
Econ
gravadora
num
aceita
##80
Org
conduz
obri
madeira
##bres
##plas
Cle
##encia
Scho
##tenção
ilhas
fundador
figura
nega
1945
##lusão
Isto
##çou
##versário
##rac
repro
fabrica
Segu
##mios
cel
sala
entrar
SP
concer
línguas
motor
prima
Campe
décadas
##dre
Algu
cana
##iga
Enter
dedica
##tações
Ferreira
regime
##polita
necessidade
próxima
literatura
Pág
revel
Editora
seguido
##ball
##chas
##pul
famili
##culas
usados
letras
recorde
Bio
pintura
gal
Afonso
novela
paci
Tribunal
Cra
Mou
Rol
completamente
##mamente
##bil
musicais
vege
##lva
saída
43
municipal
Ilha
r
##ficamente
##ding
feitas
Devido
Via
física
Rob
Federação
##toria
Washington
domínio
1965
Net
ros
cro
##ficações
núcle
mudanças
Mark
vul
deixar
nacionais
##viética
Awards
iso
##migra
séculos
quarta
presentes
vinte
##cessão
descende
mãos
gén
VI
Distrito
piloto
víti
ára
##onia
##ence
Ze
52
##sito
mensa
Bos
diplo
shows
Educação
##ther
digital
reside
suste
casal
operações
##mpi
deixa
Católica
Lan
operação
##nd
estrada
persegu
46
publicação
Ouro
Sara
##bita
##reno
Outros
trilha
National
resposta
jogar
situada
Tar
termina
Conde
Possui
brasileiros
reve
perda
##sula
topo
Congresso
consul
##dol
geração
##chos
comemo
Alexandre
formar
garant
##istão
1963
aqui
##âmica
rainha
##valia
treinador
##ântico
Ken
método
fundo
ficar
comuns
questão
##dicos
capítu
desenvolvido
números
##inente
gravação
afas
coor
composição
##BA
dizendo
Ten
sonora
transpor
baseada
iria
página
##ror
arg
arran
html
55
Supe
embar
hidro
Pou
##tuais
trata
##éis
morto
diante
simplesmente
Fevereiro
Antonio
##caram
cump
##TA
humano
favo
garo
quilômetros
desempenho
reino
##vang
##xic
Civil
Castro
expressão
apresentado
##tais
##mático
compe
direita
carre
##uí
Carval
palácio
camp
apar
##inamar
Saint
##trali
bás
jorna
Nu
conflito
##len
daquele
reinado
convo
autores
Estação
Logo
retornou
mem
##sta
Campo
parque
##quad
destes
linguagem
obter
##urí
apresentação
compan
encontrada
encar
modelos
##pto
Guilher
##kin
reais
fundação
técnicas
compon
bronze
51
##gão
##tein
Die
Bul
fãs
Smith
##RA
##onel
Justiça
coisas
profissionais
imprensa
##leiro
Carol
ligação
Lee
grego
Palácio
##ftware
hum
convida
memória
Un
cursos
##diam
frances
pens
verão
acidente
##40
pun
##ntudo
Fundação
Prin
ambas
##baix
Stan
proposta
1958
humana
##gular
fili
recus
mistura
##OS
Kar
von
75
polícia
evitar
##clo
navios
59
##ique
precisa
Contudo
preocu
meno
formou
Estadual
##ói
##fícil
by
manteve
##org
conforme
candidato
planeta
##idência
##tta
Crist
adici
Augusto
confro
fes
manifesta
deixando
Cada
chegada
olímp
Fl
paul
Existem
##inar
##ónia
passage
poli
proib
objetos
suficiente
Arte
##vera
corrida
compa
##riente
enor
##hola
peso
difícil
Corpo
desses
equival
##meno
##ides
1920
Rádio
Administ
começo
Hon
1961
##estões
<
volume
##ele
##IS
patro
regular
estudou
Linha
##íça
jogou
cenas
troca
emp
Sar
Sí
prim
perfor
bandeira
##nios
bomb
Estádio
Disney
International
##endendo
##lam
ficando
objeto
vencedor
surgiu
Israel
pé
fir
##nado
encontrado
nobre
deveria
adoles
##qua
##tários
instituições
Frede
fogo
##entos
bandas
elimina
dentre
ajudar
Ai
paz
Metro
##well
##gica
Inde
##ette
Blo
Vitória
##MA
ger
águas
##ande
##entou
processos
##vento
enca
afric
##DB
independência
conser
apresentar
##mé
produzida
contexto
Siste
##sar
##tto
clima
##iramente
pedra
disponível
document
##diram
Times
antigas
azul
##cili
apari
Página
Cre
André
Az
##êmios
realidade
administrativa
ameaça
##riti
##qü
redes
grau
Nações
Sto
menores
Ya
Brown
Oscar
Fol
Desen
##logy
posse
##postas
gan
circ
lago
rep
Ásia
disputou
delas
Nic
##ricultura
necessi
níveis
##mira
secund
ultra
Algumas
sejam
explic
Mac
dec
Cinema
observa
##andes
cará
##nior
vá
Conce
##ismos
criança
vão
##ind
150
contempor
Mate
##any
domina
maté
##EC
arque
Qui
cerim
nessa
escrever
Gros
gestão
especiais
53
Guilherme
produzir
##erta
Pern
vale
Caval
declarou
contou
britânica
prov
##ites
proce
retorno
sofreu
##questra
movimentos
Gom
deus
##élio
Cos
##unes
divis
expansão
imigra
##écia
##bela
Revolução
##vesse
##deus
Reg
conteúdo
explica
##ceano
Ep
Pic
##éria
peix
##cessor
##tti
##ustria
segue
edições
##licos
aplic
##ily
##naval
##itores
chamados
materiais
Rece
indíg
liberdade
Estimativa
85
##cons
Park
Alme
##sada
aberto
Play
Proje
Jan
##istente
##vidade
princípio
##ates
ocasião
##sal
auxili
##urgo
seriam
ataca
cus
festa
##tidas
Ani
Madri
##gs
liter
##lon
##IN
ataques
##uso
64
Var
07
típ
influenci
##ters
1959
Dent
quali
Rosa
museu
contato
Spe
complexo
impa
##60
##ctos
School
Barb
lemb
##cta
míni
rios
##rer
amare
##dências
campos
conden
##riado
Suas
##ológicos
avalia
Leo
curta
pedido
mec
Vida
categorias
mono
venda
impla
queda
assinou
##teu
trono
aventu
resto
Hot
Ox
##inental
etapa
reconhecimento
08
Goi
Cir
Far
##cara
##tró
castelo
##ástica
400
##IA
##IC
Louis
natal
##âneo
sinal
críticos
##gle
revol
estações
##ach
vendas
dizer
coloni
Gonç
##rização
transmissão
Departamento
atuação
##jar
54
##grado
Constantino
concurso
##entado
ganhar
capela
##enças
##cau
código
setor
##tino
comerciais
##the
65
Nesta
##pole
traduz
##dena
biza
resistência
Cel
toma
EP
Carvalho
Sur
saiu
próprios
levar
naquele
escolha
mó
Mús
quinto
Gomes
desconheci
exclusiva
tentou
reserva
##lândia
##lou
##riana
##burg
##ator
las
passageiros
Marinha
Áustria
comandante
Mary
Pernambu
legisla
sam
atingiu
##cialmente
Bus
Lago
vil
oposição
XVIII
##ésar
Red
inferior
Hall
fundamental
sangue
guarda
exposição
Constituição
09
meia
construir
##RE
Lar
##quete
Indi
Alberto
League
Cru
core
##cimentos
Hill
chegando
cho
descoberta
##dora
Hal
Foram
consu
armaz
populares
letra
##gadas
preso
fazia
Rodrigues
estudantes
##cidas
web
abri
Vin
##ration
Suíça
inscri
dessas
utiliza
condição
General
Colégio
acompanha
micro
romano
consegue
capitão
elabo
moderna
06
ped
Públ
fáb
04
Sousa
IB
feitos
03
It
enco
##tência
porto
diss
concorre
##ínas
assassina
##http
Duque
##grejas
realizadas
05
comportamento
##ander
Ast
voo
terem
religião
parale
Alb
1954
substituído
sta
##án
detal
##ese
Henry
##tainment
voltar
exterior
Suécia
##teros
utilizados
fé
DE
certo
##tudo
Avenida
ciência
desenho
##chada
Fal
considera
1948
propriedades
##jou
Big
##gador
situado
manu
Max
Partici
titular
##itado
monar
encer
palco
##lização
Engen
ciclo
##ógica
Brasília
completa
filosofia
celeb
comédia
queria
imple
Posteriormente
hol
Dias
##ure
preside
expul
##çar
participantes
Espa
tira
colocado
Oeste
exibido
##ológicas
##irão
##dense
juntos
Chica
emo
César
anual
177
##ivo
XVI
planos
##ceb
##field
consta
variedade
##erre
Ocidental
Berlim
selecion
levando
##íssi
disposi
regra
hos
Aço
templo
Ame
Uru
provas
saber
##basti
Superior
Campos
ec
##ning
dada
esco
##cussão
##récia
56
identidade
Wh
cm
##iso
Verde
##ângu
crise
##rum
Egito
Mesmo
risco
verde
inva
realização
Bet
##ission
##uri
possibilidade
##TP
Aé
Show
ruas
Sport
##ítio
hora
##rões
##ênia
tornaram
adequ
esque
Joseph
ponte
roteiro
Entertainment
Stre
breve
apresentam
satélite
colocação
##glo
aprove
Muitos
##12
vaga
mestre
##grafo
Almeida
##ij
estruturas
leis
##olução
elogi
departamento
Cin
aldeia
temporadas
rodo
##rizado
bis
Joaquim
inco
Revista
atraves
coleção
##BS
Dois
escon
domin
Estas
seme
artigos
encontrados
nucle
portugueses
##beu
editora
descobre
##idae
realmente
##tente
1956
Sci
##ua
Três
178
acu
reje
Just
##tela
##órico
subst
FM
CE
forta
pergu
02
públicos
sobretudo
questões
vocalista
Hoje
espal
Cy
57
##oeste
consum
##torial
Ren
inteli
1939
##ína
##vais
##alizados
##imbra
°
assina
##íba
UN
singles
dro
Juli
##ólogo
meios
Colle
Banco
aqueles
Europeia
alemães
ór
ato
certi
recebido
Legisla
conseguir
duração
Chicago
Gua
##ísticos
Estende
##ila
aument
pul
1955
One
##volucion
##inastia
##rência
Domin
custo
mortos
telef
Juan
frequência
vê
arquitetura
Son
acres
##rioca
##tens
##ritmo
tropical
##hã
escolhido
tradicionais
##assem
terá
##sou
vive
certa
lhes
viver
##irou
##ália
Il
Royal
##onada
dista
viu
aborda
Grécia
Les
localidade
##pação
##çu
poeta
quadro
Servi
Livro
fundou
##win
disputada
Ó
Board
entra
servido
exter
##mato
nós
##imes
##tedral
##gressou
Ribeiro
diferença
https
Soviética
##tron
##emit
pá
Desenvol
desenvolver
##ntais
turno
tér
Wol
monu
##vision
fortes
Branco
Sebasti
ocidental
##low
##diante
gere
##iões
oita
Jim
##mbolo
formal
defen
Ol
##rizonte
entretanto
agre
Marco
utilização
##ântica
##teriores
opini
finan
##fes
decide
##imento
Praça
##iter
Ano
Teres
##çul
transi
prêmios
perfe
Auto
conhecidas
regras
##sex
quinta
chegaram
competições
plataforma
Gir
enorme
Pia
recém
##entais
software
175
pt
semif
Nico
podendo
##amos
rel
1947
pontu
1957
##fas
treina
namo
desenvolveu
Dre
##réia
fer
Mur
##landa
##gno
1946
1944
Britân
with
ficaram
ouvi
moe
Prí
##zas
gos
##deiras
nascimento
cí
58
relativamente
núcleo
Fra
Coreia
empresário
##inhas
romanos
##ile
administra
Belo
##inados
##mpions
mito
##icí
mundi
##ntaria
Força
##oks
corresponde
Luis
viveu
ferra
insetos
universidade
guitarra
##mitindo
Colo
atuais
atletas
responsa
Time
cenário
possuía
Gover
pesquisas
Espírito
Coimbra
1953
clássico
Ricardo
orienta
Popular
Sistema
##crito
##ult
ed
cau
##sh
Ki
Andre
residência
ré
relaciona
escul
absolu
Martins
##ínsula
poderes
japonês
proteção
Scott
Bob
inve
##riano
realizados
Ty
graças
Hospital
Top
adicion
russo
tomou
Chile
##11
mú
vere
##eiros
Lista
documentos
trou
##ônicos
predo
Gen
característica
##ann
vermelho
hom
Hor
##ction
plan
evolução
Música
##nie
inglesa
autoridades
públicas
1938
sequ
liderança
Beat
##wit
van
particularmente
mídia
veículos
PC
##fede
##xos
##vic
##sul
Texas
territórios
Terce
promover
Champions
artic
##íderes
##vy
##ícios
Cabo
##kes
##fos
mata
tentar
##hite
reconstru
##redo
Cho
62
##bral
repeti
Outro
duque
jurí
paulista
##ston
##ficadas
ras
Romano
estudar
Jardim
tare
##alto
Desta
Jackson
line
##GE
##menda
vira
cima
decorre
from
##rana
FC
News
advogado
##arte
espan
eventu
especificamente
hospital
surg
Green
Madrid
rodada
sue
##ventude
Cli
recupe
recentemente
papa
##bá
solução
##endem
princesa
Christi
histórica
apaix
praticamente
mesmos
Ron
1952
usuários
Publ
acadêm
execução
símbolo
reto
vitórias
##tiz
matemática
coment
ran
Company
infância
estréia
Mato
discos
fins
Dal
May
interro
obriga
originais
imediatamente
##vá
torre
encontro
Ly
mudar
##OL
cone
idio
Life
##onalmente
videocli
aplicação
##ízes
##elhos
deslo
constante
máximo
consci
##bine
1936
##ésia
veri
consecu
class
definição
Game
Leão
Ry
industrial
integrantes
sou
Gro
##doso
##rian
Bis
Hy
ideias
##ntam
negócios
##mond
Villa
séries
pione
History
Sing
guitarrista
##tone
##tanha
##todos
Jones
##vando
##gueira
##icações
##andro
Mill
##estru
Soci
chamou
sair
pés
1943
##deal
Aus
##tí
##cência
investigação
instrumentos
engenheiro
infra
##ualmente
Associa
##cionalmente
prédio
âmb
alfa
##celo
mexic
chave
##toral
destaca
##wan
relacionamento
aspectos
##rup
culturais
género
cabo
emer
representação
Sun
##lagem
Saúde
vencer
talvez
Príncipe
líderes
High
fá
famosa
margem
##kh
Peru
dif
bu
Holly
Praia
Windo
ensa
1951
negocia
florestas
##olos
tomar
edifícios
99
dita
Aqu
irre
Irlanda
fol
metro
##AC
doze
dan
motivo
possibili
quin
posições
cr
golpe
altitudes
Brun
trouxe
##doeste
completo
estabeleceu
quadrinhos
discu
vie
associação
contratado
Grá
ferrovi
Diário
##15
tale
povos
Flores
disponibili
animal
##éia
63
ala
secretário
flo
anda
econômica
##mir
1941
Natal
determin
parada
Acesso
músico
Internet
convidado
Senado
##vier
festival
##ônibus
##onado
1934
teleno
Pala
sexual
individual
Chris
agu
##gura
invasão
Win
##tio
internet
supor
órgão
textos
Mem
ampli
seg
Homem
neo
oferece
##graphic
ônibus
##jado
67
##liga
carga
pudes
trá
considerados
Pernambuco
pertence
Ceará
Edward
Filipe
religiosa
formando
Americana
Alto
longe
Gaz
Tan
caráter
##cife
Len
gravou
tropicais
##hal
feira
tratado
romana
##ulares
computador
##dimentos
folhas
muçul
pó
##grada
online
##ings
Só
tan
##rense
1949
##bon
Ray
McC
olhos
##cracia
##itação
evolu
##logos
##terr
##esia
denominada
1942
MTV
##imar
Biblioteca
##gola
Ur
##lis
faleceu
95
##ritiba
##itê
Mine
disp
extremamente
##rich
##quês
bateria
##zinho
acontece
regional
contendo
pintor
66
FIFA
planeja
##ême
denominado
audiência
##tane
Pass
##pressão
##ket
côn
atingir
terreno
##ôno
Prefe
abre
destas
coração
elemento
anuncia
##clusão
White
sil
Então
72
##cip
1937
sobe
imperial
##tava
franceses
##onald
1933
honra
judeus
Windows
Alves
##mul
fenô
##viam
corrente
tradução
Tru
ocupação
##titude
77
vendeu
fossem
##cin
serão
similar
Joe
autoria
físico
Flu
desenvolve
procura
##ximos
traje
Senhor
violência
##teis
atmos
facto
Latina
##doro
métodos
PT
##cina
destino
ox
##logias
rom
BR
mecan
##medi
##ID
Outra
Açores
##tory
organizações
Gas
Mace
mantém
far
espiri
##tórias
plu
##BT
Rena
seguiu
73
Letras
trás
aumentar
Santiago
##tern
##iti
crimin
funcionários
Bou
Grand
encontrou
##ved
crime
carros
##roup
Melo
Cultural
##erto
##hares
equipamentos
denominação
##rey
##âni
##work
poucas
##ders
Dam
##tilha
kg
Jon
paisa
músicos
rote
ram
bairros
##ricamente
##gel
##torado
##ken
##ndeu
Massa
expor
muita
##OR
ph
##phy
##emitério
Loc
Programa
produziu
Gor
##pesta
potencial
Polícia
##ntando
juntou
matéria
apren
76
##émio
filma
âmbito
##éticos
nomeadamente
Oriente
exibida
utilizando
##ferências
registro
estima
trabalhadores
##tinho
artístico
Sum
Alfre
pista
##péis
igrejas
Final
ilust
dio
aquele
##fu
europeus
Clar
Barcel
decreto
encerra
Horizonte
##zia
coisa
ajudou
propa
casado
##ille
##deiros
##letismo
74
dificuldades
Forta
##cóp
pediu
alvo
##mônio
##politana
Bandeira
Jour
latim
colaboração
87
98
consa
##cerdo
Primeiro
Oxford
##endes
gran
regula
próprias
rápido
Adri
Atlético
bru
##ficando
Zo
brin
ramo
adaptação
extin
##ítica
##pulação
ficção
##SA
##ría
68
Bir
gás
possa
Carolina
Ye
##rint
papéis
nordeste
irá
ques
84
costuma
comunidades
resga
Ponte
times
suje
atores
College
moradores
repe
inaugurado
##êx
Greg
Lá
ate
##ibol
PM
##cão
exceto
##14
120
tabela
##rine
##ácia
praia
##formou
fantas
69
testes
##rinos
Live
##nau
Lú
tocar
##rupção
Recife
bel
intelec
PR
##centi
permitiu
representante
praça
Nel
agricultura
intenção
figuras
##lome
aeroporto
##dt
reper
altera
tenham
usadas
##ety
78
disponíveis
Jr
##zeiro
##cipl
##19
limite
Histo
medidas
suporte
1932
##sação
poe
Adam
cân
editor
176
##aste
Desenvolvimento
##CO
promovido
cristãos
agrí
##ópteros
##pin
Night
##réscimo
##cker
Popula
numeros
##more
revistas
Yu
##leibol
baix
##ástico
Aires
escal
Apo
gravações
##ísmo
Dig
##ragem
1918
1935
Record
Regional
Fortaleza
mm
Us
Decreto
determinado
Pará
existentes
astro
Maran
Vicente
##tures
branca
recente
indo
situa
reação
jornais
##ardas
atuar
Marga
##entino
revelou
##gações
Esses
##uela
Rou
Taça
##ramento
Ps
trabalhando
##lex
Mário
Países
viria
Sus
iné
Bay
elevado
88
historiador
Ib
##mont
satis
verdadeiro
Amor
XVII
milhão
Braga
enviado
Todas
Fox
face
paró
Outras
subtro
cál
bens
contudo
princípios
##tter
Barcelona
pele
preto
diversi
##alizar
Ministro
presidência
estando
##élia
oportunidade
Govern
##rato
Mit
formam
sovi
Sobre
vendido
psic
##tation
##vante
##umes
Not
graduação
##éu
campeã
dividido
Gram
caça
1910
permitindo
sab
##gais
##nts
WW
sucedido
assegu
poderiam
espanhola
Hollywood
Lopes
##16
giga
preju
hipó
##13
##chen
Gazette
reconhecido
Day
##diano
Oriental
exploração
derrotado
Up
Wat
fatores
##cebispo
Souza
interpretação
critic
organizado
Geographic
indicado
##ést
##mida
Steph
entidade
Ira
ordens
Nessa
combust
claro
##ME
Song
##mances
cidad
árabe
conheceu
House
instalação
Sel
proxim
##gião
metra
agente
reunião
160
Foot
cresceu
protagonista
Phil
rural
##vala
coo
continuar
infantil
esporte
top
senador
visitada
Democrá
##bul
aberta
##máticas
Unidas
##cias
seres
Get
localização
##briel
##view
##beth
Acessado
Bél
##sey
##ciano
##ppe
##thur
manutenção
Grã
##enses
CP
##ônicas
Indust
ib
facili
haver
artística
##istiu
impacto
Idade
##pass
##nda
##bridge
Agu
mag
avião
pan
gosta
bon
Marcelo
fix
deli
Produ
defender
ner
disputar
Lau
pret
universo
##ângulo
Aeroporto
##wal
##arch
Marcos
espacial
##reto
##rença
rebel
Frederico
invés
sepul
Bento
Fórmula
exemp
##hada
##unas
primo
Ima
exten
moto
North
japonesa
Estudos
escravos
Universal
leg
Gabriel
crítico
teat
estran
vocais
cré
prefeitura
82
chamar
Volu
BBC
gale
fusão
assumir
##pace
econômico
##mentares
moderno
Bow
Angola
medie
seguindo
##18
australi
##dém
conselho
##df
Bélgica
noroeste
Pesquis
##péla
reele
Infa
igualmente
DC
Esporte
##landês
enviou
Society
interpretou
sexta
Dinamar
Names
Williams
96
*
92
Zel
Boa
##mus
Reis
aeronave
totali
vindo
Comics
candidatos
##presenta
##íam
alguém
South
Kel
obt
Will
união
ilum
Toda
Tratado
descrito
Las
representou
Escó
##hados
ina
tar
##kov
atleta
constitui
aniversário
th
America
doenças
79
arco
inimigos
##heira
##onatos
derrotou
Web
##áticos
##ntade
milhares
Machado
Escócia
incenti
Sala
##ude
##cá
Walter
manhã
Femin
##reu
##velas
##táveis
homenage
possivelmente
##sado
margens
próximos
expedição
86
##veni
1914
falar
promoção
aparição
Hit
responsáveis
mostrou
Mana
Sob
ácido
Moder
Places
semelhantes
frota
Venez
peda
aves
cance
har
canais
##tões
Colu
iniciativa
##quente
relacionados
psico
órgãos
engenharia
sudeste
##ciado
##rosa
assassinato
##out
gêneros
Feli
tempesta
Leste
abriu
descreveu
morta
##kins
redução
##mites
1929
solic
máxima
ocup
Lucas
##presa
Proví
##nis
enfrentar
alcançar
Acre
Júnior
Americano
cartas
gar
exig
Afric
##bit
##hire
##ube
89
ach
UE
Jen
Bretanha
Português
##cic
##tch
escritos
centros
utilizar
1912
fábrica
##ogle
posterior
aut
lançados
##mino
magn
exemplos
europeu
pensamento
recep
Tempo
estabelecer
produtores
Poli
paradas
sacerdo
##ben
contín
Guin
consumo
leve
ur
Inicialmente
##itamente
inú
##ixão
exclusivamente
partí
Público
Obs
animação
Aba
##diada
premia
videoclipe
dú
beb
Ob
Street
1917
Michel
##ntaram
##quesa
card
distritos
AP
sudoeste
representantes
Way
Medicina
química
ciru
organizada
performance
‘
London
suspe
cidadãos
impul
##chal
Norue
##âmetro
batal
##posições
##ross
tio
descreve
perder
1922
sedi
Johan
classes
consequência
padre
árvores
equivalente
legis
Atlântico
Law
podia
Ander
documento
IP
samba
fornece
Gráficos
Secretaria
Oh
viole
daí
Pinto
##pélago
Buenos
resultou
acessado
Ilhas
##úl
##ingos
##ign
compra
Depu
bola
professores
Hung
significado
##gração
Rainha
##cen
Nordeste
corpos
##anço
momentos
##grou
ess
explos
##alizou
caracteri
Imperial
##17
Gri
Grosso
1919
aeronaves
##zados
Lit
continente
brilha
atacante
Base
Pesso
inaugurada
Yo
Essas
máquina
pratica
##iais
##zando
líqui
Kan
Curitiba
##istir
##MS
ia
##jor
acess
Pouco
##cte
assuntos
lançar
permanece
##sione
##nton
gelo
cerimônia
enredo
absor
queb
curto
##endário
##ditos
sítio
##nças
##EL
décimo
dinastia
decréscimo
Gio
carb
1924
piano
##cilmente
disputado
neu
comu
durou
1928
##rade
funciona
veículo
Baixos
classificado
Christ
Xa
limites
instalações
Topical
apresentações
segundos
##mel
##gentes
tivesse
Dem
Fic
##mí
Boy
Torre
Gazetteers
soma
Populated
lojas
executivo
##cífico
dito
Clas
##ciam
93
testemun
motivos
grave
associado
Tay
sucessor
estrelado
alimentos
Ran
exceção
Shi
##portivo
hú
fluxo
notável
facilmente
##ystem
domést
caiu
Consul
usou
transferência
educa
##midas
##olas
Stra
onda
envia
urbana
##áticas
republic
1926
dividida
Championship
1911
Carta
gravada
bilhões
Corre
pinturas
Gusta
juda
##ntina
Zona
lados
##tipo
amplamente
Fernandes
telenovela
##zu
##ial
pô
missões
##rgio
##icionário
medalhas
##dical
Journal
##gênio
Franco
padrões
componentes
##geu
levado
Som
170
diagn
cônsul
Wilson
##óst
##heim
##ntação
##endente
casar
Mendes
ganha
lou
sup
espetá
sobrevive
serve
descendentes
zonas
##gráficas
##ep
ile
províncias
reci
espírito
##esas
##gias
fotos
sinto
vontade
##tical
##unção
órbita
Rom
##metria
Ade
hipótes
Dinamarca
AM
ses
Aérea
##FL
83
Johnson
colon
usuário
##quias
interesses
concentração
popularidade
##yu
Fez
sinais
Canção
oriental
diferenças
##çando
prece
canadense
treinamento
conseguiram
##rali
Mike
motores
##AL
toca
representando
premi
matar
múlti
exerc
carne
últimas
envolve
embaix
##alves
indivíduo
descoberto
progres
Hero
##ômbia
frag
elétrica
Sérgio
labora
fech
documentário
Goiás
##dista
configu
Lín
1931
Colômbia
chamadas
Fis
##minense
##ami
aulas
naquela
Arthur
Europeu
contras
medi
##ime
##com
carnaval
Inc
proto
global
imigrantes
trama
perdendo
indígenas
Sw
##quinas
confe
aprendi
##AF
Lí
##oa
civis
cristã
inver
sai
trinta
dirigiu
bloque
Brit
Phili
ativo
mostrar
repor
Indo
pobre
cra
Confede
Imperador
##gil
calor
passe
Urb
##DE
Júlio
bras
##estro
Kim
coluna
UFC
##ganda
conhece
##colas
##terais
##çados
renda
##portes
perspec
descobriu
Op
Guarda
predomina
estrangeiros
Paraíba
medicina
cobertura
ON
velha
sucessos
##çamento
tela
##ild
##isse
Soares
##dina
apoia
fácil
econó
capítulo
instrumento
funcionamento
Bene
##zy
##meras
Olimp
Gonçalves
escolhe
##ânio
Sand
Encont
##AM
personalidade
cali
##óso
chance
extrem
Center
##ac
Bom
Zu
passo
humor
estatu
esforços
##now
Atla
partidos
poesia
Stone
Madeira
parla
possíveis
recebendo
fortemente
##rence
Republic
Rodrigo
##zade
árvore
##estrutura
floresta
##ak
permitir
##çada
Jane
horário
##sivamente
Pierre
Noruega
representar
##ximas
inverno
##ting
Ear
##ilton
comerci
##ouri
empate
Association
##cílio
rápida
##ologia
##lando
emprego
1927
cere
Sendo
##lei
montanhas
##restling
conflitos
##çú
978
distingu
fundadores
raça
sexto
revolta
##face
Plane
Jas
altas
Carl
verdadeira
Rafa
prazo
ave
amos
Mano
elevada
##gaz
Supre
apresentando
Anna
##ose
Opera
Paz
##usal
##ury
##borou
discipl
subs
Tou
inimigo
##inguém
600
Hungria
##ON
aviões
radio
servir
negro
nação
Christian
##ider
##fim
Ata
garantir
Dun
Rocha
arquivos
arro
Coo
portas
biblioteca
Corte
conquistar
##issa
##gy
##ênt
ativa
detalhes
##rioso
##teira
incên
restantes
religioso
participaram
ausência
Movimento
fla
##dicas
Folha
revolucion
IBGE
recol
desaf
notícias
marcado
criando
##teza
interessa
garanti
##IT
##dez
Mol
juiz
Uruguai
assistente
##cep
vivem
##nação
##randa
páginas
enten
##ânicos
descar
históricos
##plica
Pira
definido
##book
ocorrido
interpretada
##bou
Capitão
clássica
altamente
##trie
derru
direta
Cambridge
largura
legislação
##undo
##capa
Americanos
alterações
feminina
Polônia
fases
##metro
800
ben
Young
cadeia
##far
Vasco
ple
Informa
crescente
Pit
compi
brasileiras
Fel
##gueiro
Teve
##SS
cens
coloca
encarre
períodos
Muitas
globo
prisione
##nciais
Batista
##lidos
territo
roupas
comissão
VII
##onto
foco
subme
##éticas
povoado
mest
drogas
índios
Organização
##very
##quio
montanha
assunto
recusou
exibição
desejo
##ficial
elé
Álva
diploma
##AP
Preto
##wor
conclusão
Lib
Província
##zinha
retorna
##ffe
##dd
levaram
meu
rota
Steve
##AT
Viena
1925
munici
Maranhão
Mestre
recentes
##orro
Guara
Lew
Gale
PD
##endência
##dad
cír
experiências
Ú
constituem
introdução
filóso
solar
práticas
transição
##mburgo
##ntados
cris
Técn
##istos
sess
##dere
1900
refu
Barra
##hen
##minal
Huma
adquiriu
tiro
surpre
##itro
justiça
encontradas
##deias
Taylor
confer
arquiteto
Diego
Vieira
produzidos
##ndou
Kat
Santana
##ato
##chus
##xias
##dium
##tn
##úrg
grega
distin
câme
herói
trecho
##cht
coordena
94
tribu
##back
Free
agentes
beleza
deram
habilidades
dever
flor
##ret
Alexander
dedicado
notas
Canal
renome
rival
analis
pede
preser
Marvel
Kir
##ótico
conec
Pacífico
erro
Pé
naz
Jerusal
publicados
legal
Der
##sor
Football
tido
Andrade
Paraguai
designada
receberam
apresentada
cinemato
direto
destacam
envolvendo
##blo
organ
vítimas
potência
procla
lateral
esforço
Equ
aparência
razões
Out
##íne
##ávia
desenhos
##els
anualmente
Open
##TC
##seis
1921
canta
danos
159
adultos
aliados
integrante
circuito
Sebastião
Estrada
começar
condu
eventualmente
lutar
##ik
##jus
##úne
1913
Eleito
policial
Tony
Evang
visual
IN
chinês
##zamento
proprietário
1923
intitulada
##entar
det
Mata
##25
coroa
##restre
restante
##íblia
Zelândia
Oceano
##tização
asse
discurso
Frie
##trina
##mbi
excele
##urt
fachada
..
mensagem
...
##mengo
##pedia
roda
##ciar
britânicos
##grafias
Terceira
preço
##máticos
votação
aprovação
Cunha
ati
Venezuela
enter
##chester
gravar
tecn
##didade
existente
##ilíb
##une
pse
subse
império
fazenda
Especial
queima
Histórico
##quistas
Volume
mora
criados
inúmeras
##zio
colocar
164
Ami
bati
Belém
doutorado
doce
posteriores
ví
##duras
##sau
minha
Professor
gratu
espaços
##dil
##õem
##ísica
##lande
proteger
Conceição
tr
CN
Administração
clientes
destruição
designação
religiosas
status
##lash
Cláu
Engenharia
utilizadas
Ferra
Nelson
loja
registros
televis
metragem
usam
coman
process
##fal
conex
enfrentou
nossa
##zzo
reser
cargos
baixas
salas
interval
Eliza
altos
volumes
ascensão
tou
Band
Bruno
justi
##itada
Comitê
Boston
##íadas
##trieved
##gá
propó
pis
crimes
##étrica
##como
portal
aspecto
ligado
aplicações
Expe
professora
ocorrem
Turquia
##op
##çúcar
vítima
paredes
orb
##vent
Long
sorte
##mentado
podemos
##rosoft
objetivos
##sível
Sr
##misso
modernos
colonial
Ciência
Participou
Defesa
pratic
essen
Film
Conf
pron
ganhando
desper
Jaco
superiores
Constantinopla
vantagem
nascida
Velho
##rativo
174
opinião
litoral
divulgação
estat
##atas
mantendo
constituído
câmara
acide
im
Família
##móvel
pagar
Good
construiu
nosso
##vora
Conside
estaduais
Trabalh
##mpson
##vidências
perió
pain
bases
filhas
eg
Lam
##ilha
155
##ister
Comunidade
Jul
larga
subes
colocou
Victor
pessoais
situações
Jor
segre
ST
Cole
Jac
Doug
pena
atuava
##tismo
centenas
freguesias
Marie
Palme
vinha
dub
cujos
##hr
avis
primi
##quisição
##box
perigos
recorre
Parlamento
##úncia
1915
eleitos
Teresa
competiu
bombar
independentes
anex
aço
bordo
previs
##úmeros
##icano
pecu
##gimento
diâmetro
simi
##gie
rumo
agres
##yl
Moscou
compostos
Microsoft
##ña
Sá
##70
##gési
##nada
lingu
ol
ativ
Torneio
orientação
matriz
onze
Broad
Natural
aparentemente
contar
fama
câncer
##valaria
Francesa
definida
Paula
Maior
Plan
padro
##óni
Fló
mural
##mensões
Catedral
mesmas
afirmando
baterista
Sir
dra
cata
##ilíbrio
Mid
ine
Muse
revolução
AC
Arm
##SP
uns
##nização
considerá
Fri
Radio
bloco
##vadores
seriado
##istia
Rose
café
##EN
Corn
repu
concerto
##uck
##cções
retornar
##ET
lesão
dedicada
nes
moral
subtropicais
reis
##pse
pdf
proveni
##ônias
coronel
extinta
ergu
vídeos
Teix
religiosos
##ports
dram
Garden
viagens
Tai
Metal
cobre
avali
confun
Dentre
desembar
estabelecimento
Diocese
ABC
bilhe
##icídio
populações
mundiais
Legislativa
MP
ocorrer
##yon
Fazenda
comumente
designado
influências
céu
intervenção
assume
##gelo
##ltima
Vene
privada
Pública
Studios
##cionar
Jerusalém
down
##ción
seção
deseja
aparecem
encontrava
##med
Governador
costas
necessária
WWE
tomada
Mia
##mentas
##quistão
dimensões
terminando
Alice
##ür
##uss
Bíblia
Municíp
urbano
##dindo
Av
médicos
regionais
##gers
Rafael
eletro
lógica
Flórida
##idor
##féu
##gó
devo
tempestade
clín
habitats
capita
250
Barbosa
estabelecido
Patrim
capazes
Team
correspondente
Harry
Bernardo
Fon
##ômica
revelado
aust
cine
descobrir
Luc
ideal
bat
avaliação
Brian
##tten
By
Luz
##ímetros
##isp
reivin
1908
boas
pontuação
##sivas
Negro
palest
teriam
##pper
esportes
##crata
petró
divisões
molé
Amazonas
extinção
##garo
Médio
individuais
Vel
presi
rique
retirada
Hard
GP
ofen
livres
faculdade
##enti
goleiro
acha
##uno
##dentes
Aze
##venil
circun
##ava
##binete
Ok
acele
acresce
##cessa
Cí
camisa
alternativa
selo
emprés
petróleo
##bana
alu
deca
participações
culto
153
atmosfera
##vér
ocorreram
##parta
espera
confirmou
perdido
##inadas
Lua
Mario
acredi
##queira
##úrb
causou
permanente
Começou
ema
Count
atuando
décima
tone
restos
##old
relacionadas
##sivos
Blue
##itando
Albert
Língua
relatório
##IB
Dream
##dador
ritmo
rotei
determinar
pacientes
índice
##inh
##mados
defende
##dação
americanas
projecto
##24
##ficiência
Kid
fib
##conce
XIII
afili
Síria
Padre
Simon
prome
Eric
Capital
Frances
Holanda
determinada
dí
alfabe
passam
forti
##inga
aquela
comparação
aque
##inger
Gold
despe
separação
manus
deputados
maríti
Sér
voto
Segurança
##xia
Ash
marcas
fórmula
universidades
Beau
retorn
##chu
externa
Inverno
êx
graus
##IL
Má
gram
Guimar
##red
##chel
ranking
turismo
##beli
temos
Nick
Nascido
constituição
egíp
1916
dura
publicações
Pictures
Fluminense
soli
Kenne
Teixeira
dificuldade
Fáb
Your
diá
Disco
Henri
dimen
##vard
ni
##ínia
##udio
##ápol
colocados
guar
intu
famosos
melhorar
Tel
##culares
##hy
##load
##cyclo
Pens
Wes
Alta
contava
##ónica
tensão
##vs
158
anú
aérea
##tria
bot
##ull
julgamento
##viação
fenômeno
MG
Cari
revi
Google
Miranda
Leopol
##postos
##23
Sau
##amp
notici
Dispon
peixes
Projeto
UC
Pio
gov
##ensor
campeonatos
##rens
porte
russa
hospe
##vindo
franquia
neuro
ciências
fós
Hans
##diação
##gby
máquinas
Gl
habilidade
Vide
vias
computadores
vest
rádios
Abra
contam
##kan
argentino
custos
conservação
173
Guiné
Prefeitura
ocupou
##móveis
Itali
##ristianismo
negros
assinado
coorden
Guimarães
cavalo
hard
hip
inspirado
Ky
abriga
mínimo
restri
•
za
##órgia
##nce
##lios
acla
##dom
Meda
raízes
conceitos
Little
resulta
trem
modalidade
Fou
espectadores
norma
composições
tese
Barão
Aga
lige
consideradas
preten
classificou
##inte
constituída
Lewis
##pha
oper
##cano
associados
##cing
integral
##ffer
##rema
Helena
##estamento
ál
Nar
óleo
Sig
##gidos
camada
##gazine
tentativas
parede
viaja
##fin
quinze
incluiu
proba
incapa
##teria
pudesse
demi
estilos
##bat
sáb
##cações
##dó
##endas
Hugo
tentando
Kent
inteiro
##ian
magni
poderá
lutas
169
Campeões
cob
##genda
Serviço
##hl
mini
Barros
ligada
herdeiro
próximas
Alan
rapper
cantar
bacia
130
corridas
Recebeu
negócio
estratégia
colegas
Harris
pouca
mente
Cardoso
Fir
recru
Apenas
senhor
##landesa
Rod
##cadores
Líb
referências
ordenou
medieval
transferido
Vargas
Oficial
implica
156
Carlo
##lante
interromp
##tum
##liano
##ótica
fogue
Napole
cadeira
terminar
capítulos
aumenta
recuperar
extremo
atos
Digital
##ore
admi
caixa
##emos
Você
##radora
Comple
origens
Elizabeth
Libe
asi
ilus
patroc
Retrieved
chão
semelh
orquestra
Mora
##ss
Volta
actual
aliança
Flamengo
terminal
##çamb
civi
pere
##cci
Robin
fator
fortale
campanhas
Fall
##ânicas
credi
tribos
Kong
##lem
61
##vânia
Campinas
1890
fracas
Ponta
ninguém
166
Ambi
jogando
desenvolvida
dono
homo
elite
cardeal
XII
Nint
Network
Toronto
pagamento
Cuba
Atenas
##inária
154
avô
Ross
ponta
SBT
##terno
inúmeros
##fs
Tam
diale
cú
Group
quadrados
daquela
##licas
provável
referido
concertos
surge
Giovan
comercia
cientistas
##21
italianos
##down
Filip
lenda
php
sintomas
instal
combinação
##varam
abordagem
Secretário
je
auton
olímpico
Parana
agência
Ill
descrição
jan
##tidores
Dol
nações
marcando
Filosofia
##sino
##encialmente
##pso
substituindo
recuperação
Meta
leitura
tendência
Fantas
partículas
necessidades
concluiu
##pédia
Ford
defendeu
nomeou
PP
##pecta
##pot
metá
substituir
##diosos
acervo
Are
Wit
System
deriva
torne
presos
##lad
##ctivo
austría
filmagens
##pher
Ins
##lesi
Wood
profe
##cks
165
Davis
Adol
Casou
##pping
eleitoral
Média
Samuel
Br
frase
teles
profundidade
DJ
##ônios
##orno
##nidades
integrou
arcebispo
aper
consciência
##stro
festas
Livre
inauguração
Great
##vência
iniciais
amizade
inspiração
católica
teorias
##etano
fugir
Junior
espiritual
circulação
compartilha
reconhecida
pola
Disponível
evang
Island
##tics
medo
##cidades
ving
##are
possam
Missouri
derrotar
RJ
Rap
Geórgia
renunci
reba
nuclear
fecha
Garcia
168
abran
##ásio
pilotos
contando
andar
impro
interno
vendidos
rodovi
Public
Nintendo
resultando
habitat
científico
Christo
vegetação
longi
acontecimentos
Edição
estaria
##cade
##formas
##bara
VIII
Forte
cou
Rick
eixo
##ilvânia
terrestre
subespé
163
mara
##UC
##cidentais
##gadores
tenente
Feminino
##andês
##bin
bri
##moto
Chart
aceitou
##day
Conta
gl
110
tril
bur
irmãs
estudante
##âmico
conhecer
integrar
Bolí
colônia
selva
ultrapass
music
East
##itu
Mado
Apare
Anos
##seca
mosteiro
interpretado
hou
riv
transmitido
indiano
ambiental
Vil
debate
##umi
medica
escritores
aí
##isco
##ricul
mecânica
##RO
tarefa
Bell
toneladas
colocada
familiares
peixe
temperaturas
historiadores
dirigida
equilíbrio
salvar
##athan
sétimo
##AD
Origin
decl
convite
mostrando
jardim
produções
Arena
morrer
Karl
pira
braço
Torres
açúcar
citado
##crição
Clark
Grammy
Tendo
God
defici
exerceu
disper
aero
fornecer
Quatro
recurso
governos
causas
concre
Columbia
##ntamento
carbono
convidados
específico
Patri
bala
quente
AR
culturas
transformação
##érios
suspen
escritas
##aran
ficam
##âneos
##pus
tá
aluno
pedras
Quar
##mbolos
conquistando
##gol
gri
Braz
##ntis
étn
##óquio
financia
mission
controlar
espanhóis
##ênis
Mira
Let
Araú
associada
fundos
##ouro
Atra
poema
gerais
##gula
##leiros
Fonte
familiar
opção
requis
exclu
##ism
visu
Execu
Roger
ocasion
157
rica
polêm
atacar
definitivamente
1906
##vino
Tech
cujas
##28
##arca
Sky
Már
Encyclo
##vedo
representam
ingressou
assinatura
inteligência
Ramos
resolução
parcialmente
reque
##brou
Araújo
demanda
gin
Duas
rico
detec
Atletismo
hipótese
literacia
ret
mole
Ball
residências
##vana
visitantes
167
Anth
Fred
Sony
Bang
pesca
Povo
útil
etapas
ress
dependendo
NAS
tecno
Código
intensa
auxiliar
Cup
Conte
causar
Mau
tera
europeia
Lé
##deram
aposentado
ondas
Stephen
Dé
asas
##comun
tratar
vermelha
hem
produtora
Inici
substa
Tecnologia
certos
##ntadas
artilha
##tral
legi
##turno
Memo
##quí
oferta
##siona
##Station
vidas
Lor
##dendo
##cr
Independe
##ultane
##bada
Hay
##liação
financeira
reformas
##lyn
Dona
Doutor
cedo
fotografia
Spi
##minou
fabric
##dônia
1909
abrange
Capela
destacou
##cesse
neto
nativa
Branca
Lim
CB
Jam
certas
Rita
ensina
##anela
##piração
esquerdo
simb
moeda
##conde
Best
homos
##rece
pin
latino
sucessão
entregue
viú
reta
149
Universo
fatos
##cote
Duarte
contos
revis
evidências
Tran
cá
perspectiva
Virg
sobrinho
representado
duplo
Maca
comprome
##ianos
pico
comunic
abst
##térios
leite
##wski
sessão
clássicos
##gê
Camar
Tudo
dispositivos
consel
dos
PlayStation
interpretar
rí
eletrônico
especializada
criador
Ay
##ises
dispositivo
abo
##gma
construídos
isl
##dessa
Romana
dezesse
Cris
Viet
suces
celular
carioca
NBA
aparecer
incluir
discussão
tribo
mostram
1907
Girl
Vice
variação
##nna
confronto
relacionado
Ambos
1904
##berta
Hong
assenta
Operação
Zé
Magal
vieram
declaração
1905
Theo
##itz
Dark
marcada
Felipe
precip
már
poemas
laterais
escritório
alo
indicação
##sie
itens
Vermelho
acusado
exatamente
abaste
##cana
mete
Rela
sugere
Continental
##êmeas
entidades
negociações
Marques
integração
Confederação
AL
quebra
instalado
Pom
Neto
France
Science
Dead
vento
Ul
substituição
Who
Series
juntar
##ladi
conjuntos
eletrônica
##vina
dedicou
seca
Jaime
referir
Gib
##quel
##roco
125
torce
##ntuário
Land
econom
propósito
##ômico
mesa
freqü
estátua
Mad
Lúcio
percurso
tradições
XIV
anel
Bota
relatos
combustível
Deu
biblio
##reiras
reduzir
700
SS
ligados
resolver
vencendo
transferiu
brancos
definir
Anderson
licença
condenado
católicos
##ey
##ultaneamente
##portiva
entrega
##mido
Dic
##quita
##bado
desfi
##gráficos
confor
##ógico
##26
bic
##versa
operacional
jazz
esquad
adi
##óstico
limitada
anime
ferramentas
2020
Dicionário
assistência
##tha
IX
Medi
apelido
zero
símbolos
Pel
##drich
Quad
Figue
##cionado
Castela
homossex
depressão
artilharia
alma
guerras
##zan
Warner
##asa
71
##ridi
##rinthi
recepção
Chico
##pada
##bis
##osó
##istindo
vali
Comunista
lançaram
avança
técnicos
acompanhado
suple
terro
avanço
cardía
incluída
##drome
Forças
escolher
##quei
Torn
doutrina
Domingos
##lula
Andrew
Cic
##29
Política
Kelly
sacri
rem
possuir
envolvidos
##FC
##colo
Din
incluía
Face
1000
##tividades
##oney
download
impedir
Manoel
Princi
DNA
Catal
##ness
monte
municipais
exercício
placar
cuidados
##anhias
Douglas
patrimônio
atribuído
falecido
##terrâneo
Geor
amar
Pessoa
rapa
adversário
Medalha
##çam
##rebro
coin
humanidade
decisões
completar
Pie
vapor
Amé
Mich
Litera
baixista
estabelecida
gregos
começam
##lé
Engl
partiu
UEFA
fict
reuniu
##ota
YouT
##cool
##tuna
Escri
escapar
##cté
##ashi
##sias
Conferência
vizinhos
SC
##ison
magnitude
semifinal
Sla
condeco
Nig
Ped
trazer
matemático
japoneses
colégio
arquipélago
UK
fronteiras
extinto
subdi
Sérvia
##bidas
ópera
aventura
##onha
Porta
diocese
esgo
ocasiões
Wolf
Península
amiga
digitais
barra
##fan
incêndio
surgimento
paga
sonho
Sex
vigor
Munique
liderou
encerrou
Hom
##cionou
Coelho
armazena
OS
companheiro
prossegu
##ficientes
classifica
Ton
causando
ditadura
senso
criadas
abrir
prolon
##manes
##ulação
especialista
rob
susp
Media
estiv
##key
boca
sediada
deveriam
Maia
nomeação
folha
Pesquisa
Vista
áto
imun
##hães
Book
gente
Cruzeiro
Brag
pat
##gregação
estudiosos
##ólogos
Olimpíadas
140
apri
orqu
Louren
##ídeos
iniciada
Ann
Bun
vete
##vê
##bach
chinesa
State
duplas
##urch
notáveis
Pai
##ela
##mio
##rinthians
Bispo
volunt
Município
##tentes
subord
envolvido
bancos
Vat
notícia
proteínas
variações
surgiram
considerou
##ori
começando
Rodo
##postamente
monumento
artil
catal
literal
##27
YouTube
adicionais
podiam
##hol
Ern
organismos
##marca
zo
coli
mad
policiais
preparação
deuses
indicada
estradas
iniciar
Elas
excelente
mecanismo
hiper
eleita
iniciado
finalidade
AD
oxig
gravi
Chan
##ervatório
Hitler
amarelo
##asta
##thy
blog
Wrestling
sar
##inois
vírus
melo
cerco
Lourenço
pesquisadores
bro
bud
senho
exemplares
##ásia
Asi
muçulmanos
Moreira
aumentou
Power
Finalmente
Post
Constru
incluído
Nes
Contra
cemitério
aliment
continuaram
##xem
Esto
pior
companheiros
Carne
negra
árabes
cama
Alpes
particulares
##riosa
obtido
##uta
rebo
oceano
Prémio
Superman
esperança
cavalaria
##ume
mág
##hando
ovos
##xido
##úria
Portanto
##tec
##idores
River
Milão
Indiana
##tagem
LP
##cista
##camento
##eus
significativa
81
provis
Gales
Prince
cil
Localiza
Geografia
Nan
1903
Moçamb
admira
apoiar
permiti
permitem
##ray
colet
Juventude
identificação
anar
Madonna
orçamento
##ffs
nele
Vários
Plu
estende
plataformas
Circu
idioma
colega
Corporation
viajou
alimentação
##vich
arm
mino
enfer
rochas
Fregues
alcance
cai
insu
quare
dissol
arquivo
Corinthians
cristão
ingleses
Trabalho
inscrição
Maur
Space
##tista
##bama
poderoso
vencedores
túm
1889
##tências
similares
Xavier
substituída
semifinais
##cca
##mirante
Iraque
pobres
tom
##rível
perman
placa
ficava
Pá
garota
##tif
vito
colunas
actualmente
##feros
Orquestra
propostas
Aqui
Angra
calendário
essencialmente
Magalhães
convocado
transformou
##dulo
preen
triun
Libertadores
Pequ
Caetano
quadros
##órica
intermedi
fabricação
investimento
equipamento
implantação
##vey
##fogo
105
Illinois
Macau
pares
critérios
##pez
##ércitos
Caxias
mobili
clara
miste
Giovanni
nobres
baseados
Estat
Agência
Institute
##ntia
##ginal
Resul
atração
##elli
Magazine
quis
considerável
Ari
Bry
hosp
existia
húmidas
sp
Fire
expecta
liberal
inteiramente
Sic
campeões
Jacques
##xon
##ógio
due
hotel
Belas
##rary
háb
##IV
longas
destruir
AN
##ntese
virtude
##iar
##anna
##menos
controla
##íbl
Veneza
dimensão
up
entraram
contribuiu
##gên
##ranha
emanci
gráfico
ligações
1870
Azul
Russ
liderada
cliente
variáveis
##ines
cauda
automo
selecionado
ances
Diretor
vereador
autonomia
bizantino
exposições
Cláudio
##velo
forçado
mediante
Back
Plano
##ísa
##nomia
##dicial
Ak
Comércio
aflu
Tig
mencion
primeiramente
Lic
marin
comprou
##avy
obtendo
##pura
Fora
##espe
##annel
consi
##ílica
##órcio
hipo
curva
impostos
abandonou
juris
heróis
controvér
Carioca
classificados
acreditava
##trons
Marcel
líquido
Gama
comprar
tripulação
Batman
conter
relevo
Botafogo
endere
cobri
Comunicação
companhias
financeiro
Class
Tóquio
Sk
Video
confirmado
##gidas
Atu
Norman
##ella
Napoleão
Pho
##âneas
chuva
médica
península
liderado
Down
##picamente
vender
menina
batalhas
projetado
##mias
ara
##onde
Sab
mapa
migra
Deputados
Catego
Monteiro
brilhante
Ensino
reproduz
Fale
jardas
ambientes
Industrial
RS
Angel
existir
descendente
Kra
ocupar
Bruce
tecido
supostamente
##feito
##ardins
Miami
preços
##nica
##rand
limitado
Neu
##érie
Mala
##fice
ruínas
percebe
considerar
Nunes
dão
estágio
estúdios
##cito
antro
círculo
satisfa
depó
##ère
##rente
distintas
##22
##sil
riqueza
Moçambique
##ínios
esten
rebeldes
clipe
marinha
##sitos
equação
recla
Anne
rebaix
construções
quartas
simultaneamente
1891
afro
católico
Books
naval
tocou
oferecer
##ançado
autó
##rupa
jes
##alizadas
ilustra
##idal
Site
##cópio
fuga
##picos
Prote
Reno
descrever
refugi
91
##icana
esto
Kevin
Coronel
Io
news
aquisição
escritora
Metropolitana
##town
coreano
comentários
intensidade
Kh
rendeu
confiança
Ryan
orna
Japan
Azevedo
Jay
futura
Bad
dinamar
Port
##ranças
interface
Jason
dirigir
tecnologias
rosto
parlamento
##yd
##remia
Orch
olho
variável
êxito
##gara
fruto
adolescente
Album
organiza
##parou
##sch
Caio
territorial
jus
elec
vende
juventude
##úlio
vendidas
aces
nativos
placas
Mr
fortaleza
Tes
normas
Rub
treze
Frente
Supremo
##eron
##úcho
universal
eletrônicos
Light
aprovado
apresentador
pg
Bour
dani
What
necessários
candidatura
Estudou
##dley
Clara
Petro
acabaram
gado
##sibilidade
decidiram
Mulher
Piauí
Miller
aparente
comentou
##mis
##tecas
##ensas
August
Rolling
##site
Syd
previa
Bair
certificado
Pedra
patente
##cador
Roman
caracteriz
camadas
##rô
##raria
Road
Online
Apple
salto
##adrez
Finlândia
Marro
investimentos
##sional
escolhida
presidencial
escreve
interpreta
recordes
Economia
mitologia
##stâncias
cirurgia
##ficaram
##mulação
Bragança
##ller
casada
Renato
Templo
filósofo
##dw
oto
##gindo
revisão
quarenta
##etts
##entemente
##ensis
sueco
##guez
Congo
contribuição
##ata
##ceis
##íssimo
desli
##gante
Reforma
Bolívia
##fego
Agos
atender
pertencia
continuidade
cantou
parentes
##gene
ida
net
porção
Alfredo
Hotel
efica
##gg
parceiro
1901
1902
##uf
indústrias
ibne
ciclista
suí
cavalos
##mbar
catá
cérebro
fel
Contro
platina
opon
##less
junta
##ctu
##racão
Exem
Cry
Bank
observação
##ijão
mortes
soluções
Dy
repór
Mars
homônimo
seman
ocupado
ges
torcida
##tenimento
positiva
##mpo
actividade
##árb
interação
recomp
visando
Categoria
faziam
condados
Benjam
Coração
nacion
Lady
bons
##nome
##reiros
parar
impressão
mong
quiló
divididos
Gos
Mada
euros
Prata
raramente
aceitar
rodovia
Raw
Ener
sétima
##diocese
Caso
Howard
pretende
Lus
computação
##êu
Channel
emissoras
##nésia
##uto
play
Iniciou
Ohio
Marte
mantido
question
Guer
Irmã
define
##organização
fr
Johnny
agrícola
##OP
##igan
Ace
Albu
menino
laboratório
##gne
chi
Lake
##junto
Massachus
Ath
Pico
positivas
tradu
##quetebol
Eleitoral
organismo
identificar
Fur
esperado
##enne
executado
aristo
##iner
Gou
##iço
RTP
Rui
jesuí
Hamilton
entender
punk
Grêmio
1880
actu
servindo
amist
proximidades
109
Morreu
Arti
escudo
compartil
igno
cinemas
##ânda
##right
ouvir
##minados
narrativa
##ah
##ranos
Feira
adotou
compat
##uo
Cass
##anal
Cân
término
voleibol
gira
corrupção
coloração
Ponti
##cter
Equi
char
##ijo
##tivais
paróquia
específicos
assassinado
espetáculo
filosó
organizar
##dies
Well
moedas
trajetória
cristianismo
manifestações
##jando
rurais
Gustavo
percorre
Dados
Jovem
retirar
concessão
compor
perfil
perseguição
infin
intelectual
Bernard
preciso
recusa
Fonseca
##ties
Através
eleitores
conferência
106
Isl
Kal
sucedida
Equador
alcançando
Hil
##worth
##ntagens
resolveu
Socialista
prisioneiros
##bido
##lins
ventos
Semin
salva
blocos
pên
Pensilvânia
previsto
relato
bombarde
oportunidades
##resse
locomo
céle
arras
sofrer
##DA
Cristina
Chin
Global
expressa
tornam
povoação
trabalhava
entrevistas
voos
monarca
abandonar
Originalmente
vivos
reprodução
raios
bacté
conexão
contraste
##gava
Oto
acumula
##gária
PMDB
gerou
comida
##reza
lan
utilizam
##ux
##ixe
especialistas
##phi
##wart
Noite
intervalo
publicadas
##gina
cem
##mante
irri
altar
talentos
Week
Story
renas
1896
Baby
Pequim
setores
concedido
##ments
Botan
idênt
Cr
##lock
Nasceu
Normal
Hein
##tionary
##renos
Mateus
continha
amante
ajus
log
Banda
empréstimo
SE
Neves
processa
##kar
ler
##ather
Dance
exílio
complica
##agem
pne
##viera
Sofia
protegida
pertencentes
##tors
diversidade
##LA
##lla
Ucr
repertório
basicamente
república
adição
jú
##inando
##ratriz
nobreza
perante
estatuto
perigo
radiação
Olímpico
literária
inci
Antiga
suicídio
célula
mencionado
sons
Ucrânia
Leonardo
considerando
tribunal
dominante
conseguindo
game
##árqu
rever
Água
##belião
##rechal
introduzido
##85
1895
falha
##mad
más
##hidos
alar
norue
fechado
protagoniz
Hamb
emprestado
Agora
##enha
Gia
##IP
lutou
exércitos
Massachusetts
##graphy
talento
transformar
##tona
datas
Mineiro
##dula
aéreo
numerosos
relacionada
acol
horizo
paisagem
Alago
equipas
indígena
Beach
##aldade
Sydney
eclesi
olímpica
favore
##vaí
Inf
Consultado
Ave
gerar
curtas
Cá
##rania
tecidos
PIB
profissão
briga
Polónia
##bour
mergu
remix
roteirista
AS
Tr
##ilândia
##omé
##ights
##érito
organizou
incidente
Mir
Spring
Matt
##queles
ramos
cantando
amplo
Virgem
Rey
esquema
AB
rode
1898
Cerca
acerca
Cabe
torneios
formaram
ofic
Charlie
lâ
apresentava
Kon
hec
memo
Allen
plena
integrado
probabilidade
camin
harmon
##core
mandou
##alizações
Gin
automa
cientista
ber
Campeão
construídas
janelas
Line
##guidade
Sports
propôs
tempor
deixado
##rt
##sk
Bit
classificada
Coroa
desme
reúne
declínio
##guar
uniforme
privado
Cór
dezenas
##vincial
ocidentais
taxas
Correia
paciente
##ítico
##ânsito
defensor
Laura
referida
claramente
Independência
Silveira
##zel
Wel
espada
##rei
Abu
codi
##ensões
contribuições
hectares
Assis
Física
##formes
remanes
tornado
Carnaval
cortes
deixaram
morreram
##ei
##démica
##ônomo
##tema
erros
trase
fér
amado
Expres
hop
segmento
Palmeiras
anunciada
Meio
paralelo
primavera
Haw
##nesto
chegam
concorda
Pires
Quanto
115
psi
ortodo
Ah
##itora
mensagens
##cé
fixa
Friedrich
EM
priva
sente
tocando
escolheu
substância
observar
polon
europeias
##itan
combo
serra
vagas
Perten
CS
##órios
Chefe
proprietários
Ev
##restres
vencedora
##vares
diferenci
##paro
##érpre
Velha
##zza
Heart
Comer
tribun
destinado
##rinas
escrevendo
germ
Zi
Mach
Poder
##ridades
permanecer
constantemente
eliminado
dedicar
substituiu
##IM
##énio
Manchester
##US
Bara
imagin
Alf
romances
Cavaleiro
diário
vinho
Acredita
##lita
Eurovisão
estrangeiro
Freitas
Sea
Margarida
##índrome
Hart
decor
santo
acampa
Ernesto
preservação
vent
Sound
Gordon
##ingham
Premi
retirou
indicações
##cero
esqui
absoluta
Â
gr
145
##ester
ordenado
##órdia
Kara
Thor
vulc
cantores
##ugos
##veja
are
Under
##ier
formalmente
##param
##tie
##ógrafo
##wen
exame
eco
Jeff
Houve
##bulo
##ania
Rese
Sarah
##feld
##mentada
específica
##000
und
incl
Aliança
cen
##tério
organiz
torcedores
Data
Games
intuito
Tos
Pun
CON
##ño
##pria
##istério
cordas
##breu
sites
Mauri
postos
##sea
FA
Dick
haja
Mendo
Pinheiro
basquete
distante
That
##onamento
registrada
Wall
mano
vestí
Guardi
secundário
encontraram
aproveita
Jacob
nutri
manifes
caç
Século
Rat
oce
Over
consideram
vivia
##lov
compreen
Bil
Cour
nela
subespécie
aprovada
matri
##quenta
##copa
acusações
This
##bury
##ivos
Franço
marcar
terror
##tho
viúva
sementes
##querque
produzidas
distinção
iluminação
câmera
decre
dona
##ntinos
##ay
Apol
respondeu
Democrática
##quin
Cola
##witter
russos
Mosteiro
##pool
sinte
##bite
Difere
##duto
147
popul
crença
##TE
##zen
Irã
torres
Tha
graves
ocorrência
seguidores
avenida
efetu
partid
desconhecido
empreen
Religi
103
Dor
cento
##ditas
mamí
areia
Anthony
representada
##ísio
devol
Girls
Patrick
Indonésia
##chan
##landes
fêmeas
##dromo
frutos
habi
barco
Britânica
Jimmy
subma
verme
estrelou
sobreviventes
Ker
Russo
Clubes
alegando
concepção
reputação
##gner
colonização
quilómetros
101
pôde
it
market
##lição
diferencia
UTC
vidro
combina
1897
patr
##denci
sócio
declarado
Faleceu
satélites
financeiros
antece
anúncio
##war
Sat
participando
tron
tráfego
Bulgária
mostrado
desenvolvidos
##head
envolveu
Portugues
entretenimento
##aros
1885
preocupação
escolar
1888
Beira
##ídeo
socio
transm
deb
Virgin
passagens
Fé
##reta
consequ
completou
Ec
Viana
Nicolau
derivado
primária
democracia
Palest
esteja
##cant
Sor
UNES
distribuídos
##élica
restaura
neer
##ciedades
coletânea
contemporânea
1892
cair
Harvard
desafio
precisão
gosto
matou
visível
NFL
Dragon
feliz
##ople
Marsh
##xt
rigor
marco
personalidades
brancas
Tá
Lt
tarefas
off
Blan
##ving
##iores
lidar
##inux
127
configuração
frio
Church
Florian
RP
brasão
Py
Major
propaganda
##êncio
Espan
bomba
disciplina
tipicamente
MS
Ivan
infantaria
Hugh
advers
atitude
executar
restauração
##itri
Rang
Alemão
crédito
democrá
aparições
Sher
herança
envolvimento
##ualidade
acreditam
bíbl
piso
Lagoa
Dentro
##pá
Raim
profunda
enterrado
Maurício
decorrer
pole
sessões
seleções
##lib
Oce
trio
agro
Aragão
colonos
circular
##ntri
azu
únicos
##tilidade
distribuído
Meu
1899
jornalismo
continental
localizados
permanecendo
##ush
promes
convento
Alfred
##órum
Luísa
Castel
longos
acontecer
Arn
USP
Moura
cópia
critica
CR
Bem
NASA
Álvaro
Hid
históricas
q
##jes
artilheiro
##ásticas
componente
Mariana
107
116
físicas
adolescentes
##sel
enfa
Gonçalo
##ritmos
Passa
transmitida
fundamentais
##culado
intérpre
simbo
obrigado
separados
sepultado
constitucional
cães
##rinense
festivais
sacerdote
Donald
atingindo
##íssima
ocupada
Vivo
complex
econômicas
planejamento
compilação
Ré
Tornou
ressal
Tanto
##giram
alcança
soci
Joana
machos
ativos
paixão
##queiro
Amazônia
##tiza
compositores
Amo
Portal
114
mercados
Mello
Carey
Quem
Mü
Tw
sabia
Princesa
British
condici
longitude
UR
##dices
interpretando
Mega
##gine
Eve
explosão
adicional
alteração
sentimentos
precisamente
Manaus
obe
Research
influencia
regularmente
juvenil
filmado
lutador
bara
soviético
Moore
Steven
oitavo
##rimentos
popularmente
ora
McG
Frei
galá
áudio
comenta
substâncias
EN
hit
gigantes
##ãe
Ará
Bapt
ofereceu
More
mangá
Direitos
impossível
sau
gros
nossos
evidência
Christopher
Dessa
esportivo
back
Estrela
industriais
lembra
continuação
1893
Ribeira
turistas
##ntur
mim
vistos
##tizado
progresso
##nesse
##vilha
descobertas
implementação
Filipinas
numerosas
pênal
##usias
compreende
cun
mís
sali
Circuito
correntes
significativo
Pó
Gab
Festa
aventuras
atras
exercer
secreta
##ED
CBS
pensar
bura
auxílio
destacando
HD
poderos
##alth
Rome
##ctions
Prússia
compreensão
Nobel
##gla
Billy
pernas
##mberg
Cabral
específicas
conquistas
Hell
Leite
bin
##OM
##anista
assem
Indúst
competir
consolida
Sergi
##lidades
braços
perderam
Lyn
Baviera
descont
ensaios
Notícias
##rium
USA
Rain
##lag
##tana
procurar
##tsu
ferroviária
conhecimentos
round
baixos
subsi
recomenda
María
reeleito
##riram
portuguesas
119
Mani
intera
Albuquerque
amostra
protestos
##cala
bolsa
mental
Tais
lançadas
128
teologia
##ônus
essencial
rivalidade
Xbox
móveis
parecem
diagnóstico
##ils
Ante
Queen
Fronte
Mam
surpresa
##dino
Death
prefere
visitou
objectivo
##urus
Sid
variam
ax
##iness
bril
adotado
decoração
##gressar
explicar
##portos
bispos
eva
##ishing
milho
humanas
viviam
intensi
armazen
Victoria
##cs
Chu
Ato
argumento
Sep
Hora
##íso
Morris
linear
cumprir
moléculas
Ji
Russell
registrou
vendida
acade
navegação
escultura
Chap
miniss
##cran
##fraque
reivindica
##bles
agrícolas
flex
##OC
Bros
gabinete
##ciclo
IC
atinge
##ítulo
360
reuniões
Estatística
influenciado
aparelho
colônias
Quí
oli
saque
preocupa
##itário
Ado
tornaria
fila
Cant
dizem
104
Comando
##ibilidade
117
chuvas
Vaticano
belga
Montre
##iller
acúst
constantes
Antigo
Borges
Ribeirão
Nam
##bidos
Raul
extraord
Geralmente
dentes
cinematográfica
guia
dúvida
jamais
passos
Grandes
parecia
Dur
##baixo
##tindo
Ral
premiação
estabelece
nerv
jornada
traduzido
quantidades
lagos
soldado
##bb
à
1860
domingo
somb
##cionada
relativa
concluída
impression
##ierar
Convenção
Eva
Investi
Voleibol
elevação
Igua
##cros
imen
sozinho
domínios
Marx
instalada
Alexandria
PA
licenci
caminhos
conversão
distintos
##iseu
chan
caver
gigante
raiz
passava
enfrenta
agremia
Diogo
lucra
##bile
##olor
Dave
##andesa
Reich
##radamente
positivo
129
disto
típico
meninas
apresentadora
##nio
Michigan
Relações
Virgínia
Terri
Marrocos
Arts
espo
##zeta
gama
Colônia
CC
##fase
salão
##rizada
geográfica
vesti
básico
enfraque
regulares
##culada
lum
bale
page
opções
menciona
infraestrutura
Kle
terrenos
##EI
indicam
financiamento
Xu
ocul
abunda
Benjamin
latitude
concluído
desas
##row
##rity
Tole
religiões
Gonz
Compos
ic
##gela
codice
fracasso
Fábio
Yos
Ras
óp
pel
Johann
abandon
##pur
Astro
costumes
Literatura
direcção
Marquês
ameaçada
Representa
Swe
elaboração
ferramenta
Vietn
Peters
minas
Quinta
Wilhel
Germ
##guarda
1894
Cemitério
pale
Patrimônio
arrecada
cooperação
##dae
Nos
Joan
combater
genética
cão
pag
Apos
artificial
##tígio
Matriz
Liberdade
aumentando
##pio
How
##nth
##ávio
valo
ganharam
Gala
causada
Alc
aproximação
seguiram
##chie
##Hz
Inglês
##nor
Arquite
Califor
holandês
##rius
metr
monarquia
Organi
tortura
trazendo
publicidade
var
atingido
federais
residentes
honor
regente
marketing
##essem
Rugby
Fá
Mode
Todo
auge
Whit
peito
diminuição
Junto
Fight
Linux
versos
emissão
necessárias
##gli
##tú
##riedades
Atlanta
editado
sint
Educa
vilão
catedral
alimentar
##logen
##jamento
falantes
embaixador
##ingen
Troféu
créditos
ocasionalmente
135
acabar
Seminário
Cristi
##critos
##ôlei
Pam
reservas
##rane
##anato
##lot
##lum
Nich
##tent
pseud
##boy
imo
mexicano
Ino
premiado
Parte
Songs
Monu
Matthe
segmentos
Otto
gerações
ONU
Rico
pref
Democrático
universitário
144
difun
autora
##dle
Tomás
tecla
Off
Ferrovi
colabora
##andy
Negra
gráficos
##esses
##time
combates
Gradu
Alma
garoto
bela
fotó
##86
asp
gla
Antár
adequada
exam
reunir
sujeito
aplicada
inclusão
##non
Lem
nasce
##bí
##ntra
búl
jardins
entusias
atribuída
compostas
benefici
enviados
Florianópolis
Hop
##ée
vs
repórter
Work
playo
baía
##cao
mudaram
convidada
experimental
Beck
contes
vistas
##plic
Labora
##fônica
uru
Baía
marcha
Renas
Amaral
mestrado
Testamento
jun
inex
Loren
umas
deserto
Brook
operar
##pta
Kennedy
cálculo
ligadas
Australi
##era
hero
aprender
conto
##py
fantasia
##guaio
consenso
##night
registrado
##diana
##zagem
conserva
Domingo
Apresenta
##mundo
rendimento
centímetros
gravadas
Town
disposição
Cria
index
maca
##teiros
mexicana
ES
François
agrupa
Mãe
Cher
##tizada
trânsito
Oly
cura
##creveu
roupa
##lito
quaisquer
##ntores
conversa
##dale
Florença
elétrico
́
##ski
mistas
Concílio
Hip
compare
extrema
Broadway
##remos
new
preta
teatral
confusão
Cacho
literalmente
set
Abreu
Gregório
motiva
##lová
##stone
álcool
Singles
cultivo
##vine
narra
##ress
##valdo
##lávia
telefone
##ree
Compu
Salão
monito
fita
##osamente
##kel
##pados
arroz
pioneiro
Espanhola
eficiente
##tias
##volution
##bilidades
##wick
tec
##rizados
Interior
venez
Getúlio
##Tunes
enviar
sentir
licencia
Nós
##logista
146
benefícios
Mathe
Estra
recebem
visitar
sentimento
##IO
incon
##ternidade
emergência
processamento
Rea
##MP
rodas
curios
##ranga
Fort
##vantes
jogado
jurídica
atravessa
caracteriza
Edgar
físicos
##mph
##mpos
Whe
cabelo
idiomas
desconhecida
##tasse
subiu
##play
elogiou
judicial
##ets
Trabalhou
rema
campus
designar
namorada
tratados
##gico
Veja
dava
Ficou
hebra
protó
Flora
consequências
vereadores
lava
Gilberto
##bó
##rasse
Junta
Conforme
cineasta
Last
Old
modernas
##dania
proximidade
##lion
Bau
Vladi
Assembl
celebra
regista
continuam
encerramento
Lui
sér
##icio
Bot
##illy
Clo
gor
cit
vel
permissão
##êmea
Mis
Vio
exces
##EP
ID
##óticos
cron
Intro
##fon
##iler
Child
Britânico
reconstrução
infla
oitava
arredores
sh
Lie
Boys
buscar
ministros
Intel
precisam
Boo
Orle
contas
pretendia
##ouros
sociedades
##ctura
observou
Afe
dizia
janela
Estreou
##TO
##fato
##nciamento
Bandeirantes
##feiço
Nota
Andrea
Visconde
##rizou
Moon
sugeriu
autorização
segredo
extensa
preserva
Bella
Pompe
contínua
##fó
Ses
devas
gradualmente
143
coe
cinquenta
literário
Constitucional
##TS
plas
##istentes
reduzida
##thers
Union
Carmo
iguais
inspirada
sentiu
##rad
Sporting
mamíferos
##rell
##anhos
rende
##aras
centrais
alia
possuindo
pia
Kansas
RA
Beyon
reduzido
complexos
abandonado
##gria
##vessem
iTunes
médias
transmitir
apartamento
desf
##lite
Algar
morar
Tennesse
California
##ximi
##thing
colapso
maestro
estiveram
124
Juiz
##bina
Ple
anfí
usava
semelhança
##urre
pereg
##visi
Cine
estou
##concelos
dinâmica
zagueiro
##tsal
you
jornalistas
havendo
defenso
alimento
##estra
Flávio
concedeu
Cres
levada
##nias
árb
1884
memó
##minação
##gonha
Sti
Bond
compôs
Enciclo
aplicado
alfabeto
Dest
memórias
instruções
##lez
pedir
##politano
Sudeste
123
ên
Avi
sonda
adulto
Memorial
traços
##rela
##allen
##cismo
inst
operado
virtual
restaurante
circunstâncias
##meira
##ntura
##iterói
Rem
Fair
##lováquia
destacar
Wy
Guada
aliado
Liberal
mantinha
destinada
##izar
associações
legislatura
biografia
##rianos
Latino
Niterói
retirado
Vasconcelos
Pale
##óquei
##hara
Hand
Prima
comunista
Mix
Rec
Ves
March
Inácio
Geraldo
trabalhado
Eri
Jordan
convers
có
Jerry
Bomb
##comunicações
Hem
Sie
blu
##itária
139
Lang
provocou
##feras
Academy
masculina
conseguido
performances
divide
Sampa
Museum
algoritmo
##hua
Nigéria
sucedeu
##enz
Navar
##gressos
iniciaram
MA
Tol
1850
aldeias
##frey
##hadas
compõem
Tennessee
ído
ment
baseia
##ôma
900
necessa
vencido
##pina
##gulares
Mediterrâneo
Imprensa
##tuba
mat
Teoria
ricos
supri
armazenamento
##caute
have
UA
##kers
Review
despre
ângulo
chineses
First
Chaves
##bru
Ful
bits
tirar
automobil
conquistado
Encyclopedia
##fen
olhar
Barry
cristal
##top
Ian
##gri
1886
apoiou
australiano
polu
pesado
praias
Simpson
##ptos
anf
caminha
##rizar
Infe
sexuais
produzindo
##nico
Shin
##ím
Buck
Twitter
opiniões
Ló
Flor
aglome
Houston
assumindo
capturado
Newton
hierar
terrestres
##mbe
##âmbio
externo
tum
##court
escla
criaram
ligeiramente
count
introduziu
complexidade
Moraes
oxigênio
##ntário
mundialmente
deusa
metropolitana
pobreza
interessante
levam
prio
Orlando
##istências
atendimento
##cco
químico
##IG
DS
geno
##cura
##andra
encos
##ásticos
conselheiro
Boe
Aber
della
vasta
1878
pastor
viva
##riados
##wi
##iredo
Golden
SA
##belo
espí
bacha
Colorado
##pire
virou
largo
##atre
financeiras
Psy
ribe
Mulheres
adaptado
Brito
##list
Davi
prémio
impor
colocando
Sax
##house
relata
disputas
arquitet
##ulu
intelectuais
##ritic
Bairro
provenientes
fiel
##manuel
##EM
ênfase
##UR
Fas
Isaac
Instru
Montes
típica
embarcações
Luxem
reações
Hamburgo
semestre
identifica
Muito
laran
favorável
administrador
administrativo
##phe
##fle
Archi
Genebra
Nascimento
Lord
sagrou
minissérie
Boca
Pelo
##gus
obst
rotação
confirma
Figueiredo
PSDB
Stal
marro
##adju
##lier
cis
imediato
determinação
procedimento
##sando
Pers
##ficiais
##ilia
Tinha
Master
UNESCO
113
Gy
Paró
nume
montanhos
Gun
firme
tripula
##ensa
##rett
##lidae
Morro
noticia
fazê
Largo
contin
destruída
rin
Solar
turco
138
Magno
Várias
##úb
ane
Ára
Musical
##ales
sor
Mack
vivendo
elétrons
científicos
dispara
diretora
##gru
MC
1887
ame
medalh
costume
##dé
##dson
134
##eiras
Docu
Java
Leopoldo
funcionar
Dil
Guy
Samba
parlamentar
Cinco
Guana
Cristó
retrato
observações
##mic
bônus
escada
Jonathan
rápi
africano
necessariamente
acampamento
##grafos
Elec
acentu
básica
Unidade
afirmam
SO
elegeu
##vali
126
maneiras
##lava
##úrio
Jogo
garantiu
##étricas
Sicília
presa
atacou
outono
posici
Wayne
pergunta
francesas
vizinho
psicologia
##ors
1881
hino
Family
legado
##dô
Bowl
seguro
judaica
tris
alien
Regimento
resultante
Ví
conseguem
Trin
realizando
##round
##volta
pato
templos
##mary
##stre
##istido
privadas
automóveis
touch
esportiva
##sat
depos
##téis
##vadora
rebelião
indicando
localizadas
sobrevivência
##étrico
seguem
108
rocha
diretores
económica
profundamente
baseadas
fotografias
##amá
Wis
fiz
director
tentaram
avó
síntese
Got
eficaz
aposentadoria
##cali
desafi
comunas
Raimundo
proteína
##set
From
neve
esfera
##tavam
magist
pistas
##gui
##ísta
148
alb
libertação
investigações
##phia
arrem
testa
xi
Pok
anta
##tivado
Guar
Franz
##cussões
##égios
entrando
##maco
Liver
subsidi
jurídico
Fan
cór
aprovou
##terapia
precipitação
visa
mandatos
eficiência
##nu
pleno
promul
servidor
fósseis
estivesse
empregados
fabricante
1864
Lula
Maomé
##fone
ferido
Wild
Lincol
explorar
##esis
divor
Pré
##fíceis
hidrogênio
NBC
mecanismos
Álb
Batal
arbit
crescer
##gendo
persa
encora
lançamentos
##kha
consoli
publicar
Gam
Neo
##eller
##fagos
Nápol
ossos
sensação
##real
beira
separado
vestígios
##guaia
##liza
tomando
CA
planetas
milhas
apresentados
Naval
reen
vozes
renovação
bl
##ppi
Argélia
Morte
controlado
Magn
análises
compositora
induz
desfile
estimado
Curso
##mentando
Nápoles
reality
apu
##bla
##teo
rup
Morgan
célebre
uol
Agostinho
incorporada
##dí
revesti
ofensiva
Democrata
##mem
mau
informou
##ídu
##rene
hún
diminuir
##vile
Ultra
parecer
##rendo
lazer
##venções
escuro
Martinho
Eis
Rho
túmulo
xadrez
##vidou
Zero
foguete
montagem
##nturão
proposto
Publishing
1871
Mali
difíceis
UCI
astr
banc
##logical
VH
Gul
Ax
rosa
Franklin
divididas
##blin
inib
##tricidade
Eti
Like
##inaram
cavaleiro
##TM
roma
remonta
Somente
prestígio
campon
##caso
receita
massas
bica
trens
Sacra
##partamentos
##tolome
Goiânia
minerais
1882
lesões
Caminhos
Bona
Resta
oral
Gazeta
Vermelha
adquirir
poderosa
consistia
##nik
##bell
gera
alterado
aleat
namorado
118
Assu
Cama
Matos
Classi
circula
estável
##vest
##dável
Lobo
Parale
viajar
compromisso
gerente
Executivo
lutadores
funcionário
Escol
coleópteros
##VA
astronau
##vić
semin
incons
existiam
coti
##nea
Pena
assinar
negativa
alcançado
alter
teto
##cratas
Benfica
##fun
frequentou
Vill
adolescência
##haram
pudessem
Encontra
##igo
Rad
Classe
Summer
procurou
prostitu
PSD
Grão
##ilo
Gö
##jada
##pton
##vice
Octo
ofici
acons
Turismo
Carneiro
Water
multidão
Convento
##nett
famosas
Tailândia
suf
excep
Charlo
ambientais
associadas
##redi
vér
##sados
tênis
aquelas
prejudic
restaurantes
Pais
apaixon
bactérias
introduzida
Stro
Milton
##rek
##gate
geom
Área
##dalena
##pho
parcial
modificações
quadra
Espacial
adquirido
Nie
Iron
humil
Montreal
utilizou
assegurar
suspensão
##deon
violão
1883
peru
##ndez
metais
Tavares
apoiado
##Do
listas
separadas
controvérsia
##MG
adja
deverá
gerando
##ídio
##itados
estabeleceram
##vre
137
Gue
repara
destruído
frequentes
Vera
fres
supre
marciais
Alemã
Deuts
falou
Racing
Luci
solos
Floresta
igualdade
castel
velhos
posicion
Dictionary
gole
paro
vizinha
matando
bizantinos
chil
Havia
primário
##vial
Andy
maci
##lace
conve
certeza
identificado
##fam
arru
medicamentos
fortuna
Faria
fugiu
##quial
1875
legais
empregado
##iado
chegado
##asco
Glen
Some
proemin
aprendizagem
Empresa
noticias
armadas
chamava
acessada
Janu
Paquistão
iniciando
simpli
##cts
episco
denunci
chefes
presti
andares
novelas
eliminação
##hard
Vie
##teiras
##minando
1500
Polo
tende
secundária
civilização
contemporâneos
Pear
##rugada
científicas
modalidades
##ridae
Bárb
Wilhelm
disputadas
legíti
governante
Perry
demonstra
ree
bone
Baixa
Diver
Econom
restrições
estabilidade
Tocant
mínima
aviação
alternativo
Tito
cren
Pau
1867
Sampaio
ouvido
enviada
##rariamente
observado
##midade
##useram
Now
africana
estreita
##ery
Toledo
válidos
liberais
acompanhar
Crime
Fundo
assistir
profundo
136
cargas
botânico
coz
##vena
##úrbios
delimita
assassino
concedida
1865
Liverpool
##noma
Carter
coberta
frequente
Pant
##colmo
férias
Ocidente
atletismo
colaborou
incu
internas
Estocolmo
Chem
133
formados
##iceu
Évora
noção
ensaio
decidir
Republicano
##rige
orto
Rosário
##mm
IG
##mack
Paróquia
concluir
Sche
Ibérica
##glia
Estuda
voltaram
ordena
##iles
pago
atrações
##lian
Quin
Japon
Freire
cabeças
núcleos
Ey
##lizado
Obras
human
##ird
Caribe
impressiona
inferiores
variedades
##furt
##pero
generali
##éri
##érico
##ítios
voltando
transferida
##mble
Run
Tun
##lizmente
Augusta
concorrentes
Marina
Austin
anteci
aceitação
Sue
permaneceram
Reve
faria
crista
aperfeiço
Tib
##ences
cover
sangu
privil
recomen
Psico
Philip
cuidado
estatal
capturar
##ctic
Dispu
consigo
improvis
urbanos
variante
Arábia
divin
##cilidade
Luciano
##iseric
determinados
EC
caracterizado
Lawrence
##umb
Wright
dezesseis
reconhecer
voltado
Facebook
genes
Nogueira
Alagoas
fome
rivais
trechos
visuais
##rejo
march
fragmentos
metrô
orbital
classificadas
##rini
feridos
Superliga
comunicações
##âmi
Artur
econômicos
Esquad
átomos
teorema
Trabalhadores
##gões
##líci
Sas
nono
degrada
polêmica
africanos
##gonal
##mberto
Modern
Emmy
##tagens
governamentais
fiéis
efetivamente
Fase
reinos
inteligente
fazende
Eus
pesco
Arquidiocese
##yama
##ássico
People
Africano
##kon
comparado
confrontos
Ada
Rous
conste
fechada
barão
proem
carvão
Conheci
funcional
ascendência
##técn
Walt
apareceram
Presidência
Vent
causado
Esportes
st
Woo
Iugos
cidadão
##eni
##anga
Dri
Beatles
delegação
proporção
##lamente
Commun
adversários
internos
vegetais
Minnes
anuais
aponta
Paranaense
Ân
respira
transformado
##já
tia
##gésima
Claude
Coutinho
individu
##çadas
reflex
escritórios
##rae
##haus
##perou
Rica
cerveja
instrumental
Ola
Arma
1868
Anto
sindica
With
Founda
##alizando
Arquivo
Daily
ministério
painéis
certamente
##eri
Kö
Joel
englo
participado
mantida
sentença
coinci
Stewart
##PA
##bourne
cerâmica
clã
##tadora
arcos
contratação
##pirou
franco
favoráveis
helic
Todavia
##vir
##ntic
Ore
diretoria
##ola
##RS
Champ
Camargo
Qua
Qual
Lincoln
cerebral
1840
Pare
Mans
Armênia
derrotas
ganho
tendem
crenças
químicos
##piter
aéreas
chamando
Minnesota
##bec
provoca
Fore
crono
prevista
Luxemburgo
orgu
Caminho
vendendo
##logicamente
sigla
cartão
##homa
1848
mapas
ocupando
##tique
##citos
Spen
Armadas
marcados
concordou
Américas
facilidade
ka
Acor
gases
espectro
##polis
1876
Sergipe
abertas
treinar
foz
##issem
brinque
Ide
lua
alemãs
depen
magia
telespec
caracteres
publicamente
tru
Mass
Satur
Congregação
##ftwa
celebração
##gata
Phi
##patia
Brea
##politan
350
##light
##encial
##diente
##teau
Passou
Vig
##herine
Panamá
adequado
determinadas
tentam
facilitar
gravidade
##dison
Recon
cavaleiros
intenso
Women
radical
sobrenome
aprende
entradas
SN
Afegan
Valent
Vladimir
Fle
Hat
Rog
Barreto
##quil
vers
##rizona
playoffs
molecular
Dir
respectivos
Clemente
##guá
flora
Bárbara
agências
ferrovia
doutor
Biza
Nome
Oliver
Rama
modos
adquirida
Mó
resgate
Afeganistão
nó
tó
##mart
##BI
barcos
Human
Experi
oposto
contratos
liderados
britânicas
comemoração
glob
##ité
Fos
esculturas
##desh
vestido
##isericórdia
Vietnã
ideais
McL
diálogo
percepção
tronco
desempenhou
falecimento
##rola
Movie
painel
agricul
country
pano
Total
dívida
leitores
monumentos
avaliações
reconheceu
##BO
##guia
##ósio
desmemb
tabu
mármore
Novos
##gésimo
Wagner
inicio
voltada
Marshall
Assembléia
cozinha
promoveu
propriamente
##foro
ciclismo
##iniano
Ronald
pescoço
temática
divisa
explicou
##ists
##élix
sediado
maç
1879
rein
Micro
Beatriz
##cc
##100
##ucky
Again
datada
minuto
acadêmico
##venti
linhagem
caracterizada
extremidade
##tuas
grão
acabam
confia
Stadium
Agricultura
contemporâneo
Thi
chá
benefic
##bano
##ciente
pesquisador
Marc
inje
deser
Aranha
##minas
doente
acertou
Charlotte
Nuno
Continu
renunciou
NH
wa
encomen
##mónio
##culdades
##pecu
Jar
##quare
plástico
##oles
verso
substituto
##urs
requer
##iria
##oito
estágios
derrotando
Soul
provar
tomado
recupera
variados
representações
Century
tragé
touchdown
departamentos
seco
Técnico
furacão
soviética
abastecimento
eliminatórias
sug
Croácia
##cke
ATP
See
Nice
radic
Regina
exclusivo
Made
emancipação
Crí
pedindo
previsão
##pino
Won
##magem
Battle
ucran
libras
Poly
inéditas
##sol
afirmação
confirmada
Ober
Arist
Russa
##ESP
inunda
##rical
Porte
garante
##vu
Cient
##fis
Reserva
preparar
cruzamento
pau
reprodu
##lip
##ciou
armada
únicas
dezoito
website
latina
postu
reconhece
qualificação
##mular
Name
Galiza
Galeria
prédios
##álise
##checo
Gonza
controlo
colocadas
##cica
##cante
Dion
acção
tiros
corredor
vertical
demonstrou
pianista
proeminente
Diana
##arense
##ândalo
Comercial
múltiplas
##dwig
invo
ilegal
##áutica
realizaram
Mess
iran
pesados
##ógicas
barro
influente
agremiação
explicação
grama
repar
produzem
vingança
Grant
assinal
procedimentos
Piet
Líbia
##titudes
amo
##lines
Flash
##sura
1861
redi
obtidos
Fernanda
Enciclopédia
##úr
##turou
Filme
animado
quentes
##nita
##tton
agregado
##turo
##penha
visitas
contratou
##UN
End
Ges
Jung
lote
salário
automaticamente
cartu
vilas
Orchida
Tomé
amador
Douro
israel
Exposição
Nem
Nenh
Stanley
vêm
Seat
Ortodo
Stri
estreito
regresso
Page
##grados
##vilhão
##cionadas
castelh
tanques
estimula
fenômenos
##ritz
Félix
Ultima
matérias
##tano
Tara
esperava
Diz
##tipos
queriam
sequências
##45
##lismo
Prado
Theatre
##gapura
imita
obstá
parado
manifestação
perdas
abertos
sabor
Arizona
Moderna
LG
nazista
notur
Macedo
ajudando
respostas
possuíam
instrução
##lix
##rough
falhas
##coa
##cript
Faro
ícon
concreto
totalizando
##sei
amarela
bilheteria
requisitos
transmissões
possibilidades
circunda
aparelhos
Kno
1877
nona
Golfo
##hem
##dest
exige
doação
turcos
separada
Palestina
Normalmente
Tiago
Romênia
abus
Cross
Cardeal
##ceno
Fen
##vância
Graças
capitais
decidido
##ör
##dell
medalhista
encarregado
coleções
inscrições
Pur
dispens
Indústria
ampliação
##elle
Capa
embri
Justin
cripto
Correio
Dean
idos
soberania
Ted
comerciantes
Censo
assalto
##leu
##ritas
##lah
articula
asa
##EG
##hed
##gger
Dallas
demitido
servidores
##rish
pátio
secção
##dadores
Taiwan
investigar
##dard
##wald
##ópia
Adams
falando
Editorial
##pers
##cass
Has
##gento
Guide
imobili
##vul
fêmea
privile
Television
detalha
indicar
Apa
preval
regres
mercadorias
##lands
1873
atrair
Humanos
##ície
Jazz
June
apresentaram
protestantes
##ólico
lit
intérprete
##irâmi
##inidade
enquad
parceiros
fauna
instituto
lat
antic
consecutivas
caridade
perceber
##cea
Esco
##rash
periódico
Eddie
fábricas
Techno
##ondo
##ógicos
##ntismo
Blood
Tocantins
Lisa
Trindade
divulgado
afirmar
celebri
##bula
Earth
relógio
Basílica
fazendas
inspirou
Guanabara
##teto
##vidão
Pablo
integrada
##EA
##jara
Sent
dispõe
##ridional
##tacional
máscara
entendimento
lep
Gan
vita
##lahoma
sugerem
academia
Brux
Aur
##gário
emble
desenvolvidas
temporariamente
##yle
##ésio
##óricos
Parker
discri
retornando
australiana
##ezes
esclare
rebaixa
aprendeu
defensores
##únel
##senal
cultiva
considerava
Vegas
pesada
sítios
madrugada
##cía
##yne
pão
Four
Take
estética
Sudão
comunistas
deficiência
IM
oxida
ób
rotas
correr
Otomano
imposto
eliminar
regressou
Kos
XXI
Gali
all
clínica
sustenta
##tah
##nova
Head
muralhas
##mie
idéia
Profissi
coletiva
antecessor
Ia
eru
Moto
transt
Foundation
acompanhada
Litu
Antio
optou
Graham
Mauro
##critic
pacote
derrotados
cheia
Cristóvão
pil
Francesco
##tificação
##burn
##jados
Silver
But
1830
Teologia
1872
##dian
Pró
Glória
Memória
definidos
##mbal
pic
##donda
permitia
Ação
Ever
Sempre
article
estabelecendo
##dul
Oklahoma
##UL
1874
melhoria
síndrome
Temporada
assi
adver
escolhidos
##mentadas
Adventu
Premier
##voa
Bela
Explo
metodo
Barbara
Batalhão
Actualmente
##ltimo
Emer
marx
sueca
delibe
##tore
##cionados
melhorias
adulta
Matemática
102
Gestão
cheio
mestres
Llo
disfar
soviéticos
espetáculos
1834
Know
Palma
Walker
Edition
##ôm
leu
capaci
coberto
1866
Aguiar
parques
trabalham
##mers
Alas
amaz
Larry
postura
sobreviver
ecos
Hanna
##tolomeu
Fátima
cenários
##tizar
veja
Design
segura
##zzi
##rite
Gary
avançou
membrana
Mah
comandou
agraciado
Mest
culpa
Sociais
##rantes
Merce
cruza
juntas
IA
Nat
Aless
##landeses
##formática
Herbert
acompanhou
esma
infecção
experimentos
Kla
##ônima
Petr
Comanda
manuscritos
aceito
oração
austríaco
##tárias
ginas
portos
industri
McK
bicic
protesto
Cala
Algarve
nucleares
totalidade
##gências
nocaute
##comp
Jersey
##fão
##oroca
##trais
precisava
Im
enx
Pris
apeli
oriun
##TI
##unar
##mentam
Timor
Berlin
desigu
dependência
pessoalmente
Aero
superar
##sin
##peras
##úrbio
##ea
##chy
##fort
Arque
traves
vegetal
soberano
##ÃO
digni
choque
cresce
feiras
Matthew
restabele
presidentes
##úrgica
Zen
aquilo
arranjos
colaboradores
wor
##organi
convidou
Televisão
transformada
Promo
básicos
Tit
Boeing
bicampe
Olymp
acadêmicos
CM
Wiki
Giuse
taxon
adoção
##anne
modern
difusão
Fronteira
encontravam
farma
prove
Common
duquesa
esperar
##tila
##tudes
rumores
geometria
naturalmente
desenvolveram
inves
##istic
mudando
##lit
ritual
estrutural
galeria
##pis
GN
view
cirur
##LC
##âmicos
evidente
argentina
procurando
Niko
Brazil
Square
museus
Mérito
guarni
promessa
discussões
hí
##mund
biologia
jurisdição
decorrência
##liar
major
Química
demissão
reme
Mascul
Rogério
perfeito
atualidade
republicano
Tupi
verdes
##íno
##óvia
Bib
##ichi
subir
##éus
cano
Manda
oferecido
estrangeiras
raro
pertencem
Et
Vers
##neto
1862
derivados
múltiplos
##ritariamente
##nell
Alfa
Iowa
Evangelho
relevante
basquetebol
seve
lis
cess
Infantaria
Amy
Jess
that
densa
actividades
##belas
##viano
vantagens
##âmicas
Canto
##bot
##cionista
Permane
coreana
decisiva
##fícia
Serviços
Shar
About
santos
influentes
Int
eri
Albums
complexa
endémica
##ade
Cida
##orre
ira
##kespe
infec
Armando
Kentucky
coletivo
potências
Metrô
Studio
Thompson
Sib
contêm
1859
Procu
Naquele
contagem
escultor
##ource
Ludwig
escura
fundar
válida
Challen
ginástica
falado
negativo
Mono
Chegou
Ambiente
estabili
##fat
Kit
pouso
##200
Aven
repercussão
Alen
romântico
justamente
##mum
Brad
Comb
Simp
##ciados
suave
originou
Abel
Mina
abra
over
empur
excesso
falecer
impulsion
santuário
polo
Marin
repri
Rotten
equipado
incluídos
sobreviveu
##âmetros
espont
Dinastia
Terceiro
suspeita
executada
formações
Pros
abrigar
alum
laços
acusação
##bios
autobio
cabel
Montene
##jan
Gonzaga
1869
lançando
ensinamentos
embal
géneros
resolve
Tau
colomb
planejado
protagonistas
padres
##br
##pop
epí
luxo
despes
volante
parlamentares
expectativa
Recentemente
Stat
Adriano
irão
índices
relevantes
terminaram
Atlas
discre
ficado
Júpiter
##tex
CH
fle
demonstrar
##cêu
##melo
##feitos
mudado
módulo
##ussi
Praga
desfa
Malásia
convencional
Giro
spin
casca
Palazzo
incapaz
convenção
##émon
graf
juízes
atuações
nomeados
sanguíne
##idel
Soc
##pocas
brinca
coleta
Exer
holandes
##tição
##ífico
File
definitiva
##ensos
##verde
eleger
adotada
Giuseppe
Pis
Paci
Ferrari
equações
Pér
Conne
##ference
blinda
sólido
diagnos
laranja
assemelha
##cles
Leonor
jesuítas
##rê
López
Bez
Hills
Retor
armado
retrata
##toriedade
Luke
radica
almirante
Metacritic
iriam
##chia
##music
Iugoslávia
##veland
antagon
Dro
##nifer
##yan
Celso
viram
##zig
Fica
Extra
Transportes
Two
juntaram
bebê
tendências
Berg
Mesquita
manuscrito
especializado
aze
##anhou
tomaram
##haw
##riza
##siste
Sabo
Seis
Nobre
##dilheira
##vó
##erno
##turba
acidentes
##bida
fio
mix
Graça
Italiana
linguagens
operacionais
telespectadores
##disse
1863
English
Seattle
culinária
Informação
pronto
Menezes
junção
tupi
criticou
##eral
##enberg
transportes
consoa
responde
##olo
##teia
preservar
Clau
##dim
##zos
vindos
fras
rebotes
coligação
rapaz
inteira
##isf
Audi
Xuxa
Year
intes
espéci
judeu
Cooper
saindo
Ocu
##tivismo
Spa
##ffrey
concorrência
Main
móvel
parou
Campbell
Eco
Decla
obtida
Cesa
majo
virada
gráfica
Assunção
##rix
##tiveram
pecuária
variantes
Carto
mere
corri
fibras
consecutivos
##35
##tata
Lagos
bombas
apresentadas
Khan
bateu
preli
Portugueses
trilhas
abandona
Call
Guia
bebidas
permitido
aler
vinda
catálogo
desafios
Stars
noiva
##timento
Project
Spo
meteor
cantada
levados
previamente
consideração
##émios
##óxido
encontros
##cum
ISO
Kate
chapa
desenh
parasi
exportação
aro
##íticas
lembrar
perdida
orgânica
Guardian
bos
dance
monges
Country
##meral
coloniz
governamental
Canada
Técnica
##hers
##burgh
tric
Jeffer
##cond
##stein
Atuou
Bruxelas
Montenegro
##troit
##ternos
Roque
grava
riscos
Robinson
##rd
##parte
espes
emitiu
##ntologia
coopera
lutando
entregar
imigração
pioneiros
repressão
aula
##ômicas
Novas
ciclone
servem
##tol
disputados
transformando
##rose
##undância
vizinhas
fã
tivessem
aonde
##xy
##deais
revelar
Antioquia
Mino
##uk
##sam
cach
desfil
mineração
##IR
romanas
disputaram
comerciante
Kin
Bush
derivada
perfeita
escravidão
oferecendo
tubo
anfitri
brevemente
permanecem
Row
Syl
Pertence
amostras
estabelecidos
##bola
Onde
missa
avaliar
Paralímp
##loga
##hattan
Concer
aspira
polonês
cromos
prejuí
##omi
Fogo
resídu
Detroit
melodia
quadrado
lentamente
Malta
tetra
responder
Universitário
flan
ileg
##DS
Bl
Jennifer
##enação
sessenta
acadêmica
##tons
Saxe
exames
micros
receitas
constelação
abuso
Aristó
efetiva
Presbite
estátuas
embarcação
borbo
incluíam
editorial
mansão
secreto
radial
entregou
patriarca
Regist
tráfico
Ultimate
ocorrida
turístico
fan
futuros
promocional
pavi
detém
Membro
menção
Kas
##laram
##crip
Apro
Maci
##inaldo
questi
Point
aplicar
##ntivo
Prix
file
roch
Lívio
grade
Manhattan
Chel
Brothers
Catalunha
##reos
frutas
sábado
##doria
##vila
Negó
April
Marcus
dramática
Amster
##anie
converteu
##rion
Vul
fina
##turais
coordenadas
Aa
##ello
Etiópia
Shakespe
desenvolvendo
Gent
##matoes
falsa
agrade
referem
Bud
atacado
Every
prato
expressões
##ids
Birm
Nash
##sações
Murray
incomp
intercep
hierarquia
Force
const
devia
Spencer
fraca
Vau
Desa
cuidar
ínti
febre
medir
remoção
tabelas
hospitais
UFR
stre
console
rejeita
protocolo
##ping
into
Evans
Freguesia
##ried
##craft
Amaro
noites
árbitro
depósitos
defendendo
refrão
desencade
##buna
##tinga
contínuo
preferência
irlandês
Miche
critério
anglo
Alente
##quem
##íada
Baixo
épocas
socialista
consumidores
Ria
atl
dem
tanque
##mpor
acomo
cunhado
criaturas
mostraram
##pate
agir
acreditar
orientais
Bós
eng
Honor
estadunidenses
mala
Phoen
pseudo
nervoso
##ígena
Remo
porno
paisagens
revelação
amistoso
##onário
##urreição
assisti
tributo
costumam
##wich
Joy
enga
##versidade
reca
blues
Mendonça
##uke
Hunt
Maximi
##kai
McD
insa
ocorrendo
##éias
##ntalmente
##mácia
debates
oponente
desenhada
##éns
Lil
##drina
expandir
sofreram
Elisa
Valley
normais
palestras
alternativas
sop
Neil
formatos
atualização
raças
Shakespeare
##ett
##mez
Doro
cúpula
##66
##isebol
obede
ativamente
##leto
##dela
Never
soube
determinou
ton
Viva
descul
preparado
##dorf
1857
Kiss
Rail
Petersburgo
##90
##ânime
poetas
horários
Coor
engra
##ladores
Age
controlada
111
##mouth
Fórum
especula
Bizantino
benefício
##esel
calc
pression
1836
Hern
autôno
externas
instalou
##eso
ze
Anal
Bobby
Rober
urbanas
relatado
significativas
##ónimo
bebida
##GS
##ways
##úcha
Bag
direc
quartel
Kill
Extre
fon
##fonia
##élico
fraco
entram
Case
Fame
##isfério
censura
hebraico
renúncia
##chete
Minha
sonhos
Ts
mortais
aplicativo
Iguaçu
Turner
Weekly
romântica
##galo
enz
##dioso
fixo
##issário
Box
Adela
válido
##ats
##ônimos
vazio
daqueles
Cleveland
RE
Maj
conhecem
corredores
jogabilidade
ós
unir
educacional
##anca
##fero
Deix
Griff
Georg
Party
Pontifícia
inspe
list
##ódigos
fiscal
##ough
Haiti
##pologia
Guiana
impulso
Exemplos
Formação
batizado
conselhos
proibição
terminais
##filo
##vura
Pokémon
semanal
##HA
Anda
inovação
##vero
júri
perio
Indian
Soroca
suíço
acordos
câmeras
percebeu
##oler
Sean
Teste
Business
URSS
lucrativos
remanescentes
Teles
epide
Shopping
retro
terão
paralis
promove
tomadas
dei
propõe
Fantasy
pronunci
arca
caro
depo
ameaças
coordenação
engenheiros
##dicionalmente
surgem
Gaspar
impresso
##ppy
salvo
reitor
Mercado
sofrido
reeleição
##bete
cidadania
aquecimento
##ixada
1854
1855
datado
endereço
governou
pênaltis
definitivo
endo
falam
sódio
planalto
espaciais
nór
##GA
##nam
TS
##ncipes
nascente
##íodo
colina
servia
lento
chaves
pontes
treino
subdivi
garantia
proveniente
Iv
Kur
Salom
achou
cinza
irregular
refugiados
Stock
abandonada
Minho
Hudson
projetada
provincial
disciplinas
Sama
gerenciamento
Quase
Mercedes
conquistaram
If
len
rituais
apropria
Ava
##férica
básicas
reda
buscando
##lea
##enes
##pião
##simo
##ísia
##diais
Urbe
avós
Morais
orquest
afiliada
##ulha
quo
##ladél
rami
manual
Madalena
##dã
Peri
Plata
Caldas
monta
Quinto
incluídas
registrados
Lost
Filadél
venceram
enfrentaram
Soli
dinos
algodão
liberado
magnético
Pon
atraiu
obtenção
Ea
Scar
##ápolis
dieta
penas
femininas
Emma
alco
humo
Anima
compreender
outor
ética
##âma
Asa
romp
Verdade
Heinrich
planície
Atlântica
NP
Phy
Legen
apropri
dissolução
##sche
Lorenzo
conduta
meninos
Tomatoes
##dore
Phys
seções
Arcebispo
Esperança
estím
Santar
dinamarquês
demonstração
Liceu
alegou
citada
Rodovia
Filadélfia
##cete
Action
cartões
enrique
ligando
Smack
abó
greve
liberação
##óf
Advo
Lind
preco
troço
##pulo
Sabe
lida
##consin
jeito
##ângulos
estiver
protótipo
bei
Gior
Cândido
absoluto
##onadas
##bera
1856
Scha
Energia
efetivo
definidas
adicionado
missionários
##tidão
Arro
Here
ligas
telas
fotógrafo
##ornos
##andest
Rodol
clandest
receptor
vital
quartos
Cachoeira
naturalidade
##rid
nam
##ntain
Grace
Infante
Wars
Winter
neta
Param
corda
German
Líbano
Rousse
distâncias
classificar
Cook
penal
falada
simula
deslocamento
prol
aplicativos
##rella
aprecia
chances
##garos
atende
cabelos
dialeto
hardware
encontrando
feu
Viseu
divórcio
perguntas
empresários
administrativas
uk
Dilma
brilho
Preside
intra
declara
pseudônimo
Arquipélago
bibliotecas
conspiração
razo
subterr
extração
negativas
terço
Concelho
privados
##ween
##dimen
Hunter
reforço
sobrinha
Linda
carácter
executivos
distribuídas
tons
leves
Arnold
leitor
químicas
governantes
Giu
Leandro
mineral
Rh
seqü
Menor
##instein
Jefferson
##pam
Wer
##cínio
##toras
Lyon
Carmen
desastre
sofrendo
alterar
##médio
Anterior
Wisconsin
organizados
Bei
Pós
##teles
redu
perfu
compres
Original
partilha
##mpeu
Sonic
surgir
gravidez
##át
##ández
Deste
##rágio
Tiro
espi
Comandante
participam
legislativo
Pse
sel
Estê
Forma
quebrou
afastado
falência
##uer
Terry
##uni
##nito
maus
cogni
Orange
dividiu
##rego
Alabama
Ár
Kirk
sério
Gaúcho
abrigo
presas
Jama
Stor
macho
Queens
tragédia
respectivas
Legião
definiu
migração
##quez
Tas
pegar
criticado
Fly
Hur
MMA
usavam
Baptista
##magn
Capita
Vincent
Cia
Restau
##vidência
Teodoro
Danny
escocês
Recording
mantiveram
##timos
Rid
##corro
##âncio
Cícero
polífagos
Juntamente
documentação
leão
concentra
dependente
##taru
nic
despo
Abaixo
##cora
##inário
Perfor
ensinar
voluntários
##lista
##zerba
Cristiano
ideologia
Cis
##cotes
oste
retratos
essenciais
Comba
editada
correspondência
Amazon
Lançado
desaparecimento
polaco
divulgar
##ckle
##under
dano
Ingles
Stuart
expulso
relatou
Software
112
Agro
bater
Estêvão
##rat
Dennis
Tenente
modernização
##quentes
Prefeito
destinados
reconhecidos
##ful
rara
alinha
cadeiras
conduziu
##gawa
Eas
##olina
1858
Sina
toque
Álbum
Alentejo
criadores
justifica
imperatriz
Beth
Penal
Reti
Trini
hábito
isolamento
##cture
insul
negociação
##mera
Delta
casti
demas
##mona
Lex
Kurt
perna
sombra
canhões
Campanha
variadas
##34
##life
##trizes
recebida
Frankfurt
descendência
##mena
sultão
##carre
Vere
patrocínio
Productions
##witz
##podes
Bryan
Insta
arranjo
Ferroviária
Motor
Warren
selvagem
ISS
dri
1835
García
abrindo
orquíde
assistências
##tolic
ecossiste
desapareceu
analisar
Yan
dama
pedidos
diariamente
Bull
pega
##ui
Gaga
Haro
balada
divulgou
verificar
##dões
media
estranho
estratégias
Misericórdia
ajudá
Paraíso
existiu
##érg
##relli
Kane
obscu
Humberto
##lee
Ny
vass
ingre
Harrison
contribui
1852
Seul
Beyoncé
designer
conteúdos
##zam
##ónico
Born
saga
levantamento
revolucionário
Bál
Lara
Saudita
Seguindo
envolvem
historicamente
fide
Heavy
desma
mover
Virginia
##hop
Hig
His
Apolo
Nicolas
salários
envolvidas
trigo
pene
notar
sertane
destaques
##kyo
##mand
tour
negou
aprimo
##ount
##chell
Roth
impre
Africana
circuitos
residente
BA
Blues
adiante
##teb
##stra
fracass
##pondo
Fuji
Josh
Ducado
##adjuvante
parâmetros
acrescentou
##gae
##lay
##von
coral
voltas
enterra
invenção
##ink
1822
osci
Melho
limpe
mista
Santarém
veic
comandada
revo
##idalgo
formadas
elaborado
condecorado
acompanhamento
Cau
Solo
emocional
argumentos
Wu
TC
afo
orden
Missão
destina
1°
funk
##piranga
Lorena
militantes
##telos
Gelo
Pier
Snow
##âmaras
sensu
troféu
operador
automóvel
empreende
Jus
homó
expandiu
Orchidaceae
Tex
fur
##ficácia
dúvidas
Heroísmo
##morou
Latin
Mississi
Hus
votou
fechou
##ralização
poderosos
##pic
bit
1800
comitê
assembleia
Chen
##onaldo
##ânticos
##tolicismo
envolvida
##giam
senhores
Cé
Pea
Wii
spe
Decem
Apollo
começado
sacerdotes
##ules
Galo
Apres
Marta
##entando
vamp
Canta
Guitar
Maurice
Margaret
Psicologia
##timi
Had
curtos
Phoenix
##lent
##ners
##partida
chapé
gastos
orientado
##úgio
##temala
depor
divina
prospe
sustent
rebaixamento
Sacro
Semana
Deputado
quântica
Mois
Rachel
Guerras
argumenta
sá
##cena
##vete
##midos
variar
Francês
filiado
Ortodoxa
concebido
##tolo
Deve
coreo
Noroeste
estabelecidas
##indu
Kam
elevadas
Gray
tomb
1851
melhora
descritas
##ílico
opos
animada
##cionistas
barragem
lac
frust
terminado
box
##cionando
grávida
reflete
representados
##dano
pern
Corrê
Madison
confede
apaixona
##if
##ART
Edge
dioces
Fundada
Negócios
abundância
receptores
Grey
vasos
##ficador
Formou
Guatemala
##pment
mensal
projeção
Tche
boxe
assentos
Masculino
vín
##lador
Azerba
cratera
Bron
mineiro
Aberto
turnês
Arquitetura
##bros
Sri
Arch
Lorde
Vaz
mira
colis
doméstico
rebaixado
##mbre
##çona
##rance
mina
excur
Oregon
amino
Fru
amplia
estarem
Baker
marcante
fór
##ónias
Ambas
Cus
Apostó
elogios
##táce
Scre
Sergio
adesão
creditado
##36
AF
Arco
gerado
sócios
alumínio
assus
reina
Corrêa
traição
guitarras
Observatório
##vidades
visitado
permanência
##39
lad
Asso
nitro
##lection
Thiago
Públicas
##ífica
##quinho
Georges
refrige
##mbu
castan
indire
hábitos
Eleições
Marechal
##gins
avançar
##rói
Sena
neur
húngaro
Contempor
##char
Sales
Rev
une
Mong
separar
nazistas
garantindo
##icon
Clay
Knight
assentamento
##chim
Eth
Dele
care
harmonia
##ópicos
Franca
##vita
praças
SM
Ving
Develo
Code
Atriz
competência
##mulou
Buff
CEO
##keley
3000
pura
puro
##duzido
Bundes
ofício
dialetos
exibidos
Vai
adia
Turim
enche
códigos
prestar
rodadas
##vara
monge
agenda
fundaram
clero
censos
Studies
Macedônia
Santuário
Act
##riota
garra
Ape
Dela
nativo
prorro
avanços
traseira
relevância
Catarinense
proeminentes
Jin
Manh
Prova
falso
dividir
senadores
Hé
exerce
suplente
utilidade
nacionalidade
##48
##dua
##ert
450
##rissa
morf
voar
Bourbon
##izada
Artigo
lendas
contribuir
acontecimento
esbo
barba
Ópera
Ós
Conse
arena
lucro
limpeza
escândalo
qualidades
estratégica
##cino
atro
pará
borda
terre
Leonard
##tono
quebrar
##anger
##centista
triunfo
desempre
alegria
##couver
Peixo
formi
educado
tí
##flix
esper
##led
adop
Andro
cunha
tocada
celulares
linguística
##vente
1853
gato
referente
##bie
Rit
raras
radicais
Botanical
Alva
Mons
Tiju
Laran
Milan
singular
##cionário
Complexo
favorito
Utili
unânime
Shel
Situ
Índice
dramatur
##ímetro
Amado
estimativas
Murphy
Paralímpicos
gay
##distas
Emili
teclado
abandono
Anteriormente
interpretações
desenvolvedores
lema
comandado
##ès
adotar
saíram
Aurélio
Ronaldo
Itu
##presas
Márcio
morrido
sax
votado
##çaram
Caixa
Kings
pisto
discutir
ESP
##ídios
suici
Pompeu
incomum
envolver
imóvel
simult
##cênt
##trar
##culação
elétricos
##vira
Neg
tape
Adolfo
exista
pressu
traçado
profundas
aparecendo
##eo
1820
René
Craig
Desco
Elias
Tommy
usaram
garotas
European
perturba
##ming
Gau
Gian
Chipre
##roe
fisc
##itários
gerenci
belo
dirige
Wallace
mísseis
sagrado
corporal
bandeiras
estatística
220
Fant
Note
Irmãos
efectu
oitavas
referindo
declarações
secundárias
Pul
sha
Core
Titan
##ications
##Down
##icks
##clore
##lidas
Office
comarca
marquês
aposentou
barreiras
IBM
##rícia
Lúcia
praticar
proibido
bizantina
velocidades
CIA
dout
Peixoto
guarnição
Mercu
Aventu
suficientes
Keith
serpe
nesses
##ligência
Naquela
tranqui
andamento
bloqueio
##thor
couro
carreiras
##ppen
procis
Stevens
Território
Nevada
Montana
aclamado
episcopal
Figh
esla
lixo
natação
mistério
dirigentes
##diz
##rilo
Aju
##linar
Lloyd
##cultura
executados
##CH
McM
Meso
Índias
correta
esconde
sintetiz
1849
azuis
December
oferecem
guerreiros
Say
Maryland
nasceram
##kie
##irense
fluido
##chez
1846
Ande
##diciário
Artística
Bert
primitiva
património
AG
##iciano
cristãs
Montevid
trilogia
eletricidade
Obje
devoção
prevenção
complicações
Holo
star
##pido
##ianas
beta
Hesse
tuber
piratas
##PR
##dus
##írem
Irene
##árquico
Silvio
Escreveu
##çal
##chin
##ppel
abal
originária
conferências
Ane
Nilo
doi
##icada
Singapura
##mandade
##ridiano
desafia
}
##ménia
degra
Revolucion
Bren
descritos
ferroviário
##issor
ativista
parecido
Magic
maravil
Side
desvi
grãos
declarada
##kawa
despesas
Pietro
acessível
convencer
recebidos
##távio
Silv
##alizam
encen
afluente
seguidos
Lane
##onagem
destro
Alo
dedos
Mathema
confere
Brooklyn
cinturão
SmackDown
Trabalhista
##gável
cito
idéias
espectá
pux
Kids
Lapa
Rebel
instant
avançada
ancestral
aná
Proto
citados
fí
##alogia
Western
Património
Pad
aviso
repou
Queiro
impediu
aparecimento
##umo
senado
tensões
beisebol
disputando
Gla
PUC
Vars
Adolf
##cadou
saud
Susan
resum
delegado
preconce
tv
Bes
Our
usina
Frederick
Montevidéu
##inam
##pora
sapa
essência
##37
gême
afres
books
prazer
Freguesias
Swi
cruel
Berkeley
July
Netflix
Esquadrão
##arm
Ig
##ívio
Adelaide
farmacêu
temporal
Paramount
milímetros
##LS
tram
colhe
evacu
armados
Teresina
Terminal
pintores
massacre
triângulo
Abadia
encerrar
##rimir
##stros
voca
Angelo
##formação
comprado
Henriques
##teres
1837
Baden
capacidades
cumprimento
Filmes
buraco
sequer
IF
##fatos
##rasili
heavy
remode
##lassi
aver
##gantes
Josef
Julia
escravo
Airlines
acrescent
##iche
Oro
1832
sequest
supervisão
##tistas
Grego
sonoridade
##lova
##zentos
Court
destacado
exigências
dob
Vita
Nunca
Rudol
eficácia
patrocin
fabricantes
##põe
##tier
Moisés
Copenha
atacaram
infantis
##óticas
Factor
pirâmi
avançado
estatísticas
##ason
Rin
estri
marrom
sabendo
obtiveram
permanentes
##ef
Naz
doações
terapia
##ficam
Ganhou
ducado
hetero
ácidos
Oper
Vito
Watson
distor
Formado
Fitz
Utah
sacra
inespe
Varsóvia
molécula
faculdades
fornecimento
clo
Brandão
atribui
elevados
significando
dadas
penet
Passos
tantos
camponeses
iniciativas
ép
##rong
##bular
##erção
extras
apontado
##itá
ore
ovo
Arra
sino
candidata
##gnos
##vico
bico
##minais
Bala
Library
manchas
absorção
relatórios
Reun
Brande
Saboia
Renault
##cast
inj
lus
dueto
empen
ego
citar
compacto
administrado
especializados
##mantes
arquitectura
##quara
Barba
vasto
Britan
recuperou
Sec
Leal
congre
exibir
October
Independente
##orra
##erner
mede
emoções
parente
Vancouver
continuamente
sozinha
Paço
ligar
organizadas
##ppa
Laure
Cristã
insatis
##kas
iP
Hau
iam
album
Águas
ficaria
subsidiária
Fabi
muro
##sauros
túnel
provém
Collins
resíduos
reportagem
Ltd
foge
mape
desistiu
realizam
Sty
##giada
Comen
Fland
Rodolfo
supervision
##zão
Cele
parana
reflexão
Alexandra
Ris
##ciosa
Gabinete
Medeiros
Melbourne
frequenta
herdeiros
##ced
##dulos
Podem
Cortes
mandado
prestes
levantar
criminosos
holandeses
Espanh
expulsão
entregues
Shak
##ômicos
incur
Habita
umidade
oficinas
estimativa
##íaco
Ghos
##tember
palcos
esperando
reestrutura
Foz
Oak
##sibili
Valle
anfíbio
Islândia
contacto
racional
incorporado
Hey
##física
##íticos
##ássaros
muralha
Estrange
apelidado
distantes
sensibilidade
ED
funeral
Raymond
prestação
mencionada
##get
##vere
alon
Empire
Market
solares
barras
Competi
conduzir
empregada
GO
1821
1824
Lacer
versa
plural
##rata
Esc
Café
nervos
estejam
dorsal
Arsenal
inédito
Direcção
MHz
##vável
Autó
##fícies
lagar
##dientes
despro
Igrejas
Pesquisas
##HO
##rosão
##óides
trian
registo
Borgonha
promovida
##ídia
1842
Ernest
Impa
relativo
arquitecto
sofrimento
Laboratório
influenciou
##47
##etz
##ged
Fama
desfe
marítima
Primavera
norueguês
reivindic
##enal
1844
debu
Córdo
frontal
visíveis
apaixonado
##áus
BM
rodovias
Azerbaijão
reorganização
##ixon
##mall
##jornal
Aveiro
Granada
##illo
240
turma
Six
##usões
califa
jantar
montado
Discovery
##rald
##dinal
Florida
precoce
predominante
Bola
imag
debaixo
consumidor
Pink
Obser
vogais
conveni
dívidas
medição
barreira
Darwin
defesas
diplomata
discor
Service
##gressista
Francisca
participante
Fontes
deso
Helen
reuniram
Jonas
geografia
Ref
##quérito
##plicação
concorrente
DF
RPG
fri
List
afun
alvos
residencial
assassinatos
##dig
gent
Vanessa
##urg
##cessed
Gilbert
##cat
##ónicas
apelo
felicidade
interações
notoriedade
transportar
##lice
##aming
Boni
item
##gement
Check
Roberts
reabili
##entimento
descrevendo
##nimo
Escu
Armas
ambici
enormes
imperadores
Stein
graça
1839
excel
Spears
generais
sci
petro
##ivas
Caro
haveria
empregos
tit
only
January
graduou
Petrópolis
conquistada
##mune
Garo
##atorze
Espaço
Urbano
homenageado
vés
Inês
gótico
preven
Planeta
senhora
Anas
propul
Revolta
criatura
arrecadou
fabricado
navegador
##98
Ora
Chron
inaugurou
escavações
Osa
muros
Kie
Resultado
federação
##mendou
instalar
pernambu
AT
##icar
Lili
querem
horizontal
##itável
indis
inflores
fechamento
##HF
##eda
##hin
pedaços
##irs
was
Multi
fisio
adaptada
embaixada
Mississippi
##tarco
Berna
televisiva
##fro
Serge
naves
ídolo
sorteio
##tibilidade
descobriram
##litos
##sadas
Slam
ador
Ernst
leito
Mitchell
semelhanças
##ius
##derno
Anci
Julio
Patro
alusão
equilib
tratava
Gó
##borg
##túbal
Swift
incre
Setúbal
acabaria
nascidos
provocar
duro
##ilão
nomen
antigamente
Nada
Júlia
pratos
guardas
comunica
Resolução
##iat
##psi
##talas
##ícies
Ator
glân
MO
locu
rada
Australian
##kis
Wen
Funchal
##mour
regência
reorgani
gaúcho
##jal
##vra
tenho
suportar
cancelado
subsequente
ye
Med
conting
Salomão
##rorre
Dante
persas
Novem
reencont
##phie
SIC
##ênios
continentes
##crates
papal
##dicamente
distinta
veterano
perfeitamente
Crow
forem
reclama
Pás
##fismo
Sene
##mil
##bran
##rativos
consulta
Athle
restaurar
adaptações
Havaí
tesouro
regimento
Presbiteriana
CT
##jano
Hos
Bridge
exercícios
identificados
AV
DO
##zano
Obteve
cultiv
docente
1808
##rinhas
foguetes
Ní
##ançou
##bando
Copas
Gabrie
Voltou
redação
combinado
povoamento
##46
##UP
Chá
mila
desent
governadores
Nik
incorre
cardíaco
profission
##ab
Poe
exci
Summary
descobertos
Rural
endêm
espar
front
roubar
distinguir
Gara
Nikola
barroco
economista
uniu
##monial
##timore
músculos
príncipes
têx
Cambo
vigil
Wonder
forçada
causados
renomeado
remake
testamento
vene
Gonzá
Usina
terap
122
##dinho
1833
Cano
Tess
derrotaram
##cock
Pru
Cairo
Carlota
Navarra
estamos
Benedito
poluição
Sc
firma
Jessica
alterada
usualmente
Zan
1845
Tejo
Castle
hotéis
Mosco
anéis
Antoine
circuns
pacotes
Aristóteles
Diri
poderão
denominações
substituídos
Font
##denses
Jules
##inville
Dublin
térmica
destruiu
desempate
expedições
Situa
Animal
aborto
Flandres
casamentos
##vet
Fio
Steel
##alificação
superfícies
lepid
gostava
inclinação
certificação
##neo
ul
##rativas
##olerância
PL
##elor
Dru
ensinou
preocupações
Xi
fenó
Horta
Salva
Soccer
bilhete
retrans
imediata
ingressos
domésticos
1828
Yang
Lança
##cípulos
Futsal
ciclos
Mariano
Pete
Augus
incen
tirou
Living
encomenda
Jér
1847
pesos
Claudia
##ggio
##iral
##rard
MV
##mons
##tones
bares
Escrito
Pitts
Simão
nuvens
assesso
Almirante
medievais
conservador
Reorganização
freqüentemente
##aux
##fir
##ked
##thon
engan
ergue
incer
condução
revelando
##ías
##litz
##rass
##clude
provi
típicas
Coro
Glas
vales
correu
fictícia
Histórias
visitante
Constituinte
contribuíram
característico
Bach
Obama
##tebrados
telhado
September
##base
ini
Habs
astero
comboio
fictício
dezessete
colaborador
##vô
##fologia
Chance
Secret
remover
progressivo
reconhecidas
Gur
mando
Menino
##up
##cúrio
Auro
Model
Shado
detri
paróquias
provocando
distribuída
Vôlei
Amigos
Chelsea
Ambiental
descobrem
pescadores
##star
Ponto
Simone
Lacerda
consorte
Sacramento
ilustrações
TR
frases
vigário
sú
ás
Ocorre
decidem
patrono
atentado
colecion
lealdade
interessado
##ligen
Hisp
Tecn
##mentados
puderam
anunciaram
Hughes
Saga
Desse
Nicholas
condessa
prestigi
percussão
atravessar
referentes
##vé
##cinas
archi
avista
Ginásio
Pacheco
aguarda
denominados
mega
Póvoa
externos
comentário
##álv
ido
Emily
raros
houvesse
~
##kura
Key
Luigi
Albânia
advento
compete
liderar
violino
sentidos
##lú
USS
evo
Evan
litu
Money
modes
monet
Acordo
estrea
Austra
celebrar
cromosso
depósito
astrônomo
LGBT
invadiu
##itsu
##fusão
hisp
##stream
entende
brinquedos
protestante
lepidópteros
′
mét
##zimas
herdou
Colombo
gravaram
expressar
##lidariedade
##ols
##leira
Episco
Planalto
##doras
Passo
##tiveiro
Almada
Bósnia
Placar
crânio
##tamentos
Baltimore
Capitania
##ii
Aaron
Honra
Biblio
enzima
Lituânia
banho
supera
ruim
parto
mentais
espessura
administrativos
##dure
1831
##ordânia
primor
Machine
dominar
jogaram
Tropicos
Libertação
##sua
Place
Vidas
nariz
Luanda
chefia
suposto
Cinemato
##mbul
prede
##include
rebelde
November
exemplar
dirigente
desenhista
##38
##turb
##livan
Cameron
teórico
comandos
círculos
escalada
comparada
desenhado
comportamentos
##nodo
González
recompensa
##racha
deterio
converter
administrada
##game
##óide
datam
villa
trailer
GT
ódio
Fernão
artísticas
##xu
##ntin
##letim
arbus
provou
influenciada
infil
secas
complexas
Vou
fant
pelo
##itadas
Armada
materno
telefonia
##nen
##oud
ana
Lance
Store
explora
##ncialmente
Princeton
secundários
##istem
Tyler
crônica
estranha
obrigados
capturados
NO
ava
caindo
Cavaleiros
vigilância
##tru
##kian
##naco
Hear
Doctor
Engine
querer
crescendo
##EE
Céu
Deep
luzes
dragão
visões
Alterna
Hermann
alimenta
convertido
prisioneiro
Rossi
Trump
facção
pesadas
pronuncia
enven
paleo
Cannes
Industry
##endentes
estendeu
encerrando
cros
Chang
Rubens
incide
turnos
Socio
##toriais
concorrer
espíritos
Adrian
cálcio
Christmas
CF
##mores
cate
##duction
##família
Diante
guerril
punição
passaria
##dg
##kate
##ressa
ofer
lenta
preench
republicanos
##band
##prise
Casca
invic
Mercury
ditador
informal
lembrado
expectativas
representava
##iki
world
estará
Queiroz
Germânico
instalados
subsequentes
Alonso
Estatu
nessas
Monumento
Kol
##tível
defendia
governar
especialização
##how
##áce
##mpar
##velt
Peso
lobo
bando
futuras
inédita
sujeitos
ordenação
agricultores
##kat
almo
Suprema
irlandesa
submarino
CL
Days
ater
inaugural
UD
##rital
voivo
##íqu
ov
##cape
##mine
Drake
dissi
Marinho
fortificação
230
Doce
Roose
traças
Direção
Express
Mission
Período
correspondentes
##ássio
Mete
##itânia
Sweet
mecânico
militante
sê
pétalas
agropecu
##saro
##ntora
Consel
gastro
implic
Fundado
classificando
##xá
fero
Alpha
Hélio
nascer
gratuito
##rah
Coloni
Michelle
Processo
forneceu
homônima
holandesa
Conservatório
##mata
Bea
Dog
Goa
Wür
Denis
Zurique
Espi
desor
batida
percor
##utas
Jesse
##química
Leiria
Historia
##tori
axio
Palat
diferencial
Cale
Alber
Quint
emigra
Lock
cilind
nestes
venezuel
permitiram
interferência
desvio
Philoso
##nse
Ruth
##síveis
Bolonha
listados
bastidores
neerlandês
politicamente
##hai
Alba
subje
Harold
negociar
cancelada
sucessivamente
SD
##íbal
Voz
Alasca
Kenneth
desconte
modificado
estrangeira
identificada
##sky
vara
vencida
wrestling
aprendizado
Dul
duo
1838
mudo
Sorocaba
gravados
aproximar
acreditavam
empreendimento
121
votar
ajudaram
##igrou
relí
Campus
Sindica
adeptos
conseqü
conspira
convencionais
##kelo
Luna
palha
Ângelo
Division
disponibilidade
##BB
insti
explíci
quatorze
assinaram
Hoo
cari
Diplo
Ralph
obtém
##dinâmica
evitando
##fel
##vro
CBF
Dylan
cadeias
Stanford
suspense
##continental
presidenciais
aconsel
Ota
coragem
Considerando
##iclo
##ratos
##colate
Noronha
interino
Reed
Woman
Orleans
artísticos
perceb
historia
experimento
Gard
partindo
Bai
Pha
doou
Lombar
ganhos
cativeiro
tripulantes
Ice
lim
afastar
setenta
Profissional
editores
nomencla
ultrapas
arqueológicos
##tock
Chil
Núcle
pasta
Italia
golpes
típicos
Rondônia
contratada
Too
1815
casaram
filogen
obstáculos
Tsu
Pseudo
apostó
joelho
forçando
inscritos
##pua
##assa
##fácio
##ntista
belas
blogs
prende
caverna
Politécn
Legislativo
Imedia
motocic
vermelhas
Von
Harper
comemorar
periódicos
trabalharam
Gaia
Three
Person
europé
pilares
congresso
##cuo
PTB
Tag
donos
intervalos
Aníbal
Falcão
atraso
marechal
narrador
sindical
violenta
Catherine
concorreu
##nier
Sega
When
##inista
audição
contribuindo
##lle
##zim
##gart
##onista
Bastos
Platão
Condita
luminos
sonoras
atribuídos
##32
##enza
teatrais
##tube
Read
drena
partícula
quantia
costeira
misterioso
intimamente
Afro
errado
gramática
comediante
subtropical
Kor
pig
Reyn
ringue
forçados
recorrente
socialismo
##saram
1841
Psycho
Quebec
cobrir
doentes
ginasta
##mark
Sey
Deli
Emba
comunicado
##UD
##zava
Sítio
##minster
Middle
compõe
processador
laboratórios
##ied
##vém
rugby
Máximo
desfru
Italiano
transformações
##irem
ria
##cisão
imper
Escolas
motorista
superando
die
cafe
##itenta
imóveis
consagrado
desenvolvem
##ap
Eram
Vala
##rículo
Gália
livremente
##body
CDs
Mesa
hits
irra
trocar
##riosamente
habitação
##diversidade
Spar
variando
Democracia
pás
##dando
Inclu
chamam
Sevilha
libertar
procurador
selecionados
##chs
##stal
Log
Alca
##lhando
Emira
relacionamentos
##rill
prevê
Holmes
egípcio
predadores
impressionante
move
##cípulo
conge
exibe
Asiático
Nacionais
empresarial
##SC
Ae
##posa
##wers
Fria
usos
Allan
fígado
##mentista
Brigada
ruptura
Figueira
japonesas
carnavales
proporções
testemunha
##hidas
roman
forçou
Clinton
abundante
divulgada
Hul
ares
Emílio
vulcão
Special
history
Publicou
dominado
assistido
ferimentos
nacionalista
pôr
##ncios
##cursor
vendo
Philli
Proble
premiada
Ista
Ellen
filmagem
Zh
pôs
Nazar
constituir
Was
lute
##alizão
##ticais
Guarani
Londrina
pássaros
negativos
sep
##ladel
Bale
Nancy
##kelodeon
materna
logotipo
Mexic
ricas
Mônica
perifé
separou
Produção
invasores
seminário
##Re
relu
Anato
costumava
##árze
Rogers
celebridades
nin
osso
pânt
Camilo
Centre
estacionamento
##bato
##ólio
##gebra
Jake
Leip
Veloso
refúgio
doméstica
intenções
Bartolomeu
ancestrais
atribuição
decadência
sobreviveram
Stalin
minimi
polones
Renascimento
Ip
Cena
imedi
fungos
diminui
Cop
nossas
desporto
##lart
Gem
Filha
familia
Resultados
coordenador
constituindo
Cape
Mota
etno
taba
promovendo
Cec
##endor
Punk
válv
Atlantic
habitada
uruguaio
Châ
etnia
discípulos
oriundos
Cuia
comboios
primárias
Aeron
exposto
centenário
##pler
funcionou
##rculo
Vítor
macro
Cássio
dourada
Capítulo
solicitou
Nele
mosa
cláus
Forest
desgas
legenda
Álvares
libertado
Couto
##queiros
mortal
sobrena
disseram
ingressar
turística
prioridade
##lav
##jadas
esquadrão
tribunais
##róp
##ards
fria
Bacia
Carro
assal
trazi
úteis
contabili
##unham
Esteve
caixas
Aparecida
integrando
complementar
##49
soul
diária
tocava
Jamaica
Pelotas
concursos
operários
levava
vulner
aquando
IR
##cole
ecli
anato
##CE
##quet
##hoven
dignidade
dicionário
Nickelodeon
modificação
##tit
##dier
##sios
##talo
Chuck
quanti
England
piscina
Biografia
Roosevelt
interiores
io
Fab
Carre
Acadêm
Deixou
celeste
traduções
##çá
##rone
##tolos
Protes
altern
catolicismo
##tite
prós
atesta
mantêm
Rangers
desinte
continuava
pensamentos
##nix
ente
moça
Claro
Rodrí
feste
Moreno
##oy
1843
Ellio
baila
ocasi
engloba
Lombardia
proporciona
Comunicações
conservadores
##eth
Ida
Nin
##maria
Horas
Lemos
reduzindo
locomotivas
Aux
##trans
Chie
pertenceu
##cionalidade
excelência
Ring
Field
elefa
hóquei
##sue
Cold
##lizada
suspende
regressar
##vias
##clave
Evil
Quer
##dencia
##andu
Cow
Hoff
Pack
navais
tração
Sullivan
destinadas
finalistas
##raz
##anema
Esti
raiva
County
Médici
obstante
alcançaram
israelense
##IRA
##canos
Lins
Roll
ines
posses
monstro
atitudes
aconteceram
##emia
FBI
##clear
teor
estro
humani
Delgada
Participa
Exteriores
Kha
nativas
oficina
sacrifício
consistente
Ruy
bul
cardíaca
muscular
##ended
olha
Tokyo
demar
droga
Terras
Rodríguez
Sebastian
antiguidade
privilégios
##ní
##nel
sy
##rete
RIA
Óscar
Exerceu
suposta
##Co
##vance
Ranking
Istambul
Johannes
celebrado
concentrar
##WA
Gall
envel
impede
mostrava
##jin
Oc
1825
santa
subida
##tangular
indicados
##restle
pódio
Classic
clássicas
##venis
copi
Bowie
Draft
Empre
Alcânt
seguidas
voltaria
##LE
##cun
Shu
##dulas
##turando
trazia
prémios
testemunhas
##TU
##oul
##cono
##quelas
pontas
##ralidade
consultor
estudado
##olar
Volks
deixam
queijo
eclesiástica
##tola
Zeus
passeio
rápidos
reconquista
Daw
Crea
Nathan
Eug
##guage
##mínio
##rench
Paus
Aleixo
isolada
edificação
##sy
##aren
##istics
##ígenas
lucros
triste
##tencourt
##mentações
ocidente
one
##munho
Cantão
Paixão
##ntrional
incrível
precurso
##wara
Edifício
aren
citando
##kia
##kota
210
Juda
Mann
##canti
Omar
seio
folcl
filósofos
##lete
Karen
feijão
Declaração
Teó
angl
espelho
habitual
referendo
incidência
##CC
cotidiano
astronomia
Gé
ân
##ends
##shire
Assass
esconder
Connectic
Hea
Tin
lunar
Emanuel
Canadian
§
IDH
cléri
estrear
psiquia
Sintra
movimentação
##Pa
##amba
Tira
desmo
Aliados
removido
protegido
ginásio
calcular
conjunta
Nero
ordin
Africa
polegadas
Connecticut
##dei
##itol
Alej
alerta
Bonaparte
##laria
reple
Warrior
presidiu
degradação
plantações
NY
##clus
seda
##perado
pneus
concei
mineira
cardeais
monstros
acidentalmente
##mosa
energ
litros
carrega
julgado
limitações
##PS
MD
##lizar
Creta
Nation
adaptar
##umbi
Olga
sensível
paulistas
Performance
##yuz
##tices
##verse
1823
exata
neutra
seguros
distúrbios
turísticos
##ded
##pice
Drama
##entados
Homens
interli
##aneamento
resgatar
dedicados
FER
##enstein
Cuiabá
bilhão
larvas
recebia
Mestrado
Rel
casais
primos
hipóteses
incêndios
##care
##agens
fuzi
Desem
Paiva
subúrbio
arquitetos
Faust
racial
imperiais
my
##ilhas
Alco
saem
##ventus
##óptero
Thunder
antecesso
Gay
##tanos
matu
Plínio
Alcântara
##mani
TNA
UOL
##ácios
francis
Liu
Excel
Leipzig
Wrestle
serviram
praticado
Comendador
mortalidade
Bart
Pérez
Divino
enfrentam
estudantil
correspondem
matá
Betty
jogada
inovações
##visa
galáxia
todavia
atribuiu
Edimburgo
cerimónia
Imperatriz
##hoo
##pit
Yosh
ritmos
colecção
conexões
jogadora
partidários
##ió
##tizou
motiv
Fighting
sobrevivente
##feria
Publis
terroristas
red
##gradas
Casti
investir
transferir
comandantes
1801
fibra
Roland
Patinação
espanholas
observador
Ney
afeta
desejos
comandar
##fus
##lius
tinta
##ertação
Sandra
erupção
dramaturgo
##cules
Soyuz
classificaram
##ev
Horn
meus
Bacha
Febru
Uganda
Inglesa
câmaras
bacharel
peregrina
stu
##dilha
Lava
harm
flutu
inserido
parcerias
literárias
##jaram
Equipe
##sonância
suporta
correndo
divindade
##dine
Harmon
Nazaré
Barroso
Director
terrível
pertencer
##lir
##gang
folk
After
Anjos
comercialização
Rib
elo
rotu
parcela
Technology
brilhantes
NA
##canã
##tell
##relado
corro
##étricos
Ferdin
vilões
emitido
erguida
dublagem
estariam
##bão
Trá
##cídio
##enson
gesta
porce
Potter
cruzeiro
distinto
promotor
capitalismo
regulamento
##cares
Hardy
Müller
relança
dedicação
finalização
##GB
bla
Tanz
fara
sabo
perpe
desapro
servida
selvagens
##hosa
notou
##fur
Fres
atuam
duelo
teatros
planícies
Wellington
equivalentes
##ctric
##naldo
Gibson
Louise
Edwards
tropicos
honorário
consolidação
##zeres
Mogi
cacho
Aplica
interc
Cartoon
Electron
derrubar
##risi
Goulart
violação
##sten
Basket
positivos
##coslováquia
PE
aven
cortar
gerada
estádios
invasões
##tp
##ranas
agen
Autor
##FS
morais
violento
Qa
Seve
buro
colun
##licidade
emprega
Sistemas
1826
neocl
fechar
farinha
ciclistas
esportivos
Local
Espanhol
Conquista
económico
executiva
##ác
Tat
Rios
Parla
melan
verbo
imensa
Antunes
consultado
##roni
Wang
##berger
Jogou
granito
hy
##ener
##cagem
cadá
Nicole
Australia
##fol
Peña
enzimas
masculinos
##cir
##geo
##fila
Harvey
apontam
manobra
decisivo
treinado
adicionar
relançado
desempenha
Nau
##iliar
Dama
didá
surf
Edson
estan
pegou
baiano
Nascida
deposto
finanças
Alessandro
##mendo
Morn
pací
Dança
lance
Future
Nature
autent
dispen
Mountain
folclore
##main
750
jogava
jurista
eliminada
unificação
RO
Avis
Hara
Tric
##áutico
Guerre
argent
Controle
alimentam
suficientemente
Mys
##entam
##ub
Araca
Films
achar
cloro
lendário
designados
##say
eleg
Systems
Plutarco
discípulo
instância
Miz
batismo
Sinfônica
Westminster
##íl
##tty
##rent
metral
Sciences
animados
sugerido
investidores
##jé
##rö
Bé
estili
cortado
TH
Mila
Rora
work
Colin
Preta
memor
átomo
##rioridade
fidelidade
missionário
intervenções
significativos
##bad
PN
Fes
PDT
turca
idosos
Juventus
##PE
molus
Amélia
correto
condenados
##inge
Budap
curvas
fortificações
##lera
Rab
exist
Livros
Qualquer
afastamento
##57
##enove
##ulado
borracha
observada
sustentável
##oshi
Espada
Cascais
Finanças
destinos
Sele
Devil
desva
fitas
eventual
testemunho
Kn
##orum
Maracanã
##cacia
sincro
origina
renomeada
fisicamente
##mat
Tak
Bent
Parma
eléct
Report
burgues
##XT
LA
Salto
Nenhum
Crit
Patr
cape
Chase
Abraham
cálculos
combatentes
obrigatório
ingredientes
Lig
bir
##litas
derra
plant
realismo
sugestão
afluentes
acontecendo
Cun
PDF
1789
Crise
hospita
ró
##sian
Nação
daria
glicos
interessados
batidas
largamente
homossexuais
caos
Mozar
oitenta
realista
reforços
esportivas
##betes
##nderg
silêncio
advogados
hemisfério
construíram
1812
fatal
rotina
culminou
incluíram
Sai
fac
##barão
##gatas
##sauro
mali
sofrem
cercado
outrora
moderado
##fio
Mona
Woods
Pequeno
extingu
moderni
revitali
GE
##cota
##etta
Aurora
February
telenovelas
discriminação
Today
exigiu
heredi
espalhou
algoritmos
pertenciam
##midt
##enzie
Mayer
##amentos
Sancho
autênt
desejava
inventor
##BR
Oz
##gila
##vski
##hausen
plebe
Núcleo
Assuntos
##ła
##pida
rati
Bueno
Luzia
ouviu
minoria
atributos
£
Liz
his
Nosso
Speed
Theory
inflação
Amapá
Fabri
Eventu
Sarden
muçulmana
AA
##nais
Ando
Noel
certame
escrava
acabando
marítimo
dispersão
Nil
pleito
##nic
##úbio
vib
##fredo
##visível
Maríti
fornecem
Jaci
Manu
íons
Tribun
Cecília
amoroso
escasse
domingos
##97
##yat
lê
Igu
Dale
Hope
Peda
mail
síla
durado
contatos
wo
##tole
Tul
##racões
eixos
cristais
disposto
pioneira
incorpora
##diovis
angol
Madame
atrapal
Christina
registradas
##isi
##rául
Hipó
stan
##gur
OT
Mec
##kinson
mágico
enf
Turing
cinzas
potenciais
UNI
##oniais
HBO
Pont
étnicos
herdeira
Sindicato
transpare
verdadeiros
##ficante
notada
isolado
##gás
##utili
acho
Abdul
Plant
cantos
manufa
montar
Elimina
Arru
acas
enver
esquele
teórica
geográficas
##loss
Shaw
India
Sandy
##cession
testar
gasolina
##tial
Sei
mou
Especi
chamas
Philadel
marinhos
projectos
trabalhador
##bé
##xis
esqu
piores
##ciplinar
discursos
transferidos
α
Randy
desar
tubos
##rangular
entorno
asiático
restaurado
visualizações
Ö
ko
anjos
manto
Comuna
flutua
tartaru
paranaense
##gler
Belle
##ritário
Recrea
contex
fantasma
Campeonatos
astronautas
especializadas
##lora
Cré
Jurí
vetor
##olítico
##osidade
Pacific
extenso
Fernández
Talvez
##aneamente
voivodia
##ange
Ocean
Aldeia
Enrique
criminoso
padroeiro
##endia
Shor
erguido
biológica
Pittsburgh
Antiguidade
##bias
##tiful
##hammad
Butler
vingar
Android
egípcios
obrigação
diplomáticas
##bais
##zaro
Kun
##chevi
##fried
chapéu
Juvenil
conclui
desespe
aumentado
##mética
nestas
formais
##wic
##bica
Gus
Koso
vela
Ontário
esquadra
islâmica
levantou
Normandia
espalhados
##cistas
nuvem
seguia
Alencar
marcantes
conservado
estruturais
−
Púb
Yel
abel
Babil
##itações
depres
acusados
antepass
##badas
fará
Homer
Meneses
Encontro
##kus
##mões
Taka
Ward
dobra
porco
IGN
Slo
XXX
##arque
cogu
Tijuca
convenceu
##rax
TN
Bin
sina
Pante
Village
prometeu
disponibilizado
pente
Dragão
obrigou
precursor
##emi
##dequ
##rice
Caç
Amar
dubl
jogam
pedag
Arnaldo
Einstein
finlandês
##dit
Odo
Chry
Beren
lagoa
Martim
tocado
##cionismo
Círculo
guerreiro
Justiniano
Development
FO
##bero
##ágio
Maz
mari
medic
Bronze
aposta
mundos
mídias
interfe
cruzados
relativas
##yi
Ltda
Selva
artesanato
suprimentos
prosperidade
Pearl
gravemente
##kal
##guna
Ner
expo
Páscoa
##som
##ène
Gh
conflu
detecção
artefatos
helicóptero
##ffi
empates
reforçar
Orientais
Restauração
consecutivo
##ely
Bee
Rep
cab
##ódromo
mitos
situados
femininos
grafo
ruído
descan
ampliar
complic
heroína
Jerônimo
escolares
comercialmente
##econ
Sna
eds
Conhe
Guido
perdo
Nassau
##inamento
Eurocopa
cobrança
##uar
##mpton
##tivista
Castil
Inicia
executadas
legislativas
institucional
##quen
Owen
Viol
acopla
apoiada
marinhas
individualmente
Gang
##ômetro
Galvão
levanta
músculo
paralelas
desembarque
##glio
exage
Públio
detetive
Biography
manipulação
##ribe
##itice
liqui
valeu
##turação
Árabes
Tibério
##vidamente
deputada
##ptera
Timo
Conso
roubo
falhou
Comédia
vermelhos
intermédio
##ccio
132
##cinho
Fala
Gana
paisag
sólida
evoluiu
costeiras
resultaram
Bic
##garia
Lomb
Meyer
bacte
power
vinham
Episcopal
classificações
##iada
Bás
senão
Humano
decompos
fotograf
relativos
administrar
##chio
Kre
Infer
Stark
##enciado
encabe
Springs
facções
mantidos
situadas
comentarista
1814
vinil
anúncios
Geográfica
Sardenha
planejada
Estudantes
##flu
##tira
##cença
Civi
Survi
ausente
##nderground
posicionamento
##dera
Ble
Psi
Tang
estadia
Interpre
procissão
lé
##danha
##úrias
Godo
Lucy
Yale
##assâni
ocupava
matemáticos
Cô
1810
quero
Herman
dominada
Buda
##e
##a
##o
##s
##i
##r
##d
##n
##t
##m
##u
##c
##l
##p
##,
##g
##v
##.
##f
##b
##h
##ã
##q
##ç
##"
##1
##é
##A
##0
##C
##E
##S
##á
##2
##z
##í
##P
##M
##-
##9
##x
##j
##B
##O
##ó
##T
##D
##R
##)
##(
##F
##I
##y
##L
##G
##8
##k
##N
##ê
##3
##5
##J
##6
##4
##7
##õ
##ú
##H
##V
##w
##U
##:
##/
##W
##â
##K
##ô
##;
##X
##'
##Q
##Y
##Z
##É
##%
##–
##Á
##_
##”
##“
##]
##[
##&
##—
##=
##ü
##?
##!
##°
##$
##Í
##ö
##’
##+
##è
###
##ñ
##»
##«
##ä
##|
##>
##ō
##<
##Ó
##à
##*
##‘
##Ú
##ć
##ł
##ā
##•
##а
##š
##о
##α
##ø
##ū
##Â
##ë
##и
##́
##æ
##е
##н
##ı
##ş
##č
##Ã
##å
##р
##′
##Ç
##ο
##ß
##−
##ï
##ا
##в
##с
##ă
##μ
##ń
##ς
##ρ
##ν
##л
##}
##к
##×
##ī
##ò
##т
##~
##ε
##ι
##Ö
##τ
##§
##ð
##£
##î
##Ê
##€
##β
##λ
##σ
##{
##·
##ل
##→
##ž
##ː
##π
##ğ
##Š
##ș
##†
##ì
##\
##@
##κ
##ý
##д
##ś
##ù
##Ô
##י
##ي
##м
##ر
##`
##γ
##ē
##ω
##م
##Å
##û
##Ō
##у
##ن
##η
##ו
##δ
##ę
##й
##Ü
##Č
##ί
##θ
##±
##و
##φ
##ч
##ό
##ب
##υ
##ə
##ה
##я
##ě
##⁄
##ά
##г
##ー
##С
##د
##^
##ą
##ר
##ř
##Ł
##Ž
##œ
##ь
##б
##א
##®
##Î
##İ
##Ø
##ő
##К
##п
##ל
##س
##Δ
##ы
##А
##Σ
##χ
##ż
##М
##з
##ン
##Ñ
##Ş
##έ
##Ś
##ḥ
##Æ
##מ
