[PAD]
[unused0]
[unused1]
[unused2]
[unused3]
[unused4]
[unused5]
[unused6]
[unused7]
[unused8]
[unused9]
[unused10]
[unused11]
[unused12]
[unused13]
[unused14]
[unused15]
[unused16]
[unused17]
[unused18]
[unused19]
[unused20]
[unused21]
[unused22]
[unused23]
[unused24]
[unused25]
[unused26]
[unused27]
[unused28]
[unused29]
[unused30]
[unused31]
[unused32]
[unused33]
[unused34]
[unused35]
[unused36]
[unused37]
[unused38]
[unused39]
[unused40]
[unused41]
[unused42]
[unused43]
[unused44]
[unused45]
[unused46]
[unused47]
[unused48]
[unused49]
[unused50]
[unused51]
[unused52]
[unused53]
[unused54]
[unused55]
[unused56]
[unused57]
[unused58]
[unused59]
[unused60]
[unused61]
[unused62]
[unused63]
[unused64]
[unused65]
[unused66]
[unused67]
[unused68]
[unused69]
[unused70]
[unused71]
[unused72]
[unused73]
[unused74]
[unused75]
[unused76]
[unused77]
[unused78]
[unused79]
[unused80]
[unused81]
[unused82]
[unused83]
[unused84]
[unused85]
[unused86]
[unused87]
[unused88]
[unused89]
[unused90]
[unused91]
[unused92]
[unused93]
[unused94]
[unused95]
[unused96]
[unused97]
[unused98]
[unused99]
[UNK]
[CLS]
[SEP]
[MASK]
##en
e
##ar
##an
##ak
z
##er
,
##at
b
.
##ko
d
##ta
##in
##it
##al
##ir
eta
h
##ur
##iz
##ik
##or
##on
1
##re
##tz
##te
##il
g
##ako
a
2
p
##ek
##ia
##et
l
-
##aren
##de
##iren
##un
##arr
s
"
ziren
##go
##es
da
##ten
##itu
m
##ud
##is
##ab
##io
##atu
er
20
zen
##az
ze
bat
zu
##itz
##us
##ts
E
et
##as
##tu
A
B
##ri
200
##ro
##eko
##ib
##ain
##iko
iz
)
(
##uden
##el
n
ar
##ez
19
##os
##ag
f
##am
zeuden
##era
##em
j
etx
ber
##du
##atz
ko
##res
es
H
##au
en
M
##iak
##ean
eg
##ol
##tan
##eh
du
al
zitu
##om
##ul
S
biz
k
P
in
L
izan
G
zuen
##erri
##ail
3
##etan
##le
##atik
##zten
##ai
I
ez
C
##erts
##di
##ea
##ari
##pres
F
##ion
t
##do
de
ur
D
enpres
:
##ertson
4
##itza
##tzen
##ti
##tean
##ok
ditu
##ena
bi
##uz
2007
K
zuten
##tako
hor
T
##ra
dir
lan
em
##um
##akt
##ibo
ere
##alde
N
##emen
##eg
##etatik
pertson
os
##este
zituzten
##ien
par
2009
##antz
##atur
5
kon
den
##ian
##ad
##ide
bak
##aktibo
etxek
##ekin
##uru
##atzen
on
ud
biztan
##and
##id
##tal
beste
##op
udal
##ip
##og
dira
bere
##arre
R
##azio
##amil
##eb
dago
##eak
J
O
##men
##ig
hau
esk
bain
##aturik
##iako
o
az
pro
6
ir
zituen
##atutako
##din
##err
##ation
egin
##untz
##ela
giz
##ala
##la
196
udalerri
##uk
##dor
biztanle
hon
8
##ua
##ist
edo
##arren
Er
##arra
##agus
enpresak
##ut
aur
c
ik
ger
erre
##entz
har
##akum
hir
##bl
ag
egit
nagus
##teko
##oan
emakum
7
;
artean
pertsona
or
##oa
ib
##ic
##etako
famil
199
##ebiz
##kal
sem
##end
##ements
##ebizitza
é
erab
##ap
##ter
gizon
'
Es
leh
zego
alab
etxebizitza
ondor
seme
enpresa
201
##iaren
inaktibo
##erb
##lo
##ara
des
zegoen
udalerrian
U
##to
##ortu
##eta
V
18
herri
##ah
bizi
##mer
##ug
9
fis
geh
as
##mun
com
##ler
##ate
##ki
##ber
##ld
erabil
##tik
beh
##ren
Z
ibil
##ioa
Fr
ald
12
##iago
##aldean
##arekin
era
##ier
Ar
##itzu
##ailu
##par
zerb
eur
batz
##arrik
##tatu
##tas
el
10
##aritza
men
ondoren
##uan
baino
##ma
##aso
bil
##ura
emakume
lehen
##ina
##arik
##tze
zerbitzu
##ed
##ude
##gailu
##aur
esku
##opul
##kin
horien
##lako
##erako
eraik
bakarrik
16
1999
ibilgailu
##tasun
##arreko
##rold
adin
##im
ing
##abe
##qu
arab
aktibo
dituzten
##ement
tx
##untza
##aria
biztanleak
##mendu
/
le
##tzeko
##arri
##opulation
##roldatutako
etxetan
##ka
##mune
##ial
commune
Al
15
ab
##tx
##ch
##talde
##oko
11
##tr
##ubl
ikas
sail
ager
Ber
mende
##its
An
baina
urtean
17
erak
familiak
bakarreko
dute
##har
has
lag
an
##kar
##iar
##parta
mo
pl
In
urte
##ikoa
alabak
##up
sailk
arr
##ald
hand
13
##pain
##atzeko
##ateg
##bor
gar
##ego
egun
14
##itar
##ck
Frantz
##orm
##etx
fiskal
##ekt
gehiago
##isa
##plo
##etik
##ex
##aten
##oz
##itzen
##ations
##idea
##entzia
##ost
X
bestelako
##our
arg
##izk
##da
hiru
##ob
##ei
##itate
W
##erria
##garren
lau
konp
##ram
##urr
##raf
##teak
0
gain
honek
##uts
guz
##ana
talde
##aza
gisa
Biz
jat
nek
ad
nagusia
horre
us
##tza
un
ok
denbor
nah
egiteko
izen
##ot
nekaz
hil
##oak
##ev
azp
id
##air
erabiltzen
##ika
ind
sortu
bigarren
te
##aka
##uskal
inguru
##pu
ba
##etro
##aldeko
##zio
nagusi
##tabl
##erv
publ
prop
egiten
##omb
zuz
komer
komertz
bez
behar
##itzeko
hori
batzuk
euren
##ne
##usten
##ve
##atua
dauden
u
mar
nekazaritza
##ata
##ken
##urg
Frantziako
##ore
at
hartu
aurk
publiko
##arrak
bai
##abeko
##ikoan
##una
##iag
##ezk
##tir
##ervic
##tuak
##ombre
##min
##quip
Hor
gor
servic
Mar
sal
Nombre
services
erres
équip
équipements
Em
##ens
berr
##ux
##ada
esp
bako
##oin
hain
##koa
##ekua
##bat
##lan
##azte
##iburu
duen
lang
##tuen
ondorengo
##he
##ba
##iss
ah
gabeko
##exu
bost
re
##oaren
##ust
##rik
lanean
ezag
batean
##leria
San
biko
nor
asko
##ita
eskualdean
##ism
##endu
##rama
jabe
2013
konpon
##edi
##itan
##intz
##ategi
Biztan
erakusten
kan
Cr
huts
##ban
sexu
##ran
baten
##aile
##ing
Dom
les
it
eman
##pen
##arrera
dait
##azi
urteko
ibilgailuen
##dez
##cl
jar
2000
ageri
pol
El
##ultz
bal
diren
##undu
##orr
1968
okup
pir
gur
han
bezala
herriak
>
log
departa
graf
bizil
aurre
azpian
##uak
<
2008
erag
1962
##ce
plaza
24
1961
erretir
198
##zte
##cti
departamendu
familiaren
arte
araberako
##ete
biztanleria
##man
antz
Famil
pertsonak
gela
hasi
bilaka
##ark
emakumeak
##abez
eraikuntza
##ista
Log
alabarik
mug
##airuan
##tic
piram
ikasten
adina
##king
propioa
aktiboak
sar
bilakaera
oso
denboran
alok
à
##tua
go
bizilekua
rec
ego
##iagrama
gertuen
departamenduan
»
«
pour
##ctive
Biztanler
erreg
##tock
Ch
jatetx
piramidea
bikoteak
grafikoan
adinaren
population
Population
##clude
##kon
Familiak
noin
noinclude
##puis
Diagrama
jabearen
erroldatutako
Emplo
Biztanleriak
depuis
active
parking
Emploi
##ensement
logements
recensement
Erroldatutako
21
nagusietatik
Ir
inaktiboak
langabez
##tur
Logement
inaktiboetatik
bakarrekoak
erretiraturik
##eke
sailkaturik
##identzia
alokairuan
okupaturik
daude
hutsik
##utx
langabezian
esko
aktiboetatik
stock
##tabliss
établiss
établissements
éations
erresidentzia
ek
diru
alde
pertsonek
doan
##ira
usti
##istr
##istor
##én
##tzi
ikus
##af
gizonak
fil
197
##itat
hauek
##duk
sor
##aux
buru
##inen
##uen
##erk
##iers
ustiategi
##ile
##ezi
##tar
22
##ioetatik
duten
oin
oh
sarrera
##iste
komertzioetatik
bur
arabera
##atuta
dagoena
unitate
##ub
dagoen
25
##entzako
##ministr
##iki
hainbat
aux
lagata
kal
##ikoak
##per
bakoitzeko
Pertson
##banako
Rev
norbanako
##olog
23
ig
guraso
##rez
ban
##ticul
##tea
Pertsona
particul
euro
particuliers
28
Euskal
osaturik
batera
mus
30
##ages
medi
##enus
garr
##ula
ap
kok
gutx
jatetxe
etxeak
##bide
##ill
garai
dis
arteko
mediana
##caux
fiskalaren
Sain
mén
Revenus
fiscaux
ménages
Ur
##ioz
lortu
##ezko
##ein
##earen
##alen
Espain
ham
##unde
ip
handi
Bere
##inak
##aio
estatu
##ac
##itik
##aldi
##ric
Or
##ern
##dako
eskola
##ton
##ustri
Eur
##abal
##etar
##if
##rom
jo
Kon
bitar
azken
##gia
multz
bakarra
mil
##keta
Saint
Tx
i
of
27
azal
izena
zion
26
saltze
konpontze
garrantz
guzti
pres
Ex
##tasuna
zehar
##ilaren
##area
produk
hel
jardu
##tes
bertan
its
##iez
As
fab
gehien
bar
Herri
mail
fin
Az
##gi
##eran
##ero
##engo
##ans
kont
kar
buruz
egon
##tzea
guzt
##bern
##ola
berri
##mentuak
sin
Eg
eus
dela
bih
##av
##od
aparta
##berdin
Fran
##eraz
##azioko
baita
publikoetatik
##izko
fabrik
mat
lurr
batez
hego
gazte
udalerria
dituzte
batzu
##oles
##ent
##ku
29
err
eki
apartamentuak
hekt
zela
##tok
kil
luz
Ad
osp
aurr
hig
##itako
izat
32
Erre
izend
idaz
##ang
bo
hektarea
##ay
industri
hezk
##orro
##bait
##ional
##oren
Y
modu
Le
##etak
parte
193
%
Estatu
##ploit
##itzak
##li
agric
Exploit
agricoles
Exploitations
195
40
##dea
La
fabrikazioko
daiteke
##atuak
##ats
inf
handia
kond
Un
##land
##aketa
barr
##untzako
##ron
am
00
kilom
Hir
jarduera
##est
##arte
##atuz
jaso
##azioa
##akas
kol
itz
histor
del
oinarr
w
Europ
dio
##uaren
Par
194
margo
inguruko
##aki
Mon
batek
##eman
##dar
hizk
31
Gar
##atzea
##een
liburu
eragin
##iberts
##tor
ahal
ostal
Ger
adi
##arrek
##asun
bihur
administr
produktu
##urre
la
esan
zabal
##kor
kilometro
gal
idatz
jarra
ostalaritza
Beste
36
ondorioz
ezagu
##ora
bidez
higiez
##gu
##uko
##merik
higiezinen
gai
##buru
mend
izango
##ie
mendeb
##ioak
aurrera
##resn
##tol
nahi
ug
Leh
The
##las
000
hezkuntzako
Hau
##oki
gaur
II
zuzen
##ariak
siste
mundu
##st
irab
form
Batu
##ard
bel
komun
agin
##oh
hartzen
50
##of
itsas
##dal
kanp
##II
berriz
Don
Ne
zir
##ibide
##tzat
jok
Bar
aut
##tzia
joan
izeneko
##gatik
##urren
honen
##ers
##apen
##aina
erdi
kr
ne
multzoan
##ets
##aia
Naf
dom
##dur
##bil
sailkatutako
ematen
est
Bil
##oi
aip
##umen
elkar
##les
zenbait
##ino
honetan
##ona
##ou
##irik
euskal
txik
192
33
##etara
##goa
Nafarr
industrialen
##ano
baz
##arria
tresn
gero
zer
zat
nab
administrazio
garrantzits
lo
gobern
pos
Espainiako
35
metro
aldiz
##aiz
##arraio
horretan
##aien
On
tr
##urgina
eko
##izio
argitar
itzul
##aul
##dik
##dun
bas
hitz
zuzend
prob
##th
##ilo
_
zin
##konom
##une
garraio
denda
##pa
Hala
##omen
En
polit
Ro
bera
##inako
ak
lor
##aine
zien
##der
##aldea
##bol
alder
lur
34
sol
gel
Iz
##eku
dituen
margol
igel
auz
jan
Hon
##apel
Ok
aurkitu
hamark
ama
berez
leg
mendean
igelts
arm
erem
191
min
##atuko
##erio
apain
zio
##ire
XV
is
##riko
irud
uhar
auk
igeltser
gabe
##orre
##atzaile
bihurtu
##lin
##rib
Kar
##ale
pas
komertzial
Lehen
##iek
##tzak
man
inform
##ikoaren
##ge
##zko
v
film
44
2010
60
daitezk
37
Jos
##aug
##amendu
ob
izaten
##leb
inguruan
##den
Os
##iro
##rog
##ast
Ez
iparr
##zitan
##eles
bitartean
Etx
##tel
ten
##iza
dena
##iv
lehenengo
gen
##ailaren
##tain
utzi
sartu
zein
kas
publikoko
##gan
##tuaren
euskar
##atibo
Horre
bab
ekonom
haren
##ido
itx
sen
Go
uz
gara
##co
##rad
##agatik
hasier
Amerik
Ab
##pe
39
##tuan
##ult
Okzitan
dans
hala
##itatea
##ezimendu
ezin
##entzat
Is
erabili
38
establ
hamarkad
ta
establezimendu
##ago
adieraz
ari
##merce
osatutako
atz
##ikazio
commerce
domaine
##aro
##aiak
ordez
antol
##eren
##arriak
##ha
nabar
##ismo
jaio
##pena
##azk
##isten
##eria
onar
##unak
Hori
arren
##atal
Ald
##ailea
mai
48
ohi
horren
zel
ordu
##akin
##ustr
##igarren
Pro
45
bete
egindako
guztiak
koad
##ibidez
bada
berean
bide
41
##ih
Br
ark
##egi
##atib
##ila
Eus
asm
“
##antzia
bul
##ork
”
##zes
##ille
Man
##publ
urt
mon
##ema
##erak
def
Ing
##gun
irabazi
janari
##ond
##oako
akt
42
##alak
nahiz
##tatzen
hiri
##roko
##tuko
##itsi
haur
##tin
##itua
probintz
##all
elekt
ekin
##eratu
##erik
bet
##auz
inter
Am
##katu
##ón
tek
daitezke
##ipuz
##elako
##orri
konts
43
Azken
190
##ende
##ell
orain
zioten
agertzen
ezberdin
Mundu
errege
zeh
il
uste
x
borro
##ariaren
bad
##tzaile
Kan
eram
Gaur
##ord
##bo
##rat
Mad
52
##dura
kide
##ents
##kul
lab
##ec
##enak
izendatu
##atze
##atx
eraiki
horiek
##uka
##pl
non
osatzen
ondo
abes
zah
##ital
##fer
Uniberts
duena
##log
barn
##lea
##arrei
##azo
fran
jarri
##uel
##alean
martx
##urri
##itx
konpontzeko
##egia
kop
##orde
Lo
aurka
##tak
##atura
dez
46
merk
##arraren
Bat
XI
##akoa
##azional
##iter
##imendu
idatzi
Lu
Bi
80
apainde
ho
##ioaren
sortzen
##tt
Car
##ateko
##onom
47
babes
pun
azter
##ey
Q
lantok
##urginak
po
sistema
##ga
Gal
prozes
tekn
##ologia
soz
##arteko
##amen
konderri
ugari
buruzko
tresnetako
herrialde
##arako
ibai
the
##eztu
##ov
##ep
##iarrak
argik
irakas
hiriburu
Ag
##urrengo
56
##tab
##aun
##ax
##ikoko
hed
bulego
op
Mus
##ril
euskaraz
##taz
##iet
jatorr
Nafarroako
Com
##uñ
desberdin
mota
##elarik
harre
##romat
pr
so
bir
su
Ital
##uma
zena
##arrean
formula
ezaug
musika
sur
49
Bel
##tag
70
]
Th
##aion
herriekin
Bo
ezkon
gud
bilak
##rop
Gr
Hego
##uratu
##eo
120
argitaratu
ezaguna
esker
##aster
##und
Err
Bigarren
##ioi
Sh
##antza
Gipuz
ingeles
##etarako
y
##eri
urtarr
batzuetan
[
##teg
##iaz
Aleman
ekoiz
##erre
51
##ort
##ix
##batu
hizkuntza
##son
lagun
indar
nola
##ibil
##ketak
Administr
Gu
##ich
##erran
dagok
bildu
New
informazio
##ente
##rol
55
##tif
##ekoa
Paris
jarraitu
100
zur
Pol
eskain
helburu
##che
and
##oria
De
finantzia
##agn
##ttp
jaur
sak
##atiboki
##aino
finantziazio
gr
ile
##ultur
heg
aber
##ine
##erial
64
iritsi
##ikoen
kos
espezi
–
##tek
##orian
##mo
54
lurralde
zenean
53
zitz
##eto
arraza
189
urri
bes
burua
##stitu
behin
##ultura
fr
horrek
erakunde
Joh
##ekiko
izateko
mendi
ed
maiatz
besteak
musik
eh
##oago
Erres
##ismoa
##isp
##bidea
##tses
##dia
uzta
kokatzen
##urbil
Sal
##koak
Gain
for
##unts
Esko
mugimendu
funtz
##inde
##lu
##eral
herr
adibidez
##tzean
seg
amai
batetik
##ass
##oen
##orn
##III
zuena
Har
moduan
##rans
##pi
jakin
gutxi
ofiz
##aldera
hob
egungo
hartan
##ait
And
eraso
dezak
Okzitaniako
##tero
aurkako
dat
Fil
##aileak
Be
Beh
kopuru
ekain
##iagoa
Gazte
##ere
##imal
##iatu
lat
##pend
Gerra
kateg
erau
##isk
##tzaren
##lex
txiki
barrei
##kari
hasieran
ww
57
Ik
www
##tazio
manten
kap
igeltseroa
##me
zuela
taldea
Europako
elemen
zati
honako
kor
okinde
58
plan
##oc
gorpu
kontr
##rak
erauzte
188
material
##kunde
art
##erro
2011
omen
Af
2014
ex
balio
ots
zents
68
berdin
zor
apir
Baina
filma
estatubatu
##izun
ingur
Su
ia
abendu
##lar
##urra
##lor
idazle
ezagutzen
Est
##irol
##que
63
ide
berts
gog
XX
##ertu
komunikazio
##etaria
egoera
barreiatutako
##pean
me
abuz
ol
Ipar
galdu
itzuli
##alat
txapel
sai
nagusiak
59
lib
##hes
##atiboak
zurgina
hiria
##aw
Errepubl
Ameriketako
tes
ordea
elk
Herriko
konderria
gainean
igo
zuzendu
handiena
milioi
##bak
ask
##orik
iturgina
##aus
arrakas
mol
arkit
Madril
##urik
Ge
Con
187
65
##ograf
alderdi
##los
##ritain
##alako
##ros
72
gutxiago
##tez
hautes
haien
barruan
##ieraz
##depend
bereiz
barne
harreman
##mon
frantses
61
eleb
##etaren
bertako
90
mendearen
azar
lehend
ezarri
ezk
urteetan
##osti
margolaria
disein
dok
Pr
##ori
Han
beraz
bulegoa
agertu
ikerk
aritu
eremu
62
klas
Inper
##lari
##iten
Iruñ
agindu
laguntz
##ismoaren
aktore
ospets
AE
##asa
##lij
lanak
##tuta
##amp
zabaldu
ekialdean
garaian
##anda
bultz
erabaki
Ak
Lan
##ilik
apaindegia
Berria
zirela
Qu
gauz
urtarrilaren
edota
eraikin
Juan
zinema
Mo
aurretik
amaitu
##ugarren
km
##azten
##na
Erdi
##enetako
##tun
75
Bizka
=
##itzaren
##mena
John
84
##utbol
di
uniberts
hisp
##aldia
##eten
##onia
bereziki
##tikul
nabarmen
kategorian
##dian
##ainko
Unibertsitat
uharte
Horietatik
##mentu
66
##atea
##ca
##des
##diko
natur
##azioarteko
mendebaldean
Batz
Irland
##etxeak
##dak
der
jarr
##itzea
Bas
gertatu
gainera
##eder
batekin
##ess
onartu
irek
boter
186
##ía
hurbil
Ingalat
igaro
berria
##bi
Ondor
##aturiko
##ow
koadroko
##ida
ipar
maila
egok
##apena
kanpo
##istak
##etu
##ditu
liter
politik
lot
Gainera
##aga
lana
67
ostean
argiketaria
bio
familia
handiak
mendeko
natiboak
AEB
##katzen
##kan
top
bilakatu
Urte
dagokion
##tzain
Hand
##itzat
askotan
Bal
71
muga
##ind
ep
Col
gerra
76
XIX
Bor
eraman
af
bidal
atera
grab
##xo
eskualde
alb
heldu
##ville
69
Udal
animal
berak
##are
tal
ait
##tzel
Donosti
##erdi
aukera
hauteskunde
##okor
##atza
izatea
oraindik
##ung
##ito
leku
##aera
errep
sozial
184
ord
##lua
aleman
kasu
ener
##tatik
##ektu
##tegi
##ph
Bes
Era
erlij
duela
Pl
aita
Garai
Arr
kom
maiatzaren
barnean
denbora
##kide
jas
aurreko
##ionala
##ios
urr
##arrena
##orra
—
##bert
gehienak
Val
hamarkadan
Arab
##biz
##giak
ezagun
##orea
Cl
geroago
Antz
berriro
ja
aren
##osof
Gas
baldin
ura
Bertan
St
Etxebizitza
Giz
ter
tok
##ias
Mende
proiek
Bilb
##errend
##ioko
geratu
Leg
##abil
##artean
presid
sortutako
Bur
hizkuntz
##tutako
Re
orokor
independ
##eraren
osoan
direla
prog
urriaren
##iari
aldeko
lantokia
ren
irailaren
##án
Maria
III
mut
Ap
##iam
Rh
trans
##erriko
##ite
For
pents
Has
185
hegoaldean
martxoaren
ekainaren
##azioaren
##ikoki
2006
ge
batzuen
##ign
zitzaion
gizarte
zaio
ezaugarri
espain
iraun
lehena
##apon
Tr
atx
Grand
73
##ama
hurrengo
erro
http
74
##gel
kultur
propos
uztailaren
##indu
##toko
##goak
antzinako
Kr
gertatzen
med
oinarritu
Ed
neur
##eratzen
hauen
Me
##tern
##ardo
Egun
kirol
bid
##istro
Its
##ais
##uv
##aldian
88
Kal
##tarako
dauka
izanik
Errus
kontrol
abenduaren
85
78
##ke
Gara
##etr
##por
baitz
77
elektriko
##ustria
##aila
disko
egitura
aldatu
estatubatuar
##gen
mendebaldeko
ezkondu
hez
nahas
ofizial
##erren
kat
aurrean
beg
##garri
##azioak
Elkar
harr
##asti
desag
##iala
abuztuaren
munduko
per
apirilaren
At
##tim
##ario
##utik
horrela
kate
Dan
##andu
Katal
eliza
berriak
erromat
##uzk
beren
##stan
##arien
##atan
##edia
osoa
##rezko
bis
Lond
82
Gipuzko
##beste
##abide
##tara
azaleran
esaten
##pera
Min
##itur
azaroaren
adierazten
Anton
mailako
##alaren
##ff
hai
ihes
ikusi
##tasunaren
sistem
futbol
jokatu
luze
din
erl
81
taldeak
trad
tren
igeltseroak
92
um
##agarri
matx
##ikako
##enn
kontra
##etas
gune
2012
Lurr
79
zi
2015
bik
2005
##ukle
##ikatzen
ibaiaren
180
Erresuma
##goko
##olo
Eusko
##errian
Martin
Bestalde
sarr
##uena
183
Herrian
okindegi
irakasle
altu
##ci
beti
Batuetan
Per
Kol
##tela
Luis
##fes
ardur
##ong
##arrez
taldearen
bati
Alderdi
##tika
alaba
norm
Histor
Fin
Joan
##enez
83
##ioan
96
##ys
Po
pre
ikasketak
aldizk
zurginak
antzeko
Lig
##dare
bitartez
herio
York
estal
iparraldean
##iera
irak
no
eliz
aintz
kim
grez
##se
Hal
##rek
Co
guztiz
Egip
##terik
Franc
konk
##agai
##form
got
aurkeztu
deitzen
##gor
97
dents
batzuek
##izioa
politiko
energia
osasun
##rean
##fon
1990
##dem
##iarren
##iarrek
##erra
##zean
konpos
espezie
##urreko
bateko
posta
##ann
##tuz
##illa
##ue
jainko
87
##iburua
Arm
##ortug
kokatuta
Hain
argi
eredu
ema
tenper
otsailaren
eten
##ath
##car
ins
Mor
##diaren
?
##aterako
gas
soilik
Izan
pap
##atzailea
2003
##ône
##rim
sup
semea
defin
Gen
Norm
##inaren
##ole
Jul
1980
Eki
geltok
##for
##osa
##andako
##arekiko
##té
##diako
Pet
##intza
Aro
handiagoa
aldi
86
filosof
Alp
91
##tearen
##ask
##onen
ikasi
##oreak
mod
buk
deritz
orduan
##azko
zerrend
honetako
##uti
Gor
denean
metroko
baitzu
bizitza
erantz
Sch
marr
hegaz
181
dugu
Geor
historia
##iel
behera
Tur
eskuratu
interes
dagokionez
##ica
95
Kom
gorde
Mari
ditzak
eusk
milit
abia
##po
bol
Ind
pin
zig
mu
Batuetako
ga
##ly
Char
Jose
Arg
gaixo
etxe
gertu
zain
mit
##udi
Londres
Hen
##perador
##zioa
hirugarren
##azki
gizak
##itzan
##enin
##iara
Ma
##obi
kontze
aldak
orden
datu
Jean
nazional
deitu
##aian
93
entz
eragina
bereko
iturginak
##izia
merkat
##rip
##tasunak
armad
erabak
desk
Esp
abesti
baitzen
ul
egitea
2004
&
jen
89
herrian
amerik
Mendeb
Italiako
##iteke
aldaketa
ekialdeko
ro
##bur
sunts
##art
##arrekin
##egu
É
98
zizk
norbanakoentzat
pat
nukle
handiko
jotzen
182
179
kultura
zituela
##orako
France
Men
99
dorre
##doa
mak
puntu
Santa
elementu
##bid
matxin
Ip
koadro
##ariek
##amerik
gutxiagoko
ikusp
garatu
Ho
eros
ikasle
kontz
##eil
Pal
Nor
buruzag
egoitza
##ienez
##istan
##penak
##iarra
web
##arrap
##zein
emazte
langile
hirian
##ilea
bait
##azpi
lehendak
ekarri
izandako
Ben
##gn
hiriko
Mil
badu
obj
##arta
##dr
Batasun
##ith
##ven
##tro
##tiko
##sen
alegia
sub
kris
Jaur
izate
Mat
gora
jatetxeak
hilabe
##bon
##asuna
ibaia
Mal
Zen
tur
hura
Horrela
arau
##ley
lurra
##iarekin
##aldetik
frantz
frog
garrantzitsua
2001
Gobern
modern
metal
apl
san
##ourt
94
Will
Txapel
Aut
##bia
150
##aber
##reko
##lam
berres
arazo
##ver
Afrik
##erraren
sek
Mont
oro
##opa
plaz
popul
bezalako
jatorrizko
titu
##ish
##aliz
tam
##egin
Nagus
##ikatu
##ès
baiz
##ja
Bilboko
Hiriburua
egingo
laster
arrakasta
Haw
jasotzen
Sir
antzeztu
##ick
##uren
Te
Cor
Pir
erabat
2017
araz
lek
Unibertsitatean
to
organ
2016
1970
lin
Hel
gehiagotan
Erro
##ideak
##ikuntza
eskubide
##tzial
teleb
##txe
Kor
joko
Fern
##aldo
##za
ezagutu
krista
esaterako
hiriburua
zuzendari
sakon
herriko
##uri
karg
Pas
##aleko
erakus
neurri
eragiten
Katalun
Ram
arrun
##ise
deb
geroz
ordain
Cas
##ilean
beltzak
##ya
errefer
Bartzel
Iparr
##tira
##arn
Den
kostalde
gelditu
##kur
delako
##pos
Gre
##umentu
##uetan
Gaste
zuenean
##isko
ondoan
##iltz
##andik
Mex
dituena
##ames
##aude
##toak
##erantz
guru
iker
##itzaile
lortzen
deskrib
##enaren
edozein
bakar
aldean
ikusten
##ilak
##ont
##ikor
artikul
baterako
XVI
Ham
Okzitania
Il
Nafarroa
Oro
Eskoz
arkitekt
Bizkaiko
Lap
##sa
Dav
##ies
##emok
##rago
Gipuzkoako
Les
##itze
##anoak
zez
Ordu
eginez
##yn
Irlandako
1960
enperador
##sh
ital
teles
harrap
##enints
##urak
zap
aldarrik
Errom
##ín
##errako
##ekan
laguntza
##itzean
altx
##pir
margolariak
##otz
Lib
+
baizik
itsaso
hegoaldeko
estr
##iztu
inb
aurkez
Ste
jatorria
gaztelan
dator
irag
osatu
Sor
arre
iparraldeko
##ehera
##atzean
parti
gerta
kolon
goi
##ant
saria
r
##uss
##ater
Grez
gener
Sc
##errak
kontzep
dentsitatea
##utsi
urter
murr
##be
##ango
sei
500
britain
neg
biltzen
##adan
solair
gun
Sar
##del
##tronom
hid
hip
##urako
aldetik
kontuan
adier
beharko
Mos
Arte
Hiru
sartzen
##ons
gogor
garapen
direnak
zal
Mik
alk
irabaz
##aparta
##apartamentu
Ped
eskatu
irland
##tzailea
azaltzen
2002
garrantzitsuen
##abet
Hurrengo
##eno
ezik
Antonio
Franche
##ity
lantokiak
lortzeko
Comté
##tzera
zenbak
##pre
##dadu
Esku
##korra
forma
trat
amerikar
Lehenengo
amaieran
Donostiako
##lab
urtez
##ato
Alex
IV
##arazi
lehenago
Ondoren
##ando
teoria
od
bazter
##agun
ond
Her
1991
ibilbide
##tabai
##egan
bidai
jende
hiz
printz
Fre
burdin
XVIII
##ikan
azaldu
José
uk
##omas
##tera
##adura
bakoitzak
matem
arraz
multzo
ezar
178
garaiko
Saria
##turik
2018
##let
##tzako
Hawai
herria
nes
ohiko
##kak
Haren
buka
Ib
##uriak
erabiliz
jud
itxura
iturri
gehi
Sa
##lak
gaz
denez
ministro
Esk
##diak
##burg
Park
besterik
por
##ria
Portug
##esko
zelarik
##xe
##iè
##ogei
152
nahiko
##ho
Buk
Hil
##elek
1996
hond
160
Karlos
edu
gid
diote
magn
Nah
ikerketa
1997
##oiz
Can
1995
ehun
adierazi
Bai
Cal
portu
Barr
giza
zab
afro
do
Lab
maiz
eleberri
##alari
atxilo
lagundu
##hol
prozesu
Paul
##irr
antolatu
##tzan
gau
aztar
Gerran
##abea
##igh
Tol
##ientzia
zerbitz
##tore
Ros
##tad
##inc
##tsu
ent
##urrean
1992
zibil
kopurua
Ric
guztien
##TA
mailan
##istaren
##azif
baitu
industria
##tso
jartzen
jokatzen
agentzia
pis
soldadu
jarraitzen
##ij
##va
##uke
##ash
bax
lerro
##etariak
Konts
profes
izenak
Alpeak
irl
1998
sorr
hamar
##ña
errold
mik
##és
tenperatura
utz
##duz
##reg
Pazif
jak
##etakoa
##use
be
Rhône
lanetan
Mug
zutela
Ang
pertsonaia
Akitan
termin
1994
tresna
Ph
fal
##ierre
erabilera
Pu
104
Jon
geroztik
hasiera
##aran
##ituz
estil
##ketan
iraul
##arrien
##anduago
mas
jardun
Nazional
##ini
espainiar
Bol
Errege
Auv
eztabai
Bre
112
bidali
##oy
ekip
tenpl
org
Hawaii
nazioarteko
##ikaren
kolore
##aban
##itura
afroamerik
Ban
102
##ehala
Gipuzkoa
teor
gorab
##isio
Med
##atiko
luzera
Loire
ustez
konpain
##ongo
Bilbo
testu
Vic
##ileak
botika
108
##gandik
Bestelako
katal
program
Tel
##rid
kalkul
Lou
horretako
##tegia
##berg
Lau
kendu
badira
##ailean
Itsas
##elle
Pazifikoko
tartean
Eta
##ester
dar
##izazio
Britain
eskaintzen
##imen
##itzako
armada
101
latino
banatuta
txikia
1993
Ol
astero
banatzen
##doak
##azionala
Biztanleria
eginiko
##uman
##ernia
Donost
litzat
ater
##ach
Hol
Los
Bro
Hauts
Frantzia
kanpoko
asmoz
##ham
156
askok
Hainbat
arrisk
ps
Eliz
##garria
zehaz
dig
So
konderriak
zenb
##uc
##ES
Chr
erraz
hispano
elektrikoaren
meto
sortzeko
##esa
beregan
toki
##len
errepubl
Bukatzeko
##tzal
Dena
dutenak
gat
tald
boto
Europan
gaztelua
litzateke
probintzian
soin
jasan
azalera
##tsa
eratu
##iketa
ekonomia
elektro
lotura
hautatu
defend
zuzendutako
##rig
Erromat
kontrako
baitzuen
Mig
##itatearen
##iano
ibili
XVII
aktoreek
lore
##igo
##aldiak
130
Aur
eduki
Pan
erreal
Nazioarteko
asiarrak
biak
guztia
elik
etor
aurkitzen
pertsonetatik
aire
##tziak
hasten
##lamen
zentr
tradiz
txuriak
zuzendariaren
im
zentsuaren
Mendebaldeko
auto
landu
afroamerikarrak
ox
##van
aho
irletako
##agarria
Joko
idatzitako
##graf
##je
zentsoan
hispanoak
##orl
103
sus
300
##peko
mor
##ezkoa
handik
euskara
banku
##rea
Auvernia
auzo
gorputz
Zu
##zioak
horn
saiatu
##esen
kude
##tari
110
##atuen
##erki
Ko
107
Land
kaz
1989
hazk
!
116
##ry
##amb
151
baso
abs
Mun
pasa
177
##ingo
##ituen
##ustral
burutu
##onek
##etari
Aita
##ilen
##orrak
ireki
176
Sin
Iraul
urtetik
molek
William
horietan
Adibidez
##etxe
##entea
zuha
##lav
##irako
Sant
##uzki
Sol
Japon
argiketariak
##adak
Pres
autonom
##ane
Horren
lotzen
Ja
apar
bazen
arkitek
taldeko
164
Donostia
Robert
##iboa
liz
Borgo
orr
Bon
##doko
obra
jai
Munduko
##deko
Mer
inper
gobernu
##ektr
140
155
konkist
Mic
##andia
##ikus
bidea
105
dip
Beraz
Art
##tm
Pirin
##azia
##zeano
##leak
estilo
horietako
dezake
Des
##eago
109
konb
##gai
bitarteko
landare
##tom
EA
Guz
Muse
borroka
Nap
desagertu
Vill
anaia
lehiak
garrantzi
##ator
fas
##atuaren
zeharkatzen
bider
##ietan
##cy
animalia
guztietan
##atzera
herrit
Francis
Intern
hal
mekan
##oia
##iller
##abiz
hemen
Alemaniako
gehienetan
penints
berezi
ekar
zelul
dauk
##court
helburua
liburua
##ney
##lima
hitza
apaindegiak
##atzaileak
Europa
Bir
124
Jo
Kat
##tagon
kalte
##eka
##iok
atal
170
##ituak
familiako
106
probintzia
##araz
##emin
##ert
Hasier
zehatz
istor
##gin
mantendu
hartako
beraien
Jes
Mend
jada
Pe
##tsua
Pat
##biziko
Bak
Pedro
erregea
horregatik
##mos
James
##rob
##aman
128
175
las
irau
ordezk
ingelesez
ekipamendu
taldean
irakur
uler
hauetan
txapelketa
band
##dua
azk
erdialdean
##yl
zik
kontserb
##xka
odol
##ure
presidente
mez
adibide
113
153
kale
ekintza
115
aipatzen
Do
askoz
autob
dendak
154
handiago
politika
Ekialdeko
latin
##ontzeko
honela
txikiak
Kas
Ter
##esia
Se
eb
ha
nego
Pierre
##arena
espazio
azkenean
1950
zazpi
##pol
zientif
##adore
Ama
aldizkari
1984
Talde
zutab
132
genero
##duna
125
ziur
161
##erakoan
Errepublika
gra
Sen
eskuin
hilabete
eduk
Oscar
##istek
arlo
hiriaren
166
1979
1987
gail
David
Erak
aberats
157
jatorri
##pik
##utu
hurren
119
antzez
162
##agailu
etorri
ideia
bukatu
Alexand
##no
zegoela
inoiz
berehala
itsason
##gos
111
Mc
gol
kasuan
##rem
Rom
emateko
##uf
ef
1936
gure
karr
Sp
165
izenburu
Ver
Olin
munduan
nob
benetako
##izen
kidea
banaketa
iritz
bestetik
zai
##gunean
ist
1986
apaiz
##ges
##iolog
eskur
orb
2019
gorri
Zah
ezberdinak
saio
##entziak
121
##agu
##ante
114
lig
atom
distan
Antzinako
air
joera
149
abest
Akitania
##ioen
117
beharra
izatera
118
lotuta
##tsi
##uten
Gran
Honek
osoko
zil
izaera
irudi
Tour
##ategia
ekital
158
htm
123
aipatu
ikaste
erakutsi
labur
Emakum
##asko
interpre
##etiko
Zuz
honi
Auz
konplex
lap
##atorr
pilo
horm
##alis
argital
betetzen
Horrez
136
163
##tatzeko
No
delarik
pil
tu
dak
gotorl
ard
##larik
##rekin
159
174
Erreg
Id
##esteko
izar
desberdinak
Olinp
kristau
sam
##iho
krit
garrai
168
ekonomiko
beranduago
148
Ob
##akoak
kuts
##ikar
bon
Oh
122
Sam
1985
##ikak
Nahiz
##aj
eremua
sortua
135
super
Ingalaterrako
##okoa
##etasun
funts
orri
harres
He
##oniako
ch
##iatik
Iruñeko
##ikul
hartzeko
oinarrizko
kanpor
Liburu
urtero
##etxea
Leon
Borgoina
##taren
izug
##iri
literatura
korron
erregearen
IS
txin
protes
##ción
mugak
barruti
Tor
prakt
##uth
Us
##rika
126
##bu
Hauek
tamaina
Filip
jend
aztarn
ospatzen
erromatar
##ime
dokumen
##oka
idazlea
zaldi
1983
katol
##irrindu
iristen
##iabide
##kariak
1982
##ars
##age
144
Herb
zorro
Mich
127
##tura
Bartzelon
erreferentzia
abiadura
##orekin
erdian
erroldaren
Wal
kokatua
##obietar
katedr
emandako
##ilerro
mintz
Portugal
Aroko
arazoak
##ologiko
1988
batu
osatua
guztiek
eder
emaitza
1977
euskaldun
1978
meh
134
##urrak
##tzaileak
1976
irrat
auker
##agarriak
sat
##ple
bakt
elektr
##nes
Azkenik
gobernuak
Fernando
garrantzia
##hard
kontak
matematik
normalean
##ice
Av
##uzko
Normandia
gaineko
Dis
Uhar
con
1981
astronom
##ake
##ins
##pil
##itzera
funtzion
1975
azkenik
izenarekin
##itarra
##ize
Bern
arrazo
etxea
kaleratu
se
Espainia
##NA
Komun
her
Aip
geratzen
##ibar
medik
eraikina
eskualdeko
ospatu
##etariko
##uta
fatx
##bul
moz
aitz
gorabehera
deitua
kl
##izil
##onim
171
hasierako
Ah
##tzearen
##reb
Hu
Wil
jarrai
asteroide
129
Iber
kontsum
145
etn
geruz
zenbaki
##arg
fakt
zelako
Lang
Horregatik
172
kritik
zizkion
erd
##gunea
bero
etab
Goi
ikusk
erlijio
##opo
##iforn
zientzia
147
Institu
idazten
gainerako
##osk
##elo
Eusk
gauza
mag
Manuel
146
Soz
##izatu
frantziar
eraginez
errus
173
ant
##aztun
bilduma
##aros
zinem
##iteko
Eguzk
horri
##http
##ico
zald
##ster
bot
##utatu
Austral
131
kolor
errad
askat
’
##ahi
##ois
erraldo
sare
Som
##atikoa
##akzio
Camp
jauregia
##ión
heriotza
##erg
Eraik
Mu
Atlan
lekua
handien
protagon
##olas
ets
Ozeano
Eskoziako
oinarritzen
Arago
oinarri
##deak
##isto
Mir
##ismoak
##iterran
##ker
Harr
luzea
01
eteng
oinorde
saiak
zuzendaria
los
telebista
Mac
zail
138
##anta
133
##stituzio
literatur
garrantzitsuena
Mag
Argent
##oft
##arrizk
lege
Plan
mitolog
bor
azpi
##aba
Mexiko
167
##cia
XIII
142
hauteskundeetan
gainontzeko
zeuk
aurki
##mar
Oso
haiz
irten
larr
##onte
Lin
lehendabiz
sekt
##ct
##dok
1973
berezia
iden
hildako
Liz
segur
VI
Itz
espez
militar
Gon
teknika
Ten
erregeak
nazio
auzoan
kontinen
400
Las
abi
##anb
141
Herr
ontz
##adako
##usen
fen
137
##arrezko
Kataluniako
Alde
mais
merkataritza
##untzaren
aukeratu
Gaztelako
Aug
##ington
preso
zabala
##olf
##aiaren
onenaren
tir
rock
Sim
Band
omenez
identif
baliabide
ETA
koro
aldera
irte
##igr
sinatu
zuzenean
##rian
Egiptoko
##esti
Garaia
duk
zahar
Hezk
bota
naf
ton
Belg
zaur
##cel
##ekoak
estre
prib
Venez
Gir
##alki
uhartea
Charles
##rikoa
txirrindu
##abel
##unen
##untu
Bad
Andre
poten
ezez
Zin
##ezpik
bila
bereizten
ingen
Frank
##ques
##arretan
uh
Flor
ben
##forma
lès
mark
grabatu
mendilerro
Halaber
##etaz
Karl
horretarako
169
esparr
##val
porro
izenekoa
dagoela
##ati
Ba
demok
zelula
##kop
##etetan
Ul
badaude
fos
mes
drog
##untzak
botere
ondorio
Honen
eratzen
Frantzian
historian
tron
Nav
erroman
aztertu
Parisko
##pide
##gar
##lok
klima
oinarritua
Cro
##yk
##eraino
bisit
##gune
Nazio
##idae
##ieten
tarte
##turiko
Kaliforn
ibilbidea
##00
abar
egina
##azka
##oni
Soc
bitx
Erromatar
##izkio
##amendua
amaiera
143
##ational
politikoa
##uzka
Mol
zentro
trop
##azion
karbon
##jo
##esta
mal
##ère
debek
antolatzen
##goz
Jac
elkarrekin
etxeko
##isti
Ren
Bizkaia
139
ateratzen
##ulman
send
Espainian
Air
Dur
1969
gl
Kop
borrokatu
lein
bihurtzen
##abi
Miguel
Rod
funtzio
Cent
sari
ofiziala
epa
profesional
##lio
garrantzitsu
02
##uraren
zortzi
txikiago
bultzatu
XII
Publ
##tegr
ados
zerrenda
zutenean
##goan
##urt
1974
ona
Aten
hartuta
##igu
Hizk
mait
indarra
##azar
Txinako
##han
nol
proiektu
##ood
gertak
ohikoa
##arentzat
Aroan
hegazkin
##vi
nabarmendu
##udio
Mel
1930
sailkapen
esz
pix
Pirinio
1972
uzten
zitza
##ardia
kontatzen
##oma
sinbol
##ps
##olk
aldatzen
##azioan
09
##ebiltz
##ografia
unibertsitat
##TB
##alek
Bul
Alfon
Madrilgo
##errek
XIV
##ituta
erantzun
alemaniar
##erry
argazk
erb
gradu
##eba
##izial
Haute
sust
kanpain
Mai
##cc
##atzi
##ling
##rich
proposatu
lehendakari
##ador
bezain
Seg
Gero
sein
##tiz
##diar
##rael
1920
ontzi
dutela
boz
##ainer
1967
apur
psiko
Charen
ra
hitzar
arrakast
##usk
herritar
atxilotu
Louis
Handik
ditugu
Arabako
igarotzen
oinarrituta
zenez
Txapelketa
oz
Mes
Denbor
eskatzen
batzuekin
bela
Handia
arrain
hezkuntza
##uil
bida
inp
##atuan
Olinpiar
set
Francisco
##zk
##illy
##atako
emakumezko
08
paper
##erriaren
une
Eliza
azido
izenez
eskaini
##ogen
Sev
garaipen
Fel
Jav
##enen
Erromako
##ikoetan
erdiko
saldu
ondasun
Ze
die
1945
Club
kant
jarrera
altuera
lurraldea
hitzak
##istentzia
##uin
##ulo
baitira
gaixotasun
##ays
##uek
sag
07
Ikas
isur
askoren
##ius
diskoa
##ér
##untzan
hauekin
urterekin
##hael
##ford
##ortz
metodo
##ws
To
sendo
##alderantz
##ivers
##old
Zib
japon
errepide
badago
Afrikako
nabarmena
Amer
egunean
Sizil
##ider
Nob
hogei
##ulako
1940
bukaeran
Gra
04
dantz
urtera
ertzean
##br
##kuntza
azpim
##ger
##azal
dinasti
Mur
Orduan
Herria
##pan
suk
Orain
informazioa
tan
areago
desager
independentzia
##karia
hedatu
titulua
##artea
##beh
Ant
##ior
##txo
##tzar
masa
Suedi
Alemania
bakoitzean
Parisen
objektu
kokaturik
mer
Itsaso
Kontseil
Alb
##fre
##osten
hots
buruzagi
egunkari
Sav
03
##ty
alkate
met
##garrena
Gerraren
Foru
gutxira
erren
monaster
motako
##inek
lehenbiziko
Del
barrut
osagai
banatu
##ze
##tzu
deritzo
hom
Laur
##alo
##ame
##itutako
zirkul
harremanak
Tom
##atsua
##dan
Liga
Vas
mah
##raren
fitx
bali
1971
gaztelaniaz
##irekin
George
mantentzen
##asen
Are
Amerikako
1964
hamarkadaren
politikaria
##tatua
konf
##kia
##eter
dol
Beher
##one
##idura
garb
piztu
zirenak
##ebasti
##garriak
##ede
beldur
Sobietar
##tzari
berreskur
elkarrizk
guztira
arkitekto
britainiar
Hirugarren
onartzen
##okia
Euskar
natural
aste
Inter
Wh
hazi
gurutz
06
Cap
Finlan
etxean
Iñ
esped
erosi
eskualdea
##mak
Bid
hondar
##mont
haran
bertsio
##aztea
anti
dion
##ungari
baitan
eskutik
elkarte
VII
hartuz
Di
##loan
Siste
zirenean
Richard
liburuan
europ
Por
Rob
Josep
beharreko
mold
##oth
1963
etork
abiatu
##ulan
Max
##tikoa
##atiboa
esklab
komunik
bereganatu
..
##otan
...
Herbeh
Michael
Pa
orduko
##eth
PS
##tala
##berto
##zo
Larr
sent
entren
Hasieran
Sil
##vo
##atzat
Erakunde
printzip
Maur
begir
boterea
arke
##arrizko
gido
aurp
cm
zuelarik
Gab
sortuz
##igen
exist
bakoitza
##etrora
##oba
Van
Ga
oih
parta
gertaera
egur
ugar
egongo
##aldiaren
biztanler
muse
##ner
ezaugarriak
Kos
Bide
erlijios
##retan
Jaurlar
##ortua
egile
tradizional
ezker
mun
aktib
dauzka
greziar
zit
esper
##sk
Zenbait
nagusien
suntsitu
##fa
Aka
##engatik
Eskola
Sainte
atzera
defents
za
1965
kapital
zenbat
izendapen
##usa
Ha
It
asmatu
Vir
irudikatzen
autom
Zub
zuelako
landar
zinego
sortzaile
kokatu
##etek
herriaren
##inatu
Lur
momen
baditu
prozesua
arkitektura
Sup
##amena
gaztel
mendeetan
uko
kontu
barruko
poliz
##oph
errek
html
murriz
geltokia
hobe
ahosk
Du
##ategiak
trenbide
##izon
Kap
gehitu
##tzentr
zaie
Ego
urdin
besteko
honekin
jarraituz
Cast
Marne
ekoizpen
##ño
zuhaitz
baldintza
Erkide
eraikitzen
Ark
esate
jaureg
Batzorde
##con
ku
handitu
direnean
aztertzen
lehendabiziko
aintzira
estu
##istiko
##arritako
irakaslea
programa
Geh
meta
eguzki
harategi
ospetsua
bidezko
udalerriko
Centre
musulman
Bos
Dor
estatua
##eek
##illo
##itor
anai
Behin
santu
##sek
##abeak
Berlin
##ulu
fus
Mikel
bidean
##ados
Zer
hiriak
ibaiak
##izuna
Bras
Trans
zuzena
##tziaren
elektron
##adun
baiez
AEBetako
Berr
ordezkari
Lor
historiko
Guztira
fenomen
##ny
##gres
##inan
park
arku
##oftw
argia
##osto
harri
hedatzen
##itak
Pin
zieten
Hasiera
##ette
Erresum
bizirik
##lob
Errusiako
##orld
hartzea
zaharra
1966
María
hilob
##tsio
garaitu
##ifer
Iruñea
##BN
##ebec
600
belaun
Lapur
esperi
Nazionala
##idun
labor
05
##wn
##way
hitu
Lat
1937
eragile
garatzen
Kopa
eziz
izaki
##nas
Tra
kur
dezakete
##izki
daitezkeen
kalea
##CO
##ondo
zituena
historial
oinarritutako
giro
##rola
##agile
emaztea
kontzentr
Akadem
arrantz
##yr
##ott
osatuta
Cô
Feder
Cam
bata
ohar
##tam
EH
ala
dik
##tazioa
ugal
Zibil
Fo
Ru
berm
Henrik
##eroko
##izkion
Riv
eror
##lek
All
diseinatu
fam
Vien
inaug
mendia
que
ditzake
##aratu
espezial
Mart
Iparraldeko
##urretik
korronte
eku
trib
balioa
##rako
ISBN
Merk
zaila
##ible
ahul
##ele
dib
ehiz
bestalde
Errepublikako
pal
##laria
berresk
##ozen
##itateak
Carlos
emanez
ondoko
##ozko
zitzaien
##rain
Ikus
estatuko
##bete
saltok
ebol
##etikoa
ardatz
Sein
##adaren
##so
##ekn
##anen
selek
zuzendariak
##itea
Ekonom
nagusiki
jokal
qu
##ikari
artista
Unibertsitateko
urrezko
konkistatu
##ikl
Im
gald
zubia
geld
##iru
##heim
##itibo
Tim
1958
betiko
Sm
Bla
arropa
bazuen
taldek
Sari
estan
##aldiko
Ku
fund
gehienek
Haur
Angel
angel
goiz
ardura
##izioaren
tratamendu
mot
gizonezko
##ones
Honela
abeslari
Jer
beltz
##opol
jantz
prest
##ketaren
hortik
##ef
ahala
ate
dek
##iozko
iris
atmos
antzerk
gudaros
Pel
ezer
guduan
presidentea
##tem
##mana
bah
kilometroko
probintziako
kab
gerr
ilun
Austri
berreskuratu
1939
fik
hazkunde
eraikitako
deitur
azkar
biolog
horrekin
Horretarako
lir
##uzio
arrazoi
hem
##arrezkoa
Mah
##ifik
Liter
gudua
aurkitutako
bestea
martxan
nabarmentzen
202
##izazioa
°
Kl
Bet
arb
##itzari
##eda
Univers
##tia
transm
##entziaren
1957
Bost
tran
kron
1956
egonkor
Gud
let
Jatorr
lurrak
bos
isl
##itegi
gainditu
aldarrikatu
Vol
liteke
##tig
haiek
multzoa
baitziren
##är
Bu
datuak
abertzal
Bib
Inperioaren
erabiltzaile
##abor
bakterio
Fon
Norv
Nek
kob
##ologo
##erreko
Ondorioz
Thomas
bidaia
daitekeen
Beau
erakar
elkarren
##abier
Hiri
behe
##igny
##iazio
1948
itxi
sarritan
linea
aritzen
Historia
aplikazio
Á
##abetu
Jack
##ezen
Zar
Zara
prez
politikari
Pau
doa
arloan
ale
izana
Erdialdeko
orokorrean
##pin
albo
ordena
monumentu
manif
Victor
Real
Israel
zientzial
piez
##darr
zet
Geroago
##ektibo
berezko
Mediterran
hark
Hom
Zel
land
bater
molekul
Madrilen
ezagunak
##eu
gre
Mendi
italiar
blok
##tre
Fl
lit
Italia
Cu
##tapen
eran
##rag
##esek
EAJ
matxinada
##ustu
Zuzen
irudik
txikiagoa
Gai
Pre
##burua
libre
Batuak
hegazti
##olako
Côte
gut
parke
aurrez
##atar
Berez
solairu
horietatik
idazlearen
##ozo
##iola
##urria
hipo
disol
##agaiak
##ideen
bikain
generoko
##atsu
Autonom
hazten
gutxienez
##itm
legez
zituzte
Azkenean
kir
izenaz
##RA
satel
Pon
Tro
##etasuna
zuenez
Euskaltzain
buel
Europar
Parlamen
parr
Quebec
Li
kontsul
von
prote
##rif
distantzia
##ward
May
1959
##untzen
Baion
neska
antzekoa
polizia
ezartzen
petro
bertatik
irlandar
beder
eramaten
gehienbat
mem
integr
hab
##ikoek
kristal
mendetik
borrok
itxur
frantsesez
auzoa
zalantz
laugarren
Pri
fun
berrera
azpimarr
haus
##can
##elak
joaten
bakoitzaren
eraikitzeko
bort
##intzan
##izioak
##ailak
Fer
Itzul
eskubidea
aberas
erraza
eraikia
proiektua
##ée
pair
jokalari
Michel
Jainko
beheko
##irre
ongi
airep
##isen
##iazko
irudia
berre
gon
Sozial
Konstan
##oek
kapita
okindegiak
goiko
babesa
erregul
ofizialki
garrantzitsuak
##mat
Tok
irudiak
planeta
antzerki
beharrezkoa
adar
batena
Mark
fron
Inperio
onena
begira
##teen
Ask
Tes
eguzk
izendatzeko
250
zeram
Erroman
Edu
dituztenak
zuri
##leen
##atist
ordaindu
th
line
##arrarekin
Zur
##orren
##enteak
##erriak
Lurraren
ekoizten
UN
Gasteizko
Hip
bizimo
dantza
presio
Let
##ister
##istako
Berg
West
Joseph
emango
pel
liki
soinu
##tasunean
##cal
Ep
Lot
mila
Uz
lok
##ietako
narr
zabaltzen
Aldi
adisk
konposatu
Aran
Mas
##erari
zaharren
Jak
Napole
gerora
Gasteiz
asp
##inar
##erbio
zulo
trainer
pasatzen
exek
elkartu
emakumeen
Henrike
##itale
ezku
##iturik
Kolon
fikzio
zehark
Iberiar
gordetzen
##bel
gaiz
gizaki
##ebastian
ikastetxe
##pon
Ale
Oin
Zien
##atzearen
ezagunena
dabil
zeukan
##azen
itzultz
##itude
1947
VIII
Xabier
sh
fru
NA
kam
aten
https
konpar
etorkizun
erref
barneko
##aburu
Danim
Hegoaldeko
Horrek
́
espetx
erabiltzeko
Son
gipuz
gatazka
final
##loj
Orokor
Ju
plata
##delo
##mann
##by
zatik
desegin
horma
kontzeptu
##itara
ospea
Britainia
Tekn
kantu
##lay
gainetik
egitur
ser
1946
fara
irits
ospetsu
erresuma
sartzeko
fl
##meria
Hona
erori
urteen
eragindako
Nic
##itt
gir
##arriz
1931
oper
##ietate
Astur
ahalbide
Lop
##etriko
zutenak
ordezkatu
Ac
garbi
##pet
Châ
Irak
jaun
1918
atzetik
Parke
Demok
tas
Bizk
isol
##ioren
asmoa
##etsi
sindik
jeneral
##abait
Ca
Fri
##ís
Seine
arma
Peter
olerk
##ding
Ilar
Rock
Roy
1955
##alea
bien
izanda
lantzen
Dion
unibertsitate
##ordea
instal
abestia
gitarra
zabalera
erabilitako
herrialdeko
##estera
berarekin
ziteke
Indiako
kideak
ikuspegi
##ières
Garc
atzean
##itas
akord
Gaz
nahian
aldaketak
Gau
1953
Stan
militarra
Cen
Tre
##aguna
babesteko
horretatik
jauz
baitzuten
##roa
haz
Zabal
aintzir
##ces
##burgo
laguntzen
milaka
##tatutako
lanaren
musikari
gobernuaren
##ilu
##agan
##ileko
Donostian
garaiera
1949
tele
##MA
##ary
Ass
Sab
softw
udalerr
##ania
##itia
Christ
bigarrena
##aleak
Gel
Espa
Frantzisko
##usta
##erala
##besteko
##enetakoa
##ektuak
##cion
estim
zirku
burutzen
##fera
##oper
1952
biho
geom
##ight
1954
dikta
paral
##ateak
1934
##tzien
direlako
erbester
##uj
1944
Asko
##orezko
sul
##olan
Kir
arduratzen
alf
Just
neut
kontzer
800
pon
sum
prestatu
Ann
Tal
indi
Tolos
##ras
ohia
gatazk
erdialdeko
apezpik
norabide
aipatutako
##ugh
##onne
Luc
Neg
dist
##arazten
##urretan
buruan
geruza
mehatx
##entziako
begi
##unea
tip
1933
duenean
##iem
Aub
altua
zatia
margolan
##izioan
larri
Batuen
existitzen
eleberrian
lak
jaioa
beraren
sistemaren
##tra
koor
##eralak
Tren
Alfontso
##ied
gez
zib
agintal
kargu
kostaldean
mugimendua
##atzekoa
Jan
diam
makina
liga
datza
kargua
ordenagailu
220
eser
aitaren
##atika
Sistema
##asoa
pers
##aritzan
Pays
dirua
azterketa
gaitasuna
##torea
dezakegu
partikul
zaharrena
##atzak
egite
##atean
Gonz
Guru
gogo
1941
term
urak
##erarekin
##ison
Ezk
Champ
Phil
idazk
faktore
Tex
##agako
##estra
World
##isterio
zerbait
zerikus
bizitzera
##mes
Bilba
gaiak
Kultura
##ères
harremana
Gro
pri
Henry
harlan
##arro
Wash
egitera
Nobel
eskubideak
denboraldian
Hiria
erlazion
Kasu
analis
|
##atok
Dubl
berdina
femin
hober
##andar
##teren
egokia
dinast
gutxien
publikoak
##jer
hautag
Eguzkiaren
##hi
1935
dugun
ziklo
Ox
bizk
gailu
Eb
Tut
tro
Vall
batik
Ath
Mak
##etroa
erald
menpe
entzun
Japoniako
Urr
##erekin
##iana
##aletan
legea
liburuak
Og
Uk
##isioa
para
##iti
absol
esplor
gaztea
Bartzelonako
Et
pan
sim
Katol
agint
mugan
Natur
egoten
Gobernuak
kalean
##ré
##zi
intel
ekimen
sorrera
urtetan
hamarkada
Ign
gehieg
estreinatu
dioten
lurper
Eskualde
autonomia
##unean
1942
Gehien
Musika
selekzio
##ás
##berr
1951
ekid
sines
izendatua
##cha
##ierazko
geograf
##kadi
Ven
1917
ats
eztabaid
Dar
aski
##penaren
beltza
digital
nolabait
denboraldi
tenperatur
Zum
##tsuak
arras
senti
Gil
eztabaida
##cher
##ment
tor
aitzind
Ingalaterra
##riz
noiz
##ateriaren
askatasun
gu
1929
Txik
##agardo
filosofia
lotutako
baxua
Bilbon
Brasil
1932
Hitz
Washington
##tib
Bri
gogorra
joateko
##ER
##SA
Tar
##ibal
burg
##amendi
##ilari
Gern
Magn
kontrola
direlarik
##lom
Kontx
aldaera
Arro
beharrean
eskultura
Sail
##lov
##isku
lep
Bartzelona
##iform
##tzeak
Berts
jarraitzaile
##angur
sold
urtea
##riako
erra
euskarazko
aka
truk
etorr
garaia
zutabe
dituela
anim
##giaren
##atzeari
##don
##tago
##tzale
##uneko
basel
gerran
Win
mir
King
teknolog
teknologia
Marc
##mut
Saône
Hungari
partida
ekonomikoa
##hu
hidro
Javier
iragan
ahalbidetzen
##tesi
##yren
finlan
irrati
##eville
frogatu
liberal
Lar
Zor
##ektua
muin
##arriko
ozean
artikulu
papera
halaber
zigorra
Inperioa
zerbitzuak
##amo
##agon
falta
mugikor
Santiago
diag
lapur
mikro
Angeles
jasaten
itxurako
Raf
Film
##izkunde
Cre
1943
Garona
hortaz
tokiko
eskuetan
##imo
manifes
izateagatik
Kur
zubi
minutu
adierazteko
ahoskatua
substan
1938
Pers
leiho
babestu
banandu
idazkari
##eng
Kh
Ug
Niko
oinarria
##azp
inauguratu
Liv
piz
##entzi
inbad
segun
udan
topatu
Ken
Lis
dan
gunea
jolas
solido
institu
eguneroko
posible
##ym
hidrog
minbiz
probabil
##ule
Ser
##tzeari
motor
jaitsi
Urrezko
##apa
Eh
album
proba
zapal
erresum
agentziak
##ste
##ailua
komunitate
##doen
##eteor
eskol
karl
uharteak
##str
Lé
are
bana
nafar
hegoaldera
##tos
Maz
Miss
komen
xeh
##arkako
Ord
gram
Emil
Galiz
zeude
jendar
Gl
Lam
##ituko
ezab
zituenean
##iba
eraginkor
segurtasun
tokian
terr
##ektura
ikuspuntu
##anga
Gol
1919
bertsol
kolabor
##top
Iparraldean
erregina
Bay
##inguru
Filipe
kritika
saltoki
psikolog
izendapena
Fis
bideo
autobus
ekialdera
##toa
Jai
gainb
tokia
Lurralde
erreakzio
##eros
bereziak
Unibertsitate
##txea
##orrean
modura
protagonista
txan
Indi
jazo
kontzertu
Euskad
##tiar
##angel
Elis
este
Elkartea
sortzailea
ezberdinetan
Ke
##teria
beharrezko
mm
frank
##etarikoa
partaide
co
diz
Armada
Moselle
204
ezta
Etxeb
mendebaldera
##my
##iario
##orriko
heltzen
##tion
Futbol
##aide
##duak
goz
murg
240
Bra
Hern
aditu
baititu
duelarik
aurkezten
hiriburuan
ork
##tzeaz
##uriko
halako
tontor
arra
molekula
##ileg
duelako
drogeria
##okr
Pé
eremuan
Dem
ertz
karga
fisiko
garapena
ingurune
##ical
zenetik
##ezie
210
Pab
Araba
postua
esangur
laguntzaile
##iol
##ute
armadak
lortutako
historikoa
Lag
tin
ahots
hartuko
izateaz
Dr
Mé
poeta
zehazki
Alemanian
##ál
Mit
Jesus
arrunta
erakundeak
##unk
kolp
##tikoak
##arko
ebak
Marit
lekuko
Mod
Nab
euskararen
hauteskundeak
Luz
kode
Uharte
etengabe
jur
Aber
zerg
gaitz
zuria
Mexikoko
bederatzi
biztanleriaren
##bard
hamarkadetan
##yd
monark
sortzea
erresistentzia
##IA
##adur
hein
##ella
ematea
errepres
Poit
banak
aztarnak
mugitzen
dem
treb
##ismoan
##ortzen
Julio
kanta
domina
elementuen
Zes
egiaz
Zir
##tikula
portug
gobernua
zak
208
Sak
##atzeak
akadem
Aurreko
nagusietako
pa
1914
##var
##ustuko
Super
mineral
##ican
Hit
##ioten
Izena
erail
urrian
gehiagoko
212
Afrika
##ink
batzorde
ondorengoa
klase
Egipto
ospitale
ikur
ints
haietan
behineko
García
sistemak
zirelako
##paus
Blan
artif
antzera
handirik
plazaratu
My
##andi
##ield
Rad
Batuko
publikoa
##ales
Monte
funtsezko
##atzailearen
lotu
zinegotzi
##plan
##idad
700
Big
zub
1923
infek
dorrea
zon
alboan
inongo
##gol
suedi
##mir
##elen
hosto
erabilia
##xa
##anak
Cour
Iran
dram
jain
moduko
nagusitu
supermer
garaipena
erakusketa
sous
aileg
jauregi
Ra
1922
##ferentzia
itsasontzi
Gur
Bera
##telako
Gizon
IX
1925
Carr
ahaleg
erretr
postuan
erabiltzea
##pia
uhin
anbul
bandera
gehiena
Fal
aliatu
##obiet
aske
proportz
gos
Mass
ahol
lengo
gipuzko
margolari
jendarmeria
Ud
##iber
Eure
Zuber
marka
errein
zuzendaritza
Chic
##grafia
giltz
martxoan
erregimen
pertsonen
politikoak
Ton
Bour
ipuin
murgil
jaten
zebil
Bilbao
Italian
amaitzen
pob
##inger
1928
detek
borrokan
ekainean
hauetako
Finlandiako
##erketa
##igarri
Cala
sans
izotz
deskribatu
##LA
ali
buz
##aritz
##istea
##itazio
erabateko
kokatutako
udalerriaren
babesten
orokorra
##nal
NB
203
buruj
etapa
saiakera
Londresko
##orf
##vel
konbin
tradizio
##we
##itarren
##tikaren
##egiak
truke
Mugimendu
oinordeko
##arm
##azz
##pez
bizia
Burdin
diseinu
sektore
Ek
Cos
Osp
bizka
##iagatik
Maritime
abenduan
ume
gonbid
Kirol
Inform
funtzioa
guztian
konstan
itxar
Hizkuntza
asmo
akats
konpainia
lurraldeak
Polit
dirud
harag
idatzia
zenbakia
##loa
##alax
definitzen
hari
##abidea
Barne
biribil
German
Gizarte
txapeldun
##eratik
porta
harrizko
Andal
Zinem
prim
txak
uretan
Beherea
ahalmen
1921
Yorkeko
lankide
emakumea
bizitzaren
##ches
##iaga
bake
fink
##izunak
salbu
bikote
eleberria
sorturiko
##olit
Kim
##uer
Cla
1926
luke
berriaren
##ault
Deb
gaind
##igarria
inguratzen
Hezkuntzako
Irun
Erren
museo
kartzel
telesail
kontzeptua
##ye
Sem
elur
Mut
Pos
bron
laur
Donib
denak
estad
gizakiak
Legebiltz
jatorriko
Web
Giza
Mary
##agarrien
nahikoa
sailkatzen
argitaratutako
216
Camb
Daniel
honakoak
sailkatu
gizakiaren
##akus
maisu
legeak
Nagusia
##bar
##etria
data
kilometrora
##giz
Franç
muino
arrisku
elkartzen
##egal
alko
##entzeko
bulegoak
Stre
We
##leku
kons
##lariak
lanen
hiztun
errepublik
Sk
##enne
##tarren
##tegiak
Batzuetan
dagokienez
205
207
bira
og
##retu
##azien
Herrialde
ospe
Popul
Asiako
Martín
Antso
Halere
uhartean
##abr
1924
nesk
Asturias
##takoa
aplik
kazetari
kontseil
##ESCO
islam
karbono
komedia
mendiak
##zor
##hardu
post
nabig
hiritik
berdinak
##lina
206
berde
ahalmena
zirelarik
Ig
Hab
##kaitz
supos
Loir
Rhin
##etarik
esanah
##lanean
basam
erloj
ahiz
dial
azkarra
Adi
##etakoak
ohitur
baldintz
Izen
ekolog
bizitzan
Jud
iriz
##azken
##oetan
paus
handiz
gaitasun
solairuan
Batasunaren
##si
Str
Esan
Erroma
UNESCO
Mi
##gari
##ateke
agindua
hitzarmen
Itun
jota
##kanaka
Enpres
biztanleen
##ipe
##iden
Dam
Ray
eskail
abel
abok
kaus
Castel
fikziozko
irlanderaz
##txa
Reg
prin
Kongres
ohitura
herriald
Ari
Dal
Oli
gom
zurr
##arrari
altern
nerbio
##fal
finkatu
jabetza
Aragoiko
ditzakete
adierazpen
##esc
Sei
inbas
postu
Hortaz
modelo
inolako
Nov
Black
Afrikan
hero
edizioa
Buru
mailara
anbulantzia
Asia
##illers
Independ
zitzaizkion
errom
Bertako
##fe
Baz
Dun
Gure
teil
##goaren
ilustr
errug
gerriko
irailean
Bois
geldi
##tasunez
organo
fatxada
demokrat
sa
Sta
Turk
##landia
populazio
aldizkaria
argitaratzen
zek
fase
urtarrilean
##gana
##idan
Def
onak
funer
##nam
poema
Od
zentz
batzen
estrop
baitzituen
##ega
##eriak
tenplu
kri
Marie
##urraren
gazteak
Normalean
##toi
Si
##aire
230
##iarraren
##ife
##chen
udab
deritzon
drama
etxebiz
##akuntza
bilatzen
224
Jor
Garaiko
ikusita
iragarri
##uh
lepor
jendea
Rec
Prob
##ses
Iñaki
arreta
altzari
finantz
ekitaldi
parlamen
arrau
abiadur
Ere
langileen
Gizateriaren
##AR
Je
225
aus
Star
Eug
Garr
Egoera
istorio
##atzaileen
emaitzak
##vre
##ière
Salv
hirig
eginda
##chi
##iac
##well
balitz
Of
222
merkatu
1912
Sarr
Catal
ezarritako
taldearekin
##oli
##ibel
##ision
Islam
hezur
Eguzki
ahalegin
Errepublikaren
tri
erdia
estua
Red
salatu
agintari
##ush
Bab
##ituan
##unt
##aroa
##wood
##ologikoa
katalan
Ana
Tam
poesia
terminoa
herritarren
sing
Prozes
marrazk
estatuaren
##ates
Rog
taldeen
elementuak
##ead
fan
Buen
xurg
etxera
katedrala
Res
Alab
pref
Pablo
ezagutza
arriskuts
independente
##eva
Jun
txarte
Zientzia
txer
egotea
kimiko
bereizi
laburra
##ingu
ang
suf
Rafa
gotorleku
Itur
argitara
iparraldera
##rin
instr
Edward
Ondare
sintom
filmean
##zen
Fe
Pen
intern
hurrenez
Brun
##tegian
bestera
zerbitzua
##estr
228
1900
##arretik
alderantz
211
Heg
Kaz
betier
adiskide
218
Lav
max
artelan
##pel
##entur
##tolom
demokr
##iler
##korrak
galtzen
indarrean
Ori
duenez
mendea
monumen
herrialdea
##oiak
##tuna
Gok
eskas
##aritzaren
Iraultza
##mond
Ond
Prus
##entura
banda
bitan
saiatzen
Port
Johann
protestan
krom
eguna
Greziako
##agin
##durako
dinam
219
tun
dokumentu
##ett
Inf
Vil
##durik
zaion
gauzatu
iraultza
lehiaketa
heriotzaren
ira
opera
lasterketa
nit
1916
espir
gorria
##oll
debekatu
Batasuneko
Kem
Vel
net
hasieratik
bikaina
maiatzean
##einu
biek
negozio
kanpaina
deskribatzen
Arn
##akizun
tamain
Jokoetan
jarraipena
##itmo
##resna
1927
garaik
ekoizle
arrantza
215
tik
##opedia
doktore
zehaztu
estrateg
209
don
ink
##apelle
##acional
gaztelu
historiako
##cho
221
Barb
edizio
lortuz
##vin
momentu
jarraian
mendiaren
Sag
XXI
Kond
auzoko
altuena
handienak
aldizkarian
##wa
##tzez
Sel
Eduardo
baziren
esperimen
Pic
sil
##unaren
Virgin
baitute
Autonomia
Na
Bretain
partikula
Britainiar
##tip
Arras
estud
tabern
etxerako
br
Nan
dagoenean
gobernatu
laguntzarekin
Pap
Hill
dizkio
erreak
uraren
Euskadiko
1910
##aketak
kokal
salmen
hiltzen
laguntzaz
ezp
##atzeaz
itsasoa
Espainiar
atxik
berber
##ski
van
##itsua
daudela
hogeita
Jim
filmak
pasatu
estatist
idazleak
##okrat
anitz
argazki
232
Sum
##orreko
Zerrend
Green
zuriak
errusiar
harremanetan
##ox
##yan
Nu
##atak
##bideak
garagardo
intelektu
azpieg
natura
Herbehere
berdineko
Esc
##tasunari
edit
##tazioak
##cus
217
egoki
Batasuna
baztertu
antzekoak
##dore
214
eboluz
##ines
##tiak
prof
aitak
espor
Donibane
egip
Herriaren
enpresaren
##itatean
Dok
Zerb
Ville
Jatorrizko
abuztuan
##ripu
##akult
Filosof
gorputza
folk
espekt
bertara
zeharkatu
235
Hautes
parean
enperadore
Hiz
kuan
seku
CO
##leta
Metro
hilobi
##FA
Um
Kre
##tents
ahalbid
##tario
ganb
igar
tasa
Irrat
likido
urtearen
animalien
zituztela
testuinguru
##lon
Vinc
##ular
##andina
bloke
presentzia
Pra
##umendi
Alfre
Poitou
mundua
herrixka
pisua
egunetan
Atx
Proven
hondak
urteak
eguneko
Orokorrean
##ekor
##ikara
arnas
Maroko
Urteko
jatorriz
zuzeneko
muturrean
ospetsuen
bonbard
armadaren
Jup
Marko
geltoki
apirilean
Kalifornia
Rem
Mail
konda
urrun
Erabil
pilota
eskolan
##tzun
Lev
Modu
urre
atzerr
soziala
itzulpen
Prog
traf
zeinak
zaharberr
##ihoan
Charente
askatasuna
##ür
##ilar
260
##egoen
nukleo
zehazten
gelditzen
nazionala
##entzian
daukate
etorkin
ikusteko
lirateke
naturala
##ull
##irak
227
Cel
esklabo
esparru
osoaren
##ologiaren
213
Bill
Form
Long
##lot
Gin
tra
Bibl
pisu
perio
Taldea
Besteak
egokitu
itsasor
errespet
itsasoaren
##ume
##aden
sakr
kolonia
diputatu
##bal
opos
inspir
seguru
zurezko
##ike
##zed
chem
Smith
Jacques
agerian
harrapatu
gizartearen
##ibi
##esten
##iakoa
hango
abanta
sukald
ohikoak
gainbehera
Lac
familian
##cht
##umb
Sud
##iaritza
prezio
kontakizun
##uki
##bada
Atlant
horrelako
fe
##ings
##ierra
medio
hasiko
##itzailea
##ili
by
1913
hama
dimen
azaroan
lizentzia
##ibia
##ihar
Ele
Sus
trin
kontrat
sortuko
autoesko
espedizio
kostaldeko
##mol
##oro
Bitar
Bandera
behartu
berrien
Dir
##oniar
ardurad
uztailean
##lieb
difer
Zuzenbide
mitologian
desberdinetan
##cio
Kam
hobek
##tzeagatik
laguntzeko
Ly
##duta
Azur
base
##ularen
Petri
aurren
azpies
koordin
Germ
luzeak
pu
okupatu
##low
##guez
##ulak
##irudi
Iba
City
txikien
Charentes
pentsamendu
##kizun
##lekin
Colle
Frantses
nagusiaren
##ni
##via
bertik
Erem
FC
espero
txosten
produkzio
Tan
Carol
ezkut
erraldoi
konderrian
Ei
Op
epe
sab
Armen
Gorri
paisa
leheng
zutelako
##itarrak
aktorea
National
elizaren
ezkerreko
otsailean
Tri
Fund
migr
Antar
lekuan
Suediako
ibiltzen
elektrikoa
##auk
esn
hauts
negoz
bizidun
dinastia
Dol
Ern
Bron
Nolan
##telarik
zentim
baimena
fenomeno
zuzenbide
##cer
artx
Teleb
erlazio
defentsa
##ase
##kie
Adam
belar
baimen
hamabi
Kontxako
handiagoak
244
##dearen
artea
autor
Ogasun
General
igotzen
pixkanaka
##ves
##gabe
252
Aldiz
daram
utziz
Demokrat
webgunea
hartutako
honetatik
udalerriak
226
Bio
Kro
##laritza
Hondarr
funeraria
##ôme
##tzap
DNA
##arteak
##ärvi
Freder
kontur
##eden
pare
Kantab
ikertu
##arazteko
klasiko
zentral
##adia
##atia
aro
##ación
##umena
Handiaren
##dul
##itis
Ron
##igile
Borde
Nekaz
aldea
gomend
##asek
##bera
itzal
neurtzen
Industria
je
##kulu
223
Ali
Top
talka
zintz
##atikoak
Hortik
sekula
Austria
latinez
##hen
doh
EiTB
koal
##istikoa
Norveg
askatu
barrena
marrazki
##kim
Este
Hemen
Buenos
galera
Denbora
lehenik
Ni
berp
Gizak
Museoa
ikusgai
##yo
##rick
bok
1905
Press
hartz
prozesuan
236
##tekin
1911
goren
zerga
##ions
Gipuzkoan
handitzen
##tunak
##agilea
efektu
meteor
zeudela
##atzaileek
erretiratu
hizkuntzaren
##aski
##arioa
##kariko
Portugalgo
##kiz
Sau
Tir
##maren
##eratua
##orearen
zauritu
ezinbeste
Kil
eutsi
misio
paralel
Vi
Ais
Gan
arin
arro
Gorpu
beroa
oreka
titul
ezizena
garaile
##itzaileak
##alez
##doki
Bud
##istal
Birj
##aldeak
##erazko
Amerikan
gizona
anal
hobeto
urrats
eskultur
finantza
metropol
##BC
##asi
dim
Gabri
antza
plaka
zutena
baseliza
##festi
##itiko
eskoz
zezak
zehatza
Ekonomia
Ps
Animal
finlandi
Londresen
deus
##iarazi
ikusle
areagotu
ingelesa
zituelarik
##tana
##dunak
jorr
porrot
ekarpen
askotako
gerraren
pertsonai
garraiorako
##iger
Sah
ote
##aingo
gorp
##intzat
diska
etsai
sozio
Unibertsitatea
kre
Zarau
International
Bou
##erara
mugatzen
hizkuntzak
delakoa
irauten
sakaban
murriztu
##ani
Elisabet
aurreikus
frantsesa
##imoa
Dorre
dadin
amaren
gauzak
semeak
ezkontza
elkarrizketa
##garr
##inda
256
##ández
##udun
##ainen
##iarako
zihoan
alkohol
konbentz
##arki
##ipen
benetan
espezif
lehendakaria
dia
##araino
hautsi
potentzia
##shire
Viet
derri
igoera
loturik
gizakien
jartzeko
aztertzeko
##dam
Aurk
hamab
Langile
arreba
aldagai
zitekeen
agindupean
Haien
froga
pilot
egitas
komand
##yko
##eron
egu
sug
Estr
gaia
Agirre
Kultur
Lizarr
Nolanahi
inprim
hitzetik
osaturiko
kontzentrazio
Kub
dakar
abentur
estiloa
Erkidegoko
guztietako
##uro
Zi
##iologia
Konpain
Mariaren
ezinezkoa
hazkuntza
unibertsitatean
jasotako
gudu
kutx
disolb
zizkioten
Mot
ero
##espen
Aral
eskul
mugitu
ateratzeko
Elk
##ineko
gran
Lehend
datuen
harategia
erromatarren
##jel
azuk
arrazoia
konstitu
pentsatzen
hartua
menpeko
kalitate
trik
Valen
##festival
Sirakus
hedabide
Ingalaterr
##off
270
1906
##ologian
seinale
bertsioa
estatuak
filmaren
##atzerakoan
sansebastian
231
248
Sur
Satur
Burgos
Calais
artekoa
isurtzen
osatzeko
Î
##esse
241
##tsuen
eredua
Alberto
University
##isc
##alda
Cer
##ezina
Gram
iruz
##entzen
batasun
materia
barrutian
eskubideen
kulturaren
Ingalaterran
Pi
Carl
Datu
portua
##ota
##darra
##eriaren
magnet
saltzen
alderdiko
artifizial
hoz
1908
diplom
Georges
istripu
estaltzen
Sec
jazar
abestiak
gizartean
##iga
Bru
Sha
##izketa
Batzar
Ingeles
nom
mutil
ideiak
hilketa
konstituzio
kontrolatzen
Nafarroan
237
Somme
Villa
rekin
eginak
software
produktuak
##nos
Vit
mis
sents
August
Christi
kokapen
zaizkio
Konstantin
gertatutako
supermerkatu
##die
UE
altza
Galesko
baserri
indartsua
prestatzen
substantzia
zientifikoa
Aurre
Batua
Georg
immun
alkatea
izendatzen
plataforma
##aig
Hend
Mosku
zigor
haserre
pentsatu
legebiltz
##alu
##iboak
esle
lanik
eratorr
itsasoan
mam
##atuek
pren
Inguru
arroka
Berriko
banaturik
##komun
##egatik
sinpl
museoa
UP
##tald
Lux
pen
##letic
Bell
Hisp
patro
badute
oxigen
nagusian
herrix
mantentzeko
##eae
larriak
François
Inperioko
erakundea
1000
Idaz
Plat
Euskadi
betiere
barrutia
bihurtuz
##lah
##mas
doin
egilea
elkartea
transmit
##tica
##erson
hodi
bitxi
ordutik
eraikinak
zentimetro
##lip
##ono
Tu
229
239
Bah
klub
iluna
Zibila
franko
zatiak
bakarrak
eramateko
Jaurlaritzak
##own
Etxe
Hans
perf
Vasco
bateria
eraikinaren
Gio
##eretan
Batez
Handi
##ieu
You
##itoak
##orria
Arth
lotua
Garaiak
penintsula
herrialdearen
234
jos
txim
##itaren
inpor
jaiot
hedapen
Provence
##ebre
##urrera
Horretaz
bizitzen
satelite
##aut
Lee
alda
##gintza
Soric
agian
aginte
identifik
Nep
##ridge
Albert
Ukrain
Errusia
inberts
##dina
238
##atearen
datork
sinple
herrien
azkeneko
gertakari
lurraldean
##eur
gatz
diete
altxatu
Baionako
Kanadako
ezagunenak
alderdiaren
##OR
##leko
246
255
ped
sinte
Printz
aitortu
1903
Agin
Disko
turki
Bizantz
##gny
gael
Santu
hiruko
kontsid
##lie
##sch
Giron
Done
Oise
##Euskal
Gilen
##rof
How
Sand
webgunean
propietate
##win
##acio
##utia
Alpes
Royal
Ot
##igur
249
251
Jas
Gaztel
Kanadan
garaiena
konplexua
profesionala
350
luk
Ibil
saih
Arkit
baitago
280
iza
kub
##atiba
Ball
pintura
##arretako
##ade
##olak
Din
kup
##keria
klan
kolpe
meatz
ustel
kaleko
Andaluz
##riar
Arra
atze
##andinav
Abesti
azpiko
lurzor
elikagai
Hungariako
##10
##olari
mina
bakea
##ium
##tarrak
lurmut
Chicago
barroko
bizimodu
##kien
##trak
##txeb
tox
Pale
egia
errez
haitz
ahalik
erreta
alderdia
errepublika
##iente
##illon
haize
adimen
ekintzak
gorputzaren
##tena
mul
##bestez
Txina
dutelako
erreserb
##iso
##uran
242
##iagoak
Diego
obrak
Osasun
botoen
Athletic
##agoak
Behe
ikar
ziho
gehiag
eskolak
enperadorearen
##tzio
Dic
Nev
Île
pase
##atzekoak
heinean
##lus
Zazpi
plazan
trants
formako
arkitektoak
erbesteratu
##agh
Sul
Eibar
noble
bestela
perpaus
Ministro
Mediterrane
233
ziz
sedi
erago
Gregor
sartzea
araberakoa
##esi
##egon
Dip
inpl
Rafael
doktor
neurriak
ezberdinen
Eku
iritzi
izenaren
urteotan
ekonomikoak
##emak
##ezka
##iang
Edo
ean
ibn
Ordutik
oinarriak
War
joango
Chapelle
dinastiako
##inp
243
gis
sask
Scott
Philip
arraun
jaiotza
boterets
konplexu
basamortu
gaix
txir
Hegoaf
haietako
##Eko
Ev
##atxo
zuh
1915
Kate
Eskub
greba
titulu
bolumen
lurretan
Belgikako
Literatur
zuzentzen
##ild
264
Zam
Ekin
Steph
animaliak
itzultzen
##elles
Serb
pieza
urtebete
ekonomiaren
Lak
pop
judu
aprob
komik
zaldun
ikerketak
prozed
itxarop
sarbide
estatuan
mugimenduak
##deg
##dox
245
zar
##ederal
lanbide
Publikoaren
aurkikuntza
Bé
seri
golko
horizon
telesaila
ph
##line
Boh
blog
Baiona
utzita
lortuko
aurreneko
##inoa
galax
landa
bidaiari
Alexandro
##bot
##arian
birus
kantitate
##rit
##ual
Joa
amets
egipto
zitezk
zientifiko
aipagarrien
##gl
Dep
Itx
gan
Aintz
borond
Poloniako
Duk
Rub
itur
##romagn
ahotsa
hasita
Penints
mugimenduaren
##ope
senarra
Hy
Ramon
hotel
proto
dutena
sakona
##bax
##imil
Aitz
fres
Errusiar
elektrot
ikertzen
jarraipen
##moa
fid
kaf
Croc
##atorri
Zuzend
kideek
diametroa
##degi
##iria
Bav
1907
Wood
Bildu
german
indark
alderdiak
zerikusia
Moz
##ketetan
Frantziak
vas
##rogei
##tesia
argiz
dizip
hobetu
mediku
##intzaren
europar
gurasoak
istorioa
elektrotresna
##iff
Kn
Ré
##raph
##uela
247
##aiako
Modern
##sw
##barr
##engan
Medi
Zaragoz
zutelarik
##atari
##ingen
Argia
zezan
##ll
Mau
##uria
urez
lehor
urtekoa
muturreko
hamarkadako
##til
##atom
lar
bertso
##EN
Sw
eu
272
izoz
##izatzen
Dublin
egotzi
harekin
bestearen
hainbeste
##tatuz
Kanpo
Plaza
##tasunik
##ima
Tib
Vie
1909
antrop
defendatzen
ix
Entz
feder
harik
tents
Teoria
darama
mikrob
esanahi
nahastu
telefon
##ezia
##umin
Fen
##amend
oxid
##atuena
##retako
Paulo
ateak
Familia
Irlanda
irakurri
##omastikaren
##hel
Labor
Auzitegi
Bitartean
Pun
tarteko
bre
Calv
Corn
subj
mendik
Navarra
Bizkaian
baldintzak
uhartearen
esperientzia
##kun
##tone
Tun
Zeh
Ferr
Ka
900
Cav
Txin
uztar
American
ri
263
osorik
positibo
sentimendu
##ru
Mem
leih
lurs
##ogeita
Espar
Palest
aprobetx
zirkuitu
Hezkuntza
Hauteskunde
##irau
uda
erradio
##rique
Kanp
Fland
arbaso
pribatu
erreform
ministroa
gotorlekua
Bl
##uruz
flu
salb
##atzaren
abeslaria
##akh
##aztu
##imer
##iekin
1904
berrez
lantegi
elkarteak
##talak
##tzian
zorion
haurdun
##loven
##tinen
##adorea
##riaren
Puy
disk
##atasun
##izkien
Krista
berari
eskala
##uze
##isek
ETB
Nar
Sax
bib
Jain
##urteko
ugaztun
hondakin
buruzagia
argitaratua
ingelesezko
##osi
265
Gib
Lip
bud
##aldearen
##etarekin
Ots
Ziz
##iorik
##onimo
Altz
plak
makin
sarri
##etermin
erabakia
teknikoko
nolabaiteko
Lez
Sun
##anzko
aret
##astiko
Errio
UNESCOk
aztarna
filosofo
txikiena
abeltzain
gehiengoa
musikaren
ikuskaritza
##osen
Tole
Zent
hier
Orden
zioen
oinordekoa
Fé
Pom
India
dekor
jurid
bezero
idazteko
##orp
##uga
##gabeko
alboko
Siziliako
##vey
Yo
##aleen
##indar
heste
Honako
gainaz
karrera
##oto
Ló
267
Gam
Jerus
Proiek
azkena
erkide
ikaslekin
belaunaldi
##thon
1901
Bonn
Brus
Lege
ordura
petrolio
erregistro
##ami
Argi
fantas
kapera
##fis
##chez
##drom
##mino
Lim
lis
ner
##roskop
anark
oparo
erasoa
arduradun
Abuz
letra
zedin
Hiriko
kolorea
datorkio
##alia
##ance
##logo
259
gutun
luzatu
Galiziako
Ondorengo
behintzat
ditzakegu
Cher
Ross
Drago
Filma
Udalak
izugarri
matxinatu
Une
kosm
krisi
legeg
eusten
maitem
ulertu
alorrean
##atzeagatik
jarritako
enperadoreak
Rib
ipu
Fried
antzin
aholkul
##AN
268
eres
hamarr
iraupen
Bestetik
Bob
Moh
SES
Aisne
tropik
presioa
aipagarri
ulertzeko
hiriburuko
hotz
##azioen
hauei
Indian
gehitzen
ekoizpena
ingurumen
interpretazio
CD
##erto
##pidea
Diario
albait
Hai
##doaren
ibaien
Eraikin
protoko
Probintz
menderatu
militarrak
hamarkadatik
##ral
handikoa
nahasten
##gua
##odia
258
##field
glob
##adanik
##orraren
ibaian
atentatu
##anek
253
276
bultzatzen
asteroidearen
orn
##bentz
##burgh
Gutx
tiro
taula
erlieb
lineak
autoeskola
##atsuak
eskal
txand
##burgoko
##kortasun
eraztun
arriskuan
##andon
Cass
oztop
konprom
eskuineko
presidenteak
##jak
dor
fot
Mill
pian
udazken
Alabaina
Elizaren
ezagunagoa
Veg
saso
milio
exekut
itsasoko
##att
##cos
##idoa
##undi
EHU
Jok
Yor
flux
Goiko
##abanako
ondare
hamaika
ulertzen
emakumeek
hizkuntzal
##onak
Rey
Tab
rol
##urgia
##terako
Euskara
sarrask
##zion
posit
pilotal
taldeek
tentsio
bidaltzen
ezberdina
257
etik
Harry
anaiak
Iruñean
##enek
1890
Emakume
dihardu
egitean
aberatsa
nekazari
berau
datoz
dezan
Munich
azaltzeko
neurtzeko
##mel
suer
ezezaguna
ideologia
zerrendan
erabakitzen
##ID
##usto
Sub
1902
atala
##ategian
ertain
azpitik
dioenez
erakuts
definitu
esanetan
klasikoa
bosgarren
ondorioak
##rac
##ogle
##term
Cab
Eko
poz
just
Loren
deusez
dirudi
ezkerr
espetxe
memoria
Herbeher
esanahia
sakonera
uharteko
ingurukoa
organismo
##nia
273
sig
##lovak
sinp
##agaien
argitalpen
Konstituzio
##ics
275
Rio
iba
bekt
##dukzio
Ingen
##entzial
Oih
Aire
Mall
armak
hondor
terror
aldekoa
arabiar
hiribil
partidu
tenplua
buruzkoa
ikasteko
konderriko
##EI
Hall
marx
##ikoari
sozialista
##aim
##tatzea
Berak
Borro
jabea
Lehiak
izenean
kontutan
gipuzkoar
erreferendu
##df
##ío
Pak
suts
##tatuta
uzteko
Ekialde
iritziz
kimikoa
Napoleon
mailatik
trenbidea
izugarrizko
##igin
Ill
##armen
Mars
unean
##aziaren
##etxearen
gorabeh
jainkoa
Ki
360
Sof
Zap
Haran
Joanes
laguna
kanporatu
Frantziaren
Iraultzaren
##ár
irr
##izabal
enbor
haurrak
gehiengo
kudeaketa
aireportua
herritarrek
AD
ax
##oklas
parkea
agintea
kanpora
Ikerketa
##iteg
kum
##idearen
auzoak
bilatu
direnez
mendera
txapelduna
Gusta
eremuak
jaisten
##ün
ma
##idel
##odio
ipini
neguan
intents
gogorrak
iristeko
parrokia
ondorengoak
##inn
##laje
Dev
Lem
sex
Jainkoaren
##isi
Ts
##itsu
Aud
##ikaria
Españ
Eugen
Parti
barru
Batuan
batere
itsasad
katalun
ugariak
erreforma
##dek
Der
Ide
zul
André
López
arrok
zeren
finala
Askotan
Prozesu
mendietan
maitemindu
254
morf
##ituzten
aurkik
txarra
Gobernu
betebeh
islatzen
etengabeko
Fort
Uzta
Matem
heriotz
poliziak
##goslav
Lurra
kated
epaile
plante
eskailera
Kaliforniako
##ht
Eder
##arioak
erradik
ikasketa
inbaditu
dituztela
kudeatzen
##ji
271
Texas
areto
osatuz
egiturak
kontinente
##ank
Zal
son
##ibidu
##zional
erron
human
saioa
##itateko
egunero
Finlandia
aldarrikatzen
Zeel
Ligako
materialak
historikoen
##amin
##taro
Doub
Edin
Jaun
Kenn
Marx
etap
##tariak
distir
##aziorako
erregistr
bilakatzen
hondakinak
##ju
lisk
Eremu
olerki
idazlan
##aya
##krip
##usek
Fos
Krist
akzio
orien
deklar
karratu
##exual
Nord
soil
Gabriel
Lapurdiko
##OS
Ty
sp
##olin
288
inde
Tenpl
greko
plano
##presion
abiatzen
beherako
beharbada
##cas
ac
om
Hum
atomo
enbax
Aldund
ospital
hautagai
gerrikoan
itzultzeko
##ús
##ben
##obil
##ction
aldia
Tolosa
jainkosa
okindegia
enperadorea
##zan
lodi
Simon
erlijioso
##Ek
##fo
##jan
Da
Euren
tribu
##ologikoak
abiatuta
hobetzeko
##vis
320
##rogen
doaz
##oiaren
Henri
Ligan
burges
kromos
berreraik
printzipio
##bin
##atera
briko
dagozk
Artikul
zizkien
interesa
musikagile
##the
277
##ather
Burg
emit
Organ
arriskua
daudenak
Santuaren
aireportu
PP
285
Got
Ork
SESB
Hurbil
arauak
Germain
Quebeceko
brikolaje
erabiliko
##ibio
Bien
Stal
Tarn
kooper
Maurice
indarrak
artistiko
##ortzi
1898
ordok
aldian
erreka
ezinbestekoa
Aban
Hein
Sara
Biltz
Irakas
Joseba
orbita
garatzeko
hartzaile
##isf
##osh
##elan
284
Hem
Zald
##arrian
aparte
jadanik
sekulako
maiztasun
dentsitate
antolatutako
##alau
Segur
Calvados
lurraldearen
##aip
##ores
koa
bail
nobl
Berri
arazoa
zibila
AEBetan
Guardia
Zibilaren
##eki
##ares
Aste
##atikan
Goren
uztea
ikurra
Jerusal
moderno
zegoena
iraunkor
sailkatuta
Bartzelonan
herrialdeetan
au
266
Neu
kopa
hobea
jartzea
mendian
erlazioa
hondartza
##lac
##ange
261
Gerr
uhol
Holly
North
Britan
Horien
kapitu
Erruman
iturria
sumendi
bisitatu
datorren
aipagarriak
##urs
##aton
278
Matx
klor
Hamar
Margo
lortzea
##zu
##dean
##taine
zera
egunez
jabetu
Vietnam
erresisten
txirrindulari
*
Oñ
Alpe
Oiar
kartago
tresnak
lehengus
ezagutzeko
##bach
269
279
Far
1889
##usketa
Meuse
Radio
Santo
mendekoa
bizkaitar
gehiegizko
##ilio
##tada
Blo
##andro
##kidea
eztan
isuri
##urrenik
angelu
zatian
dagokio
aktoreak
Argentinako
##alup
##tino
eri
Gauz
naiz
Museo
grezieraz
##lana
##vill
292
Pot
Koldo
lehia
argudi
gaurko
ingeniari
albaitaria
liburuaren
Mediterraneo
##col
zo
##agne
Hid
Vik
##denak
horiei
##aketaren
Eskolan
burutzeko
##Euskaltzain
artikuluak
konpainiak
1870
##ugarrena
Industri
langileak
##ezah
##ique
##obat
Jura
Alder
Barak
fruitu
Internet
aukeratzen
310
Jap
##ikula
##okoak
Hero
Erlij
bizitzako
gaztelania
##hat
##iei
politikan
nagusitasuna
aldizkariaren
##omo
##into
##tren
274
##erian
##ontzi
Beas
gales
konden
publiz
bazuten
abertzale
dagoeneko
monasterio
##12
##ear
na
But
bao
##orrek
##trina
Cham
High
Sevil
ontzia
##tzearekin
batzuetara
estatubatuarra
##nen
Blu
Not
harrera
hiririk
##tzerakoan
artearen
berretsi
mintzatzen
##war
308
Fab
Trad
##antzak
Baita
Geltok
##aldietan
eskaera
txinera
deituriko
Nazionalak
berreskuratzeko
##iop
##ouv
##gile
##iken
##teau
eszen
galiz
abestu
larria
pintur
Zeelanda
erradiazio
##ezur
##kete
Wolf
euri
Legea
##ismoari
diseinua
##atsa
330
fre
prezip
Laurent
Hegoafrik
baieztatu
Literatura
pertsonaiak
262
izp
##aziako
zortz
Egungo
agente
##izazioaren
##sonek
Penn
klim
artzain
posizio
bikoitza
portugald
Ibai
Agust
Ezker
Disney
dutenez
kultural
portaera
latinezko
ikertzaile
##AL
##wan
##agua
##igintza
izanez
kalteg
kondea
baliatu
hizkera
Salvador
maitasun
betetzeko
nahasketa
##tral
291
Alban
Jones
kardin
##tegiaren
zatitan
erakarri
harategiak
matematika
zientzialari
##ball
Jarr
Mess
Uran
eraikitzea
agintaldian
Tw
Jar
Leku
ehiza
param
sarea
halere
Ignacio
gizakia
proposatzen
##IN
##arka
Bang
egurrezko
Four
Lurreko
##oder
Tem
sas
tax
topo
##tzezko
Joaqu
balko
metrora
astronomo
Txapelketan
##igan
dot
fax
##pendi
1893
Oper
eski
Gaztela
Zaharra
irteera
##keten
Doug
merkatur
ekitaldia
izatearen
##ezin
##teek
Hay
##izkoa
Salaman
Berlingo
atmosfer
indartsu
Alexander
denboraldia
##esp
##geko
McC
##ergia
ildo
##itarrek
##ituriko
Santan
bihotz
esanez
indibidu
Fernández
berreraiki
282
olio
Princ
iloba
Gerora
lurraz
kalearen
Emakumezko
##rey
##inae
Tay
##aleku
##derik
Russ
araua
Societ
erasoak
ezizenez
gaixotasuna
##enz
##tonen
Dordo
Rodri
txikiagoak
Teles
##atuetan
jarriz
modernoa
omenezko
Hasierako
Ler
##mendi
##tzela
Mais
ahizpa
esanda
Espezie
Euskararen
kax
Arch
Obra
igor
arist
kasua
modua
baliag
Handiko
eraberr
militan
Dionisio
irizpide
arduraduna
erromatarrek
Ay
##txoa
1848
hode
leiz
dolar
Txileko
belarri
kontrolatzeko
##tron
##ifamil
##ostoak
kopia
##atarren
arrunt
inguruetan
nabarmenak
##bas
##oks
Tin
##tetan
kezk
aurpeg
##sp
##gues
283
ele
##idoak
##okian
##orrera
gorako
txanpon
Kontserb
hitzetan
##IS
Lew
##järvi
mender
konstel
berrogei
infekzio
elkarlanean
##jin
290
Mam
mad
map
##doren
Rich
Scien
bortx
Eskozia
bideratu
sentitzen
iraultzaile
Pirinioetako
##lé
Konf
##txebik
##aritzako
indartu
ontziak
zenbakian
proposamena
io
##roak
##antzi
ilar
abian
esaldi
Austriako
proposamen
zituztenak
##osia
306
amak
deseg
hiper
ehunka
##petu
Ara
generoa
gotorlek
##yp
286
Rol
bit
##igeno
##urrena
senar
estazio
ikuskizun
##ilek
Ard
##azteko
Robin
kausa
daukan
Jugoslav
etxearen
teleskop
kontzertuak
##hou
xaf
orto
aginduz
aurrekon
##agen
##cako
##piko
##tarr
##vann
obl
Glas
Martx
bitarte
harturik
zaharrak
magnetiko
identifikatu
##bour
287
##atsuen
Gurutz
dohain
arduratu
lorategi
berrikuntza
##jar
Nes
##organ
Cruz
##dutako
iragar
abesten
gurutze
ondorioa
305
Kla
gris
##alekua
algor
liber
automat
burdina
jendeak
Zibilean
##izkrib
Dragoi
jeneralak
desberdina
##TP
##atoa
978
dut
Kale
aniz
jauna
jaurt
Walter
##vie
##airu
1876
behi
##presio
Alons
Lopez
sorta
##etikoak
Yorken
lehenengoa
aipagarrienak
##oo
312
Cad
Viv
Egin
herb
basat
Laster
nahita
zenaren
Assoc
hegal
inork
jaiotako
jotzaile
ezartzeko
historiaren
he
309
bin
##ialdi
zezen
ederra
norber
probintziaren
##uda
1888
Guad
Patx
##alista
##eriala
gaizki
gorena
origin
ailegatu
Elkarteak
##ool
##ardi
##sten
##unda
Cur
Mul
dei
flo
Gall
Prin
beld
Brown
ituna
panta
España
Jokoak
Handiak
erdigun
abentura
ikastetx
zorrotza
aldatzeko
Danimarkako
##dy
Pop
1897
from
nano
Kordo
maita
##isferio
prestak
katoliko
nazioartean
alemaniarrak
##ower
##aziak
##banjel
##ionatu
Txinan
bideak
zentzu
zilind
egoeran
mendiko
munduaren
komunikabide
##doz
304
Vos
gang
mezu
##itakoa
saihes
haurren
espiritu
osagaiak
##sel
Esper
Victoria
dagoenez
lurraren
erakundearen
450
##elekt
Trin
jaiak
Grezia
sobiet
baliatuz
Historian
aitzindari
Australiako
Ax
##adol
340
##antea
1880
minu
Petro
heren
dutenean
##rí
##gio
Bada
emoz
##learen
Beren
harmon
Amerika
banatua
jarduten
Frantziara
udalerritik
pdf
1896
gene
Monta
Giovann
Ash
lasai
elikatzen
ibilbidean
##AS
##med
##itoa
##orti
293
She
Jeff
Kutx
##erioak
Merkat
Peters
azpifamil
Vo
##amon
297
Fatx
Jour
digu
larre
orobat
History
gizartea
eguzkiaren
##aid
ka
296
zelai
txikiko
argiaren
##Eren
##kiak
Arazo
Udako
arina
##ieraren
azukre
pedago
abokatu
aintzat
Zerbitzu
elektroi
liburuetako
•
##abak
298
324
##dunen
Migel
hutsa
Gobernuaren
Lad
Loh
Egia
herritik
zitezkeen
Beranduago
##mu
##abeth
Polon
luzez
eragoz
##etaraino
toponim
ustezko
Pizkunde
Gasteizen
objektuak
315
Ner
una
Cara
Kron
Arthur
Israelgo
zabaltzeko
enpresaburu
penintsulan
##mad
Sé
##ides
##ikon
sulf
moztu
##aldetan
jantzi
konpondu
protesta
atzerriko
denboraren
ts
##nost
tab
Indar
Ingur
gaizk
idatzita
misterio
teknikak
defendatu
hidrogeno
egunkarian
##amol
##laren
Ruiz
zaldia
apezpiku
argazkiak
kanpoaldean
fon
Gald
##tegiko
biluz
eskuz
emaitz
batzuei
gazteen
zalantzan
errealitate
##ön
294
tum
##iedad
Love
##mendua
Doubs
Jorge
erans
senide
alfabet
##tzapezpik
Nacional
japoniar
erregealdian
iparraldetik
##TO
##hal
##atro
lagin
London
Nikolas
lengoaia
##iriko
##tarrek
Hegaz
kimika
##igarriak
##tomandar
Martínez
etorritako
##aix
##ugu
##iluak
##tekoa
1891
Eleb
austri
errepik
pairatu
bidaiatu
eskaintza
helburuarekin
Au
##ilia
##aroan
1894
Liber
Ramón
zeina
irekia
orratz
bihurtzeko
elektromagn
Ec
##anti
##emia
##ikip
Sex
##utiko
zazp
##adoreak
adostu
mailak
##alizazio
##tikoaren
sartuta
Deustuko
estandar
Friedrich
##aze
##eler
##ross
Gri
Neb
Spe
##siste
##ketako
Gonzál
atzeko
ekoiztu
bizitzeko
pertsonal
##ulua
ase
Jane
fosil
kalif
hirira
sisteman
abantaila
Valentziako
handienetako
##awa
##ague
307
1895
Terr
atea
emigr
Felipe
buruaz
konekt
##utagailu
Lapurdi
Vicente
Batasunak
estropada
##ör
##enda
Conn
UEFA
Adolf
kareh
zutik
lurrean
termino
Brasilgo
batasuna
Abuztuaren
estrategia
sekuentzia
zenbaitetan
##etts
323
negu
jaurtik
pelikul
sustatu
zatiketa
espezializ
hirugarrena
##nil
Anti
bark
prem
ekoitz
berbera
metabol
jenerala
Erresumako
##óm
##bre
##dio
##dela
Alc
Laf
Ford
Torn
##ciones
##ustura
albuma
harria
honakoa
segundo
mediterran
gobernadore
batezbesteko
Ta
##uneak
Larra
konde
osaba
bizirau
Dordoina
ezezagun
metrotako
336
Agu
Die
Roger
Stock
jokoa
piano
Abendu
hiritar
gutxitan
errepidea
##tis
1892
Iker
konex
Ptolom
irakats
paisaia
##untzarako
mitologiako
ordezkatzen
up
301
302
Metal
Franco
Jesusen
Roberto
lekuald
hitzaren
amaierako
baliatzen
##AA
Izar
Pala
Gales
model
menper
Nekazaritza
##ors
##ebra
Bank
Kore
Street
dialek
##arriaren
triangel
erdigunean
‘
##ialak
1899
Gael
isil
onen
##aketan
##ibaloi
Karib
Harrez
bahitu
zigortu
Giovanni
##uaz
295
Bac
eza
Anne
bank
Asian
probl
tortur
##bidearen
estudio
Frantziar
konputagailu
Alber
Pérez
fusil
koroa
karakt
mugatu
printze
sindrom
zabalak
ohikoena
Australia
helburuak
maitasuna
Dio
PSO
##izioko
kostu
maite
haurtzar
materiala
Norvegiako
ekialdetik
##RE
##RI
Mid
##urthe
Mala
Aires
##istango
Elkarte
Johnson
nahiago
uniform
ohorezko
gidaritza
prozesuak
##karg
##tual
316
Mexikon
Stephen
Batuetara
##uso
##orth
325
Atz
Sig
##abean
abiap
##izatzeko
hilobia
filmetan
proteina
komunista
erregeorde
historialari
Ia
##illes
Baso
Jakue
finko
leinu
eskein
akordio
esperien
artelanen
funtzionatzen
##apean
adre
Torre
goraip
##itzearen
zeregin
Christian
Ira
1860
Azpe
Orne
xede
Etxea
sekre
Barcel
atxiki
petrol
izateak
hurbildu
Ain
Bea
##tonek
##taldeko
Alfred
Puerto
Greziar
donosti
merinda
Euskaraz
ekartzen
Filosofia
dituelarik
zerbitzari
##cey
##pak
lim
Anto
##itatik
##opotam
Suedia
azpiesp
orbital
##arengatik
Valladol
askatzen
dezakeen
espeziea
zetorren
erabakiak
hizkuntzen
medikuntza
eskainitako
##ifr
##dorf
##tico
303
abere
##tzarako
ekuazio
errugbi
unibertsitateko
##ote
##ctor
##linen
tona
Isabel
Esloven
Meurthe
azalpen
Hiriaren
kostaldea
Udalerrian
##asm
kg
##agak
euk
##akari
Sing
epel
kideen
moldatu
oinplan
oxigeno
bizimodua
kolektibo
##alera
##uteko
Babil
arrak
ident
kobaz
lider
kanton
komiki
Entzikl
Vincent
daraman
Katalunia
Veneziako
jarduerak
ospetsuak
sinplifik
kontrolpean
Union
egileak
harresi
##ikoarekin
Tolosako
egunkaria
kategoria
aurrerapen
populazioa
potentzial
Ci
##ited
##rica
##tier
Biarr
Crist
altzair
Merkataritza
##eriko
Vers
##olaren
sendoa
Massach
Jerusalem
distantzi
Ins
1886
Maiz
Arraz
eskult
puntua
sektor
aukerak
aldizkariak
AC
##fort
##errik
##karen
Bran
Fron
##erarik
Sailk
bonba
Sierra
aurpegi
##hib
IP
##uter
anf
Ever
bari
hard
##urekin
doazen
eratuz
Deporti
dinastiaren
jarraitzeko
##kel
Jord
foru
poni
Klima
izpir
motel
Marcel
ezizen
lurrun
botatzen
horretara
landareak
Arb
Lud
irreg
Teresa
aurrer
Douglas
gehiegi
kapitain
monarkia
burututako
baliabideak
monasterioa
##än
##edon
##tima
Pil
Pio
Teb
##akete
##oreen
antzem
Polonia
Estatuko
aitzindaria
eraginkorra
##eza
Om
##cker
##isau
##istu
Abd
Bus
##atzan
Gaixo
Herak
batail
domein
gunean
##kariaren
eskolako
jendearen
pertsonala
sailkapena
##port
326
Kri
UPN
##ainak
Hann
Urib
Aljer
marin
Manche
gotiko
Bereziki
Gregorio
biltzeko
borrokal
hiltzeko
Irailaren
aginpidea
garaietan
programazio
jus
Haut
fede
orek
erritm
konturatu
geometriko
Konstantinop
PC
311
Nin
##etsua
Ares
Artx
nork
##lerrek
oihan
sexual
egokiak
agertuko
arruntak
irabaziz
jaiotzen
##TE
##esak
Vin
Uste
##ainoko
##itzapen
Associ
Jaureg
kostald
hamabost
kazetaria
oinarrian
281
##ilika
##oliko
##olito
Testu
##orretan
tartea
Egipton
Enpresa
Vienako
Material
eskuratzeko
kalkulatzen
##cien
##kins
kul
##ikiat
Getx
gorak
gogoko
jaurti
lanari
urriak
Enrique
Landare
aktiboa
antolaketa
Nazionalaren
lurraldeetan
Dy
##ript
Medik
pixka
Compan
bukaera
fisikoa
norbait
Christoph
funtzioak
zituelako
Sn
tar
##mundo
##uluak
##ezkoak
##ometro
Julia
Kanta
birik
##aziorik
Astronom
González
elektriz
biztanleek
##ray
Oz
##tsak
##urrek
Ehun
kodea
Alonso
nabaria
agerpena
definizio
izenburua
kontsideratzen
##azu
##lia
332
Nam
##ahiru
##idako
##oriak
Gers
Sher
Roman
badirudi
aipaturiko
##obre
trip
##ibidea
Euzko
Yonne
osoak
polem
Fakult
Record
absolu
buruak
praktika
Kontseilu
itzulpena
Germaniako
aplikatzen
bitartekoak
##cen
##idek
##uzen
Ema
Joxe
habe
##gabetu
debuta
katean
Kristau
Taldearen
hitzarmena
administratibo
##cial
Iri
##tziala
Kontz
atmosf
guztiei
testuak
alemanez
hirietan
Massachus
‐
##ols
##dows
##etti
##iratu
1871
Kiss
Lisb
Pont
Brian
jakit
Aurretik
gordetzeko
##hem
##ées
##osin
Ikask
dauzk
kontratua
elkartearen
##isia
Azp
Ear
Jaio
##alditik
joatea
lagunak
handietan
Bertsolari
299
Law
Pac
##aleek
##ition
Ebro
isot
jazz
Bearn
kaler
olinp
Vienne
Frances
Herrira
Japonian
estiloko
hitzaldi
Esaterako
##helm
##lean
##cadem
Bakt
Ezkon
orein
Savoia
botoak
erregeen
urterako
Barakaldo
izandakoa
izugarria
jasotzeko
Erresumaren
literaturan
modernoaren
##eroa
##egina
Apol
##iograf
senid
Atenas
Jackson
Tolkien
bateratu
honetara
solairua
Horietako
ospakizun
azpiegitura
tradizionala
Massachusetts
##ory
##wig
Che
##logia
Goku
arrats
nobela
baitzegoen
gizabanako
##izi
Pit
##stein
##elaren
gluko
bizkor
estruk
bizantz
mendien
dimentsio
ingeniaritza
konderriaren
289
317
335
##agaia
##ensis
##inoen
mapa
Times
dukea
urteaz
zergak
lagunek
izatetik
udaletxea
brontzezko
dramatikoa
eskuizkrib
zibilizazio
politikoaren
##txu
gam
edon
obran
##chester
lehorr
margotu
Sebastian
prozedura
desberdinen
##ão
pe
##omin
Jen
##atoki
##gizon
Etor
Klas
##tienne
Boliv
Herio
Castro
Presid
Energia
luzeena
ekoizteko
zilarrezko
herrialdeen
##20
##vy
##ctiv
313
Eul
pale
hirur
leial
Claude
ezagut
iradok
austral
zutenez
Konderri
bizilagun
343
Kin
dif
##ipena
##itxel
##apenak
Carmen
adarra
erritu
fabrika
gertuko
zelulak
zorrotz
Espainiak
ofizialak
konposizio
emakumezkoen
##fan
##sin
##vers
Bag
##euden
##ainaren
Aristo
Bilbor
krimen
hungari
burujabe
derrigor
mugakide
Argentina
##kero
##ther
guda
laua
South
lanpos
Eraztun
Zerrendak
bihurtuko
herrietako
kontrolatu
independentea
##ikoz
##topo
1885
Goiz
Hong
##iatzen
hausn
##ektiboa
##aritzarako
Elizabeth
aurreratu
solairuko
##tasunagatik
##aud
##enh
322
God
alor
Indre
argent
kanpoan
kontzej
Artikulu
jainkoaren
##ains
##dium
##elli
##urrun
sute
Eurov
haurr
Kolonb
ohiturak
irabazten
pairatzen
lux
##agune
East
beir
hara
oker
Artur
armen
gazta
Aldizk
herrietan
gaztelaniazko
##kh
##uge
##quez
##uang
##koaren
laran
errend
gerrak
zezaten
Virginia
jarraiki
sozialak
taldekide
teoriaren
daitekeena
onomastikaren
##erek
##ilan
##ektib
##eroak
Cons
pozo
with
Tomas
koron
Madrid
Santua
ikastol
inperio
itsaser
artikulua
dokumental
Espainiaren
##eoa
Án
##tzep
331
Aiz
Fir
##iones
1850
##ticias
tintor
berritu
bizileku
heziketa
ziurrenik
txapelketan
##ls
365
Stu
Alan
Amen
diox
info
##azteak
gabea
ibair
School
hirien
mendiz
Garraio
lehengo
agintariek
asmoarekin
euskaldunak
##els
SA
##esio
Gard
House
Mario
dirau
Kanada
artist
onartua
baserria
Zuberoako
erantzuna
handiaren
kritikatu
lurrikara
EB
##ense
Cop
mih
Aube
##iziala
hotza
parek
Montre
efektua
funtzional
indarkeria
borrokatzen
musikagilea
##estea
##aileko
heter
odola
oihar
Domingo
izarrak
zonalde
izateari
ezagutuko
magnitude
plataform
Independentzia
319
Bik
##lekua
##oztik
País
##itsuak
Aitor
Patxi
pobre
##itatzen
Amster
sorgin
Bestela
aritzeko
bereizteko
##atem
##ladi
Sai
##arkia
##gorri
1882
Haiz
poes
hanka
Batuek
hormak
erretaula
nagusiena
ondasunak
Herbehereetako
Fa
##omon
Lon
Pla
Kong
Korr
akab
ukatu
neurtu
ozeano
Ricardo
Wilhelm
jainkos
loturak
kentzeko
orkestra
Edinburgh
mekanismo
##uy
##doro
##idio
328
1879
Beat
Hung
mist
punk
aipamen
Hondarrib
egindakoa
##apt
##ostol
Soin
bildum
##atutakoa
alditan
teoriak
euskarri
programak
urteetako
japonieraz
beldurrezko
338
Ala
amino
zegok
antzina
gustuko
gainazal
bakoitzari
beharrezkoak
##etz
##her
##exek
314
380
Comp
Life
susm
Kateg
Valle
##garrien
Vosges
guneak
hartze
##arrerako
Gironda
fitxatu
ikasleen
Elkartearen
Aus
1887
Iñigo
Josef
Plata
bizid
Island
Japonia
gorriak
garapenean
prozesuaren
##ble
##algo
##gain
##ites
##urua
Lek
Tak
##teles
agir
molde
baserr
hitzen
ikasleak
Estatuaren
herrialdeak
##jea
Py
Cat
Ink
Len
##dinam
##inoak
Azar
Pilo
usad
##tapena
analisi
ezkerre
ikuspeg
aipamena
konkista
legearen
espezieak
seigarren
txikietan
aurkezteko
ikuspuntutik
##chy
TV
##egun
370
Ata
Bis
##iento
Hard
Vern
ardi
##antzan
ehung
eusko
jauzi
diskoan
mugatik
Parisera
jokalaria
Eurovision
mendilerroa
literaturaren
##cken
Bass
Gold
afrik
dioen
erauz
zaind
##gailuak
aditua
Museoan
saiatuko
hurbiltzen
##cul
##alan
##otik
Fac
Vau
##tatze
##ilaria
biderk
sintag
Château
bazituen
traineru
artzapezpik
Cin
Gos
Gun
Urd
oto
##amako
Plut
biltz
gorro
Howard
jakitea
hipotesi
sinesmen
sobietar
antolatzeko
existentzia
##15
Kle
val
##akide
Txek
trag
ester
lingu
ziona
Saturn
jakinarazi
publikoaren
##PG
##goza
321
Bot
aul
Foot
arpil
Andres
deritze
jarriko
Euskotren
deritzona
altxamendu
##iva
UC
##lano
Que
Set
Sán
hol
Felix
badia
pribil
Adibide
balioak
famatua
jakiteko
murrizten
udaberrian
333
Dig
Ore
Ret
ais
lid
1830
##iolako
altuen
zapata
hidrogen
independent
##lix
Pis
##auter
Ganb
erup
pean
Hauen
Nicolas
eraitsi
mugatua
Erromara
Zaragoza
gehienen
igotzeko
eskualdearen
mendilerroan
Isa
Zip
res
##gaitz
ardo
nazi
urria
Erdiko
Mitxel
negatibo
fitxategi
jarraituko
420
Hig
##iteak
##tarra
Barn
helm
galde
itxuraz
jarrita
Urriaren
heltzeko
mendirik
##otza
329
##imena
Brig
Tran
azala
Micros
bertar
irekitzen
arrakastatsua
sortzaileetako
##wen
##ienak
1872
1881
itun
##etrikoa
onenak
Gerrako
atseden
aplikatu
antzezlan
garraiatzen
##adar
##ezke
##agunak
Baztan
garbia
turismo
iraupena
pasabide
transform
Harrezkero
bilakatuko
##yin
##toen
Cir
Ran
fig
1884
Guzti
Beheko
bisita
testua
Aurrera
bazkide
sinbolo
zebilen
Konstitu
bueltatu
handituz
ateratako
dutelarik
apaingarri
arrazional
instituzio
konpainiaren
SI
ni
##otar
339
Gand
##iraino
ETAren
jasoko
txinat
zatitu
aldendu
elkarri
eserleku
hoberena
katedral
hazkundea
instrumen
oraingoan
horizontal
kilometrotara
Euskaltzaindiak
##eram
##usse
Zab
##izena
##ology
Chap
##ikeria
##onaren
arroz
laukiz
Stanley
ditugun
lapurre
mendeen
Bernardo
Oraindik
taldetan
kalitatea
inguratuta
udalerrien
##sia
##atek
##toia
318
356
balor
homos
serie
udako
Defents
Jupiter
Society
Taldeak
Irlandar
Kategoria
erdialdera
##ogo
##uch
RNA
Wes
##olles
Quin
tera
Milan
Lehena
famatu
lizentz
diskoaren
erabilita
daitekeela
##él
q
##rie
Gh
##trol
Gat
Sat
##feren
##ogram
##ialari
Afgan
Clark
Joana
bilera
errepar
aurkitzeko
Oc
##emon
##idur
Hur
Nag
##zkero
izak
basko
emeak
leher
##atsuena
Antzin
poliki
zaintzen
ekonomian
erdigunea
dirudienez
Nazionalean
oinarriturik
342
##imetro
##orrena
etnia
ziola
##alizatu
Gerrak
Sobiet
udalak
maximoa
neoklas
Suitzako
beharrak
operazio
dituelako
Hegoaldean
##cycl
Kob
1868
1883
Bres
aroa
aditz
hebre
sabel
metodoa
soldaduak
Sozialista
eskualdeak
Arkitektura
matematikari
##oix
##try
##unb
US
##asei
##entu
334
Pad
##osaur
1874
Adri
Merc
hona
della
Samuel
herbeh
##teagatik
Bernard
eztanda
txarrak
Mesopotam
elikagaiak
hizkuntzan
##ías
##ters
##erakoa
Elorr
Poliz
ebalu
metod
Anthon
gaueko
propio
eskumen
Irlandan
espektro
gonbidatu
onartutako
Nazionaleko
##bek
##ène
pp
##kita
##tina
Sac
Arke
agerr
estand
irteten
zirenez
Sociedad
ekiditeko
protokolo
eskuragarri
esperimentu
entrenatzaile
##doan
##enta
##holm
Rud
mel
##etika
plat
##ganako
Berrian
Kartago
taberna
jauregian
alderatuta
azpifamilia
Mendebaldean
##áz
##oso
AR
Cy
366
Day
##igraf
Sart
tail
Maine
modal
zizki
##ieratik
Viktor
partzial
naturalak
harrezkero
irakurtzen
politikoen
manifestazio
##kol
Aj
Gom
esta
linf
##ikotik
Eneko
Araban
Google
Harres
santuak
emazteak
Aristoteles
352
440
lez
##ution
1873
Arre
lituz
Moskuko
galdera
kongres
armadako
ekosiste
harlandu
luzatzen
aldakorra
hauetatik
emakumearen
kontzientzia
probabilitate
##tax
##morf
Var
mex
Mach
##ulazio
urban
luzeko
nabari
Esteban
Villers
biografia
italieraz
##tasunarekin
Katalunian
ministroak
saskibaloi
##ylvan
1861
Harri
barra
arekin
deskon
Patrick
atalean
eratzeko
Santander
katolikoa
taldeetan
kataluniar
planetaren
ezaugarrien
##bes
##ñez
Alk
Amaz
deia
##espena
##itzeak
##ortura
Borbo
Ginea
Norman
ahozko
altuko
Grezian
abstrak
albiste
laurden
ezagutua
kolonial
txinatar
dagoelarik
erakartzen
mantentzea
##mi
##ège
Up
345
Hed
##agarr
##udien
feud
argiak
britan
txakur
kasuetan
futbolari
##ese
##rup
##ogia
Sep
##untua
Azko
Cann
Cork
Shak
eska
onur
pist
garra
Hogeita
egoteko
ospatzeko
Gehienetan
##lock
##idoen
##ystem
Lomb
amod
##toaren
##tzekoa
Miren
Guatem
tropak
Itzulia
artisau
bidetik
Berehala
graduatu
idatziak
ordurako
mitologia
xehetasun
mendebaldetik
##lis
##sis
480
Zig
Stor
Thom
##tatuak
##udienez
Latino
zientzi
igortzen
kimikoak
Crocidura
liburutegi
nu
tre
vol
##arium
##raham
Lewis
Steve
Illino
Garapen
Windows
##ologikoki
idazkera
zaharrenak
##AC
##VD
Jur
Fred
##ektuen
agiri
elezah
neutro
##ifikazio
Polizia
errefux
jakintza
kartzela
utzitako
##pek
galtz
kabuz
mutur
gorpua
Arabiar
Ardenak
sorreran
Gernikako
aintziraren
KV
##eton
327
1840
opar
soinua
zaldiak
bolumena
dimisioa
eraginda
gauzatzen
hiribildu
##nan
##ños
378
Alm
Ola
erm
Made
Mait
erla
igan
##ologoa
Ezaug
Erriox
palest
Ekintza
fundatu
baliokide
diziplina
##KE
341
Guy
Lum
##iketan
Denis
hortz
Academ
plazar
bezalaxe
espetxean
irakasten
kalkulatu
ospetsuena
##èze
CN
364
klin
Niger
Young
gorago
osteko
Belgika
hasteko
porrota
diametro
hegoaldetik
##ret
Glo
##fonia
fisika
ganbera
ondotik
ekarriko
kokapena
batzuetako
Zo
##egov
serb
##aineko
Portu
saila
armatu
##iarekiko
kontratu
eratorria
kartzelan
etorkizunean
penintsulako
##vol
##EIMA
##itel
372
ion
Zuha
mobil
txoko
handikoak
ahalbidetu
militarren
EE
##anov
##oman
344
Gog
pur
##gorpu
##taldi
Esate
estiloan
zeukaten
euskalduna
337
##ideko
akus
diez
nire
##akoaren
Indones
aldatuz
anitzeko
irakatsi
leporatu
zehatzak
zezakeen
harresiak
karratuko
hemisferio
zentsoaren
##usio
jaz
##doeur
Chau
tont
zero
Eguna
gutxitu
Katalina
bultzada
ezartzea
partehar
Dirudienez
demokrazia
Bretainiako
##bro
##quer
346
Kai
##ropol
1857
Rein
beso
esne
metr
kentz
##tagarri
Anthony
balizko
##alizazioa
Gaztelan
agintzen
aparteko
dagoelako
merkatari
proiektuak
herritarrak
ezberdinetako
##uste
##vard
384
ETAk
ents
##toreak
gabez
kazet
konpu
Elemen
Santur
apurtu
argitu
Williams
telefono
Lehendabiz
Zinemaldian
##lyn
##efiz
##etta
##quin
349
Luk
1863
Gene
baxu
Ituna
konfi
mahai
berdea
Errusian
gazteluaren
handienetakoa
Cá
Gi
##osko
Cerv
##ikorako
Neguko
Taylor
Alfonso
Sánchez
orkestr
zeraman
Europara
suposatzen
kontinental
ondorioztatu
##fil
##ome
Éc
390
Boy
Ess
Pul
Dôme
Marr
Urre
ezen
##aririk
arago
alboetan
entzuten
hedadura
eginkizun
konstante
Eskualdeko
Errepublikan
distantziara
347
363
Hez
deg
jun
lil
Brit
Berme
eszena
jakina
urdina
Program
etxetik
kasutan
Danimark
bukatzen
hasitako
salmenta
positiboa
Asturiasko
##kil
##ofis
nos
##degia
##iseko
##press
ezegon
tekton
askotar
erromes
sedimen
eskoziar
kontzertua
351
Hun
sua
##ekzio
##itoen
##oplas
Dame
NASA
aldez
lanek
Termin
desbid
kateak
zeinek
armarria
kargutik
metrokoa
piramide
katalanez
ekarritako
oinarrituz
historikoak
gidaritzapean
##ody
##ube
##idem
##oien
Coun
##amenak
ahula
motak
##erarako
aitzak
oparoa
erritmo
federal
zirkulu
laburrak
kapitaina
berebiziko
telebistan
##anz
##hac
##idi
354
Cle
Aroa
Center
bisigo
formak
sakrif
Egitura
egoerak
hormigo
Jarraian
Otomandar
merkatuan
##añ
##arak
##itek
385
Kev
##ulatu
Biko
Boul
##etxean
barik
faraoi
istrip
gizonen
Justizia
Enperador
Gizonezko
garatutako
##asia
##etuta
Pier
Multz
Opera
Reich
sosten
##ederland
##ografiko
handian
ikaslea
inperial
Elkarteko
Francoren
izenekoak
arrakastarik
##ky
##ós
##obal
1867
hila
infin
zuntz
bizitz
Filipin
Jauregia
erlijioa
inperioa
eremuetan
hilabetez
Zaragozako
ordezkaria
udazkenean
##pur
Anna
Herz
Lord
Plaz
Tenn
Rodrí
##istoren
Julien
aitona
errota
antolak
berrian
puntuko
teorian
determin
lizentzi
unitatea
ordezkariak
probabilitatea
##agi
##pea
##agar
348
Bau
Dre
Suk
Herm
Stra
duke
##errera
##iraren
Iturr
Jacob
hegan
##itariak
setiatu
mikrobio
Abenduaren
ezagutzera
industriak
saihesteko
erabakitzeko
##txob
Ple
##artek
Klub
Gerta
Music
gurtza
##etasunak
Catalun
Gernika
fisikoak
industrian
zitzaizkien
garraiatzeko
irakaskuntza
##ML
##uto
##omak
375
Wat
aba
##atara
##aktore
nahia
toles
Peruko
bolkan
aristokr
osagarri
suertatu
erasotzen
desberdintasun
Ri
##itro
BBC
norv
##alismo
Saras
ezean
harata
datozen
diskoak
ikusiko
txartel
zetozen
ikuspegia
iparraldea
irakasleak
Christopher
##dig
##dos
1865
Arri
Iman
agur
##arraga
bideg
enpar
kezka
tropa
##istekin
##ologiak
gauean
izanak
nekazal
okzitan
psikiat
zatirik
ekialdea
gatazkak
ingeniar
Azaroaren
aztarnategi
##artz
Dek
Joe
##antol
1878
Agur
Mota
##isteak
##itario
Harre
orban
##doeurop
Emilio
anatom
gutxiko
hiztegi
polimer
progres
metalezko
alderantziz
gobernatzen
herrialdean
herrialdetan
##zy
##jol
##uck
##leek
##okon
396
Teo
lex
Isère
Penns
Basque
Leongo
justif
trinko
lursail
salbatu
Étienne
Behereko
akordioa
eramango
estatubatuarrak
##tum
##joko
##ming
##tein
Hob
sud
##durak
Kell
Pass
kora
zing
##ailles
ponia
##intzako
arloko
Handian
deituak
errebel
Udalaren
pelikula
Eraikuntza
inperioaren
Dí
##iran
368
Zil
dud
jel
##arran
1814
1875
deabr
##agintza
Demokr
Hispan
biktim
biloba
buruko
hantxe
normal
janaria
prezioa
beteriko
adierazgarri
ordezkaritza
proiektuaren
##gow
##edun
##seko
One
##astro
Elik
Time
##iderik
Autob
Bruce
bereh
Guraso
United
Erlijio
teilatu
eragilea
jokabide
justizia
Zaharreko
arrazoiak
erraldoia
gobernuan
guztiaren
irudikatu
kontratatu
hiriburutik
##etsu
Old
##ignac
birr
farm
Franz
herts
ustek
utziko
armadan
ingurua
jotzeko
soldata
nagusiko
Frederiko
alderatuz
garaieran
tintoreria
aipatzekoak
##ova
##ture
357
Esz
Fle
Rab
jes
##oketa
alba
dizki
emate
plang
ahaztu
ostera
##atokitik
igotzea
gurasoen
koloreko
zeramika
Rodríguez
Birjinaren
sinplifikatuz
##ware
550
Bih
Mis
Orb
pul
##aldem
Bonap
droga
makur
elizan
tronua
gerlari
zuzenak
inportan
jaiotzez
Inperioak
eremuaren
Batzordeak
elektrikoak
intelektual
telebistako
familiarekin
##ON
##ali
##fin
##rel
353
Alf
Rav
Rep
tol
Ezin
banan
kutxa
Iturri
pazien
kontrakoa
eraginpean
IU
##kada
369
410
can
##aziar
Berm
##esaren
katea
ustia
Matxin
jokoak
muskul
##ún
##lat
Way
##athan
Atal
Ivan
##etxeko
Rovan
bainu
inpos
judut
onddo
berrik
oztopo
College
Journal
dezaten
Barrutia
basilika
Emakumeen
jatorrian
Ilargiaren
aktibitate
arkeologiko
Civ
Lep
Kans
inor
asald
moral
Ordena
Wilson
fasean
herrira
estatuen
izenpetu
gorputzak
bultzatuta
komandante
sustatzeko
##oke
Ál
##erob
##stro
430
Pep
kla
Serg
Domin
Duela
Eston
bolun
festa
Galile
Oxford
ustetan
diktadura
Pennsylvan
eleberriak
historikoki
komunikazioa
##EC
##fel
ij
##ager
359
376
Alj
Net
##itzek
1864
Beti
Mand
Arana
Idazk
Arantz
Margar
saioak
atzeman
Burgosko
delakoan
espazioa
kondaira
##etasunaren
Australian
ahaleginak
jeneralaren
##erm
##town
392
Lie
##iketak
Mazed
Txiki
kanal
Colomb
harana
pinyin
sumend
erregai
filmatu
gotzain
aldekoak
murgildu
sarbidea
egunkariko
##ieta
Azk
IRA
Meg
##kinak
Ahal
osora
Suitza
Margari
adituek
errenta
erortzen
loturiko
Ukrainako
euskaltzain
##iazioa
White
batai
enple
moder
Kopako
deform
##uñamendi
Geroztik
##DA
##En
#
~
##edy
Equ
Ist
##ariko
##manen
Apir
Josu
Karr
##tarazi
Momen
latza
Julian
Museum
Social
delitu
##iengatik
Siriako
Minister
hartatik
Aipatzekoa
kopuruaren
bultzatzeko
jauregiaren
##ds
Kab
PSN
1815
Anat
Bara
Corr
amer
prom
Ander
Night
aitor
suitz
garest
izarra
Martinez
hiriekin
koloreak
orrialde
arabieraz
idazkaria
langileek
produktuen
baitzituzten
##chn
Gö
##asco
##dena
Taf
Errib
eskura
ordoki
Sevilla
Trainer
kalteak
kentzen
zelulen
sintomak
bermatzen
kutsadura
##19
##wal
850
Mans
hank
ipin
Belle
Colum
Arraun
autore
ardatza
arrautza
baliteke
haranean
hedapena
Espainiara
kontzeptuak
##IC
ut
416
Aqu
Pav
hes
Homo
Notre
Satan
erako
horia
Landak
ezpata
metodoak
erantzuten
musulmanen
AP
##aska
##luba
##zabal
Hugo
ultr
hindu
pista
##untzari
Allier
Beltza
Irakeko
minbizia
negatiboa
ustiatzen
zerbitzuen
Andaluziako
##bus
##ité
##egoa
Fan
##estio
Bela
Brad
Habs
Lope
##teetan
Elekt
Istor
##azioari
alderd
ekialde
hamalau
saleros
borrokak
buruaren
ikerlari
magalean
##ismoarekin
bakarkako
eratutako
orrialdea
##vres
355
Jel
Sid
lip
1859
diona
##aritzak
Fermin
lurren
zirkun
estalia
Estatist
frantsesak
salbuespen
##17
##amar
##ione
not
##oniko
Andr
eras
Ozean
Zentr
apala
Ulster
erresk
juduen
erantsi
ezabatu
antzeman
mekanika
lagunduta
##vet
##oven
Ans
Bit
Had
##aldek
1841
Open
Hamil
Kontr
barna
Aragoi
interf
abandon
irakask
abiaduran
EP
st
##ehen
Eraso
Udala
ongiz
nondik
Fatxada
ereserk
errendi
zuzenduta
baliokidea
gorputzean
produkzioa
Nafarroakoa
##ebo
Zh
Eng
Jam
pip
##tetik
Allen
Funtz
astro
harro
Estilo
erants
##aduraren
Bakearen
Oiartzun
jotzailea
erabilgarri
zalantzarik
administratiboa
##IT
##eras
##iora
alj
##ediak
1800
1877
##tsuena
Jupit
betea
eslav
freku
Konpos
Urtero
haurra
metroa
##tzaileen
Jauregi
aminoazi
gurasoek
iturburu
aukeratua
azpiegitur
gainditzen
itsasoratzen
##dad
##nek
fa
##ñako
367
##habil
##tzioa
1820
mand
##turako
Lituan
txalup
Records
agerpen
##abetasuna
aldatzea
artistak
zeinetan
Amsterdam
zegoenean
Teknologia
erreginaren
##idos
##joki
361
Beg
##ersey
##orpha
Prim
Human
Islan
ihesi
plater
Football
intsektu
triangelu
zailtasun
mugakideak
egunkariaren
##yph
Rap
##daren
Leke
kore
entre
poder
Tourra
astean
bietan
Baionan
absolut
musikal
sortuak
turismoa
Bizantziar
diferentzia
euskaldunen
##ém
##pus
##itxo
Bow
hib
Conf
izpi
Erron
Jakin
bizik
giroa
izurr
alumin
webgun
Kongoko
Udalerri
organiko
Sevillako
lanarekin
zintzilik
aipagarria
poliziaren
kalkulatzeko
##hor
CA
Mate
Meto
Scot
ohor
aprop
gauez
Morgan
Gudaros
Jatorri
ezarriz
izarren
pintore
Eraikina
aurkakoa
behaketa
beharrik
zegoenez
zuzendua
erabiliak
errotazio
norabidea
aipatzekoa
bidalitako
irabazteko
azpimarratu
mendebaldea
##liz
##deen
404
Cha
bek
gus
##uzioa
Math
##itudea
##ordeko
marra
polar
Etxeko
barner
luzean
Espazio
elizako
gizonek
suediar
zabalean
ezkertiar
##éz
##ipo
##mal
##okan
Kok
neb
off
pez
##iritz
Rosa
##adurak
amore
hustu
Ezaugarri
guztietatik
##abia
Met
Tos
nin
1866
Ángel
##ikazioa
azeler
Liburua
bozkatu
hilabet
horretaz
santuaren
sistemako
eskandinav
nagusitzen
prestatzeko
zientziaren
##fri
##tah
##yte
##odos
358
Naz
Off
##right
1789
##tzetik
existen
ezagunen
ikusirik
plastiko
Armadaren
Margarita
##MS
##yar
##itch
##quet
415
##gabea
laga
##uskako
Banku
paten
Durang
Neptun
Oliver
Tenper
sartuz
sultan
desados
hostoak
kantuak
herbeher
zegokion
Alemaniar
zehazteko
erakusteko
ordezkatuz
zazpigarren
britainiarrek
##auss
col
dug
Eric
Zorro
derib
Urtarr
berpiz
lurreko
abiarazi
altueran
haratago
Langileen
interesak
argudiatuz
Association
##orta
405
Erm
Inc
reg
##istia
1842
Prov
astek
eskum
urrea
Encycl
Koreako
kontatu
zituenak
litekeena
AS
EI
Nik
##ittle
1869
Ariz
Bola
Horm
León
Funts
Water
glazi
usain
Ondarr
kolpea
##izazioak
Georgia
formatu
makinak
Orkestra
merkatal
feminista
gertatuko
ingelesak
Historikoki
##abete
##retik
Abel
Main
Meta
Tang
fosf
##ograph
Konda
koefiz
mintza
Missour
estrein
ortodox
tekniko
gazteler
kulturan
tentsioa
berrantol
Ministerio
gaixotasunak
##ekos
432
Fou
Ote
Syl
Kode
Tern
Vend
ditz
##ikunde
Lorenzo
habitat
itzulia
aginpide
daitezen
kulturala
egunkariak
gorputzeko
##18
##hid
##pro
##ello
##nica
##omia
408
fut
##illan
Neur
Otto
Well
astur
etena
Irango
ohartu
ertzetan
taldeari
talderik
Zientzien
ateratzea
parametro
azpiespezie
##BA
##bri
##toz
##iles
388
##iarik
1808
Post
taul
##tzetan
ordur
tuber
Kopenh
atalak
euroko
fakult
jeitsi
Franklin
Metropol
baimendu
fisikari
nortasun
punturik
zizkieten
Aipatutako
ordaintzen
espainiarra
hegoalderantz
##eau
##artu
374
387
395
Glob
foto
goit
##tzatik
Antol
Artiz
Jauna
Gorria
Horiek
##alderako
Ofizial
biograf
##kortasuna
Akademia
aurpegia
lehenbiz
segundoko
Entziklopedia
##wer
BA
maf
##manek
##txoak
##uzkan
Carn
Oria
iren
##italea
arter
auzia
infan
sustra
##ektuaren
askorik
bestean
erdigune
lekuetan
printzea
Catalunya
gobernuko
jorratzen
zeharkako
Argentinan
##xkak
409
Ful
tem
##https
##iskal
apal
##ialdia
Balkan
Grande
betean
gidari
ostatu
Miranda
Jatorriz
Konbentz
albistea
antigorpu
baieztatzen
ezinbesteko
nabarmenena
Ingalaterrara
Jaurlaritzaren
##com
##day
##aume
386
394
414
Baro
Clar
Oran
tank
Unión
domin
##bergeko
badugu
banako
AEBtako
Biltzar
Herriak
Lurrean
Armadako
egiteari
erabilpen
eragileak
Alemaniaren
elektroniko
Ey
##ekon
##tetx
##uari
397
Asp
DVD
Epa
Tai
##ekuan
dien
Balio
Jesús
Ohiko
haute
buztin
zaindu
Brontze
aldamen
sekretu
Jainkoak
ezkutuan
orokorrak
##esh
##met
##iloa
##rena
##urio
##akako
1500
Aman
Chev
Deux
eraz
zaiz
##riller
Coruñ
Larre
apaiza
ilunak
Arrakas
adarrak
Turkiako
banatzeko
gudaroste
sarrerako
Akademiako
iraunkorra
aberastasun
Kontserbator
##rei
##ckey
##enik
##aldun
##eetan
##urrik
lepo
Benito
Genero
Kristo
dakigu
azaleko
lurpeko
saileko
bihotzeko
gertaerak
landareen
etxebizitzak
##ii
##ór
##bet
Jr
Aho
Bego
Morr
##rogeno
Apaiz
Costa
Danub
Monts
Justin
Sarthe
bilaketa
jainkoen
arrastoak
mikroskop
nederland
banatutako
##IO
##ritu
750
Tap
##gimen
##leren
##uther
elizak
Barruti
Company
egiazko
inaugur
katedra
oraingo
bikainak
Tolkienen
elementua
lurperatu
energiaren
identifikatzen
AN
##dest
##idak
Aul
Rug
##araziz
##ialdem
##idanik
gasko
##ifikatu
izengo
azalean
beherak
lehorra
Ohorezko
elizbarr
estalita
bertsioak
jokatzeko
zorrotzak
izanagatik
harrapatzen
ekialderantz
##lez
##oge
##atra
##umea
##ungo
Lagun
tunel
neguko
Katalan
harriak
kantari
kaleetan
erreserba
eskultore
esparruan
hornitzen
emaztearen
industrial
segurtasuna
erabiltzaileak
##eso
##hin
##abek
##amak
##atez
##egar
##ress
393
Arz
Sek
ezoh
tekl
umor
lotur
zendu
##omorpha
Natura
legend
nuklear
Nagusian
betirako
doktorea
eragingo
eramatea
ordenako
##rod
kro
Shar
amil
March
Imanol
Jordan
Ramses
itzela
lurrin
zelaia
Eguzkia
Glasgow
diagnos
galeria
Nagusiak
erantzuk
konposit
salaketa
elkarteko
bereizketa
konplexuak
ospetsuaren
Jaurlaritzako
##tado
377
##aille
##toren
Alba
Cond
erruz
fasea
marraz
Mississ
kaltetu
paralelo
Cambridge
irabazlea
Maiatzaren
bideratzen
musulmanak
Herbehereak
antolakuntza
interpretatu
Internazional
iparralderantz
##euve
##pais
362
Aba
Flo
Góm
NBA
lum
Altx
txek
##amentu
Hotel
askea
mezua
Hiriak
altuak
kaleak
sutsua
##itzapena
Sebasti
Teknika
denaren
gazteena
ugalketa
Pirinioak
aurkituko
Erregearen
abestiaren
batengatik
zaharraren
denborarekin
funtzionamendu
##out
371
##illac
##odiak
##upeko
Toki
Tony
Vars
##ezinak
##izatua
Parte
##ibarren
Sardin
krimin
ugarik
Sizilia
egunera
galaxia
kritiko
##pendiente
Aldaketa
gehiagok
kontsumo
sentikor
##atzearekin
gastronom
aldizkarietan
##ury
##arin
##atis
##guer
##tano
425
Fro
Fru
##uente
##varez
Agir
Clin
Peña
gord
Ponte
Renfe
Roche
Ariège
Aurrez
Montag
etekin
Adieraz
Honetaz
deitura
ikastar
muskulu
Antartik
aliantza
milurteko
##ET
406
Nil
##ulosa
1847
Erab
Inse
Korn
Orre
##dikatu
Zizur
doinu
hauta
##ionalen
Filmak
aldeak
kupula
Bizitza
berriek
ipuinak
genetiko
sarrerak
egokitzen
bakterioak
instalazio
etorkizuneko
tenperaturak
##ks
##ui
##gok
##aste
##krib
##obia
456
Him
Muñ
obr
pik
1845
Arag
Blas
Khan
Babes
Genev
Zango
azien
ispil
##eranzko
gidatu
maileg
##ketarako
Hiztegi
lautada
monopol
Norvegia
epaiketa
errazten
irakurle
ugariren
amaitzeko
lizentziatu
##ene
##mit
##pat
##odun
##tzaz
Doc
und
##ailan
Gord
Jenn
krat
##atzail
##iteria
berreg
##tzarekin
Edozein
Politik
inskrip
Konfeder
Legearen
diagnost
gehienez
kokaleku
neurketa
zergatik
ikertzeko
Uztailaren
gertakizun
uharteetan
arriskutsua
itzultzaile
erabilgarria
##gy
##dae
##rus
##adis
460
Dia
##oimen
Pref
Tron
hidr
Ikusp
airea
gordin
erasotu
pasarte
Elementu
bisitari
Mississip
erregeari
hegoaldea
prezipita
printzesa
sindikatu
sorkuntza
zenbakiak
ingurukoak
Kantabriako
nazionalista
abertzalearen
·
##emy
##inez
Dec
Pix
php
##ative
##berri
Bale
Belf
Edon
etan
##azkiak
##errira
argud
tesia
Common
Fernan
edukia
Cambrid
Nazioen
normala
Kontinen
bitartek
dantzari
pilotari
semearen
bildutako
Napoleonen
arkitektoa
errepikatu
##kov
##elio
##plaz
##ainek
##desen
Isra
##iletik
eusteko
jendaur
barrokoa
fruituak
espazioan
gobernari
markatzen
Eskandinav
ekintzaile
erreakzion
konstantea
mendebalde
##bra
##iron
Ait
Tau
1793
Alej
pais
##hattan
Duran
ilarg
tirab
diskur
Bartolom
Stockholm
eraikitze
aholkulari
##orum
382
eka
Amai
##bergen
##ianako
Bohem
oihal
##ikoekin
Kretaz
Kubako
beteta
ekaitz
goizti
Russell
bikotea
esateko
herriek
koorden
ingurura
genetikoa
Jupiterren
telesailean
funtzionario
##net
##udad
Roc
##aimah
Bach
Poin
elip
Chris
Marin
Republ
zeintz
asmotan
bozeram
homogen
ikastur
ikustea
jaialdi
Politika
ikasleek
ezaugarria
itxaropena
defendatzeko
##ect
Nel
aud
fac
##alder
##etsuak
##éville
Hitza
Kevin
Mesnil
bariet
eskand
fraide
##ainville
gailendu
Gainerako
altxatzen
zegoelako
berehalako
frantsesezko
##nik
##stad
##wick
##upean
moda
sorg
Luxen
Sofia
enpir
koman
##biderik
ezkero
itxita
sareak
sendotu
ezaugarr
pribatua
elikadura
buruzagiak
batzuetatik
printzipioa
##deb
##inka
##tran
Non
blu
gorr
Linux
Nukle
astun
sustr
##villers
Ernest
entzikl
gainbeh
tokitan
Berlinen
Lurretik
batzutan
lantzeko
emititzen
gutxiengo
mendekoak
zehaztasun
Sarietarako
erromatarrak
kantonamendu
##lik
##asak
##ises
Abu
Spr
##anden
Good
Kair
Lore
Theo
ebaz
##katuak
Ikerk
genet
lautad
sarean
##agintzan
##andiaran
Joaquín
epaileak
Manhattan
errehabil
literalki
Atlantikoko
Barandiaran
txapelketak
Ingeniaritza
}
##onna
Dum
hus
##ument
Serv
kask
Marsh
Viena
antis
arroa
bitxia
zorian
darabil
lekutan
menpean
enpresen
oxigenoa
prefektura
politikaren
alemaniarrek
penintsularen
##evo
##gon
##nay
CH
Dj
Sè
##kako
398
Heb
lik
##orial
Azido
Etiop
Siria
Vladi
botoa
gizat
hauxe
zizel
kanpotik
atmosfera
geometria
jarraitzea
##kos
Añ
379
383
426
520
Gim
Goh
Lyn
PSE
Gail
Saur
##arreta
##iakoak
Boter
Corre
Groen
egink
oldar
polon
zaien
zenak
indiar
hektare
oroimen
Columbia
Ordurako
iritsiko
minutuko
thriller
aurkitzea
daudenean
eskuratzen
tradizionalak
##14
{
##rio
##anbl
##asta
##borg
##ific
##pson
435
Sic
pag
Benj
Erri
Peru
alar
iner
Ezagu
Horri
Ilarg
botan
umeak
egunak
juduak
zurrun
iritzia
daukaten
egiaztatu
ohikoenak
Erakundeak
berrogeita
erdialdetik
erreferendum
prestakuntza
##LO
IB
Ou
Kun
Our
##iboki
Deba
##idetik
##ularra
leize
Johnny
nazien
sariak
beraiek
obraren
Pakistan
Alemaniak
bakarrean
eskulturak
bereizgarri
populazioaren
##cin
##tola
381
Arc
Mov
aku
##arraz
Mara
Trat
##iladel
beher
olioa
##arrekoa
Bavari
Jersey
Lauren
Harvard
ordezko
kritikoa
mailaren
erlijiosoa
mugimenduan
##mm
##eks
##phy
##iklo
403
Kum
Peñ
Alts
Para
belg
pron
##rikoak
Gómez
termo
bizkar
propag
Gorputz
Gurutze
puntuak
Insectiv
Israelek
horiekin
indarrez
itsaslas
poloniar
propioak
Hitzarmen
Zaharrean
trantsizio
deskribapen
populatuena
kontserbadore
##gr
##tog
##uli
Hé
ea
##neum
470
Kaf
cal
1856
1862
Eins
René
gako
ukitu
##duraren
galdek
santua
Raymond
prentsa
propiet
urteren
egiptoar
posizioa
aurrerago
itzultzea
kontsumoa
Portugalen
ehungintza
hobekuntza
kantitatea
Eraikinaren
##rix
Ll
##mund
##peta
##iloak
heroi
anaiek
kantua
Antoine
berandu
mozorro
musikan
Fontaine
olerkari
hilabeteko
Insectivora
399
402
476
##antes
##tzara
Wall
##ismoko
Billy
Tokug
konta
polig
Andrew
eskasa
ganber
saioan
buruari
patogen
emanaldi
zuhaitza
nortasuna
lehenengoz
ikuspegitik
##tha
650
Pam
##eriar
Jada
nabe
Shang
Varsov
abango
Ignazio
Lappiko
antzoki
aldatuko
nitrogen
soziolog
Euskaldun
Lurraldea
antzerkia
Segurtasun
antolatuta
gizonezkoen
##ns
##alla
##bury
##icia
Yam
##atore
##otyph
1854
Jako
Nick
kurb
##iarrei
badak
perts
##otyphla
adreil
israel
kuarte
desplaz
estadio
poderioz
dezaketen
laburrean
Ederretako
Kolonbiako
norabidean
pertsonaren
Soricomorpha
Dé
GN
##isse
Coc
Iow
dos
##itisa
beka
##alakoa
manip
txert
arrosa
setioa
biltegi
gotikoa
markatu
erdietsi
deitutako
klasikoak
ekonomikoaren
##nu
##ues
Ky
##ieux
##igre
##ugua
Ota
Pyr
Toy
##arden
##areak
Kiev
Zorn
plur
##intzak
Pello
atzem
uzkur
##agileak
begiak
gurpil
hautatua
Karlistal
sustatzen
##ft
##als
##lic
##tang
##tipo
Obj
gil
nik
Bapt
camp
Monti
Petit
Zortzi
idazte
Augusto
Saxonia
haiekin
partean
Heinrich
eraginak
iristean
jainkoak
pribileg
Konpainia
Lipotyphla
Nagusiaren
atzealdean
burdinbide
erreaktibo
borrokatzeko
erlazionatuta
##lash
Rou
##erbai
1813
Gros
Zenb
aman
latz
lots
korri
sobre
##itegiak
Frankf
Txekos
elpais
horrez
jateko
marroi
single
sailean
zibilak
ezkutatu
garailea
merkatua
zabaltzea
lurraldeko
##tus
##uno
##agor
Clo
Fay
Gut
Ost
##azale
##rimin
Ando
Arau
Isid
Apolo
Lappi
Logro
ardoa
inhib
plana
##alismoa
Hernan
basoak
bilteg
kometa
##lariaren
basilik
diments
sinplea
kopuruak
kritikak
Erromaren
Hollywood
Laugarren
aberatsak
praktikan
Eskubideen
nekazarien
gorabeherak
garrantzizko
##tian
540
##oizko
Diru
tril
gantz
jaits
##iarrean
Bareko
Zentro
estali
nerabe
kantatu
Bakterio
latitude
batentzat
ezkonduta
bertsolari
daudelarik
egituraren
partekatzen
probintziak
itsasontziak
azpimarratzen
##hun
##ted
424
Dub
Fox
Sas
txar
Great
atzer
ernal
bonbak
Science
biktima
dorreak
gabekoa
lehenak
suposatu
erromantz
Errepublik
errepidean
Hondarribia
egiteagatik
oinarritzat
##13
##cle
##org
CC
##ning
som
##teari
Chal
amorr
punta
##ategiko
Villen
Zelula
zitzak
neurria
Gobernua
Johannes
harrapak
izpiritu
Atlantiko
Lehiaketa
erreginak
hondarrak
inbertsio
doktoretza
Gainontzeko
albaitariak
konstituzioa
kontsultatua
errehabilitazio
##asse
##lins
417
Pur
sax
zan
1833
1835
1836
Biak
Bizi
Jurg
Play
Wats
alarg
zikloa
eguzkia
eraketa
gailurra
ditzakeen
ikusgarria
transmititzen
Ó
401
Cau
Hav
Fish
Kors
jesu
mang
##agaren
##tomand
Aster
Intel
River
Stone
gibel
Katedr
Little
arerio
kostua
lerroa
##itxarrez
mertzen
artekoak
aurrerako
barrutiko
deklaratu
ibiltzeko
kondenatu
zitekeela
bermatzeko
Emakumezkoen
##DE
##IP
##ng
##eix
427
Lit
Udab
eriz
##ataren
biziak
sareko
##atherine
Barbara
Helburu
handiek
klaseak
Rovaniem
auzoaren
eraginik
hobetzen
jazotako
koroaren
Askatasun
hautatzen
kolorekoa
erakundeko
adierazpena
desagertzen
zailtasunak
aipagarriena
##dif
##eve
##zer
##quel
##toin
ADN
Hud
Nig
Nol
Sob
##abeto
Igor
erot
tari
Ideia
Châtel
Zinema
##ologiako
##tzearren
Abraham
Hegazti
maiatzak
zihoazen
Aldundiak
Vietnamgo
gehigarri
ikerketen
liskarrak
abeslariak
aurrerantz
irakurketa
erresumaren
Horrenbestez
entrenatzailea
##ος
##asu
##otx
##zil
412
444
Cra
Lea
Rot
##azial
##batza
Broad
Zentz
desor
hilko
malda
##rentzat
##ikatzeko
kalkulu
Defentsa
etapatan
herritan
motatako
Madrilera
jokalariak
magnetikoa
##eds
##udo
sc
##osak
373
Meh
Tob
##osfera
Inkis
Perez
labar
##zioaren
Kolore
Master
figura
negozi
prents
##urretako
Bulgari
Kontuan
sartuko
zentroa
Carolina
Michigan
arazorik
ataletan
eratorri
gidatzen
hastapen
metamorf
multzoak
sarreran
ikusgarri
errepideak
katolikoak
##fr
##non
Ny
##ated
##auta
##ceae
##onal
391
Dako
Linc
Nilo
sink
Muham
ganga
Txikia
bizkon
mendek
pobrez
Armadak
Liberal
Zientzi
arrazak
hartzera
hausnark
Informazio
egiterakoan
mendebalderantz
##hai
##iat
GP
##abol
##inia
anb
##uzena
shog
barre
Orlean
balore
golkoa
Mariano
onarpen
sintoma
dialekto
arrautzak
erraldoiak
monumentua
sozialaren
klasikoaren
presidentearen
##16
##ket
RA
Wa
##elia
##ever
455
Fed
Kel
amn
##enean
Ande
Petr
##tikoan
kurba
jabeak
Santuko
bertoko
goizeko
lotzeko
Atenasko
lurrikar
ordezkar
kantatzen
negoziazio
partikulak
Institutuan
erregealdia
##xi
wh
##dier
##trem
lub
##anako
##azkoa
1851
Orio
konek
neurr
Aralar
pareko
lehiatu
webgune
zineman
Harreman
harkaitz
ibarrean
zutabeak
lanagatik
Latinoamerik
errealitatea
##bit
##tei
##zel
##imak
428
Hos
cap
##niako
Intx
mult
##ikorik
desin
hamaz
mesed
batzar
kirola
Santuak
antibio
bilketa
errepro
inbasio
zaizkie
immunitate
pinyineraz
gudarosteak
kanpoaldeko
herrialdeetako
##hn
##ved
##eppe
418
438
490
McG
mur
1852
Honi
Irud
Kauk
Trib
sork
##neteko
Moham
edari
megal
##ekoaren
Edonola
erronka
ondarea
enpresek
kondents
geografia
gramatika
istorioak
konpromis
naturaren
artistikoa
erakusgarri
ibilbidearen
##RC
Iv
##erei
Carlo
aholk
kutsu
##agailua
biolin
librea
bihotza
Toledoko
sintetiz
Rodriguez
ospetsuan
senarraren
kontzentrazioa
##kina
Lex
you
##istik
##ièvre
Gius
Last
Song
Brook
diput
barren
mezuak
entzute
korapil
batetara
pisatzen
topatzen
Erregimen
boltxebik
finkatzen
guztiekin
handitzea
hiltzaile
Batasunean
kontaktuan
Komunikazio
##OM
##dic
##abar
##teka
413
Nich
zund
##veyron
Zesar
Miller
System
segida
haustura
herriari
liburuetan
espezializatu
SD
Urk
lob
infl
putz
grisa
Galway
##ikoetako
Zarautz
laranja
errazago
gorakada
barneratu
##53
##ive
##osek
Abb
Hop
Ker
Sop
pig
irla
ohol
##bidean
##itikoa
Izotz
Sesta
Zuria
basea
teori
leinua
marmol
hegaldi
inauter
Dublingo
bazegoen
doktrina
erregeek
sarearen
albisteak
aukerarik
erretratu
saiakerak
Manchester
delakoaren
indarraren
zaletasuna
probintzietako
##cu
##leg
##mis
Hub
Teh
##ianok
1839
Moul
zent
Gutxi
Maila
hilda
##ologoak
##unearen
Monten
biokim
epaitu
kasuak
lorpen
Hilaire
errekon
hidraul
zapaldu
Habsburgo
azkarrago
errekorra
errefuxiatu
iraultzaren
mendebaleko
ñ
##mako
Gem
Hug
##aseko
1812
gose
iger
Anber
astin
bakan
Lincol
Produk
harain
onenen
Alfredo
berrikus
iturriak
adieraziz
egonkorra
gazteluan
Liburutegi
zabalkunde
alemaniarra
IN
##iens
429
462
Loz
Chan
Gian
Narr
bola
##onikoa
albor
orria
Karbon
goitik
liskar
lukete
antigen
besteen
iristea
kontzil
betetako
Lizarrako
askorekin
eskuetara
definizioa
materialen
espainiarrak
diseinatzaile
##arl
##biñ
Ry
##aluz
Acc
Sky
hit
##ender
##ogeno
beta
Beder
Kemij
bataz
esfer
##atasuna
Donald
Pilota
##gunearen
Borroka
sagardo
zitezen
##ografikoa
Errusiak
indarren
judizial
Microsoft
elektroiak
baliogabetu
barneratzen
departamendua
##bola
##rada
Kuk
Nem
Pey
##elari
1858
atez
hare
topa
##eratze
Félix
entzi
eskut
garia
kanoi
miliz
Hirian
Metodo
beteko
gaitza
ilargi
##arrekiko
Agustin
gazteek
gorantz
nukleoa
Tennesse
detektib
itzuliko
##alismoaren
kromosoma
antzematen
konfiantza
iradokitzen
##tav
Fu
##angu
##jabe
##orio
##ulen
Niz
Pré
Rif
Sod
1846
Odol
##atokia
umore
Colora
Gertak
espres
inbert
pakete
gotortu
Erregeen
Sarritan
beldurra
gramatik
ikastera
Barcelona
buruzkoak
erabakiko
gauzatzeko
##gue
##atus
##isma
##truk
Otx
Uri
##ieren
##katua
##tzail
1200
Akor
Llan
idazki
logika
Antzina
Momentu
etortzen
partidak
senidetuta
harlanduzko
Hegoafrikako
ordezkatzeko
##able
##doek
##wich
Rik
Zim
##edian
##ideek
Graf
ahoa
Isaac
modul
Badira
krisia
Aveyron
Venezia
presoak
Biarritz
Hungaria
egitasmo
egondako
senatari
bideojoko
egoeraren
klasikoan
metropoli
militante
Medikuntza
finlandiar
dituztelako
industriaren
##BS
##gra
IC
##ally
Lug
doc
Gune
Prem
kitz
Guill
Moore
Musik
Aipatu
Mutrik
Protes
Galizia
Usurbil
Errenter
Gertaera
Hizkuntz
baitaude
absolutua
aukeratzeko
aukeratutako
kontsumitzaile
α
##igi
##desh
##ibai
##migr
##ting
##toka
Vig
big
##ariar
hist
txap
##gaitza
Alice
eskua
zantz
Zabala
Florida
Indiana
bidaian
teorema
Ekialdean
ahalegindu
estandarra
matematiko
britainiarren
##FC
##mina
did
##uriar
Chav
##tikoen
surre
##fordeko
##ianoren
Idazle
Toledo
degrad
erloju
foruak
Departa
gehituz
Vladimir
atzeratu
diotenez
eraikiko
koalizio
Soricidae
ertaineko
soldaduek
pertsonaien
laguntzailea
##desa
##erna
Eth
Tip
eme
##eroen
Conc
Rand
oste
##eroren
segitu
ezkerti
konspir
##istarekin
##tazioaren
Hilabete
bortitza
hamahiru
irabazle
Deportivo
eragozten
leinuaren
musikaria
Sirakusako
frantziarrak
Mediterraneoko
Wy
##etua
##lass
##pekt
448
##atoak
##tasio
arbu
zere
Luisa
Mekan
Venus
##gintzan
##txobait
Bosnia
hotzak
Estatua
aurkari
##arretatik
Animalia
Herritik
Philippe
geratuko
kristauak
Akitaniako
Oinarrizko
dokumentala
izendapenak
##22
##aps
ES
423
ete
##ioiak
##orrus
##unbat
Stew
Arros
txiro
buztan
kamera
Aroaren
Garaian
Lehenik
beranti
ereduak
gerrill
haragia
museoan
Venezuel
zubiaren
Kroaziako
Erakusketa
erakundeen
handitzeko
legendarium
##ifa
xe
##illé
Ast
Vis
git
sof
1837
Antza
Softw
atari
paras
Baldin
Marina
Neurri
Texasko
baseliz
lapurtu
oinezko
funtsean
inguratu
Alejandro
berdinean
eragiketa
literario
mantenduz
Errusiaren
astronomia
funtsezkoa
##cr
##hr
UA
##airik
##untze
1844
Aram
Mike
Whit
##iorako
Croix
eklip
Baskon
Gondor
patroi
produz
irekita
sakonak
izanaren
konfigur
eraikinen
erakutsiz
molekulak
terminoak
zibilaren
Villeneuve
garapenaren
##GT
##UZ
##bako
##iena
##koan
puru
##aletik
Bened
Irudi
atxil
azpib
neutr
sagar
##itorial
Descar
diaman
Lanbide
fosilak
meskita
teoriko
Muhammad
aginduak
Francesco
automobil
nagusietan
Kontseiluko
teknologiko
hiriburuaren
elkarrizketak
##ié
##pr
HT
NO
##etuz
##usti
Ces
Hér
kai
1790
Sean
laku
##mentua
##tziako
Femin
Psiko
zilar
kalera
aparkal
arraina
arrasto
bikoitz
taldera
Federico
azalduko
erosteko
linearen
Ekainaren
Georgiako
lurmuturra
barnealdean
tratamendua
desberdinetako
##iew
##oga
##upe
##espe
434
##orien
##tzuer
boxe
gust
jari
libr
nerb
urma
##burgon
##histor
##mendeb
##taketa
Igles
Mantx
Mikro
depor
Andrea
Nekazar
bakoitz
fatxadan
Monumentu
Gaixotasun
honetarako
ikaskuntza
uharteetako
nagusietakoa
selekzioarekin
##izc
SS
##ropo
ioi
##deren
##undar
1855
Bitx
Mons
Taur
##aziora
##uelako
Adams
polin
ainger
loreak
Bilbora
erlatib
aurrekoa
debutatu
eskatuta
guneetan
betidanik
denborald
baitituzte
boterearen
matxinadak
Txekoslovak
aldarrikapen
##izu
##eavy
419
alm
##omagn
##terra
1794
Roth
Sexu
Urda
itsu
##estern
##onteki
Ernst
Giroa
Krime
oinez
xafla
Mongol
amerin
baxuko
Azerbai
distira
garatua
haurrek
irailak
masaren
Irakasle
Ptolomeo
algoritm
gehiegik
harresia
lurrazal
ziurtatu
Interneten
Frantziakoa
errepikatzen
ezberdintasun
##TV
##chan
##iald
##tuck
##varo
Jox
Zug
tom
##illas
byte
Titan
Nerbio
itsats
Birjina
Egoitza
aterako
Antzerki
Benjamin
Eskolako
biologia
erroldan
estalkia
jaialdia
hipotesia
lapurreta
xurgatzen
geografiko
mendeetako
orokorreko
hilabeteetan
nekazaritzan
zentimetroko
##ebr
407
Roh
sel
##irano
1834
Fall
Goya
bale
hatz
Aldun
erpin
leuna
solas
Anatol
Lawren
##igintzan
British
Charlie
modeloa
Inguruko
aireratu
ezkutuko
pasealek
sistemen
askatzeko
azkenengo
fenomenoa
bitartekoa
familiakoa
lekualdatu
eratorritako
##aff
##ibus
End
urd
Mann
biol
Hosto
kantz
##ismotik
estuak
jasota
Jainkoa
armarri
atsegin
bidaiak
hauexek
mehatxu
sexuala
urrundu
Erregeak
Tuterako
teniente
tuberkul
zeinaren
Telebista
hegaztiak
saltokiak
Flandriako
arrantzale
militarrek
alemaniarren
##anes
##cast
451
Ate
Laz
##ilera
1792
Sare
hezi
mito
##adetan
Enter
ikatz
isats
testa
##araztea
Montes
legezko
##atikoaren
baitzion
espezieen
estruktur
ikerketek
kokalekua
modernoak
kudeatzeko
argitaletxeak
##GA
##abo
##izar
NATO
birs
enbr
isla
osoz
Amaia
Jaime
Rugby
txori
Cantal
Leopol
Nièvre
Federal
Zenbaki
beldurg
Giuseppe
higidura
Kristoren
dagozkion
filosofoa
indoeurop
produktua
publikoan
faraoiaren
erantzuteko
printzipioak
OH
##anne
##ostr
Ipu
1600
3000
Auzo
Erik
Oler
best
##korren
##larien
##willer
Zubia
emana
hareh
##tsuaren
Mallor
Sèvres
Torres
latzak
susper
Ospital
haizeak
lodiera
lurrera
Badirudi
asteburu
enpresako
gaitzetsi
zaharrean
zuhaitzak
itsasartea
norberaren
eraikuntzan
elektronikoa
kontserbatzen
informazioaren
##duc
##hon
##neo
cr
pH
##iman
##itio
Cob
Cou
gab
##sonen
##tenak
1849
Down
Eman
Hier
Soul
##ioetan
Azter
Primo
mezul
mires
abadia
desego
ezingo
oinean
##tasunera
arraroa
ebanjel
Arrasate
milioika
Auñamendi
Ikasketak
aitortzen
alderdiek
inguratua
gurutzatzen
ordaintzeko
zerikusirik
##éd
##anoa
##auko
##bell
##ibur
496
560
Apl
Trip
gert
##icourt
Drôme
Estud
Jende
Mitch
Wikip
arkua
aroan
sexua
trena
##ikusten
Amazon
ahaide
harrob
jauzia
ugaria
ehuneko
idaztea
txandak
aliatuen
bederatz
topatuko
amaitzean
unitateak
generoaren
izenburupean
zaharberritu
389
464
465
hex
meg
##eseko
Andra
##entriko
Graham
Parisa
etapan
zeharo
Askapen
Zehazki
dutenen
ekainak
hierark
Italiara
aztertuz
jazarpen
txertatu
Arrakasta
Gobernuko
germaniar
Konstantino
Tenperatura
Jugoslaviako
testuinguruan
##ops
fo
##enay
Lil
Río
lel
Geom
kart
Camil
##itearen
Andrés
Gauzak
Heidel
Ilustr
biziko
derrig
eskema
Charlot
biztanl
tratatu
zuzentz
Trenbide
estatusa
alderdien
goialdean
greziarrek
aurkeztutako
##cep
##ueta
468
Oly
Rai
Squ
fel
gim
##dorea
##igran
Flav
Silv
Soinu
andre
gogoa
lauko
tenis
##tantzia
Steven
ibarra
kartel
lekuak
maketa
testig
urruti
Durango
batekoa
euskadi
altuagoa
aitzindar
frogatzen
suntsitua
kokaturiko
zertxobait
gomendatzen
Penintsulako
berdintasuna
kontsumitzen
oinarrituriko
Ago
Mez
Guar
Lind
aleg
kaps
zura
##lerren
Latin
Garcia
Itzuli
Malays
batura
sufrag
ekoitzi
estalki
guztiko
transgen
dituenean
edukitzea
sortutakoa
itsasontzia
eleberriaren
$
##jen
##idal
Urb
##umurr
Coul
Abest
Mundo
Pents
birtu
morro
##itarioa
izatez
Arrazoi
Kanpoko
bitxiak
hamasei
Azkeneko
Marshall
guduaren
tituluak
transfer
Probintzia
psikologia
Urtarrilaren
hauteskundeen
##mot
##yak
PD
##haus
##koen
##pina
445
Bun
urg
##ignon
Tell
zale
Enkar
Laura
Lazka
Perts
Zaldi
Zirku
ibilg
okerra
Central
erraztu
faraoia
helbide
kontuak
tranbia
Leonardo
Shakespe
berberak
etorriko
familien
gaizkile
karakter
Danimarka
Erakundea
dorrearen
harlanduz
zuzenbidea
Venezuelako
aurreikusten
britainiarrak
##ZA
##ape
##rah
466
##turen
Lady
##agirre
##emonia
##ismora
Turki
Txill
abiar
arreb
hasia
##ediaren
##ulazioa
poemak
tropek
Zibilak
beteran
elkarlo
hilobiak
nagusiek
Descartes
Fernandez
egitasmoa
ekarpenak
hirietako
metroaren
nuklearra
musikariak
ustelkeria
Atlantikoan
bultzatzaile
zientzialariek
##ving
510
ATP
Gav
Pes
##bourg
Aren
Auto
cons
moko
##ientea
Aubin
Queen
bihurg
errepl
filman
finean
komuna
ponien
apostol
jendets
arautzen
atomikoa
existitu
hiltzean
Chicagoko
enpresari
trainerua
ekitaldiak
marrazkiak
haurrentzako
ezagunenetako
Euskaltzaindia
FA
PA
cu
##kara
422
452
472
Sap
##azian
Anai
Kemi
play
zifr
##undaka
Pyrén
amate
Halako
ibaiek
aldakor
grafiko
irudien
larruaz
Alderdia
Brasilen
indarrek
izenetik
liburuen
sinboloa
zuenetik
bilakatuz
ikerketan
iturburua
sindromea
zientziak
erromanikoa
hamarraldian
##ebel
##zako
486
##xeago
Ainh
Biel
Lana
Pueb
Aditu
denek
epela
haiei
hezea
sober
Abando
diario
armatua
babesle
gerrako
naturan
fisiolog
bizitzari
faktoreak
jasandako
ordurarte
sarraskia
Iruñerriko
murrizteko
definitzeko
harlangaitz
##cor
##gak
##uza
##dien
##eoan
##pace
##tibo
Piz
##riark
Java
Olym
ezus
kobr
##darrak
##entzio
laino
negua
zaigu
airean
Diction
Honekin
artetik
fotosin
Itunaren
analisia
ikastola
Errioxako
bilatzeko
galdutako
jarraitua
korrontea
etorkizuna
garaipenak
Erromatarren
lehendakariak
unibertsoaren
##60
##ça
##nak
##evel
Elg
Ire
Lok
1821
Nire
mald
Eredu
Jurgi
atsek
komis
tratu
##tzaleak
Arturo
giroan
Rivière
bretain
eremuko
kapitul
osatuak
zionean
Gonzalez
Akademian
proteinak
Erkidegoan
futbolaria
zeharkatuz
pilotalekua
unibertsala
Erromatarrek
sailkapenaren
berreskuratzen
##gal
Ef
##idar
431
439
504
Fol
Sym
##agabe
Indo
Behar
beira
emaria
gabeak
ibidem
sinfon
luxuzko
Tokugawa
arrainak
koloniak
noranzko
exekutatu
Batzordeko
areagotzen
australiar
erreakzioa
estalitako
ezkutatzen
##km
##led
##ulg
##ylä
Ix
LA
##txin
##vent
Fun
##ribor
desf
leun
##igilea
Basti
Davis
Estad
indig
Irrati
arraro
gaztar
jaunak
Ezaguna
Kentuck
Marokoko
agintean
estudioan
geltokian
erabilpena
frantsesek
laborategi
aprobetxatuz
errepidearen
legebiltzark
internazional
##kl
##cic
##ech
##aise
##iton
##over
##riak
##uage
463
495
530
Ges
##itatu
##lingu
Hama
Roch
suge
Alkar
Esped
Moren
arima
##alearen
Boston
Tutera
biziki
Vatikan
ibaitik
apirilak
artisten
Batzordea
arkeologia
deiturikoa
zerbitzuan
Herrialdeko
berezitasun
instrumentu
sortzaileak
Unibertsitateak
##dop
##ips
##itb
##kir
##ctic
##vens
488
492
512
570
Fuj
Lub
pot
sir
##etegi
##quier
##tuago
Bust
Elgo
ikon
Ekoiz
Nikar
Andoni
##antzaren
Asterix
egokian
lagunen
osasuna
Illinois
Margaret
bilduman
dukearen
lanpostu
ugaritan
Inperioan
deskonpos
oihartzun
Kontseilua
gainditzeko
kostaldetik
Katolikoaren
askatasunaren
##ovo
##pes
Ai
##pool
411
443
525
Paz
bag
new
sec
##arten
##emont
##lerik
Abes
Lanc
Léon
##oraino
##tzalea
Atlas
Nicol
Sikul
esfor
umeen
Ludwig
zertan
beltzen
dialekt
indigen
kentzea
komentu
Española
Mankomun
eboluzio
eragotzi
garaitik
kalkulua
konkretu
errazteko
gurutzatu
eraldaketa
espedizioa
nagusienak
nagusitzat
lehentasuna
Parlamentuak
Administrazio
deskribatzeko
historialaria
##dei
If
##itec
##work
433
446
580
Ene
ISO
Ian
Juv
Out
Syd
esf
##inean
1853
nasa
##ondoko
Elena
Piram
metan
zelta
##feraren
Brunsw
Europe
gertur
hankak
masibo
teknik
trikuh
Taldeko
hiriari
western
dauzkate
itsasora
izenpean
antzokian
mineralak
enpresenak
langabezia
##eus
##red
##tat
##amer
##hero
Mén
Rip
Asir
euts
##ailera
Toron
helen
##araziko
emanda
kantab
ligako
market
Eibarko
Emaitza
angeluz
bilduta
erremin
galduta
garaiak
guardia
Errenazi
subirano
Durangoko
Valentzia
bezalakoa
bidaltzeko
erakusketak
txirrindular
##CN
##nar
##dira
436
Maj
Poz
Via
Wit
##detan
##timen
2020
Benn
Wild
kilo
meza
Aizko
Arrat
almir
eskif
izkin
metak
pneum
posib
gudari
igorri
korpor
zapore
##igarrena
sendoak
sustrai
Estatuak
animazio
ingelesen
merkaturatu
nazionalaren
trenbidearen
##EL
##KO
##woo
##yen
##urch
Eva
Haz
Taj
car
cas
##asoko
##ikoei
Alta
Arak
Díaz
Thor
Vaux
plas
Jules
Marco
Berriz
Bihotz
lotuak
Beraien
dutenek
eukario
jorratu
umorezko
uztailak
zelakoan
Bergarako
ereserkia
iparralde
bigarrenak
erlijioaren
Florentziako
esperimental
##usi
##wyn
##izea
Gua
##istei
Saul
Shin
long
##ariren
Arran
Buruz
Marti
Media
Txile
aritm
ligan
Bulego
Ganber
kirurg
Italiar
Lasarte
erreson
iritsiz
zaintza
Pyrénées
Zarauzko
edizioan
oinplano
Institute
kontsulta
frantzisko
##tzek
474
Bei
Buz
Rah
Rim
Six
Thé
doi
##aceae
1822
##erente
Maite
Oklah
legit
lepoa
sodio
Harris
balkoi
iraung
Ebanjel
Eslovak
hiltzea
hutsune
kolorez
Enonteki
ahoskera
finalean
gunearen
Bretainia
adierazle
zelularen
autoritate
enbaxadore
erresumako
errusieraz
hitzaldiak
jendaurrean
eskualdeetan
##IL
##US
##adek
##dell
##kopa
421
481
ABC
Div
##inari
##logoa
##mouth
Ango
Arde
Esne
##ibarko
##okunde
##écourt
Helen
Sport
energ
gaien
Fronte
ezkutu
mahats
sekzio
Lohizun
diberts
lerroak
maitale
Israelen
Margolan
urratsak
zaizkion
zeregina
Dionisiok
Karlomagn
lagunduko
##esan
##fran
##more
##neko
##onio
528
Mix
##champ
Eros
Wars
kost
##tadura
akust
aroko
##ilariak
##mentuan
Urugua
##iografia
Donejak
Gorriak
bueltan
huskako
sentitu
Herzegov
amaituta
argitzen
babestuta
egitearen
gogoratzen
gudarostea
irudikapen
Lehenbiziko
grezieratik
osotasunean
arkitekturaren
##ahu
##roy
Ce
mi
##iper
##kura
##oiek
##énez
Dib
Gay
Zag
hop
##istra
##tures
Bren
Gatz
Grab
Prop
jang
zama
##anteak
##azabal
##orrela
Manif
Zutab
artoa
grina
Picass
infrag
tarifa
Constan
Baptiste
Bertatik
austriar
istiluak
uharteen
zentrala
behartzen
fisikaria
kristauen
uztartzen
zabalagoa
baimentzen
teleskopio
erlijiosoak
zientifikoak
##40
##ckek
##icas
Auk
Lle
Orn
maz
##orena
1795
labe
pixk
soka
xake
Irish
doako
gidoi
##ference
indusk
kantak
letrak
martir
maskul
zekien
ederrak
gogoeta
Nagusiki
aditzera
aliatuek
##untzarekin
geologiko
Euskarazko
lehenagoko
nabaritzen
porrotaren
espainiarrek
##py
##ww
##kek
LG
##akon
##duko
441
458
BPG
Cul
gov
##tziko
1809
Wisc
takt
##agunea
Landa
Siber
Tower
dekre
miloi
Creuse
Meteor
badian
egurra
eskuak
hitzez
martxa
Bergara
Munduan
abizena
itxaron
Musulman
Napoliko
Prusiako
entitate
hiztunen
Granadako
Horrelako
atzerrian
bihurtzea
garagardoa
hurrengoak
ekoiztutako
naturalaren
programaren
departamenduko
##ED
##aca
##rico
adj
Albi
Fren
daki
erta
kult
alkal
kanon
Cooper
ibaiko
linfoz
asmorik
Hemendik
Komunista
apaindura
apezpikua
gizarteak
ingelesek
jaitsiera
zezaketen
Arrasateko
Aipagarriak
zerrendetan
Udalerriaren
espainiarren
identifikatzeko
##dir
Sy
##alto
##dora
##ough
##yako
kak
##iatan
Inde
##istari
Jason
berea
kable
motza
Astero
Minnes
bikoiz
piezak
America
Suitzan
Wiscons
aljebra
bikingo
eskaria
otomand
Hiriburu
anaiaren
erkidego
jantziak
Berriaren
hondamendi
italiarrak
daitezkeela
ikastetxean
irudikatzeko
##yth
##tora
457
##arias
##roren
Born
Gary
Oliv
Piet
Ston
fest
##atzako
##emente
##oriala
Aleks
aleak
Dorrea
Gaztea
hobeak
hormon
istilu
Corrèze
Muguruz
epaimah
hedatua
persiar
##atutakoak
Traineru
Zesarren
autonomo
emigratu
gurutzea
hiztegia
inbasioa
jantzita
Jasokunde
amankomun
dorretxea
Martxoaren
elikagaien
lurraldeen
politikoan
Kontseiluak
derrigorrez
komertziala
Parlamentuko
##ss
##úl
##eti
##eval
Cés
Kit
Wol
##eneko
##uenak
Aude
Quen
##iarena
Equus
Liban
arrop
azoka
##tapenak
Ciudad
naziek
supern
Kontzep
Zuhaitz
golkoan
korrika
osatuko
Krimeako
Sebastián
ebakuntza
laguntzak
milimetro
zaintzeko
Kongresuan
portugaldar
estrategikoa
##LN
Ve
##kiko
498
Ral
Tul
Ves
bap
zuk
##arrer
Hell
Rick
last
##agabea
##itzeaz
Gauza
Lucas
fusio
ohiak
egonik
esango
esfera
lehian
parrok
ultram
Lizarra
Milango
Stewart
estatus
Beaumont
Sariaren
Uharteak
lantegia
luzeagoa
tokietan
antzezten
hautagaia
menditsua
penintsul
multzoaren
plangintza
tontorrera
populazioak
zortzigarren
Hauteskundeetan
##ery
##teaz
##uzin
Nou
Who
##anoen
##gaiak
Dago
Diaz
Ihes
Krit
Muss
Pago
Part
ilea
neba
proi
ixten
Zentzu
noblez
uholde
Granada
izatean
kobazul
##elektriko
alkateak
antzezle
Brunswick
baserrian
unibertso
boluntario
diagnostik
erretratuak
errepublikar
##MP
##foro
##itte
Rac
Rup
Wel
lod
##amina
##pital
##ports
1823
Ohio
Campo
Kopan
berun
##atikoan
##tagailu
Batzuk
biblio
gogoan
harriz
hileta
##aritzari
likidoa
txikitu
##ifikazioa
Itsasoko
Lawrence
Monteneg
Nagusiko
Neuville
azpiesku
galtzeko
zeintzuk
Alexandre
Institutu
errenditu
geltokiak
hondoratu
ezkontzeko
sendatzeko
protagonistak
##oe
##san
##ople
449
518
Bess
Lake
Warn
greb
haun
Madag
autoa
##errekin
Cultur
faktor
sailak
akatsak
entzima
hipotes
Aintzira
bazeuden
hirigune
teologia
##azioarekin
algoritmo
bertsioan
abertzalea
egokitzeko
baliagarria
zituztenean
esanguratsua
##dow
##chel
##dard
##gnac
##icus
##ozio
442
Amn
Ech
sep
Abia
Bake
Plas
gasa
ileg
##artzen
Lenin
Marse
hariz
plast
Multzo
Pietro
astron
etniko
hotela
pilotu
zahark
zorroz
Badaude
Kennedy
gordeta
itsasar
medikua
modukoa
puntuan
Helburua
dituenak
komentua
seinalea
Udalerria
badituzte
erretiroa
Prefektura
ezberdinek
frantsesen
greziarren
guztietara
maiztasuna
urteurrena
barnealdeko
alderantzizko
mendilerroaren
##dis
##kok
##oux
FI
##abid
##amia
##atin
483
640
Sib
nav
Batt
Igel
Road
amor
lerr
pinu
##dietan
aizko
femen
gastu
sasoi
##alitate
astuna
ikusia
##istarako
Antzerk
zelaian
##arentzako
##atzearren
Cristina
Horrekin
Noticias
biltegir
desagerr
estadioa
garraioa
adibideak
gidoigile
margolana
santutegia
Txapeldunen
potentziala
##rok
##iska
##trop
516
Als
Ukr
fer
##tzear
Drak
Hipo
Home
Ibar
Lour
Term
news
Euras
Kerry
artil
diruz
gezur
lanei
pabil
##akhstan
Bizkai
Corpor
Hondar
Turkia
horixe
##arioaren
##tzaileek
Ekuador
Navarro
Txekiar
bektore
editore
gortean
presoen
Republic
Sizilian
gizakiek
txineraz
Ibaizabal
bizkarrez
itsaspeko
parkearen
Denboraldi
propietateak
##dou
##eid
OS
Va
##adas
##icos
##ioia
459
Gug
glo
##ennes
Gior
Ziur
##omaren
Egile
kurdu
Bidaia
estral
gaizto
Hamilton
alokairu
emaitzen
ezizenaz
ziuraski
abenturak
gaztearen
frogatzeko
margolanak
harrapatzeko
##dom
##iom
##alth
##cies
##uroa
475
Euk
Hot
Kid
muk
1831
Cler
Jazz
##tamina
##untain
Molek
Tunis
dibis
españ
Extrem
Loiret
erdiak
fresko
maisua
period
general
Anderson
Batuaren
aldeetan
idazleen
zabaleko
simetriko
erromantiz
antolamendu
grezierazko
##atxa
469
Beñ
##isdik
1843
Arlo
luma
onik
##mendia
Estal
Gasko
Guang
Natal
Biblia
hautem
luzeen
txistu
adituen
neutral
Loiolako
bidearen
ekuazioa
gobernub
problema
uhartera
Mitxelena
aurrekari
hondamend
kontsider
politikak
erakundeek
erasotzeko
eskualdetan
antzekotasun
historikoaren
##lig
BB
HI
Kö
##estu
App
Fra
Hes
Lus
suh
##duren
##emana
##torik
1832
Bald
Gaul
Town
jaia
Defin
fluxu
itxia
oxido
salto
Basaur
Bermeo
Etxean
Matthe
ezinik
zubiak
Ederren
Hérault
egiteaz
Ondasuna
Software
Urtebete
efektuak
egokiena
hiztunak
narrasti
Erresumak
Museoaren
bukaerako
gizarteko
kondearen
tradizioa
Afganistan
liburutegia
abeltzaintza
praktikatzen
erabakigarria
jarraitzaileak
##AE
##ump
##zon
laz
##aduna
##aktib
##worth
Adel
Denn
Soph
Tarr
Urdi
altz
anex
etim
##izkigu
Death
Fresn
Jordi
Kelly
Sarri
irain
istil
lurre
Gotorl
eroale
fluido
hockey
jokoan
Lurrera
aretoan
erupzio
Gaztetan
Programa
berekoak
berpiztu
bertikal
bildumak
liberala
mekaniko
ordenaren
zebiltzan
Aipagarria
Versailles
estatistika
zituztelako
erabileraren
##OL
##gir
##elin
##igne
484
Kup
Num
UCI
##andre
##irien
Tito
Pelop
eskar
kosta
orduz
zabor
##eratzea
##ologoek
Txomin
karrik
malkar
##pendikul
Errioxa
erliebe
ezkonti
kanadar
kiribil
lituzke
Proiektu
kobazulo
landarea
plazaren
eragiteko
heriotzak
higikunde
ontziaren
primitibo
kolaboratu
tratatzeko
ikusgarriak
kokatutakoa
##jas
##sta
CS
##etxo
437
Lup
Pow
Rid
##iraun
Ildo
Prat
Quer
mosa
##degiak
Budap
Yemen
analog
ebatzi
merezi
beretik
edukiak
##organismo
Pariseko
finalera
otsailak
etorbidea
Napoleonek
daitezkeenak
ezkerraldean
##raz
##zac
si
##lace
##tail
567
kut
##gilea
1825
Fair
Stud
arak
fior
kaia
##arenak
##tarioa
Barth
Puntu
atlet
lakua
onura
optim
Carter
Elektr
arroza
konpet
motela
bortitz
erruman
laburre
liderra
txikian
banatuak
dagokien
eskainiz
simetria
zituenez
Bederatzi
amodiozko
aspaldiko
giltzurrun
igarotzeko
oroitzapen
berritzaile
zuzenduriko
Literaturako
emaztearekin
##fen
##atch
##ideo
##inos
##unek
Bez
Ras
##atela
##media
##uduna
Dick
Dres
Gela
anpl
duzu
Gabon
Sabin
iturr
##itzeari
Adrian
Irungo
haziak
kontua
morala
Klaudio
Lincoln
hirurak
iradoki
kenduta
Fisikako
hegoalde
tenpluak
zatitzen
Etorkizun
irabaziak
mugitzeko
erabilerak
harremanen
erdigunetik
Erakundearen
Ministerioak
errendimendu
laborategian
lehendabizikoz
##CA
##box
##omi
Wo
##eken
##etto
##ogne
##okal
jol
Bata
Drag
News
aipa
cont
##astiak
Aretx
Arist
Kongo
Ordiz
Prote
Stein
errau
esnea
habia
nahig
zapuz
##uarekin
Gordon
Landar
Watson
galduz
predik
Dokumen
girotua
inguruk
adibidea
alfabeto
altzairu
ekoizlea
erdialde
frankoen
gaztetan
luzaroan
minerala
pantaila
Zuzendari
landutako
liberalak
aspalditik
atmosferan
azterketak
deuseztatu
erretratua
modalitate
Zuzendaritza
##uku
##aron
##erta
##ston
##ñaga
473
Fut
Raj
Sey
pus
##irrek
##karga
##torio
Anas
Foix
Rach
Trop
Vega
polo
##tzaina
##tzenta
Kutxa
Medic
euria
goian
monje
##istetan
Aldeko
Eragin
Profes
aireko
planak
##eratzeko
Mailako
Tolosan
biltzar
eskatuz
eskuald
honetaz
itsasoz
kondeak
banakako
lurretik
barrutiak
mekanikoa
seinaleak
Finlandian
argentinar
konbentzitu
konposatuak
perpendikul
##yu
##rado
##usak
461
478
485
522
dil
dog
##jiang
##okatu
Shir
##etekin
Julen
lilur
##katzeko
Izenak
balioz
danbor
estrat
gutuna
kanpai
##terakoan
Erriber
Kapital
inoizko
muturra
Aliantza
Eleberri
basoetan
deitzeko
mendatea
zehaztea
Catherine
aurkezpen
grabitate
moldatzen
protestak
sozietate
Gaztelakoa
eraikinean
geldiarazi
indartzeko
dokumentuak
handiarekin
arkitektoaren
bereganatzeko
##hua
##ose
##www
##olen
##orax
Tet
Voy
zam
1804
Cell
EAJk
Kirk
Sele
Txir
ahoz
##arioen
##darren
Adisk
Barre
silik
##atikoki
Arroka
Biolog
Ferdin
Neolit
merkea
artxibo
gorteko
motaren
motorra
Belgikan
Gehienak
Pasaiako
airearen
arpilatu
biraketa
karlista
luzerako
prezioak
zirribor
babespean
iraganean
margotzen
organikoa
softwarea
Udalerriak
informatik
lankidetza
unibertsitatea
eraginkortasuna
funtzionamendua
##osf
##sky
li
477
ana
##onian
Blue
Chem
PSOE
hurr
porn
Errug
Molda
Urban
Madele
apurka
arinak
emaile
ariketa
domeinu
hilketak
portuges
Abertzale
hildakoen
lagunekin
zabalduta
naturalean
frantziarra
publizitate
sailkatzeko
Errepublikak
hizkuntzetan
##30
##fi
##uld
##erok
##turi
501
508
cor
##earch
##irena
##ments
Irab
Walt
onez
##araren
##azpiko
Boris
Canal
Front
Mondr
Nueva
ederr
hered
Anders
Gibral
berriko
larrian
metafis
Amerikar
Printzea
dukerria
ehiztari
eraldatu
martxoak
pilatzen
##itzeagatik
Garrantzi
alkatetza
autonomoa
jazarpena
artikuluan
erromaniko
gehiagoren
ibilbideak
itsasgizon
zuzentzeko
Salamancako
aberastasuna
##bac
##edro
##ours
Inv
##ionen
##popul
Arts
Azku
Comb
Pino
##ataria
##azkina
##istika
EHUko
Oihan
wikip
zunda
Hitler
aburuz
atzizk
aurres
behatu
beroak
bilbot
formal
Fenomen
Paragua
biluzik
bizkarr
leinuko
Garrantz
Hiztegia
Interpre
Monaster
aurkezle
eraikita
trafikoa
Aljeriako
gustatzen
Institutua
estreinako
alternatibo
Demokratikoa
militarraren
##50
##ibe
##ezte
494
Sug
hum
kin
##andan
##ibela
Azpi
Beng
Airep
Engel
Lertx
Liver
Motor
Pilar
##erville
##ionalki
Elizak
Hamark
aretoa
otoitz
##engandik
banatan
kronika
trafiko
zeuzkan
bizitzak
istripua
Donejakue
garaikide
haizearen
hildakoak
momentuan
pribatuak
Etxeberria
nukleoaren
##alizazioaren
aldizkariko
erakargarri
frekuentzia
irakurtzeko
horrenbestez
esanguratsuen
pertsonaiaren
##Ar
##izo
Cé
##adro
Nau
##adiak
Aven
Leip
Piem
Ryan
alea
asim
auzi
kong
##lament
##ázquez
Calab
Ibarr
Txori
begiz
books
libur
maxim
enkarg
Zuberoa
galdetu
osorako
babestua
ikustean
kilogram
sintesia
##etxearekin
Enontekiö
Eraikinak
behartuta
hurrengoa
ingurunea
italiarra
santutegi
taldeekin
Apirilaren
sinatutako
arkitekturan
merkataritzan
##BI
##ül
##nie
##hail
471
Fav
Joy
arn
##aurre
##huyar
##illen
1802
Neil
Unam
bras
kola
test
vida
##ología
##tikoko
Autom
drain
Eskori
Gizaki
Nelson
arroan
gailur
gisako
zitzai
Ertzain
Maximil
Tamaina
ganbara
klaseko
beretzat
normandi
sekundar
Kristobal
aitarekin
bakarlari
ekonomiak
eskoletan
naturalen
zehatzago
zinemaren
hurbilketa
eztabaidatu
herrialdeek
matematikaria
nabarmentzeko
##TS
##äs
##êt
##aziko
##board
##iduna
1806
Biho
Egur
Gang
flor
##celles
##gabeak
##hausen
Batai
Evans
Heldu
Ortiz
saguz
anaien
kateko
orriak
probak
Sarrera
abereak
erreinu
mailegu
Leopoldo
asetzeko
biratzen
sintagma
termikoa
zirudien
Aldizkari
ehizatzen
itxurazko
ondasunen
eskultorea
lehiaketan
aurrealdean
autobiograf
##Euskaltzaindia
##coa
##iku
##zig
By
##iene
##koko
##leyk
##ophe
##rize
Hap
Nub
Peg
ort
##estre
##goien
##istas
Cuen
Fitz
gaua
sorb
Bourg
noski
putzu
zeinu
##tarioak
Adolfo
League
Tradiz
ingeni
zailak
Gartzea
Herbert
Teheran
Unitate
esleitu
Jonathan
ekintzen
ahalegina
biologiko
egilearen
zurrumurr
egindakoak
transmisio
urtarrilak
Indonesiako
ikaragarria
partehartzea
desagertutako
interesgarria
AL
lu
511
535
544
552
630
Erl
##useko
Oreg
##arotik
Monro
Ordez
Tirol
arrap
Berdin
Biblio
Columb
Domina
atleta
gimnas
##ologiari
Bordele
Mayenne
matxino
zibilen
##munikazio
Lehenago
aldizkar
estetika
izengoit
kapitulu
abiapuntu
objektuen
Virginiako
##ebe
##jing
##mery
Tas
far
ken
rap
##entin
##pekoa
Azal
Eski
Rose
area
fama
jost
##aintza
##armena
Algor
Léger
Ralph
anglo
betez
diola
hondo
justu
##atikoen
##mentuko
##untzeko
Dantza
Gaelta
Hamabi
Nagusi
Napoli
askoan
egonda
ekidin
haizea
muinoa
norveg
Kristal
Partido
aipatua
dabilen
erreala
gorpuak
gurtzen
irekiko
leihoak
meategi
berriari
bertsoak
bideguru
hezurrak
itzulera
txartela
Alderdien
Aurrerago
eraikinik
hornidura
inpresion
portzenta
Florentzia
aurreikusi
baztertzen
bezalakoak
eragozteko
historiari
tontorrean
zerbitzura
Pirinioetan
frantsesaren
##ME
##aris
##idor
##ioek
##mend
Cec
Lay
ver
##uston
1810
Book
Lasa
umea
##amolde
##exuala
Bidea
Palat
Urola
figur
##akizuna
##istoire
##tasunaz
Gaston
Ohikoa
gorriz
helmug
sailka
Hernani
edukiko
etsaiak
galerak
hartara
urtegia
Eskozian
argazkia
digitala
tontorra
zabalduz
zeudenak
Kantabria
Lombardia
daudelako
krisialdi
Audientzia
Kazakhstan
berrezarri
proiektuan
aplikazioak
Konstituzioa
filosofiaren
kaltegarriak
esploratzaile
##tep
Ti
Ux
##imar
447
454
amu
hag
sun
##anger
##arrok
Kill
Kuba
Tele
Wind
fina
nota
##imaren
##kiaren
arabar
umezur
zeritz
Antzeko
Ardeche
Digital
Irratia
Nafarro
lehertu
uztaila
abuztuak
fusilatu
juridiko
kirolari
kristaua
grabatzen
askotariko
bizantziar
errepresio
gazteleraz
kooperatib
Cambridgeko
Gaztelakoak
kanporatzen
erregistratu
##GI
##UR
##cles
##igné
##tics
482
527
Abs
Clé
Mog
izo
##adari
1838
Pere
Errek
espek
hilik
influ
lizeo
malgu
setio
##tazioan
Antrop
Getari
helbur
hidrox
pentsa
cultura
egozten
ematera
zihoala
##ategiaren
bihotzean
erdialdea
estudioko
ezagutzea
uhartedia
zaletasun
erabiliena
suntsitzen
##isz
##jos
##lem
##arch
Alo
Dos
Leo
ler
Casa
Loup
Serr
Spen
Txan
Vera
uran
zikl
bentr
blues
##espenak
Aliatu
Altern
Harana
alaben
ekingo
ibaira
izpien
master
multim
##apenaren
##iarrekin
##inarekin
Beasain
bortizk
egoteak
helduak
isotopo
maiatza
noizbeh
trukean
Aitzitik
handitan
Ezkerreko
erlazioak
lantegiak
petrolioa
batezbeste
nekazariak
tenpluaren
gotorlekuak
interesgarri
komunikatzeko
berreskuratzea
##jok
##aktu
##eoak
##idas
##ikia
##indo
##inga
660
Hag
Ibn
Mei
kau
##ustaz
Beck
Cort
Pasc
##izcaya
Beras
Festi
atlan
gustu
##ionalak
Sydney
estres
faltsu
heuren
izpiak
jabetz
ukrain
Argital
Leonard
animali
proiekt
Biztanle
Erreserb
laburbil
palestin
Liverpool
atxilotua
eskatzeko
barrutitan
identitate
laugarrena
ospitalean
zegoelarik
ziurtatzen
Kalifornian
publikoetan
matxinadaren
prezipitazioak
##ñan
DC
##chek
##eoen
##timo
507
Sad
##ekuak
##lesen
##ource
1828
Pall
aseg
gazi
inon
##aldien
Chang
Gorte
Hamab
gihar
tetra
##alderen
Berkel
Loreak
##akizunak
##entziala
Auguste
Planeta
Ptolome
alargun
atomoak
folklor
jaietan
Bibliako
Kantauri
beltzeko
diagrama
edukiera
narrazio
Hitlerrek
aztertzea
eboluzioa
irabaztea
Ameriketan
Mendilerro
erradioaktibo
kristautasuna
zientifikoaren
##24
##akov
##atre
##gaia
##ults
467
548
Erd
Tup
Urg
##arter
##daino
Piar
lasa
poem
##raduna
EAJko
Eskol
Techn
Valde
gatza
lokal
pauso
Herodo
didakt
herrik
##igentzia
Gonzalo
parkean
turkiar
Itzulpen
eramanez
sozialen
tropikal
zabaldua
Beasaingo
Txirrindu
dolarreko
iraganeko
onartzeko
publikoki
Euskalterm
elkarrekiko
geltokiaren
kazetaritza
Pennsylvania
gehiagorekin
gaixotasunaren
##iot
##etea
##jole
##ander
##ramen
Kanb
Muga
Scar
Xake
izok
Banco
Beeth
Cardi
EAEko
Jardu
Nefer
garen
larru
##atarrak
##earekin
##iazioak
Iraken
Itziar
Montan
basati
kanala
kromat
##queville
Filadel
Gorenak
madarik
ordokia
perifer
Missouri
abokatua
##tzailearen
aurrekaria
errealismo
ibaiarekin
industriala
desagertzeko
nabarmenenak
margolariaren
Ö
##itr
##qua
##ska
Sá
505
537
Bin
Lun
Uda
Ura
##ibila
Berp
Bulg
Live
asir
ibar
sort
##atetik
Karol
Sortu
Zigor
gatib
ideal
index
kanab
##burgeko
ermita
eskuan
garden
nolako
pizten
batzeko
bideari
karguan
kreditu
zaldien
zihardu
betearaz
kontaktu
sinpleak
antolatua
karaktere
soldaduen
Historiako
alabarekin
buruzagitza
Komunistaren
##onn
Bh
GI
SP
##azak
##jeak
##jord
Mou
fol
ogi
##ibitx
##ilako
1801
Cook
Fitx
Hoff
Hura
Lyon
Prom
hobi
##adunak
##ailuak
##formak
##ipenak
AEBko
Bertr
Istan
Pazko
bizit
hazia
##ailetik
##ategien
Blanco
Hudson
Vegeta
Vienan
haragi
krater
misioa
prefet
Ukraina
Yorkera
aparatu
idatziz
periodo
Atenasen
Mugakide
eranskin
erretzen
klandest
latindar
atentatua
liberalen
gutxieneko
indartsuak
ustekabean
Esloveniako
historialariak
jarraitzaileek
555
588
672
Ach
Daw
IBM
Lov
Rho
sap
##beren
##oklip
Pren
Alain
Album
Amara
Lanak
araud
total
##andorre
##erritik
Gustav
Leonor
Terror
lukeen
##iketaren
garesti
jokaera
sinkron
Partzuer
bitamina
digestio
erritmoa
kulturak
saihestu
urruneko
zalantza
Cervantes
botatzeko
ekoizleak
karlisten
Christophe
Londresera
Zaharraren
autonomoan
estiloaren
greziarrak
babestutako
kanporaketa
β
##gie
AB
Mr
##etei
##etil
608
Lei
Llu
Mün
Seb
##osoph
Fres
Hels
endo
part
##ekonom
##rakzio
Tokio
erdib
kartu
Compos
Ikasle
Lurmut
aldare
zeruko
bermatu
esaldia
galtzea
hormona
kaltzio
samarra
Lehendak
irudimen
salatzen
Bielorrus
bizidunen
bortitzak
abiapuntua
arriskutsu
eginkizuna
eskaintzeko
##zh
##das
##say
##utr
Gy
ca
##ader
##ires
##kian
##tres
453
ven
##ititu
Krim
Show
ahaz
corp
edan
Shack
Susan
airez
urtar
Botere
Commun
Newton
Patric
ahuldu
islatu
nahasi
salgai
trenak
uhinak
Roberts
atomoen
errekur
irudian
aliatuak
denborak
herrikoi
inplemen
jurisdik
Gorriaren
arnasketa
barazkiak
hurbileko
pasabidea
begiratzen
ikastaroak
itzultzean
konbinazio
proportzio
txikitatik
ziurtatzeko
aurrerantzean
egonkortasuna
interpretatzen
##üs
##aua
##aum
##esk
##ubi
##even
##lide
##othy
Put
##undia
1803
Arma
Bete
Jedi
Musa
Ovie
##itegia
##pideak
##uzkadi
AEBek
Hirig
Maxim
Ponpe
abade
basoa
flota
igorr
kobre
lehoi
multi
##gunetik
##posizio
Santos
Belfast
Elektro
Uhartea
Westfal
abiatuz
isolatu
Gurasoak
Korronte
Iraultzan
inperioko
Gizakiaren
aniztasuna
diseinatua
finkatzeko
hidrogenoa
ikerkuntza
jatorrikoa
Michelangel
baliogabeko
##ree
##zale
497
499
Ars
Suz
lem
##ights
Buss
ehor
##errean
##ikoren
##inoren
##isteko
##mental
Ferri
Lerro
Somal
zefal
Argazk
Trebiñ
ezpain
shogun
urtaro
Berriro
erditik
erretor
Arantzaz
Berkeley
sakratua
Venezuela
diskrimin
publikoen
negatiboak
aldaketaren
baliabideen
erromantiko
burujabetasuna
##hola
##toki
Cho
Dra
Wür
dop
hep
inj
##aixka
1816
1819
IUCN
Sinn
Txim
lehi
ming
uren
César
Vieux
bison
helio
Fonten
duenak
frogak
protek
Euzkadi
Pragako
hantura
komunak
paperak
parekoa
Istanbul
babestea
duenaren
egutegia
joandako
oposizio
subjektu
Erreforma
barietate
jarduteko
pasatzeko
Elkarrekin
behealdean
doktoregoa
hezkuntzan
konparatuz
lurperatua
Aldundiaren
Portugalete
eraikuntzak
funtzioaren
administrazioa
tenperaturaren
##32
##utz
##taur
491
503
585
620
Cit
Mey
jom
ore
Brie
Emma
Grim
Hugh
Irur
Labe
Send
osko
##ontzia
Basur
Gorka
Power
Sarah
polik
zigil
pianoa
argumen
berriki
katoliz
kontraj
##ologikoen
bikoiztu
enpresan
mariskal
ugaltzen
indartzen
misiolari
turistiko
Alemaniara
indartsuen
murrizketa
nazionalak
bideratzeko
printzearen
automatikoki
eraikuntzaren
##asc
##boi
##lai
##çon
##irac
##izak
##otte
487
513
521
539
720
Cum
Gob
Kau
TKE
##opter
Alav
Deia
Iren
Yang
perk
sint
wiki
##itiboa
Korea
errib
Enkart
Harold
Orduko
Parkea
Matthew
azaroak
dioxido
ikusmen
karguak
marrusk
mendeak
##tasunezko
Gaztelua
Sevillan
amarekin
Frederick
Kordobako
desintegr
gizonaren
kritikari
partaidea
Lehenengoa
bidaiatzen
errepresen
trebetasun
lehendabizi
metodologia
Parlamentuan
elkarrekintza
##arc
##eli
##mail
558
616
Bug
Goñ
adu
oil
##ariaz
##dalen
##losax
1824
Rain
bala
epea
##takoan
Award
Group
Hogei
Kamer
Volta
bertu
gelak
##atarrek
Emilia
balira
##amenduak
##tearekin
Piarres
biltzea
eszenak
hilerri
trinkoa
antzokia
badakigu
birritan
ereserki
galarazi
haserrea
olerkiak
onarpena
##ografiaren
Aretxabal
erlatiboa
bereizgarria
petrolioaren
##ely
##ird
##oshi
Coh
Duc
Euf
McK
Mux
gih
rad
##ezake
##inara
Cath
Dian
Hamp
Noiz
Teil
gida
kotx
suiz
zink
Estan
Mateo
esplo
##arearen
Bidean
Sergio
tutore
Aitaren
Goierri
Rikardo
ekimena
erosten
taxonom
zentzua
Poliziak
auzitegi
egituran
ibaiadar
zuhaixka
Ingurumen
dagokiona
Mazedoniako
lehorreratu
Sailkatutako
eskuinaldean
intentsitate
##11
##dt
##mod
##ñas
cl
##ccus
##txak
506
546
Anf
Bog
Saf
suz
##agnac
##glish
Antx
Chen
Folk
gari
Antig
Grant
Marte
Sudan
sikul
Lurrak
Simmon
meatze
online
semeen
Castell
egutegi
element
European
Paleolit
idazketa
ikastaro
kardinal
munduari
planetak
Pelopones
omenaldia
gertatzeko
sistemetan
antzerkigile
merkataritzaren
μ
515
680
Bed
Etn
GNU
##ondoa
Arta
Mare
Mick
Zeus
birak
oszil
##angarri
Econom
Esaten
Karibe
Parker
Serbia
amaier
arrano
kolono
Eztabai
Gustavo
Ligaren
Mikhail
Suedian
beterik
helmuga
markesa
muinoan
obretan
segmentu
urtetako
zilindro
##itzerakoan
errekonoz
espresion
jauregiak
handieneko
hegazkinak
Interneteko
Palestinako
artifiziala
bigarrenean
horrenbeste
bereganatzen
Onomastikaren
##cat
##rar
ll
##ausa
##muin
493
509
602
Ega
Hog
Llo
Lob
UGT
##irren
##urdin
Aurr
Coll
Elor
Frog
Negu
ogia
seti
txor
##arriki
Abdul
Barry
Eskul
Globo
Nancy
Palma
harka
inten
xedea
Ainhoa
Holmes
Zenbat
entzul
iragaz
##aponiako
Eugenio
Gaztelu
Udaleko
barazki
bikotek
litezke
Villiers
autobide
berriztu
higitzen
langilea
manifest
Fundazioa
Madeleine
lehiatzen
Mendizabal
komunistak
orrialdeak
pentsalari
barrutiaren
ekonomikoki
espetxeratu
izendaturik
##baz
##cks
##ceko
##chin
##dice
Fat
McD
Tit
zut
##egile
##ellan
##istar
Dead
Diag
Titu
pros
##ierrek
Deuts
Jakob
Story
feniz
tiroz
zuber
##zionala
Urriko
adiera
deskub
##alakarre
##arretara
##a
##e
##i
##n
##r
##t
##o
##k
##u
##z
##l
##d
##s
##b
##g
##m
##,
##p
##.
##h
##1
##0
##2
##9
##x
##-
##c
##f
##"
##7
##E
##3
##A
##B
##6
##8
##4
##5
##)
##(
##j
##I
##H
##M
##S
##P
##L
##G
##v
##C
##F
##D
##:
##T
##y
##N
##K
##é
##O
##R
##J
##V
##w
##;
##'
##U
##Z
##q
##X
##/
##W
##à
##>
##<
##»
##«
##ñ
##Y
##í
##%
##ó
##á
##è
##_
##“
##”
##Q
##]
##[
##ô
##–
##=
##ä
##—
##ü
##?
##ö
##É
##&
##ú
##+
##ç
##!
##â
##°
##’
##ō
##Á
##́
##|
##ë
##ê
##ā
##α
##ο
##Î
##ò
##ς
##ū
##а
##ν
##*
##ρ
##ã
##š
##•
##ا
##ø
##‘
##ι
##о
##ć
##‐
##ï
##å
##č
##λ
##τ
##и
##μ
##ī
##ε
##е
##æ
##œ
##р
###
##~
##ł
##î
##н
##Ó
##û
##ل
##·
##π
##с
##}
##{
##κ
##ð
##×
##σ
##ː
##€
##β
##$
##ر
##л
##ί
##к
##ž
##γ
##Ö
##−
##η
##ß
##→
##т
##в
##ē
##υ
##م
##ي
##δ
##ά
##^
##ن
##ì
##ب
##ş
##ό
##ù
##±
##†
##Å
##ı
##Š
##\
##ʻ
##ω
##و
##Ō
##θ
##¿
##⁄
##¡
##ń
##đ
##Í
##у
##φ
##Ü
##●
##Ñ
##ý
##`
##س
##ă
##д
##ř
##ś
##ー
##м
##Č
##′
##د
##ь
##ة
##έ
##я
