[PAD]
[unused0]
[unused1]
[unused2]
[unused3]
[unused4]
[unused5]
[unused6]
[unused7]
[unused8]
[unused9]
[unused10]
[unused11]
[unused12]
[unused13]
[unused14]
[unused15]
[unused16]
[unused17]
[unused18]
[unused19]
[unused20]
[unused21]
[unused22]
[unused23]
[unused24]
[unused25]
[unused26]
[unused27]
[unused28]
[unused29]
[unused30]
[unused31]
[unused32]
[unused33]
[unused34]
[unused35]
[unused36]
[unused37]
[unused38]
[unused39]
[unused40]
[unused41]
[unused42]
[unused43]
[unused44]
[unused45]
[unused46]
[unused47]
[unused48]
[unused49]
[unused50]
[unused51]
[unused52]
[unused53]
[unused54]
[unused55]
[unused56]
[unused57]
[unused58]
[unused59]
[unused60]
[unused61]
[unused62]
[unused63]
[unused64]
[unused65]
[unused66]
[unused67]
[unused68]
[unused69]
[unused70]
[unused71]
[unused72]
[unused73]
[unused74]
[unused75]
[unused76]
[unused77]
[unused78]
[unused79]
[unused80]
[unused81]
[unused82]
[unused83]
[unused84]
[unused85]
[unused86]
[unused87]
[unused88]
[unused89]
[unused90]
[unused91]
[unused92]
[unused93]
[unused94]
[unused95]
[unused96]
[unused97]
[unused98]
[unused99]
[UNK]
[CLS]
[SEP]
[MASK]
ک
ا
م
ہ
س
##یں
ب
##ور
۔
کی
ت
پ
ج
##ان
کے
میں
ن
ہے
##یا
و
،
کا
د
اور
##ار
ر
اس
##لی
سے
ع
##لا
##یک
ش
##ائ
آ
گ
##وں
##ین
##ات
پر
ان
##ام
##اد
ہو
##ال
کو
کر
ف
ح
##ری
تھ
ی
خ
ایک
1
ق
##ند
نے
ال
##ست
ل
##می
چ
ہیں
##ھی
##ون
وا
##نے
##یر
کہ
##اب
جو
)
##سی
(
یہ
ص
##اہ
##ٹر
##ئی
ز
2
لی
##ٹی
##قع
##تی
-
ط
واقع
##تا
##لو
بھی
بن
##ید
مش
##ول
##ؤن
.
##تے
##نی
کیا
##اک
##ائی
مر
##دہ
##ئے
##مل
##انی
"
##باد
##وع
رہ
##یس
##لم
تھا
##دی
وہ
##بہ
اپ
آباد
##فر
##مر
##ائے
##بی
مج
##عد
نہ
جات
یا
##نا
فر
:
##لہ
##وی
##وا
,
می
ٹ
##اری
جن
مح
در
19
تھے
ڈ
لیے
##ما
علا
دو
##کھ
##ہر
جس
##بر
##ود
آبادی
گیا
بل
مت
پہ
مو
##ستان
دی
ای
##وم
مجم
بر
مجموع
بی
##گر
20
بعد
##اس
##مد
مشت
افر
تو
لا
##اں
##یت
مجموعی
افراد
مع
من
مق
اب
کاؤن
مشتمل
کاؤنٹی
سر
تع
##لے
##ندی
##از
بھ
3
آپ
##خت
مس
نام
جاتا
##نگ
##قی
##اؤن
سو
غ
##اتھ
تر
##اص
##بع
پاک
بہ
رق
##یم
نہیں
##میٹر
##یاست
##لومیٹر
میٹر
سط
تک
##یل
سطح
امر
##جہ
رو
##وری
تھی
##قہ
مربع
ہی
##انے
ذ
ض
رقبہ
##رف
ٹاؤن
سم
ریاست
##an
##وٹ
دیا
##کر
##کہ
بلندی
انہ
اپنے
کیلومیٹر
شہر
##کن
مل
بڑ
امریک
وال
##ندر
##را
ہوئے
##in
##وب
ساتھ
شپ
/
جب
##قت
پی
پاکستان
اد
ار
4
با
خان
##ھر
##مہ
##انا
##مال
ہوا
##رو
کرنے
##شن
##چھ
##on
چھ
##کی
##در
5
متح
نظ
##لام
لو
سک
##شی
امریکا
##لع
متحدہ
##گی
##یات
اللہ
حک
##نس
##یو
سب
کت
محمد
کم
تح
دور
##اف
##ارت
علی
ام
بہت
اع
او
زیا
سال
سین
##زی
طور
##er
شر
ہوتا
فران
##اج
گئے
6
مط
است
##ہائے
رکھ
ریاستہائے
عب
سل
زیادہ
اح
C
9
##لیم
201
##بان
##ھا
##اع
##اصل
اپنی
##دو
سمندر
##نڈ
8
کام
##وج
گئی
##فی
##ہور
عد
##دار
S
##رت
ہوئی
7
ضلع
شاہ
‘
##اح
اسے
دن
کرتے
##انہ
اہ
علاقہ
o
دریا
پید
##زار
##ar
##ادی
حاصل
##رح
##al
##وس
##الی
##دین
انہوں
کتاب
##امل
اک
##وت
لوگ
دوس
کچھ
فلم
وقت
بار
کسی
ہند
##سن
##فت
گر
200
فی
انت
’
##وہ
رہے
لیکن
زبان
##امی
##یار
موج
کہا
عر
##es
کھ
##یاں
##مت
پہلے
ری
##ومت
##دا
جان
18
سی
##کا
##لق
##نج
##ابق
قر
تم
##en
اف
##سم
##or
جہ
of
ہونے
##من
وجہ
تق
جا
حص
##ٹھ
##شت
مسلم
عبد
##ینی
##میر
t
ایس
طرح
کار
##ونی
قب
گا
مص
مخت
اسی
ہر
##at
والے
##رے
0
سن
##ورت
##is
A
زم
##ڈی
اص
لکھ
شامل
##وٹا
استع
لگ
##عہ
##لف
وس
##ریب
##ic
نا
##عت
##ٹن
ہزار
خو
##گری
پڑ
M
حکومت
##کے
ہم
کوئی
##اریخ
استعمال
ٹی
##بار
جنگ
##اہر
##ایا
##سیسی
حض
شی
##یرہ
فرانسیسی
اردو
##کار
##it
بو
ث
نی
سینٹ
مہ
پیدا
یع
مطابق
##ثر
##he
تاریخ
##خص
ہوتی
علم
رہائ
مغ
یہاں
تین
پیش
گن
##وار
سلط
طرف
مار
پھر
##انوں
ہندو
لیا
الا
نو
موجود
عمر
##کل
پور
عدد
تعلیم
P
یعنی
سید
رس
شہ
کئی
رہا
ور
مقام
مد
علاق
##وال
c
مشہور
جاتی
10
##لوم
شم
رہائشی
تص
ات
مین
مک
شروع
دنیا
وی
بھارت
##انچ
ملک
دہ
صو
##فا
دے
احمد
دار
##ائم
را
##بت
انہیں
خلا
کمی
##ڑی
عام
بچ
##ولی
##لس
انس
##ou
اخت
##ائل
##نچ
##جی
تمام
دیک
خط
کیے
##رہ
اگر
مذ
حس
الح
اسلام
p
T
عم
نیو
##لین
صح
ملا
12
B
خود
s
زند
حضرت
مختلف
جائے
##یز
##وان
##سٹ
##ؤں
##ئر
##ارے
تب
##دم
الدین
نظام
مگر
کرتا
13
ست
##نت
##چی
فوج
نق
اق
عال
اش
L
ہوتے
##نٹ
15
آئی
##زیر
دین
##فات
جیس
##لات
بڑا
کل
آر
D
صرف
علاوہ
نس
الم
##فہ
##پور
والی
##اخ
اج
پار
امام
##ion
ابن
جہاں
##om
پنج
حصہ
سیا
پہنچ
شع
اہم
##پی
فرانس
کن
بات
17
میر
چار
14
##واز
انگری
کرنا
##ed
صاح
لوگوں
لے
تعلق
شخص
مغر
##ضی
بے
نم
بد
##اش
11
مرک
آز
شاع
'
##وڑ
از
فار
##ارہ
R
صاحب
جبکہ
##ریف
##ائر
##اہم
بین
نظر
بح
صدی
قائم
یون
##ظیم
##ونوں
199
ظ
پنجاب
##پر
##دان
##ظم
بنیا
##le
صوبہ
I
##مان
##ائش
##ورس
16
d
##ومی
تج
##as
بال
##لامی
علیہ
مث
دوسرے
مول
تھیں
##وبی
زندگی
ابو
مشر
ڈی
##کت
##00
اخ
##شاہ
جی
انج
جل
فیص
روا
دوران
مز
##اتی
گو
تن
##وص
##re
جر
غیر
دونوں
لاہور
دیگر
##یہ
##آن
##گہ
بولا
##ونکہ
##جد
بنا
سائ
##فظ
صف
گھ
جم
خاص
##ائع
##عداد
گھر
پیر
h
بڑے
##کس
جانے
اے
الع
عہ
این
آخ
##il
##لاح
سند
نش
بیٹ
“
جاتے
##ورن
اند
بڑی
رہی
##مالی
##ئیں
پاس
دل
##انگ
##ہائی
وفات
##ودی
##کو
شیخ
سلس
##ھے
راج
##زر
##مب
عمل
پہلی
##ویں
##am
##روف
مذہ
مست
صدر
اسلامی
سکتا
##ئن
مولانا
##اہی
قیا
اسٹی
سام
بیان
##حہ
قص
جام
N
##ھیل
##انوی
منت
کہتے
جیسے
برط
##اؤ
198
تعمیر
سمج
متع
##ڈا
والد
روز
ہوں
##وف
##اتے
بع
ابت
کش
197
##بل
مسی
نما
مینیس
سنگ
آف
خاندان
##ur
مینیسوٹا
##تر
تقریب
سلطنت
کمیون
حمل
ضر
H
عل
ریلو
ایر
##اء
##ain
لڑ
##وز
جگہ
مخ
والا
خلاف
##گو
##سر
##ائد
##and
G
انگریزی
چین
قدی
جنوبی
##دید
##انیہ
حال
کال
باد
##اط
w
مال
##صر
انڈی
کردار
گی
##ابل
حسین
یونی
بغ
دھ
کرا
##تم
جسے
the
درمی
##تھ
ذری
شمالی
اپنا
؛
##ol
وزیر
دوسری
f
وغ
”
مشی
##کٹ
عہد
علاقے
مغربی
##ادہ
قومی
پس
##ائیں
حق
جانب
انڈیانا
آج
##وائے
##ستانی
عو
تعداد
##ارتی
دست
آغ
فرما
جاری
مسجد
##نہ
وغیرہ
دیکھ
##تح
##وق
##tt
##یب
ڈاک
in
بلکہ
ہندوستان
اگ
25
##ورسٹی
تف
ما
##ازی
جلد
##کاری
##کھی
کرتی
کب
لفظ
##un
##ent
اختیار
فل
پو
زمین
وسلم
##لب
تش
یونیورسٹی
##el
گرو
قدیم
مسیح
عربی
اہل
بعض
سات
##مین
n
##لائی
قرآن
عالم
##ist
##گا
##تو
194
آگ
سا
انڈ
درمیان
##طی
کراچی
تا
پانچ
باب
##ant
حر
مم
##ویل
تاہم
شائع
##ودہ
E
بادشاہ
پھ
معلوم
بارے
اول
##یکس
195
وہاں
196
قان
##پس
##وک
مکمل
تقریبا
##ریک
##زا
کمپ
فن
##سپ
الین
مض
اسک
پانی
##دیث
عرب
##et
آیا
b
##ia
الینوائے
پا
##الب
##ul
##قل
ذکر
حا
24
اسٹیشن
##گار
##تل
##ٹا
سور
شمار
22
آئے
کان
چند
##قات
مرت
رسول
اض
بج
بخ
21
قریب
کیونکہ
##صیل
نک
##سیم
ایسے
##وڈ
##رین
دع
انداز
کوش
پیدائش
سلطان
%
کالج
–
بند
23
آغاز
##لاد
##مالک
J
بھر
تحریک
##یال
##ادر
##حد
m
##دائی
شا
شادی
ادب
F
زیر
ترین
##جر
رکھا
چل
اط
اعظم
خدا
##ad
##aint
الق
##nt
ممالک
##ing
منص
##ارا
##ثیت
ایم
Saint
گے
ریلوے
##ارج
تہ
##ستہ
قرار
##وے
]
ہاتھ
30
فض
مف
غز
##ac
قسم
##شیا
الس
##ماعت
فرمایا
ڈاکٹر
قتل
##خاب
چھوٹا
##ڈر
حسن
قبل
آن
درج
بنگ
بھائی
اداک
صفحہ
یور
##ریل
کامیا
الل
جھ
##ریہ
##فاظ
قدر
انتخاب
##نام
سع
علامت
موسی
عظیم
##ورڈ
دان
طری
صورت
کنس
مسلمانوں
##لوی
لکھا
##ارف
کوشش
##ریر
27
سندھ
##ٹس
##ائن
بنیاد
امریکی
##ttp
##یثیت
26
خلی
سلسلہ
داخ
##ڑھ
##مبر
##لان
##یاتی
[
جمہ
شاعر
چن
بنایا
مدد
##us
##یکی
سیاسی
منا
حدیث
کنساس
##اتا
##hi
##عی
اندر
مسلمان
مصن
28
دہلی
شک
W
رکھتے
باز
##حا
پڑھ
##سے
گاؤں
جز
##ستی
##عے
##میت
##وریہ
لینڈ
انھ
تقسیم
عق
##ag
شریف
ٹر
##اند
سہ
پہا
یہودی
##ورا
خص
##شہ
رح
##اروں
ادا
ابتدائی
##لیس
ترج
اٹھ
ایسا
جماعت
کتب
بلو
ترقی
29
نص
آئ
##زد
##ri
طب
مان
صوب
آزاد
خوا
##غان
U
قیام
علاقوں
نور
سنگھ
صلی
بط
متعلق
O
=
پت
فرم
##ڑے
##شا
K
##اکہ
مشرقی
##ضہ
تیس
آس
بھارتی
##رائی
سفر
اثر
##لاس
قوم
_
ایران
##ونٹ
##براہ
دف
##لک
خصوص
حیثیت
193
انتظ
سرکاری
##رک
فتح
##anton
http
##ro
دیتے
##تیس
منظ
ایسی
اٹ
مرکز
##واں
com
اصل
حوال
بڑھ
جون
##ity
کافی
Canton
سما
جدید
انجام
##جا
حد
وار
##بو
قبی
چاہ
تبدی
##لوں
فارسی
درجہ
##ab
##قال
موجودہ
تخ
انسان
کبھی
وج
یو
عرص
Cou
##رر
کرکے
تحت
رنگ
192
قابل
پہلا
جمع
شاعری
ختم
اعلی
مظ
##دمات
قانون
واپس
##یدہ
الله
تس
رض
عث
عددی
قلع
دس
سکتے
قط
##ٹری
##ation
مقاب
گنتی
کلومیٹر
یاد
افغان
یونین
l
##قو
تحقی
برطانوی
##وپ
اسکول
جاس
آخری
غلام
##ووا
##لینڈ
##ہرست
اوہائی
اوہائیو
ذیل
ڈر
and
ك
عالمی
یہی
00
آب
خیال
نظاموں
سپ
جنہ
ذریعے
##بال
ہج
##یوں
دینے
##ڑا
شکل
31
آنے
تیار
##انچہ
اکثر
##نسل
پاکستانی
مری
ناول
سامنے
نتی
##ew
پارٹی
امیر
##چہ
چھوڑ
##شر
رکھنے
تحصیل
پسند
ٹھ
سنہ
##ائز
زمانے
##لیف
جارج
سیک
بیٹے
##iv
آزادی
سف
مراد
پائی
##گل
to
سمجھ
اعت
بنیادی
معا
خواجہ
انتقال
مذہبی
##لال
اسرائی
جسم
قصبہ
##ٹو
گرد
مزید
##سک
حکم
خد
##گاہ
خدمات
ایڈ
مرکزی
شمال
##ادری
مور
##سط
##کان
مذہب
##یسر
##بول
##ابت
ماہ
موض
ایل
بطور
شو
##زم
خر
حج
V
حقی
روم
##یلی
##ay
کور
##id
##ارڈ
معروف
حکمر
آئیووا
فلس
عورت
برس
چیز
حملہ
؟
##بے
مقرر
سان
مطال
##رز
##الت
##لوان
کونسل
مید
ترجمہ
لہ
ٹیم
نمبر
تحریر
چنانچہ
جمہوریہ
ہسپ
The
ڈال
فری
خوب
شیر
مدر
عبدال
مقد
##ہار
موقع
فہرست
##nty
سون
لگا
کہلا
##اما
ڈھ
رکن
پرو
##لائ
نوم
پوری
بچوں
ماہر
جامعہ
##جے
##یدر
فیصد
جنوب
##لاع
32
##سہ
چی
##یاء
مصنف
##جن
##ولت
##صد
##os
##لز
##ابر
مصر
یوں
##یح
تنظیم
##سمبر
بلوچ
انسانی
دیے
##اعت
##نگٹن
خات
الگ
دریائے
##ch
الب
مارچ
##ینا
##يں
بت
ظاہر
##ٹل
روایت
کھیل
دکھ
##شنل
حیات
بنی
##خب
کمپنی
معاش
##صل
ملی
##قوامی
##راف
سکھ
موت
191
کرکٹ
##داد
علامہ
عط
##em
##ers
الاقوامی
##الہ
اگست
دا
روح
##رل
##کون
County
مندر
نومبر
الفاظ
تاریخی
ثق
##ریس
صن
##حاظ
بیر
##وش
##ig
##ir
دسمبر
بول
##توبر
مشرق
ہدا
##افظ
علي
منس
##لوانیا
آد
کس
محم
اضاف
میڈ
##یکل
کرے
آٹھ
پنس
##ایت
کپ
##عدد
##او
مب
##th
##ونگ
نماز
ترک
علما
معنی
گورن
سائنس
##رب
مقامی
اکتوبر
یک
راست
##طہ
انٹر
ایشیا
منتخب
باع
اخبار
##ap
##دت
مدین
جنوری
##ورنیا
ترکی
موضوع
لاکھ
زمانہ
##وٹی
کث
السلام
##قا
##آباد
بلا
نب
آخر
ثابت
سکے
قبول
دیکھا
33
پنسلوانیا
##ak
000
##افت
##وٹے
##طینی
کریں
تاکہ
نف
فوجی
##ہی
خوش
##ینہ
عمارت
##لاب
بری
##اہد
##منی
رج
##چر
طا
##ویہ
حل
پری
کینی
##چے
##um
##ویز
بم
##بارہ
سیر
میری
مرتبہ
##سیر
عن
الف
34
چکے
افغانستان
اعز
گز
پولی
کہانی
حیدر
باعث
##نامہ
انع
##کومت
مئی
##خر
ہونا
پن
نئی
##چا
تی
قبر
دوبارہ
##ژن
##nd
نئے
##کش
لیک
گل
##ورہ
متعدد
ستمبر
سیاست
##فتہ
##ابی
داخل
##یائی
for
چلا
فقہ
نبی
لگے
##ec
فرو
جولائی
آیت
جارجیا
مخال
کردہ
دوسرا
طبی
خال
Ch
##دیہ
انتہائی
##ڑوں
مقصد
برطانیہ
سلیم
##ذکر
ویب
فلموں
جانا
نواز
##اتین
##im
بنانے
قلعہ
وق
اصط
خانہ
علمی
رام
ہوج
سکتی
##لیہ
اقبال
35
عليه
بلند
ادبی
کرو
ww
والوں
اسمب
##ائب
خدمت
دیتا
www
##رفت
نکل
میل
مثال
مثلا
اسرائیل
خواتین
بہترین
##میں
نگار
##ذا
عوام
رکھی
##ریت
##گرام
##ٹین
##ڈو
بیگ
تاج
اسمبلی
##وما
لب
انھوں
##پن
رائے
مغرب
##دیش
زر
قبضہ
##جو
##دھ
بس
اپریل
وسکون
##خصوص
اعلان
##حی
گری
شکست
شدہ
وسکونسن
جنرل
حوالے
ہار
سردار
علوم
انتخابات
##پوری
##ولہ
الرح
مدینہ
وز
##ینیا
شام
عوامی
##ئیر
ناک
افس
رات
رہتے
باغ
جاسک
کامیاب
##سیع
g
40
بیس
نامی
##قد
متا
باہر
لکھی
کیلیف
اصطلاح
اولاد
##یکٹ
ریا
کشمیر
##ساس
##رم
کیلیفورنیا
باقی
ملت
خلافت
ہدایت
الی
جواب
اعزاز
بزر
نگر
طاقت
##ot
آتا
خبر
دیں
##طن
اقت
لائ
عیس
مرد
روش
##وجود
محد
جڑ
##پا
نواب
کینیڈا
نیا
ذیلی
##قے
چھوٹے
تصور
سٹی
##وارڈ
##شتہ
اتح
پھی
##od
##og
پین
فروری
محف
##با
الج
##مے
آل
جع
بزرگ
50
ممکن
رکھتا
##ce
گروہ
دیو
لحاظ
حالت
شہرت
محبت
شاہی
##مانی
حصے
زبانوں
گئیں
نہایت
واش
ضرورت
##رار
میدان
ابی
حالات
صل
##قین
##مار
##ونا
چکی
کیم
خلیفہ
قا
قری
##ut
عباس
##غیر
##بیر
ذریعہ
##منٹ
راہ
باپ
چونکہ
متاثر
تبدیل
##نڈی
##زہ
##اکر
امی
##ric
2013
##بیت
کلی
36
انگریز
##خوا
##ev
##وسی
رہن
تد
ریک
##لبہ
La
##َّ
تعالی
معام
آتے
##op
بنے
##کیل
کلام
##ادت
انق
ھ
St
فیصلہ
بغیر
##کشن
ادارہ
a
##ip
وص
ساز
باوجود
ایوارڈ
ہائی
##الیہ
رہنے
##ٹک
نج
190
اجاز
محمود
مقبول
بتا
##انس
آگے
ہندی
##فیہ
فراہم
منتقل
انڈیا
##ندہ
گزر
##ابہ
##اہے
اسٹ
100
دش
چلے
یوس
ہوگا
طرز
##st
چاہی
واشنگٹن
کھلا
تفسیر
قید
یورپ
پایا
مکہ
##افی
جامع
##قب
##روں
سخت
##وظ
صحیح
مالک
شخصیت
ہوئیں
الز
##ماع
##یکا
2010
##شتر
37
##وروں
تذکر
de
منع
بانی
کتابیں
صلاح
صد
مجموعہ
اظ
##راج
ماں
##چھے
گرفت
الخ
محک
پروگرام
مؤ
میرے
برائے
اتر
نظم
اہمیت
شہید
تحقیق
##زیز
گڑھ
سماجی
پروف
تخت
آمد
بینک
ازاں
شرح
ٹیکس
سمجھا
;
##ill
رب
##بری
اجازت
2018
یارک
بہر
انعام
پچ
ابتدا
##گن
لاطینی
معلومات
اگرچہ
فٹ
طالب
ابراہ
موسیقی
لائن
##ضر
ملتا
##res
افری
45
آواز
##تیب
تہذ
قبیلہ
##اور
2012
دہائی
!
##واج
عرصہ
##ائج
غر
چاہیے
2014
##یلڈ
تلا
اکی
وادی
کامیابی
مسائل
غالب
کتابوں
بارہ
##نسی
##نیف
##ریز
سٹ
##ڈیو
جہاز
جذ
اچ
حافظ
وسطی
راجا
خون
ولی
چکا
تخلی
الن
سپر
ہمی
ابراہیم
##میل
محل
گاہ
اضافہ
جیسا
چینی
پروفیسر
نسل
2015
##wn
ہوائی
نقل
نع
روس
ہیر
##ینگ
##لط
الحکومت
مطلب
##20
38
v
پنجابی
کوہ
سرحد
##غت
60
عرا
##لاق
جنہوں
##لاک
جھیل
##19
ذہ
یوسف
ہمیشہ
ورج
کیوب
39
2008
مجھے
کیں
انص
تمہ
اکبر
ماؤن
باق
ممتا
نزد
زائد
درس
کردی
قاضی
أ
##پورٹ
بچے
عدالت
##ين
شہری
##شم
2011
استاد
##art
منظر
##ub
واض
نیز
مطالعہ
جاپ
##اض
وطن
رہتا
بیوی
##ڑک
صوبے
طریقہ
امت
ورجینیا
##نز
##بیا
درواز
تربیت
##ثہ
##شل
##ناس
##امین
سلسلے
لیگ
ابھی
ضروری
##لاف
##یاری
وجود
##سام
##اسی
ممتاز
پڑا
ڈگری
##oc
2007
##لت
مزار
##اگ
الر
آدمی
انیس
واقعہ
Un
طویل
کیرو
شکار
دیش
موسم
93
پیم
##ینے
شاخ
چک
اصول
##اٹ
سنی
پشت
2009
##نوں
بیٹی
محفوظ
تسلیم
پورا
دوست
کہیں
مسیحی
##لیل
ادارے
مسوری
وسیع
##ra
اتحاد
##ڈن
##اہدہ
پورے
پہاڑ
##سپی
کھی
شری
بتایا
عش
عباد
اظہار
##ونے
بجائے
بنائی
##اکی
##ویر
شہروں
##شد
##حت
مہم
فاص
ساح
واقعات
فیض
جڑواں
وف
شریک
گجر
جزیرہ
عیسوی
ٹیک
بہتر
##شپ
##چھا
##بارک
نیشنل
حضور
##اوت
لن
خواہ
##ائیس
##ثار
ویس
خوبص
سابق
##تال
فع
سرگر
مقابلے
##انوے
گول
اضلاع
واب
##ian
پزیر
2016
مخصوص
تیر
مدرسہ
دوم
پیغ
##نوی
تذکرہ
ء
##لائنا
بیٹا
نسبت
##سٹر
##قیہ
حکمران
تعلی
واضح
طلبہ
تہذیب
##وام
##ex
جائیں
##ov
2006
سنت
or
کیرولائنا
ذمہ
روشنی
دریافت
بنگلہ
معم
نزدیک
مختار
کریم
##بھ
شیعہ
##مون
##گرد
عطا
مرح
کھلاڑی
یونانی
##ولیت
نمائ
ہندوستانی
لکھتے
انتظامی
##بلی
روپ
داد
توجہ
ملاز
جرمنی
نسب
سائٹ
حقوق
43
مکت
##سا
حقیقت
قوت
ناز
اداکار
دم
ارد
41
ہجرت
بلوچستان
والدہ
Ind
تصنیف
الاس
مقابلہ
##یکو
بندی
پائے
##ھایا
دب
پاب
سبب
نامہ
بدھ
قیم
re
مفتی
##اعدہ
کہنا
##رید
الک
داری
##est
بک
مضامین
اوپر
دینی
##حات
##ah
##ادات
92
مختصر
##ang
55
گزار
نمایاں
##شکر
تعلیمی
حیدرآباد
ادی
نتیجے
سربراہ
##age
مقامات
##قید
##ویت
زندہ
گورنر
##ud
48
میک
روایات
46
##ونس
##ڈیا
انتظام
ایف
پولیس
بیٹھ
جاسکتا
خل
##اق
44
##رات
حن
کیوں
قبائل
##لیت
کثیر
روانہ
احت
رضا
##ندھ
42
لکھے
##کام
بخش
شان
کیر
اشاعت
ترتیب
عموما
نشان
فرماتے
##شید
منہ
##يا
شماری
New
سعید
80
2017
حامل
شعبہ
مرزا
##اون
پردیش
##اجی
189
مجلس
عز
خی
تیل
##یمپ
بننے
سورج
ماس
ریلویز
چر
نکال
پک
خور
آتی
حملے
اصلاح
ہمارے
##ary
ڈک
میاں
70
##الم
غزل
رکھتی
چھوٹی
فکر
کون
صلاحیت
##ندوں
بوس
افواج
##بات
بلی
تعریف
##وبہ
st
پشا
##ینس
65
محکمہ
الہ
##اپ
مغل
رہنما
##eb
سری
##الح
انھیں
وہی
اعتبار
##ٹہ
##فاق
ایچ
سلم
شہن
پخت
ملتی
قد
بیت
##بانی
بھگ
میس
پل
سارے
روک
##ارک
47
گرین
پہنچا
مردم
عراق
اقوام
روحانی
ٹیلی
کاری
اینڈ
ملکی
بازار
##اسم
بنائے
تعلقات
##ern
خیر
صحت
مخالف
عرصے
##ذہ
##مرہ
آنکھ
فرق
##میوں
گنج
188
##ورو
نار
محس
لینے
54
جے
Re
بغاوت
185
دعوت
روڈ
ماح
پال
پتھر
تنقید
نامزد
نقش
##گز
ذات
خاتون
کوٹ
شہنشاہ
کاروب
##ct
##یاب
لڑکی
مہار
گرفتار
##ٹڈ
##rict
خطاب
##ula
شعر
ميں
وض
##ہا
قیادت
##ندن
90
94
بحر
|
نفس
کلاس
کول
برابر
انگ
لشکر
اکث
بدل
##istrict
حما
منگ
63
##ڈل
##وعہ
ولاد
بیعت
مقدس
ہاتھوں
مہر
##مبئی
پہاڑی
##یتی
75
گیت
ساتھی
میچ
تشکیل
ہسپانوی
##وط
&
49
پشاور
ولادت
##اصر
صنعت
کرام
##زل
کوڈ
گلو
گروپ
ثانی
##ہری
85
نقص
نگ
2004
ایرانی
form
دشمن
بابا
بالا
ٹیکساس
متو
پارلیم
مبنی
آہ
مون
حاضر
مزاح
جنہیں
##رکہ
##وجی
سمیت
##ow
تلاش
ماحول
ـ
ارکان
##شتی
2005
نتیجہ
##بن
دولت
رہیں
ثقافت
بخاری
کنارے
##خی
روسی
صلى
##شین
سعودی
اسم
##ذر
Y
سعد
نوج
##داری
میز
بالکل
شدید
58
گہر
بیچ
المع
بیگم
##لوک
محض
##مپ
##الا
53
##ادے
شہز
مبارک
ہاں
دینا
جیک
انکار
انٹرنی
دراصل
العلوم
بنو
تخلیق
##ائٹ
##ماری
الص
##نان
کمال
کینٹ
منعقد
امن
##لسل
57
Ar
تبدیلی
عبادت
##ناز
الش
##ality
##انت
بہار
##یکٹر
بغداد
پہنچے
##du
ملے
نظریہ
ڈکوٹا
##ٹے
##ok
51
برہ
جیل
خصوصی
##بح
##بوط
ممل
دنوں
##ودھ
چوت
محسوس
دربار
لقب
ساری
دلچ
لندن
رم
لکھن
منصوبہ
##unic
##ندے
گھنٹ
town
خیبر
اقسام
52
ایمان
##باب
on
طے
پارک
ملتان
ملاقات
ژ
حصوں
##ہرہ
بہن
عہدے
فروغ
خوبصورت
##ard
سج
بھیجا
جلال
اندازہ
سلیمان
الت
formula
فق
##ئیس
ایج
حقیقی
##ine
رہتی
##انک
##دگی
برق
رفت
واحد
الد
وابستہ
##ast
کائن
ہن
https
187
شمس
لمب
تجارت
قاب
رک
دیتی
97
org
مشکل
معت
غازی
##hip
مملکت
تصویر
##افتی
نقصان
##ظمی
56
عنا
القر
پیرو
پیک
میرا
ویل
بلدیہ
قلم
یورپی
##av
آثار
##رس
ي
صوفی
##بور
گرم
مندرجہ
اشع
نسخ
##if
رخ
91
زور
دفعہ
کیف
انگل
نیچے
##دد
کیوبک
ریکارڈ
##طین
##گیر
زخ
##فار
ادیب
##unicip
تشریف
لگایا
مقدار
##ڈمی
چاند
64
##اسکا
اون
عثمان
اڑ
بدر
قطب
نوازا
راستے
قانونی
##نیا
موس
سزا
##لیز
186
جین
##بد
تاب
بولی
86
##اہرہ
جنا
باش
ہجری
مسئ
ٹاؤنشپ
عثمانی
پندر
مضمون
منسلک
وین
نوب
افسر
بورڈ
ضرور
##ont
جائز
اقتدار
انقلاب
کلو
جرمن
##بتہ
الغ
لک
بحیرہ
کہلاتا
کمیونٹی
دائ
67
پیا
تیز
موا
##مراہ
اسپ
ملازمت
زبر
سڑک
لکھنؤ
##یوٹر
لال
پھیل
سرخ
الرحمن
##ظر
59
##شاد
##وئی
لڑائی
61
آئین
لیتے
##شک
88
عرف
##وو
ڈرام
شرکت
شاگرد
روزنامہ
##ير
##ish
##وایا
رسم
کروڑ
سرما
جنسی
قدم
##توں
ماخ
2019
مسع
68
البتہ
##قف
Is
##ریشن
سندھی
ڈراما
تجارتی
al
فیصل
62
##ship
##ڈیشن
##زن
##اول
ہوچ
##میہ
##کنساس
جعفر
پندرہ
ہل
##نگی
مطب
خز
##ne
66
حمایت
دیوار
اکثریت
کرلی
اکیڈمی
##ran
##اجد
87
فضل
پناہ
مستقل
##انڈ
حفاظ
سینٹر
##unicipality
مالی
بص
##our
کائنات
رقم
گجرات
96
##ائیک
کنی
##تالیس
ہلاک
تباہ
درخت
کمپیوٹر
وہیں
##سان
حرارت
یافتہ
95
##اریہ
##تن
##ادیث
جیسی
مولوی
ویں
پتہ
##ارات
الحق
میکس
عباسی
براہ
بنگال
ریاض
سیار
تکمیل
اداروں
##طابق
##ذی
جاپان
پیچھے
ملین
الزام
81
کوئ
فلمی
##تہ
گیارہ
Al
بیماری
اوقات
##qu
89
یہود
##جان
راب
84
اسلامیہ
##گان
رد
عی
پہلو
درد
ہمیں
روایتی
بہادر
##سین
##نال
99
جلا
اختلاف
حروف
حلقہ
لار
سنس
وفا
2000
ڈائر
فور
مونٹ
ہوکر
عنوان
طلب
قل
کانگری
##ib
آسم
##ha
##بوت
ماضی
دفت
محق
##ory
سوا
حرکت
وسط
اث
محدث
دیکھنے
خیا
پہچ
عملی
ول
2003
انہی
آرکنساس
شنا
مدت
طریقے
74
لم
فائ
##امت
لوٹ
بھیج
ریڈیو
اداکارہ
لئے
78
##کٹر
##انیف
مند
##ونت
72
عج
جیت
سفید
##ment
##ریم
چھپ
کہہ
امور
پابندی
طبع
##شائر
عبر
فرز
پرت
سونے
احادیث
##احت
##اعی
مذک
فائز
ثقافتی
باقاعدہ
##کرم
184
سکا
بمطابق
شہادت
تبلی
ارت
ٹو
##براسکا
بیک
دعا
علاج
76
تار
اسماع
عمران
مدار
نامور
توان
##پال
2002
مرتب
مسلسل
انگریزوں
نیبراسکا
##پل
73
ہین
مناس
77
روزہ
جرسی
بہرائ
زین
پختون
##لیٹ
83
سلام
قادری
تل
تصانیف
##ort
مات
بیشتر
جزائر
قبیلے
کمیٹی
معاہدہ
تیسری
ذر
ہیمپ
فاصلے
حاجی
تبلیغ
امتح
پھول
ریاستوں
جد
##tm
صوبائی
##nc
##ial
1947
69
راستہ
##ies
اداکاری
71
##حاب
اطلاع
##ber
سوس
2001
##صغیر
نشر
پیشہ
معاشی
نوع
مصط
خرید
قدرتی
##امہ
پرست
##ونہ
ہوگی
##ep
82
اٹھا
بندر
لائے
اسماعیل
##نڈا
قائد
##الے
##قول
قوان
مراک
مسعود
##فق
ساب
منی
کانگریس
79
زید
عرو
یوم
خواہش
شخصیات
##ik
##لڈ
##یاس
فط
##ress
آسٹ
حلق
##بیہ
آلہ
ڈالر
شوق
ہمراہ
یس
شج
کولم
نائب
خام
ڈیو
زبرد
اعداد
خار
##مانیہ
خالد
مصروف
قیمت
القرآن
##بلا
##وڈیو
اقد
ماؤنٹین
##جم
ایٹ
حکیم
##حق
شعرا
##حض
98
اوک
صاحبز
##ندگی
سولہ
مسا
عزیز
##ولا
کلیس
ہری
طال
داخلہ
##صلى
##امن
##انکہ
انجمن
وزارت
پھیلا
جانوروں
##ate
جت
بنت
برصغیر
township
ہتھ
رہائش
##ly
حاک
حساب
مطبوعہ
وع
رضی
بچپن
امتحان
k
##ولپ
##خواست
##فری
##لوب
دھم
لکھنے
##بوں
بش
htm
##افٹ
ماہرین
والدین
##نازع
الحسن
توانائی
فاط
منظور
##ہن
##طنی
##ینک
احساس
##والی
##ائف
نگاری
ہزاروں
جمل
لہذا
پالی
قوانین
##نو
خاک
یہودیوں
بحث
درست
حالانکہ
##لح
خاط
صبح
لگی
##اؤد
##حان
پیمانے
##یند
سخ
ہٹ
بیل
چلی
##000
افت
شریعت
##ہم
بان
گفت
خواب
محدود
درخواست
سوی
جنگی
##شور
فرزند
##ٹرول
خاں
منصوب
##تیہ
ناصر
سالوں
##برگ
Mar
دعوی
ملتے
by
##ائیوں
میکسیکو
چم
راک
معمولی
اتنا
مواد
ابوال
##اہدے
مخالفت
##az
تجر
امتیا
متعارف
##سل
ویر
ناکام
##میری
الط
اچھی
شوہر
مقیم
##اہب
##حید
اوسط
تدریس
مشترکہ
e
##ook
غلط
اتنی
183
مستع
کینٹکی
صاد
##ord
##فورڈ
تیرہ
حوالہ
سورت
کمز
عقید
سیرت
انگلستان
##یاہ
1990
چشتی
گھوڑ
یکم
مضبوط
آم
وآ
دیر
رحمت
یقین
پلا
عمرو
##کم
اشعار
دہشت
سابقہ
موضوعات
##حص
آئر
سیریز
ذاتی
ملکہ
##کاروں
منسوب
عورتوں
##ونڈ
##istan
مجبور
##ضے
##الدین
غریب
تعین
بائ
##گھ
تالی
فلسفہ
نظریات
اختت
ویسٹ
اثرات
##کتہ
ناق
خانے
برج
عقائد
ٹیکنال
علاقائی
آت
لوک
گاڑی
رفتار
کھانے
##سو
غور
لیں
سالانہ
بٹ
مجید
ہیمپشائر
بکر
جمال
فعل
نجی
ذرائع
##میز
is
فروخت
##فے
صحابہ
چیف
India
##وند
حصول
دیوی
##ld
خاطر
جیکسن
معاملات
##مات
##ماغ
ساحل
چلتا
احکام
فضائی
صاف
عشق
##یارک
چون
گنگ
داستان
سمجھتے
وکٹ
نوبل
انڈین
معاشرے
##ڑہ
##فرنس
ربی
##10
فیر
حاکم
سالہ
ماری
پیری
چودہ
فو
دھر
سوال
نوا
##ٹنگ
قاسم
##حضرت
سوچ
##فرد
##پوریٹڈ
##ical
##انکار
آئیں
##مید
ایئر
##ورش
سائنسی
نیویارک
جغ
دفتر
نازل
زلز
بحری
منگول
چاہتے
متن
محی
نیک
روشن
پختونخوا
##ge
1980
فرمائی
##ure
ممبئی
##کرت
دفن
یار
ہوگ
en
ثبوت
مارٹن
##مز
بلد
کاررو
##طان
کرن
عرض
کلا
مسئلہ
##ولپنڈی
ٹیکنالوجی
برف
فرائ
##غر
امد
سوویت
دماغ
جانور
انانکار
انانکارپوریٹڈ
دیوتا
پیغام
جناب
##صف
r
تعال
##ضل
ماب
بھاگ
##ell
ذخ
لغ
راولپنڈی
##ice
کشی
##ٹوں
وید
مقبر
مورخ
کامل
ڈائریکٹر
افریقہ
ووڈ
اشرف
صادق
ویکی
##ثی
گیس
وفاقی
##ie
##پسی
کنگ
اختر
سنسکرت
شاید
##میم
بگ
##انسی
##ویژن
عنہ
مام
عہدہ
حفاظت
ریاضی
دلچسپی
ہسپتال
آدم
چوہ
رائج
عبرانی
خاند
اختتام
قبرستان
کمر
##ind
##راہ
##تمام
1998
رومی
##عب
##ass
ur
##پیڈیا
منزل
کاروبار
نصف
ه
معی
دادا
طبیع
پیداوار
##آخر
##مری
##الیس
اونٹ
کیفیت
فلک
مزد
داؤد
معیار
دستیاب
شرف
کری
گور
سامنا
ون
گیم
الاب
اگلے
##ith
##ht
شب
تحفظ
یادگار
##lam
اسد
وآلہ
##رخ
##ess
##اہو
خوف
##ریح
موجودگی
pk
دورہ
رکھے
سکول
دروازہ
کنٹرول
##فع
##کردگی
سرمایہ
حم
سازی
کمان
دلی
1970
##والہ
##بیب
##شار
باک
نوجوان
کانفرنس
##قوں
پڑھنے
##سٹن
عص
سوم
مکر
الجز
سترہ
محب
html
اشارہ
ناف
##ریلیا
##ملک
فائدہ
##یام
روپے
##ey
##صہ
##کین
ہاش
دستا
سیاح
##لر
یز
ٹیسٹ
##ect
##قبل
یق
تصوف
##اچ
##اہمی
رپورٹ
##اکا
##دوم
نگرانی
خصوصیات
سیل
زبردست
عثمانیہ
##au
اخذ
پیس
th
کرد
##بندی
سوان
کرایا
نغ
گورنمنٹ
##اتذہ
##رد
##اصد
پرچ
کہنے
اڈ
جنم
راس
ایوان
مذاہب
دکھائی
##ائٹی
##ارتھ
ہتھیار
تیم
سروس
District
Pro
سماج
##وید
بہاول
ِ
دیکھی
رحم
##ئین
##راء
##پوت
##ومتی
تعاون
دہلوی
ڈویژن
شاہراہ
##ٹرز
فرائض
##داشت
##مائی
ہماری
?
ڈیم
نشست
شناخت
مٹی
آسمان
##فین
ووٹ
1999
میڈیا
ظفر
##اندھی
عیسی
الاباما
محر
##زمین
باس
آیات
درجے
شیو
چڑھ
زیارت
سامان
##وانی
برقی
لائبری
##اڈ
فورا
آسٹریلیا
لایا
##صی
ملنے
دیکھتے
اندرونی
##rit
##حاق
##قاد
ویت
مکان
##شان
لاز
ارشاد
##ئم
آذ
ریاستی
##eved
Ret
برقرار
##iz
یہیں
##ational
##rom
فلپ
ویژن
اجلاس
##18
زی
چو
500
کمیشن
##لن
##لابی
180
پود
واپسی
آنحضرت
##زیہ
توڑ
سکیں
معیشت
مقدمہ
گلی
##ous
##فیلڈ
##یاسی
تور
##rieved
اٹھارہ
##all
03
فون
پڑے
رشتہ
فیئر
مظفر
بائی
بجلی
لباس
تفصیل
دیوان
ہال
فلمیں
عدم
مثل
تیزی
سپرد
محنت
اصحاب
ند
##آمد
خلیج
پڑھا
گفتگو
##ubl
##gion
بور
عقیدہ
معاہدے
##لقہ
ریلیز
بیرونی
نت
##کرین
برع
##کری
05
جانشین
تعلیمات
نعت
ولا
کھانا
طبیعیات
##ry
##حدہ
04
آسان
##گرہ
چندر
فلوری
زمرہ
نکاح
چالیس
##اہری
جال
##ونیا
تمل
سنا
ناگ
ورا
دیوب
مہدی
شدت
لغت
مسیحیت
مانا
سہولت
##akistan
وڈ
دکن
ناشر
سوسائٹی
##ویو
##ینٹ
سود
مرض
##ڑھی
ورک
وزن
تیاری
رون
بستی
اساتذہ
رش
خلف
تہوار
خاتمہ
مرحوم
بالآخر
راجپوت
##ates
احتج
زخمی
مریض
ٹائم
قریبی
150
نقطہ
##han
سچ
نر
چچا
اخلاق
##ولس
##ult
##وسٹ
In
فت
سپاہی
##13
08
رسالہ
ہیرو
اسحاق
صدیقی
جسمانی
کارکردگی
لین
1960
بارش
##عتی
حاد
چاہتا
فلوریڈا
##ai
##ust
##کیٹ
زرا
قول
تیسرے
##ہے
البر
##ff
آپس
اڈا
پریس
##وتھ
فارم
مصنوع
دروازے
گاندھی
##گت
مرہ
##ong
##ڈیم
ar
فات
گناہ
انجین
تحقیقی
حکمت
سبھا
سنبھ
یسوع
نمائندگی
##12
##har
اکرم
پچاس
ہمد
دفاع
مخدوم
ساخت
مجھ
یمن
##ای
ائیر
خفیہ
کربلا
##پو
انصاری
09
نشین
تجویز
##hy
اقتص
انور
برعکس
مارشل
##17
##گون
منٹ
کلم
رواج
##ڑھے
آکر
بید
مخلو
Retrieved
فرد
اہتمام
سرزمین
##ھار
عین
جوہر
سادہ
وائی
##بک
اخلا
اقدام
##تیں
##ینڈ
مچھ
ہنگ
کوریا
##ive
An
کھو
300
فرید
##اشا
عزت
##سٹری
فاض
شعبے
کابل
##land
اجت
انسٹی
تالیف
##ews
پیپ
کرس
حدود
کثرت
خصوصا
متر
مجمع
کریک
ماؤنٹ
ملکوں
جرم
لبنان
حیر
سکی
معص
##وراڈو
کاشت
یحی
1992
ایسٹ
>
##ناک
##ہرے
pro
ڈیز
کھل
زبانیں
کروایا
##اؤس
ندی
پیغمبر
انسانوں
##14
182
مستقبل
بازی
یزید
شمولیت
##اندی
قسط
پرانے
##15
06
مشن
اوری
عروج
##شق
##سٹھ
صارف
ورثہ
عمومی
غرض
مہینے
##ence
سلو
سیاہ
منصور
Q
امداد
جموں
قریش
کھا
فاطمہ
پہچان
##مونٹ
sur
افسانہ
پالیسی
اسرائیلی
عسک
وائ
منفرد
##ران
بھٹو
سرگرم
سوار
عالیہ
##ٹیاں
جدو
انٹرنیشنل
##زو
j
##انٹ
حب
سلا
فال
لاش
صحافی
##وذ
فاؤن
آہستہ
منایا
بندرگاہ
##ob
##قیل
140
عاش
ولیم
دائرہ
چیک
Com
مفہ
مسیسپی
سکندر
فلسفی
##ولک
فس
چتر
چوب
گلوکار
آتش
ظلم
لیتا
بولنے
صفحات
گھرانے
##طر
##act
##اللہ
مہارت
##وجا
کھول
##قار
##ائیڈ
المن
زوال
نیوز
کولوراڈو
02
سنج
مقب
##ond
ہیڈ
مقابل
##ضا
##فیک
تقوی
مہاج
سکھوں
مفہوم
کولمبیا
##یسن
عید
منصوبے
07
کاغ
کالم
تھائی
پرستی
As
وے
جنس
استف
تشدد
مدیر
منظم
اشیاء
پوچھا
##وخ
مادہ
گھنٹے
طالبان
<
جزیر
سوانح
پے
##اویر
حام
لانے
امتیاز
##تاہے
بائبل
##ited
##ماعی
جاہ
مشرف
پڑتا
اورنگ
as
منق
یعق
##ivers
فرمان
محافظ
نقشبندی
اشت
بالی
کرسک
خیالات
نسخہ
سول
بروز
مناسب
ڈرامے
##دیق
معز
ٹوٹ
گرام
علاحدہ
مقبولیت
Municipality
##اعظم
##انیاں
خارج
کورٹ
##عین
نظامی
وضاحت
##له
سرگرمیوں
##جب
حبیب
ریڈ
کالا
اولین
دستاویز
خطے
کوچ
فرقہ
پورٹ
برادری
##ضان
##aw
جنت
محقق
مصری
انصاف
ہوجاتا
##ھو
عظ
##olog
##ینوں
1950
ورلڈ
کمزور
آور
پبل
1997
ہوسک
+
##ism
ڈو
##الوی
پہاڑوں
معاون
##up
##ina
مؤلف
باللہ
صوبوں
پارلیمان
خیل
معد
قاری
کھڑے
مابین
پرانی
ٹک
ارب
رقص
مائ
پیار
سمت
الاسلام
##ھم
##یکٹیکٹ
##cl
سیم
اچھے
مہیا
گوئی
برک
حرف
کاٹ
گریج
تیلگو
راش
نیم
پیپلز
##ادم
ایڈی
فارغ
کوئٹہ
لیس
ضیاء
منصب
پرنس
جلو
شار
قلعے
دمشق
محتر
نبوت
کنیت
کلیسیا
کنیکٹیکٹ
##orld
##جنسی
محاص
پرچم
طوف
ٹری
شمسی
وجوہ
الجزائر
جیم
معاویہ
Z
الأ
دوا
راؤ
نیٹ
##ائیگی
تجرب
بھاری
احتجاج
تیسرا
نشانہ
تجربہ
مصطفی
ہيں
##ڈین
بچہ
تلو
اردن
عبید
پچیس
تینوں
1971
آذرب
عامر
لنکا
جعفری
صحافت
مسافر
##جہد
##نٹن
دہی
پہن
مظہر
مقاصد
##چل
سیف
اچھا
فیروز
نوعیت
##باری
آرٹ
News
شراب
آمدنی
رمضان
چرا
##ائق
انچ
دیہ
1996
کارکن
حفظ
پھل
گیل
نیپال
شن
عصر
کرم
گیر
اٹلی
##ردو
حار
حسب
گوج
ٹیوٹ
آبائی
مردوں
##16
##وث
##علی
##ٹریٹ
سرور
العلم
زراعت
ظاہری
عناصر
جدوجہد
##يد
178
پکڑ
حرام
کمار
گویا
کہلاتے
نان
ناتھ
##unj
##ینو
خراس
دودھ
طبقات
المعروف
##ext
منط
کیسے
الملک
پڑی
خطوط
##اکین
روی
واسط
کبیر
##ثے
1948
غزوہ
کوفہ
تنازع
جائزہ
##وات
Int
بڑھا
مؤرخ
پشتو
پرورش
ایشیائی
وک
مانگ
اخراج
حضرات
صدیوں
اطالیہ
العزیز
تمہارے
نز
130
ایکس
ہلا
جہاد
خانق
دباؤ
سرپر
پکار
ایجاد
مقبرہ
—
##ail
##ائخ
##روش
فرین
کرنسی
حکمرانی
##ens
##man
##وئے
حوص
کیپ
معیاری
##ئس
##لیوں
وفد
1993
نبوی
تقریر
سالار
نارتھ
##خل
##وسٹس
سبز
سادات
متوفی
##يل
##ہرا
قی
##اشٹر
##unjab
فاضل
جذبات
یونان
حکومتی
##پردیش
تھام
پیٹر
گوشت
##نڈر
فنون
ہسپانیہ
قبضے
ٹینی
رجحان
تصاویر
فلسطین
عارف
نافذ
نظری
عجائب
کارروائی
##بیس
##واہ
##وتی
جمعہ
محلہ
تصدیق
رکھنا
مطالبہ
انقلابی
عبداللہ
حکمرانوں
##ier
حامی
مرید
##ادو
##ہیر
##نہیں
تنگ
بنتا
باتیں
پہنچنے
بالخصوص
##زئی
امیدو
نیل
پیچ
خلیات
سرکار
چترال
##بھا
##طیف
تمغ
ستر
سلوک
فارس
چلنے
محبوب
پرواز
بنگالی
##ائید
دائر
کانگ
##دری
آش
400
چوبیس
الیکٹر
ہوجاتی
##یرا
ڈپ
فرض
خوشی
فلپائن
##موں
##ندری
قرض
لگتا
کشتی
متباد
فخر
1989
وصال
گانے
گیند
ہائے
کاموں
جاندار
##ية
##فیع
##ائیکی
1991
ازبک
المر
ایوب
لینا
ڈالا
چٹ
یکس
بہرائچ
##ter
##برا
##واری
داس
اکیس
باری
مکتب
گھروں
فضا
گرا
شعری
طاہر
پروٹ
مہاراشٹر
##aj
##سانی
گار
گھا
ٹرین
ماد
پچھ
مساجد
بلدیات
##رتی
##ویٹ
##ٹلر
جناح
زیاد
غزنوی
کلکتہ
جیو
ہما
فاتح
120
احتر
Region
باشندوں
لائبریری
##یرے
تری
حتی
احاط
حملوں
اخبارات
إ
##گیا
حجر
ڈین
ہفت
1985
انٹرنیٹ
ایتھ
جانی
سافٹ
معاملہ
استفادہ
دکھایا
ادائیگی
##11
##end
##ons
un
125
راوی
چاہے
جوڑ
رنج
لاس
وائٹ
ویلی
##ore
اي
پروڈیو
##صول
##علوم
کاس
الخط
##istory
آپریشن
شف
الث
خراب
شاندار
پریفیک
##عل
##سٹم
مڈ
فاصلہ
ملکیت
یعقوب
بھرپور
خانقاہ
مہاراج
129
سورہ
منفی
پردہ
آسانی
کھیلوں
اترپردیش
##تب
شاپ
چوک
کاب
طیار
ناموں
ٹینیسی
ساتھیوں
179
ڈالی
زیریں
##ناسب
نکلا
میساچ
نمائش
##شے
النج
رضوی
ڈیرہ
##مس
شے
تحقیقات
##ازہ
خشک
ہاؤس
امکان
خوراک
صحابی
منورہ
##rap
##رام
##ومن
pp
باند
ماڈل
کہتا
کیری
بائیس
##ائنٹ
Sh
فیس
اعتم
مسند
اتفاق
اسلوب
##عات
##وجہ
غم
نہر
کیل
گنی
1988
1995
نادر
وصول
ویتنام
خالص
ارادہ
اعمال
انجیل
میساچوسٹس
##ug
پنڈ
چکر
بلیک
رفتہ
فرار
ماخذ
مرشد
کرشن
##کلن
زا
مبت
امین
پانے
آذربائی
کٹ
##اوات
170
آرا
##ear
##اؤنڈ
سیو
خالی
شہاب
معصوم
اعتراف
جاپانی
متعلقہ
##لاہ
سلی
سرد
خطرہ
##ated
##گزین
افز
شکا
1994
میان
پرویز
بدولت
Pakistan
##کسی
##edia
نوٹ
اخلاقی
افریقا
بھائیوں
##وڑی
ابوب
انگی
ظہور
مفید
ترمیم
##ost
##چین
قاف
انفر
عقیل
عقیدت
مکتبہ
متبادل
##ورے
1979
حمید
جغراف
le
لہر
چنگ
الاول
پٹ
##فرسن
فتو
صنعتی
غالبا
مغلیہ
مظاہرہ
y
##کوں
176
دوڑ
فوت
1974
نگاہ
جنازہ
##iversity
اقتصادی
Am
آلات
اطالوی
امید
معین
Islam
عسکری
##ee
##وڑا
##زیشن
واقف
ماخوذ
علمائے
##ولے
اشتر
چاروں
سنبھال
کف
نجات
سکونت
فیصلے
نتائج
چاندی
چیزوں
کہلاتی
پاشا
آنکھوں
لمبائی
اختیارات
##ائلی
یحیی
##ماء
177
سازش
اوائل
*
##لاغ
ریل
طوفان
احترام
مجموعے
ماہنامہ
##خط
at
حز
جاگیر
رسائی
کھوار
اراکین
رع
عار
ذہنی
سردی
قدرت
بیرون
خصوصیت
##ite
دانش
ابوبکر
district
برٹ
عائد
محیط
##تس
160
شکر
صدیق
پرتگ
گائے
پانچویں
##30
##ٹھی
138
##تھولک
ایام
لڑکے
پڑھی
جیفرسن
مذکورہ
##لید
فقیہ
اولمپ
##دارتی
جگہوں
ہندوؤں
##خان
139
175
نذر
نصر
الام
آذربائیجان
##ارق
صفر
پان
کاش
گھی
طلاق
گراف
بلحاظ
الحدیث
امریکہ
مود
استن
امراض
بائیں
##25
رچ
1984
رسوم
چوٹی
شہزادہ
شاہد
پیرس
جانتے
لازمی
صدارتی
مساوات
##ِّ
رین
بقول
سارا
مارے
ندوی
گرامی
بہاولپور
##قر
اغ
نصب
ڈیزائن
##les
بز
زیب
مسلح
ناظم
اختلا
United
##اغ
##ics
##ویش
Th
##انگیر
سسٹم
گنبد
کوششوں
##يم
##نہوں
اٹک
خطہ
مشک
نمونہ
##uc
غل
خرچ
گنا
مبتلا
معاملے
#
جبر
جدا
مشغ
سورۃ
صالح
ؒ
##ert
135
ذہن
فیلڈ
مستعمل
وقف
یوگ
1975
ذوال
یہودیت
##واس
پون
##ائیاں
میوز
معاشرتی
ed
##ریری
##یدگی
##یریا
کین
1977
حوصلہ
##ادیا
آکس
ٹکر
پوش
ربیع
فقیر
مزاج
ایکسپ
مینار
##ظہ
##ھان
an
حاض
آسٹر
عبور
بنانا
وسائل
مشاہدہ
##pt
##دے
##تان
موب
طبقہ
فطرت
مراکش
##لص
صلح
لبر
چودھ
في
فاس
دانوں
اعتماد
برداشت
##ve
155
کلب
اطراف
مونٹانا
بون
##براہی
آرام
محرم
گردی
جمہوری
کاروباری
X
اکائی
جاوید
دستور
##ھوں
##ءمیں
آغا
1965
جیمز
مذکور
مشورہ
فرینکلن
##ng
##مور
##یوان
جزیرے
##راض
##فیق
چڑ
راز
پٹی
جہان
محسن
اوریگون
##ارٹ
##قام
اذ
134
کیس
رانی
چیئر
##گس
رن
عقل
جنگل
رابطہ
ایجنسی
##گے
##ban
بابر
تعارف
آلو
قاہرہ
ں
##ارس
##شام
عاب
1972
1982
لکڑی
University
##24
##ابطہ
نکا
##ندھرا
1986
دلیل
وارث
پوسٹ
ہالی
یروش
##ابط
رشید
قبرص
پوجا
تیمور
قیامت
نیوزی
بالائی
ویکیپیڈیا
حرم
ژاں
دراز
مالا
پلیٹ
کپڑے
تلوار
جنگلات
جغرافیائی
##iss
##http
ذوق
مریم
مستح
مانتے
##23
##نڈے
##سید
##ویسی
سینک
فاؤنڈیشن
##حال
Le
ایشن
جہلم
بناتے
چوتھی
جہانگیر
##26
##ire
آفت
فنی
خارجہ
ہارون
ریٹ
نقاد
دیوبند
لط
##ork
سبھی
فائن
جمہور
دلا
مرنے
ڈیٹا
پہنچی
گھوڑے
States
ستائیس
##ٹھا
كے
جوش
پاؤں
کالی
وت
ڈن
کع
ریو
ساس
نوش
تازہ
نصیر
اصلاحات
##عال
سز
##ومنگ
ہوش
سیکھ
تھیٹر
ستارے
قریشی
پشتون
##سال
بست
نثر
ماہی
زلزلے
مواقع
وجوہات
پولینڈ
##کوک
فرا
1956
اصفہ
المد
خاتمے
##تھی
##گئے
sp
126
اعل
سیال
چینل
توسیع
سمجھی
عنایت
آندھرا
##نم
137
سمر
ہفتہ
خراسان
١
##لکوٹ
ind
مقدم
##بود
جذب
ساٹھ
باہمی
پرانا
1978
دارال
موبائل
##حر
ناب
1981
جیتا
نسلی
کلاسیکی
##oh
##حمد
ائ
پیٹ
##انیوں
1976
چراغ
بیٹھے
تمہیں
اسٹیڈیم
##خار
زمر
شرط
ہائ
1967
ازیں
فوری
منڈی
کیلی
مدارس
فوجیوں
##ath
##کیشن
بیا
ناپ
کہاں
ایڈیٹر
جماعتوں
##طل
##شمول
cent
خطیب
مثبت
##بط
##وین
کارڈ
ماسٹر
بحیثیت
ے
##داخ
دھو
1983
##imes
آفس
آنا
برٹش
زمان
علوی
واٹر
بڑھتی
چھبیس
جاسکتی
اٹھائیس
##27
برا
سرگ
سیکر
گارڈ
ماتحت
##شیع
##یمہ
لي
250
بسر
وول
مارا
انتہا
ستاروں
حیاتیات
مسیحیوں
کہانیوں
from
عمدہ
فورس
گہرا
گزشتہ
سینکڑوں
##28
طر
نوری
اوکلاہ
##ہد
##ign
with
شاپیل
لڑکیوں
Min
ساہ
دوسروں
سرائیکی
کہانیاں
##فرت
##فیان
سرہ
قلب
چور
امرت
گزرے
برسوں
سنبھا
ایسوسی
کمیونسٹ
##ریعہ
div
مفت
1973
سفیر
مدرس
Press
اوکلاہوما
رگ
128
دام
گنگا
بمبئی
municipality
##ru
##بٹ
سینی
ویڈیو
افسانے
دارالح
چونتیس
سیالکوٹ
ضروریات
##وانوں
1930
کھڑا
دائیں
سیاحت
مقالہ
مہمان
چکوال
پریفیکچر
##ict
##ide
##عون
##lect
1987
فنکشن
مشائخ
چارلس
انڈونی
شاد
اتنے
بشمول
##پٹ
»
##ذاب
جج
جار
فعال
تباہی
اٹھایا
اشک
بیج
شور
ملو
بتیس
مائل
تکلیف
کیمیائی
##ڑپ
##ach
##جیب
انتیس
اکتیس
جنگوں
انتظامیہ
۱
##ils
##ویج
طی
##ائیٹ
امیہ
بحریہ
سیکنڈ
لگانے
اولیاء
بلے
سہر
پول
شعور
ساتویں
کشمیری
انگلینڈ
##ron
##کھر
1940
خلیل
صارفین
محاصرہ
##out
##نگز
اصلی
کاؤنٹیاں
##حم
##حدی
##لحہ
##کھا
بذ
ہا
110
تنا
دیہی
طاقتور
##ذیر
ذی
##الله
136
تکن
داغ
فصل
##ریٹری
1949
قبائلی
کیریئر
امیدوار
156
قوا
گند
گوت
قائل
لیون
لیڈر
واقعے
ریاستیں
مہاراجا
##ستا
##چار
##یسٹر
نفا
ونڈ
سراج
چہار
##ماں
فص
چت
##ooks
اوا
زرعی
سمجھنے
درمیانی
حلقوں
قربانی
مارکیٹ
قم
اوب
چال
ہات
دستخط
ذخیرہ
اتحادی
خس
##ویئر
رائ
زکر
عظمت
نکلنے
چیزیں
یکساں
##ائشہ
عکس
1969
رئیس
میون
سلمان
##وئ
وش
124
توپ
چرچ
##hio
##باس
صنف
قات
جملہ
کپور
محروم
فلکیات
##بند
##تاح
##یفہ
164
##ition
حالیہ
صلاحیتوں
##ack
lg
##ومین
آصف
جلس
مرج
بازو
خالق
عجیب
بوسنیا
##38
165
لازم
نکلے
اچانک
جلدوں
فاروق
لکھیں
تجربات
##io
174
بیش
زاد
1920
1958
امجد
وائر
##ناء
cod
بہاؤ
دھات
غلطی
Union
کلارک
##تری
##گنی
118
145
comm
بیٹوں
##une
##vin
##ڑیاں
##ograp
ترجی
تفری
مظاہر
تینتیس
##21
##35
ارج
قصہ
عائشہ
پھیلی
ریٹائر
##سنت
##سیل
گود
المص
قلمی
بہرائچی
حمد
قاد
پوپ
مومن
بولتے
سیدنا
مشکلات
ناقابل
ازبکستان
ایکسپریس
آبن
عاد
غنی
یوٹ
##ولیات
خانی
وکیل
کروں
ایڈاہو
کمانڈر
##ناف
1955
کلنٹن
یروشلم
History
عالمگیر
صاحبزادے
##port
رود
##لاں
##یکر
رسمی
توحید
کابینہ
آئرلینڈ
##nes
##کات
Ohio
مینی
کعبہ
کلیم
انگیز
پابند
طریقوں
کالونی
تغ
##ورتی
تان
تہر
ساد
محا
چیت
ادھر
دامن
مستند
مزاحیہ
انڈونیشیا
##فور
قابو
باتوں
رسائل
##ean
##yle
117
گيا
طارق
وعدہ
کورس
مثنوی
سربراہی
چمک
##ology
مجاہد
بیسویں
پڑھائی
الك
قطر
مقت
استق
کاغذ
مراکز
##نگر
ch
##ویشن
کوت
1952
1962
وراث
ویئر
ممکنہ
##یری
##اریو
اڈے
کھر
النس
باکس
بھوپ
حامد
نویس
ٹھیک
باطنی
سعادت
پوائنٹ
انتخابی
##چن
ارض
برگ
کرنل
گھری
دیہات
Ab
حی
##ille
ساؤ
موہ
مدنی
##illage
موسیقار
##دل
دید
غوث
پٹن
ہڈی
##نٹائن
المس
جوان
احاطہ
کھیلا
ایڈیشن
میڈیکل
خاندانی
##اجم
##زوں
##بلیو
Vol
ستا
ضرب
دھرم
نصاب
پڑھتے
ین
تلف
مصنفین
##وشی
ابھر
خطاط
دکان
عنصر
مرکب
چھاپ
گولی
خلائی
قواعد
##پے
##یائے
امرا
طریقت
انیسویں
115
لاہ
پٹھ
ریسر
لیتی
عربوں
##te
آؤ
وح
text
اسلم
مریخ
گھاٹ
World
##ue
##مو
##ile
الو
لنکن
معنوں
ناروے
سہولیات
##بس
##نک
114
art
وان
الان
انکی
حکام
Counc
##ونیہ
قمر
شوکت
الیکشن
ہف
جوز
حنفی
عمری
قسطن
مجدد
نصیب
کیمپ
ہستی
الدين
دیکھے
رسالت
ہمارا
تنظیموں
##وقی
##لائل
159
جسٹس
حارث
بیمار
اعتراض
نچ
##بادلہ
1946
قادر
ہاشم
ہاکی
ابلاغ
صدارت
بادشاہت
##36
##erm
##باز
چنا
کافر
جمعیت
محترم
ملازم
ہوچکی
انعقاد
##ann
##orm
##سٹنٹ
##ھائی
بجے
1954
بابل
سوائے
نکالا
سوڈ
اتار
سونا
برادر
تجزیہ
تراجم
مچھلی
##ho
##ایک
ph
Mus
زبیر
ستارہ
متعین
ماریون
میگزین
رہنمائی
دارالحکومت
##29
##37
##ٹون
شرعی
ملاح
پایہ
جرائم
پروڈیوسر
##ئو
دھی
نوح
آرمی
امان
خاصی
نظیر
نقشہ
مخلوق
یوٹاہ
فضائیہ
##39
166
شاف
وضع
جھنگ
موضع
لاکھوں
بادشاہوں
##ace
##ائط
be
116
600
مکی
خوبی
رابر
سرحدی
النجوم
اقدامات
کرداروں
##old
ہمہ
انبیا
تقویم
ٹائمز
ڈبلیو
کارپوری
وائیومنگ
##ya
قح
##ودار
خطر
سار
پاپ
لمبی
مجرم
منشی
روکنے
زمینی
العلماء
##اہا
چپ
119
ڈان
انکا
حیرت
فلاح
قیاس
مترجم
موسوم
الاسکا
ایڈورڈ
گروہوں
آنحضرتصلى
##ملہ
Ur
168
رومن
برآمد
جواہر
سویڈن
فتوحات
خیز
دری
پنچ
شجرہ
مانی
گردش
برہمن
ملائی
سمندری
##انوس
149
انجن
لائی
پیرا
تناسب
سنائی
ماسکو
چودھری
Regional
##دن
##دوس
##صوف
##گور
وظ
وو
##اسمی
خری
لکش
آگیا
تشیع
وسعت
ٹھہر
جنگلی
##34
##سیس
##چکے
بلت
##مالیہ
ائمہ
گہری
حقائق
شہریوں
##اکے
نعمت
امامت
سرطان
محققین
ورمونٹ
قرط
مجد
ٹور
روزگار
استنبول
خاندانوں
##گین
##وینا
مقص
کلے
ہیل
الہی
ہیری
style
راجست
ریسرچ
ماننے
کرناٹک
##یع
##ans
##inc
##ویلی
صوف
صفات
پبلک
مناظر
مزاحمت
نفسیات
کمپنیوں
کچ
127
158
حزب
احسان
اواخر
دلچسپ
سنیما
باشندے
##ral
##ستگی
154
جرا
نیر
گرجا
گزرا
اجداد
##ضاء
Ge
Car
وقار
ہوٹل
براعظم
بریلوی
روزانہ
##enc
##شنو
##وڑے
انو
جذبہ
فرقے
تدفین
مشغول
##ka
خم
وم
##وکری
ترق
کیو
##اریوں
1945
بنتی
طبری
ڈیلا
village
##ھن
٫
گلگت
آفتاب
سانتا
مصنوعات
##لۂ
##احل
اپن
مدف
1000
حلقے
مفسر
##ere
بنتے
خوار
االله
ادوار
مقابلوں
چیئرمین
اختلافات
گم
##ublic
1957
برکت
urban
متغیر
ہاتھی
اصولوں
عورتیں
##ana
آگرہ
جادو
لہجہ
ہزارہ
شاہکار
اصطلاحات
چش
نمک
پرس
دورے
عظمی
ماجد
چھٹی
الرحم
شرائط
فائنل
مورخین
##غہ
cou
تات
news
بٹلر
لیکر
افتخار
افریقی
تحریروں
«
##rans
اوس
قیس
ریور
پینے
ہفتے
آسٹریا
پارلیمنٹ
##کشی
Sp
##تاوی
1935
1951
سکھر
نفسیاتی
##نر
##ارن
##الر
##روت
##واجی
تقی
دخل
ریکو
نارا
یقینی
codice
گہرائی
اطلاعات
بق
##اتھا
##قیقت
106
ذرا
کاپ
کشش
چلتی
دوستی
چلانے
علامات
شاگردوں
##erv
سرے
لڑی
1953
مجاز
کھین
تشریح
میٹرک
پیروی
کاروں
تعینات
Ro
1968
رہنا
قصبے
وارد
ارتقا
پورٹو
معاشیات
##ئت
##ica
##وبا
Cl
احم
ران
نائ
ہیلی
بیروت
رابرٹ
زکریا
عبارت
مرکوز
جہازوں
انٹرویو
ڈیلاویئر
##amp
##ome
##ٹنے
رکا
##رافیہ
لارڈ
مانس
کرنی
کلمہ
داروں
نقشبندیہ
##زے
سخن
روپی
لسان
نفاذ
وقوع
نمائندہ
109
رند
ریم
منح
بصرہ
تاجر
تلفظ
##ations
اعوان
مآ
##ائشی
ابد
کفار
بچانے
خلفاء
ساحلی
سیارے
ولایت
بارگاہ
مہاجرین
بدن
مرث
1964
باقر
مباح
مشیر
ورنہ
ٹرانس
گھریلو
افسانوں
Ex
Gu
##یندر
105
مرے
معج
منیر
کیمر
##ادمی
##وازن
عدی
1857
افضل
طبقے
عموم
ٹاور
پڑتی
لگائے
امرتسر
##ci
##li
##عا
##امنٹ
##دادی
احد
city
لمبے
مراحل
مرحلے
معمول
center
امارات
بزرگوں
##ycl
Se
عس
چا
##الوں
ڈبل
جوہری
قدیمہ
##دھی
##وزہ
IS
مشین
صلیبی
پیروکار
##mp
##ash
رف
144
167
سکاٹ
بریلی
سفارت
لارنس
##ٹھے
##حصار
146
تفصی
معارف
کپتان
کھلاڑیوں
##انو
##چون
##ڈیل
01
حت
##elle
##ودھا
Eng
##vince
المط
صحبت
پورہ
آرمین
گنجائش
سیکرٹری
##جھ
##ها
##chi
##oug
##شیر
ac
کوم
##اہدین
ایجو
عذاب
سرپرستی
##ich
##isc
##صار
چہ
Col
صفت
فنڈ
ممبر
وارڈ
رسالے
پیشوا
؍
##ڈرو
##ions
##سلام
Con
رجب
چھی
نظمیں
پسندی
فاروقی
##22
Par
وجے
وحید
استحص
براؤن
خزانہ
رنجیت
جمہوریت
Councils
راجستھان
##یوس
Pr
ابر
رخص
وحی
بحال
مراٹ
میئن
سیلاب
محافظہ
رہنماؤں
Sa
##شتوں
سوئ
جابر
خراج
قابض
المقد
بلتستان
ارجنٹائن
##حدگی
ایپ
بوج
حاج
رجوع
مسلک
موہن
سفیان
مستحکم
##دس
##پھ
##اہل
148
چشم
سرفر
سفار
خاموش
افسران
اعزازات
انسانیت
نوجوانوں
##ernational
##عوں
##ولین
برن
فطری
گرمی
الرشید
مناسبت
میزائل
میڈیسن
انفرادی
پہنچایا
##قند
جگ
ماج
ٹکٹ
بازن
سلمہ
عرفان
لکھنا
##ood
##ئری
##روس
ex
ہڈ
##ight
شیل
دارا
صحرا
کمرے
ساڑھے
شعبوں
متحرک
انحصار
منظوری
ہمایوں
##yst
##نامے
##ویری
##گیری
107
ہیم
1963
فائر
فرسٹ
نفرت
درویش
سمجھے
اکادمی
##وہی
##زیگو
104
gov
کہے
استح
تیرے
رحیم
لگیں
لسانی
منقسم
آٹھویں
ناکامی
##فل
ضد
157
بلغ
ترم
سوز
##yclop
سجاد
جنکشن
جنگجو
چھتیس
گرانٹ
تحریری
یت
برو
1959
ایکٹ
عالی
لارا
پلان
سزائے
سپریم
نمونے
پرائم
ہوچکے
عبدالرح
بي
##ناطی
700
800
باج
سپہ
##ائداد
موقف
نذیر
باندھ
سینٹی
شافعی
Indian
پھانسی
کوششیں
ہرزیگو
##ئرف
##اگر
##یبت
باض
غار
قار
1944
اگلی
عاشق
افکار
دوستوں
انڈسٹری
سرگودھا
وکٹوریہ
##دوش
جگر
مرغ
گہرے
اسباب
مائیک
سلاطین
گوجران
ملائیشیا
##صب
##ère
نژ
اجز
رول
حجاز
فورٹ
لانگ
کرون
بناتا
تعبیر
حکومتوں
##amm
##تیوں
زہر
قصور
میجر
ہلال
آئینی
سیریل
عراقی
نظریے
مچ
##ural
جبل
ریس
ایبٹ
نغمہ
##ناطیسی
ہاشمی
جائداد
قادریہ
گریجویشن
ادر
انش
ضبط
لیف
ویو
دفات
سعود
مولف
ترجیح
دسویں
مشابہ
پریشان
##ڈز
##جری
فرش
براز
عادل
بتاتے
قاسمی
گزرنے
شروعات
پیمائش
ڈراموں
اجتماعی
عمارتوں
پریم
پادری
چوتھے
کارپوریشن
##ors
##تاب
##ولو
##ڈنگ
la
به
تز
ڈے
##انیت
##لمین
حجم
تخلص
رانا
سانس
ولید
پوتے
دفاتر
شیطان
معتبر
##ota
نح
نیپ
ڈاٹ
##ستانہ
آمیز
خلجی
##punjab
معرکہ
تفصیلات
##راق
##ریسی
آبی
کما
الوا
علاء
نژاد
کامر
ترکوں
سہرور
دیکھیے
مثالیں
یوگنڈا
##اسا
رے
##شانی
alig
رشتے
ظہیر
موٹر
نبات
افعال
حسینی
رکاوٹ
وائرس
پھینک
خطرناک
ہرزیگووینا
##بین
##وٹن
pl
108
ریز
ساک
بشیر
غوری
وصیت
ٹورن
پڑھے
چہرے
فراغت
فوجوں
قیمتی
نسبتا
اجتماع
##برو
##وٹو
##کیہ
169
رنز
جاکر
مختص
منطق
دلائل
ہدایات
اخراجات
##جاز
جاں
آگاہ
گھوم
اضافی
جاسکے
##حقہ
##مام
##ووڈ
##ظاہر
بچا
سنز
واد
ڈیل
التح
خطبہ
انوار
تہران
موصوف
متنازع
نمودار
##زیب
##سپل
##نیل
گذ
بھٹ
نجف
چھا
1961
فتوی
لطیف
نہرو
چلتے
ہشام
النبی
فنکار
lgpunjab
##چک
##ala
##اطب
ٹن
لاک
خسرو
قرون
قیصر
لڑکا
گانا
##ائیکلو
اقدار
شاخیں
پچھلے
فورنیا
استحصال
##ari
##ثرت
Ma
Tr
حنبل
متوا
اعظمی
عارضی
افزائی
اوم
قرآ
تاجک
فقہی
باضابطہ
زن
ٹائ
ڈار
اثنا
تائی
لگائی
کاظمی
ہوچکا
قرارداد
خوبصورتی
##شو
##داء
he
##ound
##outh
سکر
ارجن
قاتل
لانا
منصف
میسر
کمیت
اسرار
اسپین
نیوٹر
Sainte
بازنطینی
##سیہ
##قان
جشن
دھن
راگ
##ندھار
1966
تونس
گیری
تھوڑی
مانند
##طے
##rib
جست
Mont
حمزہ
رخصت
ستون
طریق
پاتے
کروا
اطاعت
اندلس
خانوں
قلندر
آنکھیں
انتظار
سیاحوں
شہزادی
x
##بیل
##خواہ
con
ریت
##اداری
ایٹم
تمغا
حالی
سننے
غزنی
بیٹھا
کیرول
تمہاری
انسائیکلو
##اکو
##تبہ
Be
147
لطف
رویہ
غائب
لفظی
نعیم
ورژن
بھیجے
تائید
مقصود
کرانے
کھاتے
افتتاح
الثانی
مطالعے
##uk
##lim
##لور
##ھیہ
##icle
##نیفہ
تبص
کہی
بدلے
سوات
متصل
پبلی
چیمپ
بھوپال
##پت
##anc
##iew
##ورتھ
جاؤ
طول
نرم
کعب
لہجے
نقوی
جیلانی
ملازمین
##ستور
سیٹ
فہم
لام
احسن
سلوو
مطلق
ابواب
رکھیں
##مکن
##ونک
1942
اصغر
انکو
فضیل
کالے
گروو
گریڈ
گیلانی
میونسپل
Pl
Qu
##گمری
Enc
فوق
مڈل
پام
گوتم
تلاوت
درانی
سرداروں
##دیا
لات
یاب
اوکا
ایلن
جھوٹ
محفل
مداخ
اسٹیٹ
مزدور
المعارف
##حسن
عض
##ائیت
##ونڈی
ممن
کفر
##ڈریشن
تیری
جمیل
دبئی
مصدر
ڈپٹی
بکثرت
دفاعی
کھیلے
##فس
##يخ
##ame
du
شبہ
میا
آخرت
اورم
ظالم
فقہا
مینے
امارت
اوراس
منافع
برازیل
مداخلت
مصنوعی
یوکرین
##شاں
##ھیں
تے
##ویشی
برلن
بچنے
ہیمل
انصار
نیازی
مہینوں
تعمیرات
مالیاتی
کرونیکل
International
##se
##جہاں
روہ
بلاک
زمرے
کمشن
ہیئت
ایکشن
لبرٹی
معانی
ڈھاکہ
القادر
دشمنوں
##32
##عم
Ap
##طنیہ
منز
##ember
##ترتیب
Cent
Urdu
اموی
بالغ
سپین
سیزن
شفیع
عابد
مرضی
گولڈ
ایٹمی
طبیعت
گرینڈ
##نگا
جری
فضلی
یونس
جانتا
داخلی
فلسفے
کرائی
معاشرہ
مجاہدین
گوجرانوالہ
##ائڈ
Ag
گد
##وریا
سرف
ناد
سختی
گھنٹہ
کروائی
پرائمری
قسطنطنیہ
ٹورنامنٹ
دستاویزات
##بھی
کي
##کرام
بنوں
مجتہ
گوگل
کاربن
##ریوں
بخت
پست
بعید
شامی
نامے
آئندہ
لیاقت
ترجمان
تنقیدی
ترقیاتی
##یبی
سدھ
زہرہ
وشنو
دینار
پروان
فراہمی
##af
##عنی
##ولر
tm
ہد
افغ
ہمت
آرٹس
الاع
اودھ
جوزف
حجاج
ملیا
وائس
گایا
عمارات
ملاحظہ
تبدیلیاں
##31
##قم
##قلی
##چرڈ
1919
نفیس
اطلاق
بتائی
ترویج
چہارم
##یان
Bl
##orth
##انچے
##وائی
مٹھ
##ومنین
Mart
برتن
روٹی
لغوی
یقینا
البرٹا
ہوگئیں
##جات
زد
مٹ
##سیوں
قحط
گذر
تسلط
دوری
سالم
احتمال
##df
##خاص
Gr
پائ
بقیہ
بھٹی
جتنی
راشد
رقبے
سیلو
مشاع
پوچھ
پڑھنا
کلیدی
النساء
سپاہیوں
##كر
##rig
235
غذا
1937
اقلیت
تقلید
تورات
رز
الإ
شائ
تاثر
غربت
محاذ
احوال
درگاہ
ہوسکتی
##att
##ٹیڈ
##یکن
Or
سنن
ضمن
لود
1932
سوشل
اینٹی
بینٹن
شکایت
خداوند
##BN
##ذب
##ُّ
##اتر
##ائیل
بھتی
منور
اسلحہ
عہدوں
الدولہ
افسانوی
انجینئر
دیوتاؤں
##حنا
sh
##مینہ
1922
1929
1936
ڈالنے
٪
##واڈا
تجا
ایکڑ
بصری
طوسی
دائرۃ
قرآنی
علیحدگی
کارنامہ
##مارک
جھگ
للہ
سینے
کویت
ہانگ
##ریزونا
سہارا
کرائے
انجینئری
##eng
##تار
Ad
De
اوپ
بھال
متحد
پیرش
عقیدے
فتاوی
پڑھیں
گرمین
سیکریٹری
##فٹ
##بیان
##حقیقت
سہیل
کوسٹ
چوہدری
نظریاتی
پہنچانے
##کاس
220
ليے
مما
کرہ
یتی
1928
اولی
بوجھ
گندم
زبانی
گاڑیوں
##fer
##اکت
##لول
##ورین
are
سمی
مخط
اشیا
اوور
زینب
سینا
کارخ
الحال
بڑھنے
اپنایا
ہوجاتے
##per
1938
لڑنے
مانچ
مرجع
واجب
کاوش
افسوس
اسماعی
##int
##ستر
ab
##صیلی
تما
شفا
کرش
اسکا
باغی
جایا
راضی
فکری
ربانی
زلزلہ
لکھتا
سبک
سرس
عکا
قمی
وحد
ہنس
تئیس
رحمہ
چہرہ
برباد
بردار
##ase
##ومب
يہ
##نیاں
##ورٹی
بشر
صفی
موڑ
اجرا
رحمۃ
مادے
کھلے
نظموں
Ed
##olit
##اپور
بزم
مبل
جاننے
منہاج
شیرازی
پسندیدہ
ایریزونا
i
##amb
260
جڑے
پتا
چھت
گھڑ
##ystem
البم
جلیل
مضاف
ادارت
الحاق
پیشکش
ڈومین
کیرلا
دریاؤں
سرفراز
##اقب
##لیا
##وٹھ
##ویات
آئس
زنج
صدا
برپا
ناڈو
نزول
مصوری
تدریسی
میانوالی
##تک
##por
اشوک
سایہ
سوری
مدفون
ہلاکت
اندراج
دہائیوں
##pl
##rat
##جال
##ورٹ
##ویا
it
ذو
بجا
زئی
1931
آفاق
صغیر
اجسام
ترمذی
رونما
سوڈان
ہموار
المقدس
تبادلہ
فسادات
درحقیقت
کیتھولک
Encyclop
##کیا
بھا
نیت
الشی
ایڈز
درہم
زیور
مرثیہ
یوحنا
اونٹاریو
##یدی
240
1927
اوقی
خطرے
چادر
مربوط
دانشور
کرسکتے
##تھر
##جور
##دیر
##زاق
##قیق
pdf
آقا
انٹ
شعب
عاص
معذ
نوے
تامل
سکون
پنڈت
درکار
مسئلے
موزوں
میرزا
گجراتی
ہائیڈرو
##me
##ford
des
برم
خلق
مشق
چیل
پران
ٹیموں
گیتوں
تفصیلی
رسومات
##33
##ani
##rid
##زان
##کیم
id
ازد
پلی
کنڈ
استد
کارل
دائرے
کیمیا
ادبیات
مراٹھی
منگولوں
##حل
##und
##ریا
##شنز
##کشاف
##ement
1917
مائع
ثانوی
ڈھونڈ
بنیادوں
سرفہرست
##na
##سکو
تبت
لان
1924
ISBN
آندر
آپری
استا
اسود
نسخے
شہریت
مساوی
مشاہد
مطالب
مکتوب
شاعروں
##ئل
##بعہ
##گرا
Bo
##onom
##ower
Comp
سروے
شجاع
ڈیوڈ
##iction
##ئرفیلڈ
سپرنگ
وکالت
نیواڈا
##مق
##ays
##باح
Cal
ارا
رمز
ناص
کند
الفر
شنکر
طبیب
کیمبر
گزاری
قندھار
اسکولوں
##کنڈ
II
##ames
زار
لڑک
نقی
ہاس
ہنری
##nesota
سفارش
مسترد
مسلمہ
جاسوسی
اورنگزیب
Minnesota
##oci
خدی
وسی
ڈوب
توقع
کھڑی
اونچی
غلامی
##خا
##ise
##uss
##عام
et
Man
1923
رائل
مبلغ
پختہ
اہلیہ
ایڈمز
رجسٹر
مردان
پکارا
ملیالم
ہوتاہے
##ara
210
قوی
ڈائ
آکسی
زاہد
شعاع
ڈنمارک
زمیندار
##آپ
##ale
##نیہ
##line
بچھ
سٹر
پتی
آسام
جتنا
لوہے
اجزاء
اسٹاک
بخارا
عوامل
مدھیہ
انکشاف
ہیملٹن
پرتگالی
##ock
##متی
پگ
##پیئن
تھر
ویک
پہل
##پورٹس
پیشے
Times
حاضری
چوتھا
سوالات
گرمیوں
##وسا
##کوۃ
بام
فیو
مقر
1918
داعی
گواہ
ہرات
وابستگی
##ma
فہ
آؤٹ
زخم
سرا
منج
1939
سنٹر
لونگ
وفاق
گبول
کمائی
رچلینڈ
نکالنے
##خذ
##لسی
ڈب
##ادیت
تمد
page
عمان
قیدی
اسماء
جنھوں
قوموں
جاہلیت
پیچیدہ
سلووینیا
##یش
##اتب
##گانہ
جھا
ضیا
مقا
نین
1933
ملوث
مکال
سواری
پتھروں
پیدائشی
##ni
##yp
##ہو
##وضہ
ھو
230
پاد
کوس
1921
خادم
مجسم
گردن
الشان
بھرتی
خبریں
##ography
پسندوں
اولمپکس
##يہ
##ery
##que
##پار
ضم
##ومنٹ
قاز
لعل
کشف
1934
جنتا
عقبہ
چاول
بحالی
سماعت
مرحلہ
چھوڑا
##ife
##طرس
فا
##angu
ابھ
اچھ
نجم
گیٹ
that
نویں
زاویہ
تکنیکی
جغرافیہ
##الس
##تاج
Te
جڑی
فیل
شکوہ
فانی
بہتری
وفیات
پرائی
کتابت
چھوڑنے
کیوبیک
الرحمان
دیواروں
مونٹگمری
##ٹز
##نیت
##گلو
شق
گڑ
بدا
لاپ
##آبادی
ابوع
تنہا
رواں
ٹکڑے
چوری
ادریس
فضیلت
واسطے
کمشنر
کمونے
پرندوں
کیمبرج
فلسطینی
لسانیات
##گوار
پرم
تارک
جارح
نیاز
چھپا
آبشار
تحلیل
سراہا
مقدمے
مویشی
ٹرافی
بغدادی
بہادری
درختوں
ناولوں
پہنچتا
کھیلنے
##ual
##نتھ
##کلی
bl
Gen
صاب
مکھ
1941
urdu
ندیم
آمادہ
اعجاز
مالٹا
ناقدین
الزامات
##رض
##بیٹ
##ختہ
##چکا
ad
##پورہ
res
ربط
وژن
چیر
رہائی
سڑکوں
مقدونیہ
##غب
##يب
Ph
جٹ
##ages
205
ندو
چوڑ
علاؤ
ٹائی
پروڈ
گوہر
باغات
بلوچی
خطاطی
ہیریسن
##orn
##ute
##اوی
Ha
206
280
تال
غسل
واہ
خاکہ
فائل
فصیل
لمبا
ٹھوس
اضافے
روپیہ
لکھنوی
##are
##نون
لٹ
انف
حلف
1914
متفق
پائل
##انوالہ
بظاہر
فرعون
منتقلی
عمارتیں
کمپنیاں
پارلیمانی
##ze
##میٹڈ
##ڑیوں
نست
حتمی
روئے
پطرس
کھینچ
گزارا
اردگرد
سرحدیں
پرنسپل
اداکاروں
بالترتیب
##ix
##rist
##علیق
Jul
زدہ
کنو
ہلز
1926
اناج
بانو
جانچ
اقوال
بحرین
مدراس
اصفہان
##one
##خیز
##ناد
درہ
کلہ
1925
ایلی
بیور
راسخ
زیدی
عطار
ڈیڑھ
کونے
گرما
آدمیوں
تصورات
قابلیت
##ins
wh
ذمے
کاک
ہول
##ندگان
تقاض
قلات
ورزی
اکابر
ورانہ
آبنائے
اسلامک
اسپتال
سردیوں
ایوارڈز
##فیظ
##لاء
101
And
قطع
ویٹ
بھول
عصمت
لکیر
معاف
ڈیجی
کھلی
گاوں
بحران
بنگلا
جوانی
حادثہ
متوجہ
مملوک
چشتیہ
آکسیجن
اشتہار
تنخواہ
محدثین
میٹروپ
امتیازی
پیروکاروں
##پہ
##ance
320
آلپ
ناظ
اونچ
حلال
ضلعی
پیسے
حیوان
تخلیقی
مقدمات
سنبھالا
مخالفین
میزبانی
##ft
##ars
102
بجٹ
تدو
فین
مفر
کنج
ایلس
سجدہ
مشتق
پودے
کہاج
خوانی
دوچار
مغلوں
جامعات
قیدیوں
ہینکوک
پروگراموں
##hed
##ien
Ac
نن
##سوٹا
لیو
المت
بندہ
شوال
عادت
الذکر
بنگلور
دھماکا
فیڈریشن
##ڑو
##اتو
##خیر
##صاف
##لائن
اکھ
تلم
ہاک
ہٹا
Publ
اقدس
آئینہ
العاب
الیاس
تحسین
حادثے
پزیرائی
کونسلیں
##کاش
##گنے
لع
##وانگ
##یسکو
آرت
جلوس
جلوہ
پولس
جیتنے
مرہٹہ
چاہتی
دکھائے
دیکھیں
نگاروں
منیسوٹا
نستعلیق
##جس
##وض
##ali
##فیل
##واب
se
ہلی
##ction
##ڈفورڈ
بزنس
رچرڈ
والہ
ویسے
ٹرسٹ
کینس
اشخاص
معافی
وراثت
احکامات
ڈیموکری
مقناطیسی
##جل
##ank
##ثیر
##دھن
##ردی
ڈگ
##ania
##press
لاگو
مماث
مدرسے
معرفت
##ges
##oll
##ولف
دک
ڈا
##وارہ
225
For
شنگ
فضاء
لاتے
معزز
ہارٹ
South
بیورو
تشبیہ
مادری
اٹھانے
اہلسنت
سولہویں
##200
##منڈ
##واع
Gre
آزم
دوپ
پسم
گون
##https
##بردار
پودوں
الکریم
اندازے
ایتھنز
میوزیم
Province
##der
چغت
بنیں
دلوں
توازن
جمادی
سرائے
شجاعت
شہباز
شہزاد
فائیٹ
مامور
درسگاہ
##BC
##ٹزر
Br
سد
##ings
Per
خزر
##دانوں
1943
زادہ
عطاء
معلم
پٹنہ
شیعوں
چلایا
جاتاہے
##oy
##يت
##nal
##own
##ٹیج
تض
جک
یل
##able
255
سبق
ہوم
خواص
لینگ
مادی
بلایا
دیوبندی
گرفتاری
ؑ
##تیش
##ھیر
خش
##میڈی
##وٹنگ
ضعی
بھگت
بھیڑ
سوئی
سپاہ
مارک
مسٹر
مصور
نانا
پڑنے
ہونی
بنارس
سیوطی
عکاسی
فوائد
نکلتا
دھماکے
نشریات
##حے
##ژی
##arg
کک
جمی
خلو
راد
محص
اغوا
تہجی
جاوا
ضمیر
لالہ
ٹانگ
اجاگر
تہائی
سینئر
قربان
معزول
القاسم
نشستیں
چیمپئن
کمزوری
المومنین
یونیورسٹیوں
انسائیکلوپیڈیا
##ابھ
##نائی
##گوئے
256
بہا
عزم
پرہ
مذمت
پہنا
چھین
کراف
گلاب
بیٹیاں
##her
##سمہ
كا
##form
انح
دہر
لڑے
Stud
بروک
عامہ
غلبہ
معال
ڈائی
کلاں
اورین
فرشتہ
پاگئے
میزبان
National
صاحبزادہ
##شس
##اتم
##ڈیز
##لاتی
##ڈرسن
web
پلے
پگھ
1915
York
بھری
صفوی
فورڈ
قمری
مودی
تھامس
شعبان
Muslim
پرتگال
پھولوں
##ictionary
##جھا
##ڈور
##رالی
207
ٹیل
تصاد
رفیع
لوئس
لگتی
چانس
ارباب
اشتراک
تمہارا
خورشید
##چکی
##یاض
Res
ابہ
مرا
مہا
المؤ
تلام
جلدی
سوتی
قبلہ
حویلی
مکرمہ
ہینری
تواریخ
مقالات
منصوبوں
##za
##ئہ
##عو
##واف
##ودا
##ther
رست
فلو
1912
آنند
تصنی
زوجہ
رومان
سلامتی
بارہویں
##tte
قس
##lish
##stit
الذ
ستم
عدل
بلین
حسنی
استاذ
تجربے
حنیفہ
سہارن
منتظم
نویسی
سیالوی
##sy
##erg
زب
گڈ
##ریدی
##میشن
##چینج
204
Ant
منش
بخار
راغب
مناف
نصیح
پاتا
یکجا
آفیسر
اصرار
خارجی
منسوخ
گواہی
تخمینہ
سمجھتا
نامعلوم
کرافورڈ
العابدین
##ََ
##لسٹ
Pe
طن
php
متی
ولد
عطیہ
مائی
نفوس
تفریح
اندرون
دیکھنا
زرداری
مائیکل
##ium
##شیہ
##گھر
##گاری
بنک
ثال
بادل
ضمان
نیدر
حیران
رحمان
مروان
نیوٹن
Martin
##ux
##ave
##خیص
##وسط
كو
##وطنی
131
209
270
جرید
راہی
مفصل
اعضاء
بناتی
لارنٹ
مرتفع
##وسیا
224
Bar
پاؤ
ڈون
Brit
انٹی
جزوی
جوڑے
فلور
ماور
مسکن
کاسٹ
کاظم
کراس
تھوڑا
سیارہ
معراج
نشینی
ڈرائی
کیمپس
تصادفی
مؤرخین
نبھایا
میدانوں
##omb
##دال
##یاد
##وئیل
ناج
ناچ
گست
گلے
خاصا
مردہ
کرسٹ
بہرام
خلاصہ
لڑکوں
منانے
کھائی
آرمینیا
کاتھولک
##ائس
##قوط
##گڑھ
##توئی
##زیوں
برت
غیب
لکی
##ution
تلنگ
رفیق
مطلع
مڈوے
آندرے
بیدار
تالاب
بذریعہ
قبیلوں
ہدایتکار
##ss
##هر
لل
##ough
350
قائ
منو
سیدہ
شوری
مآخذ
لمیٹڈ
مجسمہ
پرساد
کردیا
کیوبا
مودودی
کہلائے
بیماریوں
##اڑی
آنس
ڈیک
cont
اجتہ
توبہ
جلیں
رسوخ
سٹار
شخصی
لگنے
لیبر
نکتہ
چشمہ
ابہام
تدوین
استعفی
تابعین
##قط
##پیش
##ینز
بابو
کہکش
ہیکل
شراکت
صفائی
محراب
ملٹری
منظوم
مہینہ
اخباری
المطلب
تلامذہ
پروڈکشن
##روج
##ڈرل
Af
cl
Har
رتن
چرو
تیرا
شیئر
ویلز
چاہا
ڈینس
کروز
یتیم
الناس
قریبا
نوکری
دیکھتا
مریضوں
چانسلر
ڈیجیٹل
اوقیانوس
##یف
##enn
غذ
مگ
شرک
شہد
غزو
گام
جدول
راحت
سرنگ
لگتے
کسان
اوران
جانسن
دلائی
قصیدہ
کنارہ
گراؤنڈ
مانسہرہ
##ئیل
##یرو
##ویزی
247
265
ریپ
نشو
چیم
ہدف
بھکر
زینت
طیبہ
ملیں
مواص
کارو
خوشبو
کرامت
عبدالع
پوزیشن
تقریبات
یونیسکو
##NA
##ley
##ohn
##برٹ
##eral
217
int
أبو
تلے
مدن
##unity
Comm
صفدر
نصرت
بخوبی
لیبیا
کاغذی
اسٹریٹ
کروانے
ہریانہ
تخلیقات
منگولیا
##ade
##افل
##ندو
##ٹیو
دعو
گھٹ
##بیریا
##لینڈز
سلجو
ضعیف
پاور
اوزار
ذخائر
غنیمت
لکشمی
مہاجر
میسور
کرسکے
بھگوان
گزارنے
استحکام
میٹروپولی
##جنگ
##لیاں
245
Rep
خٹک
صبر
لطی
الاح
اوپن
بصیر
بلوم
ذرات
ذہین
مبار
وارن
ڈسٹر
باریک
برانچ
تسلسل
قدامت
چلائی
عباسیہ
اونچائی
بھارتیہ
##بي
##اشی
##ماس
##پتی
##indu
##یابی
227
310
ايک
ہوئ
##اندگی
1908
قدمی
اتوار
اصناف
جتوئی
خبروں
صوفیا
ماموں
مشترک
چغتائی
گھنٹوں
ہوجانے
Islamic
المبارک
##حش
##عان
##ندا
پي
##ines
##التی
228
330
زرت
1913
دستے
نقوش
ترجمے
دماغی
راشدی
پاکیز
الغابہ
بنائیں
اشتراکی
سنگاپور
پہاڑیوں
##قیم
Kh
##خلاف
##ونیت
ایش
توہ
Chap
اینٹ
ایگز
شرما
مانے
مصطف
نانک
ایجنٹ
ڈھانچے
آکسفورڈ
گلوکارہ
##یاث
عف
كر
112
123
سیت
مرگ
آگئی
ایمی
زہری
سانپ
شواہد
پھیلے
باغیوں
تہذیبی
حیاتیاتی
##ras
##رائے
##زادہ
اعش
باا
حلی
ٹاپ
کشم
کمب
ہنر
دالہ
سورۂ
پھوٹ
الخلا
اٹھار
اکٹھا
بڑھتے
سلجوقی
جانداروں
277
سیس
جھلک
ضائع
لیول
مرمت
مشاہ
گندھ
North
منحصر
حفاظتی
سرپرست
لاہوری
مختاری
تلنگانہ
سہروردی
##yr
##ene
##ret
##کوٹ
قن
##یوال
واٹ
پرا
##ندریہ
کندہ
کہتی
گوری
گیور
##ournal
اسٹار
بمعنی
جسامت
خدیجہ
وظیفہ
فرمائے
##ark
##ata
##سٹک
##پاک
آی
##پائر
بدی
بوٹ
جلی
شرم
پوت
بدلہ
شایع
غیاث
میتھ
نائج
نسیم
گرہن
ہارڈ
تبصرہ
سلسلۂ
مشورے
مصیبت
گردوں
گزارے
قارئین
تنازعات
خانیوال
##امع
##سمس
##فرڈ
##لمی
275
900
درا
##orpor
الحس
بیاہ
بیوہ
عماد
مناظ
علموں
سفارتی
بلغاریہ
تبدیلیوں
سائنسدانوں
میٹروپولیٹن
É
Bi
Ne
##الین
103
رای
صحن
صفہ
لاف
نال
سومر
معاذ
میلہ
پائن
امانت
سجادہ
علماء
قسمیں
ملحقہ
دنیائے
رومیوں
کامبیٹ
استدلال
التحصیل
##sp
##ڈٹ
##itt
He
Me
Mu
##ادار
##ولیہ
244
249
Air
خضر
المج
تمدن
جماع
لاحق
trans
اسکاٹ
سانحہ
ضمانت
ممنوع
میوزک
واسطہ
کنندہ
تائیوان
##عظ
q
##uth
##قدہ
On
##اندہ
بحق
لنگ
1905
ابوس
راہن
سکوں
شعبۂ
شہرہ
قطعی
موثر
نہيں
چورا
گھڑی
اورنج
بتاتا
دشمنی
مارٹل
ونڈوز
پریری
اعزازی
بیانات
اصفہانی
##ّٰ
##ربی
##سٹی
152
246
360
بھو
تلق
عوض
بولے
بینی
بیکر
حنیف
خورد
رضاک
قلیل
نکات
جمشید
درآمد
قدیمی
کثافت
کرشنا
آریائی
اوکاڑہ
کیمیاء
##co
##يس
##ime
##سیات
##ویلا
113
218
net
شکن
فام
قرب
1911
John
سراغ
فتنہ
تھوڑے
ثانیہ
روابط
زرخیز
سمتیہ
مظالم
نائجیریا
##سکی
##پلی
No
غض
یم
##انگی
##یسون
216
تاح
پدم
کنٹ
اساس
اساط
اناط
بھرا
جملے
لاگر
نیند
وحدت
ٹوئن
ادراک
العین
قاعدہ
قوتوں
لگاتے
لیکچر
خوارزم
رومانی
article
الاسلامی
##ake
##hel
##الیا
##چاسی
122
450
All
Dec
was
تاک
قصے
واس
##مقابل
بخشی
پنجم
چائے
سیراب
شاخوں
مذاکر
واقعی
بتاریخ
سمرقند
محترمہ
ہمدانی
مسافروں
##ver
##cess
فیک
نحو
نرس
وضو
چوپ
comp
تقرر
دانت
مادر
نیشن
ترکیب
چیسٹر
کرسمس
اسسٹنٹ
سٹوڈیو
منزلیں
مزدوروں
وارانسی
گریجویٹ
##ull
##ents
219
ایا
نبھ
کوک
ینگ
اپیل
بھوک
بینڈ
عامل
چٹان
گھاس
شمارہ
مکانی
پائلٹ
Christ
الحرام
بہرحال
ناممکن
پہنچتی
##بز
##son
##درہ
##رجی
##ودے
##خانہ
##کنسن
fil
اثا
اسٹر
باہم
تجھے
نرین
چڑھا
ڈگلس
بڑھتا
تلقین
خیالی
فرقوں
لوئیس
مقدسہ
ہلیری
زیادتی
مشرکین
پیرینے
اسماعیلی
ہائیڈروجن
##أت
##ree
##راع
238
305
340
سحر
عوف
نقط
دلکش
سالی
لائق
مقبو
نواح
کتنی
ہالٹ
اقرار
بندوں
سوامی
میچوں
گذشتہ
گولڈن
اسکالر
اولمپک
##ph
##لج
##اسک
##ضلع
ضخ
##والا
215
ent
ریگ
شرو
روکا
غزوۂ
میدی
گوشہ
اسٹیج
اندھی
اوبلا
تعظیم
توہین
لودھی
مستحق
نسلوں
پوشیدہ
##سس
##ume
##الق
##نسٹ
ئے
##حالی
259
اوز
جدہ
طبر
ناخ
یوک
جہنم
کوار
کوری
بھیجی
تسمیہ
کیپٹن
##artment
شیواجی
طاقتوں
عدالتی
مشاہیر
فرمائیں
ایجوکیشن
##کاؤ
##ادیہ
111
121
133
جیر
روب
فیم
میگ
ڈور
خروج
معدن
مولی
ندوۃ
##ارٹمنٹ
جرنیل
طیارے
مکران
اصلاحی
لڑکیاں
##40
##ild
##تھا
##کیو
##یکہ
وں
یر
جزو
خند
لون
چوٹ
##ities
Fran
بلال
لینن
نجیب
ذہانت
ساؤتھ
چارٹر
ملتانی
گیورگس
##مع
##يث
Co
El
غف
ہڑ
ثقل
الفت
باطل
فلٹن
محور
مولا
چارج
البان
انشاء
سنہری
موریس
میکان
کھایا
مزدوری
ساہیوال
ہتھیاروں
##تاق
##ورل
سڑ
##امیہ
248
268
Mon
Sal
تاش
##earch
Jers
Pier
آدھی
اینج
قسمت
انواع
جریدے
سادگی
لگانا
ماننا
معامل
معتمد
نصیحت
پٹھان
چوڑائی
القادری
بادشاہی
تاجکستان
سرگرمیاں
##ama
##وطہ
پتے
Char
ادار
بھان
جتنے
زائر
شفقت
لدھی
ملحق
ٹومب
گلین
دھوکا
ریاضت
فریضہ
ابدالی
جمعرات
پینتیس
یہوداہ
آزادانہ
اوبلاست
ایکسچینج
##min
##ریڈ
##نگے
یی
##ward
##یمان
May
تون
جید
طلو
1906
الاش
گرنے
اسامہ
دھمکی
مارنے
پرہیز
Jersey
الرحیم
سیکھنے
لیفٹین
معاونت
ڈھانچہ
##48
##برک
##گام
im
##irst
##ital
##ریتی
##منڈی
276
978
صرا
فنا
نگہ
ونگ
کود
تغلق
جامی
جیتے
راجن
قازق
منگل
پرور
بیجنگ
تقویت
جریدہ
غزلیں
ویانا
پرندے
پونچھ
دنیاوی
سیاروں
فارچون
ڈسٹرکٹ
مشاہدات
اٹھارویں
##تع
##فن
##ibr
##ick
##igh
##باع
##لیتی
##پائی
سکہ
مجب
مرو
ایٹی
برون
بلیو
بڑھے
طواف
معاصر
درباری
##ارو
##الو
##دوز
##نین
طو
##ople
279
Val
بطن
فلا
1901
شاکر
لوٹا
بيروت
مجتہد
محصول
کلمات
کلیئر
کھولا
اجتہاد
اسکرین
الحسین
چترالی
تحریریں
اناطولیہ
##بتھ
132
290
299
بود
طنز
ونی
##لنگٹن
رکوع
سالک
سورة
طبعی
طفیل
لیلی
وینس
ڈھال
اوصاف
رنگوں
چنگیز
ہمدرد
بڑھانے
فائرنگ
مددگار
کیرئیر
سنبھالی
##ton
##دون
فز
كی
##اڈور
269
326
دوں
قلی
West
السن
طلوع
پیدل
متوسط
معبود
میلاد
میلان
کمانڈ
system
تارکین
تبلیغی
داریاں
ناجائز
نشانات
##hm
##نبی
DB
##ific
##اریب
208
285
بدع
1900
اذان
النا
دادو
سرین
قدرے
Hindu
العاص
جنھیں
مونرو
کلیات
جذباتی
خاموشی
مضافات
مکانات
بزرگوار
عبدالرحمن
##یی
##ety
##فنس
##لوا
##یمی
Ox
دت
##bert
203
عرس
آداب
آگئے
بھوٹ
تختہ
تربی
حوزہ
نازک
یونٹ
صحیفہ
مورگن
پیکار
کانوں
کینیا
گھوڑا
سرگرمی
سرہندی
نشستوں
اعشاریہ
تحصیلوں
عبدالعزیز
##ڈش
##لاط
##وسہ
##ڈون
##amil
##ject
##فسیر
142
237
262
325
چشت
آنسو
جوار
سقوط
کاتب
گمان
الاعت
برانڈ
مروجہ
انتقام
بینکوں
سرحدوں
سیاحتی
کہاجاتا
##اہت
##جیہ
##ستے
##شوں
##لوس
##منس
##وجن
##گوں
Az
ap
##ière
##ائوں
##نگھم
##کتاب
284
Rel
امب
غصہ
##ature
سینہ
مؤثر
مراق
نتیج
نیشا
پروج
یاسر
اسناد
سٹیشن
مارکس
مثالی
مشتاق
منقول
پیشاب
گزرتا
ادیبوں
English
Journal
القاعدہ
نورجہاں
##غل
##یے
##che
##oog
##الک
229
دوز
چائ
انڈر
بہتا
حاتم
elect
سوراخ
مامون
مہمات
کھجور
باقیات
##يز
##ریج
##صاب
tr
##abad
##ناطہ
232
254
رشد
سہل
عشر
ملب
پرد
ڈیپ
برتا
بنام
تحفہ
شورش
فریب
فکشن
books
بتائے
جملوں
سوریہ
متوقع
مجالس
مقررہ
نگران
پڑوسی
کانام
کھنڈر
آسمانی
تاجروں
راستوں
نورانی
نیوٹرون
##طق
##air
##esh
Jan
چوا
1910
Amer
الار
الرس
تمنا
حریف
خزرج
مثلث
وقفہ
کتنے
اونچا
تفریق
چیلنج
گاہوں
ادویات
رومانوی
پانچواں
پینتالیس
##aul
##دیپ
##چری
295
Ass
not
حشر
لوم
##قلانی
ابوم
تابع
ریشم
شبیر
لنگر
مجلہ
پردے
چاکر
گراں
China
العرب
لطیفہ
مبینہ
مرتضی
میٹرو
نایاب
تفریحی
رانجھا
سالگرہ
استقبال
امکانات
ایٹیینے
الیکٹرون
community
##ès
z
٭
دي
پد
Kar
Rev
کٹھ
1916
Jean
دستہ
لغات
محرک
میسن
بالوں
تفتیش
جرائد
ساوتھ
Pierre
آئلینڈ
خودکشی
نباتات
##ختر
##سار
##فیو
##لنگ
##وبن
##وارا
286
دئے
رسی
سخی
##oogle
1904
الحن
تراش
جوڑا
رویے
لوئر
منبر
مہتم
نجوم
ہیڈک
اتھار
الفقہ
القاب
تاثیر
ربیعہ
سنگین
کھیتی
انتشار
ایندھن
برفانی
کردیتا
کروائے
Republic
٢
##ٹوی
DA
Dr
am
طہ
##شورو
##لوبہ
##یزید
239
267
317
انا
بسا
ذائ
نسی
کڑی
گوا
##ision
سنتے
پچپن
پہون
بہبود
رابطے
مخاطب
مصنفہ
نکلتی
کلیسا
کسانوں
اڑتالیس
ماحولیاتی
Dictionary
##وح
##وچ
ؔ
##use
##قاب
te
##ingh
##لائٹ
289
Mal
تفر
جوں
خرد
شین
کرپ
حادث
خوآن
قطعہ
نالی
تجدید
رنگین
آراستہ
بیالیس
چوراسی
گناہوں
مذاکرات
گیارہویں
##gr
##ys
##فۃ
Fl
278
307
بسم
بیو
حوا
ستی
سوہ
ہرا
##داروں
##ناموں
برما
سلاس
لوگن
world
اسٹین
اکرام
خرابی
غزلوں
متراد
کبھار
صحرائے
تصنیفات
##yn
##باط
##ثير
##نٹو
ود
##ابقت
##جانی
BBC
تقر
ہرن
الائ
الاخ
باون
ثناء
حسرت
دانی
پارے
خطرات
دوپہر
دیکھو
محمدی
مقبرے
گزرتی
Oxford
احمدیہ
غرناطہ
کریمیا
ابوالحسن
##oup
##ارب
##نور
##aine
##سٹون
297
Mic
تجھ
دال
ماؤ
انسپ
رائٹ
ستلج
طائف
مروی
مواز
کونس
تردید
محکمے
نعمان
خوشحال
میٹرکس
گھوڑوں
اتھارٹی
اکثریتی
جامشورو
رومانیہ
ڈیموکریٹک
##ڈم
##غیب
##فال
226
Mor
باہ
راف
کنڑ
ہوپ
بھوج
ثالث
جونی
صلیب
عملہ
فورم
لوقا
لگاؤ
اراضی
بصیرت
تصادم
رضویہ
طلائی
ڈھائی
کرچکے
سینٹرل
گاڑیاں
ہمالیہ
انعامات
مکتوبات
##vi
##ym
۲
##ختی
##زاج
Dep
بلخ
دلہ
سبی
نعی
ورن
##ونسٹھ
Arab
اندی
خاصہ
ذہبی
سمتھ
عملے
لڑتے
ڈبلن
الطاف
شیلبی
مناتے
پچاسی
اینگلو
بایزید
ساہتیہ
ایرانیوں
##45
##نگہ
NA
ہز
##site
288
309
Nov
پھا
1907
آرزو
آہنگ
باڑی
رضام
سوچا
صابر
فوٹو
لانڈ
لاگت
لوہا
مایا
منبع
نثار
احتیا
حرکات
رحمتہ
صداقت
الفقار
تقاریب
کارٹون
امتحانات
##ظمہ
##وفٹ
##پیٹ
221
236
258
اکہ
برے
عاج
منڈ
ڈیس
##یکیٹر
ایڈن
بھرت
موتی
نعرہ
اطمین
بریگی
بشارت
دسترس
سلاسل
طیارہ
قومیت
##anguage
بھتیجے
بھوٹان
غلاموں
مطلوبہ
چوالیس
نمائندے
##زٹ
##يف
##urg
##یدا
شگ
##منین
##پسند
##یالہ
Oct
تھل
جاگ
چھڑ
ڈرا
ارتق
خرقہ
دعوے
دھار
راجہ
سنگم
فلاں
مذاق
امروہ
علمیہ
میرٹھ
کینسر
شادیاں
مندروں
نتیجتا
ہوجائیں
ہیڈکوار
نیدرلینڈز
##ؤڈ
##hir
It
##کایا
141
287
Art
ter
رسل
عتی
##ville
بندے
ٹوبا
یوکر
طباعت
مقالے
نعتیہ
مرہٹوں
منعقدہ
پہنچتے
چونسٹھ
##ef
##ثیم
##فقہ
##لیو
##ڈرڈ
##ڈرک
گپ
##ency
##اریر
##بانہ
306
Sch
جنی
داع
درم
سوش
پات
بذات
براڈ
جنید
رازی
رموز
نوار
وائل
پارہ
چناب
چھپن
کتنا
گورڈ
ہیرا
آسٹری
برتری
داماد
سچائی
عدنان
عہدید
قافلہ
میامی
پہلوی
العارف
ایتھوپ
ساسانی
سیکولر
متاثرہ
##عر
##idd
##pur
##ung
##گوئ
Lo
Mo
213
257
294
296
بکھ
سرم
قضا
متص
پلو
چھہ
کاہ
East
اظہر
تغیر
ساغر
عاصم
لادن
مداف
مورو
ترسیل
حنبلی
سینما
غزوات
سنجیدہ
صنعتوں
مستعفی
مستقیم
تہذیبوں
میڈیسون
##ré
##emb
##red
##الڈ
##عاد
##ورم
##یبا
234
انی
لاگ
لنڈ
وعظ
کشت
ہشت
الوہ
راکھ
رکعت
قادی
مفاد
مفکر
ٹریف
پراس
پروا
اہلیا
جنگیں
کشمکش
اختصار
ڈیکیٹر
ہالینڈ
شنگھائی
فیئرویو
پروگرامنگ
##ink
sc
212
266
316
الٹ
بچی
بیہ
جرن
لسٹ
کرۂ
شبلی
فہمی
نیکی
ڈویل
اجماع
اجمیر
المنت
اموات
انگلی
اکبری
ایوبی
ترغیب
راجیہ
سنایا
طورپر
فضائل
قرطبہ
اٹھاتے
سموئیل
ماہانہ
اسٹوڈیو
##غی
##hem
##ساز
##نٹس
##ٹرا
Wh
لق
##rael
##ترین
153
298
Mad
Mod
Rom
سرک
میت
یکے
باور
برہم
بھرو
جوڑی
ڈاؤن
ہٹلر
اقامت
القدر
اڑتیس
تھانہ
کتابی
ہندسہ
اسپیکر
اقلیتی
پھیلاؤ
کھدائی
حکومتیں
نورمنڈی
##way
##برس
##سیٹ
By
Gl
##iter
##ٹیوں
##گیاں
274
دون
Geor
اورن
خانم
خندق
دستی
قطار
لوزی
وینی
کپڑا
انفار
تکنیک
تیزاب
سربیا
مہتمم
پرستش
اٹھاون
برکینا
کہکشاں
اطمینان
خواندگی
میانمار
##ژو
##جئے
##چرز
گہ
329
wik
قین
مدح
مطم
ڈھا
##یالیس
بدعت
دکھا
سائی
شوگر
عقلی
لائف
کروی
آگاہی
علیہم
مخلوط
موسمی
ٹھٹوی
کانگو
افغانی
بڑھایا
زائرین
مفسرین
الخلافہ
راجپوتوں
پروٹسٹنٹ
##شنگ
##ٹور
##ھرا
ئی
ثم
یش
##ater
##فیلو
181
264
asp
آمر
حلب
عقد
اسکر
اوٹا
بدوش
جرات
حفیظ
ریڈی
فاسو
فرام
فرنچ
یادو
سرسید
فرشتے
فلاحی
لائنز
ماریو
گارڈن
بیٹھنے
ستانوے
سینتیس
مریدین
ہنگامی
الشریعہ
دیواریں
رجحانات
ریاضیات
سینتالیس
##ٹرن
Gm
رت
شد
كى
163
loc
ادھ
بقا
شرع
نقد
ٹار
کلر
گرے
المہ
جارہ
حساس
صادر
مہات
وئیر
کاپی
کھنڈ
گریز
گزری
حارثہ
اہلکار
بلوچوں
بھیجنے
سائیکل
پڑھاتے
پینسٹھ
کناروں
زبردستی
سلطنتوں
مانچسٹر
کینیڈین
اسکندریہ
سنبھالنے
مائیکروس
##ets
##rop
##دود
##سطہ
##شبہ
##یسا
ٹا
##فقار
231
308
ہان
اسیر
الحج
الدر
خوان
خودی
رہبر
شباب
مظاہ
ہڈسن
انگلش
ایکوا
باسٹھ
ستاون
لفظوں
جاسکتے
ناظرین
ہوسکتے
اکتالیس
جماعتیں
کارنامے
فلسفیانہ
##طع
##als
##برن
##aper
##ندھر
214
San
تنز
عضو
پیت
بلاگ
حثیت
خیمہ
لبرل
نغمے
وقتی
اعلام
اکاون
رکنیت
سماوی
ہڈیوں
اٹھاسی
جھیلوں
چھیالیس
ریاضیاتی
قازقستان
یونانیوں
کارروائیوں
##umb
##نجر
##واح
Sw
١٩
##یدار
242
بمب
تمب
سجا
برنز
تارا
شرقی
نازی
پلیز
##ibrary
ادارۂ
اندرا
انڈیز
برہان
بمقام
عطارد
فرینک
فوجیں
پیٹرز
##ization
مزارات
روحانیت
اخلاقیات
لیفٹیننٹ
ہیڈکوارٹر
Encyclopedia
##الن
ته
حف
##اناؤ
##ولات
202
حرا
پئی
##ative
##lands
1909
بچاؤ
وسٹا
پونے
اننگز
اونچے
عدلیہ
مظلوم
چوہتر
گستاخ
##ٹزرلینڈ
بیداری
خلفائے
مبارکہ
مترادف
مرکبات
سترہویں
پھیلانے
صاحبزادی
##kh
##گال
ro
##ular
##عدگی
328
370
مضر
ملز
##کیشنز
##یاسٹھ
ثواب
جلسے
رجال
روضہ
شاگر
منٹو
گلاس
اکہتر
بیاسی
داخلے
رعایا
##ernment
بنوایا
دکھانے
شہزادے
مظاہرے
چھیاسی
کیفیات
Publish
لوزیانا
فیئرفیلڈ
انفارمیشن
##of
##gan
##قاف
Su
##ریزی
##زویل
222
gen
آپؒ
باگ
بگڑ
حجت
حمی
دھا
عری
ناس
کچل
بھلا
تریس
تہتر
روزے
سلمی
سودا
شعیب
پریش
پیسہ
کاشی
المست
اٹلان
اڑسٹھ
حنفیہ
ستاسی
ملانے
ناپید
نسواں
ہڑتال
ساحلوں
عبدالح
فیکٹری
##لد
##ھل
##اعل
##سلم
##ویض
##ھون
..
Po
##رالا
##کارا
...
161
162
319
347
348
Web
دیپ
شرا
کوپ
جریر
سٹین
فساد
موجد
نیلا
پاتی
کولک
کچھی
اربعہ
تیونس
خدائی
دشوار
سیدھے
معظمہ
موسوی
پائیں
جراثیم
کالجوں
خوشحالی
##کز
##ذیب
co
صع
##ount
Del
آفر
اکن
رصد
قدو
ٹین
ہیس
##ammad
احمر
انجم
باطن
جوئی
جیکب
درود
مایہ
مبصر
ناقص
نقاب
چھپی
کھوج
الفضل
تعاقب
تناظر
ریزرو
ٹھنڈا
ہنگری
منشیات
موازنہ
پڑھایا
تحریکوں
تیرہویں
المسلمین
##يع
##غری
##واڑ
##ڑپہ
##یرس
##ادوں
##ستری
##مالا
##محمد
##نانی
##وران
171
211
233
252
جدت
دیس
فقط
چنی
بننا
جلسہ
خطوں
رستم
سلفی
قران
ملاپ
نائی
وکلا
بتاتی
تونسوی
نابینا
ٹوئنٹی
پچانوے
اوکلینڈ
اٹھانوے
روایتوں
چھیاسٹھ
چھیانوے
##ae
##sh
##يٴ
##خال
##کاب
336
420
پوک
البل
اولا
باقا
جلتی
جواز
سائز
ضخیم
طاری
عمیر
مصلح
اتباع
اناسی
تیئیس
خزانے
دستوں
دفتری
زمانۂ
ٹریفک
کوہاٹ
county
region
الکاہل
صورتوں
مشاعروں
نیکوسیا
چورانوے
کارکنوں
##ais
##ury
##باء
##دیو
##ساب
##قیع
##یاق
##لوجی
324
Pal
الآ
فلی
لحم
پوس
Khan
ارسط
ذاکر
شفیق
فیشن
لوئی
معجم
کوفی
کھال
ہادی
آوروں
انچاس
برائی
برطرف
بفیلو
محتاج
انحراف
اکیاسی
تنہائی
انتالیس
خوشگوار
شماریات
Chapelle
اشتہارات
ایکواڈور
وزیرستان
##lo
##ائت
##ریو
##وطن
##ولن
ne
خض
دؤ
##بیون
##قانی
##لطنت
143
345
اتا
سچے
کرک
##etail
بڑھی
بھرے
ساگر
ستتر
سویت
غارت
موصل
March
State
اکسٹھ
سکینہ
مباحث
موصول
چھاؤن
کلیان
آزمائش
بلاشبہ
معاوضہ
مفادات
عسقلانی
پسماندہ
تینتالیس
##کلو
At
##کردہ
272
291
314
زہد
فرہ
پیو
یزد
##گرافی
Land
التو
ایلک
برین
تعصب
دیوا
مدعو
ورثے
کارت
النسل
انسٹھ
بدعنو
تفویض
شاعرہ
مودود
گمراہ
اینجلس
تریسٹھ
فرشتوں
محاصرے
وفادار
مواصلات
پلیزینٹ
پندرہویں
##فف
##ola
##ثوم
##ریٹ
us
سس
##چہتر
273
315
335
338
rel
خرا
پاٹ
کيا
گوئ
##واسطہ
##ینگٹن
المش
بکھر
حلیم
خزاں
دھوپ
ریزی
سانگ
فرضی
نقطۂ
وطنی
Gmina
آرتھر
سڑسٹھ
سیکھا
مخطوط
الکبیر
دانتوں
چٹانوں
انسپکٹر
جلاوطنی
پروڈیوس
ڈاکٹریٹ
اعتراضات
تعمیراتی
پرائیویٹ
##eld
##ثری
##حیح
##روح
##یسہ
qu
نپ
327
War
ذبح
شیم
نوک
چرن
##چیوان
بسنے
خلیہ
دیسی
کپاس
مانگی
مصباح
معاہد
نکولس
استوار
بنادیا
رحمانی
سامعین
ناگپور
##incorpor
اکیانوے
فنکاروں
##any
##awn
##let
##ues
##ضیہ
##قسم
##چوں
Ec
ڈس
##ٹیکل
253
339
Her
par
برآ
ذرہ
رسد
سکو
لٹل
ماچ
چاک
چھل
اطلا
الجو
تعدد
حبشہ
زاوی
سیکی
شفاف
مخلص
معطل
کررہ
ہرگز
##cience
الہند
تحویل
سروسز
شیریں
ٹیمیں
Israel
تیموری
تصویریں
باقاعدگی
unincorpor
unincorporated
##ضات
ثع
کڑ
##عموم
##لانے
col
الپ
جھر
شطر
شمع
نمی
##افیوں
شناس
پودا
اشارے
شاہین
کانپور
کرامات
آبادیوں
آپریٹنگ
اینڈرسن
فریمونٹ
##ept
##علم
##کھے
##الیت
223
318
Aut
Dev
Mac
زنا
فحش
ٹوڈ
کسب
##istor
##میزان
##ڑکانہ
1903
ترپن
جذبے
زکوۃ
فریق
مشیل
میڈل
پھنس
##lement
index
inter
درپیش
سرہند
شطرنج
شیراز
مجسمے
نوائے
نوابی
پچہتر
کلاؤڈ
ایگزیک
مختصرا
کوارٹر
العارفین
##ثم
##duc
##اہٹ
##وفی
ob
pg
##omen
##یونی
241
349
Mah
inf
قرہ
پتھ
##chive
الاص
الجن
انڈے
شیخو
مشہد
مطبع
آجاتا
الانس
بیچلر
جنیوا
جھنڈے
سویڈش
شکاگو
معنوی
کردیے
کرمان
کپڑوں
اقتباس
اقتصاد
اٹھائے
تمباکو
زمینوں
فریڈرک
پہلوان
کرسکیں
بالعموم
خریداری
سلیمانی
بریڈفورڈ
##aq
##ox
##we
##وگ
##ket
##اکھ
##عبد
##فضل
خت
سگ
##ouse
302
ازم
اکس
رگھ
ماف
نون
پلٹ
##آسانی
Soci
اجرت
المل
بوقت
تبتی
تمیز
داود
عبرت
لیکس
متون
کمرہ
ضابطہ
پبلشر
روزمرہ
روشناس
معاشرت
ناپسند
ٹریننگ
عدالتوں
لاڑکانہ
پریشانی
##غون
##قوت
##وکا
ag
me
کڈ
##ange
##inal
##اکیہ
##ھویں
550
Cap
Chi
حصص
شاذ
قصر
چنے
چھو
کمل
یلو
##ewish
1902
جھڑپ
خشکی
سریہ
فشاں
فلکی
نظمی
پنڈی
ڈالے
گورو
ہجوم
##ograph
النہر
جمالی
رایڈر
معقول
مورتی
پروین
گاہیں
مراقبہ
کردیتے
کھوکھر
ہندومت
ترکستان
##sk
##riv
##ازم
##جوں
##عیل
##نجا
##نگل
##وکی
##ویس
زع
##بیری
##جمنٹ
151
283
292
750
Aug
ابا
زرد
قال
ٹنڈ
Gold
اوٹر
ایمر
بستر
توزی
سامی
عمرہ
مکھی
نکار
ٹیلر
پتوں
کشور
المعت
انہتر
اٹھتر
بااثر
زنجیر
غذائی
معتدل
چھہتر
تربیتی
پہلوؤں
ہیروئن
اسٹونیا
##هم
##سنس
##منہ
##مول
gr
مي
نخ
##ائری
##الیف
##زبرگ
281
337
تمث
جہد
لتھ
وہب
چمن
##ished
1876
List
Page
Sant
اجزا
تنوع
جمنا
راہب
رقمی
سارہ
عنہا
معرف
کونک
جلدیں
سائیں
فرماں
لغاری
مجلسی
مطمئن
ناراض
ہوگئے
اعتقاد
البیان
رضاکار
سورتوں
طالبات
سیاسیات
پبلیکیشنز
##iam
##روا
##لعت
##کتب
pr
بڈ
##aire
##اگوا
Cro
Lab
اود
فجر
ماک
ٹول
کئے
ہوس
آرڈر
اسکو
سکور
ضمنی
ٹینک
پیاس
اوتار
تدبیر
حاملہ
حقانی
خطابت
مکاتب
کنفیو
گلزار
امتزاج
میرپور
نریندر
نظامیہ
پڑھانے
پھیلنے
تریانوے
شاعرانہ
##طب
##ھک
##ren
بپ
نط
##گریٹ
##گولا
251
271
313
334
430
زون
بانگ
تخیل
رحلت
فرحت
ٹوپی
ٹیپو
گھرا
الشیخ
جوڑوں
ذائقہ
شوٹنگ
مالوہ
ملالہ
پارسی
اندازی
برخلاف
بیانوے
دیہاتی
نورزئی
کھیلتے
المیزان
دورانیہ
کوہستان
الاعتقاد
ایتھوپیا
دانشوروں
##ئق
##فک
##عاش
##عدے
##فاء
##وڑہ
##کمل
##ober
##ائیہ
##جاتا
172
263
Mag
Off
متک
آوری
اینی
جبری
زریں
سیتا
سیلم
معجز
مفاہ
ڈانس
گیتا
اشفاق
اصولی
بندوق
تبریز
شکاری
فصلوں
مجددی
منہدم
کیاہے
یاقوت
الزبتھ
ایشیاء
شادیوں
مشاہدے
مکالمہ
ہنگامہ
صحافیوں
##so
##ابع
##زاد
##شات
##ظیر
##ذیفہ
365
اجل
انض
فاش
نفی
پتر
ایلم
بئیر
دیبا
سبزی
سروں
مندی
موری
نوشی
وادئ
چھٹے
کلچر
تشخیص
جستجو
خوشاب
علالت
منازل
منطقی
میزان
نشانی
ٹرائے
کنویں
اعتدال
تریاسی
مماثلت
پہچانے
آکسائیڈ
جالندھر
معاملوں
دستاویزی
ذوالفقار
##صے
##ٹم
##aud
##لوپ
##واد
##ٹیس
##چور
یے
##uman
##صفحہ
##وبست
##ژیول
##یتین
Bib
Dav
les
انط
جما
فرخ
کائ
برسر
جونز
ریکھ
سماع
سویر
سیمی
نافع
پوٹھ
چارہ
ہولی
دھیان
روانی
سیمین
وہاڑی
چھوڑے
احتیاط
الرزاق
الکلام
جارحیت
مطابقت
چڑھائی
اہلکاروں
نکاراگوا
##50
##era
##ube
##urn
##utt
##خلا
no
##انچی
##فاقی
346
Est
Gov
بھج
تفہ
جاب
جیا
رہو
صیہ
1880
آراء
ایسڈ
برنس
جانش
حاجت
خونی
شیشے
قراق
نقشے
نینی
پانڈ
پراج
پرنٹ
پیام
گلشن
یورو
اسکور
اسیری
بتدری
ترانہ
تیمیہ
عبوری
پیارے
کاندھ
انانوے
جلاوطن
علامتی
متوازی
موومنٹ
معدنیات
##ada
##urk
##خود
##مبل
##کرا
##پمنٹ
بهی
رشی
سست
ٹھک
اٹھے
حجاب
حسام
غروب
فونٹ
لوگو
ملنا
پیما
کنول
about
آرائش
آرائی
احاطے
طریقۂ
معمار
وزراء
الخوار
العالم
اینٹوں
بتدریج
دعائیں
سائنسز
سیستان
فرانسس
نارائن
کامیڈی
کیمرون
اورینٹل
مدمقابل
بدعنوانی
میونسپلٹی
##ane
##اتہ
##میٹ
##انند
##رمین
173
380
دبا
شید
1897
Paul
Pers
ایچی
بکری
درجن
فرنٹ
نچلے
پتلی
گڑھی
المرت
انگوٹ
اکاؤن
بہنوں
تاسیس
توزیع
خلدون
منائی
پرتگی
Volume
آزمائی
ترکمان
عبدالق
مجددیہ
واقفیت
ٹائیگر
پروجیکٹ
کارخانے
##ڈس
##یۃ
##arh
##ایہ
##ترا
##نیس
##اوند
مسر
مسل
وجد
ہنٹ
Iran
آرگن
استث
اضطر
اوکس
سلیچ
طلحہ
مخفف
مرمر
ویکس
ٹھٹہ
ڈیوس
احباب
احیاء
تاحال
سرشار
لاناؤ
مایوس
ملایا
نکلتے
پرندہ
کاٹنے
بدستور
خیرپور
سمجھنا
مہاتما
گلستان
##de
$
##elf
##iat
##نصر
##ڑھا
Bh
عا
پش
##اعلی
##وبند
293
Med
بکس
بگا
راو
لاؤ
مفع
##icial
##ائجسٹ
Lond
ایمن
بیکٹ
عصری
فرات
فیفا
لمحہ
محلے
مصال
معبد
کھود
یوٹی
##ulture
توڑنے
پیڈیا
چائنا
خوفناک
شائقین
ڈائجسٹ
کشیدگی
کولمبس
Central
مائیکروسافٹ
##طا
°
##rav
##ئیے
##روز
##کتی
##یتو
ضو
لپ
##ican
off
تند
جاٹ
لاج
لوہ
مصح
ناش
نند
گال
Cont
اجمل
ایما
حلیف
ریچھ
مایو
میئر
وحشی
ٹران
چھٹا
کلیر
ہلکی
Trans
اسٹاف
القدس
شناسی
قافلے
مسودہ
وسیلہ
پلانٹ
کامرس
کفالت
کھولی
ہمدان
بیٹیوں
جوابات
خریدنے
سبکدوش
گھرانہ
بندوبست
عثمانیوں
##فو
##led
##ope
##oss
##افہ
##وئل
##وزی
##ڈرن
##ینت
رغ
وٹ
##aily
ارس
حسد
ٹاک
کیچ
##icles
آریہ
آشنا
درسی
راما
رشوت
صوتی
عشرے
قاصر
قربت
مجیب
معائ
معمر
گریٹ
یورا
احمدی
ارسطو
اشکال
افراط
خاصیت
خریدا
ٹیکسٹ
صحافتی
نیپالی
پیمانہ
اولیائے
تنظیمیں
اتحادیوں
پالیسیوں
Department
##ba
##la
##ose
##ائو
##نٹی
up
##گاوا
312
650
افی
بلڈ
بوت
تاخ
مصل
معر
نجا
ہام
Book
Port
blog
ابدی
بھون
تناؤ
توضی
تھری
جلتے
شکیل
ٹاون
بہائی
تفہیم
مسافت
معجزہ
ڈکنسن
گورکھ
گوپال
عبادات
پیشانی
کمالات
October
یوراگوئے
##iy
##eth
##احب
##ٹنٹ
##ڑنے
رؤ
زي
صی
مے
##وڈیا
##کھنڈ
##ہجری
Emp
Feb
vol
آئل
ارم
سرچ
شیک
کرغ
الاز
الود
اورس
بتوں
رساں
سونپ
ماتا
وقفے
##ipedia
Relig
آرٹسٹ
اکیلے
برہما
تانبے
تجاوز
جاسوس
غزالی
مابعد
ماندہ
متنوع
معدوم
انٹیلی
جنگلوں
ماسٹرز
متواتر
وارانہ
پٹیالہ
کامران
بلدیاتی
سکریٹری
انتظامات
داستانوں
سہارنپور
دارالعلوم
##طس
}
##روط
##نتی
ــ
##اتھن
##ورسٹ
آرم
بہو
جڑا
دشت
دھڑ
طیب
غرب
لگر
واج
کرگ
یان
City
King
Part
Wisc
اذیت
ارشد
حصار
پرتھ
کھرل
گیمز
یکسر
count
ارادے
تنویر
ثعلبہ
داڑھی
درجات
شہابی
مشنری
نظریۂ
ہوتیں
الرجال
النبلا
لائسنس
Wiscons
خواہشات
وفاداری
##نف
##يح
ؓ
##now
##ائي
##ضاد
##پیک
do
po
##انگا
##عمال
##کائی
301
321
جند
صدو
على
پنگ
چان
گھس
1894
June
ارتھ
بلاد
دھول
رپور
سطحی
مزین
میلے
ناسا
نقاط
پھیر
آجائے
آہنگی
اشکنا
ایشور
تاريخ
تسخیر
فردوس
نغمات
ہفتوں
اختراع
اوٹاوا
سالمات
فریقین
میدانی
کہلایا
ازدواجی
##ta
##غف
Of
##ائین
##لہون
##گانگ
303
آبا
آزر
جھٹ
حید
طاس
ظہر
غدر
قدس
##جیانگ
المث
بیری
درگا
راکٹ
رتبہ
رورل
ملزم
مینڈ
چیبا
ہمسا
برکات
تکرار
دھکیل
لکیری
مستشر
منتشر
موسیق
ٹیگور
کرانی
##ulation
آلودگی
الرحمہ
انضمام
حامیوں
عبدالر
ٹورنٹو
##46
##49
##ris
##udd
##بیح
##ہروی
Eur
Riv
انب
قلت
وتر
پیل
کشن
گلہ
##ridge
1895
آباؤ
استغ
اوسی
باجی
بہاء
سیلی
فیاض
معتز
نافر
ٹائپ
چڑیا
چھتر
ھوئے
بہنیں
خمینی
صابری
متفقہ
مدینے
ملبوس
مناقب
مہابھ
پائید
الامام
بزرگان
فراموش
نوآباد
ویژیول
پاکیزہ
ڈاکٹروں
ڈرائیور
##MA
##آر
##ham
##ابن
##ڑوی
##گوش
En
که
##apan
##eter
##ئونگ
##فورس
Apr
توا
حنا
شجر
شیا
مرق
کتے
گلا
##مراہی
Cast
Laur
Will
اورک
توسط
خلاء
سہرا
عتیق
مروج
ڈھوک
کلیہ
کنور
کوثر
قوالی
منشور
نکالی
Jewish
آستانہ
حاضرین
مشابہت
پہچانا
گرمائی
حیوانات
دیہاتوں
شمارندی
پشتونوں
##طوب
##فید
##گرو
243
261
Pol
Pre
sub
عیا
نشا
نشہ
کتا
##لائنز
1860
تمغے
سنجر
مداح
نوکر
پیپر
ڈرون
کانت
##ائزیشن
برتاؤ
سیداں
لڑاکا
چروکی
کانسی
کاپٹر
افزائش
العربی
برنزوک
قیمتوں
کالہون
ہوشیار
الیگزین
بدایونی
مجموعوں
##57
##its
##ریق
##طیل
##ودر
##ڈرز
قت
لذ
لز
چچ
##ures
##احمد
##بولٹ
##پارہ
323
Mat
Neb
ant
تخص
شال
لوپ
مشا
وصف
ڈگر
##الوجی
1858
Phil
المغ
خداد
متقی
نووا
پھین
چوڑی
گڑھے
اوقاف
بارٹن
بدلنے
ساختہ
سیدھا
مالیت
ماگوئ
میعاد
چاہیں
چوہان
گزرتے
گھانا
عبدالم
غریبوں
صوفیانہ
شیخوپورہ
کارناموں
##جیے
##شری
##فیف
##لمہ
We
ev
ge
آص
يا
##onne
##گاؤں
Sec
new
تلہ
تول
ششم
علت
قفق
لور
نشی
کفا
##orial
1885
1896
آگسٹ
جعلی
جھار
خلوص
شیعی
عمار
لانچ
لیڈی
کرسی
گردو
گپتا
بابری
دیگرے
عربیہ
غداری
مرکزے
ویدوں
ڈیویس
ڈیکلب
London
punjab
بریگیڈ
راہنما
سپرنگز
گولیاں
تالیفات
مہابھارت
عبدالقادر
##CD
##صم
##مٹ
##زمی
##نیو
##ڈنی
آق
##دایہ
##قاسم
375
Law
بشپ
تمھ
جھک
حسی
دیل
سمٹ
لڑا
ویم
##قسمتی
1890
الصح
ایاز
بربر
شبیہ
مولو
نثری
واعظ
ٹریڈ
گرلز
گوال
##نداناؤ
files
آجاتی
ازواج
خلائق
سلامت
فریدی
لکشمن
مصلحت
نعیمی
پچھلی
کلیٹن
کھاتا
territ
البانی
اکیتین
فلمساز
قراقرم
چھاؤنی
بدقسمتی
تابکاری
ثقافتوں
##formation
بیکٹیریا
ماگوئنداناؤ
##ms
##دب
##لل
##war
##ٹیف
##ائدہ
##واٹر
##وہری
##ہزار
Can
آلے
اتھ
تام
صلے
##ultan
Germ
اسپی
ایون
بورک
بھیم
بیڑے
پڑتے
پیکر
کولی
کوچک
ہراس
یانگ
Delhi
خالصہ
فیسٹی
نظروں
کنعان
کوشاں
الجامع
دیوالی
محمدیہ
Society
کولکاتا
فرانسسکو
##جک
##ria
##urr
##قاق
دج
قو
##گوئی
بسی
جور
ریش
سعی
لتا
لیپ
ودی
ڈھی
##بالغہ
1500
Penn
جیون
دوزخ
عصبی
مینا
نیلی
ٹریک
پکڑا
چھپے
ہاسن
ہرمز
انقرہ
حاشیہ
حیاتی
سرسبز
طبیعی
نکالے
ونڈسر
کیشنز
گوادر
ہلاکو
اشاریہ
المجید
بخارات
فرماتا
پروٹین
ہوجائے
Studies
رضامندی
pakistan
جاگیردار
ریکارڈنگ
اقتصادیات
##IA
##my
##199
##ool
##oul
##ارث
##راط
##قدی
##وتا
##وسف
##ہیں
pe
لح
##جہان
395
del
per
جگن
دؤم
ٹال
ڈوم
کاج
##ental
##ocial
##وناتھ
1870
2020
اخیر
الشر
الفا
امپھ
بیجا
بیڑا
تعجب
درجۂ
سولی
وسیم
پائپ
ڈپلو
کریس
کنون
بیونا
تنبیہ
دینیہ
ضوابط
متضاد
مشروب
نسائی
نسخوں
ٹکڑوں
کنواں
اساطیر
قائدین
فیسٹیول
الاولیاء
##يق
##ءکو
##دھا
##چرل
Up
حذ
##اکوں
##ولیا
who
جیب
کات
##لاکوٹ
1883
July
part
اڈوں
اکتس
برتھ
تلمذ
رینڈ
سرکل
صدمہ
عتبہ
فراز
مخفی
مسرت
موٹے
ناطق
نجفی
پالا
اجنبی
اسکیم
المال
بولتا
بیٹری
تقرری
ذوالح
راتوں
وراثہ
ڈیلٹا
چھوڑنا
گھومتی
دوستانہ
کمبوڈیا
##ke
##زت
##acy
##گہی
نل
ڈچ
##الحق
##نواز
act
آری
اہر
جیٹ
دلو
روٹ
شغف
میم
ٹام
المح
بروج
بیتی
بینر
جلتا
حرمت
ریلی
نوبت
ودیا
پہنے
ہلکا
Books
polit
المنا
الموت
بہاری
تزئین
حذیفہ
خریدی
طوائف
مصائب
کریڈٹ
کیتھر
الحمید
درجنوں
کیلنڈر
یوٹیوب
ٹرانسپورٹ
##زش
##aid
##arn
##inn
##ثیق
##شدہ
##واک
##پیگ
##elop
##اکٹر
##طانی
pre
اید
ساگ
سیڈ
قتی
قوس
لوڈ
ڈسک
کیش
گمن
ہوت
5000
Hind
آئرن
الذہ
بورو
جڑیں
غفلت
فالز
فیلو
مرقع
نائٹ
نیلے
ٹرمپ
چشمے
کاہن
##ission
##orough
April
تشہیر
تکبیر
خودکش
سوریا
شکلیں
منزلہ
موافق
چیمبر
گرنتھ
گندھک
Online
آوازیں
بیویوں
تاتاری
دھاتوں
صحرائی
اکائیوں
گلوکاروں
الیگزینڈر
ریٹائرمنٹ
##60
﴾
##ati
##ena
##ئشا
##نڈہ
##کٹک
لس
##بوطی
##یاہے
304
381
390
410
480
Sam
بسے
سلف
شرق
صہی
لوط
ماز
مقن
پرج
کچی
##انداز
1200
1889
البی
باسی
بودھ
خانو
دادی
ستار
طرفہ
قرضہ
ماجہ
نشاط
ولسن
ٹکرا
پاگل
پگھل
یوری
المرک
امپھؤ
باربر
بناوٹ
تاریک
جوبلی
لہروں
مالکی
پرکاش
پیروں
کروفٹ
جدیدیت
فیصلوں
مکالمے
تنزانیہ
دروازوں
دستبردار
##لٹ
##eph
##net
##ماؤ
Av
Bu
Sc
##سمین
##وتری
311
Mer
out
آنت
الظ
زوج
پھٹ
Life
آدھے
آپکی
البق
ایگل
بانس
جرنل
حسان
دلہن
سٹیج
سیڈر
عليہ
لیلا
نقیب
پولو
چوکی
ڈاکو
کرنٹ
کنگز
کوئن
کیسل
کینڈ
گران
گوٹھ
گیلی
بسایا
بلڈنگ
تاتار
جھنڈا
ڈیفنس
گراہم
افسروں
فعالیت
فلورنس
لکھاری
مناظرہ
##IS
##ax
##ij
##امد
##زون
##لوج
##يات
##ious
##اتار
440
You
pol
جوس
نفع
نوی
چٹا
کنا
گان
##raska
##سرائے
1893
آریا
ابوح
التر
دانے
دلال
سنان
غیبت
لاکر
واضع
ویدک
پرتا
چھوٹ
ہیون
یونگ
افلاط
تاخیر
تعمیل
تقدیر
توثیق
جوضلع
خوارج
سیکھی
مالدو
پکوان
ڈالتے
بھلائی
سلطانی
سوشلسٹ
نسوانی
پوٹھوہ
جانبدار
شیمپیئن
فلکیاتی
کرویئشا
Nebraska
وزیراعظم
##ER
##lv
﴿
##ces
##ode
##ude
##اکس
##جرز
##خیل
##شاپ
##يان
##بالہ
all
اوٹ
برز
زحل
سپی
سگن
چیخ
##مانعت
آدھا
آسود
رائی
رقاص
صدوق
فروش
لوٹے
نیٹو
پراگ
پلاٹ
چربی
##العلوم
انٹار
دلانے
نانوت
پاپوا
گردان
ہوگیا
August
Punjab
اکتساب
استعداد
اشکنازی
المدارس
جہانیاں
ریٹائرڈ
کنفیوشس
##OM
##وغ
##aye
##ikh
##lex
##عاب
##نجی
وچ
##انکا
371
Geo
mon
ائر
اکت
جاد
ریج
غزہ
ونس
الما
جنتی
حبشی
خاصے
رغبت
سائن
شیوخ
مہلک
ناظر
کلار
گیان
اسٹون
جھگڑا
رشتوں
فلورا
قلعوں
مجوزہ
وارثی
پولیو
پہنتے
Public
detail
انسداد
بدترین
بینظیر
تقاریر
ممانعت
نپولین
کنونشن
گروپوں
اکائیاں
عہدیدار
##hys
##ادا
##اسن
##تھے
##دام
##طار
bi
لف
##اردو
##اموس
##لیکس
##ناتھ
##کوٹی
322
344
اعر
الض
تنظ
عیش
غصے
ہرم
ینی
##umber
1878
1881
1888
1899
Trib
آئرش
التہ
الشع
باڈی
راکی
غربی
لبیک
کورن
##minist
Lower
Singh
اکٹھے
بائیو
بدنام
تاکید
دستار
دیوما
مشروط
منقطع
نظامت
نواحی
پھلوں
کولوم
گامزن
گانوں
##duction
اضطراب
امریکن
براستہ
دانیال
مخطوطہ
کروڑوں
گزرگاہ
history
متوالیہ
امیدواروں
بہاؤالدین
ڈیپارٹمنٹ
##AR
##ca
ٰ
##ius
##اعہ
##باق
##کوو
tv
##uary
##ابیح
##ستار
حدی
سبا
عمد
فوٹ
قیر
ورم
ٹون
چوں
کہو
##ident
##ابرین
##کیشنل
1898
اسکی
الرا
ایری
بھڑک
خلیے
رضیہ
رنگت
ساجد
صدقہ
لعنت
مشقت
نارو
نانی
پربھ
گاما
##hammad
Japan
اخوان
بوسٹن
تونسہ
جوابی
راشدہ
مختلط
مشتری
نائٹر
وکٹیں
ڈیلاس
کوٹلی
کیریب
گنجان
##پاکستان
زرتشتی
سرکردہ
قبولیت
مسلموں
کرتاہے
ہمسایہ
England
مالدووا
مچھلیاں
مہمانوں
گرجاگھر
نینیانوے
کاشتکاری
##ble
##unn
##مرا
##ڑکی
##گرس
##لینا
##کانی
520
Bal
Bro
How
Sur
جلن
خیم
وبا
ویز
کیٹ
##india
1850
اسنے
بیلی
دکنی
ساسک
عفان
فصیح
لاری
مرسر
مورث
ورنن
گرتا
ہارس
اخلاص
المصط
اویسی
تعلقہ
جبریل
حراست
فلمور
مشکوۃ
مکروہ
آخرکار
خداداد
داریوں
ستونوں
سکولوں
ناکھون
ناگزیر
واردات
کرسچین
کونکورڈ
##58
##کب
##oth
##تھم
##دہم
##صری
##وای
##وشن
##ٹھہ
وث
##پاشی
282
333
366
412
اپر
صفا
کسر
اشاع
اصلا
اطہر
العق
ثروت
جنوں
شانہ
شمیم
معظم
پیشن
گانگ
ہفتم
Rural
دائمی
سیڑھی
شعراء
عادات
فورسز
محاور
میراث
یگانہ
افادیت
الوہاب
برداری
تجاویز
دارانہ
رصدگاہ
شاگردی
نوشہرہ
النبلاء
سیکنڈری
پراجیکٹ
ماحولیات
ساسکچیوان
##70
##وتر
تت
قز
##adem
##ains
##اسیر
##سوتی
354
460
Rec
بیڈ
غضب
واں
##المین
##زویلا
##قابلہ
##لامیہ
1887
3000
list
بخود
جنون
حائل
دھوم
ریڈر
سعدی
سلیس
واری
پدما
پرسن
کیلے
گینگ
ہلکے
ابدال
تحائف
تسکین
رسانی
قومیں
لتھوو
لیونگ
مطلوب
معذور
میٹنگ
ووٹوں
چارین
ہوگئی
ہڈیاں
People
خبردار
خوبیوں
راشدین
سرکوبی
مضبوطی
پرستوں
پلاسٹک
ہمدردی
الانوار
برمنگھم
عزاداری
لاتعداد
نقصانات
پیچیدگی
##ks
##ler
##ثور
##دوں
##سوں
##صال
##ٹیل
Em
Sy
##انام
##ختار
##منٹن
##وعات
##ومان
Ang
Châ
Sha
آٹو
حلو
##ornia
##ruary
##اتاہے
1882
1884
اورب
اکلو
بدری
تجزی
تسلی
داعش
دختر
سنگی
قرضے
لپیٹ
پریت
کلین
گزین
Calif
آشوری
الحاج
اوراق
جیسپر
سنگیت
قدموں
مفعول
پہونچ
چھپنے
کرافٹ
کلثوم
##ference
آبپاشی
اشتیاق
الحارث
الرسول
الکبری
تاریکی
عیسائی
مسعودی
نامکمل
commune
المدینہ
جنگجوؤں
شہرستان
مخطوطات
ایگزیکٹو
##ES
##hu
##ڈے
ئ
٬
##اسو
##صیب
US
##sylv
##قرآن
##وندی
##ویلر
379
Lou
rec
باخ
بوہ
حوض
لیل
مصد
پکا
1849
الزر
جواد
خاکی
خنجر
داتا
مشرک
واجد
وافر
ڈھیر
گھیر
تعزیر
جھوٹے
خاوند
دھاتی
شمارے
فیملی
نوادر
ٹھاکر
پائیک
گوانگ
برنسوک
فرمائش
ناراین
ہوسکتا
##sylvania
اکابرین
تجرباتی
تحصیلیں
روزگاری
February
عیسائیوں
فرمانروا
ڈویلپمنٹ
لتھووینیا
California
Pennsylvania
##cd
##mer
##جیت
##سیو
##شقی
##وپا
##ویچ
##گلی
Ev
fl
ٹپ
##اپنے
##جائے
367
his
sec
درخ
سچا
سیہ
شاه
لوی
نجد
نیس
پرل
##ختیار
اترے
تناس
جوشی
جینی
حاوی
سولو
سٹاف
صفین
فریم
ماتم
ناٹک
وکرم
ٹکڑا
ہیرے
افروز
بنوری
رجمنٹ
فاؤنڈ
مادھو
وظائف
پیچھا
کرانا
کیتھی
امپائر
بانیوں
رسالوں
لازوال
مثالوں
مردانہ
مقتدرہ
مہربان
البانیا
الحرمین
سالماتی
گلوکاری
آسٹریلوی
تحقیقاتی
##CM
##sc
##صط
##198
##chn
##ely
##ole
##انج
##حوں
##گوا
وه
ھا
##بریا
##بورن
##روان
##لامت
352
اڑا
سہی
ملہ
ٹرک
ڈھل
کرت
گرہ
ہیک
##ینیئم
1800
آپکے
بخشا
بنجر
بگٹی
تحفۃ
سیاق
میمن
چونگ
local
اوپری
جہادی
رضوان
سینیٹ
فرہنگ
فصلیں
قافیہ
لیبار
مندوں
منسٹر
الاثير
اندیشہ
مالیات
مبالغہ
خراسانی
عبدالملک
علمبردار
##uf
##ــ
##ادھ
##زنی
##زین
##سیا
##طرف
##فوظ
##نگو
##وفے
##چرر
مڑ
##رومی
##وکین
332
355
Ram
فقر
نکھ
##atist
Kore
انڈس
بوری
بپتس
تصرف
سنکی
عروہ
غیرت
فروع
فلاس
قراء
محکم
مصعب
ملوک
منڈل
موٹی
نشیں
نکلی
نیوی
وقتا
پٹیل
کتبہ
which
اطفال
الكتب
جاننا
حرمین
خزیمہ
سنچری
قرطبی
لورین
ملاتی
پرفار
پریمی
پڑھتا
پکڑنے
چھوڑی
آئیوری
اونٹوں
جرمانہ
حوالوں
مایوسی
معصومی
مقبوضہ
Germain
استقلال
اقلیتوں
پاسپورٹ
المرکبات
بہاولنگر
##IT
##ON
##uz
##aux
##hal
##بیق
##تاء
##غرل
##يوں
##پتن
##گنج
طل
ہب
ید
##امیم
##قریب
Ahm
Mas
بجھ
برد
جوق
دنی
صند
قزو
##دھانی
1877
Asia
year
آشوب
بندش
حماد
ریفر
سونگ
صدام
عشری
عینی
فالج
منگی
نظرآ
ویلم
کاست
کالو
کلائ
کمپی
گوند
البرٹ
انارک
بارود
بوڑھے
جانیں
صوفیہ
طلباء
قفقاز
نارمن
واٹسن
ٹوٹنے
کردین
ہواؤں
اناجیل
بابائے
جھیلیں
سازشوں
مجبورا
پاکپتن
سمندروں
شاہنواز
مچھلیوں
چوتھائی
province
##ja
##چو
##ype
##باہ
##شدد
##لیے
##واے
##کاء
##ہام
af
##awal
##اعات
##شاہی
##لینی
385
391
dep
بعث
دقی
روچ
غلہ
هیں
کوا
گوس
##ودھیا
1879
Jews
آزما
اورع
اگلا
بحیر
براب
جیول
رینج
زمیں
سائے
ساحر
عادی
فزکس
لاتا
لٹری
پھوپ
چانگ
کیون
گولہ
یوتھ
##ecture
story
their
ارسال
ایریا
ریحان
سنٹرل
محلات
مدنظر
معالج
منجمد
مورخہ
میڈرڈ
ٹھہرے
ڈائری
یاسین
##olution
اٹھانا
برتنوں
سرسوتی
طیاروں
پروٹون
پکارتے
کاوشوں
کنواری
Express
المرتضی
مطالبات
پارٹیوں
American
سیلواڈور
##IN
##ote
##شیم
##غات
##وہا
Hy
Im
ec
یڈ
##بائی
##نوان
##ڈووڈ
med
خرم
زنی
زکو
فرس
مسک
میو
نات
ناح
کوی
1891
Camb
آبرو
تکلف
خاکے
دھند
ساقی
سرخی
قلبی
ڈیلی
کبری
کوپر
##annica
Polit
الغنی
برہنہ
بلاول
تعامل
فاتحہ
قبروں
قرضوں
محلول
پہننے
چلاتے
Instit
البقرہ
اوموری
جونیئر
روانگی
سامراج
ناشران
پاناما
کھولنے
ہارورڈ
المشائخ
نانوتوی
کمپلیکس
لیبارٹری
ابوالقاسم
کامیابیوں
ہندوستانیوں
##uy
##ؤل
##شکل
##صور
طع
##انیا
##تریا
##میمی
356
Day
Raj
جہت
حرب
دلد
سرب
فوس
نسق
ہاج
##ڈاکٹر
Bank
have
بانٹ
بندھ
صحاح
علیم
فیکل
قاصد
مائے
معاص
پوتا
پیئر
کھیت
ہنور
##rative
##ارفیلڈ
احرام
اڑیسہ
اہلیت
ذاتوں
رعایت
روداد
سیکٹر
صاحبہ
فریاد
پاداش
پرتاپ
کرایہ
کفارہ
حدیثیں
کرسکتی
کھیتوں
William
احساسات
برادران
رینڈولف
نامزدگی
پیکارڈی
انفرادیت
جھارکھنڈ
##47
##AN
##ano
##lin
##ظلہ
##عدم
##فرق
##لوڈ
##ٹیر
تپ
ہض
۱۹
##ians
##سیری
##نٹری
630
Bas
Met
تلخ
سدا
سوگ
پیج
ابود
الدم
الطب
بدلا
بگاڑ
خلوی
کمبر
کیڑے
گنیش
islam
ادیان
بولان
حالاں
سخاوت
قبیلۂ
نوازی
ٹھنڈی
پالتو
google
بھروسا
تاجران
تاشقند
دبستان
متناسب
وادیوں
##ological
افغانوں
ترجمانی
عباسیوں
مالاکنڈ
کائناتی
الیکٹران
##مک
##یق
##ita
##ram
##داس
##شہر
##ینج
ra
فے
##alth
##atch
##hang
##reat
##مراء
Sub
has
ret
بٹھ
بچن
لوں
پرز
چول
ڈری
کنہ
##ption
##uthor
1839
1892
آگہی
اویس
حریت
حواس
مترو
نووی
پینل
چمڑے
کیسا
گریگ
گونج
گھنے
یمنی
یوپی
آخوند
بیہقی
دہندہ
سٹریٹ
فاطمی
لائیں
مغیرہ
منتظر
میمون
پیادہ
کھوسہ
امامیہ
بپتسمہ
کرلیتے
گنگوہی
انگلیوں
بازاروں
ذوالحجہ
ریکارڈز
لڑائیوں
مخلوقات
پروازیں
چودہویں
Muhammad
سہروردیہ
##be
ُ
##els
##متھ
##وسن
##ولڈ
##وٹس
##وپن
گئ
##burg
##ives
##اسکر
##تناب
##حانہ
##علام
##قعدہ
##قیوم
##گراف
362
384
403
Ali
ترن
حجۃ
داؤ
داں
سسر
سچی
طاق
عرق
لیم
موٹ
پیڈ
چلو
چھٹ
گاؤ
##iness
##right
برگز
تماش
جامہ
خالہ
دائم
راجو
ریڑھ
قرأت
مرتے
مسکر
ملیر
چھان
first
اکنام
ایشین
تحریف
روکنا
کروئی
کروسٹ
الحکیم
امدادی
خانپور
لگاتار
مشاورت
موروثی
نیپچون
یورینس
سنکیانگ
December
المصابیح
وائسرائے
کاندھلوی
پریفیکچور
##fi
##ئڈ
##نب
##ًً
##emp
Tw
غی
##file
Jos
Lah
Lat
افق
بوا
تیت
ثقہ
ردی
رفع
موق
##ڑھائی
area
view
ابرا
اثیر
الشہ
بونٹ
خیام
سلور
طوال
لانی
مٹھن
ٹیوب
کارب
کیسی
گالی
ہومی
class
اترنے
اویلر
بتانے
بلقان
بھیرہ
رحجان
زمانی
قسمتی
مریخی
ناصری
ورسٹی
العباس
الکتاب
بستیوں
تاثرات
تصویری
تقاضوں
تھانوی
جیساکہ
شیرانی
عاشورا
مارکسی
مباحثہ
کہلانے
یونائی
British
برلنگٹن
برہمنوں
سیکورٹی
مائیکرو
نیشاپور
کیریبین
گارفیلڈ
نمائندوں
کروسٹوفے
##ھب
##197
##och
##ئیڈ
##جیم
##ظفر
##ونو
##کنز
##کیر
##یڈا
قہ
##achi
##یکٹس
372
378
396
Pat
app
rev
آفی
جسد
لگن
محو
نول
کھٹ
ہون
Shar
برآں
تباد
تحری
ترنم
زبور
سیشن
لداخ
نوشت
چرچا
##ستعمال
بالاد
تبصرے
حقدار
رائٹر
سرائی
سڑکیں
فارسٹ
مصادر
نقاشی
پرورد
کرسٹل
آرٹیکل
متوازن
نعمانی
چمکدار
اخباروں
تہواروں
جارحانہ
ابوالفضل
اسلامیات
ایلسورتھ
عالمگیری
نافرمانی
کیتھیڈرل
ترکمانستان
##ico
##row
##ئنگ
##تین
##طلب
##لاگ
##پنے
پج
گب
##ابلی
##باتی
##ستاد
##مارٹ
##معین
363
376
409
570
Act
Mir
جنج
شرر
لچک
ملح
مکے
پسر
ہور
##ource
##ابیلا
##ٹریال
1867
Mary
برنی
تشری
جنین
خوشن
سیدی
طاقم
قصید
مخزن
منتر
ننجا
کیپر
اثبات
استوا
اوسطا
بناکر
دلایا
سومرو
مائکر
مجازی
میمور
نظارہ
ٹرینی
کھیلی
البلاغ
المؤلف
الوداع
اپنانے
اگستیہ
بحوالہ
راویوں
سواروں
مستفید
نقشبند
پرنسٹن
پنچایت
website
احتجاجی
انگوٹھی
ڈرامائی
ایجوکیشنل
سوئٹزرلینڈ
{
٣
##adi
##ule
##بئی
##دھر
##سٹل
##متن
Ib
##انیر
##تانی
##میلا
331
357
387
Aub
DNA
Hol
Mos
ثلا
حبی
روض
لیہ
پنک
کاؤ
##زٹاؤن
1856
Maur
cell
ازسر
اورا
تکیہ
جائی
ساکن
قانع
مدھو
ملیہ
پیلی
ڈیوک
کاشف
کاٹھ
آسودۂ
انڈسٹ
ایروک
توضیح
تھیلی
سٹوری
شوقین
عرفات
فوقتا
قاموس
قبریں
قطعات
ٹرمین
کمروں
Econom
استعفا
اسکرپٹ
خوبیاں
معائنہ
مفروضہ
کرلیتا
کنگمین
گائیکی
ارتقائی
السلطنت
لدھیانہ
مجتہدین
مطالعات
پہنچانا
فلورایڈا
##oo
##yt
##رج
##erb
##ائص
##زاب
##غار
سي
وخ
##CDCM
##ivil
##جویک
##دریس
364
470
540
Bus
Cor
طاع
پلس
ڈیٹ
##چاریہ
Educ
lgcd
أحمد
البغ
خدشہ
دجلہ
سستی
سندر
سونی
قطبی
لائٹ
ملکر
ٹینس
پریا
پلین
پٹنم
پڑاؤ
UCDCM
افواہ
الحمد
الوقت
بدلتے
بچایا
بھینس
بہمنی
تذکرۃ
جائزے
سرٹیف
سکرپٹ
سیدھی
فوقیت
لکھتی
مارکو
مجنوں
نجاشی
نسلیں
ولندی
پھیپھ
چھاپہ
ڈیوٹی
کافور
اجتناب
بیویاں
جونپور
دشواری
سلسلوں
مبصرین
میتھین
پورٹیج
ابوداؤد
الایمان
بلندیوں
جداگانہ
سفرنامہ
سیڈجویک
پائیدار
آبادکاری
##ald
##alm
##itz
##uch
##تیا
##دیت
##ورپ
we
تذ
سق
##ator
##ghan
##ites
##تاحی
358
dec
mod
آئت
آئن
آنچ
اما
باؤ
ساج
ستہ
سکم
فدا
قزا
قصد
قون
لنک
گشت
گنے
یرم
##erman
##ienne
##لفورڈ
Shah
بوسن
بھوت
تبسم
دوار
دیار
ریجن
سیٹھ
شملہ
عشرہ
عیال
قضیہ
مونت
نچلی
چندی
##ection
Korea
اجناس
اشرفی
البحر
املاک
اکیلا
بندگی
بیراج
بیلار
تقاضا
دعاؤں
دیدار
رزمیہ
رویوں
زيادہ
سونیا
سپورٹ
طبقوں
فیضان
مقننہ
موریا
کرلیا
کشیدہ
##کلومیٹر
ترامیم
زیورات
فیکلٹی
مستنصر
میرٹھی
کنگسٹن
برونائی
مظاہرین
پرتگیزی
آرگنائزیشن
ٔ
##ger
آک
##ères
##شلنڈ
##طالب
##مدار
##ہروں
369
373
408
423
435
850
Ben
Pri
She
Shi
dis
اری
حذف
رمے
عمی
لوب
موم
پاز
گرل
گپت
گیج
##انیان
##تاریخ
1840
1886
Pres
Russ
الحد
انار
خامی
خلوت
دیشی
رباع
سبیل
سورس
سیول
صحاب
طراب
غبار
مورت
ناوا
ڈھول
کائی
کیتھ
آمیزش
الحجہ
الہام
تمثیل
راجیو
رادھا
سامرا
فرینڈ
مراتب
مماثل
مونٹی
نبویہ
کاولی
کھوکھ
کینٹن
ارتریا
ایشلنڈ
بدایوں
شناختی
مینیجر
کالعدم
Laurent
دھماکوں
معاصرین
مویشیوں
کردستان
کلوگرام
کونسلوں
##iterature
ایروکواے
بالواسطہ
آرمینیائی
##II
##غم
##dom
##فیض
##ائدے
##خاری
##نہار
341
359
368
392
632
Ter
its
رزق
لوح
چاپ
چری
چوم
ہمس
##paper
##مالات
##میڈیٹ
##ولینڈ
##یکیشن
1868
Nord
Sept
آرکی
زیوس
صفحے
قامت
پاکر
پھرا
کاٹن
آفیشل
آپصلى
اسکوا
بازوں
جاچکے
جھوٹا
دعوید
راؤنڈ
عمودی
فرنگی
فیڈرل
محسود
مرتکب
مردار
الزمان
بھاگنے
جماعتی
جوانوں
سلطانہ
صنعتیں
عسکریت
قلمبند
کوسٹار
گزارتے
شاہجہان
عمرانیات
##65
##رن
##ila
##kht
##شرم
##فیر
##ژوو
كہ
##chiv
##urch
##اترک
##بعین
##قاتی
##وسٹن
##ٹنگز
##گروں
377
Fre
آرہ
جوہ
حلا
قند
لاڈ
موڈ
ورس
کاف
کٹی
ہود
ہید
High
book
اکھا
حنین
دائی
دلیپ
رکھو
زہرا
سوفٹ
سڈنی
عریض
عیاں
مٹھی
مکئی
نعرے
نواں
نوٹس
گاتے
ہانی
##اطبائی
india
اتارا
اعصاب
تنصیب
جہالت
روبوٹ
سکرین
ویران
وینکو
پرامن
چلاتی
کرغیز
گرینا
گورڈن
ہندکو
اضافیت
باندھا
برنارڈ
بمباری
دوربین
فرمانے
نمبروں
پیداہو
اسپورٹس
رحمانیہ
صلیبیوں
پریمیئر
المؤمنین
پروردگار
Cambridge
##ministrative
##uel
##ابو
##ازن
##داک
##یسٹ
Ou
##lege
##غانی
351
640
Mov
def
سرو
لیڈ
##ility
1845
1861
1864
آہنی
شیٹی
عاجز
غدود
لالچ
مونگ
میگا
ٹیچر
ٹیکن
پارس
پینس
پیٹھ
کنیز
کھنہ
Santa
آفندی
ارونا
اشعری
اندوز
اٹھنے
بولتی
بیروٹ
توفیق
تکامل
حافظہ
حواری
دیپال
زنانہ
لہریں
معرکے
ٹوکیو
پیشتر
پیشین
کمانے
کوئلے
اتاترک
ارسلان
اشرفیہ
مراعات
مریدوں
کاغذات
archive
انٹرٹین
نانپارہ
پراسرار
انٹرمیڈیٹ
##80
##IC
##خو
##هی
##oux
##ئوں
##برد
##بلو
##وسک
##کوف
eb
آٹ
أن
فخ
##ants
##ever
##obal
##نایا
342
Net
تبر
تبع
رمی
مرچ
پاش
پکی
##ences
##کاسٹر
Arch
Midd
Town
ایپل
بریک
بونے
جواں
خواج
روئی
رونق
سائڈ
شعلے
فلمز
فلیٹ
لیٹر
موجب
وہاب
چھیڑ
کبڈی
کتبے
David
Loire
اثاثہ
القضا
المسی
اوریہ
تخریج
شریان
شمشیر
مکالم
میانی
چیانگ
Report
الزماں
اللطیف
الوجود
دیاگیا
صورتیں
نیوکلی
Airport
January
Library
اشرافیہ
ایڈورڈز
بنیادیں
بینکاری
مارہروی
متاثرین
پہنچائی
بالادستی
لدھیانوی
##فۂ
ڑ
##ese
##ئیم
##حصہ
##عید
##لمز
##ویک
##ینۃ
AF
عت
##انسو
##انٹو
##نھوں
##ورفت
##چوان
398
406
424
Sav
خول
داز
دند
سطر
مرع
کنز
1865
آباء
استی
بحار
بلبل
تمیم
توڑا
ثاقب
جھلی
خواں
ستیہ
سگنل
سینگ
شعار
ضابط
فیوض
كتاب
محتا
معدہ
نوید
نگری
گوتھ
ہینڈ
Princ
آوارہ
ابلیس
اساسی
اوستا
جمیکا
حواشی
حیدری
سیکشن
شکلوں
طوالت
متفرق
میٹھا
پھرتے
کشادہ
ہماچل
آٹھواں
اٹھائی
رائٹرز
راجاؤں
رجسٹرڈ
سیکڑوں
شعاعیں
##elopment
Science
ابومسلم
افتتاحی
ایودھیا
خداوندی
مملوکوں
منگیشکر
ابوسفیان
تاتاریوں
سائبیریا
طباطبائی
لیونگسٹن
##EO
##gy
##én
##ami
##ino
##ابا
##دور
##لئے
##ڈنٹ
##یتھ
تث
زچ
##ابیر
##خبری
##ھیوں
343
353
402
415
Ear
آرن
ببر
تجز
خطا
دلت
سمہ
سنے
عیب
مشہ
نمر
ورد
پہر
##aking
##ensus
1830
1869
this
آغوش
بہنے
بیئر
جیتی
روان
سنگل
سیرو
متدا
مورس
مکعب
مہذب
چینگ
ڈھان
ڈیئر
ہردو
یڈمز
##نسٹائن
البیر
المیہ
اندھا
ایلیٹ
بجانے
تولید
ریختہ
زمباب
طاعون
عاشور
مارکی
موہڑہ
پانڈے
کولون
Histor
ایڈمنس
بینائی
سوتیلے
شیدائی
کیرالا
الصحابہ
ایمپائر
لیکچرار
پیغامات
چٹاگانگ
November
language
سیکیورٹی
##fl
##آب
##ضع
##غن
क
##akh
##hid
##ura
##اجر
##روض
##عمل
##لیق
##ینر
##ient
##olar
##ring
##ارٹا
##انگو
##دائے
##مینٹ
610
Abd
Far
Gar
Lar
Wik
دول
شوز
صوت
نہج
کفن
ھوا
##ights
اللو
بدیع
تولی
جرگہ
رہان
سیلز
شارع
فردو
لانس
مدفن
منکر
نوحہ
والم
ٹنڈو
پشین
کرلے
آرامی
ایمیز
برکلے
بہانے
جلانے
دھرتی
ریفری
سونپی
شاہان
مانتا
مصطفے
معتقد
مقتول
کومتے
گائوں
ہٹانے
اسمارٹ
اطلاقی
تنظیمی
حادثات
حدیبیہ
معجزات
نانپار
ہیوسٹن
انارکلی
بیڈفورڈ
نشانیاں
نشریاتی
وینکوور
چودھویں
articles
شماریاتی
کوسٹاریکا
ہدایتکاری
##رٹ
##شع
##حاک
##ستھ
##قاط
##قعد
##ٹرو
##یسے
##یکے
Ob
مك
##صاری
397
III
Moh
Sar
ref
آنگ
انک
اٹل
تاؤ
لٹک
نکہ
ٹوی
ڈیر
##فتگان
##ندھری
1600
pres
المق
باکو
بٹھا
دلیر
دونگ
دیکر
عاقل
عقیق
مہیش
واصل
چوڑا
کنڑا
گوان
ارادت
انڈیپ
تشویش
جھگڑے
شکریہ
قصبوں
ماریا
منادی
پرچار
گزرنا
برادرز
جزیروں
سینیٹر
صاحبان
مدافعت
کلارکس
گردانا
آمدورفت
الإسلام
انٹارکٹ
زمبابوے
عملداری
ہاتھیوں
بوسنیائی
پوٹھوہار
رضاکارانہ
##ll
##va
##aya
##uri
##نڈم
##یفے
##بادی
##رانی
##سوار
##قلیہ
##ماؤت
##ینیس
383
405
425
437
441
620
Hil
Jud
اپو
جزء
جوا
جول
صلا
طیف
لیج
مجذ
مرآ
نہی
ورق
ہبل
1848
aspx
اعتق
اورپ
اکمل
بہتے
تئیں
جھنڈ
رافع
رنگی
رکنی
سوزش
شینا
ظریف
علیا
چلنا
کھڑک
##وناگری
آئتکن
آرڈین
ابرار
بطلیم
تجوید
دلالت
سکالر
سیفیہ
شہداء
صاحبؒ
لوہار
محصور
مدارج
موقوف
کارگل
کھائے
الملوک
امروہہ
تعمیری
رفتاری
سمجھتی
نیوویل
ایمیزون
میموریل
نامیاتی
وکٹوریا
پہاڑیاں
کیتھرین
بیماریاں
دیوناگری
نانپاروی
وزیراعلی
پابندیوں
یونائیٹڈ
موسیقاروں
نمائندگان
##59
##AL
ً
##anj
##eek
##pen
##جمہ
##حدث
##ریش
##سکے
##قدر
##وسے
##ولٹ
##وہن
##ists
##فرما
##لایا
##وروی
##وسلا
##وسکو
393
God
eng
mar
one
آوٹ
اوج
بدخ
بدو
زیت
سیب
میٹ
پرف
##ories
##وکینن
char
ارقم
بھٹک
تقدس
ثقفی
ختنہ
روہی
زہیر
سندی
سیما
فاعل
قرام
لاما
لواز
مشعر
ملٹی
میجی
نشاۃ
نیلم
پروں
چبوت
گھوٹ
الحکم
انساب
بروئے
بندھن
تجزیے
خاران
خدائے
سادھو
عاملہ
قسموں
لوٹنے
لینکس
مسرور
مہنگی
ولادی
گلوبل
Social
آفریدی
الباری
دکانیں
طرابلس
فعلیات
مالدیپ
borough
بیوکینن
جبرائیل
سنجیدگی
میراتھن
گرینویل
یوکرینی
Research
ائیرپورٹ
داستانیں
ایڈمنسٹری
سپرنگفیلڈ
##67
##ois
##الغ
##ستو
##وون
##چند
##کول
Sm
Ét
اژ
##ucle
##vent
##فاقت
##والے
##کرمہ
399
417
419
445
560
att
احص
بلق
ترا
تھک
دہے
شبن
لیز
ممد
نتھ
چاب
ڈول
کیک
##اکھنڈ
1818
cons
آویز
آڈیو
اگنی
بھجن
جاؤں
جرنی
دولہ
ردیف
سباق
سٹیم
عملا
فائی
مذکر
ملائ
ہیرس
اجرام
احرار
تاویل
جامعۃ
جوڑنے
حشرات
رچمنڈ
زخموں
سوچنے
سہارے
لاحقہ
ماجدہ
ماریہ
متناس
محافل
نیلسن
وقائع
چوپڑا
ڈھالا
انچارج
دیوانہ
رامپور
محفلوں
ناکارہ
پھوپھی
چینائی
ہستیوں
آبادیاں
الانساب
بمقابلہ
البیرونی
پیراگوئے
اٹھارہویں
Government
##68
##69
##ps
##مش
##iqu
##las
##ner
##افر
##فان
##ھیم
##یون
یگ
۲۰
##berg
##etry
##انیے
##وراس
388
401
438
444
463
589
656
680
Des
Pop
Sea
Ser
Sup
اجر
ثبت
رشک
معط
چاو
کمک
##ament
##ledge
##ڑھیاں
1875
spec
ارضی
اڑنے
تراک
جیکی
خمیر
دروس
شکتی
فراق
فیضی
لابی
لمحے
مطیع
ملٹن
نجار
چئیر
گروں
اجارہ
برہمو
تذکرے
خطبات
ذخیرے
زبیدہ
شیروں
فقدان
مظہری
وراثی
کورین
کوٹلہ
گمنام
یوسفی
الازہر
تفاسیر
ساتواں
سریانی
شہدائے
ٹرمینل
ٹیکسلا
گستاخی
ہندوکش
Georges
یادداشت
##mir
##ora
##اسٹ
##شیخ
##لیب
##کوہ
ir
قذ
##agar
##وارے
##چینگ
##گانی
374
481
486
530
661
Ann
Rad
but
dev
تڑپ
صال
فرح
نوز
نیش
چیس
ہرش
1853
name
ابجد
باتھ
بیاں
جاسم
جوگی
خوری
دروز
راجک
سنجے
مراج
مروت
ناری
ویلو
پڑیں
پیلے
##ricket
Award
First
آرکٹک
بلاغت
بیچنے
ریپبل
زاویے
غوثیہ
قصائد
لیڈیا
محتاط
مزاری
ملحوظ
پریزی
پیالہ
Lahore
entity
الہامی
بیٹھتے
روسیوں
طاقتیں
مالکان
میٹریا
##ttlement
افلاطون
زندگیوں
لیونارڈ
معاہدوں
کاشمیری
آئنسٹائن
اتراکھنڈ
##ographical
administrative
##kr
##لي
##بھر
##صاص
##نیم
حش
صہ
##agne
##news
##ourt
##ارسی
##انتی
##شیری
##مسلم
##یالی
##ینیم
##ینیو
433
436
490
Bah
Lam
fac
توں
جنڈ
طوط
ماش
ودھ
ہمع
##adesh
1846
1872
اونی
جزیہ
دیوس
رونے
سالٹ
فاون
مالے
مانع
ٹوبہ
پسپا
پونہ
چندہ
ڈکشن
کفیل
کلاب
کڑپہ
کینز
گریہ
گھوش
##cessed
##وہریرہ
Afric
ایپلی
برسات
جاتیں
جارہا
جبوتی
رہاہے
صندوق
قریظہ
لگاتا
مرکزہ
مصالح
ملفوظ
ٹھہرا
چلائے
چلاتا
کارنر
کمرشل
کوئلہ
کوالا
کیمرے
گوبند
ہولمز
ہیلتھ
Modern
Robert
ابوعبد
اشاعتی
الحفاظ
المقال
انہدام
تہرانی
راجوری
سرینگر
ماڈلنگ
موقعوں
میکوپن
ناواقف
نظامات
ویبسٹر
یورپین
برائیوں
بیجاپور
خوشخبری
عبدالحق
پہنچائے
گوالیار
ابوہریرہ
نیوٹرینو
##اه
##ago
##aze
##irc
##ذری
##وگا
##duct
##لویہ
##ڈنسی
361
389
413
416
448
App
Div
Hen
acc
edu
آند
بیض
خلل
رضي
سلہ
سوپ
سيد
عجب
غرق
فرغ
مدھ
ٹکن
پوج
ڈاج
ژوب
کرب
گرج
##aedia
##انہوں
##وڈنٹس
Park
اخون
بشرط
جوزی
خستہ
دجال
روما
سٹیٹ
شبنم
طغرل
غلاف
لائم
لاتی
لوار
مسلط
میپل
نرگس
وعدے
پیتے
کانا
کاکا
کھوپ
کیلا
گرتی
ابوعب
ایکٹر
بالات
بوائز
توپوں
جیانگ
دھیرے
رضاعت
زرتشت
سائٹس
شرافت
صفوان
میٹھے
نائیک
والنہ
وولگا
پارکر
پریشر
کلائی
گوارا
ہسٹری
Afghan
ازدواج
برنولی
درمیاں
دکانوں
لیکچرر
ملیشیا
میڈیکا
نقادوں
نمونوں
ٹریکٹر
پرتھوی
چینیوں
کافروں
کانگرس
آسمانوں
التفسیر
التہذیب
امیرالم
اکیسویں
بیکانیر
جواہرات
عنوانات
ماورائے
پاکیزگی
پرائیوٹ
پسندانہ
گندھارا
ایجنسیوں
ہارٹفورڈ
Institute
ائیرلائنز
فرانسیسیوں
territorial
##br
##جز
##عف
##bar
##خور
##صام
##فیس
##قیح
##قیر
##موم
##میا
##پاس
Ca
Lé
My
آو
آڈ
##ling
##الرح
##عقیل
##یروں
442
476
499
508
Bel
Jer
Red
mov
فہد
لیث
موئ
وزر
ٹکس
پوٹ
کلف
یول
##اندلی
##ورائی
Just
Pont
آذری
الاض
الکو
جوتے
روشے
صدور
صعوب
نالہ
ڈنڈی
ابھار
اسباق
الخیر
الصمد
بیبرس
تلخیص
رباعی
رفاقت
سٹارک
صراحت
فرانش
لامتن
مالیہ
مانگا
مکتبۃ
مینگل
پاروں
کردوں
کیجئے
ہائٹس
##onomous
اماموں
ایمسٹر
برابری
تدابیر
شیئرڈن
وولٹیج
ٹانگوں
پادشاہ
کلیمنٹ
گھومتے
ہوائیں
content
جونپوری
ریفرنڈم
صوبیدار
قاتلانہ
لاگرتھم
مقبوضات
کیمسٹری
Language
الخوارزم
ایئرپورٹ
##53
′
##ids
##iet
##امو
##درک
##کور
To
UN
زو
وگ
گٹ
##wood
##ئینز
##لسلہ
##لفاء
##کریم
##یکشن
394
404
422
469
485
510
555
634
Les
أبي
حزم
حفص
رتھ
مبہ
میث
میخ
ولو
ووس
گدھ
گوش
ہضم
1300
1859
1871
Bang
Cour
Vill
آفات
اولڈ
برقع
تعدی
جبیر
دقیق
زمزم
شیوا
غرور
لینس
مارگ
ورما
پتنگ
ڈینی
یوگا
River
آفاقی
اسٹیل
اندور
تابوت
تکریم
دعائے
دہانہ
سعیدی
سنبھل
عساکر
فصاحت
مانچو
متعدی
نمکین
وجاہت
ولیمز
ٹارزن
پڑتال
گلیوں
گمشدہ
ہیکٹر
System
ebooks
آرائیں
بادلوں
حالتوں
ریستور
عبدالغ
موسموں
ناکافی
نمازوں
چاندنی
کیساتھ
گمراہی
ہیوران
استوائی
اولادیں
محمدصلى
ووڈلینڈ
چارینتے
ڈھونڈنے
نوآبادیاتی
##ET
##مۃ
##ele
##iev
##rol
##ror
##اسر
##جار
##رہم
##عیہ
##غور
##فرٹ
##وضے
Sl
##ices
##ista
##osis
##ومیہ
382
411
421
447
455
456
525
590
اکا
ثور
جزا
حیو
خطۂ
عند
قصی
مغز
چمپ
##Names
##نگہیم
Camp
From
orig
آسکر
ارجم
اسید
انتھ
انشا
بابت
براؤ
بونڈ
تبوک
تعطی
جناز
جوہی
حسنہ
سوپر
قتال
وزرا
پرکھ
پینا
چھڑی
کیفی
گھٹن
##نیوائے
احناف
امینی
تقابل
جراحی
حسینہ
دازور
دراوڑ
روپیے
سارنگ
فیلکس
مافوق
مہنگا
مہینا
پومیر
چھاپے
کنہیا
کینڈی
گرافی
ہزاری
Empire
ارتکاب
المسیح
باورچی
بٹھایا
دریائی
ماوراء
مصالحت
مناجات
پروانس
کروانا
ہیمپٹن
امروہوی
بطلیموس
سمجھانے
میلفورڈ
نوجوانی
کارکنان
ٹیکسٹائل
ڈومینیکن
الینیوائے
Britannica
##da
##ki
##یۡ
##het
##ior
AC
Mc
es
صب
##ries
##لانت
##کنڈہ
452
478
551
660
Inc
Roy
Sab
met
ارو
تلک
حضر
منم
مٹا
وصی
ٹھی
چاڈ
کوب
کوز
کیڈ
ہاٹ
ہست
##ather
##azine
1866
Turk
اوڈی
اوڑھ
تناز
ثریا
رائس
سٹیل
شعلہ
مانک
مطہر
ناقد
نزار
پلای
پٹری
ڈومی
کبار
کہلو
ہشتم
Daily
Study
آلودہ
اسفار
اسٹور
انگور
بوائے
دانشم
عبیدہ
لونڈی
مشغلہ
ملامت
نائجر
نواسے
کانٹے
کراتے
##adition
الائنس
الشیعہ
امبیکا
تکالیف
جوائنٹ
دیوانی
فرغانہ
منصفین
پہنچیں
چوٹیوں
کرسکتا
کشتیوں
گوریلا
country
اعلامیہ
ملفوظات
Published
##bc
##يو
##یۂ
##day
##kar
##uan
##ئون
##فرہ
##لیث
##وزن
##چھی
##گیس
##ھال
##book
##iang
##اباد
##ثانی
##ستاں
##فتگی
##لوار
##وامی
407
454
466
549
ext
آدی
خاق
ذلت
رحی
رگڑ
زائ
سوت
سگے
عزی
لذت
واک
وقع
##گرامی
1700
Aust
type
اسلح
اننت
تحفے
سنتا
شیبہ
عشرت
فریڈ
قبطی
قریہ
مرقس
مقرب
مورا
نسیج
وابی
ورڈی
وغیر
ڈارک
کامی
ہونٹ
Elect
House
James
اثناء
ارغون
اسپیس
اعیان
العمل
الغیب
بصارت
بھوشن
ترخان
توجیہ
دیانت
قتادہ
لگادی
مرحمت
مہارا
چھولس
کمپوز
گفتار
اسکولی
الجبرا
الستار
تاجدار
تقابلی
سکوشیا
قینٹین
لیڈروں
کردیتی
یاداشت
یعقوبی
البدایہ
الحسینی
ایجادات
تعطیلات
نوادرات
ولندیزی
پروازوں
Wisconsi
امریکیوں
ایمرجنسی
جالندھری
مسلمانان
کلیولینڈ
Education
برقناطیسی
##uv
##طح
##ein
##ida
##ini
##uil
##ush
##اني
##ذول
##روی
##قود
##ورک
##کھڑ
Fr
ھر
##zaff
##ائلڈ
##اماس
##دیوں
##لمند
428
458
512
625
Ast
Ber
Bre
Bur
Dem
Reg
lès
man
آسی
بہہ
تها
سنو
لہو
مئو
نوو
پرے
ہیو
##niola
1844
1862
writ
ادبا
العم
برتر
بہرہ
رسید
ریال
شانگ
فورک
موچی
نرمی
نہاد
وولٹ
پورس
پولش
چارے
گدھے
گودا
گوپی
ہومز
اسقاط
افیون
بیٹھی
تواتر
جھوٹی
ذیابی
شیکھر
طالبع
طہارت
مجذوب
میراں
ڈالتا
ارجمند
المہدی
بارشوں
برگنڈی
بینکنگ
حکمراں
شعاعوں
غلطیوں
فردوسی
نکالنا
پیمائی
کارلٹن
المنتصر
المنصور
بیلاروس
تعزیرات
تیاریاں
صاحبزاد
مجرمانہ
مضافاتی
ٹھہرایا
پھیلایا
گھرانوں
##roduction
Carniola
برادریوں
فارمنگٹن
پابندیاں
انجینئرنگ
عبدالرشید
کلیئرواٹر
پاکستانیوں
##uj
##ied
##ilm
##بون
##نزی
##وبل
##وتو
##ٹیز
##گنا
uk
دخ
##cept
##ould
##over
##ysis
##سرار
386
418
427
465
468
507
575
Ham
Not
doc
اوی
بھڑ
حیا
خطی
ناہ
گائ
گھم
ہاب
##بہانی
##گیاہے
Serv
life
were
آشرم
آموز
اجیت
العل
امیت
اٹھی
بخشش
بیتھ
بیسٹ
خدام
رطوب
رقیہ
سرجن
سٹاک
صغری
لورا
ماند
مسود
مقتل
مقدر
نسبی
ٹوری
ٹولی
ڈیور
کڈپہ
کیپی
ہیبت
جمیعت
حکایت
متروک
متھرا
ملتوی
مندرج
منزلت
نگراں
ٹائٹل
ٹھٹھہ
پرائز
پلانے
کرتیں
کفایت
کوانٹ
اشتعال
الکرام
براہمن
بستیاں
خودکار
دیباچہ
سرینام
محکموں
مفاہیم
ویکسین
ڈگریاں
کورنگی
استنباط
العقیدہ
انٹاریو
سہولتیں
معاشروں
دیپالپور
راہنمائی
شاہراہوں
لامتناہی
ٹکنالوجی
wikipedia
الاسلامیہ
##42
##fo
##wa
##حو
##ضد
##oph
##rie
##ثوں
##درن
##روق
##علا
Ba
gl
تط
##vers
##المع
##حسین
##رسول
##غازی
##ویوں
##ٹووڈ
##یتسا
464
Bab
Bon
COM
Imp
Lac
Wal
cap
law
mag
آرو
ایز
تیغ
ثنا
ضرر
نوت
ٹوم
##ebook
##زمبیق
##سٹریٹ
##صطلاح
##میڈیا
ایمب
ایوی
ایٹن
بارک
باہو
بھنگ
روزی
سنہا
سوتے
شکنی
طراز
فلپس
فیچر
معلق
نیست
ٹیبل
پینٹ
چیمہ
ڈائم
کیرن
##lation
##لحکومت
Haute
Organ
ارورا
الدار
جاناں
جلسوں
راہیں
زیدان
عبادہ
فائدے
مادوں
مسکین
نوٹوں
گذرنے
گلابی
یوکون
Julien
بکریاں
دیکھتی
متناسق
مجرموں
موریسن
گرافٹن
Statist
اندازوں
دعویدار
سرکردگی
سیڑھیاں
موزمبیق
ڈیزائنر
ہینڈرسن
آبادیاتی
مانٹریال
##AD
##AS
##نش
##ہہ
·
##ipp
##ira
##jan
##rew
##uck
##wal
##ءسے
##بیع
##جیا
##جیح
##راث
##شمس
##عود
##ومہ
##پنج
##پٹن
Ak
آڑ
سح
##atic
##ebec
##iers
##khta
##uter
##اپنی
429
484
493
545
670
960
975
mus
sup
you
آٹا
اکر
خدو
ربع
شيخ
مزہ
مکس
ونچ
کلک
گوگ
##amily
##انیکا
##گرافر
1837
1854
Dawn
Rich
اعضا
بریڈ
بلخی
جودھ
زنگی
ستیا
شارک
ضحاک
عکاس
فواد
مدون
مستث
ناپا
وقاص
پراک
پروہ
پیسی
چارس
کرائ
کوسم
گردے
گوشے
ہاوس
ہوٹی
##argarh
##باسٹیڈ
Human
ادویہ
اسلاف
اعراب
جھکاؤ
دھوبی
طنزیہ
قصیدے
مغلوب
منابع
ٹھنڈے
پیشرو
چڑھنے
کرسکا
اردشیر
دینیات
زمانوں
سٹئینز
علانیہ
مارسیل
نمازیں
کرمانی
گارڈنر
البخاری
الخلفاء
بالاکوٹ
ذیابیطس
سیمینار
ابوحنیفہ
اشتراکیت
صلاحیتیں
لاباسٹیڈ
کمبرلینڈ
کمپیوٹنگ
Christian
Publishers
Publishing
##AT
##ua
##يك
##یص
##ove
##بیط
##بیو
##تلا
##سکا
##عیت
##پیر
##ڈوس
##ourg
##pect
##ruct
##العہ
##یناس
497
Gul
Nor
Sud
can
cat
بدم
زان
عون
فول
مجت
مہی
پدر
پلہ
پمپ
##فیکشن
##یاتھا
1400
1834
1873
4000
Peru
also
over
sing
wiki
ارون
اسعد
اشتہ
اورح
بران
بہشت
تارڑ
تہجد
خلعت
داہر
دراو
سوئے
سہگل
شگاف
عظام
فاری
نگیں
پھاڑ
کنال
کنکر
گونڈ
گوکہ
ہنزہ
ہونڈ
Grand
after
آبدوز
بارڈر
بالٹی
بھرنے
جانتی
جھرمٹ
ریکٹر
سرکشی
سگریٹ
صقلیہ
قزوین
متمکن
محوری
مشتبہ
مشکوک
مفقود
نظارے
نغموں
نمٹنے
پریشد
پھونک
کنیسہ
کیمرا
گواتی
گھیرا
ہمعصر
##ورسائیڈ
Google
الخالق
الناشر
الہیات
اونٹنی
براؤزر
برکاتی
بنالیا
جادوگر
رسولوں
ریڈووڈ
شیبانی
عنقریب
لٹریچر
مستونگ
مفکرین
موٹروے
Tribune
اوکسفرڈ
اپوزیشن
اینڈریو
باآسانی
جانشینی
رومانیت
سکیورٹی
عدالتیں
مظاہروں
منافقین
منصفانہ
چھترپتی
کارخانہ
Township
ایمسٹرڈیم
دارلحکومت
گواتیمالا
کارروائیاں
##56
##غز
##ize
##pos
##برڈ
##نیے
##وتے
##پسن
##یمت
AA
my
شش
فش
نذ
##ones
##spot
##امام
##نڈیل
##یکاٹ
434
459
494
495
516
518
534
544
552
584
Fed
Sau
Vir
pop
تزک
جدل
حیض
درگ
سجد
سوق
ویش
##uzaff
##ریبزم
1843
Flor
المو
بسمل
بوئی
جاہل
حفظہ
دباو
رجعت
رودر
شائد
ضامن
طاؤس
لٹکا
معرض
مکھر
نینو
وزنی
ٹیلے
چیپل
کثیف
کرین
کلید
گوجر
About
Champ
ابھرے
اترتے
السیر
الصلو
انبوہ
ایمیٹ
ایڈون
بحیرۂ
بلیئر
جبران
خریدے
خیرات
شاداب
فولاد
قونصل
مبذول
مصرعے
منافق
نوشیر
نہروں
نہریں
پستول
ڈوگرہ
کرچکی
Review
rekhta
ارتعاش
الواحد
اینڈرو
بعنوان
تبریزی
دانستہ
راجندر
سزائیں
قرامطہ
چھلانگ
ڈکشنری
کاشانی
اساطیری
اٹلانٹا
لاگرینج
نگہداشت
خیرآبادی
رورسائیڈ
عبیداللہ
فاونڈیشن
پلایماؤت
پیٹرزبرگ
وینیزویلا
Autonomous
لائبریریبزم
##OR
##ols
##جیل
##دیس
##ساط
##عیم
##نگس
##وکس
##ویڈ
##گرے
Ré
tw
زہ
پپ
##sych
##اموں
##جیئن
##راور
##فران
##فیصد
##قدین
##کنار
##یران
446
597
786
870
911
940
Pak
min
اجے
بیز
تفا
ثمر
جائ
جلے
جہل
حرک
دقت
راح
سمو
صبا
قصص
پتن
##ating
##میلین
##ومدار
1863
work
اشبی
الاق
تلسی
دیدہ
زچگی
سائر
ساون
فقرے
لوری
مارس
محبو
مصرع
معلی
منشا
موٹا
مہلت
واصف
ویاس
کندھ
کولا
کھمب
##action
Great
اجازہ
اکیتا
جنسیت
ریڈار
سانتو
سہیلی
شرکاء
علیہا
فشانی
فلوئڈ
فنانس
مصدقہ
مغفرت
مولود
میڈیم
پتھری
ڈالنا
ڈالیں
کرگئے
کمایا
کٹائی
کھڑکی
German
states
اسپیشل
الحديث
الوطنی
ریویرے
زمینیں
شیطانی
لاپورٹ
مکھرجی
چارسدہ
ڈائمنڈ
کاروان
گروندے
گلیشیر
ہوجانا
Hilaire
البانوی
برگزیدہ
رومانٹک
شاہجہاں
صوفیائے
لینگویج
مینجمنٹ
پھینکنے
یوگوسلا
##ification
انڈیپینڈ
معلوماتی
ڈیئرفیلڈ
September
##uzaffargarh
انٹرٹینمنٹ
##by
##ée
##ذن
##نى
##ats
##hou
##آئی
##جنس
##سون
##نار
##وقت
##وٹہ
##ڈاڈ
Ol
Ta
##ness
##برگہ
##بیاء
##لمون
##وترا
##ٹریہ
580
587
659
830
See
بسط
حمص
زیل
صلہ
صنم
فوڈ
لیٹ
مچل
نمو
وند
ٹوپ
پرن
گزٹ
ہوٹ
یثر
یرغ
Lake
Thom
آپکو
ایڈو
بانڈ
بوسہ
بونی
حبان
حقیق
دیال
فاصل
فوکس
لامہ
لیزر
مبہم
معدے
ملحد
نشتر
کسری
ہیٹی
##جولائی
pages
rural
آجاتے
ابھری
البلد
الفكر
باخبر
تصریح
جینوا
دقیقہ
ریمنڈ
زیتون
سطحوں
شرانت
فریڈم
قتیبہ
لاپتہ
معذرت
میگنی
ناپاک
ٹیکسی
پاؤنڈ
پواتو
کارلو
گولڑہ
ابراہی
اسٹوری
الناصر
اٹاسکا
اچاریہ
بنوائی
سرمایا
شائستہ
شکایات
لحمیات
پانیوں
کھانسی
کھانوں
Muslims
Website
المعتصم
انفیکشن
ایشیائے
بائیکاٹ
سینیگال
عجائبات
لیکسنگٹن
Biography
الیکٹرانک
انقلابیوں
##pr
##The
##ony
##تاس
##جون
##کشا
##امیر
##دادا
##شتمل
##صاحب
##نفین
##وانس
##وقار
432
439
479
498
506
524
543
567
585
586
Den
Has
تصو
تعل
جگت
ربا
سہن
شیڈ
ضعف
ظرف
غلا
وشو
ڈاگ
ہرے
##ارتھی
##انوسی
##قولات
آئرس
ادنی
اسپر
امنی
اوون
بنسی
بیلو
تیان
ججوں
سرکش
شیشہ
عاری
فرنی
قرات
مدبر
معرک
مفرد
نبھا
پوشی
چرچل
چناں
کھنچ
گرون
##ington
group
other
ادرنہ
الفتح
اولیا
ایڈگر
بروقت
بورین
بچیوں
تاوان
تصحیح
حوصلے
روائی
ریڈنگ
سیمنٹ
فسانہ
قالین
قلمرو
قوتیں
لبریز
مجروح
مراسم
مہروں
نیابت
پانڈو
پیٹرو
کالاش
کیمبل
کینڈل
یزیدی
یلغار
اتالیق
اجمیری
الکافی
الکامل
بختیار
برونڈی
حمایتی
رپورٹر
مانگنے
مجبوری
واسطوں
پانچوں
کشتیاں
کہلائی
اللہصلى
براہوئی
تعیناتی
ریگستان
قسطنطین
ملبوسات
مورتیاں
والہانہ
پیرزادہ
گریگوری
اجتماعات
ولادیمیر
ہونڈوراس
بندرگاہوں
ویکیمیڈیا
government
ابوعبداللہ
##AC
##EN
##td
##صح
##هد
##ike
##ney
##oor
##بوی
##ڈیٹ
Di
IN
Mé
fe
so
نٹ
ٹس
یں
##ador
##edom
##ival
##ائنی
##بیلہ
##لوال
##یتھی
##ینگز
414
527
712
820
860
Eth
Mil
bot
اوگ
بنف
توت
شاک
غنم
مسح
ہجر
یوج
##epend
1819
Bois
انوش
برائ
برحق
بعثت
بوٹی
تندر
جوڈی
دوام
رابع
سنٹی
قالب
قیوم
مصحف
منگو
نالے
وڈیو
پانا
پوٹا
پکڑے
کورش
گھڑت
ہڑپہ
Louis
آمریت
ابھرا
امراؤ
انرجی
باسکٹ
بھاشا
بیانی
جدائی
حجازی
درستی
روپئے
سائیٹ
شرعیہ
شعوری
فقہیہ
قابیل
قدروں
مائیں
مجوسی
ناروی
ناظرہ
نصابی
پاؤلو
پرجوش
چنیوٹ
کماری
کوٹری
یمامہ
Global
الحلیم
اڑھائی
بھیجتے
خطابات
راماین
شریفین
مالدار
محبوبہ
نجکاری
پروانہ
پہنایا
گہوارہ
Company
General
Étienne
راشٹریہ
شہزادوں
مہاراجہ
کولومبے
گرینووڈ
اکبرآبادی
Literature
Information
Encyclopaedia
##ID
##mi
##ئٹ
##غا
##leg
##oma
##ءکے
##دیم
##صدر
##قدم
##کرز
Hu
sm
ہپ
##ique
##oman
##ster
##ئیات
##ایات
##عانی
##ورام
##ولود
457
461
536
591
673
780
Lag
Ori
Roc
bbc
car
sch
val
اوت
سبط
سکن
نشے
ٹھا
کٹر
Tour
call
stud
اسکے
الور
اندو
باال
برخا
بروس
بشری
بوسی
بونا
بکھی
تجسس
توصی
تھلگ
حماس
دھمک
زماں
صریح
عطرے
مدعی
مرآۃ
مچھر
میسی
مینس
نیزہ
ورکس
چتور
کمبل
کوڑا
##ستیعاب
André
Black
برسٹل
تھانے
حاضرہ
خانیت
دواؤں
دھڑکن
زمروں
قدامہ
مارنا
مجتبی
مستقر
مستوی
نادرہ
وراثے
پٹھوں
چائلڈ
چینلز
کلہوڑ
گوجری
گوشین
گیلری
Associ
people
اسٹڈیز
الدنیا
بآسانی
روسیون
شاپیئن
شعرائے
قیمتیں
مستشرق
معتزلہ
پاروتی
چیرمین
ہارمنی
Culture
Karachi
آرڈیننس
الاخبار
العلمیہ
اندھیرے
لانگداک
مہارانی
blogspot
ابراہیمی
ویرمیلین
کانفرنسوں
settlement
##ؤا
##خش
##دک
##غۃ
##لث
##aug
##ody
##oon
##ارم
##درا
##راڈ
##رنگ
##نیٹ
##کوپ
PD
TH
TR
جي
وأ
وط
##epal
##usal
##ween
##ارام
##امعہ
##تھمے
##خانے
##رافت
##شتری
##واڑی
##وبلی
##کوئی
426
467
557
577
613
622
639
Acc
Dar
Dom
Gir
Sim
Ukr
bec
اھل
بای
برب
دفع
ناٹ
پرگ
چھن
گین
ہیز
##ister
##امیان
##ولوجی
1707
1820
1831
2500
Marc
Miss
Sind
dawn
play
آسیہ
اداس
البح
الزا
ایضا
بابی
بینن
تانگ
جبار
جرأت
خاتم
رسوا
سٹور
غافل
فتنے
فنڈز
قدسی
مرتد
والن
وولف
ٹاٹا
پگڑی
چوہے
ڈوور
گروس
ہواب
ہیزل
##ertain
Asian
استرا
اسلحے
الحئی
بابلی
تاروں
جابجا
دوروں
دھونے
دہانے
سنسنی
عشریہ
لڑکپن
منقبت
وصولی
گوئٹے
ہوشنگ
یوکوہ
اختبار
اسمعیل
الصحاب
باکمال
سپلائی
شیرمین
ممالیہ
مومنین
گزینوں
گھومنے
##anguages
ابوطالب
ارکنساس
بغاوتوں
صومالیہ
قادیانی
مریتھمے
میناروں
والسلام
GeoNames
دارومدار
عبدالکریم
##89
##WN
##di
##eh
##ts
۳
##dia
##wan
##ئرز
##الد
##امے
##ثال
##جوج
##جید
##زدہ
##طیس
##لیک
##وفر
##وچی
##پین
sa
قے
##ense
##ison
##raph
##ستین
##لانی
##وتھی
##یرین
483
602
711
810
892
950
Kal
Var
آشا
جرح
جمر
سکڑ
صلو
قبا
قمہ
قنا
موز
ڈسپ
کزن
ہنی
یاس
##illon
##irect
##تفسیر
##کشمیر
1411
1826
priv
ءمیں
آبرن
المذ
اکشے
بسنت
بہتی
بینگ
توکل
جنات
جھنج
دیود
راٹھ
لیلہ
ماتھ
متعہ
محال
مسقط
مگرم
وجہہ
چیچک
کنفی
یثرب
##etween
Moroc
Women
state
آرنلڈ
اسکین
اعانت
بتانا
تعطیل
تلمود
توریت
تیرتھ
ثنائی
حائری
خضدار
دسواں
دھوکے
روپوش
لکینگ
محمول
وفائی
چندرا
کارگو
کیانی
گریٹر
ہاسٹل
##ultural
انڈمان
بالاخر
سالئین
مطالبے
نانجنگ
نذرانہ
نگاہوں
کیااور
کیلگری
ہلزڈیل
ہومیوپ
ہیدونگ
##chnology
اختیاری
استونیا
اشبیلیہ
انطاکیہ
ایڈمنٹن
دستیابی
مزاحمتی
معمولات
پاسداری
کوریائی
یوسفزئی
البغدادی
المناجیح
ملاقاتیں
ٹرینیڈاڈ
پھیپھڑوں
یوکوہاما
##55
##pk
##ئا
##سد
##vel
##ône
##عیس
##فتی
##قوس
##لمے
##نجو
##ووی
##ٹیہ
##ider
##اہوں
##شویک
##شیرہ
##عیاہ
##فینگ
##وبیا
##ونٹی
453
491
509
542
840
Anc
Sir
bib
بنہ
حبش
ذکی
عاط
عرش
منچ
نقر
ٹوک
پاگ
ڈیڈ
گوڈ
یوہ
##acter
##erson
##ائیات
##کیمون
kill
site
آمنہ
آپکا
اقصی
انتی
بستہ
بچھا
تضاد
جمعی
دانا
رفقا
سوئز
سینڈ
شارح
شارق
لالی
مرسی
والس
وجیہ
ووٹر
ویسا
ٹھنڈ
ڈسکہ
کوڑے
گبسن
##andard
آرکیٹ
الفطر
اوزون
بستری
بوہرہ
جالوت
خانان
راہول
رقاصہ
سائیڈ
سازوں
سجایا
طالبہ
قصبات
معترف
میکین
نیوکل
پورٹر
چشموں
چلانا
کاغان
کرچکا
کندھے
گائیڈ
گھیرے
##fecture
آلبیون
آوازوں
اتارنے
استثنا
افرادی
القیوم
بھٹائی
بیانیہ
جنجوعہ
خوابوں
روزویل
رینویل
سوانحی
سپارٹا
سکھانے
سیارچہ
طبعیات
لبنانی
معذوری
موسوعہ
نکالتے
نگہبان
ٹرینیں
پھینکا
کرواتے
کیرالہ
گولیوں
Islands
امیتابھ
جینینگز
خواجگان
خوارزمی
طالبعلم
لڑائیاں
مجسٹریٹ
معصومین
ویلنگٹن
پوکیمون
ہنٹنگٹن
Maryland
فنکارانہ
قائداعظم
نائٹروجن
پرفارمنس
ائیرپورٹس
اینڈروئیڈ
پینسلوانیا
##go
##ئں
##aff
##iff
##osp
##urs
##بیز
##داف
##شیل
##فتح
##وؤں
##وجل
##يٴی
##کشش
##کوا
Er
em
##ized
##اریا
##بورو
##مارچ
##نڈنٹ
##نگان
##کاکی
475
532
593
604
683
740
980
Don
Leg
Tal
der
اسر
تعی
دوش
ديا
صور
عظم
واڈ
چلہ
گوی
Long
آلود
استر
الکر
ایست
بساط
تابش
جلنے
جولی
جینے
حمام
رادھ
راہد
زمين
سمیٹ
سویا
سیلف
شیام
صباح
فونی
قنوج
لائل
لوسی
لیوا
مائن
مقلہ
پذیر
چپکے
چیچن
کریٹ
کشتہ
کلبی
کنڈی
گولن
Inter
آصفیہ
اقساط
الادب
الاصل
اہرام
بھومی
جنازے
رابعہ
رسیدہ
ریشمی
سبحان
سرجری
فدائی
متوکل
مہران
مہندر
ٹکراؤ
چاہنے
کھولے
گیانا
گیسوں
احتساب
ارضیات
الجبار
الخطاب
الفریڈ
انگولا
بازاری
باشندہ
بہاماس
تجریدی
جزئیات
دیرینہ
دیواری
سرداری
سرمائی
سیلواں
شہریار
طبرانی
متصادم
مراٹھا
مشاعرے
مصریوں
معالجہ
مڈلینڈ
نالیوں
ٹرانزٹ
پھیلتا
کیمیکل
Cricket
استقامت
البلاغہ
شکارپور
صیہونیت
عبدالله
مطبوعات
معتقدین
نارووال
ہندستان
##oundation
Official
Religion
اقبالیات
بھوجپوری
جانشینوں
لائبیریا
مواصلاتی
پیداہوئے
##TC
##كا
##وۡ
##asc
##hat
##ieu
##اتل
##دہا
##طرت
##مئی
##ماز
##گیہ
##یاک
ib
شه
##illy
##ords
##uran
##ائیے
##امان
##لاکھ
##لوکی
##پورم
##کیول
449
489
603
609
638
699
718
815
Arg
Bra
Che
Nic
آبر
آمی
اگو
بچت
ریف
مدی
نضر
وتع
پوم
چہل
ہمر
##ainst
##ولیشن
##ڈونیا
Cong
استخ
اشتغ
الحک
الفو
انچی
ایرک
بیدی
بیشک
تدبر
تھان
ذلیل
رونا
سٹون
سیزر
شنید
طلعت
فارن
قمیض
مدتی
معیت
مکھڈ
میگن
نشیب
نیلو
وفود
وہیل
ٹونی
پربت
پرسک
پوزی
پونڈ
چاقو
کلور
گاہے
ہیلن
##uthors
الجبر
ایدھی
بھجوا
تخصیص
جوناگ
خاقان
دفعات
سامنت
سنانے
سونگھ
شبہات
صوابی
ظرافت
عشقیہ
لاشیں
مدرسۃ
مستحب
مشتعل
مقتدر
پرکشش
پیسوں
کازان
کبوتر
کمھار
کھاتہ
کیجیے
کیوجہ
##القادری
Academ
Joseph
اثاثوں
الحافظ
تمھارے
رودبار
فاتحین
مبادلہ
مبلغین
محاورے
منزلوں
Morocco
اصطلاحی
انسولین
رباعیات
معیارات
پہنچاتے
بالٹیمور
میکانیات
ڈومینیکا
یورینیئم
امبیکاپور
##41
##str
##ادق
##صلی
##فیٹ
##پنگ
Us
کؤ
##aska
##ente
##itle
##onia
##ream
##جہتی
##ملین
##واسی
##کلام
451
471
473
505
519
598
631
642
720
726
760
880
CEO
Liv
Sun
Ver
her
ایگ
بوم
رھے
مخز
چام
کتھ
کچا
##شیائی
##غاسکر
1835
Budd
Time
most
tmak
اسان
الپس
اورخ
تنگی
تیلی
دربھ
رحمن
سبزہ
طعام
عزرا
غزنہ
فیکس
لاوڈ
مونو
میکر
ورتھ
پوتی
پوٹر
پیکج
ڈزنی
ڈکسن
ڈیٹن
کتوں
گرتے
گرچہ
گورا
##ashmir
##usalem
right
اشعاع
اقلید
النبو
بالٹک
بصورت
بمشکل
بوڑھا
خرگوش
رومین
فارمی
فراست
فروشی
لاشوں
ماقبل
معرفۃ
منعکس
پریسٹ
چنائی
کلئیر
گرایا
یاترا
George
Middle
آکسائڈ
اسٹائل
امکانی
امیروں
تالپور
جانباز
خرافات
سوتیلی
لاشاری
مستعار
مفاہمت
منوایا
وزرائے
کارآمد
ہزاروی
Western
التاریخ
الحقیقت
انگلیاں
اوورنیے
برآمدات
بولیویا
تشریحات
تصویروں
روایتیں
عیسائیت
فلسفیوں
گورنروں
##stitution
سائنسدان
مرادآباد
استعمالات
##79
##ji
##جع
##ہل
##ads
##app
##rus
##تمش
##فیا
##واء
##کال
##گہم
Ra
Vi
دد
نه
##ophy
##reen
##ript
##yles
##ارنے
##شیوں
##ھراں
##یکچر
462
487
548
559
576
582
608
623
635
644
672
869
930
999
Bay
Heb
inc
الھ
اڈو
تلی
زام
سبح
شوب
قبض
لوس
موع
مچا
ہیت
##ering
##istry
##زستان
1847
1852
1874
DAWN
This
ازہر
الیہ
انھی
بسیں
بڑوں
بھوس
بھکش
بیلٹ
حجری
حفصہ
حلیۃ
رقوم
سدھی
شیکس
عنبر
لیتھ
مونس
مکھن
مہتا
کولہ
ہونگ
یمین
##alysis
nucle
organ
ارواح
الغرض
انشور
بہلول
جانوں
حسنین
دایاں
روہیل
سائمن
سالمہ
سواتی
سونپا
سیکری
سیہون
طبرسی
عابدی
مہمند
میثاق
کررہا
ہارپر
##agement
Quebec
ابھرتی
احتشام
الغفور
انوکھی
اگروال
ایچیسن
بینکاک
خیرباد
دراوڑی
سبزیاں
سونامی
شاستری
صیہونی
محرومی
مرکزیت
مگرمچھ
وتدریس
کرائیں
کرادیا
کندیاں
کوانٹم
کولکتہ
کھیلنا
ہووارڈ
یاسمین
Ukraine
لنکاسٹر
کینکاکی
الانبیاء
جڑانوالہ
ہسپتالوں
عبدالمطلب
##AA
##oz
##آم
##مم
##omy
##ova
##ؤنگ
##ارض
##اغی
##تاش
##روپ
##عور
##منت
##وتہ
##یدو
el
##خامن
##فنسن
##ڈیمی
474
502
515
517
522
541
572
595
633
652
676
730
777
819
970
Ess
Iss
ear
enc
آذر
زنگ
سبر
سیپ
صدق
فان
فوک
ہاؤ
##ffect
##حکومت
##دسمبر
##ستمبر
1258
1809
1817
1832
1855
curr
lang
ارنا
اماں
تربت
تھوک
خارش
خروش
دیور
سلفر
سمیع
سننا
سیون
صیغہ
قوال
مالك
مراس
مستی
مکاش
میاو
نفسی
چیری
کولڈ
گریس
گڑھا
##ential
years
آسودہ
امواج
برازی
تراشی
تفاوت
جگہیں
سراپا
سیرین
شلوار
فرحان
فریکو
فوٹون
موریت
وارسا
چاہئے
گورڈو
##eration
##itation
Archiv
الغفار
المحدث
جانشیں
حقیقتا
خدوخال
سرنگوں
سمجھیں
پھیلتی
کھوپڑی
گیندوں
یسعیاہ
البلدان
القابات
انشورنس
فارمولا
فوجداری
لوازمات
ماسوائے
مہربانی
ٹورانٹو
چیمپیئن
گردانتے
یونیورس
national
العالمین
مصروفیات
اسرائیلیوں
یوگوسلاویہ
##86
##bi
##cc
##oe
##ye
##غے
٤
##med
##umm
##داں
##زیت
##قاء
##قوی
##ٹنر
##یاو
PA
تأ
نض
وڑ
ٹل
##etic
##indi
##oday
##work
##رتھی
##زروی
##فریہ
##يرية
##ینگے
472
537
538
568
606
645
674
675
849
ارف
امہ
بئر
بكر
ترے
توم
جاز
جگا
عقب
مآب
ماگ
مرص
ورڈ
وصل
گزی
گٹھ
##اوانی
##جماعت
##پنجاب
back
ادھم
البا
املا
اوگل
بیچا
تکون
جہتی
جہیز
حجرہ
خمسہ
دیدی
رنگا
سیدو
سیکس
شاہو
عشاء
علام
عمیق
مارن
مبشر
معتر
مقلد
مکرر
وحشت
ویرا
پیاز
پیلا
کذاب
کوٹی
کھاد
گھبر
ہمزہ
یوآن
##لاسلام
Châte
Jhang
آدتیہ
الشام
باربا
بروکس
بیونس
تنقیح
جارہی
خوردہ
دھواں
سبھاش
سویرے
سٹائل
سکردو
شمعون
طاہرہ
عزوجل
فریدہ
قطبین
لیموں
مدائن
منطقہ
منگنی
منہاس
میلوں
واللہ
ٹرائی
ٹیمپل
پروفی
پستان
پشتوں
پیارا
پیوند
پیٹرک
کاایک
کالون
کرگیا
کلینک
کلینی
کیوری
ہریرہ
یوناہ
ابتداء
اسٹیفن
اشارات
الائمہ
تبادلے
تراکیب
حکایات
خلیاتی
ناگوار
پلندری
چھوڑیں
کیپیٹل
الدمشقی
ایپانوس
مڈغاسکر
نیوپورٹ
ڈائریکٹ
سیاستدان
پیداواری
سہارنپوری
department
کمیونیکیشن
Development
انڈیپینڈینس
##ck
##آئ
##عق
##مح
##ھہ
؎
##آور
##بیک
##ظام
##ماج
##میس
##میڈ
##پاٹ
##ھرہ
Vo
اك
قض
##gypt
##onde
##رفان
##صابی
##عباس
##مداد
##وادث
##وناس
##کھان
##ہیات
431
514
558
565
569
571
588
657
685
691
722
735
826
Ash
Mur
red
see
tem
اله
بیم
تاز
جوی
ذرے
سلج
شمر
شوخ
فیا
مسخ
معن
موح
وکی
ٹرا
گرس
##ought
##انہیں
##جنوری
##طبقات
##عیسوی
##مسٹیڈ
1821
آنرز
الجھ
اورہ
براء
بقرہ
تعری
جالب
جنکو
جھون
درشن
درپے
روتے
رویا
ریکی
سبقت
سرکٹ
سیفی
شائر
صراط
عتاب
عروض
غدیر
فتوے
لابن
مواخ
مکین
نسلا
نونہ
وشال
چنڈی
کلرک
کمتر
##ources
آسامی
اغراض
اکتفا
اہداف
تخفیف
ترانے
حنظلہ
سنہرے
فینڈر
لاہوت
ورکنگ
وٹامن
پختگی
کوئین
کیسٹر
ہاجرہ
ہخامن
یادوں
##ندوستان
Colomb
اختلاط
الفطرت
بالاجی
بوٹیوں
بہائیت
سکھایا
لینگڈن
مشینوں
موئانگ
نوابوں
ورکشاپ
وینونا
پہنچنا
کاپیاں
کلہوڑا
کھینچا
گلبرگہ
ہمبولٹ
ہنومان
اداکارا
الواقدی
تعریفیں
جینیاتی
علامتیں
کرسٹوفر
گریناڈا
گولکنڈہ
##liography
سلجوقیوں
طبیعیاتی
راجپوتانہ
##76
##زک
##aka
##aza
##ows
##ؤوں
##سیف
##شنا
##طلہ
##ماک
##نوم
##نہی
##ولد
##وکر
##وکل
##يار
##ياں
##چنگ
##یکھ
Pu
رٹ
لد
##rich
##yria
##ائزر
##ائمر
##ارنی
##اشمی
##اوتی
##باسی
##ذکرہ
##سکول
##سیمہ
##فارم
##فیئر
##ونیو
##وپتی
##پیوا
##گنان
511
521
539
547
573
619
624
636
725
761
814
833
838
Arm
Str
Tor
ass
آرک
ارش
ایب
بوک
سوک
متھ
مرس
ننگ
پنت
چلن
کٹا
کچے
کھج
گوٹ
##ناطیس
##ٹریمی
##کتگین
1403
1838
Swed
more
phot
ابیض
اترا
الثق
الٹا
بغور
تکلم
جھوک
حصین
خلیق
خیمے
راول
رباط
رسال
سنیل
عقاب
قصوں
لامب
لیوس
لیڈز
مشعل
ملیح
مکرم
نائف
نقطے
ننگے
وردی
ولیج
پيدا
پھلی
چسپی
چنوں
چونے
چیچہ
چیکہ
ڈریک
کروم
کوچہ
ہلچل
ہنوز
##ration
##سٹریشن
Bible
آئینے
احزاب
الأول
الصلا
القیس
بکھری
تابعی
توپیں
خانگی
دبانے
دلاور
دوڑیں
راحیل
رانوں
سندھو
عزائم
عشروں
غاروں
قرابت
لادین
محنتی
مناصب
منحنی
ناموس
نعتیں
نکاسی
پرزور
پرسنل
چھتری
کالجز
کچلنے
کیلئے
گذرتا
گرداس
گزارش
ہاربر
Church
object
آرکائی
التراث
الذہبی
الشریف
انگیزی
بامیان
باکسنگ
بربادی
بھوسلے
ترکیبی
تھامسن
جلالین
سانتیا
صوفیوں
طبقاتی
فارمیٹ
مولائی
نیروبی
ویڈیوز
ٹانگیں
پیسیفک
پیٹرسن
چراگاہ
Ancient
politic
الاشاعت
الاماکی
اکیڈیمی
ایوانوں
ایڈوانس
دستکاری
سدھارتھ
محصولات
پرمشتمل
ہیسٹنگز
Business
بیلٹریمی
فخرالدین
فرینکفرٹ
والنہایہ
پورٹلینڈ
##sa
##sw
##خس
##لى
##him
##rim
##اطت
##اکب
##طاط
##لوگ
##لیر
##وزے
##وپر
##کاٹ
شت
##ches
##illa
##last
##الان
##بریج
##بینی
##درشن
##سیلی
##لطان
##مقام
##نیئر
496
501
535
553
581
607
612
616
658
756
817
965
990
Are
Bos
end
احس
ادو
اوچ
حقہ
زاہ
عصا
فیہ
قرن
پذی
کپل
ہیگ
##atest
1789
1824
1851
Gard
Prot
Tomb
Work
film
آمدن
آپسی
احیا
افقی
اورت
بالم
بھیک
تلمی
جامد
جیمس
حرکی
دریں
رگھو
سودی
سیری
شکوک
فرنگ
لڑیں
ماؤں
موشن
مکاؤ
میسا
ناگا
ناگو
ورزش
وقوف
ٹیلہ
ڈرہم
کامن
کھیر
کیڈٹ
گونگ
گھیب
##جاتاہے
Child
Power
Roche
botul
relig
space
under
ارمان
البشر
المقت
اوروہ
بدلتا
حمیدہ
رضاعی
سجاوٹ
سقراط
سپیکر
عاجزی
فیکٹر
قذافی
مسمار
مصحفی
معدنی
ناخوش
وقتوں
چھپتے
کینال
گذرتی
گووند
یاجوج
Thomas
single
الاعظم
الخیری
اندلسی
انوکھا
اکاؤنٹ
بٹالین
تاحیات
توقعات
جادوئی
سپینسر
عالموں
فرماتی
فلاسفہ
لگائیں
پشاوری
کوالیف
ہیلیئم
یکجہتی
America
Kingdom
edition
اوکاڑوی
بلگرامی
بھوپالی
خانوادہ
درویشوں
روچیسٹر
شخصیتوں
فراوانی
مدافعتی
بارباڈوس
براعظموں
شہنشاہوں
مستشرقین
پروگرامز
کانگریسی
کریمیائی
دیومالائی
کرغیزستان
ایڈمنسٹریشن
##90
##OS
##yl
##عۃ
##وۃ
##يه
##ayy
##ona
##الف
##بہت
##سری
##طرہ
##طیط
##لبی
##ٹاپ
##پلر
NH
طي
لر
ٹم
پم
چب
ھی
##ader
##chan
##ides
##iger
##info
##irth
##ائنگ
##اندے
##شریف
##منڈو
##يمان
##گزار
477
482
492
513
528
563
564
574
601
626
629
695
702
757
775
790
823
836
844
845
Cha
Ker
reg
اوڈ
ثلث
داب
شاء
شرٹ
شوا
شوٹ
عدت
لخت
لیب
مرز
نجر
پاخ
گلد
ہاف
##itage
##کھارٹ
##یکسٹر
1783
Post
prot
آسٹن
انجی
اورج
ایڈا
برفی
بقاء
بوتل
جاذب
حلول
رپلی
رینگ
شفاء
صفیہ
طبلہ
قزلب
قصاص
لزبن
لیگی
مؤسس
مرصع
ننھے
ڈاون
کارا
کاٹی
کردو
ییلو
##eville
##ولپمنٹ
Aubin
آشکار
الاصف
ایلوم
بدلتی
بوئنگ
بکھرے
ثلاثہ
حوادث
دوامی
دھونا
ضیافت
لافیت
لوتھر
مرہون
مشاور
منیجر
میتھی
میسوپ
نوشتہ
ٹیپیک
پاردو
پسرور
چھونے
کیلاش
کیمڈن
گھونس
##derabad
اردوئے
الراضی
الطالب
العباد
القضاۃ
انبالہ
باسلام
بھتیجا
جھنگوی
حاکمیت
دکھاتے
زانوئے
زلزلوں
لافانی
مستطیل
مشاعرہ
معصومہ
منموہن
ناراضی
نعمتوں
پبلشرز
پبلشنگ
پروپیگ
پینٹنگ
چھپانے
اسکوائر
الاسرار
المصطفی
انتھونی
بروجردی
تصوراتی
سبکتگین
سٹیفنسن
عالیشان
فاؤنٹین
مارگریٹ
اقتباسات
ایلکھارٹ
راجدھانی
میکانیکی
##44
##ED
##گٹ
##gar
##haz
##vey
##web
##آرک
##الٹ
##بحر
##فاع
##نات
##وزا
##کلف
##ہنچ
Fe
Gh
Ir
ca
ul
آں
وب
ژو
کى
##hird
##ائفل
##جئیم
##حدود
##وداد
##ورڈن
##وکول
##کیلا
030
504
556
562
583
599
628
692
705
719
736
745
787
804
PDF
Way
day
آدھ
آرگ
بعل
بلب
بہم
سمن
ضمی
لاد
ولے
گنو
##اتفری
##رمونٹ
##وشمار
1526
1748
Beau
Test
link
they
will
ایبر
برسی
بقید
بلتی
بنگش
خراش
ددئر
دھنی
رتنا
زیبا
سواد
سکین
طفرہ
عمال
قطعا
لاوی
لیور
مروہ
موور
ناگہ
واسو
وانگ
وانی
چونا
کاما
کامپ
کروس
کوکا
گاہک
گوار
ہائر
یابی
Frank
اسکیل
اڈئیر
تمیمی
جلالی
جھٹکے
دریشک
دلشاد
دہانی
راتیں
ستائش
ستارا
سلنڈر
سیاہی
شاستر
ضلعوں
عظیمی
لاٹھی
لوزیر
مرتبے
مرتکز
معترض
نعتوں
نوافل
وساطت
ٹھاٹھ
پیئرس
چپیوا
کاتال
کلامی
کنانہ
گیاہے
ہدایہ
اربعین
المرجب
المنذر
دہرایا
ریحانہ
زہریلے
غزلیات
مباحثے
محرکات
ٹھکانے
پردادا
پریمئر
کرائسٹ
کینیڈی
گواہوں
گھومتا
ہندووں
##herlands
Edition
استعارہ
باسفورس
دیوالیہ
سلواڈور
لودھراں
ناموران
ویٹلینڈ
کروائیں
ہندسیات
یروشلیم
یوکرائن
استعماری
اسمبلیوں
افراتفری
رضاکاروں
رگھوناتھ
قربانیاں
پولیٹیکل
دارالسلام
اعدادوشمار
پومیرانیان
##gu
##és
##عۂ
##كن
##كہ
##هل
##bon
##اطع
##بیڈ
##سیت
##کچر
##یتر
Id
مئ
##erst
##ques
##rest
##اتیں
##اخان
##ارفی
##اگست
##بروک
##خرین
##سترا
##مپٹن
##واؤں
##ونیم
##ویلد
##ڈیئر
443
561
617
##ا
##ی
##ر
##و
##ک
##م
##ن
##ہ
##ے
##ل
##س
##ت
##ب
##د
##ں
##ع
##ج
##پ
##ھ
##۔
##ق
##ش
##ف
##گ
##ح
##ئ
##ٹ
##،
##ز
##خ
##ص
##آ
##چ
##ط
##1
##ڈ
##a
##0
##e
##2
##i
##n
##9
##o
##t
##ض
##r
##)
##(
##ڑ
##ؤ
##غ
##3
##s
##ظ
##-
##5
##8
##ء
##4
##7
##6
##l
##.
##ث
##ذ
##"
##u
##h
##:
##,
##d
##c
##m
##ِ
##p
##g
##y
##f
##ي
##ُ
##/
##w
##C
##b
##S
##َ
##‘
##ٰ
##A
##v
##’
##ه
##k
##M
##ً
##P
##T
##B
##I
##D
##L
##ّ
##R
##ۃ
##N
##'
##ك
##H
##E
##“
##G
##ژ
##ْ
##؛
##”
##ۂ
##F
##O
##z
##J
##ى
##x
##%
##–
##W
##U
##]
##K
##[
##j
##ة
##=
##_
##أ
##V
##؟
##ـ
##q
##ؒ
##;
##!
##é
##Y
##|
##&
##ؔ
##إ
##Q
##è
##?
##Z
##X
##>
##<
##١
##۱
##+
##—
##ؑ
##*
###
##ؓ
##»
##ٴ
##ٍ
##ٔ
##٫
##«
##ा
##؍
##۲
##٢
##ۡ
##ٌ
##á
##٪
##٩
##٠
##۰
##र
##۹
##٣
##ٖ
##۴
##्
##â
##۳
##°
##ā
##É
##ؐ
##ü
##ٗ
##٦
##í
##ó
##٭
##۸
##ô
##٤
##٧
##ö
##٥
##ि
##۵
##۷
##٨
##۶
##ी
##क
##י
##ۓ
##न
##त
##म
##$
##}
##ٓ
##′
##ı
##ו
##﴾
##ה
##स
##﴿
##а
##٬
##ç
##ä
##े
##द
##{
##ī
##о
##ר
##व
##ल
##ह
##प
##ं
##и
##α
##е
##ë
##य
##ê
##ּ
##؎
##ो
##ਾ
##·
##ל
##ۖ
##ō
##ο
##ב
##ָ
##н
##р
##ग
##ज
##श
##с
##מ
##æ
##ə
##ש
##ת
##ु
##−
##א
##া
##ਰ
##à
##₹
##т
##ڪ
##•
##×
##ñ
##ַ
##ã
##в
##ς
##ν
##ְ
##ū
##ੀ
##`
##å
##î
##ş
##ρ
##л
##ע
##்
##ι
##ִ
##ד
##ब
##@
##٘
##\
##ú
##š
##ε
##ˈ
##λ
##্
##~
##¿
##к
##ם
##נ
##़
##ł
##अ
##ਸ
##ֹ
##ट
##ਿ
##τ
##π
##ڌ
##܂
##भ
##র
##ਲ
##ğ
##ן
##ؕ
##ۤ
##ί
##ন
##ਕ
##û
##ू
##ਦ
##ੁ
##İ
##д
##ি
##^
##Ö
##й
##כ
##ण
##ਮ
##§
##σ
##ь
##ֵ
##ח
##ۚ
##ć
##ி
##←
##у
##ק
